{"version":"1.0","truncation":null,"padding":null,"added_tokens":[{"id":0,"special":true,"content":"[PAD]","single_word":false,"lstrip":false,"rstrip":false,"normalized":false},{"id":1,"special":true,"content":"[UNK]","single_word":false,"lstrip":false,"rstrip":false,"normalized":false},{"id":2,"special":true,"content":"[CLS]","single_word":false,"lstrip":false,"rstrip":false,"normalized":false},{"id":3,"special":true,"content":"[SEP]","single_word":false,"lstrip":false,"rstrip":false,"normalized":false},{"id":4,"special":true,"content":"[MASK]","single_word":false,"lstrip":false,"rstrip":false,"normalized":false}],"normalizer":null,"pre_tokenizer":{"type":"Whitespace"},"post_processor":null,"decoder":null,"model":{"unk_token":"[UNK]","continuing_subword_prefix":"##","max_input_chars_per_word":100,"vocab":{"[PAD]":0,"[UNK]":1,"[CLS]":2,"[SEP]":3,"[MASK]":4,"!":5,"\"":6,"#":7,"$":8,"%":9,"&":10,"'":11,"(":12,")":13,"*":14,"+":15,",":16,"-":17,".":18,"/":19,"0":20,"1":21,"2":22,"3":23,"4":24,"5":25,"6":26,"7":27,"8":28,"9":29,":":30,";":31,"<":32,"=":33,">":34,"?":35,"@":36,"A":37,"B":38,"C":39,"D":40,"E":41,"F":42,"G":43,"H":44,"I":45,"J":46,"K":47,"L":48,"M":49,"N":50,"O":51,"P":52,"Q":53,"R":54,"S":55,"T":56,"U":57,"V":58,"W":59,"X":60,"Y":61,"Z":62,"[":63,"\\":64,"]":65,"^":66,"_":67,"`":68,"a":69,"b":70,"c":71,"d":72,"e":73,"f":74,"g":75,"h":76,"i":77,"j":78,"k":79,"l":80,"m":81,"n":82,"o":83,"p":84,"q":85,"r":86,"s":87,"t":88,"u":89,"v":90,"w":91,"x":92,"y":93,"z":94,"{":95,"|":96,"}":97,"~":98,"£":99,"¥":100,"©":101,"®":102,"°":103,"±":104,"²":105,"º":106,"Á":107,"Ä":108,"Å":109,"Æ":110,"È":111,"É":112,"Ö":113,"Ø":114,"Ü":115,"ß":116,"à":117,"á":118,"â":119,"ä":120,"å":121,"æ":122,"ç":123,"è":124,"é":125,"ê":126,"ë":127,"í":128,"î":129,"ï":130,"ð":131,"ñ":132,"ò":133,"ó":134,"ô":135,"ö":136,"÷":137,"ø":138,"ü":139,"ý":140,"ā":141,"ą":142,"č":143,"Đ":144,"đ":145,"ę":146,"ł":147,"ń":148,"ŋ":149,"Ś":150,"Š":151,"š":152,"ž":153,"α":154,"Г":155,"К":156,"Н":157,"П":158,"Р":159,"а":160,"в":161,"г":162,"д":163,"е":164,"з":165,"и":166,"к":167,"л":168,"м":169,"н":170,"о":171,"п":172,"р":173,"с":174,"т":175,"у":176,"ц":177,"ш":178,"ы":179,"ь":180,"я":181,"ب":182,"ة":183,"د":184,"ر":185,"ي":186,"⁄":187,"€":188,"™":189,"↑":190,"→":191,"∑":192,"≠":193,"≤":194,"≥":195,"■":196,"□":197,"▶":198,"►":199,"◄":200,"●":201,"☆":202,"♥":203,"♦":204,"✓":205,"✔":206,"❤":207,"㈀":208,"㌀":209,"㐀":210,"㔀":211,"㘀":212,"㜀":213,"㠀":214,"㤀":215,"㨀":216,"䀀":217,"䈀":218,"䔀":219,"䘀":220,"䠀":221,"䬀":222,"䰀":223,"䴀":224,"伀":225,"刀":226,"匀":227,"卍":228,"卐":229,"吀":230,"太":231,"山":232,"愀":233,"戀":234,"挀":235,"搀":236,"攀":237,"昀":238,"最":239,"栀":240,"椀":241,"欀":242,"氀":243,"洀":244,"渀":245,"漀":246,"瀀":247,"爀":248,"猀":249,"琀":250,"甀":251,"礀":252,"行":253,"️":254,"🙂":255,"##l":256,"##i":257,"##m":258,"##a":259,"##s":260,"##k":261,"##e":262,"##n":263,"##o":264,"##t":265,"##r":266,"##O":267,"##T":268,"##B":269,"##A":270,"##L":271,"##G":272,"##F":273,"##v":274,"##d":275,"##c":276,"##y":277,"##p":278,"##g":279,"##j":280,"##æ":281,"##b":282,"##u":283,"##f":284,"##ø":285,"##w":286,"##N":287,"##E":288,"##S":289,"##V":290,"##R":291,"##K":292,"##Ø":293,"##Y":294,"##Å":295,"##å":296,"##h":297,"##x":298,"##!":299,"##D":300,"##H":301,"##I":302,"##U":303,"##2":304,"##4":305,"##9":306,"##P":307,"##J":308,"##3":309,"##7":310,"##1":311,"##~":312,"##M":313,"##?":314,"##.":315,"##8":316,"##z":317,"##6":318,"##5":319,"##0":320,"##W":321,"##X":322,"##é":323,"##C":324,"##䴀":325,"##匀":326,"##ä":327,"##,":328,"##É":329,"##;":330,"##ö":331,"##q":332,"##)":333,"##<":334,"##'":335,"##/":336,"##>":337,"##-":338,"##á":339,"##ž":340,"##\\":341,"##ŋ":342,"##\"":343,"##è":344,"##:":345,"##*":346,"##Æ":347,"##■":348,"##ß":349,"##ñ":350,"##栀":351,"##漀":352,"##洀":353,"##愀":354,"##猀":355,"##|":356,"##ł":357,"##Q":358,"##%":359,"##Z":360,"##_":361,"##(":362,"##^":363,"##{":364,"##]":365,"##行":366,"##山":367,"##ń":368,"##ë":369,"###":370,"##渀":371,"##搀":372,"##最":373,"##㠀":374,"##爀":375,"##椀":376,"##攀":377,"##戀":378,"##►":379,"##ô":380,"##ü":381,"##昀":382,"##㨀":383,"##í":384,"##ê":385,"##ó":386,"##°":387,"##đ":388,"##р":389,"##о":390,"##в":391,"##и":392,"##н":393,"##ц":394,"##я":395,"##м":396,"##}":397,"##=":398,"##у":399,"##т":400,"##е":401,"##ш":402,"##с":403,"##$":404,"##礀":405,"##氀":406,"##Á":407,"##â":408,"##琀":409,"##䀀":410,"##а":411,"##л":412,"##ь":413,"##™":414,"##[":415,"##ð":416,"##š":417,"##à":418,"##č":419,"##+":420,"##ā":421,"##Ü":422,"##к":423,"##©":424,"##ą":425,"##欀":426,"##È":427,"##ę":428,"##&":429,"##✔":430,"##ï":431,"##@":432,"##з":433,"##ы":434,"##甀":435,"##Đ":436,"##ç":437,"##Ä":438,"##ر":439,"##ي":440,"##د":441,"##ة":442,"##ý":443,"##瀀":444,"##д":445,"##☆":446,"##î":447,"##г":448,"##®":449,"##㌀":450,"##en":451,"##er":452,"##et":453,"##or":454,"##an":455,"##ar":456,"##in":457,"##el":458,"##il":459,"##st":460,"og":461,"##om":462,"##ed":463,"##eg":464,"for":465,"##ing":466,"##re":467,"##te":468,"##ig":469,"##al":470,"##ke":471,"##on":472,"##de":473,"til":474,"##le":475,"##tt":476,"##is":477,"det":478,"en":479,"##un":480,"##ra":481,"av":482,"##es":483,"er":484,"som":485,"##ik":486,"på":487,"##ol":488,"st":489,"##id":490,"##ene":491,"##ne":492,"med":493,"##ør":494,"##am":495,"##sk":496,"##at":497,"sk":498,"##ver":499,"at":500,"##ag":501,"##pp":502,"in":503,"de":504,"##as":505,"##it":506,"##ler":507,"##kt":508,"##kke":509,"var":510,"den":511,"##ad":512,"##nd":513,"om":514,"##and":515,"##ent":516,"##se":517,"har":518,"ut":519,"##ul":520,"##ste":521,"ikke":522,"##ning":523,"##år":524,"##iv":525,"##ro":526,"##ang":527,"han":528,"##kk":529,"##ær":530,"##li":531,"##ens":532,"##ur":533,"##ere":534,"##us":535,"##jon":536,"fra":537,"Det":538,"##lig":539,"##ett":540,"##je":541,"opp":542,"##ri":543,"et":544,"al":545,"##ot":546,"##ru":547,"gj":548,"##ak":549,"##ikk":550,"##tter":551,"##ende":552,"an":553,"##\"\"":554,"<<":555,"seg":556,"men":557,"vi":558,"##for":559,"##omm":560,"19":561,"kan":562,"no":563,"inn":564,"##ter":565,"##sen":566,">>":567,"##od":568,"##het":569,"##he":570,"##ks":571,"##ge":572,"sam":573,"be":574,"så":575,"vil":576,"##adde":577,"##der":578,"el":579,"##ap":580,"sp":581,"hadde":582,"jeg":583,"##elig":584,"##ist":585,"hv":586,"må":587,"over":588,"##att":589,"##av":590,"##enn":591,"##be":592,"si":593,"##ell":594,"##ort":595,"##ir":596,"##mm":597,"##ord":598,"##est":599,"ble":600,"##ss":601,"##ft":602,"bli":603,"hun":604,"##ann":605,"##isk":606,"ved":607,"##art":608,"##gen":609,"sl":610,"##ut":611,"##ok":612,"##øy":613,"##ert":614,"eller":615,"se":616,"der":617,"##så":618,"and":619,"##yn":620,"##ger":621,"##sl":622,"år":623,"##ud":624,"##rå":625,"##ling":626,"20":627,"skal":628,"re":629,"bar":630,"##ære":631,"##ov":632,"før":633,"du":634,"##unn":635,"##asjon":636,"##sp":637,"hel":638,"etter":639,"komm":640,"##ser":641,"##old":642,"##im":643,"the":644,"##yg":645,"##nder":646,"##ant":647,"##all":648,"##jø":649,"ar":650,"##..":651,"to":652,"kon":653,"Han":654,"##ikt":655,"også":656,"##yr":657,"tr":658,"##end":659,"##inn":660,"pro":661,"St":662,"##ff":663,"##ve":664,"##ker":665,"##os":666,"##itt":667,"##var":668,"kun":669,"##og":670,"##else":671,"Jeg":672,"##iske":673,"##beid":674,"sin":675,"00":676,"ny":677,"##und":678,"##um":679,"kl":680,"##net":681,"De":682,"mot":683,"##sm":684,"##jer":685,"##ion":686,"tid":687,"##eng":688,"--":689,"##nn":690,"##ic":691,"##em":692,"##rø":693,"##leg":694,"##akt":695,"under":696,"of":697,"være":698,"##øl":699,"18":700,"##eld":701,"samm":702,"##ast":703,"meg":704,"##ly":705,"##skap":706,"##ry":707,"min":708,"##ans":709,"kom":710,"##ab":711,"##ie":712,"få":713,"sa":714,"da":715,"##ers":716,"dette":717,"##elt":718,"##tte":719,"##øre":720,"##ier":721,"##ige":722,"##erd":723,"##gj":724,"pl":725,"or":726,"##ring":727,"bru":728,"##ød":729,"##vis":730,"kunne":731,"Men":732,"##ob":733,"andre":734,"bl":735,"dag":736,"##mer":737,"##ass":738,"##rem":739,"##ede":740,"##alt":741,"##ært":742,"ha":743,"stor":744,").":745,"##ket":746,"##ale":747,"##yl":748,"Den":749,"fort":750,"kv":751,"reg":752,"For":753,"##ange":754,"blir":755,"##ret":756,"10":757,"##elle":758,"noe":759,"skul":760,"le":761,"hen":762,"##del":763,"kj":764,"##ingen":765,"denne":766,"##lige":767,"##hold":768,"mer":769,"##tid":770,"##iser":771,"##ighet":772,"Nor":773,"enn":774,"##nes":775,"gr":776,"kr":777,"##ennom":778,"\"\"\"":779,"##res":780,"Vi":781,"alle":782,"ham":783,"##ess":784,"##ost":785,"En":786,"bet":787,"##let":788,"##per":789,"17":790,"god":791,"##ber":792,"her":793,"##ind":794,"##jel":795,"sel":796,"nå":797,"##red":798,"dem":799,"##pe":800,"##ch":801,"##na":802,"##ien":803,"beg":804,"##vik":805,"##set":806,"##kte":807,"man":808,"##ust":809,"ned":810,"##ken":811,"arbeid":812,"##ug":813,"når":814,"noen":815,"##ia":816,"##det":817,"del":818,"Hun":819,"##la":820,"##get":821,"skulle":822,"Og":823,"ve":824,"li":825,"gjennom":826,"##olit":827,"##kl":828,"bare":829,"##før":830,"##ellom":831,"\"\"\"\"":832,"lø":833,"##ske":834,"##den":835,"##utt":836,"hvor":837,"hver":838,"ta":839,"##land":840,"##ane":841,"##dag":842,"##ner":843,"vært":844,"15":845,"sy":846,"##mp":847,"mellom":848,"sm":849,"##iden":850,"##eder":851,"##ark":852,"##ull":853,"30":854,"Sk":855,"sier":856,"frem":857,".\"\"":858,"pr":859,"##ire":860,"##ningen":861,"tre":862,"land":863,"slik":864,"mange":865,"##ive":866,"sammen":867,"##ult":868,"##ninger":869,"##itet":870,"gang":871,"my":872,"##lere":873,"##if":874,"##amm":875,"rett":876,"##legg":877,"sv":878,"ly":879,"##opp":880,"ville":881,"ein":882,"##ev":883,"##ub":884,"##lem":885,"alt":886,"In":887,"##kket":888,"tilb":889,"fors":890,"Hv":891,"##stil":892,"##are":893,"##oll":894,"##op":895,"##els":896,">>.":897,"br":898,"##ip":899,"##00":900,"deg":901,"##ake":902,"nor":903,"lang":904,"hans":905,"##isse":906,"##enter":907,"henne":908,"##ek":909,"Al":910,"##ål":911,"12":912,"##olk":913,"##tes":914,"201":915,"##este":916,"##lag":917,"##elsen":918,"##ct":919,"##dre":920,"##gang":921,"bå":922,"fin":923,"##ten":924,"sø":925,"##yd":926,"##erne":927,"##rist":928,"bes":929,"uten":930,"første":931,"fram":932,"igj":933,"199":934,"føl":935,"gå":936,"lag":937,"##iktig":938,"##rev":939,"##ater":940,"end":941,"##ksjon":942,"høy":943,"går":944,"dei":945,"mil":946,"##....":947,"Dette":948,"bil":949,"##iet":950,"verd":951,"ser":952,"##bru":953,"inter":954,"un":955,"grunn":956,"11":957,"mor":958,"##tr":959,"nær":960,"##ster":961,"vir":962,"kommun":963,"##ansk":964,"##over":965,"##ings":966,"oss":967,"##jem":968,"igjen":969,"th":970,"form":971,"nok":972,"fikk":973,"Ar":974,"byg":975,"polit":976,"##rat":977,"by":978,"vel":979,"##rift":980,"##oner":981,"##pet":982,"##org":983,"beh":984,"la":985,"ans":986,"vis":987,"##ille":988,"##atte":989,"Jo":990,"##kker":991,"##arbeid":992,"##tak":993,"gjøre":994,"får":995,"far":996,"##inger":997,"kommer":998,"fr":999,"##ide":1000,"##like":1001,"beste":1002,"),":1003,"eg":1004,"##sten":1005,"16":1006,"tra":1007,"##ets":1008,"liv":1009,"ma":1010,"##du":1011,"##alen":1012,"ten":1013,"##form":1014,"gikk":1015,"##kon":1016,"##ation":1017,"hva":1018,"##som":1019,"##ard":1020,"##enger":1021,"like":1022,"sine":1023,"forsk":1024,"syn":1025,"ord":1026,"##jør":1027,"nye":1028,"all":1029,"samme":1030,"##ift":1031,"##slag":1032,"store":1033,"13":1034,"200":1035,"##alg":1036,"##kkje":1037,"ei":1038,"selv":1039,"##rett":1040,"sn":1041,"##ode":1042,"leg":1043,"både":1044,"##mme":1045,"flere":1046,"##pl":1047,"##ener":1048,"##elser":1049,"stør":1050,"##elige":1051,"Da":1052,"fe":1053,"##nen":1054,"##ekt":1055,"##mmer":1056,"tilbake":1057,"kjø":1058,"##elen":1059,"forb":1060,"##atur":1061,"##ce":1062,"##rik":1063,"##nings":1064,"##ine":1065,"##led":1066,"godt":1067,"##isjon":1068,"hand":1069,"##rav":1070,"##ennes":1071,"##pt":1072,"##ER":1073,"##ial":1074,"hele":1075,"seiv":1076,"14":1077,"Tr":1078,"fl":1079,"ikkje":1080,"bed":1081,"##app":1082,"mø":1083,"##>>":1084,"##eter":1085,"siden":1086,"##pen":1087,"##ond":1088,"hå":1089,"sitt":1090,"disse":1091,"lig":1092,"sak":1093,"Her":1094,"##ole":1095,"ver":1096,"mul":1097,"SS":1098,"sj":1099,"mennes":1100,"##vel":1101,"par":1102,"##di":1103,"ingen":1104,"res":1105,"pros":1106,"helt":1107,"red":1108,"stat":1109,"Norge":1110,"Mar":1111,"##ygg":1112,"##øk":1113,"ste":1114,"##lev":1115,"vid":1116,"litt":1117,"sett":1118,"barn":1119,"##ordan":1120,"##sb":1121,"##hus":1122,"ty":1123,"##undt":1124,"The":1125,"På":1126,"##stad":1127,"ber":1128,"frå":1129,"21":1130,"bak":1131,"##ill":1132,"##stand":1133,"\"\"":1134,"hus":1135,"Se":1136,"he":1137,"hav":1138,"##ente":1139,"##rupp":1140,"tro":1141,"##ow":1142,"##EN":1143,"An":1144,"pers":1145,"vår":1146,"annet":1147,"eks":1148,"##ment":1149,"mye":1150,"##oc":1151,"##vend":1152,"##kj":1153,"##nad":1154,"fly":1155,"mann":1156,"##rer":1157,"##kken":1158,"blitt":1159,"##sf":1160,"##kel":1161,"##unkt":1162,"##inner":1163,"Der":1164,"##ytt":1165,"##ister":1166,"viktig":1167,"forhold":1168,"dø":1169,"##les":1170,"is":1171,"kont":1172,"##aa":1173,"##olen":1174,"måtte":1175,"##mid":1176,"##ite":1177,"##sker":1178,"gl":1179,"øn":1180,"##jene":1181,"##olde":1182,",>>":1183,"##ars":1184,"##ram":1185,"Ch":1186,"##ikker":1187,"svar":1188,"rundt":1189,"##ette":1190,"led":1191,"Du":1192,"ek":1193,"##fter":1194,"sig":1195,"Så":1196,"##ym":1197,"mens":1198,"##kes":1199,"per":1200,"##olog":1201,"spør":1202,"El":1203,"tok":1204,"##~~":1205,"lov":1206,"##ald":1207,"25":1208,"ev":1209,"hjel":1210,"ind":1211,"##ain":1212,"##eb":1213,"##ande":1214,"kn":1215,"##amil":1216,"Joh":1217,"begyn":1218,"kor":1219,"lu":1220,"##raft":1221,"##sv":1222,"##heten":1223,"22":1224,"Til":1225,"siste":1226,"##lingen":1227,"##ott":1228,"##iten":1229,"utvik":1230,"198":1231,"##stå":1232,"inne":1233,"lå":1234,"##jell":1235,"##rakt":1236,"jo":1237,"##par":1238,"ad":1239,"##ha":1240,"##ong":1241,"##etter":1242,"##stre":1243,"##ank":1244,"##ian":1245,"##stem":1246,"dom":1247,"me":1248,"23":1249,"Ol":1250,"##sel":1251,"##aler":1252,"##anske":1253,"##ges":1254,"mål":1255,"on":1256,"##ise":1257,"##sd":1258,"##ys":1259,"##istor":1260,"##ac":1261,"##gr":1262,"##obb":1263,"plan":1264,"tidlig":1265,"gi":1266,"##gå":1267,"hennes":1268,"##eller":1269,"folk":1270,"##ib":1271,"##me":1272,"##eren":1273,"##orde":1274,"##men":1275,"##ate":1276,"##sjon":1277,"sted":1278,"##føl":1279,"000":1280,"full":1281,"##mt":1282,"eit":1283,"##satt":1284,"gjør":1285,"hos":1286,"vet":1287,"##elder":1288,"te":1289,"##lø":1290,"styr":1291,"##nt":1292,"##riv":1293,"hvordan":1294,"akt":1295,"Når":1296,"mid":1297,"##anis":1298,"bort":1299,"##ei":1300,"komme":1301,"fått":1302,"Osl":1303,"nett":1304,"øy":1305,"fyl":1306,"mest":1307,"##iller":1308,"annen":1309,"fast":1310,"hold":1311,"...":1312,"##pr":1313,"##au":1314,"##asjonen":1315,"##off":1316,"50":1317,"##sn":1318,"tilf":1319,"197":1320,"sna":1321,"##ikken":1322,"Br":1323,"Ber":1324,"##rag":1325,"##ith":1326,"##pro":1327,"##iver":1328,"##ærlig":1329,"##vil":1330,"##jekt":1331,"hal":1332,"sen":1333,"vå":1334,"##oved":1335,"##enes":1336,"gam":1337,"tek":1338,"##anse":1339,"skj":1340,"spes":1341,"fordi":1342,"com":1343,"fle":1344,"##mann":1345,"##esten":1346,"Oslo":1347,"person":1348,"##syn":1349,"hvis":1350,"##asser":1351,"samt":1352,"gir":1353,"##ultur":1354,"utt":1355,"##olig":1356,"står":1357,"ant":1358,"Sp":1359,"sit":1360,"Er":1361,"part":1362,"Har":1363,"Re":1364,"hør":1365,"su":1366,"##her":1367,"lik":1368,"produ":1369,"org":1370,"##atter":1371,"##far":1372,"##ins":1373,"##dd":1374,"##uler":1375,"##ous":1376,"##ven":1377,"##hand":1378,"##skje":1379,"kap":1380,"Tor":1381,"##dri":1382,"##fl":1383,"gjort":1384,"##reg":1385,"hø":1386,"gjelder":1387,"side":1388,"##ont":1389,"ster":1390,"##usjon":1391,"åp":1392,"Nå":1393,"##min":1394,"##enge":1395,"Etter":1396,"##sdag":1397,"##agt":1398,"bør":1399,"Med":1400,"gra":1401,"194":1402,"nr":1403,"kanskje":1404,"Hva":1405,"natur":1406,"bruk":1407,"egen":1408,"satt":1409,"Om":1410,"fol":1411,"viser":1412,"##sj":1413,"slutt":1414,"gamle":1415,"nød":1416,"##ele":1417,"##berg":1418,"famil":1419,"##alte":1420,"områ":1421,"bor":1422,"##ons":1423,"int":1424,"dy":1425,"dere":1426,"off":1427,">>,":1428,"klar":1429,"ofte":1430,"Ut":1431,"af":1432,"##unnet":1433,"Fr":1434,"Ved":1435,"##iner":1436,"##gjør":1437,"rå":1438,"##lik":1439,"aldri":1440,"lok":1441,"tatt":1442,"##inne":1443,"196":1444,"##of":1445,"##allet":1446,"##ativ":1447,"større":1448,"##vir":1449,"Et":1450,"mindre":1451,"derfor":1452,"stø":1453,"##entlig":1454,"prob":1455,"mulig":1456,"unn":1457,"##sy":1458,"##........":1459,"Th":1460,"##ask":1461,"##heim":1462,"langt":1463,"tar":1464,"##ue":1465,"##ksom":1466,"##rig":1467,"##skapet":1468,"ting":1469,"des":1470,"vansk":1471,"##heng":1472,"spørsm":1473,"vann":1474,"van":1475,"##semp":1476,"Gud":1477,"##ilt":1478,"først":1479,"videre":1480,"Reg":1481,"pres":1482,"nytt":1483,"sjø":1484,"gjorde":1485,"ho":1486,"##enner":1487,"betyd":1488,"##ført":1489,"plass":1490,"##igheter":1491,"40":1492,"##ild":1493,"##des":1494,"##entr":1495,"pre":1496,"tillegg":1497,"24":1498,"with":1499,"##svar":1500,"Sam":1501,"mod":1502,"##ies":1503,"##vet":1504,"##dal":1505,"små":1506,"Nord":1507,"##lekt":1508,"##age":1509,"mener":1510,"hånd":1511,"rom":1512,"##raf":1513,"05":1514,"rel":1515,"##ærer":1516,"norske":1517,"##komm":1518,"##kelig":1519,"innen":1520,"?.":1521,"Am":1522,"mat":1523,"nord":1524,"##erer":1525,"finne":1526,"Le":1527,"##oen":1528,"##ina":1529,"##amp":1530,"deres":1531,"alltid":1532,"hoved":1533,"jord":1534,"##ktor":1535,"##konom":1536,"lett":1537,"gode":1538,"##entet":1539,"##eldig":1540,"blant":1541,"bedre":1542,"##hol":1543,"tim":1544,"##ore":1545,"##veg":1546,"hvil":1547,"##asjoner":1548,"heller":1549,"45":1550,"##dom":1551,"prø":1552,"ulike":1553,"##kning":1554,"##gre":1555,"##assen":1556,"aller":1557,"##ider":1558,"##rykk":1559,"##ade":1560,"##jord":1561,"gjen":1562,"valg":1563,"##va":1564,"##pres":1565,"stra":1566,"##kter":1567,"03":1568,"gre":1569,"ung":1570,"fot":1571,"##akk":1572,"tidligere":1573,"gener":1574,"##råd":1575,"histor":1576,"##ike":1577,"##int":1578,"##inga":1579,"##styr":1580,"ligger":1581,"Ja":1582,"Krist":1583,"##alitet":1584,"enkel":1585,"stud":1586,"##heter":1587,"måte":1588,"##lene":1589,"##med":1590,"##føre":1591,"##aren":1592,"bok":1593,"##stit":1594,"eksemp":1595,"And":1596,"veg":1597,"##sø":1598,"##ringer":1599,"##ppen":1600,"##okk":1601,"##gende":1602,"bra":1603,"kal":1604,"##br":1605,"##onym":1606,"mark":1607,"nærm":1608,"##midler":1609,"delt":1610,"hatt":1611,"##ensjon":1612,"tror":1613,"fag":1614,"liten":1615,"sos":1616,"tur":1617,"##ipp":1618,"##bar":1619,"##avn":1620,"hvert":1621,"verden":1622,"fil":1623,"##uro":1624,"##verk":1625,"grupp":1626,"fakt":1627,"sik":1628,"##ansen":1629,"skap":1630,"mennesker":1631,"Ro":1632,"Som":1633,"fem":1634,"kultur":1635,"##vær":1636,"##isen":1637,"vart":1638,"##yld":1639,"##stilling":1640,"are":1641,"##odet":1642,"##ator":1643,"##OR":1644,"##under":1645,"anonym":1646,"forskjel":1647,"##son":1648,"##da":1649,"str":1650,"##ester":1651,"kraft":1652,"##io":1653,"##sted":1654,"##aker":1655,"##innes":1656,"fri":1657,"holde":1658,"kar":1659,"##AR":1660,"Kar":1661,"##kv":1662,"##asse":1663,"død":1664,"vin":1665,"##ile":1666,"##sket":1667,"##spl":1668,"##tidig":1669,"35":1670,"ca":1671,"##ity":1672,"spesi":1673,"ret":1674,"inv":1675,"##river":1676,".)":1677,"din":1678,"dire":1679,"##ga":1680,"##use":1681,"kroner":1682,"tiltak":1683,"##agen":1684,"##iter":1685,"##andre":1686,"##rim":1687,"best":1688,"ansvar":1689,"##mark":1690,"##ay":1691,"##part":1692,"as":1693,"hje":1694,"kre":1695,"##bl":1696,"##bo":1697,"les":1698,"##gt":1699,"##jen":1700,"##anger":1701,"fun":1702,"kort":1703,"##bet":1704,"stort":1705,"hjem":1706,"##iss":1707,"samf":1708,"besk":1709,"art":1710,"domain":1711,"felle":1712,"nev":1713,"forv":1714,"195":1715,"nødvend":1716,"fre":1717,"##af":1718,"##igur":1719,"stad":1720,"##øren":1721,"##agn":1722,"anonymous":1723,"##sfor":1724,"##rene":1725,"skjø":1726,"sol":1727,"##ilte":1728,"spur":1729,"dat":1730,"jobb":1731,"##urder":1732,"lite":1733,"Hvor":1734,"jul":1735,"##vor":1736,"##stru":1737,"##udd":1738,"Be":1739,"Pro":1740,"kir":1741,"Av":1742,"ferd":1743,"op":1744,"##ma":1745,"Denne":1746,"kveld":1747,"Gr":1748,"eng":1749,"gamm":1750,"##IN":1751,"mus":1752,"##tre":1753,"##jef":1754,"##spro":1755,"##spunkt":1756,"##ustri":1757,"behand":1758,"Ste":1759,"fant":1760,"##by":1761,"##vert":1762,"løs":1763,"svært":1764,"##one":1765,"norsk":1766,"prosent":1767,"elev":1768,"lenge":1769,"mang":1770,"wh":1771,"##ått":1772,"##atet":1773,"##ikket":1774,"sikker":1775,"##rive":1776,"meget":1777,"##sh":1778,"##tal":1779,"##AN":1780,"##istr":1781,"##ffe":1782,"##parte":1783,"##iste":1784,"##egn":1785,"sto":1786,"that":1787,"behov":1788,"senere":1789,"organis":1790,":.":1791,"fød":1792,"##ren":1793,"##ferd":1794,"##midlertid":1795,"mån":1796,"##ålet":1797,"ønsker":1798,"hjelp":1799,"halv":1800,"31":1801,"tjene":1802,"forslag":1803,"Norsk":1804,"##partement":1805,"ett":1806,"skole":1807,"##klar":1808,"forsø":1809,"holdt":1810,"bid":1811,"rekke":1812,"##dde":1813,"vanskelig":1814,"##sett":1815,"##kur":1816,"omf":1817,"##ford":1818,"bef":1819,"Inn":1820,"slike":1821,"ute":1822,"##ensen":1823,"##troll":1824,"situ":1825,"bas":1826,"##iene":1827,"arbeidet":1828,"spørsmål":1829,"ex":1830,"tan":1831,"##igh":1832,"slag":1833,"result":1834,"##ager":1835,"##ffekt":1836,"55":1837,"Ander":1838,"Hvis":1839,"livet":1840,"enkelte":1841,"06":1842,"##ka":1843,"##elø":1844,"intern":1845,"drift":1846,"gar":1847,"økonom":1848,"##val":1849,"##ure":1850,"##orten":1851,"barne":1852,"milli":1853,"utvikling":1854,"Sol":1855,"fa":1856,"paa":1857,"veldig":1858,"##sg":1859,"##søk":1860,"likevel":1861,"##pte":1862,"Opp":1863,"fire":1864,"met":1865,"##tet":1866,"oppf":1867,"im":1868,"grad":1869,"Ann":1870,"Jon":1871,"sør":1872,"##str":1873,"kunst":1874,"##revet":1875,"kjem":1876,"ne":1877,"till":1878,"tiden":1879,"landet":1880,"problem":1881,"Ny":1882,"Or":1883,"dre":1884,"kost":1885,"forstå":1886,"##lever":1887,"##pa":1888,"##ja":1889,"sty":1890,"Kn":1891,"##erg":1892,"##æring":1893,"fleste":1894,"Bl":1895,"krav":1896,"##bruk":1897,"eksempel":1898,"bur":1899,"ga":1900,"Sel":1901,"ter":1902,"##aten":1903,"##uten":1904,"##yttet":1905,"##sak":1906,"##kje":1907,"##til":1908,"##tatt":1909,"##yt":1910,"##ball":1911,"regjer":1912,"##grunn":1913,"neste":1914,"##IS":1915,"##illing":1916,"##stra":1917,"skjer":1918,"repres":1919,"bruke":1920,"begge":1921,"##lagt":1922,"imidlertid":1923,"##sam":1924,"krig":1925,"natt":1926,"nesten":1927,"##ører":1928,"##ave":1929,"kommet":1930,"Bar":1931,"gje":1932,"##ttet":1933,"##mmen":1934,"##elses":1935,"begynte":1936,"imp":1937,"post":1938,"##oks":1939,"##up":1940,"##asi":1941,"ledd":1942,"##fer":1943,"enk":1944,"##ivitet":1945,"hverandre":1946,"luft":1947,"At":1948,"bry":1949,"lenger":1950,"start":1951,"samarbeid":1952,"##mmet":1953,"##oven":1954,"##ction":1955,"allerede":1956,"Hol":1957,"bud":1958,"di":1959,"særlig":1960,"gitt":1961,"##entar":1962,"vei":1963,"tak":1964,"lever":1965,"miljø":1966,"hend":1967,"Fot":1968,"fø":1969,"fisk":1970,"hens":1971,"##ck":1972,"##gift":1973,"##EL":1974,"##ammer":1975,"Hans":1976,"dagen":1977,"ch":1978,"hj":1979,"vær":1980,"##isering":1981,"kontakt":1982,"spurte":1983,"venn":1984,"##ah":1985,"##kst":1986,"##utter":1987,"stå":1988,"Trond":1989,"##len":1990,"##ern":1991,"Eg":1992,"finnes":1993,"avt":1994,"gjerne":1995,"virkelig":1996,"forskjellige":1997,"Fra":1998,"##bygg":1999,"inform":2000,"##ningene":2001,"att":2002,"ja":2003,"##kom":2004,"eneste":2005,"##uss":2006,"##tern":2007,"årene":2008,"##røm":2009,"våre":2010,"##ule":2011,"##lipp":2012,"##ommet":2013,"##sland":2014,"felles":2015,"01":2016,"Man":2017,"ben":2018,"##på":2019,"##anen":2020,"##uts":2021,"Bjør":2022,"vind":2023,"##ium":2024,"##rens":2025,"##annen":2026,"kons":2027,"prosjekt":2028,"Ne":2029,"fall":2030,"it":2031,"tru":2032,"##vid":2033,"##ben":2034,"##unt":2035,"lagt":2036,"Ha":2037,"gått":2038,"Un":2039,"id":2040,"##ves":2041,"##ilde":2042,"193":2043,"##elsene":2044,"##ET":2045,"bek":2046,"syke":2047,"system":2048,"Alle":2049,"27":2050,"fjer":2051,"nu":2052,"foret":2053,"192":2054,"Stor":2055,"klart":2056,"ganger":2057,"Ikke":2058,"kro":2059,"##mb":2060,"brukt":2061,"not":2062,"us":2063,"##ingene":2064,"døde":2065,"nødvendig":2066,"La":2067,"sh":2068,"##ommun":2069,"gammel":2070,"leder":2071,"##erte":2072,"##eland":2073,".,":2074,"Wil":2075,"fred":2076,"ob":2077,"##oren":2078,"forn":2079,"##sson":2080,"bø":2081,"sc":2082,"##mber":2083,"##aks":2084,"##lys":2085,"##urat":2086,"##tekt":2087,"stand":2088,"##ats":2089,"##året":2090,"##ivå":2091,"sønn":2092,"visste":2093,"møte":2094,"26":2095,"dår":2096,"leng":2097,"##our":2098,"##gram":2099,"##olle":2100,"##~~~~":2101,"aks":2102,"##oret":2103,"##partementet":2104,"effekt":2105,"##ink":2106,"skolen":2107,"unge":2108,"28":2109,"Før":2110,"Sver":2111,"##ose":2112,"##områ":2113,"sommer":2114,"##enten":2115,"##ommen":2116,"dersom":2117,"interes":2118,"hodet":2119,"##oss":2120,"##råk":2121,"prof":2122,"Stort":2123,"##akter":2124,"bruker":2125,"Hen":2126,"rad":2127,"##fall":2128,"##aller":2129,"##ommer":2130,"##fører":2131,"råd":2132,"føre":2133,"bu":2134,"##ron":2135,"##ening":2136,"##igheten":2137,"norm":2138,"hev":2139,"kam":2140,"pe":2141,"##drag":2142,"##fon":2143,"29":2144,"Dag":2145,"Hal":2146,"dyr":2147,"ring":2148,"ti":2149,"##ytte":2150,"##kkurat":2151,"inns":2152,"dager":2153,"egne":2154,"feil":2155,"mar":2156,"ol":2157,"##port":2158,"##går":2159,"##rasjon":2160,"##ivt":2161,"kjent":2162,"priv":2163,"##følge":2164,"dra":2165,"mør":2166,"##dene":2167,"##uer":2168,"stille":2169,"##ader":2170,"##stein":2171,"saken":2172,"##man":2173,"##ou":2174,"##dt":2175,"##borg":2176,"##ors":2177,"##inget":2178,"forteller":2179,"langs":2180,"synes":2181,"Under":2182,"##SA":2183,"##eleg":2184,"##ative":2185,"morgen":2186,"##handling":2187,"då":2188,"ful":2189,"##merik":2190,"svarte":2191,"tem":2192,"##ynd":2193,"menn":2194,"seier":2195,"Andre":2196,"lær":2197,"nasjon":2198,"##lemmer":2199,"ene":2200,"event":2201,"##ksomhet":2202,"Dan":2203,"con":2204,"##mar":2205,"##kn":2206,"##isert":2207,"##ograf":2208,"##ich":2209,"altså":2210,"produksjon":2211,"set":2212,"sub":2213,"##ta":2214,"##dan":2215,"##ES":2216,"forklar":2217,"fortsatt":2218,"Euro":2219,"Lu":2220,"Nei":2221,"mitt":2222,"sette":2223,"vurder":2224,"##uni":2225,"##ynene":2226,"barna":2227,"##ical":2228,"følge":2229,"##ns":2230,"##rit":2231,"##ase":2232,"##unnskap":2233,"##iktige":2234,"utenfor":2235,"have":2236,"marked":2237,"ab":2238,"ro":2239,"foran":2240,"selskap":2241,"peri":2242,"Gj":2243,"Kl":2244,"Kv":2245,"sann":2246,"tap":2247,"191":2248,"helse":2249,"##sette":2250,"Christ":2251,"Sø":2252,"ven":2253,"##ll":2254,"##uelle":2255,"##oden":2256,"sosi":2257,"hjemme":2258,"samfunn":2259,"Ma":2260,"kol":2261,"##ung":2262,"##ritt":2263,"forts":2264,"redus":2265,"He":2266,"Vest":2267,"co":2268,"ka":2269,"lære":2270,"##disjon":2271,"##byg":2272,"##anter":2273,"mine":2274,"pos":2275,"stre":2276,"##ivet":2277,"vanlig":2278,"Lars":2279,"Var":2280,"mott":2281,"pra":2282,"sentr":2283,"##fe":2284,"100":2285,"##ledes":2286,"Bru":2287,"Mart":2288,"dis":2289,"hu":2290,"tv":2291,"ves":2292,"##ote":2293,"app":2294,"bord":2295,"efter":2296,"fj":2297,"sagt":2298,"##kene":2299,"##qu":2300,"##orn":2301,"forl":2302,"seks":2303,"året":2304,"##føring":2305,"ganske":2306,"pub":2307,"øv":2308,"mai":2309,"snart":2310,"mannen":2311,"tekn":2312,"Ad":2313,"Kom":2314,"Pa":2315,"but":2316,"nem":2317,"tom":2318,"##dus":2319,"skip":2320,"##ikkert":2321,"##beide":2322,"enda":2323,"huset":2324,"internasjon":2325,"Trondheim":2326,"Pl":2327,"##lf":2328,"##ering":2329,"kommune":2330,"stedet":2331,"lo":2332,"rø":2333,"send":2334,"##ogen":2335,"##ved":2336,"##IL":2337,"skje":2338,"sær":2339,"##kret":2340,"##nal":2341,"##yst":2342,"##verd":2343,"vari":2344,"##ndag":2345,"##avt":2346,"minst":2347,"##deles":2348,"lys":2349,"represent":2350,"Par":2351,"Sv":2352,"fest":2353,"##rang":2354,"##orter":2355,"Arbeid":2356,"sjøl":2357,"##holder":2358,"Jan":2359,"kur":2360,"##fr":2361,"##iker":2362,"##ated":2363,"alvor":2364,"trenger":2365,"byen":2366,"tenkte":2367,"02":2368,"07":2369,"Hel":2370,"Ind":2371,"do":2372,"funnet":2373,"tallet":2374,"##gent":2375,"samtidig":2376,"løpet":2377,"pris":2378,"skjed":2379,"akkurat":2380,"pass":2381,"##stend":2382,"##esl":2383,"##okum":2384,"Stat":2385,"burde":2386,"høre":2387,"##ete":2388,"ford":2389,"forf":2390,"skol":2391,"barnet":2392,"##følg":2393,"spesielt":2394,"##bø":2395,"oppg":2396,"##indelse":2397,"støtte":2398,"##kurr":2399,"val":2400,"##lin":2401,"##ju":2402,"forst":2403,"skriver":2404,"kvinner":2405,"enkelt":2406,"Sh":2407,"Sør":2408,"kry":2409,"lin":2410,"##itte":2411,"Norges":2412,"Fred":2413,"Kon":2414,"disk":2415,"grø":2416,"pasi":2417,"##mte":2418,"##bud":2419,"alder":2420,"##ellen":2421,"født":2422,"Ole":2423,"##fin":2424,"Dei":2425,"mynd":2426,"uttrykk":2427,"fru":2428,"gull":2429,"sov":2430,"##ld":2431,"##inister":2432,"foreld":2433,"##ktur":2434,"try":2435,"lev":2436,"##ock":2437,"hjelpe":2438,"08":2439,"Me":2440,"Sl":2441,"mist":2442,"##øst":2443,"##ath":2444,"##lert":2445,"opplev":2446,"kontroll":2447,"ansikt":2448,"vise":2449,"direkte":2450,"09":2451,"Hus":2452,"finner":2453,"##menn":2454,"##stat":2455,"erfar":2456,"##ettet":2457,"##ittel":2458,"veien":2459,"##ammen":2460,"##huset":2461,"betydning":2462,"Høy":2463,"pa":2464,"prakt":2465,"psy":2466,"##ssk":2467,"##bok":2468,"##adet":2469,"uts":2470,"##ivid":2471,"tred":2472,"##ifter":2473,"##elefon":2474,"eget":2475,"øynene":2476,"##rom":2477,"##ris":2478,"##ON":2479,"##æn":2480,"##fold":2481,"##nev":2482,"##kkes":2483,"##entlige":2484,"##urt":2485,"gjeld":2486,"viste":2487,"kvinn":2488,"kjente":2489,"laget":2490,"juni":2491,"mel":2492,"##ood":2493,"omk":2494,"sterk":2495,"forbindelse":2496,"##snitt":2497,"Disse":2498,"sid":2499,"##aner":2500,"##onn":2501,"Ingen":2502,"Alt":2503,"Over":2504,"Per":2505,"USA":2506,"ak":2507,"kunnskap":2508,"tør":2509,"medlem":2510,"##aget":2511,"hørte":2512,"Anna":2513,"New":2514,"Noen":2515,"Ty":2516,"navn":2517,"Øst":2518,"##lende":2519,"##AL":2520,"##giv":2521,"##øs":2522,"##iljø":2523,"from":2524,"vårt":2525,"sikkerhet":2526,"po":2527,"penger":2528,"rapp":2529,"tal":2530,"##lar":2531,"##fra":2532,"##ånd":2533,"##apir":2534,"##ftet":2535,"saa":2536,"##amma":2537,"Ho":2538,"ba":2539,"gift":2540,"##ple":2541,"gjer":2542,"##omme":2543,"blev":2544,"største":2545,"området":2546,"##istrikt":2547,"To":2548,"hol":2549,"rette":2550,"rask":2551,"##sa":2552,"##ante":2553,"##asje":2554,"blå":2555,"##landet":2556,"prins":2557,"this":2558,"legge":2559,"fekk":2560,"##stitusjon":2561,"Knut":2562,"hensyn":2563,"dr":2564,"dram":2565,"vere":2566,"vest":2567,"##anser":2568,"utgang":2569,"kjør":2570,"forsvar":2571,"bestemt":2572,"##ebl":2573,"meld":2574,"punkt":2575,"##alder":2576,"##esk":2577,"##vern":2578,"oppr":2579,"vite":2580,"##setning":2581,"familien":2582,"lokal":2583,"stadig":2584,"32":2585,"##nr":2586,"##post":2587,"##gra":2588,"##fjord":2589,"##we":2590,"##aly":2591,"##skudd":2592,"spiller":2593,"hvem":2594,"syk":2595,"fylke":2596,"70":2597,"dro":2598,"relig":2599,"riktig":2600,"vert":2601,"##entene":2602,"beveg":2603,"##anten":2604,"##essuten":2605,"deler":2606,"grunnlag":2607,"vinter":2608,"informasjon":2609,"60":2610,"Co":2611,"##leis":2612,"energ":2613,"stod":2614,"skrive":2615,"##sminister":2616,"betyr":2617,"2015":2618,"Anne":2619,"##ologi":2620,"John":2621,"imot":2622,"God":2623,"ekte":2624,"fry":2625,"gutt":2626,"mater":2627,"##vå":2628,"##ps":2629,"##uder":2630,"dermed":2631,"##ice":2632,"brukes":2633,"AS":2634,"lange":2635,"och":2636,"sent":2637,"##iz":2638,"##ius":2639,"eldre":2640,"##avnet":2641,"##serv":2642,"##ersom":2643,"Olav":2644,"nærmere":2645,"millioner":2646,"Ein":2647,"Jes":2648,"brø":2649,"sikkert":2650,"was":2651,"##nem":2652,"##atten":2653,"##lege":2654,"Eng":2655,"hvorfor":2656,"lyst":2657,"mill":2658,"Foto":2659,",.":2660,"Erik":2661,"Finn":2662,"mis":2663,"ses":2664,"tor":2665,"##bu":2666,"##hen":2667,"forut":2668,"avd":2669,"##ppe":2670,"utg":2671,"##ligere":2672,"##ften":2673,"reise":2674,"##sport":2675,"##endom":2676,"Inge":2677,"tradisjon":2678,"tenke":2679,"kirke":2680,"##ight":2681,"80":2682,"aut":2683,"ditt":2684,"ide":2685,"rolle":2686,"tyd":2687,"##imm":2688,"##hed":2689,"##rest":2690,"##ulle":2691,"##ksis":2692,"industri":2693,"borte":2694,"juli":2695,"90":2696,"Fl":2697,"Nil":2698,"aug":2699,"bolig":2700,"kast":2701,"lille":2702,"##nte":2703,"##gte":2704,"##RK":2705,"##uld":2706,"##ighetene":2707,"følgende":2708,"sjå":2709,"##nader":2710,"folke":2711,"slags":2712,"##aen":2713,"avgjør":2714,"##ital":2715,"måten":2716,"##deling":2717,"politiet":2718,"##arbeidet":2719,"måned":2720,"Dersom":2721,"fjell":2722,"tot":2723,"##ST":2724,"##usen":2725,"opprett":2726,"##istisk":2727,"##late":2728,"besl":2729,"kommunen":2730,"tilfelle":2731,"naturlig":2732,"innenfor":2733,"ferdig":2734,"posit":2735,"Kir":2736,"na":2737,"##kjø":2738,"##AT":2739,"stopp":2740,"##rum":2741,"##visning":2742,"kjenner":2743,"##duksjon":2744,"personer":2745,"Mange":2746,"én":2747,"##20":2748,"##atene":2749,"190":2750,"overfor":2751,"regn":2752,"øyebl":2753,"##minist":2754,"##................":2755,"Kr":2756,"No":2757,"um":2758,"##meld":2759,"##rige":2760,"##anu":2761,"avsl":2762,"##engt":2763,"##erson":2764,"##ifte":2765,"33":2766,"Sy":2767,"grav":2768,"job":2769,"kli":2770,"##ias":2771,"##RE":2772,"##erv":2773,"##ork":2774,"##edag":2775,"##isere":2776,"helst":2777,"kvinne":2778,"forsv":2779,"##isjonen":2780,"time":2781,"Fin":2782,"Land":2783,"dam":2784,"drø":2785,"lot":2786,"oper":2787,"tø":2788,"##AG":2789,"##iler":2790,"tilsvar":2791,"##lemer":2792,"##sset":2793,".\"\"\"":2794,"politiske":2795,"snakke":2796,"psyk":2797,"TV":2798,"pri":2799,"##nå":2800,"##øte":2801,"##holde":2802,"##orer":2803,"##anc":2804,"##bef":2805,"konkurr":2806,"region":2807,"bygge":2808,"##somt":2809,"funksjon":2810,"barneh":2811,"##ses":2812,"##ese":2813,"##ktør":2814,"##ffer":2815,"189":2816,"188":2817,"##reds":2818,"Også":2819,"interess":2820,"ansatte":2821,"omkring":2822,"47":2823,"Peder":2824,"røy":2825,"ud":2826,"##sorg":2827,"##TB":2828,"foreg":2829,"##atisk":2830,"##vere":2831,"##angen":2832,"##rifter":2833,"##attet":2834,"følger":2835,"Berg":2836,"Anders":2837,"Kj":2838,"Ta":2839,"Ver":2840,"apr":2841,"mig":2842,"##valg":2843,"##gar":2844,"##stet":2845,"skyld":2846,"##unnen":2847,"kvalitet":2848,"##essig":2849,"##essur":2850,"Hvordan":2851,"##ations":2852,"knyttet":2853,"##synlig":2854,"Ge":2855,"Mo":2856,"fer":2857,"fart":2858,"stund":2859,"stilling":2860,"ang":2861,"real":2862,"vekt":2863,"Seiv":2864,"aktivitet":2865,"hånden":2866,"dokum":2867,"fug":2868,"mars":2869,"##ach":2870,"##nne":2871,"##pos":2872,"##DE":2873,"##anken":2874,"foresl":2875,"bevis":2876,"##undet":2877,"krit":2878,"##hengig":2879,"prøv":2880,"retning":2881,"36":2882,"krist":2883,"makt":2884,"nøy":2885,"etab":2886,"slo":2887,"Stortinget":2888,"grå":2889,"tun":2890,"vore":2891,"ytter":2892,"##cc":2893,"##SS":2894,"##ance":2895,"##rike":2896,"alene":2897,"##ikkel":2898,"##yggen":2899,"klare":2900,"183":2901,"2016":2902,"midt":2903,"snakket":2904,"faktisk":2905,"bidra":2906,"tredje":2907,"37":2908,"Sj":2909,"##otter":2910,"##uter":2911,"##øv":2912,"##unde":2913,"skog":2914,"kompet":2915,"handling":2916,"menneske":2917,"Derfor":2918,"Johan":2919,"Paul":2920,"Hå":2921,"Sand":2922,"hum":2923,"lar":2924,"rød":2925,"ul":2926,"##sut":2927,"##hør":2928,"##stoff":2929,"høyt":2930,"bestemm":2931,"egentlig":2932,"##ack":2933,"##ivers":2934,"##ptember":2935,"Kan":2936,"elekt":2937,"fiske":2938,"##kast":2939,"##uelt":2940,"##unst":2941,"##esjon":2942,"samlet":2943,"treng":2944,"##trol":2945,"faren":2946,"##ING":2947,"75":2948,"Ola":2949,"Sm":2950,"##æl":2951,"##ukt":2952,"##hav":2953,"##orte":2954,"##ørdag":2955,"blei":2956,"års":2957,"tryg":2958,"lønn":2959,"Sverige":2960,"holder":2961,"utgangspunkt":2962,"39":2963,"46":2964,"Beg":2965,"Sch":2966,"bo":2967,"rik":2968,"teg":2969,"ur":2970,"und":2971,"##enser":2972,"##spekt":2973,"##ime":2974,"produs":2975,"##bruks":2976,"interv":2977,"berre":2978,"meir":2979,"timer":2980,"Gunn":2981,"amerik":2982,"gul":2983,"hjer":2984,"##hel":2985,"avg":2986,"sky":2987,"undersøk":2988,"verdens":2989,"næring":2990,"sju":2991,"folket":2992,"familie":2993,"Kansk":2994,"bod":2995,"hende":2996,"tvil":2997,"utford":2998,"vist":2999,"september":3000,"kjærlig":3001,"gangen":3002,"##amme":3003,"##gangen":3004,"virke":3005,"åpnet":3006,"nevnt":3007,"tydelig":3008,"april":3009,"Kanskje":3010,"ko":3011,"kart":3012,"ressur":3013,"voks":3014,"##stid":3015,"##ress":3016,"##ents":3017,"kva":3018,"regel":3019,"endring":3020,"bilen":3021,"bakgrunn":3022,"lese":3023,"##eløp":3024,"Dav":3025,"Kap":3026,"bi":3027,"tall":3028,"vant":3029,"##vin":3030,"stoff":3031,"##kkelig":3032,"2018":3033,"mask":3034,"nettopp":3035,"musikk":3036,"##genting":3037,"Ed":3038,"gro":3039,"ren":3040,"ras":3041,"##polit":3042,"##elsk":3043,"##ktet":3044,"##aksjon":3045,"##forsk":3046,"##mmelig":3047,"slikt":3048,"ref":3049,"konse":3050,"##able":3051,"løp":3052,"fremst":3053,"Frank":3054,"##ativt":3055,"ungdom":3056,"sosial":3057,"##ues":3058,"##ås":3059,"##ongen":3060,"strå":3061,"medlemmer":3062,"##ivil":3063,"##enske":3064,"anled":3065,"187":3066,"fortelle":3067,"ennå":3068,"viktigste":3069,"glad":3070,"##løs":3071,"##mannen":3072,"##grep":3073,"behandling":3074,"praksis":3075,"34":3076,"Kor":3077,"Mer":3078,"dig":3079,"krev":3080,"kamp":3081,"sende":3082,"uke":3083,"vok":3084,"##sagt":3085,"##kår":3086,"##okken":3087,"##oder":3088,"##ally":3089,"##osof":3090,"kunde":3091,"##ember":3092,"håper":3093,"Ale":3094,"Ned":3095,"ST":3096,"gav":3097,"has":3098,"ventet":3099,"##fly":3100,"##inen":3101,"##ata":3102,"deb":3103,"innhold":3104,"##annes":3105,"##ions":3106,"##legget":3107,"##uttet":3108,"##riften":3109,"hvilke":3110,"Europa":3111,"Bir":3112,"Polit":3113,"Vær":3114,"fyr":3115,"meter":3116,"pol":3117,"##sikt":3118,"##rende":3119,"##grupp":3120,"##fte":3121,"##ård":3122,"oppdag":3123,"2017":3124,"Char":3125,"ekstra":3126,"administ":3127,"sikre":3128,"Hvorfor":3129,"##utselig":3130,"!.":3131,"Car":3132,"Ev":3133,"Is":3134,"Min":3135,"km":3136,"nø":3137,"satte":3138,"tett":3139,"viktige":3140,"##sst":3141,"##kar":3142,"##bil":3143,"##bord":3144,"##stene":3145,"##departementet":3146,"##etten":3147,"oppe":3148,"sek":3149,"topp":3150,"185":3151,"sammenheng":3152,"straff":3153,"-.":3154,"Sig":3155,"Tid":3156,"we":3157,"##mor":3158,"##mene":3159,"tilp":3160,"##ikere":3161,"steder":3162,"altern":3163,"##aken":3164,"##altning":3165,"legger":3166,"tross":3167,"fullt":3168,"lokale":3169,"dårlig":3170,"(=":3171,"04":3172,"Bare":3173,"Slik":3174,"sal":3175,"##uen":3176,"##ely":3177,"mente":3178,"selskapet":3179,"begrens":3180,"følte":3181,"visst":3182,"sterke":3183,"End":3184,"fir":3185,"##king":3186,"##rar":3187,"##OT":3188,"##uft":3189,"##ori":3190,"stol":3191,"ska":3192,"##stemm":3193,"opplys":3194,"bereg":3195,"Eller":3196,"hvilken":3197,"Bjørn":3198,"Ab":3199,"Hø":3200,"Verd":3201,"idet":3202,"kil":3203,"prim":3204,"åpen":3205,"øst":3206,"##met":3207,"##vann":3208,"##enfor":3209,"##atn":3210,"spe":3211,"reiste":3212,"##ugh":3213,"fremdeles":3214,"##kjent":3215,"fotball":3216,"raskt":3217,"øyeblikk":3218,"):":3219,"Lar":3220,"My":3221,"Tlf":3222,"fys":3223,"##ton":3224,"##rid":3225,"##ding":3226,"##ående":3227,"##eth":3228,"skade":3229,"##æren":3230,"oppnå":3231,"##ellet":3232,"tran":3233,"##iserte":3234,"tilbud":3235,"Regi":3236,"data":3237,"interesse":3238,"sosiale":3239,"beslut":3240,"500":3241,"Rø":3242,"Te":3243,"Vel":3244,"bred":3245,"janu":3246,"ris":3247,"##OL":3248,"##KK":3249,"saman":3250,"##imot":3251,"##abil":3252,"##ringen":3253,"leve":3254,"merke":3255,"takk":3256,"1995":3257,"##middel":3258,"##iteen":3259,"fremm":3260,"måneder":3261,"januar":3262,"Ap":3263,"Fort":3264,"Hed":3265,"Ham":3266,"Jens":3267,"Lø":3268,"Mon":3269,"fi":3270,"mand":3271,"telefon":3272,"##kraft":3273,"##sty":3274,"##omen":3275,"##okus":3276,"##øyd":3277,"ønsket":3278,"##aldt":3279,"døren":3280,"em":3281,"lærer":3282,"papp":3283,"##kende":3284,"##th":3285,"##ph":3286,"##bart":3287,"##usk":3288,"##egg":3289,"##skole":3290,"##rud":3291,"##engene":3292,"184":3293,"186":3294,"bygg":3295,"Selv":3296,"Jul":3297,"Vil":3298,"fang":3299,"gis":3300,"hind":3301,"##sc":3302,"##sjekt":3303,"##pon":3304,"##punkt":3305,"##ua":3306,"##åt":3307,"##hver":3308,"##elag":3309,"fordel":3310,"##isa":3311,"utstyr":3312,"inntekt":3313,"##isten":3314,"##ick":3315,"##bruket":3316,"##ational":3317,"organ":3318,"sterkt":3319,"historie":3320,"##føres":3321,"situasjon":3322,"privat":3323,"41":3324,"Vid":3325,"eier":3326,"heter":3327,"himm":3328,"nei":3329,"rus":3330,"rest":3331,"so":3332,"##IT":3333,"ingenting":3334,"Dem":3335,"##retning":3336,"arbeider":3337,"##stillingen":3338,"##ollen":3339,"Arne":3340,"##iftet":3341,"2002":3342,"gruppe":3343,"skape":3344,"nemlig":3345,"Kong":3346,"Rom":3347,"kje":3348,"mamma":3349,"rommet":3350,"Øy":3351,"##nene":3352,"##inter":3353,"##ign":3354,"##isme":3355,"181":3356,"##skaper":3357,"##abr":3358,"##ubb":3359,"noko":3360,"##slaget":3361,"stemme":3362,"setter":3363,"trodde":3364,"ønske":3365,"inneb":3366,"antall":3367,"problemer":3368,"regjering":3369,"budsj":3370,"kroppen":3371,"sjølv":3372,"august":3373,"Ba":3374,"Bro":3375,"Odd":3376,"Ul":3377,"rim":3378,"strø":3379,"skar":3380,"utover":3381,"slå":3382,"##yret":3383,"tenkt":3384,"##standen":3385,"havde":3386,"Bergen":3387,"general":3388,"fjor":3389,"##stendig":3390,"prinsipp":3391,"42":3392,"Like":3393,"Mor":3394,"Mot":3395,"kvar":3396,"ånd":3397,"##iar":3398,"##mat":3399,"##ace":3400,"##full":3401,"##stjene":3402,"påvir":3403,"opptatt":3404,"minutter":3405,"dagens":3406,"leil":3407,"milit":3408,"politisk":3409,"traf":3410,"##plass":3411,"tilsvarende":3412,"Bra":3413,"Cl":3414,"Far":3415,"gen":3416,"løy":3417,"ry":3418,"vit":3419,"##tok":3420,"##enne":3421,"##iger":3422,"engang":3423,"##pper":3424,"ellers":3425,"ark":3426,"1997":3427,"##bruar":3428,"forbi":3429,"offentlige":3430,"Gjennom":3431,"venstre":3432,"Mid":3433,"Sn":3434,"ifølge":3435,"mag":3436,"nivå":3437,"pot":3438,"vak":3439,"##aste":3440,"##ther":3441,"##olv":3442,"vare":3443,"##rib":3444,"ann":3445,"ført":3446,"##vem":3447,"blod":3448,"##dagen":3449,"forsik":3450,"møter":3451,"individ":3452,"spørsmålet":3453,"Bil":3454,"Lille":3455,"ag":3456,"tab":3457,"ødel":3458,"##mod":3459,"##mål":3460,"##ystem":3461,"##øse":3462,"##ikter":3463,"##enta":3464,"##urnal":3465,"inntil":3466,"språk":3467,"hundre":3468,"##tiden":3469,"spesial":3470,"##valget":3471,"fortsatte":3472,"..":3473,"Mal":3474,"Rob":3475,"eig":3476,"År":3477,"##aus":3478,"##so":3479,"##sbe":3480,"##bjør":3481,"##fest":3482,"##folk":3483,"##edie":3484,"enten":3485,"##itu":3486,"utdan":3487,"##\"\"\"\"":3488,"slett":3489,"held":3490,"arbeide":3491,"blom":3492,"høyere":3493,"##kont":3494,"eksp":3495,"skjønn":3496,"regjeringen":3497,"internasjonale":3498,"38":3499,"Lang":3500,"NTB":3501,"ass":3502,"bel":3503,"brev":3504,"kat":3505,"okt":3506,"##gene":3507,"##uell":3508,"##zz":3509,"##arden":3510,"anlegg":3511,"mening":3512,"##hetene":3513,"sitter":3514,"klass":3515,"180":3516,"kval":3517,"mykje":3518,"##legging":3519,"All":3520,"søk":3521,"søndag":3522,"besøk":3523,"Olsen":3524,"straks":3525,"##partiet":3526,"Stein":3527,"publik":3528,"skjedde":3529,"Tysk":3530,"David":3531,"Bj":3532,"Jør":3533,"Peter":3534,"Sim":3535,"jern":3536,"nab":3537,"åtte":3538,"##dere":3539,"##bare":3540,"##SK":3541,"##ense":3542,"##skolen":3543,"##kkel":3544,"oppl":3545,"oppgå":3546,"vedtak":3547,"rev":3548,"daglig":3549,"tenker":3550,"februar":3551,"prøve":3552,"sannsynlig":3553,"Liv":3554,"Ven":3555,"kin":3556,"ple":3557,"salg":3558,"tyn":3559,"venner":3560,"økt":3561,"stil":3562,"inc":3563,"##ita":3564,"datter":3565,"regler":3566,"##ubben":3567,"endelig":3568,"hører":3569,"områder":3570,"elevene":3571,"Danmark":3572,"Jesus":3573,"##edagog":3574,"99":3575,"As":3576,"Bo":3577,"Figur":3578,"Gl":3579,"Sve":3580,"ke":3581,"##mus":3582,"##sid":3583,"##nær":3584,"##OM":3585,"##AD":3586,"##ary":3587,"forand":3588,"##isin":3589,"##ørsm":3590,"##akten":3591,"fortalte":3592,"##delingen":3593,"arbeids":3594,"##stilt":3595,"stemmer":3596,"flykt":3597,"slutten":3598,"Guds":3599,"Karl":3600,"kostnad":3601,"##samling":3602,"startet":3603,"##følgelig":3604,"konsekv":3605,"73":3606,"Sc":3607,"neg":3608,"sat":3609,"yn":3610,"##mo":3611,"##une":3612,"star":3613,"##skj":3614,"spille":3615,"sektor":3616,"##ffet":3617,"plutselig":3618,"brann":3619,"besø":3620,"møtte":3621,"vera":3622,"Johannes":3623,"##haug":3624,"tilfreds":3625,"desember":3626,"prest":3627,"befolk":3628,"garden":3629,"hendene":3630,"kompetanse":3631,"Fol":3632,"PR":3633,"vold":3634,"##svis":3635,"##enk":3636,"##aling":3637,"tilsyn":3638,"skyl":3639,"##lic":3640,"##urer":3641,"oppmer":3642,"innt":3643,"##istiske":3644,"##industri":3645,"fint":3646,"bildet":3647,"virket":3648,"område":3649,"integ":3650,"situasjonen":3651,"bekym":3652,"opprinn":3653,"Su":3654,"Tre":3655,"ge":3656,"mob":3657,"passer":3658,"sant":3659,"##blem":3660,"##enning":3661,"##ish":3662,"##ident":3663,"institusjon":3664,"same":3665,"##irsdag":3666,"førte":3667,"##jøre":3668,"##ending":3669,"nyheter":3670,"reguler":3671,"##iserer":3672,"##vikling":3673,"finans":3674,"virksomhet":3675,"styrke":3676,"liker":3677,"Samtidig":3678,"økonomiske":3679,"ident":3680,"sendt":3681,"51":3682,"Folk":3683,"Kommun":3684,"Morg":3685,"OG":3686,"dine":3687,"grat":3688,"hy":3689,"mon":3690,"sist":3691,"##kost":3692,"##dra":3693,"##hild":3694,"forh":3695,"##alle":3696,"##ska":3697,"oppst":3698,"##ansett":3699,"ordet":3700,"preg":3701,"bygget":3702,"viss":3703,"eksport":3704,"begynner":3705,"##løp":3706,"midler":3707,"øyne":3708,"1970":3709,"omfatt":3710,"kjærlighet":3711,"II":3712,"Kol":3713,"dog":3714,"fokus":3715,"lav":3716,"test":3717,"vent":3718,"##yen":3719,"##ND":3720,"stru":3721,"stir":3722,"##atning":3723,"skikk":3724,"skrev":3725,"varme":3726,"alm":3727,"##forb":3728,"##udde":3729,"Hansen":3730,"##veien":3731,"##rateg":3732,"kjøkken":3733,"flytte":3734,"Regjer":3735,"økonomisk":3736,"Ei":3737,"figur":3738,"ir":3739,"kalt":3740,"sang":3741,"sider":3742,"##SEN":3743,"##edal":3744,"##aland":3745,"##ikasjon":3746,"##ame":3747,"##verket":3748,"omsorg":3749,"innb":3750,"##ennende":3751,"2000":3752,"##ølv":3753,"182":3754,"##eltet":3755,"##entral":3756,"##kommende":3757,"film":3758,"filosof":3759,"karakter":3760,"krever":3761,"krigen":3762,"Tyskland":3763,"95":3764,"Aker":3765,"Ka":3766,"Mad":3767,"Mark":3768,"NRK":3769,"Sa":3770,"ah":3771,"hot":3772,"mere":3773,"opt":3774,"slekt":3775,"uav":3776,"vente":3777,"##kant":3778,"##vene":3779,"##ensk":3780,"##alet":3781,"##ppet":3782,"##ition":3783,"varm":3784,"##ander":3785,"##utte":3786,"kjære":3787,"178":3788,"##trent":3789,"##plan":3790,"Trom":3791,"saker":3792,"organisasjon":3793,"resultat":3794,"natten":3795,"Martin":3796,"Bor":3797,"Ph":3798,"Vår":3799,"gud":3800,"uv":3801,"uh":3802,"##lede":3803,"##kninger":3804,"##vist":3805,"##gn":3806,"##bry":3807,"##KT":3808,"##åd":3809,"skrevet":3810,"##ric":3811,"##rådet":3812,"##ustr":3813,"##irektor":3814,"1992":3815,"1999":3816,"redd":3817,"unna":3818,"present":3819,"valgt":3820,"kvelden":3821,"prosjektet":3822,"foreldre":3823,"Magn":3824,"Natt":3825,"Vik":3826,"flert":3827,"kyr":3828,"tas":3829,"##lemm":3830,"##skip":3831,"##asjer":3832,"##its":3833,"##aven":3834,"rek":3835,"##allen":3836,"\"\"\"\".":3837,"snudde":3838,"mulighet":3839,"inneholder":3840,"Christian":3841,"Fil":3842,"Gun":3843,"Hau":3844,"Ra":3845,"Res":3846,"Uten":3847,"bus":3848,"cm":3849,"fatt":3850,"kjer":3851,"navnet":3852,"slipp":3853,"tj":3854,"##mon":3855,"##po":3856,"skriv":3857,"defin":3858,"##annet":3859,"##okrat":3860,"##innet":3861,"##vei":3862,"brukte":3863,"betrakt":3864,"smilte":3865,"forsøk":3866,"##laget":3867,"1996":3868,"bilder":3869,"virker":3870,"syntes":3871,"##itenskap":3872,"betydelig":3873,"Kristi":3874,"##barn":3875,"tjeneste":3876,"fulgte":3877,"##OTO":3878,"innebærer":3879,",-":3880,"48":3881,"Bå":3882,"FN":3883,"Hvem":3884,"Lund":3885,"elever":3886,"hit":3887,"rop":3888,"##leder":3889,"##ix":3890,"##iel":3891,"##ving":3892,"##inde":3893,"##amer":3894,"arrang":3895,"##anset":3896,"##gjeng":3897,"##ober":3898,"##asset":3899,"##holdt":3900,"lyd":3901,"1993":3902,"2001":3903,"handler":3904,"består":3905,"##parten":3906,"which":3907,"religion":3908,"65":3909,"tale":3910,"uly":3911,"va":3912,"##US":3913,"##urg":3914,"overra":3915,"kong":3916,"##ica":3917,"understre":3918,"Forsk":3919,"1994":3920,"bilde":3921,"formid":3922,"snø":3923,"stats":3924,"##vilg":3925,"åpne":3926,"sykehus":3927,"Jak":3928,"sjef":3929,"##kap":3930,"##eres":3931,"##inal":3932,"##inder":3933,"##leve":3934,"skre":3935,"omt":3936,"##iven":3937,"##lighet":3938,"##sser":3939,"fører":3940,"nytte":3941,"klasse":3942,"retten":3943,"##opul":3944,"velger":3945,"forskjell":3946,"legges":3947,"##kjed":3948,"##produksjon":3949,"tekst":3950,"##ksomheten":3951,"føler":3952,"olje":3953,"nasjonal":3954,"EU":3955,"Fro":3956,"au":3957,"dist":3958,"##nende":3959,"##EG":3960,"##ED":3961,"##ana":3962,"##stol":3963,"##ome":3964,"##onen":3965,"##onde":3966,"skrift":3967,"hardt":3968,"gjeng":3969,"henhold":3970,"##essige":3971,"176":3972,"gjennomsnitt":3973,"##førte":3974,"##enterer":3975,"1990":3976,"vidt":3977,"##ologisk":3978,"uttry":3979,"hørt":3980,"1945":3981,"anledning":3982,");":3983,"67":3984,"61":3985,"Af":3986,"dør":3987,"dikt":3988,"ra":3989,"rør":3990,"uker":3991,"##ms":3992,"##siden":3993,"##vensjon":3994,"##fag":3995,"##eri":3996,"##stø":3997,"##forhold":3998,"##spill":3999,"konkret":4000,"##vare":4001,"motor":4002,"tida":4003,"brit":4004,"endringer":4005,"gjøres":4006,"verk":4007,"##ikkerhet":4008,"##sdtr":4009,"offentlig":4010,"tanker":4011,"Andersen":4012,"private":4013,"kastet":4014,"Alex":4015,"Ga":4016,"Part":4017,"Petter":4018,"Tom":4019,"driv":4020,"euro":4021,"gli":4022,"gard":4023,"lørdag":4024,"##sav":4025,"##drene":4026,"##ces":4027,"##hund":4028,"##anke":4029,"##ismen":4030,"##ika":4031,"##atr":4032,"omtrent":4033,"utan":4034,"##lie":4035,"sånn":4036,"##ove":4037,"##ygge":4038,"konge":4039,"##varet":4040,"##ogn":4041,"##peratur":4042,"\"\"\"\",":4043,"kommuner":4044,"trakk":4045,"størr":4046,"respe":4047,"Marie":4048,"forholdet":4049,"##ause":4050,"Harald":4051,"produkt":4052,"tanke":4053,"hjert":4054,"avtale":4055,"interesser":4056,"vesentlig":4057,"Statens":4058,"ansiktet":4059,"erfaring":4060,"prior":4061,"Gunnar":4062,"publikum":4063,".:":4064,"71":4065,"Dessuten":4066,"VM":4067,"distrikt":4068,"ky":4069,"kne":4070,"port":4071,"papir":4072,"ru":4073,"tår":4074,"tank":4075,"yr":4076,"##vok":4077,"##jet":4078,"##ID":4079,"forest":4080,"##alsk":4081,"##ampen":4082,"##skur":4083,"inkl":4084,"##kka":4085,"anbef":4086,"innk":4087,"##apt":4088,"spor":4089,"hvite":4090,"reiser":4091,"##ement":4092,"##abel":4093,"179":4094,"##bruker":4095,"eiendom":4096,"##ENS":4097,"strand":4098,"risik":4099,"69":4100,"Hoved":4101,"On":4102,"jf":4103,"##itter":4104,"##reng":4105,"##AS":4106,"##ham":4107,"##histor":4108,"##PP":4109,"##ege":4110,"##als":4111,"##agelig":4112,"##angel":4113,"nove":4114,"reis":4115,"##spart":4116,"##spolit":4117,"##smannen":4118,"##ieren":4119,"høye":4120,"staten":4121,"kapittel":4122,"samfunnet":4123,"styre":4124,"##vesen":4125,"##område":4126,"Arbeider":4127,"Isra":4128,"november":4129,"91":4130,"Ib":4131,"Jac":4132,"Lond":4133,"drive":4134,"sve":4135,"tegn":4136,"up":4137,"visse":4138,"Øv":4139,"##nere":4140,"##ykke":4141,"##øn":4142,"##edd":4143,"##skog":4144,"##skyld":4145,"skogen":4146,"anna":4147,"spilte":4148,"they":4149,"trans":4150,"lage":4151,"bildene":4152,"##stander":4153,"flyttet":4154,"1988":4155,"relativt":4156,"areal":4157,"vindu":4158,"kampen":4159,"alvorlig":4160,"England":4161,"FOTO":4162,"Kina":4163,"Må":4164,"Vå":4165,"hest":4166,"hopp":4167,"mun":4168,"muse":4169,"tri":4170,"##rør":4171,"##vand":4172,"##fyl":4173,"##igt":4174,"##leik":4175,"erstat":4176,"##ams":4177,"##fort":4178,"vilde":4179,"hvit":4180,"##serie":4181,"##antene":4182,"plasser":4183,"blikk":4184,"Norw":4185,"forskning":4186,"Ant":4187,"1989":4188,"middel":4189,"borger":4190,"grupper":4191,"##værende":4192,"tjenester":4193,"stående":4194,"sentrum":4195,"Nils":4196,"400":4197,"87":4198,"Ag":4199,"Ford":4200,"It":4201,"Ni":4202,"SV":4203,"We":4204,"bal":4205,"nede":4206,"sur":4207,"##mes":4208,"##selen":4209,"##nelsen":4210,"##vest":4211,"##gel":4212,"##fil":4213,"##åp":4214,"##ena":4215,"##anlegg":4216,"enhver":4217,"##ikke":4218,"dekket":4219,"opply":4220,"been":4221,"##istrer":4222,"deretter":4223,"##jøen":4224,"undersø":4225,"##plassen":4226,"eksister":4227,"##naden":4228,"snakker":4229,"klarte":4230,"unngå":4231,"##stitutt":4232,"invester":4233,"jobben":4234,"aksje":4235,"86":4236,"Grø":4237,"amb":4238,"meste":4239,"pust":4240,"##ielle":4241,"##ear":4242,"##rand":4243,"##vs":4244,"##yre":4245,"##gl":4246,"##hjel":4247,"##ingar":4248,"tils":4249,"##aske":4250,"slapp":4251,"slått":4252,"sein":4253,"åringen":4254,"årsak":4255,"program":4256,"##gjort":4257,"fortsette":4258,"##bered":4259,"selve":4260,"Skal":4261,"svenske":4262,"Hvil":4263,"##cts":4264,"båt":4265,"nærings":4266,"bestemte":4267,"muligheter":4268,"sjeld":4269,"utviklet":4270,"journal":4271,"Sport":4272,"presse":4273,"spesielle":4274,"basert":4275,"bekre":4276,"bodde":4277,"voksne":4278,"omfattende":4279,"44":4280,"58":4281,"Nr":4282,"Sal":4283,"bære":4284,"fas":4285,"kob":4286,"prem":4287,"ryggen":4288,"sikt":4289,"ww":4290,"were":4291,"##AM":4292,"##fart":4293,"##orm":4294,"avhengig":4295,"##ives":4296,"inngå":4297,"##elighet":4298,"177":4299,"vekk":4300,"##klare":4301,"smil":4302,"2014":4303,"høyre":4304,"more":4305,"##overn":4306,"bygd":4307,"2005":4308,"kjøpte":4309,"##yttes":4310,"mistet":4311,"torsdag":4312,"alternativ":4313,"oktober":4314,"www":4315,"98":4316,"Fyl":4317,"Gre":4318,"Pr":4319,"gled":4320,"hil":4321,"il":4322,"nikket":4323,"pensjon":4324,"sje":4325,"##iale":4326,"##fug":4327,"##NE":4328,"##hvert":4329,"##illet":4330,"##edes":4331,"##olusjon":4332,"steg":4333,"stjer":4334,"##ulig":4335,"opplever":4336,"##rimin":4337,"##otte":4338,"slår":4339,"trygg":4340,"progra":4341,"300":4342,"##iteten":4343,"rettet":4344,"svart":4345,"##ollene":4346,"beskjed":4347,"may":4348,"bedrift":4349,"##ologiske":4350,"loven":4351,"korn":4352,"##kommen":4353,"kalles":4354,"##istrert":4355,"sommeren":4356,"fortsetter":4357,"bordet":4358,"Venstre":4359,"92":4360,"93":4361,"Gener":4362,"Pres":4363,"Syn":4364,"Trø":4365,"Ve":4366,"cont":4367,"falt":4368,"one":4369,"ufor":4370,"vakt":4371,"##ual":4372,"detal":4373,"skatt":4374,"indre":4375,"##asj":4376,"utd":4377,"innstilling":4378,"samsvar":4379,"såk":4380,"##varer":4381,"##ogg":4382,"tider":4383,"trekke":4384,"moderne":4385,"hjemm":4386,"Først":4387,"Henry":4388,"energi":4389,"transport":4390,"Jakob":4391,"97":4392,"Ifølge":4393,"Kjell":4394,"Mens":4395,"act":4396,"bøl":4397,"hår":4398,"other":4399,"tusen":4400,"åt":4401,"##sreg":4402,"##ko":4403,"##kir":4404,"##OK":4405,"##cy":4406,"##pan":4407,"##enen":4408,"medisin":4409,"skritt":4410,"inst":4411,"dens":4412,"##andid":4413,"##rip":4414,"##sending":4415,"sport":4416,"##ssjef":4417,"##linger":4418,"##spe":4419,"##rette":4420,"skulde":4421,"begre":4422,"arbeidspl":4423,".\"\"\"\"":4424,"Ing":4425,"2013":4426,"søke":4427,"selvsagt":4428,"heile":4429,"##iteens":4430,"fotograf":4431,"Rosen":4432,"##bladet":4433,"engelsk":4434,"##bygging":4435,"Haug":4436,"lengre":4437,"eventuelt":4438,"periode":4439,"skjedd":4440,"akse":4441,"material":4442,"bevisst":4443,"prøvde":4444,"pappa":4445,"budsjett":4446,"Magnus":4447,"Famil":4448,"Hver":4449,"Kjø":4450,"Lind":4451,"cons":4452,"##lo":4453,"##rede":4454,"##LI":4455,"##EM":4456,"##eningen":4457,"##ora":4458,"##arar":4459,"##eler":4460,"##sta":4461,"fork":4462,"##olf":4463,"sku":4464,"##ærne":4465,"eld":4466,"##smessig":4467,"tidspunkt":4468,"2003":4469,"stein":4470,"##sdatter":4471,"invit":4472,"import":4473,"redusere":4474,"forstår":4475,"trykk":4476,"levende":4477,"ytterligere":4478,"London":4479,"Bu":4480,"Tur":4481,"am":4482,"bro":4483,"driver":4484,"dessuten":4485,"pengene":4486,"popul":4487,"resten":4488,"##sol":4489,"##gje":4490,"##bin":4491,"##beg":4492,"##).":4493,"##strøm":4494,"##unne":4495,"##rad":4496,"##olum":4497,"##skl":4498,"utb":4499,"utsk":4500,"also":4501,"##vise":4502,"173":4503,"175":4504,"serv":4505,"formål":4506,"lavere":4507,"selvfølgelig":4508,"mennesket":4509,"styret":4510,"unntak":4511,"##okka":4512,"løsning":4513,"subst":4514,"jobber":4515,"utdanning":4516,"##overnment":4517,"43":4518,"53":4519,"88":4520,"Amerik":4521,"Siden":4522,"ban":4523,"lavt":4524,"out":4525,"pedagog":4526,"sjel":4527,"vers":4528,"##kor":4529,"##AV":4530,"##vende":4531,"##jeld":4532,"##høy":4533,"##arane":4534,"##alske":4535,"##essen":4536,"stiller":4537,"##skommun":4538,"instru":4539,"anner":4540,"analy":4541,"meng":4542,"vilkår":4543,"hvad":4544,"oversk":4545,"##yrk":4546,"blikket":4547,"betale":4548,"formann":4549,"kjøp":4550,"ligge":4551,"type":4552,"dyp":4553,"desse":4554,"romant":4555,"kraftig":4556,"kreve":4557,"artikkel":4558,"kurs":4559,"##våg":4560,"Frankrike":4561,"rimelig":4562,"skyldes":4563,"##irektoratet":4564,"Både":4565,"annerledes":4566,"82":4567,"85":4568,"Hj":4569,"Rus":4570,"Sigur":4571,"bnr":4572,"fan":4573,"oven":4574,"pant":4575,"vond":4576,"##lå":4577,"##ho":4578,"##arder":4579,"##arbeide":4580,"forelig":4581,"##onse":4582,"##sken":4583,"##attes":4584,"##aden":4585,"##lite":4586,"aner":4587,"såtte":4588,"spis":4589,"vedkommende":4590,"##øya":4591,"##sliv":4592,"kontrol":4593,"##små":4594,"##smann":4595,"##ict":4596,"##aktig":4597,"##aster":4598,"herr":4599,"dels":4600,"##ammet":4601,"##lement":4602,"Intern":4603,"1998":4604,"moren":4605,"kontor":4606,"##stående":4607,"produkter":4608,"høsten":4609,"relev":4610,"neppe":4611,"Andreas":4612,"forfatter":4613,"Fredrik":4614,"praktisk":4615,"kjørte":4616,"amerikanske":4617,"stirret":4618,"77":4619,"76":4620,"Ex":4621,"FOR":4622,"Gjer":4623,"Im":4624,"Sande":4625,"Tro":4626,"bos":4627,"fare":4628,"gu":4629,"hud":4630,"rd":4631,"rolig":4632,"sår":4633,"vand":4634,"##iell":4635,"##act":4636,"##ran":4637,"##gum":4638,"##ønn":4639,"##RU":4640,"##HH":4641,"##edet":4642,"tilgjeng":4643,"##tta":4644,"avvik":4645,"##skol":4646,"utgjør":4647,"##akte":4648,"##ordning":4649,"revis":4650,"prote":4651,"##ringe":4652,"fortel":4653,"kron":4654,"172":4655,"gjennomført":4656,"løse":4657,"univers":4658,"Maria":4659,"typ":4660,"##own":4661,"glede":4662,"ønsk":4663,"Thom":4664,"vannet":4665,"historien":4666,"##stedet":4667,"forvaltning":4668,"Henrik":4669,"mørke":4670,"opplæring":4671,"oppgåver":4672,"flertall":4673,".\"":4674,"68":4675,"Bre":4676,"Gi":4677,"How":4678,"Leg":4679,"danske":4680,"feng":4681,"rent":4682,"sand":4683,"sølv":4684,"uansett":4685,"vend":4686,"##srett":4687,"##ksten":4688,"##ould":4689,"##dyr":4690,"##gjer":4691,"##fi":4692,"##ino":4693,"forbruk":4694,"##ley":4695,"##iks":4696,"##iti":4697,"##uls":4698,"##ensending":4699,"##odd":4700,"##legge":4701,"kommunest":4702,"##organis":4703,"##gående":4704,"supp":4705,"deltak":4706,".).":4707,"funger":4708,"##ahl":4709,"kropp":4710,"perioden":4711,"struktur":4712,"Aften":4713,"Fri":4714,"Frem":4715,"Jer":4716,"Po":4717,"bom":4718,"dit":4719,"masse":4720,"rut":4721,"rollene":4722,"tone":4723,"øke":4724,"##lam":4725,"##ryg":4726,"##che":4727,"##øtet":4728,"##stud":4729,"##omat":4730,"##tein":4731,"tilstre":4732,"##rab":4733,"##ida":4734,"sko":4735,"##vers":4736,"##oter":4737,"spennende":4738,"##slam":4739,"##vard":4740,"vekst":4741,"løftet":4742,"##mpel":4743,"altfor":4744,"2019":4745,"politik":4746,"frivil":4747,"kjøre":4748,"handels":4749,"fløy":4750,"sitte":4751,"Kristian":4752,"fremme":4753,"Barn":4754,"nummer":4755,"opprettet":4756,"administrasjon":4757,"Morgensending":4758,"52":4759,"54":4760,"84":4761,"Bod":4762,"Gu":4763,"Mand":4764,"Post":4765,"Ras":4766,"Si":4767,"Sar":4768,"acc":4769,"finn":4770,"hov":4771,"jur":4772,"jød":4773,"tråd":4774,"tonn":4775,"venter":4776,"##iør":4777,"##iens":4778,"##kelige":4779,"##out":4780,"##vig":4781,"##band":4782,"##bane":4783,"##anne":4784,"##verks":4785,"##ities":4786,"varer":4787,"oversikt":4788,"ettermid":4789,"bland":4790,"##arbeider":4791,"eiend":4792,"kjøpe":4793,"statsminister":4794,"heim":4795,"havet":4796,"sign":4797,"begynnelsen":4798,"utvikle":4799,"fullstendig":4800,"Kari":4801,"direktør":4802,"mangler":4803,"##AND":4804,"Fotball":4805,"været":4806,"##~~~~~~~~":4807,"redusert":4808,"sentrale":4809,"poeng":4810,"sesong":4811,"tilfredsstil":4812,")\"\"":4813,"Mag":4814,"Tra":4815,"bad":4816,"dess":4817,"ep":4818,"frist":4819,"pat":4820,"##aur":4821,"##ep":4822,"tilnær":4823,"##skont":4824,"vilje":4825,"##ssp":4826,"Stav":4827,"Stock":4828,"##holdet":4829,"##setninger":4830,"2010":4831,"gården":4832,"Art":4833,"forbed":4834,"##rikke":4835,"tysk":4836,"kontin":4837,"Brit":4838,"president":4839,"##holm":4840,"prøver":4841,"fredag":4842,"tema":4843,"kolleg":4844,"diskusjon":4845,"myndigheter":4846,"##helm":4847,"Robert":4848,"Tromsø":4849,"Nattsending":4850,"49":4851,"59":4852,"57":4853,"56":4854,"89":4855,"Con":4856,"Eid":4857,"Just":4858,"Wh":4859,"felt":4860,"hjør":4861,"kul":4862,"mm":4863,"munnen":4864,"nam":4865,"pil":4866,"rike":4867,"ytre":4868,"##mos":4869,"##co":4870,"##ba":4871,"##za":4872,"##illere":4873,"ens":4874,"stakk":4875,"utn":4876,"##deren":4877,"kommentar":4878,"their":4879,"##vekst":4880,"sammens":4881,"merket":4882,"delen":4883,"##landske":4884,"##irekte":4885,"endret":4886,"##brudd":4887,"farge":4888,"spørre":4889,"lukket":4890,"øye":4891,"fleire":4892,"høg":4893,"klarer":4894,"generelt":4895,"omfatter":4896,"observ":4897,"normalt":4898,"Østfold":4899,"religi":4900,"fremmed":4901,"ropte":4902,"Jacob":4903,"Sigurd":4904,"By":4905,"Byg":4906,"Kro":4907,"Lou":4908,"Mr":4909,"Mic":4910,"Na":4911,"Rad":4912,"gru":4913,"just":4914,"mu":4915,"mass":4916,"pst":4917,"tå":4918,"uken":4919,"##side":4920,"##rel":4921,"##ulere":4922,"##ådet":4923,"##hl":4924,"##analy":4925,"##ilen":4926,"##stav":4927,"tilkn":4928,"some":4929,"strøm":4930,"##atelse":4931,"##ité":4932,"##ada":4933,"utr":4934,"##ular":4935,"oppdrag":4936,"gjaldt":4937,"således":4938,"overfl":4939,"##avgift":4940,"vedtatt":4941,"##sloven":4942,"##slivet":4943,"##imal":4944,"##enden":4945,"##veit":4946,"minste":4947,"regne":4948,"grund":4949,"demon":4950,"##lade":4951,"igjennom":4952,"1991":4953,"politikk":4954,"2009":4955,"begynne":4956,"utviklingen":4957,"onsdag":4958,"strid":4959,"frykt":4960,"avgjørende":4961,"hjerte":4962,"respekt":4963,"Bet":4964,"Dom":4965,"døy":4966,"hygg":4967,"jakt":4968,"sle":4969,"tann":4970,"##ira":4971,"##kningen":4972,"##prest":4973,"##gere":4974,"##fri":4975,"##indel":4976,"##onom":4977,"stede":4978,"strateg":4979,"##skilt":4980,"##itz":4981,"omgang":4982,"utform":4983,"utvid":4984,"bevilg":4985,"##ova":4986,"##spr":4987,"kone":4988,"konfl":4989,"konvensjon":4990,"##abler":4991,"fortalt":4992,"kvad":4993,"lei":4994,"174":4995,"arbeidsm":4996,"sammenlig":4997,"##ipl":4998,"lager":4999,"bygde":5000,"tyske":5001,"Dermed":5002,"lån":5003,"drifts":5004,"idrett":5005,"##området":5006,"gjeldende":5007,"##alderen":5008,"trengte":5009,"oppdaget":5010,"Likevel":5011,"AV":5012,"OL":5013,"Van":5014,"action":5015,"fro":5016,"rot":5017,"##shus":5018,"##tene":5019,"##ytter":5020,"##frå":5021,"##han":5022,"##tekter":5023,"tilt":5024,"##esp":5025,"##esse":5026,"dekk":5027,"##ndelag":5028,"spise":5029,"##istene":5030,"##merte":5031,"kvart":5032,"hente":5033,"##iseres":5034,"##enterte":5035,"2011":5036,"there":5037,"velge":5038,"ordfører":5039,"1986":5040,"##grid":5041,"våpen":5042,"partiet":5043,"høst":5044,"boka":5045,"skaper":5046,"menneskerett":5047,"forsøkte":5048,"hensikt":5049,"avtalen":5050,"Halvor":5051,"innsats":5052,"##marks":5053,"disp":5054,"linje":5055,"drama":5056,"fylkeskommun":5057,"jobbe":5058,"skaffe":5059,"Larsen":5060,"Regjeringen":5061,"Rosenborg":5062,"Do":5063,"Kva":5064,"TIL":5065,"dobb":5066,"fing":5067,"faller":5068,"lid":5069,"lover":5070,"ryd":5071,"ær":5072,"##mil":5073,"##cil":5074,"##fang":5075,"##fisk":5076,"##fjell":5077,"##øde":5078,"##RI":5079,"##ØR":5080,"##henger":5081,"##ari":5082,"forhandling":5083,"påpe":5084,"##skab":5085,"##ash":5086,"##anda":5087,"##sem":5088,"målet":5089,"##utning":5090,"##asjonene":5091,"##imum":5092,"##...":5093,"undervisning":5094,"komp":5095,"komedie":5096,"bruket":5097,"hender":5098,"##essor":5099,"##settes":5100,"ordin":5101,"##kjente":5102,"##ology":5103,"snakk":5104,"nærmest":5105,"solgt":5106,"##struktur":5107,"tanken":5108,"oppfyl":5109,"temperatur":5110,"markeds":5111,"sentral":5112,"oppgave":5113,"##ween":5114,"etabler":5115,"66":5116,"72":5117,"Jensen":5118,"Ly":5119,"Matt":5120,"Mennes":5121,"dvs":5122,"government":5123,"jenter":5124,"jfr":5125,"sag":5126,"sold":5127,"seng":5128,"vitenskap":5129,"åra":5130,"ør":5131,"øver":5132,"##ming":5133,"##AC":5134,"##jor":5135,"##bel":5136,"##UR":5137,"tilhør":5138,"##asen":5139,"##aser":5140,"##ktøy":5141,"##lim":5142,"##uren":5143,"##urdere":5144,"anal":5145,"innfly":5146,"elsker":5147,"##istet":5148,"##mmende":5149,"derimot":5150,"rekl":5151,"trening":5152,"##smenn":5153,"Norske":5154,"between":5155,"##cher":5156,"veit":5157,"litter":5158,"sving":5159,"bygda":5160,"##plikt":5161,"##velop":5162,"typer":5163,"Deretter":5164,"glass":5165,"hjelper":5166,"##ible":5167,"Thor":5168,"grep":5169,"##brit":5170,"sikte":5171,"forvent":5172,"kirken":5173,"Storbrit":5174,"vurdering":5175,"sove":5176,"Høyre":5177,"bakken":5178,"totalt":5179,"umulig":5180,"kristne":5181,"Videre":5182,"Svein":5183,"alminn":5184,"europe":5185,"##rørende":5186,"tilstrekkelig":5187,".-":5188,"Då":5189,"Fig":5190,"Mel":5191,"Sæ":5192,"Ter":5193,"byr":5194,"don":5195,"fær":5196,"iv":5197,"ill":5198,"mek":5199,"rene":5200,"russ":5201,"væ":5202,"##ii":5203,"##bed":5204,"##ukket":5205,"##SL":5206,"##har":5207,"##sto":5208,"forbered":5209,"##leie":5210,"avstand":5211,"stanset":5212,"##ørr":5213,"##ato":5214,"##atnet":5215,"##litt":5216,"##forsamling":5217,"overt":5218,"##sled":5219,"reist":5220,"##alla":5221,"toppen":5222,"konfer":5223,"##innene":5224,"plassen":5225,"##ødt":5226,"reglene":5227,"kjenne":5228,"nedover":5229,"Ingrid":5230,"maa":5231,"bedrifter":5232,"evne":5233,"##ebygg":5234,"##synet":5235,"nødvendige":5236,"Grunn":5237,"fantast":5238,"elevane":5239,"##vidt":5240,"fjerne":5241,"Wilhelm":5242,"fornøyd":5243,"utslipp":5244,"himmel":5245,"Folke":5246,"Kristians":5247,"Trøndelag":5248,"63":5249,"Flere":5250,"Kultur":5251,"Sammen":5252,"Veg":5253,"fund":5254,"fabr":5255,"mik":5256,"ment":5257,"tirsdag":5258,"##sse":5259,"##kul":5260,"##vind":5261,"##æg":5262,"##felt":5263,"##ht":5264,"##hø":5265,"##etro":5266,"##ania":5267,"##iled":5268,"forret":5269,"forster":5270,"skatte":5271,"skifte":5272,"opps":5273,"oppover":5274,"elsk":5275,"##ennelse":5276,"##sleder":5277,"motstand":5278,"orden":5279,"regnet":5280,"registrer":5281,"registrert":5282,"1000":5283,"grense":5284,"begrav":5285,"rettigheter":5286,"##ctor":5287,"høyde":5288,"verdi":5289,"2008":5290,"stemmen":5291,"hemmelig":5292,"døra":5293,"svare":5294,"korleis":5295,"planer":5296,"##ulerer":5297,"##ulering":5298,"intet":5299,"This":5300,"press":5301,"kaller":5302,"faktor":5303,"oppfatning":5304,"sønnen":5305,"profesjon":5306,"normal":5307,"ringe":5308,"valget":5309,"grønn":5310,"myndighet":5311,"utgifter":5312,"naturligvis":5313,"klima":5314,"interessert":5315,"hindre":5316,"Jørgen":5317,"hjertet":5318,"inkluder":5319,"Arbeiderpartiet":5320,"Stavanger":5321,"Brø":5322,"Dr":5323,"DN":5324,"Ek":5325,"FRE":5326,"Kal":5327,"Lov":5328,"Mat":5329,"Nes":5330,"Rog":5331,"bot":5332,"ler":5333,"ni":5334,"ton":5335,"vass":5336,"##iere":5337,"##saa":5338,"##TER":5339,"##cle":5340,"##wn":5341,"##elte":5342,"forrige":5343,"##unksjon":5344,"##esen":5345,"##skon":5346,"initi":5347,"##ningar":5348,"spar":5349,"spred":5350,"måle":5351,"##elling":5352,"årets":5353,"##ringene":5354,"landbruks":5355,"Inter":5356,"##enteret":5357,"Herren":5358,"redde":5359,"Marg":5360,"Marit":5361,"heilt":5362,"##offer":5363,"##ivert":5364,"hovedsak":5365,"lettere":5366,"##brand":5367,"beskytt":5368,"jobbet":5369,"##struksjon":5370,"Ord":5371,"bøker":5372,"##områder":5373,"nasjonale":5374,"levde":5375,"Finnmark":5376,"Pedersen":5377,"Steinar":5378,"##ørsmål":5379,"tilknyt":5380,"Storbritann":5381,"64":5382,"83":5383,"Di":5384,"Hand":5385,"Hadde":5386,"Lil":5387,"NG":5388,"Nett":5389,"SK":5390,"York":5391,"emp":5392,"jev":5393,"jente":5394,"log":5395,"taler":5396,"##ij":5397,"##sord":5398,"##sund":5399,"##kjør":5400,"##Tb":5401,"##dommer":5402,"##ummer":5403,"##eloven":5404,"##egående":5405,"foreløp":5406,"##identen":5407,"utsatt":5408,"utført":5409,"##ject":5410,"oppd":5411,"anvend":5412,"##forening":5413,"##hets":5414,"måter":5415,"overv":5416,"overbe":5417,"##øye":5418,"2020":5419,"##vekt":5420,"minne":5421,"##holdning":5422,"demokrat":5423,"neder":5424,"hverdag":5425,"trekk":5426,"brans":5427,"søster":5428,"##jema":5429,"2004":5430,"2007":5431,"stem":5432,"isol":5433,"kapit":5434,"vanlige":5435,"leser":5436,"beskriv":5437,"##sprogram":5438,"løsninger":5439,"sendte":5440,"kryss":5441,"Godt":5442,"Noe":5443,"Håkon":5444,"elektr":5445,"sekund":5446,"Bodø":5447,"kvadrat":5448,"800":5449,"Fly":5450,"Gar":5451,"Gro":5452,"Jap":5453,"Morten":5454,"OPP":5455,"VI":5456,"band":5457,"bank":5458,"galt":5459,"glem":5460,"hurt":5461,"lim":5462,"mal":5463,"mult":5464,"osv":5465,"vurdere":5466,"##ielt":5467,"##messig":5468,"##sler":5469,"##tende":5470,"##telse":5471,"##TE":5472,"##pert":5473,"##ænd":5474,"##havn":5475,"##ines":5476,"##egnet":5477,"stab":5478,"stift":5479,"utvalg":5480,"##lir":5481,"oppstå":5482,"via":5483,"århund":5484,"dukket":5485,"##ffen":5486,"##ics":5487,"##legger":5488,"kjær":5489,"dele":5490,"taus":5491,"prp":5492,"landets":5493,"lyset":5494,"bror":5495,"gård":5496,"politi":5497,"frit":5498,"kjøper":5499,"verken":5500,"redu":5501,"stempel":5502,"##sby":5503,"Johansen":5504,"##pris":5505,"1965":5506,"nærmeste":5507,"fritt":5508,"##gaver":5509,"mangel":5510,"Solberg":5511,"forståelse":5512,"gjekk":5513,"pasient":5514,"rapport":5515,"##melding":5516,"opplysninger":5517,"identif":5518,"Israel":5519,"vondt":5520,"Aud":5521,"Dere":5522,"Esp":5523,"Føl":5524,"Foll":5525,"Ital":5526,"Natur":5527,"Sen":5528,"Sjø":5529,"Tø":5530,"fon":5531,"het":5532,"len":5533,"##sar":5534,"##oper":5535,"##runn":5536,"##ban":5537,"##bør":5538,"##uf":5539,"##hn":5540,"##eden":5541,"forel":5542,"##unger":5543,"still":5544,"##agraf":5545,"##ullet":5546,"oppford":5547,"##oten":5548,"vide":5549,"##utvikling":5550,"##slin":5551,"##ikten":5552,"##veks":5553,"##icip":5554,"kjenn":5555,"170":5556,"##føreren":5557,"##lands":5558,"synd":5559,"##ifik":5560,"søker":5561,"følelse":5562,"kommunene":5563,"kommunikasjon":5564,"Arn":5565,"169":5566,"##appar":5567,"håpet":5568,"##vendig":5569,"##sdal":5570,"Erling":5571,"plassert":5572,"##styret":5573,"##ferdig":5574,"bidrar":5575,"kunstner":5576,"stykke":5577,"##verdig":5578,"pasienter":5579,"##posten":5580,"dokument":5581,"Politiet":5582,"mandag":5583,"Phil":5584,";.":5585,"Bør":5586,"Bak":5587,"Id":5588,"Mål":5589,"Ser":5590,"ed":5591,"ele":5592,"fig":5593,"fik":5594,"go":5595,"hentet":5596,"kop":5597,"lens":5598,"nekt":5599,"son":5600,"øker":5601,"##makt":5602,"##sent":5603,"##satte":5604,"##kort":5605,"##vart":5606,"##gifter":5607,"##ugen":5608,"##fir":5609,"##fred":5610,"##hov":5611,"##10":5612,"##egrupp":5613,"##unge":5614,"erkl":5615,"##skom":5616,"##atiske":5617,"skil":5618,"skille":5619,"insp":5620,"develop":5621,"##itim":5622,"varier":5623,"gjere":5624,"innlegg":5625,"spre":5626,"##ssel":5627,"vedlike":5628,"armene":5629,"##inntekt":5630,"##veis":5631,"1800":5632,"brutt":5633,"leir":5634,"##ighets":5635,"symb":5636,"##irektør":5637,"forsiktig":5638,"##ydro":5639,"bygger":5640,"kjøpt":5641,"våren":5642,"indik":5643,"##haver":5644,"meiner":5645,"##grens":5646,"1946":5647,"boken":5648,"resultatet":5649,"##sgrupp":5650,"standard":5651,"produksjonen":5652,"absol":5653,"sosialt":5654,"melding":5655,"sykdom":5656,"gutten":5657,"konkurranse":5658,"##uesp":5659,"Midt":5660,"inntrykk":5661,"##industrien":5662,"##lemmene":5663,"størrelse":5664,"Don":5665,"Fj":5666,"Hot":5667,"Kå":5668,"Vis":5669,"bon":5670,"bib":5671,"dansk":5672,"foll":5673,"sing":5674,"tend":5675,"ære":5676,"##aard":5677,"##LE":5678,"##fekt":5679,"##stab":5680,"forklare":5681,"avis":5682,"stry":5683,"studer":5684,"##verre":5685,"##verdi":5686,"utlandet":5687,"##kkende":5688,"##otering":5689,"##aka":5690,"angrep":5691,"nogen":5692,"noget":5693,"innrø":5694,"##ista":5695,"##øyde":5696,"etterpå":5697,"argum":5698,"##resse":5699,"fremtiden":5700,"##ips":5701,"nærheten":5702,"kommunale":5703,"kjønn":5704,"forbud":5705,"møtet":5706,"svarer":5707,"teater":5708,"##sny":5709,"tilfeller":5710,"personlig":5711,"nødt":5712,"dyre":5713,"##useum":5714,"behovet":5715,"halvt":5716,"Jonas":5717,"tillit":5718,"luften":5719,"fisker":5720,"fjern":5721,"hevder":5722,"kollekt":5723,"øvrig":5724,"øvrige":5725,"røde":5726,"representant":5727,"frukt":5728,"kvinnen":5729,"dokumentar":5730,"gulvet":5731,"arkite":5732,"britiske":5733,"Fylke":5734,"NGO":5735,"AN":5736,"Bla":5737,"Ca":5738,"Gra":5739,"Mac":5740,"Rett":5741,"divid":5742,"hyl":5743,"ild":5744,"ori":5745,"sens":5746,"##må":5747,"##sing":5748,"##nø":5749,"##nok":5750,"##person":5751,"##ute":5752,"##fru":5753,"##sti":5754,"##ometer":5755,"##alp":5756,"enige":5757,"##rakte":5758,"##olt":5759,"##amen":5760,"##skost":5761,"##skraft":5762,"##skrig":5763,"##ating":5764,"##ason":5765,"##tert":5766,"vill":5767,"sir":5768,"##anner":5769,"slit":5770,"##spør":5771,"kona":5772,"##ionen":5773,"leie":5774,"henger":5775,"delvis":5776,"##elsens":5777,"fine":5778,"framtid":5779,"barns":5780,"1984":5781,"1980":5782,"##hael":5783,"##sdotter":5784,"aktiv":5785,"uttal":5786,"åpent":5787,"dykt":5788,"sjøen":5789,"bokstav":5790,"gruppen":5791,"faste":5792,"Blant":5793,"foretatt":5794,"bønn":5795,"forklarer":5796,"count":5797,"forlot":5798,"forsvant":5799,"tungt":5800,"Kapittel":5801,"74":5802,"Hele":5803,"Jord":5804,"Mos":5805,"NO":5806,"Ring":5807,"effe":5808,"hode":5809,"lat":5810,"passe":5811,"##sik":5812,"##sels":5813,"##kle":5814,"##nar":5815,"##FT":5816,"##vi":5817,"##øver":5818,"##åg":5819,"##åten":5820,"##IG":5821,"##19":5822,"##inene":5823,"##tten":5824,"stav":5825,"stål":5826,"##idd":5827,"##ament":5828,"##ages":5829,"inse":5830,"##ninga":5831,"gjent":5832,"innh":5833,"##kså":5834,"##istan":5835,"##anna":5836,"trolig":5837,"##smynd":5838,"tidleg":5839,"kompl":5840,"##ific":5841,"svak":5842,"høyeste":5843,"than":5844,"menneskene":5845,"parlam":5846,"prosess":5847,"statsb":5848,"Marc":5849,"berør":5850,"kontrakt":5851,"signal":5852,"1985":5853,"##obby":5854,"1976":5855,"##produ":5856,"##insipp":5857,"veggen":5858,"bidrag":5859,"sørge":5860,"dreier":5861,"radio":5862,"kamer":5863,"settes":5864,"Søndag":5865,"husker":5866,"butikken":5867,"India":5868,"vinteren":5869,"Einar":5870,"positive":5871,"human":5872,"Begge":5873,"undert":5874,"primær":5875,"spec":5876,"trafikk":5877,"blomster":5878,"Bjar":5879,"nabo":5880,"slippe":5881,"foreligger":5882,"Thomas":5883,"fungerer":5884,"Rasmus":5885,"mikro":5886,"600":5887,"Dy":5888,"Histor":5889,"San":5890,"Sil":5891,"ac":5892,"doll":5893,"drev":5894,"ivaret":5895,"ku":5896,"ristet":5897,"tol":5898,"tolk":5899,"##ient":5900,"##mund":5901,"##kr":5902,"##kan":5903,"##ti":5904,"##vne":5905,"##vent":5906,"##<<":5907,"##inke":5908,"##stolen":5909,"forek":5910,"tilgang":5911,"erst":5912,"stilte":5913,"##idar":5914,"##iddel":5915,"medarbeid":5916,"##sky":5917,"infl":5918,"##ited":5919,"omg":5920,"utel":5921,"##ulen":5922,"##ivind":5923,"##uset":5924,"##asjonal":5925,"Stud":5926,"klo":5927,"klokken":5928,"##smøte":5929,"##gjorde":5930,"##ellem":5931,"merk":5932,"##ugge":5933,"150":5934,"verdier":5935,"velferd":5936,"anses":5937,"Tryg":5938,"vider":5939,"##handler":5940,"Tore":5941,"åpner":5942,"dypt":5943,"forskjellig":5944,"frihet":5945,"invest":5946,"##bout":5947,"forsøker":5948,"##strid":5949,"##budet":5950,"##nevnt":5951,"rapporten":5952,"total":5953,"tunge":5954,"bestemmelser":5955,"ressurser":5956,"##løsning":5957,"beslutning":5958,"leilighet":5959,"vakre":5960,"##bjørn":5961,"flyktninger":5962,"kjøkkenet":5963,"uavhengig":5964,"såkalte":5965,"eldste":5966,"rdl":5967,"hovud":5968,"Storbritannia":5969,"79":5970,"Beste":5971,"Cla":5972,"Dra":5973,"Eir":5974,"Fre":5975,"Fisk":5976,"Hell":5977,"Hege":5978,"Island":5979,"Mus":5980,"Mod":5981,"Ob":5982,"TR":5983,"Tel":5984,"Tek":5985,"bind":5986,"gjem":5987,"gate":5988,"jub":5989,"kyst":5990,"pur":5991,"salt":5992,"vende":5993,"##mest":5994,"##sider":5995,"##kampen":5996,"##vn":5997,"##dommen":5998,"##prø":5999,"##KE":6000,"##åm":6001,"##UN":6002,"##inet":6003,"##institusjon":6004,"ende":6005,"##rast":6006,"##iken":6007,"##ola":6008,"skjel":6009,"##ppene":6010,"dec":6011,"utv":6012,"utred":6013,"oppleve":6014,"##ikkelen":6015,"sper":6016,"##ellene":6017,"##ssystem":6018,"##yng":6019,"##sla":6020,"##merket":6021,"betre":6022,"##indre":6023,"##mpet":6024,"##evin":6025,"##ipapir":6026,"grunnen":6027,"##trer":6028,"##formasjon":6029,"størst":6030,"handel":6031,"parker":6032,"Sever":6033,"Ellen":6034,"aktuelle":6035,"middag":6036,"fastsatt":6037,"##pren":6038,"likhet":6039,"1964":6040,"presset":6041,"valgte":6042,"vegne":6043,"halvparten":6044,"forslaget":6045,"resultater":6046,"styrem":6047,"foreta":6048,"used":6049,"mørk":6050,"butikk":6051,"skoler":6052,"Show":6053,"sterkere":6054,"tradisjonelle":6055,"Sjå":6056,"folketryg":6057,"##fullt":6058,"gratis":6059,"vinduet":6060,"fantes":6061,"ovenfor":6062,"symbol":6063,"videregående":6064,"-\"\"":6065,"AR":6066,"Aug":6067,"Bon":6068,"Bes":6069,"Del":6070,"Fe":6071,"FR":6072,"Hov":6073,"IV":6074,"Kont":6075,"Val":6076,"drikke":6077,"fen":6078,"fla":6079,"kaf":6080,"magen":6081,"non":6082,"økte":6083,"##loven":6084,"##ty":6085,"##pass":6086,"##ures":6087,"##ward":6088,"##SE":6089,"##zar":6090,"##etning":6091,"##elde":6092,"##ala":6093,"entre":6094,"avdeling":6095,"stilt":6096,"##amet":6097,"##ameter":6098,"skuesp":6099,"##ague":6100,"##ross":6101,"##urte":6102,"##terte":6103,">>\"\"":6104,"spr":6105,"spenning":6106,"##mmes":6107,"##iskop":6108,"##øyer":6109,"##udsj":6110,"##osa":6111,"undervis":6112,"##skapen":6113,"##ansvar":6114,"##ringa":6115,"regner":6116,"##iseringen":6117,"##utten":6118,"syne":6119,"trekker":6120,"svensk":6121,"langsomt":6122,"2012":6123,"##organ":6124,"ansatt":6125,"trade":6126,"livs":6127,"lignende":6128,"parall":6129,"Deres":6130,"250":6131,"låg":6132,"fylkes":6133,"....":6134,"flest":6135,"samtalen":6136,"kapital":6137,"naturen":6138,"intens":6139,"1960":6140,"turen":6141,"ansvarlig":6142,"1950":6143,"organisasjonen":6144,"representerer":6145,"##byggere":6146,"fellesskap":6147,"its":6148,"Ung":6149,"Willi":6150,"tvang":6151,"##kretær":6152,"Ingeborg":6153,"regnskap":6154,"##sessen":6155,"himmelen":6156,"forsikring":6157,"heldig":6158,"sjelden":6159,"universitet":6160,"hyggelig":6161,"initiativ":6162,"78":6163,"Bev":6164,"Gull":6165,"Ir":6166,"Miljø":6167,"Rapp":6168,"Vir":6169,"bit":6170,"brå":6171,"dim":6172,"gutter":6173,"had":6174,"hang":6175,"håret":6176,"last":6177,"ramme":6178,"soc":6179,"solen":6180,"tt":6181,"work":6182,"økende":6183,"##mag":6184,"##sarbeid":6185,"##knings":6186,"##nede":6187,"##voll":6188,"##valtning":6189,"##bot":6190,"##uste":6191,"##win":6192,"##orgen":6193,"##illig":6194,"##stim":6195,"former":6196,"tilsk":6197,"##ttene":6198,"utgift":6199,"oppfølg":6200,"##rust":6201,"spilt":6202,"overført":6203,"hund":6204,"kongen":6205,"konkl":6206,"klær":6207,"##aktor":6208,"##aktivitet":6209,"##abell":6210,"##erske":6211,"skuldrene":6212,"lyder":6213,"lykkes":6214,"normer":6215,"120":6216,"båten":6217,"##rettet":6218,"bedt":6219,"Herrens":6220,"sjansen":6221,"eval":6222,"knapt":6223,"1983":6224,"adj":6225,"nettet":6226,"1973":6227,"1977":6228,"dykk":6229,"kalde":6230,"##undersøk":6231,"enkle":6232,"starten":6233,"differ":6234,"konsent":6235,"Univers":6236,"show":6237,"objekt":6238,"fornuft":6239,"effektiv":6240,"ringte":6241,"markedet":6242,"mottak":6243,"skjeb":6244,"sidan":6245,"##iljøet":6246,"Finland":6247,"foregår":6248,"handlinger":6249,"vakker":6250,"Øvre":6251,"General":6252,"follow":6253,"Austr":6254,"Bry":6255,"Distrikt":6256,"EM":6257,"Eit":6258,"Fo":6259,"Felle":6260,"Hum":6261,"IN":6262,"Je":6263,"Jfr":6264,"Jack":6265,"KO":6266,"Lørdag":6267,"Nær":6268,"Ram":6269,"bre":6270,"ball":6271,"bærer":6272,"epost":6273,"fo":6274,"kring":6275,"maler":6276,"maks":6277,"ner":6278,"nom":6279,"nest":6280,"rart":6281,"tlf":6282,"you":6283,"økning":6284,"##lis":6285,"##ever":6286,"##gs":6287,"##øtte":6288,"##wa":6289,"##orsk":6290,"##inc":6291,"##resten":6292,"##ikal":6293,"media":6294,"##atret":6295,"skad":6296,"skøy":6297,"def":6298,"##ads":6299,"harde":6300,"##liote":6301,"frakt":6302,"nokså":6303,"innført":6304,"##orth":6305,"##ordin":6306,"##annelse":6307,"slu":6308,"refer":6309,"etterspør":6310,"toget":6311,"klasser":6312,"klubben":6313,"plast":6314,"leste":6315,"Noreg":6316,"##setj":6317,"veier":6318,"hverken":6319,"fremtid":6320,"frisk":6321,"fransk":6322,"bestemme":6323,"møn":6324,"perspekt":6325,"målsett":6326,"fyller":6327,"kaptein":6328,"sluttet":6329,"##virkning":6330,"matr":6331,"faglig":6332,"skapt":6333,"##splan":6334,"ansvaret":6335,"nevnte":6336,"behandlet":6337,"samarbeidet":6338,"aksjer":6339,"forklaring":6340,"Luc":6341,"vanligvis":6342,"sentralt":6343,"Komiteen":6344,"trykket":6345,"praktiske":6346,"positiv":6347,"interessant":6348,"intervju":6349,"Nedenes":6350,"fysisk":6351,"Hedda":6352,"fanget":6353,"strøk":6354,"militær":6355,"belast":6356,"konsekvens":6357,"skikkelig":6358,"Wilhelmsen":6359,"Ben":6360,"Bok":6361,"Bert":6362,"Eli":6363,"Grat":6364,"Kle":6365,"Lis":6366,"Lisa":6367,"Mellom":6368,"Mannen":6369,"NP":6370,"Pe":6371,"Slike":6372,"aw":6373,"aksjon":6374,"can":6375,"gal":6376,"likt":6377,"most":6378,"pause":6379,"sæ":6380,"tu":6381,"##natt":6382,"##ji":6383,"##fot":6384,"##orld":6385,"##anlig":6386,"##arb":6387,"##elet":6388,"ogsaa":6389,"##rapp":6390,"skinn":6391,"atom":6392,"varmt":6393,"omgiv":6394,"utbet":6395,"##æringen":6396,"##uring":6397,"alli":6398,"nov":6399,"spill":6400,"##behandling":6401,"##ynt":6402,"ettersom":6403,"motoren":6404,"kombin":6405,"henge":6406,"nåværende":6407,"endte":6408,"verdipapir":6409,"latter":6410,"2006":6411,"legg":6412,"##plasser":6413,"flott":6414,"typen":6415,"huske":6416,"ekst":6417,"begynt":6418,"korre":6419,"##løse":6420,"fylt":6421,"tekstil":6422,"such":6423,"League":6424,"hvilket":6425,"gjenstand":6426,".),":6427,"forvalt":6428,"benyttes":6429,"idé":6430,"fjerde":6431,"fulgt":6432,"Europe":6433,"kaste":6434,"pasienten":6435,"rapporter":6436,"sesongen":6437,"stoppet":6438,"##................................":6439,"Vera":6440,"maskin":6441,"vokste":6442,"Carl":6443,"firma":6444,"fysiske":6445,"restaur":6446,"skjønner":6447,"negative":6448,"hotell":6449,"tilgjengelig":6450,"Michael":6451,"Kristiansand":6452,"hurtig":6453,"Kåre":6454,"Eivind":6455,"Gul":6456,"Molde":6457,"NOR":6458,"Søk":6459,"Tru":6460,"Takk":6461,"back":6462,"cl":6463,"dial":6464,"frø":6465,"feste":6466,"flag":6467,"gri":6468,"hr":6469,"hær":6470,"heng":6471,"kikket":6472,"lette":6473,"num":6474,"right":6475,"sne":6476,"use":6477,"Øog":6478,"##ates":6479,"##krig":6480,"##kamp":6481,"##kunst":6482,"##tere":6483,"##gi":6484,"##bas":6485,"##ømme":6486,"##VER":6487,"##hjem":6488,"##hånd":6489,"##elske":6490,"##egor":6491,"##ales":6492,"tilskudd":6493,"dets":6494,"##oller":6495,"steng":6496,"stått":6497,"##ames":6498,"##skriv":6499,"##skritt":6500,"skader":6501,"ins":6502,"##urens":6503,"opphold":6504,"etc":6505,"bekl":6506,"hvisk":6507,"overord":6508,"##artet":6509,"seil":6510,"##geren":6511,"arm":6512,"armen":6513,"trener":6514,"##endt":6515,"Stra":6516,"motiv":6517,"##smeld":6518,"##smøtet":6519,"tids":6520,"underholdning":6521,"##rykket":6522,"##abor":6523,"plikt":6524,"orig":6525,"bruks":6526,"dagene":6527,"##rete":6528,"Enkel":6529,"betalt":6530,"landene":6531,"##leggende":6532,"these":6533,"farger":6534,"bestemmer":6535,"ordning":6536,"lege":6537,"legem":6538,"verre":6539,"forholdsvis":6540,"kontoret":6541,"##ological":6542,"1987":6543,"adgang":6544,"dominer":6545,"1979":6546,"1940":6547,"##system":6548,"##jorden":6549,"##present":6550,"foto":6551,"delta":6552,"Ross":6553,"døden":6554,"forsøkt":6555,"kjempe":6556,"tillatelse":6557,"budde":6558,"hjul":6559,"virkeligheten":6560,"konsesjon":6561,"trukket":6562,"kamper":6563,"public":6564,"internasjonal":6565,"##avtale":6566,"diskuter":6567,"opprør":6568,"##hengen":6569,"aktiviteter":6570,"Birg":6571,"Verdens":6572,"opprinnelige":6573,"##bryter":6574,"FNs":6575,"Norweg":6576,"seinare":6577,"dobbelt":6578,"foreløpig":6579,"94":6580,"96":6581,"Bø":6582,"Eks":6583,"Emil":6584,"Ragn":6585,"Råd":6586,"VG":6587,"about":6588,"bost":6589,"cy":6590,"div":6591,"dru":6592,"glade":6593,"klem":6594,"mr":6595,"our":6596,"pent":6597,"sil":6598,"##liv":6599,"##sess":6600,"##ksen":6601,"##ned":6602,"##rommet":6603,"##AP":6604,"##vo":6605,"##ced":6606,"##cess":6607,"##bert":6608,"##brø":6609,"##banen":6610,"##funn":6611,"##NING":6612,"##orge":6613,"##ileder":6614,"##strø":6615,"##alde":6616,"tilh":6617,"ent":6618,"enig":6619,"##esser":6620,"##idler":6621,"skilt":6622,"utbygging":6623,"##ården":6624,"##liggende":6625,"oppt":6626,"oppført":6627,"etasje":6628,"##fore":6629,"innvand":6630,"innbyggere":6631,"samle":6632,"spen":6633,"##asjons":6634,"arter":6635,"##innen":6636,"Strøm":6637,"##smål":6638,"##aktør":6639,"##ansert":6640,"##assene":6641,"regnes":6642,"Forsvar":6643,"grenser":6644,"##perim":6645,"nedenfor":6646,"##kenes":6647,"##oppen":6648,"verdif":6649,"nokre":6650,"nokon":6651,"##kontroll":6652,"##jørn":6653,"snill":6654,"handle":6655,"verste":6656,"Angel":6657,"glob":6658,"korte":6659,"midten":6660,"##register":6661,"##sdagen":6662,"1969":6663,"generelle":6664,"spesiell":6665,"skjønte":6666,"Program":6667,"##sprosjekt":6668,"when":6669,"forsøke":6670,"##eløpet":6671,"milliarder":6672,"problemet":6673,"termin":6674,"jazz":6675,"benyttet":6676,"systemet":6677,"eventuell":6678,"kolon":6679,"could":6680,"Bruk":6681,"tomt":6682,"Helge":6683,"barnets":6684,"giftet":6685,"gråt":6686,"##havet":6687,"utgangspunktet":6688,"potens":6689,"##bjørg":6690,"søknad":6691,"Simon":6692,"kines":6693,"befolkningen":6694,"yrke":6695,"opplyser":6696,"Amerika":6697,"Russland":6698,"innflytelse":6699,"fantastisk":6700,"-,":6701,"700":6702,"Comm":6703,"Fru":6704,"Mil":6705,"Master":6706,"Sag":6707,"Tar":6708,"beløp":6709,"cent":6710,"comm":6711,"dir":6712,"hug":6713,"islam":6714,"lest":6715,"liter":6716,"sed":6717,"sinn":6718,"smerte":6719,"upp":6720,"umiddel":6721,"yt":6722,"øre":6723,"##ied":6724,"##meter":6725,"##ky":6726,"##keg":6727,"##knet":6728,"##nivå":6729,"##vatn":6730,"##dalen":6731,"##pene":6732,"##pla":6733,"##bro":6734,"##ful":6735,"##12":6736,"##igen":6737,"##alene":6738,"##key":6739,"avsnitt":6740,"##neprest":6741,"skule":6742,"departementet":6743,"##ulv":6744,"##årene":6745,"##ival":6746,"måler":6747,"overtak":6748,"vedrørende":6749,"arv":6750,"top":6751,"trett":6752,"##smessige":6753,"##astro":6754,"minimum":6755,"henvend":6756,"##oster":6757,"godkjent":6758,"prom":6759,"treffe":6760,"grunnleggende":6761,"beholde":6762,"Jose":6763,"møtt":6764,"status":6765,"##økene":6766,"##jenester":6767,"ledelse":6768,"bortsett":6769,"1975":6770,"sengen":6771,"skjul":6772,"egenskaper":6773,"historiske":6774,"eksempler":6775,"##blad":6776,"nevner":6777,"##bytte":6778,"##ighed":6779,"leverand":6780,"sykeple":6781,"Første":6782,"Sverre":6783,"professor":6784,"føres":6785,"marker":6786,"##gård":6787,"mørket":6788,"fulle":6789,"mennene":6790,"selskapets":6791,"teknologi":6792,"drar":6793,"bevegelse":6794,"forutsetninger":6795,"##kastet":6796,"debatt":6797,"Event":6798,"telefonen":6799,"incl":6800,"preget":6801,"##spartiet":6802,"begrepet":6803,"typisk":6804,"vendte":6805,"utrolig":6806,"konflikt":6807,"Japan":6808,"Italia":6809,"62":6810,"Ask":6811,"Bed":6812,"Lo":6813,"Met":6814,"Pet":6815,"UD":6816,"Vig":6817,"let":6818,"laks":6819,"mellem":6820,"oil":6821,"rammet":6822,"syl":6823,"uden":6824,"vinner":6825,"##mester":6826,"##mynd":6827,"##ail":6828,"##kanten":6829,"##rane":6830,"##TT":6831,"##vald":6832,"##ykket":6833,"##jes":6834,"##æv":6835,"##bakk":6836,"##fatt":6837,"##fast":6838,"##flate":6839,"##ømte":6840,"##EK":6841,"##EC":6842,"##hammer":6843,"##IK":6844,"##står":6845,"stiv":6846,"stuen":6847,"skrå":6848,"skild":6849,"##ommene":6850,"##tering":6851,"##ods":6852,"beite":6853,"##istikk":6854,"overgang":6855,"overgrep":6856,"##ordningen":6857,"##erten":6858,"##slutning":6859,"##lings":6860,"##spiller":6861,"helhet":6862,"##yrer":6863,"trus":6864,"##ittil":6865,"klubb":6866,"beting":6867,"godkj":6868,"veks":6869,"gjennomføring":6870,"syv":6871,"bydel":6872,"##staden":6873,"svaret":6874,"ledet":6875,"advok":6876,"##hazar":6877,"only":6878,"plante":6879,"##løst":6880,"aktivt":6881,"teksten":6882,"åpning":6883,"1949":6884,"into":6885,"1961":6886,"##rådene":6887,"studier":6888,"deltok":6889,"invol":6890,"tiltakene":6891,"##blå":6892,"million":6893,"##sgiver":6894,"metode":6895,"Nyheter":6896,"kostnader":6897,"miljøet":6898,"##bygger":6899,"skolene":6900,"Kongen":6901,"erfaringer":6902,"##nevnte":6903,"Nilsen":6904,"elektron":6905,"sjuk":6906,"Charles":6907,"militære":6908,"sannsynligvis":6909,"##ørsmålet":6910,"konsekvenser":6911,"tankene":6912,"##hjelp":6913,"inngått":6914,"detalj":6915,"romantisk":6916,"absolutt":6917,"Enkelte":6918,"./":6919,"900":6920,"Aar":6921,"Best":6922,"Can":6923,"Eva":6924,"Hu":6925,"Hit":6926,"Hjel":6927,"Ivar":6928,"Ju":6929,"Kø":6930,"Komm":6931,"Nic":6932,"PC":6933,"Rand":6934,"Sos":6935,"Senter":6936,"fm":6937,"fange":6938,"gle":6939,"kok":6940,"krø":6941,"læ":6942,"læring":6943,"mi":6944,"miss":6945,"ov":6946,"rygg":6947,"runde":6948,"tw":6949,"titt":6950,"talt":6951,"tung":6952,"ulik":6953,"||":6954,"Ør":6955,"##lad":6956,"##kre":6957,"##delt":6958,"##ypt":6959,"##gikk":6960,"##bes":6961,"##fa":6962,"##øt":6963,"##hv":6964,"##hj":6965,"##IV":6966,"##etil":6967,"##elius":6968,"##egge":6969,"fore":6970,"##ona":6971,"tilstand":6972,"enden":6973,"endre":6974,"##uncil":6975,"avisen":6976,"##atsen":6977,"##verr":6978,"gjelde":6979,"1900":6980,"innstilt":6981,"bec":6982,"##ennlig":6983,"##bestemm":6984,"sim":6985,"##irka":6986,"see":6987,"report":6988,"barnd":6989,"klokka":6990,"##kets":6991,"betong":6992,"betegn":6993,"godset":6994,"##chen":6995,"1500":6996,"smitte":6997,"Skar":6998,"##stiltak":6999,"##cted":7000,"virksomheten":7001,"farlig":7002,"frig":7003,"##formen":7004,"kjøtt":7005,"bakover":7006,"##ower":7007,"dømes":7008,"ledelsen":7009,"kniv":7010,"temmelig":7011,"##snivå":7012,"Harry":7013,"høve":7014,"Frp":7015,"##syke":7016,"modell":7017,"jorda":7018,"##adem":7019,"studere":7020,"verdenskrig":7021,"##stillinger":7022,"##undervisning":7023,"Innst":7024,"basis":7025,"appar":7026,"Paris":7027,"grønne":7028,"Kirke":7029,"Geir":7030,"tilpas":7031,"keiser":7032,"yngre":7033,"oppmerksomhet":7034,"bekymret":7035,"Result":7036,"overrask":7037,"fengsel":7038,"ettermiddag":7039,"mekan":7040,"forretnings":7041,"beskyttelse":7042,"tilknytning":7043,"ttv":7044,"(<<":7045,"*(":7046,"81":7047,"Born":7048,"Dagen":7049,"Fir":7050,"Idd":7051,"Kraft":7052,"SP":7053,"],":7054,"fukt":7055,"gong":7056,"hog":7057,"iverks":7058,"mekt":7059,"melder":7060,"prev":7061,"qu":7062,"rammer":7063,"tide":7064,"volum":7065,"øk":7066,"##iem":7067,"##slig":7068,"##somme":7069,"##ng":7070,"##ræ":7071,"##AK":7072,"##LER":7073,"##yk":7074,"##bak":7075,"##båt":7076,"##fulle":7077,"##EF":7078,"##DAG":7079,"##arer":7080,"##inert":7081,"##strå":7082,"##edom":7083,"##edskap":7084,"forretning":7085,"##ington":7086,"##ali":7087,"##alia":7088,"##issen":7089,"##isser":7090,"stu":7091,"stasjon":7092,"skiftet":7093,"##asjen":7094,"hard":7095,"##rot":7096,"##rop":7097,"gjens":7098,"innom":7099,">>)":7100,"##kser":7101,"samlede":7102,"##ape":7103,"##beh":7104,"##ftene":7105,"rec":7106,"repar":7107,"reaksjon":7108,"##språk":7109,"tren":7110,"trang":7111,"kunder":7112,"##emer":7113,"##emark":7114,"##ersoner":7115,"Form":7116,"grens":7117,"kred":7118,"bety":7119,"gjennomføre":7120,"##klart":7121,"##føringen":7122,"Skulle":7123,"lykkelig":7124,"framover":7125,"billed":7126,"##ingsfor":7127,"bygning":7128,"##ides":7129,"##likevel":7130,"tenk":7131,"flukt":7132,"liggende":7133,"reser":7134,"evangel":7135,"planlagt":7136,"teik":7137,"fylte":7138,"1978":7139,"halsen":7140,"samtykke":7141,"super":7142,"liksom":7143,"grader":7144,"kalle":7145,"direkt":7146,"##parti":7147,"krefter":7148,"garant":7149,"##samlingen":7150,"##benhavn":7151,"obser":7152,"forny":7153,"forklarte":7154,"tekniske":7155,"festet":7156,"Fredag":7157,"##posisjon":7158,"kritikk":7159,"nøye":7160,"næringslivet":7161,"ressurs":7162,"Charlie":7163,"administrat":7164,"begrenset":7165,"starter":7166,"mobil":7167,"forestilling":7168,"##skurset":7169,"Presidenten":7170,"Stockholm":7171,"Terje":7172,"Norwegian":7173,"Akt":7174,"Fa":7175,"Fug":7176,"Hav":7177,"Kost":7178,"Les":7179,"Lok":7180,"Not":7181,"Op":7182,"Pål":7183,"Pors":7184,"Ry":7185,"Son":7186,"Sund":7187,"Sof":7188,"banen":7189,"hagen":7190,"jam":7191,"kra":7192,"lodd":7193,"mur":7194,"nære":7195,"ond":7196,"pan":7197,"rund":7198,"ske":7199,"talte":7200,"would":7201,"##lett":7202,"##lund":7203,"##sberg":7204,"##tale":7205,"##dotter":7206,"##gelig":7207,"##ømt":7208,"##elin":7209,"##reis":7210,"##leum":7211,"##isp":7212,"ensom":7213,"##ikeren":7214,"##atikk":7215,"indi":7216,"##asitet":7217,"##itor":7218,"##ands":7219,"utfor":7220,"##stemer":7221,"##limt":7222,"anlegget":7223,"samband":7224,"sprang":7225,"##mma":7226,"##ertil":7227,"sec":7228,"##slått":7229,"##uddet":7230,"reag":7231,"helgen":7232,"etterforsk":7233,"kommende":7234,"##serien":7235,"##olden":7236,"Str":7237,"Stol":7238,"Stad":7239,"Støre":7240,"Strand":7241,"nylig":7242,"##smark":7243,"##remt":7244,"fortj":7245,"kjeller":7246,"grensen":7247,"kriter":7248,"betalte":7249,"betrakte":7250,"##seth":7251,"##ops":7252,"##ople":7253,"biler":7254,"thro":7255,"traff":7256,"forskrift":7257,"forsknings":7258,"legitim":7259,"håp":7260,"paragraf":7261,"prosessen":7262,"##ytta":7263,"viktigere":7264,"forholdene":7265,"onde":7266,"planen":7267,"øya":7268,"mester":7269,"##snytt":7270,"##handlingen":7271,"##minister":7272,"rådet":7273,"lokalt":7274,"filmen":7275,"kortere":7276,"##urdering":7277,"where":7278,"organisasjoner":7279,"situasjoner":7280,"ext":7281,"new":7282,"Holm":7283,"systematisk":7284,"peker":7285,"Dagbladet":7286,"Daniel":7287,"conc":7288,"tapt":7289,"##verdige":7290,"##bøker":7291,"misten":7292,"talet":7293,"Finans":7294,"dame":7295,"retningslin":7296,"trygt":7297,"utfordring":7298,"innholdet":7299,"stolt":7300,"starte":7301,"PRO":7302,"oppmerksom":7303,"integrer":7304,"optim":7305,"fattig":7306,"Afrik":7307,"konkrete":7308,"mengder":7309,"Aftenposten":7310,"dessverre":7311,"##etroleum":7312,"århundre":7313,"Eirik":7314,"KODE":7315,"Are":7316,"Aust":7317,"Bonde":7318,"Cor":7319,"Elev":7320,"Fram":7321,"Jud":7322,"Kort":7323,"Ott":7324,"PÅ":7325,"Pris":7326,"Person":7327,"PAC":7328,"bunn":7329,"bane":7330,"drevet":7331,"fav":7332,"hor":7333,"jule":7334,"kg":7335,"nyn":7336,"nerv":7337,"senter":7338,"tel":7339,"tele":7340,"tomme":7341,"tolv":7342,"vik":7343,"vog":7344,"vatn":7345,"øl":7346,"##lend":7347,"##okker":7348,"##ror":7349,"##bor":7350,"##bær":7351,"##banken":7352,"##50":7353,"##etningen":7354,"##ilder":7355,"foruts":7356,"##ingspl":7357,"##alter":7358,"##dem":7359,"##unget":7360,"##ras":7361,"##esa":7362,"stj":7363,"sten":7364,"stabil":7365,"medier":7366,"skru":7367,"institutt":7368,"dekke":7369,"departement":7370,"##etting":7371,"##ries":7372,"anm":7373,"bebo":7374,"##iska":7375,"##ution":7376,"andel":7377,"##sløs":7378,"årlig":7379,"##allfall":7380,"arrest":7381,"tog":7382,"triv":7383,"trær":7384,"##itten":7385,"##skapene":7386,"kome":7387,"komiteen":7388,"##ierne":7389,"##obling":7390,"##delinger":7391,"kjører":7392,"nedbør":7393,"sykkel":7394,"Skog":7395,"priser":7396,"##ammene":7397,"Inger":7398,"##stille":7399,"##lagte":7400,"formuler":7401,"byer":7402,"forbindel":7403,"verktøy":7404,"##ENT":7405,"##kja":7406,"Elling":7407,"teor":7408,"halde":7409,"samtale":7410,"likte":7411,"brukar":7412,"##hengige":7413,"presten":7414,"tilleggsn":7415,"nordmenn":7416,"gjenopp":7417,"holdes":7418,"##gaard":7419,"staden":7420,"Prosjekt":7421,"Problem":7422,"befinner":7423,"metall":7424,"drept":7425,"Holly":7426,"taket":7427,"føle":7428,"pekte":7429,"kaffe":7430,"teknisk":7431,"Adam":7432,"grunnlaget":7433,"brød":7434,"fjellet":7435,"naar":7436,"##kjøp":7437,"##stjeneste":7438,"oppstår":7439,"Pettersen":7440,"Fordi":7441,"eksisterende":7442,"pusten":7443,"##kirke":7444,"service":7445,"kommunestyret":7446,"ivrig":7447,"vassdrag":7448,"fritid":7449,"Folldal":7450,"oppfølging":7451,"PACE":7452,"!\"\"":7453,"Aks":7454,"Bel":7455,"But":7456,"Cat":7457,"Dat":7458,"Gjø":7459,"Hag":7460,"Hall":7461,"Hei":7462,"Ko":7463,"Lunde":7464,"Meg":7465,"Myr":7466,"Math":7467,"Neste":7468,"Pal":7469,"Pub":7470,"Qu":7471,"Røy":7472,"Rød":7473,"Sven":7474,"Ton":7475,"Vet":7476,"Vinter":7477,"boks":7478,"dal":7479,"dannet":7480,"elem":7481,"gn":7482,"gres":7483,"jentene":7484,"jenta":7485,"kle":7486,"mo":7487,"mak":7488,"mum":7489,"make":7490,"pul":7491,"sum":7492,"sank":7493,"verne":7494,"vinne":7495,"will":7496,"##ious":7497,"##sil":7498,"##snes":7499,"##oger":7500,"##GER":7501,"##por":7502,"##jed":7503,"##æs":7504,"##æk":7505,"##byr":7506,"##burg":7507,"##fol":7508,"##hal":7509,"##14":7510,"##inske":7511,"##stant":7512,"##oms":7513,"##edrag":7514,"##edlemmer":7515,"forstand":7516,"forplikt":7517,"##ism":7518,"enor":7519,"##olje":7520,"##idde":7521,"##skar":7522,"##vernet":7523,"##kton":7524,"omsetning":7525,"##anden":7526,"utle":7527,"##ula":7528,"##uleg":7529,"##kkene":7530,"##æret":7531,"##riere":7532,"any":7533,"##former":7534,"elsket":7535,"##beveg":7536,"##ella":7537,"årlige":7538,"rektor":7539,"##spar":7540,"Store":7541,"##veig":7542,"##umb":7543,"minutt":7544,"##gjen":7545,"levert":7546,"##result":7547,"delte":7548,"Skriv":7549,"bronse":7550,"utenrik":7551,"mora":7552,"politiker":7553,"byens":7554,"velkommen":7555,"##cept":7556,"##ERN":7557,"møtes":7558,"Mary":7559,"Ang":7560,"##oci":7561,"##løpet":7562,"styring":7563,"aktive":7564,"1971":7565,"personlige":7566,"Torstein":7567,"1947":7568,"1962":7569,"1963":7570,"##virksomhet":7571,"##askin":7572,"vanskelige":7573,"maten":7574,"jorden":7575,"##grepet":7576,"student":7577,"kulturelle":7578,"strengt":7579,"##stedenfor":7580,"1955":7581,"manglende":7582,"omfang":7583,"terreng":7584,"brystet":7585,"##komst":7586,"prosjekter":7587,"##elegg":7588,"seieren":7589,"eventyr":7590,"##EST":7591,"##nsberg":7592,"Vestfold":7593,"internasjonalt":7594,"Industri":7595,"dotter":7596,"doktor":7597,"kvinnene":7598,"Council":7599,"opprettholde":7600,"tømmer":7601,"barnehag":7602,"etablere":7603,"etablert":7604,"utfordringer":7605,"sendes":7606,"debatten":7607,"##bordet":7608,"Sigrid":7609,"Julie":7610,"prinsippet":7611,"kvalif":7612,"pleide":7613,"finansier":7614,"##draget":7615,"##forbund":7616,"overrasket":7617,"priorit":7618,"Ibid":7619,"Norway":7620,"arbeidsplasser":7621,"kontroller":7622,"relevant":7623,"##analyser":7624,"grundig":7625,"fingrene":7626,"##iledning":7627,"OPPG":7628,"Fylkesmannen":7629,"dialog":7630,"Avis":7631,"Bur":7632,"Eil":7633,"Fle":7634,"Gam":7635,"Grupp":7636,"Glimt":7637,"Lie":7638,"Målet":7639,"Prem":7640,"Set":7641,"Vind":7642,"bist":7643,"bif":7644,"borg":7645,"cap":7646,"esk":7647,"elite":7648,"gas":7649,"idag":7650,"ju":7651,"kna":7652,"kilde":7653,"kaldt":7654,"lurte":7655,"minner":7656,"miste":7657,"ph":7658,"rollen":7659,"sert":7660,"sover":7661,"sats":7662,"tvers":7663,"urett":7664,"well":7665,"##ior":7666,"##mennes":7667,"##aug":7668,"##sle":7669,"##sgr":7670,"##sjef":7671,"##kne":7672,"##OS":7673,"##gde":7674,"##jar":7675,"##fond":7676,"##fabr":7677,"##EI":7678,"##CIS":7679,"##enhet":7680,"##anerne":7681,"##inte":7682,"##illingen":7683,"##stall":7684,"##steder":7685,"##stål":7686,"##egen":7687,"##alem":7688,"avgift":7689,"##esund":7690,"meddel":7691,"##ørene":7692,"dep":7693,"dekker":7694,"##kten":7695,"##entert":7696,"##urr":7697,"oppm":7698,"##send":7699,"såg":7700,"elva":7701,"spare":7702,"##iret":7703,"##okneprest":7704,"##øyet":7705,"##slå":7706,"##sløy":7707,"##ygget":7708,"arr":7709,"trinn":7710,"Start":7711,"##rings":7712,"blad":7713,"fortell":7714,"regi":7715,"leiar":7716,"##ience":7717,"##legges":7718,"tilby":7719,"Alf":7720,"kommunal":7721,"##petanse":7722,"166":7723,"trappen":7724,"ordene":7725,"flotte":7726,"##sfalt":7727,"gleder":7728,"##ottet":7729,"planlegging":7730,"produktet":7731,"1942":7732,"dype":7733,"##gjøret":7734,"Leo":7735,"##gress":7736,"vegen":7737,"##uddh":7738,"problemene":7739,"Nye":7740,"lufta":7741,"bryter":7742,"truffet":7743,"1938":7744,"1920":7745,"shall":7746,"##tektene":7747,"dårlige":7748,"profil":7749,"posisjon":7750,"Plan":7751,"foreldrene":7752,"sikkerhets":7753,"barnehagen":7754,"nøytr":7755,"bestemmelsene":7756,"intervall":7757,"koke":7758,"tilpasset":7759,"first":7760,"beregnet":7761,"åpenbart":7762,"##ability":7763,"fremmede":7764,"##ituasjonen":7765,"eksped":7766,"befolkning":7767,"integr":7768,"opprinnelig":7769,"kyrkje":7770,"Hvilken":7771,"important":7772,"Sandefjord":7773,"bevilgning":7774,"frokost":7775,"analys":7776,"reklame":7777,"europeiske":7778,"fabrikken":7779,"Eksemp":7780,"##clear":7781,"dollar":7782,"Severin":7783,"entrepren":7784,"Bevil":7785,"through":7786,"(-":7787,"Bolig":7788,"Com":7789,"Col":7790,"Dess":7791,"Direkte":7792,"Hels":7793,"Lag":7794,"Legg":7795,"Museum":7796,"Nu":7797,"Ot":7798,"Pitt":7799,"Rik":7800,"Tes":7801,"Tot":7802,"Tirsdag":7803,"World":7804,"atter":7805,"cor":7806,"gass":7807,"gifte":7808,"igang":7809,"iallfall":7810,"kret":7811,"kald":7812,"krimin":7813,"kandid":7814,"lun":7815,"liden":7816,"pac":7817,"rak":7818,"trå":7819,"trist":7820,"ug":7821,"uro":7822,"##messige":7823,"##si":7824,"##kens":7825,"##nett":7826,"##dy":7827,"##gjøre":7828,"##bre":7829,"##SB":7830,"##KV":7831,"##hard":7832,"##18":7833,"##16":7834,"##omatisk":7835,"##onger":7836,"##ison":7837,"stri":7838,"stikk":7839,"##skrift":7840,"ski":7841,"skiller":7842,"##asin":7843,"harmon":7844,"##ulator":7845,"##akar":7846,"##odene":7847,"bein":7848,"##ennene":7849,"##utan":7850,"##speri":7851,"##ims":7852,"konstruksjon":7853,"##ossen":7854,"##engde":7855,"##eldige":7856,"##alty":7857,"skulderen":7858,"Energ":7859,"##chn":7860,"##ustru":7861,"arbeidst":7862,"takket":7863,"svake":7864,"lyden":7865,"##opper":7866,"brun":7867,"utenlandske":7868,"##aterial":7869,"Arch":7870,"bytte":7871,"##kons":7872,"allmenn":7873,"muligheten":7874,"statlige":7875,"tyder":7876,"eksist":7877,"##vendte":7878,"kontra":7879,"Olson":7880,"##sjoner":7881,"tilfeldig":7882,"##problem":7883,"suks":7884,"1941":7885,"offer":7886,"støttet":7887,"Nordic":7888,"##kommer":7889,"foten":7890,"##akkert":7891,"##ORT":7892,"##book":7893,"fungere":7894,"behandlingen":7895,"##byrå":7896,"fait":7897,"koster":7898,"hendelser":7899,"hjalp":7900,"nødvendigvis":7901,"##elege":7902,"mottatt":7903,"husket":7904,"oppgitt":7905,"opplevde":7906,"##fjorden":7907,"ekteskap":7908,"guttene":7909,"Ingebjørg":7910,"barnehage":7911,"fuglene":7912,"##posisjonen":7913,"nøyaktig":7914,"ulov":7915,"undersøkelse":7916,"##politikk":7917,"##stemmig":7918,"individuelle":7919,"stillingen":7920,"flyktning":7921,"betraktning":7922,"activ":7923,"##kohol":7924,"aksept":7925,"anerkj":7926,"kommentarer":7927,"religiøse":7928,"Radio":7929,"øverste":7930,"litteratur":7931,"kjærleik":7932,"Tønsberg":7933,"different":7934,"hvisket":7935,",\"\"\"\"":7936,":/":7937,"App":7938,"Bi":7939,"Bus":7940,"BRU":7941,"Din":7942,"Faren":7943,"Gift":7944,"HV":7945,"Kval":7946,"Litt":7947,"Mogg":7948,"Nar":7949,"Oper":7950,"Pak":7951,"Red":7952,"Ske":7953,"bag":7954,"bab":7955,"dus":7956,"fler":7957,"good":7958,"hom":7959,"hast":7960,"hittil":7961,"krim":7962,"lært":7963,"live":7964,"later":7965,"loc":7966,"rust":7967,"sivil":7968,"tene":7969,"~~~~~":7970,"##las":7971,"##lov":7972,"##aar":7973,"##sre":7974,"##she":7975,"##sinn":7976,"##sdepartementet":7977,"##ears":7978,"##ough":7979,"##rinn":7980,"##vold":7981,"##vakten":7982,"##dm":7983,"##dig":7984,"##driv":7985,"##cl":7986,"##ya":7987,"##giver":7988,"##bred":7989,"##feltet":7990,"##øter":7991,"##wood":7992,"##Se":7993,"##hr":7994,"##hamm":7995,"##ze":7996,"##ör":7997,"##que":7998,"##ani":7999,"##inst":8000,"##ilet":8001,"forferd":8002,"forurens":8003,"##tting":8004,"erkj":8005,"##olige":8006,"medlemmene":8007,"##sko":8008,"##skjer":8009,"innd":8010,"##nda":8011,"##akon":8012,"inngår":8013,"inntekter":8014,"##geir":8015,"##ders":8016,"overlev":8017,"overta":8018,"##bey":8019,"slutte":8020,"derved":8021,"andra":8022,"##lingene":8023,"##ants":8024,"trø":8025,"##endommen":8026,"Stre":8027,"sint":8028,"motsetning":8029,"##smod":8030,"##ional":8031,"miner":8032,"##abeth":8033,"plak":8034,"##reme":8035,"storm":8036,"leker":8037,"merker":8038,"##peri":8039,"nedgang":8040,"delar":8041,"##laus":8042,"gjennomgå":8043,"gjennomføres":8044,"løpe":8045,"##landsk":8046,"Skole":8047,"lands":8048,"rettss":8049,"Aller":8050,"##ctive":8051,"utenom":8052,"serien":8053,"virkning":8054,"Arild":8055,"politikere":8056,"franske":8057,"##retten":8058,"Trine":8059,"ligg":8060,"mulige":8061,"redeg":8062,"vidare":8063,"beredskap":8064,"havnet":8065,"##ments":8066,"perfekt":8067,"##ologien":8068,"##haugen":8069,"##strekning":8070,"domstol":8071,"##ibil":8072,"fylle":8073,"Erna":8074,"parti":8075,"offis":8076,"greit":8077,"##aliteter":8078,"vegg":8079,"faktiske":8080,"faktorer":8081,"sikret":8082,"arth":8083,"##sforhold":8084,"Gran":8085,"musik":8086,"mangfold":8087,"Org":8088,"diff":8089,"vennlig":8090,"Bjørg":8091,"1930":8092,"usikker":8093,"scenen":8094,"lengst":8095,"stilles":8096,"Luft":8097,"tapet":8098,"skipet":8099,"representanter":8100,"##athan":8101,"News":8102,"positivt":8103,"ferie":8104,"undersøkelser":8105,"bitter":8106,"Edvard":8107,"##politikken":8108,"Været":8109,"kilometer":8110,"bredt":8111,"Roma":8112,"Øyvind":8113,"tabell":8114,"##kontor":8115,"kategor":8116,"presteg":8117,"irrit":8118,"yrkes":8119,"erstatning":8120,"undersøke":8121,"journalist":8122,"døydde":8123,"anvendelse":8124,"varierer":8125,"vedlikehold":8126,"indikator":8127,"tendens":8128,"dimensjon":8129,"includ":8130,"?\"\"\"\"":8131,"DD":8132,"Fag":8133,"Gad":8134,"Hard":8135,"Kra":8136,"Kyst":8137,"Kunst":8138,"Lær":8139,"NM":8140,"NCIS":8141,"Ove":8142,"Ofte":8143,"Svend":8144,"Særlig":8145,"Ther":8146,"Tabell":8147,"bade":8148,"car":8149,"dyn":8150,"eitt":8151,"equ":8152,"give":8153,"hur":8154,"if":8155,"isen":8156,"kall":8157,"koll":8158,"lete":8159,"mog":8160,"must":8161,"prat":8162,"syr":8163,"sorg":8164,"tit":8165,"vakkert":8166,"water":8167,"##iol":8168,"##mere":8169,"##mot":8170,"##sjø":8171,"##eks":8172,"##pub":8173,"##pensjon":8174,"##pix":8175,"##gne":8176,"##bal":8177,"##brev":8178,"##foss":8179,"##øen":8180,"##ÅR":8181,"##15":8182,"##eten":8183,"##arant":8184,"##ining":8185,"##inav":8186,"##edia":8187,"forbruker":8188,"##inge":8189,"##oler":8190,"stig":8191,"stim":8192,"##amin":8193,"##agelse":8194,"##ktene":8195,"ombord":8196,"##andt":8197,"##andinav":8198,"##jonen":8199,"opptak":8200,"##forstå":8201,"innled":8202,"bestand":8203,"villig":8204,"veder":8205,"##uth":8206,"rem":8207,"requ":8208,"them":8209,"konte":8210,"kled":8211,"##ices":8212,"brudd":8213,"daglige":8214,"skulpt":8215,"kjend":8216,"##ness":8217,"gransk":8218,"smiler":8219,"Skj":8220,"prisen":8221,"landskap":8222,"lyttet":8223,"serie":8224,"grunner":8225,"mate":8226,"major":8227,"snu":8228,"snar":8229,"Dahl":8230,"##>>.":8231,"sakte":8232,"resolusjon":8233,"tykk":8234,"##sfull":8235,"låne":8236,"planene":8237,"##prisen":8238,"Bryn":8239,"##prof":8240,"Rees":8241,"intro":8242,"oftest":8243,"##rigt":8244,"modellen":8245,"jordbruket":8246,"markert":8247,"sikrer":8248,"Roger":8249,"retur":8250,"nevnes":8251,"##sprosessen":8252,"##byen":8253,"løsningen":8254,"who":8255,"##rense":8256,"##kurs":8257,"befant":8258,"økonomi":8259,"oppfattet":8260,"sørget":8261,"drepe":8262,"forstått":8263,"Barne":8264,"diagn":8265,"morgenen":8266,"nasjonalt":8267,"vurdert":8268,"##verdier":8269,"passasjer":8270,"forsto":8271,"##mennene":8272,"melk":8273,"industrien":8274,"stoppe":8275,"avsluttet":8276,"regional":8277,"røyk":8278,"fugl":8279,"fugle":8280,"trygde":8281,"##gruppe":8282,"takknem":8283,"generalforsamling":8284,"prinsipper":8285,"##stjenesten":8286,"##tokoll":8287,"Lillehammer":8288,"##sidig":8289,"presentert":8290,"sjefen":8291,"kysten":8292,"forkyn":8293,"jødene":8294,"tilfredsstillende":8295,"Artikkel":8296,"hjørnet":8297,"Louis":8298,"forventninger":8299,"illust":8300,"Lilly":8301,"lensmann":8302,"Hotel":8303,"##insippet":8304,"##rustning":8305,"tilhører":8306,"København":8307,"Randi":8308,"Afrika":8309,"Bang":8310,"Bib":8311,"CO":8312,"Fjell":8313,"Fader":8314,"Face":8315,"Greg":8316,"Hens":8317,"Jern":8318,"Kat":8319,"Mi":8320,"MAR":8321,"NY":8322,"Ru":8323,"Rich":8324,"Samme":8325,"Vict":8326,"asfalt":8327,"brevet":8328,"bakter":8329,"banken":8330,"bringe":8331,"cup":8332,"drøm":8333,"fed":8334,"funn":8335,"falle":8336,"jap":8337,"kua":8338,"munt":8339,"musk":8340,"pal":8341,"peng":8342,"pip":8343,"penge":8344,"riktige":8345,"vo":8346,"vell":8347,"vask":8348,"##lær":8349,"##iat":8350,"##sal":8351,"##tra":8352,"##rere":8353,"##LO":8354,"##jan":8355,"##bank":8356,"##besk":8357,"##uel":8358,"##finn":8359,"##økonom":8360,"##ws":8361,"##ØS":8362,"##hlet":8363,"##IUS":8364,"##30":8365,"##ory":8366,"##arm":8367,"##inket":8368,"##iluft":8369,"forvir":8370,"forholde":8371,"##igere":8372,"enstemmig":8373,"stiftet":8374,"##skilte":8375,"skift":8376,"utvalget":8377,"##rog":8378,"##round":8379,"##urs":8380,"##user":8381,"allikevel":8382,"##ksus":8383,"språ":8384,"overalt":8385,"##ssam":8386,"##utvik":8387,"seige":8388,"202":8389,"rein":8390,"##spital":8391,"hellige":8392,"##ends":8393,"Styret":8394,"##veksten":8395,"##umin":8396,"##lyst":8397,"komiteens":8398,"##delen":8399,"##berkul":8400,"sammenhenger":8401,"svov":8402,"##oppgå":8403,"##stilte":8404,"søkte":8405,"følelsen":8406,"endog":8407,"##ksjoner":8408,"trag":8409,"##sområ":8410,"synlig":8411,"redaksjon":8412,"berg":8413,"##rerte":8414,"døgn":8415,"perm":8416,"evner":8417,"målt":8418,"netto":8419,"##program":8420,"samtaler":8421,"antagelig":8422,"##faring":8423,"naturlige":8424,"familier":8425,"områdene":8426,"1967":8427,"betydelige":8428,"jordbruks":8429,"greie":8430,"Kristin":8431,"Kristine":8432,"Kristoffer":8433,"##stituttet":8434,"engelske":8435,"##spunktet":8436,"based":8437,"##eløs":8438,"stykker":8439,"Knud":8440,"konsentr":8441,"lengde":8442,"eventuelle":8443,"control":8444,"##ritor":8445,"roy":8446,"Marta":8447,"Komiteens":8448,"variab":8449,"fordelt":8450,"oppgaven":8451,"##boka":8452,"sida":8453,"gjerning":8454,"materiale":8455,"forutsetning":8456,"forsvinner":8457,"kritisk":8458,"Paulus":8459,"trygge":8460,"avgjøre":8461,"krevende":8462,"##grupper":8463,"kilo":8464,"Vidar":8465,"påvirke":8466,"Malm":8467,"understreker":8468,"forskjellen":8469,"skriftlig":8470,"Alexander":8471,"risiko":8472,"investeringer":8473,"ille":8474,"aksep":8475,"analyse":8476,"bosatt":8477,"However":8478,"Fremskritt":8479,"politikerne":8480,"frivillig":8481,"jurid":8482,"eiendommen":8483,"utvidet":8484,"forhandlinger":8485,"##ebyggende":8486,"FREKV":8487,"Marcus":8488,"Bjarne":8489,"mønster":8490,"Hitler":8491,"two":8492,"Fremskrittspartiet":8493,"FREKVENS":8494,"Bort":8495,"Død":8496,"ED":8497,"Eik":8498,"Efter":8499,"Ekst":8500,"Fakt":8501,"GR":8502,"Had":8503,"Iver":8504,"Mol":8505,"Næ":8506,"Off":8507,"Rør":8508,"Sw":8509,"Sett":8510,"Tw":8511,"Tal":8512,"Telefon":8513,"War":8514,"bær":8515,"ballen":8516,"cost":8517,"ess":8518,"gave":8519,"hæ":8520,"his":8521,"hat":8522,"high":8523,"ib":8524,"istedenfor":8525,"lave":8526,"næ":8527,"nøl":8528,"pist":8529,"pannen":8530,"petroleum":8531,"rate":8532,"san":8533,"tverr":8534,"##sje":8535,"##kal":8536,"##kelen":8537,"##till":8538,"##run":8539,"##ye":8540,"##ykt":8541,"##jeg":8542,"##bod":8543,"##bast":8544,"##blemer":8545,"##fre":8546,"##funnet":8547,"##øp":8548,"##KS":8549,"##hald":8550,"##UL":8551,"##JER":8552,"##JON":8553,"##anpix":8554,"##ilsynet":8555,"##start":8556,"##stede":8557,"##edlem":8558,"##tekn":8559,"avisa":8560,"avdelingen":8561,"somm":8562,"stasjonen":8563,"##skrav":8564,"##aton":8565,"skatter":8566,"##agner":8567,"##ppa":8568,"dekor":8569,"omstend":8570,"utad":8571,"utføre":8572,"##usalem":8573,"opptil":8574,"##ruten":8575,"##\"\"\"":8576,"noens":8577,"innan":8578,"innstillingen":8579,"being":8580,"beund":8581,"spas":8582,"spillere":8583,"##avdelingen":8584,"simp":8585,"##mming":8586,"slutter":8587,"##slet":8588,"##asjonar":8589,"##sperson":8590,"##ygger":8591,"##icular":8592,"brud":8593,"bruken":8594,"##obil":8595,"Foreld":8596,"##lete":8597,"herre":8598,"##klubb":8599,"fremover":8600,"landsb":8601,"sammenhengen":8602,"retter":8603,"svakt":8604,"lykke":8605,"lyste":8606,"fins":8607,"finst":8608,"server":8609,"Arm":8610,"Ark":8611,"egnet":8612,"main":8613,"flink":8614,"##appe":8615,"tilfellet":8616,"1972":8617,"spesif":8618,"samtlige":8619,"anty":8620,"antar":8621,"Real":8622,"sukket":8623,"desc":8624,"nordiske":8625,"##vegen":8626,"##okkene":8627,"faglige":8628,"skapte":8629,"##splikt":8630,"##boks":8631,"1952":8632,"1957":8633,"skjønne":8634,"solgte":8635,"datam":8636,"##talet":8637,"resultatene":8638,"##yth":8639,"##strasjon":8640,"avtalt":8641,"1939":8642,"nuclear":8643,"lærere":8644,"##danning":8645,"Søgne":8646,"Max":8647,"##avtaler":8648,"alvorlige":8649,"myndighetene":8650,"opplevd":8651,"ektef":8652,"foregående":8653,"Georg":8654,"reality":8655,"foreslo":8656,"prøvd":8657,"amerikansk":8658,"hendes":8659,"##ituasjon":8660,"institusjoner":8661,"##forbundet":8662,"##SENT":8663,"##enskom":8664,"Haugen":8665,"kjerne":8666,"##kapit":8667,"henholdsvis":8668,"uttrykket":8669,"glimt":8670,"prioriter":8671,"##vesenet":8672,"erstatnings":8673,"tilsagn":8674,"årsaken":8675,"sjekke":8676,"##fugler":8677,"hjemmel":8678,"åtferd":8679,"huden":8680,"forbrukaren":8681,"Jerusalem":8682,"tilnærm":8683,"Justis":8684,"menneskerettigheter":8685,"inkludert":8686,"Rogaland":8687,"elektrisk":8688,"development":8689,"tidlegare":8690,"parlamentar":8691,"##botn":8692,"Gratulerer":8693,"Sosial":8694,"glemme":8695,"Pakistan":8696,")).":8697,"Akkurat":8698,"Bal":8699,"Bost":8700,"Bull":8701,"Bill":8702,"Blir":8703,"City":8704,"EN":8705,"Få":8706,"Fur":8707,"Fire":8708,"Gjør":8709,"Hord":8710,"Hos":8711,"Imidlertid":8712,"KR":8713,"Loc":8714,"MD":8715,"Nok":8716,"Nem":8717,"Nytt":8718,"Oli":8719,"Ped":8720,"Pat":8721,"Port":8722,"Put":8723,"Ren":8724,"Rundt":8725,"SI":8726,"Sin":8727,"Sann":8728,"Sivert":8729,"Ull":8730,"aspekt":8731,"gyld":8732,"gaten":8733,"him":8734,"hekt":8735,"hage":8736,"kos":8737,"kake":8738,"lam":8739,"mom":8740,"myr":8741,"nært":8742,"okk":8743,"rab":8744,"sene":8745,"siv":8746,"tomm":8747,"tøy":8748,"##sang":8749,"##ré":8750,"##vt":8751,"##vitt":8752,"##vask":8753,"##datter":8754,"##dition":8755,"##yke":8756,"##æge":8757,"##ble":8758,"##brigt":8759,"##ummen":8760,"##fo":8761,"##frem":8762,"##hodet":8763,"##II":8764,"##ender":8765,"##etre":8766,"##arch":8767,"forlate":8768,"##ingane":8769,"endel":8770,"##unk":8771,"stammer":8772,"stengt":8773,"##idig":8774,"##ama":8775,"skred":8776,"athlet":8777,"##agne":8778,"deil":8779,"dekning":8780,"##asjem":8781,"##ndene":8782,"omstilling":8783,"##seende":8784,"utsette":8785,"utbytte":8786,"##kkede":8787,"##æringer":8788,"##lia":8789,"##ettene":8790,"opphav":8791,"altid":8792,"alkohol":8793,"##oth":8794,"##rup":8795,"##ikkene":8796,"##ters":8797,"##odden":8798,"eleg":8799,"overdra":8800,"sies":8801,"##mmene":8802,"##uden":8803,"konser":8804,"trur":8805,"Styr":8806,"Stift":8807,"klage":8808,"Departementet":8809,"motsatt":8810,"##jerte":8811,"##icy":8812,"##ically":8813,"##astric":8814,"sau":8815,"##øres":8816,"nådde":8817,"##setningen":8818,"arbeidsgiver":8819,"liste":8820,"hvorledes":8821,"hvorvidt":8822,"lyse":8823,"Inne":8824,"brede":8825,"Alta":8826,"160":8827,"ordningen":8828,"tilbakevir":8829,"forbundet":8830,"Tran":8831,"saka":8832,"sakrist":8833,"resear":8834,"ekspl":8835,"##ockey":8836,"døg":8837,"ledere":8838,"Elis":8839,"lovet":8840,"##svil":8841,"##svoll":8842,"1981":8843,"teoret":8844,"aktører":8845,"holdning":8846,"Berit":8847,"Spes":8848,"kapell":8849,"1944":8850,"unnskyld":8851,"betydningen":8852,"kraftige":8853,"##kvens":8854,"hjemmet":8855,"beskytte":8856,"spurt":8857,"engasj":8858,"behandles":8859,"organisert":8860,"fact":8861,"Oppland":8862,"##kjemp":8863,"bryte":8864,"vinden":8865,"should":8866,"Wilse":8867,"scen":8868,"mørkt":8869,"##uerlig":8870,"##ografi":8871,"selskapene":8872,"##llup":8873,"disc":8874,"appro":8875,"øvre":8876,"##juk":8877,"opplevelse":8878,"akutt":8879,"kjørt":8880,"kjøret":8881,"Jesu":8882,"1906":8883,"øyeblikket":8884,"konkurransen":8885,"farten":8886,"angst":8887,"foreslått":8888,"bidratt":8889,"rødt":8890,"undersøkelsen":8891,"kreves":8892,"##gruppen":8893,"Charl":8894,"sekunder":8895,"salget":8896,"Ellers":8897,"embet":8898,"skarp":8899,"poteter":8900,"forandring":8901,"forandret":8902,"møttes":8903,"eksportkv":8904,"Gunvor":8905,"##film":8906,"eksisterer":8907,"Grøn":8908,"bekreftet":8909,"programmet":8910,"populære":8911,"frivillige":8912,"namn":8913,"##mosf":8914,"##bakken":8915,"muc":8916,"færre":8917,"glemt":8918,"inspir":8919,"utelu":8920,"Ungdom":8921,"forvaltnings":8922,"##aborator":8923,"divisjon":8924,"retningslinjer":8925,"PROSENT":8926,"suksess":8927,"##uminium":8928,"Au":8929,"Amer":8930,"Bart":8931,"Gnr":8932,"Hil":8933,"Hold":8934,"Helse":8935,"Helt":8936,"Helen":8937,"Jar":8938,"James":8939,"Rolf":8940,"Rådet":8941,"Try":8942,"UN":8943,"ap":8944,"after":8945,"buddh":8946,"dikter":8947,"fx":8948,"gm":8949,"gøy":8950,"hed":8951,"kru":8952,"kull":8953,"kunnet":8954,"lomm":8955,"line":8956,"mess":8957,"mote":8958,"nat":8959,"rede":8960,"sav":8961,"salen":8962,"sof":8963,"tn":8964,"tunn":8965,"takt":8966,"wc":8967,"yte":8968,"~~~~~~~~~":8969,"##læring":8970,"##irasjon":8971,"##sens":8972,"##saker":8973,"##kede":8974,"##nu":8975,"##tn":8976,"##tar":8977,"##rus":8978,"##OD":8979,"##LA":8980,"##drift":8981,"##ped":8982,"##jakt":8983,"##æd":8984,"##flet":8985,"##fatter":8986,"##fallet":8987,"##hu":8988,"##UD":8989,"##99":8990,"##JE":8991,"##11":8992,"##eliv":8993,"##elov":8994,"##iland":8995,"##stig":8996,"##iget":8997,"##alie":8998,"##onment":8999,"##deb":9000,"enighet":9001,"##ungen":9002,"##rak":9003,"avde":9004,"##ikop":9005,"##idens":9006,"##skv":9007,"skudd":9008,"##ago":9009,"##ado":9010,"##ady":9011,"##ivalen":9012,"##kko":9013,"##etta":9014,"oppvekst":9015,"oppgaver":9016,"##ript":9017,"##sendt":9018,"##ksy":9019,"samling":9020,"spent":9021,"hvitt":9022,"overl":9023,"overvå":9024,"##avisen":9025,"##mmelse":9026,"##orden":9027,"##uta":9028,"##utvalget":9029,"##oker":9030,"##øyene":9031,"revet":9032,"dug":9033,"etterl":9034,"##ygt":9035,"toal":9036,"prov":9037,"project":9038,"Stord":9039,"klaus":9040,"##nner":9041,"underveis":9042,"kompon":9043,"##gja":9044,"blodet":9045,"fortvil":9046,"regelen":9047,"104":9048,"selger":9049,"begrunn":9050,"##førsel":9051,"takke":9052,"symp":9053,"trekkes":9054,"##ksjonen":9055,"verdt":9056,"kommunens":9057,"politist":9058,"sjanse":9059,"statens":9060,"##sborg":9061,"husmann":9062,"Sein":9063,"Sebast":9064,"eksperim":9065,"##vendt":9066,"flytta":9067,"##jeneste":9068,"##jenesten":9069,"##sdalen":9070,"halve":9071,"uttalt":9072,"anta":9073,"Torsdag":9074,"Torbjørn":9075,"Omar":9076,"Vedlegg":9077,"##rafikk":9078,"greier":9079,"historisk":9080,"faktum":9081,"forskjeller":9082,"dødsf":9083,"artikkelen":9084,"1951":9085,"##afjord":9086,"dating":9087,"ferdige":9088,"engasjem":9089,"##ship":9090,"##settelse":9091,"tante":9092,"Ork":9093,"dreide":9094,"gjev":9095,"posten":9096,"##ctions":9097,"konsert":9098,"Ungar":9099,"sykehuset":9100,"1924":9101,"1925":9102,"Storting":9103,"tapte":9104,"kaff":9105,"utsikt":9106,"House":9107,"##grammet":9108,"Johnsen":9109,"##henomen":9110,"Ingebrigt":9111,"automat":9112,"##kjøps":9113,"klim":9114,"##garden":9115,"foreslås":9116,"large":9117,"stoffer":9118,"raske":9119,"refusjon":9120,"løpende":9121,"voksen":9122,"Tidligere":9123,"fangst":9124,"Snart":9125,"Bildet":9126,"##OMM":9127,"Karlsen":9128,"yng":9129,"Super":9130,"Kommunen":9131,"Eiendom":9132,"hotellet":9133,"Onsdag":9134,"Agder":9135,"Hvilke":9136,"stjerne":9137,"invitert":9138,"analyser":9139,"revisor":9140,"ønskelig":9141,"kolleger":9142,"alminnelige":9143,"russiske":9144,"Senere":9145,"nektet":9146,"bibliote":9147,"##snyheter":9148,"Trygve":9149,"folketrygden":9150,"fenomen":9151,"Australia":9152,"Felles":9153,"perspektiv":9154,"advokat":9155,"sertifik":9156,"arthrit":9157,"vederlag":9158,"Facebook":9159,"royalty":9160,"noensinne":9161,"research":9162,"Sebastian":9163,".................":9164,"Asp":9165,"Ble":9166,"Bald":9167,"Dal":9168,"Dol":9169,"Fer":9170,"Gang":9171,"Hånd":9172,"Jos":9173,"Kjer":9174,"Lor":9175,"Moren":9176,"Nyg":9177,"Nasjonal":9178,"Od":9179,"Pre":9180,"Ri":9181,"Rh":9182,"SC":9183,"Spe":9184,"Sval":9185,"Tim":9186,"Tem":9187,"US":9188,"Ute":9189,"agent":9190,"case":9191,"during":9192,"gule":9193,"hester":9194,"ital":9195,"ker":9196,"kunn":9197,"munn":9198,"mød":9199,"misjon":9200,"pave":9201,"phenomen":9202,"rid":9203,"rat":9204,"sli":9205,"sort":9206,"urim":9207,"vas":9208,"vaks":9209,"vorte":9210,"votering":9211,"Året":9212,"##ield":9213,"##sr":9214,"##slige":9215,"##svik":9216,"##srev":9217,"##kas":9218,"##kultur":9219,"##ny":9220,"##ope":9221,"##tom":9222,"##tred":9223,"##conom":9224,"##båten":9225,"##funksjon":9226,"##åter":9227,"##hor":9228,"##HO":9229,"##HET":9230,"##70":9231,"##MM":9232,"##inær":9233,"##stater":9234,"foren":9235,"forhand":9236,"forening":9237,"##rekk":9238,"stolen":9239,"##atende":9240,"##verv":9241,"atmosf":9242,"inten":9243,"desto":9244,"##itive":9245,"##kta":9246,"utø":9247,"utstrekning":9248,"##uligheter":9249,"##årsak":9250,"##kkelen":9251,"##uri":9252,"##usener":9253,"aluminium":9254,"##otisk":9255,"antak":9256,"menighets":9257,"##forsamlingen":9258,"inngang":9259,"innbygger":9260,"beina":9261,"bevare":9262,"sånt":9263,"##bej":9264,"##iring":9265,"##ordet":9266,"##anny":9267,"##okra":9268,"##spensjon":9269,"##allene":9270,"##jøres":9271,"trenge":9272,"trøst":9273,"truleg":9274,"##kers":9275,"##osse":9276,"kunsten":9277,"##oget":9278,"nyere":9279,"##ument":9280,"##aktige":9281,"saal":9282,"##viser":9283,"kvant":9284,"skulen":9285,"leke":9286,"betaler":9287,"deles":9288,"##klubben":9289,"##ifer":9290,"lyser":9291,"forsam":9292,"følelser":9293,"118":9294,"110":9295,"Arnt":9296,"##taket":9297,"maatte":9298,"130":9299,"snur":9300,"bedriften":9301,"sittende":9302,"verket":9303,"They":9304,"heime":9305,"##nadene":9306,"dømt":9307,"Elt":9308,"onkel":9309,"styrker":9310,"1974":9311,"##ragt":9312,"sender":9313,"personal":9314,"Spørsmålet":9315,"partene":9316,"particular":9317,"organer":9318,"##inson":9319,"##vironment":9320,"nyttig":9321,"relasjoner":9322,"Leon":9323,"Leif":9324,"hvile":9325,"##aliteten":9326,"studie":9327,"nærmet":9328,"beskrevet":9329,"##agnar":9330,"fantas":9331,"metoder":9332,"term":9333,"##yting":9334,"##IST":9335,"gjester":9336,"Atl":9337,"føttene":9338,"radi":9339,"hevde":9340,"hevdet":9341,"people":9342,"marg":9343,"##bygd":9344,"strekker":9345,"forleng":9346,"sjølve":9347,"passet":9348,"melde":9349,"vestlige":9350,"Count":9351,"nakken":9352,"Kjærlig":9353,"rasende":9354,"Korleis":9355,"Aleks":9356,"Nedre":9357,"nøkkel":9358,"kilder":9359,"tilbudet":9360,"Selvfølgelig":9361,"rusmiddel":9362,"annan":9363,"pleie":9364,"mobilt":9365,"identitet":9366,"kjæreste":9367,"bussen":9368,"kjerringa":9369,"slipper":9370,"tjener":9371,"arrangem":9372,"Frode":9373,"municip":9374,"museum":9375,"ettermiddagen":9376,"demonstr":9377,"Halvorsen":9378,"ærlig":9379,"sagde":9380,"soldater":9381,"single":9382,"August":9383,"following":9384,"definer":9385,"Programleder":9386,"umiddelbart":9387,"betingelser":9388,"tilpasning":9389,"nynorsk":9390,"arranger":9391,"Putin":9392,"Charlotte":9393,"arthritis":9394,"municipal":9395,"AL":9396,"Aas":9397,"Bas":9398,"Bank":9399,"Delt":9400,"Even":9401,"Gå":9402,"Gerd":9403,"Hør":9404,"Haf":9405,"Ke":9406,"Kas":9407,"Ler":9408,"Lab":9409,"Lyd":9410,"Lof":9411,"Mun":9412,"Mitt":9413,"Nav":9414,"Nov":9415,"Prø":9416,"Sur":9417,"Sus":9418,"Soc":9419,"Sentral":9420,"Ten":9421,"Ting":9422,"Tide":9423,"Tha":9424,"Tone":9425,"Tenk":9426,"Vann":9427,"West":9428,"aar":9429,"aire":9430,"amt":9431,"bly":9432,"buss":9433,"bunnen":9434,"dommen":9435,"estet":9436,"find":9437,"fond":9438,"faa":9439,"gik":9440,"galler":9441,"je":9442,"kalte":9443,"khazar":9444,"latt":9445,"læn":9446,"mem":9447,"mage":9448,"nar":9449,"pH":9450,"pen":9451,"tæn":9452,"ukene":9453,"year":9454,"ydm":9455,"Øster":9456,"##lane":9457,"##ianske":9458,"##akke":9459,"##ssen":9460,"##kra":9461,"##ool":9462,"##okke":9463,"##ts":9464,"##GE":9465,"##FO":9466,"##cke":9467,"##just":9468,"##bi":9469,"##ura":9470,"##fen":9471,"##ån":9472,"##åte":9473,"##åsen":9474,"##hug":9475,"##hoff":9476,"##UT":9477,"##17":9478,"##CT":9479,"##etisk":9480,"##arter":9481,"##eleder":9482,"##stikk":9483,"##egler":9484,"foredrag":9485,"##reise":9486,"##tem":9487,"##altes":9488,"##onser":9489,"tilrett":9490,"enhet":9491,"avfall":9492,"##skij":9493,"skra":9494,"##asiteten":9495,"##sekretær":9496,"##ensson":9497,"##liga":9498,"##jev":9499,"opph":9500,"##aket":9501,"anse":9502,"ankl":9503,"anvende":9504,"##ommeren":9505,"innsk":9506,"innføre":9507,"samtid":9508,"bemer":9509,"vilt":9510,"spek":9511,"spiste":9512,"hunden":9513,"##øyen":9514,"årsdagen":9515,"##udi":9516,"##råden":9517,"##råten":9518,"hellig":9519,"etterhvert":9520,"##serne":9521,"##jøl":9522,"konger":9523,"konserv":9524,"trend":9525,"Stig":9526,"Stjer":9527,"##keren":9528,"##nnen":9529,"##ansene":9530,"##ansens":9531,"sauer":9532,"place":9533,"##ylling":9534,"merkelig":9535,"betj":9536,"selge":9537,"selges":9538,"##ustad":9539,"##kland":9540,"hvorav":9541,"syd":9542,"smal":9543,"smør":9544,"fremfor":9545,"treff":9546,"rettferd":9547,"tilbyr":9548,"Hvad":9549,"##stilles":9550,"brenn":9551,"##olkningen":9552,"uni":9553,"nærmer":9554,"byttet":9555,"behøver":9556,"vises":9557,"Journal":9558,"made":9559,"godtgjør":9560,"Herm":9561,"SSSS":9562,"reddet":9563,"##sbjørn":9564,"husdyr":9565,"heil":9566,"Anton":9567,"##sfart":9568,"Derimot":9569,"døpt":9570,"##rama":9571,"perform":9572,"Elsa":9573,"indust":9574,"indirekte":9575,"lure":9576,"##svir":9577,"##otten":9578,"meas":9579,"styrings":9580,"nettverk":9581,"##preg":9582,"Brun":9583,"Bern":9584,"##prosjekt":9585,"skjær":9586,"skjult":9587,"uttalte":9588,"Spania":9589,"##faren":9590,"høv":9591,"intere":9592,"intensjon":9593,"1968":9594,"##ofte":9595,"design":9596,"vannvar":9597,"Gudbrand":9598,"Regn":9599,"nytta":9600,"relative":9601,"turist":9602,"femti":9603,"1956":9604,"skjøt":9605,"gammelt":9606,"##sprosess":9607,"forsøket":9608,"vanskeligere":9609,"##setting":9610,"international":9611,"kjemiske":9612,"kravene":9613,"bryst":9614,"hendte":9615,"foretas":9616,"fornær":9617,"bønder":9618,"##ossible":9619,"peke":9620,"subjekt":9621,"vurderinger":9622,"Heim":9623,"mottok":9624,"##ornelius":9625,"##avtalen":9626,"Parad":9627,"##linical":9628,"alderen":9629,"sidene":9630,"drog":9631,"autor":9632,"automatisk":9633,"sjåfør":9634,"price":9635,"regionale":9636,"foregikk":9637,"Små":9638,"Merk":9639,"beslutninger":9640,"Røn":9641,"Velkommen":9642,"budsjettet":9643,"kvarandre":9644,"ekspert":9645,"assist":9646,"tynne":9647,"kostnads":9648,"satse":9649,"passerte":9650,"filosofi":9651,"Akershus":9652,"betraktet":9653,"Forskrift":9654,"distrib":9655,"##ønster":9656,"ambisjon":9657,"seinere":9658,"##begrens":9659,"instrument":9660,"rutiner":9661,"konferansen":9662,"fundament":9663,"oppsig":9664,"registrering":9665,"overbevist":9666,"oppstått":9667,"##veksling":9668,"forekommer":9669,"##åmstål":9670,"kafé":9671,"konsentrasjon":9672,"etterspørsel":9673,"belastning":9674,"restaurant":9675,"##systemet":9676,"skjulte":9677,"mektig":9678,"kreditt":9679,"greske":9680,"eskorte":9681,"Tesman":9682,"local":9683,"realityserie":9684,"MDG":9685,"Borg":9686,"Bygg":9687,"Bay":9688,"Clar":9689,"CERN":9690,"Des":9691,"Drift":9692,"Foss":9693,"Gri":9694,"Grav":9695,"Hammer":9696,"Islam":9697,"Lik":9698,"Lise":9699,"Mc":9700,"Meld":9701,"Meland":9702,"Mich":9703,"Næring":9704,"Osc":9705,"OSL":9706,"Pri":9707,"Rig":9708,"Sov":9709,"Svar":9710,"Salt":9711,"Sikkerhet":9712,"Win":9713,"Wash":9714,"aa":9715,"bun":9716,"bol":9717,"bonde":9718,"drå":9719,"doc":9720,"danner":9721,"finger":9722,"gym":9723,"gatene":9724,"hon":9725,"klipp":9726,"long":9727,"mont":9728,"minnet":9729,"nav":9730,"national":9731,"por":9732,"pum":9733,"park":9734,"ram":9735,"sangen":9736,"teller":9737,"uskyld":9738,"years":9739,"ÅR":9740,"##løy":9741,"##lish":9742,"##eist":9743,"##ni":9744,"##nnet":9745,"##osen":9746,"##tall":9747,"##rensen":9748,"##Gener":9749,"##deg":9750,"##jk":9751,"##bur":9752,"##fiske":9753,"##feld":9754,"##way":9755,"##NRK":9756,"##EV":9757,"##ØY":9758,"##hs":9759,"##34":9760,"##ét":9761,"##inar":9762,"##informasjon":9763,"##eling":9764,"##elatende":9765,"##illa":9766,"##steg":9767,"##strakt":9768,"##stua":9769,"##omet":9770,"##egrim":9771,"forstyr":9772,"foreningen":9773,"##rep":9774,"##keb":9775,"tilvær":9776,"enheter":9777,"##raksis":9778,"stien":9779,"medan":9780,"##ski":9781,"##skader":9782,"vara":9783,"varsel":9784,"omsider":9785,"util":9786,"utarbeide":9787,"utmarks":9788,"utgjorde":9789,"##ivider":9790,"##lies":9791,"etiske":9792,"inner":9793,"elven":9794,"overs":9795,"overskudd":9796,"vedtektene":9797,"sex":9798,"##slov":9799,"helga":9800,"konfir":9801,"trer":9802,"##endring":9803,"Stør":9804,"##osjon":9805,"nyhet":9806,"DeGener":9807,"##engs":9808,"##engden":9809,"##ryt":9810,"##iew":9811,"##ierark":9812,"leid":9813,"kjende":9814,"grus":9815,"##ostad":9816,"herunder":9817,"##change":9818,"begeist":9819,"##setnings":9820,"sammenlik":9821,"rettferdig":9822,"Int":9823,"##stiller":9824,"##tenberg":9825,"endres":9826,"endnu":9827,"høyst":9828,"moro":9829,"moral":9830,"politikken":9831,"ansett":9832,"168":9833,"synet":9834,"synger":9835,"legev":9836,"##ravåg":9837,"flinke":9838,"saksbe":9839,"parter":9840,"resp":9841,"glas":9842,"Champ":9843,"##yme":9844,"evnen":9845,"indic":9846,"knytt":9847,"Tilsvar":9848,"teori":9849,"aktuelt":9850,"holdninger":9851,"##produs":9852,"skjule":9853,"##ulerte":9854,"kapasitet":9855,"##regn":9856,"1948":9857,"##virke":9858,"muligens":9859,"betydde":9860,"roman":9861,"related":9862,"hovedstaden":9863,"gjeninn":9864,"ungene":9865,"##into":9866,"studenter":9867,"deltar":9868,"##ORD":9869,"asyl":9870,"##blikk":9871,"artik":9872,"1959":9873,"solid":9874,"Prof":9875,"muslim":9876,"omfattet":9877,"##ureau":9878,"Sola":9879,"Solveig":9880,"metod":9881,"regjeringa":9882,"char":9883,"kontakten":9884,"vennskap":9885,"United":9886,"##ommunic":9887,"##ronning":9888,"Dagsnytt":9889,"dåmen":9890,"sannheten":9891,"Adresse":9892,"Helg":9893,"##stendige":9894,"høres":9895,"skolens":9896,"psych":9897,"##sskole":9898,"kvinnelige":9899,"##givning":9900,"meldte":9901,"punkter":9902,"##ization":9903,"totale":9904,"KrF":9905,"Verk":9906,"Moe":9907,"foreslå":9908,"Johanne":9909,"Sandvik":9910,"riket":9911,"tegl":9912,"produsent":9913,"avgjer":9914,"tydeligvis":9915,"kartlegging":9916,"bakgrunnen":9917,"1870":9918,"poly":9919,"tilpasse":9920,"alternative":9921,"Endelig":9922,"##vannet":9923,"Myster":9924,"kjemp":9925,"Øystein":9926,"Morgen":9927,"##stjenester":9928,"ødelegge":9929,"vedtaket":9930,"kostnadene":9931,"tilsynelatende":9932,"optimal":9933,"uvanlig":9934,"Hauge":9935,"Utenrik":9936,"definert":9937,"understreke":9938,"gjengjeld":9939,"drives":9940,"tårer":9941,"transform":9942,"museet":9943,"SVAR":9944,"sjekket":9945,"Familien":9946,"tidspunktet":9947,"versjon":9948,"revisjon":9949,"support":9950,"epis":9951,"tilnærming":9952,"##sspørsmål":9953,"hjørne":9954,"##fjellet":9955,"both":9956,"##skontroll":9957,"##kjøring":9958,"reduksjon":9959,"elevar":9960,"Fjuls":9961,"statsbudsj":9962,"Telemark":9963,"jubile":9964,"William":9965,"evaluer":9966,"skøyte":9967,"##setjing":9968,"tuberkul":9969,"dominerende":9970,"Eventyr":9971,"Stoltenberg":9972,"forutsetter":9973,"Myron":9974,"Archie":9975,"Victor":9976,"Oliver":9977,"menighetsråd":9978,"Eltravåg":9979,"DeGeneres":9980,"AB":9981,"Ala":9982,"Asbjørn":9983,"BAR":9984,"Disk":9985,"Dov":9986,"Go":9987,"GI":9988,"Ger":9989,"Grå":9990,"Husk":9991,"Kil":9992,"Kun":9993,"Kane":9994,"LO":9995,"Lev":9996,"Livet":9997,"Mø":9998,"NS":9999,"Neder":10000,"NAT":10001,"P1":10002,"Pol":10003,"Pla":10004,"So":10005,"Ti":10006,"Ur":10007,"Uansett":10008,"bv":10009,"dans":10010,"drag":10011,"gunst":10012,"hell":10013,"hald":10014,"imm":10015,"iss":10016,"kass":10017,"kalla":10018,"listen":10019,"lurer":10020,"minnes":10021,"oft":10022,"occ":10023,"oksy":10024,"pund":10025,"savnet":10026,"sonen":10027,"tum":10028,"vaske":10029,"vatnet":10030,"ym":10031,"Øn":10032,"##iatr":10033,"##mand":10034,"##air":10035,"##kse":10036,"##oy":10037,"##rin":10038,"##renn":10039,"##BER":10040,"##yp":10041,"##yer":10042,"##gave":10043,"##bolig":10044,"##uk":10045,"##fød":10046,"##øra":10047,"##EP":10048,"##Ka":10049,"##hagen":10050,"##UG":10051,"##UM":10052,"##JØ":10053,"##én":10054,"##ini":10055,"##iness":10056,"##ela":10057,"##elva":10058,"##områdene":10059,"##edyr":10060,"avgjort":10061,"avgrens":10062,"##ikerne":10063,"stater":10064,"stole":10065,"state":10066,"skri":10067,"skot":10068,"##agg":10069,"##ppel":10070,"inde":10071,"##itsj":10072,"##ndal":10073,"##entre":10074,"utlø":10075,"utlå":10076,"##litter":10077,"##lima":10078,"##ensasjon":10079,"##ension":10080,"##otiske":10081,"##akere":10082,"samla":10083,"sått":10084,"elles":10085,"spir":10086,"overens":10087,"overenskom":10088,"##behold":10089,"##irke":10090,"##ssyn":10091,"##ssenter":10092,"##uture":10093,"##okol":10094,"##ertain":10095,"åring":10096,"reelle":10097,"##ovic":10098,"komment":10099,"træ":10100,"trives":10101,"##smidler":10102,"--.":10103,"##abrik":10104,"##visst":10105,"andres":10106,"haust":10107,"##redelse":10108,"begiven":10109,"manag":10110,"nedre":10111,"nedrustning":10112,"##kled":10113,"løst":10114,"Skjø":10115,"lytte":10116,"##ubber":10117,"Institutt":10118,"##still":10119,"##opt":10120,"broren":10121,"##enteres":10122,"##ålmod":10123,"##iets":10124,"##iety":10125,"##ingsstoff":10126,"bygninger":10127,"bygges":10128,"velges":10129,"front":10130,"friluft":10131,"1600":10132,"##jøring":10133,"selvstendig":10134,"forbaus":10135,"Trygg":10136,"flaske":10137,"##appet":10138,"Herr":10139,"Herre":10140,"resul":10141,"troende":10142,"flytter":10143,"##rerer":10144,"##lesund":10145,"glød":10146,"know":10147,"lukke":10148,"Tillegg":10149,"1982":10150,"inneholde":10151,"styrer":10152,"øyene":10153,"fylket":10154,"##vilget":10155,"tekster":10156,"comp":10157,"fleks":10158,"antallet":10159,"høgre":10160,"Franc":10161,"vanleg":10162,"relation":10163,"Amund":10164,"nordvest":10165,"Lee":10166,"turn":10167,"femte":10168,"streng":10169,"frie":10170,"karriere":10171,"##talem":10172,"fødsel":10173,"vanskeligheter":10174,"garn":10175,"garder":10176,"Nyhetene":10177,"Ordet":10178,"dreiv":10179,"hendt":10180,"bena":10181,"truet":10182,"effekter":10183,"Halv":10184,"læreren":10185,"selskaper":10186,"period":10187,"##ungene":10188,"Vestre":10189,"##bygget":10190,"##feil":10191,"Martha":10192,"tomgang":10193,"##vedt":10194,"særleg":10195,"særskilt":10196,"Arbeidet":10197,"Freder":10198,"##boken":10199,"##ized":10200,"ideer":10201,"avgjørelsen":10202,"måneden":10203,"##STAD":10204,"regnb":10205,"gravid":10206,"psykisk":10207,"fersk":10208,"foreslår":10209,"skyte":10210,"næringsliv":10211,"stoffet":10212,"musikkm":10213,"Carol":10214,"Høg":10215,"Teater":10216,"##stykke":10217,"regjeringens":10218,"##ystemet":10219,"søknaden":10220,"revolusjon":10221,"tynn":10222,"datteren":10223,"forandringer":10224,"bekymring":10225,"hyp":10226,"forhånd":10227,"Gunhild":10228,"fattige":10229,"kysset":10230,"Israels":10231,"Våre":10232,"##fugl":10233,"trygghet":10234,"banket":10235,"Hjert":10236,"International":10237,"Siri":10238,"Magne":10239,"kollega":10240,"religiøs":10241,"ordinære":10242,"forberedt":10243,"jevn":10244,"stemning":10245,"multipl":10246,"taushet":10247,"lenker":10248,"forbudt":10249,"kollektiv":10250,"##skostnader":10251,"framtida":10252,"dyktig":10253,"NOU":10254,"effect":10255,"Rapport":10256,"social":10257,"utgiftene":10258,"Canada":10259,"kriterier":10260,"Hollywood":10261,"elementer":10262,"mumlet":10263,"enorme":10264,"nøytral":10265,"Bevilg":10266,"prestegjeld":10267,"Richard":10268,"Baldwin":10269,"rusmiddelfor":10270,"interest":10271,"##åmstålld":10272,"Oscar":10273,"',":10274,"Aut":10275,"Ash":10276,"Bær":10277,"Cass":10278,"Dyr":10279,"ER":10280,"Eck":10281,"FO":10282,"Gode":10283,"Hje":10284,"Hund":10285,"Helle":10286,"Hipp":10287,"Jor":10288,"Juni":10289,"Kilde":10290,"Kunne":10291,"Lys":10292,"Levin":10293,"Nest":10294,"OR":10295,"Tj":10296,"Tan":10297,"Tour":10298,"Wi":10299,"You":10300,"arab":10301,"belig":10302,"bål":10303,"batter":10304,"did":10305,"danse":10306,"element":10307,"estim":10308,"ger":10309,"hull":10310,"lis":10311,"lyn":10312,"lød":10313,"mister":10314,"os":10315,"rov":10316,"rakte":10317,"sunn":10318,"tette":10319,"tips":10320,"ving":10321,"Ås":10322,"økes":10323,"##kro":10324,"##nytt":10325,"##trykk":10326,"##rt":10327,"##riller":10328,"##AB":10329,"##GEN":10330,"##domm":10331,"##put":10332,"##psborg":10333,"##gitt":10334,"##uere":10335,"##figur":10336,"##YR":10337,"##hes":10338,"##hyl":10339,"##UND":10340,"##40":10341,"##ÆR":10342,"##ettes":10343,"##anere":10344,"##eli":10345,"##elst":10346,"##elova":10347,"##stasjonen":10348,"##egang":10349,"##ree":10350,"##real":10351,"##ality":10352,"##onia":10353,"##less":10354,"##undes":10355,"avl":10356,"##eset":10357,"stue":10358,"##neum":10359,"medfører":10360,"##ørret":10361,"##skriver":10362,"##skillig":10363,"skam":10364,"skatten":10365,"##verker":10366,"##ags":10367,"dekkes":10368,"##itar":10369,"##itch":10370,"varam":10371,"omd":10372,"omlag":10373,"utstilling":10374,"utlever":10375,"utarbeidet":10376,"##ros":10377,"##kking":10378,"ethvert":10379,"##rutter":10380,"##forn":10381,"##foreningen":10382,"kanten":10383,"innad":10384,">>-":10385,"##odi":10386,"samarbeide":10387,"såleis":10388,"##aper":10389,"##eligt":10390,"overst":10391,"##mmel":10392,"separ":10393,"anden":10394,"andet":10395,"ettertid":10396,"kommand":10397,"##iment":10398,"konkur":10399,"treg":10400,"##endal":10401,"##inna":10402,"Sten":10403,"##veier":10404,"##ittet":10405,"##engende":10406,"##akta":10407,"##asto":10408,"##lymp":10409,"##ansjen":10410,"plager":10411,"plikter":10412,"ort":10413,"##ødig":10414,"bla":10415,"haug":10416,"105":10417,"##nesk":10418,"1700":10419,"nåde":10420,"begrense":10421,"##ktes":10422,"##nerne":10423,"3000":10424,"treet":10425,"##leggings":10426,"##opplys":10427,"søkt":10428,"##revne":10429,"endelige":10430,"111":10431,"morg":10432,"virkelige":10433,"##duc":10434,"tenkes":10435,"##sområdet":10436,"forsker":10437,"handlet":10438,"Tror":10439,"hån":10440,"menneskelig":10441,"parken":10442,"Maren":10443,"##sbeg":10444,"##svent":10445,"##stått":10446,"##stemning":10447,"##prom":10448,"##iverse":10449,"Torgeir":10450,"åpningen":10451,"1943":10452,"lokaler":10453,"1966":10454,"støtter":10455,"##syk":10456,"desper":10457,"##vete":10458,"Nordre":10459,"Nordland":10460,"##holt":10461,"studies":10462,"##været":10463,"vinket":10464,"function":10465,"##issa":10466,"beskriver":10467,"skjønt":10468,"what":10469,"##shistor":10470,"##egnede":10471,"base":10472,"exchange":10473,"oppfat":10474,"Jonathan":10475,"terror":10476,"##grunnen":10477,"bryllup":10478,"budskap":10479,"føde":10480,"venninne":10481,"virkelighet":10482,"##komité":10483,"usikkerhet":10484,"Wilson":10485,"Dagens":10486,"pract":10487,"disposisjon":10488,"vesle":10489,"seksuelle":10490,"særlige":10491,"variere":10492,"forfatt":10493,"forstod":10494,"##budsj":10495,"Huset":10496,"##sskatt":10497,"akadem":10498,"##ALL":10499,"forsvarlig":10500,"Eriksen":10501,"avgjørelse":10502,"##meldt":10503,"drøft":10504,"tøff":10505,"George":10506,"realistisk":10507,"fugler":10508,"Sjur":10509,"trengs":10510,"tallene":10511,"fyrste":10512,"policy":10513,"oppdage":10514,"Enda":10515,"Hamar":10516,"##punkter":10517,"russe":10518,"leiligheter":10519,"leiligheten":10520,"trafikken":10521,"again":10522,"ødelagt":10523,"##kontoret":10524,"associ":10525,"kino":10526,"Asia":10527,"regulering":10528,"ventil":10529,"Troms":10530,"omtalt":10531,"Party":10532,"##atrul":10533,"##spolitiske":10534,"Nielsen":10535,"utdannelse":10536,"medisinsk":10537,"bevissthet":10538,"consider":10539,"skuff":10540,"pedagogisk":10541,"relevante":10542,"deltakelse":10543,"kontinuerlig":10544,"Mrs":10545,"overflaten":10546,"påpeker":10547,"oppfylt":10548,"markedsføring":10549,"tilhørende":10550,"##aserie":10551,"##ørrelse":10552,"##høg":10553,"bransjen":10554,"Idrett":10555,"##snyhetene":10556,"dividenden":10557,"sirkel":10558,"slitasje":10559,"uttalelse":10560,"countries":10561,"##sikring":10562,"Musikk":10563,"Tekn":10564,"skuespiller":10565,"##iskopen":10566,"Distriktsnyheter":10567,"found":10568,"Gulbrand":10569,"Trump":10570,"frøken":10571,"flagg":10572,"##smelding":10573,"kinesiske":10574,"Josef":10575,"barndom":10576,"##hammed":10577,"matemat":10578,"takknemlig":10579,"Justisdepartementet":10580,"Locasto":10581,"okkup":10582,"athletes":10583,"Tilsvarende":10584,"Fjulsrud":10585,"oksygen":10586,"musikkmiks":10587,"Levinas":10588,",\"\"":10589,"Ak":10590,"Ali":10591,"Aur":10592,"BB":10593,"EC":10594,"Eide":10595,"Frå":10596,"Fem":10597,"Fød":10598,"Fager":10599,"Gil":10600,"Gjel":10601,"Grim":10602,"Hart":10603,"Hagen":10604,"Hydro":10605,"Hirka":10606,"Jim":10607,"Kop":10608,"Led":10609,"List":10610,"Mu":10611,"Mine":10612,"May":10613,"Mamma":10614,"NT":10615,"Nick":10616,"Ow":10617,"Priv":10618,"Pensjon":10619,"Ris":10620,"Rev":10621,"Riktig":10622,"Russ":10623,"Siv":10624,"Sist":10625,"Side":10626,"Treme":10627,"Va":10628,"agen":10629,"bundet":10630,"camp":10631,"fett":10632,"fanger":10633,"feltet":10634,"gut":10635,"how":10636,"hytte":10637,"hustru":10638,"ii":10639,"kå":10640,"lista":10641,"nag":10642,"pas":10643,"past":10644,"ryn":10645,"rasjon":10646,"renter":10647,"ringer":10648,"taller":10649,"tju":10650,"veter":10651,"Ålesund":10652,"##møte":10653,"##aver":10654,"##akken":10655,"##sene":10656,"##sand":10657,"##sats":10658,"##sikkerhet":10659,"##kling":10660,"##kna":10661,"##kandid":10662,"##når":10663,"##talen":10664,"##FI":10665,"##vang":10666,"##dens":10667,"##dtr":10668,"##yne":10669,"##pas":10670,"##penger":10671,"##paa":10672,"##go":10673,"##gav":10674,"##gard":10675,"##bon":10676,"##bul":10677,"##upen":10678,"##famil":10679,"##xic":10680,"##PS":10681,"##zen":10682,"##etet":10683,"##anlegget":10684,"##arte":10685,"##stor":10686,"##stinget":10687,"##egning":10688,"##egner":10689,"forandre":10690,"##tef":10691,"##igger":10692,"##alc":10693,"tilslutning":10694,"##rader":10695,"avskj":10696,"##ikre":10697,"stam":10698,"##idrett":10699,"##ørs":10700,"skjema":10701,"infra":10702,"##itiv":10703,"##andel":10704,"utsted":10705,"utføres":10706,"utstillingen":10707,"utleie":10708,"##lion":10709,"##usi":10710,"oppos":10711,"##ria":10712,"anim":10713,"anstr":10714,"menighet":10715,"##ommisjonen":10716,"kant":10717,"##heve":10718,"samvitt":10719,"sporet":10720,"##ists":10721,"overtok":10722,"overflate":10723,"##ssummen":10724,"sees":10725,"seie":10726,"##sløse":10727,"dum":10728,"##spillet":10729,"helg":10730,"heldt":10731,"##ygiene":10732,"armer":10733,"trene":10734,"kundene":10735,"##ogra":10736,"nyt":10737,"klærne":10738,"##jern":10739,"##enga":10740,"underlig":10741,"plant":10742,"Forslaget":10743,"103":10744,"101":10745,"levet":10746,"##ressen":10747,"herlig":10748,"begj":10749,"##neren":10750,"Skien":10751,"fremgang":10752,"fremgår":10753,"landsby":10754,"svikt":10755,"##oppgaver":10756,"##oph":10757,"bryr":10758,"bånd":10759,"finalen":10760,"søvn":10761,"##ydning":10762,"framleis":10763,"følgelig":10764,"verdig":10765,"119":10766,"116":10767,"moralsk":10768,"##ingsd":10769,"then":10770,"egentlige":10771,"165":10772,"trav":10773,"##formann":10774,"##somhet":10775,"forskere":10776,"forskrifter":10777,"synge":10778,"synspunkt":10779,"ordens":10780,"allmen":10781,"135":10782,"147":10783,"vernet":10784,"mulighetene":10785,"parad":10786,"statistikk":10787,"Mars":10788,"heiter":10789,"havner":10790,"##ENE":10791,"##keland":10792,"siger":10793,"##følelse":10794,"##følgende":10795,"##vilkår":10796,"personinntekt":10797,"##handel":10798,"familiens":10799,"dyb":10800,"offent":10801,"Utvik":10802,"tingene":10803,"desig":10804,"vanskeleg":10805,"plassere":10806,"model":10807,"##eldigvis":10808,"straffe":10809,"generator":10810,"Andy":10811,"veggene":10812,"##søkonom":10813,"sikring":10814,"##betaling":10815,"##ission":10816,"nevne":10817,"forvand":10818,"forventet":10819,"1954":10820,"1953":10821,"##sforvaltning":10822,"behandler":10823,"fantasi":10824,"manglet":10825,"fødselen":10826,"forsøks":10827,"meth":10828,"oppfatte":10829,"imellom":10830,"##strand":10831,"skjermen":10832,"Barnet":10833,"diam":10834,"Egypt":10835,"1937":10836,"##ETT":10837,"fjernet":10838,"1922":10839,"Laur":10840,"Halden":10841,"innsatte":10842,"old":10843,"drap":10844,"temp":10845,"lærte":10846,"vurderingen":10847,"butikker":10848,"Plutselig":10849,"values":10850,"kunnskaper":10851,"tørke":10852,"gifta":10853,"prinsip":10854,"dramaserie":10855,"beveger":10856,"beveget":10857,"Syke":10858,"forsvunnet":10859,"drømmer":10860,"psykiske":10861,"barnehager":10862,"røye":10863,"maskiner":10864,"refle":10865,"reflekt":10866,"strålende":10867,"straffes":10868,"Abub":10869,"Larvik":10870,"Fortun":10871,"organisering":10872,"Kongsberg":10873,"Bakke":10874,"skarpt":10875,"vitne":10876,"tabellen":10877,"ødelegg":10878,"skjønnhet":10879,"katastro":10880,"##skipet":10881,"anbefaler":10882,"Niels":10883,"opplyst":10884,"Sports":10885,"Sportsnyhetene":10886,"bekrefter":10887,"premie":10888,"Haugesund":10889,"Family":10890,"Kjøp":10891,"Sarpsborg":10892,"Stockflet":10893,"arbeidsmark":10894,"sammenlignet":10895,"etablering":10896,"Mennesker":10897,"alminnelig":10898,"Figure":10899,"##ebygging":10900,"DNA":10901,"kjennskap":10902,"strykninger":10903,"innrømme":10904,"dividende":10905,"##smyndighet":10906,"Rasmussen":10907,"ivareta":10908,"erstattet":10909,"##mesteren":10910,"##wards":10911,"undervisningen":10912,"konklusjon":10913,"Jean":10914,"omgivelsene":10915,"korrekt":10916,"number":10917,"origin":10918,"Birgit":10919,"Rådhus":10920,"bosted":10921,"verdifull":10922,"administrative":10923,"forbindelser":10924,"OPPG0":10925,"pacem":10926,"mineral":10927,"##perioden":10928,"Allerede":10929,"parlamentarisk":10930,"Hordaland":10931,"sivile":10932,"Elisabeth":10933,"##ikopter":10934,"engasjement":10935,"saaledes":10936,"Washington":10937,"ymse":10938,"'.":10939,"Bli":10940,"Bjer":10941,"Beb":10942,"Bård":10943,"Beth":10944,"Bureau":10945,"Drø":10946,"Doll":10947,"DAG":10948,"FB":10949,"Gunder":10950,"Hur":10951,"Hennes":10952,"Heller":10953,"IT":10954,"Jas":10955,"Jenn":10956,"Jess":10957,"Jæren":10958,"Kore":10959,"Li":10960,"Len":10961,"Lyng":10962,"Mang":10963,"Nort":10964,"North":10965,"Ran":10966,"Rock":10967,"Retten":10968,"Sog":10969,"Syl":10970,"Serv":10971,"Topp":10972,"Tolle":10973,"Tyrk":10974,"Unn":10975,"Viv":10976,"Vak":10977,"Venner":10978,"Votering":10979,"Ze":10980,"astr":10981,"bene":10982,"badet":10983,"eie":10984,"fel":10985,"fur":10986,"gry":10987,"gnr":10988,"gastric":10989,"hinder":10990,"hytta":10991,"ien":10992,"jan":10993,"kår":10994,"køy":10995,"nak":10996,"nark":10997,"pu":10998,"pred":10999,"porten":11000,"rester":11001,"sus":11002,"sokneprest":11003,"toll":11004,"tyrk":11005,"uen":11006,"ulem":11007,"uka":11008,"von":11009,"~~":11010,"##lte":11011,"##setter":11012,"##kry":11013,"##kner":11014,"##ew":11015,"##nummer":11016,"##ral":11017,"##riter":11018,"##OB":11019,"##OH":11020,"##TR":11021,"##AKT":11022,"##LEG":11023,"##van":11024,"##vett":11025,"##yle":11026,"##pset":11027,"##press":11028,"##personer":11029,"##grø":11030,"##gata":11031,"##æm":11032,"##bra":11033,"##bum":11034,"##bake":11035,"##bach":11036,"##fat":11037,"##øg":11038,"##hje":11039,"##32":11040,"##36":11041,"##MS":11042,"##orene":11043,"##inas":11044,"##stasjon":11045,"##stret":11046,"##edalen":11047,"foreb":11048,"forresten":11049,"forebyggende":11050,"##test":11051,"tiltre":11052,"tilsette":11053,"deter":11054,"enke":11055,"##unket":11056,"##rate":11057,"avtal":11058,"avhør":11059,"##idt":11060,"##idge":11061,"##atre":11062,"skadet":11063,"##agon":11064,"##agna":11065,"##itions":11066,"varmen":11067,"##kkelige":11068,"##jects":11069,"oppbe":11070,"oppsø":11071,"oppnår":11072,"##aking":11073,"##forslag":11074,"##forsy":11075,"innover":11076,"##odde":11077,"sped":11078,"spekt":11079,"spreng":11080,"##avel":11081,"##irer":11082,"##ssels":11083,"rekker":11084,"rekkje":11085,"arena":11086,"konstru":11087,"process":11088,"##osal":11089,"##ums":11090,"kledd":11091,"motiver":11092,"##smater":11093,"##røt":11094,"##aktorer":11095,"##ansier":11096,"komprom":11097,"say":11098,"##ringes":11099,"blive":11100,"102":11101,"kjm":11102,"##iserings":11103,"selde":11104,"many":11105,"arbeidsled":11106,"arbeidskraft":11107,"##dets":11108,"vektor":11109,"veiledning":11110,"løfter":11111,"syssels":11112,"smak":11113,"landskapet":11114,"myke":11115,"##ifisert":11116,"##areal":11117,"##000":11118,"Alder":11119,"følges":11120,"billett":11121,"grunnskolen":11122,"##trene":11123,"nærhet":11124,"politim":11125,"farlige":11126,"egg":11127,"##ards":11128,"##odes":11129,"ligget":11130,"sakene":11131,"sjanser":11132,"tyve":11133,"##standing":11134,"Sec":11135,"havre":11136,"trodd":11137,"##aade":11138,"evak":11139,"individer":11140,"korrid":11141,"##greg":11142,"planet":11143,"##gås":11144,"middagen":11145,"bortover":11146,"Reidar":11147,"sukk":11148,"sukker":11149,"summen":11150,"##handelen":11151,"Tora":11152,"##flaten":11153,"støv":11154,"There":11155,"hospital":11156,"modeller":11157,"nordside":11158,"##veggen":11159,"gjennem":11160,"gjenstander":11161,"generell":11162,"Jahn":11163,"Kristus":11164,"study":11165,"deltaker":11166,"##barhet":11167,"Roy":11168,"##atorer":11169,"##esterett":11170,"##kveld":11171,"##splass":11172,"rettes":11173,"##marka":11174,"##issene":11175,"##sforsk":11176,"dato":11177,"Grand":11178,"elevenes":11179,"driften":11180,"garanter":11181,"Blod":11182,"##ISK":11183,"fiskere":11184,"##ELL":11185,"vennene":11186,"avtaler":11187,"##komne":11188,"1933":11189,"1935":11190,"1926":11191,"scoret":11192,"effektivt":11193,"Henning":11194,"##fallende":11195,"Halle":11196,"lærerne":11197,"##ografiske":11198,"produksjons":11199,"1914":11200,"1910":11201,"stress":11202,"##feksjon":11203,"vesen":11204,"representert":11205,"passende":11206,"##okument":11207,"mistanke":11208,"point":11209,"dramatisk":11210,"forsvare":11211,"punktum":11212,"bevege":11213,"##sministeren":11214,"avdøde":11215,"ditto":11216,"kaster":11217,"tilsvarer":11218,"psykiatr":11219,"Kjetil":11220,"Olaf":11221,"produsere":11222,"produserer":11223,"sjuke":11224,"group":11225,"konsept":11226,"stråling":11227,"Evensen":11228,"##bilder":11229,"opplysning":11230,"samanheng":11231,"bygging":11232,"1814":11233,"Motor":11234,"åndelige":11235,"påvirker":11236,"påvirket":11237,"Lillestrøm":11238,"eigen":11239,"heldige":11240,"negativ":11241,"besøke":11242,"besøkte":11243,"forhindre":11244,"Viking":11245,"flertallet":11246,"tjue":11247,"definisjon":11248,"formidle":11249,"##produksjonen":11250,"rørte":11251,"britisk":11252,"stranden":11253,"Ibn":11254,"undersøkt":11255,"hilsen":11256,"mengde":11257,"spissen":11258,"kontrollere":11259,"Internett":11260,"protest":11261,"patri":11262,"namnet":11263,"arbeidsmiljø":11264,"tiltalte":11265,"svingte":11266,"beskrivelse":11267,"stiftelsen":11268,"identifisere":11269,"kjennet":11270,"Black":11271,"country":11272,"livsstil":11273,"Williams":11274,"brått":11275,"European":11276,"gripe":11277,"overordnet":11278,"Ragnhild":11279,"global":11280,"direktøren":11281,"Kostet":11282,"Gjøvik":11283,"bifaltes":11284,"dynam":11285,"hurra":11286,"bestandig":11287,"Eksterne":11288,"omstendigheter":11289,"landsbyen":11290,"Lydia":11291,"Lofoten":11292,"konfirm":11293,"tuberkulose":11294,"Alaska":11295,"regnbue":11296,"Tremeau":11297,"infrastruktur":11298,"-)":11299,"Ac":11300,"Az":11301,"Aga":11302,"Aasen":11303,"Bend":11304,"Dis":11305,"EØS":11306,"Får":11307,"Food":11308,"Gard":11309,"Hobby":11310,"Heldigvis":11311,"Imp":11312,"Ki":11313,"Ku":11314,"Los":11315,"Lei":11316,"Mem":11317,"Ner":11318,"NOK":11319,"One":11320,"Park":11321,"Press":11322,"Rim":11323,"Rek":11324,"Røst":11325,"Sul":11326,"SFT":11327,"UK":11328,"Vat":11329,"Valg":11330,"Wagner":11331,"bam":11332,"bringer":11333,"cover":11334,"certain":11335,"dører":11336,"dammer":11337,"ear":11338,"eder":11339,"falsk":11340,"hes":11341,"hag":11342,"hesten":11343,"jåmstålld":11344,"kalen":11345,"lak":11346,"lede":11347,"lente":11348,"laborator":11349,"np":11350,"net":11351,"nes":11352,"pus":11353,"pante":11354,"røre":11355,"rente":11356,"rakk":11357,"rulle":11358,"rosa":11359,"she":11360,"sog":11361,"sige":11362,"sugge":11363,"Økonom":11364,"##lid":11365,"##iff":11366,"##ians":11367,"##minn":11368,"##miljøet":11369,"##sig":11370,"##srud":11371,"##nas":11372,"##nettet":11373,"##renes":11374,"##BE":11375,"##vol":11376,"##ds":11377,"##ci":11378,"##cm":11379,"##yra":11380,"##ykker":11381,"##pal":11382,"##gner":11383,"##jå":11384,"##æt":11385,"##but":11386,"##brevet":11387,"##frist":11388,"##øtt":11389,"##øder":11390,"##NES":11391,"##VE":11392,"##xt":11393,"##UST":11394,"##90":11395,"##PER":11396,"##80":11397,"##aning":11398,"##aris":11399,"##elskap":11400,"##ila":11401,"##stens":11402,"##stell":11403,"##stjer":11404,"##egå":11405,"fordeling":11406,"forenk":11407,"##repet":11408,"tilstede":11409,"##lest":11410,"##ising":11411,"##unet":11412,"aviser":11413,"avhenger":11414,"påtalem":11415,"##ologen":11416,"medføre":11417,"##øret":11418,"##skatt":11419,"##skilde":11420,"skygge":11421,"varemer":11422,"##add":11423,"omtal":11424,"utk":11425,"utfører":11426,"##ulent":11427,"##årige":11428,"##iva":11429,"##anges":11430,"##rich":11431,"ald":11432,"aldeles":11433,"##rukket":11434,"##akom":11435,"##akene":11436,"##endes":11437,"angående":11438,"angrepet":11439,"note":11440,"innvendig":11441,"##terer":11442,"samspill":11443,"såvidt":11444,"såpass":11445,"spillet":11446,"overføres":11447,"##avtal":11448,"##bein":11449,"##mmelige":11450,"##anness":11451,"vedtok":11452,"sliter":11453,"##øyte":11454,"sem":11455,"sector":11456,"##rået":11457,"skalv":11458,"repl":11459,"reisen":11460,"##sper":11461,"##imb":11462,"konstat":11463,"##endene":11464,"Stats":11465,"##osis":11466,"klin":11467,"##smund":11468,"##rød":11469,"##rykt":11470,"koma":11471,"komple":11472,"##abl":11473,"plu":11474,"pluss":11475,"plukket":11476,"blind":11477,"blokk":11478,"register":11479,"Formos":11480,"107":11481,"skulder":11482,"level":11483,"##iserende":11484,"betal":11485,"##ustav":11486,"veileder":11487,"##klin":11488,"##klass":11489,"##førar":11490,"smøre":11491,"Skott":11492,"Skifte":11493,"treffer":11494,"landslag":11495,"brune":11496,"##ipro":11497,"##ipstad":11498,"##entering":11499,"##ydig":11500,"følelses":11501,"høyest":11502,"115":11503,"morsom":11504,"moralske":11505,"those":11506,"formålet":11507,"##ration":11508,"##onerer":11509,"behagelig":11510,"fars":11511,"fris":11512,"162":11513,"167":11514,"ordføreren":11515,"feire":11516,"145":11517,"møb":11518,"sittet":11519,"vern":11520,"ingeniør":11521,"baker":11522,"flytende":11523,"##sfri":11524,"viktigaste":11525,"Chr":11526,"Chic":11527,"perman":11528,"##aldres":11529,"##ained":11530,"kors":11531,"##rakten":11532,"##ianne":11533,"##stemt":11534,"##selskapet":11535,"##erences":11536,"techn":11537,"##anisme":11538,"##ragte":11539,"fleir":11540,"personell":11541,"partier":11542,"particip":11543,"Ref":11544,"hørtes":11545,"##farge":11546,"##regel":11547,"Utnevnt":11548,"##gjøring":11549,"Etabler":11550,"##right":11551,"240":11552,"without":11553,"relativ":11554,"Amalie":11555,"gjengen":11556,"valgkampen":11557,"strakte":11558,"brakte":11559,"##verka":11560,"##underlig":11561,"Karm":11562,"##blant":11563,"1958":11564,"bidro":11565,"drifta":11566,"need":11567,"natta":11568,"Barna":11569,"levere":11570,"##byggingen":11571,"information":11572,"attrakt":11573,"benytte":11574,"vinduer":11575,"scanpix":11576,"innsjø":11577,"innsikt":11578,"Undersøk":11579,"##yndte":11580,"1913":11581,"1917":11582,"Maur":11583,"Heid":11584,"##bygning":11585,"mottar":11586,"tvunget":11587,"loj":11588,"særskilte":11589,"Svensson":11590,"linjer":11591,"sovjet":11592,"kontrollen":11593,"tørt":11594,"dramakom":11595,"lokalene":11596,"ekteskapet":11597,"brøt":11598,"##buen":11599,"tradisjonelt":11600,"naz":11601,"stopper":11602,"##duksjonen":11603,"avslør":11604,"avslut":11605,"forsvinne":11606,"damer":11607,"drømmen":11608,"##ancy":11609,"funksjoner":11610,"1894":11611,"fartøy":11612,"kristen":11613,"1837":11614,"##sutvikling":11615,"gulv":11616,"virkemidler":11617,"endringene":11618,"tettere":11619,"##bildet":11620,"Signe":11621,"stoler":11622,"Mye":11623,"Hedmark":11624,"påvirkning":11625,"jernban":11626,"Morgan":11627,"oppstart":11628,"Markus":11629,"Borger":11630,"##irektorat":11631,"rekrutter":11632,"Film":11633,"Raw":11634,"ulykke":11635,"kongelige":11636,"##historisk":11637,"##historie":11638,"hoppe":11639,"hoppet":11640,"Antall":11641,"aksjee":11642,"bedriftene":11643,"materialer":11644,"inviterer":11645,"kjøpes":11646,"##småte":11647,"forfatteren":11648,"##sretten":11649,"handelsregister":11650,"Sarah":11651,"signaler":11652,"utnytt":11653,"##analyse":11654,"strategi":11655,"konvensjonen":11656,"tilhørte":11657,"europeisk":11658,"begravet":11659,"spredt":11660,"kjøperen":11661,"Audhild":11662,"Espen":11663,"video":11664,"##apparat":11665,"studerte":11666,"argument":11667,"arkitektur":11668,"NGOs":11669,"insekt":11670,"insekter":11671,"specific":11672,"erstatte":11673,"Kontakt":11674,"skjebne":11675,"Bryne":11676,"maksim":11677,"awik":11678,"kombinasjon":11679,"Søkere":11680,"original":11681,"##presentant":11682,"verdifulle":11683,"Resultatet":11684,"fortjener":11685,"arrestert":11686,"Angell":11687,"prioritere":11688,"Premier":11689,"Totalt":11690,"##aterialet":11691,"kontraher":11692,"redegjør":11693,"including":11694,"mogleg":11695,"språket":11696,"rabatt":11697,"døgnet":11698,"Ungarn":11699,"Ingebrigtsen":11700,"Svalb":11701,"##okolade":11702,"Eckhoff":11703,"Abubakar":11704,"forebygge":11705,"Formosus":11706,"%.":11707,"(©":11708,"//":11709,":\"\"":11710,"?\"\"":11711,"Aa":11712,"Ass":11713,"BM":11714,"Brev":11715,"Ce":11716,"Cop":11717,"Dar":11718,"DET":11719,"Elite":11720,"Fad":11721,"Fyr":11722,"Fast":11723,"Flem":11724,"Gor":11725,"Good":11726,"Hr":11727,"Hem":11728,"Hoff":11729,"Hilde":11730,"Ide":11731,"Kul":11732,"Kjel":11733,"Kron":11734,"Lak":11735,"Lager":11736,"Mik":11737,"Mur":11738,"Mort":11739,"Mette":11740,"Moss":11741,"MED":11742,"National":11743,"Niger":11744,"Pan":11745,"Pant":11746,"Que":11747,"Sunn":11748,"Syd":11749,"Sommer":11750,"Tu":11751,"Tak":11752,"Tir":11753,"Tanken":11754,"Tove":11755,"Tveit":11756,"Tafjord":11757,"UT":11758,"Up":11759,"Valdres":11760,"Will":11761,"akk":11762,"apost":11763,"bjør":11764,"bråk":11765,"bøyde":11766,"dalen":11767,"emb":11768,"festen":11769,"gudd":11770,"heste":11771,"hydro":11772,"jager":11773,"kø":11774,"mad":11775,"mic":11776,"mamm":11777,"null":11778,"pian":11779,"pike":11780,"seter":11781,"slitt":11782,"tonen":11783,"uk":11784,"ull":11785,"vunnet":11786,"Ånd":11787,"Øynene":11788,"##lit":11789,"##livet":11790,"##læg":11791,"##iing":11792,"##mas":11793,"##mede":11794,"##mask":11795,"##moen":11796,"##shuset":11797,"##kyr":11798,"##kjer":11799,"##kapp":11800,"##kassen":11801,"##no":11802,"##FK":11803,"##viste":11804,"##ddet":11805,"##døren":11806,"##ca":11807,"##yter":11808,"##ægt":11809,"##bers":11810,"##bilde":11811,"##uet":11812,"##uens":11813,"##ualitet":11814,"##fare":11815,"##fron":11816,"##fellen":11817,"##øtter":11818,"##hallen":11819,"##IA":11820,"##65":11821,"##etid":11822,"##orro":11823,"##anes":11824,"##anch":11825,"##aret":11826,"##stiden":11827,"##edirektoratet":11828,"##egu":11829,"##egger":11830,"forbruket":11831,"tildelt":11832,"##isont":11833,"avstanden":11834,"##older":11835,"##olvet":11836,"sta":11837,"stige":11838,"stiger":11839,"##idet":11840,"##nest":11841,"##skulen":11842,"##atert":11843,"skå":11844,"skaden":11845,"##verte":11846,"##verden":11847,"infin":11848,"##asat":11849,"varian":11850,"utsp":11851,"hann":11852,"##urser":11853,"etn":11854,"##ota":11855,"##akerne":11856,"##ikkens":11857,"angår":11858,"meninger":11859,"##ommelige":11860,"innslag":11861,"##hemat":11862,"##aps":11863,"spru":11864,"##mmens":11865,"##mmede":11866,"##mmelsen":11867,"##ordnet":11868,"vedt":11869,"##utstyr":11870,"##okl":11871,"##ynger":11872,"reind":11873,"reint":11874,"rekn":11875,"##spor":11876,"arbej":11877,"konstater":11878,"trærne":11879,"Stand":11880,"Stjør":11881,"State":11882,"##ffi":11883,"00NRK":11884,"nyhetene":11885,"tidlige":11886,"##eme":11887,"##astle":11888,"##abet":11889,"ordre":11890,"##merke":11891,"##merter":11892,"kvitt":11893,"##delag":11894,"kjed":11895,"##berget":11896,"##redet":11897,"veiene":11898,"##klassen":11899,"løper":11900,"syre":11901,"Skol":11902,"##ife":11903,"##leggingen":11904,"svære":11905,"Inga":11906,"brand":11907,"finan":11908,"høyrer":11909,"deira":11910,"mild":11911,"billig":11912,"formelle":11913,"Arna":11914,"bygnings":11915,"beher":11916,"lade":11917,"Joe":11918,"##arbeidere":11919,"ordnet":11920,"##aturen":11921,"##ledning":11922,"140":11923,"Trening":11924,"flokk":11925,"håpe":11926,"redaktør":11927,"Mari":11928,"Marius":11929,"baksiden":11930,"##vendige":11931,"flyt":11932,"ledende":11933,"Elin":11934,"evige":11935,"##amilla":11936,"Tilbake":11937,"##strekk":11938,"Old":11939,"##sdyr":11940,"##acter":11941,"##gren":11942,"fullmakt":11943,"Bernt":11944,"Berlin":11945,"våknet":11946,"personen":11947,"grave":11948,"offiser":11949,"unntatt":11950,"These":11951,"moder":11952,"modern":11953,"##kommet":11954,"Leir":11955,"grei":11956,"grepet":11957,"greide":11958,"##medal":11959,"André":11960,"kalk":11961,"markere":11962,"deltatt":11963,"turner":11964,"gruppene":11965,"kreft":11966,"forvente":11967,"freedom":11968,"##afé":11969,"Grunnen":11970,"engasjer":11971,"##trekk":11972,"##sproblem":11973,"behandle":11974,"Steen":11975,"løses":11976,"##istrere":11977,"tjenesten":11978,"omfatte":11979,"befest":11980,"sørger":11981,"dress":11982,"forstås":11983,"stykket":11984,"kravet":11985,"gjest":11986,"gjestene":11987,"Holum":11988,"hjå":11989,"Egil":11990,"Haar":11991,"1927":11992,"1928":11993,"lederen":11994,"dårligere":11995,"effektivitet":11996,"##dragelse":11997,"innsatsen":11998,"##ografisk":11999,"Kveld":12000,"1919":12001,"1911":12002,"1915":12003,"vender":12004,"reduserer":12005,"Vestlandet":12006,"Adams":12007,"Statsminister":12008,"krysset":12009,"gullan":12010,"tørr":12011,"medlemskap":12012,"##givende":12013,"gjera":12014,"hensynet":12015,"##weed":12016,"riktignok":12017,"Cook":12018,"frykter":12019,"ideen":12020,"boligen":12021,"månedene":12022,"besluttet":12023,"1890":12024,"1880":12025,"foregå":12026,"kritiske":12027,"1830":12028,"humor":12029,"urolig":12030,"koordin":12031,"vokser":12032,"maskinen":12033,"Edm":12034,"grove":12035,"##politisk":12036,"##politiske":12037,"anledninger":12038,"krevje":12039,"primære":12040,"primært":12041,"østsam":12042,"speil":12043,"Løken":12044,"Monica":12045,"1840":12046,"Kongens":12047,"Clare":12048,"Clint":12049,"magnet":12050,"utdannings":12051,"klassiske":12052,"oppgåvene":12053,"incre":12054,"III":12055,"filosofiske":12056,"Kai":12057,"Kaja":12058,"##veiing":12059,"statsråd":12060,"skrek":12061,"gjennomsnittlig":12062,"distriktet":12063,"tårnet":12064,"##spolitikk":12065,"Våler":12066,"borgerlige":12067,"balanse":12068,"ambass":12069,"pressemelding":12070,"##riminal":12071,"utskriv":12072,"Amerikansk":12073,"pedagogiske":12074,"ønskjer":12075,"vendt":12076,"##chester":12077,"jødiske":12078,"Britain":12079,"pilegrim":12080,"utnytte":12081,"Louise":12082,"menneskerettighetene":12083,"hensiktsmessig":12084,"øverst":12085,"reklam":12086,"russisk":12087,"Grunnloven":12088,"hemmelighet":12089,"hovedsakelig":12090,"søsteren":12091,"kapitlet":12092,"elektriske":12093,"kvadratmeter":12094,"Sjøl":12095,"fonologisk":12096,"forelsket":12097,"inspirasjon":12098,"brutto":12099,"leiren":12100,"bonden":12101,"##smyndigheten":12102,"##produkter":12103,"kamera":12104,"rdlr":12105,"##institusjoner":12106,"FRA":12107,"Universitet":12108,"University":12109,"fornuftig":12110,"Generalforsamling":12111,"allierte":12112,"verdipapirer":12113,"Angeles":12114,"centim":12115,"##kysten":12116,"sylinder":12117,"Senterpartiet":12118,"tittelen":12119,"Porsgrunn":12120,"integrering":12121,"nervøs":12122,"Prosjektet":12123,"Tony":12124,"Eilev":12125,"Gamle":12126,"integrert":12127,"lunsj":12128,"lidenskap":12129,"activities":12130,"forferdelig":12131,"irritert":12132,"Gadamer":12133,"Hensikten":12134,"##oppgåver":12135,"nølte":12136,"##kapitalen":12137,"deilig":12138,"tilbakevirknings":12139,"engasjert":12140,"##kjøpsrett":12141,"##srevyen":12142,"antakelig":12143,"Aleksander":12144,"Champions":12145,"Nederland":12146,"tallerken":12147,"Stockfleth":12148,"Tyrkia":12149,"Bendik":12150,"Chicago":12151,"Svalbard":12152,"(...":12153,"AG":12154,"AP":12155,"Asl":12156,"Act":12157,"Astrid":12158,"BR":12159,"Che":12160,"Cons":12161,"Central":12162,"Dale":12163,"Dire":12164,"Emb":12165,"Fiske":12166,"Gen":12167,"Garden":12168,"Golden":12169,"Heb":12170,"Isak":12171,"Izz":12172,"Iran":12173,"Ky":12174,"Kart":12175,"Krav":12176,"Kons":12177,"Krig":12178,"Karen":12179,"Lå":12180,"Lid":12181,"Line":12182,"Lib":12183,"Lau":12184,"Loven":12185,"MA":12186,"Mann":12187,"Mind":12188,"Møte":12189,"NR":12190,"NÅ":12191,"Nina":12192,"Of":12193,"Rod":12194,"Ster":12195,"Sort":12196,"Sold":12197,"Send":12198,"Slag":12199,"Saa":12200,"Siste":12201,"Tust":12202,"Top":12203,"Till":12204,"Tipp":12205,"Vass":12206,"VER":12207,"VAR":12208,"Vennlig":12209,"Wal":12210,"brakt":12211,"beløpet":12212,"bøkene":12213,"cand":12214,"clinical":12215,"down":12216,"eu":12217,"eige":12218,"econom":12219,"fat":12220,"fjorden":12221,"hierark":12222,"ik":12223,"icke":12224,"ket":12225,"katt":12226,"kopp":12227,"kule":12228,"lurt":12229,"might":12230,"open":12231,"outs":12232,"own":12233,"pga":12234,"rt":12235,"run":12236,"rul":12237,"ros":12238,"sanger":12239,"talen":12240,"ukjent":12241,"##luft":12242,"##iert":12243,"##mul":12244,"##sde":12245,"##srom":12246,"##savtale":12247,"##nelse":12248,"##ners":12249,"##ount":12250,"##oung":12251,"##FOR":12252,"##væ":12253,"##vurder":12254,"##vennlig":12255,"##vagnar":12256,"##dis":12257,"##ging":12258,"##jing":12259,"##æld":12260,"##bund":12261,"##uene":12262,"##uert":12263,"##ftt":12264,"##felle":12265,"##foner":12266,"##fritt":12267,"##freds":12268,"##født":12269,"##wing":12270,"##IKK":12271,"##39":12272,"##33":12273,"##35":12274,"##ér":12275,"##CH":12276,"##),":12277,"##eret":12278,"##ined":12279,"##støl":12280,"##stundes":12281,"##omt":12282,"##eger":12283,"forpl":12284,"##ingens":12285,"##kester":12286,"ender":12287,"avsk":12288,"##esdal":12289,"påske":12290,"pålagt":12291,"støy":12292,"stanse":12293,"##ids":12294,"##amper":12295,"##skatten":12296,"##skjema":12297,"##vering":12298,"##agram":12299,"##itative":12300,"varte":12301,"omhandler":12302,"##ental":12303,"utmerket":12304,"##ulated":12305,"##rob":12306,"##lich":12307,"##ensyn":12308,"oppvar":12309,"opptrer":12310,"##rick":12311,"anne":12312,"menes":12313,"##ommel":12314,"innle":12315,"innspill":12316,"bevart":12317,"elv":12318,"##apet":12319,"spiser":12320,"overgangen":12321,"##avstand":12322,"##beite":12323,"##ordninger":12324,"##ordiner":12325,"##ftig":12326,"hunde":12327,"hunder":12328,"vedlegg":12329,"slokk":12330,"##utdanning":12331,"seint":12332,"sekretær":12333,"##slo":12334,"##ovner":12335,"hels":12336,"##imer":12337,"arb":12338,"tobakk":12339,"konj":12340,"##inny":12341,"Sted":12342,"Stille":12343,"Stian":12344,"##ume":12345,"##nette":12346,"##smer":12347,"##smøter":12348,"##smuligheter":12349,"##eldende":12350,"##skapets":12351,"mind":12352,"minus":12353,"##ansvaret":12354,"##abelt":12355,"##visende":12356,"##obi":12357,"blot":12358,"dagers":12359,"fortake":12360,"fortau":12361,"##retninger":12362,"kjens":12363,"gran":12364,"krise":12365,"##resjon":12366,"##peren":12367,"gjennomføringen":12368,"løfte":12369,"hverdagen":12370,"takker":12371,"156":12372,"Skatt":12373,"Skyld":12374,"fremlagt":12375,"fremtred":12376,"##ammel":12377,"1200":12378,"##dress":12379,"søsken":12380,"##bruken":12381,"interne":12382,"112":12383,"morens":12384,"political":12385,"laste":12386,"bestemor":12387,"trass":12388,"tenkning":12389,"syns":12390,"ordentlig":12391,"136":12392,"selvtill":12393,"snille":12394,"##plater":12395,"##leddet":12396,"Trans":12397,"verke":12398,"sjokk":12399,"##diameter":12400,"stemte":12401,"Sex":12402,"##sfil":12403,"##sfolk":12404,"##sfjord":12405,"##lesn":12406,"glasset":12407,"sigar":12408,"Sånn":12409,"love":12410,"even":12411,"Johnn":12412,"korrig":12413,"##svalg":12414,"adm":12415,"advar":12416,"##ankene":12417,"230":12418,"planter":12419,"stedene":12420,"fullført":12421,"...>>":12422,"##offe":12423,"Brann":12424,"##mannens":12425,"antas":12426,"party":12427,"Rec":12428,"##ulert":12429,"høf":12430,"brukere":12431,"##sjorde":12432,"##virksomheten":12433,"##............":12434,"presenterte":12435,"jordbruk":12436,"historier":12437,"vegger":12438,"karene":12439,"vinkel":12440,"bestod":12441,"kreftene":12442,"##betal":12443,"##IND":12444,"musli":12445,"Stemmen":12446,"eleven":12447,"##kurset":12448,"økonomien":12449,"##sgjer":12450,"oppfatter":12451,"gradvis":12452,"Selskapet":12453,"##grunnlaget":12454,"leverte":12455,"fisken":12456,"cho":12457,"change":12458,"attende":12459,"foretre":12460,"oblig":12461,"scene":12462,"aksjene":12463,"effekten":12464,"Sverig":12465,"buk":12466,"normale":12467,"##gården":12468,"Andrea":12469,"Luke":12470,"vurderes":12471,"abbey":12472,"rope":12473,"sannhet":12474,"tape":12475,"disip":12476,"vesentlige":12477,"skipsfart":12478,"lokket":12479,"Svart":12480,"##ortert":12481,"kursen":12482,"##frid":12483,"Statistisk":12484,"forstør":12485,"Shar":12486,"grøn":12487,"Slur":12488,"punktet":12489,"##weet":12490,"fryktet":12491,"brødre":12492,"misly":12493,"utgitt":12494,"1908":12495,"1905":12496,"##meldte":12497,"drømme":12498,"operasjon":12499,"regionen":12500,"interessante":12501,"kvalitetss":12502,"##synligvis":12503,"##øvrig":12504,"Smith":12505,"undret":12506,"avgi":12507,"kjærligheten":12508,"kartlegge":12509,"stråler":12510,"anledningen":12511,"kampene":12512,"Minist":12513,"1854":12514,"weap":12515,"Mykle":12516,"Røsjorde":12517,"##KKE":12518,"##punktet":12519,"utstyret":12520,"##interesser":12521,"sjølvsagt":12522,"Brown":12523,"Bratt":12524,"Brack":12525,"nabol":12526,"##musikk":12527,"satser":12528,"##skjær":12529,"sektorer":12530,"besøkt":12531,"opprinnelse":12532,"ahor":12533,"rekord":12534,"Raider":12535,"formiddag":12536,"statsråden":12537,"##sserie":12538,"uttrykker":12539,"plasseres":12540,"balansen":12541,"Greipstad":12542,"gleden":12543,"hilste":12544,"detaljer":12545,"hjemmes":12546,"##sregler":12547,"##ssjefen":12548,".\"\"\"\".":12549,"Linda":12550,"Mandag":12551,"blandet":12552,"forbedre":12553,"diskusjoner":12554,"much":12555,"utforming":12556,"##sprinsippet":12557,"displa":12558,"etablerte":12559,"soldat":12560,"senga":12561,"Margrete":12562,"oppdater":12563,"isolert":12564,"stempelring":12565,"oppfordret":12566,"##apparatet":12567,"##sselskapet":12568,"##haveren":12569,"fjernsyn":12570,"dokumentarserie":12571,"effects":12572,"gjentok":12573,"##produkt":12574,"Dykk":12575,"medarbeidere":12576,"Studio":12577,"merknader":12578,"Drammens":12579,"bindings":12580,"utvide":12581,"sperreg":12582,"##mmesed":12583,"heldigvis":12584,"Gullruten":12585,"nestleder":12586,"##incip":12587,"klasserommet":12588,"Lucia":12589,"##krigen":12590,"bruksnr":12591,"Birgitte":12592,"Emily":12593,"klemte":12594,"Masterji":12595,"henvendelser":12596,"Kommentar":12597,"økos":12598,"##ingsforretning":12599,"evangeliet":12600,"Notodden":12601,"betraktes":12602,"##demokrat":12603,"formulert":12604,"Problemet":12605,"##byrd":12606,"Dessutan":12607,"akseptere":12608,"##drivende":12609,"gjennomgått":12610,"##ibility":12611,"Svendsen":12612,"##ksusfellen":12613,"svovel":12614,"##sområde":12615,"Røros":12616,"Transport":12617,"##svilkår":12618,"utelukkende":12619,"dugnad":12620,"yngste":12621,"urimelig":12622,"Atlanter":12623,"arrangeres":12624,"Næringsliv":12625,"Sovjet":12626,"Helgeland":12627,"oftere":12628,"##fødte":12629,"rusmiddelforebygging":12630,"varamann":12631,"##ducation":12632,"forfattere":12633,"animasjon":12634,"samvittighet":12635,"##ograph":12636,"##LEGG":12637,"Skiftestad":12638,"permanent":12639,"Aslak":12640,"Izzy":12641,"Tusterv":12642,"Ast":12643,"Aune":12644,"Bind":12645,"Bobby":12646,"Cav":12647,"Dor":12648,"Dam":12649,"Dog":12650,"Dick":12651,"Dato":12652,"Ene":12653,"Fikk":12654,"Født":12655,"Gal":12656,"Gau":12657,"Gustav":12658,"Hild":12659,"Hustr":12660,"Igjen":12661,"Jane":12662,"Kjør":12663,"Khar":12664,"KOMM":12665,"Laget":12666,"Mør":12667,"Mul":12668,"Mest":12669,"Moder":12670,"NB":12671,"Nik":12672,"Num":12673,"Pers":12674,"RE":12675,"Ros":12676,"Rip":12677,"Rune":12678,"Sle":12679,"Sak":12680,"Sant":12681,"Sem":12682,"Sivil":12683,"Time":12684,"Tofte":12685,"Vog":12686,"Ville":12687,"Your":12688,"ade":12689,"aud":12690,"amp":12691,"aften":12692,"brem":12693,"biter":12694,"belø":12695,"cur":12696,"che":12697,"danne":12698,"dipl":12699,"estab":12700,"ekko":12701,"fal":12702,"fjø":12703,"för":12704,"get":12705,"gig":12706,"gongen":12707,"given":12708,"golvet":12709,"hin":12710,"htt":12711,"host":12712,"iak":12713,"iron":12714,"iblant":12715,"kasser":12716,"kinnet":12717,"lem":12718,"less":12719,"low":12720,"mene":12721,"mit":12722,"mobb":12723,"odel":12724,"pi":12725,"put":12726,"pneum":12727,"rug":12728,"rime":12729,"rullet":12730,"sver":12731,"sult":12732,"sopp":12733,"såret":12734,"toner":12735,"tipp":12736,"ugift":12737,"vikt":12738,"vels":12739,"Ål":12740,"Åse":12741,"Økt":12742,"øve":12743,"ører":12744,"übe":12745,"##lan":12746,"##mg":12747,"##menter":12748,"##aal":12749,"##afor":12750,"##aft":12751,"##salg":12752,"##sarbeidet":12753,"##kamer":12754,"##nast":12755,"##næring":12756,"##to":12757,"##ting":12758,"##tur":12759,"##risen":12760,"##vam":12761,"##vog":12762,"##vass":12763,"##vede":12764,"##cks":12765,"##card":12766,"##ype":12767,"##yce":12768,"##pent":12769,"##pnet":12770,"##prem":12771,"##jo":12772,"##ually":12773,"##fj":12774,"##få":12775,"##faktor":12776,"##økt":12777,"##wick":12778,"##SN":12779,"##SDAG":12780,"##åra":12781,"##hy":12782,"##hler":12783,"##IM":12784,"##42":12785,"##CC":12786,"##etasjon":12787,"##anon":12788,"##arn":12789,"##ily":12790,"##iltak":12791,"##edel":12792,"##egangen":12793,"##egård":12794,"forg":12795,"forne":12796,"forholder":12797,"##igarden":12798,"##ones":12799,"##leir":12800,"##leif":12801,"##una":12802,"avbry":12803,"##ikn":12804,"##ikene":12805,"pårørende":12806,"##olin":12807,"stas":12808,"stro":12809,"stikke":12810,"stygt":12811,"medis":12812,"##ami":12813,"##skor":12814,"##skop":12815,"##skiftet":12816,"##ature":12817,"skrik":12818,"skifter":12819,"##veral":12820,"##aga":12821,"inspe":12822,"##ased":12823,"##ently":12824,"utkast":12825,"##ulf":12826,"##uland":12827,"##ulvet":12828,"##ærte":12829,"##lip":12830,"fravær":12831,"##other":12832,"##rustet":12833,"anten":12834,"##forsvar":12835,"innfall":12836,"innvirkning":12837,"##ksid":12838,"##ksene":12839,"befaring":12840,"span":12841,"spore":12842,"##eligger":12843,"overn":12844,"##mmere":12845,"##ording":12846,"##ested":12847,"##estrand":12848,"##ssaker":12849,"##arta":12850,"##genhet":12851,"##uther":12852,"derfrå":12853,"##udder":12854,"skala":12855,"reform":12856,"due":12857,"dukke":12858,"##spris":12859,"##spillere":12860,"##spraksis":12861,"Star":12862,"Stab":12863,"Stokke":12864,"nyd":12865,"##unds":12866,"klaget":12867,"klatret":12868,"motsatte":12869,"##smakt":12870,"##ioner":12871,"##ican":12872,"##aktive":12873,"##ryd":12874,"plater":12875,"##visningen":12876,"blood":12877,"dagar":12878,"fortid":12879,"fortere":12880,"kven":12881,"Forslag":12882,"Forholdet":12883,"leiet":12884,"enno":12885,"##setningene":12886,"arbeidere":12887,"##uttrykk":12888,"take":12889,"Sky":12890,"fremste":12891,"landbruket":12892,"myst":12893,"##ifrå":12894,"##oping":12895,"norges":12896,"##ekont":12897,"Albert":12898,"125":12899,"##olkning":12900,"##ganger":12901,"båter":12902,"framand":12903,"framfor":12904,"følt":12905,"følelsene":12906,"lagring":12907,"verda":12908,"verdighet":12909,"##brutt":12910,"mors":12911,"morsomt":12912,"##overskudd":12913,"farer":12914,"farens":12915,"friske":12916,"livets":12917,"livssyn":12918,"handlingen":12919,"handlar":12920,"##ERI":12921,"Troll":12922,"lignet":12923,"ligner":12924,"saks":12925,"redskap":12926,"stemmesed":12927,"##sbyg":12928,"##sbygg":12929,"tysker":12930,"fråvær":12931,"218":12932,"troen":12933,"##ocks":12934,"flyte":12935,"##rerende":12936,"##~~~":12937,"evig":12938,"knuste":12939,"koret":12940,"korrel":12941,"korvett":12942,"##svatn":12943,"utvikles":12944,"inneh":12945,"innebar":12946,"##paret":12947,"domin":12948,"meet":12949,"means":12950,"Oljed":12951,"##self":12952,"##ysle":12953,"##erence":12954,"teke":12955,"##rivillig":12956,"##eiere":12957,"##offet":12958,"##vilje":12959,"partis":12960,"partiene":12961,"Reis":12962,"sup":12963,"##regler":12964,"naturleg":12965,"familiem":12966,"lokaliteter":12967,"Registrert":12968,"nyttår":12969,"##ildene":12970,"within":12971,"Samuel":12972,"mathemat":12973,"nordre":12974,"studiet":12975,"vegvesen":12976,"bratt":12977,"Rose":12978,"area":12979,"døds":12980,"retninger":12981,"##issue":12982,"frekvens":12983,"juletre":12984,"musikken":12985,"##egnelsen":12986,"fødsels":12987,"eksempelvis":12988,"territor":12989,"##ISEN":12990,"##samfunnet":12991,"impon":12992,"##feranse":12993,"brydde":12994,"samarbeider":12995,"bekost":12996,"foretak":12997,"build":12998,"hevet":12999,"tiår":13000,"innsjøen":13001,"marine":13002,"##rasjonen":13003,"dratt":13004,"tempo":13005,"lærar":13006,"setning":13007,"##ESEN":13008,"Luksusfellen":13009,"abonn":13010,"perioder":13011,"helsevern":13012,"motta":13013,"fjær":13014,"forlatt":13015,"forlater":13016,"særdeles":13017,"variable":13018,"Helene":13019,"krysser":13020,"grønt":13021,"alderspensjon":13022,"oppleves":13023,"opplevelsen":13024,"##urther":13025,"##onnør":13026,"talent":13027,"sykdommer":13028,"bevegelser":13029,"##psons":13030,"forutsatt":13031,"utgrav":13032,"tradisjonen":13033,"Flat":13034,"folkeav":13035,"avgjørelser":13036,"Kirsten":13037,"##befolkningen":13038,"konkurrans":13039,"1899":13040,"1884":13041,"Kjære":13042,"kristendommen":13043,"ytterste":13044,"kompetansen":13045,"##stoffer":13046,"tegne":13047,"tegnet":13048,"tegninger":13049,"produsert":13050,"koste":13051,"koordiner":13052,"ekstraordin":13053,"straffeloven":13054,"begrensninger":13055,"stolte":13056,"beregninger":13057,"Verden":13058,"oppnådd":13059,"fira":13060,"##styre":13061,"1847":13062,"Kongsv":13063,"innebære":13064,"arkiv":13065,"aggreg":13066,"Jørg":13067,"Simpsons":13068,"jernbane":13069,"pleier":13070,"Folket":13071,"regulert":13072,"##kostnad":13073,"laveste":13074,"Madsen":13075,"Vårt":13076,"uheldig":13077,"arrangement":13078,"religionen":13079,"understreket":13080,"skreiv":13081,"omtale":13082,"gards":13083,"interesserte":13084,"forestillingen":13085,"investering":13086,"kobber":13087,"ilden":13088,"pensjonist":13089,"bølge":13090,"bølger":13091,"Ingvil":13092,"skuffet":13093,"among":13094,"##høyde":13095,"gumm":13096,"guvern":13097,"##active":13098,"Henriksen":13099,"Breiv":13100,"Kristiania":13101,"signatur":13102,"Whit":13103,"fryktelig":13104,"##fangsten":13105,"##strukturen":13106,"Lyse":13107,"Arnold":13108,"dokumentasjon":13109,"kollektivt":13110,"uttalelser":13111,"stavkirke":13112,"berørte":13113,"ivaretatt":13114,"Fisker":13115,"gjeme":13116,"Humlesn":13117,"INN":13118,"sluppet":13119,"omgivelser":13120,"firmaet":13121,"motivasjon":13122,"hjulpet":13123,"potensial":13124,"dirig":13125,"tretti":13126,"leverandører":13127,"##blåst":13128,"because":13129,"betegnelsen":13130,"##sykeple":13131,"overraskende":13132,"trenings":13133,"Finansdepartementet":13134,"Belg":13135,"Datat":13136,"Pitton":13137,"##sperioden":13138,"://":13139,"Skeie":13140,"Street":13141,"##publ":13142,"juridiske":13143,"costs":13144,"##fremmende":13145,"describ":13146,"Sannsynligvis":13147,"unnskyldning":13148,"##kjempelse":13149,"eksportkvoter":13150,"Grønland":13151,"mucosal":13152,"American":13153,"##tnant":13154,"Stortingets":13155,"intenst":13156,"mobiltelefon":13157,"konservative":13158,"treffes":13159,"OSLO":13160,"Owen":13161,"rynket":13162,"avskjed":13163,"pacemaker":13164,"FBI":13165,"spedbarn":13166,"Karmøy":13167,"Vålerenga":13168,"Tippelig":13169,"Johnny":13170,"Mykleb":13171,"Humlesnurr":13172,"**":13173,",,":13174,"AF":13175,"Ah":13176,"After":13177,"Apr":13178,"BN":13179,"Ban":13180,"Bab":13181,"Cre":13182,"Cornelius":13183,"Camilla":13184,"DE":13185,"EF":13186,"Eb":13187,"Ett":13188,"Ekte":13189,"Elekt":13190,"Effekt":13191,"Fal":13192,"Fis":13193,"Ferd":13194,"Hi":13195,"Heg":13196,"Himm":13197,"Kh":13198,"Kim":13199,"Kommer":13200,"Kors":13201,"Kath":13202,"KUN":13203,"Lin":13204,"Las":13205,"Lim":13206,"Lærer":13207,"Love":13208,"Møl":13209,"Miss":13210,"Nasjon":13211,"Ness":13212,"OK":13213,"OM":13214,"Okt":13215,"Orig":13216,"Pil":13217,"Pass":13218,"Papp":13219,"Ret":13220,"Rest":13221,"Resten":13222,"Sing":13223,"Sent":13224,"SOL":13225,"TOR":13226,"Tweed":13227,"Ug":13228,"Vol":13229,"Vent":13230,"Vold":13231,"Vill":13232,"Wien":13233,"Wright":13234,"Yes":13235,"age":13236,"agre":13237,"bens":13238,"cle":13239,"coc":13240,"cross":13241,"cirka":13242,"dronning":13243,"diverse":13244,"edel":13245,"fn":13246,"ff":13247,"fold":13248,"fatte":13249,"fac":13250,"foss":13251,"fase":13252,"fattet":13253,"gaa":13254,"glipp":13255,"henn":13256,"henter":13257,"island":13258,"ihjel":13259,"kylling":13260,"ll":13261,"los":13262,"laken":13263,"lyng":13264,"mas":13265,"mos":13266,"pene":13267,"possible":13268,"ri":13269,"rens":13270,"rikt":13271,"range":13272,"rive":13273,"sans":13274,"song":13275,"sorte":13276,"tet":13277,"vri":13278,"waste":13279,"ått":13280,"ætt":13281,"øde":13282,"##ls":13283,"##lant":13284,"##mans":13285,"##målet":13286,"##ai":13287,"##az":13288,"##aer":13289,"##aas":13290,"##aut":13291,"##sin":13292,"##siktig":13293,"##senten":13294,"##krav":13295,"##nor":13296,"##nde":13297,"##nam":13298,"##obe":13299,"##rine":13300,"##reland":13301,"##OG":13302,"##TUS":13303,"##vde":13304,"##via":13305,"##vester":13306,"##cer":13307,"##cing":13308,"##yM":13309,"##ynder":13310,"##ystemer":13311,"##ping":13312,"##pende":13313,"##ples":13314,"##god":13315,"##gir":13316,"##gate":13317,"##jas":13318,"##bøkene":13319,"##face":13320,"##NER":13321,"##VAR":13322,"##hæn":13323,"##xi":13324,"##DEL":13325,"##HTb":13326,"##zjan":13327,"##60":13328,"##etz":13329,"##orger":13330,"##anfor":13331,"##armer":13332,"##institutt":13333,"##elset":13334,"##elia":13335,"##stue":13336,"##stider":13337,"##stegn":13338,"##egne":13339,"forber":13340,"##alm":13341,"##alf":13342,"##alisering":13343,"##kebø":13344,"##onne":13345,"##ttak":13346,"##iso":13347,"environment":13348,"avdelinger":13349,"avhengige":13350,"##iket":13351,"##ikon":13352,"stive":13353,"##skrevet":13354,"##aters":13355,"##atikken":13356,"##ativer":13357,"skr":13358,"##veren":13359,"##agende":13360,"##agnet":13361,"inder":13362,"omkom":13363,"##andet":13364,"##sevne":13365,"utpe":13366,"utøv":13367,"##ivia":13368,"##lier":13369,"##erem":13370,"##ligt":13371,"##ligvis":13372,"oppgjør":13373,"oppnev":13374,"##oto":13375,"##otiv":13376,"##otens":13377,"gjenta":13378,"ansl":13379,"menings":13380,"##foret":13381,"##forest":13382,"inngangen":13383,"##odar":13384,"samhandling":13385,"samples":13386,"bevar":13387,"bestå":13388,"bemerket":13389,"spra":13390,"spansk":13391,"månen":13392,"overtid":13393,"overtatt":13394,"seem":13395,"seile":13396,"several":13397,"##ynte":13398,"##slett":13399,"revid":13400,"##ovis":13401,"##sporten":13402,"helikopter":13403,"kommers":13404,"konvol":13405,"trange":13406,"##ended":13407,"Stilling":13408,"##varig":13409,"kunden":13410,"nyheten":13411,"##smo":13412,"##røn":13413,"underlagt":13414,"##ryter":13415,"komité":13416,"##erdet":13417,"##gjande":13418,"plate":13419,"##oblet":13420,"dagsord":13421,"fortr":13422,"kvinnes":13423,"reglar":13424,"##retningen":13425,"lead":13426,"kjole":13427,"kjolen":13428,"##iserie":13429,"gren":13430,"grunne":13431,"krone":13432,"betales":13433,"##redes":13434,"##sete":13435,"##setet":13436,"manif":13437,"nedt":13438,"arbeidstid":13439,"arbeidsgrupp":13440,"##klasse":13441,"##uttene":13442,"smert":13443,"smale":13444,"Skolen":13445,"myt":13446,"##ifikasjon":13447,"##ammens":13448,"lyktes":13449,"##opplæring":13450,"eine":13451,"tilbringe":13452,"##stilbud":13453,"bris":13454,"##ekn":13455,"Alv":13456,"Aldri":13457,"127":13458,"beslag":13459,"lagde":13460,"endrer":13461,"høytid":13462,"internt":13463,"virksom":13464,"formell":13465,"politid":13466,"travel":13467,"traktor":13468,"##konkurr":13469,"##planen":13470,"feb":13471,"forbund":13472,"forbilde":13473,"##rikter":13474,"handelen":13475,"flat":13476,"håpl":13477,"saksø":13478,"Herman":13479,"verkst":13480,"sjette":13481,"sjokolade":13482,"menneskelige":13483,"statist":13484,"Marte":13485,"Marzjan":13486,"##levende":13487,"barnas":13488,"##sbet":13489,"från":13490,"dømme":13491,"glatt":13492,"##ikkerheten":13493,"lednings":13494,"Else":13495,"lova":13496,"##ebolig":13497,"knust":13498,"Tillich":13499,"##jelland":13500,"##rakter":13501,"Olje":13502,"mestring":13503,"##snavn":13504,"Brus":13505,"våken":13506,"gamal":13507,"compet":13508,"Spør":13509,"Rein":13510,"##herine":13511,"Ettersom":13512,"bruka":13513,"##sjå":13514,"Utstilling":13515,"støtt":13516,"Nordkapp":13517,"##kommun":13518,"##ererer":13519,"hviler":13520,"ungdommer":13521,"Roald":13522,"kulturverdier":13523,"##atoriske":13524,"strenge":13525,"friidrett":13526,"karer":13527,"Karin":13528,"tiltaket":13529,"##boer":13530,"##betet":13531,"free":13532,"stader":13533,"kirker":13534,"gammeld":13535,"Stef":13536,"whole":13537,"sikkerheten":13538,"rekkevid":13539,"befal":13540,"spørsmålene":13541,"driftsut":13542,"utviklingsland":13543,"faen":13544,"faar":13545,"fault":13546,"factor":13547,"Oppført":13548,"metoden":13549,"kunstverk":13550,"kjemisk":13551,"drepte":13552,"Blå":13553,"gaver":13554,"##feranser":13555,"enklere":13556,"starta":13557,"leverer":13558,"fisket":13559,"##giftene":13560,"hjartet":13561,"værende":13562,"##ahr":13563,"##komedie":13564,"Manchester":13565,"benytter":13566,"true":13567,"Haakon":13568,"1934":13569,"Willy":13570,"fornøyde":13571,"bøndene":13572,"effektbryter":13573,"##råkrat":13574,"Stortings":13575,"feilen":13576,"drakk":13577,"##yndigheten":13578,"forklares":13579,"1912":13580,"1918":13581,"publ":13582,"nemnt":13583,"Plat":13584,"Helga":13585,"does":13586,"linjen":13587,"pakket":13588,"blåste":13589,"forsvarer":13590,"meldt":13591,"Johnson":13592,"brødrene":13593,"author":13594,"boliger":13595,"##ATIS":13596,"graven":13597,"damen":13598,"damene":13599,"##ances":13600,"funksjonshe":13601,"##sesser":13602,"##sorganis":13603,"kvaliteten":13604,"kritikken":13605,"makten":13606,"bestemmelsen":13607,"book":13608,"avgifter":13609,"fyrst":13610,"oppdager":13611,"##sstaten":13612,"##stemmelse":13613,"beregnes":13614,"Røde":13615,"bredere":13616,"Apoll":13617,"##ITT":13618,"kjempet":13619,"1812":13620,"Ulrik":13621,"kvarter":13622,"Gjennomsnitt":13623,"Snor":13624,"annonser":13625,"førti":13626,"individual":13627,"ødela":13628,"Robin":13629,"klassisk":13630,"1801":13631,"sannsynlighet":13632,"salgs":13633,"##sida":13634,"besøker":13635,"besøket":13636,"gratulere":13637,"oppsto":13638,"Saud":13639,"uventet":13640,"##pool":13641,"arrangerer":13642,"ulykken":13643,"Afg":13644,"dørene":13645,"##støt":13646,"portrett":13647,"papiret":13648,"tårene":13649,"anbefalt":13650,"innkalt":13651,"risikoen":13652,"Ibsen":13653,"vinduene":13654,"##filosof":13655,"slappe":13656,"hilse":13657,"stjerner":13658,"contain":13659,"medisinske":13660,"arbeidsplassen":13661,"forkort":13662,"formannskap":13663,"##organisasjon":13664,"deltakerne":13665,"Guy":13666,"Posten":13667,"account":13668,"blandt":13669,"blanding":13670,"Control":13671,"What":13672,"kulde":13673,"observasjoner":13674,"Naar":13675,"massasje":13676,"forhandlingene":13677,"fantastiske":13678,"spredte":13679,"Margret":13680,"jevnt":13681,"beskrives":13682,"Group":13683,"glemte":13684,"##hovet":13685,"##sselskap":13686,"##fruer":13687,"berørt":13688,"influen":13689,"Hellas":13690,"##prøver":13691,"universitetet":13692,"konkluder":13693,"nominert":13694,"NPT":13695,"legemiddel":13696,"Eksport":13697,"cyA":13698,"Forsvaret":13699,"Joseph":13700,"leverandør":13701,"sykepleier":13702,"Peters":13703,"involvert":13704,"grensene":13705,"Sofie":13706,"reagerer":13707,"etterforskning":13708,"Otto":13709,"horisont":13710,"stjålet":13711,"Ellingsen":13712,"teorien":13713,"tilleggsnæring":13714,"tilleggsnæringer":13715,"finansiering":13716,"bistand":13717,"borgere":13718,"##sgrense":13719,"Eksempel":13720,"##konsert":13721,"BRUTUS":13722,"Kystvakten":13723,"konteksten":13724,"snarere":13725,"##profesjon":13726,"introdus":13727,"Ruud":13728,"muntlig":13729,"pipa":13730,"vasket":13731,"konsentrere":13732,"variables":13733,"Faktisk":13734,"pistolen":13735,"Sivertsen":13736,"sakristi":13737,"teoretisk":13738,"inspirert":13739,"messianske":13740,"arrangementet":13741,"Hafjell":13742,"Labour":13743,"performance":13744,"Amundsen":13745,"Frederik":13746,"Bevilgning":13747,"matematikk":13748,"BBC":13749,"Privat":13750,"Pensjonist":13751,"utstedt":13752,"allmenne":13753,"Dollars":13754,"regnbueørret":13755,"Skottland":13756,"Stjørdal":13757,"centimeter":13758,"(...)":13759,"Vennligst":13760,"slokking":13761,"fremtredende":13762,"Kongsvinger":13763,"Tippeligaen":13764,"hennar":13765,".................................":13766,":-":13767,"AD":13768,"Amt":13769,"Bol":13770,"Baker":13771,"Bjelland":13772,"CP":13773,"Dø":13774,"Dub":13775,"EL":13776,"Eiker":13777,"Fi":13778,"Fø":13779,"Fant":13780,"Fana":13781,"Gry":13782,"Grip":13783,"Gahr":13784,"HA":13785,"Hor":13786,"Hon":13787,"Hommel":13788,"If":13789,"Ill":13790,"Jf":13791,"Kyr":13792,"Kvar":13793,"KON":13794,"Lud":13795,"Liver":13796,"Liz":13797,"Løv":13798,"Lena":13799,"LØR":13800,"MØ":13801,"Mans":13802,"Matte":13803,"Mont":13804,"Maks":13805,"Merv":13806,"Mika":13807,"Nam":13808,"Nap":13809,"NVE":13810,"Oh":13811,"P4":13812,"Pip":13813,"Rid":13814,"Rud":13815,"Rese":13816,"Redd":13817,"Sun":13818,"Sid":13819,"Sas":13820,"TH":13821,"UEF":13822,"Wu":13823,"With":13824,"Zimb":13825,"Zorro":13826,"aure":13827,"around":13828,"bul":13829,"bød":13830,"bakk":13831,"col":13832,"cat":13833,"cond":13834,"dry":13835,"dommer":13836,"education":13837,"giv":13838,"jæv":13839,"jøder":13840,"lommen":13841,"lansert":13842,"myn":13843,"mast":13844,"malt":13845,"mynt":13846,"pay":13847,"rig":13848,"rant":13849,"rum":13850,"rob":13851,"ringen":13852,"reder":13853,"rare":13854,"role":13855,"ravn":13856,"sund":13857,"smerter":13858,"telt":13859,"tjen":13860,"tsing":13861,"tusener":13862,"tissue":13863,"uklart":13864,"vor":13865,"vred":13866,"Åh":13867,"Ækers":13868,"Øysle":13869,"åre":13870,"übet":13871,"##lok":13872,"##last":13873,"##line":13874,"##lande":13875,"##lunde":13876,"##irem":13877,"##ires":13878,"##ique":13879,"##mel":13880,"##miljø":13881,"##sver":13882,"##sopp":13883,"##sverk":13884,"##sentral":13885,"##srådet":13886,"##kalt":13887,"##kjel":13888,"##kster":13889,"##kammer":13890,"##krit":13891,"##oe":13892,"##oo":13893,"##LAD":13894,"##venn":13895,"##vnen":13896,"##vanlig":13897,"##yper":13898,"##pes":13899,"##papir":13900,"##gor":13901,"##æder":13902,"##bøl":13903,"##bånd":13904,"##bråten":13905,"##uin":13906,"##ude":13907,"##fet":13908,"##ftes":13909,"##øve":13910,"##ømmet":13911,"##habil":13912,"##Hb":13913,"##21":13914,"##orget":13915,"##anza":13916,"##ario":13917,"##inion":13918,"##elå":13919,"##store":13920,"##egori":13921,"fordre":13922,"forlik":13923,"##ref":13924,"##teinen":13925,"##onate":13926,"##onium":13927,"tilført":13928,"tillate":13929,"##leiv":13930,"##iset":13931,"enorm":13932,"aver":13933,"avver":13934,"##esongen":13935,"##ikar":13936,"##ologer":13937,"stell":13938,"medal":13939,"##skinn":13940,"##skjel":13941,"##skons":13942,"##skogen":13943,"##atelsen":13944,"skår":13945,"skim":13946,"skyggen":13947,"skremt":13948,"skinte":13949,"##verktøy":13950,"##andres":13951,"##seid":13952,"##seffekt":13953,"utarbeid":13954,"utvil":13955,"##årn":13956,"##årets":13957,"##ærd":13958,"##liste":13959,"##urene":13960,"opplegg":13961,"oppgjøret":13962,"etikk":13963,"etisk":13964,"##otland":13965,"anser":13966,"anslag":13967,"anlagt":13968,"another":13969,"meningen":13970,"##fors":13971,"##forslaget":13972,"##ommere":13973,">>).":13974,"##heks":13975,"samler":13976,"samisk":13977,"samiske":13978,"samles":13979,"samlinger":13980,"bestyr":13981,"beholdt":13982,"sådan":13983,"elend":13984,"elske":13985,"elleve":13986,"spøk":13987,"spalte":13988,"##elighed":13989,"##istic":13990,"måla":13991,"overnatt":13992,"##avik":13993,"##irken":13994,"##ords":13995,"##ssak":13996,"bliver":13997,"##annah":13998,"slakt":13999,"##utningen":14000,"##utvalg":14001,"##øyt":14002,"##ertug":14003,"seen":14004,"seia":14005,"semin":14006,"##slø":14007,"##udere":14008,"reell":14009,"repr":14010,"dukker":14011,"##spond":14012,"helbred":14013,"too":14014,"Hansson":14015,"tryl":14016,"troll":14017,"##endet":14018,"##endørs":14019,"propert":14020,"Stens":14021,"Strateg":14022,"##unda":14023,"##smiddel":14024,"##engte":14025,"##icial":14026,"##ema":14027,"1820":14028,"komfort":14029,"##aben":14030,"##ably":14031,"plaget":14032,"orket":14033,"##ødvendig":14034,"##visjon":14035,"blått":14036,").\"\"":14037,"Foran":14038,"106":14039,"leig":14040,"##iseringa":14041,"Enten":14042,"beten":14043,"##jelp":14044,"##redømme":14045,"begått":14046,"manus":14047,"nedlagt":14048,"arbeidslivet":14049,"##ugo":14050,"deleg":14051,"vekke":14052,"liber":14053,"løgn":14054,"151":14055,"systemer":14056,"smile":14057,"smelte":14058,"Skatte":14059,"gangene":14060,"retts":14061,"rettsk":14062,"sviger":14063,"einaste":14064,"forsinket":14065,"##opl":14066,"##opa":14067,"##cture":14068,"bålet":14069,"søte":14070,"søppel":14071,"##risten":14072,"utenlandsk":14073,"milde":14074,"##trengende":14075,"##ingsaker":14076,"formet":14077,"byene":14078,"late":14079,"Jostein":14080,"fryn":14081,"egypt":14082,"tradition":14083,"tente":14084,"synlige":14085,"ordne":14086,"139":14087,"snitt":14088,"snub":14089,"##ektiv":14090,"forblø":14091,"144":14092,"149":14093,"146":14094,"flyg":14095,"flokken":14096,"liges":14097,"##veland":14098,"paramet":14099,"resour":14100,"reserv":14101,"statlig":14102,"##sbl":14103,"tyde":14104,"berømte":14105,"##owe":14106,"Antil":14107,"mannens":14108,"##ytten":14109,"isra":14110,"##middag":14111,"leddet":14112,"Elli":14113,"Ellis":14114,"kniven":14115,"##svold":14116,"inneholdt":14117,"##jellen":14118,"##parken":14119,"adv":14120,"Olsdatter":14121,"##acity":14122,"##ibr":14123,"##følger":14124,"styrt":14125,"##anismen":14126,"nettsiden":14127,"##illeren":14128,"fastsette":14129,"fastsettes":14130,"Brandt":14131,"##protokoll":14132,"##problemer":14133,"##villig":14134,"senket":14135,"skjuler":14136,"skjorte":14137,"compar":14138,"uttale":14139,"Sporten":14140,"Torger":14141,"##regulering":14142,"Etterpå":14143,"born":14144,"##ofil":14145,"støt":14146,"unnl":14147,"##heimen":14148,"tingbok":14149,"vanskar":14150,"Nordisk":14151,"håndtere":14152,"romanen":14153,"##kommiss":14154,"timen":14155,"studio":14156,"##barna":14157,"filmer":14158,"skapet":14159,"##atoren":14160,"karakt":14161,"##ARD":14162,"Karms":14163,"##kvalitet":14164,"inviter":14165,"beskrive":14166,"artene":14167,"julen":14168,"Bee":14169,"Beate":14170,"Produ":14171,"ferdigheter":14172,"opna":14173,"##jefen":14174,"while":14175,"##ANG":14176,"hjelpem":14177,"##partementets":14178,"slaget":14179,"results":14180,"##valet":14181,"nekte":14182,"necess":14183,"tillatt":14184,"kostet":14185,"Blad":14186,"Seljord":14187,"##grunnlag":14188,"kriger":14189,"impro":14190,"changes":14191,"atten":14192,"##ussing":14193,"##ternativ":14194,"benken":14195,"Unge":14196,"foretok":14197,"1923":14198,"1921":14199,"using":14200,"usikkert":14201,"scient":14202,"standpunkt":14203,"lengsel":14204,"##inking":14205,"##oseks":14206,"profet":14207,"##alleri":14208,"rådgiver":14209,"hevn":14210,"Half":14211,"dyrene":14212,"oljes":14213,"vurderer":14214,"above":14215,"selskapsmøtet":14216,"Klass":14217,"Kvinne":14218,"samfunns":14219,"samfunnsmessige":14220,"Mai":14221,"Major":14222,"reduseres":14223,"Brukes":14224,"dispon":14225,"applic":14226,"røver":14227,"røtter":14228,"variert":14229,"variasjoner":14230,"Svenske":14231,"kurven":14232,"dokt":14233,"##linja":14234,"pasientene":14235,"Slutt":14236,"opplevelser":14237,"##sskrift":14238,"melke":14239,"Altså":14240,"raskere":14241,"##aldering":14242,"tradisjonell":14243,"##ights":14244,"folkeh":14245,"position":14246,"1909":14247,"1907":14248,"##meldinger":14249,"Syria":14250,"Mosk":14251,"angir":14252,"##ccess":14253,"Håland":14254,"Sandnes":14255,"750":14256,"årsaker":14257,"##helset":14258,"grov":14259,"##aksjonen":14260,"##forskning":14261,"vokst":14262,"vokse":14263,"##bilen":14264,"1850":14265,"##meneut":14266,"begrenses":14267,"opplysningene":14268,"beregning":14269,"åpenbar":14270,"5000":14271,"Fortell":14272,"Fortsatt":14273,"Monsen":14274,"##stykket":14275,"1866":14276,"Selvsagt":14277,"Julia":14278,"hindrer":14279,"fordeler":14280,"utstyrt":14281,"eierskap":14282,"slåss":14283,"forsikre":14284,"aggress":14285,"Årdal":14286,"blomst":14287,"Allan":14288,"besøkende":14289,"Petersen":14290,"keep":14291,"oppstod":14292,"skikkelse":14293,"1788":14294,"Filip":14295,"omtalte":14296,"Frogner":14297,"auksjon":14298,"auka":14299,"gjennomsnittet":14300,"glir":14301,"respect":14302,"1791":14303,"reisende":14304,"tilsammen":14305,"næringsdrivende":14306,"bærekraft":14307,"siktet":14308,"Green":14309,"utdannet":14310,"tusenvis":14311,"##pani":14312,"##pany":14313,"install":14314,"arbeidsplass":14315,"##LIG":14316,"servic":14317,"pedagogikk":14318,"vilkårene":14319,"##skolene":14320,"##field":14321,"bomull":14322,"forbedringer":14323,"kontinent":14324,"temaer":14325,"rikeste":14326,"Jacobsen":14327,"##frie":14328,"utformingen":14329,"##sprisen":14330,"##hanistan":14331,"lidelser":14332,"ryddet":14333,"##semd":14334,"Sætre":14335,"##bedrifter":14336,"overtar":14337,"konferanse":14338,"fabrikk":14339,"oppsummer":14340,"oppdrett":14341,"kvadratsetning":14342,"bandet":14343,"Følg":14344,"Follo":14345,"nekter":14346,"Hotell":14347,"arkitekt":14348,"kamerat":14349,"special":14350,"tolkning":14351,"gjemt":14352,"##ssystemet":14353,"parkeringspl":14354,"styremedlem":14355,"Rapporten":14356,"##aktiviteter":14357,"evalu":14358,"##undersøkelse":14359,"maleri":14360,"fraktføreren":14361,"målsettinger":14362,"##foto":14363,"##rapport":14364,"##brød":14365,"innvandring":14366,"common":14367,"Askim":14368,"##myndighetene":14369,"elektronisk":14370,"foreign":14371,"previous":14372,"##behagelig":14373,"Fugle":14374,"##resultat":14375,"barnehagene":14376,"capacity":14377,"phys":14378,"##fabrikk":14379,"ekspedisjon":14380,"analysis":14381,"Eksempler":14382,"entreprenøren":14383,"Energi":14384,"ulovlig":14385,"anerkjennelse":14386,"Apple":14387,"##smodellen":14388,"Organ":14389,"Brynild":14390,"Bibelen":14391,"japanske":14392,"vellykket":14393,"ibid":14394,"utadvendte":14395,"antydet":14396,"##ything":14397,"Pederson":14398,
[...]
