{"version":"1.0","truncation":null,"padding":null,"added_tokens":[{"id":0,"special":true,"content":"[PAD]","single_word":false,"lstrip":false,"rstrip":false,"normalized":false},{"id":1,"special":true,"content":"[UNK]","single_word":false,"lstrip":false,"rstrip":false,"normalized":false},{"id":2,"special":true,"content":"[CLS]","single_word":false,"lstrip":false,"rstrip":false,"normalized":false},{"id":3,"special":true,"content":"[SEP]","single_word":false,"lstrip":false,"rstrip":false,"normalized":false},{"id":4,"special":true,"content":"[MASK]","single_word":false,"lstrip":false,"rstrip":false,"normalized":false}],"normalizer":null,"pre_tokenizer":{"type":"Whitespace"},"post_processor":null,"decoder":null,"model":{"unk_token":"[UNK]","continuing_subword_prefix":"##","max_input_chars_per_word":100,"vocab":{"[PAD]":0,"[UNK]":1,"[CLS]":2,"[SEP]":3,"[MASK]":4,"!":5,"\"":6,"#":7,"$":8,"%":9,"&":10,"'":11,"(":12,")":13,"*":14,"+":15,",":16,"-":17,".":18,"/":19,"0":20,"1":21,"2":22,"3":23,"4":24,"5":25,"6":26,"7":27,"8":28,"9":29,":":30,";":31,"<":32,"=":33,">":34,"?":35,"@":36,"A":37,"B":38,"C":39,"D":40,"E":41,"F":42,"G":43,"H":44,"I":45,"J":46,"K":47,"L":48,"M":49,"N":50,"O":51,"P":52,"Q":53,"R":54,"S":55,"T":56,"U":57,"V":58,"W":59,"X":60,"Y":61,"Z":62,"[":63,"\\":64,"]":65,"^":66,"_":67,"`":68,"a":69,"b":70,"c":71,"d":72,"e":73,"f":74,"g":75,"h":76,"i":77,"j":78,"k":79,"l":80,"m":81,"n":82,"o":83,"p":84,"q":85,"r":86,"s":87,"t":88,"u":89,"v":90,"w":91,"x":92,"y":93,"z":94,"{":95,"|":96,"}":97,"~":98,"£":99,"¥":100,"©":101,"®":102,"°":103,"±":104,"²":105,"º":106,"Á":107,"Ä":108,"Å":109,"Æ":110,"È":111,"É":112,"Ö":113,"Ø":114,"Ü":115,"ß":116,"à":117,"á":118,"â":119,"ä":120,"å":121,"æ":122,"ç":123,"è":124,"é":125,"ê":126,"ë":127,"í":128,"î":129,"ï":130,"ð":131,"ñ":132,"ò":133,"ó":134,"ô":135,"ö":136,"÷":137,"ø":138,"ü":139,"ý":140,"ā":141,"ą":142,"č":143,"Đ":144,"đ":145,"ę":146,"ł":147,"ń":148,"ŋ":149,"Ś":150,"Š":151,"š":152,"ž":153,"α":154,"Г":155,"К":156,"Н":157,"П":158,"Р":159,"а":160,"в":161,"г":162,"д":163,"е":164,"з":165,"и":166,"к":167,"л":168,"м":169,"н":170,"о":171,"п":172,"р":173,"с":174,"т":175,"у":176,"ц":177,"ш":178,"ы":179,"ь":180,"я":181,"ب":182,"ة":183,"د":184,"ر":185,"ي":186,"⁄":187,"€":188,"™":189,"↑":190,"→":191,"∑":192,"≠":193,"≤":194,"≥":195,"■":196,"□":197,"▶":198,"►":199,"◄":200,"●":201,"☆":202,"♥":203,"♦":204,"✓":205,"✔":206,"❤":207,"㈀":208,"㌀":209,"㐀":210,"㔀":211,"㘀":212,"㜀":213,"㠀":214,"㤀":215,"㨀":216,"䀀":217,"䈀":218,"䔀":219,"䘀":220,"䠀":221,"䬀":222,"䰀":223,"䴀":224,"伀":225,"刀":226,"匀":227,"卍":228,"卐":229,"吀":230,"太":231,"山":232,"愀":233,"戀":234,"挀":235,"搀":236,"攀":237,"昀":238,"最":239,"栀":240,"椀":241,"欀":242,"氀":243,"洀":244,"渀":245,"漀":246,"瀀":247,"爀":248,"猀":249,"琀":250,"甀":251,"礀":252,"行":253,"️":254,"🙂":255,"##e":256,"##r":257,"##ø":258,"##i":259,"##n":260,"##g":261,"##p":262,"##å":263,"##t":264,"##v":265,"##l":266,"##o":267,"##k":268,"##s":269,"##a":270,"##j":271,"##f":272,"##d":273,"##u":274,"##h":275,"##b":276,"##y":277,"##m":278,"##æ":279,"##é":280,"##8":281,"##0":282,"##ä":283,"##L":284,"##1":285,"##E":286,"##R":287,"##M":288,"##I":289,"##S":290,"##J":291,"##O":292,"##N":293,"##G":294,"##U":295,"##T":296,"##Y":297,"##F":298,"##c":299,"##D":300,"##4":301,"##3":302,"##K":303,"##P":304,"##氀":305,"##6":306,"##A":307,"##7":308,"##w":309,"##5":310,"##9":311,"##C":312,"##z":313,"##V":314,"##,":315,"##)":316,"##\"":317,"##x":318,"##H":319,"##-":320,"##>":321,"##2":322,"##Ø":323,"##B":324,"##Å":325,"##q":326,"##ß":327,"##X":328,"##Z":329,"##/":330,"##(":331,"##;":332,"##<":333,"##]":334,"##©":335,"##_":336,"##*":337,"##\\":338,"##ó":339,"##.":340,"##'":341,"##Æ":342,"##!":343,"##á":344,"##+":345,"##漀":346,"##爀":347,"##攀":348,"##最":349,"##愀":350,"##昀":351,"##㨀":352,"##É":353,"##|":354,"##=":355,"##W":356,"##ö":357,"##}":358,"##[":359,"##ر":360,"##ي":361,"##د":362,"##ة":363,"##{":364,"##č":365,"##ô":366,"##:":367,"##?":368,"##™":369,"##~":370,"##ü":371,"##ñ":372,"##Q":373,"##礀":374,"##椀":375,"##渀":376,"##琀":377,"##䀀":378,"##洀":379,"##^":380,"##行":381,"##山":382,"##✔":383,"##ý":384,"##î":385,"##$":386,"##š":387,"##í":388,"##ŋ":389,"##甀":390,"##猀":391,"##%":392,"##ž":393,"##у":394,"##с":395,"##к":396,"##о":397,"##г":398,"##đ":399,"##■":400,"###":401,"##栀":402,"##è":403,"##䴀":404,"##匀":405,"##ā":406,"##Á":407,"##☆":408,"##ł":409,"##ð":410,"##à":411,"##â":412,"##а":413,"##т":414,"##л":415,"##ь":416,"##я":417,"##ę":418,"##Đ":419,"##瀀":420,"##ń":421,"##搀":422,"##&":423,"##°":424,"##ê":425,"##з":426,"##н":427,"##ы":428,"##м":429,"##д":430,"##р":431,"##в":432,"##㠀":433,"##@":434,"##►":435,"##È":436,"##е":437,"##㌀":438,"##欀":439,"##и":440,"##ï":441,"##Ü":442,"##ë":443,"##Ä":444,"##ą":445,"##ц":446,"##®":447,"##戀":448,"##ш":449,"##ç":450,"##en":451,"##er":452,"##et":453,"##or":454,"##an":455,"##ar":456,"##in":457,"##el":458,"##il":459,"##st":460,"og":461,"##om":462,"##ed":463,"##eg":464,"for":465,"##ing":466,"##re":467,"##te":468,"##ig":469,"##al":470,"##ke":471,"##on":472,"##de":473,"til":474,"##le":475,"##tt":476,"##is":477,"det":478,"en":479,"##un":480,"##ra":481,"av":482,"##es":483,"er":484,"som":485,"##ik":486,"på":487,"##ol":488,"st":489,"##id":490,"##ene":491,"##ne":492,"med":493,"##ør":494,"##am":495,"##sk":496,"##at":497,"sk":498,"##ver":499,"at":500,"##ag":501,"##pp":502,"in":503,"de":504,"##as":505,"##it":506,"##ler":507,"##kt":508,"##kke":509,"var":510,"den":511,"##ad":512,"##nd":513,"om":514,"##and":515,"##ent":516,"##se":517,"har":518,"ut":519,"##ul":520,"##ste":521,"ikke":522,"##ning":523,"##år":524,"##iv":525,"##ro":526,"##ang":527,"han":528,"##kk":529,"##ær":530,"##li":531,"##ens":532,"##ur":533,"##ere":534,"##us":535,"##jon":536,"fra":537,"Det":538,"##lig":539,"##ett":540,"##je":541,"opp":542,"##ri":543,"et":544,"al":545,"##ot":546,"##ru":547,"gj":548,"##ak":549,"##ikk":550,"##tter":551,"##ende":552,"an":553,"##\"\"":554,"<<":555,"seg":556,"men":557,"vi":558,"##for":559,"##omm":560,"19":561,"kan":562,"no":563,"inn":564,"##ter":565,"##sen":566,">>":567,"##od":568,"##het":569,"##he":570,"##ks":571,"##ge":572,"sam":573,"be":574,"så":575,"vil":576,"##adde":577,"##der":578,"el":579,"##ap":580,"sp":581,"hadde":582,"jeg":583,"##elig":584,"##ist":585,"hv":586,"må":587,"over":588,"##att":589,"##av":590,"##enn":591,"##be":592,"si":593,"##ell":594,"##ort":595,"##ir":596,"##mm":597,"##ord":598,"##est":599,"ble":600,"##ss":601,"##ft":602,"bli":603,"hun":604,"##ann":605,"##isk":606,"ved":607,"##art":608,"##gen":609,"sl":610,"##ut":611,"##ok":612,"##øy":613,"##ert":614,"eller":615,"se":616,"der":617,"##så":618,"and":619,"##yn":620,"##ger":621,"##sl":622,"år":623,"##ud":624,"##rå":625,"##ling":626,"20":627,"skal":628,"re":629,"bar":630,"##ære":631,"##ov":632,"før":633,"du":634,"##unn":635,"##asjon":636,"##sp":637,"hel":638,"etter":639,"komm":640,"##ser":641,"##old":642,"##im":643,"the":644,"##yg":645,"##nder":646,"##ant":647,"##all":648,"##jø":649,"ar":650,"##..":651,"to":652,"kon":653,"Han":654,"##ikt":655,"også":656,"##yr":657,"tr":658,"##end":659,"##inn":660,"pro":661,"St":662,"##ff":663,"##ve":664,"##os":665,"##ker":666,"##itt":667,"##var":668,"kun":669,"##og":670,"##else":671,"Jeg":672,"##iske":673,"##beid":674,"sin":675,"00":676,"ny":677,"##und":678,"##um":679,"kl":680,"##net":681,"De":682,"mot":683,"##sm":684,"##jer":685,"##ion":686,"tid":687,"##eng":688,"--":689,"##nn":690,"##ic":691,"##em":692,"##rø":693,"##leg":694,"##akt":695,"under":696,"of":697,"være":698,"##øl":699,"18":700,"##eld":701,"samm":702,"##ast":703,"meg":704,"##ly":705,"##skap":706,"##ry":707,"min":708,"##ans":709,"kom":710,"##ab":711,"##ie":712,"få":713,"sa":714,"da":715,"##ers":716,"dette":717,"##elt":718,"##tte":719,"##øre":720,"##ier":721,"##ige":722,"##erd":723,"##gj":724,"pl":725,"or":726,"##ring":727,"bru":728,"##ød":729,"##vis":730,"kunne":731,"Men":732,"##ob":733,"andre":734,"bl":735,"dag":736,"##mer":737,"##ass":738,"##rem":739,"##ede":740,"##alt":741,"##ært":742,"ha":743,"stor":744,").":745,"##ket":746,"##ale":747,"##yl":748,"Den":749,"fort":750,"kv":751,"reg":752,"For":753,"##ange":754,"blir":755,"##ret":756,"10":757,"##elle":758,"noe":759,"skul":760,"le":761,"hen":762,"##del":763,"kj":764,"##ingen":765,"denne":766,"##lige":767,"##hold":768,"mer":769,"##tid":770,"##iser":771,"##ighet":772,"Nor":773,"enn":774,"##nes":775,"gr":776,"kr":777,"##ennom":778,"\"\"\"":779,"##res":780,"Vi":781,"alle":782,"ham":783,"##ess":784,"##ost":785,"En":786,"bet":787,"##per":788,"##let":789,"17":790,"god":791,"##ber":792,"her":793,"##ind":794,"##jel":795,"sel":796,"nå":797,"##red":798,"dem":799,"##pe":800,"##ch":801,"##na":802,"##ien":803,"beg":804,"##vik":805,"##set":806,"##kte":807,"man":808,"##ust":809,"ned":810,"##ken":811,"arbeid":812,"##ug":813,"når":814,"noen":815,"##ia":816,"##det":817,"del":818,"Hun":819,"##la":820,"##get":821,"skulle":822,"Og":823,"ve":824,"li":825,"gjennom":826,"##olit":827,"##kl":828,"bare":829,"##før":830,"##ellom":831,"\"\"\"\"":832,"lø":833,"##ske":834,"##den":835,"##utt":836,"hvor":837,"hver":838,"ta":839,"##land":840,"##ane":841,"##dag":842,"##ner":843,"vært":844,"15":845,"sy":846,"##mp":847,"mellom":848,"sm":849,"##iden":850,"##eder":851,"##ark":852,"##ull":853,"30":854,"Sk":855,"sier":856,"frem":857,".\"\"":858,"pr":859,"##ire":860,"##ningen":861,"tre":862,"land":863,"slik":864,"mange":865,"##ive":866,"sammen":867,"##ult":868,"##ninger":869,"##itet":870,"gang":871,"my":872,"##lere":873,"##if":874,"##amm":875,"rett":876,"##legg":877,"sv":878,"ly":879,"##opp":880,"ville":881,"ein":882,"##ev":883,"##ub":884,"##lem":885,"alt":886,"In":887,"##kket":888,"tilb":889,"fors":890,"Hv":891,"##stil":892,"##are":893,"##oll":894,"##op":895,"##els":896,">>.":897,"br":898,"##ip":899,"##00":900,"deg":901,"##ake":902,"nor":903,"lang":904,"hans":905,"##isse":906,"##enter":907,"henne":908,"##ek":909,"Al":910,"##ål":911,"12":912,"##olk":913,"##tes":914,"201":915,"##este":916,"##lag":917,"##elsen":918,"##ct":919,"##dre":920,"##gang":921,"bå":922,"fin":923,"##ten":924,"sø":925,"##yd":926,"##erne":927,"##rist":928,"bes":929,"uten":930,"første":931,"fram":932,"igj":933,"199":934,"føl":935,"gå":936,"lag":937,"##iktig":938,"##rev":939,"##ater":940,"end":941,"##ksjon":942,"høy":943,"går":944,"dei":945,"mil":946,"##....":947,"Dette":948,"bil":949,"##iet":950,"verd":951,"ser":952,"##bru":953,"inter":954,"un":955,"grunn":956,"11":957,"mor":958,"##tr":959,"nær":960,"##ster":961,"vir":962,"kommun":963,"##ansk":964,"##over":965,"##ings":966,"oss":967,"##jem":968,"igjen":969,"th":970,"form":971,"nok":972,"fikk":973,"Ar":974,"byg":975,"polit":976,"##rat":977,"by":978,"vel":979,"##rift":980,"##oner":981,"##pet":982,"##org":983,"beh":984,"la":985,"ans":986,"vis":987,"##ille":988,"##atte":989,"Jo":990,"##kker":991,"##arbeid":992,"##tak":993,"gjøre":994,"får":995,"far":996,"##inger":997,"kommer":998,"fr":999,"##ide":1000,"##like":1001,"beste":1002,"),":1003,"eg":1004,"##sten":1005,"16":1006,"tra":1007,"##ets":1008,"liv":1009,"ma":1010,"##du":1011,"##alen":1012,"ten":1013,"##form":1014,"gikk":1015,"##kon":1016,"##ation":1017,"hva":1018,"##som":1019,"##ard":1020,"##enger":1021,"like":1022,"sine":1023,"forsk":1024,"syn":1025,"ord":1026,"##jør":1027,"nye":1028,"all":1029,"samme":1030,"##ift":1031,"##slag":1032,"store":1033,"13":1034,"200":1035,"##alg":1036,"##kkje":1037,"ei":1038,"selv":1039,"##rett":1040,"sn":1041,"##ode":1042,"leg":1043,"både":1044,"##mme":1045,"flere":1046,"##pl":1047,"##ener":1048,"##elser":1049,"stør":1050,"##elige":1051,"Da":1052,"fe":1053,"##nen":1054,"##ekt":1055,"##mmer":1056,"tilbake":1057,"kjø":1058,"##elen":1059,"forb":1060,"##atur":1061,"##ce":1062,"##rik":1063,"##nings":1064,"##ine":1065,"##led":1066,"godt":1067,"##isjon":1068,"hand":1069,"##rav":1070,"##ennes":1071,"##pt":1072,"##ER":1073,"##ial":1074,"hele":1075,"seiv":1076,"14":1077,"Tr":1078,"fl":1079,"ikkje":1080,"bed":1081,"##app":1082,"mø":1083,"##>>":1084,"##eter":1085,"siden":1086,"##pen":1087,"##ond":1088,"hå":1089,"sitt":1090,"disse":1091,"lig":1092,"sak":1093,"Her":1094,"##ole":1095,"ver":1096,"mul":1097,"SS":1098,"sj":1099,"mennes":1100,"##vel":1101,"par":1102,"##di":1103,"ingen":1104,"res":1105,"pros":1106,"helt":1107,"red":1108,"stat":1109,"Norge":1110,"Mar":1111,"##ygg":1112,"##øk":1113,"ste":1114,"##lev":1115,"vid":1116,"litt":1117,"sett":1118,"barn":1119,"##ordan":1120,"##sb":1121,"##hus":1122,"ty":1123,"##undt":1124,"The":1125,"På":1126,"##stad":1127,"ber":1128,"frå":1129,"21":1130,"bak":1131,"##ill":1132,"##stand":1133,"\"\"":1134,"hus":1135,"Se":1136,"he":1137,"hav":1138,"##ente":1139,"##rupp":1140,"tro":1141,"##ow":1142,"##EN":1143,"An":1144,"pers":1145,"vår":1146,"annet":1147,"eks":1148,"##ment":1149,"mye":1150,"##oc":1151,"##vend":1152,"##kj":1153,"##nad":1154,"fly":1155,"mann":1156,"##rer":1157,"##kken":1158,"blitt":1159,"##sf":1160,"##kel":1161,"##unkt":1162,"##inner":1163,"Der":1164,"##ytt":1165,"##ister":1166,"viktig":1167,"forhold":1168,"dø":1169,"##les":1170,"is":1171,"kont":1172,"##aa":1173,"##olen":1174,"måtte":1175,"##mid":1176,"##ite":1177,"##sker":1178,"gl":1179,"øn":1180,"##jene":1181,"##olde":1182,",>>":1183,"##ars":1184,"##ram":1185,"Ch":1186,"##ikker":1187,"svar":1188,"rundt":1189,"##ette":1190,"led":1191,"Du":1192,"ek":1193,"##fter":1194,"sig":1195,"Så":1196,"##ym":1197,"mens":1198,"##kes":1199,"per":1200,"##olog":1201,"spør":1202,"El":1203,"tok":1204,"##~~":1205,"lov":1206,"##ald":1207,"25":1208,"ev":1209,"hjel":1210,"ind":1211,"##eb":1212,"##ain":1213,"##ande":1214,"kn":1215,"##amil":1216,"Joh":1217,"begyn":1218,"kor":1219,"lu":1220,"##raft":1221,"##sv":1222,"##heten":1223,"22":1224,"Til":1225,"siste":1226,"##lingen":1227,"##ott":1228,"##iten":1229,"utvik":1230,"198":1231,"##stå":1232,"inne":1233,"lå":1234,"##jell":1235,"##rakt":1236,"jo":1237,"##par":1238,"ad":1239,"##ha":1240,"##ong":1241,"##etter":1242,"##stre":1243,"##ank":1244,"##ian":1245,"##stem":1246,"dom":1247,"me":1248,"23":1249,"Ol":1250,"##sel":1251,"##aler":1252,"##anske":1253,"##ges":1254,"mål":1255,"on":1256,"##ise":1257,"##sd":1258,"##ys":1259,"##istor":1260,"##gr":1261,"##ac":1262,"##obb":1263,"plan":1264,"tidlig":1265,"gi":1266,"##gå":1267,"hennes":1268,"##eller":1269,"folk":1270,"##ib":1271,"##me":1272,"##eren":1273,"##orde":1274,"##sjon":1275,"##ate":1276,"##men":1277,"sted":1278,"##føl":1279,"000":1280,"full":1281,"##mt":1282,"eit":1283,"##satt":1284,"gjør":1285,"hos":1286,"vet":1287,"##elder":1288,"te":1289,"##lø":1290,"styr":1291,"##riv":1292,"##nt":1293,"hvordan":1294,"akt":1295,"Når":1296,"mid":1297,"##anis":1298,"bort":1299,"##ei":1300,"komme":1301,"fått":1302,"Osl":1303,"nett":1304,"øy":1305,"fyl":1306,"mest":1307,"##iller":1308,"annen":1309,"fast":1310,"hold":1311,"...":1312,"##pr":1313,"##au":1314,"##asjonen":1315,"##off":1316,"50":1317,"##sn":1318,"tilf":1319,"197":1320,"sna":1321,"##ikken":1322,"Br":1323,"Ber":1324,"##rag":1325,"##ith":1326,"##pro":1327,"##iver":1328,"##ærlig":1329,"##vil":1330,"##jekt":1331,"hal":1332,"sen":1333,"vå":1334,"##oved":1335,"##enes":1336,"gam":1337,"tek":1338,"##anse":1339,"skj":1340,"spes":1341,"fordi":1342,"com":1343,"fle":1344,"##mann":1345,"##esten":1346,"Oslo":1347,"person":1348,"##syn":1349,"hvis":1350,"##asser":1351,"samt":1352,"gir":1353,"##ultur":1354,"utt":1355,"##olig":1356,"står":1357,"ant":1358,"Sp":1359,"sit":1360,"Er":1361,"part":1362,"Har":1363,"Re":1364,"hør":1365,"su":1366,"##her":1367,"lik":1368,"produ":1369,"org":1370,"##atter":1371,"##far":1372,"##ins":1373,"##dd":1374,"##uler":1375,"##ven":1376,"##ous":1377,"##hand":1378,"##skje":1379,"kap":1380,"Tor":1381,"##fl":1382,"##dri":1383,"gjort":1384,"##reg":1385,"hø":1386,"gjelder":1387,"side":1388,"##ont":1389,"ster":1390,"##usjon":1391,"åp":1392,"Nå":1393,"##min":1394,"##enge":1395,"Etter":1396,"##sdag":1397,"##agt":1398,"bør":1399,"Med":1400,"gra":1401,"194":1402,"nr":1403,"kanskje":1404,"Hva":1405,"natur":1406,"bruk":1407,"egen":1408,"satt":1409,"Om":1410,"fol":1411,"viser":1412,"##sj":1413,"slutt":1414,"gamle":1415,"nød":1416,"##ele":1417,"##berg":1418,"famil":1419,"##alte":1420,"områ":1421,"bor":1422,"##ons":1423,"int":1424,"dy":1425,"dere":1426,"off":1427,">>,":1428,"klar":1429,"ofte":1430,"Ut":1431,"af":1432,"##unnet":1433,"Fr":1434,"Ved":1435,"##iner":1436,"##gjør":1437,"rå":1438,"##lik":1439,"aldri":1440,"lok":1441,"tatt":1442,"##inne":1443,"196":1444,"##of":1445,"##allet":1446,"##ativ":1447,"større":1448,"##vir":1449,"Et":1450,"mindre":1451,"derfor":1452,"stø":1453,"##entlig":1454,"prob":1455,"mulig":1456,"unn":1457,"##sy":1458,"##........":1459,"Th":1460,"##ask":1461,"##heim":1462,"langt":1463,"tar":1464,"##ue":1465,"##ksom":1466,"##rig":1467,"##skapet":1468,"ting":1469,"des":1470,"vansk":1471,"##heng":1472,"spørsm":1473,"vann":1474,"van":1475,"##semp":1476,"Gud":1477,"##ilt":1478,"først":1479,"videre":1480,"Reg":1481,"pres":1482,"nytt":1483,"sjø":1484,"gjorde":1485,"ho":1486,"##enner":1487,"betyd":1488,"##ført":1489,"plass":1490,"##igheter":1491,"40":1492,"##ild":1493,"##des":1494,"##entr":1495,"pre":1496,"tillegg":1497,"24":1498,"with":1499,"##svar":1500,"Sam":1501,"mod":1502,"##ies":1503,"##vet":1504,"##dal":1505,"små":1506,"Nord":1507,"##lekt":1508,"##age":1509,"mener":1510,"hånd":1511,"rom":1512,"##raf":1513,"05":1514,"rel":1515,"##ærer":1516,"norske":1517,"##komm":1518,"##kelig":1519,"innen":1520,"?.":1521,"Am":1522,"mat":1523,"nord":1524,"##erer":1525,"finne":1526,"Le":1527,"##oen":1528,"##ina":1529,"##amp":1530,"deres":1531,"alltid":1532,"hoved":1533,"jord":1534,"##ktor":1535,"##konom":1536,"lett":1537,"gode":1538,"##entet":1539,"##eldig":1540,"blant":1541,"bedre":1542,"##hol":1543,"tim":1544,"##ore":1545,"##veg":1546,"hvil":1547,"##asjoner":1548,"heller":1549,"45":1550,"##dom":1551,"prø":1552,"ulike":1553,"##gre":1554,"##kning":1555,"##assen":1556,"aller":1557,"##ider":1558,"##rykk":1559,"##ade":1560,"##jord":1561,"gjen":1562,"valg":1563,"##pres":1564,"##va":1565,"stra":1566,"##kter":1567,"03":1568,"gre":1569,"ung":1570,"fot":1571,"##akk":1572,"tidligere":1573,"gener":1574,"##råd":1575,"histor":1576,"##ike":1577,"##int":1578,"##inga":1579,"##styr":1580,"ligger":1581,"Ja":1582,"Krist":1583,"##alitet":1584,"enkel":1585,"stud":1586,"##heter":1587,"måte":1588,"##lene":1589,"##føre":1590,"##med":1591,"##aren":1592,"bok":1593,"##stit":1594,"eksemp":1595,"And":1596,"veg":1597,"##sø":1598,"##ringer":1599,"##ppen":1600,"##gende":1601,"##okk":1602,"bra":1603,"kal":1604,"##br":1605,"##onym":1606,"mark":1607,"nærm":1608,"##midler":1609,"delt":1610,"hatt":1611,"##ensjon":1612,"tror":1613,"fag":1614,"liten":1615,"sos":1616,"tur":1617,"##ipp":1618,"##bar":1619,"##avn":1620,"hvert":1621,"verden":1622,"fil":1623,"##uro":1624,"##verk":1625,"grupp":1626,"fakt":1627,"sik":1628,"##ansen":1629,"skap":1630,"mennesker":1631,"Ro":1632,"Som":1633,"fem":1634,"kultur":1635,"##vær":1636,"##isen":1637,"vart":1638,"##yld":1639,"##stilling":1640,"are":1641,"##odet":1642,"##ator":1643,"##OR":1644,"##under":1645,"anonym":1646,"forskjel":1647,"##son":1648,"##da":1649,"str":1650,"##ester":1651,"kraft":1652,"##io":1653,"##sted":1654,"##aker":1655,"##innes":1656,"fri":1657,"holde":1658,"kar":1659,"##AR":1660,"Kar":1661,"##kv":1662,"##asse":1663,"død":1664,"vin":1665,"##ile":1666,"##sket":1667,"##spl":1668,"##tidig":1669,"35":1670,"ca":1671,"##ity":1672,"spesi":1673,"ret":1674,"inv":1675,"##river":1676,".)":1677,"din":1678,"dire":1679,"##ga":1680,"##use":1681,"kroner":1682,"tiltak":1683,"##agen":1684,"##iter":1685,"##andre":1686,"##rim":1687,"best":1688,"ansvar":1689,"##part":1690,"##ay":1691,"##mark":1692,"as":1693,"hje":1694,"kre":1695,"##bl":1696,"##bo":1697,"les":1698,"##gt":1699,"##jen":1700,"##anger":1701,"fun":1702,"kort":1703,"##bet":1704,"stort":1705,"hjem":1706,"##iss":1707,"samf":1708,"besk":1709,"art":1710,"domain":1711,"felle":1712,"nev":1713,"forv":1714,"195":1715,"nødvend":1716,"fre":1717,"##af":1718,"##igur":1719,"stad":1720,"##øren":1721,"##agn":1722,"anonymous":1723,"##rene":1724,"##sfor":1725,"skjø":1726,"sol":1727,"##ilte":1728,"spur":1729,"dat":1730,"jobb":1731,"##urder":1732,"lite":1733,"Hvor":1734,"jul":1735,"##vor":1736,"##stru":1737,"##udd":1738,"Be":1739,"Pro":1740,"kir":1741,"Av":1742,"ferd":1743,"op":1744,"##ma":1745,"Denne":1746,"kveld":1747,"Gr":1748,"eng":1749,"gamm":1750,"##IN":1751,"mus":1752,"##tre":1753,"##jef":1754,"##spro":1755,"##spunkt":1756,"##ustri":1757,"behand":1758,"Ste":1759,"fant":1760,"##by":1761,"##vert":1762,"løs":1763,"svært":1764,"##one":1765,"norsk":1766,"prosent":1767,"elev":1768,"lenge":1769,"mang":1770,"wh":1771,"##ått":1772,"##atet":1773,"##ikket":1774,"sikker":1775,"##rive":1776,"meget":1777,"##tal":1778,"##sh":1779,"##AN":1780,"##istr":1781,"##ffe":1782,"##parte":1783,"##iste":1784,"##egn":1785,"sto":1786,"that":1787,"behov":1788,"senere":1789,"organis":1790,":.":1791,"fød":1792,"##ren":1793,"##ferd":1794,"##midlertid":1795,"mån":1796,"##ålet":1797,"ønsker":1798,"hjelp":1799,"halv":1800,"31":1801,"tjene":1802,"forslag":1803,"Norsk":1804,"##partement":1805,"ett":1806,"skole":1807,"##klar":1808,"forsø":1809,"holdt":1810,"bid":1811,"rekke":1812,"##dde":1813,"vanskelig":1814,"##kur":1815,"##sett":1816,"omf":1817,"##ford":1818,"bef":1819,"Inn":1820,"slike":1821,"ute":1822,"##ensen":1823,"##troll":1824,"situ":1825,"bas":1826,"##iene":1827,"arbeidet":1828,"spørsmål":1829,"ex":1830,"tan":1831,"##igh":1832,"slag":1833,"result":1834,"##ager":1835,"##ffekt":1836,"55":1837,"Ander":1838,"Hvis":1839,"livet":1840,"enkelte":1841,"06":1842,"##ka":1843,"##elø":1844,"intern":1845,"drift":1846,"gar":1847,"økonom":1848,"##val":1849,"##ure":1850,"##orten":1851,"barne":1852,"milli":1853,"utvikling":1854,"Sol":1855,"fa":1856,"paa":1857,"veldig":1858,"##sg":1859,"##søk":1860,"likevel":1861,"##pte":1862,"Opp":1863,"fire":1864,"met":1865,"##tet":1866,"oppf":1867,"im":1868,"grad":1869,"Ann":1870,"Jon":1871,"sør":1872,"##str":1873,"kunst":1874,"##revet":1875,"kjem":1876,"ne":1877,"till":1878,"tiden":1879,"landet":1880,"problem":1881,"Ny":1882,"Or":1883,"dre":1884,"kost":1885,"forstå":1886,"##lever":1887,"##pa":1888,"##ja":1889,"sty":1890,"Kn":1891,"##erg":1892,"##æring":1893,"fleste":1894,"Bl":1895,"krav":1896,"##bruk":1897,"eksempel":1898,"bur":1899,"ga":1900,"Sel":1901,"ter":1902,"##aten":1903,"##uten":1904,"##yttet":1905,"##til":1906,"##tatt":1907,"##kje":1908,"##sak":1909,"##ball":1910,"##yt":1911,"regjer":1912,"##grunn":1913,"neste":1914,"##IS":1915,"##illing":1916,"##stra":1917,"skjer":1918,"repres":1919,"bruke":1920,"begge":1921,"##lagt":1922,"imidlertid":1923,"##sam":1924,"krig":1925,"natt":1926,"nesten":1927,"##ører":1928,"##ave":1929,"kommet":1930,"Bar":1931,"gje":1932,"##ttet":1933,"##mmen":1934,"##elses":1935,"begynte":1936,"imp":1937,"post":1938,"##oks":1939,"##up":1940,"##asi":1941,"ledd":1942,"##fer":1943,"enk":1944,"##ivitet":1945,"hverandre":1946,"luft":1947,"At":1948,"bry":1949,"lenger":1950,"start":1951,"samarbeid":1952,"##mmet":1953,"##oven":1954,"##ction":1955,"allerede":1956,"Hol":1957,"bud":1958,"di":1959,"særlig":1960,"gitt":1961,"##entar":1962,"vei":1963,"tak":1964,"lever":1965,"miljø":1966,"hend":1967,"Fot":1968,"fø":1969,"fisk":1970,"hens":1971,"##gift":1972,"##EL":1973,"##ck":1974,"##ammer":1975,"Hans":1976,"dagen":1977,"ch":1978,"hj":1979,"vær":1980,"##isering":1981,"kontakt":1982,"spurte":1983,"venn":1984,"##kst":1985,"##ah":1986,"##utter":1987,"stå":1988,"Trond":1989,"##len":1990,"##ern":1991,"Eg":1992,"finnes":1993,"avt":1994,"gjerne":1995,"virkelig":1996,"forskjellige":1997,"Fra":1998,"##bygg":1999,"inform":2000,"##ningene":2001,"att":2002,"ja":2003,"##kom":2004,"eneste":2005,"##uss":2006,"##tern":2007,"årene":2008,"##røm":2009,"våre":2010,"##ule":2011,"##lipp":2012,"##ommet":2013,"##sland":2014,"felles":2015,"01":2016,"Man":2017,"ben":2018,"##på":2019,"##anen":2020,"##uts":2021,"Bjør":2022,"vind":2023,"##rens":2024,"##ium":2025,"##annen":2026,"kons":2027,"prosjekt":2028,"Ne":2029,"fall":2030,"it":2031,"tru":2032,"##vid":2033,"##ben":2034,"##unt":2035,"lagt":2036,"Ha":2037,"gått":2038,"Un":2039,"id":2040,"##ves":2041,"##ilde":2042,"193":2043,"##elsene":2044,"##ET":2045,"bek":2046,"syke":2047,"system":2048,"Alle":2049,"27":2050,"fjer":2051,"nu":2052,"foret":2053,"192":2054,"Stor":2055,"klart":2056,"ganger":2057,"Ikke":2058,"kro":2059,"##mb":2060,"brukt":2061,"not":2062,"us":2063,"##ingene":2064,"døde":2065,"nødvendig":2066,"La":2067,"sh":2068,"##ommun":2069,"gammel":2070,"leder":2071,"##erte":2072,"##eland":2073,".,":2074,"Wil":2075,"fred":2076,"ob":2077,"##oren":2078,"forn":2079,"##sson":2080,"bø":2081,"sc":2082,"##mber":2083,"##aks":2084,"##lys":2085,"##urat":2086,"##tekt":2087,"stand":2088,"##ats":2089,"##året":2090,"##ivå":2091,"sønn":2092,"visste":2093,"møte":2094,"26":2095,"dår":2096,"leng":2097,"##gram":2098,"##our":2099,"##olle":2100,"##~~~~":2101,"aks":2102,"##oret":2103,"##partementet":2104,"effekt":2105,"##ink":2106,"skolen":2107,"unge":2108,"28":2109,"Før":2110,"Sver":2111,"##ose":2112,"##områ":2113,"sommer":2114,"##enten":2115,"##ommen":2116,"dersom":2117,"interes":2118,"hodet":2119,"##oss":2120,"##råk":2121,"prof":2122,"Stort":2123,"##akter":2124,"bruker":2125,"Hen":2126,"rad":2127,"##fall":2128,"##aller":2129,"##ommer":2130,"##fører":2131,"råd":2132,"føre":2133,"bu":2134,"##ron":2135,"##ening":2136,"##igheten":2137,"norm":2138,"hev":2139,"kam":2140,"pe":2141,"##fon":2142,"##drag":2143,"29":2144,"Dag":2145,"Hal":2146,"dyr":2147,"ring":2148,"ti":2149,"##ytte":2150,"##kkurat":2151,"inns":2152,"dager":2153,"egne":2154,"feil":2155,"mar":2156,"ol":2157,"##går":2158,"##port":2159,"##rasjon":2160,"##ivt":2161,"kjent":2162,"priv":2163,"##følge":2164,"dra":2165,"mør":2166,"##dene":2167,"##uer":2168,"stille":2169,"##ader":2170,"##stein":2171,"saken":2172,"##ou":2173,"##dt":2174,"##borg":2175,"##man":2176,"##ors":2177,"##inget":2178,"forteller":2179,"langs":2180,"synes":2181,"Under":2182,"##SA":2183,"##eleg":2184,"##ative":2185,"morgen":2186,"##handling":2187,"då":2188,"ful":2189,"##merik":2190,"svarte":2191,"tem":2192,"##ynd":2193,"menn":2194,"seier":2195,"Andre":2196,"lær":2197,"nasjon":2198,"##lemmer":2199,"ene":2200,"event":2201,"##ksomhet":2202,"Dan":2203,"con":2204,"##kn":2205,"##mar":2206,"##isert":2207,"##ograf":2208,"##ich":2209,"altså":2210,"produksjon":2211,"set":2212,"sub":2213,"##ta":2214,"##dan":2215,"##ES":2216,"forklar":2217,"fortsatt":2218,"Euro":2219,"Lu":2220,"Nei":2221,"mitt":2222,"sette":2223,"vurder":2224,"##uni":2225,"##ynene":2226,"barna":2227,"##ical":2228,"følge":2229,"##rit":2230,"##øn":2231,"##ase":2232,"##unnskap":2233,"##iktige":2234,"utenfor":2235,"have":2236,"marked":2237,"ab":2238,"ro":2239,"foran":2240,"selskap":2241,"peri":2242,"Gj":2243,"Kv":2244,"Kl":2245,"sann":2246,"tap":2247,"191":2248,"helse":2249,"##sette":2250,"Christ":2251,"ven":2252,"##ll":2253,"##uelle":2254,"##oden":2255,"sosi":2256,"hjemme":2257,"samfunn":2258,"Ma":2259,"kol":2260,"##ung":2261,"##ritt":2262,"forts":2263,"redus":2264,"He":2265,"Vest":2266,"co":2267,"ka":2268,"lære":2269,"##disjon":2270,"##byg":2271,"##anter":2272,"mine":2273,"pos":2274,"stre":2275,"##ivet":2276,"vanlig":2277,"Lars":2278,"Var":2279,"mott":2280,"pra":2281,"sentr":2282,"##fe":2283,"100":2284,"##ledes":2285,"Bru":2286,"Mart":2287,"dis":2288,"hu":2289,"tv":2290,"ves":2291,"##ote":2292,"app":2293,"bord":2294,"efter":2295,"fj":2296,"sagt":2297,"##kene":2298,"##qu":2299,"##orn":2300,"forl":2301,"seks":2302,"året":2303,"##føring":2304,"ganske":2305,"pub":2306,"øv":2307,"mai":2308,"snart":2309,"mannen":2310,"tekn":2311,"Ad":2312,"Kom":2313,"Pa":2314,"but":2315,"nem":2316,"tom":2317,"##dus":2318,"skip":2319,"##ikkert":2320,"##beide":2321,"enda":2322,"huset":2323,"internasjon":2324,"Trondheim":2325,"Pl":2326,"##lf":2327,"##ering":2328,"kommune":2329,"stedet":2330,"lo":2331,"send":2332,"##ved":2333,"##ogen":2334,"##IL":2335,"skje":2336,"rø":2337,"sær":2338,"##nal":2339,"##kret":2340,"##yst":2341,"##verd":2342,"vari":2343,"##ndag":2344,"##avt":2345,"minst":2346,"##deles":2347,"lys":2348,"represent":2349,"Par":2350,"Sv":2351,"fest":2352,"##rang":2353,"##orter":2354,"Arbeid":2355,"sjøl":2356,"##holder":2357,"Jan":2358,"kur":2359,"##fr":2360,"##iker":2361,"##ated":2362,"alvor":2363,"trenger":2364,"byen":2365,"tenkte":2366,"07":2367,"02":2368,"Hel":2369,"Ind":2370,"do":2371,"funnet":2372,"tallet":2373,"##gent":2374,"samtidig":2375,"løpet":2376,"pris":2377,"skjed":2378,"akkurat":2379,"pass":2380,"##stend":2381,"##esl":2382,"##okum":2383,"Stat":2384,"burde":2385,"høre":2386,"##ete":2387,"forf":2388,"ford":2389,"skol":2390,"barnet":2391,"##følg":2392,"spesielt":2393,"Sø":2394,"##bø":2395,"oppg":2396,"##indelse":2397,"støtte":2398,"##kurr":2399,"val":2400,"##lin":2401,"##ju":2402,"forst":2403,"skriver":2404,"kvinner":2405,"enkelt":2406,"Sh":2407,"Sør":2408,"kry":2409,"lin":2410,"##vern":2411,"##itte":2412,"Norges":2413,"Fred":2414,"Kon":2415,"disk":2416,"grø":2417,"pasi":2418,"##bud":2419,"##mte":2420,"alder":2421,"##ellen":2422,"født":2423,"Ole":2424,"##fin":2425,"##æn":2426,"Dei":2427,"mynd":2428,"uttrykk":2429,"fru":2430,"gull":2431,"sov":2432,"##ld":2433,"##inister":2434,"foreld":2435,"##ktur":2436,"try":2437,"lev":2438,"##ock":2439,"hjelpe":2440,"08":2441,"Me":2442,"Sl":2443,"mist":2444,"##øst":2445,"##ath":2446,"##lert":2447,"opplev":2448,"kontroll":2449,"ansikt":2450,"vise":2451,"direkte":2452,"09":2453,"Hus":2454,"finner":2455,"##menn":2456,"##stat":2457,"erfar":2458,"##ettet":2459,"##ittel":2460,"veien":2461,"##ammen":2462,"##huset":2463,"betydning":2464,"Høy":2465,"pa":2466,"prakt":2467,"psy":2468,"##ssk":2469,"##bok":2470,"##adet":2471,"uts":2472,"##ivid":2473,"tred":2474,"##ifter":2475,"##elefon":2476,"eget":2477,"øynene":2478,"##rom":2479,"##ris":2480,"##fold":2481,"##ON":2482,"##nev":2483,"##kkes":2484,"##entlige":2485,"##urt":2486,"gjeld":2487,"viste":2488,"kvinn":2489,"kjente":2490,"laget":2491,"juni":2492,"mel":2493,"##ood":2494,"##onn":2495,"omk":2496,"sterk":2497,"forbindelse":2498,"##snitt":2499,"Disse":2500,"sid":2501,"##aner":2502,"Ingen":2503,"Alt":2504,"Per":2505,"USA":2506,"ak":2507,"kunnskap":2508,"tør":2509,"medlem":2510,"##aget":2511,"hørte":2512,"Anna":2513,"New":2514,"Noen":2515,"Ty":2516,"navn":2517,"Øst":2518,"##øs":2519,"##giv":2520,"##lende":2521,"##AL":2522,"##iljø":2523,"from":2524,"vårt":2525,"John":2526,"sikkerhet":2527,"po":2528,"penger":2529,"rapp":2530,"tal":2531,"##ånd":2532,"##lar":2533,"##fra":2534,"##apir":2535,"##ftet":2536,"saa":2537,"##amma":2538,"Ho":2539,"ba":2540,"gift":2541,"##ple":2542,"##sa":2543,"gjer":2544,"##omme":2545,"blev":2546,"største":2547,"området":2548,"##istrikt":2549,"To":2550,"hol":2551,"rette":2552,"rask":2553,"##ante":2554,"##asje":2555,"blå":2556,"##landet":2557,"prins":2558,"this":2559,"legge":2560,"fekk":2561,"##stitusjon":2562,"Knut":2563,"hensyn":2564,"Over":2565,"dr":2566,"dram":2567,"vere":2568,"vest":2569,"##anser":2570,"utgang":2571,"kjør":2572,"forsvar":2573,"bestemt":2574,"##ebl":2575,"meld":2576,"punkt":2577,"##alder":2578,"##esk":2579,"oppr":2580,"vite":2581,"##setning":2582,"familien":2583,"lokal":2584,"stadig":2585,"32":2586,"##nr":2587,"##gra":2588,"##post":2589,"##fjord":2590,"##we":2591,"##aly":2592,"##skudd":2593,"spiller":2594,"hvem":2595,"syk":2596,"fylke":2597,"70":2598,"dro":2599,"relig":2600,"riktig":2601,"vert":2602,"##entene":2603,"beveg":2604,"##anten":2605,"##essuten":2606,"deler":2607,"grunnlag":2608,"vinter":2609,"informasjon":2610,"60":2611,"Co":2612,"##leis":2613,"energ":2614,"stod":2615,"skrive":2616,"##sminister":2617,"betyr":2618,"2015":2619,"Anne":2620,"##ologi":2621,"imot":2622,"God":2623,"ekte":2624,"fry":2625,"gutt":2626,"mater":2627,"##ps":2628,"##vå":2629,"##uder":2630,"dermed":2631,"##ice":2632,"brukes":2633,"AS":2634,"lange":2635,"och":2636,"sent":2637,"##iz":2638,"##ius":2639,"eldre":2640,"##avnet":2641,"##serv":2642,"##ersom":2643,"Olav":2644,"nærmere":2645,"millioner":2646,"Ein":2647,"Jes":2648,"brø":2649,"sikkert":2650,"was":2651,"##nem":2652,"##atten":2653,"##lege":2654,"Eng":2655,"hvorfor":2656,"lyst":2657,"mill":2658,"Foto":2659,",.":2660,"Erik":2661,"Finn":2662,"mis":2663,"ses":2664,"tor":2665,"##hen":2666,"##bu":2667,"forut":2668,"avd":2669,"##ppe":2670,"utg":2671,"##ligere":2672,"##ften":2673,"reise":2674,"##sport":2675,"##endom":2676,"Inge":2677,"tradisjon":2678,"tenke":2679,"kirke":2680,"##ight":2681,"80":2682,"aut":2683,"ditt":2684,"ide":2685,"rolle":2686,"tyd":2687,"##imm":2688,"##hed":2689,"##rest":2690,"##ulle":2691,"##ksis":2692,"industri":2693,"borte":2694,"juli":2695,"90":2696,"Fl":2697,"Nil":2698,"aug":2699,"bolig":2700,"kast":2701,"lille":2702,"##nte":2703,"##gte":2704,"##RK":2705,"##uld":2706,"##ighetene":2707,"følgende":2708,"sjå":2709,"##nader":2710,"folke":2711,"slags":2712,"##aen":2713,"avgjør":2714,"##ital":2715,"måten":2716,"##deling":2717,"politiet":2718,"##arbeidet":2719,"måned":2720,"Dersom":2721,"fjell":2722,"tot":2723,"##ST":2724,"##usen":2725,"opprett":2726,"##istisk":2727,"##late":2728,"besl":2729,"kommunen":2730,"tilfelle":2731,"naturlig":2732,"innenfor":2733,"ferdig":2734,"posit":2735,"Kir":2736,"na":2737,"##kjø":2738,"##AT":2739,"stopp":2740,"##rum":2741,"##visning":2742,"regn":2743,"kjenner":2744,"##duksjon":2745,"personer":2746,"Mange":2747,"én":2748,"##20":2749,"##atene":2750,"190":2751,"overfor":2752,"øyebl":2753,"##minist":2754,"##................":2755,"Kr":2756,"No":2757,"um":2758,"##rige":2759,"##meld":2760,"##anu":2761,"avsl":2762,"##engt":2763,"##erson":2764,"##ifte":2765,"33":2766,"Sy":2767,"grav":2768,"job":2769,"kli":2770,"##ias":2771,"##RE":2772,"##erv":2773,"##ork":2774,"##edag":2775,"##isere":2776,"helst":2777,"kvinne":2778,"forsv":2779,"##isjonen":2780,"time":2781,"Fin":2782,"Land":2783,"dam":2784,"drø":2785,"lot":2786,"oper":2787,"##AG":2788,"##iler":2789,"tilsvar":2790,"##lemer":2791,"##sset":2792,".\"\"\"":2793,"politiske":2794,"snakke":2795,"psyk":2796,"TV":2797,"pri":2798,"##øte":2799,"##nå":2800,"##holde":2801,"##orer":2802,"##anc":2803,"##bef":2804,"konkurr":2805,"region":2806,"bygge":2807,"##somt":2808,"funksjon":2809,"barneh":2810,"##ses":2811,"##ese":2812,"##ktør":2813,"##ffer":2814,"188":2815,"189":2816,"##reds":2817,"Også":2818,"interess":2819,"ansatte":2820,"omkring":2821,"47":2822,"Peder":2823,"røy":2824,"ud":2825,"##sorg":2826,"##TB":2827,"foreg":2828,"##atisk":2829,"##vere":2830,"##angen":2831,"##rifter":2832,"##attet":2833,"følger":2834,"Berg":2835,"Anders":2836,"Kj":2837,"Ta":2838,"Ver":2839,"apr":2840,"mig":2841,"##gar":2842,"##valg":2843,"##stet":2844,"skyld":2845,"##unnen":2846,"kvalitet":2847,"##essig":2848,"##essur":2849,"Hvordan":2850,"##ations":2851,"knyttet":2852,"##synlig":2853,"Ge":2854,"Mo":2855,"fer":2856,"fart":2857,"stund":2858,"stilling":2859,"ang":2860,"real":2861,"vekt":2862,"Seiv":2863,"aktivitet":2864,"hånden":2865,"dokum":2866,"fug":2867,"mars":2868,"tø":2869,"##pos":2870,"##ach":2871,"##DE":2872,"##anken":2873,"foresl":2874,"bevis":2875,"##undet":2876,"krit":2877,"##hengig":2878,"prøv":2879,"retning":2880,"36":2881,"krist":2882,"makt":2883,"nøy":2884,"etab":2885,"slo":2886,"Stortinget":2887,"grå":2888,"tun":2889,"vore":2890,"ytter":2891,"##SS":2892,"##cc":2893,"##ance":2894,"##rike":2895,"alene":2896,"##ikkel":2897,"##yggen":2898,"klare":2899,"183":2900,"2016":2901,"midt":2902,"snakket":2903,"faktisk":2904,"bidra":2905,"tredje":2906,"37":2907,"Sj":2908,"##øv":2909,"##otter":2910,"##sst":2911,"##sut":2912,"##uter":2913,"##unde":2914,"skog":2915,"kompet":2916,"handling":2917,"menneske":2918,"Derfor":2919,"Johan":2920,"Paul":2921,"Hå":2922,"Sand":2923,"hum":2924,"lar":2925,"rød":2926,"ul":2927,"##hør":2928,"høyt":2929,"bestemm":2930,"egentlig":2931,"##ack":2932,"##ivers":2933,"##ptember":2934,"Kan":2935,"elekt":2936,"fiske":2937,"##kast":2938,"##uelt":2939,"##unst":2940,"##esjon":2941,"samlet":2942,"treng":2943,"##trol":2944,"faren":2945,"##ING":2946,"75":2947,"Ola":2948,"Sm":2949,"##ukt":2950,"##hav":2951,"##æl":2952,"##orte":2953,"##ørdag":2954,"blei":2955,"års":2956,"tryg":2957,"lønn":2958,"Sverige":2959,"holder":2960,"utgangspunkt":2961,"39":2962,"46":2963,"Beg":2964,"Sch":2965,"bo":2966,"rik":2967,"teg":2968,"ur":2969,"und":2970,"##enser":2971,"##spekt":2972,"##ime":2973,"produs":2974,"##bruks":2975,"interv":2976,"berre":2977,"meir":2978,"timer":2979,"Gunn":2980,"amerik":2981,"gul":2982,"hjer":2983,"##hel":2984,"avg":2985,"sky":2986,"undersøk":2987,"verdens":2988,"næring":2989,"sju":2990,"folket":2991,"familie":2992,"Kansk":2993,"bod":2994,"hende":2995,"tvil":2996,"utford":2997,"vist":2998,"september":2999,"kjærlig":3000,"gangen":3001,"##amme":3002,"##gangen":3003,"virke":3004,"åpnet":3005,"nevnt":3006,"Bjørn":3007,"tydelig":3008,"april":3009,"Kanskje":3010,"ko":3011,"kart":3012,"ressur":3013,"voks":3014,"##stid":3015,"##ress":3016,"##ents":3017,"kva":3018,"regel":3019,"endring":3020,"bilen":3021,"bakgrunn":3022,"lese":3023,"##eløp":3024,"Dav":3025,"Kap":3026,"bi":3027,"tall":3028,"vant":3029,"##vin":3030,"stoff":3031,"##kkelig":3032,"2018":3033,"mask":3034,"nettopp":3035,"musikk":3036,"##genting":3037,"Ed":3038,"gro":3039,"ren":3040,"ras":3041,"##polit":3042,"##elsk":3043,"##ktet":3044,"##aksjon":3045,"##forsk":3046,"##mmelig":3047,"slikt":3048,"ref":3049,"konse":3050,"##able":3051,"løp":3052,"fremst":3053,"Frank":3054,"##ativt":3055,"ungdom":3056,"sosial":3057,"##ås":3058,"##ues":3059,"##ongen":3060,"strå":3061,"medlemmer":3062,"##ivil":3063,"##enske":3064,"anled":3065,"187":3066,"fortelle":3067,"ennå":3068,"viktigste":3069,"glad":3070,"##løs":3071,"##mannen":3072,"##grep":3073,"behandling":3074,"praksis":3075,"34":3076,"Kor":3077,"Mer":3078,"dig":3079,"krev":3080,"kamp":3081,"sende":3082,"uke":3083,"vok":3084,"##okken":3085,"##kår":3086,"##sagt":3087,"##oder":3088,"##ally":3089,"##osof":3090,"kunde":3091,"##ember":3092,"håper":3093,"Ale":3094,"Ned":3095,"ST":3096,"gav":3097,"has":3098,"ventet":3099,"##fly":3100,"##inen":3101,"##ata":3102,"deb":3103,"innhold":3104,"##annes":3105,"##ions":3106,"##legget":3107,"##uttet":3108,"##riften":3109,"hvilke":3110,"Europa":3111,"Bir":3112,"Polit":3113,"Vær":3114,"fyr":3115,"meter":3116,"pol":3117,"##rende":3118,"##grupp":3119,"##sikt":3120,"##fte":3121,"##stoff":3122,"##ård":3123,"oppdag":3124,"2017":3125,"Char":3126,"ekstra":3127,"administ":3128,"sikre":3129,"Hvorfor":3130,"##utselig":3131,"!.":3132,"Car":3133,"Ev":3134,"Is":3135,"Min":3136,"km":3137,"nø":3138,"satte":3139,"tett":3140,"viktige":3141,"##kar":3142,"##bil":3143,"##bord":3144,"##stene":3145,"##departementet":3146,"##etten":3147,"oppe":3148,"sek":3149,"topp":3150,"185":3151,"sammenheng":3152,"straff":3153,"-.":3154,"Sig":3155,"Tid":3156,"we":3157,"##mor":3158,"##mene":3159,"tilp":3160,"##ikere":3161,"steder":3162,"altern":3163,"##aken":3164,"##altning":3165,"legger":3166,"tross":3167,"fullt":3168,"lokale":3169,"dårlig":3170,"(=":3171,"04":3172,"Bare":3173,"Slik":3174,"sal":3175,"##uen":3176,"##ely":3177,"mente":3178,"selskapet":3179,"begrens":3180,"følte":3181,"visst":3182,"sterke":3183,"End":3184,"fir":3185,"##rar":3186,"##king":3187,"##uft":3188,"##OT":3189,"##ori":3190,"stol":3191,"ska":3192,"##stemm":3193,"opplys":3194,"bereg":3195,"Eller":3196,"hvilken":3197,"Ab":3198,"Verd":3199,"idet":3200,"kil":3201,"prim":3202,"åpen":3203,"øst":3204,"##nne":3205,"##vann":3206,"##met":3207,"##enfor":3208,"##atn":3209,"spe":3210,"reiste":3211,"##ogn":3212,"##ugh":3213,"fremdeles":3214,"##kjent":3215,"fotball":3216,"raskt":3217,"øyeblikk":3218,"):":3219,"Lar":3220,"My":3221,"Tlf":3222,"fys":3223,"##rid":3224,"##ående":3225,"##ton":3226,"##ding":3227,"##eth":3228,"skade":3229,"##æren":3230,"oppnå":3231,"##ellet":3232,"tran":3233,"##iserte":3234,"tilbud":3235,"Regi":3236,"data":3237,"interesse":3238,"sosiale":3239,"beslut":3240,"500":3241,"Te":3242,"Vel":3243,"bred":3244,"janu":3245,"ris":3246,"##OL":3247,"##KK":3248,"saman":3249,"##imot":3250,"##abil":3251,"##ringen":3252,"leve":3253,"merke":3254,"takk":3255,"1995":3256,"##middel":3257,"##iteen":3258,"fremm":3259,"måneder":3260,"januar":3261,"Ap":3262,"Fort":3263,"Hed":3264,"Ham":3265,"Jens":3266,"Mon":3267,"fi":3268,"mand":3269,"telefon":3270,"##kraft":3271,"##sty":3272,"##omen":3273,"##okus":3274,"##øyd":3275,"ønsket":3276,"##aldt":3277,"Hø":3278,"døren":3279,"em":3280,"lærer":3281,"papp":3282,"##ph":3283,"##th":3284,"##kende":3285,"##usk":3286,"##bart":3287,"##egg":3288,"##skole":3289,"##rud":3290,"##engene":3291,"184":3292,"186":3293,"bygg":3294,"Selv":3295,"Jul":3296,"Vil":3297,"fang":3298,"gis":3299,"hind":3300,"##pon":3301,"##punkt":3302,"##åt":3303,"##sc":3304,"##sjekt":3305,"##ua":3306,"##hver":3307,"##elag":3308,"fordel":3309,"##isa":3310,"utstyr":3311,"inntekt":3312,"##isten":3313,"##ick":3314,"##bruket":3315,"##ational":3316,"organ":3317,"sterkt":3318,"historie":3319,"##føres":3320,"situasjon":3321,"privat":3322,"41":3323,"Vid":3324,"eier":3325,"heter":3326,"himm":3327,"nei":3328,"rus":3329,"rest":3330,"so":3331,"##IT":3332,"##ign":3333,"ingenting":3334,"Dem":3335,"##retning":3336,"arbeider":3337,"##stillingen":3338,"##ollen":3339,"Arne":3340,"##iftet":3341,"2002":3342,"gruppe":3343,"skape":3344,"nemlig":3345,"Kong":3346,"Rom":3347,"kje":3348,"mamma":3349,"rommet":3350,"Øy":3351,"##inter":3352,"##isme":3353,"181":3354,"##skaper":3355,"##abr":3356,"##ubb":3357,"noko":3358,"##slaget":3359,"stemme":3360,"setter":3361,"trodde":3362,"ønske":3363,"inneb":3364,"antall":3365,"problemer":3366,"regjering":3367,"budsj":3368,"kroppen":3369,"sjølv":3370,"august":3371,"Ba":3372,"Bro":3373,"Odd":3374,"Ul":3375,"rim":3376,"strø":3377,"skar":3378,"utover":3379,"slå":3380,"##yret":3381,"tenkt":3382,"##standen":3383,"havde":3384,"Bergen":3385,"general":3386,"fjor":3387,"##stendig":3388,"prinsipp":3389,"42":3390,"Lø":3391,"Like":3392,"Mor":3393,"Mot":3394,"kvar":3395,"ånd":3396,"##iar":3397,"##ace":3398,"##full":3399,"##mat":3400,"##stjene":3401,"påvir":3402,"opptatt":3403,"minutter":3404,"dagens":3405,"leil":3406,"milit":3407,"politisk":3408,"traf":3409,"##plass":3410,"tilsvarende":3411,"Bra":3412,"Cl":3413,"Far":3414,"gen":3415,"løy":3416,"ry":3417,"vit":3418,"##tok":3419,"##enne":3420,"##iger":3421,"engang":3422,"##pper":3423,"ellers":3424,"ark":3425,"1997":3426,"##bruar":3427,"forbi":3428,"offentlige":3429,"Gjennom":3430,"venstre":3431,"Mid":3432,"Sn":3433,"ifølge":3434,"mag":3435,"nivå":3436,"pot":3437,"vak":3438,"##ther":3439,"##aste":3440,"##olv":3441,"vare":3442,"##rib":3443,"ann":3444,"ført":3445,"##vem":3446,"blod":3447,"##dagen":3448,"forsik":3449,"møter":3450,"individ":3451,"spørsmålet":3452,"Bil":3453,"Lille":3454,"ag":3455,"tab":3456,"ødel":3457,"##øse":3458,"##ystem":3459,"##mod":3460,"##mål":3461,"##ikter":3462,"##enta":3463,"##urnal":3464,"inntil":3465,"språk":3466,"hundre":3467,"##tiden":3468,"spesial":3469,"##valget":3470,"fortsatte":3471,"..":3472,"Mal":3473,"Rob":3474,"eig":3475,"År":3476,"##so":3477,"##sbe":3478,"##aus":3479,"##fest":3480,"##folk":3481,"##bjør":3482,"##edie":3483,"enten":3484,"##itu":3485,"utdan":3486,"##\"\"\"\"":3487,"slett":3488,"held":3489,"arbeide":3490,"blom":3491,"høyere":3492,"##kont":3493,"eksp":3494,"skjønn":3495,"regjeringen":3496,"internasjonale":3497,"38":3498,"Lang":3499,"NTB":3500,"ass":3501,"bel":3502,"brev":3503,"kat":3504,"okt":3505,"##gene":3506,"##uell":3507,"##zz":3508,"##arden":3509,"anlegg":3510,"mening":3511,"##hetene":3512,"sitter":3513,"klass":3514,"180":3515,"kval":3516,"mykje":3517,"##legging":3518,"All":3519,"søk":3520,"søndag":3521,"besøk":3522,"Olsen":3523,"straks":3524,"##partiet":3525,"Stein":3526,"publik":3527,"skjedde":3528,"Tysk":3529,"David":3530,"Bj":3531,"Jør":3532,"Peter":3533,"Sim":3534,"jern":3535,"nab":3536,"åtte":3537,"##dere":3538,"##bare":3539,"##SK":3540,"##ense":3541,"##skolen":3542,"##kkel":3543,"oppl":3544,"oppgå":3545,"vedtak":3546,"rev":3547,"daglig":3548,"tenker":3549,"februar":3550,"prøve":3551,"sannsynlig":3552,"Liv":3553,"Ven":3554,"kin":3555,"ple":3556,"salg":3557,"tyn":3558,"venner":3559,"økt":3560,"##ns":3561,"stil":3562,"inc":3563,"##ita":3564,"datter":3565,"regler":3566,"##ubben":3567,"endelig":3568,"hører":3569,"områder":3570,"elevene":3571,"Danmark":3572,"Jesus":3573,"##edagog":3574,"99":3575,"As":3576,"Bo":3577,"Figur":3578,"Gl":3579,"Sve":3580,"ke":3581,"##nær":3582,"##sid":3583,"##mus":3584,"##OM":3585,"##AD":3586,"##ary":3587,"forand":3588,"##isin":3589,"##ørsm":3590,"##akten":3591,"fortalte":3592,"##delingen":3593,"##stilt":3594,"stemmer":3595,"flykt":3596,"slutten":3597,"Guds":3598,"Karl":3599,"kostnad":3600,"##samling":3601,"startet":3602,"##følgelig":3603,"konsekv":3604,"73":3605,"Sc":3606,"neg":3607,"sat":3608,"yn":3609,"##mo":3610,"##une":3611,"star":3612,"##skj":3613,"spille":3614,"sektor":3615,"##ffet":3616,"plutselig":3617,"arbeids":3618,"brann":3619,"besø":3620,"møtte":3621,"vera":3622,"Johannes":3623,"##haug":3624,"tilfreds":3625,"desember":3626,"prest":3627,"befolk":3628,"garden":3629,"hendene":3630,"kompetanse":3631,"Fol":3632,"PR":3633,"vold":3634,"##svis":3635,"##enk":3636,"##aling":3637,"tilsyn":3638,"skyl":3639,"##lic":3640,"##urer":3641,"oppmer":3642,"innt":3643,"##istiske":3644,"##industri":3645,"fint":3646,"bildet":3647,"virket":3648,"område":3649,"integ":3650,"situasjonen":3651,"bekym":3652,"opprinn":3653,"Su":3654,"Tre":3655,"ge":3656,"mob":3657,"passer":3658,"sant":3659,"##blem":3660,"##enning":3661,"##ish":3662,"##ident":3663,"institusjon":3664,"same":3665,"##irsdag":3666,"førte":3667,"##jøre":3668,"##ending":3669,"nyheter":3670,"reguler":3671,"##iserer":3672,"##vikling":3673,"finans":3674,"virksomhet":3675,"styrke":3676,"liker":3677,"Samtidig":3678,"økonomiske":3679,"ident":3680,"sendt":3681,"51":3682,"Folk":3683,"Kommun":3684,"Morg":3685,"OG":3686,"dine":3687,"grat":3688,"hy":3689,"mon":3690,"sist":3691,"##gn":3692,"##kost":3693,"##dra":3694,"##hild":3695,"forh":3696,"##alle":3697,"##ska":3698,"oppst":3699,"##ansett":3700,"ordet":3701,"preg":3702,"bygget":3703,"viss":3704,"eksport":3705,"begynner":3706,"##løp":3707,"midler":3708,"øyne":3709,"1970":3710,"omfatt":3711,"kjærlighet":3712,"II":3713,"Kol":3714,"fokus":3715,"lav":3716,"test":3717,"vent":3718,"##yen":3719,"##ND":3720,"stru":3721,"stir":3722,"##atning":3723,"skikk":3724,"skrev":3725,"varme":3726,"alm":3727,"##forb":3728,"##udde":3729,"Hansen":3730,"##veien":3731,"##rateg":3732,"kjøkken":3733,"flytte":3734,"Regjer":3735,"økonomisk":3736,"Ei":3737,"figur":3738,"ir":3739,"kalt":3740,"sang":3741,"sider":3742,"##SEN":3743,"##edal":3744,"##aland":3745,"##ikasjon":3746,"##ame":3747,"##verket":3748,"omsorg":3749,"innb":3750,"##ennende":3751,"2000":3752,"##ølv":3753,"182":3754,"##eltet":3755,"##entral":3756,"##kommende":3757,"film":3758,"filosof":3759,"karakter":3760,"krever":3761,"krigen":3762,"Tyskland":3763,"95":3764,"Aker":3765,"Ka":3766,"Mad":3767,"Mark":3768,"NRK":3769,"Sa":3770,"ah":3771,"dog":3772,"hot":3773,"mere":3774,"opt":3775,"slekt":3776,"uav":3777,"vente":3778,"##vene":3779,"##kant":3780,"##ensk":3781,"##alet":3782,"##ppet":3783,"##ition":3784,"varm":3785,"##ander":3786,"##utte":3787,"kjære":3788,"178":3789,"##trent":3790,"##plan":3791,"Trom":3792,"saker":3793,"organisasjon":3794,"resultat":3795,"natten":3796,"Martin":3797,"Bor":3798,"Ph":3799,"Vår":3800,"gud":3801,"uv":3802,"uh":3803,"##åd":3804,"##vist":3805,"##lede":3806,"##kninger":3807,"##bry":3808,"##KT":3809,"skrevet":3810,"##ric":3811,"##rådet":3812,"##ustr":3813,"##irektor":3814,"1999":3815,"1992":3816,"redd":3817,"unna":3818,"present":3819,"valgt":3820,"kvelden":3821,"prosjektet":3822,"foreldre":3823,"Magn":3824,"Natt":3825,"Vik":3826,"flert":3827,"kyr":3828,"tas":3829,"##lemm":3830,"##skip":3831,"##asjer":3832,"##its":3833,"##aven":3834,"rek":3835,"##allen":3836,"\"\"\"\".":3837,"snudde":3838,"mulighet":3839,"inneholder":3840,"Christian":3841,"Fil":3842,"Gun":3843,"Hau":3844,"Ra":3845,"Res":3846,"Uten":3847,"bus":3848,"cm":3849,"fatt":3850,"kjer":3851,"navnet":3852,"slipp":3853,"tj":3854,"##po":3855,"##mon":3856,"skriv":3857,"defin":3858,"##annet":3859,"##okrat":3860,"##innet":3861,"##vei":3862,"brukte":3863,"betrakt":3864,"smilte":3865,"forsøk":3866,"##laget":3867,"1996":3868,"bilder":3869,"virker":3870,"syntes":3871,"##itenskap":3872,"betydelig":3873,"Kristi":3874,"##barn":3875,"tjeneste":3876,"fulgte":3877,"##OTO":3878,"innebærer":3879,",-":3880,"48":3881,"Bå":3882,"FN":3883,"Hvem":3884,"Lund":3885,"elever":3886,"hit":3887,"rop":3888,"##ix":3889,"##iel":3890,"##ving":3891,"##leder":3892,"##inde":3893,"##amer":3894,"arrang":3895,"##anset":3896,"##gjeng":3897,"##ober":3898,"##asset":3899,"##holdt":3900,"lyd":3901,"1993":3902,"2001":3903,"handler":3904,"består":3905,"##parten":3906,"which":3907,"religion":3908,"65":3909,"tale":3910,"uly":3911,"va":3912,"##US":3913,"##urg":3914,"overra":3915,"kong":3916,"##ica":3917,"understre":3918,"Forsk":3919,"1994":3920,"bilde":3921,"formid":3922,"snø":3923,"stats":3924,"##vilg":3925,"åpne":3926,"sykehus":3927,"Jak":3928,"sjef":3929,"##kap":3930,"##eres":3931,"##inal":3932,"##inder":3933,"##leve":3934,"skre":3935,"omt":3936,"##iven":3937,"##lighet":3938,"##sser":3939,"fører":3940,"nytte":3941,"klasse":3942,"retten":3943,"##opul":3944,"velger":3945,"forskjell":3946,"legges":3947,"##kjed":3948,"##produksjon":3949,"tekst":3950,"##ksomheten":3951,"føler":3952,"olje":3953,"nasjonal":3954,"EU":3955,"Fro":3956,"au":3957,"dist":3958,"##nene":3959,"##nende":3960,"##EG":3961,"##ED":3962,"##ana":3963,"##stol":3964,"##ome":3965,"##onen":3966,"##onde":3967,"skrift":3968,"hardt":3969,"gjeng":3970,"henhold":3971,"##essige":3972,"176":3973,"gjennomsnitt":3974,"##førte":3975,"##enterer":3976,"1990":3977,"vidt":3978,"##ologisk":3979,"uttry":3980,"hørt":3981,"1945":3982,"anledning":3983,");":3984,"61":3985,"67":3986,"Af":3987,"dør":3988,"dikt":3989,"ra":3990,"rør":3991,"uker":3992,"##vensjon":3993,"##sav":3994,"##siden":3995,"##fag":3996,"##ms":3997,"##eri":3998,"##stø":3999,"##forhold":4000,"##spill":4001,"konkret":4002,"##vare":4003,"motor":4004,"tida":4005,"brit":4006,"endringer":4007,"gjøres":4008,"verk":4009,"##ikkerhet":4010,"##sdtr":4011,"offentlig":4012,"tanker":4013,"Andersen":4014,"private":4015,"kastet":4016,"Alex":4017,"Ga":4018,"Part":4019,"Petter":4020,"Tom":4021,"driv":4022,"euro":4023,"gli":4024,"gard":4025,"lørdag":4026,"##drene":4027,"##hund":4028,"##ces":4029,"##anke":4030,"##ismen":4031,"##ika":4032,"##atr":4033,"omtrent":4034,"utan":4035,"##lie":4036,"sånn":4037,"##ove":4038,"##ygge":4039,"konge":4040,"##varet":4041,"##peratur":4042,"\"\"\"\",":4043,"kommuner":4044,"trakk":4045,"størr":4046,"respe":4047,"Marie":4048,"forholdet":4049,"##ause":4050,"Harald":4051,"produkt":4052,"tanke":4053,"hjert":4054,"avtale":4055,"interesser":4056,"vesentlig":4057,"Statens":4058,"ansiktet":4059,"erfaring":4060,"prior":4061,"Gunnar":4062,"publikum":4063,".:":4064,"71":4065,"Dessuten":4066,"Rø":4067,"VM":4068,"distrikt":4069,"ky":4070,"kne":4071,"port":4072,"papir":4073,"ru":4074,"tår":4075,"tank":4076,"yr":4077,"##vok":4078,"##jet":4079,"##ID":4080,"forest":4081,"##alsk":4082,"##ampen":4083,"##skur":4084,"inkl":4085,"##kka":4086,"anbef":4087,"innk":4088,"##apt":4089,"spor":4090,"hvite":4091,"reiser":4092,"##ement":4093,"##abel":4094,"179":4095,"##bruker":4096,"eiendom":4097,"##ENS":4098,"strand":4099,"risik":4100,"69":4101,"Hoved":4102,"On":4103,"jf":4104,"##reng":4105,"##itter":4106,"##ham":4107,"##histor":4108,"##PP":4109,"##AS":4110,"##ege":4111,"##als":4112,"##agelig":4113,"##angel":4114,"nove":4115,"reis":4116,"##spart":4117,"##spolit":4118,"##smannen":4119,"##ieren":4120,"høye":4121,"staten":4122,"kapittel":4123,"samfunnet":4124,"styre":4125,"##vesen":4126,"##område":4127,"Arbeider":4128,"Isra":4129,"november":4130,"91":4131,"Ib":4132,"Jac":4133,"Lond":4134,"drive":4135,"sve":4136,"tegn":4137,"up":4138,"visse":4139,"Øv":4140,"##nere":4141,"##ykke":4142,"##edd":4143,"##skog":4144,"##skyld":4145,"skogen":4146,"anna":4147,"spilte":4148,"they":4149,"trans":4150,"lage":4151,"bildene":4152,"##stander":4153,"flyttet":4154,"1988":4155,"relativt":4156,"areal":4157,"vindu":4158,"kampen":4159,"alvorlig":4160,"England":4161,"FOTO":4162,"Kina":4163,"Må":4164,"Vå":4165,"hest":4166,"hopp":4167,"mun":4168,"muse":4169,"tri":4170,"##rør":4171,"##vand":4172,"##fyl":4173,"##igt":4174,"##leik":4175,"erstat":4176,"##ams":4177,"##fort":4178,"vilde":4179,"hvit":4180,"##serie":4181,"##antene":4182,"plasser":4183,"blikk":4184,"Norw":4185,"forskning":4186,"Ant":4187,"1989":4188,"middel":4189,"borger":4190,"grupper":4191,"##værende":4192,"tjenester":4193,"stående":4194,"sentrum":4195,"Nils":4196,"400":4197,"87":4198,"Ag":4199,"Ford":4200,"It":4201,"Ni":4202,"SV":4203,"We":4204,"bal":4205,"nede":4206,"sur":4207,"##nelsen":4208,"##gel":4209,"##åp":4210,"##vest":4211,"##selen":4212,"##fil":4213,"##mes":4214,"##ena":4215,"##anlegg":4216,"enhver":4217,"##ikke":4218,"dekket":4219,"opply":4220,"been":4221,"##istrer":4222,"deretter":4223,"##jøen":4224,"undersø":4225,"##plassen":4226,"eksister":4227,"##naden":4228,"snakker":4229,"klarte":4230,"unngå":4231,"##stitutt":4232,"invester":4233,"jobben":4234,"aksje":4235,"86":4236,"Grø":4237,"amb":4238,"meste":4239,"pust":4240,"##ear":4241,"##rand":4242,"##ielle":4243,"##gl":4244,"##vs":4245,"##hjel":4246,"##yre":4247,"##ingar":4248,"tils":4249,"##aske":4250,"slapp":4251,"slått":4252,"sein":4253,"åringen":4254,"årsak":4255,"program":4256,"##gjort":4257,"fortsette":4258,"##bered":4259,"selve":4260,"Skal":4261,"svenske":4262,"Hvil":4263,"##cts":4264,"båt":4265,"nærings":4266,"bestemte":4267,"muligheter":4268,"sjeld":4269,"utviklet":4270,"journal":4271,"Sport":4272,"presse":4273,"spesielle":4274,"basert":4275,"bekre":4276,"bodde":4277,"voksne":4278,"omfattende":4279,"44":4280,"58":4281,"Nr":4282,"Sal":4283,"bære":4284,"fas":4285,"kob":4286,"prem":4287,"ryggen":4288,"sikt":4289,"ww":4290,"were":4291,"##fart":4292,"##AM":4293,"##orm":4294,"avhengig":4295,"##ives":4296,"inngå":4297,"##elighet":4298,"177":4299,"vekk":4300,"##klare":4301,"smil":4302,"2014":4303,"høyre":4304,"more":4305,"##overn":4306,"bygd":4307,"2005":4308,"kjøpte":4309,"##yttes":4310,"mistet":4311,"torsdag":4312,"alternativ":4313,"oktober":4314,"www":4315,"98":4316,"Fyl":4317,"Gre":4318,"Pr":4319,"gled":4320,"hil":4321,"il":4322,"nikket":4323,"pensjon":4324,"sje":4325,"##iale":4326,"##fug":4327,"##hvert":4328,"##EM":4329,"##illet":4330,"##edes":4331,"##olusjon":4332,"steg":4333,"stjer":4334,"##ulig":4335,"opplever":4336,"##rimin":4337,"##otte":4338,"slår":4339,"trygg":4340,"progra":4341,"300":4342,"##iteten":4343,"rettet":4344,"svart":4345,"##ollene":4346,"beskjed":4347,"may":4348,"bedrift":4349,"##ologiske":4350,"loven":4351,"korn":4352,"##kommen":4353,"kalles":4354,"##istrert":4355,"sommeren":4356,"fortsetter":4357,"bordet":4358,"Venstre":4359,"93":4360,"92":4361,"Gener":4362,"Pres":4363,"Syn":4364,"Trø":4365,"Ve":4366,"cont":4367,"falt":4368,"one":4369,"ufor":4370,"vakt":4371,"##sreg":4372,"##ual":4373,"detal":4374,"skatt":4375,"indre":4376,"##asj":4377,"utd":4378,"innstilling":4379,"samsvar":4380,"såk":4381,"##varer":4382,"##ogg":4383,"tider":4384,"trekke":4385,"moderne":4386,"hjemm":4387,"Først":4388,"Henry":4389,"energi":4390,"transport":4391,"Jakob":4392,"97":4393,"Ifølge":4394,"Kjell":4395,"Mens":4396,"act":4397,"bøl":4398,"hår":4399,"other":4400,"tusen":4401,"åt":4402,"##pan":4403,"##ko":4404,"##kir":4405,"##OK":4406,"##cy":4407,"##enen":4408,"medisin":4409,"skritt":4410,"inst":4411,"dens":4412,"##andid":4413,"##rip":4414,"##sending":4415,"sport":4416,"##ssjef":4417,"##linger":4418,"##spe":4419,"##rette":4420,"skulde":4421,"begre":4422,"arbeidspl":4423,".\"\"\"\"":4424,"Ing":4425,"2013":4426,"søke":4427,"selvsagt":4428,"heile":4429,"##iteens":4430,"fotograf":4431,"Rosen":4432,"##bladet":4433,"engelsk":4434,"##bygging":4435,"Haug":4436,"lengre":4437,"eventuelt":4438,"periode":4439,"skjedd":4440,"akse":4441,"material":4442,"bevisst":4443,"prøvde":4444,"pappa":4445,"budsjett":4446,"Magnus":4447,"Famil":4448,"Hver":4449,"Kjø":4450,"Lind":4451,"cons":4452,"##rede":4453,"##lo":4454,"##sberg":4455,"##LI":4456,"##NE":4457,"##eningen":4458,"##ora":4459,"##arar":4460,"##eler":4461,"##sta":4462,"fork":4463,"##olf":4464,"sku":4465,"##ærne":4466,"eld":4467,"##smessig":4468,"tidspunkt":4469,"2003":4470,"stein":4471,"##sdatter":4472,"invit":4473,"import":4474,"redusere":4475,"forstår":4476,"trykk":4477,"levende":4478,"ytterligere":4479,"London":4480,"Bu":4481,"Tur":4482,"am":4483,"bro":4484,"driver":4485,"dessuten":4486,"pengene":4487,"popul":4488,"resten":4489,"##gje":4490,"##sol":4491,"##bin":4492,"##beg":4493,"##).":4494,"##strøm":4495,"##unne":4496,"##rad":4497,"##olum":4498,"##skl":4499,"utb":4500,"utsk":4501,"also":4502,"##vise":4503,"173":4504,"175":4505,"serv":4506,"formål":4507,"lavere":4508,"selvfølgelig":4509,"mennesket":4510,"styret":4511,"unntak":4512,"##okka":4513,"løsning":4514,"subst":4515,"jobber":4516,"utdanning":4517,"##overnment":4518,"43":4519,"53":4520,"88":4521,"Amerik":4522,"Siden":4523,"ban":4524,"lavt":4525,"out":4526,"pedagog":4527,"sjel":4528,"vers":4529,"##vende":4530,"##kor":4531,"##jeld":4532,"##høy":4533,"##AV":4534,"##arane":4535,"##alske":4536,"##essen":4537,"stiller":4538,"##skommun":4539,"instru":4540,"anner":4541,"analy":4542,"meng":4543,"vilkår":4544,"hvad":4545,"oversk":4546,"##yrk":4547,"blikket":4548,"betale":4549,"formann":4550,"kjøp":4551,"ligge":4552,"type":4553,"dyp":4554,"desse":4555,"romant":4556,"kraftig":4557,"kreve":4558,"artikkel":4559,"kurs":4560,"##våg":4561,"Frankrike":4562,"rimelig":4563,"skyldes":4564,"##irektoratet":4565,"Både":4566,"annerledes":4567,"85":4568,"82":4569,"Hj":4570,"Rus":4571,"Sigur":4572,"bnr":4573,"fan":4574,"oven":4575,"pant":4576,"vond":4577,"##lå":4578,"##ho":4579,"##arder":4580,"##arbeide":4581,"forelig":4582,"##onse":4583,"##sken":4584,"##attes":4585,"##aden":4586,"##lite":4587,"aner":4588,"såtte":4589,"spis":4590,"vedkommende":4591,"##øya":4592,"##sliv":4593,"kontrol":4594,"##små":4595,"##smann":4596,"##ict":4597,"##aktig":4598,"##aster":4599,"herr":4600,"dels":4601,"##ammet":4602,"##lement":4603,"Intern":4604,"1998":4605,"moren":4606,"kontor":4607,"##stående":4608,"produkter":4609,"høsten":4610,"relev":4611,"neppe":4612,"Andreas":4613,"forfatter":4614,"Fredrik":4615,"praktisk":4616,"kjørte":4617,"amerikanske":4618,"stirret":4619,"76":4620,"77":4621,"Ex":4622,"FOR":4623,"Gjer":4624,"Im":4625,"Sande":4626,"Tro":4627,"bos":4628,"fare":4629,"gu":4630,"hud":4631,"rd":4632,"rolig":4633,"sår":4634,"vand":4635,"##ran":4636,"##ønn":4637,"##iell":4638,"##gum":4639,"##act":4640,"##RU":4641,"##HH":4642,"##edet":4643,"tilgjeng":4644,"##tta":4645,"avvik":4646,"##skol":4647,"utgjør":4648,"##akte":4649,"##ordning":4650,"revis":4651,"prote":4652,"##ringe":4653,"fortel":4654,"kron":4655,"172":4656,"gjennomført":4657,"løse":4658,"univers":4659,"Maria":4660,"typ":4661,"##own":4662,"glede":4663,"ønsk":4664,"Thom":4665,"vannet":4666,"historien":4667,"##stedet":4668,"forvaltning":4669,"Henrik":4670,"mørke":4671,"opplæring":4672,"oppgåver":4673,"flertall":4674,".\"":4675,"68":4676,"Bre":4677,"Gi":4678,"How":4679,"Leg":4680,"danske":4681,"feng":4682,"rent":4683,"sand":4684,"sølv":4685,"uansett":4686,"vend":4687,"##gjer":4688,"##ould":4689,"##ksten":4690,"##sund":4691,"##srett":4692,"##fi":4693,"##dyr":4694,"##ino":4695,"forbruk":4696,"##ley":4697,"##iti":4698,"##uls":4699,"##ensending":4700,"##odd":4701,"##legge":4702,"kommunest":4703,"##organis":4704,"##gående":4705,"supp":4706,"deltak":4707,".).":4708,"funger":4709,"##ahl":4710,"kropp":4711,"perioden":4712,"struktur":4713,"Aften":4714,"Fri":4715,"Frem":4716,"Jer":4717,"Po":4718,"bom":4719,"dit":4720,"masse":4721,"rut":4722,"rollene":4723,"tone":4724,"tonn":4725,"øke":4726,"##ryg":4727,"##øtet":4728,"##lam":4729,"##che":4730,"##omat":4731,"##tein":4732,"tilstre":4733,"##rab":4734,"##ida":4735,"sko":4736,"##oter":4737,"spennende":4738,"##slam":4739,"##vard":4740,"vekst":4741,"løftet":4742,"##mpel":4743,"altfor":4744,"2019":4745,"politik":4746,"frivil":4747,"kjøre":4748,"handels":4749,"fløy":4750,"sitte":4751,"Kristian":4752,"fremme":4753,"Barn":4754,"nummer":4755,"opprettet":4756,"administrasjon":4757,"Morgensending":4758,"54":4759,"52":4760,"84":4761,"Bod":4762,"Gu":4763,"Mand":4764,"Post":4765,"Ras":4766,"Si":4767,"Sar":4768,"acc":4769,"finn":4770,"hov":4771,"jur":4772,"jød":4773,"tver":4774,"tråd":4775,"venter":4776,"##iør":4777,"##iens":4778,"##vig":4779,"##out":4780,"##kelige":4781,"##band":4782,"##bane":4783,"##anne":4784,"##iks":4785,"##verks":4786,"##ities":4787,"varer":4788,"oversikt":4789,"ettermid":4790,"bland":4791,"##arbeider":4792,"eiend":4793,"kjøpe":4794,"statsminister":4795,"heim":4796,"havet":4797,"sign":4798,"begynnelsen":4799,"utvikle":4800,"fullstendig":4801,"Kari":4802,"direktør":4803,"mangler":4804,"##AND":4805,"Fotball":4806,"været":4807,"##~~~~~~~~":4808,"redusert":4809,"sentrale":4810,"poeng":4811,"sesong":4812,"tilfredsstil":4813,")\"\"":4814,"Mag":4815,"Tra":4816,"bad":4817,"dess":4818,"ep":4819,"frist":4820,"pat":4821,"##ep":4822,"##aur":4823,"##stud":4824,"tilnær":4825,"##skont":4826,"vilje":4827,"##ssp":4828,"Stav":4829,"Stock":4830,"##holdet":4831,"##setninger":4832,"2010":4833,"gården":4834,"Art":4835,"forbed":4836,"##rikke":4837,"tysk":4838,"kontin":4839,"Brit":4840,"president":4841,"##holm":4842,"prøver":4843,"fredag":4844,"tema":4845,"kolleg":4846,"diskusjon":4847,"myndigheter":4848,"##helm":4849,"Robert":4850,"Tromsø":4851,"Nattsending":4852,"49":4853,"56":4854,"57":4855,"59":4856,"89":4857,"Con":4858,"Eid":4859,"Just":4860,"Wh":4861,"felt":4862,"hjør":4863,"kul":4864,"mm":4865,"munnen":4866,"nam":4867,"pil":4868,"rike":4869,"ytre":4870,"##ba":4871,"##mos":4872,"##co":4873,"##za":4874,"##illere":4875,"ens":4876,"stakk":4877,"utn":4878,"##deren":4879,"kommentar":4880,"their":4881,"##vekst":4882,"sammens":4883,"merket":4884,"delen":4885,"##landske":4886,"##irekte":4887,"endret":4888,"##brudd":4889,"farge":4890,"spørre":4891,"lukket":4892,"øye":4893,"fleire":4894,"høg":4895,"klarer":4896,"generelt":4897,"omfatter":4898,"observ":4899,"normalt":4900,"Østfold":4901,"religi":4902,"fremmed":4903,"ropte":4904,"Jacob":4905,"Sigurd":4906,"By":4907,"Byg":4908,"Kro":4909,"Lou":4910,"Mr":4911,"Mic":4912,"Na":4913,"Rad":4914,"gru":4915,"just":4916,"mu":4917,"mass":4918,"pst":4919,"tå":4920,"uken":4921,"##rel":4922,"##ådet":4923,"##side":4924,"##ulere":4925,"##hl":4926,"##analy":4927,"##ilen":4928,"##stav":4929,"tilkn":4930,"some":4931,"strøm":4932,"##atelse":4933,"##ité":4934,"##ada":4935,"utr":4936,"##ular":4937,"oppdrag":4938,"gjaldt":4939,"således":4940,"overfl":4941,"##avgift":4942,"vedtatt":4943,"##sloven":4944,"##slivet":4945,"##imal":4946,"##enden":4947,"##veit":4948,"minste":4949,"regne":4950,"grund":4951,"demon":4952,"##lade":4953,"igjennom":4954,"1991":4955,"politikk":4956,"2009":4957,"begynne":4958,"utviklingen":4959,"onsdag":4960,"strid":4961,"frykt":4962,"avgjørende":4963,"hjerte":4964,"respekt":4965,"Bet":4966,"Dom":4967,"døy":4968,"hygg":4969,"jakt":4970,"sle":4971,"tann":4972,"##ira":4973,"##gere":4974,"##prest":4975,"##kningen":4976,"##fri":4977,"##indel":4978,"##onom":4979,"stede":4980,"strateg":4981,"##skilt":4982,"##itz":4983,"omgang":4984,"utform":4985,"utvid":4986,"bevilg":4987,"##ova":4988,"##spr":4989,"kone":4990,"konfl":4991,"konvensjon":4992,"##abler":4993,"fortalt":4994,"kvad":4995,"lei":4996,"174":4997,"arbeidsm":4998,"sammenlig":4999,"##ipl":5000,"lager":5001,"bygde":5002,"tyske":5003,"Dermed":5004,"lån":5005,"drifts":5006,"idrett":5007,"##området":5008,"gjeldende":5009,"##alderen":5010,"trengte":5011,"oppdaget":5012,"Likevel":5013,"AV":5014,"OL":5015,"Van":5016,"action":5017,"fro":5018,"rot":5019,"##tene":5020,"##shus":5021,"##frå":5022,"##han":5023,"##ytter":5024,"##tekter":5025,"tilt":5026,"##esp":5027,"##esse":5028,"dekk":5029,"##ndelag":5030,"spise":5031,"##istene":5032,"##merte":5033,"kvart":5034,"hente":5035,"##iseres":5036,"##enterte":5037,"2011":5038,"there":5039,"velge":5040,"ordfører":5041,"1986":5042,"##grid":5043,"våpen":5044,"partiet":5045,"høst":5046,"boka":5047,"skaper":5048,"menneskerett":5049,"forsøkte":5050,"hensikt":5051,"avtalen":5052,"Halvor":5053,"innsats":5054,"##marks":5055,"disp":5056,"linje":5057,"drama":5058,"fylkeskommun":5059,"jobbe":5060,"skaffe":5061,"Larsen":5062,"Regjeringen":5063,"Rosenborg":5064,"Do":5065,"Kva":5066,"TIL":5067,"dobb":5068,"fing":5069,"faller":5070,"lid":5071,"lover":5072,"ryd":5073,"ær":5074,"##øde":5075,"##fang":5076,"##fisk":5077,"##fjell":5078,"##henger":5079,"##mil":5080,"##RI":5081,"##cil":5082,"##ØR":5083,"##ari":5084,"forhandling":5085,"påpe":5086,"##skab":5087,"##ash":5088,"##anda":5089,"##sem":5090,"målet":5091,"##utning":5092,"##asjonene":5093,"##imum":5094,"##...":5095,"undervisning":5096,"komp":5097,"komedie":5098,"bruket":5099,"hender":5100,"##essor":5101,"##settes":5102,"ordin":5103,"##kjente":5104,"##ology":5105,"snakk":5106,"nærmest":5107,"solgt":5108,"##struktur":5109,"tanken":5110,"oppfyl":5111,"temperatur":5112,"markeds":5113,"sentral":5114,"oppgave":5115,"##ween":5116,"etabler":5117,"66":5118,"72":5119,"Jensen":5120,"Ly":5121,"Matt":5122,"Mennes":5123,"dvs":5124,"government":5125,"jenter":5126,"jfr":5127,"sag":5128,"sold":5129,"seng":5130,"vitenskap":5131,"åra":5132,"ør":5133,"øver":5134,"##jor":5135,"##bel":5136,"##ming":5137,"##UR":5138,"##AC":5139,"tilhør":5140,"##asen":5141,"##aser":5142,"##ktøy":5143,"##lim":5144,"##uren":5145,"##urdere":5146,"anal":5147,"innfly":5148,"elsker":5149,"##istet":5150,"##mmende":5151,"derimot":5152,"rekl":5153,"trening":5154,"##smenn":5155,"Norske":5156,"between":5157,"##cher":5158,"veit":5159,"litter":5160,"sving":5161,"bygda":5162,"##plikt":5163,"##velop":5164,"typer":5165,"Deretter":5166,"glass":5167,"hjelper":5168,"##ible":5169,"Thor":5170,"grep":5171,"##brit":5172,"sikte":5173,"forvent":5174,"kirken":5175,"Storbrit":5176,"vurdering":5177,"sove":5178,"Høyre":5179,"bakken":5180,"totalt":5181,"umulig":5182,"kristne":5183,"Videre":5184,"Svein":5185,"alminn":5186,"europe":5187,"##rørende":5188,"tilstrekkelig":5189,".-":5190,"Då":5191,"Fig":5192,"Mel":5193,"Sæ":5194,"Ter":5195,"byr":5196,"don":5197,"fær":5198,"iv":5199,"ill":5200,"mek":5201,"rene":5202,"russ":5203,"væ":5204,"##ii":5205,"##ukket":5206,"##har":5207,"##bed":5208,"##SL":5209,"##sto":5210,"forbered":5211,"##leie":5212,"avstand":5213,"stanset":5214,"##ørr":5215,"##ato":5216,"##atnet":5217,"##litt":5218,"##forsamling":5219,"overt":5220,"##sled":5221,"reist":5222,"##alla":5223,"toppen":5224,"konfer":5225,"##innene":5226,"plassen":5227,"##ødt":5228,"reglene":5229,"kjenne":5230,"nedover":5231,"Ingrid":5232,"maa":5233,"bedrifter":5234,"evne":5235,"##ebygg":5236,"##offer":5237,"##synet":5238,"nødvendige":5239,"Grunn":5240,"fantast":5241,"elevane":5242,"##vidt":5243,"fjerne":5244,"Wilhelm":5245,"fornøyd":5246,"utslipp":5247,"himmel":5248,"Folke":5249,"Kristians":5250,"Trøndelag":5251,"63":5252,"Flere":5253,"Kultur":5254,"Sammen":5255,"Veg":5256,"fund":5257,"fabr":5258,"mik":5259,"ment":5260,"tirsdag":5261,"##vind":5262,"##kul":5263,"##sse":5264,"##felt":5265,"##ht":5266,"##æg":5267,"##etro":5268,"##ania":5269,"##iled":5270,"forret":5271,"forster":5272,"skatte":5273,"skifte":5274,"opps":5275,"oppover":5276,"elsk":5277,"##ennelse":5278,"##sleder":5279,"motstand":5280,"orden":5281,"regnet":5282,"registrer":5283,"registrert":5284,"1000":5285,"grense":5286,"begrav":5287,"rettigheter":5288,"##ctor":5289,"høyde":5290,"verdi":5291,"2008":5292,"stemmen":5293,"hemmelig":5294,"døra":5295,"svare":5296,"korleis":5297,"planer":5298,"##ulerer":5299,"##ulering":5300,"intet":5301,"This":5302,"press":5303,"kaller":5304,"faktor":5305,"oppfatning":5306,"sønnen":5307,"profesjon":5308,"normal":5309,"ringe":5310,"valget":5311,"grønn":5312,"myndighet":5313,"utgifter":5314,"naturligvis":5315,"klima":5316,"interessert":5317,"hindre":5318,"Jørgen":5319,"hjertet":5320,"inkluder":5321,"Arbeiderpartiet":5322,"Stavanger":5323,"Brø":5324,"Dr":5325,"DN":5326,"Ek":5327,"FRE":5328,"Kal":5329,"Lov":5330,"Mat":5331,"Nes":5332,"bot":5333,"ler":5334,"ni":5335,"vass":5336,"##iere":5337,"##saa":5338,"##hø":5339,"##TER":5340,"##cle":5341,"##wn":5342,"##elte":5343,"forrige":5344,"##unksjon":5345,"##esen":5346,"##skon":5347,"initi":5348,"##ningar":5349,"spar":5350,"spred":5351,"måle":5352,"##elling":5353,"årets":5354,"##ringene":5355,"landbruks":5356,"Inter":5357,"##enteret":5358,"Herren":5359,"redde":5360,"Marg":5361,"Marit":5362,"heilt":5363,"##ivert":5364,"hovedsak":5365,"lettere":5366,"##brand":5367,"beskytt":5368,"jobbet":5369,"##struksjon":5370,"Ord":5371,"bøker":5372,"##områder":5373,"nasjonale":5374,"levde":5375,"Finnmark":5376,"Pedersen":5377,"Steinar":5378,"##ørsmål":5379,"tilknyt":5380,"Storbritann":5381,"64":5382,"83":5383,"Di":5384,"Hand":5385,"Hadde":5386,"Lil":5387,"NG":5388,"Nett":5389,"SK":5390,"York":5391,"emp":5392,"jev":5393,"jente":5394,"log":5395,"ton":5396,"taler":5397,"##ij":5398,"##kjør":5399,"##sord":5400,"##dommer":5401,"##ummer":5402,"##Tb":5403,"##eloven":5404,"##egående":5405,"foreløp":5406,"##identen":5407,"utsatt":5408,"utført":5409,"##ject":5410,"oppd":5411,"anvend":5412,"##forening":5413,"##hets":5414,"måter":5415,"overv":5416,"overbe":5417,"##øye":5418,"2020":5419,"##vekt":5420,"minne":5421,"##holdning":5422,"demokrat":5423,"neder":5424,"hverdag":5425,"trekk":5426,"brans":5427,"søster":5428,"##jema":5429,"2004":5430,"2007":5431,"stem":5432,"isol":5433,"kapit":5434,"vanlige":5435,"leser":5436,"beskriv":5437,"##sprogram":5438,"løsninger":5439,"sendte":5440,"kryss":5441,"Godt":5442,"Noe":5443,"Håkon":5444,"elektr":5445,"sekund":5446,"Bodø":5447,"kvadrat":5448,"800":5449,"Fly":5450,"Gar":5451,"Gro":5452,"Jap":5453,"Morten":5454,"OPP":5455,"VI":5456,"band":5457,"bank":5458,"galt":5459,"glem":5460,"hurt":5461,"lim":5462,"mal":5463,"mult":5464,"osv":5465,"vurdere":5466,"##ielt":5467,"##pert":5468,"##tende":5469,"##telse":5470,"##sler":5471,"##havn":5472,"##messig":5473,"##ænd":5474,"##TE":5475,"##ines":5476,"##egnet":5477,"stab":5478,"stift":5479,"utvalg":5480,"##lir":5481,"oppstå":5482,"via":5483,"århund":5484,"dukket":5485,"##ffen":5486,"##ics":5487,"##legger":5488,"kjær":5489,"dele":5490,"taus":5491,"prp":5492,"landets":5493,"lyset":5494,"bror":5495,"gård":5496,"politi":5497,"frit":5498,"kjøper":5499,"verken":5500,"redu":5501,"stempel":5502,"##sby":5503,"Johansen":5504,"##pris":5505,"1965":5506,"nærmeste":5507,"fritt":5508,"##gaver":5509,"mangel":5510,"Solberg":5511,"forståelse":5512,"gjekk":5513,"pasient":5514,"rapport":5515,"##melding":5516,"opplysninger":5517,"identif":5518,"Israel":5519,"vondt":5520,"Aud":5521,"Dere":5522,"Esp":5523,"Føl":5524,"Foll":5525,"Ital":5526,"Natur":5527,"Sen":5528,"Sjø":5529,"fon":5530,"het":5531,"len":5532,"##runn":5533,"##oper":5534,"##sar":5535,"##uf":5536,"##hn":5537,"##ban":5538,"##bør":5539,"##eden":5540,"forel":5541,"##unger":5542,"still":5543,"##agraf":5544,"##ullet":5545,"oppford":5546,"##oten":5547,"vide":5548,"##utvikling":5549,"##slin":5550,"##ikten":5551,"##veks":5552,"##icip":5553,"kjenn":5554,"170":5555,"##føreren":5556,"##lands":5557,"synd":5558,"##ifik":5559,"søker":5560,"følelse":5561,"kommunene":5562,"kommunikasjon":5563,"Arn":5564,"169":5565,"##appar":5566,"håpet":5567,"##vendig":5568,"##haver":5569,"##sdal":5570,"Erling":5571,"plassert":5572,"##styret":5573,"##ferdig":5574,"bidrar":5575,"kunstner":5576,"stykke":5577,"##verdig":5578,"pasienter":5579,"##posten":5580,"dokument":5581,"Politiet":5582,"mandag":5583,"Phil":5584,";.":5585,"Bør":5586,"Bak":5587,"Id":5588,"Mål":5589,"Ser":5590,"ed":5591,"ele":5592,"fig":5593,"fik":5594,"go":5595,"hentet":5596,"kop":5597,"lens":5598,"nekt":5599,"son":5600,"øker":5601,"##gifter":5602,"##vart":5603,"##kort":5604,"##sent":5605,"##satte":5606,"##fir":5607,"##fred":5608,"##ugen":5609,"##hov":5610,"##makt":5611,"##10":5612,"##egrupp":5613,"##unge":5614,"erkl":5615,"##skom":5616,"##atiske":5617,"skil":5618,"skille":5619,"insp":5620,"develop":5621,"##itim":5622,"varier":5623,"gjere":5624,"innlegg":5625,"spre":5626,"##ssel":5627,"vedlike":5628,"armene":5629,"##inntekt":5630,"##veis":5631,"1800":5632,"brutt":5633,"leir":5634,"##ighets":5635,"symb":5636,"##irektør":5637,"forsiktig":5638,"##ydro":5639,"bygger":5640,"kjøpt":5641,"våren":5642,"indik":5643,"meiner":5644,"##grens":5645,"1946":5646,"boken":5647,"resultatet":5648,"##sgrupp":5649,"standard":5650,"produksjonen":5651,"absol":5652,"sosialt":5653,"melding":5654,"sykdom":5655,"gutten":5656,"konkurranse":5657,"##uesp":5658,"Midt":5659,"inntrykk":5660,"##industrien":5661,"##lemmene":5662,"størrelse":5663,"Don":5664,"Fj":5665,"Hot":5666,"Kå":5667,"Vis":5668,"bon":5669,"bib":5670,"dansk":5671,"foll":5672,"sing":5673,"tend":5674,"ære":5675,"##aard":5676,"##fekt":5677,"##LE":5678,"##stab":5679,"forklare":5680,"avis":5681,"stry":5682,"studer":5683,"##verdi":5684,"utlandet":5685,"##kkende":5686,"##otering":5687,"##aka":5688,"angrep":5689,"nogen":5690,"noget":5691,"innrø":5692,"##ista":5693,"##øyde":5694,"etterpå":5695,"argum":5696,"##resse":5697,"fremtiden":5698,"##ips":5699,"nærheten":5700,"kommunale":5701,"kjønn":5702,"forbud":5703,"møtet":5704,"svarer":5705,"teater":5706,"##sny":5707,"tilfeller":5708,"personlig":5709,"nødt":5710,"dyre":5711,"##useum":5712,"behovet":5713,"halvt":5714,"Jonas":5715,"tillit":5716,"luften":5717,"fisker":5718,"fjern":5719,"hevder":5720,"kollekt":5721,"øvrig":5722,"øvrige":5723,"røde":5724,"representant":5725,"frukt":5726,"kvinnen":5727,"dokumentar":5728,"gulvet":5729,"arkite":5730,"britiske":5731,"Fylke":5732,"NGO":5733,"AN":5734,"Bla":5735,"Ca":5736,"Gra":5737,"Mac":5738,"Rett":5739,"divid":5740,"hyl":5741,"ild":5742,"ori":5743,"sens":5744,"##nø":5745,"##nok":5746,"##person":5747,"##åten":5748,"##sing":5749,"##sik":5750,"##fru":5751,"##ute":5752,"##sti":5753,"##ometer":5754,"##alp":5755,"enige":5756,"##rakte":5757,"##olt":5758,"##amen":5759,"##skost":5760,"##skraft":5761,"##skrig":5762,"##ating":5763,"##verre":5764,"##ason":5765,"##tert":5766,"vill":5767,"sir":5768,"##anner":5769,"slit":5770,"##spør":5771,"kona":5772,"##ionen":5773,"leie":5774,"henger":5775,"delvis":5776,"##elsens":5777,"fine":5778,"framtid":5779,"barns":5780,"1980":5781,"1984":5782,"##hael":5783,"##sdotter":5784,"aktiv":5785,"uttal":5786,"åpent":5787,"dykt":5788,"sjøen":5789,"bokstav":5790,"gruppen":5791,"faste":5792,"Blant":5793,"foretatt":5794,"bønn":5795,"forklarer":5796,"count":5797,"forlot":5798,"forsvant":5799,"tungt":5800,"Kapittel":5801,"74":5802,"Hele":5803,"Jord":5804,"Mos":5805,"NO":5806,"Ring":5807,"Rog":5808,"effe":5809,"hode":5810,"lat":5811,"passe":5812,"##øver":5813,"##nar":5814,"##åg":5815,"##vi":5816,"##kle":5817,"##sels":5818,"##må":5819,"##19":5820,"##IG":5821,"##FT":5822,"##inene":5823,"##tten":5824,"stav":5825,"stål":5826,"##idd":5827,"##ament":5828,"##ages":5829,"inse":5830,"##ninga":5831,"gjent":5832,"innh":5833,"##kså":5834,"##istan":5835,"##anna":5836,"trolig":5837,"##smynd":5838,"tidleg":5839,"kompl":5840,"##ific":5841,"svak":5842,"høyeste":5843,"than":5844,"menneskene":5845,"parlam":5846,"prosess":5847,"statsb":5848,"Marc":5849,"berør":5850,"kontrakt":5851,"signal":5852,"1985":5853,"##obby":5854,"1976":5855,"##produ":5856,"##insipp":5857,"veggen":5858,"bidrag":5859,"sørge":5860,"dreier":5861,"radio":5862,"kamer":5863,"settes":5864,"husker":5865,"butikken":5866,"India":5867,"Søndag":5868,"vinteren":5869,"Einar":5870,"positive":5871,"human":5872,"Begge":5873,"undert":5874,"primær":5875,"spec":5876,"trafikk":5877,"blomster":5878,"Bjar":5879,"nabo":5880,"slippe":5881,"foreligger":5882,"Thomas":5883,"fungerer":5884,"Rasmus":5885,"mikro":5886,"600":5887,"Dy":5888,"Histor":5889,"San":5890,"Sil":5891,"ac":5892,"doll":5893,"drev":5894,"ivaret":5895,"ku":5896,"ristet":5897,"tol":5898,"tolk":5899,"##ient":5900,"##ti":5901,"##vne":5902,"##vent":5903,"##kr":5904,"##kan":5905,"##mund":5906,"##<<":5907,"##inke":5908,"##stolen":5909,"forek":5910,"tilgang":5911,"erst":5912,"stilte":5913,"##idar":5914,"##iddel":5915,"medarbeid":5916,"##sky":5917,"infl":5918,"##ited":5919,"omg":5920,"utel":5921,"##ulen":5922,"##ivind":5923,"##uset":5924,"##asjonal":5925,"Stud":5926,"klo":5927,"klokken":5928,"##smøte":5929,"##gjorde":5930,"##ellem":5931,"merk":5932,"##ugge":5933,"150":5934,"verdier":5935,"velferd":5936,"anses":5937,"Tryg":5938,"vider":5939,"##handler":5940,"Tore":5941,"åpner":5942,"dypt":5943,"forskjellig":5944,"frihet":5945,"invest":5946,"##bout":5947,"forsøker":5948,"##strid":5949,"##budet":5950,"##nevnt":5951,"rapporten":5952,"total":5953,"tunge":5954,"bestemmelser":5955,"ressurser":5956,"##løsning":5957,"beslutning":5958,"leilighet":5959,"vakre":5960,"##bjørn":5961,"flyktninger":5962,"kjøkkenet":5963,"uavhengig":5964,"såkalte":5965,"eldste":5966,"rdl":5967,"hovud":5968,"Storbritannia":5969,"79":5970,"Beste":5971,"Cla":5972,"Dra":5973,"Eir":5974,"Fre":5975,"Fisk":5976,"Hell":5977,"Hege":5978,"Island":5979,"Mus":5980,"Mod":5981,"Ob":5982,"TR":5983,"Tel":5984,"Tek":5985,"bind":5986,"gjem":5987,"gate":5988,"jub":5989,"kyst":5990,"pur":5991,"salt":5992,"vende":5993,"##prø":5994,"##åm":5995,"##vn":5996,"##kampen":5997,"##sider":5998,"##dommen":5999,"##mest":6000,"##UN":6001,"##KE":6002,"##inet":6003,"##institusjon":6004,"ende":6005,"##rast":6006,"##iken":6007,"##ola":6008,"skjel":6009,"##ppene":6010,"dec":6011,"utv":6012,"utred":6013,"oppleve":6014,"##ikkelen":6015,"sper":6016,"##ellene":6017,"##ssystem":6018,"##yng":6019,"##sla":6020,"##merket":6021,"betre":6022,"##indre":6023,"##mpet":6024,"##evin":6025,"##ipapir":6026,"grunnen":6027,"##trer":6028,"##formasjon":6029,"størst":6030,"handel":6031,"parker":6032,"Sever":6033,"Ellen":6034,"aktuelle":6035,"middag":6036,"fastsatt":6037,"##pren":6038,"likhet":6039,"1964":6040,"presset":6041,"valgte":6042,"vegne":6043,"halvparten":6044,"forslaget":6045,"resultater":6046,"styrem":6047,"foreta":6048,"used":6049,"mørk":6050,"butikk":6051,"skoler":6052,"Show":6053,"sterkere":6054,"tradisjonelle":6055,"Sjå":6056,"folketryg":6057,"##fullt":6058,"gratis":6059,"vinduet":6060,"fantes":6061,"ovenfor":6062,"symbol":6063,"videregående":6064,"-\"\"":6065,"AR":6066,"Aug":6067,"Bon":6068,"Bes":6069,"Del":6070,"Fe":6071,"FR":6072,"Hov":6073,"IV":6074,"Kont":6075,"Val":6076,"drikke":6077,"fen":6078,"fla":6079,"kaf":6080,"magen":6081,"non":6082,"økte":6083,"##pass":6084,"##ty":6085,"##loven":6086,"##ures":6087,"##SE":6088,"##ward":6089,"##zar":6090,"##etning":6091,"##elde":6092,"##ala":6093,"entre":6094,"avdeling":6095,"stilt":6096,"##amet":6097,"##ameter":6098,"skuesp":6099,"##ague":6100,"##ross":6101,"##urte":6102,"##terte":6103,">>\"\"":6104,"spr":6105,"spenning":6106,"##mmes":6107,"##iskop":6108,"##øyer":6109,"##udsj":6110,"##osa":6111,"undervis":6112,"##skapen":6113,"##ansvar":6114,"##ringa":6115,"regner":6116,"##iseringen":6117,"##utten":6118,"syne":6119,"trekker":6120,"svensk":6121,"langsomt":6122,"2012":6123,"##organ":6124,"ansatt":6125,"trade":6126,"livs":6127,"lignende":6128,"parall":6129,"Deres":6130,"250":6131,"låg":6132,"fylkes":6133,"....":6134,"flest":6135,"samtalen":6136,"kapital":6137,"naturen":6138,"intens":6139,"1960":6140,"turen":6141,"ansvarlig":6142,"1950":6143,"organisasjonen":6144,"representerer":6145,"##byggere":6146,"fellesskap":6147,"its":6148,"Ung":6149,"Willi":6150,"tvang":6151,"##kretær":6152,"Ingeborg":6153,"regnskap":6154,"##sessen":6155,"himmelen":6156,"forsikring":6157,"heldig":6158,"sjelden":6159,"universitet":6160,"hyggelig":6161,"initiativ":6162,"78":6163,"Bev":6164,"Gull":6165,"Ir":6166,"Miljø":6167,"Rapp":6168,"Vir":6169,"bit":6170,"brå":6171,"dim":6172,"gutter":6173,"had":6174,"hang":6175,"håret":6176,"last":6177,"ramme":6178,"soc":6179,"solen":6180,"tt":6181,"work":6182,"økende":6183,"##nede":6184,"##voll":6185,"##valtning":6186,"##knings":6187,"##sarbeid":6188,"##uste":6189,"##bot":6190,"##mag":6191,"##win":6192,"##orgen":6193,"##illig":6194,"##stim":6195,"former":6196,"tilsk":6197,"##ttene":6198,"utgift":6199,"oppfølg":6200,"##rust":6201,"spilt":6202,"overført":6203,"hund":6204,"kongen":6205,"konkl":6206,"klær":6207,"##aktor":6208,"##aktivitet":6209,"##abell":6210,"##erske":6211,"skuldrene":6212,"lyder":6213,"lykkes":6214,"normer":6215,"120":6216,"båten":6217,"##rettet":6218,"bedt":6219,"Herrens":6220,"sjansen":6221,"eval":6222,"knapt":6223,"1983":6224,"adj":6225,"nettet":6226,"1973":6227,"1977":6228,"dykk":6229,"kalde":6230,"##undersøk":6231,"enkle":6232,"starten":6233,"differ":6234,"konsent":6235,"Univers":6236,"show":6237,"objekt":6238,"fornuft":6239,"effektiv":6240,"ringte":6241,"markedet":6242,"mottak":6243,"skjeb":6244,"sidan":6245,"##iljøet":6246,"Finland":6247,"foregår":6248,"handlinger":6249,"vakker":6250,"Øvre":6251,"General":6252,"follow":6253,"Austr":6254,"Bry":6255,"Distrikt":6256,"EM":6257,"Eit":6258,"Fo":6259,"Felle":6260,"Hum":6261,"IN":6262,"Je":6263,"Jfr":6264,"Jack":6265,"KO":6266,"Lørdag":6267,"Nær":6268,"Ram":6269,"bre":6270,"ball":6271,"bærer":6272,"epost":6273,"fo":6274,"kring":6275,"maler":6276,"maks":6277,"ner":6278,"nom":6279,"nest":6280,"rart":6281,"tlf":6282,"you":6283,"økning":6284,"##ever":6285,"##øtte":6286,"##gs":6287,"##lis":6288,"##wa":6289,"##orsk":6290,"##inc":6291,"##resten":6292,"##ikal":6293,"media":6294,"##atret":6295,"skad":6296,"skøy":6297,"def":6298,"##ads":6299,"harde":6300,"##liote":6301,"frakt":6302,"nokså":6303,"innført":6304,"##orth":6305,"##ordin":6306,"##annelse":6307,"slu":6308,"refer":6309,"etterspør":6310,"toget":6311,"klasser":6312,"klubben":6313,"plast":6314,"leste":6315,"Noreg":6316,"##setj":6317,"veier":6318,"hverken":6319,"fremtid":6320,"frisk":6321,"fransk":6322,"bestemme":6323,"møn":6324,"perspekt":6325,"målsett":6326,"fyller":6327,"kaptein":6328,"sluttet":6329,"##virkning":6330,"matr":6331,"faglig":6332,"skapt":6333,"##splan":6334,"ansvaret":6335,"nevnte":6336,"behandlet":6337,"samarbeidet":6338,"aksjer":6339,"forklaring":6340,"Luc":6341,"vanligvis":6342,"sentralt":6343,"Komiteen":6344,"trykket":6345,"praktiske":6346,"positiv":6347,"interessant":6348,"intervju":6349,"Nedenes":6350,"fysisk":6351,"Hedda":6352,"fanget":6353,"strøk":6354,"militær":6355,"belast":6356,"konsekvens":6357,"skikkelig":6358,"Wilhelmsen":6359,"Ben":6360,"Bok":6361,"Bert":6362,"Eli":6363,"Grat":6364,"Kle":6365,"Lis":6366,"Lisa":6367,"Mellom":6368,"Mannen":6369,"NP":6370,"Pe":6371,"Slike":6372,"aw":6373,"aksjon":6374,"can":6375,"gal":6376,"likt":6377,"most":6378,"pause":6379,"sæ":6380,"tu":6381,"##ji":6382,"##fot":6383,"##orld":6384,"##anlig":6385,"##arb":6386,"##elet":6387,"ogsaa":6388,"##rapp":6389,"skinn":6390,"atom":6391,"varmt":6392,"omgiv":6393,"utbet":6394,"##æringen":6395,"##uring":6396,"alli":6397,"nov":6398,"spill":6399,"##behandling":6400,"##ynt":6401,"ettersom":6402,"motoren":6403,"kombin":6404,"henge":6405,"nåværende":6406,"endte":6407,"verdipapir":6408,"latter":6409,"2006":6410,"legg":6411,"##plasser":6412,"flott":6413,"typen":6414,"huske":6415,"ekst":6416,"begynt":6417,"korre":6418,"##løse":6419,"fylt":6420,"tekstil":6421,"such":6422,"League":6423,"hvilket":6424,"gjenstand":6425,".),":6426,"forvalt":6427,"benyttes":6428,"idé":6429,"fjerde":6430,"fulgt":6431,"Europe":6432,"kaste":6433,"pasienten":6434,"rapporter":6435,"sesongen":6436,"stoppet":6437,"##................................":6438,"Vera":6439,"maskin":6440,"vokste":6441,"Carl":6442,"firma":6443,"fysiske":6444,"restaur":6445,"skjønner":6446,"negative":6447,"hotell":6448,"tilgjengelig":6449,"Michael":6450,"Kristiansand":6451,"hurtig":6452,"Kåre":6453,"Eivind":6454,"Gul":6455,"Molde":6456,"NOR":6457,"Søk":6458,"Tru":6459,"Takk":6460,"back":6461,"cl":6462,"dial":6463,"frø":6464,"feste":6465,"flag":6466,"gri":6467,"hr":6468,"hær":6469,"heng":6470,"kikket":6471,"lette":6472,"num":6473,"right":6474,"sne":6475,"use":6476,"Øog":6477,"##ømme":6478,"##gi":6479,"##tere":6480,"##krig":6481,"##kamp":6482,"##kunst":6483,"##ates":6484,"##hjem":6485,"##hånd":6486,"##bas":6487,"##IV":6488,"##elske":6489,"##egor":6490,"##ales":6491,"tilskudd":6492,"dets":6493,"##oller":6494,"steng":6495,"stått":6496,"##ames":6497,"##skriv":6498,"##skritt":6499,"skader":6500,"ins":6501,"##urens":6502,"opphold":6503,"etc":6504,"bekl":6505,"hvisk":6506,"overord":6507,"##artet":6508,"seil":6509,"##geren":6510,"arm":6511,"armen":6512,"trener":6513,"##endt":6514,"Stra":6515,"motiv":6516,"##smeld":6517,"##smøtet":6518,"tids":6519,"underholdning":6520,"##rykket":6521,"##abor":6522,"plikt":6523,"orig":6524,"bruks":6525,"dagene":6526,"##rete":6527,"Enkel":6528,"betalt":6529,"landene":6530,"##leggende":6531,"these":6532,"farger":6533,"bestemmer":6534,"ordning":6535,"lege":6536,"legem":6537,"verre":6538,"forholdsvis":6539,"kontoret":6540,"##ological":6541,"1987":6542,"adgang":6543,"dominer":6544,"1979":6545,"1940":6546,"##system":6547,"##jorden":6548,"##present":6549,"foto":6550,"delta":6551,"Ross":6552,"døden":6553,"forsøkt":6554,"kjempe":6555,"tillatelse":6556,"budde":6557,"hjul":6558,"virkeligheten":6559,"konsesjon":6560,"trukket":6561,"kamper":6562,"public":6563,"internasjonal":6564,"##avtale":6565,"diskuter":6566,"opprør":6567,"##hengen":6568,"aktiviteter":6569,"Birg":6570,"Verdens":6571,"opprinnelige":6572,"##bryter":6573,"FNs":6574,"Norweg":6575,"seinare":6576,"dobbelt":6577,"foreløpig":6578,"94":6579,"96":6580,"Eks":6581,"Emil":6582,"Ragn":6583,"Råd":6584,"VG":6585,"about":6586,"bost":6587,"cy":6588,"div":6589,"dru":6590,"glade":6591,"klem":6592,"mr":6593,"our":6594,"pent":6595,"sil":6596,"##rommet":6597,"##ømte":6598,"##ned":6599,"##vo":6600,"##liv":6601,"##ksen":6602,"##sess":6603,"##funn":6604,"##bert":6605,"##brø":6606,"##banen":6607,"##NING":6608,"##ced":6609,"##cess":6610,"##AP":6611,"##orge":6612,"##ileder":6613,"##strø":6614,"##alde":6615,"tilh":6616,"ent":6617,"enig":6618,"##esser":6619,"##idler":6620,"skilt":6621,"utbygging":6622,"##ården":6623,"##liggende":6624,"oppt":6625,"oppført":6626,"etasje":6627,"##fore":6628,"innvand":6629,"innbyggere":6630,"samle":6631,"spen":6632,"arter":6633,"##innen":6634,"Strøm":6635,"##smål":6636,"##aktør":6637,"##ansert":6638,"##assene":6639,"regnes":6640,"Forsvar":6641,"grenser":6642,"##perim":6643,"nedenfor":6644,"##kenes":6645,"##oppen":6646,"verdif":6647,"nokre":6648,"nokon":6649,"##kontroll":6650,"##jørn":6651,"snill":6652,"handle":6653,"verste":6654,"Angel":6655,"glob":6656,"korte":6657,"midten":6658,"##register":6659,"##sdagen":6660,"1969":6661,"generelle":6662,"spesiell":6663,"skjønte":6664,"Program":6665,"##sprosjekt":6666,"when":6667,"forsøke":6668,"##eløpet":6669,"milliarder":6670,"problemet":6671,"termin":6672,"jazz":6673,"benyttet":6674,"systemet":6675,"eventuell":6676,"kolon":6677,"could":6678,"Bruk":6679,"tomt":6680,"Helge":6681,"barnets":6682,"giftet":6683,"gråt":6684,"##havet":6685,"utgangspunktet":6686,"potens":6687,"##bjørg":6688,"søknad":6689,"Simon":6690,"kines":6691,"befolkningen":6692,"yrke":6693,"opplyser":6694,"Amerika":6695,"Russland":6696,"innflytelse":6697,"fantastisk":6698,"-,":6699,"700":6700,"Comm":6701,"Fru":6702,"Mil":6703,"Master":6704,"Sag":6705,"Tar":6706,"beløp":6707,"cent":6708,"comm":6709,"dir":6710,"hug":6711,"islam":6712,"lest":6713,"liter":6714,"sed":6715,"sinn":6716,"smerte":6717,"upp":6718,"umiddel":6719,"yt":6720,"øre":6721,"##ied":6722,"##nivå":6723,"##pene":6724,"##pla":6725,"##vatn":6726,"##ky":6727,"##keg":6728,"##knet":6729,"##ful":6730,"##dalen":6731,"##bro":6732,"##meter":6733,"##12":6734,"##igen":6735,"##alene":6736,"##key":6737,"avsnitt":6738,"stasjon":6739,"##neprest":6740,"skule":6741,"departementet":6742,"##ulv":6743,"##årene":6744,"##ival":6745,"måler":6746,"overtak":6747,"vedrørende":6748,"arv":6749,"top":6750,"trett":6751,"##smessige":6752,"##astro":6753,"minimum":6754,"henvend":6755,"##oster":6756,"godkjent":6757,"prom":6758,"treffe":6759,"grunnleggende":6760,"beholde":6761,"Jose":6762,"møtt":6763,"status":6764,"##økene":6765,"##jenester":6766,"ledelse":6767,"bortsett":6768,"1975":6769,"sengen":6770,"skjul":6771,"egenskaper":6772,"historiske":6773,"eksempler":6774,"##blad":6775,"nevner":6776,"##bytte":6777,"##ighed":6778,"leverand":6779,"sykeple":6780,"Første":6781,"Sverre":6782,"professor":6783,"føres":6784,"marker":6785,"##gård":6786,"mørket":6787,"fulle":6788,"mennene":6789,"selskapets":6790,"teknologi":6791,"drar":6792,"bevegelse":6793,"forutsetninger":6794,"##kastet":6795,"debatt":6796,"Event":6797,"telefonen":6798,"incl":6799,"preget":6800,"##spartiet":6801,"begrepet":6802,"typisk":6803,"vendte":6804,"utrolig":6805,"konflikt":6806,"Japan":6807,"Italia":6808,"62":6809,"Ask":6810,"Bed":6811,"Lo":6812,"Met":6813,"Pet":6814,"Tøn":6815,"UD":6816,"Vig":6817,"let":6818,"laks":6819,"mellem":6820,"oil":6821,"rammet":6822,"syl":6823,"uden":6824,"vinner":6825,"##rane":6826,"##natt":6827,"##vald":6828,"##kanten":6829,"##ail":6830,"##jes":6831,"##fatt":6832,"##fast":6833,"##flate":6834,"##hammer":6835,"##bakk":6836,"##ykket":6837,"##mester":6838,"##mynd":6839,"##æv":6840,"##EK":6841,"##EC":6842,"##IK":6843,"##TT":6844,"##står":6845,"stiv":6846,"stuen":6847,"skrå":6848,"skild":6849,"##ommene":6850,"##tering":6851,"##ods":6852,"beite":6853,"##istikk":6854,"overgang":6855,"overgrep":6856,"##ordningen":6857,"##erten":6858,"##slutning":6859,"##lings":6860,"##spiller":6861,"helhet":6862,"##yrer":6863,"trus":6864,"##ittil":6865,"klubb":6866,"beting":6867,"godkj":6868,"veks":6869,"gjennomføring":6870,"syv":6871,"bydel":6872,"##staden":6873,"svaret":6874,"ledet":6875,"advok":6876,"##hazar":6877,"only":6878,"plante":6879,"##løst":6880,"aktivt":6881,"teksten":6882,"åpning":6883,"1949":6884,"into":6885,"1961":6886,"##rådene":6887,"studier":6888,"deltok":6889,"invol":6890,"tiltakene":6891,"##blå":6892,"million":6893,"##sgiver":6894,"metode":6895,"Nyheter":6896,"kostnader":6897,"miljøet":6898,"##bygger":6899,"skolene":6900,"Kongen":6901,"erfaringer":6902,"##nevnte":6903,"Nilsen":6904,"elektron":6905,"sjuk":6906,"Charles":6907,"militære":6908,"sannsynligvis":6909,"##ørsmålet":6910,"konsekvenser":6911,"tankene":6912,"##hjelp":6913,"inngått":6914,"detalj":6915,"romantisk":6916,"absolutt":6917,"Enkelte":6918,"./":6919,"900":6920,"Aar":6921,"Bø":6922,"Best":6923,"Can":6924,"Eva":6925,"Hu":6926,"Hit":6927,"Hjel":6928,"Ivar":6929,"Ju":6930,"Komm":6931,"Nic":6932,"PC":6933,"Rand":6934,"Sos":6935,"Senter":6936,"fm":6937,"fange":6938,"gle":6939,"kok":6940,"krø":6941,"læ":6942,"læring":6943,"mi":6944,"miss":6945,"ov":6946,"rygg":6947,"runde":6948,"tw":6949,"titt":6950,"talt":6951,"tung":6952,"ulik":6953,"||":6954,"Ør":6955,"##øt":6956,"##gikk":6957,"##lad":6958,"##kre":6959,"##fa":6960,"##delt":6961,"##hv":6962,"##hj":6963,"##bes":6964,"##ypt":6965,"##VER":6966,"##etil":6967,"##elius":6968,"##egge":6969,"fore":6970,"##ona":6971,"tilstand":6972,"enden":6973,"endre":6974,"##uncil":6975,"avisen":6976,"##atsen":6977,"gjelde":6978,"1900":6979,"innstilt":6980,"bec":6981,"##ennlig":6982,"##bestemm":6983,"sim":6984,"##irka":6985,"see":6986,"report":6987,"barnd":6988,"klokka":6989,"##kets":6990,"betong":6991,"betegn":6992,"godset":6993,"##chen":6994,"1500":6995,"smitte":6996,"Skar":6997,"##stiltak":6998,"##cted":6999,"virksomheten":7000,"farlig":7001,"frig":7002,"##formen":7003,"kjøtt":7004,"bakover":7005,"##ower":7006,"dømes":7007,"ledelsen":7008,"kniv":7009,"temmelig":7010,"##snivå":7011,"Harry":7012,"høve":7013,"Frp":7014,"##syke":7015,"modell":7016,"jorda":7017,"##adem":7018,"studere":7019,"verdenskrig":7020,"##stillinger":7021,"##undervisning":7022,"Innst":7023,"basis":7024,"appar":7025,"Paris":7026,"grønne":7027,"Kirke":7028,"Geir":7029,"tilpas":7030,"keiser":7031,"yngre":7032,"oppmerksomhet":7033,"bekymret":7034,"Result":7035,"overrask":7036,"fengsel":7037,"ettermiddag":7038,"mekan":7039,"forretnings":7040,"beskyttelse":7041,"tilknytning":7042,"ttv":7043,"(<<":7044,"*(":7045,"81":7046,"Born":7047,"Dagen":7048,"Fir":7049,"Idd":7050,"Kraft":7051,"SP":7052,"],":7053,"fukt":7054,"gong":7055,"hog":7056,"iverks":7057,"mekt":7058,"melder":7059,"prev":7060,"qu":7061,"rammer":7062,"tide":7063,"volum":7064,"øk":7065,"##iem":7066,"##ng":7067,"##slig":7068,"##somme":7069,"##fulle":7070,"##bak":7071,"##båt":7072,"##yk":7073,"##LER":7074,"##EF":7075,"##DAG":7076,"##AK":7077,"##arer":7078,"##inert":7079,"##strå":7080,"##edom":7081,"##edskap":7082,"forretning":7083,"##ington":7084,"##ali":7085,"##alia":7086,"##issen":7087,"##isser":7088,"stu":7089,"skiftet":7090,"##asjen":7091,"hard":7092,"##rop":7093,"##rot":7094,"gjens":7095,"innom":7096,">>)":7097,"##kser":7098,"samlede":7099,"##ape":7100,"##beh":7101,"##ftene":7102,"rec":7103,"repar":7104,"reaksjon":7105,"##asjons":7106,"##språk":7107,"tren":7108,"trang":7109,"kunder":7110,"##emer":7111,"##emark":7112,"##ersoner":7113,"Form":7114,"grens":7115,"kred":7116,"bety":7117,"gjennomføre":7118,"##klart":7119,"##føringen":7120,"Skulle":7121,"lykkelig":7122,"framover":7123,"billed":7124,"##ingsfor":7125,"bygning":7126,"##ides":7127,"##likevel":7128,"tenk":7129,"flukt":7130,"liggende":7131,"reser":7132,"evangel":7133,"planlagt":7134,"teik":7135,"fylte":7136,"1978":7137,"halsen":7138,"samtykke":7139,"super":7140,"liksom":7141,"grader":7142,"kalle":7143,"direkt":7144,"##parti":7145,"krefter":7146,"garant":7147,"##samlingen":7148,"##benhavn":7149,"obser":7150,"forny":7151,"forklarte":7152,"tekniske":7153,"festet":7154,"Fredag":7155,"##posisjon":7156,"kritikk":7157,"nøye":7158,"næringslivet":7159,"ressurs":7160,"Charlie":7161,"administrat":7162,"begrenset":7163,"starter":7164,"mobil":7165,"forestilling":7166,"##skurset":7167,"Presidenten":7168,"Stockholm":7169,"Terje":7170,"Norwegian":7171,"Akt":7172,"Fa":7173,"Fug":7174,"Hav":7175,"Kø":7176,"Kost":7177,"Les":7178,"Lok":7179,"Not":7180,"Op":7181,"Pål":7182,"Pors":7183,"Ry":7184,"Son":7185,"Sund":7186,"Sof":7187,"banen":7188,"hagen":7189,"jam":7190,"kra":7191,"lodd":7192,"mur":7193,"nære":7194,"ond":7195,"pan":7196,"rund":7197,"ske":7198,"talte":7199,"would":7200,"##ømt":7201,"##gelig":7202,"##tale":7203,"##lett":7204,"##lund":7205,"##snes":7206,"##dotter":7207,"##elin":7208,"##reis":7209,"##leum":7210,"##isp":7211,"ensom":7212,"##ikeren":7213,"##atikk":7214,"indi":7215,"##asitet":7216,"##itor":7217,"utfor":7218,"##stemer":7219,"##limt":7220,"anlegget":7221,"samband":7222,"sprang":7223,"##mma":7224,"##ertil":7225,"sec":7226,"##slått":7227,"##uddet":7228,"reag":7229,"helgen":7230,"etterforsk":7231,"kommende":7232,"##serien":7233,"##olden":7234,"Str":7235,"Stol":7236,"Stad":7237,"Støre":7238,"Strand":7239,"nylig":7240,"##smark":7241,"##remt":7242,"fortj":7243,"kjeller":7244,"grensen":7245,"kriter":7246,"betalte":7247,"betrakte":7248,"##seth":7249,"##ops":7250,"##ople":7251,"biler":7252,"thro":7253,"traff":7254,"forskrift":7255,"forsknings":7256,"legitim":7257,"håp":7258,"paragraf":7259,"prosessen":7260,"##ytta":7261,"viktigere":7262,"forholdene":7263,"onde":7264,"planen":7265,"øya":7266,"mester":7267,"##snytt":7268,"##handlingen":7269,"##minister":7270,"rådet":7271,"lokalt":7272,"filmen":7273,"kortere":7274,"##urdering":7275,"where":7276,"organisasjoner":7277,"situasjoner":7278,"ext":7279,"new":7280,"Holm":7281,"systematisk":7282,"peker":7283,"Dagbladet":7284,"Daniel":7285,"conc":7286,"tapt":7287,"##verdige":7288,"##bøker":7289,"misten":7290,"talet":7291,"Finans":7292,"dame":7293,"retningslin":7294,"trygt":7295,"utfordring":7296,"innholdet":7297,"stolt":7298,"starte":7299,"PRO":7300,"oppmerksom":7301,"integrer":7302,"optim":7303,"fattig":7304,"Afrik":7305,"konkrete":7306,"mengder":7307,"Aftenposten":7308,"dessverre":7309,"##etroleum":7310,"århundre":7311,"Eirik":7312,"KODE":7313,"Are":7314,"Aust":7315,"Bonde":7316,"Cor":7317,"Elev":7318,"Fram":7319,"Jud":7320,"Kort":7321,"Ott":7322,"PÅ":7323,"Pris":7324,"Person":7325,"PAC":7326,"bunn":7327,"bane":7328,"drevet":7329,"fav":7330,"hor":7331,"jule":7332,"kg":7333,"nyn":7334,"nerv":7335,"senter":7336,"tel":7337,"tele":7338,"tomme":7339,"tolv":7340,"vik":7341,"vatn":7342,"øl":7343,"##ror":7344,"##lend":7345,"##okker":7346,"##bor":7347,"##bær":7348,"##banken":7349,"##æk":7350,"##50":7351,"##etningen":7352,"##ilder":7353,"foruts":7354,"##ingspl":7355,"##alter":7356,"##dem":7357,"##unget":7358,"##ras":7359,"##esa":7360,"stj":7361,"sten":7362,"stabil":7363,"medier":7364,"skru":7365,"institutt":7366,"dekke":7367,"departement":7368,"##ands":7369,"##etting":7370,"##ries":7371,"anm":7372,"bebo":7373,"##iska":7374,"##ution":7375,"andel":7376,"##sløs":7377,"årlig":7378,"##allfall":7379,"arrest":7380,"tog":7381,"triv":7382,"trær":7383,"##itten":7384,"##skapene":7385,"kome":7386,"komiteen":7387,"##ierne":7388,"##obling":7389,"##delinger":7390,"kjører":7391,"nedbør":7392,"sykkel":7393,"Skog":7394,"priser":7395,"##ammene":7396,"Inger":7397,"##stille":7398,"##lagte":7399,"formuler":7400,"byer":7401,"forbindel":7402,"verktøy":7403,"##ENT":7404,"##kja":7405,"Elling":7406,"teor":7407,"halde":7408,"samtale":7409,"likte":7410,"brukar":7411,"##hengige":7412,"presten":7413,"tilleggsn":7414,"nordmenn":7415,"gjenopp":7416,"holdes":7417,"##gaard":7418,"staden":7419,"Prosjekt":7420,"Problem":7421,"befinner":7422,"metall":7423,"drept":7424,"Holly":7425,"taket":7426,"føle":7427,"pekte":7428,"kaffe":7429,"teknisk":7430,"Adam":7431,"grunnlaget":7432,"brød":7433,"fjellet":7434,"naar":7435,"##kjøp":7436,"##stjeneste":7437,"oppstår":7438,"Pettersen":7439,"Fordi":7440,"eksisterende":7441,"pusten":7442,"##kirke":7443,"service":7444,"kommunestyret":7445,"ivrig":7446,"vassdrag":7447,"fritid":7448,"Folldal":7449,"oppfølging":7450,"PACE":7451,"!\"\"":7452,"Aks":7453,"Bel":7454,"But":7455,"Cat":7456,"Dat":7457,"Gjø":7458,"Hag":7459,"Hall":7460,"Hei":7461,"Ko":7462,"Lunde":7463,"Meg":7464,"Myr":7465,"Math":7466,"Neste":7467,"Pal":7468,"Pub":7469,"Qu":7470,"Røy":7471,"Rød":7472,"Sven":7473,"Ton":7474,"Vet":7475,"Vinter":7476,"boks":7477,"dal":7478,"dannet":7479,"elem":7480,"gn":7481,"gres":7482,"jentene":7483,"jenta":7484,"kle":7485,"mo":7486,"mak":7487,"mum":7488,"make":7489,"pul":7490,"sum":7491,"sank":7492,"verne":7493,"vinne":7494,"will":7495,"##ious":7496,"##por":7497,"##oger":7498,"##sil":7499,"##sle":7500,"##jed":7501,"##fol":7502,"##hal":7503,"##byr":7504,"##burg":7505,"##æs":7506,"##14":7507,"##GER":7508,"##inske":7509,"##stant":7510,"##oms":7511,"##edrag":7512,"##edlemmer":7513,"forstand":7514,"forplikt":7515,"##ism":7516,"enor":7517,"##olje":7518,"##idde":7519,"##skar":7520,"##vernet":7521,"##kton":7522,"omsetning":7523,"##anden":7524,"utle":7525,"##ula":7526,"##uleg":7527,"##kkene":7528,"##æret":7529,"##riere":7530,"any":7531,"##former":7532,"elsket":7533,"##beveg":7534,"##ella":7535,"årlige":7536,"rektor":7537,"##spar":7538,"Store":7539,"##veig":7540,"##umb":7541,"minutt":7542,"##gjen":7543,"levert":7544,"##result":7545,"delte":7546,"Skriv":7547,"bronse":7548,"utenrik":7549,"mora":7550,"politiker":7551,"byens":7552,"velkommen":7553,"##cept":7554,"##ERN":7555,"møtes":7556,"Mary":7557,"Ang":7558,"##oci":7559,"##løpet":7560,"styring":7561,"aktive":7562,"1971":7563,"personlige":7564,"Torstein":7565,"1947":7566,"1963":7567,"1962":7568,"##virksomhet":7569,"##askin":7570,"vanskelige":7571,"maten":7572,"jorden":7573,"##grepet":7574,"student":7575,"kulturelle":7576,"strengt":7577,"##stedenfor":7578,"1955":7579,"manglende":7580,"omfang":7581,"terreng":7582,"brystet":7583,"##komst":7584,"prosjekter":7585,"##elegg":7586,"seieren":7587,"eventyr":7588,"##EST":7589,"Vestfold":7590,"internasjonalt":7591,"Industri":7592,"dotter":7593,"doktor":7594,"kvinnene":7595,"Council":7596,"opprettholde":7597,"barnehag":7598,"tømmer":7599,"etablere":7600,"etablert":7601,"utfordringer":7602,"sendes":7603,"debatten":7604,"##bordet":7605,"Sigrid":7606,"Julie":7607,"prinsippet":7608,"kvalif":7609,"pleide":7610,"finansier":7611,"##draget":7612,"##forbund":7613,"overrasket":7614,"priorit":7615,"Ibid":7616,"Norway":7617,"arbeidsplasser":7618,"kontroller":7619,"relevant":7620,"##analyser":7621,"grundig":7622,"fingrene":7623,"##iledning":7624,"OPPG":7625,"Fylkesmannen":7626,"dialog":7627,"Avis":7628,"Bur":7629,"Eil":7630,"Fle":7631,"Gam":7632,"Grupp":7633,"Glimt":7634,"Lie":7635,"Målet":7636,"Prem":7637,"Set":7638,"Vind":7639,"bist":7640,"bif":7641,"borg":7642,"cap":7643,"esk":7644,"elite":7645,"gas":7646,"idag":7647,"ju":7648,"kna":7649,"kilde":7650,"kaldt":7651,"lurte":7652,"minner":7653,"miste":7654,"ph":7655,"rollen":7656,"sert":7657,"sover":7658,"sats":7659,"urett":7660,"well":7661,"##ræ":7662,"##ior":7663,"##gde":7664,"##kne":7665,"##sgr":7666,"##sjef":7667,"##aug":7668,"##jar":7669,"##fond":7670,"##fabr":7671,"##mennes":7672,"##EI":7673,"##OS":7674,"##CIS":7675,"##enhet":7676,"##anerne":7677,"##inte":7678,"##illingen":7679,"##stall":7680,"##steder":7681,"##stål":7682,"##egen":7683,"##alem":7684,"avgift":7685,"##esund":7686,"meddel":7687,"##ørene":7688,"dep":7689,"dekker":7690,"##kten":7691,"##entert":7692,"##urr":7693,"oppm":7694,"##send":7695,"såg":7696,"elva":7697,"spare":7698,"##iret":7699,"##okneprest":7700,"##øyet":7701,"##slå":7702,"##sløy":7703,"##ygget":7704,"arr":7705,"trinn":7706,"Start":7707,"##rings":7708,"blad":7709,"fortell":7710,"regi":7711,"leiar":7712,"##ience":7713,"##legges":7714,"tilby":7715,"Alf":7716,"kommunal":7717,"##petanse":7718,"166":7719,"trappen":7720,"ordene":7721,"flotte":7722,"##sfalt":7723,"gleder":7724,"##ottet":7725,"planlegging":7726,"produktet":7727,"1942":7728,"dype":7729,"##gjøret":7730,"Leo":7731,"##gress":7732,"vegen":7733,"##uddh":7734,"problemene":7735,"Nye":7736,"lufta":7737,"bryter":7738,"truffet":7739,"1938":7740,"1920":7741,"shall":7742,"##tektene":7743,"dårlige":7744,"profil":7745,"posisjon":7746,"Plan":7747,"foreldrene":7748,"sikkerhets":7749,"barnehagen":7750,"nøytr":7751,"bestemmelsene":7752,"intervall":7753,"koke":7754,"tilpasset":7755,"first":7756,"beregnet":7757,"åpenbart":7758,"##ability":7759,"fremmede":7760,"##ituasjonen":7761,"eksped":7762,"befolkning":7763,"integr":7764,"opprinnelig":7765,"kyrkje":7766,"Hvilken":7767,"important":7768,"Sandefjord":7769,"tvers":7770,"bevilgning":7771,"frokost":7772,"analys":7773,"reklame":7774,"europeiske":7775,"fabrikken":7776,"Eksemp":7777,"##clear":7778,"dollar":7779,"Severin":7780,"entrepren":7781,"Bevil":7782,"through":7783,"(-":7784,"Bolig":7785,"Com":7786,"Col":7787,"Dess":7788,"Direkte":7789,"Hels":7790,"Lag":7791,"Legg":7792,"Museum":7793,"Nu":7794,"Ot":7795,"Pitt":7796,"Rik":7797,"Tes":7798,"Tot":7799,"Tirsdag":7800,"World":7801,"atter":7802,"cor":7803,"gass":7804,"gifte":7805,"igang":7806,"iallfall":7807,"kret":7808,"kald":7809,"krimin":7810,"kandid":7811,"lun":7812,"liden":7813,"pac":7814,"rak":7815,"trå":7816,"trist":7817,"ug":7818,"uro":7819,"##nett":7820,"##gjøre":7821,"##kens":7822,"##si":7823,"##dy":7824,"##hard":7825,"##bre":7826,"##messige":7827,"##18":7828,"##16":7829,"##SB":7830,"##KV":7831,"##omatisk":7832,"##onger":7833,"##ison":7834,"stri":7835,"stikk":7836,"##skrift":7837,"ski":7838,"skiller":7839,"##asin":7840,"harmon":7841,"##ulator":7842,"##akar":7843,"##odene":7844,"bein":7845,"##ennene":7846,"##utan":7847,"##speri":7848,"##ims":7849,"konstruksjon":7850,"##ossen":7851,"##engde":7852,"##eldige":7853,"##alty":7854,"skulderen":7855,"Energ":7856,"##chn":7857,"##ustru":7858,"arbeidst":7859,"takket":7860,"svake":7861,"lyden":7862,"##opper":7863,"brun":7864,"utenlandske":7865,"##aterial":7866,"Arch":7867,"bytte":7868,"##kons":7869,"allmenn":7870,"muligheten":7871,"statlige":7872,"tyder":7873,"eksist":7874,"##vendte":7875,"døgn":7876,"kontra":7877,"Olson":7878,"##sjoner":7879,"tilfeldig":7880,"##problem":7881,"suks":7882,"1941":7883,"offer":7884,"støttet":7885,"Nordic":7886,"##kommer":7887,"foten":7888,"##akkert":7889,"##ORT":7890,"##book":7891,"fungere":7892,"behandlingen":7893,"##byrå":7894,"fait":7895,"koster":7896,"hendelser":7897,"hjalp":7898,"nødvendigvis":7899,"##elege":7900,"mottatt":7901,"husket":7902,"oppgitt":7903,"opplevde":7904,"##fjorden":7905,"ekteskap":7906,"guttene":7907,"Ingebjørg":7908,"barnehage":7909,"fuglene":7910,"##posisjonen":7911,"nøyaktig":7912,"ulov":7913,"undersøkelse":7914,"##politikk":7915,"##stemmig":7916,"individuelle":7917,"stillingen":7918,"flyktning":7919,"betraktning":7920,"activ":7921,"##kohol":7922,"aksept":7923,"anerkj":7924,"kommentarer":7925,"religiøse":7926,"Radio":7927,"øverste":7928,"litteratur":7929,"kjærleik":7930,"different":7931,"hvisket":7932,"Tønsberg":7933,",\"\"\"\"":7934,":/":7935,"App":7936,"Bi":7937,"Bus":7938,"BRU":7939,"Din":7940,"Faren":7941,"Gift":7942,"HV":7943,"Kval":7944,"Litt":7945,"Mogg":7946,"Nar":7947,"Oper":7948,"Pak":7949,"Red":7950,"Ske":7951,"bag":7952,"bab":7953,"dus":7954,"fler":7955,"good":7956,"hom":7957,"hast":7958,"hittil":7959,"krim":7960,"lært":7961,"live":7962,"later":7963,"loc":7964,"rust":7965,"sivil":7966,"tene":7967,"~~~~~":7968,"##ears":7969,"##rinn":7970,"##øter":7971,"##giver":7972,"##vold":7973,"##vakten":7974,"##las":7975,"##lov":7976,"##ough":7977,"##sre":7978,"##she":7979,"##sinn":7980,"##sdepartementet":7981,"##aar":7982,"##feltet":7983,"##dm":7984,"##dig":7985,"##driv":7986,"##hr":7987,"##hamm":7988,"##bred":7989,"##ya":7990,"##Se":7991,"##cl":7992,"##wood":7993,"##ze":7994,"##que":7995,"##ör":7996,"##ani":7997,"##inst":7998,"##ilet":7999,"forferd":8000,"forurens":8001,"##tting":8002,"erkj":8003,"##olige":8004,"medlemmene":8005,"##sko":8006,"##skjer":8007,"innd":8008,"##nda":8009,"##akon":8010,"inngår":8011,"inntekter":8012,"##geir":8013,"##ders":8014,"overlev":8015,"overta":8016,"##bey":8017,"slutte":8018,"derved":8019,"andra":8020,"##lingene":8021,"##ants":8022,"trø":8023,"##endommen":8024,"Stre":8025,"sint":8026,"motsetning":8027,"##smod":8028,"##ional":8029,"miner":8030,"##abeth":8031,"plak":8032,"##reme":8033,"storm":8034,"leker":8035,"merker":8036,"##peri":8037,"nedgang":8038,"delar":8039,"##laus":8040,"gjennomgå":8041,"gjennomføres":8042,"løpe":8043,"##landsk":8044,"Skole":8045,"lands":8046,"rettss":8047,"Aller":8048,"##ctive":8049,"utenom":8050,"serien":8051,"virkning":8052,"Arild":8053,"politikere":8054,"franske":8055,"##retten":8056,"Trine":8057,"ligg":8058,"mulige":8059,"redeg":8060,"vidare":8061,"beredskap":8062,"havnet":8063,"##ments":8064,"perfekt":8065,"##ologien":8066,"##haugen":8067,"##strekning":8068,"domstol":8069,"##ibil":8070,"fylle":8071,"Erna":8072,"parti":8073,"offis":8074,"greit":8075,"##aliteter":8076,"vegg":8077,"faktiske":8078,"faktorer":8079,"sikret":8080,"arth":8081,"##sforhold":8082,"Gran":8083,"musik":8084,"mangfold":8085,"Org":8086,"diff":8087,"vennlig":8088,"Bjørg":8089,"1930":8090,"usikker":8091,"scenen":8092,"lengst":8093,"stilles":8094,"Luft":8095,"tapet":8096,"skipet":8097,"representanter":8098,"##athan":8099,"News":8100,"positivt":8101,"ferie":8102,"undersøkelser":8103,"bitter":8104,"Edvard":8105,"##politikken":8106,"Været":8107,"kilometer":8108,"bredt":8109,"Roma":8110,"Øyvind":8111,"tabell":8112,"##kontor":8113,"kategor":8114,"presteg":8115,"irrit":8116,"yrkes":8117,"erstatning":8118,"undersøke":8119,"journalist":8120,"døydde":8121,"anvendelse":8122,"varierer":8123,"vedlikehold":8124,"indikator":8125,"tendens":8126,"dimensjon":8127,"includ":8128,"?\"\"\"\"":8129,"DD":8130,"Fag":8131,"Gad":8132,"Hard":8133,"Kra":8134,"Kyst":8135,"Kunst":8136,"Lær":8137,"NM":8138,"NCIS":8139,"Ove":8140,"Ofte":8141,"Svend":8142,"Særlig":8143,"Ther":8144,"Tabell":8145,"bade":8146,"car":8147,"dyn":8148,"eitt":8149,"equ":8150,"give":8151,"hur":8152,"if":8153,"isen":8154,"kall":8155,"koll":8156,"lete":8157,"mog":8158,"must":8159,"prat":8160,"syr":8161,"sorg":8162,"tit":8163,"vakkert":8164,"water":8165,"##eks":8166,"##øen":8167,"##iol":8168,"##gne":8169,"##pub":8170,"##pensjon":8171,"##pix":8172,"##sjø":8173,"##foss":8174,"##bal":8175,"##brev":8176,"##mere":8177,"##mot":8178,"##15":8179,"##ÅR":8180,"##eten":8181,"##arant":8182,"##ining":8183,"##inav":8184,"##edia":8185,"forbruker":8186,"##inge":8187,"##oler":8188,"stig":8189,"stim":8190,"##amin":8191,"##agelse":8192,"##ktene":8193,"ombord":8194,"##andt":8195,"##andinav":8196,"##jonen":8197,"opptak":8198,"##forstå":8199,"innled":8200,"bestand":8201,"villig":8202,"veder":8203,"##uth":8204,"rem":8205,"requ":8206,"them":8207,"konte":8208,"kled":8209,"##ices":8210,"brudd":8211,"daglige":8212,"skulpt":8213,"kjend":8214,"##ness":8215,"gransk":8216,"smiler":8217,"Skj":8218,"prisen":8219,"landskap":8220,"lyttet":8221,"serie":8222,"grunner":8223,"mate":8224,"major":8225,"snu":8226,"snar":8227,"Dahl":8228,"##>>.":8229,"sakte":8230,"resolusjon":8231,"tykk":8232,"##sfull":8233,"låne":8234,"planene":8235,"##prisen":8236,"Bryn":8237,"##prof":8238,"Rees":8239,"intro":8240,"oftest":8241,"##rigt":8242,"modellen":8243,"jordbruket":8244,"markert":8245,"sikrer":8246,"Roger":8247,"retur":8248,"nevnes":8249,"##sprosessen":8250,"##byen":8251,"løsningen":8252,"who":8253,"##rense":8254,"##kurs":8255,"befant":8256,"økonomi":8257,"oppfattet":8258,"sørget":8259,"drepe":8260,"forstått":8261,"Barne":8262,"diagn":8263,"morgenen":8264,"nasjonalt":8265,"vurdert":8266,"##verdier":8267,"passasjer":8268,"forsto":8269,"##mennene":8270,"melk":8271,"industrien":8272,"stoppe":8273,"avsluttet":8274,"regional":8275,"røyk":8276,"fugl":8277,"fugle":8278,"trygde":8279,"##gruppe":8280,"takknem":8281,"generalforsamling":8282,"prinsipper":8283,"##stjenesten":8284,"##tokoll":8285,"Lillehammer":8286,"##sidig":8287,"presentert":8288,"sjefen":8289,"kysten":8290,"forkyn":8291,"jødene":8292,"tilfredsstillende":8293,"Artikkel":8294,"hjørnet":8295,"Louis":8296,"forventninger":8297,"illust":8298,"Lilly":8299,"lensmann":8300,"Hotel":8301,"##insippet":8302,"##rustning":8303,"tilhører":8304,"Randi":8305,"København":8306,"Afrika":8307,"Bang":8308,"Bib":8309,"CO":8310,"Fjell":8311,"Fader":8312,"Face":8313,"Greg":8314,"Hens":8315,"Jern":8316,"Kat":8317,"Mi":8318,"MAR":8319,"NY":8320,"Ru":8321,"Rich":8322,"Røn":8323,"Samme":8324,"Vict":8325,"asfalt":8326,"brevet":8327,"bakter":8328,"banken":8329,"bringe":8330,"cup":8331,"drøm":8332,"fed":8333,"funn":8334,"falle":8335,"jap":8336,"kua":8337,"munt":8338,"musk":8339,"pal":8340,"peng":8341,"pip":8342,"penge":8343,"riktige":8344,"vo":8345,"vell":8346,"vask":8347,"##rere":8348,"##økonom":8349,"##iat":8350,"##tra":8351,"##lær":8352,"##sal":8353,"##jan":8354,"##finn":8355,"##uel":8356,"##hlet":8357,"##bank":8358,"##besk":8359,"##LO":8360,"##IUS":8361,"##30":8362,"##ws":8363,"##ØS":8364,"##ory":8365,"##arm":8366,"##inket":8367,"##iluft":8368,"forvir":8369,"forholde":8370,"##igere":8371,"enstemmig":8372,"stiftet":8373,"##skilte":8374,"skift":8375,"utvalget":8376,"##rog":8377,"##round":8378,"##urs":8379,"##user":8380,"allikevel":8381,"##ksus":8382,"språ":8383,"overalt":8384,"##ssam":8385,"##utvik":8386,"seige":8387,"202":8388,"rein":8389,"##spital":8390,"hellige":8391,"##ends":8392,"Styret":8393,"##veksten":8394,"##umin":8395,"##lyst":8396,"komiteens":8397,"##delen":8398,"##berkul":8399,"sammenhenger":8400,"svov":8401,"##oppgå":8402,"##stilte":8403,"søkte":8404,"følelsen":8405,"endog":8406,"##ksjoner":8407,"trag":8408,"##sområ":8409,"synlig":8410,"redaksjon":8411,"berg":8412,"##rerte":8413,"perm":8414,"evner":8415,"målt":8416,"netto":8417,"##program":8418,"samtaler":8419,"antagelig":8420,"##faring":8421,"naturlige":8422,"familier":8423,"områdene":8424,"1967":8425,"betydelige":8426,"jordbruks":8427,"greie":8428,"Kristin":8429,"Kristine":8430,"Kristoffer":8431,"##stituttet":8432,"engelske":8433,"##spunktet":8434,"based":8435,"##eløs":8436,"stykker":8437,"Knud":8438,"konsentr":8439,"lengde":8440,"eventuelle":8441,"control":8442,"##ritor":8443,"roy":8444,"Marta":8445,"Komiteens":8446,"variab":8447,"fordelt":8448,"oppgaven":8449,"##boka":8450,"sida":8451,"gjerning":8452,"materiale":8453,"forutsetning":8454,"forsvinner":8455,"kritisk":8456,"Paulus":8457,"trygge":8458,"avgjøre":8459,"krevende":8460,"##grupper":8461,"kilo":8462,"Vidar":8463,"påvirke":8464,"Malm":8465,"understreker":8466,"forskjellen":8467,"skriftlig":8468,"Alexander":8469,"risiko":8470,"investeringer":8471,"ille":8472,"aksep":8473,"analyse":8474,"bosatt":8475,"However":8476,"Fremskritt":8477,"politikerne":8478,"frivillig":8479,"jurid":8480,"eiendommen":8481,"utvidet":8482,"forhandlinger":8483,"##ebyggende":8484,"FREKV":8485,"Marcus":8486,"Bjarne":8487,"mønster":8488,"Hitler":8489,"two":8490,"Fremskrittspartiet":8491,"FREKVENS":8492,"Bort":8493,"Død":8494,"ED":8495,"Eik":8496,"Efter":8497,"Ekst":8498,"Fakt":8499,"GR":8500,"Had":8501,"Iver":8502,"Mol":8503,"Næ":8504,"Off":8505,"Rør":8506,"Sw":8507,"Sett":8508,"Tw":8509,"Tal":8510,"Telefon":8511,"War":8512,"bær":8513,"ballen":8514,"cost":8515,"ess":8516,"gave":8517,"hæ":8518,"his":8519,"hat":8520,"high":8521,"ib":8522,"istedenfor":8523,"lave":8524,"næ":8525,"nøl":8526,"pist":8527,"pannen":8528,"petroleum":8529,"rate":8530,"san":8531,"##run":8532,"##øp":8533,"##till":8534,"##kal":8535,"##kelen":8536,"##sje":8537,"##jeg":8538,"##fre":8539,"##funnet":8540,"##hald":8541,"##bod":8542,"##bast":8543,"##blemer":8544,"##ye":8545,"##ykt":8546,"##JER":8547,"##JON":8548,"##UL":8549,"##KS":8550,"##anpix":8551,"##ilsynet":8552,"##start":8553,"##stede":8554,"##edlem":8555,"##tekn":8556,"avisa":8557,"avdelingen":8558,"somm":8559,"stasjonen":8560,"##skrav":8561,"##aton":8562,"skatter":8563,"##vers":8564,"##agner":8565,"##ppa":8566,"dekor":8567,"omstend":8568,"utad":8569,"utføre":8570,"##usalem":8571,"opptil":8572,"##ruten":8573,"##\"\"\"":8574,"noens":8575,"innan":8576,"innstillingen":8577,"being":8578,"beund":8579,"spas":8580,"spillere":8581,"simp":8582,"##mming":8583,"slutter":8584,"##slet":8585,"##asjonar":8586,"##sperson":8587,"##ygger":8588,"##icular":8589,"brud":8590,"bruken":8591,"##obil":8592,"Foreld":8593,"##lete":8594,"herre":8595,"##klubb":8596,"fremover":8597,"landsb":8598,"sammenhengen":8599,"retter":8600,"svakt":8601,"lykke":8602,"lyste":8603,"fins":8604,"finst":8605,"server":8606,"Ark":8607,"Arm":8608,"egnet":8609,"main":8610,"flink":8611,"##appe":8612,"tilfellet":8613,"1972":8614,"spesif":8615,"samtlige":8616,"anty":8617,"antar":8618,"Real":8619,"sukket":8620,"desc":8621,"nordiske":8622,"##vegen":8623,"##okkene":8624,"faglige":8625,"skapte":8626,"##splikt":8627,"##boks":8628,"1957":8629,"1952":8630,"skjønne":8631,"solgte":8632,"datam":8633,"##talet":8634,"resultatene":8635,"##yth":8636,"##strasjon":8637,"avtalt":8638,"1939":8639,"nuclear":8640,"lærere":8641,"##danning":8642,"Max":8643,"##avtaler":8644,"alvorlige":8645,"Søgne":8646,"myndighetene":8647,"opplevd":8648,"ektef":8649,"foregående":8650,"Georg":8651,"reality":8652,"foreslo":8653,"prøvd":8654,"amerikansk":8655,"hendes":8656,"##ituasjon":8657,"institusjoner":8658,"##forbundet":8659,"##SENT":8660,"##enskom":8661,"Haugen":8662,"kjerne":8663,"##kapit":8664,"henholdsvis":8665,"uttrykket":8666,"glimt":8667,"prioriter":8668,"##vesenet":8669,"erstatnings":8670,"tilsagn":8671,"årsaken":8672,"sjekke":8673,"##fugler":8674,"hjemmel":8675,"åtferd":8676,"huden":8677,"forbrukaren":8678,"Jerusalem":8679,"tverr":8680,"tilnærm":8681,"Justis":8682,"menneskerettigheter":8683,"inkludert":8684,"elektrisk":8685,"development":8686,"Rogaland":8687,"tidlegare":8688,"parlamentar":8689,"##botn":8690,"Gratulerer":8691,"Sosial":8692,"glemme":8693,"Pakistan":8694,")).":8695,"Akkurat":8696,"Bal":8697,"Bost":8698,"Bull":8699,"Bill":8700,"Blir":8701,"City":8702,"EN":8703,"Få":8704,"Fur":8705,"Fire":8706,"Gjør":8707,"Hord":8708,"Hos":8709,"Imidlertid":8710,"KR":8711,"Loc":8712,"MD":8713,"Nok":8714,"Nem":8715,"Nytt":8716,"Oli":8717,"Ped":8718,"Pat":8719,"Port":8720,"Put":8721,"Ren":8722,"Rundt":8723,"Sin":8724,"Sann":8725,"Sivert":8726,"Ull":8727,"aspekt":8728,"gyld":8729,"gaten":8730,"him":8731,"hekt":8732,"hage":8733,"kos":8734,"kake":8735,"lam":8736,"mom":8737,"myr":8738,"nært":8739,"okk":8740,"rab":8741,"sene":8742,"siv":8743,"tomm":8744,"tøy":8745,"##ré":8746,"##vt":8747,"##vitt":8748,"##vask":8749,"##sang":8750,"##sens":8751,"##saker":8752,"##fo":8753,"##frem":8754,"##datter":8755,"##dition":8756,"##ummen":8757,"##hodet":8758,"##ble":8759,"##brigt":8760,"##yke":8761,"##æge":8762,"##II":8763,"##ender":8764,"##etre":8765,"##arch":8766,"forlate":8767,"##ingane":8768,"endel":8769,"##unk":8770,"stammer":8771,"stengt":8772,"##idig":8773,"##ama":8774,"skred":8775,"athlet":8776,"##agne":8777,"deil":8778,"dekning":8779,"##asjem":8780,"##ndene":8781,"omstilling":8782,"##seende":8783,"utsette":8784,"utbytte":8785,"##kkede":8786,"##æringer":8787,"##lia":8788,"##ettene":8789,"opphav":8790,"altid":8791,"alkohol":8792,"##oth":8793,"##rup":8794,"##ikkene":8795,"##ters":8796,"##odden":8797,"eleg":8798,"overdra":8799,"##avdelingen":8800,"sies":8801,"##mmene":8802,"##uden":8803,"konser":8804,"trur":8805,"Styr":8806,"Stift":8807,"klage":8808,"Departementet":8809,"motsatt":8810,"##jerte":8811,"##icy":8812,"##ically":8813,"##astric":8814,"sau":8815,"##øres":8816,"nådde":8817,"##setningen":8818,"arbeidsgiver":8819,"liste":8820,"hvorledes":8821,"hvorvidt":8822,"lyse":8823,"Inne":8824,"brede":8825,"Alta":8826,"160":8827,"ordningen":8828,"tilbakevir":8829,"forbundet":8830,"Tran":8831,"saka":8832,"sakrist":8833,"resear":8834,"ekspl":8835,"##ockey":8836,"ledere":8837,"Elis":8838,"lovet":8839,"##svil":8840,"##svoll":8841,"1981":8842,"teoret":8843,"aktører":8844,"holdning":8845,"Berit":8846,"Spes":8847,"kapell":8848,"1944":8849,"unnskyld":8850,"betydningen":8851,"kraftige":8852,"##kvens":8853,"hjemmet":8854,"beskytte":8855,"spurt":8856,"engasj":8857,"behandles":8858,"organisert":8859,"fact":8860,"Oppland":8861,"##kjemp":8862,"bryte":8863,"vinden":8864,"should":8865,"Wilse":8866,"scen":8867,"mørkt":8868,"##uerlig":8869,"##ografi":8870,"selskapene":8871,"##llup":8872,"disc":8873,"appro":8874,"øvre":8875,"##juk":8876,"opplevelse":8877,"akutt":8878,"kjørt":8879,"kjøret":8880,"Jesu":8881,"1906":8882,"øyeblikket":8883,"konkurransen":8884,"farten":8885,"angst":8886,"foreslått":8887,"bidratt":8888,"rødt":8889,"undersøkelsen":8890,"kreves":8891,"##gruppen":8892,"Charl":8893,"sekunder":8894,"salget":8895,"Ellers":8896,"embet":8897,"skarp":8898,"poteter":8899,"forandring":8900,"forandret":8901,"møttes":8902,"eksportkv":8903,"Gunvor":8904,"##film":8905,"eksisterer":8906,"Grøn":8907,"bekreftet":8908,"programmet":8909,"populære":8910,"frivillige":8911,"namn":8912,"##bakken":8913,"##mosf":8914,"muc":8915,"færre":8916,"glemt":8917,"inspir":8918,"utelu":8919,"Ungdom":8920,"forvaltnings":8921,"##aborator":8922,"divisjon":8923,"retningslinjer":8924,"PROSENT":8925,"suksess":8926,"##uminium":8927,"Au":8928,"Amer":8929,"Bart":8930,"Gnr":8931,"Hil":8932,"Hold":8933,"Helse":8934,"Helt":8935,"Helen":8936,"Jar":8937,"James":8938,"Rolf":8939,"Rådet":8940,"SI":8941,"Try":8942,"UN":8943,"ap":8944,"after":8945,"buddh":8946,"dikter":8947,"fx":8948,"gm":8949,"gøy":8950,"hed":8951,"kru":8952,"kull":8953,"kunnet":8954,"lomm":8955,"line":8956,"mess":8957,"mote":8958,"nat":8959,"rede":8960,"sav":8961,"salen":8962,"sof":8963,"tn":8964,"tunn":8965,"takt":8966,"wc":8967,"yte":8968,"~~~~~~~~~":8969,"##rus":8970,"##irasjon":8971,"##nu":8972,"##ped":8973,"##tn":8974,"##tar":8975,"##læring":8976,"##kede":8977,"##jakt":8978,"##flet":8979,"##fatter":8980,"##fallet":8981,"##drift":8982,"##hu":8983,"##æd":8984,"##LA":8985,"##11":8986,"##JE":8987,"##OD":8988,"##UD":8989,"##99":8990,"##eliv":8991,"##elov":8992,"##iland":8993,"##stig":8994,"##iget":8995,"##alie":8996,"##onment":8997,"##deb":8998,"enighet":8999,"##ungen":9000,"##rak":9001,"avde":9002,"##ikop":9003,"##idens":9004,"##skv":9005,"skudd":9006,"##ago":9007,"##ado":9008,"##ady":9009,"##ivalen":9010,"##kko":9011,"##etta":9012,"oppvekst":9013,"oppgaver":9014,"##ript":9015,"##sendt":9016,"##ksy":9017,"samling":9018,"spent":9019,"hvitt":9020,"overl":9021,"overvå":9022,"##avisen":9023,"##mmelse":9024,"##orden":9025,"##uta":9026,"##utvalget":9027,"##oker":9028,"##øyene":9029,"revet":9030,"dug":9031,"etterl":9032,"##ygt":9033,"toal":9034,"prov":9035,"project":9036,"Stord":9037,"klaus":9038,"##nner":9039,"underveis":9040,"kompon":9041,"##gja":9042,"blodet":9043,"fortvil":9044,"regelen":9045,"104":9046,"selger":9047,"begrunn":9048,"##førsel":9049,"takke":9050,"symp":9051,"trekkes":9052,"##ksjonen":9053,"verdt":9054,"kommunens":9055,"politist":9056,"sjanse":9057,"statens":9058,"##sborg":9059,"husmann":9060,"Sein":9061,"Sebast":9062,"eksperim":9063,"##vendt":9064,"flytta":9065,"##jeneste":9066,"##jenesten":9067,"##sdalen":9068,"halve":9069,"uttalt":9070,"anta":9071,"Torsdag":9072,"Torbjørn":9073,"Omar":9074,"Vedlegg":9075,"##rafikk":9076,"greier":9077,"historisk":9078,"faktum":9079,"forskjeller":9080,"dødsf":9081,"artikkelen":9082,"1951":9083,"##afjord":9084,"dating":9085,"ferdige":9086,"engasjem":9087,"##ship":9088,"##settelse":9089,"tante":9090,"Ork":9091,"dreide":9092,"gjev":9093,"posten":9094,"##ctions":9095,"konsert":9096,"Ungar":9097,"sykehuset":9098,"1924":9099,"1925":9100,"Storting":9101,"tapte":9102,"kaff":9103,"utsikt":9104,"Johnsen":9105,"House":9106,"##grammet":9107,"##henomen":9108,"Ingebrigt":9109,"automat":9110,"##kjøps":9111,"klim":9112,"##garden":9113,"foreslås":9114,"large":9115,"stoffer":9116,"raske":9117,"refusjon":9118,"løpende":9119,"voksen":9120,"Tidligere":9121,"fangst":9122,"Snart":9123,"Bildet":9124,"##OMM":9125,"Karlsen":9126,"yng":9127,"Super":9128,"Kommunen":9129,"Eiendom":9130,"hotellet":9131,"Onsdag":9132,"Agder":9133,"Hvilke":9134,"stjerne":9135,"invitert":9136,"analyser":9137,"revisor":9138,"ønskelig":9139,"kolleger":9140,"alminnelige":9141,"russiske":9142,"Senere":9143,"nektet":9144,"bibliote":9145,"##snyheter":9146,"Trygve":9147,"folketrygden":9148,"fenomen":9149,"Australia":9150,"Felles":9151,"perspektiv":9152,"advokat":9153,"sertifik":9154,"arthrit":9155,"vederlag":9156,"Facebook":9157,"royalty":9158,"noensinne":9159,"research":9160,"Sebastian":9161,".................":9162,"Asp":9163,"Ble":9164,"Bald":9165,"Dal":9166,"Dol":9167,"Fer":9168,"Gang":9169,"Hånd":9170,"Jos":9171,"Kjer":9172,"Lor":9173,"Moren":9174,"Nyg":9175,"Nasjonal":9176,"Od":9177,"Pre":9178,"Ri":9179,"Rh":9180,"SC":9181,"Spe":9182,"Sval":9183,"Tim":9184,"Tem":9185,"US":9186,"Ute":9187,"agent":9188,"case":9189,"during":9190,"gule":9191,"hester":9192,"ital":9193,"ker":9194,"kunn":9195,"munn":9196,"mød":9197,"misjon":9198,"pave":9199,"phenomen":9200,"rid":9201,"rat":9202,"sli":9203,"sort":9204,"urim":9205,"vas":9206,"vaks":9207,"vorte":9208,"votering":9209,"Året":9210,"##ield":9211,"##ny":9212,"##åter":9213,"##tom":9214,"##tred":9215,"##ope":9216,"##kas":9217,"##kultur":9218,"##sr":9219,"##slige":9220,"##svik":9221,"##srev":9222,"##funksjon":9223,"##hor":9224,"##båten":9225,"##MM":9226,"##conom":9227,"##70":9228,"##HO":9229,"##HET":9230,"##inær":9231,"##stater":9232,"foren":9233,"forhand":9234,"forening":9235,"##rekk":9236,"stolen":9237,"##atende":9238,"##verv":9239,"atmosf":9240,"inten":9241,"desto":9242,"##itive":9243,"##kta":9244,"utø":9245,"utstrekning":9246,"##uligheter":9247,"##årsak":9248,"##kkelen":9249,"##uri":9250,"##usener":9251,"aluminium":9252,"##otisk":9253,"antak":9254,"menighets":9255,"##forsamlingen":9256,"inngang":9257,"innbygger":9258,"beina":9259,"bevare":9260,"sånt":9261,"##bej":9262,"##iring":9263,"##ordet":9264,"##anny":9265,"##okra":9266,"##spensjon":9267,"##allene":9268,"##jøres":9269,"trenge":9270,"trøst":9271,"truleg":9272,"##osse":9273,"##kers":9274,"kunsten":9275,"##oget":9276,"nyere":9277,"##ument":9278,"##aktige":9279,"saal":9280,"##viser":9281,"kvant":9282,"skulen":9283,"leke":9284,"betaler":9285,"deles":9286,"##klubben":9287,"##ifer":9288,"lyser":9289,"forsam":9290,"følelser":9291,"118":9292,"110":9293,"Arnt":9294,"##taket":9295,"maatte":9296,"130":9297,"snur":9298,"bedriften":9299,"sittende":9300,"verket":9301,"They":9302,"heime":9303,"##nadene":9304,"dømt":9305,"Elt":9306,"onkel":9307,"styrker":9308,"1974":9309,"##ragt":9310,"sender":9311,"personal":9312,"Spørsmålet":9313,"partene":9314,"particular":9315,"organer":9316,"##inson":9317,"##vironment":9318,"design":9319,"nyttig":9320,"relasjoner":9321,"Leon":9322,"Leif":9323,"hvile":9324,"##aliteten":9325,"studie":9326,"nærmet":9327,"beskrevet":9328,"##agnar":9329,"fantas":9330,"metoder":9331,"term":9332,"##yting":9333,"##IST":9334,"gjester":9335,"Atl":9336,"føttene":9337,"radi":9338,"hevde":9339,"hevdet":9340,"people":9341,"marg":9342,"##bygd":9343,"strekker":9344,"forleng":9345,"sjølve":9346,"passet":9347,"melde":9348,"vestlige":9349,"Count":9350,"nakken":9351,"Kjærlig":9352,"rasende":9353,"Korleis":9354,"Aleks":9355,"Nedre":9356,"nøkkel":9357,"kilder":9358,"tilbudet":9359,"Selvfølgelig":9360,"rusmiddel":9361,"annan":9362,"pleie":9363,"mobilt":9364,"identitet":9365,"kjæreste":9366,"bussen":9367,"kjerringa":9368,"slipper":9369,"tjener":9370,"arrangem":9371,"Frode":9372,"municip":9373,"museum":9374,"ettermiddagen":9375,"demonstr":9376,"Halvorsen":9377,"ærlig":9378,"sagde":9379,"soldater":9380,"single":9381,"August":9382,"following":9383,"definer":9384,"Programleder":9385,"umiddelbart":9386,"betingelser":9387,"tilpasning":9388,"nynorsk":9389,"arranger":9390,"Putin":9391,"Charlotte":9392,"arthritis":9393,"municipal":9394,"AL":9395,"Aas":9396,"Bas":9397,"Bank":9398,"Delt":9399,"Even":9400,"Gå":9401,"Gerd":9402,"Hør":9403,"Haf":9404,"Ke":9405,"Kas":9406,"Ler":9407,"Lab":9408,"Lyd":9409,"Lof":9410,"Mun":9411,"Mitt":9412,"Nav":9413,"Nov":9414,"Prø":9415,"Sur":9416,"Sus":9417,"Soc":9418,"Sentral":9419,"Ten":9420,"Ting":9421,"Tide":9422,"Tha":9423,"Tone":9424,"Tenk":9425,"Vann":9426,"West":9427,"aar":9428,"aire":9429,"amt":9430,"bly":9431,"buss":9432,"bunnen":9433,"dommen":9434,"estet":9435,"find":9436,"fond":9437,"faa":9438,"gik":9439,"galler":9440,"je":9441,"kalte":9442,"khazar":9443,"latt":9444,"læn":9445,"mem":9446,"mage":9447,"nar":9448,"pH":9449,"pen":9450,"tæn":9451,"ukene":9452,"vog":9453,"year":9454,"ydm":9455,"Øster":9456,"##ianske":9457,"##ån":9458,"##åte":9459,"##åsen":9460,"##ts":9461,"##lane":9462,"##ool":9463,"##okke":9464,"##kra":9465,"##ssen":9466,"##akke":9467,"##just":9468,"##fen":9469,"##ura":9470,"##hug":9471,"##hoff":9472,"##bi":9473,"##17":9474,"##GE":9475,"##UT":9476,"##FO":9477,"##cke":9478,"##CT":9479,"##etisk":9480,"##arter":9481,"##eleder":9482,"##stikk":9483,"##egler":9484,"foredrag":9485,"##reise":9486,"##tem":9487,"##altes":9488,"##onser":9489,"tilrett":9490,"enhet":9491,"avfall":9492,"##skij":9493,"skra":9494,"##asiteten":9495,"##sekretær":9496,"##ensson":9497,"##liga":9498,"##jev":9499,"opph":9500,"##aket":9501,"anse":9502,"ankl":9503,"anvende":9504,"##ommeren":9505,"innsk":9506,"innføre":9507,"samtid":9508,"bemer":9509,"vilt":9510,"spek":9511,"spiste":9512,"hunden":9513,"##øyen":9514,"årsdagen":9515,"##udi":9516,"##råden":9517,"##råten":9518,"hellig":9519,"etterhvert":9520,"##serne":9521,"##jøl":9522,"konger":9523,"konserv":9524,"trend":9525,"Stig":9526,"Stjer":9527,"##keren":9528,"##nnen":9529,"##ansene":9530,"##ansens":9531,"sauer":9532,"place":9533,"##ylling":9534,"merkelig":9535,"betj":9536,"selge":9537,"selges":9538,"##ustad":9539,"##kland":9540,"hvorav":9541,"syd":9542,"smal":9543,"smør":9544,"fremfor":9545,"treff":9546,"rettferd":9547,"tilbyr":9548,"Hvad":9549,"##stilles":9550,"brenn":9551,"##olkningen":9552,"uni":9553,"nærmer":9554,"byttet":9555,"behøver":9556,"vises":9557,"Journal":9558,"made":9559,"godtgjør":9560,"Herm":9561,"SSSS":9562,"reddet":9563,"##sbjørn":9564,"husdyr":9565,"heil":9566,"Anton":9567,"##sfart":9568,"Derimot":9569,"døg":9570,"døpt":9571,"##rama":9572,"perform":9573,"Elsa":9574,"indust":9575,"indirekte":9576,"lure":9577,"##svir":9578,"##otten":9579,"meas":9580,"styrings":9581,"nettverk":9582,"##preg":9583,"Brun":9584,"Bern":9585,"##prosjekt":9586,"skjær":9587,"skjult":9588,"uttalte":9589,"Spania":9590,"##faren":9591,"høv":9592,"intere":9593,"intensjon":9594,"1968":9595,"##ofte":9596,"vannvar":9597,"Gudbrand":9598,"Regn":9599,"nytta":9600,"relative":9601,"turist":9602,"femti":9603,"1956":9604,"skjøt":9605,"gammelt":9606,"##sprosess":9607,"forsøket":9608,"vanskeligere":9609,"##setting":9610,"international":9611,"kjemiske":9612,"kravene":9613,"bryst":9614,"hendte":9615,"foretas":9616,"fornær":9617,"bønder":9618,"##ossible":9619,"peke":9620,"subjekt":9621,"vurderinger":9622,"##ønster":9623,"Heim":9624,"mottok":9625,"##ornelius":9626,"##avtalen":9627,"Parad":9628,"##linical":9629,"alderen":9630,"sidene":9631,"drog":9632,"autor":9633,"automatisk":9634,"sjåfør":9635,"price":9636,"regionale":9637,"foregikk":9638,"Små":9639,"Merk":9640,"beslutninger":9641,"Velkommen":9642,"budsjettet":9643,"kvarandre":9644,"ekspert":9645,"assist":9646,"tynne":9647,"kostnads":9648,"satse":9649,"passerte":9650,"filosofi":9651,"Akershus":9652,"betraktet":9653,"Forskrift":9654,"distrib":9655,"ambisjon":9656,"seinere":9657,"##begrens":9658,"instrument":9659,"rutiner":9660,"konferansen":9661,"fundament":9662,"oppsig":9663,"registrering":9664,"overbevist":9665,"oppstått":9666,"##veksling":9667,"forekommer":9668,"##åmstål":9669,"kafé":9670,"konsentrasjon":9671,"etterspørsel":9672,"belastning":9673,"restaurant":9674,"##systemet":9675,"skjulte":9676,"mektig":9677,"kreditt":9678,"greske":9679,"eskorte":9680,"Tesman":9681,"local":9682,"realityserie":9683,"MDG":9684,"Borg":9685,"Bygg":9686,"Bay":9687,"Clar":9688,"CERN":9689,"Des":9690,"Drift":9691,"Foss":9692,"Gri":9693,"Grav":9694,"Hammer":9695,"Islam":9696,"Lik":9697,"Lise":9698,"Mc":9699,"Meld":9700,"Meland":9701,"Mich":9702,"Næring":9703,"Osc":9704,"OSL":9705,"Pri":9706,"Rig":9707,"Sov":9708,"Svar":9709,"Salt":9710,"Sikkerhet":9711,"Win":9712,"Wash":9713,"aa":9714,"bun":9715,"bol":9716,"bonde":9717,"drå":9718,"doc":9719,"danner":9720,"finger":9721,"gym":9722,"gatene":9723,"hon":9724,"klipp":9725,"long":9726,"mont":9727,"minnet":9728,"nav":9729,"national":9730,"por":9731,"pum":9732,"park":9733,"ram":9734,"sangen":9735,"teller":9736,"uskyld":9737,"years":9738,"ÅR":9739,"##eist":9740,"##rensen":9741,"##ni":9742,"##nnet":9743,"##tall":9744,"##løy":9745,"##lish":9746,"##osen":9747,"##jk":9748,"##fiske":9749,"##feld":9750,"##deg":9751,"##hs":9752,"##bur":9753,"##ét":9754,"##EV":9755,"##NRK":9756,"##Gener":9757,"##34":9758,"##way":9759,"##ØY":9760,"##inar":9761,"##informasjon":9762,"##eling":9763,"##elatende":9764,"##illa":9765,"##steg":9766,"##strakt":9767,"##stua":9768,"##omet":9769,"##egrim":9770,"forstyr":9771,"foreningen":9772,"##rep":9773,"##keb":9774,"tilvær":9775,"enheter":9776,"##raksis":9777,"stien":9778,"medan":9779,"##ski":9780,"##skader":9781,"vara":9782,"varsel":9783,"omsider":9784,"util":9785,"utarbeide":9786,"utmarks":9787,"utgjorde":9788,"##ivider":9789,"##lies":9790,"etiske":9791,"inner":9792,"elven":9793,"overs":9794,"overskudd":9795,"vedtektene":9796,"sex":9797,"##slov":9798,"helga":9799,"konfir":9800,"trer":9801,"##endring":9802,"Stør":9803,"##osjon":9804,"nyhet":9805,"DeGener":9806,"##engs":9807,"##engden":9808,"##ryt":9809,"##iew":9810,"##ierark":9811,"leid":9812,"kjende":9813,"grus":9814,"##ostad":9815,"herunder":9816,"##change":9817,"begeist":9818,"##setnings":9819,"sammenlik":9820,"rettferdig":9821,"Int":9822,"##stiller":9823,"##tenberg":9824,"endres":9825,"endnu":9826,"høyst":9827,"moro":9828,"moral":9829,"politikken":9830,"ansett":9831,"168":9832,"synet":9833,"synger":9834,"legev":9835,"##ravåg":9836,"flinke":9837,"saksbe":9838,"parter":9839,"resp":9840,"glas":9841,"Champ":9842,"##yme":9843,"evnen":9844,"indic":9845,"knytt":9846,"Tilsvar":9847,"teori":9848,"aktuelt":9849,"holdninger":9850,"##produs":9851,"skjule":9852,"##ulerte":9853,"kapasitet":9854,"##regn":9855,"1948":9856,"##virke":9857,"muligens":9858,"betydde":9859,"roman":9860,"related":9861,"hovedstaden":9862,"gjeninn":9863,"ungene":9864,"##into":9865,"studenter":9866,"deltar":9867,"##ORD":9868,"asyl":9869,"##blikk":9870,"artik":9871,"1959":9872,"solid":9873,"Prof":9874,"muslim":9875,"omfattet":9876,"##ureau":9877,"Sola":9878,"Solveig":9879,"metod":9880,"regjeringa":9881,"char":9882,"kontakten":9883,"vennskap":9884,"United":9885,"##ommunic":9886,"##ronning":9887,"Dagsnytt":9888,"dåmen":9889,"sannheten":9890,"Adresse":9891,"Helg":9892,"##stendige":9893,"høres":9894,"skolens":9895,"psych":9896,"##sskole":9897,"kvinnelige":9898,"##givning":9899,"meldte":9900,"punkter":9901,"##ization":9902,"totale":9903,"KrF":9904,"Verk":9905,"Moe":9906,"foreslå":9907,"Johanne":9908,"Sandvik":9909,"riket":9910,"tegl":9911,"produsent":9912,"avgjer":9913,"tydeligvis":9914,"kartlegging":9915,"bakgrunnen":9916,"1870":9917,"poly":9918,"tilpasse":9919,"alternative":9920,"Endelig":9921,"##vannet":9922,"Myster":9923,"kjemp":9924,"Øystein":9925,"Morgen":9926,"##stjenester":9927,"ødelegge":9928,"vedtaket":9929,"kostnadene":9930,"tilsynelatende":9931,"optimal":9932,"uvanlig":9933,"Hauge":9934,"Utenrik":9935,"definert":9936,"understreke":9937,"gjengjeld":9938,"drives":9939,"tårer":9940,"transform":9941,"museet":9942,"SVAR":9943,"sjekket":9944,"Familien":9945,"tidspunktet":9946,"versjon":9947,"revisjon":9948,"support":9949,"epis":9950,"tilnærming":9951,"##sspørsmål":9952,"hjørne":9953,"##fjellet":9954,"both":9955,"##skontroll":9956,"##kjøring":9957,"reduksjon":9958,"elevar":9959,"Fjuls":9960,"statsbudsj":9961,"Telemark":9962,"jubile":9963,"William":9964,"evaluer":9965,"skøyte":9966,"##setjing":9967,"tuberkul":9968,"dominerende":9969,"Eventyr":9970,"Stoltenberg":9971,"forutsetter":9972,"Myron":9973,"Archie":9974,"Victor":9975,"Oliver":9976,"menighetsråd":9977,"Eltravåg":9978,"DeGeneres":9979,"AB":9980,"Ala":9981,"Asbjørn":9982,"BAR":9983,"Disk":9984,"Dov":9985,"Go":9986,"GI":9987,"Ger":9988,"Grå":9989,"Husk":9990,"Kil":9991,"Kun":9992,"Kane":9993,"LO":9994,"Lev":9995,"Livet":9996,"Mø":9997,"NS":9998,"Neder":9999,"NAT":10000,"P1":10001,"Pol":10002,"Pla":10003,"So":10004,"Ti":10005,"Ur":10006,"Uansett":10007,"bv":10008,"dans":10009,"drag":10010,"gunst":10011,"hell":10012,"hald":10013,"imm":10014,"iss":10015,"kass":10016,"kalla":10017,"listen":10018,"lurer":10019,"minnes":10020,"oft":10021,"occ":10022,"oksy":10023,"pund":10024,"savnet":10025,"sonen":10026,"tum":10027,"vaske":10028,"vatnet":10029,"ym":10030,"Øn":10031,"##rin":10032,"##renn":10033,"##øra":10034,"##iatr":10035,"##gave":10036,"##oy":10037,"##kse":10038,"##air":10039,"##fød":10040,"##uk":10041,"##hy":10042,"##hagen":10043,"##bolig":10044,"##yer":10045,"##mand":10046,"##én":10047,"##EP":10048,"##JØ":10049,"##UM":10050,"##UG":10051,"##Ka":10052,"##BER":10053,"##ini":10054,"##iness":10055,"##ela":10056,"##elva":10057,"##områdene":10058,"##edyr":10059,"avgjort":10060,"avgrens":10061,"##ikerne":10062,"stater":10063,"stole":10064,"state":10065,"skri":10066,"skot":10067,"##agg":10068,"##ppel":10069,"inde":10070,"##itsj":10071,"##ndal":10072,"##entre":10073,"utlø":10074,"utlå":10075,"##litter":10076,"##lima":10077,"##ensasjon":10078,"##ension":10079,"##otiske":10080,"##akere":10081,"samla":10082,"sått":10083,"elles":10084,"spir":10085,"overens":10086,"overenskom":10087,"##behold":10088,"##irke":10089,"##ssyn":10090,"##ssenter":10091,"##uture":10092,"##okol":10093,"##ertain":10094,"åring":10095,"reelle":10096,"##ovic":10097,"komment":10098,"træ":10099,"trives":10100,"##smidler":10101,"--.":10102,"##abrik":10103,"##visst":10104,"andres":10105,"haust":10106,"##redelse":10107,"begiven":10108,"manag":10109,"nedre":10110,"nedrustning":10111,"##kled":10112,"løst":10113,"Skjø":10114,"lytte":10115,"##ubber":10116,"Institutt":10117,"##still":10118,"##opt":10119,"broren":10120,"##enteres":10121,"##ålmod":10122,"##iets":10123,"##iety":10124,"##ingsstoff":10125,"bygninger":10126,"bygges":10127,"velges":10128,"front":10129,"friluft":10130,"1600":10131,"##jøring":10132,"selvstendig":10133,"forbaus":10134,"Trygg":10135,"flaske":10136,"##appet":10137,"Herr":10138,"Herre":10139,"resul":10140,"troende":10141,"flytter":10142,"##rerer":10143,"##lesund":10144,"glød":10145,"know":10146,"lukke":10147,"Tillegg":10148,"1982":10149,"inneholde":10150,"styrer":10151,"øyene":10152,"fylket":10153,"##vilget":10154,"tekster":10155,"comp":10156,"fleks":10157,"antallet":10158,"høgre":10159,"Franc":10160,"vanleg":10161,"relation":10162,"Amund":10163,"nordvest":10164,"Lee":10165,"turn":10166,"femte":10167,"streng":10168,"frie":10169,"karriere":10170,"##talem":10171,"fødsel":10172,"vanskeligheter":10173,"garn":10174,"garder":10175,"Nyhetene":10176,"Ordet":10177,"dreiv":10178,"hendt":10179,"bena":10180,"truet":10181,"effekter":10182,"Halv":10183,"læreren":10184,"selskaper":10185,"period":10186,"##ungene":10187,"Vestre":10188,"##bygget":10189,"##feil":10190,"Martha":10191,"tomgang":10192,"##vedt":10193,"særleg":10194,"særskilt":10195,"Arbeidet":10196,"Freder":10197,"##boken":10198,"##ized":10199,"ideer":10200,"avgjørelsen":10201,"måneden":10202,"##STAD":10203,"regnb":10204,"gravid":10205,"psykisk":10206,"fersk":10207,"foreslår":10208,"skyte":10209,"næringsliv":10210,"stoffet":10211,"musikkm":10212,"Carol":10213,"Teater":10214,"##stykke":10215,"Høg":10216,"regjeringens":10217,"##ystemet":10218,"søknaden":10219,"revolusjon":10220,"tynn":10221,"datteren":10222,"forandringer":10223,"bekymring":10224,"hyp":10225,"forhånd":10226,"Gunhild":10227,"fattige":10228,"kysset":10229,"Israels":10230,"Våre":10231,"##fugl":10232,"trygghet":10233,"banket":10234,"Hjert":10235,"International":10236,"Siri":10237,"Magne":10238,"kollega":10239,"religiøs":10240,"ordinære":10241,"forberedt":10242,"jevn":10243,"stemning":10244,"multipl":10245,"taushet":10246,"lenker":10247,"forbudt":10248,"kollektiv":10249,"##skostnader":10250,"framtida":10251,"dyktig":10252,"NOU":10253,"effect":10254,"Rapport":10255,"social":10256,"utgiftene":10257,"Canada":10258,"kriterier":10259,"Hollywood":10260,"elementer":10261,"mumlet":10262,"enorme":10263,"nøytral":10264,"Bevilg":10265,"prestegjeld":10266,"Richard":10267,"Baldwin":10268,"rusmiddelfor":10269,"interest":10270,"##åmstålld":10271,"Oscar":10272,"',":10273,"Aut":10274,"Ash":10275,"Bær":10276,"Cass":10277,"Dyr":10278,"ER":10279,"Eck":10280,"FO":10281,"Gode":10282,"Hje":10283,"Hund":10284,"Helle":10285,"Hipp":10286,"Jor":10287,"Juni":10288,"Kilde":10289,"Kunne":10290,"Lys":10291,"Levin":10292,"Nest":10293,"OR":10294,"Tj":10295,"Tan":10296,"Tour":10297,"Wi":10298,"You":10299,"arab":10300,"belig":10301,"bål":10302,"batter":10303,"did":10304,"danse":10305,"element":10306,"estim":10307,"ger":10308,"hull":10309,"lis":10310,"lyn":10311,"lød":10312,"mister":10313,"os":10314,"rov":10315,"rakte":10316,"sunn":10317,"tette":10318,"tips":10319,"ving":10320,"Ås":10321,"økes":10322,"##rt":10323,"##riller":10324,"##nytt":10325,"##gitt":10326,"##put":10327,"##psborg":10328,"##trykk":10329,"##kro":10330,"##srud":10331,"##figur":10332,"##domm":10333,"##uere":10334,"##hes":10335,"##hyl":10336,"##GEN":10337,"##UND":10338,"##YR":10339,"##40":10340,"##AB":10341,"##ÆR":10342,"##ettes":10343,"##anere":10344,"##eli":10345,"##elst":10346,"##elova":10347,"##stasjonen":10348,"##egang":10349,"##ree":10350,"##real":10351,"##ality":10352,"##onia":10353,"##less":10354,"##undes":10355,"avl":10356,"##eset":10357,"stue":10358,"##neum":10359,"medfører":10360,"##ørret":10361,"##skriver":10362,"##skillig":10363,"skam":10364,"skatten":10365,"##verker":10366,"##ags":10367,"dekkes":10368,"##itar":10369,"##itch":10370,"varam":10371,"omd":10372,"omlag":10373,"utstilling":10374,"utlever":10375,"utarbeidet":10376,"##ros":10377,"##kking":10378,"ethvert":10379,"##rutter":10380,"##forn":10381,"##foreningen":10382,"kanten":10383,"innad":10384,">>-":10385,"##odi":10386,"samarbeide":10387,"såleis":10388,"##aper":10389,"##eligt":10390,"overst":10391,"##mmel":10392,"separ":10393,"anden":10394,"andet":10395,"ettertid":10396,"kommand":10397,"##iment":10398,"konkur":10399,"treg":10400,"##endal":10401,"##inna":10402,"Sten":10403,"##veier":10404,"##ittet":10405,"##engende":10406,"##akta":10407,"##asto":10408,"##lymp":10409,"##ansjen":10410,"plager":10411,"plikter":10412,"ort":10413,"##ødig":10414,"bla":10415,"haug":10416,"105":10417,"##nesk":10418,"1700":10419,"nåde":10420,"begrense":10421,"##ktes":10422,"##nerne":10423,"3000":10424,"treet":10425,"##leggings":10426,"##opplys":10427,"søkt":10428,"##revne":10429,"endelige":10430,"111":10431,"morg":10432,"virkelige":10433,"##duc":10434,"tenkes":10435,"##sområdet":10436,"forsker":10437,"handlet":10438,"Tror":10439,"hån":10440,"menneskelig":10441,"parken":10442,"Maren":10443,"##sbeg":10444,"##svent":10445,"##stått":10446,"##stemning":10447,"##prom":10448,"##iverse":10449,"Torgeir":10450,"åpningen":10451,"1943":10452,"lokaler":10453,"1966":10454,"støtter":10455,"##syk":10456,"desper":10457,"##vete":10458,"Nordre":10459,"Nordland":10460,"##holt":10461,"studies":10462,"##været":10463,"vinket":10464,"function":10465,"##issa":10466,"beskriver":10467,"skjønt":10468,"what":10469,"##shistor":10470,"##egnede":10471,"base":10472,"exchange":10473,"oppfat":10474,"Jonathan":10475,"terror":10476,"##grunnen":10477,"bryllup":10478,"budskap":10479,"føde":10480,"venninne":10481,"virkelighet":10482,"##komité":10483,"usikkerhet":10484,"Wilson":10485,"Dagens":10486,"pract":10487,"disposisjon":10488,"vesle":10489,"seksuelle":10490,"særlige":10491,"variere":10492,"forfatt":10493,"forstod":10494,"##budsj":10495,"Huset":10496,"##sskatt":10497,"akadem":10498,"##ALL":10499,"forsvarlig":10500,"Eriksen":10501,"avgjørelse":10502,"##meldt":10503,"drøft":10504,"George":10505,"realistisk":10506,"fugler":10507,"tøff":10508,"Sjur":10509,"trengs":10510,"tallene":10511,"fyrste":10512,"policy":10513,"oppdage":10514,"Enda":10515,"Hamar":10516,"##punkter":10517,"russe":10518,"leiligheter":10519,"leiligheten":10520,"trafikken":10521,"again":10522,"ødelagt":10523,"##kontoret":10524,"associ":10525,"kino":10526,"Asia":10527,"regulering":10528,"ventil":10529,"Troms":10530,"omtalt":10531,"Party":10532,"##atrul":10533,"##spolitiske":10534,"Nielsen":10535,"utdannelse":10536,"medisinsk":10537,"bevissthet":10538,"consider":10539,"skuff":10540,"pedagogisk":10541,"relevante":10542,"deltakelse":10543,"kontinuerlig":10544,"Mrs":10545,"overflaten":10546,"påpeker":10547,"oppfylt":10548,"markedsføring":10549,"tilhørende":10550,"##aserie":10551,"##ørrelse":10552,"##høg":10553,"bransjen":10554,"Idrett":10555,"##snyhetene":10556,"dividenden":10557,"##sikring":10558,"sirkel":10559,"slitasje":10560,"uttalelse":10561,"countries":10562,"Musikk":10563,"Tekn":10564,"skuespiller":10565,"##iskopen":10566,"Distriktsnyheter":10567,"found":10568,"Gulbrand":10569,"Trump":10570,"frøken":10571,"flagg":10572,"##smelding":10573,"kinesiske":10574,"Josef":10575,"barndom":10576,"##hammed":10577,"matemat":10578,"takknemlig":10579,"Justisdepartementet":10580,"Locasto":10581,"okkup":10582,"athletes":10583,"Tilsvarende":10584,"Fjulsrud":10585,"oksygen":10586,"musikkmiks":10587,"Levinas":10588,",\"\"":10589,"Ak":10590,"Ali":10591,"Aur":10592,"BB":10593,"EC":10594,"Eide":10595,"Frå":10596,"Fem":10597,"Fød":10598,"Fager":10599,"Gil":10600,"Gjel":10601,"Grim":10602,"Hart":10603,"Hagen":10604,"Hydro":10605,"Hirka":10606,"Jim":10607,"Kop":10608,"Led":10609,"List":10610,"Mu":10611,"Mine":10612,"May":10613,"Mamma":10614,"NT":10615,"Nick":10616,"Ow":10617,"Priv":10618,"Pensjon":10619,"Ris":10620,"Rev":10621,"Riktig":10622,"Russ":10623,"Siv":10624,"Sist":10625,"Side":10626,"Treme":10627,"Va":10628,"agen":10629,"bundet":10630,"camp":10631,"fett":10632,"fanger":10633,"feltet":10634,"gut":10635,"how":10636,"hytte":10637,"hustru":10638,"ii":10639,"kå":10640,"lista":10641,"nag":10642,"pas":10643,"past":10644,"ryn":10645,"rasjon":10646,"renter":10647,"ringer":10648,"taller":10649,"tju":10650,"veter":10651,"Ålesund":10652,"##når":10653,"##go":10654,"##gav":10655,"##gard":10656,"##pas":10657,"##penger":10658,"##paa":10659,"##press":10660,"##talen":10661,"##vang":10662,"##kling":10663,"##kna":10664,"##kandid":10665,"##sene":10666,"##sand":10667,"##sats":10668,"##sikkerhet":10669,"##aver":10670,"##akken":10671,"##famil":10672,"##dens":10673,"##dtr":10674,"##upen":10675,"##bon":10676,"##bul":10677,"##yne":10678,"##møte":10679,"##FI":10680,"##PS":10681,"##zen":10682,"##xic":10683,"##etet":10684,"##anlegget":10685,"##arte":10686,"##stor":10687,"##stinget":10688,"##egning":10689,"##egner":10690,"forandre":10691,"##tef":10692,"##igger":10693,"##alc":10694,"tilslutning":10695,"##rader":10696,"avskj":10697,"##ikre":10698,"stam":10699,"##idrett":10700,"##ørs":10701,"skjema":10702,"infra":10703,"##itiv":10704,"##andel":10705,"utsted":10706,"utføres":10707,"utstillingen":10708,"utleie":10709,"##lion":10710,"##usi":10711,"oppos":10712,"##ria":10713,"anim":10714,"anstr":10715,"menighet":10716,"##ommisjonen":10717,"kant":10718,"##heve":10719,"samvitt":10720,"sporet":10721,"##ists":10722,"overtok":10723,"overflate":10724,"##ssummen":10725,"sees":10726,"seie":10727,"##sløse":10728,"dum":10729,"##spillet":10730,"helg":10731,"heldt":10732,"##ygiene":10733,"armer":10734,"trene":10735,"kundene":10736,"##ogra":10737,"nyt":10738,"klærne":10739,"##jern":10740,"##enga":10741,"underlig":10742,"plant":10743,"Forslaget":10744,"101":10745,"103":10746,"levet":10747,"##ressen":10748,"herlig":10749,"begj":10750,"##neren":10751,"Skien":10752,"fremgang":10753,"fremgår":10754,"landsby":10755,"svikt":10756,"##oppgaver":10757,"bryr":10758,"bånd":10759,"finalen":10760,"søvn":10761,"##ydning":10762,"framleis":10763,"følgelig":10764,"verdig":10765,"116":10766,"119":10767,"moralsk":10768,"##ingsd":10769,"then":10770,"egentlige":10771,"165":10772,"trav":10773,"##formann":10774,"##somhet":10775,"forskere":10776,"forskrifter":10777,"synge":10778,"synspunkt":10779,"ordens":10780,"allmen":10781,"135":10782,"147":10783,"vernet":10784,"mulighetene":10785,"parad":10786,"statistikk":10787,"Mars":10788,"heiter":10789,"havner":10790,"##ENE":10791,"##keland":10792,"siger":10793,"##følelse":10794,"##følgende":10795,"##vilkår":10796,"personinntekt":10797,"##handel":10798,"familiens":10799,"dyb":10800,"offent":10801,"Utvik":10802,"tingene":10803,"vanskeleg":10804,"plassere":10805,"model":10806,"##eldigvis":10807,"straffe":10808,"generator":10809,"Andy":10810,"veggene":10811,"##søkonom":10812,"sikring":10813,"##betaling":10814,"##ission":10815,"nevne":10816,"forvand":10817,"forventet":10818,"1954":10819,"1953":10820,"##sforvaltning":10821,"behandler":10822,"fantasi":10823,"manglet":10824,"fødselen":10825,"forsøks":10826,"meth":10827,"oppfatte":10828,"imellom":10829,"##strand":10830,"skjermen":10831,"Barnet":10832,"diam":10833,"Egypt":10834,"1937":10835,"##ETT":10836,"fjernet":10837,"1922":10838,"Laur":10839,"Halden":10840,"innsatte":10841,"old":10842,"drap":10843,"temp":10844,"lærte":10845,"vurderingen":10846,"butikker":10847,"Plutselig":10848,"values":10849,"kunnskaper":10850,"tørke":10851,"gifta":10852,"prinsip":10853,"dramaserie":10854,"beveger":10855,"beveget":10856,"Syke":10857,"forsvunnet":10858,"drømmer":10859,"psykiske":10860,"barnehager":10861,"røye":10862,"maskiner":10863,"refle":10864,"reflekt":10865,"strålende":10866,"straffes":10867,"Abub":10868,"Larvik":10869,"Fortun":10870,"organisering":10871,"Kongsberg":10872,"Bakke":10873,"skarpt":10874,"vitne":10875,"tabellen":10876,"ødelegg":10877,"skjønnhet":10878,"katastro":10879,"##skipet":10880,"anbefaler":10881,"Niels":10882,"opplyst":10883,"Sports":10884,"Sportsnyhetene":10885,"bekrefter":10886,"premie":10887,"Haugesund":10888,"Family":10889,"Kjøp":10890,"Sarpsborg":10891,"Stockflet":10892,"arbeidsmark":10893,"sammenlignet":10894,"etablering":10895,"Mennesker":10896,"alminnelig":10897,"Figure":10898,"##ebygging":10899,"DNA":10900,"kjennskap":10901,"strykninger":10902,"innrømme":10903,"dividende":10904,"##smyndighet":10905,"Rasmussen":10906,"ivareta":10907,"erstattet":10908,"##mesteren":10909,"##wards":10910,"undervisningen":10911,"konklusjon":10912,"Jean":10913,"omgivelsene":10914,"korrekt":10915,"number":10916,"origin":10917,"Birgit":10918,"Rådhus":10919,"bosted":10920,"verdifull":10921,"administrative":10922,"forbindelser":10923,"OPPG0":10924,"pacem":10925,"mineral":10926,"##perioden":10927,"Allerede":10928,"parlamentarisk":10929,"Hordaland":10930,"sivile":10931,"Elisabeth":10932,"##ikopter":10933,"engasjement":10934,"saaledes":10935,"Washington":10936,"ymse":10937,"'.":10938,"Bli":10939,"Bjer":10940,"Beb":10941,"Bård":10942,"Beth":10943,"Bureau":10944,"Drø":10945,"Doll":10946,"DAG":10947,"FB":10948,"Gunder":10949,"Hur":10950,"Hennes":10951,"Heller":10952,"IT":10953,"Jas":10954,"Jenn":10955,"Jess":10956,"Jæren":10957,"Kore":10958,"Li":10959,"Len":10960,"Lyng":10961,"Mang":10962,"Nort":10963,"North":10964,"Ran":10965,"Rock":10966,"Retten":10967,"Sog":10968,"Syl":10969,"Serv":10970,"Topp":10971,"Tolle":10972,"Tyrk":10973,"Unn":10974,"Viv":10975,"Vak":10976,"Venner":10977,"Votering":10978,"Ze":10979,"astr":10980,"bene":10981,"badet":10982,"eie":10983,"fel":10984,"fur":10985,"gry":10986,"gnr":10987,"gastric":10988,"hinder":10989,"hytta":10990,"ien":10991,"jan":10992,"kår":10993,"køy":10994,"nak":10995,"nark":10996,"pu":10997,"pred":10998,"porten":10999,"rester":11000,"sus":11001,"sokneprest":11002,"toll":11003,"tyrk":11004,"uen":11005,"ulem":11006,"uka":11007,"von":11008,"~~":11009,"##ew":11010,"##ral":11011,"##riter":11012,"##øg":11013,"##nummer":11014,"##grø":11015,"##gata":11016,"##pset":11017,"##personer":11018,"##van":11019,"##vett":11020,"##lte":11021,"##kry":11022,"##kner":11023,"##setter":11024,"##fat":11025,"##hje":11026,"##bra":11027,"##bum":11028,"##bake":11029,"##bach":11030,"##yle":11031,"##æm":11032,"##LEG":11033,"##MS":11034,"##OH":11035,"##OB":11036,"##TR":11037,"##36":11038,"##32":11039,"##AKT":11040,"##orene":11041,"##inas":11042,"##stasjon":11043,"##stret":11044,"##edalen":11045,"foreb":11046,"forresten":11047,"forebyggende":11048,"##test":11049,"tiltre":11050,"tilsette":11051,"deter":11052,"enke":11053,"##unket":11054,"##rate":11055,"avtal":11056,"avhør":11057,"##idt":11058,"##idge":11059,"##atre":11060,"skadet":11061,"##agon":11062,"##agna":11063,"##itions":11064,"varmen":11065,"##kkelige":11066,"##jects":11067,"oppbe":11068,"oppsø":11069,"oppnår":11070,"##aking":11071,"##forslag":11072,"##forsy":11073,"innover":11074,"##odde":11075,"sped":11076,"spekt":11077,"spreng":11078,"##avel":11079,"##irer":11080,"##ssels":11081,"rekker":11082,"rekkje":11083,"arena":11084,"konstru":11085,"process":11086,"##osal":11087,"##ums":11088,"kledd":11089,"motiver":11090,"##smater":11091,"##røt":11092,"##aktorer":11093,"##ansier":11094,"komprom":11095,"say":11096,"##ringes":11097,"blive":11098,"102":11099,"kjm":11100,"##iserings":11101,"selde":11102,"many":11103,"arbeidsled":11104,"arbeidskraft":11105,"##dets":11106,"vektor":11107,"veiledning":11108,"løfter":11109,"syssels":11110,"smak":11111,"landskapet":11112,"myke":11113,"##ifisert":11114,"##areal":11115,"##000":11116,"Alder":11117,"følges":11118,"billett":11119,"grunnskolen":11120,"##trene":11121,"nærhet":11122,"politim":11123,"farlige":11124,"egg":11125,"##ards":11126,"##odes":11127,"ligget":11128,"sakene":11129,"sjanser":11130,"tyve":11131,"##standing":11132,"Sec":11133,"havre":11134,"trodd":11135,"##aade":11136,"evak":11137,"individer":11138,"korrid":11139,"##greg":11140,"planet":11141,"##gås":11142,"middagen":11143,"bortover":11144,"Reidar":11145,"sukk":11146,"sukker":11147,"summen":11148,"##handelen":11149,"Tora":11150,"##flaten":11151,"støv":11152,"There":11153,"desig":11154,"hospital":11155,"modeller":11156,"nordside":11157,"##veggen":11158,"gjennem":11159,"gjenstander":11160,"generell":11161,"Jahn":11162,"Kristus":11163,"study":11164,"deltaker":11165,"##barhet":11166,"Roy":11167,"##atorer":11168,"##esterett":11169,"##kveld":11170,"##splass":11171,"rettes":11172,"##marka":11173,"##issene":11174,"##sforsk":11175,"dato":11176,"Grand":11177,"elevenes":11178,"driften":11179,"garanter":11180,"Blod":11181,"##ISK":11182,"fiskere":11183,"##ELL":11184,"vennene":11185,"avtaler":11186,"##komne":11187,"1933":11188,"1935":11189,"1926":11190,"scoret":11191,"effektivt":11192,"Henning":11193,"##fallende":11194,"Halle":11195,"lærerne":11196,"##ografiske":11197,"produksjons":11198,"1910":11199,"1914":11200,"stress":11201,"##feksjon":11202,"vesen":11203,"representert":11204,"passende":11205,"##okument":11206,"mistanke":11207,"point":11208,"dramatisk":11209,"forsvare":11210,"punktum":11211,"bevege":11212,"##sministeren":11213,"avdøde":11214,"ditto":11215,"kaster":11216,"tilsvarer":11217,"psykiatr":11218,"Kjetil":11219,"Olaf":11220,"produsere":11221,"produserer":11222,"sjuke":11223,"group":11224,"konsept":11225,"stråling":11226,"Evensen":11227,"##bilder":11228,"opplysning":11229,"samanheng":11230,"bygging":11231,"1814":11232,"Motor":11233,"åndelige":11234,"påvirker":11235,"påvirket":11236,"Lillestrøm":11237,"eigen":11238,"heldige":11239,"negativ":11240,"besøke":11241,"besøkte":11242,"forhindre":11243,"Viking":11244,"flertallet":11245,"tjue":11246,"definisjon":11247,"formidle":11248,"##produksjonen":11249,"rørte":11250,"britisk":11251,"stranden":11252,"Ibn":11253,"undersøkt":11254,"hilsen":11255,"mengde":11256,"spissen":11257,"kontrollere":11258,"Internett":11259,"protest":11260,"patri":11261,"namnet":11262,"arbeidsmiljø":11263,"tiltalte":11264,"svingte":11265,"beskrivelse":11266,"stiftelsen":11267,"identifisere":11268,"kjennet":11269,"Black":11270,"country":11271,"livsstil":11272,"Williams":11273,"brått":11274,"European":11275,"gripe":11276,"overordnet":11277,"Ragnhild":11278,"global":11279,"direktøren":11280,"Kostet":11281,"Gjøvik":11282,"bifaltes":11283,"dynam":11284,"hurra":11285,"bestandig":11286,"Eksterne":11287,"omstendigheter":11288,"landsbyen":11289,"Lydia":11290,"Lofoten":11291,"konfirm":11292,"tuberkulose":11293,"Alaska":11294,"regnbue":11295,"Tremeau":11296,"infrastruktur":11297,"-)":11298,"Ac":11299,"Az":11300,"Aga":11301,"Aasen":11302,"Bend":11303,"Dis":11304,"EØS":11305,"Får":11306,"Food":11307,"Gard":11308,"Hobby":11309,"Heldigvis":11310,"Imp":11311,"Ki":11312,"Ku":11313,"Los":11314,"Lei":11315,"Mem":11316,"Ner":11317,"NOK":11318,"One":11319,"Park":11320,"Press":11321,"Rim":11322,"Rek":11323,"Røst":11324,"Sul":11325,"SFT":11326,"UK":11327,"Vat":11328,"Valg":11329,"Wagner":11330,"bam":11331,"bringer":11332,"cover":11333,"certain":11334,"dører":11335,"dammer":11336,"ear":11337,"eder":11338,"falsk":11339,"hes":11340,"hag":11341,"hesten":11342,"jåmstålld":11343,"kalen":11344,"lak":11345,"lede":11346,"lente":11347,"laborator":11348,"np":11349,"net":11350,"nes":11351,"pus":11352,"pante":11353,"røre":11354,"rente":11355,"rakk":11356,"rulle":11357,"rosa":11358,"she":11359,"sige":11360,"sugge":11361,"Økonom":11362,"##renes":11363,"##øtt":11364,"##øder":11365,"##iff":11366,"##ians":11367,"##nas":11368,"##nettet":11369,"##gner":11370,"##pal":11371,"##vol":11372,"##lid":11373,"##sig":11374,"##jå":11375,"##frist":11376,"##ds":11377,"##but":11378,"##brevet":11379,"##yp":11380,"##yra":11381,"##ykker":11382,"##minn":11383,"##miljøet":11384,"##æt":11385,"##80":11386,"##NES":11387,"##UST":11388,"##ci":11389,"##cm":11390,"##39":11391,"##PER":11392,"##VE":11393,"##xt":11394,"##BE":11395,"##aning":11396,"##aris":11397,"##elskap":11398,"##ila":11399,"##stens":11400,"##stell":11401,"##stjer":11402,"##egå":11403,"fordeling":11404,"forenk":11405,"##repet":11406,"tilstede":11407,"##lest":11408,"##ising":11409,"##unet":11410,"aviser":11411,"avhenger":11412,"påtalem":11413,"##ologen":11414,"medføre":11415,"##øret":11416,"##skatt":11417,"##skilde":11418,"skygge":11419,"varemer":11420,"##add":11421,"omtal":11422,"utk":11423,"utfører":11424,"##ulent":11425,"##årige":11426,"##iva":11427,"##anges":11428,"##rich":11429,"ald":11430,"aldeles":11431,"##rukket":11432,"##akom":11433,"##akene":11434,"##endes":11435,"angående":11436,"angrepet":11437,"note":11438,"innvendig":11439,"##terer":11440,"samspill":11441,"såvidt":11442,"såpass":11443,"spillet":11444,"overføres":11445,"##avtal":11446,"##bein":11447,"##mmelige":11448,"##anness":11449,"vedtok":11450,"sliter":11451,"##øyte":11452,"sem":11453,"sector":11454,"##rået":11455,"skalv":11456,"repl":11457,"reisen":11458,"##sper":11459,"##imb":11460,"konstat":11461,"##endene":11462,"Stats":11463,"##osis":11464,"klin":11465,"##smund":11466,"##rød":11467,"##rykt":11468,"koma":11469,"komple":11470,"##abl":11471,"plu":11472,"pluss":11473,"plukket":11474,"blind":11475,"blokk":11476,"register":11477,"Formos":11478,"107":11479,"skulder":11480,"level":11481,"##iserende":11482,"betal":11483,"##ustav":11484,"veileder":11485,"##klin":11486,"##klass":11487,"##førar":11488,"smøre":11489,"Skott":11490,"Skifte":11491,"treffer":11492,"landslag":11493,"brune":11494,"##ipro":11495,"##ipstad":11496,"##entering":11497,"##ydig":11498,"følelses":11499,"høyest":11500,"115":11501,"morsom":11502,"moralske":11503,"those":11504,"formålet":11505,"##ration":11506,"##onerer":11507,"behagelig":11508,"fars":11509,"fris":11510,"167":11511,"162":11512,"ordføreren":11513,"feire":11514,"145":11515,"møb":11516,"sittet":11517,"vern":11518,"ingeniør":11519,"baker":11520,"flytende":11521,"##sfri":11522,"viktigaste":11523,"Chr":11524,"Chic":11525,"perman":11526,"##aldres":11527,"##ained":11528,"kors":11529,"##rakten":11530,"##ianne":11531,"##stemt":11532,"##selskapet":11533,"##erences":11534,"techn":11535,"##anisme":11536,"##offet":11537,"##ragte":11538,"fleir":11539,"personell":11540,"partier":11541,"particip":11542,"Ref":11543,"hørtes":11544,"##farge":11545,"##regel":11546,"Utnevnt":11547,"##gjøring":11548,"Etabler":11549,"##right":11550,"240":11551,"without":11552,"relativ":11553,"Amalie":11554,"gjengen":11555,"valgkampen":11556,"strakte":11557,"brakte":11558,"##verka":11559,"##underlig":11560,"Karm":11561,"##blant":11562,"1958":11563,"bidro":11564,"drifta":11565,"need":11566,"natta":11567,"Barna":11568,"levere":11569,"##byggingen":11570,"information":11571,"attrakt":11572,"benytte":11573,"vinduer":11574,"scanpix":11575,"innsjø":11576,"innsikt":11577,"Undersøk":11578,"##yndte":11579,"1913":11580,"1917":11581,"Maur":11582,"Heid":11583,"##bygning":11584,"mottar":11585,"tvunget":11586,"loj":11587,"særskilte":11588,"Svensson":11589,"linjer":11590,"sovjet":11591,"kontrollen":11592,"tørt":11593,"dramakom":11594,"lokalene":11595,"ekteskapet":11596,"brøt":11597,"##buen":11598,"tradisjonelt":11599,"naz":11600,"stopper":11601,"##duksjonen":11602,"avslør":11603,"avslut":11604,"forsvinne":11605,"damer":11606,"drømmen":11607,"##ancy":11608,"funksjoner":11609,"1894":11610,"fartøy":11611,"kristen":11612,"1837":11613,"##sutvikling":11614,"gulv":11615,"virkemidler":11616,"endringene":11617,"tettere":11618,"##bildet":11619,"Signe":11620,"stoler":11621,"Mye":11622,"Hedmark":11623,"påvirkning":11624,"jernban":11625,"Morgan":11626,"oppstart":11627,"Markus":11628,"Borger":11629,"##irektorat":11630,"rekrutter":11631,"Film":11632,"Raw":11633,"ulykke":11634,"kongelige":11635,"##historisk":11636,"##historie":11637,"hoppe":11638,"hoppet":11639,"Antall":11640,"aksjee":11641,"bedriftene":11642,"materialer":11643,"inviterer":11644,"kjøpes":11645,"##småte":11646,"forfatteren":11647,"##sretten":11648,"handelsregister":11649,"Sarah":11650,"signaler":11651,"utnytt":11652,"##analyse":11653,"strategi":11654,"konvensjonen":11655,"tilhørte":11656,"europeisk":11657,"begravet":11658,"spredt":11659,"kjøperen":11660,"Audhild":11661,"Espen":11662,"video":11663,"##apparat":11664,"studerte":11665,"argument":11666,"arkitektur":11667,"NGOs":11668,"insekt":11669,"insekter":11670,"specific":11671,"erstatte":11672,"Kontakt":11673,"skjebne":11674,"Bryne":11675,"maksim":11676,"awik":11677,"kombinasjon":11678,"Søkere":11679,"original":11680,"##presentant":11681,"verdifulle":11682,"Resultatet":11683,"fortjener":11684,"arrestert":11685,"Angell":11686,"prioritere":11687,"Premier":11688,"Totalt":11689,"##aterialet":11690,"kontraher":11691,"redegjør":11692,"including":11693,"mogleg":11694,"språket":11695,"rabatt":11696,"Ungarn":11697,"Ingebrigtsen":11698,"Svalb":11699,"døgnet":11700,"##okolade":11701,"Eckhoff":11702,"Abubakar":11703,"forebygge":11704,"Formosus":11705,"%.":11706,"(©":11707,"//":11708,":\"\"":11709,"?\"\"":11710,"Aa":11711,"Ass":11712,"BM":11713,"Brev":11714,"Ce":11715,"Cop":11716,"Dar":11717,"DET":11718,"Elite":11719,"Fad":11720,"Fyr":11721,"Fast":11722,"Flem":11723,"Gor":11724,"Good":11725,"Hr":11726,"Hem":11727,"Hilde":11728,"Ide":11729,"Kul":11730,"Kjel":11731,"Kron":11732,"Lak":11733,"Lager":11734,"Mik":11735,"Mur":11736,"Mort":11737,"Mette":11738,"Moss":11739,"MED":11740,"National":11741,"Niger":11742,"Pan":11743,"Pant":11744,"Que":11745,"Sunn":11746,"Syd":11747,"Sommer":11748,"Tu":11749,"Tak":11750,"Tir":11751,"Tanken":11752,"Tove":11753,"Tveit":11754,"Tafjord":11755,"Up":11756,"UT":11757,"Valdres":11758,"Will":11759,"akk":11760,"apost":11761,"bjør":11762,"bråk":11763,"bøyde":11764,"dalen":11765,"emb":11766,"festen":11767,"gudd":11768,"heste":11769,"hydro":11770,"jager":11771,"kø":11772,"mad":11773,"mic":11774,"mamm":11775,"null":11776,"pian":11777,"pike":11778,"seter":11779,"slitt":11780,"tonen":11781,"uk":11782,"ull":11783,"vunnet":11784,"vogn":11785,"Ånd":11786,"Øynene":11787,"##øtter":11788,"##iing":11789,"##no":11790,"##viste":11791,"##vogn":11792,"##lit":11793,"##livet":11794,"##læg":11795,"##kyr":11796,"##kjer":11797,"##kapp":11798,"##kassen":11799,"##shuset":11800,"##fare":11801,"##fron":11802,"##fellen":11803,"##ddet":11804,"##døren":11805,"##uet":11806,"##uens":11807,"##ualitet":11808,"##hallen":11809,"##bers":11810,"##bilde":11811,"##yter":11812,"##mas":11813,"##mede":11814,"##mask":11815,"##moen":11816,"##ægt":11817,"##IA":11818,"##FK":11819,"##ca":11820,"##65":11821,"##etid":11822,"##orro":11823,"##anes":11824,"##anch":11825,"##aret":11826,"##stiden":11827,"##edirektoratet":11828,"##egu":11829,"##egger":11830,"forbruket":11831,"tildelt":11832,"##isont":11833,"avstanden":11834,"##older":11835,"##olvet":11836,"sta":11837,"stige":11838,"stiger":11839,"##idet":11840,"##nest":11841,"##skulen":11842,"##atert":11843,"skå":11844,"skaden":11845,"##verte":11846,"##verden":11847,"infin":11848,"##asat":11849,"varian":11850,"utsp":11851,"hann":11852,"##urser":11853,"etn":11854,"##ota":11855,"##akerne":11856,"##ikkens":11857,"angår":11858,"meninger":11859,"##ommelige":11860,"innslag":11861,"##hemat":11862,"##aps":11863,"spru":11864,"##mmens":11865,"##mmede":11866,"##mmelsen":11867,"##ordnet":11868,"vedt":11869,"##utstyr":11870,"##okl":11871,"##ynger":11872,"reind":11873,"reint":11874,"rekn":11875,"##spor":11876,"arbej":11877,"konstater":11878,"trærne":11879,"Stand":11880,"Stjør":11881,"State":11882,"##ffi":11883,"00NRK":11884,"nyhetene":11885,"tidlige":11886,"##eme":11887,"##astle":11888,"##abet":11889,"ordre":11890,"##merke":11891,"##merter":11892,"kvitt":11893,"##delag":11894,"kjed":11895,"##berget":11896,"##redet":11897,"veiene":11898,"##klassen":11899,"løper":11900,"syre":11901,"Skol":11902,"##ife":11903,"##leggingen":11904,"svære":11905,"Inga":11906,"brand":11907,"finan":11908,"høyrer":11909,"deira":11910,"mild":11911,"billig":11912,"formelle":11913,"Arna":11914,"bygnings":11915,"beher":11916,"lade":11917,"Joe":11918,"##arbeidere":11919,"ordnet":11920,"##aturen":11921,"##ledning":11922,"140":11923,"Trening":11924,"flokk":11925,"håpe":11926,"redaktør":11927,"Mari":11928,"Marius":11929,"baksiden":11930,"##vendige":11931,"flyt":11932,"ledende":11933,"Elin":11934,"evige":11935,"##amilla":11936,"Tilbake":11937,"##strekk":11938,"Old":11939,"##sdyr":11940,"##gren":11941,"##acter":11942,"fullmakt":11943,"Bernt":11944,"Berlin":11945,"våknet":11946,"personen":11947,"grave":11948,"offiser":11949,"unntatt":11950,"These":11951,"moder":11952,"modern":11953,"##kommet":11954,"Leir":11955,"grei":11956,"grepet":11957,"greide":11958,"##medal":11959,"André":11960,"kalk":11961,"markere":11962,"deltatt":11963,"turner":11964,"gruppene":11965,"kreft":11966,"forvente":11967,"freedom":11968,"##afé":11969,"Grunnen":11970,"engasjer":11971,"##trekk":11972,"##sproblem":11973,"behandle":11974,"Steen":11975,"løses":11976,"##istrere":11977,"tjenesten":11978,"omfatte":11979,"befest":11980,"sørger":11981,"dress":11982,"forstås":11983,"stykket":11984,"kravet":11985,"gjest":11986,"gjestene":11987,"Holum":11988,"hjå":11989,"Egil":11990,"Haar":11991,"1928":11992,"1927":11993,"lederen":11994,"dårligere":11995,"effektivitet":11996,"##dragelse":11997,"innsatsen":11998,"##ografisk":11999,"Kveld":12000,"1911":12001,"1915":12002,"1919":12003,"vender":12004,"reduserer":12005,"Vestlandet":12006,"Adams":12007,"Statsminister":12008,"krysset":12009,"gullan":12010,"tørr":12011,"medlemskap":12012,"##givende":12013,"gjera":12014,"hensynet":12015,"##weed":12016,"riktignok":12017,"Cook":12018,"frykter":12019,"ideen":12020,"boligen":12021,"månedene":12022,"besluttet":12023,"1880":12024,"1890":12025,"foregå":12026,"kritiske":12027,"1830":12028,"humor":12029,"urolig":12030,"koordin":12031,"vokser":12032,"maskinen":12033,"Edm":12034,"grove":12035,"##politisk":12036,"##politiske":12037,"anledninger":12038,"krevje":12039,"primære":12040,"primært":12041,"østsam":12042,"speil":12043,"Monica":12044,"1840":12045,"Kongens":12046,"Løken":12047,"Clare":12048,"Clint":12049,"magnet":12050,"utdannings":12051,"klassiske":12052,"oppgåvene":12053,"incre":12054,"III":12055,"filosofiske":12056,"Kai":12057,"Kaja":12058,"##veiing":12059,"statsråd":12060,"skrek":12061,"gjennomsnittlig":12062,"distriktet":12063,"tårnet":12064,"##spolitikk":12065,"Våler":12066,"borgerlige":12067,"balanse":12068,"ambass":12069,"pressemelding":12070,"##riminal":12071,"utskriv":12072,"Amerikansk":12073,"pedagogiske":12074,"ønskjer":12075,"vendt":12076,"##chester":12077,"jødiske":12078,"Britain":12079,"pilegrim":12080,"utnytte":12081,"Louise":12082,"menneskerettighetene":12083,"hensiktsmessig":12084,"øverst":12085,"reklam":12086,"russisk":12087,"Grunnloven":12088,"hemmelighet":12089,"hovedsakelig":12090,"søsteren":12091,"kapitlet":12092,"elektriske":12093,"kvadratmeter":12094,"Sjøl":12095,"fonologisk":12096,"forelsket":12097,"inspirasjon":12098,"brutto":12099,"leiren":12100,"bonden":12101,"##smyndigheten":12102,"##produkter":12103,"kamera":12104,"rdlr":12105,"##institusjoner":12106,"FRA":12107,"Universitet":12108,"University":12109,"fornuftig":12110,"Generalforsamling":12111,"allierte":12112,"verdipapirer":12113,"Angeles":12114,"centim":12115,"##kysten":12116,"sylinder":12117,"Senterpartiet":12118,"tittelen":12119,"Porsgrunn":12120,"integrering":12121,"nervøs":12122,"Prosjektet":12123,"Tony":12124,"Eilev":12125,"Gamle":12126,"integrert":12127,"lunsj":12128,"lidenskap":12129,"activities":12130,"forferdelig":12131,"irritert":12132,"Gadamer":12133,"Hensikten":12134,"##oppgåver":12135,"nølte":12136,"##kapitalen":12137,"deilig":12138,"tilbakevirknings":12139,"engasjert":12140,"##kjøpsrett":12141,"##srevyen":12142,"antakelig":12143,"Aleksander":12144,"Champions":12145,"Nederland":12146,"tallerken":12147,"Stockfleth":12148,"Tyrkia":12149,"Bendik":12150,"Chicago":12151,"Svalbard":12152,"(...":12153,"AG":12154,"AP":12155,"Asl":12156,"Act":12157,"Astrid":12158,"BR":12159,"Che":12160,"Cons":12161,"Central":12162,"Dale":12163,"Dire":12164,"Emb":12165,"Fiske":12166,"Gen":12167,"Garden":12168,"Golden":12169,"Heb":12170,"Hoff":12171,"Isak":12172,"Izz":12173,"Iran":12174,"Ky":12175,"Kart":12176,"Krav":12177,"Kons":12178,"Krig":12179,"Karen":12180,"Lå":12181,"Lid":12182,"Line":12183,"Lib":12184,"Lau":12185,"Loven":12186,"MA":12187,"Mann":12188,"Mind":12189,"Møte":12190,"NR":12191,"NÅ":12192,"Nina":12193,"Of":12194,"Rod":12195,"Ster":12196,"Sort":12197,"Sold":12198,"Send":12199,"Slag":12200,"Saa":12201,"Siste":12202,"Tust":12203,"Top":12204,"Till":12205,"Tipp":12206,"Vass":12207,"VER":12208,"VAR":12209,"Vennlig":12210,"Wal":12211,"brakt":12212,"beløpet":12213,"bøkene":12214,"cand":12215,"clinical":12216,"down":12217,"eu":12218,"eige":12219,"econom":12220,"fat":12221,"fjorden":12222,"hierark":12223,"ik":12224,"icke":12225,"ket":12226,"katt":12227,"kopp":12228,"kule":12229,"lurt":12230,"might":12231,"open":12232,"outs":12233,"own":12234,"pga":12235,"rt":12236,"run":12237,"rul":12238,"ros":12239,"sanger":12240,"talen":12241,"ukjent":12242,"##iert":12243,"##nelse":12244,"##ners":12245,"##ging":12246,"##væ":12247,"##vurder":12248,"##vennlig":12249,"##vagnar":12250,"##luft":12251,"##ount":12252,"##oung":12253,"##sde":12254,"##srom":12255,"##savtale":12256,"##jing":12257,"##ftt":12258,"##felle":12259,"##foner":12260,"##fritt":12261,"##freds":12262,"##født":12263,"##dis":12264,"##uene":12265,"##uert":12266,"##bund":12267,"##mul":12268,"##æld":12269,"##ér":12270,"##IKK":12271,"##FOR":12272,"##35":12273,"##wing":12274,"##90":12275,"##CH":12276,"##),":12277,"##eret":12278,"##ined":12279,"##støl":12280,"##stundes":12281,"##omt":12282,"##eger":12283,"forpl":12284,"##ingens":12285,"##kester":12286,"ender":12287,"avsk":12288,"##esdal":12289,"påske":12290,"pålagt":12291,"støy":12292,"stanse":12293,"##ids":12294,"##amper":12295,"##skatten":12296,"##skjema":12297,"##vering":12298,"##agram":12299,"##itative":12300,"varte":12301,"omhandler":12302,"##ental":12303,"utmerket":12304,"##ulated":12305,"##rob":12306,"##lich":12307,"##ensyn":12308,"oppvar":12309,"opptrer":12310,"##rick":12311,"anne":12312,"menes":12313,"##ommel":12314,"innle":12315,"innspill":12316,"bevart":12317,"elv":12318,"##apet":12319,"spiser":12320,"overgangen":12321,"##avstand":12322,"##beite":12323,"##ordninger":12324,"##ordiner":12325,"##ftig":12326,"hunde":12327,"hunder":12328,"vedlegg":12329,"slokk":12330,"##utdanning":12331,"seint":12332,"sekretær":12333,"##slo":12334,"##ovner":12335,"hels":12336,"##imer":12337,"arb":12338,"tobakk":12339,"konj":12340,"##inny":12341,"Sted":12342,"Stille":12343,"Stian":12344,"##ume":12345,"##nette":12346,"##smer":12347,"##smøter":12348,"##smuligheter":12349,"##eldende":12350,"##skapets":12351,"mind":12352,"minus":12353,"##ansvaret":12354,"##abelt":12355,"##visende":12356,"##obi":12357,"blot":12358,"dagers":12359,"fortake":12360,"fortau":12361,"##retninger":12362,"kjens":12363,"gran":12364,"krise":12365,"##resjon":12366,"##peren":12367,"gjennomføringen":12368,"løfte":12369,"hverdagen":12370,"takker":12371,"156":12372,"Skatt":12373,"Skyld":12374,"fremlagt":12375,"fremtred":12376,"##ammel":12377,"##oph":12378,"1200":12379,"##dress":12380,"søsken":12381,"##bruken":12382,"interne":12383,"112":12384,"morens":12385,"political":12386,"laste":12387,"bestemor":12388,"trass":12389,"tenkning":12390,"syns":12391,"ordentlig":12392,"136":12393,"selvtill":12394,"snille":12395,"##plater":12396,"##leddet":12397,"Trans":12398,"verke":12399,"sjokk":12400,"##diameter":12401,"stemte":12402,"Sex":12403,"##sfil":12404,"##sfolk":12405,"##sfjord":12406,"##lesn":12407,"glasset":12408,"sigar":12409,"Sånn":12410,"love":12411,"even":12412,"Johnn":12413,"korrig":12414,"##svalg":12415,"adm":12416,"advar":12417,"##ankene":12418,"230":12419,"planter":12420,"stedene":12421,"fullført":12422,"...>>":12423,"##offe":12424,"Brann":12425,"##mannens":12426,"antas":12427,"party":12428,"Rec":12429,"##ulert":12430,"høf":12431,"brukere":12432,"##sjorde":12433,"##virksomheten":12434,"##............":12435,"presenterte":12436,"jordbruk":12437,"historier":12438,"vegger":12439,"karene":12440,"vinkel":12441,"bestod":12442,"kreftene":12443,"##betal":12444,"##IND":12445,"musli":12446,"Stemmen":12447,"eleven":12448,"##kurset":12449,"økonomien":12450,"##sgjer":12451,"oppfatter":12452,"gradvis":12453,"Selskapet":12454,"##grunnlaget":12455,"leverte":12456,"fisken":12457,"cho":12458,"change":12459,"attende":12460,"foretre":12461,"oblig":12462,"scene":12463,"aksjene":12464,"effekten":12465,"Sverig":12466,"buk":12467,"normale":12468,"##gården":12469,"Andrea":12470,"Luke":12471,"vurderes":12472,"abbey":12473,"rope":12474,"sannhet":12475,"tape":12476,"helsevern":12477,"disip":12478,"vesentlige":12479,"skipsfart":12480,"lokket":12481,"Svart":12482,"##ortert":12483,"kursen":12484,"##frid":12485,"Statistisk":12486,"forstør":12487,"Shar":12488,"grøn":12489,"Slur":12490,"punktet":12491,"##weet":12492,"fryktet":12493,"brødre":12494,"misly":12495,"utgitt":12496,"1908":12497,"1905":12498,"##meldte":12499,"drømme":12500,"operasjon":12501,"regionen":12502,"interessante":12503,"kvalitetss":12504,"##synligvis":12505,"##øvrig":12506,"Smith":12507,"undret":12508,"avgi":12509,"kjærligheten":12510,"kartlegge":12511,"stråler":12512,"anledningen":12513,"kampene":12514,"Minist":12515,"1854":12516,"weap":12517,"Mykle":12518,"##KKE":12519,"##punktet":12520,"utstyret":12521,"##interesser":12522,"sjølvsagt":12523,"Brown":12524,"Bratt":12525,"Brack":12526,"nabol":12527,"##musikk":12528,"satser":12529,"##skjær":12530,"sektorer":12531,"besøkt":12532,"opprinnelse":12533,"ahor":12534,"rekord":12535,"Raider":12536,"formiddag":12537,"statsråden":12538,"##sserie":12539,"uttrykker":12540,"Røsjorde":12541,"plasseres":12542,"balansen":12543,"Greipstad":12544,"gleden":12545,"hilste":12546,"##sregler":12547,"detaljer":12548,"hjemmes":12549,"##ssjefen":12550,".\"\"\"\".":12551,"Linda":12552,"Mandag":12553,"blandet":12554,"forbedre":12555,"diskusjoner":12556,"much":12557,"utforming":12558,"##sprinsippet":12559,"displa":12560,"etablerte":12561,"soldat":12562,"senga":12563,"Margrete":12564,"oppdater":12565,"isolert":12566,"stempelring":12567,"oppfordret":12568,"##apparatet":12569,"##haveren":12570,"##sselskapet":12571,"fjernsyn":12572,"dokumentarserie":12573,"effects":12574,"gjentok":12575,"##produkt":12576,"Dykk":12577,"medarbeidere":12578,"Studio":12579,"merknader":12580,"Drammens":12581,"bindings":12582,"utvide":12583,"sperreg":12584,"##mmesed":12585,"heldigvis":12586,"Gullruten":12587,"nestleder":12588,"##incip":12589,"klasserommet":12590,"Lucia":12591,"##krigen":12592,"bruksnr":12593,"Birgitte":12594,"Emily":12595,"klemte":12596,"Masterji":12597,"henvendelser":12598,"Kommentar":12599,"økos":12600,"##ingsforretning":12601,"evangeliet":12602,"Notodden":12603,"betraktes":12604,"##demokrat":12605,"formulert":12606,"Problemet":12607,"##byrd":12608,"Dessutan":12609,"akseptere":12610,"##drivende":12611,"gjennomgått":12612,"##ibility":12613,"Svendsen":12614,"##ksusfellen":12615,"svovel":12616,"##sområde":12617,"Røros":12618,"Transport":12619,"##svilkår":12620,"utelukkende":12621,"dugnad":12622,"yngste":12623,"urimelig":12624,"Atlanter":12625,"arrangeres":12626,"Næringsliv":12627,"Sovjet":12628,"Helgeland":12629,"oftere":12630,"##fødte":12631,"Frederik":12632,"rusmiddelforebygging":12633,"varamann":12634,"##ducation":12635,"forfattere":12636,"animasjon":12637,"samvittighet":12638,"##ograph":12639,"##LEGG":12640,"Skiftestad":12641,"permanent":12642,"Aslak":12643,"Izzy":12644,"Tusterv":12645,"Ast":12646,"Aune":12647,"Bind":12648,"Bobby":12649,"Cav":12650,"Dor":12651,"Dam":12652,"Dog":12653,"Dick":12654,"Dato":12655,"Ene":12656,"Fikk":12657,"Født":12658,"Gal":12659,"Gau":12660,"Gustav":12661,"Hild":12662,"Hustr":12663,"Igjen":12664,"Jane":12665,"Kjør":12666,"Khar":12667,"KOMM":12668,"Laget":12669,"Mør":12670,"Mul":12671,"Mest":12672,"Moder":12673,"NB":12674,"Nik":12675,"Num":12676,"Pers":12677,"RE":12678,"Ros":12679,"Rip":12680,"Rune":12681,"Sle":12682,"Sak":12683,"Sant":12684,"Sem":12685,"Sivil":12686,"Time":12687,"Tofte":12688,"Ville":12689,"Your":12690,"ade":12691,"aud":12692,"amp":12693,"aften":12694,"brem":12695,"biter":12696,"belø":12697,"cur":12698,"che":12699,"danne":12700,"dipl":12701,"estab":12702,"ekko":12703,"fal":12704,"fjø":12705,"för":12706,"get":12707,"gig":12708,"gongen":12709,"given":12710,"golvet":12711,"hin":12712,"htt":12713,"host":12714,"iak":12715,"iron":12716,"iblant":12717,"kasser":12718,"kinnet":12719,"lem":12720,"less":12721,"low":12722,"mene":12723,"mit":12724,"mobb":12725,"odel":12726,"pi":12727,"put":12728,"pneum":12729,"rug":12730,"rime":12731,"rullet":12732,"sver":12733,"sog":12734,"sult":12735,"sopp":12736,"såret":12737,"toner":12738,"tipp":12739,"ugift":12740,"vikt":12741,"vels":12742,"Ål":12743,"Åse":12744,"Økt":12745,"øve":12746,"ører":12747,"übe":12748,"##risen":12749,"##økt":12750,"##nast":12751,"##næring":12752,"##pent":12753,"##pnet":12754,"##prem":12755,"##åra":12756,"##to":12757,"##ting":12758,"##tur":12759,"##vam":12760,"##vass":12761,"##vede":12762,"##lan":12763,"##kamer":12764,"##salg":12765,"##sarbeidet":12766,"##aal":12767,"##afor":12768,"##aft":12769,"##jo":12770,"##få":12771,"##fj":12772,"##faktor":12773,"##ually":12774,"##hler":12775,"##ype":12776,"##mg":12777,"##menter":12778,"##IM":12779,"##SN":12780,"##SDAG":12781,"##cks":12782,"##card":12783,"##42":12784,"##33":12785,"##wick":12786,"##CC":12787,"##etasjon":12788,"##anon":12789,"##arn":12790,"##ily":12791,"##iltak":12792,"##edel":12793,"##egangen":12794,"##egård":12795,"forg":12796,"forne":12797,"forholder":12798,"##igarden":12799,"##ones":12800,"##leir":12801,"##leif":12802,"##una":12803,"avbry":12804,"##ikn":12805,"##ikene":12806,"pårørende":12807,"##olin":12808,"stas":12809,"stro":12810,"stikke":12811,"stygt":12812,"medis":12813,"##ami":12814,"##skor":12815,"##skop":12816,"##skiftet":12817,"##ature":12818,"skrik":12819,"skifter":12820,"##veral":12821,"##aga":12822,"inspe":12823,"##ased":12824,"##ently":12825,"utkast":12826,"##ulf":12827,"##uland":12828,"##ulvet":12829,"##ærte":12830,"##lip":12831,"fravær":12832,"##other":12833,"##rustet":12834,"anten":12835,"##forsvar":12836,"innfall":12837,"innvirkning":12838,"##ksid":12839,"##ksene":12840,"befaring":12841,"span":12842,"spore":12843,"##eligger":12844,"overn":12845,"##mmere":12846,"##ording":12847,"##ested":12848,"##estrand":12849,"##ssaker":12850,"##arta":12851,"##genhet":12852,"##uther":12853,"derfrå":12854,"##udder":12855,"skala":12856,"reform":12857,"due":12858,"dukke":12859,"##spris":12860,"##spillere":12861,"##spraksis":12862,"Star":12863,"Stab":12864,"Stokke":12865,"nyd":12866,"##unds":12867,"klaget":12868,"klatret":12869,"motsatte":12870,"##smakt":12871,"##ioner":12872,"##ican":12873,"##aktive":12874,"##ryd":12875,"plater":12876,"##visningen":12877,"blood":12878,"dagar":12879,"fortid":12880,"fortere":12881,"kven":12882,"Forslag":12883,"Forholdet":12884,"leiet":12885,"enno":12886,"##setningene":12887,"arbeidere":12888,"##uttrykk":12889,"take":12890,"Sky":12891,"fremste":12892,"landbruket":12893,"myst":12894,"##ifrå":12895,"##oping":12896,"norges":12897,"##ekont":12898,"Albert":12899,"125":12900,"##olkning":12901,"##ganger":12902,"båter":12903,"framand":12904,"framfor":12905,"følt":12906,"følelsene":12907,"lagring":12908,"verda":12909,"verdighet":12910,"##brutt":12911,"mors":12912,"morsomt":12913,"##overskudd":12914,"farer":12915,"farens":12916,"friske":12917,"livets":12918,"livssyn":12919,"handlingen":12920,"handlar":12921,"##ERI":12922,"Troll":12923,"lignet":12924,"ligner":12925,"saks":12926,"redskap":12927,"stemmesed":12928,"##sbyg":12929,"##sbygg":12930,"tysker":12931,"fråvær":12932,"218":12933,"troen":12934,"##ocks":12935,"flyte":12936,"##rerende":12937,"##~~~":12938,"evig":12939,"knuste":12940,"koret":12941,"korrel":12942,"korvett":12943,"##svatn":12944,"utvikles":12945,"inneh":12946,"innebar":12947,"##paret":12948,"domin":12949,"meet":12950,"means":12951,"Oljed":12952,"##self":12953,"##ysle":12954,"##erence":12955,"teke":12956,"##rivillig":12957,"##eiere":12958,"##vilje":12959,"partis":12960,"partiene":12961,"Reis":12962,"sup":12963,"##regler":12964,"naturleg":12965,"familiem":12966,"lokaliteter":12967,"Registrert":12968,"nyttår":12969,"##ildene":12970,"within":12971,"Samuel":12972,"mathemat":12973,"nordre":12974,"studiet":12975,"vegvesen":12976,"bratt":12977,"Rose":12978,"area":12979,"døds":12980,"retninger":12981,"##issue":12982,"frekvens":12983,"juletre":12984,"musikken":12985,"##egnelsen":12986,"fødsels":12987,"eksempelvis":12988,"territor":12989,"##ISEN":12990,"##samfunnet":12991,"impon":12992,"##feranse":12993,"brydde":12994,"samarbeider":12995,"bekost":12996,"foretak":12997,"build":12998,"hevet":12999,"tiår":13000,"innsjøen":13001,"marine":13002,"##rasjonen":13003,"dratt":13004,"tempo":13005,"lærar":13006,"setning":13007,"##ESEN":13008,"Luksusfellen":13009,"abonn":13010,"perioder":13011,"motta":13012,"fjær":13013,"forlatt":13014,"forlater":13015,"særdeles":13016,"variable":13017,"Helene":13018,"krysser":13019,"grønt":13020,"alderspensjon":13021,"oppleves":13022,"opplevelsen":13023,"##urther":13024,"##onnør":13025,"talent":13026,"sykdommer":13027,"bevegelser":13028,"##psons":13029,"forutsatt":13030,"utgrav":13031,"tradisjonen":13032,"Flat":13033,"folkeav":13034,"avgjørelser":13035,"Kirsten":13036,"##befolkningen":13037,"konkurrans":13038,"1884":13039,"1899":13040,"Kjære":13041,"kristendommen":13042,"ytterste":13043,"kompetansen":13044,"tegne":13045,"tegnet":13046,"tegninger":13047,"produsert":13048,"koste":13049,"koordiner":13050,"ekstraordin":13051,"straffeloven":13052,"begrensninger":13053,"stolte":13054,"beregninger":13055,"Verden":13056,"oppnådd":13057,"fira":13058,"##styre":13059,"1847":13060,"Kongsv":13061,"innebære":13062,"arkiv":13063,"aggreg":13064,"Jørg":13065,"Simpsons":13066,"jernbane":13067,"pleier":13068,"Folket":13069,"regulert":13070,"##kostnad":13071,"laveste":13072,"Madsen":13073,"Vårt":13074,"uheldig":13075,"arrangement":13076,"religionen":13077,"understreket":13078,"skreiv":13079,"omtale":13080,"gards":13081,"interesserte":13082,"forestillingen":13083,"investering":13084,"kobber":13085,"ilden":13086,"pensjonist":13087,"bølge":13088,"bølger":13089,"Ingvil":13090,"skuffet":13091,"among":13092,"##høyde":13093,"gumm":13094,"guvern":13095,"##active":13096,"Henriksen":13097,"Breiv":13098,"Kristiania":13099,"signatur":13100,"Whit":13101,"fryktelig":13102,"##fangsten":13103,"##strukturen":13104,"Lyse":13105,"Arnold":13106,"dokumentasjon":13107,"kollektivt":13108,"uttalelser":13109,"stavkirke":13110,"berørte":13111,"ivaretatt":13112,"Fisker":13113,"gjeme":13114,"Humlesn":13115,"INN":13116,"sluppet":13117,"omgivelser":13118,"firmaet":13119,"motivasjon":13120,"hjulpet":13121,"potensial":13122,"dirig":13123,"tretti":13124,"leverandører":13125,"##blåst":13126,"because":13127,"betegnelsen":13128,"##sykeple":13129,"overraskende":13130,"trenings":13131,"Finansdepartementet":13132,"Belg":13133,"Datat":13134,"Pitton":13135,"##sperioden":13136,"://":13137,"Skeie":13138,"Street":13139,"##publ":13140,"juridiske":13141,"costs":13142,"##fremmende":13143,"describ":13144,"Sannsynligvis":13145,"unnskyldning":13146,"##kjempelse":13147,"eksportkvoter":13148,"Grønland":13149,"mucosal":13150,"American":13151,"##tnant":13152,"Stortingets":13153,"intenst":13154,"mobiltelefon":13155,"konservative":13156,"treffes":13157,"OSLO":13158,"Owen":13159,"rynket":13160,"avskjed":13161,"pacemaker":13162,"FBI":13163,"spedbarn":13164,"Karmøy":13165,"Vålerenga":13166,"Tippelig":13167,"Johnny":13168,"Mykleb":13169,"Humlesnurr":13170,"**":13171,",,":13172,"Ah":13173,"AF":13174,"After":13175,"Apr":13176,"BN":13177,"Ban":13178,"Bab":13179,"Cre":13180,"Cornelius":13181,"Camilla":13182,"DE":13183,"Eb":13184,"EF":13185,"Ett":13186,"Ekte":13187,"Elekt":13188,"Effekt":13189,"Fal":13190,"Fis":13191,"Ferd":13192,"Hi":13193,"Heg":13194,"Himm":13195,"Kh":13196,"Kim":13197,"Kommer":13198,"Kors":13199,"Kath":13200,"KUN":13201,"Lin":13202,"Las":13203,"Lim":13204,"Lærer":13205,"Love":13206,"Møl":13207,"Miss":13208,"Nasjon":13209,"Ness":13210,"OM":13211,"OK":13212,"Okt":13213,"Orig":13214,"Pil":13215,"Pass":13216,"Papp":13217,"Ret":13218,"Rest":13219,"Resten":13220,"Sing":13221,"Sent":13222,"Søn":13223,"SOL":13224,"TOR":13225,"Tweed":13226,"Ug":13227,"Vol":13228,"Vent":13229,"Vold":13230,"Vog":13231,"Vill":13232,"Wien":13233,"Wright":13234,"Yes":13235,"age":13236,"agre":13237,"bens":13238,"cle":13239,"coc":13240,"cross":13241,"cirka":13242,"dronning":13243,"diverse":13244,"edel":13245,"fn":13246,"ff":13247,"fold":13248,"fatte":13249,"fac":13250,"foss":13251,"fase":13252,"fattet":13253,"gaa":13254,"glipp":13255,"henn":13256,"henter":13257,"island":13258,"ihjel":13259,"kylling":13260,"ll":13261,"los":13262,"laken":13263,"lyng":13264,"mas":13265,"mos":13266,"pene":13267,"possible":13268,"ri":13269,"rens":13270,"rikt":13271,"range":13272,"rive":13273,"sans":13274,"song":13275,"sorte":13276,"tet":13277,"vri":13278,"waste":13279,"ått":13280,"ætt":13281,"øde":13282,"##rine":13283,"##reland":13284,"##nor":13285,"##nam":13286,"##god":13287,"##gir":13288,"##gate":13289,"##ping":13290,"##pende":13291,"##ples":13292,"##vde":13293,"##via":13294,"##vester":13295,"##ls":13296,"##lant":13297,"##obe":13298,"##krav":13299,"##sin":13300,"##siktig":13301,"##senten":13302,"##ai":13303,"##az":13304,"##aer":13305,"##aas":13306,"##aut":13307,"##jas":13308,"##face":13309,"##hæn":13310,"##bøkene":13311,"##yM":13312,"##ynder":13313,"##ystemer":13314,"##mans":13315,"##målet":13316,"##OG":13317,"##NER":13318,"##TUS":13319,"##cer":13320,"##cing":13321,"##DEL":13322,"##60":13323,"##zjan":13324,"##VAR":13325,"##xi":13326,"##HTb":13327,"##etz":13328,"##orger":13329,"##anfor":13330,"##armer":13331,"##institutt":13332,"##elset":13333,"##elia":13334,"##stue":13335,"##stider":13336,"##stegn":13337,"##egne":13338,"forber":13339,"##alf":13340,"##alm":13341,"##alisering":13342,"##kebø":13343,"##onne":13344,"##ttak":13345,"##iso":13346,"environment":13347,"avdelinger":13348,"avhengige":13349,"##iket":13350,"##ikon":13351,"stive":13352,"##skrevet":13353,"##aters":13354,"##atikken":13355,"##ativer":13356,"skr":13357,"##veren":13358,"##agende":13359,"##agnet":13360,"inder":13361,"omkom":13362,"##andet":13363,"##sevne":13364,"utpe":13365,"utøv":13366,"##ivia":13367,"##lier":13368,"##erem":13369,"##ligt":13370,"##ligvis":13371,"oppgjør":13372,"oppnev":13373,"##oto":13374,"##otiv":13375,"##otens":13376,"gjenta":13377,"ansl":13378,"menings":13379,"##foret":13380,"##forest":13381,"inngangen":13382,"##odar":13383,"samhandling":13384,"samples":13385,"bevar":13386,"bestå":13387,"bemerket":13388,"spra":13389,"spansk":13390,"månen":13391,"overtid":13392,"overtatt":13393,"seem":13394,"seile":13395,"several":13396,"##ynte":13397,"##slett":13398,"revid":13399,"##ovis":13400,"##sporten":13401,"helikopter":13402,"kommers":13403,"konvol":13404,"trange":13405,"##ended":13406,"Stilling":13407,"##varig":13408,"kunden":13409,"nyheten":13410,"##smo":13411,"##røn":13412,"underlagt":13413,"##ryter":13414,"komité":13415,"##erdet":13416,"##gjande":13417,"plate":13418,"##oblet":13419,"dagsord":13420,"fortr":13421,"kvinnes":13422,"reglar":13423,"##retningen":13424,"lead":13425,"kjole":13426,"kjolen":13427,"##iserie":13428,"gren":13429,"grunne":13430,"krone":13431,"betales":13432,"##redes":13433,"begr":13434,"##sete":13435,"##setet":13436,"manif":13437,"nedt":13438,"arbeidstid":13439,"arbeidsgrupp":13440,"##klasse":13441,"løgn":13442,"##uttene":13443,"smert":13444,"smale":13445,"Skolen":13446,"myt":13447,"##ifikasjon":13448,"##ammens":13449,"lyktes":13450,"##opplæring":13451,"eine":13452,"tilbringe":13453,"##stilbud":13454,"bris":13455,"##ekn":13456,"Alv":13457,"Aldri":13458,"127":13459,"beslag":13460,"lagde":13461,"endrer":13462,"høytid":13463,"internt":13464,"virksom":13465,"formell":13466,"politid":13467,"Joy":13468,"travel":13469,"traktor":13470,"##konkurr":13471,"##planen":13472,"feb":13473,"forbund":13474,"forbilde":13475,"##rikter":13476,"handelen":13477,"flat":13478,"håpl":13479,"saksø":13480,"Herman":13481,"verkst":13482,"sjette":13483,"sjokolade":13484,"menneskelige":13485,"statist":13486,"Marte":13487,"Marzjan":13488,"##levende":13489,"barnas":13490,"##sbet":13491,"från":13492,"dømme":13493,"glatt":13494,"##ikkerheten":13495,"lednings":13496,"Else":13497,"lova":13498,"##ebolig":13499,"knust":13500,"Tillich":13501,"##jelland":13502,"##rakter":13503,"Olje":13504,"mestring":13505,"##snavn":13506,"Brus":13507,"våken":13508,"gamal":13509,"compet":13510,"Spør":13511,"Rein":13512,"##herine":13513,"Ettersom":13514,"bruka":13515,"##sjå":13516,"Utstilling":13517,"støtt":13518,"Nordkapp":13519,"##kommun":13520,"##ererer":13521,"hviler":13522,"ungdommer":13523,"Roald":13524,"kulturverdier":13525,"##atoriske":13526,"strenge":13527,"friidrett":13528,"karer":13529,"Karin":13530,"tiltaket":13531,"##boer":13532,"##betet":13533,"free":13534,"stader":13535,"kirker":13536,"gammeld":13537,"Stef":13538,"whole":13539,"sikkerheten":13540,"rekkevid":13541,"befal":13542,"spørsmålene":13543,"driftsut":13544,"barnevern":13545,"utviklingsland":13546,"faen":13547,"faar":13548,"fault":13549,"factor":13550,"Oppført":13551,"metoden":13552,"kunstverk":13553,"kjemisk":13554,"drepte":13555,"Blå":13556,"gaver":13557,"##feranser":13558,"enklere":13559,"starta":13560,"leverer":13561,"fisket":13562,"##giftene":13563,"hjartet":13564,"værende":13565,"##ahr":13566,"##komedie":13567,"Manchester":13568,"benytter":13569,"true":13570,"Haakon":13571,"1934":13572,"Willy":13573,"fornøyde":13574,"bøndene":13575,"effektbryter":13576,"##råkrat":13577,"Stortings":13578,"feilen":13579,"drakk":13580,"##yndigheten":13581,"forklares":13582,"1918":13583,"1912":13584,"publ":13585,"nemnt":13586,"Plat":13587,"Helga":13588,"does":13589,"linjen":13590,"pakket":13591,"Johnson":13592,"blåste":13593,"forsvarer":13594,"meldt":13595,"brødrene":13596,"author":13597,"boliger":13598,"##ATIS":13599,"graven":13600,"damen":13601,"damene":13602,"##ances":13603,"funksjonshe":13604,"##sesser":13605,"##sorganis":13606,"kvaliteten":13607,"kritikken":13608,"makten":13609,"##sstaten":13610,"bestemmelsen":13611,"book":13612,"avgifter":13613,"fyrst":13614,"oppdager":13615,"##stemmelse":13616,"beregnes":13617,"bredere":13618,"Apoll":13619,"##ITT":13620,"kjempet":13621,"1812":13622,"Ulrik":13623,"kvarter":13624,"Gjennomsnitt":13625,"Snor":13626,"annonser":13627,"førti":13628,"individual":13629,"ødela":13630,"Robin":13631,"klassisk":13632,"1801":13633,"sannsynlighet":13634,"salgs":13635,"##sida":13636,"besøker":13637,"besøket":13638,"gratulere":13639,"oppsto":13640,"Saud":13641,"uventet":13642,"##pool":13643,"arrangerer":13644,"ulykken":13645,"Afg":13646,"dørene":13647,"##støt":13648,"Røde":13649,"portrett":13650,"papiret":13651,"tårene":13652,"anbefalt":13653,"innkalt":13654,"risikoen":13655,"Ibsen":13656,"vinduene":13657,"##filosof":13658,"slappe":13659,"hilse":13660,"stjerner":13661,"contain":13662,"medisinske":13663,"arbeidsplassen":13664,"forkort":13665,"formannskap":13666,"##organisasjon":13667,"deltakerne":13668,"Guy":13669,"Posten":13670,"account":13671,"blandt":13672,"blanding":13673,"Control":13674,"What":13675,"kulde":13676,"observasjoner":13677,"Naar":13678,"massasje":13679,"forhandlingene":13680,"fantastiske":13681,"spredte":13682,"Margret":13683,"jevnt":13684,"beskrives":13685,"Group":13686,"glemte":13687,"##hovet":13688,"##sselskap":13689,"##fruer":13690,"berørt":13691,"influen":13692,"Hellas":13693,"##prøver":13694,"universitetet":13695,"konkluder":13696,"nominert":13697,"NPT":13698,"legemiddel":13699,"Eksport":13700,"cyA":13701,"Forsvaret":13702,"Joseph":13703,"leverandør":13704,"sykepleier":13705,"Peters":13706,"involvert":13707,"grensene":13708,"Sofie":13709,"reagerer":13710,"etterforskning":13711,"Otto":13712,"horisont":13713,"stjålet":13714,"Ellingsen":13715,"teorien":13716,"tilleggsnæring":13717,"tilleggsnæringer":13718,"finansiering":13719,"bistand":13720,"borgere":13721,"##sgrense":13722,"Eksempel":13723,"##konsert":13724,"BRUTUS":13725,"Kystvakten":13726,"konteksten":13727,"snarere":13728,"##profesjon":13729,"introdus":13730,"Ruud":13731,"muntlig":13732,"pipa":13733,"vasket":13734,"konsentrere":13735,"variables":13736,"Faktisk":13737,"pistolen":13738,"Sivertsen":13739,"sakristi":13740,"teoretisk":13741,"inspirert":13742,"messianske":13743,"arrangementet":13744,"Hafjell":13745,"Labour":13746,"performance":13747,"Amundsen":13748,"Bevilgning":13749,"matematikk":13750,"BBC":13751,"Privat":13752,"Pensjonist":13753,"utstedt":13754,"allmenne":13755,"Dollars":13756,"regnbueørret":13757,"Skottland":13758,"Stjørdal":13759,"centimeter":13760,"(...)":13761,"Vennligst":13762,"slokking":13763,"fremtredende":13764,"Kongsvinger":13765,"Tippeligaen":13766,"hennar":13767,".................................":13768,":-":13769,"AD":13770,"Amt":13771,"Bol":13772,"Baker":13773,"Bjelland":13774,"CP":13775,"Dø":13776,"Dub":13777,"EL":13778,"Eiker":13779,"Fi":13780,"Fant":13781,"Fana":13782,"Gry":13783,"Grip":13784,"Gahr":13785,"HA":13786,"Hor":13787,"Hon":13788,"Hommel":13789,"If":13790,"Ill":13791,"Jf":13792,"Kyr":13793,"Kvar":13794,"KON":13795,"Lud":13796,"Liver":13797,"Liz":13798,"Løv":13799,"Lena":13800,"LØR":13801,"MØ":13802,"Mans":13803,"Matte":13804,"Mont":13805,"Maks":13806,"Merv":13807,"Mika":13808,"Nam":13809,"Nap":13810,"NVE":13811,"Oh":13812,"P4":13813,"Pip":13814,"Rid":13815,"Rud":13816,"Rese":13817,"Redd":13818,"Sun":13819,"Sid":13820,"Sas":13821,"TH":13822,"UEF":13823,"Wu":13824,"With":13825,"Zimb":13826,"Zorro":13827,"aure":13828,"around":13829,"bul":13830,"bød":13831,"bakk":13832,"col":13833,"cat":13834,"cond":13835,"dry":13836,"dommer":13837,"education":13838,"giv":13839,"jæv":13840,"jøder":13841,"lommen":13842,"lansert":13843,"myn":13844,"mast":13845,"malt":13846,"mynt":13847,"pay":13848,"rig":13849,"rant":13850,"rum":13851,"rob":13852,"ringen":13853,"reder":13854,"rare":13855,"role":13856,"ravn":13857,"sund":13858,"smerter":13859,"telt":13860,"tjen":13861,"tsing":13862,"tusener":13863,"tissue":13864,"uklart":13865,"vor":13866,"vred":13867,"Åh":13868,"Ækers":13869,"Øysle":13870,"åre":13871,"übet":13872,"##øve":13873,"##ømmet":13874,"##irem":13875,"##ires":13876,"##ique":13877,"##nde":13878,"##gor":13879,"##pes":13880,"##papir":13881,"##venn":13882,"##vnen":13883,"##vanlig":13884,"##lok":13885,"##last":13886,"##line":13887,"##lande":13888,"##lunde":13889,"##oe":13890,"##oo":13891,"##kalt":13892,"##kjel":13893,"##kster":13894,"##kammer":13895,"##krit":13896,"##sver":13897,"##sopp":13898,"##sverk":13899,"##sentral":13900,"##srådet":13901,"##fet":13902,"##ftes":13903,"##uin":13904,"##ude":13905,"##habil":13906,"##bøl":13907,"##bånd":13908,"##bråten":13909,"##yper":13910,"##mel":13911,"##miljø":13912,"##æder":13913,"##LAD":13914,"##Hb":13915,"##21":13916,"##orget":13917,"##anza":13918,"##ario":13919,"##inion":13920,"##elå":13921,"##store":13922,"##egori":13923,"fordre":13924,"forlik":13925,"##ref":13926,"##teinen":13927,"##onate":13928,"##onium":13929,"tilført":13930,"tillate":13931,"##leiv":13932,"##iset":13933,"enorm":13934,"aver":13935,"avver":13936,"##esongen":13937,"##ikar":13938,"##ologer":13939,"stell":13940,"medal":13941,"##skinn":13942,"##skjel":13943,"##skons":13944,"##skogen":13945,"##atelsen":13946,"skår":13947,"skim":13948,"skyggen":13949,"skremt":13950,"skinte":13951,"##verktøy":13952,"##andres":13953,"##seid":13954,"##seffekt":13955,"utarbeid":13956,"utvil":13957,"##årn":13958,"##årets":13959,"##ærd":13960,"##liste":13961,"##urene":13962,"opplegg":13963,"oppgjøret":13964,"etikk":13965,"etisk":13966,"##otland":13967,"anser":13968,"anslag":13969,"anlagt":13970,"another":13971,"meningen":13972,"##fors":13973,"##forslaget":13974,"##ommere":13975,">>).":13976,"##heks":13977,"samler":13978,"samisk":13979,"samiske":13980,"samles":13981,"samlinger":13982,"bestyr":13983,"beholdt":13984,"sådan":13985,"elend":13986,"elske":13987,"elleve":13988,"spøk":13989,"spalte":13990,"##elighed":13991,"##istic":13992,"måla":13993,"overnatt":13994,"##avik":13995,"##irken":13996,"##ords":13997,"##ssak":13998,"bliver":13999,"##annah":14000,"slakt":14001,"##utningen":14002,"##utvalg":14003,"##øyt":14004,"##ertug":14005,"seen":14006,"seia":14007,"semin":14008,"##slø":14009,"##udere":14010,"reell":14011,"repr":14012,"dukker":14013,"##spond":14014,"helbred":14015,"too":14016,"Hansson":14017,"tryl":14018,"troll":14019,"##endet":14020,"##endørs":14021,"propert":14022,"Stens":14023,"Strateg":14024,"##unda":14025,"##smiddel":14026,"##engte":14027,"##icial":14028,"##ema":14029,"1820":14030,"komfort":14031,"##aben":14032,"##ably":14033,"plaget":14034,"orket":14035,"##ødvendig":14036,"##visjon":14037,"blått":14038,").\"\"":14039,"Foran":14040,"106":14041,"leig":14042,"##iseringa":14043,"Enten":14044,"beten":14045,"##jelp":14046,"##redømme":14047,"begått":14048,"manus":14049,"nedlagt":14050,"arbeidslivet":14051,"##ugo":14052,"deleg":14053,"vekke":14054,"liber":14055,"151":14056,"systemer":14057,"smile":14058,"smelte":14059,"Skatte":14060,"gangene":14061,"retts":14062,"rettsk":14063,"sviger":14064,"einaste":14065,"forsinket":14066,"##opl":14067,"##opa":14068,"##cture":14069,"bålet":14070,"søte":14071,"søppel":14072,"##risten":14073,"utenlandsk":14074,"milde":14075,"##trengende":14076,"##ingsaker":14077,"formet":14078,"byene":14079,"late":14080,"Jostein":14081,"fryn":14082,"egypt":14083,"tradition":14084,"tente":14085,"synlige":14086,"ordne":14087,"139":14088,"snitt":14089,"snub":14090,"##ektiv":14091,"forblø":14092,"144":14093,"146":14094,"149":14095,"flyg":14096,"flokken":14097,"liges":14098,"##veland":14099,"paramet":14100,"resour":14101,"reserv":14102,"statlig":14103,"##sbl":14104,"tyde":14105,"berømte":14106,"##owe":14107,"Antil":14108,"mannens":14109,"##ytten":14110,"isra":14111,"##middag":14112,"leddet":14113,"Elli":14114,"Ellis":14115,"kniven":14116,"##svold":14117,"inneholdt":14118,"##jellen":14119,"##parken":14120,"adv":14121,"Olsdatter":14122,"##acity":14123,"##ibr":14124,"##følger":14125,"styrt":14126,"##anismen":14127,"nettsiden":14128,"##illeren":14129,"fastsette":14130,"fastsettes":14131,"Brandt":14132,"##protokoll":14133,"##problemer":14134,"##villig":14135,"senket":14136,"skjuler":14137,"skjorte":14138,"compar":14139,"uttale":14140,"Sporten":14141,"Torger":14142,"##regulering":14143,"Etterpå":14144,"born":14145,"##ofil":14146,"støt":14147,"unnl":14148,"##heimen":14149,"tingbok":14150,"vanskar":14151,"Nordisk":14152,"håndtere":14153,"romanen":14154,"##kommiss":14155,"timen":14156,"studio":14157,"##barna":14158,"filmer":14159,"skapet":14160,"##atoren":14161,"karakt":14162,"##ARD":14163,"Karms":14164,"##kvalitet":14165,"inviter":14166,"beskrive":14167,"artene":14168,"julen":14169,"Bee":14170,"Beate":14171,"Produ":14172,"ferdigheter":14173,"opna":14174,"##jefen":14175,"while":14176,"##ANG":14177,"hjelpem":14178,"##partementets":14179,"slaget":14180,"results":14181,"##valet":14182,"nekte":14183,"necess":14184,"tillatt":14185,"kostet":14186,"Blad":14187,"Seljord":14188,"##grunnlag":14189,"kriger":14190,"impro":14191,"changes":14192,"atten":14193,"##ussing":14194,"##ternativ":14195,"benken":14196,"Unge":14197,"foretok":14198,"1921":14199,"1923":14200,"using":14201,"usikkert":14202,"scient":14203,"standpunkt":14204,"lengsel":14205,"##inking":14206,"##oseks":14207,"profet":14208,"##alleri":14209,"rådgiver":14210,"hevn":14211,"Half":14212,"dyrene":14213,"oljes":14214,"vurderer":14215,"above":14216,"selskapsmøtet":14217,"Kvinne":14218,"Klass":14219,"samfunns":14220,"samfunnsmessige":14221,"Mai":14222,"Major":14223,"reduseres":14224,"Brukes":14225,"dispon":14226,"applic":14227,"røver":14228,"røtter":14229,"variert":14230,"variasjoner":14231,"Svenske":14232,"kurven":14233,"dokt":14234,"##linja":14235,"pasientene":14236,"Slutt":14237,"opplevelser":14238,"##sskrift":14239,"melke":14240,"Altså":14241,"raskere":14242,"##aldering":14243,"tradisjonell":14244,"##ights":14245,"folkeh":14246,"position":14247,"1907":14248,"1909":14249,"##meldinger":14250,"Syria":14251,"Mosk":14252,"angir":14253,"##ccess":14254,"Håland":14255,"Sandnes":14256,"750":14257,"årsaker":14258,"##helset":14259,"grov":14260,"##aksjonen":14261,"##forskning":14262,"vokst":14263,"vokse":14264,"##stoffer":14265,"##bilen":14266,"1850":14267,"##meneut":14268,"begrenses":14269,"opplysningene":14270,"beregning":14271,"åpenbar":14272,"5000":14273,"Fortell":14274,"Fortsatt":14275,"Monsen":14276,"##stykket":14277,"1866":14278,"Selvsagt":14279,"Julia":14280,"hindrer":14281,"fordeler":14282,"utstyrt":14283,"eierskap":14284,"slåss":14285,"forsikre":14286,"aggress":14287,"Årdal":14288,"blomst":14289,"Allan":14290,"besøkende":14291,"Petersen":14292,"keep":14293,"oppstod":14294,"skikkelse":14295,"1788":14296,"Filip":14297,"omtalte":14298,"Frogner":14299,"auksjon":14300,"auka":14301,"gjennomsnittet":14302,"glir":14303,"respect":14304,"1791":14305,"reisende":14306,"tilsammen":14307,"næringsdrivende":14308,"bærekraft":14309,"siktet":14310,"Green":14311,"utdannet":14312,"tusenvis":14313,"##pani":14314,"##pany":14315,"install":14316,"arbeidsplass":14317,"##LIG":14318,"servic":14319,"pedagogikk":14320,"vilkårene":14321,"##skolene":14322,"##field":14323,"bomull":14324,"forbedringer":14325,"kontinent":14326,"temaer":14327,"rikeste":14328,"Jacobsen":14329,"##frie":14330,"utformingen":14331,"##sprisen":14332,"##hanistan":14333,"lidelser":14334,"ryddet":14335,"##semd":14336,"Sætre":14337,"##bedrifter":14338,"overtar":14339,"konferanse":14340,"fabrikk":14341,"oppsummer":14342,"oppdrett":14343,"kvadratsetning":14344,"bandet":14345,"Følg":14346,"Follo":14347,"nekter":14348,"Hotell":14349,"arkitekt":14350,"kamerat":14351,"special":14352,"tolkning":14353,"gjemt":14354,"##ssystemet":14355,"parkeringspl":14356,"styremedlem":14357,"Rapporten":14358,"##aktiviteter":14359,"evalu":14360,"##undersøkelse":14361,"maleri":14362,"fraktføreren":14363,"målsettinger":14364,"##foto":14365,"##rapport":14366,"##brød":14367,"innvandring":14368,"common":14369,"Askim":14370,"##myndighetene":14371,"elektronisk":14372,"foreign":14373,"previous":14374,"##behagelig":14375,"Fugle":14376,"##resultat":14377,"barnehagene":14378,"capacity":14379,"phys":14380,"##fabrikk":14381,"ekspedisjon":14382,"analysis":14383,"Eksempler":14384,"entreprenøren":14385,"Energi":14386,"ulovlig":14387,"anerkjennelse":14388,"Apple":14389,"##smodellen":14390,"Organ":14391,"Brynild":14392,"Bibelen":14393,"japanske":14394,"vellykket":14395,"ibid":14396,"utadvendte":14397,"antydet":14398,"##ything":14399,
[...]
