{
  "version": "1.0",
  "truncation": null,
  "padding": null,
  "added_tokens": [
    {
      "id": 0,
      "special": true,
      "content": "[PAD]",
      "single_word": false,
      "lstrip": false,
      "rstrip": false,
      "normalized": false
    },
    {
      "id": 1,
      "special": true,
      "content": "[UNK]",
      "single_word": false,
      "lstrip": false,
      "rstrip": false,
      "normalized": false
    },
    {
      "id": 2,
      "special": true,
      "content": "[CLS]",
      "single_word": false,
      "lstrip": false,
      "rstrip": false,
      "normalized": false
    },
    {
      "id": 3,
      "special": true,
      "content": "[SEP]",
      "single_word": false,
      "lstrip": false,
      "rstrip": false,
      "normalized": false
    },
    {
      "id": 4,
      "special": true,
      "content": "[MASK]",
      "single_word": false,
      "lstrip": false,
      "rstrip": false,
      "normalized": false
    }
  ],
  "normalizer": null,
  "pre_tokenizer": {
    "type": "Whitespace"
  },
  "post_processor": null,
  "decoder": null,
  "model": {
    "unk_token": "[UNK]",
    "continuing_subword_prefix": "##",
    "max_input_chars_per_word": 100,
    "vocab": {
      "[PAD]": 0,
      "[UNK]": 1,
      "[CLS]": 2,
      "[SEP]": 3,
      "[MASK]": 4,
      "!": 5,
      "\"": 6,
      "#": 7,
      "$": 8,
      "%": 9,
      "&": 10,
      "'": 11,
      "(": 12,
      ")": 13,
      "*": 14,
      "+": 15,
      ",": 16,
      "-": 17,
      ".": 18,
      "/": 19,
      "0": 20,
      "1": 21,
      "2": 22,
      "3": 23,
      "4": 24,
      "5": 25,
      "6": 26,
      "7": 27,
      "8": 28,
      "9": 29,
      ":": 30,
      ";": 31,
      "<": 32,
      "=": 33,
      ">": 34,
      "?": 35,
      "@": 36,
      "A": 37,
      "B": 38,
      "C": 39,
      "D": 40,
      "E": 41,
      "F": 42,
      "G": 43,
      "H": 44,
      "I": 45,
      "J": 46,
      "K": 47,
      "L": 48,
      "M": 49,
      "N": 50,
      "O": 51,
      "P": 52,
      "Q": 53,
      "R": 54,
      "S": 55,
      "T": 56,
      "U": 57,
      "V": 58,
      "W": 59,
      "X": 60,
      "Y": 61,
      "Z": 62,
      "[": 63,
      "\\": 64,
      "]": 65,
      "^": 66,
      "_": 67,
      "`": 68,
      "a": 69,
      "b": 70,
      "c": 71,
      "d": 72,
      "e": 73,
      "f": 74,
      "g": 75,
      "h": 76,
      "i": 77,
      "j": 78,
      "k": 79,
      "l": 80,
      "m": 81,
      "n": 82,
      "o": 83,
      "p": 84,
      "q": 85,
      "r": 86,
      "s": 87,
      "t": 88,
      "u": 89,
      "v": 90,
      "w": 91,
      "x": 92,
      "y": 93,
      "z": 94,
      "{": 95,
      "|": 96,
      "}": 97,
      "~": 98,
      "£": 99,
      "¥": 100,
      "©": 101,
      "®": 102,
      "°": 103,
      "±": 104,
      "²": 105,
      "¸": 106,
      "½": 107,
      "Á": 108,
      "Â": 109,
      "Ã": 110,
      "Ä": 111,
      "Å": 112,
      "Æ": 113,
      "È": 114,
      "É": 115,
      "Ó": 116,
      "Ö": 117,
      "×": 118,
      "Ø": 119,
      "Ü": 120,
      "ß": 121,
      "à": 122,
      "á": 123,
      "â": 124,
      "ã": 125,
      "ä": 126,
      "å": 127,
      "æ": 128,
      "ç": 129,
      "è": 130,
      "é": 131,
      "ê": 132,
      "ë": 133,
      "í": 134,
      "î": 135,
      "ï": 136,
      "ð": 137,
      "ñ": 138,
      "ò": 139,
      "ó": 140,
      "ô": 141,
      "ö": 142,
      "÷": 143,
      "ø": 144,
      "ú": 145,
      "ü": 146,
      "ý": 147,
      "ā": 148,
      "ă": 149,
      "ć": 150,
      "Č": 151,
      "č": 152,
      "Đ": 153,
      "đ": 154,
      "ı": 155,
      "ł": 156,
      "ń": 157,
      "ŋ": 158,
      "ō": 159,
      "ş": 160,
      "Š": 161,
      "š": 162,
      "ŧ": 163,
      "ū": 164,
      "Ž": 165,
      "ž": 166,
      "ˇ": 167,
      "α": 168,
      "ε": 169,
      "ι": 170,
      "μ": 171,
      "ν": 172,
      "ο": 173,
      "ρ": 174,
      "ς": 175,
      "τ": 176,
      "а": 177,
      "б": 178,
      "в": 179,
      "г": 180,
      "д": 181,
      "е": 182,
      "з": 183,
      "и": 184,
      "й": 185,
      "к": 186,
      "л": 187,
      "м": 188,
      "н": 189,
      "о": 190,
      "п": 191,
      "р": 192,
      "с": 193,
      "т": 194,
      "у": 195,
      "ч": 196,
      "ы": 197,
      "ь": 198,
      "я": 199,
      "ا": 200,
      "ت": 201,
      "ر": 202,
      "ل": 203,
      "م": 204,
      "ن": 205,
      "و": 206,
      "ي": 207,
      "‍": 208,
      "’": 209,
      "“": 210,
      "”": 211,
      "‼": 212,
      "⁄": 213,
      "⁉": 214,
      "€": 215,
      "⃣": 216,
      "™": 217,
      "ℹ": 218,
      "↑": 219,
      "→": 220,
      "↔": 221,
      "↕": 222,
      "↖": 223,
      "↗": 224,
      "↘": 225,
      "↙": 226,
      "↩": 227,
      "↪": 228,
      "−": 229,
      "⌚": 230,
      "⌛": 231,
      "⌨": 232,
      "⏏": 233,
      "⏪": 234,
      "⏫": 235,
      "⏬": 236,
      "⏭": 237,
      "⏮": 238,
      "⏯": 239,
      "⏱": 240,
      "⏲": 241,
      "⏸": 242,
      "⏹": 243,
      "⏺": 244,
      "Ⓜ": 245,
      "█": 246,
      "■": 247,
      "□": 248,
      "▪": 249,
      "▫": 250,
      "▲": 251,
      "▶": 252,
      "►": 253,
      "▼": 254,
      "◀": 255,
      "◄": 256,
      "○": 257,
      "●": 258,
      "◗": 259,
      "◻": 260,
      "◼": 261,
      "◽": 262,
      "◾": 263,
      "☀": 264,
      "☁": 265,
      "☂": 266,
      "☃": 267,
      "☄": 268,
      "★": 269,
      "☎": 270,
      "☑": 271,
      "☔": 272,
      "☕": 273,
      "☘": 274,
      "☝": 275,
      "☠": 276,
      "☢": 277,
      "☣": 278,
      "☦": 279,
      "☪": 280,
      "☮": 281,
      "☯": 282,
      "☸": 283,
      "☹": 284,
      "☺": 285,
      "♀": 286,
      "♂": 287,
      "♈": 288,
      "♉": 289,
      "♊": 290,
      "♋": 291,
      "♌": 292,
      "♍": 293,
      "♎": 294,
      "♏": 295,
      "♐": 296,
      "♒": 297,
      "♓": 298,
      "♟": 299,
      "♠": 300,
      "♣": 301,
      "♥": 302,
      "♦": 303,
      "♨": 304,
      "♻": 305,
      "♾": 306,
      "⚒": 307,
      "⚓": 308,
      "⚔": 309,
      "⚕": 310,
      "⚖": 311,
      "⚗": 312,
      "⚙": 313,
      "⚛": 314,
      "⚜": 315,
      "⚠": 316,
      "⚡": 317,
      "⚧": 318,
      "⚪": 319,
      "⚫": 320,
      "⚰": 321,
      "⚱": 322,
      "⚽": 323,
      "⚾": 324,
      "⛄": 325,
      "⛅": 326,
      "⛈": 327,
      "⛎": 328,
      "⛏": 329,
      "⛑": 330,
      "⛓": 331,
      "⛔": 332,
      "⛩": 333,
      "⛪": 334,
      "⛰": 335,
      "⛱": 336,
      "⛲": 337,
      "⛳": 338,
      "⛴": 339,
      "⛵": 340,
      "⛷": 341,
      "⛸": 342,
      "⛹": 343,
      "⛺": 344,
      "⛽": 345,
      "✂": 346,
      "✅": 347,
      "✈": 348,
      "✉": 349,
      "✊": 350,
      "✋": 351,
      "✌": 352,
      "✍": 353,
      "✏": 354,
      "✒": 355,
      "✓": 356,
      "✔": 357,
      "✖": 358,
      "✝": 359,
      "✡": 360,
      "✨": 361,
      "✳": 362,
      "✴": 363,
      "✸": 364,
      "❄": 365,
      "❇": 366,
      "❌": 367,
      "❎": 368,
      "❓": 369,
      "❔": 370,
      "❕": 371,
      "❗": 372,
      "❣": 373,
      "❤": 374,
      "➕": 375,
      "➖": 376,
      "➗": 377,
      "➡": 378,
      "➿": 379,
      "⤴": 380,
      "⤵": 381,
      "⬅": 382,
      "⬆": 383,
      "⬇": 384,
      "⬛": 385,
      "⬜": 386,
      "⭐": 387,
      "⭕": 388,
      "〰": 389,
      "〽": 390,
      "ー": 391,
      "㊗": 392,
      "㊙": 393,
      "️": 394,
      "�": 395,
      "🀄": 396,
      "🃏": 397,
      "🅰": 398,
      "🅱": 399,
      "🅾": 400,
      "🅿": 401,
      "🆎": 402,
      "🆑": 403,
      "🆒": 404,
      "🆓": 405,
      "🆔": 406,
      "🆕": 407,
      "🆖": 408,
      "🆗": 409,
      "🆘": 410,
      "🇦": 411,
      "🇧": 412,
      "🇨": 413,
      "🇩": 414,
      "🇪": 415,
      "🇫": 416,
      "🇬": 417,
      "🇭": 418,
      "🇮": 419,
      "🇯": 420,
      "🇰": 421,
      "🇱": 422,
      "🇲": 423,
      "🇳": 424,
      "🇴": 425,
      "🇵": 426,
      "🇶": 427,
      "🇷": 428,
      "🇸": 429,
      "🇹": 430,
      "🇺": 431,
      "🇻": 432,
      "🇼": 433,
      "🇽": 434,
      "🇾": 435,
      "🇿": 436,
      "🈁": 437,
      "🈂": 438,
      "🈚": 439,
      "🈯": 440,
      "🈲": 441,
      "🈳": 442,
      "🈴": 443,
      "🈵": 444,
      "🈶": 445,
      "🈷": 446,
      "🈸": 447,
      "🈹": 448,
      "🈺": 449,
      "🉐": 450,
      "🉑": 451,
      "🌂": 452,
      "🌃": 453,
      "🌄": 454,
      "🌅": 455,
      "🌆": 456,
      "🌇": 457,
      "🌈": 458,
      "🌊": 459,
      "🌋": 460,
      "🌌": 461,
      "🌍": 462,
      "🌎": 463,
      "🌏": 464,
      "🌐": 465,
      "🌒": 466,
      "🌓": 467,
      "🌔": 468,
      "🌕": 469,
      "🌖": 470,
      "🌘": 471,
      "🌙": 472,
      "🌚": 473,
      "🌛": 474,
      "🌜": 475,
      "🌝": 476,
      "🌞": 477,
      "🌟": 478,
      "🌡": 479,
      "🌤": 480,
      "🌥": 481,
      "🌦": 482,
      "🌧": 483,
      "🌨": 484,
      "🌩": 485,
      "🌪": 486,
      "🌫": 487,
      "🌬": 488,
      "🌭": 489,
      "🌮": 490,
      "🌯": 491,
      "🌰": 492,
      "🌲": 493,
      "🌳": 494,
      "🌴": 495,
      "🌵": 496,
      "🌶": 497,
      "🌷": 498,
      "🌸": 499,
      "🌹": 500,
      "🌺": 501,
      "🌻": 502,
      "🌼": 503,
      "🌽": 504,
      "🌾": 505,
      "🌿": 506,
      "🍀": 507,
      "🍁": 508,
      "🍂": 509,
      "🍃": 510,
      "🍅": 511,
      "🍆": 512,
      "🍇": 513,
      "🍈": 514,
      "🍉": 515,
      "🍊": 516,
      "🍋": 517,
      "🍌": 518,
      "🍍": 519,
      "🍎": 520,
      "🍏": 521,
      "🍐": 522,
      "🍑": 523,
      "🍒": 524,
      "🍓": 525,
      "🍔": 526,
      "🍕": 527,
      "🍖": 528,
      "🍗": 529,
      "🍘": 530,
      "🍙": 531,
      "🍚": 532,
      "🍛": 533,
      "🍜": 534,
      "🍝": 535,
      "🍟": 536,
      "🍠": 537,
      "🍡": 538,
      "🍢": 539,
      "🍣": 540,
      "🍤": 541,
      "🍥": 542,
      "🍦": 543,
      "🍧": 544,
      "🍨": 545,
      "🍩": 546,
      "🍪": 547,
      "🍫": 548,
      "🍬": 549,
      "🍭": 550,
      "🍮": 551,
      "🍯": 552,
      "🍰": 553,
      "🍱": 554,
      "🍲": 555,
      "🍳": 556,
      "🍴": 557,
      "🍵": 558,
      "🍶": 559,
      "🍷": 560,
      "🍸": 561,
      "🍹": 562,
      "🍺": 563,
      "🍻": 564,
      "🍼": 565,
      "🍽": 566,
      "🍾": 567,
      "🍿": 568,
      "🎀": 569,
      "🎁": 570,
      "🎂": 571,
      "🎃": 572,
      "🎄": 573,
      "🎅": 574,
      "🎆": 575,
      "🎇": 576,
      "🎈": 577,
      "🎉": 578,
      "🎊": 579,
      "🎋": 580,
      "🎌": 581,
      "🎍": 582,
      "🎎": 583,
      "🎐": 584,
      "🎑": 585,
      "🎒": 586,
      "🎓": 587,
      "🎖": 588,
      "🎗": 589,
      "🎙": 590,
      "🎚": 591,
      "🎛": 592,
      "🎞": 593,
      "🎟": 594,
      "🎠": 595,
      "🎡": 596,
      "🎣": 597,
      "🎤": 598,
      "🎥": 599,
      "🎦": 600,
      "🎨": 601,
      "🎩": 602,
      "🎪": 603,
      "🎫": 604,
      "🎬": 605,
      "🎭": 606,
      "🎮": 607,
      "🎰": 608,
      "🎱": 609,
      "🎲": 610,
      "🎳": 611,
      "🎴": 612,
      "🎶": 613,
      "🎷": 614,
      "🎸": 615,
      "🎹": 616,
      "🎺": 617,
      "🎻": 618,
      "🎼": 619,
      "🎽": 620,
      "🎾": 621,
      "🎿": 622,
      "🏀": 623,
      "🏁": 624,
      "🏂": 625,
      "🏃": 626,
      "🏄": 627,
      "🏅": 628,
      "🏆": 629,
      "🏇": 630,
      "🏉": 631,
      "🏊": 632,
      "🏋": 633,
      "🏌": 634,
      "🏍": 635,
      "🏎": 636,
      "🏏": 637,
      "🏐": 638,
      "🏒": 639,
      "🏓": 640,
      "🏔": 641,
      "🏕": 642,
      "🏖": 643,
      "🏗": 644,
      "🏘": 645,
      "🏙": 646,
      "🏚": 647,
      "🏛": 648,
      "🏜": 649,
      "🏝": 650,
      "🏞": 651,
      "🏟": 652,
      "🏠": 653,
      "🏡": 654,
      "🏢": 655,
      "🏣": 656,
      "🏤": 657,
      "🏥": 658,
      "🏦": 659,
      "🏧": 660,
      "🏨": 661,
      "🏩": 662,
      "🏪": 663,
      "🏫": 664,
      "🏭": 665,
      "🏮": 666,
      "🏯": 667,
      "🏰": 668,
      "🏳": 669,
      "🏴": 670,
      "🏵": 671,
      "🏷": 672,
      "🏸": 673,
      "🏹": 674,
      "🏺": 675,
      "🏻": 676,
      "🏼": 677,
      "🏽": 678,
      "🏾": 679,
      "🏿": 680,
      "🐂": 681,
      "🐃": 682,
      "🐄": 683,
      "🐆": 684,
      "🐇": 685,
      "🐈": 686,
      "🐊": 687,
      "🐋": 688,
      "🐌": 689,
      "🐍": 690,
      "🐎": 691,
      "🐏": 692,
      "🐐": 693,
      "🐑": 694,
      "🐓": 695,
      "🐔": 696,
      "🐕": 697,
      "🐖": 698,
      "🐗": 699,
      "🐘": 700,
      "🐙": 701,
      "🐚": 702,
      "🐛": 703,
      "🐜": 704,
      "🐝": 705,
      "🐞": 706,
      "🐟": 707,
      "🐠": 708,
      "🐡": 709,
      "🐢": 710,
      "🐣": 711,
      "🐤": 712,
      "🐥": 713,
      "🐦": 714,
      "🐧": 715,
      "🐨": 716,
      "🐩": 717,
      "🐪": 718,
      "🐫": 719,
      "🐬": 720,
      "🐭": 721,
      "🐮": 722,
      "🐯": 723,
      "🐱": 724,
      "🐲": 725,
      "🐳": 726,
      "🐴": 727,
      "🐵": 728,
      "🐶": 729,
      "🐷": 730,
      "🐸": 731,
      "🐹": 732,
      "🐺": 733,
      "🐻": 734,
      "🐼": 735,
      "🐾": 736,
      "🐿": 737,
      "👀": 738,
      "👁": 739,
      "👂": 740,
      "👃": 741,
      "👄": 742,
      "👆": 743,
      "👇": 744,
      "👈": 745,
      "👉": 746,
      "👊": 747,
      "👋": 748,
      "👌": 749,
      "👍": 750,
      "👎": 751,
      "👏": 752,
      "👐": 753,
      "👑": 754,
      "👒": 755,
      "👔": 756,
      "👕": 757,
      "👖": 758,
      "👗": 759,
      "👙": 760,
      "👚": 761,
      "👛": 762,
      "👜": 763,
      "👝": 764,
      "👞": 765,
      "👟": 766,
      "👠": 767,
      "👢": 768,
      "👣": 769,
      "👤": 770,
      "👦": 771,
      "👧": 772,
      "👨": 773,
      "👩": 774,
      "👪": 775,
      "👫": 776,
      "👬": 777,
      "👭": 778,
      "👮": 779,
      "👯": 780,
      "👰": 781,
      "👱": 782,
      "👲": 783,
      "👳": 784,
      "👴": 785,
      "👵": 786,
      "👶": 787,
      "👷": 788,
      "👸": 789,
      "👹": 790,
      "👺": 791,
      "👻": 792,
      "👼": 793,
      "👾": 794,
      "👿": 795,
      "💀": 796,
      "💁": 797,
      "💂": 798,
      "💃": 799,
      "💄": 800,
      "💅": 801,
      "💆": 802,
      "💇": 803,
      "💉": 804,
      "💊": 805,
      "💋": 806,
      "💍": 807,
      "💏": 808,
      "💐": 809,
      "💑": 810,
      "💒": 811,
      "💓": 812,
      "💔": 813,
      "💕": 814,
      "💖": 815,
      "💗": 816,
      "💘": 817,
      "💙": 818,
      "💚": 819,
      "💛": 820,
      "💜": 821,
      "💝": 822,
      "💞": 823,
      "💟": 824,
      "💠": 825,
      "💡": 826,
      "💢": 827,
      "💣": 828,
      "💤": 829,
      "💥": 830,
      "💦": 831,
      "💧": 832,
      "💨": 833,
      "💩": 834,
      "💪": 835,
      "💫": 836,
      "💮": 837,
      "💯": 838,
      "💰": 839,
      "💱": 840,
      "💲": 841,
      "💳": 842,
      "💴": 843,
      "💵": 844,
      "💶": 845,
      "💷": 846,
      "💸": 847,
      "💹": 848,
      "💺": 849,
      "💻": 850,
      "💼": 851,
      "💽": 852,
      "💿": 853,
      "📀": 854,
      "📁": 855,
      "📃": 856,
      "📄": 857,
      "📅": 858,
      "📆": 859,
      "📇": 860,
      "📉": 861,
      "📊": 862,
      "📋": 863,
      "📌": 864,
      "📍": 865,
      "📎": 866,
      "📏": 867,
      "📐": 868,
      "📑": 869,
      "📒": 870,
      "📓": 871,
      "📔": 872,
      "📕": 873,
      "📖": 874,
      "📗": 875,
      "📘": 876,
      "📙": 877,
      "📚": 878,
      "📛": 879,
      "📜": 880,
      "📝": 881,
      "📞": 882,
      "📟": 883,
      "📠": 884,
      "📡": 885,
      "📢": 886,
      "📣": 887,
      "📤": 888,
      "📥": 889,
      "📧": 890,
      "📨": 891,
      "📩": 892,
      "📫": 893,
      "📬": 894,
      "📭": 895,
      "📮": 896,
      "📯": 897,
      "📰": 898,
      "📲": 899,
      "📳": 900,
      "📴": 901,
      "📵": 902,
      "📶": 903,
      "📷": 904,
      "📸": 905,
      "📹": 906,
      "📺": 907,
      "📻": 908,
      "📼": 909,
      "📽": 910,
      "📿": 911,
      "🔀": 912,
      "🔁": 913,
      "🔂": 914,
      "🔃": 915,
      "🔅": 916,
      "🔆": 917,
      "🔈": 918,
      "🔉": 919,
      "🔊": 920,
      "🔋": 921,
      "🔌": 922,
      "🔍": 923,
      "🔏": 924,
      "🔐": 925,
      "🔑": 926,
      "🔒": 927,
      "🔓": 928,
      "🔖": 929,
      "🔗": 930,
      "🔘": 931,
      "🔙": 932,
      "🔛": 933,
      "🔜": 934,
      "🔝": 935,
      "🔞": 936,
      "🔟": 937,
      "🔠": 938,
      "🔡": 939,
      "🔣": 940,
      "🔤": 941,
      "🔥": 942,
      "🔧": 943,
      "🔨": 944,
      "🔩": 945,
      "🔪": 946,
      "🔫": 947,
      "🔬": 948,
      "🔭": 949,
      "🔮": 950,
      "🔯": 951,
      "🔰": 952,
      "🔱": 953,
      "🔲": 954,
      "🔳": 955,
      "🔴": 956,
      "🔵": 957,
      "🔶": 958,
      "🔸": 959,
      "🔹": 960,
      "🔺": 961,
      "🔻": 962,
      "🔽": 963,
      "🕉": 964,
      "🕊": 965,
      "🕋": 966,
      "🕌": 967,
      "🕍": 968,
      "🕎": 969,
      "🕐": 970,
      "🕑": 971,
      "🕒": 972,
      "🕓": 973,
      "🕕": 974,
      "🕖": 975,
      "🕘": 976,
      "🕙": 977,
      "🕚": 978,
      "🕛": 979,
      "🕜": 980,
      "🕞": 981,
      "🕟": 982,
      "🕠": 983,
      "🕡": 984,
      "🕢": 985,
      "🕣": 986,
      "🕤": 987,
      "🕥": 988,
      "🕦": 989,
      "🕧": 990,
      "🕯": 991,
      "🕰": 992,
      "🕳": 993,
      "🕴": 994,
      "🕵": 995,
      "🕶": 996,
      "🕷": 997,
      "🕸": 998,
      "🕹": 999,
      "🕺": 1000,
      "🖇": 1001,
      "🖊": 1002,
      "🖋": 1003,
      "🖌": 1004,
      "🖍": 1005,
      "🖐": 1006,
      "🖕": 1007,
      "🖖": 1008,
      "🖤": 1009,
      "🖥": 1010,
      "🖨": 1011,
      "🖱": 1012,
      "🖲": 1013,
      "🖼": 1014,
      "🗂": 1015,
      "🗃": 1016,
      "🗄": 1017,
      "🗑": 1018,
      "🗒": 1019,
      "🗓": 1020,
      "🗜": 1021,
      "🗝": 1022,
      "🗞": 1023,
      "🗡": 1024,
      "🗣": 1025,
      "🗨": 1026,
      "🗯": 1027,
      "🗳": 1028,
      "🗺": 1029,
      "🗻": 1030,
      "🗼": 1031,
      "🗽": 1032,
      "🗾": 1033,
      "🗿": 1034,
      "😀": 1035,
      "😁": 1036,
      "😂": 1037,
      "😃": 1038,
      "😄": 1039,
      "😅": 1040,
      "😆": 1041,
      "😇": 1042,
      "😈": 1043,
      "😉": 1044,
      "😊": 1045,
      "😋": 1046,
      "😌": 1047,
      "😍": 1048,
      "😎": 1049,
      "😏": 1050,
      "😐": 1051,
      "😑": 1052,
      "😒": 1053,
      "😓": 1054,
      "😔": 1055,
      "😕": 1056,
      "😖": 1057,
      "😗": 1058,
      "😘": 1059,
      "😙": 1060,
      "😚": 1061,
      "😛": 1062,
      "😜": 1063,
      "😝": 1064,
      "😞": 1065,
      "😟": 1066,
      "😠": 1067,
      "😡": 1068,
      "😢": 1069,
      "😣": 1070,
      "😤": 1071,
      "😥": 1072,
      "😦": 1073,
      "😧": 1074,
      "😨": 1075,
      "😩": 1076,
      "😪": 1077,
      "😫": 1078,
      "😬": 1079,
      "😭": 1080,
      "😮": 1081,
      "😯": 1082,
      "😰": 1083,
      "😱": 1084,
      "😲": 1085,
      "😳": 1086,
      "😵": 1087,
      "😶": 1088,
      "😷": 1089,
      "😸": 1090,
      "😹": 1091,
      "😺": 1092,
      "😻": 1093,
      "😼": 1094,
      "😽": 1095,
      "😾": 1096,
      "🙀": 1097,
      "🙁": 1098,
      "🙂": 1099,
      "🙃": 1100,
      "🙄": 1101,
      "🙅": 1102,
      "🙆": 1103,
      "🙇": 1104,
      "🙈": 1105,
      "🙉": 1106,
      "🙊": 1107,
      "🙋": 1108,
      "🙌": 1109,
      "🙍": 1110,
      "🙎": 1111,
      "🙏": 1112,
      "🚀": 1113,
      "🚁": 1114,
      "🚂": 1115,
      "🚃": 1116,
      "🚄": 1117,
      "🚅": 1118,
      "🚇": 1119,
      "🚈": 1120,
      "🚉": 1121,
      "🚊": 1122,
      "🚋": 1123,
      "🚌": 1124,
      "🚍": 1125,
      "🚎": 1126,
      "🚏": 1127,
      "🚐": 1128,
      "🚑": 1129,
      "🚒": 1130,
      "🚓": 1131,
      "🚔": 1132,
      "🚕": 1133,
      "🚖": 1134,
      "🚗": 1135,
      "🚙": 1136,
      "🚚": 1137,
      "🚜": 1138,
      "🚝": 1139,
      "🚟": 1140,
      "🚠": 1141,
      "🚡": 1142,
      "🚢": 1143,
      "🚣": 1144,
      "🚤": 1145,
      "🚥": 1146,
      "🚦": 1147,
      "🚧": 1148,
      "🚨": 1149,
      "🚪": 1150,
      "🚫": 1151,
      "🚬": 1152,
      "🚭": 1153,
      "🚮": 1154,
      "🚯": 1155,
      "🚰": 1156,
      "🚱": 1157,
      "🚲": 1158,
      "🚳": 1159,
      "🚴": 1160,
      "🚵": 1161,
      "🚶": 1162,
      "🚷": 1163,
      "🚸": 1164,
      "🚹": 1165,
      "🚺": 1166,
      "🚻": 1167,
      "🚼": 1168,
      "🚽": 1169,
      "🚾": 1170,
      "🚿": 1171,
      "🛀": 1172,
      "🛁": 1173,
      "🛂": 1174,
      "🛃": 1175,
      "🛄": 1176,
      "🛋": 1177,
      "🛌": 1178,
      "🛍": 1179,
      "🛎": 1180,
      "🛏": 1181,
      "🛒": 1182,
      "🛕": 1183,
      "🛖": 1184,
      "🛠": 1185,
      "🛡": 1186,
      "🛢": 1187,
      "🛣": 1188,
      "🛤": 1189,
      "🛥": 1190,
      "🛩": 1191,
      "🛫": 1192,
      "🛬": 1193,
      "🛰": 1194,
      "🛳": 1195,
      "🛴": 1196,
      "🛵": 1197,
      "🛶": 1198,
      "🛸": 1199,
      "🛹": 1200,
      "🛺": 1201,
      "🛻": 1202,
      "🛼": 1203,
      "🟠": 1204,
      "🟡": 1205,
      "🟢": 1206,
      "🟣": 1207,
      "🟤": 1208,
      "🟥": 1209,
      "🟦": 1210,
      "🟧": 1211,
      "🟨": 1212,
      "🟩": 1213,
      "🟪": 1214,
      "🟫": 1215,
      "🤌": 1216,
      "🤍": 1217,
      "🤎": 1218,
      "🤏": 1219,
      "🤑": 1220,
      "🤒": 1221,
      "🤓": 1222,
      "🤔": 1223,
      "🤕": 1224,
      "🤗": 1225,
      "🤘": 1226,
      "🤙": 1227,
      "🤚": 1228,
      "🤛": 1229,
      "🤜": 1230,
      "🤝": 1231,
      "🤞": 1232,
      "🤟": 1233,
      "🤠": 1234,
      "🤡": 1235,
      "🤢": 1236,
      "🤣": 1237,
      "🤤": 1238,
      "🤥": 1239,
      "🤦": 1240,
      "🤧": 1241,
      "🤨": 1242,
      "🤩": 1243,
      "🤪": 1244,
      "🤫": 1245,
      "🤬": 1246,
      "🤭": 1247,
      "🤮": 1248,
      "🤯": 1249,
      "🤰": 1250,
      "🤱": 1251,
      "🤲": 1252,
      "🤳": 1253,
      "🤴": 1254,
      "🤵": 1255,
      "🤶": 1256,
      "🤷": 1257,
      "🤸": 1258,
      "🤹": 1259,
      "🤺": 1260,
      "🤼": 1261,
      "🤽": 1262,
      "🤾": 1263,
      "🤿": 1264,
      "🥁": 1265,
      "🥃": 1266,
      "🥄": 1267,
      "🥇": 1268,
      "🥈": 1269,
      "🥉": 1270,
      "🥊": 1271,
      "🥋": 1272,
      "🥌": 1273,
      "🥎": 1274,
      "🥏": 1275,
      "🥐": 1276,
      "🥑": 1277,
      "🥒": 1278,
      "🥓": 1279,
      "🥔": 1280,
      "🥕": 1281,
      "🥖": 1282,
      "🥗": 1283,
      "🥘": 1284,
      "🥙": 1285,
      "🥚": 1286,
      "🥛": 1287,
      "🥜": 1288,
      "🥝": 1289,
      "🥞": 1290,
      "🥟": 1291,
      "🥠": 1292,
      "🥡": 1293,
      "🥢": 1294,
      "🥣": 1295,
      "🥤": 1296,
      "🥥": 1297,
      "🥦": 1298,
      "🥨": 1299,
      "🥩": 1300,
      "🥪": 1301,
      "🥫": 1302,
      "🥬": 1303,
      "🥭": 1304,
      "🥮": 1305,
      "🥰": 1306,
      "🥲": 1307,
      "🥳": 1308,
      "🥴": 1309,
      "🥵": 1310,
      "🥶": 1311,
      "🥷": 1312,
      "🥸": 1313,
      "🥺": 1314,
      "🥻": 1315,
      "🥼": 1316,
      "🥽": 1317,
      "🥾": 1318,
      "🥿": 1319,
      "🦀": 1320,
      "🦁": 1321,
      "🦂": 1322,
      "🦃": 1323,
      "🦄": 1324,
      "🦅": 1325,
      "🦆": 1326,
      "🦈": 1327,
      "🦉": 1328,
      "🦊": 1329,
      "🦋": 1330,
      "🦌": 1331,
      "🦍": 1332,
      "🦎": 1333,
      "🦏": 1334,
      "🦐": 1335,
      "🦑": 1336,
      "🦒": 1337,
      "🦓": 1338,
      "🦔": 1339,
      "🦕": 1340,
      "🦖": 1341,
      "🦗": 1342,
      "🦘": 1343,
      "🦙": 1344,
      "🦚": 1345,
      "🦛": 1346,
      "🦜": 1347,
      "🦝": 1348,
      "🦞": 1349,
      "🦟": 1350,
      "🦠": 1351,
      "🦡": 1352,
      "🦢": 1353,
      "🦣": 1354,
      "🦤": 1355,
      "🦥": 1356,
      "🦦": 1357,
      "🦧": 1358,
      "🦩": 1359,
      "🦪": 1360,
      "🦫": 1361,
      "🦬": 1362,
      "🦭": 1363,
      "🦮": 1364,
      "🦯": 1365,
      "🦰": 1366,
      "🦱": 1367,
      "🦲": 1368,
      "🦳": 1369,
      "🦴": 1370,
      "🦵": 1371,
      "🦶": 1372,
      "🦷": 1373,
      "🦸": 1374,
      "🦹": 1375,
      "🦺": 1376,
      "🦻": 1377,
      "🦼": 1378,
      "🦽": 1379,
      "🦿": 1380,
      "🧀": 1381,
      "🧁": 1382,
      "🧂": 1383,
      "🧃": 1384,
      "🧄": 1385,
      "🧅": 1386,
      "🧆": 1387,
      "🧇": 1388,
      "🧈": 1389,
      "🧉": 1390,
      "🧊": 1391,
      "🧋": 1392,
      "🧍": 1393,
      "🧎": 1394,
      "🧏": 1395,
      "🧐": 1396,
      "🧑": 1397,
      "🧒": 1398,
      "🧓": 1399,
      "🧔": 1400,
      "🧕": 1401,
      "🧖": 1402,
      "🧗": 1403,
      "🧘": 1404,
      "🧙": 1405,
      "🧚": 1406,
      "🧛": 1407,
      "🧜": 1408,
      "🧝": 1409,
      "🧞": 1410,
      "🧟": 1411,
      "🧡": 1412,
      "🧢": 1413,
      "🧣": 1414,
      "🧤": 1415,
      "🧦": 1416,
      "🧧": 1417,
      "🧨": 1418,
      "🧩": 1419,
      "🧪": 1420,
      "🧫": 1421,
      "🧬": 1422,
      "🧭": 1423,
      "🧮": 1424,
      "🧯": 1425,
      "🧰": 1426,
      "🧱": 1427,
      "🧲": 1428,
      "🧳": 1429,
      "🧴": 1430,
      "🧵": 1431,
      "🧶": 1432,
      "🧷": 1433,
      "🧸": 1434,
      "🧹": 1435,
      "🧺": 1436,
      "🧻": 1437,
      "🧽": 1438,
      "🧾": 1439,
      "🧿": 1440,
      "🩰": 1441,
      "🩲": 1442,
      "🩳": 1443,
      "🩴": 1444,
      "🩸": 1445,
      "🩹": 1446,
      "🩺": 1447,
      "🪀": 1448,
      "🪁": 1449,
      "🪂": 1450,
      "🪃": 1451,
      "🪄": 1452,
      "🪅": 1453,
      "🪆": 1454,
      "🪐": 1455,
      "🪑": 1456,
      "🪒": 1457,
      "🪓": 1458,
      "🪕": 1459,
      "🪖": 1460,
      "🪗": 1461,
      "🪘": 1462,
      "🪙": 1463,
      "🪚": 1464,
      "🪜": 1465,
      "🪝": 1466,
      "🪞": 1467,
      "🪟": 1468,
      "🪠": 1469,
      "🪡": 1470,
      "🪢": 1471,
      "🪣": 1472,
      "🪤": 1473,
      "🪥": 1474,
      "🪦": 1475,
      "🪧": 1476,
      "🪨": 1477,
      "🪰": 1478,
      "🪱": 1479,
      "🪲": 1480,
      "🪳": 1481,
      "🪴": 1482,
      "🪵": 1483,
      "🪶": 1484,
      "🫀": 1485,
      "🫁": 1486,
      "🫂": 1487,
      "🫐": 1488,
      "🫑": 1489,
      "🫒": 1490,
      "🫓": 1491,
      "🫔": 1492,
      "🫕": 1493,
      "🫖": 1494,
      "󠁢": 1495,
      "󠁣": 1496,
      "󠁥": 1497,
      "󠁧": 1498,
      "󠁬": 1499,
      "󠁮": 1500,
      "󠁳": 1501,
      "󠁴": 1502,
      "󠁷": 1503,
      "󠁿": 1504,
      "##o": 1505,
      "##v": 1506,
      "##a": 1507,
      "##k": 1508,
      "##i": 1509,
      "##ć": 1510,
      "##n": 1511,
      "##g": 1512,
      "##r": 1513,
      "##f": 1514,
      "##e": 1515,
      "##p": 1516,
      "##l": 1517,
      "##y": 1518,
      "##s": 1519,
      "##m": 1520,
      "##c": 1521,
      "##u": 1522,
      "##é": 1523,
      "##t": 1524,
      "##L": 1525,
      "##V": 1526,
      "##I": 1527,
      "##K": 1528,
      "##U": 1529,
      "##E": 1530,
      "##T": 1531,
      "##R": 1532,
      "##N": 1533,
      "##æ": 1534,
      "##d": 1535,
      "##j": 1536,
      "##h": 1537,
      "##ø": 1538,
      "##w": 1539,
      "##0": 1540,
      "##P": 1541,
      "##å": 1542,
      "##b": 1543,
      "##z": 1544,
      "##S": 1545,
      "##D": 1546,
      "##A": 1547,
      "##4": 1548,
      "##1": 1549,
      "##q": 1550,
      "##J": 1551,
      "##Y": 1552,
      "##O": 1553,
      "##H": 1554,
      "##Å": 1555,
      "##2": 1556,
      "##G": 1557,
      "##🇲": 1558,
      "##M": 1559,
      "##x": 1560,
      "##Z": 1561,
      "##■": 1562,
      "##&": 1563,
      "##3": 1564,
      "##F": 1565,
      "##Ø": 1566,
      "##C": 1567,
      "##7": 1568,
      "##5": 1569,
      "##ã": 1570,
      "##9": 1571,
      "##č": 1572,
      "##B": 1573,
      "##6": 1574,
      "##ß": 1575,
      "##-": 1576,
      "##+": 1577,
      "##<": 1578,
      "##;": 1579,
      "##:": 1580,
      "##ä": 1581,
      "##X": 1582,
      "##.": 1583,
      "##!": 1584,
      "##Æ": 1585,
      "##W": 1586,
      "##8": 1587,
      "##_": 1588,
      "##ö": 1589,
      "##🇨": 1590,
      "##)": 1591,
      "##\\": 1592,
      "##í": 1593,
      "##á": 1594,
      "##à": 1595,
      "##¥": 1596,
      "##ô": 1597,
      "##^": 1598,
      "##\"": 1599,
      "##š": 1600,
      "##É": 1601,
      "##а": 1602,
      "##[": 1603,
      "##]": 1604,
      "##ó": 1605,
      "##о": 1606,
      "##у": 1607,
      "##ü": 1608,
      "##è": 1609,
      "##Q": 1610,
      "##ð": 1611,
      "##/": 1612,
      "##ï": 1613,
      "##*": 1614,
      "##>": 1615,
      "##ú": 1616,
      "##ë": 1617,
      "##,": 1618,
      "##%": 1619,
      "##€": 1620,
      "##Ó": 1621,
      "##°": 1622,
      "##🇮": 1623,
      "##🏽": 1624,
      "##ل": 1625,
      "##ي": 1626,
      "##ا": 1627,
      "##п": 1628,
      "##л": 1629,
      "##и": 1630,
      "##к": 1631,
      "##т": 1632,
      "##р": 1633,
      "##в": 1634,
      "##?": 1635,
      "##Á": 1636,
      "##ç": 1637,
      "##(": 1638,
      "##'": 1639,
      "##đ": 1640,
      "##ñ": 1641,
      "##™": 1642,
      "##|": 1643,
      "##🏿": 1644,
      "##’": 1645,
      "##=": 1646,
      "##ŋ": 1647,
      "##$": 1648,
      "##@": 1649,
      "##Ä": 1650,
      "##~": 1651,
      "##â": 1652,
      "##ū": 1653,
      "##е": 1654,
      "##м": 1655,
      "##ы": 1656,
      "##Đ": 1657,
      "##£": 1658,
      "##{": 1659,
      "##ь": 1660,
      "##н": 1661,
      "##ā": 1662,
      "##ŧ": 1663,
      "##ž": 1664,
      "##ر": 1665,
      "##ê": 1666,
      "##}": 1667,
      "##🏾": 1668,
      "##Ã": 1669,
      "##🏼": 1670,
      "##ò": 1671,
      "##®": 1672,
      "##з": 1673,
      "##😋": 1674,
      "##Â": 1675,
      "##🇷": 1676,
      "##ń": 1677,
      "##ý": 1678,
      "##ı": 1679,
      "##μ": 1680,
      "##α": 1681,
      "##Ö": 1682,
      "##ł": 1683,
      "##ν": 1684,
      "##−": 1685,
      "###": 1686,
      "##д": 1687,
      "##🏻": 1688,
      "##★": 1689,
      "##🇱": 1690,
      "##م": 1691,
      "##б": 1692,
      "##с": 1693,
      "##ن": 1694,
      "##ч": 1695,
      "##й": 1696,
      "##🌨": 1697,
      "##❄": 1698,
      "##►": 1699,
      "##“": 1700,
      "##”": 1701,
      "##ō": 1702,
      "##ş": 1703,
      "##و": 1704,
      "##ت": 1705,
      "##±": 1706,
      "##🇩": 1707,
      "##Č": 1708,
      "##г": 1709,
      "##ー": 1710,
      "##Ü": 1711,
      "##τ": 1712,
      "##ρ": 1713,
      "##✓": 1714,
      "##🇸": 1715,
      "##♥": 1716,
      "##🇳": 1717,
      "##🇬": 1718,
      "##🇪": 1719,
      "##È": 1720,
      "##ο": 1721,
      "##ι": 1722,
      "##ς": 1723,
      "##🇾": 1724,
      "##🐴": 1725,
      "##Š": 1726,
      "##♦": 1727,
      "##я": 1728,
      "##🇭": 1729,
      "##ε": 1730,
      "##▲": 1731,
      "##🇴": 1732,
      "##©": 1733,
      "##♣": 1734,
      "##ă": 1735,
      "##î": 1736,
      "##□": 1737,
      "##🌕": 1738,
      "##🇻": 1739,
      "##🇹": 1740,
      "##🇿": 1741,
      "##💲": 1742,
      "##󠁧": 1743,
      "##󠁢": 1744,
      "##󠁥": 1745,
      "##󠁮": 1746,
      "##󠁿": 1747,
      "##🇦": 1748,
      "##▼": 1749,
      "##●": 1750,
      "##÷": 1751,
      "##󠁳": 1752,
      "##󠁣": 1753,
      "##󠁴": 1754,
      "##👏": 1755,
      "##🇧": 1756,
      "##⚽": 1757,
      "##↩": 1758,
      "##😀": 1759,
      "##🇯": 1760,
      "##🇵": 1761,
      "##🇰": 1762,
      "##✌": 1763,
      "##🔴": 1764,
      "##😅": 1765,
      "##🇺": 1766,
      "##️": 1767,
      "##Ž": 1768,
      "##🇼": 1769,
      "##❤": 1770,
      "##🇫": 1771,
      "##💓": 1772,
      "##½": 1773,
      "##😑": 1774,
      "##🙃": 1775,
      "##🇶": 1776,
      "##‍": 1777,
      "##�": 1778,
      "##🙌": 1779,
      "##♂": 1780,
      "##◄": 1781,
      "##🎲": 1782,
      "##⃣": 1783,
      "##↘": 1784,
      "##💪": 1785,
      "##🕊": 1786,
      "##🐦": 1787,
      "##`": 1788,
      "##🤣": 1789,
      "##🌲": 1790,
      "##🍃": 1791,
      "##🐥": 1792,
      "##🌰": 1793,
      "##→": 1794,
      "##👍": 1795,
      "##👌": 1796,
      "##👠": 1797,
      "##█": 1798,
      "##🇽": 1799,
      "##◀": 1800,
      "##✨": 1801,
      "##󠁷": 1802,
      "##󠁬": 1803,
      "##😄": 1804,
      "##🌟": 1805,
      "##💜": 1806,
      "##🤫": 1807,
      "##🤭": 1808,
      "##😷": 1809,
      "##🤢": 1810,
      "##🤬": 1811,
      "##😊": 1812,
      "##🐶": 1813,
      "##🎖": 1814,
      "##💃": 1815,
      "##😳": 1816,
      "##👊": 1817,
      "##😂": 1818,
      "##↑": 1819,
      "##🙂": 1820,
      "##○": 1821,
      "##🎄": 1822,
      "##♠": 1823,
      "##²": 1824,
      "##✔": 1825,
      "##🙏": 1826,
      "##⁄": 1827,
      "##😁": 1828,
      "##💕": 1829,
      "##😉": 1830,
      "##😎": 1831,
      "##en": 1832,
      "##er": 1833,
      "##et": 1834,
      "##or": 1835,
      "##an": 1836,
      "##in": 1837,
      "##ar": 1838,
      "##el": 1839,
      "##il": 1840,
      "##st": 1841,
      "og": 1842,
      "##om": 1843,
      "##ed": 1844,
      "##eg": 1845,
      "for": 1846,
      "##ing": 1847,
      "##re": 1848,
      "##te": 1849,
      "##ig": 1850,
      "##al": 1851,
      "##ke": 1852,
      "##on": 1853,
      "##tt": 1854,
      "til": 1855,
      "##de": 1856,
      "##is": 1857,
      "##le": 1858,
      "det": 1859,
      "en": 1860,
      "##un": 1861,
      "av": 1862,
      "##ra": 1863,
      "er": 1864,
      "##es": 1865,
      "##ik": 1866,
      "som": 1867,
      "på": 1868,
      "##id": 1869,
      "st": 1870,
      "##ol": 1871,
      "##ene": 1872,
      "##ør": 1873,
      "med": 1874,
      "##ne": 1875,
      "##sk": 1876,
      "##am": 1877,
      "##at": 1878,
      "##ver": 1879,
      "sk": 1880,
      "##pp": 1881,
      "at": 1882,
      "##ag": 1883,
      "in": 1884,
      "de": 1885,
      "##as": 1886,
      "##it": 1887,
      "##ler": 1888,
      "##kt": 1889,
      "##kke": 1890,
      "var": 1891,
      "##ent": 1892,
      "den": 1893,
      "##nd": 1894,
      "##se": 1895,
      "om": 1896,
      "##and": 1897,
      "ut": 1898,
      "##ad": 1899,
      "har": 1900,
      "##ste": 1901,
      "##ning": 1902,
      "ikke": 1903,
      "##iv": 1904,
      "##ul": 1905,
      "##år": 1906,
      "##ro": 1907,
      "##ang": 1908,
      "##kk": 1909,
      "han": 1910,
      "##ær": 1911,
      "##li": 1912,
      "##ens": 1913,
      "##ur": 1914,
      "##jon": 1915,
      "##ere": 1916,
      "Det": 1917,
      "##lig": 1918,
      "##ett": 1919,
      "fra": 1920,
      "##ri": 1921,
      "##us": 1922,
      "opp": 1923,
      "et": 1924,
      "##je": 1925,
      "al": 1926,
      "##ru": 1927,
      "##\"\"": 1928,
      "##ot": 1929,
      "gj": 1930,
      "##ak": 1931,
      "##tter": 1932,
      "vi": 1933,
      "##ikk": 1934,
      "##for": 1935,
      "an": 1936,
      "##ende": 1937,
      "##omm": 1938,
      "men": 1939,
      "19": 1940,
      "kan": 1941,
      "seg": 1942,
      "<<": 1943,
      "inn": 1944,
      "##sen": 1945,
      "##ok": 1946,
      "##od": 1947,
      "##ter": 1948,
      "##het": 1949,
      "sam": 1950,
      ">>": 1951,
      "så": 1952,
      "##ge": 1953,
      "be": 1954,
      "vil": 1955,
      "jeg": 1956,
      "##ap": 1957,
      "sp": 1958,
      "##der": 1959,
      "el": 1960,
      "##ks": 1961,
      "##be": 1962,
      "hv": 1963,
      "##ist": 1964,
      "##elig": 1965,
      "##att": 1966,
      "##he": 1967,
      "over": 1968,
      "##adde": 1969,
      "må": 1970,
      "##ell": 1971,
      "si": 1972,
      "hadde": 1973,
      "##av": 1974,
      "no": 1975,
      "##enn": 1976,
      "##ord": 1977,
      "##mm": 1978,
      "##ss": 1979,
      "##ir": 1980,
      "##ort": 1981,
      "##est": 1982,
      "##ann": 1983,
      "bli": 1984,
      "##isk": 1985,
      "##ut": 1986,
      "##ft": 1987,
      "##gen": 1988,
      "ved": 1989,
      "der": 1990,
      "se": 1991,
      "ble": 1992,
      "sl": 1993,
      "##ser": 1994,
      "##art": 1995,
      "eller": 1996,
      "##yn": 1997,
      "20": 1998,
      "##så": 1999,
      "##øy": 2000,
      "and": 2001,
      "##sl": 2002,
      "##unn": 2003,
      "du": 2004,
      "##eng": 2005,
      "##ov": 2006,
      "##ære": 2007,
      "##ud": 2008,
      "##asjon": 2009,
      "##rå": 2010,
      "##ling": 2011,
      "før": 2012,
      "##sp": 2013,
      "år": 2014,
      "##jø": 2015,
      "hun": 2016,
      "ar": 2017,
      "hel": 2018,
      "komm": 2019,
      "##ert": 2020,
      "re": 2021,
      "##ikt": 2022,
      "##old": 2023,
      "etter": 2024,
      "skal": 2025,
      "bar": 2026,
      "##all": 2027,
      "##inn": 2028,
      "##yg": 2029,
      "##og": 2030,
      "##itt": 2031,
      "##end": 2032,
      "##nder": 2033,
      "kon": 2034,
      "##yr": 2035,
      "##ff": 2036,
      "##ant": 2037,
      "pro": 2038,
      "tr": 2039,
      "##beid": 2040,
      "##else": 2041,
      "##ve": 2042,
      "##im": 2043,
      "##os": 2044,
      "##ker": 2045,
      "Han": 2046,
      "også": 2047,
      "00": 2048,
      "St": 2049,
      "##var": 2050,
      "Jeg": 2051,
      "##und": 2052,
      "kl": 2053,
      "##em": 2054,
      "##um": 2055,
      "##iske": 2056,
      "to": 2057,
      "##sm": 2058,
      "sin": 2059,
      "##net": 2060,
      "kun": 2061,
      "ny": 2062,
      "##rø": 2063,
      "##ion": 2064,
      "være": 2065,
      "tid": 2066,
      "De": 2067,
      "the": 2068,
      "##eld": 2069,
      "mot": 2070,
      "##nn": 2071,
      "##jer": 2072,
      "##elt": 2073,
      "under": 2074,
      "##ger": 2075,
      "min": 2076,
      "samm": 2077,
      "##leg": 2078,
      "##ie": 2079,
      "##akt": 2080,
      "##skap": 2081,
      "##ers": 2082,
      "##ast": 2083,
      "meg": 2084,
      "##ic": 2085,
      "##øl": 2086,
      "dette": 2087,
      "da": 2088,
      "##ly": 2089,
      "kom": 2090,
      "##ab": 2091,
      "of": 2092,
      "##vis": 2093,
      "få": 2094,
      "18": 2095,
      "##ige": 2096,
      "##ier": 2097,
      "##erd": 2098,
      "pl": 2099,
      "##jen": 2100,
      "##yl": 2101,
      "##øre": 2102,
      "kr": 2103,
      "or": 2104,
      "##ans": 2105,
      "sa": 2106,
      "##tte": 2107,
      "bl": 2108,
      "andre": 2109,
      "##..": 2110,
      "##ale": 2111,
      "bru": 2112,
      "##ede": 2113,
      "Men": 2114,
      "##mer": 2115,
      "ha": 2116,
      "--": 2117,
      "##ket": 2118,
      "\"\"\"": 2119,
      "dag": 2120,
      "For": 2121,
      "##ært": 2122,
      "blir": 2123,
      "##hold": 2124,
      "gr": 2125,
      "##rem": 2126,
      "##ber": 2127,
      "##ring": 2128,
      "stor": 2129,
      "Den": 2130,
      "##ød": 2131,
      ").": 2132,
      "##alt": 2133,
      "fort": 2134,
      "Nor": 2135,
      "##ass": 2136,
      "10": 2137,
      "kunne": 2138,
      "##ange": 2139,
      "mer": 2140,
      "##ret": 2141,
      "noe": 2142,
      "kv": 2143,
      "##elle": 2144,
      "reg": 2145,
      "##ry": 2146,
      "##nes": 2147,
      "##del": 2148,
      "le": 2149,
      "##tid": 2150,
      "##ighet": 2151,
      "##ch": 2152,
      "##iser": 2153,
      "arbeid": 2154,
      "##lige": 2155,
      "enn": 2156,
      "##ingen": 2157,
      "alle": 2158,
      "denne": 2159,
      "Vi": 2160,
      "##per": 2161,
      "##ob": 2162,
      "god": 2163,
      "##res": 2164,
      "##jel": 2165,
      "##let": 2166,
      "En": 2167,
      "##kte": 2168,
      "\"\"\"\"": 2169,
      "##pe": 2170,
      "man": 2171,
      "skul": 2172,
      "##ennom": 2173,
      "hen": 2174,
      "li": 2175,
      "##red": 2176,
      "bet": 2177,
      "##ien": 2178,
      "##jør": 2179,
      "dem": 2180,
      "nå": 2181,
      "beg": 2182,
      "her": 2183,
      "##ind": 2184,
      "##ess": 2185,
      "ham": 2186,
      "##na": 2187,
      "##vik": 2188,
      "bare": 2189,
      "når": 2190,
      "noen": 2191,
      "##els": 2192,
      "ve": 2193,
      "sy": 2194,
      "ned": 2195,
      "##ost": 2196,
      "sel": 2197,
      "##itet": 2198,
      "30": 2199,
      "##ken": 2200,
      "##get": 2201,
      "##ust": 2202,
      "lø": 2203,
      "gjennom": 2204,
      "##kl": 2205,
      "sm": 2206,
      "##utt": 2207,
      "##ellom": 2208,
      "hvor": 2209,
      "##før": 2210,
      "##ningen": 2211,
      "pr": 2212,
      "15": 2213,
      "##yd": 2214,
      "Og": 2215,
      "del": 2216,
      "##iden": 2217,
      "##ia": 2218,
      "##eder": 2219,
      "##det": 2220,
      "##mp": 2221,
      "##la": 2222,
      "##dag": 2223,
      "##land": 2224,
      "ta": 2225,
      "##ske": 2226,
      "##opp": 2227,
      "##set": 2228,
      "sammen": 2229,
      "##lere": 2230,
      "skulle": 2231,
      "Hun": 2232,
      "mellom": 2233,
      "##ire": 2234,
      "gang": 2235,
      "##ug": 2236,
      "sier": 2237,
      "hver": 2238,
      "##ult": 2239,
      "sv": 2240,
      "vært": 2241,
      "tre": 2242,
      ".\"\"": 2243,
      "##ner": 2244,
      "Sk": 2245,
      "my": 2246,
      "slik": 2247,
      "##olit": 2248,
      "mange": 2249,
      "alt": 2250,
      "land": 2251,
      "frem": 2252,
      "##ev": 2253,
      "17": 2254,
      "##ark": 2255,
      "##ull": 2256,
      "ville": 2257,
      "##ive": 2258,
      "##if": 2259,
      "##legg": 2260,
      "201": 2261,
      "##are": 2262,
      "##op": 2263,
      "##enter": 2264,
      "##elsen": 2265,
      "Hv": 2266,
      ">>.": 2267,
      "##ill": 2268,
      "##isse": 2269,
      "##ek": 2270,
      "##den": 2271,
      "uten": 2272,
      "##ål": 2273,
      "##ninger": 2274,
      "ein": 2275,
      "##rist": 2276,
      "##00": 2277,
      "lag": 2278,
      "rett": 2279,
      "##lag": 2280,
      "##sø": 2281,
      "tilb": 2282,
      "kommun": 2283,
      "##dre": 2284,
      "##erne": 2285,
      "##ane": 2286,
      "In": 2287,
      "12": 2288,
      "lang": 2289,
      "##tes": 2290,
      "Al": 2291,
      "grunn": 2292,
      "nor": 2293,
      "##ub": 2294,
      "##ille": 2295,
      "##rev": 2296,
      "sø": 2297,
      "11": 2298,
      "##iktig": 2299,
      "oss": 2300,
      "un": 2301,
      "##ten": 2302,
      "##gang": 2303,
      "##kket": 2304,
      "deg": 2305,
      "##lem": 2306,
      "kj": 2307,
      "##ater": 2308,
      "vir": 2309,
      "##oner": 2310,
      "ser": 2311,
      "går": 2312,
      "hans": 2313,
      "##pet": 2314,
      "bå": 2315,
      "##este": 2316,
      "føl": 2317,
      "fram": 2318,
      "##ake": 2319,
      "##ksjon": 2320,
      "ig": 2321,
      "høy": 2322,
      "nær": 2323,
      "henne": 2324,
      "første": 2325,
      "##amm": 2326,
      "##ings": 2327,
      "##ster": 2328,
      "gå": 2329,
      "nok": 2330,
      "##olk": 2331,
      "##ets": 2332,
      "bes": 2333,
      "Dette": 2334,
      "fin": 2335,
      "verd": 2336,
      "byg": 2337,
      "##ct": 2338,
      "199": 2339,
      "##pl": 2340,
      "kont": 2341,
      "##rat": 2342,
      "16": 2343,
      "##jem": 2344,
      "fikk": 2345,
      "vis": 2346,
      "##oll": 2347,
      "form": 2348,
      "la": 2349,
      "dei": 2350,
      "##form": 2351,
      "##atte": 2352,
      "##kker": 2353,
      "##bru": 2354,
      "##rift": 2355,
      "får": 2356,
      "eg": 2357,
      "end": 2358,
      "kjø": 2359,
      "vel": 2360,
      "##ansk": 2361,
      "Ar": 2362,
      "##over": 2363,
      "br": 2364,
      "##hand": 2365,
      "ly": 2366,
      "inter": 2367,
      "beste": 2368,
      "igjen": 2369,
      "##ard": 2370,
      "##elser": 2371,
      "##enger": 2372,
      "hva": 2373,
      "Jo": 2374,
      "##kon": 2375,
      "##rik": 2376,
      "##rett": 2377,
      "##svar": 2378,
      "liv": 2379,
      "like": 2380,
      "leg": 2381,
      "bil": 2382,
      "200": 2383,
      "##inger": 2384,
      "##stil": 2385,
      "##org": 2386,
      "##arbeid": 2387,
      "by": 2388,
      "##ER": 2389,
      "##ide": 2390,
      "gjøre": 2391,
      "forsk": 2392,
      "##like": 2393,
      "##alg": 2394,
      "##sten": 2395,
      "##tem": 2396,
      "##iet": 2397,
      "##sb": 2398,
      "##som": 2399,
      "ten": 2400,
      "fr": 2401,
      "pros": 2402,
      "Da": 2403,
      "##ial": 2404,
      "##ine": 2405,
      "kommer": 2406,
      "stør": 2407,
      "mil": 2408,
      "13": 2409,
      "mul": 2410,
      "##atur": 2411,
      "flere": 2412,
      "lig": 2413,
      "##ation": 2414,
      "##mmer": 2415,
      "tra": 2416,
      "ord": 2417,
      "14": 2418,
      "hele": 2419,
      "ei": 2420,
      "bed": 2421,
      "mor": 2422,
      "##nen": 2423,
      "syn": 2424,
      "sn": 2425,
      "godt": 2426,
      "samme": 2427,
      "seiv": 2428,
      "##pen": 2429,
      "gikk": 2430,
      "polit": 2431,
      "##isjon": 2432,
      "##ekt": 2433,
      "all": 2434,
      "),": 2435,
      "disse": 2436,
      "##tak": 2437,
      "sine": 2438,
      "store": 2439,
      "##elige": 2440,
      "##ip": 2441,
      "##mme": 2442,
      "ver": 2443,
      "##ode": 2444,
      "gl": 2445,
      "##alen": 2446,
      "##entet": 2447,
      "##ce": 2448,
      "litt": 2449,
      "pers": 2450,
      "selv": 2451,
      "far": 2452,
      "ma": 2453,
      "##pt": 2454,
      "både": 2455,
      "##etter": 2456,
      "mø": 2457,
      "sak": 2458,
      "vid": 2459,
      "forb": 2460,
      "##slag": 2461,
      "nye": 2462,
      "##ygg": 2463,
      "##ift": 2464,
      "##iver": 2465,
      "th": 2466,
      "##sv": 2467,
      "##kkje": 2468,
      "##rav": 2469,
      "ty": 2470,
      "##ny": 2471,
      "##par": 2472,
      "##unkt": 2473,
      "Norge": 2474,
      "siden": 2475,
      "res": 2476,
      "helt": 2477,
      "##du": 2478,
      "ber": 2479,
      "fl": 2480,
      "##elen": 2481,
      "##app": 2482,
      "he": 2483,
      "red": 2484,
      "mye": 2485,
      "An": 2486,
      "##ordan": 2487,
      "##>>": 2488,
      "##inner": 2489,
      "SS": 2490,
      "##eter": 2491,
      "The": 2492,
      "fe": 2493,
      "ek": 2494,
      "##di": 2495,
      "##ole": 2496,
      "\"\"": 2497,
      "lov": 2498,
      "tilbake": 2499,
      "##rer": 2500,
      "##kken": 2501,
      "ad": 2502,
      "##rupp": 2503,
      "ikkje": 2504,
      "ingen": 2505,
      "##stand": 2506,
      "sitt": 2507,
      "Mar": 2508,
      "198": 2509,
      "Her": 2510,
      "mennes": 2511,
      "hå": 2512,
      "21": 2513,
      "##sf": 2514,
      "enk": 2515,
      "rund": 2516,
      "##ener": 2517,
      "##EN": 2518,
      "##sker": 2519,
      "##jene": 2520,
      "stat": 2521,
      "##ette": 2522,
      "per": 2523,
      "vår": 2524,
      "##ram": 2525,
      "hand": 2526,
      "annet": 2527,
      "På": 2528,
      "mann": 2529,
      "sj": 2530,
      "forhold": 2531,
      "##stad": 2532,
      "##hus": 2533,
      "##ib": 2534,
      "eks": 2535,
      "hus": 2536,
      "##vel": 2537,
      "frå": 2538,
      "##ow": 2539,
      "spør": 2540,
      "blitt": 2541,
      "Du": 2542,
      "##ond": 2543,
      "Der": 2544,
      "##ennes": 2545,
      "##ran": 2546,
      "##mid": 2547,
      "000": 2548,
      "##olog": 2549,
      "Ber": 2550,
      "25": 2551,
      "tro": 2552,
      "viktig": 2553,
      "##kes": 2554,
      "##vend": 2555,
      "##ald": 2556,
      "##hol": 2557,
      "måtte": 2558,
      "begyn": 2559,
      "led": 2560,
      "##lev": 2561,
      "Ch": 2562,
      "##sel": 2563,
      "øn": 2564,
      "rundt": 2565,
      "bak": 2566,
      "akt": 2567,
      "par": 2568,
      "##eren": 2569,
      "fly": 2570,
      "##eb": 2571,
      ",>>": 2572,
      "##ont": 2573,
      "##fter": 2574,
      "##ttet": 2575,
      "utvik": 2576,
      "tok": 2577,
      "##jekt": 2578,
      "22": 2579,
      "Tr": 2580,
      "hjel": 2581,
      "svar": 2582,
      "##sjon": 2583,
      "##stem": 2584,
      "##satt": 2585,
      "##nad": 2586,
      "Så": 2587,
      "##ian": 2588,
      "lå": 2589,
      "##heten": 2590,
      "jo": 2591,
      "##me": 2592,
      "Sp": 2593,
      "##slo": 2594,
      "Joh": 2595,
      "Se": 2596,
      "siste": 2597,
      "mens": 2598,
      "El": 2599,
      "ste": 2600,
      "##stå": 2601,
      "...": 2602,
      "##aa": 2603,
      "##ligere": 2604,
      "mid": 2605,
      "##rakt": 2606,
      "197": 2607,
      "##lø": 2608,
      "##ys": 2609,
      "##riv": 2610,
      "##iten": 2611,
      "fyl": 2612,
      "gjør": 2613,
      "##stre": 2614,
      "plan": 2615,
      "##nings": 2616,
      "##olig": 2617,
      "sen": 2618,
      "##amil": 2619,
      "##esten": 2620,
      "##jell": 2621,
      "ev": 2622,
      "##raft": 2623,
      "is": 2624,
      "ind": 2625,
      "23": 2626,
      "##les": 2627,
      "##gan": 2628,
      "##ikker": 2629,
      "##ott": 2630,
      "barn": 2631,
      "##ges": 2632,
      "##ite": 2633,
      "inne": 2634,
      "##ren": 2635,
      "##gå": 2636,
      "te": 2637,
      "##oved": 2638,
      "##ister": 2639,
      "##ars": 2640,
      "##ym": 2641,
      "##eller": 2642,
      "##ong": 2643,
      "Til": 2644,
      "##aler": 2645,
      "Oslo": 2646,
      "##istor": 2647,
      "##olen": 2648,
      "gi": 2649,
      "##lingen": 2650,
      "##rag": 2651,
      "##au": 2652,
      "##ck": 2653,
      "vå": 2654,
      "komme": 2655,
      "ant": 2656,
      "##elder": 2657,
      "##orde": 2658,
      "sted": 2659,
      "dø": 2660,
      "tilf": 2661,
      "##min": 2662,
      "Når": 2663,
      "hvordan": 2664,
      "person": 2665,
      "##ise": 2666,
      "hal": 2667,
      "50": 2668,
      "##asser": 2669,
      "##men": 2670,
      "##asjonen": 2671,
      "bør": 2672,
      "hav": 2673,
      "##anske": 2674,
      "##led": 2675,
      "me": 2676,
      "sna": 2677,
      "##kj": 2678,
      "folk": 2679,
      "sett": 2680,
      "mest": 2681,
      "##obb": 2682,
      "lu": 2683,
      "##nt": 2684,
      "##ven": 2685,
      "gir": 2686,
      "eit": 2687,
      "##føl": 2688,
      "full": 2689,
      "annen": 2690,
      "sær": 2691,
      "sig": 2692,
      "bort": 2693,
      "##sg": 2694,
      "##....": 2695,
      "lik": 2696,
      "spes": 2697,
      "su": 2698,
      "Ja": 2699,
      "##mann": 2700,
      "nr": 2701,
      "fast": 2702,
      "##syn": 2703,
      "gra": 2704,
      "fle": 2705,
      "##reg": 2706,
      "##ande": 2707,
      "##sikt": 2708,
      "fått": 2709,
      "##dri": 2710,
      "utt": 2711,
      "##sy": 2712,
      "Nord": 2713,
      "kor": 2714,
      "Etter": 2715,
      "hos": 2716,
      "Ne": 2717,
      "##ksom": 2718,
      "hol": 2719,
      "egen": 2720,
      "øy": 2721,
      "##entlig": 2722,
      "##ultur": 2723,
      "Ut": 2724,
      "stil": 2725,
      "Med": 2726,
      "##ate": 2727,
      "##dd": 2728,
      "on": 2729,
      "Th": 2730,
      "##agt": 2731,
      "ster": 2732,
      "hennes": 2733,
      "fordi": 2734,
      "##ain": 2735,
      "sit": 2736,
      "dom": 2737,
      "tek": 2738,
      "styr": 2739,
      "hø": 2740,
      "gjelder": 2741,
      "områ": 2742,
      "##mt": 2743,
      "organ": 2744,
      "##vil": 2745,
      "Re": 2746,
      "tar": 2747,
      "vet": 2748,
      "##far": 2749,
      "##amp": 2750,
      "skj": 2751,
      "står": 2752,
      "##rig": 2753,
      "##usjon": 2754,
      "natur": 2755,
      "##berg": 2756,
      "sto": 2757,
      "?.": 2758,
      "hvis": 2759,
      "bruk": 2760,
      "##amle": 2761,
      "off": 2762,
      "Er": 2763,
      "##sd": 2764,
      "##ress": 2765,
      "hør": 2766,
      "##rep": 2767,
      "kap": 2768,
      "mål": 2769,
      "##styr": 2770,
      "van": 2771,
      "lær": 2772,
      "##iner": 2773,
      "derfor": 2774,
      "spørsm": 2775,
      "bor": 2776,
      "##pro": 2777,
      "##vir": 2778,
      "viser": 2779,
      "##semp": 2780,
      "Hva": 2781,
      "Et": 2782,
      "com": 2783,
      "Krist": 2784,
      "##her": 2785,
      "avg": 2786,
      "stø": 2787,
      "##ativ": 2788,
      "gjort": 2789,
      "Har": 2790,
      "##lik": 2791,
      "##konom": 2792,
      "part": 2793,
      "##ank": 2794,
      "aldri": 2795,
      "Ol": 2796,
      "hold": 2797,
      "##ikken": 2798,
      "196": 2799,
      "nett": 2800,
      "##runn": 2801,
      "nød": 2802,
      "tatt": 2803,
      "videre": 2804,
      "##funn": 2805,
      "ofte": 2806,
      "##oen": 2807,
      "##val": 2808,
      "sent": 2809,
      "langt": 2810,
      "mod": 2811,
      "blant": 2812,
      "##ask": 2813,
      "prob": 2814,
      "##skje": 2815,
      "vann": 2816,
      "mulig": 2817,
      "##sdag": 2818,
      "side": 2819,
      "hoved": 2820,
      "##anse": 2821,
      "##kning": 2822,
      "gjorde": 2823,
      "mindre": 2824,
      "des": 2825,
      "klar": 2826,
      ">>,": 2827,
      "##enge": 2828,
      "##ore": 2829,
      "##,,": 2830,
      "##ins": 2831,
      "lok": 2832,
      "slutt": 2833,
      "##dom": 2834,
      "##ue": 2835,
      "unn": 2836,
      "40": 2837,
      "større": 2838,
      "##atter": 2839,
      "##partem": 2840,
      "innen": 2841,
      "##ele": 2842,
      "kanskje": 2843,
      "Gud": 2844,
      "##allet": 2845,
      "##pr": 2846,
      "først": 2847,
      "##skapet": 2848,
      "norske": 2849,
      "hvil": 2850,
      "##fl": 2851,
      "##des": 2852,
      "rå": 2853,
      "samt": 2854,
      "##komm": 2855,
      "prø": 2856,
      "Om": 2857,
      "45": 2858,
      "Br": 2859,
      "##tr": 2860,
      "##heng": 2861,
      "ting": 2862,
      "åp": 2863,
      "Le": 2864,
      "##vet": 2865,
      "Nå": 2866,
      "gamle": 2867,
      "##asjoner": 2868,
      "##handling": 2869,
      "famil": 2870,
      "mener": 2871,
      "beh": 2872,
      "sjø": 2873,
      "##inne": 2874,
      "##IN": 2875,
      "eksemp": 2876,
      "##OR": 2877,
      "tim": 2878,
      "##avn": 2879,
      "lett": 2880,
      "vansk": 2881,
      "##akk": 2882,
      "##iller": 2883,
      "betyd": 2884,
      "##assen": 2885,
      "##søk": 2886,
      "små": 2887,
      "##lekt": 2888,
      "##enner": 2889,
      "##alte": 2890,
      "##sn": 2891,
      "ung": 2892,
      "satt": 2893,
      "##raf": 2894,
      "nytt": 2895,
      "##ay": 2896,
      "pres": 2897,
      "24": 2898,
      "##sj": 2899,
      "tidligere": 2900,
      "bok": 2901,
      "##ild": 2902,
      "##elte": 2903,
      "aller": 2904,
      "##asse": 2905,
      "##of": 2906,
      "##kelig": 2907,
      "dy": 2908,
      "##ester": 2909,
      "##enes": 2910,
      "af": 2911,
      "veg": 2912,
      "##eldig": 2913,
      "##med": 2914,
      "##midler": 2915,
      "jord": 2916,
      "int": 2917,
      "##sak": 2918,
      "produ": 2919,
      "##veg": 2920,
      "##rid": 2921,
      "Sam": 2922,
      "Ved": 2923,
      "##ha": 2924,
      "##uler": 2925,
      "##føre": 2926,
      "05": 2927,
      "##iter": 2928,
      ".)": 2929,
      "hånd": 2930,
      "##AN": 2931,
      "stud": 2932,
      "tur": 2933,
      "delt": 2934,
      "ne": 2935,
      "##ous": 2936,
      "##tidig": 2937,
      "di": 2938,
      "kroner": 2939,
      "##anger": 2940,
      "ulike": 2941,
      "##ilt": 2942,
      "##ade": 2943,
      "måte": 2944,
      "##age": 2945,
      "03": 2946,
      "nord": 2947,
      "bedre": 2948,
      "##ith": 2949,
      "##sfor": 2950,
      "##jord": 2951,
      "ligger": 2952,
      "alltid": 2953,
      "##bl": 2954,
      "##yld": 2955,
      "sol": 2956,
      "##rene": 2957,
      "tillegg": 2958,
      "Reg": 2959,
      "##igheter": 2960,
      "##oc": 2961,
      "##heter": 2962,
      "utg": 2963,
      "##spl": 2964,
      "Am": 2965,
      "stort": 2966,
      "And": 2967,
      "##ons": 2968,
      "deres": 2969,
      "##rykk": 2970,
      "195": 2971,
      "194": 2972,
      "##gende": 2973,
      "vur": 2974,
      "dat": 2975,
      "hatt": 2976,
      "Av": 2977,
      "histor": 2978,
      "heller": 2979,
      "nærm": 2980,
      "Kar": 2981,
      "finne": 2982,
      "fol": 2983,
      "##ina": 2984,
      "rep": 2985,
      "stra": 2986,
      "##sett": 2987,
      "fag": 2988,
      "inst": 2989,
      "hvert": 2990,
      "##ile": 2991,
      "Pro": 2992,
      "fun": 2993,
      "##isen": 2994,
      "##ensjon": 2995,
      "kn": 2996,
      "##ike": 2997,
      "grupp": 2998,
      "##sket": 2999,
      "Tor": 3000,
      "besk": 3001,
      "##ført": 3002,
      "##satte": 3003,
      "##aff": 3004,
      "fri": 3005,
      "tror": 3006,
      "##aten": 3007,
      "best": 3008,
      "finn": 3009,
      "gener": 3010,
      "gode": 3011,
      "##ente": 3012,
      "Som": 3013,
      "##sted": 3014,
      "kar": 3015,
      "##uro": 3016,
      "økonom": 3017,
      "##ity": 3018,
      "skap": 3019,
      "##råd": 3020,
      "##stilling": 3021,
      "06": 3022,
      "##ferd": 3023,
      "##dal": 3024,
      "kir": 3025,
      "##ringer": 3026,
      "##va": 3027,
      "##spunkt": 3028,
      "##ies": 3029,
      "##ppen": 3030,
      "fot": 3031,
      "dere": 3032,
      "norsk": 3033,
      "bra": 3034,
      "stad": 3035,
      "##ider": 3036,
      "spesi": 3037,
      "sos": 3038,
      "halv": 3039,
      "##by": 3040,
      "##tekt": 3041,
      "##midlertid": 3042,
      "##partementet": 3043,
      "35": 3044,
      "skjø": 3045,
      "prosent": 3046,
      "##ja": 3047,
      "Norsk": 3048,
      "nev": 3049,
      "kort": 3050,
      "##odet": 3051,
      "eng": 3052,
      "rel": 3053,
      "valg": 3054,
      "##river": 3055,
      "##sh": 3056,
      "fem": 3057,
      "kultur": 3058,
      "##AR": 3059,
      "milli": 3060,
      "hjem": 3061,
      "Hvis": 3062,
      "Denne": 3063,
      "55": 3064,
      "verden": 3065,
      "Un": 3066,
      "liten": 3067,
      "ca": 3068,
      "##bar": 3069,
      "fakt": 3070,
      "##part": 3071,
      "kal": 3072,
      "##iste": 3073,
      "nødvend": 3074,
      "kraft": 3075,
      "##vær": 3076,
      "lite": 3077,
      "##~~": 3078,
      "din": 3079,
      "vart": 3080,
      "mus": 3081,
      "##verk": 3082,
      "##gt": 3083,
      "gjen": 3084,
      "svært": 3085,
      "død": 3086,
      "sik": 3087,
      "##ST": 3088,
      "hjelp": 3089,
      "##under": 3090,
      "##kur": 3091,
      "Ny": 3092,
      "lever": 3093,
      "Hvor": 3094,
      "tiden": 3095,
      "dire": 3096,
      "##okk": 3097,
      "skole": 3098,
      "mark": 3099,
      "ferd": 3100,
      "##alitet": 3101,
      "hje": 3102,
      "ho": 3103,
      "samfunn": 3104,
      "inform": 3105,
      ":.": 3106,
      "##io": 3107,
      "plass": 3108,
      "##heim": 3109,
      "inv": 3110,
      "##ager": 3111,
      "vok": 3112,
      "fil": 3113,
      "##ipp": 3114,
      "##ålet": 3115,
      "rom": 3116,
      "##up": 3117,
      "##inga": 3118,
      "##oren": 3119,
      "vanskelig": 3120,
      "ang": 3121,
      "##øren": 3122,
      "##mark": 3123,
      "eksempel": 3124,
      ".,": 3125,
      "vin": 3126,
      "krav": 3127,
      "##andre": 3128,
      "imidlertid": 3129,
      "##lene": 3130,
      "jobb": 3131,
      "les": 3132,
      "ret": 3133,
      "forskjel": 3134,
      "##ka": 3135,
      "spørsmål": 3136,
      "fant": 3137,
      "dr": 3138,
      "kveld": 3139,
      "senere": 3140,
      "stå": 3141,
      "tjene": 3142,
      "##ET": 3143,
      "mat": 3144,
      "##bo": 3145,
      "grad": 3146,
      "##rens": 3147,
      "##bet": 3148,
      "id": 3149,
      "ben": 3150,
      "ansvar": 3151,
      "##lys": 3152,
      "##atet": 3153,
      "##mmet": 3154,
      "##bygg": 3155,
      "mennesker": 3156,
      "##fer": 3157,
      "##oss": 3158,
      "art": 3159,
      "##istr": 3160,
      "##ma": 3161,
      "Bl": 3162,
      "lenge": 3163,
      "nesten": 3164,
      "ute": 3165,
      "omf": 3166,
      "fire": 3167,
      "##kv": 3168,
      "##jente": 3169,
      "##revet": 3170,
      "slag": 3171,
      "193": 3172,
      "##int": 3173,
      "ter": 3174,
      "##da": 3175,
      "##iss": 3176,
      "fa": 3177,
      "organis": 3178,
      "##agen": 3179,
      "Bar": 3180,
      "prosjekt": 3181,
      "##utter": 3182,
      "##øk": 3183,
      "##rukt": 3184,
      "##br": 3185,
      "ett": 3186,
      "holdt": 3187,
      "##off": 3188,
      "##ave": 3189,
      "Ste": 3190,
      "##dan": 3191,
      "result": 3192,
      "##uss": 3193,
      "oppg": 3194,
      "are": 3195,
      "gitt": 3196,
      "##use": 3197,
      "##elles": 3198,
      "arbeidet": 3199,
      "fors": 3200,
      "ønsker": 3201,
      "##ivitet": 3202,
      "##ikket": 3203,
      "Be": 3204,
      "spur": 3205,
      "Opp": 3206,
      "meget": 3207,
      "særlig": 3208,
      "avt": 3209,
      "##jef": 3210,
      "##ommer": 3211,
      "##spro": 3212,
      "##vor": 3213,
      "op": 3214,
      "##ford": 3215,
      "as": 3216,
      "##eleg": 3217,
      "Inn": 3218,
      "att": 3219,
      "Eg": 3220,
      "##tet": 3221,
      "hens": 3222,
      "veldig": 3223,
      "gje": 3224,
      "syke": 3225,
      "##ment": 3226,
      "##elø": 3227,
      "problem": 3228,
      "met": 3229,
      "mang": 3230,
      "interes": 3231,
      "vurder": 3232,
      "##elses": 3233,
      "##ses": 3234,
      "##ument": 3235,
      "gre": 3236,
      "##ffekt": 3237,
      "##onym": 3238,
      "Før": 3239,
      "##oven": 3240,
      "##udd": 3241,
      "##uten": 3242,
      "likevel": 3243,
      "situ": 3244,
      "fre": 3245,
      "im": 3246,
      "fø": 3247,
      "bid": 3248,
      "##egn": 3249,
      "innt": 3250,
      "barne": 3251,
      "kre": 3252,
      "enkelte": 3253,
      "allerede": 3254,
      "##stra": 3255,
      "##ansen": 3256,
      "kost": 3257,
      "Man": 3258,
      "##ht": 3259,
      "tan": 3260,
      "behov": 3261,
      "##EL": 3262,
      "finnes": 3263,
      "pre": 3264,
      "##gj": 3265,
      "årene": 3266,
      "utvikling": 3267,
      "Ha": 3268,
      "##erg": 3269,
      "##uts": 3270,
      "kommune": 3271,
      "sør": 3272,
      "##ern": 3273,
      "26": 3274,
      "forstå": 3275,
      "##lipp": 3276,
      "##ats": 3277,
      "tak": 3278,
      "wh": 3279,
      "##SA": 3280,
      "menn": 3281,
      "slike": 3282,
      "27": 3283,
      "livet": 3284,
      "Or": 3285,
      "anonym": 3286,
      "samarbeid": 3287,
      "##rim": 3288,
      "La": 3289,
      "begynte": 3290,
      "##ksomhet": 3291,
      "##iene": 3292,
      "stand": 3293,
      "28": 3294,
      "##kom": 3295,
      "##ensen": 3296,
      "repres": 3297,
      "krig": 3298,
      "##ommun": 3299,
      "with": 3300,
      "bruke": 3301,
      "##dde": 3302,
      "##ule": 3303,
      "##unnet": 3304,
      "sty": 3305,
      "##ron": 3306,
      "##klar": 3307,
      "skjer": 3308,
      "##bruk": 3309,
      "kro": 3310,
      "##ivå": 3311,
      "oppf": 3312,
      "lenger": 3313,
      "##mmen": 3314,
      "##agn": 3315,
      "Ikke": 3316,
      "kommet": 3317,
      "holde": 3318,
      "01": 3319,
      "bas": 3320,
      "He": 3321,
      "ga": 3322,
      "bruker": 3323,
      "##vid": 3324,
      "landet": 3325,
      "fisk": 3326,
      "rekke": 3327,
      "domain": 3328,
      "##orten": 3329,
      "##roll": 3330,
      "pos": 3331,
      "våre": 3332,
      "leder": 3333,
      "Ma": 3334,
      "##isering": 3335,
      "##ball": 3336,
      "virkelig": 3337,
      "192": 3338,
      "##ral": 3339,
      "fleste": 3340,
      "##jørn": 3341,
      "##akter": 3342,
      "##ote": 3343,
      "gjerne": 3344,
      "##tern": 3345,
      "jul": 3346,
      "anonymous": 3347,
      "Sel": 3348,
      "##erte": 3349,
      "##ærer": 3350,
      "ledd": 3351,
      "##ga": 3352,
      "Fra": 3353,
      "sikker": 3354,
      "##our": 3355,
      "##asi": 3356,
      "altså": 3357,
      "begge": 3358,
      "paa": 3359,
      "##oden": 3360,
      "##ått": 3361,
      "##nr": 3362,
      "råd": 3363,
      "neste": 3364,
      "øv": 3365,
      "Sol": 3366,
      "synes": 3367,
      "foret": 3368,
      "Dag": 3369,
      "##tatt": 3370,
      "##ivet": 3371,
      "kam": 3372,
      "forv": 3373,
      "that": 3374,
      "ganger": 3375,
      "ti": 3376,
      "dra": 3377,
      "##anen": 3378,
      "##one": 3379,
      "##året": 3380,
      "##ilte": 3381,
      "ex": 3382,
      "till": 3383,
      "##sst": 3384,
      "mån": 3385,
      "eneste": 3386,
      "Alle": 3387,
      "tem": 3388,
      "##uni": 3389,
      "##igheten": 3390,
      "vind": 3391,
      "dagen": 3392,
      "bur": 3393,
      "##ivers": 3394,
      "løs": 3395,
      "pe": 3396,
      "##ivt": 3397,
      "##kst": 3398,
      "visste": 3399,
      "29": 3400,
      "fred": 3401,
      "peri": 3402,
      "##igur": 3403,
      "##ction": 3404,
      "##ktor": 3405,
      "##lever": 3406,
      "forslag": 3407,
      "##isert": 3408,
      "Fot": 3409,
      "ol": 3410,
      "##annen": 3411,
      "kny": 3412,
      "191": 3413,
      "Hans": 3414,
      "hverandre": 3415,
      "miljø": 3416,
      "nødvendig": 3417,
      "lagt": 3418,
      "##ustri": 3419,
      "forsø": 3420,
      "##ningene": 3421,
      "Kl": 3422,
      "##råk": 3423,
      "fød": 3424,
      "føre": 3425,
      "##pa": 3426,
      "fjer": 3427,
      "hend": 3428,
      "bef": 3429,
      "hj": 3430,
      "ob": 3431,
      "At": 3432,
      "##af": 3433,
      "##aker": 3434,
      "dyr": 3435,
      "##aren": 3436,
      "##drag": 3437,
      "start": 3438,
      "##ich": 3439,
      "##unnskap": 3440,
      "natt": 3441,
      "##lagt": 3442,
      "tiltak": 3443,
      "fortsatt": 3444,
      "gått": 3445,
      "ja": 3446,
      "##IL": 3447,
      "##syk": 3448,
      "##elsene": 3449,
      "vei": 3450,
      "sc": 3451,
      "dår": 3452,
      "##uer": 3453,
      "bek": 3454,
      "##ben": 3455,
      "stille": 3456,
      "fall": 3457,
      "##ris": 3458,
      "vanlig": 3459,
      "##vem": 3460,
      "##rasjon": 3461,
      "##gram": 3462,
      "saken": 3463,
      "##æring": 3464,
      "##øn": 3465,
      "##ator": 3466,
      "it": 3467,
      "klart": 3468,
      "##lighet": 3469,
      "##ves": 3470,
      "tru": 3471,
      "##ose": 3472,
      "##ommet": 3473,
      "sagt": 3474,
      "Kon": 3475,
      "mar": 3476,
      "##ører": 3477,
      "Nei": 3478,
      "dre": 3479,
      "foran": 3480,
      "Arbeid": 3481,
      "priv": 3482,
      "imp": 3483,
      "##ssk": 3484,
      "##ll": 3485,
      "kjør": 3486,
      "100": 3487,
      "intern": 3488,
      "##mb": 3489,
      "system": 3490,
      "spurte": 3491,
      "Hol": 3492,
      "gamm": 3493,
      "##ah": 3494,
      "##vert": 3495,
      "Andre": 3496,
      "dok": 3497,
      "##fall": 3498,
      "##rang": 3499,
      "utenfor": 3500,
      "leng": 3501,
      "nu": 3502,
      "##grunn": 3503,
      "##merik": 3504,
      "Stat": 3505,
      "31": 3506,
      "minst": 3507,
      "##rand": 3508,
      "post": 3509,
      "sette": 3510,
      "##........": 3511,
      "bud": 3512,
      "##ening": 3513,
      "##unt": 3514,
      "kjem": 3515,
      "kjent": 3516,
      "##røm": 3517,
      "Kv": 3518,
      "hy": 3519,
      "us": 3520,
      "##byg": 3521,
      "##ure": 3522,
      "kunst": 3523,
      "ene": 3524,
      "pris": 3525,
      "enkelt": 3526,
      "ful": 3527,
      "bø": 3528,
      "hodet": 3529,
      "##ou": 3530,
      "##ommen": 3531,
      "##oret": 3532,
      "svarte": 3533,
      "mør": 3534,
      "##fon": 3535,
      "foreld": 3536,
      "følge": 3537,
      "tekn": 3538,
      "##sam": 3539,
      "##iale": 3540,
      "##urat": 3541,
      "forteller": 3542,
      "finner": 3543,
      "Kn": 3544,
      "møte": 3545,
      "drift": 3546,
      "set": 3547,
      "##ink": 3548,
      "##ung": 3549,
      "##man": 3550,
      "Christ": 3551,
      "Fr": 3552,
      "vær": 3553,
      "helse": 3554,
      "forskjellige": 3555,
      "not": 3556,
      "##len": 3557,
      "##gra": 3558,
      "ba": 3559,
      "effekt": 3560,
      "unge": 3561,
      "sh": 3562,
      "felles": 3563,
      "##fører": 3564,
      "##jor": 3565,
      "bry": 3566,
      "kontakt": 3567,
      "tv": 3568,
      "dager": 3569,
      "##anser": 3570,
      "##urs": 3571,
      "##aks": 3572,
      "hev": 3573,
      "##ilde": 3574,
      "##AL": 3575,
      "elev": 3576,
      "##kter": 3577,
      "send": 3578,
      "sann": 3579,
      "enda": 3580,
      "feil": 3581,
      "luft": 3582,
      "kvinn": 3583,
      "##alet": 3584,
      "##på": 3585,
      "##enten": 3586,
      "dersom": 3587,
      "##eland": 3588,
      "##ium": 3589,
      "konkur": 3590,
      "juni": 3591,
      "mater": 3592,
      "samtidig": 3593,
      "Sør": 3594,
      "mitt": 3595,
      "brukt": 3596,
      "event": 3597,
      "ab": 3598,
      "Sver": 3599,
      "disk": 3600,
      "##ON": 3601,
      "ganske": 3602,
      "ansikt": 3603,
      "##qu": 3604,
      "##bud": 3605,
      "Under": 3606,
      "##dt": 3607,
      "##følge": 3608,
      "##yt": 3609,
      "nem": 3610,
      "største": 3611,
      "##erer": 3612,
      "ro": 3613,
      "02": 3614,
      "gar": 3615,
      "prof": 3616,
      "ch": 3617,
      "##indelse": 3618,
      "Fred": 3619,
      "informasjon": 3620,
      "Stor": 3621,
      "##rive": 3622,
      "ves": 3623,
      "dis": 3624,
      "##kret": 3625,
      "navn": 3626,
      "##esl": 3627,
      "##rum": 3628,
      "Ander": 3629,
      "##stend": 3630,
      "##ynene": 3631,
      "##inget": 3632,
      "##ng": 3633,
      "##deling": 3634,
      "trenger": 3635,
      "Per": 3636,
      "Hal": 3637,
      "tred": 3638,
      "tenkte": 3639,
      "Norges": 3640,
      "stedet": 3641,
      "venn": 3642,
      "Hel": 3643,
      "tap": 3644,
      "syk": 3645,
      "##lert": 3646,
      "ven": 3647,
      "##entene": 3648,
      "##kje": 3649,
      "##kkurat": 3650,
      "po": 3651,
      "året": 3652,
      "08": 3653,
      "09": 3654,
      "##uelle": 3655,
      "##reng": 3656,
      "##ach": 3657,
      "##ritt": 3658,
      "##olle": 3659,
      "hu": 3660,
      "##ograf": 3661,
      "sommer": 3662,
      "##IS": 3663,
      "##fe": 3664,
      "skjed": 3665,
      "bu": 3666,
      "##son": 3667,
      "kvinner": 3668,
      "tallet": 3669,
      "nasjon": 3670,
      "##linger": 3671,
      "##ju": 3672,
      "##tre": 3673,
      "##deles": 3674,
      "pra": 3675,
      "Euro": 3676,
      "##kene": 3677,
      "60": 3678,
      "Stort": 3679,
      "én": 3680,
      "##ta": 3681,
      "rø": 3682,
      "løpet": 3683,
      "bord": 3684,
      "##ative": 3685,
      "opplev": 3686,
      "mine": 3687,
      "##bok": 3688,
      "forf": 3689,
      "seks": 3690,
      "Pl": 3691,
      "då": 3692,
      "##ynd": 3693,
      "##beide": 3694,
      "##ital": 3695,
      "gjeld": 3696,
      "##ikkert": 3697,
      "morgen": 3698,
      "Ro": 3699,
      "##atene": 3700,
      "##ase": 3701,
      "##lemmer": 3702,
      "riktig": 3703,
      "Dan": 3704,
      "tør": 3705,
      "regjer": 3706,
      "alvor": 3707,
      "##føring": 3708,
      "betydning": 3709,
      "skje": 3710,
      "##nal": 3711,
      "avsl": 3712,
      "pass": 3713,
      "forbindelse": 3714,
      "##ING": 3715,
      "behand": 3716,
      "inntekt": 3717,
      "jf": 3718,
      "##ved": 3719,
      "##anter": 3720,
      "bolig": 3721,
      "##urt": 3722,
      "##minist": 3723,
      "legge": 3724,
      "##huset": 3725,
      "Vest": 3726,
      "):": 3727,
      "##disjon": 3728,
      "##ånd": 3729,
      "forn": 3730,
      "lære": 3731,
      "##nte": 3732,
      "##står": 3733,
      "støtte": 3734,
      "Fran": 3735,
      "##snitt": 3736,
      "##aller": 3737,
      "kjente": 3738,
      "erfar": 3739,
      "##rådet": 3740,
      "##verd": 3741,
      "Fl": 3742,
      "egne": 3743,
      "området": 3744,
      "##ffer": 3745,
      "##uder": 3746,
      "utgang": 3747,
      "##ac": 3748,
      "spesielt": 3749,
      "##rige": 3750,
      "hjemme": 3751,
      "USA": 3752,
      "##orn": 3753,
      "byen": 3754,
      "##ete": 3755,
      "##nem": 3756,
      "omk": 3757,
      "Høy": 3758,
      "represent": 3759,
      "##stein": 3760,
      "bestemm": 3761,
      "marked": 3762,
      "##istrikt": 3763,
      "##ifter": 3764,
      "lo": 3765,
      "##,,,": 3766,
      "mannen": 3767,
      "laget": 3768,
      "##organ": 3769,
      "##sport": 3770,
      "grø": 3771,
      "Ho": 3772,
      "##sland": 3773,
      "##iktige": 3774,
      "##går": 3775,
      "kunnskap": 3776,
      "##sette": 3777,
      "##iz": 3778,
      "direkte": 3779,
      "hensyn": 3780,
      "eiend": 3781,
      "##entlige": 3782,
      "Var": 3783,
      "##ple": 3784,
      "Bergen": 3785,
      "mai": 3786,
      "##øv": 3787,
      "##valg": 3788,
      "##oler": 3789,
      "##ader": 3790,
      "Sand": 3791,
      "tyd": 3792,
      "grunnlag": 3793,
      "meld": 3794,
      "Ann": 3795,
      "punkt": 3796,
      "33": 3797,
      "etab": 3798,
      "Jon": 3799,
      "veien": 3800,
      "07": 3801,
      "selskap": 3802,
      "##ppe": 3803,
      "##ammer": 3804,
      "190": 3805,
      "sterk": 3806,
      "Mart": 3807,
      "##rifter": 3808,
      "Ge": 3809,
      "nærmere": 3810,
      "##ebl": 3811,
      "betyr": 3812,
      "kjøp": 3813,
      "Hen": 3814,
      "##ata": 3815,
      "##adet": 3816,
      "lys": 3817,
      "32": 3818,
      "høre": 3819,
      "seier": 3820,
      "##dus": 3821,
      "##bu": 3822,
      "##ftet": 3823,
      "personer": 3824,
      "##omme": 3825,
      "fylke": 3826,
      "##valget": 3827,
      "millioner": 3828,
      "sub": 3829,
      "lav": 3830,
      "forl": 3831,
      "##lf": 3832,
      "##AT": 3833,
      "##fra": 3834,
      "Sy": 3835,
      "##fin": 3836,
      "ekte": 3837,
      "anal": 3838,
      "fjell": 3839,
      "##ork": 3840,
      "posit": 3841,
      "snart": 3842,
      "##stit": 3843,
      "Sv": 3844,
      "beny": 3845,
      "##AG": 3846,
      "Noen": 3847,
      "##orter": 3848,
      "##rom": 3849,
      "Ad": 3850,
      "##ogen": 3851,
      "Nil": 3852,
      "sjøl": 3853,
      "pasi": 3854,
      "stadig": 3855,
      "eget": 3856,
      "beveg": 3857,
      "##vern": 3858,
      "John": 3859,
      "lev": 3860,
      "redus": 3861,
      "##lemer": 3862,
      "##essig": 3863,
      "##iljø": 3864,
      "kontroll": 3865,
      "##sert": 3866,
      "kommunen": 3867,
      "deler": 3868,
      "##holder": 3869,
      "brukes": 3870,
      "Ty": 3871,
      "##menn": 3872,
      ",.": 3873,
      "fer": 3874,
      "lønn": 3875,
      "psyk": 3876,
      "vårt": 3877,
      "##usen": 3878,
      "##ingene": 3879,
      "kons": 3880,
      "efter": 3881,
      "##aksjon": 3882,
      "brø": 3883,
      "##følg": 3884,
      "Car": 3885,
      "##ammen": 3886,
      "funksjon": 3887,
      "opplys": 3888,
      "snakke": 3889,
      "tot": 3890,
      "ungdom": 3891,
      "##esk": 3892,
      "rapp": 3893,
      "Erik": 3894,
      "tenke": 3895,
      "gutt": 3896,
      "##gent": 3897,
      "##uar": 3898,
      "dermed": 3899,
      "langs": 3900,
      "kol": 3901,
      "##somt": 3902,
      "Over": 3903,
      "burde": 3904,
      "pub": 3905,
      "##sjett": 3906,
      "vekt": 3907,
      "##ES": 3908,
      "innenfor": 3909,
      "sønn": 3910,
      "Sh": 3911,
      "skolen": 3912,
      "forklar": 3913,
      "bevis": 3914,
      "mist": 3915,
      "do": 3916,
      "##ori": 3917,
      "huset": 3918,
      ",-": 3919,
      "mott": 3920,
      "døde": 3921,
      "##landet": 3922,
      "bedrift": 3923,
      "rad": 3924,
      "Finn": 3925,
      "produksjon": 3926,
      "##ellen": 3927,
      "akkurat": 3928,
      "Foto": 3929,
      "val": 3930,
      "189": 3931,
      "forut": 3932,
      "rask": 3933,
      "fry": 3934,
      "##avnet": 3935,
      "overfor": 3936,
      "vise": 3937,
      "skriver": 3938,
      "but": 3939,
      "con": 3940,
      "øynene": 3941,
      "Disse": 3942,
      "tor": 3943,
      "Gj": 3944,
      "Trond": 3945,
      "##aget": 3946,
      "jan": 3947,
      "Par": 3948,
      "##ps": 3949,
      "rette": 3950,
      "Sch": 3951,
      "Ind": 3952,
      "Dei": 3953,
      "Lu": 3954,
      "##uelt": 3955,
      "90": 3956,
      "##øs": 3957,
      "mars": 3958,
      "lin": 3959,
      "pa": 3960,
      "Kom": 3961,
      "lokal": 3962,
      "##ledes": 3963,
      "instit": 3964,
      "aktivitet": 3965,
      "alder": 3966,
      "##elefon": 3967,
      "dro": 3968,
      "##imm": 3969,
      "foresl": 3970,
      "uttrykk": 3971,
      "##nev": 3972,
      "und": 3973,
      "oper": 3974,
      "hjelpe": 3975,
      "ak": 3976,
      "Ein": 3977,
      "try": 3978,
      "##essuten": 3979,
      "øyebl": 3980,
      "Bru": 3981,
      "norm": 3982,
      "aks": 3983,
      "70": 3984,
      "##ndag": 3985,
      "##ice": 3986,
      "gro": 3987,
      "Mo": 3988,
      "##ås": 3989,
      "time": 3990,
      "vite": 3991,
      "No": 3992,
      "##20": 3993,
      "Alt": 3994,
      "bo": 3995,
      "##ologi": 3996,
      "fest": 3997,
      "skog": 3998,
      "##meld": 3999,
      "stre": 4000,
      "##kel": 4001,
      "mel": 4002,
      "slags": 4003,
      "##bil": 4004,
      "##danning": 4005,
      "funnet": 4006,
      "##iker": 4007,
      "Ole": 4008,
      "ring": 4009,
      "##fjord": 4010,
      "stod": 4011,
      "Land": 4012,
      "##ath": 4013,
      "##RK": 4014,
      "##anten": 4015,
      "Mange": 4016,
      "hvem": 4017,
      "eldre": 4018,
      "gift": 4019,
      "##ogn": 4020,
      "New": 4021,
      "dokument": 4022,
      "##sut": 4023,
      "kast": 4024,
      "##dene": 4025,
      "Sm": 4026,
      "undersøk": 4027,
      "måten": 4028,
      "ferdig": 4029,
      "##stat": 4030,
      "energ": 4031,
      "##ED": 4032,
      "skyld": 4033,
      "##arbeidet": 4034,
      "vari": 4035,
      "hjer": 4036,
      "legger": 4037,
      "Me": 4038,
      "følgende": 4039,
      "##ksis": 4040,
      "##ighetene": 4041,
      "##erson": 4042,
      "drø": 4043,
      "prakt": 4044,
      "bygge": 4045,
      "behandling": 4046,
      "imot": 4047,
      "Ant": 4048,
      "##giv": 4049,
      "##ften": 4050,
      "forsvar": 4051,
      "NT": 4052,
      "Pa": 4053,
      "sov": 4054,
      "um": 4055,
      "app": 4056,
      "##gte": 4057,
      "80": 4058,
      "Ingen": 4059,
      "##rol": 4060,
      "##ida": 4061,
      "job": 4062,
      "##hør": 4063,
      "borte": 4064,
      "##ulle": 4065,
      "##skudd": 4066,
      "barna": 4067,
      "internasjon": 4068,
      "04": 4069,
      "##sson": 4070,
      "ris": 4071,
      "##ittel": 4072,
      "viste": 4073,
      "##OT": 4074,
      "Sø": 4075,
      "##isere": 4076,
      "Jes": 4077,
      "vert": 4078,
      "##inen": 4079,
      "barnet": 4080,
      "gammel": 4081,
      "##ugust": 4082,
      "Berg": 4083,
      "##visning": 4084,
      "Hvordan": 4085,
      "avgjør": 4086,
      "penger": 4087,
      ".\"\"\"": 4088,
      "mis": 4089,
      "##kast": 4090,
      "sikkert": 4091,
      "##ors": 4092,
      "rik": 4093,
      "##vere": 4094,
      "verdens": 4095,
      "bestemt": 4096,
      "region": 4097,
      "##unde": 4098,
      "hørte": 4099,
      "##ood": 4100,
      "musikk": 4101,
      "mynd": 4102,
      "grå": 4103,
      "\"\"\"\".": 4104,
      "##mar": 4105,
      "##gift": 4106,
      "##usk": 4107,
      "elekt": 4108,
      "tran": 4109,
      "34": 4110,
      "makt": 4111,
      "2018": 4112,
      "##hed": 4113,
      "##ersom": 4114,
      "aut": 4115,
      "naturlig": 4116,
      "Øst": 4117,
      "Rom": 4118,
      "slo": 4119,
      "kjenner": 4120,
      "ide": 4121,
      "##punkt": 4122,
      "Eng": 4123,
      "##ering": 4124,
      "##yst": 4125,
      "##tal": 4126,
      "glad": 4127,
      "so": 4128,
      "nøy": 4129,
      "##spekt": 4130,
      "##lin": 4131,
      "from": 4132,
      "lyd": 4133,
      "2016": 4134,
      "omkring": 4135,
      "##che": 4136,
      "fart": 4137,
      "straff": 4138,
      "##ld": 4139,
      "sky": 4140,
      "188": 4141,
      "##gjør": 4142,
      "vest": 4143,
      "Tid": 4144,
      "tun": 4145,
      "##rit": 4146,
      "##atisk": 4147,
      "knyttet": 4148,
      "lille": 4149,
      "Dersom": 4150,
      "tradisjon": 4151,
      "##ruktur": 4152,
      "født": 4153,
      "##pper": 4154,
      "tydelig": 4155,
      "##pril": 4156,
      "tall": 4157,
      "##orer": 4158,
      "##oder": 4159,
      "vinter": 4160,
      "alene": 4161,
      "##ørdag": 4162,
      "tvil": 4163,
      "spiller": 4164,
      "vit": 4165,
      "##enser": 4166,
      "tø": 4167,
      "##holde": 4168,
      "sterkt": 4169,
      "dram": 4170,
      "##rør": 4171,
      "36": 4172,
      "##departementet": 4173,
      "fyr": 4174,
      "meter": 4175,
      "##affe": 4176,
      "krit": 4177,
      "##iversitet": 4178,
      "tom": 4179,
      "tredje": 4180,
      "kamp": 4181,
      "egentlig": 4182,
      "##ions": 4183,
      "##kn": 4184,
      "To": 4185,
      "##stru": 4186,
      "menneske": 4187,
      "Te": 4188,
      "antall": 4189,
      "Kir": 4190,
      "retning": 4191,
      "sosial": 4192,
      "##undet": 4193,
      "##nader": 4194,
      "Lars": 4195,
      "##stene": 4196,
      "prøv": 4197,
      "ford": 4198,
      "fordel": 4199,
      "skrive": 4200,
      "##mte": 4201,
      "##fte": 4202,
      "eksp": 4203,
      "-.": 4204,
      "kat": 4205,
      "inns": 4206,
      "komp": 4207,
      "##rinn": 4208,
      "ko": 4209,
      "Kan": 4210,
      "gjer": 4211,
      "regel": 4212,
      "faktisk": 4213,
      "##ember": 4214,
      "januar": 4215,
      "##kkes": 4216,
      "ses": 4217,
      "##setning": 4218,
      "utgangspunkt": 4219,
      "##kjø": 4220,
      "have": 4221,
      "##sjekt": 4222,
      "##isjonen": 4223,
      "holder": 4224,
      "tilsvar": 4225,
      "prins": 4226,
      "##ph": 4227,
      "helst": 4228,
      "kirke": 4229,
      "##th": 4230,
      "kil": 4231,
      "##ttes": 4232,
      "##send": 4233,
      "##ign": 4234,
      "##kar": 4235,
      "##anskje": 4236,
      "##istisk": 4237,
      "##verket": 4238,
      "##ese": 4239,
      "folke": 4240,
      "##grupp": 4241,
      "Kanskje": 4242,
      "tal": 4243,
      "midt": 4244,
      "##ical": 4245,
      "##anne": 4246,
      "##onn": 4247,
      "sku": 4248,
      "ge": 4249,
      "sal": 4250,
      "##apir": 4251,
      "fekk": 4252,
      "##ativt": 4253,
      "utford": 4254,
      "blå": 4255,
      "plasser": 4256,
      "##ygge": 4257,
      "##eth": 4258,
      "treng": 4259,
      "##veien": 4260,
      "Sverige": 4261,
      "hvorfor": 4262,
      "##bef": 4263,
      "##aken": 4264,
      "spe": 4265,
      "hånden": 4266,
      "eier": 4267,
      "års": 4268,
      "kvinne": 4269,
      "vold": 4270,
      "##okken": 4271,
      "Også": 4272,
      "186": 4273,
      "kjær": 4274,
      "nettopp": 4275,
      "TV": 4276,
      "lange": 4277,
      "##itte": 4278,
      "##hav": 4279,
      "stilling": 4280,
      "##øst": 4281,
      "em": 4282,
      "medlem": 4283,
      "##rende": 4284,
      "AS": 4285,
      "familie": 4286,
      "ansatte": 4287,
      "was": 4288,
      "reise": 4289,
      "slikt": 4290,
      "Sl": 4291,
      "##ame": 4292,
      "dårlig": 4293,
      "##asje": 4294,
      "tidlig": 4295,
      "187": 4296,
      "##met": 4297,
      "fatt": 4298,
      "II": 4299,
      "ban": 4300,
      "snakket": 4301,
      "krist": 4302,
      "Mid": 4303,
      "bygg": 4304,
      "skip": 4305,
      "##til": 4306,
      "næring": 4307,
      "na": 4308,
      "Kj": 4309,
      "##mod": 4310,
      "##\"\"\"\"": 4311,
      "##ivil": 4312,
      "april": 4313,
      "hvilke": 4314,
      "##øte": 4315,
      "##ime": 4316,
      "ønsket": 4317,
      "##lege": 4318,
      "##vok": 4319,
      "konse": 4320,
      "noko": 4321,
      "sentr": 4322,
      "##utselig": 4323,
      "Anne": 4324,
      "!.": 4325,
      "Mer": 4326,
      "##kår": 4327,
      "industri": 4328,
      "real": 4329,
      "##late": 4330,
      "juli": 4331,
      "2017": 4332,
      "##stid": 4333,
      "ekstra": 4334,
      "##aste": 4335,
      "37": 4336,
      "fi": 4337,
      "lærer": 4338,
      "##sty": 4339,
      "##cc": 4340,
      "##hengig": 4341,
      "okt": 4342,
      "Co": 4343,
      "##øg": 4344,
      "kli": 4345,
      "politiet": 4346,
      "gangen": 4347,
      "##vå": 4348,
      "regn": 4349,
      "##bart": 4350,
      "2015": 4351,
      "fiske": 4352,
      "høyere": 4353,
      "##mor": 4354,
      "Fin": 4355,
      "løp": 4356,
      "Bjørn": 4357,
      "ennå": 4358,
      "stopp": 4359,
      "##vs": 4360,
      "minutter": 4361,
      "forsv": 4362,
      "##unst": 4363,
      "##SS": 4364,
      "tilfelle": 4365,
      "gul": 4366,
      "Min": 4367,
      "##forsk": 4368,
      "lyst": 4369,
      "familien": 4370,
      "mig": 4371,
      "##lar": 4372,
      "##ivid": 4373,
      "strø": 4374,
      "satte": 4375,
      "skatt": 4376,
      "##ytt": 4377,
      "##kkelig": 4378,
      "tilbud": 4379,
      "Sc": 4380,
      "co": 4381,
      "åpen": 4382,
      "##elsk": 4383,
      "lot": 4384,
      "kompet": 4385,
      "stund": 4386,
      "kvalitet": 4387,
      "##gangen": 4388,
      "tett": 4389,
      "##aen": 4390,
      "yr": 4391,
      "bred": 4392,
      "##ai": 4393,
      "praksis": 4394,
      "høyt": 4395,
      "opprett": 4396,
      "sammenheng": 4397,
      "virksomhet": 4398,
      "##etten": 4399,
      "offentlig": 4400,
      "ellers": 4401,
      "##eløp": 4402,
      "arbeider": 4403,
      "##pos": 4404,
      "##angen": 4405,
      "sjå": 4406,
      "##annet": 4407,
      "##OL": 4408,
      "38": 4409,
      "teg": 4410,
      "slå": 4411,
      "lokale": 4412,
      "amerik": 4413,
      "Derfor": 4414,
      "administ": 4415,
      "Jan": 4416,
      "##æl": 4417,
      "forh": 4418,
      "##esp": 4419,
      "ren": 4420,
      "vist": 4421,
      "##entar": 4422,
      "##bruks": 4423,
      "foreg": 4424,
      "blod": 4425,
      "##holdet": 4426,
      "øyeblikk": 4427,
      "problemer": 4428,
      "fys": 4429,
      "##genting": 4430,
      "sep": 4431,
      "grav": 4432,
      "##rike": 4433,
      "Olav": 4434,
      "følger": 4435,
      "bi": 4436,
      "hvilken": 4437,
      "ul": 4438,
      "##aling": 4439,
      "##uter": 4440,
      "##ban": 4441,
      "rev": 4442,
      "##abil": 4443,
      "ytter": 4444,
      "timer": 4445,
      "##sbe": 4446,
      "Kr": 4447,
      "kje": 4448,
      "##ifte": 4449,
      "bereg": 4450,
      "nevnt": 4451,
      "##åt": 4452,
      "vore": 4453,
      "41": 4454,
      "##isme": 4455,
      "besl": 4456,
      "##IK": 4457,
      "påvir": 4458,
      "##iteen": 4459,
      "##annes": 4460,
      "##unnen": 4461,
      "##OM": 4462,
      "salg": 4463,
      "fører": 4464,
      "press": 4465,
      "saa": 4466,
      "bidra": 4467,
      "##abell": 4468,
      "##føres": 4469,
      "##lende": 4470,
      "rød": 4471,
      "klare": 4472,
      "##uld": 4473,
      "##aldt": 4474,
      "fjor": 4475,
      "språk": 4476,
      "##ringen": 4477,
      "##als": 4478,
      "Slik": 4479,
      "lar": 4480,
      "måned": 4481,
      "##iserte": 4482,
      "bakgrunn": 4483,
      "ST": 4484,
      "bel": 4485,
      "ud": 4486,
      "bod": 4487,
      "##tember": 4488,
      "pot": 4489,
      "##kjent": 4490,
      "Ola": 4491,
      "Hvorfor": 4492,
      "oms": 4493,
      "Trom": 4494,
      "samlet": 4495,
      "fremdeles": 4496,
      "##yss": 4497,
      "##ante": 4498,
      "karakter": 4499,
      "rek": 4500,
      "ress": 4501,
      "spørsmålet": 4502,
      "risik": 4503,
      "##rateg": 4504,
      "##fly": 4505,
      "500": 4506,
      "39": 4507,
      "ventet": 4508,
      "økonomiske": 4509,
      "och": 4510,
      "nemlig": 4511,
      "Stortinget": 4512,
      "Hå": 4513,
      "##kommende": 4514,
      "leve": 4515,
      "##eltet": 4516,
      "sikre": 4517,
      "##borg": 4518,
      "økt": 4519,
      "prøve": 4520,
      "##stet": 4521,
      "75": 4522,
      "##une": 4523,
      "merke": 4524,
      "##ffe": 4525,
      "##bin": 4526,
      "##laget": 4527,
      "##yggen": 4528,
      "sikkerhet": 4529,
      "meir": 4530,
      "##edag": 4531,
      "ramm": 4532,
      "Hus": 4533,
      "hum": 4534,
      "neg": 4535,
      "sat": 4536,
      "##alle": 4537,
      "##ober": 4538,
      "##okus": 4539,
      "##nytt": 4540,
      "ansiktet": 4541,
      "End": 4542,
      "##ba": 4543,
      "tross": 4544,
      "vere": 4545,
      "##repet": 4546,
      "##legget": 4547,
      "##ellet": 4548,
      "oppdag": 4549,
      "berre": 4550,
      "##ius": 4551,
      "Peder": 4552,
      "##fold": 4553,
      "reiste": 4554,
      "uts": 4555,
      "Mor": 4556,
      "##elag": 4557,
      "nivå": 4558,
      "steder": 4559,
      "same": 4560,
      "sende": 4561,
      "185": 4562,
      "brev": 4563,
      "fir": 4564,
      "##ID": 4565,
      "historie": 4566,
      "altern": 4567,
      "mask": 4568,
      "##sa": 4569,
      "##uttet": 4570,
      "##deren": 4571,
      "##ations": 4572,
      "##yen": 4573,
      "##ukt": 4574,
      "##duksjon": 4575,
      "##isten": 4576,
      "sid": 4577,
      "##itu": 4578,
      "Knut": 4579,
      "blev": 4580,
      "##vikling": 4581,
      "mente": 4582,
      "##løs": 4583,
      "Kristian": 4584,
      "virke": 4585,
      "##full": 4586,
      "##hver": 4587,
      "Eller": 4588,
      "##imot": 4589,
      "Seiv": 4590,
      "Lar": 4591,
      "barneh": 4592,
      "Dem": 4593,
      "2000": 4594,
      "ditt": 4595,
      "##RE": 4596,
      "##leis": 4597,
      "##ias": 4598,
      "medlemmer": 4599,
      "##ongen": 4600,
      "##nne": 4601,
      "##stendig": 4602,
      "inntil": 4603,
      "rest": 4604,
      "Odd": 4605,
      "##enta": 4606,
      "##ikasjon": 4607,
      "##synlig": 4608,
      "Beg": 4609,
      "Polit": 4610,
      "folket": 4611,
      "##rar": 4612,
      "kart": 4613,
      "tyn": 4614,
      "følte": 4615,
      "dig": 4616,
      "ref": 4617,
      "ur": 4618,
      "traf": 4619,
      "viktigste": 4620,
      "##able": 4621,
      "desember": 4622,
      "august": 4623,
      "##tok": 4624,
      "My": 4625,
      "️‍": 4626,
      "Ed": 4627,
      "Vel": 4628,
      "42": 4629,
      "spille": 4630,
      "##smin": 4631,
      "september": 4632,
      "politiske": 4633,
      "åpnet": 4634,
      "begrens": 4635,
      "venstre": 4636,
      "kunde": 4637,
      "skjønn": 4638,
      "Vid": 4639,
      "NTB": 4640,
      "ras": 4641,
      "stol": 4642,
      "##ko": 4643,
      "skyl": 4644,
      "Bra": 4645,
      "##sto": 4646,
      "fortelle": 4647,
      "ry": 4648,
      "oppn": 4649,
      "##batt": 4650,
      "##ansett": 4651,
      "God": 4652,
      "##bø": 4653,
      "Ser": 4654,
      "km": 4655,
      "NRK": 4656,
      "eig": 4657,
      "##uft": 4658,
      "##rest": 4659,
      "vedtak": 4660,
      "Ta": 4661,
      "##pass": 4662,
      "møter": 4663,
      "48": 4664,
      "##ish": 4665,
      "Kommun": 4666,
      "setter": 4667,
      "produs": 4668,
      "heter": 4669,
      "arbeids": 4670,
      "ident": 4671,
      "##attet": 4672,
      "Frank": 4673,
      "Ag": 4674,
      "topp": 4675,
      "##mmelig": 4676,
      "pri": 4677,
      "data": 4678,
      "kroppen": 4679,
      "##serv": 4680,
      "ag": 4681,
      "Lang": 4682,
      "##skaper": 4683,
      "##post": 4684,
      "##we": 4685,
      "##kont": 4686,
      "bilen": 4687,
      "skre": 4688,
      "ass": 4689,
      "##ww": 4690,
      "44": 4691,
      "##allen": 4692,
      "mand": 4693,
      "Vær": 4694,
      "Is": 4695,
      "##bruar": 4696,
      "gis": 4697,
      "bnr": 4698,
      "##standen": 4699,
      "##ård": 4700,
      "uke": 4701,
      "##eres": 4702,
      "mill": 4703,
      "##inter": 4704,
      "##utning": 4705,
      "##øyd": 4706,
      "Like": 4707,
      "##områ": 4708,
      "Gl": 4709,
      "utstyr": 4710,
      "Europa": 4711,
      "##~~~~": 4712,
      "verk": 4713,
      "lage": 4714,
      "##iler": 4715,
      "interesse": 4716,
      "rolle": 4717,
      "Sn": 4718,
      "##ån": 4719,
      "kvar": 4720,
      "konsekv": 4721,
      "offentlige": 4722,
      "døren": 4723,
      "krev": 4724,
      "sitter": 4725,
      "trakk": 4726,
      "midler": 4727,
      "pensjon": 4728,
      "visst": 4729,
      "Vil": 4730,
      "jern": 4731,
      "Pr": 4732,
      "Regi": 4733,
      "fremst": 4734,
      "##enfor": 4735,
      "##bord": 4736,
      "privat": 4737,
      "##enske": 4738,
      "gav": 4739,
      "alm": 4740,
      "this": 4741,
      "fullt": 4742,
      "##dere": 4743,
      "Kong": 4744,
      "skol": 4745,
      "oppmer": 4746,
      "##RA": 4747,
      "viss": 4748,
      "##egg": 4749,
      "Wil": 4750,
      "##ørsm": 4751,
      "##ikkel": 4752,
      "saman": 4753,
      "Trondheim": 4754,
      "regler": 4755,
      "46": 4756,
      "oktober": 4757,
      "søk": 4758,
      "##its": 4759,
      "Johan": 4760,
      "ann": 4761,
      "preg": 4762,
      "##mannen": 4763,
      "interv": 4764,
      "pop": 4765,
      "individ": 4766,
      "viktige": 4767,
      "reguler": 4768,
      "##ight": 4769,
      "##ystem": 4770,
      "##itenskap": 4771,
      "##ubb": 4772,
      "www": 4773,
      "##ham": 4774,
      "##IT": 4775,
      "##plan": 4776,
      "inkl": 4777,
      "43": 4778,
      "##mmene": 4779,
      "##læring": 4780,
      "oppe": 4781,
      "##tale": 4782,
      "##ielle": 4783,
      "finans": 4784,
      "lese": 4785,
      "##gar": 4786,
      "##van": 4787,
      "Gr": 4788,
      "##utte": 4789,
      "##uell": 4790,
      "fang": 4791,
      "ingenting": 4792,
      "##ated": 4793,
      "Fol": 4794,
      "##hen": 4795,
      "2019": 4796,
      "Far": 4797,
      "saker": 4798,
      "områder": 4799,
      "blom": 4800,
      "##polit": 4801,
      "hører": 4802,
      "tenkt": 4803,
      "begynner": 4804,
      "##amma": 4805,
      "##olf": 4806,
      "##plass": 4807,
      "star": 4808,
      "produkt": 4809,
      "Ver": 4810,
      "##ending": 4811,
      "vant": 4812,
      "47": 4813,
      "relig": 4814,
      "##ibli": 4815,
      "inneb": 4816,
      "voks": 4817,
      "##vin": 4818,
      "sju": 4819,
      "februar": 4820,
      "Paul": 4821,
      "Dire": 4822,
      "sterke": 4823,
      "hundre": 4824,
      "Bare": 4825,
      "tenker": 4826,
      "rop": 4827,
      "enten": 4828,
      "datter": 4829,
      "trodde": 4830,
      "Olsen": 4831,
      "##arar": 4832,
      "kur": 4833,
      "selve": 4834,
      "##iger": 4835,
      "endring": 4836,
      "sosiale": 4837,
      "##ents": 4838,
      "##uen": 4839,
      "##hetene": 4840,
      "##urnal": 4841,
      "Bo": 4842,
      "kong": 4843,
      "##svis": 4844,
      "##dra": 4845,
      "Martin": 4846,
      "sist": 4847,
      "##istiske": 4848,
      "hind": 4849,
      "Ham": 4850,
      "##skole": 4851,
      "forskning": 4852,
      "##way": 4853,
      "##rimin": 4854,
      "##SK": 4855,
      "##ita": 4856,
      "novem": 4857,
      "arrang": 4858,
      "ark": 4859,
      "arm": 4860,
      "##ledning": 4861,
      "##orte": 4862,
      "##jøre": 4863,
      "##ace": 4864,
      "skape": 4865,
      "pol": 4866,
      "telefon": 4867,
      "##iere": 4868,
      "skjedde": 4869,
      "cm": 4870,
      "##retning": 4871,
      "november": 4872,
      "skrev": 4873,
      "##kost": 4874,
      "mon": 4875,
      "konkurran": 4876,
      "raskt": 4877,
      "##mål": 4878,
      "plutselig": 4879,
      "Arne": 4880,
      "##UN": 4881,
      "##ående": 4882,
      "##ologisk": 4883,
      "Bil": 4884,
      "vak": 4885,
      "##kkel": 4886,
      "institusjon": 4887,
      "au": 4888,
      "##jær": 4889,
      "organisasjon": 4890,
      "##sken": 4891,
      "Natt": 4892,
      "\"\"\"\",": 4893,
      "##ffet": 4894,
      "Sal": 4895,
      "##kraft": 4896,
      "##LE": 4897,
      "faren": 4898,
      "##gjeng": 4899,
      "spesial": 4900,
      "dagens": 4901,
      "tå": 4902,
      "Jesus": 4903,
      "Stav": 4904,
      "årsak": 4905,
      "dør": 4906,
      "Guds": 4907,
      "fotball": 4908,
      "##setter": 4909,
      "slutten": 4910,
      "##ologiske": 4911,
      "##ational": 4912,
      "Tom": 4913,
      "film": 4914,
      "Lille": 4915,
      "##ollen": 4916,
      "område": 4917,
      "fokus": 4918,
      "bilde": 4919,
      "brukte": 4920,
      "1990": 4921,
      "mening": 4922,
      "##king": 4923,
      "##eri": 4924,
      "##bare": 4925,
      "Sve": 4926,
      "##po": 4927,
      "##middel": 4928,
      "dine": 4929,
      "økonomisk": 4930,
      "184": 4931,
      "situasjonen": 4932,
      "Verd": 4933,
      "hendene": 4934,
      "fortsatte": 4935,
      "51": 4936,
      "##ident": 4937,
      "##iven": 4938,
      "mulighet": 4939,
      "skade": 4940,
      "passer": 4941,
      "##isin": 4942,
      "utdanning": 4943,
      "##legging": 4944,
      "Ab": 4945,
      "##stemm": 4946,
      "##skrift": 4947,
      "rommet": 4948,
      "milit": 4949,
      "##srett": 4950,
      "redd": 4951,
      "##folk": 4952,
      "arbeide": 4953,
      "##holdt": 4954,
      "Inge": 4955,
      "unna": 4956,
      "##rib": 4957,
      "Karl": 4958,
      "##ktør": 4959,
      "situasjon": 4960,
      "stemme": 4961,
      "##ally": 4962,
      "skrevet": 4963,
      "tilsvarende": 4964,
      "##innet": 4965,
      "søndag": 4966,
      "##fest": 4967,
      "##slaget": 4968,
      "brann": 4969,
      "##øse": 4970,
      "mag": 4971,
      "Fredrik": 4972,
      "forand": 4973,
      "analy": 4974,
      "Tysk": 4975,
      "takk": 4976,
      "fru": 4977,
      "##nende": 4978,
      "vedkommende": 4979,
      "OG": 4980,
      "Anders": 4981,
      "ifølge": 4982,
      "##ix": 4983,
      "skriv": 4984,
      "##ikring": 4985,
      "Su": 4986,
      "skikk": 4987,
      "sve": 4988,
      ".:": 4989,
      "stir": 4990,
      "opptatt": 4991,
      "Ph": 4992,
      "skatte": 4993,
      "ført": 4994,
      "##ettet": 4995,
      "Kor": 4996,
      "vekk": 4997,
      "##aland": 4998,
      "##ance": 4999,
      "klass": 5000,
      "håper": 5001,
      "Lov": 5002,
      "interess": 5003,
      "ple": 5004,
      "himm": 5005,
      "endringer": 5006,
      "##vist": 5007,
      "##vand": 5008,
      "sendt": 5009,
      "høyre": 5010,
      "##tteratur": 5011,
      "vare": 5012,
      "##edet": 5013,
      "##asjer": 5014,
      "anlegg": 5015,
      "lørdag": 5016,
      "slipp": 5017,
      "##ksomheten": 5018,
      "formid": 5019,
      "prosjektet": 5020,
      "##istrer": 5021,
      "##ick": 5022,
      "##serie": 5023,
      "transport": 5024,
      "høg": 5025,
      "sentrum": 5026,
      "måneder": 5027,
      "##pekt": 5028,
      "##ual": 5029,
      "Mon": 5030,
      "Mot": 5031,
      "ønske": 5032,
      "tale": 5033,
      "startet": 5034,
      "venner": 5035,
      "feng": 5036,
      "##aven": 5037,
      "nei": 5038,
      "virket": 5039,
      "##sta": 5040,
      "foreldre": 5041,
      "bro": 5042,
      "EU": 5043,
      "Kap": 5044,
      "kjøpe": 5045,
      "##??": 5046,
      "stein": 5047,
      "Bå": 5048,
      "idrett": 5049,
      "##stø": 5050,
      "navnet": 5051,
      "gruppe": 5052,
      "Lø": 5053,
      "Øy": 5054,
      "snø": 5055,
      ".-": 5056,
      "##sav": 5057,
      "poeng": 5058,
      "skar": 5059,
      "va": 5060,
      "sek": 5061,
      "gjøres": 5062,
      "politisk": 5063,
      "fortalte": 5064,
      "95": 5065,
      "##hjel": 5066,
      "mykje": 5067,
      "avtale": 5068,
      "nø": 5069,
      "rør": 5070,
      "cont": 5071,
      "##amer": 5072,
      "smilte": 5073,
      "prest": 5074,
      "##IG": 5075,
      "overra": 5076,
      "Ing": 5077,
      "olje": 5078,
      "Samtidig": 5079,
      "##tiden": 5080,
      "besøk": 5081,
      "forest": 5082,
      "49": 5083,
      "##parten": 5084,
      "##enet": 5085,
      "moderne": 5086,
      "grat": 5087,
      "befolk": 5088,
      "Ul": 5089,
      "oppgå": 5090,
      "Johannes": 5091,
      "uttry": 5092,
      "##jenne": 5093,
      "muligheter": 5094,
      "##yret": 5095,
      "##kende": 5096,
      "kompetanse": 5097,
      "kampen": 5098,
      "førte": 5099,
      "utover": 5100,
      "##sc": 5101,
      "tilk": 5102,
      "tjeneste": 5103,
      "ånd": 5104,
      "52": 5105,
      "kvelden": 5106,
      "varme": 5107,
      "åpne": 5108,
      "##gene": 5109,
      "selskapet": 5110,
      "##ute": 5111,
      "gull": 5112,
      "##ians": 5113,
      "elevene": 5114,
      "budsjett": 5115,
      "##ibliote": 5116,
      "Ve": 5117,
      "##essige": 5118,
      "vera": 5119,
      "syntes": 5120,
      "kjære": 5121,
      "##iel": 5122,
      "##aus": 5123,
      "##fil": 5124,
      "bland": 5125,
      "Christian": 5126,
      "uh": 5127,
      "hot": 5128,
      "Af": 5129,
      "##leder": 5130,
      "##lo": 5131,
      "Sig": 5132,
      "Selv": 5133,
      "##bygging": 5134,
      "rim": 5135,
      "##udde": 5136,
      "Sim": 5137,
      "resten": 5138,
      "##skont": 5139,
      "##vann": 5140,
      "##dig": 5141,
      "meng": 5142,
      "tanke": 5143,
      "##kant": 5144,
      "kjøkken": 5145,
      "sentral": 5146,
      "53": 5147,
      "##OTO": 5148,
      "røy": 5149,
      "uker": 5150,
      "Ba": 5151,
      "Tlf": 5152,
      "##forb": 5153,
      "##ikke": 5154,
      "perioden": 5155,
      "fulgte": 5156,
      "dist": 5157,
      "opply": 5158,
      "distrikt": 5159,
      "peng": 5160,
      "bygget": 5161,
      "As": 5162,
      "føler": 5163,
      "##mo": 5164,
      "##mon": 5165,
      "nab": 5166,
      "forvalt": 5167,
      "betydelig": 5168,
      "tilfred": 5169,
      "##dagen": 5170,
      "##stoff": 5171,
      "##urg": 5172,
      "##sliv": 5173,
      "test": 5174,
      "virker": 5175,
      "99": 5176,
      "Tre": 5177,
      "frykt": 5178,
      "Gunn": 5179,
      "vurdering": 5180,
      "##okrat": 5181,
      "krigen": 5182,
      "##stjene": 5183,
      "Jul": 5184,
      "##ikere": 5185,
      "##løp": 5186,
      "##atning": 5187,
      "##ces": 5188,
      "..": 5189,
      "opplysninger": 5190,
      "omsorg": 5191,
      "størr": 5192,
      "##plikt": 5193,
      "popul": 5194,
      "##smessig": 5195,
      "##ika": 5196,
      "Vå": 5197,
      "##ome": 5198,
      "##iken": 5199,
      "Jør": 5200,
      "##spolit": 5201,
      "##rere": 5202,
      "løy": 5203,
      "År": 5204,
      "deretter": 5205,
      "##tta": 5206,
      "bildet": 5207,
      "såk": 5208,
      "##illet": 5209,
      "##jet": 5210,
      "sjeld": 5211,
      "ødel": 5212,
      "##iell": 5213,
      "tol": 5214,
      "Ei": 5215,
      "Hoved": 5216,
      "figur": 5217,
      "183": 5218,
      "has": 5219,
      "defin": 5220,
      "##sol": 5221,
      "##ana": 5222,
      "##følgelig": 5223,
      "##jert": 5224,
      "består": 5225,
      "Lond": 5226,
      "reis": 5227,
      "progra": 5228,
      "prinsipp": 5229,
      "present": 5230,
      "sånn": 5231,
      "sant": 5232,
      "##gående": 5233,
      "Hansen": 5234,
      "eiendom": 5235,
      "daglig": 5236,
      "Nils": 5237,
      "tryg": 5238,
      "detal": 5239,
      "##ary": 5240,
      "##ingar": 5241,
      "##skommun": 5242,
      "##ubben": 5243,
      "slett": 5244,
      "øst": 5245,
      "Hvil": 5246,
      "##akten": 5247,
      "hørt": 5248,
      "##iks": 5249,
      "resultat": 5250,
      "##ement": 5251,
      "uly": 5252,
      "##lede": 5253,
      "Sj": 5254,
      "hardt": 5255,
      "deltak": 5256,
      "private": 5257,
      "kastet": 5258,
      "##apt": 5259,
      "Res": 5260,
      "skrift": 5261,
      "forskjell": 5262,
      "besø": 5263,
      "65": 5264,
      "kapittel": 5265,
      "Vår": 5266,
      "idet": 5267,
      "##edes": 5268,
      "styrke": 5269,
      "##iftet": 5270,
      "##sending": 5271,
      "samfunnet": 5272,
      "kva": 5273,
      "fremm": 5274,
      "Thom": 5275,
      "hopp": 5276,
      "##peratur": 5277,
      "oppnå": 5278,
      "forbi": 5279,
      "##AS": 5280,
      "utan": 5281,
      "liker": 5282,
      "91": 5283,
      "tema": 5284,
      "leil": 5285,
      "##AND": 5286,
      "##ØR": 5287,
      "54": 5288,
      "##kjed": 5289,
      "##................": 5290,
      "snudde": 5291,
      "engang": 5292,
      "sannsynlig": 5293,
      "svart": 5294,
      "kval": 5295,
      "-,": 5296,
      "handling": 5297,
      "Kont": 5298,
      "##enk": 5299,
      "Tyskland": 5300,
      "56": 5301,
      "Bjør": 5302,
      "##arane": 5303,
      "Statens": 5304,
      "bekym": 5305,
      "vente": 5306,
      "Dav": 5307,
      "##iat": 5308,
      "##aktig": 5309,
      "##ua": 5310,
      "##skolen": 5311,
      "##ica": 5312,
      "søker": 5313,
      "##ric": 5314,
      "##appa": 5315,
      "##æren": 5316,
      "klarte": 5317,
      "##ennende": 5318,
      "henhold": 5319,
      "##æn": 5320,
      "##yll": 5321,
      "Rob": 5322,
      "Ale": 5323,
      "utviklingen": 5324,
      "London": 5325,
      "strateg": 5326,
      "##uet": 5327,
      "omtr": 5328,
      "middel": 5329,
      "##hl": 5330,
      "vidt": 5331,
      "program": 5332,
      "##førte": 5333,
      "##uren": 5334,
      "Ter": 5335,
      "##essen": 5336,
      "##sloven": 5337,
      "publik": 5338,
      "##so": 5339,
      "##mus": 5340,
      "which": 5341,
      "Bro": 5342,
      "gard": 5343,
      "minste": 5344,
      "fint": 5345,
      "alvorlig": 5346,
      "##enterer": 5347,
      "##leve": 5348,
      "basert": 5349,
      "prior": 5350,
      "bom": 5351,
      "##værende": 5352,
      "general": 5353,
      "type": 5354,
      "##kap": 5355,
      "glede": 5356,
      "retten": 5357,
      "kg": 5358,
      "handler": 5359,
      "##anlegg": 5360,
      "nærings": 5361,
      "##organis": 5362,
      "yng": 5363,
      "1992": 5364,
      "sykehus": 5365,
      "driv": 5366,
      "##KT": 5367,
      "papir": 5368,
      "enhver": 5369,
      "betrakt": 5370,
      "Ap": 5371,
      "Ev": 5372,
      "Stavanger": 5373,
      "##kelige": 5374,
      "1995": 5375,
      "staten": 5376,
      "##haug": 5377,
      "mob": 5378,
      "endelig": 5379,
      "forsøk": 5380,
      "##ppet": 5381,
      "meste": 5382,
      "valgt": 5383,
      "##yre": 5384,
      "invester": 5385,
      "understre": 5386,
      "avis": 5387,
      "Kjø": 5388,
      "bilder": 5389,
      "ill": 5390,
      "glass": 5391,
      "betale": 5392,
      "##irsdag": 5393,
      "##gn": 5394,
      "2014": 5395,
      "Peter": 5396,
      "##ales": 5397,
      "On": 5398,
      "181": 5399,
      "euro": 5400,
      "innebærer": 5401,
      "åtte": 5402,
      "Gjennom": 5403,
      "##ensk": 5404,
      "inc": 5405,
      "material": 5406,
      "##anset": 5407,
      "fredag": 5408,
      "Hvem": 5409,
      "oppt": 5410,
      "dessuten": 5411,
      "2001": 5412,
      "bygd": 5413,
      "Amerik": 5414,
      "fleire": 5415,
      "##vers": 5416,
      "kvart": 5417,
      "loven": 5418,
      "solgt": 5419,
      "FOTO": 5420,
      "flyttet": 5421,
      "rus": 5422,
      "legges": 5423,
      "snakker": 5424,
      "varer": 5425,
      "verdi": 5426,
      "FOR": 5427,
      "blikk": 5428,
      "##kningen": 5429,
      "##kka": 5430,
      "kyr": 5431,
      "grupper": 5432,
      "##vene": 5433,
      "Regjer": 5434,
      "konkret": 5435,
      "##str": 5436,
      "Petter": 5437,
      "##abr": 5438,
      "departementet": 5439,
      "Haug": 5440,
      "1980": 5441,
      "1993": 5442,
      "vannet": 5443,
      "##aster": 5444,
      "##rud": 5445,
      "##aske": 5446,
      "ski": 5447,
      "##ition": 5448,
      "omtrent": 5449,
      "lei": 5450,
      "##ummer": 5451,
      "##varet": 5452,
      "sjølv": 5453,
      "##aur": 5454,
      "gud": 5455,
      "anbef": 5456,
      "##bruket": 5457,
      "il": 5458,
      "##sid": 5459,
      "##fart": 5460,
      "tilfeller": 5461,
      "Aust": 5462,
      "elever": 5463,
      "##delingen": 5464,
      "##AM": 5465,
      "sider": 5466,
      "desse": 5467,
      "Hau": 5468,
      "sur": 5469,
      "1999": 5470,
      "straks": 5471,
      "##edal": 5472,
      "##mat": 5473,
      "gjekk": 5474,
      "##fag": 5475,
      "Mag": 5476,
      "1997": 5477,
      "Mens": 5478,
      "##ikter": 5479,
      "##ino": 5480,
      "unngå": 5481,
      "kjærlighet": 5482,
      "forholdet": 5483,
      "57": 5484,
      "gjennomsnitt": 5485,
      "prote": 5486,
      "skjedd": 5487,
      "##vende": 5488,
      "tas": 5489,
      "prøver": 5490,
      "blei": 5491,
      "1994": 5492,
      "##partiet": 5493,
      "##øya": 5494,
      "hvite": 5495,
      "##elighet": 5496,
      "##smann": 5497,
      "##sord": 5498,
      "##ander": 5499,
      "slekt": 5500,
      "dikt": 5501,
      "uav": 5502,
      "tysk": 5503,
      "##iserer": 5504,
      "oversikt": 5505,
      "bal": 5506,
      "##stillingen": 5507,
      "kropp": 5508,
      "##onen": 5509,
      "Thor": 5510,
      "tidspunkt": 5511,
      "jobber": 5512,
      "Mal": 5513,
      "tusen": 5514,
      "Mad": 5515,
      "##åten": 5516,
      "##vei": 5517,
      "##settes": 5518,
      "##AD": 5519,
      "bevisst": 5520,
      "avsk": 5521,
      "klasse": 5522,
      "bordet": 5523,
      "omfatt": 5524,
      "vesentlig": 5525,
      "gjeng": 5526,
      "jobben": 5527,
      "##stander": 5528,
      "Først": 5529,
      "refer": 5530,
      "Grø": 5531,
      "1996": 5532,
      "krever": 5533,
      "180": 5534,
      "tog": 5535,
      "##unne": 5536,
      "kjøre": 5537,
      "sang": 5538,
      "opprinn": 5539,
      "##sreg": 5540,
      "##splan": 5541,
      "##itter": 5542,
      "##illing": 5543,
      "visse": 5544,
      "ent": 5545,
      "##øver": 5546,
      "arbeidsg": 5547,
      "kostnad": 5548,
      "Jac": 5549,
      "##onde": 5550,
      "##cy": 5551,
      "jev": 5552,
      "tilgjeng": 5553,
      "##sagt": 5554,
      "##styret": 5555,
      "##spill": 5556,
      "2005": 5557,
      "ropte": 5558,
      "oven": 5559,
      "Marie": 5560,
      "relativt": 5561,
      "Henrik": 5562,
      "##eler": 5563,
      "##TE": 5564,
      "##ampen": 5565,
      "ke": 5566,
      "stem": 5567,
      "øyne": 5568,
      "tekst": 5569,
      "##arbeide": 5570,
      "arg": 5571,
      "##rad": 5572,
      "etabler": 5573,
      "1991": 5574,
      "Flere": 5575,
      "##ely": 5576,
      "styre": 5577,
      "spor": 5578,
      "##IV": 5579,
      "Anna": 5580,
      "##ving": 5581,
      "##iteten": 5582,
      "##pon": 5583,
      "nede": 5584,
      "sign": 5585,
      "1998": 5586,
      "hit": 5587,
      "##ærne": 5588,
      "Fyl": 5589,
      "##bruker": 5590,
      "Bor": 5591,
      "##abel": 5592,
      "skulde": 5593,
      "Trø": 5594,
      "##vare": 5595,
      "##arder": 5596,
      "erfaring": 5597,
      "##ugh": 5598,
      "heim": 5599,
      "##forhold": 5600,
      "##inde": 5601,
      "båt": 5602,
      "Både": 5603,
      "arbeidst": 5604,
      "##ulig": 5605,
      "##blem": 5606,
      "uansett": 5607,
      "59": 5608,
      "ra": 5609,
      "##co": 5610,
      "varm": 5611,
      "interesser": 5612,
      "VM": 5613,
      "dit": 5614,
      "fas": 5615,
      "inneholder": 5616,
      "voksne": 5617,
      "utb": 5618,
      "indre": 5619,
      "kraftig": 5620,
      "Skal": 5621,
      "Fil": 5622,
      "utd": 5623,
      "internasjonale": 5624,
      "tilstre": 5625,
      "85": 5626,
      "undersø": 5627,
      "masse": 5628,
      "Rå": 5629,
      "prøvde": 5630,
      "Fort": 5631,
      "Figur": 5632,
      "Bre": 5633,
      "omt": 5634,
      "Rø": 5635,
      "##rikke": 5636,
      "beskjed": 5637,
      "Con": 5638,
      "vekst": 5639,
      "Danmark": 5640,
      "2002": 5641,
      "##sminister": 5642,
      "##ira": 5643,
      "ordet": 5644,
      "##jerne": 5645,
      "kontrakt": 5646,
      "utvalg": 5647,
      "bekre": 5648,
      "97": 5649,
      "Ford": 5650,
      "bestemte": 5651,
      "hjemm": 5652,
      "Fri": 5653,
      "All": 5654,
      "Uten": 5655,
      "mm": 5656,
      "##iti": 5657,
      "##edd": 5658,
      "##slivet": 5659,
      "utvikle": 5660,
      "2003": 5661,
      "sammenlig": 5662,
      "begynn": 5663,
      "ir": 5664,
      "pat": 5665,
      "##fri": 5666,
      "ryggen": 5667,
      "tida": 5668,
      "tegn": 5669,
      "oppdrag": 5670,
      "stakk": 5671,
      "Bu": 5672,
      "debatt": 5673,
      "nasjonal": 5674,
      "##lic": 5675,
      "tank": 5676,
      "fug": 5677,
      "##skyld": 5678,
      "slått": 5679,
      "##ict": 5680,
      "engelsk": 5681,
      "eld": 5682,
      "##urer": 5683,
      "ep": 5684,
      "##entral": 5685,
      "tilsyn": 5686,
      "##bered": 5687,
      "Siden": 5688,
      "##sels": 5689,
      "Jens": 5690,
      "kjønn": 5691,
      "dels": 5692,
      "registrer": 5693,
      "##sberg": 5694,
      "2004": 5695,
      "##orgens": 5696,
      "stats": 5697,
      "forelig": 5698,
      "delen": 5699,
      "trekke": 5700,
      "Bir": 5701,
      "##own": 5702,
      "##varer": 5703,
      "##edagog": 5704,
      "Barn": 5705,
      "adj": 5706,
      "begynne": 5707,
      "Rus": 5708,
      "trekk": 5709,
      "AN": 5710,
      "bodde": 5711,
      "##inder": 5712,
      "smil": 5713,
      "konsent": 5714,
      "Stein": 5715,
      "##holdning": 5716,
      "gli": 5717,
      "regjering": 5718,
      "gen": 5719,
      "##fisk": 5720,
      "arbeidsm": 5721,
      "##øyde": 5722,
      "Sar": 5723,
      "##hild": 5724,
      "hvit": 5725,
      "##iled": 5726,
      "##fyl": 5727,
      "##klare": 5728,
      "##ory": 5729,
      "##jern": 5730,
      "Sport": 5731,
      "funger": 5732,
      "energi": 5733,
      "Mel": 5734,
      "velge": 5735,
      "Harald": 5736,
      "Magn": 5737,
      "stemmer": 5738,
      "##kjør": 5739,
      "fortsette": 5740,
      "##agelig": 5741,
      "Char": 5742,
      "øke": 5743,
      "forstår": 5744,
      "sport": 5745,
      "lavere": 5746,
      "Gre": 5747,
      "jfr": 5748,
      "##jes": 5749,
      "##kommen": 5750,
      "kurs": 5751,
      "sentrale": 5752,
      "##oster": 5753,
      "hensikt": 5754,
      "58": 5755,
      "kne": 5756,
      "nedover": 5757,
      "By": 5758,
      "61": 5759,
      "NO": 5760,
      "##ther": 5761,
      "ressur": 5762,
      "sein": 5763,
      "spesielle": 5764,
      "steg": 5765,
      ".).": 5766,
      "avhengig": 5767,
      "reiser": 5768,
      "flert": 5769,
      "kommuner": 5770,
      "##ielt": 5771,
      "dog": 5772,
      "kjenn": 5773,
      "Rog": 5774,
      "anledning": 5775,
      "Stud": 5776,
      "##holm": 5777,
      "ner": 5778,
      "##KK": 5779,
      "trygg": 5780,
      "Tromsø": 5781,
      "derimot": 5782,
      "##engt": 5783,
      "sex": 5784,
      "hende": 5785,
      "##anke": 5786,
      "band": 5787,
      "motor": 5788,
      "##omen": 5789,
      "omfatter": 5790,
      "akse": 5791,
      "400": 5792,
      "##stående": 5793,
      "Arbeider": 5794,
      "##ines": 5795,
      "felt": 5796,
      "Ra": 5797,
      "300": 5798,
      "##naden": 5799,
      "??": 5800,
      "vilkår": 5801,
      "heile": 5802,
      "spørre": 5803,
      "1970": 5804,
      "drive": 5805,
      "eventuelt": 5806,
      "Sjø": 5807,
      "##nær": 5808,
      "##ock": 5809,
      "##åp": 5810,
      "Dra": 5811,
      "moren": 5812,
      "##person": 5813,
      "##rede": 5814,
      "sammens": 5815,
      "##erie": 5816,
      "##ause": 5817,
      "##ølv": 5818,
      "serv": 5819,
      "hår": 5820,
      "##vard": 5821,
      "bære": 5822,
      "##iets": 5823,
      "Norske": 5824,
      "hov": 5825,
      "sand": 5826,
      "##ips": 5827,
      "fan": 5828,
      "amb": 5829,
      "##skl": 5830,
      "##orm": 5831,
      "bus": 5832,
      "##jeld": 5833,
      "##stedet": 5834,
      "anna": 5835,
      "Sa": 5836,
      "skyldes": 5837,
      "##smannen": 5838,
      "ufor": 5839,
      "eksister": 5840,
      "lengre": 5841,
      "Sen": 5842,
      "nikket": 5843,
      "mamma": 5844,
      "hjert": 5845,
      "##kninger": 5846,
      "erstat": 5847,
      "##aden": 5848,
      "inkluder": 5849,
      "frivil": 5850,
      "##useum": 5851,
      "Intern": 5852,
      "##akte": 5853,
      "frit": 5854,
      "stirret": 5855,
      "##hov": 5856,
      "flykt": 5857,
      "##hund": 5858,
      "hest": 5859,
      "Ang": 5860,
      "##otte": 5861,
      "##histor": 5862,
      "sikt": 5863,
      "dobb": 5864,
      "utvid": 5865,
      "Dessuten": 5866,
      "67": 5867,
      "lager": 5868,
      "Eli": 5869,
      "Kro": 5870,
      "Ben": 5871,
      "Veg": 5872,
      "##amb": 5873,
      "frist": 5874,
      "sold": 5875,
      "salt": 5876,
      "##TER": 5877,
      "forfatter": 5878,
      "62": 5879,
      "##tning": 5880,
      "oppgave": 5881,
      "nummer": 5882,
      "dvs": 5883,
      "##ismen": 5884,
      "Liv": 5885,
      "Ly": 5886,
      "Post": 5887,
      "ligge": 5888,
      "prim": 5889,
      "mørke": 5890,
      "via": 5891,
      "##ksjonen": 5892,
      "##eningen": 5893,
      "opplæring": 5894,
      "##anna": 5895,
      "fare": 5896,
      "slapp": 5897,
      "kommunene": 5898,
      "tyske": 5899,
      "vide": 5900,
      "##sal": 5901,
      "kontor": 5902,
      "##amen": 5903,
      "elem": 5904,
      "Ifølge": 5905,
      "trafikk": 5906,
      "møtte": 5907,
      "Em": 5908,
      "Lind": 5909,
      "##smid": 5910,
      "ment": 5911,
      "engas": 5912,
      "Videre": 5913,
      "##frå": 5914,
      "##istene": 5915,
      "hjerte": 5916,
      "Bø": 5917,
      "sjef": 5918,
      "alminn": 5919,
      "dens": 5920,
      "høye": 5921,
      "##resse": 5922,
      "periode": 5923,
      "vilde": 5924,
      "##ash": 5925,
      "standard": 5926,
      "munnen": 5927,
      "We": 5928,
      "##inntekt": 5929,
      "lettere": 5930,
      "altfor": 5931,
      "Folk": 5932,
      "struktur": 5933,
      "Mus": 5934,
      "Art": 5935,
      ".\"": 5936,
      "2010": 5937,
      ".\"\"\"\"": 5938,
      "Dermed": 5939,
      "Vik": 5940,
      "log": 5941,
      "##out": 5942,
      "Wh": 5943,
      "sje": 5944,
      "##spe": 5945,
      "##bladet": 5946,
      "##kort": 5947,
      "England": 5948,
      "##esjon": 5949,
      "Mark": 5950,
      "opt": 5951,
      "Deres": 5952,
      "2013": 5953,
      "utviklet": 5954,
      "##pris": 5955,
      "bevil": 5956,
      "71": 5957,
      "natten": 5958,
      "Ven": 5959,
      "ni": 5960,
      "##attes": 5961,
      "vurdere": 5962,
      "##ton": 5963,
      "##vn": 5964,
      "64": 5965,
      "63": 5966,
      "##port": 5967,
      "strid": 5968,
      "##yp": 5969,
      "torsdag": 5970,
      "##amme": 5971,
      "##edre": 5972,
      "selvfølgelig": 5973,
      "##esse": 5974,
      "2008": 5975,
      "##drene": 5976,
      "tilh": 5977,
      "##edie": 5978,
      "##dyr": 5979,
      "registr": 5980,
      "##igh": 5981,
      "svarer": 5982,
      "mistet": 5983,
      "amerikanske": 5984,
      "2006": 5985,
      "##kkende": 5986,
      "##jar": 5987,
      "spen": 5988,
      "tilkny": 5989,
      "forrige": 5990,
      "orden": 5991,
      "##yggelig": 5992,
      "Hand": 5993,
      "hud": 5994,
      "were": 5995,
      "1989": 5996,
      "fro": 5997,
      "vanlige": 5998,
      "strå": 5999,
      "##stav": 6000,
      "velger": 6001,
      "##sopp": 6002,
      "##wo": 6003,
      "alternativ": 6004,
      "kalt": 6005,
      "##kor": 6006,
      "bedrifter": 6007,
      "##orgensending": 6008,
      "søke": 6009,
      "66": 6010,
      "forek": 6011,
      "2007": 6012,
      "##rab": 6013,
      "øvrig": 6014,
      "##angel": 6015,
      "Mol": 6016,
      "driver": 6017,
      "York": 6018,
      "grep": 6019,
      "##olusjon": 6020,
      "##forening": 6021,
      "gjennomført": 6022,
      "##PP": 6023,
      "integ": 6024,
      "regjeringen": 6025,
      "presse": 6026,
      "het": 6027,
      "David": 6028,
      "##okka": 6029,
      "pust": 6030,
      "##ena": 6031,
      "rent": 6032,
      "respekt": 6033,
      "##ley": 6034,
      "konkurranse": 6035,
      "jur": 6036,
      "IN": 6037,
      "såtte": 6038,
      "2009": 6039,
      "Di": 6040,
      "svak": 6041,
      "Universitet": 6042,
      "Thomas": 6043,
      "##EG": 6044,
      "aktuelle": 6045,
      "klarer": 6046,
      "##ometer": 6047,
      "##uk": 6048,
      "##ikal": 6049,
      "Hø": 6050,
      "tjenester": 6051,
      "synd": 6052,
      "92": 6053,
      "Je": 6054,
      "merket": 6055,
      "93": 6056,
      "##ksjoner": 6057,
      "unntak": 6058,
      "just": 6059,
      "81": 6060,
      "sitte": 6061,
      "sår": 6062,
      "kombin": 6063,
      "##umenter": 6064,
      "##slin": 6065,
      "##ues": 6066,
      "##ives": 6067,
      "tråd": 6068,
      "##siden": 6069,
      "##stilt": 6070,
      "##ktoratet": 6071,
      "typ": 6072,
      "formål": 6073,
      "##vest": 6074,
      "##enen": 6075,
      "##asen": 6076,
      "anvend": 6077,
      "kop": 6078,
      "##oter": 6079,
      "Si": 6080,
      "beskriv": 6081,
      "##EM": 6082,
      "selvsagt": 6083,
      "fullstendig": 6084,
      "77": 6085,
      "##nere": 6086,
      "##urder": 6087,
      "kapital": 6088,
      "Ex": 6089,
      "##inst": 6090,
      "Bod": 6091,
      "medisin": 6092,
      "82": 6093,
      "can": 6094,
      "##verks": 6095,
      "Direkte": 6096,
      "##SEN": 6097,
      "rolig": 6098,
      ");": 6099,
      "prem": 6100,
      "str": 6101,
      "kul": 6102,
      "kontrol": 6103,
      "tvang": 6104,
      "sendte": 6105,
      "publikum": 6106,
      "2011": 6107,
      "supp": 6108,
      "vers": 6109,
      "samsvar": 6110,
      "politikk": 6111,
      "utgjør": 6112,
      "2012": 6113,
      "former": 6114,
      "Ord": 6115,
      "sir": 6116,
      "faste": 6117,
      "mennesket": 6118,
      "sommeren": 6119,
      "72": 6120,
      "bad": 6121,
      "Gar": 6122,
      "skaffe": 6123,
      "væ": 6124,
      "we": 6125,
      "##stol": 6126,
      "182": 6127,
      "##instit": 6128,
      "Gnr": 6129,
      "gu": 6130,
      "blikket": 6131,
      "avgift": 6132,
      "onsdag": 6133,
      "##flikt": 6134,
      "sjel": 6135,
      "69": 6136,
      "##selen": 6137,
      "Mand": 6138,
      "trans": 6139,
      "utform": 6140,
      "spilte": 6141,
      "sykdom": 6142,
      "##elem": 6143,
      "omfattende": 6144,
      "universitet": 6145,
      "##slig": 6146,
      "##antene": 6147,
      "åra": 6148,
      "##risk": 6149,
      "##plassen": 6150,
      "##tert": 6151,
      "##legge": 6152,
      "##jema": 6153,
      "##ism": 6154,
      "##brudd": 6155,
      "tilstrekkelig": 6156,
      "##strøm": 6157,
      "##gje": 6158,
      "osv": 6159,
      "Hver": 6160,
      "formann": 6161,
      "bank": 6162,
      "##oten": 6163,
      "absol": 6164,
      "vakt": 6165,
      "SV": 6166,
      "Kristians": 6167,
      "reaksjon": 6168,
      "innb": 6169,
      "##vokat": 6170,
      "frukt": 6171,
      "##etning": 6172,
      "1988": 6173,
      "##skilt": 6174,
      "Då": 6175,
      "delvis": 6176,
      "middag": 6177,
      "settes": 6178,
      "VI": 6179,
      "journal": 6180,
      "##produksjon": 6181,
      "##må": 6182,
      "##band": 6183,
      "##verdi": 6184,
      "Val": 6185,
      "konf": 6186,
      "øvrige": 6187,
      "hovedsak": 6188,
      "bill": 6189,
      "Gro": 6190,
      "Kultur": 6191,
      "personlig": 6192,
      "Cl": 6193,
      "ka": 6194,
      "##barn": 6195,
      "tri": 6196,
      "gjaldt": 6197,
      "74": 6198,
      "am": 6199,
      "SK": 6200,
      "##ska": 6201,
      "##iseres": 6202,
      "##havn": 6203,
      "lid": 6204,
      "##øtet": 6205,
      "trening": 6206,
      "litteratur": 6207,
      "bestemmelser": 6208,
      "bøker": 6209,
      "pappa": 6210,
      "Ek": 6211,
      "Gu": 6212,
      "foreldrene": 6213,
      "spar": 6214,
      "fylkeskommun": 6215,
      "##atn": 6216,
      "##former": 6217,
      "våpen": 6218,
      "kalles": 6219,
      "##skog": 6220,
      "150": 6221,
      "falt": 6222,
      "##istet": 6223,
      "##dommer": 6224,
      "høsten": 6225,
      "##området": 6226,
      "##ho": 6227,
      "Jak": 6228,
      "kirken": 6229,
      "umulig": 6230,
      "ettermid": 6231,
      "innhold": 6232,
      "forsøkte": 6233,
      "qu": 6234,
      "stiller": 6235,
      "##DE": 6236,
      "##avgift": 6237,
      "oppd": 6238,
      "vitenskap": 6239,
      "##messig": 6240,
      "Inter": 6241,
      "dokumentar": 6242,
      "##aner": 6243,
      "løftet": 6244,
      "##bane": 6245,
      "spill": 6246,
      "nam": 6247,
      "spis": 6248,
      "Kol": 6249,
      "sag": 6250,
      "undervisning": 6251,
      "##essor": 6252,
      "klo": 6253,
      "Andreas": 6254,
      "vend": 6255,
      "##spart": 6256,
      "forsiktig": 6257,
      "##ryt": 6258,
      "Fro": 6259,
      "fortsetter": 6260,
      "##ité": 6261,
      "nyheter": 6262,
      "rimelig": 6263,
      "##grep": 6264,
      "##AV": 6265,
      "Andersen": 6266,
      "alko": 6267,
      "##asjonene": 6268,
      "grund": 6269,
      "praktisk": 6270,
      "klokken": 6271,
      "typer": 6272,
      "Lund": 6273,
      "Del": 6274,
      "husker": 6275,
      "håret": 6276,
      "flytte": 6277,
      "Carl": 6278,
      "##ionen": 6279,
      "jakt": 6280,
      "##ala": 6281,
      "sko": 6282,
      "##gi": 6283,
      "halvt": 6284,
      "prp": 6285,
      "konkl": 6286,
      "europe": 6287,
      "konser": 6288,
      "Larsen": 6289,
      "Mr": 6290,
      "##sny": 6291,
      "gården": 6292,
      "##ep": 6293,
      "up": 6294,
      "Gra": 6295,
      "kjørte": 6296,
      "konst": 6297,
      "arbeidspl": 6298,
      "gjeldende": 6299,
      "Jord": 6300,
      "tider": 6301,
      "instru": 6302,
      "##ellene": 6303,
      "##kjenn": 6304,
      "begynnelsen": 6305,
      "##ringe": 6306,
      "##ssp": 6307,
      "utr": 6308,
      "bre": 6309,
      "kjenne": 6310,
      "##partement": 6311,
      "##US": 6312,
      "forhandling": 6313,
      "oppdaget": 6314,
      "##andid": 6315,
      "##ear": 6316,
      "tils": 6317,
      "Bet": 6318,
      "##asin": 6319,
      "OL": 6320,
      "73": 6321,
      "##za": 6322,
      "##jøen": 6323,
      "trolig": 6324,
      "spise": 6325,
      "stoff": 6326,
      "##igen": 6327,
      "##visjon": 6328,
      "##jener": 6329,
      "Departementet": 6330,
      "##UR": 6331,
      "Po": 6332,
      "Gunnar": 6333,
      "Hall": 6334,
      "Gener": 6335,
      "avdeling": 6336,
      "fantast": 6337,
      "kjøpte": 6338,
      "##rapp": 6339,
      "tillit": 6340,
      "##etil": 6341,
      "##skriv": 6342,
      "regnskap": 6343,
      "##UL": 6344,
      "motstand": 6345,
      "omgang": 6346,
      "##ingsm": 6347,
      "ekst": 6348,
      "trykk": 6349,
      "faller": 6350,
      "Red": 6351,
      "hil": 6352,
      "Fig": 6353,
      "##beg": 6354,
      "##litt": 6355,
      "##sr": 6356,
      "mere": 6357,
      "bakken": 6358,
      "It": 6359,
      "ansvaret": 6360,
      "##arbeider": 6361,
      "avgjørende": 6362,
      "##fort": 6363,
      "##ikkerhet": 6364,
      "skritt": 6365,
      "76": 6366,
      "Tur": 6367,
      "1987": 6368,
      "stående": 6369,
      "rapport": 6370,
      "##oks": 6371,
      "nærmest": 6372,
      "trengte": 6373,
      "bot": 6374,
      "strøm": 6375,
      "subst": 6376,
      "således": 6377,
      "bos": 6378,
      "løsning": 6379,
      "##cts": 6380,
      "intervju": 6381,
      "Bak": 6382,
      ")\"\"": 6383,
      "vond": 6384,
      "styret": 6385,
      "##innen": 6386,
      "glem": 6387,
      "rettet": 6388,
      "tab": 6389,
      "##ific": 6390,
      "98": 6391,
      "gård": 6392,
      "Famil": 6393,
      "##atiske": 6394,
      "##lie": 6395,
      "94": 6396,
      "Hell": 6397,
      "kryss": 6398,
      "##resent": 6399,
      "levende": 6400,
      "68": 6401,
      "ed": 6402,
      "one": 6403,
      "Les": 6404,
      "gren": 6405,
      "##melding": 6406,
      "78": 6407,
      "##ysten": 6408,
      "seng": 6409,
      "##isa": 6410,
      "jobbe": 6411,
      "dess": 6412,
      "oppgåver": 6413,
      "##vent": 6414,
      "AV": 6415,
      "##kers": 6416,
      "gratis": 6417,
      "ru": 6418,
      "##dommen": 6419,
      "aktiv": 6420,
      "Nattsending": 6421,
      "##ninga": 6422,
      "86": 6423,
      "regnet": 6424,
      "##gifter": 6425,
      "sving": 6426,
      "ytterligere": 6427,
      "Likevel": 6428,
      "hender": 6429,
      "slår": 6430,
      "Folke": 6431,
      "venter": 6432,
      "spennende": 6433,
      "##iør": 6434,
      "##ii": 6435,
      "ryd": 6436,
      "hvilket": 6437,
      "elsker": 6438,
      "##fjell": 6439,
      "rut": 6440,
      "forståelse": 6441,
      "redusert": 6442,
      "Ga": 6443,
      "##tene": 6444,
      "uttal": 6445,
      "varier": 6446,
      "fritt": 6447,
      "utsatt": 6448,
      "været": 6449,
      "opplever": 6450,
      "##sleder": 6451,
      "1985": 6452,
      "gruppen": 6453,
      "##ennene": 6454,
      "framtid": 6455,
      "Midt": 6456,
      "nytte": 6457,
      "fornøyd": 6458,
      "##skraft": 6459,
      "tanken": 6460,
      "insp": 6461,
      "utenland": 6462,
      "##olum": 6463,
      "##ndelag": 6464,
      "brit": 6465,
      "port": 6466,
      "##ksten": 6467,
      "##ssjef": 6468,
      "ori": 6469,
      "##synet": 6470,
      "kommunikasjon": 6471,
      "NOR": 6472,
      "##elskap": 6473,
      "Mod": 6474,
      "kaller": 6475,
      "lover": 6476,
      "##sent": 6477,
      "##gere": 6478,
      "##igt": 6479,
      "##<<": 6480,
      "skil": 6481,
      "2020": 6482,
      "##hel": 6483,
      "Forsk": 6484,
      "diskusjon": 6485,
      "kapit": 6486,
      "##rop": 6487,
      "delta": 6488,
      "russ": 6489,
      "Jacob": 6490,
      "1986": 6491,
      "##esen": 6492,
      "88": 6493,
      "spred": 6494,
      "historien": 6495,
      "kvinnen": 6496,
      "tilhør": 6497,
      "Tabell": 6498,
      "##egen": 6499,
      "grønn": 6500,
      "undert": 6501,
      "##ppene": 6502,
      "##con": 6503,
      "Maria": 6504,
      "tanker": 6505,
      "##ague": 6506,
      "dekket": 6507,
      "normalt": 6508,
      "##utvikling": 6509,
      "##ames": 6510,
      "ær": 6511,
      "##ams": 6512,
      "Ni": 6513,
      "vanligvis": 6514,
      "##årene": 6515,
      "høst": 6516,
      "Kva": 6517,
      "enkel": 6518,
      "##lær": 6519,
      "##rette": 6520,
      "fig": 6521,
      "Frankrike": 6522,
      "##veis": 6523,
      "Kongen": 6524,
      "##vise": 6525,
      "##ove": 6526,
      "relev": 6527,
      "Rad": 6528,
      "##ould": 6529,
      "Mat": 6530,
      "##arm": 6531,
      "##hjem": 6532,
      "nødvendige": 6533,
      "skaper": 6534,
      "84": 6535,
      "Do": 6536,
      "##sem": 6537,
      "Mic": 6538,
      "generelt": 6539,
      "Kjell": 6540,
      "Pet": 6541,
      "kjøpt": 6542,
      "##sdtr": 6543,
      "##æg": 6544,
      "øker": 6545,
      "79": 6546,
      "fær": 6547,
      "##skom": 6548,
      "kamer": 6549,
      "##jent": 6550,
      "##RI": 6551,
      "havet": 6552,
      "havde": 6553,
      "dyp": 6554,
      "##yng": 6555,
      "heilt": 6556,
      "møn": 6557,
      "##ora": 6558,
      "Phil": 6559,
      "Alex": 6560,
      "skogen": 6561,
      "demokrat": 6562,
      "president": 6563,
      "Øv": 6564,
      "kjemp": 6565,
      "løse": 6566,
      "sjelden": 6567,
      "Beste": 6568,
      "byr": 6569,
      "##NE": 6570,
      "##egående": 6571,
      "div": 6572,
      "yt": 6573,
      "Byg": 6574,
      "administrasjon": 6575,
      "øver": 6576,
      "inntrykk": 6577,
      "##elske": 6578,
      "total": 6579,
      "gled": 6580,
      "gru": 6581,
      "##osof": 6582,
      "1960": 6583,
      "økonomi": 6584,
      "##nok": 6585,
      "lån": 6586,
      "##ykke": 6587,
      "innsats": 6588,
      "##itz": 6589,
      "Grunn": 6590,
      "Ka": 6591,
      "anner": 6592,
      "perspekt": 6593,
      "Pedersen": 6594,
      "symb": 6595,
      "bidrag": 6596,
      "##vensjon": 6597,
      "##industri": 6598,
      "##prø": 6599,
      "##ssystem": 6600,
      "Mos": 6601,
      "##enteret": 6602,
      "Mil": 6603,
      "Johansen": 6604,
      "Part": 6605,
      "toppen": 6606,
      "Trøndelag": 6607,
      "##sler": 6608,
      "##mund": 6609,
      "alkohol": 6610,
      "lun": 6611,
      "kone": 6612,
      "fortalt": 6613,
      "fal": 6614,
      "##sle": 6615,
      "aner": 6616,
      "nasjonale": 6617,
      "vent": 6618,
      "##lov": 6619,
      "linje": 6620,
      "Fly": 6621,
      "##aket": 6622,
      "##aver": 6623,
      "##ij": 6624,
      "##iens": 6625,
      "##område": 6626,
      "##ekan": 6627,
      "enig": 6628,
      "##saa": 6629,
      "Jakob": 6630,
      "ligg": 6631,
      "##lir": 6632,
      "drikke": 6633,
      "##emid": 6634,
      "streng": 6635,
      "inngå": 6636,
      "TIL": 6637,
      "##aly": 6638,
      "utført": 6639,
      "bygger": 6640,
      "Noe": 6641,
      "jenter": 6642,
      "##ommene": 6643,
      "tilt": 6644,
      "kommunest": 6645,
      "##anner": 6646,
      "Morgensending": 6647,
      "million": 6648,
      "rot": 6649,
      "planer": 6650,
      "89": 6651,
      "årets": 6652,
      "##kle": 6653,
      "83": 6654,
      "##ras": 6655,
      "##fi": 6656,
      "##blad": 6657,
      "andel": 6658,
      "vilje": 6659,
      "Må": 6660,
      "##zz": 6661,
      "annerledes": 6662,
      "bibliote": 6663,
      "smer": 6664,
      "svenske": 6665,
      "##endom": 6666,
      "been": 6667,
      "positive": 6668,
      "out": 6669,
      "##samling": 6670,
      "hente": 6671,
      "borger": 6672,
      "##sdal": 6673,
      "Høyre": 6674,
      "Tru": 6675,
      "more": 6676,
      "Kari": 6677,
      "87": 6678,
      "##loven": 6679,
      "differ": 6680,
      "179": 6681,
      "##vind": 6682,
      "lat": 6683,
      "hentet": 6684,
      "##istikk": 6685,
      "fortel": 6686,
      "Histor": 6687,
      "##atelse": 6688,
      "##ics": 6689,
      "oppfyl": 6690,
      "##itekt": 6691,
      "avtalen": 6692,
      "forbud": 6693,
      "##wn": 6694,
      "##bjørn": 6695,
      "snakk": 6696,
      "hard": 6697,
      "##).": 6698,
      "legg": 6699,
      "Fisk": 6700,
      "est": 6701,
      "sosi": 6702,
      "interessert": 6703,
      "jobbet": 6704,
      "##ival": 6705,
      "##alla": 6706,
      "forskrift": 6707,
      "##vig": 6708,
      "##vi": 6709,
      "import": 6710,
      "gulvet": 6711,
      "strand": 6712,
      "fing": 6713,
      "møtet": 6714,
      "Alf": 6715,
      "dypt": 6716,
      "øye": 6717,
      "rike": 6718,
      "regne": 6719,
      "##vne": 6720,
      "kron": 6721,
      "Paris": 6722,
      "plikt": 6723,
      "invol": 6724,
      "##felt": 6725,
      "stykke": 6726,
      "96": 6727,
      "##iar": 6728,
      "bygde": 6729,
      "##jennom": 6730,
      "neppe": 6731,
      "restaur": 6732,
      "avstand": 6733,
      "konflikt": 6734,
      "boken": 6735,
      "##resten": 6736,
      "tirsdag": 6737,
      "##orld": 6738,
      "helhet": 6739,
      "##atten": 6740,
      "##vidt": 6741,
      "111": 6742,
      "##ørsmål": 6743,
      "##RO": 6744,
      "ende": 6745,
      "##sprogram": 6746,
      "registrert": 6747,
      "vill": 6748,
      "##slov": 6749,
      "søster": 6750,
      "artikkel": 6751,
      "##ktet": 6752,
      "vider": 6753,
      "##offer": 6754,
      "kund": 6755,
      "their": 6756,
      "other": 6757,
      "adgang": 6758,
      "##ament": 6759,
      "ug": 6760,
      "kjøtt": 6761,
      "mandag": 6762,
      "##verre": 6763,
      "leie": 6764,
      "forvent": 6765,
      "lette": 6766,
      "kred": 6767,
      "stab": 6768,
      "endret": 6769,
      "livs": 6770,
      "fengsel": 6771,
      "Forsvar": 6772,
      "##øye": 6773,
      "totalt": 6774,
      "1984": 6775,
      "still": 6776,
      "##ania": 6777,
      "gutten": 6778,
      "temperatur": 6779,
      "Ivar": 6780,
      "##ordning": 6781,
      "arbeidsgiver": 6782,
      "kjel": 6783,
      "Svein": 6784,
      "Bør": 6785,
      "Amerika": 6786,
      "nevnte": 6787,
      "Vis": 6788,
      "lege": 6789,
      "##egor": 6790,
      "Eid": 6791,
      "svare": 6792,
      "posisjon": 6793,
      "utel": 6794,
      "farge": 6795,
      "Russland": 6796,
      "Tek": 6797,
      "##ution": 6798,
      "##ryg": 6799,
      "Result": 6800,
      "bind": 6801,
      "skjønner": 6802,
      "Finnmark": 6803,
      "Nyheter": 6804,
      "kommunale": 6805,
      "##amin": 6806,
      "hyl": 6807,
      "bygning": 6808,
      "##slige": 6809,
      "nødt": 6810,
      "armen": 6811,
      "##øyer": 6812,
      "minne": 6813,
      "##lade": 6814,
      "åt": 6815,
      "##hjelp": 6816,
      "##somme": 6817,
      "##vekt": 6818,
      "overbe": 6819,
      "##DAG": 6820,
      "Id": 6821,
      "boka": 6822,
      "prosess": 6823,
      "##...": 6824,
      "##ities": 6825,
      "valgte": 6826,
      "etablert": 6827,
      "##mma": 6828,
      "Tra": 6829,
      "##legger": 6830,
      "resultatet": 6831,
      "tonn": 6832,
      "veit": 6833,
      "##illere": 6834,
      "behandlet": 6835,
      "##hal": 6836,
      "utvalget": 6837,
      "fotograf": 6838,
      "##ape": 6839,
      "##formen": 6840,
      "lukket": 6841,
      "will": 6842,
      "ør": 6843,
      "Marit": 6844,
      "ønsk": 6845,
      "vand": 6846,
      "Nes": 6847,
      "bist": 6848,
      "blomster": 6849,
      "vedtatt": 6850,
      "vedlike": 6851,
      "##enden": 6852,
      "##enterte": 6853,
      "utred": 6854,
      "DN": 6855,
      "Nær": 6856,
      "religi": 6857,
      "##odd": 6858,
      "dobbelt": 6859,
      "##bel": 6860,
      "##ada": 6861,
      "Holm": 6862,
      "Dr": 6863,
      "lyset": 6864,
      "uk": 6865,
      "vinduet": 6866,
      "Pol": 6867,
      "likte": 6868,
      "comp": 6869,
      "##vo": 6870,
      "##rense": 6871,
      "sil": 6872,
      "League": 6873,
      "pengene": 6874,
      "Frem": 6875,
      "Dags": 6876,
      "Van": 6877,
      "reglene": 6878,
      "Regjeringen": 6879,
      "##tten": 6880,
      "##innene": 6881,
      "muligheten": 6882,
      "mangler": 6883,
      "dating": 6884,
      "fisker": 6885,
      "bror": 6886,
      "latter": 6887,
      "våren": 6888,
      "Hadde": 6889,
      "##lim": 6890,
      "gn": 6891,
      "##EST": 6892,
      "##handler": 6893,
      "##øyet": 6894,
      "##råket": 6895,
      "konge": 6896,
      "Fre": 6897,
      "##oper": 6898,
      "##ikerne": 6899,
      "initi": 6900,
      "Mc": 6901,
      "Blant": 6902,
      "drept": 6903,
      "drev": 6904,
      "##inene": 6905,
      "##jort": 6906,
      "resultater": 6907,
      "interessant": 6908,
      "kjøper": 6909,
      "##ulere": 6910,
      "175": 6911,
      "mobil": 6912,
      "##she": 6913,
      "sørge": 6914,
      "mangel": 6915,
      "fine": 6916,
      "grunnlegg": 6917,
      "evne": 6918,
      "1981": 6919,
      "hjelper": 6920,
      "opps": 6921,
      "nærheten": 6922,
      "stemmen": 6923,
      "##aard": 6924,
      "avd": 6925,
      "##jenesten": 6926,
      "Sammen": 6927,
      "Tro": 6928,
      "gjent": 6929,
      "innvand": 6930,
      "##ansvar": 6931,
      "stede": 6932,
      "sølv": 6933,
      "utgangspunktet": 6934,
      "sterkere": 6935,
      "økte": 6936,
      "Fo": 6937,
      "##ørene": 6938,
      "ovenfor": 6939,
      "##endal": 6940,
      "go": 6941,
      "##krig": 6942,
      "Hot": 6943,
      "utv": 6944,
      "##kkene": 6945,
      "besky": 6946,
      "kongen": 6947,
      "##saker": 6948,
      "👨🏽": 6949,
      "👨🏿": 6950,
      "👨🏾": 6951,
      "👨🏼": 6952,
      "👨🏻": 6953,
      "👩🏽": 6954,
      "👩🏿": 6955,
      "👩🏾": 6956,
      "👩🏼": 6957,
      "👩🏻": 6958,
      "handel": 6959,
      "Bruk": 6960,
      "grunnen": 6961,
      "Isra": 6962,
      "This": 6963,
      "begrenset": 6964,
      "Robert": 6965,
      "røde": 6966,
      "##strid": 6967,
      "yrke": 6968,
      "merk": 6969,
      "##bro": 6970,
      "objekt": 6971,
      "skille": 6972,
      "Can": 6973,
      "##merket": 6974,
      "forel": 6975,
      "##elset": 6976,
      "##ular": 6977,
      "##SB": 6978,
      "lavt": 6979,
      "##rip": 6980,
      "tilgang": 6981,
      "hemmelig": 6982,
      "##bed": 6983,
      "armene": 6984,
      "##ullet": 6985,
      "##sarbeid": 6986,
      "systemet": 6987,
      "vondt": 6988,
      "Jer": 6989,
      "preget": 6990,
      "landets": 6991,
      "fysisk": 6992,
      "##jed": 6993,
      "Gi": 6994,
      "##stillinger": 6995,
      "##30": 6996,
      "redusere": 6997,
      "kristne": 6998,
      "##rettet": 6999,
      "verdier": 7000,
      "såkalte": 7001,
      "##ellem": 7002,
      "##vesen": 7003,
      "##annelse": 7004,
      "##ns": 7005,
      "absolutt": 7006,
      "midten": 7007,
      "##orene": 7008,
      "skjel": 7009,
      "angrep": 7010,
      "neder": 7011,
      "statsb": 7012,
      "begrunn": 7013,
      "utl": 7014,
      "enkle": 7015,
      "##yk": 7016,
      "Hed": 7017,
      "tilsk": 7018,
      "spre": 7019,
      "##fr": 7020,
      "##undersøk": 7021,
      "Magnus": 7022,
      "hode": 7023,
      "videregående": 7024,
      "##ited": 7025,
      "sluttet": 7026,
      "##adem": 7027,
      "sle": 7028,
      "markedet": 7029,
      "##alder": 7030,
      "##øyt": 7031,
      "##iering": 7032,
      "##egnet": 7033,
      "dreier": 7034,
      "Deretter": 7035,
      "##inal": 7036,
      "##ola": 7037,
      "målet": 7038,
      "illust": 7039,
      "utny": 7040,
      "garden": 7041,
      "redu": 7042,
      "##prosjekt": 7043,
      "sikte": 7044,
      "trener": 7045,
      "Pe": 7046,
      "##mester": 7047,
      "##ona": 7048,
      "foreligger": 7049,
      "##ege": 7050,
      "Ragn": 7051,
      "##urens": 7052,
      "berg": 7053,
      "skad": 7054,
      "def": 7055,
      "##uf": 7056,
      "##iff": 7057,
      "may": 7058,
      "600": 7059,
      "##velop": 7060,
      "autom": 7061,
      "begynt": 7062,
      "Na": 7063,
      "Begge": 7064,
      "##sgrupp": 7065,
      "fantes": 7066,
      "##ating": 7067,
      "størrelse": 7068,
      "galt": 7069,
      "##verdig": 7070,
      "##talen": 7071,
      "##ømme": 7072,
      "##ordin": 7073,
      "etterpå": 7074,
      "ivaret": 7075,
      "kob": 7076,
      "##hvert": 7077,
      "Syn": 7078,
      "trekker": 7079,
      "Hov": 7080,
      "1950": 7081,
      "FN": 7082,
      "rene": 7083,
      "bøl": 7084,
      "fjerde": 7085,
      "smør": 7086,
      "yrkes": 7087,
      "avsnitt": 7088,
      "kilometer": 7089,
      "flertall": 7090,
      "##kjøp": 7091,
      "##ween": 7092,
      "pst": 7093,
      "##giver": 7094,
      "forslaget": 7095,
      "Li": 7096,
      "##vekst": 7097,
      "-\"\"": 7098,
      "ristet": 7099,
      "sykeple": 7100,
      "Halvor": 7101,
      "oppover": 7102,
      "##elde": 7103,
      "hovud": 7104,
      "##ror": 7105,
      "also": 7106,
      "##yer": 7107,
      "Hele": 7108,
      "sjøen": 7109,
      "nekt": 7110,
      "ressurser": 7111,
      "##liv": 7112,
      "Ør": 7113,
      "gjennomføre": 7114,
      "Fe": 7115,
      "Kat": 7116,
      "##lass": 7117,
      "##elling": 7118,
      "kontin": 7119,
      "gal": 7120,
      "SP": 7121,
      "Pris": 7122,
      "pasient": 7123,
      "##ama": 7124,
      "disp": 7125,
      "Mål": 7126,
      "ler": 7127,
      "båten": 7128,
      "kvalif": 7129,
      "action": 7130,
      "huske": 7131,
      "landsb": 7132,
      "cons": 7133,
      "overfl": 7134,
      "oppfatning": 7135,
      "1000": 7136,
      "Natur": 7137,
      "##banen": 7138,
      "Jensen": 7139,
      "##ulen": 7140,
      "sats": 7141,
      "dep": 7142,
      "parker": 7143,
      "##ønn": 7144,
      "1979": 7145,
      "1982": 7146,
      "vakre": 7147,
      "Matt": 7148,
      "fremme": 7149,
      "Einar": 7150,
      "1977": 7151,
      "mass": 7152,
      "##bygger": 7153,
      "direktør": 7154,
      "##udsjett": 7155,
      "1978": 7156,
      "utgifter": 7157,
      "virkning": 7158,
      "acc": 7159,
      "pedagog": 7160,
      "hvad": 7161,
      "##ella": 7162,
      "plassen": 7163,
      "fattig": 7164,
      "Ital": 7165,
      "##områder": 7166,
      "##vold": 7167,
      "halvparten": 7168,
      "##gjer": 7169,
      "##esser": 7170,
      "##asjonal": 7171,
      "eldste": 7172,
      "vik": 7173,
      "1983": 7174,
      "Sæ": 7175,
      "kolleg": 7176,
      "sinn": 7177,
      "musk": 7178,
      "Nilsen": 7179,
      "eval": 7180,
      "##ktoren": 7181,
      "##dalen": 7182,
      "kna": 7183,
      "runde": 7184,
      "##setninger": 7185,
      "Gran": 7186,
      "naturen": 7187,
      "verken": 7188,
      "Tore": 7189,
      "fjern": 7190,
      "##skol": 7191,
      "forplikt": 7192,
      "fremtid": 7193,
      "leir": 7194,
      "VG": 7195,
      "samle": 7196,
      "foruts": 7197,
      "forsvant": 7198,
      "##oms": 7199,
      "##urtig": 7200,
      "krimin": 7201,
      "innfly": 7202,
      "##lemmene": 7203,
      "kompl": 7204,
      "##gjort": 7205,
      "ytre": 7206,
      "forvaltning": 7207,
      "taler": 7208,
      "##bank": 7209,
      "overt": 7210,
      "##veks": 7211,
      "##chen": 7212,
      "##ferdig": 7213,
      "felle": 7214,
      "bokstav": 7215,
      "flott": 7216,
      "1975": 7217,
      "tilfredsst": 7218,
      "dele": 7219,
      "jorden": 7220,
      "tungt": 7221,
      "##ukket": 7222,
      "Fylke": 7223,
      "rapporter": 7224,
      "gong": 7225,
      "starter": 7226,
      "Sil": 7227,
      "identif": 7228,
      "Føl": 7229,
      "forklare": 7230,
      "##ktes": 7231,
      "føle": 7232,
      "##idar": 7233,
      "påpe": 7234,
      "##kan": 7235,
      "##delen": 7236,
      "kaffe": 7237,
      "forbered": 7238,
      "Ras": 7239,
      "forskjellig": 7240,
      "##ulerer": 7241,
      "##cess": 7242,
      "yngre": 7243,
      "frø": 7244,
      "##sled": 7245,
      "178": 7246,
      "vinteren": 7247,
      "taket": 7248,
      "innrø": 7249,
      "ordene": 7250,
      "1976": 7251,
      "Sos": 7252,
      "##erske": 7253,
      "nærmeste": 7254,
      "positiv": 7255,
      "sukker": 7256,
      "leser": 7257,
      "##ynt": 7258,
      "Tot": 7259,
      "hvisk": 7260,
      "##tein": 7261,
      "turen": 7262,
      "enige": 7263,
      "kjempe": 7264,
      "##han": 7265,
      "##nede": 7266,
      "håp": 7267,
      "erfaringer": 7268,
      "177": 7269,
      "Stra": 7270,
      "##ages": 7271,
      "åringen": 7272,
      "##hn": 7273,
      "##stemer": 7274,
      "veiled": 7275,
      "munn": 7276,
      "skjønte": 7277,
      "Strand": 7278,
      "kommentar": 7279,
      "sesong": 7280,
      "heng": 7281,
      "uv": 7282,
      "176": 7283,
      "frisk": 7284,
      "ordin": 7285,
      "forretning": 7286,
      "kok": 7287,
      "hor": 7288,
      "##NING": 7289,
      "lignende": 7290,
      "innlegg": 7291,
      "profesjon": 7292,
      "##asitet": 7293,
      "##yrk": 7294,
      "nedenfor": 7295,
      "fla": 7296,
      "Lo": 7297,
      "veggen": 7298,
      "##rørende": 7299,
      "tilgjengelig": 7300,
      "##spen": 7301,
      "Vir": 7302,
      "between": 7303,
      "len": 7304,
      "Ung": 7305,
      "bidrar": 7306,
      "drama": 7307,
      "behovet": 7308,
      "overrask": 7309,
      "Aften": 7310,
      "##jul": 7311,
      "representerer": 7312,
      "##nevnte": 7313,
      "##spr": 7314,
      "størst": 7315,
      "Just": 7316,
      "##skil": 7317,
      "fjerne": 7318,
      "menneskene": 7319,
      "Nordland": 7320,
      "stått": 7321,
      "##kre": 7322,
      "stanset": 7323,
      "prisen": 7324,
      "IV": 7325,
      "hang": 7326,
      "langsomt": 7327,
      "##føringen": 7328,
      "avvik": 7329,
      "veks": 7330,
      "verre": 7331,
      "##irektoratet": 7332,
      "##bert": 7333,
      "##æs": 7334,
      "##bær": 7335,
      "##EF": 7336,
      "##iseringen": 7337,
      "fungerer": 7338,
      "lands": 7339,
      "handels": 7340,
      "umiddel": 7341,
      "son": 7342,
      "##orgen": 7343,
      "milliarder": 7344,
      "utlandet": 7345,
      "vass": 7346,
      "##imensjon": 7347,
      "##seth": 7348,
      "benyttes": 7349,
      "Ned": 7350,
      "måter": 7351,
      "there": 7352,
      "##posten": 7353,
      "##system": 7354,
      "erkl": 7355,
      "dru": 7356,
      "myndighet": 7357,
      "tend": 7358,
      "##ali": 7359,
      "##ransport": 7360,
      "hjertet": 7361,
      "Off": 7362,
      "fyller": 7363,
      "benyttet": 7364,
      "##aksim": 7365,
      "##mot": 7366,
      "risiko": 7367,
      "##ced": 7368,
      "areal": 7369,
      "800": 7370,
      "##rika": 7371,
      "Lag": 7372,
      "sengen": 7373,
      "himmelen": 7374,
      "Hav": 7375,
      "Norw": 7376,
      "observ": 7377,
      "spesiell": 7378,
      "##ænd": 7379,
      "##ible": 7380,
      "##10": 7381,
      "forholdene": 7382,
      "opphold": 7383,
      "##smessige": 7384,
      "##ttene": 7385,
      "biler": 7386,
      "Rik": 7387,
      "nokre": 7388,
      "måle": 7389,
      "Ger": 7390,
      "##ømm": 7391,
      "Norway": 7392,
      "ledelse": 7393,
      "##ieren": 7394,
      "they": 7395,
      "konsekvens": 7396,
      "problemet": 7397,
      "##ology": 7398,
      "##riske": 7399,
      "##struktur": 7400,
      "minutt": 7401,
      "butikk": 7402,
      "tilpass": 7403,
      "skikkelig": 7404,
      "skoler": 7405,
      "symp": 7406,
      "Col": 7407,
      "##fol": 7408,
      "Amer": 7409,
      "jub": 7410,
      "århund": 7411,
      "##anken": 7412,
      "##sessen": 7413,
      "Litt": 7414,
      "løsninger": 7415,
      "Form": 7416,
      "slippe": 7417,
      "##settelse": 7418,
      "hindre": 7419,
      "##plasser": 7420,
      "åpner": 7421,
      "effektiv": 7422,
      "##ørsmålet": 7423,
      "plast": 7424,
      "virksomheten": 7425,
      "emp": 7426,
      "produkter": 7427,
      "mennene": 7428,
      "##undt": 7429,
      "økning": 7430,
      "Op": 7431,
      "##ty": 7432,
      "soc": 7433,
      "##voll": 7434,
      "snar": 7435,
      "sektor": 7436,
      "Gjer": 7437,
      "PÅ": 7438,
      "administrat": 7439,
      "jente": 7440,
      "grense": 7441,
      "underholdning": 7442,
      "Rett": 7443,
      "##ca": 7444,
      "innstilling": 7445,
      "dial": 7446,
      "utrolig": 7447,
      "##sund": 7448,
      "omfang": 7449,
      "høyde": 7450,
      "##jorden": 7451,
      "korte": 7452,
      "##ittil": 7453,
      "egg": 7454,
      "oppmerksomhet": 7455,
      "you": 7456,
      "redde": 7457,
      "##cer": 7458,
      "reist": 7459,
      "klær": 7460,
      "svensk": 7461,
      "##ulering": 7462,
      "moral": 7463,
      "invest": 7464,
      "Takk": 7465,
      "##budet": 7466,
      "øre": 7467,
      "##arden": 7468,
      "##slet": 7469,
      "Marg": 7470,
      "1973": 7471,
      "##abeth": 7472,
      "##OS": 7473,
      "befolkningen": 7474,
      "##otter": 7475,
      "EM": 7476,
      "##nar": 7477,
      "##åte": 7478,
      "grunnleggende": 7479,
      "##kretær": 7480,
      "kle": 7481,
      "tlf": 7482,
      "Sær": 7483,
      "symbol": 7484,
      "1972": 7485,
      "undervis": 7486,
      "tilp": 7487,
      "myndigheter": 7488,
      "Mannen": 7489,
      "##skrig": 7490,
      "##fru": 7491,
      "planen": 7492,
      "Bok": 7493,
      "1974": 7494,
      "##onse": 7495,
      "rettigheter": 7496,
      "##behandling": 7497,
      "selger": 7498,
      "##løst": 7499,
      "gate": 7500,
      "##jøl": 7501,
      "reser": 7502,
      "##draget": 7503,
      "studer": 7504,
      "tabell": 7505,
      "##kir": 7506,
      "Instit": 7507,
      "##ollar": 7508,
      "modell": 7509,
      "act": 7510,
      "##rel": 7511,
      "kunstner": 7512,
      "fork": 7513,
      "lært": 7514,
      "##etting": 7515,
      "Dere": 7516,
      "Noreg": 7517,
      "kreve": 7518,
      "##eløpig": 7519,
      "hjør": 7520,
      "last": 7521,
      "endre": 7522,
      "stim": 7523,
      "grunner": 7524,
      "potens": 7525,
      "knapt": 7526,
      "##atnet": 7527,
      "tyder": 7528,
      "stilte": 7529,
      "organisasjoner": 7530,
      "Morten": 7531,
      "nøye": 7532,
      "sentralt": 7533,
      "##nivå": 7534,
      "##ahl": 7535,
      "##ior": 7536,
      "forsikring": 7537,
      "##start": 7538,
      "ske": 7539,
      "fylkes": 7540,
      "undersøkelse": 7541,
      "##IF": 7542,
      "nokså": 7543,
      "tunge": 7544,
      "eksempler": 7545,
      "frihet": 7546,
      "##rød": 7547,
      "pasienter": 7548,
      "initiativ": 7549,
      "etc": 7550,
      "intet": 7551,
      "foregår": 7552,
      "##ården": 7553,
      "dekke": 7554,
      "stolt": 7555,
      "##forbund": 7556,
      "spec": 7557,
      "Skog": 7558,
      "Met": 7559,
      "bedt": 7560,
      "##posisjon": 7561,
      "sies": 7562,
      "##splikt": 7563,
      "##fot": 7564,
      "##virkning": 7565,
      "##nor": 7566,
      "tann": 7567,
      "##50": 7568,
      "Helge": 7569,
      "##delt": 7570,
      "heldig": 7571,
      "erst": 7572,
      "firma": 7573,
      "pil": 7574,
      "brans": 7575,
      "dans": 7576,
      "taus": 7577,
      "Første": 7578,
      "##telse": 7579,
      "utfordring": 7580,
      "konsekvenser": 7581,
      "typen": 7582,
      "demon": 7583,
      "maskin": 7584,
      "talet": 7585,
      "##øde": 7586,
      "kyst": 7587,
      "##ject": 7588,
      "flest": 7589,
      "##ripe": 7590,
      "plassert": 7591,
      "Bes": 7592,
      "farlig": 7593,
      "Fotball": 7594,
      "melding": 7595,
      "foreta": 7596,
      "##appar": 7597,
      "Bodø": 7598,
      "korre": 7599,
      "åpent": 7600,
      "##orth": 7601,
      "##funnet": 7602,
      "brå": 7603,
      "status": 7604,
      "Aar": 7605,
      "Math": 7606,
      "Ring": 7607,
      "##ela": 7608,
      "##ipl": 7609,
      "korleis": 7610,
      "##liggende": 7611,
      "##sforhold": 7612,
      "Ju": 7613,
      "##bas": 7614,
      "brød": 7615,
      "blad": 7616,
      "trø": 7617,
      "studie": 7618,
      "##ivert": 7619,
      "##oller": 7620,
      "mørk": 7621,
      "Spes": 7622,
      "##ward": 7623,
      "##iment": 7624,
      "hyggelig": 7625,
      "##isp": 7626,
      "##aktør": 7627,
      "##fød": 7628,
      "##uste": 7629,
      "lur": 7630,
      "tilknytning": 7631,
      "sønnen": 7632,
      "Bon": 7633,
      "skapt": 7634,
      "presset": 7635,
      "tung": 7636,
      "tids": 7637,
      "tekniske": 7638,
      "1945": 7639,
      "Bill": 7640,
      "1800": 7641,
      "strøk": 7642,
      "had": 7643,
      "beløp": 7644,
      "hund": 7645,
      "normal": 7646,
      "passe": 7647,
      "forret": 7648,
      "##ningar": 7649,
      "fylt": 7650,
      "##askin": 7651,
      "Qu": 7652,
      "120": 7653,
      "iv": 7654,
      "skinn": 7655,
      "So": 7656,
      "##ze": 7657,
      "stilt": 7658,
      "hotell": 7659,
      "##klart": 7660,
      "prosjekter": 7661,
      "fen": 7662,
      "##rert": 7663,
      "##henger": 7664,
      "politi": 7665,
      "Ellen": 7666,
      "##jeneste": 7667,
      "##ming": 7668,
      "##but": 7669,
      "henger": 7670,
      "resp": 7671,
      "kjøkkenet": 7672,
      "bestemme": 7673,
      "##ower": 7674,
      "stoppet": 7675,
      "noget": 7676,
      "1940": 7677,
      "Nic": 7678,
      "##nda": 7679,
      "##ures": 7680,
      "##lands": 7681,
      "dyre": 7682,
      "Vin": 7683,
      "fornuft": 7684,
      "sesongen": 7685,
      "##ara": 7686,
      "prosessen": 7687,
      "starte": 7688,
      "##yrer": 7689,
      "##kjen": 7690,
      "##valt": 7691,
      "overv": 7692,
      "##stått": 7693,
      "skuesp": 7694,
      "oppford": 7695,
      "##ydro": 7696,
      "##utvalget": 7697,
      "verne": 7698,
      "##nene": 7699,
      "likhet": 7700,
      "##ista": 7701,
      "beslut": 7702,
      "sover": 7703,
      "Micha": 7704,
      "##sområ": 7705,
      "tolk": 7706,
      "##mes": 7707,
      "Inger": 7708,
      "Don": 7709,
      "server": 7710,
      "markeds": 7711,
      "san": 7712,
      "uken": 7713,
      "kollekt": 7714,
      "igjennom": 7715,
      "##skar": 7716,
      "##løse": 7717,
      "tilnær": 7718,
      "suks": 7719,
      "mi": 7720,
      "##oppen": 7721,
      "##vendig": 7722,
      "ringte": 7723,
      "nordmenn": 7724,
      "opplyser": 7725,
      "##omer": 7726,
      "Son": 7727,
      "aktiviteter": 7728,
      "trukket": 7729,
      "konstru": 7730,
      "Univers": 7731,
      "Venstre": 7732,
      "UN": 7733,
      "##ctor": 7734,
      "##indel": 7735,
      "programmet": 7736,
      "##RU": 7737,
      "innbygg": 7738,
      "positivt": 7739,
      "foretatt": 7740,
      "bønn": 7741,
      "Emil": 7742,
      "EN": 7743,
      "grenser": 7744,
      "bedriften": 7745,
      "trå": 7746,
      "falle": 7747,
      "innom": 7748,
      "##dem": 7749,
      "##kenes": 7750,
      "EF": 7751,
      "virkeligheten": 7752,
      "liksom": 7753,
      "How": 7754,
      "ressurs": 7755,
      "##uth": 7756,
      "teksten": 7757,
      "diskuter": 7758,
      "##taket": 7759,
      "tår": 7760,
      "##vart": 7761,
      "spesif": 7762,
      "##osa": 7763,
      "låg": 7764,
      "ramme": 7765,
      "sender": 7766,
      "skader": 7767,
      "minner": 7768,
      "##oer": 7769,
      "1900": 7770,
      "Grat": 7771,
      "##fulle": 7772,
      "uavhengig": 7773,
      "motiv": 7774,
      "##økene": 7775,
      "Herren": 7776,
      "fulgt": 7777,
      "Slike": 7778,
      "syss": 7779,
      "##asjons": 7780,
      "##riften": 7781,
      "fulle": 7782,
      "sidan": 7783,
      "##cil": 7784,
      "naturligvis": 7785,
      "ettermiddag": 7786,
      "174": 7787,
      "luften": 7788,
      "##speri": 7789,
      "##SE": 7790,
      "San": 7791,
      "Distrikt": 7792,
      "materiale": 7793,
      "analyse": 7794,
      "##makt": 7795,
      "##stud": 7796,
      "##lå": 7797,
      "##beveg": 7798,
      "sne": 7799,
      "fjellet": 7800,
      "vinne": 7801,
      "##atikk": 7802,
      "greit": 7803,
      "optim": 7804,
      "##AP": 7805,
      "##alene": 7806,
      "kikket": 7807,
      "personlige": 7808,
      "Bang": 7809,
      "##tende": 7810,
      "gev": 7811,
      "døra": 7812,
      "##akere": 7813,
      "Lev": 7814,
      "##rak": 7815,
      "##jev": 7816,
      "Rør": 7817,
      "##rykket": 7818,
      "praktiske": 7819,
      "følelser": 7820,
      "##gjøre": 7821,
      "ph": 7822,
      "##tto": 7823,
      "##asjen": 7824,
      "Organ": 7825,
      "halsen": 7826,
      "undersøkelser": 7827,
      "fav": 7828,
      "tilstand": 7829,
      "Com": 7830,
      "than": 7831,
      "250": 7832,
      "dagene": 7833,
      "filosof": 7834,
      "Nett": 7835,
      "ledet": 7836,
      "idé": 7837,
      "##æv": 7838,
      "##AK": 7839,
      "##remt": 7840,
      "Big": 7841,
      "grov": 7842,
      "##fug": 7843,
      "rygg": 7844,
      "##book": 7845,
      "fantastisk": 7846,
      "vises": 7847,
      "##rekk": 7848,
      "kostnader": 7849,
      "ansatt": 7850,
      "signal": 7851,
      "lærere": 7852,
      "Kle": 7853,
      "erstatning": 7854,
      "Spe": 7855,
      "##side": 7856,
      "levde": 7857,
      "##cent": 7858,
      "Politiet": 7859,
      "fik": 7860,
      "Store": 7861,
      "fransk": 7862,
      "Agder": 7863,
      "spr": 7864,
      "grens": 7865,
      "Norweg": 7866,
      "##fekt": 7867,
      "oppleve": 7868,
      "ekspl": 7869,
      "fremmed": 7870,
      "klubb": 7871,
      "1969": 7872,
      "##byr": 7873,
      "elektron": 7874,
      "Komm": 7875,
      "##ining": 7876,
      "skuldrene": 7877,
      "##miljø": 7878,
      "tidleg": 7879,
      "fait": 7880,
      "konkrete": 7881,
      "pasienten": 7882,
      "Høg": 7883,
      "danske": 7884,
      "smak": 7885,
      "##setting": 7886,
      "ap": 7887,
      "used": 7888,
      "Stock": 7889,
      "dir": 7890,
      "retningslin": 7891,
      "NY": 7892,
      "våk": 7893,
      "tvers": 7894,
      "##eloven": 7895,
      "Mennes": 7896,
      "1971": 7897,
      "##peri": 7898,
      "Kø": 7899,
      "vidare": 7900,
      "gutter": 7901,
      "Fram": 7902,
      "##edrag": 7903,
      "##innes": 7904,
      "lab": 7905,
      "~~": 7906,
      "parti": 7907,
      "berør": 7908,
      "anses": 7909,
      "gle": 7910,
      "##iem": 7911,
      "ordning": 7912,
      "oppstår": 7913,
      "teknisk": 7914,
      "framover": 7915,
      "##indre": 7916,
      "mal": 7917,
      "korn": 7918,
      "Prosjekt": 7919,
      "##ato": 7920,
      "##itann": 7921,
      "generelle": 7922,
      "Pres": 7923,
      "regnes": 7924,
      "Elis": 7925,
      "##rans": 7926,
      "drar": 7927,
      "meiner": 7928,
      "sing": 7929,
      "sannsynligvis": 7930,
      "kvinnene": 7931,
      "minim": 7932,
      "##ollene": 7933,
      "forst": 7934,
      "##aga": 7935,
      "øl": 7936,
      "partiet": 7937,
      "dykt": 7938,
      "søknad": 7939,
      "Telem": 7940,
      "##orge": 7941,
      "utbet": 7942,
      "Bolig": 7943,
      "gass": 7944,
      "stål": 7945,
      "##ski": 7946,
      "såg": 7947,
      "omgiv": 7948,
      "##cept": 7949,
      "verste": 7950,
      "mester": 7951,
      "forklarer": 7952,
      "##osjon": 7953,
      "samarbeidet": 7954,
      "Rapp": 7955,
      "##utten": 7956,
      "opprettet": 7957,
      "##fatt": 7958,
      "##benhavn": 7959,
      "##sens": 7960,
      "super": 7961,
      "nest": 7962,
      "obser": 7963,
      "studier": 7964,
      "peker": 7965,
      "upp": 7966,
      "##ient": 7967,
      "##elet": 7968,
      "håpet": 7969,
      "##kse": 7970,
      "ferie": 7971,
      "arr": 7972,
      "##artet": 7973,
      "##veit": 7974,
      "##åre": 7975,
      "opplevd": 7976,
      "utfordringer": 7977,
      "klima": 7978,
      "##anden": 7979,
      "mum": 7980,
      "hast": 7981,
      "forster": 7982,
      "von": 7983,
      "##somhet": 7984,
      "##produ": 7985,
      "##øve": 7986,
      "skilt": 7987,
      "##rådene": 7988,
      "lens": 7989,
      "samling": 7990,
      "hjul": 7991,
      "Willi": 7992,
      "regner": 7993,
      "##fjorden": 7994,
      "fritid": 7995,
      "Pat": 7996,
      "jule": 7997,
      "kreft": 7998,
      "##ump": 7999,
      "bon": 8000,
      "ekteskap": 8001,
      "isol": 8002,
      "Kristiansand": 8003,
      "##cl": 8004,
      "publ": 8005,
      "##bred": 8006,
      "hevder": 8007,
      "forhånd": 8008,
      "klipp": 8009,
      "handle": 8010,
      "##sgrunn": 8011,
      "##EK": 8012,
      "Kunst": 8013,
      "##alk": 8014,
      "regulering": 8015,
      "dukket": 8016,
      "ogsaa": 8017,
      "mo": 8018,
      "vegen": 8019,
      "fanget": 8020,
      "ball": 8021,
      "nokon": 8022,
      "Show": 8023,
      "møtt": 8024,
      "voksen": 8025,
      "enhet": 8026,
      "work": 8027,
      "##ied": 8028,
      "hverdag": 8029,
      "rekl": 8030,
      "læring": 8031,
      "velferd": 8032,
      "stig": 8033,
      "utslipp": 8034,
      "Island": 8035,
      "orig": 8036,
      "traff": 8037,
      "følelse": 8038,
      "##lement": 8039,
      "##itert": 8040,
      "##ENT": 8041,
      "##UT": 8042,
      "trett": 8043,
      "økende": 8044,
      "gjens": 8045,
      "##resjon": 8046,
      "##snivå": 8047,
      "##leie": 8048,
      "analys": 8049,
      "smerte": 8050,
      "##atret": 8051,
      "##aterial": 8052,
      "oversk": 8053,
      "færre": 8054,
      "ordfører": 8055,
      "skule": 8056,
      "##aktivitet": 8057,
      "##sil": 8058,
      "Leg": 8059,
      "ære": 8060,
      "religion": 8061,
      "belast": 8062,
      "##skost": 8063,
      "mik": 8064,
      "##11": 8065,
      "nogen": 8066,
      "mørket": 8067,
      "Lørdag": 8068,
      "kjører": 8069,
      "Sund": 8070,
      "europeiske": 8071,
      "klubben": 8072,
      "##oph": 8073,
      "radio": 8074,
      "##astro": 8075,
      "Geir": 8076,
      "##eles": 8077,
      "##uene": 8078,
      "Fle": 8079,
      "Eks": 8080,
      "negative": 8081,
      "betalt": 8082,
      "spilt": 8083,
      "rapporten": 8084,
      "Ke": 8085,
      "##spør": 8086,
      "Jar": 8087,
      "##SL": 8088,
      "##alp": 8089,
      "Michael": 8090,
      "##kontr": 8091,
      "ov": 8092,
      "professor": 8093,
      "##hald": 8094,
      "##ura": 8095,
      "##hard": 8096,
      "Helse": 8097,
      "foreslår": 8098,
      "##vitt": 8099,
      "tren": 8100,
      "##øt": 8101,
      "##rot": 8102,
      "##bakken": 8103,
      "Ry": 8104,
      "##partementets": 8105,
      "##ktøy": 8106,
      "##agraf": 8107,
      "stikk": 8108,
      "let": 8109,
      "##bes": 8110,
      "nøyaktig": 8111,
      "Storbr": 8112,
      "Anton": 8113,
      "##sjef": 8114,
      "Go": 8115,
      "sens": 8116,
      "forstand": 8117,
      "Håkon": 8118,
      "frig": 8119,
      "Barne": 8120,
      "##JON": 8121,
      "##sfull": 8122,
      "##hr": 8123,
      "Rich": 8124,
      "forferd": 8125,
      "dyn": 8126,
      "Ib": 8127,
      "Sunn": 8128,
      "##sesjon": 8129,
      "##bout": 8130,
      "høyeste": 8131,
      "AL": 8132,
      "gjelde": 8133,
      "argument": 8134,
      "##gitt": 8135,
      "Rand": 8136,
      "ansvarlig": 8137,
      "##stolen": 8138,
      "hurtig": 8139,
      "franske": 8140,
      "##illende": 8141,
      "##insipp": 8142,
      "##II": 8143,
      "bygda": 8144,
      "Norwegian": 8145,
      "##ari": 8146,
      "basis": 8147,
      "##jeg": 8148,
      "overord": 8149,
      "Bla": 8150,
      "dam": 8151,
      "eventyr": 8152,
      "stru": 8153,
      "##bordet": 8154,
      "Press": 8155,
      "fremover": 8156,
      "varmt": 8157,
      "ac": 8158,
      "##våg": 8159,
      "ulik": 8160,
      "Fjell": 8161,
      "prioriter": 8162,
      "Helt": 8163,
      "aksjon": 8164,
      "kyss": 8165,
      "mulige": 8166,
      "##stiden": 8167,
      "##uls": 8168,
      "krefter": 8169,
      "utbygging": 8170,
      "##abrikk": 8171,
      "pen": 8172,
      "valget": 8173,
      "##onger": 8174,
      "bestemmer": 8175,
      "lokalt": 8176,
      "##bør": 8177,
      "held": 8178,
      "samtale": 8179,
      "##elsens": 8180,
      "Nye": 8181,
      "Bank": 8182,
      "utdan": 8183,
      "inntekter": 8184,
      "aktuelt": 8185,
      "lest": 8186,
      "kald": 8187,
      "##VER": 8188,
      "UT": 8189,
      "##ræ": 8190,
      "##ØS": 8191,
      "deltok": 8192,
      "Jørgen": 8193,
      "##fang": 8194,
      "oppfølg": 8195,
      "fo": 8196,
      "Terje": 8197,
      "hom": 8198,
      "mun": 8199,
      "tilst": 8200,
      "overgang": 8201,
      "##kser": 8202,
      "1965": 8203,
      "##byen": 8204,
      "Storbritann": 8205,
      "##idd": 8206,
      "fellesskap": 8207,
      "forsknings": 8208,
      "##jorde": 8209,
      "døden": 8210,
      "drevet": 8211,
      "cent": 8212,
      "##famil": 8213,
      "##elly": 8214,
      "##handel": 8215,
      "arter": 8216,
      "##ail": 8217,
      "##hammer": 8218,
      "Best": 8219,
      "Sande": 8220,
      "beregnet": 8221,
      "##opper": 8222,
      "Prem": 8223,
      "bety": 8224,
      "##iskop": 8225,
      "##førsel": 8226,
      "prop": 8227,
      "Frp": 8228,
      "##endt": 8229,
      "kona": 8230,
      "Lær": 8231,
      "##fen": 8232,
      "##bakk": 8233,
      "##que": 8234,
      "ettersom": 8235,
      "1967": 8236,
      "utgift": 8237,
      "##kanten": 8238,
      "##fullt": 8239,
      "Pal": 8240,
      "ild": 8241,
      "##cted": 8242,
      "Person": 8243,
      "inf": 8244,
      "Hu": 8245,
      "##havet": 8246,
      "rekru": 8247,
      "oftest": 8248,
      "##har": 8249,
      "Afrika": 8250,
      "militær": 8251,
      "filmen": 8252,
      "flag": 8253,
      "##DER": 8254,
      "##oritet": 8255,
      "Sof": 8256,
      "veier": 8257,
      "##ms": 8258,
      "krø": 8259,
      "Ark": 8260,
      "##anda": 8261,
      "##arbeidere": 8262,
      "student": 8263,
      "leste": 8264,
      "new": 8265,
      "åpenbart": 8266,
      "##stiltak": 8267,
      "##mmende": 8268,
      "##vegen": 8269,
      "##tra": 8270,
      "parall": 8271,
      "Eir": 8272,
      "Program": 8273,
      "Søndag": 8274,
      "##ISK": 8275,
      "##ör": 8276,
      "teater": 8277,
      "Rød": 8278,
      "##strekning": 8279,
      "benytte": 8280,
      "IL": 8281,
      "##entering": 8282,
      "its": 8283,
      "Miljø": 8284,
      "##inte": 8285,
      "Cla": 8286,
      "##rafikk": 8287,
      "profil": 8288,
      "beting": 8289,
      "##utdanning": 8290,
      "Enk": 8291,
      "##elegg": 8292,
      "dansk": 8293,
      "develop": 8294,
      "barnehage": 8295,
      "kjer": 8296,
      "maksim": 8297,
      "inde": 8298,
      "utenrik": 8299,
      "pal": 8300,
      "##ti": 8301,
      "Bur": 8302,
      "##viklingen": 8303,
      "##strø": 8304,
      "godkjent": 8305,
      "endte": 8306,
      "forklaring": 8307,
      "treffe": 8308,
      "arkitekt": 8309,
      "grønne": 8310,
      "titt": 8311,
      "farger": 8312,
      "bevegelse": 8313,
      "##lad": 8314,
      "ele": 8315,
      "begrep": 8316,
      "sch": 8317,
      "kunder": 8318,
      "fastsatt": 8319,
      "##jo": 8320,
      "dominer": 8321,
      "Simon": 8322,
      "innholdet": 8323,
      "etasje": 8324,
      "##steder": 8325,
      "##ends": 8326,
      "1930": 8327,
      "##ova": 8328,
      "1968": 8329,
      "sæ": 8330,
      "Italia": 8331,
      "svaret": 8332,
      "kaste": 8333,
      "syssels": 8334,
      "sta": 8335,
      "##smøte": 8336,
      "##handlingen": 8337,
      "##ful": 8338,
      "##ANG": 8339,
      "##rich": 8340,
      "##bon": 8341,
      "##forskning": 8342,
      "Tem": 8343,
      "##vald": 8344,
      "skru": 8345,
      "Arn": 8346,
      "bunn": 8347,
      "stabil": 8348,
      "konvensjon": 8349,
      "jød": 8350,
      "Sigur": 8351,
      "spare": 8352,
      "sed": 8353,
      "##formasjon": 8354,
      "inkludert": 8355,
      "Vict": 8356,
      "organisasjonen": 8357,
      "sove": 8358,
      "##kul": 8359,
      "Des": 8360,
      "##OK": 8361,
      "rart": 8362,
      "Plan": 8363,
      "os": 8364,
      ".),": 8365,
      "Israel": 8366,
      "##unden": 8367,
      "kontoret": 8368,
      "1920": 8369,
      "tilskudd": 8370,
      "forny": 8371,
      "grus": 8372,
      "mønster": 8373,
      "##ros": 8374,
      "his": 8375,
      "##orp": 8376,
      "fremtiden": 8377,
      "##smenn": 8378,
      "kolon": 8379,
      "##vesenet": 8380,
      "##anp": 8381,
      "manglende": 8382,
      "snill": 8383,
      "##legges": 8384,
      "Gul": 8385,
      "##ndal": 8386,
      "hust": 8387,
      "samlede": 8388,
      "NM": 8389,
      "##leren": 8390,
      "bein": 8391,
      "##cher": 8392,
      "landene": 8393,
      "kravet": 8394,
      "advokat": 8395,
      "##amet": 8396,
      "kreves": 8397,
      "mellem": 8398,
      "gjenopp": 8399,
      "tankene": 8400,
      "serie": 8401,
      "grader": 8402,
      "dollar": 8403,
      "internasjonal": 8404,
      "Råd": 8405,
      "tradisjonelle": 8406,
      "##rete": 8407,
      "Tar": 8408,
      "tømmer": 8409,
      "##rin": 8410,
      "##wood": 8411,
      "dets": 8412,
      "representant": 8413,
      ">>\"\"": 8414,
      "årlig": 8415,
      "Verdens": 8416,
      "forsøke": 8417,
      "##iest": 8418,
      "##språk": 8419,
      "Lok": 8420,
      "faglig": 8421,
      "Unn": 8422,
      "læ": 8423,
      "pan": 8424,
      "tilfellet": 8425,
      "maten": 8426,
      "##stjeneste": 8427,
      "skifte": 8428,
      "##skab": 8429,
      "##ømte": 8430,
      "Fordi": 8431,
      "Bjer": 8432,
      "##isteren": 8433,
      "Kristus": 8434,
      "##hånd": 8435,
      "##kten": 8436,
      "##identen": 8437,
      "Port": 8438,
      "some": 8439,
      "Eit": 8440,
      "utfor": 8441,
      "##svir": 8442,
      "triv": 8443,
      "husket": 8444,
      "Senter": 8445,
      "beslutning": 8446,
      "grunnlaget": 8447,
      "Mun": 8448,
      "sendes": 8449,
      "fylket": 8450,
      "gifte": 8451,
      "kategor": 8452,
      "komedie": 8453,
      "FR": 8454,
      "##ikler": 8455,
      "##fa": 8456,
      "aksje": 8457,
      "Dom": 8458,
      "Sogn": 8459,
      "##chn": 8460,
      "sosialt": 8461,
      "170": 8462,
      "human": 8463,
      "Fag": 8464,
      "##verr": 8465,
      "##løsning": 8466,
      "Legg": 8467,
      "##cr": 8468,
      "klokka": 8469,
      "nylig": 8470,
      "foto": 8471,
      "mult": 8472,
      "gjere": 8473,
      "Kina": 8474,
      "vurdert": 8475,
      "##skrav": 8476,
      "mur": 8477,
      "##iluft": 8478,
      "laste": 8479,
      "planlagt": 8480,
      "situasjoner": 8481,
      "##natt": 8482,
      "Sigurd": 8483,
      "henholdsvis": 8484,
      "##rast": 8485,
      "##augen": 8486,
      "##\"\"\"": 8487,
      "exp": 8488,
      "perspektiv": 8489,
      "##useet": 8490,
      "Side": 8491,
      "stri": 8492,
      "##komst": 8493,
      "ER": 8494,
      "##ila": 8495,
      "slutte": 8496,
      "tyng": 8497,
      "##vanlig": 8498,
      "Jose": 8499,
      "172": 8500,
      "Dahl": 8501,
      "mu": 8502,
      "##snes": 8503,
      "##igg": 8504,
      "teori": 8505,
      "##messige": 8506,
      "##ilet": 8507,
      "forsto": 8508,
      "bekl": 8509,
      "jorda": 8510,
      "ringe": 8511,
      "##sløs": 8512,
      "##gård": 8513,
      "takt": 8514,
      "##setningen": 8515,
      "engasjem": 8516,
      "tilrett": 8517,
      "skaff": 8518,
      "##virksomhet": 8519,
      "Bib": 8520,
      "foreb": 8521,
      "##skon": 8522,
      "Kristin": 8523,
      "Sosial": 8524,
      "grundig": 8525,
      "##kamp": 8526,
      "##ustad": 8527,
      "Ask": 8528,
      "Troms": 8529,
      "🧑🏽": 8530,
      "🧑🏿": 8531,
      "🧑🏾": 8532,
      "🧑🏼": 8533,
      "🧑🏻": 8534,
      "innd": 8535,
      "##ligheten": 8536,
      "##ENS": 8537,
      "selskaper": 8538,
      "Sommer": 8539,
      "teknologi": 8540,
      "Rosen": 8541,
      "skipet": 8542,
      "Finans": 8543,
      "tolv": 8544,
      "forsøker": 8545,
      "København": 8546,
      "fysiske": 8547,
      "marker": 8548,
      "foreslått": 8549,
      "kritikk": 8550,
      "Dy": 8551,
      "##ituasjonen": 8552,
      "##stille": 8553,
      "##ologien": 8554,
      "Journal": 8555,
      "glob": 8556,
      "forvir": 8557,
      "konsesjon": 8558,
      "World": 8559,
      "dialog": 8560,
      "##likevel": 8561,
      "Sett": 8562,
      "##ience": 8563,
      "Akt": 8564,
      "Rev": 8565,
      "Stockholm": 8566,
      "PR": 8567,
      "##irektør": 8568,
      "inngår": 8569,
      "##ifik": 8570,
      "##ya": 8571,
      "nevnes": 8572,
      "700": 8573,
      "utføre": 8574,
      "##ikkelen": 8575,
      "ska": 8576,
      "holdes": 8577,
      "##ison": 8578,
      "Str": 8579,
      "Solberg": 8580,
      "Dagbladet": 8581,
      "uro": 8582,
      "passasjer": 8583,
      "Aks": 8584,
      "mekan": 8585,
      "tørr": 8586,
      "##ides": 8587,
      "1966": 8588,
      "##ørr": 8589,
      "lim": 8590,
      "166": 8591,
      "lyse": 8592,
      "maa": 8593,
      "kjøret": 8594,
      "##atal": 8595,
      "##smål": 8596,
      "##smed": 8597,
      "##båt": 8598,
      "##brand": 8599,
      "offis": 8600,
      "Lou": 8601,
      "##xt": 8602,
      "kunn": 8603,
      "if": 8604,
      "toll": 8605,
      "garant": 8606,
      "fordelt": 8607,
      "avsluttet": 8608,
      "##enny": 8609,
      "Brann": 8610,
      "bygges": 8611,
      "levert": 8612,
      "Hagen": 8613,
      "Vet": 8614,
      "Aller": 8615,
      "termin": 8616,
      "##spar": 8617,
      "forbed": 8618,
      "Ellers": 8619,
      "##institusjon": 8620,
      "##sprosjekt": 8621,
      "kalle": 8622,
      "miste": 8623,
      "Tidligere": 8624,
      "##hengen": 8625,
      "kaldt": 8626,
      "butikken": 8627,
      "##eleder": 8628,
      "refle": 8629,
      "myndighetene": 8630,
      "##inke": 8631,
      "hesten": 8632,
      "forholdsvis": 8633,
      "##jøres": 8634,
      "sli": 8635,
      "forsik": 8636,
      "forurens": 8637,
      "service": 8638,
      "##anpix": 8639,
      "foreløpig": 8640,
      "aksept": 8641,
      "representanter": 8642,
      "vakker": 8643,
      "Neste": 8644,
      "totale": 8645,
      "Rolf": 8646,
      "##sikring": 8647,
      "##engde": 8648,
      "West": 8649,
      "vinner": 8650,
      "beskytt": 8651,
      "eksisterende": 8652,
      "##slutning": 8653,
      "tomt": 8654,
      "two": 8655,
      "##blemer": 8656,
      "jenta": 8657,
      "##ersoner": 8658,
      "##retten": 8659,
      "hug": 8660,
      "##esund": 8661,
      "Dagsnytt": 8662,
      "nåværende": 8663,
      "kandid": 8664,
      "##strand": 8665,
      "Utvalget": 8666,
      "misten": 8667,
      "begrepet": 8668,
      "grensen": 8669,
      "Hjel": 8670,
      "trus": 8671,
      "##appe": 8672,
      "Daniel": 8673,
      "##burg": 8674,
      "sekund": 8675,
      "##IM": 8676,
      "##bygd": 8677,
      "teor": 8678,
      "ond": 8679,
      "motsetning": 8680,
      "helg": 8681,
      "Universitetet": 8682,
      "vendte": 8683,
      "ødeleg": 8684,
      "Ot": 8685,
      "nyhet": 8686,
      "gjem": 8687,
      "tilfeldig": 8688,
      "##kr": 8689,
      "utelu": 8690,
      "##ubl": 8691,
      "##itim": 8692,
      "tj": 8693,
      "##IR": 8694,
      "Tenk": 8695,
      "ku": 8696,
      "sykkel": 8697,
      "##ingsf": 8698,
      "bekymret": 8699,
      "##ierne": 8700,
      "greie": 8701,
      "priser": 8702,
      "Storbritannia": 8703,
      "hvisket": 8704,
      "melder": 8705,
      "jentene": 8706,
      "##agra": 8707,
      "Sven": 8708,
      "Sandnes": 8709,
      "stasjon": 8710,
      "##okument": 8711,
      "vedlikehold": 8712,
      "kring": 8713,
      "about": 8714,
      "Sov": 8715,
      "opprør": 8716,
      "historiske": 8717,
      "Telemark": 8718,
      "##ssy": 8719,
      "design": 8720,
      "##stall": 8721,
      "bruken": 8722,
      "##åter": 8723,
      "##omet": 8724,
      "Ob": 8725,
      "##rup": 8726,
      "penge": 8727,
      "bærer": 8728,
      "partene": 8729,
      "dessverre": 8730,
      "ledelsen": 8731,
      "##ungen": 8732,
      "tilfreds": 8733,
      "Nar": 8734,
      "##dtr": 8735,
      "stiv": 8736,
      "Ir": 8737,
      "##eliv": 8738,
      "sprang": 8739,
      "mak": 8740,
      "suksess": 8741,
      "##punkter": 8742,
      "##nest": 8743,
      "jevn": 8744,
      "##uddet": 8745,
      "173": 8746,
      "Tim": 8747,
      "starten": 8748,
      "lykkes": 8749,
      "##ålmod": 8750,
      "##edskap": 8751,
      "1964": 8752,
      "kompon": 8753,
      "identitet": 8754,
      "Kirke": 8755,
      "car": 8756,
      "alli": 8757,
      "gleder": 8758,
      "##grammet": 8759,
      "Brø": 8760,
      "##18": 8761,
      "forbruker": 8762,
      "døgn": 8763,
      "##veren": 8764,
      "liter": 8765,
      "##foss": 8766,
      "kra": 8767,
      "landbruks": 8768,
      "vegne": 8769,
      "##wa": 8770,
      "Frå": 8771,
      "##ason": 8772,
      "##kens": 8773,
      "ans": 8774,
      "sint": 8775,
      "##vete": 8776,
      "##lyst": 8777,
      "num": 8778,
      "##sla": 8779,
      "overtok": 8780,
      "##beh": 8781,
      "leverand": 8782,
      "eksport": 8783,
      "kysten": 8784,
      "hverken": 8785,
      "these": 8786,
      "planlegging": 8787,
      "likt": 8788,
      "##UM": 8789,
      "##????": 8790,
      "bevilg": 8791,
      "radi": 8792,
      "##ordet": 8793,
      "klem": 8794,
      "talt": 8795,
      "##kja": 8796,
      "##isser": 8797,
      "##atsen": 8798,
      "pekte": 8799,
      "##ografi": 8800,
      "maler": 8801,
      "##vernet": 8802,
      "##parti": 8803,
      "Fa": 8804,
      "elsket": 8805,
      "Finland": 8806,
      "innk": 8807,
      "glemt": 8808,
      "##økonom": 8809,
      "##allfall": 8810,
      "such": 8811,
      "##rent": 8812,
      "reager": 8813,
      "##valitet": 8814,
      "feltet": 8815,
      "##elin": 8816,
      "sivil": 8817,
      "fløy": 8818,
      "utstrekning": 8819,
      "studenter": 8820,
      "brystet": 8821,
      "skrå": 8822,
      "##lagte": 8823,
      "divisjon": 8824,
      "belø": 8825,
      "forutsetning": 8826,
      "##grupper": 8827,
      "revolusjon": 8828,
      "føres": 8829,
      "##bum": 8830,
      "##15": 8831,
      "brudd": 8832,
      "##uring": 8833,
      "nordiske": 8834,
      "gjenstand": 8835,
      "##egrupp": 8836,
      "##sdatter": 8837,
      "##nep": 8838,
      "dec": 8839,
      "aktivt": 8840,
      "##mos": 8841,
      "##mi": 8842,
      "##kjennelse": 8843,
      "##gave": 8844,
      "karri": 8845,
      "sorg": 8846,
      "%.": 8847,
      "skjul": 8848,
      "fukt": 8849,
      "##skj": 8850,
      "komiteen": 8851,
      "himmel": 8852,
      "metall": 8853,
      "900": 8854,
      "enden": 8855,
      "Hard": 8856,
      "eventuelle": 8857,
      "staden": 8858,
      "Soc": 8859,
      "historisk": 8860,
      "beskrevet": 8861,
      "##abler": 8862,
      "kommand": 8863,
      "dimensjon": 8864,
      "betaling": 8865,
      "egenskaper": 8866,
      "##ree": 8867,
      "syv": 8868,
      "bestand": 8869,
      "oppmerksom": 8870,
      "opph": 8871,
      "omstend": 8872,
      "##add": 8873,
      "morgenen": 8874,
      "##renge": 8875,
      "telefonen": 8876,
      "Fjord": 8877,
      "særskilt": 8878,
      "Hvilke": 8879,
      "Sverre": 8880,
      "innflytelse": 8881,
      "kaff": 8882,
      "##cial": 8883,
      "temmelig": 8884,
      "omtalt": 8885,
      "Not": 8886,
      "period": 8887,
      "arranger": 8888,
      "NH": 8889,
      "ordningen": 8890,
      "##16": 8891,
      "##ini": 8892,
      "##alderen": 8893,
      "liggende": 8894,
      "##venn": 8895,
      "Kal": 8896,
      "militære": 8897,
      "report": 8898,
      "Vold": 8899,
      "enor": 8900,
      "##skip": 8901,
      "brevet": 8902,
      "##ressen": 8903,
      "vokste": 8904,
      "nevne": 8905,
      "Hvilken": 8906,
      "banen": 8907,
      "##ters": 8908,
      "Strøm": 8909,
      "intens": 8910,
      "psykisk": 8911,
      "velkommen": 8912,
      "britiske": 8913,
      "anvende": 8914,
      "....": 8915,
      "James": 8916,
      "plant": 8917,
      "Ru": 8918,
      "##19": 8919,
      "utsikt": 8920,
      "konsert": 8921,
      "##staden": 8922,
      "Aas": 8923,
      "##åg": 8924,
      "kant": 8925,
      "into": 8926,
      "##olt": 8927,
      "romant": 8928,
      "Gull": 8929,
      "##sti": 8930,
      "dannet": 8931,
      "medfører": 8932,
      "trinn": 8933,
      "endel": 8934,
      "klassen": 8935,
      "util": 8936,
      "seinare": 8937,
      "henvend": 8938,
      "Senere": 8939,
      "Molde": 8940,
      "1961": 8941,
      "konfer": 8942,
      "Ton": 8943,
      "frivillig": 8944,
      "##sje": 8945,
      "beskriver": 8946,
      "allmenn": 8947,
      "tide": 8948,
      "støv": 8949,
      "Hit": 8950,
      "die": 8951,
      "##agasin": 8952,
      "Ass": 8953,
      "Gift": 8954,
      "kvad": 8955,
      "synspunkt": 8956,
      "handlinger": 8957,
      "gaten": 8958,
      "spenning": 8959,
      "Mi": 8960,
      "LO": 8961,
      "sittende": 8962,
      "øk": 8963,
      "TR": 8964,
      "retur": 8965,
      "bringe": 8966,
      "byens": 8967,
      "Arbeiderpartiet": 8968,
      "##repren": 8969,
      "etablere": 8970,
      "verdenskrig": 8971,
      "##orden": 8972,
      "tilby": 8973,
      "##arn": 8974,
      "nødvendigvis": 8975,
      "pusten": 8976,
      "##elege": 8977,
      "##itten": 8978,
      "##bre": 8979,
      "##apan": 8980,
      "holdning": 8981,
      "##bytte": 8982,
      "mengde": 8983,
      "Tryg": 8984,
      "dame": 8985,
      "##rine": 8986,
      "##penger": 8987,
      "infl": 8988,
      "Ingeborg": 8989,
      "Komiteen": 8990,
      "show": 8991,
      "egnet": 8992,
      "Moss": 8993,
      "University": 8994,
      "##LER": 8995,
      "Europe": 8996,
      "Georg": 8997,
      "##fun": 8998,
      "mottatt": 8999,
      "bag": 9000,
      "count": 9001,
      "teoret": 9002,
      "vog": 9003,
      "##nadene": 9004,
      "##sdagen": 9005,
      "##rul": 9006,
      "Rogaland": 9007,
      "Sw": 9008,
      "alvorlige": 9009,
      "overrasket": 9010,
      "arv": 9011,
      "veiledning": 9012,
      "prinsippet": 9013,
      "##aliteten": 9014,
      "AR": 9015,
      "##givning": 9016,
      "##smidler": 9017,
      "ens": 9018,
      "rente": 9019,
      "Bel": 9020,
      "bit": 9021,
      "ju": 9022,
      "##gruppe": 9023,
      "slu": 9024,
      "synlig": 9025,
      "shall": 9026,
      "##slå": 9027,
      "feir": 9028,
      "eksper": 9029,
      "Elev": 9030,
      "eiendommen": 9031,
      "KrF": 9032,
      "produksjonen": 9033,
      "fj": 9034,
      "påvirke": 9035,
      "Eva": 9036,
      "Nik": 9037,
      "nom": 9038,
      "##itor": 9039,
      "##ndene": 9040,
      "terror": 9041,
      "Mellom": 9042,
      "Hamar": 9043,
      "gress": 9044,
      "##sess": 9045,
      "betra": 9046,
      "sort": 9047,
      "fange": 9048,
      "##conom": 9049,
      "Rune": 9050,
      "sykehuset": 9051,
      "##lund": 9052,
      "##uel": 9053,
      "eksist": 9054,
      "opphe": 9055,
      "undersøkelsen": 9056,
      "##lesund": 9057,
      "##ORT": 9058,
      "Ca": 9059,
      "##renn": 9060,
      "høve": 9061,
      "##//": 9062,
      "##12": 9063,
      "innført": 9064,
      "tapt": 9065,
      "##ypt": 9066,
      "verdien": 9067,
      "funn": 9068,
      "rec": 9069,
      "Ingeb": 9070,
      "behandlingen": 9071,
      "##fallet": 9072,
      "Ingrid": 9073,
      "Bed": 9074,
      "je": 9075,
      "only": 9076,
      "umiddelbart": 9077,
      ",\"\"\"\"": 9078,
      "tunn": 9079,
      "Akers": 9080,
      "##okker": 9081,
      "Torsdag": 9082,
      "##røt": 9083,
      "tilhører": 9084,
      "##ssam": 9085,
      "##inc": 9086,
      "##kjente": 9087,
      "##iva": 9088,
      "##uta": 9089,
      "Industri": 9090,
      "##eme": 9091,
      "verdt": 9092,
      "bær": 9093,
      "bren": 9094,
      "engelske": 9095,
      "NC": 9096,
      "fund": 9097,
      "##slått": 9098,
      "skiller": 9099,
      "menighet": 9100,
      "Jonas": 9101,
      "##gress": 9102,
      "##inert": 9103,
      "##ygger": 9104,
      "##analy": 9105,
      "##elat": 9106,
      "områdene": 9107,
      "avisen": 9108,
      "pause": 9109,
      "hevdet": 9110,
      "1962": 9111,
      "1946": 9112,
      "diagn": 9113,
      "Ås": 9114,
      "kjørt": 9115,
      "Vol": 9116,
      "samisk": 9117,
      "##løpet": 9118,
      "dokumenter": 9119,
      "ledere": 9120,
      "skyte": 9121,
      "Elisabeth": 9122,
      "boliger": 9123,
      "Lil": 9124,
      "##terte": 9125,
      "##film": 9126,
      "##ih": 9127,
      "Drammen": 9128,
      "##viser": 9129,
      "##ektig": 9130,
      "næ": 9131,
      "##kkelen": 9132,
      "Fredag": 9133,
      "faglige": 9134,
      "hyp": 9135,
      "gave": 9136,
      "##ross": 9137,
      "trygt": 9138,
      "##UD": 9139,
      "støy": 9140,
      "fortell": 9141,
      "Gå": 9142,
      "Hold": 9143,
      "begrav": 9144,
      "skapte": 9145,
      "møtes": 9146,
      "inviter": 9147,
      "##ivalen": 9148,
      "##egner": 9149,
      "##egang": 9150,
      "##ondet": 9151,
      "iverks": 9152,
      "kapasitet": 9153,
      "Mac": 9154,
      "bortsett": 9155,
      "indust": 9156,
      "##tering": 9157,
      "Bestemm": 9158,
      "gjennomgå": 9159,
      "forstyr": 9160,
      "Gun": 9161,
      "rollene": 9162,
      "misjon": 9163,
      "nyttig": 9164,
      "stillinger": 9165,
      "kamper": 9166,
      "##kastet": 9167,
      "fylte": 9168,
      "søvn": 9169,
      "opplevelse": 9170,
      "##akse": 9171,
      "trur": 9172,
      "nådde": 9173,
      "skudd": 9174,
      "live": 9175,
      "##ibil": 9176,
      "bakover": 9177,
      "dårlige": 9178,
      "Rasmus": 9179,
      "110": 9180,
      "anvendelse": 9181,
      "Bi": 9182,
      "##iteens": 9183,
      "ektef": 9184,
      "inspir": 9185,
      "'.": 9186,
      "##ulent": 9187,
      "mog": 9188,
      "stolen": 9189,
      "repar": 9190,
      "##kets": 9191,
      "magen": 9192,
      "Ak": 9193,
      "vanskelige": 9194,
      "##inav": 9195,
      "opplevde": 9196,
      "pet": 9197,
      "avb": 9198,
      "Nu": 9199,
      "mom": 9200,
      "pur": 9201,
      "##kne": 9202,
      "miljøet": 9203,
      "diff": 9204,
      "finger": 9205,
      "klage": 9206,
      "tjener": 9207,
      "##EC": 9208,
      "sakene": 9209,
      "##ype": 9210,
      "##IC": 9211,
      "##uset": 9212,
      "Aud": 9213,
      "rein": 9214,
      "sekunder": 9215,
      "hon": 9216,
      "##fatter": 9217,
      "##bi": 9218,
      "##foreningen": 9219,
      "punktum": 9220,
      "myr": 9221,
      "SSSS": 9222,
      "Lud": 9223,
      "Svar": 9224,
      "prat": 9225,
      "institusjoner": 9226,
      "sum": 9227,
      "amerikansk": 9228,
      "lave": 9229,
      "bemer": 9230,
      "søkte": 9231,
      "##iget": 9232,
      "jam": 9233,
      "vende": 9234,
      "##skjer": 9235,
      "slipper": 9236,
      "tingene": 9237,
      "skjeb": 9238,
      "##itar": 9239,
      "##eldige": 9240,
      "offer": 9241,
      "1963": 9242,
      "##ulert": 9243,
      "Iver": 9244,
      "mikro": 9245,
      "dekk": 9246,
      "##selskap": 9247,
      "1948": 9248,
      "vask": 9249,
      "Mari": 9250,
      "##ever": 9251,
      "Bert": 9252,
      "resultatene": 9253,
      "metode": 9254,
      "usikker": 9255,
      "Eiendom": 9256,
      "##entert": 9257,
      "forsøkt": 9258,
      "##ansert": 9259,
      "nar": 9260,
      "##90": 9261,
      "unntatt": 9262,
      "hjalp": 9263,
      "flotte": 9264,
      "##fore": 9265,
      "matem": 9266,
      "##my": 9267,
      "Bær": 9268,
      "##sre": 9269,
      "giftet": 9270,
      "betraktet": 9271,
      "##seende": 9272,
      "dekning": 9273,
      "##idig": 9274,
      "terreng": 9275,
      "iallfall": 9276,
      "Særlig": 9277,
      "melde": 9278,
      "Grøn": 9279,
      "medlemmene": 9280,
      "Karen": 9281,
      "opprinnelig": 9282,
      "forutsetter": 9283,
      "##erten": 9284,
      "låne": 9285,
      "Erling": 9286,
      "asyl": 9287,
      "Harry": 9288,
      "],": 9289,
      "##kultur": 9290,
      "##ico": 9291,
      "Øog": 9292,
      "##ilig": 9293,
      "##rog": 9294,
      "lyder": 9295,
      "bistand": 9296,
      "Ur": 9297,
      "fett": 9298,
      "forskrifter": 9299,
      "avgrens": 9300,
      "debatten": 9301,
      "aug": 9302,
      "effe": 9303,
      "helgen": 9304,
      "løpe": 9305,
      "innh": 9306,
      "russiske": 9307,
      "konklusjon": 9308,
      "leilighet": 9309,
      "mr": 9310,
      "Fem": 9311,
      "Eksemp": 9312,
      "##snyheter": 9313,
      "ulov": 9314,
      "##pan": 9315,
      "##TA": 9316,
      "##keg": 9317,
      "etterspør": 9318,
      "when": 9319,
      "Int": 9320,
      "##~~~~~~~~": 9321,
      "sof": 9322,
      "utenlandske": 9323,
      "operasjon": 9324,
      "fingrene": 9325,
      "August": 9326,
      "##appet": 9327,
      "aksep": 9328,
      "##bevis": 9329,
      "toget": 9330,
      "##ogg": 9331,
      "Borg": 9332,
      "Ko": 9333,
      "##oth": 9334,
      "aktive": 9335,
      "hytte": 9336,
      "##bund": 9337,
      "liste": 9338,
      "imm": 9339,
      "Hos": 9340,
      "ins": 9341,
      "evaluer": 9342,
      "perm": 9343,
      "varierer": 9344,
      "intro": 9345,
      "Meg": 9346,
      "Ålesund": 9347,
      "statens": 9348,
      "understreker": 9349,
      "##ods": 9350,
      "Eriksen": 9351,
      "danner": 9352,
      "behandles": 9353,
      "##blikk": 9354,
      "##yting": 9355,
      "fylle": 9356,
      "##eten": 9357,
      "Storting": 9358,
      "cir": 9359,
      "##BER": 9360,
      "vokser": 9361,
      "harde": 9362,
      "Hels": 9363,
      "Møre": 9364,
      "kalte": 9365,
      "Ull": 9366,
      "##aser": 9367,
      "gjennem": 9368,
      "stoppe": 9369,
      "glemme": 9370,
      "Richard": 9371,
      "##ksus": 9372,
      "beholde": 9373,
      "##eldre": 9374,
      "Fru": 9375,
      "øyeblikket": 9376,
      "Face": 9377,
      "##sene": 9378,
      "##høy": 9379,
      "hull": 9380,
      "##stiller": 9381,
      "##iew": 9382,
      "merkelig": 9383,
      "solgte": 9384,
      "innbyggere": 9385,
      "ing": 9386,
      "##sretten": 9387,
      "avtaler": 9388,
      "versjon": 9389,
      "##LA": 9390,
      "##kkede": 9391,
      "##agelse": 9392,
      "snu": 9393,
      "##ringene": 9394,
      "aksjer": 9395,
      "betegn": 9396,
      "##yldig": 9397,
      "behøver": 9398,
      "##enhet": 9399,
      "kjed": 9400,
      "##result": 9401,
      "utbred": 9402,
      "##ates": 9403,
      "##nnet": 9404,
      "stress": 9405,
      "Tøn": 9406,
      "##åd": 9407,
      "utarbeidet": 9408,
      "villig": 9409,
      "befinner": 9410,
      "##rasjonen": 9411,
      "seil": 9412,
      "kritisk": 9413,
      "laga": 9414,
      "fersk": 9415,
      "faa": 9416,
      "mangfold": 9417,
      "Hei": 9418,
      "##bor": 9419,
      "##mmes": 9420,
      "nes": 9421,
      "##iert": 9422,
      "solen": 9423,
      "mengder": 9424,
      "merker": 9425,
      "tillatelse": 9426,
      "##omst": 9427,
      "##andinav": 9428,
      "##åsen": 9429,
      "hittil": 9430,
      "Real": 9431,
      "##spunktet": 9432,
      "Ofte": 9433,
      "smiler": 9434,
      "##tting": 9435,
      "1947": 9436,
      "Gust": 9437,
      "##ikeren": 9438,
      "metoder": 9439,
      "vurderes": 9440,
      "fler": 9441,
      "kome": 9442,
      "Hånd": 9443,
      "##--": 9444,
      "##hengige": 9445,
      "##verden": 9446,
      "##mmede": 9447,
      "Eirik": 9448,
      "##gikk": 9449,
      "presten": 9450,
      "bøyde": 9451,
      "Skriv": 9452,
      "different": 9453,
      "##itive": 9454,
      "lykkelig": 9455,
      "daglige": 9456,
      "oppgitt": 9457,
      "##politikk": 9458,
      "pap": 9459,
      "##vang": 9460,
      "1956": 9461,
      "160": 9462,
      "Wal": 9463,
      "fortvil": 9464,
      "Sjå": 9465,
      "samtykke": 9466,
      "glade": 9467,
      "Leif": 9468,
      "jurid": 9469,
      "løfte": 9470,
      "##bur": 9471,
      "utbygg": 9472,
      "tykk": 9473,
      "Fir": 9474,
      "##ders": 9475,
      "retningslinjer": 9476,
      "##unget": 9477,
      "antar": 9478,
      "##bestemm": 9479,
      "næringsliv": 9480,
      "Fur": 9481,
      "kull": 9482,
      "Kort": 9483,
      "snur": 9484,
      "Jack": 9485,
      "oft": 9486,
      "##isjoner": 9487,
      "foretak": 9488,
      "bryst": 9489,
      "null": 9490,
      "takket": 9491,
      "Akershus": 9492,
      "kaf": 9493,
      "##agene": 9494,
      "1957": 9495,
      "May": 9496,
      "mørkt": 9497,
      "assist": 9498,
      "uen": 9499,
      "nark": 9500,
      "skiftet": 9501,
      "spiser": 9502,
      "styring": 9503,
      "##reis": 9504,
      "utføres": 9505,
      "herr": 9506,
      "lurte": 9507,
      "tilfredsstillende": 9508,
      "kriter": 9509,
      "detaljer": 9510,
      "vilt": 9511,
      "Berlin": 9512,
      "detalj": 9513,
      "fordeling": 9514,
      "##issen": 9515,
      "##splassen": 9516,
      "Ski": 9517,
      "##IKK": 9518,
      "regi": 9519,
      "undersøke": 9520,
      "##ts": 9521,
      "forhand": 9522,
      "##regn": 9523,
      "løper": 9524,
      "dømt": 9525,
      "kos": 9526,
      "##rets": 9527,
      "##gl": 9528,
      "Spørsmålet": 9529,
      "##bak": 9530,
      "##MS": 9531,
      "##abl": 9532,
      "##ria": 9533,
      "spurt": 9534,
      "guttene": 9535,
      "Ram": 9536,
      "##sdepartementet": 9537,
      "##ration": 9538,
      "##sborg": 9539,
      "utenom": 9540,
      "Hør": 9541,
      "Riks": 9542,
      "1939": 9543,
      "William": 9544,
      "##vd": 9545,
      "kalde": 9546,
      "Gjø": 9547,
      "øya": 9548,
      "lyden": 9549,
      "oppfølging": 9550,
      "passet": 9551,
      "Grupp": 9552,
      "betre": 9553,
      "gransk": 9554,
      "dokumentarserie": 9555,
      "##OD": 9556,
      "kommunens": 9557,
      "aktører": 9558,
      "trykket": 9559,
      "##mest": 9560,
      "Østfold": 9561,
      "##banken": 9562,
      "##rerer": 9563,
      "Grim": 9564,
      "Ris": 9565,
      "##saken": 9566,
      "##illa": 9567,
      "EØS": 9568,
      "samband": 9569,
      "internasjonalt": 9570,
      "Johnsen": 9571,
      "App": 9572,
      "tverr": 9573,
      "##tere": 9574,
      "##esterett": 9575,
      "fremmede": 9576,
      "Trump": 9577,
      "erver": 9578,
      "##ksp": 9579,
      "1949": 9580,
      "##17": 9581,
      "##GE": 9582,
      "##uleg": 9583,
      "##slam": 9584,
      "vinden": 9585,
      "##trykk": 9586,
      "##rerte": 9587,
      "bib": 9588,
      "Prø": 9589,
      "any": 9590,
      "turist": 9591,
      "befolkning": 9592,
      "allikevel": 9593,
      "##smøtet": 9594,
      "volum": 9595,
      "##ants": 9596,
      "##hagen": 9597,
      "##arer": 9598,
      "Amund": 9599,
      "##lend": 9600,
      "oblig": 9601,
      "festet": 9602,
      "antas": 9603,
      "huden": 9604,
      "Søk": 9605,
      "##brev": 9606,
      "Austral": 9607,
      "##jå": 9608,
      "tu": 9609,
      "##smynd": 9610,
      "hr": 9611,
      "##kjenning": 9612,
      "foreslå": 9613,
      "video": 9614,
      "##itere": 9615,
      "bec": 9616,
      "##ré": 9617,
      "elva": 9618,
      "Været": 9619,
      "##splass": 9620,
      "barnd": 9621,
      "samtlige": 9622,
      "Champ": 9623,
      "faktorer": 9624,
      "ordentlig": 9625,
      "Antall": 9626,
      "##nner": 9627,
      "utvidet": 9628,
      "steng": 9629,
      "dekker": 9630,
      "##unge": 9631,
      "atom": 9632,
      "Od": 9633,
      "saksbe": 9634,
      "Kristoffer": 9635,
      "deltar": 9636,
      "bonde": 9637,
      "##taler": 9638,
      "##fred": 9639,
      "scenen": 9640,
      "##**": 9641,
      "##ads": 9642,
      "Home": 9643,
      "##ness": 9644,
      "delte": 9645,
      "Top": 9646,
      "##ula": 9647,
      "org": 9648,
      "innled": 9649,
      "nerv": 9650,
      "##utstyr": 9651,
      "Kåre": 9652,
      "##agere": 9653,
      "typisk": 9654,
      "./": 9655,
      "##zen": 9656,
      "Spania": 9657,
      "institutt": 9658,
      "Akkurat": 9659,
      "sjanse": 9660,
      "frivillige": 9661,
      "Avis": 9662,
      "ordfør": 9663,
      "##VE": 9664,
      "##odde": 9665,
      "musikken": 9666,
      "how": 9667,
      "krim": 9668,
      "##sinn": 9669,
      "##sgjer": 9670,
      "##boka": 9671,
      "##planen": 9672,
      "språket": 9673,
      "Brand": 9674,
      "forlot": 9675,
      "skriftlig": 9676,
      "where": 9677,
      "bade": 9678,
      "omsetning": 9679,
      "##ordningen": 9680,
      "forbindel": 9681,
      "trist": 9682,
      "##pensjon": 9683,
      "spillere": 9684,
      "##behov": 9685,
      "parkering": 9686,
      "##ksen": 9687,
      "Vind": 9688,
      "comm": 9689,
      "##ci": 9690,
      "##høg": 9691,
      "kommunestyret": 9692,
      "familier": 9693,
      "uend": 9694,
      "tallene": 9695,
      "utsk": 9696,
      "Brit": 9697,
      "betaler": 9698,
      "1959": 9699,
      "##hodet": 9700,
      "Onsdag": 9701,
      "Ekst": 9702,
      "oppm": 9703,
      "syd": 9704,
      "##sform": 9705,
      "##ctive": 9706,
      "organisert": 9707,
      "##industrien": 9708,
      "Nok": 9709,
      "##................................": 9710,
      "##IST": 9711,
      "næringslivet": 9712,
      "War": 9713,
      "##fir": 9714,
      "line": 9715,
      "verdif": 9716,
      "##virke": 9717,
      "svake": 9718,
      "synet": 9719,
      "Foss": 9720,
      "##ati": 9721,
[...]
