{"version":"1.0","truncation":null,"padding":null,"added_tokens":[{"id":0,"special":true,"content":"[PAD]","single_word":false,"lstrip":false,"rstrip":false,"normalized":false},{"id":1,"special":true,"content":"[UNK]","single_word":false,"lstrip":false,"rstrip":false,"normalized":false},{"id":2,"special":true,"content":"[CLS]","single_word":false,"lstrip":false,"rstrip":false,"normalized":false},{"id":3,"special":true,"content":"[SEP]","single_word":false,"lstrip":false,"rstrip":false,"normalized":false},{"id":4,"special":true,"content":"[MASK]","single_word":false,"lstrip":false,"rstrip":false,"normalized":false}],"normalizer":null,"pre_tokenizer":{"type":"Whitespace"},"post_processor":null,"decoder":null,"model":{"unk_token":"[UNK]","continuing_subword_prefix":"##","max_input_chars_per_word":100,"vocab":{"[PAD]":0,"[UNK]":1,"[CLS]":2,"[SEP]":3,"[MASK]":4,"!":5,"\"":6,"#":7,"$":8,"%":9,"&":10,"'":11,"(":12,")":13,"*":14,"+":15,",":16,"-":17,".":18,"/":19,"0":20,"1":21,"2":22,"3":23,"4":24,"5":25,"6":26,"7":27,"8":28,"9":29,":":30,";":31,"<":32,"=":33,">":34,"?":35,"@":36,"A":37,"B":38,"C":39,"D":40,"E":41,"F":42,"G":43,"H":44,"I":45,"J":46,"K":47,"L":48,"M":49,"N":50,"O":51,"P":52,"Q":53,"R":54,"S":55,"T":56,"U":57,"V":58,"W":59,"X":60,"Y":61,"Z":62,"[":63,"\\":64,"]":65,"^":66,"_":67,"`":68,"a":69,"b":70,"c":71,"d":72,"e":73,"f":74,"g":75,"h":76,"i":77,"j":78,"k":79,"l":80,"m":81,"n":82,"o":83,"p":84,"q":85,"r":86,"s":87,"t":88,"u":89,"v":90,"w":91,"x":92,"y":93,"z":94,"{":95,"|":96,"}":97,"~":98,"£":99,"¤":100,"¥":101,"¦":102,"¨":103,"©":104,"ª":105,"¬":106,"®":107,"°":108,"±":109,"²":110,"³":111,"µ":112,"¸":113,"º":114,"¼":115,"½":116,"¾":117,"À":118,"Á":119,"Â":120,"Ã":121,"Ä":122,"Å":123,"Æ":124,"Ç":125,"È":126,"É":127,"Ê":128,"Ë":129,"Í":130,"Î":131,"Ò":132,"Ó":133,"Ô":134,"Ö":135,"×":136,"Ø":137,"Ü":138,"Þ":139,"ß":140,"à":141,"á":142,"â":143,"ã":144,"ä":145,"å":146,"æ":147,"ç":148,"è":149,"é":150,"ê":151,"ë":152,"ì":153,"í":154,"î":155,"ï":156,"ð":157,"ñ":158,"ò":159,"ó":160,"ô":161,"õ":162,"ö":163,"÷":164,"ø":165,"ù":166,"ú":167,"û":168,"ü":169,"ý":170,"þ":171,"ā":172,"ă":173,"ą":174,"ć":175,"Č":176,"č":177,"Ď":178,"Đ":179,"đ":180,"ē":181,"ė":182,"ę":183,"ě":184,"ğ":185,"ī":186,"İ":187,"ı":188,"Ł":189,"ł":190,"ń":191,"ŋ":192,"ō":193,"ő":194,"Œ":195,"œ":196,"ř":197,"ś":198,"ş":199,"Š":200,"š":201,"ţ":202,"ŧ":203,"ū":204,"ż":205,"Ž":206,"ž":207,"ƭ":208,"ș":209,"ț":210,"Ʌ":211,"ə":212,"ʁ":213,"ˇ":214,"ː":215,"˚":216,"́":217,"Δ":218,"Ω":219,"ά":220,"έ":221,"ή":222,"ί":223,"α":224,"β":225,"γ":226,"δ":227,"ε":228,"η":229,"θ":230,"ι":231,"κ":232,"λ":233,"μ":234,"ν":235,"ο":236,"π":237,"ρ":238,"ς":239,"σ":240,"τ":241,"υ":242,"φ":243,"ω":244,"ό":245,"А":246,"Б":247,"В":248,"Г":249,"Д":250,"Е":251,"З":252,"И":253,"К":254,"Л":255,"М":256,"Н":257,"О":258,"П":259,"Р":260,"С":261,"Т":262,"У":263,"а":264,"б":265,"в":266,"г":267,"д":268,"е":269,"ж":270,"з":271,"и":272,"й":273,"к":274,"л":275,"м":276,"н":277,"о":278,"п":279,"р":280,"с":281,"т":282,"у":283,"ф":284,"х":285,"ц":286,"ч":287,"ш":288,"щ":289,"ы":290,"ь":291,"э":292,"ю":293,"я":294,"і":295,"ї":296,"א":297,"ב":298,"ה":299,"ו":300,"י":301,"ל":302,"מ":303,"ר":304,"ا":305,"ب":306,"ة":307,"ت":308,"ج":309,"ح":310,"د":311,"ر":312,"س":313,"ش":314,"ص":315,"ع":316,"ف":317,"ق":318,"ك":319,"ل":320,"م":321,"ن":322,"ه":323,"و":324,"ي":325,"ی":326,"⁄":327,"₂":328,"€":329,"™":330,"←":331,"↑":332,"→":333,"↓":334,"∂":335,"−":336,"∙":337,"√":338,"█":339,"■":340,"□":341,"▪":342,"▫":343,"▲":344,"▶":345,"►":346,"▼":347,"◄":348,"◆":349,"○":350,"●":351,"◗":352,"★":353,"☆":354,"☺":355,"♠":356,"♣":357,"♥":358,"♦":359,"⚫":360,"✆":361,"✍":362,"✓":363,"✔":364,"✶":365,"✸":366,"❆":367,"❖":368,"❞":369,"❤":370,"➤":371,"い":372,"し":373,"た":374,"て":375,"で":376,"な":377,"に":378,"の":379,"ス":380,"ル":381,"ン":382,"ー":383,"一":384,"三":385,"下":386,"世":387,"东":388,"中":389,"九":390,"乡":391,"二":392,"五":393,"人":394,"今":395,"仙":396,"会":397,"全":398,"八":399,"公":400,"六":401,"内":402,"准":403,"区":404,"十":405,"单":406,"县":407,"双":408,"合":409,"四":410,"图":411,"坛":412,"大":413,"天":414,"奖":415,"姐":416,"婆":417,"子":418,"宝":419,"家":420,"富":421,"小":422,"尾":423,"平":424,"年":425,"库":426,"开":427,"式":428,"彩":429,"心":430,"愀":431,"手":432,"报":433,"挂":434,"搀":435,"攀":436,"救":437,"数":438,"料":439,"新":440,"方":441,"日":442,"最":443,"月":444,"期":445,"机":446,"杀":447,"果":448,"椀":449,"欀":450,"正":451,"氀":452,"水":453,"波":454,"洀":455,"渀":456,"港":457,"漀":458,"爀":459,"版":460,"牌":461,"特":462,"狗":463,"猀":464,"玄":465,"王":466,"琀":467,"生":468,"白":469,"的":470,"码":471,"神":472,"站":473,"算":474,"管":475,"精":476,"红":477,"经":478,"网":479,"老":480,"肖":481,"解":482,"论":483,"诗":484,"财":485,"资":486,"赌":487,"赛":488,"跑":489,"道":490,"部":491,"金":492,"镇":493,"香":494,"马":495,"高":496,"黄":497,"龙":498,"️":499,"�":500,"😀":501,"😉":502,"😊":503,"🙂":504,"##v":505,"##l":506,"##e":507,"##r":508,"##i":509,"##n":510,"##g":511,"##s":512,"##p":513,"##a":514,"##u":515,"##t":516,"##j":517,"##ø":518,"##d":519,"##m":520,"##o":521,"##x":522,"##f":523,"##b":524,"##S":525,"##h":526,"##k":527,"##M":528,"##K":529,"##T":530,"##C":531,"##H":532,"##O":533,"##B":534,"##y":535,"##É":536,"##z":537,"##é":538,"##2":539,"##0":540,"##w":541,"##1":542,"##3":543,"##►":544,"##}":545,"##.":546,"##å":547,"##8":548,"##E":549,"##I":550,"##N":551,"##c":552,"##æ":553,"##R":554,"##A":555,"##️":556,"##J":557,"##L":558,"##G":559,"##*":560,"##,":561,"##V":562,"##P":563,"##Ø":564,"##9":565,"##7":566,"##ä":567,"##ß":568,"##Z":569,"##4":570,"##\"":571,"##)":572,"##6":573,"##U":574,"##ī":575,"##ā":576,"##D":577,"##Å":578,"##5":579,"##Y":580,"##F":581,"##ē":582,"##ð":583,"##期":584,"##中":585,"##肖":586,"##á":587,"##č":588,"##-":589,"##>":590,"##Æ":591,"##ô":592,"##q":593,"##W":594,"##^":595,"##/":596,"##Q":597,"##'":598,"##_":599,"##%":600,"##:":601,"##&":602,"##;":603,"##?":604,"##ï":605,"##X":606,"##ŋ":607,"##<":608,"##た":609,"##に":610,"##ğ":611,"##|":612,"##ö":613,"##ш":614,"##и":615,"##б":616,"##а":617,"##ю":618,"##с":619,"##ь":620,"##ü":621,"##Ä":622,"##š":623,"##đ":624,"##♦":625,"##ú":626,"##■":627,"##è":628,"##€":629,"##о":630,"##н":631,"##у":632,"##л":633,"##т":634,"##ц":635,"##™":636,"##р":637,"##ý":638,"##Đ":639,"##★":640,"###":641,"##Á":642,"##!":643,"##~":644,"##к":645,"##д":646,"##е":647,"##м":648,"##ė":649,"##ç":650,"##\\":651,"##ы":652,"##ê":653,"##α":654,"##π":655,"##δ":656,"##ό":657,"##ο":658,"##υ":659,"##λ":660,"##ς":661,"##в":662,"##生":663,"##诗":664,"##£":665,"##]":666,"##ー":667,"##ي":668,"##و":669,"##ع":670,"##ا":671,"##й":672,"##ã":673,"##Ö":674,"##(":675,"##і":676,"##г":677,"##М":678,"##Г":679,"##镇":680,"##ì":681,"##я":682,"##东":683,"##县":684,"##ž":685,"##ב":686,"##ו":687,"##ל":688,"##י":689,"##=":690,"##平":691,"##ó":692,"##龙":693,"##®":694,"##+":695,"##[":696,"##姐":697,"##特":698,"##ф":699,"##Š":700,"##乡":701,"##́":702,"##ù":703,"##Ã":704,"##â":705,"##í":706,"##马":707,"##高":708,"##手":709,"##解":710,"##料":711,"##ن":712,"##{":713,"##ン":714,"##ル":715,"##ч":716,"##Ô":717,"##ć":718,"##道":719,"##码":720,"##新":721,"##图":722,"##で":723,"##い":724,"##机":725,"##网":726,"##站":727,"##Б":728,"##з":729,"##ж":730,"##报":731,"##Í":732,"##ł":733,"##ę":734,"##攀":735,"##最":736,"##ρ":737,"##κ":738,"##η":739,"##公":740,"##开":741,"##$":742,"##杀":743,"##二":744,"##尾":745,"##ò":746,"##ō":747,"##红":748,"##六":749,"##τ":750,"##ή":751,"##β":752,"##ل":753,"##ت":754,"##ب":755,"##ı":756,"##心":757,"##水":758,"##论":759,"##坛":760,"##ف":761,"##王":762,"##一":763,"##波":764,"##û":765,"##ë":766,"##î":767,"##à":768,"##ι":769,"##σ":770,"##ά":771,"##ح":772,"##ر":773,"##ة":774,"##ą":775,"##ñ":776,"##库":777,"##έ":778,"##°":779,"##ă":780,"##全":781,"##赌":782,"##ش":783,"##ص":784,"##п":785,"##ї":786,"##ŧ":787,"##正":788,"##式":789,"##Â":790,"##μ":791,"##大":792,"##仙":793,"##老":794,"##跑":795,"##狗":796,"##婆":797,"##º":798,"##ν":799,"##ω":800,"##ș":801,"##ū":802,"##三":803,"##彩":804,"##È":805,"##х":806,"##م":807,"##С":808,"##У":809,"##Н":810,"##О":811,"##ƭ":812,"##天":813,"##香":814,"##港":815,"##家":816,"##γ":817,"##赛":818,"##版":819,"##œ":820,"##Č":821,"##合":822,"##ス":823,"##し":824,"##て":825,"##θ":826,"##ě":827,"##会":828,"##ń":829,"##±":830,"##ş":831,"##下":832,"##Ω":833,"##区":834,"##□":835,"##õ":836,"##Œ":837,"##ə":838,"##φ":839,"##ř":840,"##爀":841,"##搀":842,"##愀":843,"##宝":844,"##四":845,"##ί":846,"##щ":847,"##ق":848,"##د":849,"##س":850,"##月":851,"##¥":852,"##ε":853,"##神":854,"##ː":855,"##财":856,"##Ó":857,"##ő":858,"##人":859,"##ʁ":860,"##Р":861,"##ר":862,"##ה":863,"##精":864,"##准":865,"##э":866,"##双":867,"##九":868,"##ţ":869,"##Ê":870,"##✆":871,"##@":872,"##ż":873,"##▼":874,"##●":875,"##⁄":876,"##资":877,"##מ":878,"##部":879,"##玄":880,"##十":881,"##�":882,"##金":883,"##İ":884,"##经":885,"##😉":886,"##Ü":887,"##¤":888,"##日":889,"##子":890,"##ه":891,"##算":892,"##Т":893,"##五":894,"##ی":895,"##渀":896,"##椀":897,"##年":898,"##Ç":899,"##Ò":900,"##ś":901,"##Þ":902,"##的":903,"##な":904,"##ك":905,"##Д":906,"##の":907,"##八":908,"##Ď":909,"##א":910,"##þ":911,"##洀":912,"##奖":913,"##琀":914,"##В":915,"##А":916,"##单":917,"##漀":918,"##☆":919,"##管":920,"##❤":921,"##猀":922,"##欀":923,"##牌":924,"##数":925,"##©":926,"##ț":927,"##白":928,"##`":929,"##Ž":930,"##À":931,"##挂":932,"##К":933,"##富":934,"##果":935,"##✸":936,"##氀":937,"##ª":938,"##−":939,"##²":940,"##Л":941,"##³":942,"##方":943,"##小":944,"##♣":945,"##ج":946,"##µ":947,"##救":948,"##½":949,"##▲":950,"##♥":951,"##Е":952,"##И":953,"##世":954,"##✓":955,"##П":956,"##内":957,"##今":958,"##😀":959,"##☺":960,"##÷":961,"##😊":962,"##Δ":963,"##↑":964,"##◆":965,"##Ë":966,"##黄":967,"##→":968,"##¨":969,"##➤":970,"##↓":971,"##Î":972,"##З":973,"##∂":974,"##Ł":975,"##¬":976,"##√":977,"##♠":978,"##¾":979,"##▶":980,"##✶":981,"##◄":982,"##×":983,"##🙂":984,"##←":985,"##▪":986,"##❆":987,"##¼":988,"##█":989,"##¦":990,"##○":991,"##❖":992,"##✍":993,"##ˇ":994,"##⚫":995,"##₂":996,"##˚":997,"##¸":998,"##✔":999,"##en":1000,"##er":1001,"##et":1002,"##or":1003,"##an":1004,"##in":1005,"##ar":1006,"##el":1007,"##il":1008,"##st":1009,"##om":1010,"og":1011,"##ed":1012,"##eg":1013,"for":1014,"##re":1015,"##ing":1016,"##te":1017,"##ig":1018,"##al":1019,"##ke":1020,"##on":1021,"##tt":1022,"til":1023,"##de":1024,"##is":1025,"##le":1026,"det":1027,"en":1028,"##un":1029,"##ra":1030,"av":1031,"er":1032,"##es":1033,"##ik":1034,"som":1035,"på":1036,"##id":1037,"##ol":1038,"st":1039,"##ene":1040,"##ør":1041,"med":1042,"##ne":1043,"##sk":1044,"##at":1045,"##am":1046,"##ver":1047,"sk":1048,"at":1049,"##pp":1050,"##ag":1051,"in":1052,"de":1053,"##as":1054,"##it":1055,"##ler":1056,"##kt":1057,"##kke":1058,"var":1059,"##ent":1060,"den":1061,"##nd":1062,"##se":1063,"om":1064,"##and":1065,"ut":1066,"##ad":1067,"har":1068,"##ste":1069,"ikke":1070,"##ning":1071,"##iv":1072,"##ul":1073,"##år":1074,"##ro":1075,"##ang":1076,"##kk":1077,"han":1078,"##ær":1079,"##li":1080,"##ens":1081,"##jon":1082,"##ur":1083,"##ere":1084,"Det":1085,"##lig":1086,"##ett":1087,"fra":1088,"##us":1089,"##ri":1090,"opp":1091,"et":1092,"##je":1093,"al":1094,"##ru":1095,"##\"\"":1096,"##ot":1097,"gj":1098,"##ak":1099,"##tter":1100,"vi":1101,"##ikk":1102,"an":1103,"##ende":1104,"##for":1105,"##omm":1106,"kan":1107,"men":1108,"19":1109,"seg":1110,"<<":1111,"no":1112,"inn":1113,"##sen":1114,"##od":1115,"##ter":1116,"##het":1117,"##ks":1118,"sam":1119,">>":1120,"så":1121,"##ge":1122,"be":1123,"vil":1124,"jeg":1125,"##ap":1126,"##der":1127,"sp":1128,"el":1129,"hv":1130,"##be":1131,"##ist":1132,"##elig":1133,"##att":1134,"##he":1135,"over":1136,"##adde":1137,"må":1138,"##ell":1139,"si":1140,"hadde":1141,"##av":1142,"##ord":1143,"##enn":1144,"##mm":1145,"##ss":1146,"##ir":1147,"##ort":1148,"##est":1149,"bli":1150,"##ann":1151,"##isk":1152,"##ok":1153,"##ut":1154,"##ft":1155,"##gen":1156,"ved":1157,"der":1158,"se":1159,"ble":1160,"sl":1161,"##art":1162,"eller":1163,"##ser":1164,"##yn":1165,"20":1166,"##øy":1167,"##så":1168,"and":1169,"##unn":1170,"##sl":1171,"du":1172,"##eng":1173,"##ov":1174,"##ud":1175,"##ære":1176,"##asjon":1177,"##rå":1178,"##ling":1179,"før":1180,"##jø":1181,"år":1182,"##sp":1183,"hun":1184,"ar":1185,"komm":1186,"hel":1187,"re":1188,"##ert":1189,"##ikt":1190,"##old":1191,"skal":1192,"etter":1193,"bar":1194,"##all":1195,"##inn":1196,"##yg":1197,"##itt":1198,"##og":1199,"##yr":1200,"kon":1201,"##nder":1202,"##ff":1203,"##end":1204,"pro":1205,"##ant":1206,"tr":1207,"##os":1208,"##im":1209,"##beid":1210,"##ve":1211,"##else":1212,"##ker":1213,"også":1214,"Han":1215,"St":1216,"00":1217,"##var":1218,"Jeg":1219,"kl":1220,"##em":1221,"##und":1222,"to":1223,"##um":1224,"##iske":1225,"##sm":1226,"##net":1227,"sin":1228,"kun":1229,"ny":1230,"være":1231,"##ion":1232,"##rø":1233,"the":1234,"tid":1235,"De":1236,"mot":1237,"##eld":1238,"##nn":1239,"##jer":1240,"##elt":1241,"under":1242,"##leg":1243,"min":1244,"##ger":1245,"samm":1246,"##ie":1247,"##akt":1248,"##ers":1249,"##skap":1250,"##ast":1251,"meg":1252,"##ic":1253,"##øl":1254,"dette":1255,"##ab":1256,"##ly":1257,"da":1258,"of":1259,"kom":1260,"få":1261,"##vis":1262,"18":1263,"##ige":1264,"##ier":1265,"##erd":1266,"pl":1267,"kr":1268,"##yl":1269,"##øre":1270,"##jen":1271,"##ans":1272,"or":1273,"##..":1274,"sa":1275,"bl":1276,"##tte":1277,"andre":1278,"##ale":1279,"bru":1280,"Men":1281,"##ede":1282,"##mer":1283,"ha":1284,"--":1285,"##ket":1286,"dag":1287,"For":1288,"\"\"\"":1289,"##ært":1290,"blir":1291,"##hold":1292,"##rem":1293,"gr":1294,").":1295,"stor":1296,"##ber":1297,"Den":1298,"##ød":1299,"##ring":1300,"##alt":1301,"fort":1302,"##ass":1303,"Nor":1304,"kunne":1305,"10":1306,"mer":1307,"##ange":1308,"##ret":1309,"noe":1310,"##elle":1311,"kv":1312,"reg":1313,"##ry":1314,"le":1315,"##nes":1316,"##del":1317,"##tid":1318,"##iser":1319,"##ighet":1320,"##ch":1321,"arbeid":1322,"alle":1323,"denne":1324,"##lige":1325,"enn":1326,"Vi":1327,"##ingen":1328,"##per":1329,"god":1330,"##ob":1331,"##res":1332,"##jel":1333,"##let":1334,"##kte":1335,"En":1336,"\"\"\"\"":1337,"##pe":1338,"skul":1339,"man":1340,"##ennom":1341,"li":1342,"hen":1343,"bet":1344,"##ien":1345,"##red":1346,"nå":1347,"dem":1348,"##jør":1349,"beg":1350,"her":1351,"##ess":1352,"##ind":1353,"ham":1354,"##na":1355,"bare":1356,"##vik":1357,"når":1358,"noen":1359,"ve":1360,"sy":1361,"##ost":1362,"##els":1363,"sel":1364,"##itet":1365,"ned":1366,"##ken":1367,"30":1368,"##get":1369,"##ust":1370,"lø":1371,"##kl":1372,"gjennom":1373,"sm":1374,"##ellom":1375,"##utt":1376,"##før":1377,"hvor":1378,"##ningen":1379,"Og":1380,"##yd":1381,"del":1382,"pr":1383,"15":1384,"##iden":1385,"##mp":1386,"##ia":1387,"##det":1388,"##eder":1389,"##dag":1390,"##la":1391,"##land":1392,"##ske":1393,"##opp":1394,"skulle":1395,"##lere":1396,"ta":1397,"##ire":1398,"mellom":1399,"sammen":1400,"##set":1401,"sier":1402,"##ug":1403,"Hun":1404,"sv":1405,"gang":1406,"hver":1407,"tre":1408,"vært":1409,"##ult":1410,"Sk":1411,".\"\"":1412,"##ner":1413,"alt":1414,"slik":1415,"##olit":1416,"my":1417,"mange":1418,"frem":1419,"land":1420,"##ev":1421,"##ark":1422,"##ull":1423,"ville":1424,"##legg":1425,"17":1426,"201":1427,"##ive":1428,"##are":1429,"##if":1430,"##enter":1431,"##op":1432,"##elsen":1433,">>.":1434,"Hv":1435,"##isse":1436,"##ill":1437,"##ek":1438,"ein":1439,"uten":1440,"##den":1441,"##ål":1442,"##00":1443,"##ninger":1444,"##rist":1445,"lag":1446,"kommun":1447,"rett":1448,"##lag":1449,"##ane":1450,"##sø":1451,"tilb":1452,"Al":1453,"lang":1454,"##erne":1455,"##dre":1456,"In":1457,"##tes":1458,"12":1459,"grunn":1460,"##ub":1461,"nor":1462,"oss":1463,"##iktig":1464,"##ille":1465,"11":1466,"##gang":1467,"##rev":1468,"sø":1469,"un":1470,"##ten":1471,"kj":1472,"deg":1473,"##kket":1474,"##oner":1475,"##lem":1476,"vir":1477,"##ater":1478,"ser":1479,"går":1480,"hans":1481,"fram":1482,"føl":1483,"##este":1484,"bå":1485,"##pet":1486,"høy":1487,"##ksjon":1488,"##ake":1489,"nær":1490,"##ings":1491,"##ster":1492,"ig":1493,"første":1494,"henne":1495,"##amm":1496,"gå":1497,"Dette":1498,"fin":1499,"##ets":1500,"##olk":1501,"verd":1502,"bes":1503,"##ct":1504,"##pl":1505,"byg":1506,"kont":1507,"199":1508,"##rat":1509,"vis":1510,"##kon":1511,"16":1512,"fikk":1513,"##oll":1514,"dei":1515,"la":1516,"form":1517,"##jem":1518,"##atte":1519,"##kker":1520,"##form":1521,"end":1522,"##rift":1523,"##bru":1524,"får":1525,"vel":1526,"##rett":1527,"eg":1528,"ly":1529,"##over":1530,"kjø":1531,"##ansk":1532,"Ar":1533,"inter":1534,"##hand":1535,"beste":1536,"##ard":1537,"igjen":1538,"##enger":1539,"##elser":1540,"hva":1541,"Jo":1542,"##svar":1543,"liv":1544,"##rik":1545,"nok":1546,"like":1547,"bil":1548,"leg":1549,"200":1550,"##stil":1551,"br":1552,"##inger":1553,"by":1554,"##arbeid":1555,"##org":1556,"gjøre":1557,"##ER":1558,"forsk":1559,"##ide":1560,"##like":1561,"##alg":1562,"##tem":1563,"##iet":1564,"##som":1565,"##sten":1566,"pros":1567,"ten":1568,"##sb":1569,"##ine":1570,"kommer":1571,"fr":1572,"##ial":1573,"Da":1574,"stør":1575,"mul":1576,"mil":1577,"bed":1578,"##atur":1579,"13":1580,"##ation":1581,"flere":1582,"lig":1583,"ei":1584,"tra":1585,"##nen":1586,"godt":1587,"mor":1588,"ord":1589,"##mmer":1590,"sn":1591,"hele":1592,"syn":1593,"samme":1594,"14":1595,"seiv":1596,"##ekt":1597,"gikk":1598,"##pen":1599,"polit":1600,"all":1601,"##isjon":1602,"),":1603,"disse":1604,"##tak":1605,"store":1606,"ver":1607,"sine":1608,"##ode":1609,"##alen":1610,"##elige":1611,"##mme":1612,"gl":1613,"th":1614,"selv":1615,"##entet":1616,"ma":1617,"##pt":1618,"litt":1619,"far":1620,"pers":1621,"##ce":1622,"sak":1623,"##ygg":1624,"både":1625,"nye":1626,"forb":1627,"##etter":1628,"##ip":1629,"##iver":1630,"vid":1631,"##ift":1632,"mø":1633,"##slag":1634,"##sv":1635,"##rav":1636,"res":1637,"##unkt":1638,"##kkje":1639,"##par":1640,"ty":1641,"##du":1642,"##ny":1643,"he":1644,"siden":1645,"helt":1646,"Norge":1647,"ber":1648,"fl":1649,"red":1650,"##elen":1651,"mye":1652,"ek":1653,"An":1654,"##ordan":1655,"##app":1656,"##>>":1657,"##ole":1658,"##eter":1659,"##di":1660,"The":1661,"##inner":1662,"SS":1663,"\"\"":1664,"fe":1665,"tilbake":1666,"lov":1667,"##rer":1668,"Her":1669,"##kken":1670,"ad":1671,"ikkje":1672,"ingen":1673,"##stand":1674,"enk":1675,"sitt":1676,"hå":1677,"##rupp":1678,"##EN":1679,"Mar":1680,"mennes":1681,"##sf":1682,"21":1683,"rund":1684,"vår":1685,"##sker":1686,"##ette":1687,"198":1688,"sj":1689,"per":1690,"##ener":1691,"stat":1692,"##ram":1693,"På":1694,"##hus":1695,"##jene":1696,"annet":1697,"hand":1698,"forhold":1699,"frå":1700,"mann":1701,"##vel":1702,"##stad":1703,"##ow":1704,"eks":1705,"hus":1706,"##ib":1707,"spør":1708,"##ond":1709,"blitt":1710,"Der":1711,"Du":1712,"000":1713,"##mid":1714,"##ennes":1715,"Ber":1716,"Tr":1717,"25":1718,"viktig":1719,"tro":1720,"##kes":1721,"##olog":1722,"##vend":1723,"##ald":1724,"måtte":1725,"##lev":1726,"##sel":1727,"##hol":1728,"begyn":1729,"led":1730,"Ch":1731,"øn":1732,"bak":1733,"##eb":1734,"par":1735,"akt":1736,"##eren":1737,"rundt":1738,"fly":1739,"##fter":1740,",>>":1741,"utvik":1742,"##ttet":1743,"##ont":1744,"##sjon":1745,"##stem":1746,"##nad":1747,"22":1748,"tok":1749,"##ran":1750,"hjel":1751,"##jekt":1752,"##satt":1753,"lå":1754,"##me":1755,"##heten":1756,"svar":1757,"jo":1758,"Så":1759,"##ian":1760,"Joh":1761,"ste":1762,"Sp":1763,"##slo":1764,"mens":1765,"...":1766,"##stå":1767,"Se":1768,"siste":1769,"##ligere":1770,"##aa":1771,"El":1772,"##rakt":1773,"mid":1774,"plan":1775,"##ys":1776,"fyl":1777,"##lø":1778,"##iten":1779,"##riv":1780,"ev":1781,"##stre":1782,"gjør":1783,"##nings":1784,"##olig":1785,"##jell":1786,"##amil":1787,"##esten":1788,"ind":1789,"is":1790,"##raft":1791,"sen":1792,"##ges":1793,"##les":1794,"197":1795,"##gan":1796,"barn":1797,"##ikker":1798,"##ym":1799,"##ott":1800,"##gå":1801,"te":1802,"23":1803,"inne":1804,"##ren":1805,"##ite":1806,"##oved":1807,"##ars":1808,"Til":1809,"##eller":1810,"##ong":1811,"##ister":1812,"##aler":1813,"##ck":1814,"##olen":1815,"gi":1816,"##istor":1817,"##au":1818,"vå":1819,"##lingen":1820,"Oslo":1821,"##rag":1822,"komme":1823,"tilf":1824,"ant":1825,"##orde":1826,"dø":1827,"sted":1828,"##elder":1829,"bør":1830,"hvordan":1831,"##min":1832,"Når":1833,"hav":1834,"person":1835,"##asjonen":1836,"##ise":1837,"##men":1838,"##asser":1839,"hal":1840,"##....":1841,"me":1842,"50":1843,"##anske":1844,"sna":1845,"sett":1846,"##led":1847,"##kj":1848,"mest":1849,"folk":1850,"gir":1851,"su":1852,"eit":1853,"##ven":1854,"lu":1855,"##obb":1856,"full":1857,"sær":1858,"##føl":1859,"sig":1860,"lik":1861,"bort":1862,"gra":1863,"annen":1864,"spes":1865,"##nt":1866,"##syn":1867,"##sg":1868,"fast":1869,"##ande":1870,"Ja":1871,"##mann":1872,"fle":1873,"##sikt":1874,"fått":1875,"##dri":1876,"nr":1877,"##reg":1878,"utt":1879,"Nord":1880,"kor":1881,"hos":1882,"##entlig":1883,"Etter":1884,"hol":1885,"##ei":1886,"Ut":1887,"Med":1888,"##sy":1889,"øy":1890,"egen":1891,"##ksom":1892,"Th":1893,"on":1894,"stil":1895,"##ate":1896,"ster":1897,"##ultur":1898,"sit":1899,"##agt":1900,"##ain":1901,"##dd":1902,"fordi":1903,"hennes":1904,"dom":1905,"hø":1906,"styr":1907,"tek":1908,"##amp":1909,"##mt":1910,"organ":1911,"områ":1912,"##far":1913,"##vil":1914,"skj":1915,"##usjon":1916,"gjelder":1917,"tar":1918,"off":1919,"står":1920,"bruk":1921,"##berg":1922,"hvis":1923,"vet":1924,"natur":1925,"##ress":1926,"sto":1927,"Er":1928,"Re":1929,"?.":1930,"hør":1931,"lær":1932,"derfor":1933,"##semp":1934,"##pro":1935,"van":1936,"kap":1937,"##amle":1938,"mål":1939,"##rig":1940,"##sd":1941,"com":1942,"##iner":1943,"viser":1944,"##her":1945,"##konom":1946,"##styr":1947,"##vir":1948,"gjort":1949,"part":1950,"Har":1951,"##ativ":1952,"bor":1953,"Et":1954,"Krist":1955,"avg":1956,"##lik":1957,"##rep":1958,"spørsm":1959,"Hva":1960,"nett":1961,"aldri":1962,"stø":1963,"hold":1964,"##runn":1965,"##ikken":1966,"##ank":1967,"Ol":1968,"##funn":1969,"nød":1970,"##ask":1971,"196":1972,"ofte":1973,"tatt":1974,"##val":1975,"videre":1976,"##oen":1977,"mod":1978,"langt":1979,"blant":1980,"sent":1981,"##skje":1982,"##ore":1983,"mulig":1984,"##kning":1985,"##anse":1986,"des":1987,"##sdag":1988,"mindre":1989,"hoved":1990,"gjorde":1991,"prob":1992,"side":1993,">>,":1994,"unn":1995,"##dom":1996,"større":1997,"##ins":1998,"Gud":1999,"lok":2000,"##enge":2001,"40":2002,"vann":2003,"klar":2004,"slutt":2005,"kanskje":2006,"##allet":2007,"##ue":2008,"##skapet":2009,"##pr":2010,"##partem":2011,"##atter":2012,"innen":2013,"først":2014,"##komm":2015,"norske":2016,"hvil":2017,"Om":2018,"prø":2019,"samt":2020,"##des":2021,"##heng":2022,"##ele":2023,"Nå":2024,"ting":2025,"##tr":2026,"rå":2027,"##fl":2028,"eksemp":2029,"åp":2030,"Br":2031,"45":2032,"sjø":2033,"##inne":2034,"##vet":2035,"##akk":2036,"mener":2037,"gamle":2038,"vansk":2039,"tim":2040,"##avn":2041,"betyd":2042,"##asjoner":2043,"nytt":2044,"famil":2045,"##iller":2046,"beh":2047,"##OR":2048,"lett":2049,"##alte":2050,"små":2051,"ung":2052,"##søk":2053,"##assen":2054,"##handling":2055,"##sn":2056,"satt":2057,"##IN":2058,"##enner":2059,"##lekt":2060,"##elte":2061,"pres":2062,"Le":2063,"24":2064,"##ild":2065,"##raf":2066,"tidligere":2067,"##asse":2068,"aller":2069,"dy":2070,"int":2071,"jord":2072,"##sj":2073,"##ay":2074,"produ":2075,"##enes":2076,"##med":2077,"##kelig":2078,"##veg":2079,"af":2080,"##of":2081,"##eldig":2082,"veg":2083,"##midler":2084,"Ved":2085,"##ha":2086,"##ester":2087,"##sak":2088,".)":2089,"##rid":2090,"stud":2091,"##uler":2092,"##føre":2093,"##iter":2094,"tur":2095,"Sam":2096,"hånd":2097,"delt":2098,"##ous":2099,"##AN":2100,"##tidig":2101,"05":2102,"kroner":2103,"di":2104,"måte":2105,"ulike":2106,"##ilt":2107,"sol":2108,"##anger":2109,"##age":2110,"##ade":2111,"##jord":2112,"##sfor":2113,"##ith":2114,"bedre":2115,"alltid":2116,"tillegg":2117,"ligger":2118,"nord":2119,"##bl":2120,"##igheter":2121,"##rene":2122,"deres":2123,"##yld":2124,"195":2125,"And":2126,"##rykk":2127,"##spl":2128,"##oc":2129,"stort":2130,"utg":2131,"##heter":2132,"bok":2133,"##gende":2134,"Av":2135,"vur":2136,"Reg":2137,"##ons":2138,"hatt":2139,"heller":2140,"##ensjon":2141,"Am":2142,"stra":2143,"##ile":2144,"03":2145,"histor":2146,"194":2147,"nærm":2148,"finne":2149,"##sett":2150,"fun":2151,"fol":2152,"rep":2153,"##stit":2154,"dat":2155,"Kar":2156,"fag":2157,"hvert":2158,"Pro":2159,"##ina":2160,"gode":2161,"##aff":2162,"##ente":2163,"##isen":2164,"##satte":2165,"##bo":2166,"##ført":2167,"kar":2168,"Som":2169,"kn":2170,"##sket":2171,"mat":2172,"fri":2173,"tror":2174,"økonom":2175,"##~~":2176,"grupp":2177,"best":2178,"besk":2179,"##stilling":2180,"Tor":2181,"finn":2182,"##stru":2183,"##ity":2184,"##ike":2185,"skap":2186,"##va":2187,"##ferd":2188,"dere":2189,"##sted":2190,"gener":2191,"06":2192,"##ppen":2193,"##ies":2194,"##uro":2195,"##dal":2196,"##spunkt":2197,"prosent":2198,"##ringer":2199,"bra":2200,"##ider":2201,"fot":2202,"##råd":2203,"norsk":2204,"skjø":2205,"stad":2206,"##tekt":2207,"kir":2208,"sos":2209,"##midlertid":2210,"spesi":2211,"##ja":2212,"##by":2213,"valg":2214,"Norsk":2215,"##partementet":2216,"halv":2217,"##sh":2218,"##odet":2219,"35":2220,"eng":2221,"nev":2222,"rel":2223,"milli":2224,"Denne":2225,"fem":2226,"Hvis":2227,"##river":2228,"##AR":2229,"kort":2230,"verden":2231,"##gt":2232,"liten":2233,"Un":2234,"din":2235,"lite":2236,"kal":2237,"##part":2238,"nødvend":2239,"hjem":2240,"##verk":2241,"kultur":2242,"##vær":2243,"vart":2244,"##bar":2245,"ho":2246,"fakt":2247,"##under":2248,"ca":2249,"kraft":2250,"##okk":2251,"svært":2252,"55":2253,"##ST":2254,"lever":2255,"død":2256,"mus":2257,"##io":2258,"##kur":2259,"skole":2260,"mark":2261,"gjen":2262,"Hvor":2263,"##iste":2264,"hjelp":2265,"##alitet":2266,"dire":2267,"##ager":2268,"##up":2269,"sik":2270,"samfunn":2271,"##heim":2272,":.":2273,"##øren":2274,"ferd":2275,"##inga":2276,"inform":2277,"Ny":2278,"eksempel":2279,"inv":2280,"tiden":2281,"rom":2282,"hje":2283,"##ålet":2284,"plass":2285,"krav":2286,"fil":2287,"vanskelig":2288,"##ipp":2289,"ang":2290,"##oren":2291,".,":2292,"les":2293,"imidlertid":2294,"##ka":2295,"vin":2296,"forskjel":2297,"grad":2298,"##bet":2299,"tjene":2300,"##lene":2301,"##bygg":2302,"##andre":2303,"stå":2304,"##mark":2305,"jobb":2306,"dr":2307,"ansvar":2308,"fant":2309,"##aten":2310,"##atet":2311,"ret":2312,"##oss":2313,"kveld":2314,"spørsmål":2315,"##ET":2316,"art":2317,"senere":2318,"##rens":2319,"ben":2320,"id":2321,"##istr":2322,"##ses":2323,"##mmet":2324,"mennesker":2325,"fire":2326,"nesten":2327,"Bl":2328,"##ma":2329,"omf":2330,"##int":2331,"##jef":2332,"lenge":2333,"##da":2334,"ute":2335,"##revet":2336,"##jente":2337,"##kv":2338,"ter":2339,"##agen":2340,"##off":2341,"##øk":2342,"slag":2343,"organis":2344,"fa":2345,"result":2346,"gitt":2347,"are":2348,"holdt":2349,"##utter":2350,"ett":2351,"fors":2352,"Bar":2353,"ønsker":2354,"##lys":2355,"##oks":2356,"193":2357,"##spro":2358,"##br":2359,"##iss":2360,"prosjekt":2361,"##fer":2362,"##uss":2363,"##dan":2364,"Ste":2365,"##elles":2366,"særlig":2367,"arbeidet":2368,"##ivitet":2369,"oppg":2370,"##ikket":2371,"att":2372,"meget":2373,"as":2374,"met":2375,"avt":2376,"##use":2377,"##tet":2378,"Opp":2379,"##vor":2380,"##ment":2381,"##eleg":2382,"##ave":2383,"##elø":2384,"veldig":2385,"hens":2386,"op":2387,"##ommer":2388,"spur":2389,"gre":2390,"gje":2391,"##ford":2392,"syke":2393,"Inn":2394,"##oven":2395,"##ffekt":2396,"Eg":2397,"vurder":2398,"##onym":2399,"mang":2400,"interes":2401,"##udd":2402,"##egn":2403,"##uten":2404,"Før":2405,"situ":2406,"fø":2407,"problem":2408,"##elses":2409,"##ument":2410,"im":2411,"barne":2412,"kost":2413,"likevel":2414,"fre":2415,"Be":2416,"enkelte":2417,"innt":2418,"##stra":2419,"kre":2420,"Man":2421,"kommune":2422,"##ht":2423,"ne":2424,"##ansen":2425,"allerede":2426,"wh":2427,"pre":2428,"tan":2429,"behov":2430,"bid":2431,"##nr":2432,"sør":2433,"forstå":2434,"utvikling":2435,"##erg":2436,"##uts":2437,"##EL":2438,"finnes":2439,"##ommun":2440,"26":2441,"##gj":2442,"livet":2443,"##lipp":2444,"##ats":2445,"årene":2446,"menn":2447,"##ern":2448,"Ha":2449,"anonym":2450,"slike":2451,"tak":2452,"begynte":2453,"##ule":2454,"28":2455,"##rim":2456,"bruke":2457,"with":2458,"stand":2459,"27":2460,"Or":2461,"##kom":2462,"##iene":2463,"La":2464,"##klar":2465,"##ivå":2466,"##dde":2467,"repres":2468,"##SA":2469,"krig":2470,"##unnet":2471,"##ksomhet":2472,"samarbeid":2473,"kro":2474,"skjer":2475,"##one":2476,"sty":2477,"##mmen":2478,"##bruk":2479,"##ensen":2480,"kommet":2481,"ga":2482,"bruker":2483,"lenger":2484,"oppf":2485,"##roll":2486,"holde":2487,"våre":2488,"Ikke":2489,"landet":2490,"domain":2491,"##akter":2492,"##vid":2493,"pos":2494,"##agn":2495,"rekke":2496,"Ma":2497,"##tern":2498,"##isering":2499,"##orten":2500,"01":2501,"gjerne":2502,"bas":2503,"anonymous":2504,"192":2505,"leder":2506,"fleste":2507,"##erte":2508,"altså":2509,"virkelig":2510,"##ærer":2511,"##our":2512,"##ral":2513,"ledd":2514,"Sel":2515,"Dag":2516,"tem":2517,"ex":2518,"##asi":2519,"that":2520,"##ball":2521,"paa":2522,"##oden":2523,"neste":2524,"begge":2525,"øv":2526,"forv":2527,"##ote":2528,"ti":2529,"##anen":2530,"sikker":2531,"synes":2532,"##ga":2533,"##ivet":2534,"foret":2535,"##tatt":2536,"##ått":2537,"mån":2538,"jul":2539,"kam":2540,"Fra":2541,"##ilte":2542,"##ron":2543,"##jørn":2544,"Sol":2545,"råd":2546,"##ivers":2547,"Alle":2548,"Ne":2549,"##ivt":2550,"eneste":2551,"fisk":2552,"##året":2553,"dra":2554,"till":2555,"ganger":2556,"vind":2557,"dagen":2558,"##vert":2559,"løs":2560,"bur":2561,"visste":2562,"peri":2563,"ol":2564,"dyr":2565,"##igur":2566,"##kst":2567,"føre":2568,"##uni":2569,"##isert":2570,"191":2571,"##igheten":2572,"##ktor":2573,"hj":2574,"nødvendig":2575,"29":2576,"forslag":2577,"##ction":2578,"fred":2579,"kny":2580,"pe":2581,"ja":2582,"forsø":2583,"Fot":2584,"Kl":2585,"##ningene":2586,"At":2587,"hverandre":2588,"##aker":2589,"##råk":2590,"##annen":2591,"hend":2592,"##drag":2593,"bef":2594,"Hans":2595,"##unnskap":2596,"##ich":2597,"##lagt":2598,"lagt":2599,"fjer":2600,"##pa":2601,"##af":2602,"##aren":2603,"ob":2604,"gått":2605,"fortsatt":2606,"##uer":2607,"##ustri":2608,"natt":2609,"fød":2610,"tiltak":2611,"vei":2612,"##IL":2613,"miljø":2614,"start":2615,"stille":2616,"bek":2617,"sc":2618,"dår":2619,"saken":2620,"##ator":2621,"##sst":2622,"vanlig":2623,"##rasjon":2624,"##syk":2625,"imp":2626,"it":2627,"##ves":2628,"##ose":2629,"sagt":2630,"##gram":2631,"fall":2632,"klart":2633,"##elsene":2634,"##ben":2635,"##........":2636,"priv":2637,"##lighet":2638,"mar":2639,"##vem":2640,"tru":2641,"##ører":2642,"##ah":2643,"Fr":2644,"##øn":2645,"##æring":2646,"dre":2647,"Arbeid":2648,"foran":2649,"intern":2650,"system":2651,"Kon":2652,"100":2653,"##ommet":2654,"##ou":2655,"Nei":2656,"hy":2657,"kjør":2658,"##lever":2659,"##ssk":2660,"##mb":2661,"31":2662,"Hol":2663,"##grunn":2664,"##fall":2665,"post":2666,"utenfor":2667,"minst":2668,"##merik":2669,"sette":2670,"Andre":2671,"leng":2672,"us":2673,"spurte":2674,"##rand":2675,"gamm":2676,"kjem":2677,"##ure":2678,"nu":2679,"il":2680,"enkelt":2681,"##kter":2682,"ful":2683,"dok":2684,"ene":2685,"##rang":2686,"bud":2687,"kjent":2688,"Stat":2689,"##ening":2690,"hodet":2691,"##oret":2692,"##unt":2693,"##røm":2694,"##urat":2695,"foreld":2696,"set":2697,"Kn":2698,"##gra":2699,"ba":2700,"følge":2701,"kunst":2702,"##byg":2703,"svarte":2704,"##len":2705,"##ink":2706,"møte":2707,"##iale":2708,"He":2709,"Kv":2710,"bø":2711,"mør":2712,"not":2713,"hev":2714,"##ris":2715,"effekt":2716,"finner":2717,"tekn":2718,"pris":2719,"##ommen":2720,"Christ":2721,"dager":2722,"##fører":2723,"drift":2724,"##man":2725,"forteller":2726,"bry":2727,"vær":2728,"##aks":2729,"##fon":2730,"##ium":2731,"forskjellige":2732,"helse":2733,"sann":2734,"elev":2735,"sh":2736,"##enten":2737,"enda":2738,"##anser":2739,"dersom":2740,"##ung":2741,"felles":2742,"Sør":2743,"##jor":2744,"##på":2745,"##alet":2746,"##ilde":2747,"event":2748,"konkur":2749,"kvinn":2750,"##bud":2751,"##eland":2752,"send":2753,"unge":2754,"tv":2755,"##sam":2756,"kontakt":2757,"##urs":2758,"brukt":2759,"samtidig":2760,"ab":2761,"mitt":2762,"disk":2763,"##AL":2764,"ch":2765,"luft":2766,"nem":2767,"##dt":2768,"juni":2769,"gar":2770,"mater":2771,"feil":2772,"##følge":2773,"Under":2774,"##erer":2775,"ansikt":2776,"ganske":2777,"Sver":2778,"##ON":2779,"ro":2780,"Stor":2781,"##yt":2782,"02":2783,"##kret":2784,"##indelse":2785,"prof":2786,"ves":2787,"dis":2788,"største":2789,"trenger":2790,"##ynene":2791,"##qu":2792,"##esl":2793,"Fred":2794,"informasjon":2795,"ven":2796,"##rive":2797,"Per":2798,"##stend":2799,"navn":2800,"tenkte":2801,"tred":2802,"##deling":2803,"venn":2804,"##kje":2805,"##olle":2806,"##kkurat":2807,"09":2808,"##lert":2809,"tap":2810,"Ander":2811,"Norges":2812,"po":2813,"syk":2814,"08":2815,"##inget":2816,"##entene":2817,"Hel":2818,"##IS":2819,"Hal":2820,"##uelle":2821,"stedet":2822,"##ng":2823,"året":2824,"##reng":2825,"##ograf":2826,"##uk":2827,"skjed":2828,"##tre":2829,"nasjon":2830,"sommer":2831,"kvinner":2832,"##ta":2833,"mine":2834,"Pl":2835,"rø":2836,"tallet":2837,"##ritt":2838,"##ital":2839,"60":2840,"én":2841,"##deles":2842,"##fe":2843,"bord":2844,"då":2845,"##ase":2846,"##ach":2847,"pra":2848,"opplev":2849,"løpet":2850,"##ative":2851,"##son":2852,"##nal":2853,"inntekt":2854,"regjer":2855,"Stort":2856,"Euro":2857,"##linger":2858,"##ikkert":2859,"seks":2860,"##føring":2861,"##anter":2862,"morgen":2863,"tør":2864,"skje":2865,"##beide":2866,"forf":2867,"forbindelse":2868,"gjeld":2869,"behand":2870,"##ved":2871,"riktig":2872,"lære":2873,"alvor":2874,"Ro":2875,"##kene":2876,"betydning":2877,"##ynd":2878,"##lemmer":2879,"bolig":2880,"##atene":2881,"legge":2882,"##ac":2883,"##aller":2884,"Fl":2885,"##urt":2886,"forn":2887,"##snitt":2888,"avsl":2889,"Vest":2890,"erfar":2891,"hu":2892,"Dan":2893,"pass":2894,"støtte":2895,"##rådet":2896,"området":2897,"##ING":2898,"##minist":2899,"):":2900,"##huset":2901,"spesielt":2902,"##nte":2903,"kjente":2904,"##står":2905,"##ffer":2906,"omk":2907,"egne":2908,"utgang":2909,"jf":2910,"##verd":2911,"##ånd":2912,"Fran":2913,"##disjon":2914,"##ifter":2915,"hjemme":2916,"##istrikt":2917,"##rige":2918,"##uder":2919,"marked":2920,"##oler":2921,"##ete":2922,"190":2923,"mannen":2924,"bestemm":2925,"represent":2926,"##orn":2927,"##sland":2928,"punkt":2929,"kunnskap":2930,"##stein":2931,"##nem":2932,"laget":2933,"##iktige":2934,"direkte":2935,"byen":2936,"lo":2937,"Høy":2938,"grunnlag":2939,"##ader":2940,"##går":2941,"veien":2942,"Bergen":2943,"##valg":2944,"hensyn":2945,"##øv":2946,"mai":2947,"tyd":2948,"sub":2949,"##ple":2950,"etab":2951,"seier":2952,"Sand":2953,"grø":2954,"Mart":2955,"##entlige":2956,"##sette":2957,"Ho":2958,"##organ":2959,"sterk":2960,"selskap":2961,"betyr":2962,"07":2963,"fylke":2964,"##ammer":2965,"USA":2966,"##rifter":2967,"Ge":2968,"##ebl":2969,"lys":2970,"##adet":2971,"nærmere":2972,"##sport":2973,"##dus":2974,"meld":2975,"Var":2976,"millioner":2977,"##fin":2978,"lav":2979,"anal":2980,"ekte":2981,"sjøl":2982,"bu":2983,"##ata":2984,"Jon":2985,"##fra":2986,"personer":2987,"33":2988,"##ppe":2989,"høre":2990,"kjøp":2991,"##valget":2992,"fjell":2993,"##ftet":2994,"snart":2995,"redus":2996,"eiend":2997,"##omme":2998,"kontroll":2999,"Bru":3000,"Hen":3001,"##iz":3002,"##ogen":3003,"##ork":3004,"pasi":3005,"32":3006,"Ann":3007,",-":3008,"##orter":3009,"##lf":3010,"John":3011,"forl":3012,"##essig":3013,"posit":3014,"Ad":3015,"stadig":3016,"lønn":3017,"Sy":3018,"brukes":3019,"##sert":3020,"fer":3021,"##ju":3022,"deler":3023,"beny":3024,"Noen":3025,"##rom":3026,"lev":3027,"##AG":3028,"##uar":3029,"beveg":3030,"kommunen":3031,"##ktur":3032,"eget":3033,"bedrift":3034,"##stitusjon":3035,"vårt":3036,"##holder":3037,"kons":3038,"##aksjon":3039,"Sv":3040,"Car":3041,"##usen":3042,"funksjon":3043,"fru":3044,"##lemer":3045,"Ty":3046,"snakke":3047,"ungdom":3048,"##AT":3049,"##ingene":3050,"Over":3051,"dermed":3052,"langs":3053,"##iljø":3054,"kol":3055,"##ammen":3056,"##menn":3057,"tenke":3058,"produksjon":3059,"vekt":3060,"Nil":3061,"##ellen":3062,"##ps":3063,",.":3064,"efter":3065,"##følg":3066,"tot":3067,"rask":3068,"psyk":3069,"gutt":3070,"con":3071,"Par":3072,"Erik":3073,"##gent":3074,"bevis":3075,"rad":3076,"189":3077,"pub":3078,"overfor":3079,"forklar":3080,"skolen":3081,"huset":3082,"##somt":3083,"##ES":3084,"sønn":3085,"lokal":3086,"brø":3087,"vise":3088,"##vern":3089,"akkurat":3090,"Kom":3091,"innenfor":3092,"##rum":3093,"mist":3094,"##sjett":3095,"but":3096,"##esk":3097,"burde":3098,"fry":3099,"mott":3100,"rapp":3101,"Disse":3102,"Sh":3103,"##aget":3104,"øynene":3105,"lin":3106,"Finn":3107,"Foto":3108,"Trond":3109,"jan":3110,"skriver":3111,"do":3112,"##uelt":3113,"Dei":3114,"##øs":3115,"val":3116,"##avnet":3117,"Gj":3118,"##ås":3119,"Ind":3120,"##ledes":3121,"##landet":3122,"alder":3123,"foresl":3124,"oper":3125,"tor":3126,"forut":3127,"døde":3128,"mars":3129,"øyebl":3130,"gro":3131,"rette":3132,"Sch":3133,"pa":3134,"aktivitet":3135,"Mo":3136,"uttrykk":3137,"ak":3138,"##ori":3139,"##ndag":3140,"Ein":3141,"dro":3142,"bo":3143,"##imm":3144,"90":3145,"##essuten":3146,"norm":3147,"und":3148,"70":3149,"opplys":3150,"try":3151,"##elefon":3152,"Alt":3153,"No":3154,"aks":3155,"##bu":3156,"hjelpe":3157,"##stat":3158,"##20":3159,"##ologi":3160,"##bil":3161,"##nev":3162,"vite":3163,"##danning":3164,"##ath":3165,"Sm":3166,"##iker":3167,"hjer":3168,"##uft":3169,"time":3170,"mel":3171,"##anten":3172,"##dene":3173,"##sut":3174,"funnet":3175,"Ole":3176,"##ED":3177,"##fjord":3178,"Land":3179,"##meld":3180,"ring":3181,"##ice":3182,"slags":3183,"stre":3184,"##kel":3185,"stod":3186,"Jes":3187,"##RK":3188,"hvem":3189,"følgende":3190,"kast":3191,"måten":3192,"drø":3193,"legger":3194,"undersøk":3195,"skog":3196,"prakt":3197,"ferdig":3198,"##erson":3199,"gift":3200,"##arbeidet":3201,"vari":3202,"forsvar":3203,"bygge":3204,"##ida":3205,"Mange":3206,"Me":3207,"##ogn":3208,"##gte":3209,"skyld":3210,"New":3211,"fest":3212,"##ulle":3213,"app":3214,"behandling":3215,"dokument":3216,"80":3217,"imot":3218,"NT":3219,"vert":3220,"##skudd":3221,"energ":3222,"##ksis":3223,"##giv":3224,"Ingen":3225,"um":3226,"eldre":3227,"##th":3228,"Pa":3229,"region":3230,"##rol":3231,"##vere":3232,"ris":3233,"job":3234,"ul":3235,"##hør":3236,"Sø":3237,"##ighetene":3238,"##ittel":3239,"04":3240,"Berg":3241,"viste":3242,"barna":3243,"internasjon":3244,"##ors":3245,"##OT":3246,"borte":3247,"##gift":3248,"barnet":3249,"##visning":3250,"##inen":3251,"aug":3252,"##isere":3253,"so":3254,"penger":3255,"sov":3256,"\"\"\"\".":3257,"vok":3258,"sikkert":3259,"Hvordan":3260,"bestemt":3261,".\"\"\"":3262,"##tal":3263,"rik":3264,"##bok":3265,"##sson":3266,"ide":3267,"mis":3268,"makt":3269,"slo":3270,"##lin":3271,"hørte":3272,"verdens":3273,"2016":3274,"elekt":3275,"##punkt":3276,"##ersom":3277,"##kast":3278,"##ffe":3279,"2018":3280,"kjenner":3281,"##ood":3282,"Rom":3283,"gammel":3284,"glad":3285,"grå":3286,"avgjør":3287,"##mar":3288,"Øst":3289,"vest":3290,"musikk":3291,"sky":3292,"34":3293,"##unde":3294,"from":3295,"188":3296,"##hed":3297,"##usk":3298,"##orer":3299,"mynd":3300,"##che":3301,"omkring":3302,"naturlig":3303,"##æl":3304,"nøy":3305,"##gjør":3306,"##pril":3307,"##spekt":3308,"fart":3309,"voks":3310,"##oder":3311,"tall":3312,"tun":3313,"Dersom":3314,"Eng":3315,"##iversitet":3316,"aut":3317,"##rit":3318,"##lar":3319,"knyttet":3320,"36":3321,"##atisk":3322,"tran":3323,"##pper":3324,"sterkt":3325,"##holde":3326,"##yst":3327,"##enser":3328,"##ørdag":3329,"tydelig":3330,"fyr":3331,"krit":3332,"tvil":3333,"##affe":3334,"spiller":3335,"Tid":3336,"##nader":3337,"##ions":3338,"lille":3339,"tredje":3340,"dram":3341,"lyd":3342,"gjer":3343,"##fte":3344,"egentlig":3345,"kamp":3346,"tradisjon":3347,"alene":3348,"vit":3349,"vinter":3350,"##rør":3351,"##ering":3352,"To":3353,"##departementet":3354,"##kjø":3355,"sosial":3356,"retning":3357,"tø":3358,"##ph":3359,"regel":3360,"prøv":3361,"meter":3362,"fordel":3363,"menneske":3364,"ko":3365,"Kan":3366,"skrive":3367,"tom":3368,"have":3369,"##kn":3370,"##undet":3371,"##ical":3372,"faktisk":3373,"##mte":3374,"-.":3375,"Kir":3376,"eksp":3377,"holder":3378,"antall":3379,"##setning":3380,"##kkes":3381,"inns":3382,"##rinn":3383,"ford":3384,"##veien":3385,"utgangspunkt":3386,"##stene":3387,"komp":3388,"ses":3389,"Lars":3390,"januar":3391,"helst":3392,"##eth":3393,"##verket":3394,"kat":3395,"prins":3396,"født":3397,"##ign":3398,"ge":3399,"##ember":3400,"##istisk":3401,"Jan":3402,"Te":3403,"tilsvar":3404,"blå":3405,"##ese":3406,"##isjonen":3407,"##onn":3408,"##sjekt":3409,"fekk":3410,"års":3411,"Ant":3412,"tal":3413,"ban":3414,"folke":3415,"treng":3416,"##anskje":3417,"midt":3418,"utford":3419,"em":3420,"Kanskje":3421,"kjær":3422,"sal":3423,"##bef":3424,"##øst":3425,"was":3426,"nettopp":3427,"plasser":3428,"spe":3429,"##ttes":3430,"ansatte":3431,"sku":3432,"eier":3433,"##ativt":3434,"##grupp":3435,"##ygge":3436,"##apir":3437,"fatt":3438,"tidlig":3439,"##ften":3440,"Også":3441,"##aken":3442,"kil":3443,"##hav":3444,"TV":3445,"##itte":3446,"##til":3447,"kvinne":3448,"kirke":3449,"##ame":3450,"Sverige":3451,"vold":3452,"na":3453,"hvorfor":3454,"hånden":3455,"Mid":3456,"##met":3457,"dårlig":3458,"lange":3459,"##send":3460,"reise":3461,"##okken":3462,"2017":3463,"april":3464,"##rende":3465,"bygg":3466,"stilling":3467,"slikt":3468,"sentr":3469,"ekstra":3470,"hvilke":3471,"ønsket":3472,"##lege":3473,"kli":3474,"real":3475,"##aste":3476,"familie":3477,"Johan":3478,"konse":3479,"187":3480,"##øte":3481,"186":3482,"høyere":3483,"##utselig":3484,"snakket":3485,"mig":3486,"##mod":3487,"krist":3488,"Kj":3489,"næring":3490,"Sl":3491,"noko":3492,"##asje":3493,"tilfelle":3494,"##øg":3495,"II":3496,"regn":3497,"!.":3498,"medlem":3499,"##vå":3500,"##SS":3501,"##forsk":3502,"##cc":3503,"37":3504,"##kår":3505,"gul":3506,"##ime":3507,"##stid":3508,"##unst":3509,"okt":3510,"##bart":3511,"##sty":3512,"Fin":3513,"##ivil":3514,"##late":3515,"kvalitet":3516,"Mer":3517,"yr":3518,"offentlig":3519,"politiet":3520,"##hengig":3521,"##kkelig":3522,"forsv":3523,"lærer":3524,"co":3525,"fi":3526,"åpen":3527,"løp":3528,"lyst":3529,"gangen":3530,"satte":3531,"##mor":3532,"##ytt":3533,"industri":3534,"##ivid":3535,"skip":3536,"tilbud":3537,"##eløp":3538,"##kar":3539,"2015":3540,"Co":3541,"##vs":3542,"teg":3543,"Min":3544,"tett":3545,"kompet":3546,"familien":3547,"opprett":3548,"stopp":3549,"minutter":3550,"##aen":3551,"AS":3552,"##OL":3553,"juli":3554,"Bjørn":3555,"##gangen":3556,"##elsk":3557,"skatt":3558,"##esp":3559,"høyt":3560,"virksomhet":3561,"amerik":3562,"Ul":3563,"ellers":3564,"Derfor":3565,"strø":3566,"ennå":3567,"##angen":3568,"Anne":3569,"##etten":3570,"stund":3571,"vist":3572,"##\"\"\"\"":3573,"lot":3574,"##pos":3575,"##isme":3576,"øyeblikk":3577,"forh":3578,"praksis":3579,"fiske":3580,"sjå":3581,"Kr":3582,"arbeider":3583,"administ":3584,"bereg":3585,"Sc":3586,"bred":3587,"vore":3588,"lokale":3589,"slå":3590,"##annet":3591,"sammenheng":3592,"##als":3593,"følger":3594,"ren":3595,"##bruks":3596,"##holdet":3597,"fys":3598,"##IK":3599,"38":3600,"##entar":3601,"##ai":3602,"blod":3603,"##abil":3604,"##sbe":3605,"foreg":3606,"##ifte":3607,"kje":3608,"##OM":3609,"##lende":3610,"##fly":3611,"##genting":3612,"press":3613,"besl":3614,"##uter":3615,"rev":3616,"##aling":3617,"##ban":3618,"bi":3619,"fører":3620,"##abell":3621,"påvir":3622,"##vok":3623,"Olav":3624,"##iserte":3625,"##rike":3626,"##ante":3627,"rød":3628,"bakgrunn":3629,"problemer":3630,"##åt":3631,"grav":3632,"timer":3633,"##føres":3634,"ytter":3635,"##unnen":3636,"##uld":3637,"41":3638,"##bin":3639,"hvilken":3640,"##aldt":3641,"klare":3642,"nevnt":3643,"och":3644,"ress":3645,"saa":3646,"sep":3647,"salg":3648,"bod":3649,"nemlig":3650,"ud":3651,"ventet":3652,"karakter":3653,"pot":3654,"sikre":3655,"måned":3656,"rek":3657,"straff":3658,"##kommende":3659,"oms":3660,"økonomiske":3661,"Hvorfor":3662,"spørsmålet":3663,"lar":3664,"##iteen":3665,"Hå":3666,"risik":3667,"språk":3668,"##ukt":3669,"meir":3670,"fjor":3671,"økt":3672,"39":3673,"##stet":3674,"Trom":3675,"bidra":3676,"ST":3677,"500":3678,"fremdeles":3679,"##kjent":3680,"Slik":3681,"samlet":3682,"##annes":3683,"##une":3684,"prøve":3685,"ramm":3686,"##fold":3687,"nivå":3688,"##ober":3689,"merke":3690,"##yen":3691,"bel":3692,"leve":3693,"75":3694,"##ringen":3695,"##legget":3696,"tross":3697,"##yss":3698,"Ola":3699,"Stortinget":3700,"##tember":3701,"vere":3702,"##eltet":3703,"altern":3704,"##deren":3705,"##borg":3706,"berre":3707,"##rateg":3708,"bnr":3709,"sikkerhet":3710,"Peder":3711,"##laget":3712,"same":3713,"##alle":3714,"ansiktet":3715,"steder":3716,"End":3717,"Knut":3718,"neg":3719,"##ellet":3720,"##~~~~":3721,"##okus":3722,"##edag":3723,"oppdag":3724,"sat":3725,"##ikasjon":3726,"##yggen":3727,"##repet":3728,"Dem":3729,"##isten":3730,"##elag":3731,"##ba":3732,"##sa":3733,"##ius":3734,"##imot":3735,"##nytt":3736,"Hus":3737,"hum":3738,"traf":3739,"mente":3740,"ditt":3741,"dig":3742,"##uttet":3743,"uts":3744,"sid":3745,"fir":3746,"##itu":3747,"reiste":3748,"mask":3749,"2000":3750,"##løs":3751,"barneh":3752,"blev":3753,"sende":3754,"rest":3755,"##leis":3756,"Mor":3757,"politiske":3758,"##synlig":3759,"##hver":3760,"Lar":3761,"virke":3762,"##full":3763,"##stendig":3764,"Vel":3765,"Seiv":3766,"##enta":3767,"inntil":3768,"##duksjon":3769,"##able":3770,"skjønn":3771,"Eller":3772,"historie":3773,"eig":3774,"folket":3775,"##ID":3776,"##ations":3777,"##ongen":3778,"spille":3779,"brev":3780,"##bø":3781,"medlemmer":3782,"venstre":3783,"##vikling":3784,"ras":3785,"ur":3786,"Polit":3787,"Kristian":3788,"km":3789,"viktigste":3790,"tyn":3791,"##rar":3792,"ref":3793,"Odd":3794,"God":3795,"Ser":3796,"begrens":3797,"42":3798,"##nne":3799,"##smin":3800,"Bra":3801,"følte":3802,"august":3803,"skyl":3804,"åpnet":3805,"##sto":3806,"Kommun":3807,"NTB":3808,"topp":3809,"desember":3810,"Vid":3811,"##RE":3812,"##ansett":3813,"Ed":3814,"stol":3815,"produs":3816,"pensjon":3817,"kart":3818,"185":3819,"Ta":3820,"##pass":3821,"##atten":3822,"oppn":3823,"##ias":3824,"deb":3825,"bilen":3826,"ry":3827,"pri":3828,"setter":3829,"##plan":3830,"##ww":3831,"ag":3832,"NRK":3833,"september":3834,"fortelle":3835,"My":3836,"Ag":3837,"##ish":3838,"Beg":3839,"48":3840,"##tok":3841,"kunde":3842,"Frank":3843,"##kont":3844,"kroppen":3845,"Gl":3846,"stru":3847,"##attet":3848,"##post":3849,"vedtak":3850,"rolle":3851,"##ktør":3852,"ass":3853,"ident":3854,"Is":3855,"##mmelig":3856,"##rest":3857,"##eres":3858,"##ård":3859,"Lang":3860,"Vær":3861,"møter":3862,"##inter":3863,"##skaper":3864,"heter":3865,"44":3866,"##utning":3867,"skre":3868,"gis":3869,"##områ":3870,"##øyd":3871,"##serv":3872,"arbeids":3873,"lage":3874,"Sn":3875,"utstyr":3876,"##iler":3877,"##allen":3878,"konsekv":3879,"##bruar":3880,"uke":3881,"this":3882,"Like":3883,"sitter":3884,"døren":3885,"##standen":3886,"trakk":3887,"visst":3888,"offentlige":3889,"kvar":3890,"##dere":3891,"krev":3892,"verk":3893,"mand":3894,"##ystem":3895,"privat":3896,"##ko":3897,"data":3898,"##bord":3899,"##van":3900,"Vil":3901,"midler":3902,"fremst":3903,"reguler":3904,"viktige":3905,"fullt":3906,"##tale":3907,"skol":3908,"##ents":3909,"oppmer":3910,"##ubb":3911,"##ån":3912,"Europa":3913,"interesse":3914,"gav":3915,"viss":3916,"Wil":3917,"##utte":3918,"2019":3919,"Pr":3920,"www":3921,"oktober":3922,"oppe":3923,"Kong":3924,"##egg":3925,"alm":3926,"##ørsm":3927,"individ":3928,"##gar":3929,"##ielle":3930,"Trondheim":3931,"saman":3932,"43":3933,"jern":3934,"regler":3935,"søk":3936,"##dra":3937,"interv":3938,"##its":3939,"mill":3940,"##ight":3941,"blom":3942,"##RA":3943,"##ated":3944,"pop":3945,"Far":3946,"Fol":3947,"##mannen":3948,"##plass":3949,"inkl":3950,"preg":3951,"##ham":3952,"##itenskap":3953,"##we":3954,"##enfor":3955,"områder":3956,"ann":3957,"46":3958,"Gr":3959,"tenker":3960,"hører":3961,"Regi":3962,"##uell":3963,"finans":3964,"lese":3965,"Lu":3966,"##ita":3967,"tenkt":3968,"##vin":3969,"Bare":3970,"##urnal":3971,"##ikkel":3972,"inneb":3973,"sterke":3974,"fang":3975,"star":3976,"##istiske":3977,"Ham":3978,"saker":3979,"vant":3980,"##olf":3981,"##IT":3982,"begynner":3983,"##mmene":3984,"ingenting":3985,"Olsen":3986,"##enske":3987,"Paul":3988,"produkt":3989,"endring":3990,"Jesus":3991,"##arar":3992,"##skole":3993,"Guds":3994,"sosiale":3995,"trodde":3996,"Ver":3997,"##amma":3998,"enten":3999,"selve":4000,"##hen":4001,"##iger":4002,"mon":4003,"##læring":4004,"##ående":4005,"hundre":4006,"pol":4007,"rop":4008,"##mål":4009,"##kost":4010,"Martin":4011,"##ibli":4012,"februar":4013,"raskt":4014,"##polit":4015,"institusjon":4016,"faren":4017,"Bo":4018,"forskning":4019,"Dire":4020,"hind":4021,"Stav":4022,"47":4023,"relig":4024,"vak":4025,"arrang":4026,"ark":4027,"##ace":4028,"##isin":4029,"##orte":4030,"kur":4031,"\"\"\"\",":4032,"##hetene":4033,"skjedde":4034,"##SK":4035,"##rimin":4036,"##srett":4037,"datter":4038,"plutselig":4039,"##jøre":4040,"##ledning":4041,"##svis":4042,"##kkel":4043,"sist":4044,"##ending":4045,"organisasjon":4046,"novem":4047,"spesial":4048,"cm":4049,"skape":4050,"##LE":4051,"konkurran":4052,"arm":4053,"##retning":4054,"situasjonen":4055,"skrev":4056,"Arne":4057,"##ational":4058,"##uen":4059,"##UN":4060,"telefon":4061,"årsak":4062,"utdanning":4063,"tå":4064,"##rib":4065,"november":4066,"økonomisk":4067,"##way":4068,"kong":4069,".:":4070,"##ffet":4071,"dagens":4072,"##legging":4073,"dine":4074,"##eri":4075,"Bil":4076,"##kraft":4077,"passer":4078,"Tom":4079,"##sken":4080,"##folk":4081,"##iven":4082,"redd":4083,"##ologisk":4084,"mulighet":4085,"##king":4086,"unna":4087,"##po":4088,"skade":4089,"##gjeng":4090,"##jær":4091,"brukte":4092,"##setter":4093,"dør":4094,"##bare":4095,"søndag":4096,"bilde":4097,"hendene":4098,"mening":4099,"##holdt":4100,"situasjon":4101,"##middel":4102,"##innet":4103,"slutten":4104,"analy":4105,"Verd":4106,"Lille":4107,"##ikring":4108,"skatte":4109,"fokus":4110,"stemme":4111,"##stemm":4112,"##skrift":4113,"##ologiske":4114,"fotball":4115,"##ally":4116,"1990":4117,"184":4118,"milit":4119,"##ollen":4120,"fortsatte":4121,"Ph":4122,"OG":4123,"Inge":4124,"område":4125,"Sal":4126,"ifølge":4127,"##øse":4128,"arbeide":4129,"vare":4130,"Ab":4131,".-":4132,"Karl":4133,"skrevet":4134,"rommet":4135,"vedkommende":4136,"tilsvarende":4137,"klass":4138,"opptatt":4139,"##nende":4140,"##ance":4141,"Sve":4142,"skikk":4143,"mag":4144,"måneder":4145,"##slaget":4146,"takk":4147,"høg":4148,"##vist":4149,"Fredrik":4150,"forand":4151,"##anne":4152,"##lo":4153,"høyre":4154,"sek":4155,"film":4156,"virket":4157,"##ident":4158,"feng":4159,"Anders":4160,"sve":4161,"##edet":4162,"cont":4163,"##fest":4164,"Su":4165,"##ix":4166,"anlegg":4167,"slipp":4168,"ført":4169,"stein":4170,"lørdag":4171,"51":4172,"endringer":4173,"##IG":4174,"Kor":4175,"interess":4176,"##aland":4177,"Tysk":4178,"##serie":4179,"##sav":4180,"stir":4181,"tale":4182,"ønske":4183,"##pekt":4184,"ple":4185,"opply":4186,"skriv":4187,"mykje":4188,"##ksomheten":4189,"##istrer":4190,"nei":4191,"##bygging":4192,"himm":4193,"##itter":4194,"Lø":4195,"foreldre":4196,"prosjektet":4197,"rør":4198,"##ick":4199,"Mon":4200,"bro":4201,"gjøres":4202,"sendt":4203,"skar":4204,"##stø":4205,"##asjer":4206,"Bå":4207,"fortalte":4208,"nø":4209,"vera":4210,"håper":4211,"olje":4212,"uttry":4213,"##hjel":4214,"selskapet":4215,"vekk":4216,"va":4217,"sentrum":4218,"Lov":4219,"overra":4220,"formid":4221,"##sta":4222,"avtale":4223,"startet":4224,"Mot":4225,"snø":4226,"navnet":4227,"##jenne":4228,"brann":4229,"##aven":4230,"##yret":4231,"Ing":4232,"Samtidig":4233,"idrett":4234,"As":4235,"kjøpe":4236,"##ual":4237,"##amer":4238,"venner":4239,"elevene":4240,"Øy":4241,"EU":4242,"95":4243,"##tiden":4244,"befolk":4245,"##parten":4246,"##ians":4247,"politisk":4248,"smilte":4249,"##dig":4250,"oppgå":4251,"##gene":4252,"transport":4253,"prest":4254,"##mon":4255,"49":4256,"##essige":4257,"slett":4258,"kjære":4259,"##udde":4260,"kampen":4261,"utover":4262,"Natt":4263,"Selv":4264,"muligheter":4265,"resten":4266,"grat":4267,"rim":4268,"kompetanse":4269,"Kap":4270,"åpne":4271,"##leder":4272,"Gunn":4273,"##ingar":4274,"##ute":4275,"##??":4276,"##iel":4277,"gruppe":4278,"Christian":4279,"tilk":4280,"budsjett":4281,"bland":4282,"##ces":4283,"syntes":4284,"gull":4285,"##tta":4286,"tjeneste":4287,"varme":4288,"forest":4289,"##OTO":4290,"##enet":4291,"uh":4292,"##ana":4293,"moderne":4294,"52":4295,"Sim":4296,"perioden":4297,"betydelig":4298,"fulgte":4299,"løy":4300,"##ibliote":4301,"##fil":4302,"##vand":4303,"poeng":4304,"uker":4305,"Ba":4306,"##kende":4307,"##forb":4308,"##stoff":4309,"Af":4310,"Tlf":4311,"defin":4312,"Sig":4313,"##dagen":4314,"##iere":4315,"hot":4316,"besøk":4317,"Sj":4318,"førte":4319,"##skommun":4320,"53":4321,"..":4322,"nab":4323,"ånd":4324,"test":4325,"##sliv":4326,"##atning":4327,"Johannes":4328,"føler":4329,"##sc":4330,"##vann":4331,"au":4332,"røy":4333,"has":4334,"tanke":4335,"distrikt":4336,"##illet":4337,"virker":4338,"##gående":4339,"peng":4340,"forvalt":4341,"opplysninger":4342,"kjøkken":4343,"sentral":4344,"##ement":4345,"##aus":4346,"##plikt":4347,"Tre":4348,"##kant":4349,"##urg":4350,"##iell":4351,"kvelden":4352,"krigen":4353,"##smessig":4354,"omsorg":4355,"dist":4356,"øst":4357,"##peratur":4358,"År":4359,"Jul":4360,"såk":4361,"##ikere":4362,"##mo":4363,"deretter":4364,"meng":4365,"##okrat":4366,"##ary":4367,"##................":4368,"present":4369,"##skont":4370,"prinsipp":4371,"bildet":4372,"bygget":4373,"frykt":4374,"Hoved":4375,"tol":4376,"Vå":4377,"Lond":4378,"##ikke":4379,"figur":4380,"##ome":4381,"Hansen":4382,"detal":4383,"progra":4384,"popul":4385,"uly":4386,"##sol":4387,"##apt":4388,"##iken":4389,"ødel":4390,"##jert":4391,"##ika":4392,"hørt":4393,"sant":4394,"##ric":4395,"##jet":4396,"daglig":4397,"hardt":4398,"størr":4399,"Res":4400,"reis":4401,"sjeld":4402,"fremm":4403,"99":4404,"består":4405,"sånn":4406,"##løp":4407,"Jør":4408,"Vår":4409,"instru":4410,"vente":4411,"tilfred":4412,"skrift":4413,"Ei":4414,"resultat":4415,"private":4416,"##følgelig":4417,"snudde":4418,"##rere":4419,"183":4420,"vurdering":4421,"65":4422,"kva":4423,"##edes":4424,"kastet":4425,"##ØR":4426,"##kjed":4427,"##akten":4428,"##stjene":4429,"kapittel":4430,"bekym":4431,"idet":4432,"styrke":4433,"sannsynlig":4434,"deltak":4435,"inc":4436,"utan":4437,"forbi":4438,"forskjell":4439,"samfunnet":4440,"Hvil":4441,"leil":4442,"##sloven":4443,"##lede":4444,"##AS":4445,"svart":4446,"tema":4447,"##spolit":4448,"engang":4449,"hopp":4450,"##iftet":4451,"##hl":4452,"##ubben":4453,"Kont":4454,"Ale":4455,"Thom":4456,"kg":4457,"##iat":4458,"Nils":4459,"Bjør":4460,"##æren":4461,"56":4462,"oppnå":4463,"##AND":4464,"solgt":4465,"##ua":4466,"sykehus":4467,"liker":4468,"eiendom":4469,"##førte":4470,"London":4471,"##arane":4472,"##enterer":4473,"##enk":4474,"type":4475,"klarte":4476,"staten":4477,"##aktig":4478,"##yll":4479,"##mus":4480,"besø":4481,"which":4482,"##vent":4483,"##værende":4484,"gard":4485,"##ica":4486,"henhold":4487,"##ennende":4488,"##iks":4489,"program":4490,"meste":4491,"bilder":4492,"tryg":4493,"prior":4494,"54":4495,"Ve":4496,"Tyskland":4497,"##skolen":4498,"Ter":4499,"##uet":4500,"publik":4501,"verdi":4502,"##appa":4503,"##leve":4504,"basert":4505,"vidt":4506,"##gn":4507,"##so":4508,"utviklingen":4509,"##ld":4510,"Rob":4511,"-,":4512,"nærings":4513,"endelig":4514,"kval":4515,"handler":4516,"driv":4517,"Kjø":4518,"sju":4519,"##æn":4520,"Stavanger":4521,"handling":4522,"omtr":4523,"##haug":4524,"91":4525,"invester":4526,"On":4527,"##yre":4528,"lei":4529,"dessuten":4530,"Peter":4531,"##anlegg":4532,"##essen":4533,"##organis":4534,"minste":4535,"enhver":4536,"valgt":4537,"kvart":4538,"##ensk":4539,"##sending":4540,"fint":4541,"konkret":4542,"betale":4543,"##abr":4544,"##KT":4545,"fleire":4546,"strateg":4547,"innebærer":4548,"##kap":4549,"##ales":4550,"alvorlig":4551,"middel":4552,"1995":4553,"glede":4554,"sjølv":4555,"Dav":4556,"FOR":4557,"Mag":4558,"Statens":4559,"åtte":4560,"litter":4561,"legges":4562,"yng":4563,"prote":4564,"retten":4565,"##aur":4566,"2014":4567,"FOTO":4568,"varer":4569,"glass":4570,"##vers":4571,"fredag":4572,"betrakt":4573,"##irsdag":4574,"anbef":4575,"euro":4576,"2001":4577,"##kka":4578,"oppt":4579,"1992":4580,"mob":4581,"gud":4582,"Bro":4583,"understre":4584,"1997":4585,"søker":4586,"rus":4587,"##kelige":4588,"##aske":4589,"grupper":4590,"blikk":4591,"##edal":4592,"##anset":4593,"##bruket":4594,"papir":4595,"Haug":4596,"tilfeller":4597,"forsøk":4598,"kyr":4599,"Hvem":4600,"181":4601,"Ap":4602,"##ander":4603,"general":4604,"##ppet":4605,"straks":4606,"gjekk":4607,"Regjer":4608,"bom":4609,"##kningen":4610,"departementet":4611,"##onen":4612,"avis":4613,"1994":4614,"Hau":4615,"Gjennom":4616,"##ition":4617,"##iserer":4618,"Aust":4619,"##vene":4620,"kropp":4621,"Amerik":4622,"unngå":4623,"blei":4624,"snakker":4625,"flyttet":4626,"##partiet":4627,"kjærlighet":4628,"##stillingen":4629,"bygd":4630,"##ettet":4631,"##varet":4632,"Petter":4633,"##mat":4634,"Mens":4635,"sider":4636,"ski":4637,"vesentlig":4638,"gjennomsnitt":4639,"1993":4640,"##ummer":4641,"omtrent":4642,"elever":4643,"desse":4644,"##aster":4645,"##str":4646,"##ikter":4647,"loven":4648,"kostnad":4649,"forholdet":4650,"##rikke":4651,"Rø":4652,"##vei":4653,"ill":4654,"prøver":4655,"uav":4656,"##sord":4657,"bal":4658,"krever":4659,"sur":4660,"skjedd":4661,"dikt":4662,"omfatt":4663,"##fart":4664,"##AM":4665,"vannet":4666,"##unne":4667,"##settes":4668,"avsk":4669,"material":4670,"##fag":4671,"57":4672,"180":4673,"##vende":4674,"##ely":4675,"Først":4676,"oversikt":4677,"bordet":4678,"##iteten":4679,"sang":4680,"klasse":4681,"1999":4682,"visse":4683,"##rud":4684,"##smann":4685,"##uren":4686,"##ino":4687,"arbeidsg":4688,"##rad":4689,"tusen":4690,"jobben":4691,"2005":4692,"hvite":4693,"bevisst":4694,"tidspunkt":4695,"1996":4696,"1980":4697,"Grø":4698,"refer":4699,"jobber":4700,"Thor":4701,"##ugh":4702,"tas":4703,"tog":4704,"##delingen":4705,"gjeng":4706,"##elighet":4707,"skulde":4708,"etabler":4709,"nede":4710,"arg":4711,"Mad":4712,"##åten":4713,"vekst":4714,"arbeidst":4715,"All":4716,"##ærne":4717,"stem":4718,"Mal":4719,"##spill":4720,"erfaring":4721,"##ving":4722,"##onde":4723,"oven":4724,"##øya":4725,"heim":4726,"##sagt":4727,"tekst":4728,"Gar":4729,"ent":4730,"Fyl":4731,"opprinn":4732,"uansett":4733,"##eler":4734,"tysk":4735,"ropte":4736,"##AD":4737,"Skal":4738,"##splan":4739,"##abel":4740,"spor":4741,"kjøre":4742,"fas":4743,"ra":4744,"1998":4745,"##ampen":4746,"relativt":4747,"##bruker":4748,"tilgjeng":4749,"##jerne":4750,"Både":4751,"Trø":4752,"##IV":4753,"tilstre":4754,"Jac":4755,"##illing":4756,"59":4757,"##styret":4758,"##vare":4759,"Flere":4760,"hit":4761,"undersø":4762,"##sreg":4763,"utb":4764,"styre":4765,"##øver":4766,"utd":4767,"tegn":4768,"Bor":4769,"utvalg":4770,"beskjed":4771,"VM":4772,"##arbeide":4773,"##stander":4774,"##forhold":4775,"sammenlig":4776,"##pon":4777,"##TE":4778,"##inde":4779,"##ulig":4780,"varm":4781,"inst":4782,"85":4783,"jev":4784,"dit":4785,"inneholder":4786,"interesser":4787,"Figur":4788,"internasjonale":4789,"##blem":4790,"##cy":4791,"mm":4792,"øyne":4793,"Henrik":4794,"masse":4795,"sign":4796,"ordet":4797,"kraftig":4798,"1991":4799,"##fri":4800,"prøvde":4801,"##co":4802,"Fort":4803,"##edd":4804,"ir":4805,"voksne":4806,"bestemte":4807,"##sels":4808,"Marie":4809,"Bre":4810,"hvit":4811,"##sminister":4812,"slekt":4813,"2002":4814,"indre":4815,"Danmark":4816,"bekre":4817,"utvikle":4818,"##skyld":4819,"##iti":4820,"båt":4821,"##own":4822,"ke":4823,"tilsyn":4824,"nasjonal":4825,"##jern":4826,"##slivet":4827,"trygg":4828,"##bered":4829,"ryggen":4830,"eld":4831,"Fil":4832,"hjemm":4833,"tank":4834,"2003":4835,"##sberg":4836,"velge":4837,"Siden":4838,"##lic":4839,"Anna":4840,"Con":4841,"omt":4842,"gli":4843,"regjering":4844,"trekk":4845,"Uten":4846,"oppdrag":4847,"tida":4848,"AN":4849,"##urer":4850,"97":4851,"##fyl":4852,"Rus":4853,"pat":4854,"##ict":4855,"begynn":4856,"Post":4857,"engelsk":4858,"trekke":4859,"##omen":4860,"gen":4861,"Stein":4862,"konsent":4863,"kontrakt":4864,"registrer":4865,"ner":4866,"Fri":4867,"##ory":4868,"stakk":4869,"Ford":4870,"Jens":4871,"Rå":4872,".).":4873,"Harald":4874,"stemmer":4875,"58":4876,"Stud":4877,"bodde":4878,"slått":4879,"smil":4880,"##varer":4881,"##holdning":4882,"ressur":4883,"stats":4884,"Bir":4885,"ep":4886,"delen":4887,"##fisk":4888,"adj":4889,"lavere":4890,"##entral":4891,"##ølv":4892,"øke":4893,"funger":4894,"##ther":4895,"sentrale":4896,"forelig":4897,"begynne":4898,"dels":4899,"derimot":4900,"Sar":4901,"2004":4902,"moren":4903,"Barn":4904,"kommunene":4905,"##inder":4906,"##holm":4907,"Dra":4908,"erstat":4909,"Ra":4910,"hensikt":4911,"reiser":4912,"??":4913,"omfatter":4914,"##jes":4915,"kommuner":4916,"##edagog":4917,"##orm":4918,"kjønn":4919,"forstår":4920,"##hild":4921,"akse":4922,"##klare":4923,"fortsette":4924,"dog":4925,"avhengig":4926,"##øyde":4927,"eventuelt":4928,"kjenn":4929,"##ock":4930,"##hov":4931,"Char":4932,"felt":4933,"Arbeider":4934,"##kommen":4935,"61":4936,"Sa":4937,"drive":4938,"##hund":4939,"Magn":4940,"sand":4941,"NO":4942,"fan":4943,"kne":4944,"bus":4945,"300":4946,"flert":4947,"heile":4948,"Rog":4949,"##ielt":4950,"Bu":4951,"vilkår":4952,"utr":4953,"sein":4954,"##kninger":4955,"amb":4956,"##agelig":4957,"##engt":4958,"Mel":4959,"arbeidsm":4960,"##iled":4961,"##oster":4962,"400":4963,"anna":4964,"By":4965,"lengre":4966,"##åp":4967,"trafikk":4968,"##orgens":4969,"band":4970,"nedover":4971,"anledning":4972,"motor":4973,"steg":4974,"##kjør":4975,"##nær":4976,"were":4977,"sport":4978,"##ips":4979,"##KK":4980,"##ines":4981,"##sid":4982,"spørre":4983,"energi":4984,"serv":4985,"##erie":4986,"sammens":4987,"fug":4988,"##skl":4989,"hende":4990,"skyldes":4991,"spesielle":4992,"##aden":4993,"hjert":4994,"Sen":4995,"frist":4996,"Gre":4997,"Kro":4998,"##person":4999,"sikt":5000,"##ause":5001,"Eli":5002,"##ismen":5003,"kurs":5004,"Sjø":5005,"nikket":5006,"##naden":5007,"##stående":5008,"sex":5009,"##histor":5010,"Gnr":5011,"##anke":5012,"lager":5013,"vide":5014,"hest":5015,"##rab":5016,"Ang":5017,"bære":5018,"Norske":5019,"dens":5020,"##lement":5021,"##otte":5022,"Lind":5023,"Ly":5024,"Tromsø":5025,"hov":5026,"eksister":5027,"##stedet":5028,"dvs":5029,"##anna":5030,"62":5031,"Bø":5032,"##vard":5033,"utvid":5034,"##band":5035,"1970":5036,"##smannen":5037,"##frå":5038,"frit":5039,"mamma":5040,"##out":5041,"ment":5042,"##akte":5043,");":5044,"ligge":5045,"Intern":5046,"##iets":5047,"##eningen":5048,"fare":5049,"stirret":5050,"høye":5051,"periode":5052,"sjef":5053,"##istene":5054,"ufor":5055,"##ena":5056,"slapp":5057,"dobb":5058,"møtte":5059,"frivil":5060,"##tning":5061,"inkluder":5062,"hår":5063,"log":5064,"velger":5065,"Ifølge":5066,"mørke":5067,"standard":5068,"67":5069,"##smid":5070,"Art":5071,"Vik":5072,"##jeld":5073,"##okka":5074,"##jar":5075,"Veg":5076,"##edre":5077,"Si":5078,"2008":5079,"hjerte":5080,"vurdere":5081,"Em":5082,"sold":5083,"prim":5084,"Sport":5085,"##bladet":5086,"engas":5087,"##amen":5088,"##ksjonen":5089,"jfr":5090,"synd":5091,"Dermed":5092,"strid":5093,"Mus":5094,"lettere":5095,"tyske":5096,"nummer":5097,"forfatter":5098,"insp":5099,"##ives":5100,"opplæring":5101,"Dessuten":5102,"##pris":5103,"vilde":5104,"kontor":5105,"##resse":5106,"##TER":5107,"##amme":5108,"bevil":5109,"via":5110,"natten":5111,"##dyr":5112,".\"":5113,"utviklet":5114,"##igh":5115,"gjennomført":5116,"salt":5117,"##ala":5118,"2013":5119,"Mark":5120,"##useum":5121,"alternativ":5122,"##kort":5123,"alminn":5124,"ni":5125,"##edie":5126,"Wh":5127,"torsdag":5128,"##ash":5129,"opt":5130,"##kor":5131,"##yp":5132,"munnen":5133,"71":5134,"2006":5135,"struktur":5136,"##yggelig":5137,"registr":5138,"altfor":5139,"forrige":5140,"flykt":5141,"##SEN":5142,"##alder":5143,"oppgave":5144,"Videre":5145,"Ex":5146,"##esjon":5147,"amerikanske":5148,"strå":5149,"Deres":5150,"tilh":5151,"##inntekt":5152,"2010":5153,"64":5154,"bedrifter":5155,"2007":5156,"mistet":5157,"##wo":5158,".\"\"\"\"":5159,"Liv":5160,"Ben":5161,"IN":5162,"##ton":5163,"##attes":5164,"York":5165,"##drene":5166,"Mol":5167,"svarer":5168,"pust":5169,"integ":5170,"Folk":5171,"##ley":5172,"tilkny":5173,"can":5174,"vanlige":5175,"svak":5176,"selvfølgelig":5177,"kalt":5178,"aktuelle":5179,"##stav":5180,"63":5181,"tjenester":5182,"66":5183,"grep":5184,"jur":5185,"respekt":5186,"Hø":5187,"prem":5188,"Di":5189,"2009":5190,"medisin":5191,"Ven":5192,"Universitet":5193,"fro":5194,"forek":5195,"England":5196,"##sopp":5197,"##vn":5198,"typ":5199,"hud":5200,"1989":5201,"Thomas":5202,"We":5203,"kapital":5204,"##EG":5205,"driver":5206,"##ksjoner":5207,"spen":5208,"Je":5209,"presse":5210,"##kkende":5211,"supp":5212,"regjeringen":5213,"##port":5214,"##antene":5215,"##ktoratet":5216,"93":5217,"##forening":5218,"##ism":5219,"we":5220,"universitet":5221,"øvrig":5222,"##enen":5223,"##ometer":5224,"merket":5225,"Ord":5226,"fullstendig":5227,"##esse":5228,"konkurranse":5229,"just":5230,"formål":5231,"såtte":5232,"sitte":5233,"##ues":5234,"82":5235,"tråd":5236,"kombin":5237,"##vest":5238,"##stilt":5239,"søke":5240,"orden":5241,"rent":5242,"sår":5243,"Bod":5244,"##oter":5245,"##asen":5246,"unntak":5247,"##EM":5248,"2011":5249,"##siden":5250,"konf":5251,"anvend":5252,"##flikt":5253,"Hand":5254,"avgift":5255,"mennesket":5256,"##olusjon":5257,"##ikal":5258,"sje":5259,"sir":5260,"åra":5261,"publikum":5262,"##angel":5263,"182":5264,"##slin":5265,"kul":5266,"het":5267,"politikk":5268,"sendte":5269,"##PP":5270,"klarer":5271,"77":5272,"gu":5273,"utgjør":5274,"##verdi":5275,"osv":5276,"former":5277,"str":5278,"##orgensending":5279,"journal":5280,"formann":5281,"rolig":5282,"Kristians":5283,"##urder":5284,"klo":5285,"##strøm":5286,"##arder":5287,"##umenter":5288,"beskriv":5289,"fylkeskommun":5290,"selvsagt":5291,"81":5292,"2012":5293,"kop":5294,"David":5295,"sjel":5296,"delvis":5297,"reaksjon":5298,"tilstrekkelig":5299,"##oten":5300,"innb":5301,"##selen":5302,"spilte":5303,"69":5304,"##må":5305,"skaffe":5306,"SK":5307,"##tert":5308,"##risk":5309,"kontrol":5310,"bad":5311,"omfattende":5312,"blikket":5313,"samsvar":5314,"settes":5315,"##legge":5316,"bill":5317,"##brudd":5318,"sommeren":5319,"vers":5320,"middag":5321,"##AV":5322,"92":5323,"##nere":5324,"##gje":5325,"Direkte":5326,"faste":5327,"utform":5328,"trans":5329,"onsdag":5330,"##stol":5331,"VI":5332,"##elem":5333,"72":5334,"absol":5335,"trening":5336,"ka":5337,"sykdom":5338,"##ira":5339,"##amb":5340,"Hver":5341,"##skilt":5342,"vakt":5343,"##slig":5344,"Mr":5345,"##plassen":5346,"##produksjon":5347,"##verks":5348,"sag":5349,"Mand":5350,"Cl":5351,"nam":5352,"##ité":5353,"##atn":5354,"Po":5355,"hovedsak":5356,"Gro":5357,"##ear":5358,"kalles":5359,"##messig":5360,"##vokat":5361,"Då":5362,"##essor":5363,"##jema":5364,"rimelig":5365,"bank":5366,"##stitutt":5367,"##etning":5368,"personlig":5369,"øvrige":5370,"##bane":5371,"##rettet":5372,"SV":5373,"gjaldt":5374,"##DE":5375,"kjørte":5376,"spar":5377,"##ska":5378,"tri":5379,"våpen":5380,"##havn":5381,"spis":5382,"am":5383,"##området":5384,"tvang":5385,"stiller":5386,"innhold":5387,"Jak":5388,"qu":5389,"##dommer":5390,"##iseres":5391,"subst":5392,"dokumentar":5393,"Ek":5394,"##øtet":5395,"ettermid":5396,"##istet":5397,"halvt":5398,"foreldrene":5399,"forsøkte":5400,"1988":5401,"Gunnar":5402,"væ":5403,"##avgift":5404,"bot":5405,"kjenne":5406,"##ionen":5407,"bestemmelser":5408,"praktisk":5409,"150":5410,"##cts":5411,"flytte":5412,"bakken":5413,"lid":5414,"##ryt":5415,"74":5416,"Carl":5417,"##former":5418,"pappa":5419,"undervisning":5420,"oppd":5421,"umulig":5422,"falt":5423,"bre":5424,"konkl":5425,"rettet":5426,"##jener":5427,"Kol":5428,"##ho":5429,"##barn":5430,"##ssjef":5431,"Tur":5432,"forsiktig":5433,"Inter":5434,"##skog":5435,"fortsetter":5436,"Jord":5437,"sko":5438,"vend":5439,"regnskap":5440,"løftet":5441,"ekst":5442,"Del":5443,")\"\"":5444,"nyheter":5445,"##gi":5446,"Kultur":5447,"litteratur":5448,"håret":5449,"spill":5450,"Ev":5451,"Lund":5452,"arbeidspl":5453,"Gra":5454,"Andersen":5455,"Gu":5456,"oppdaget":5457,"##aner":5458,"##partement":5459,"##ingsm":5460,"Fro":5461,"##ep":5462,"høsten":5463,"bøker":5464,"vitenskap":5465,"ær":5466,"Bet":5467,"motstand":5468,"It":5469,"Larsen":5470,"typer":5471,"##rapp":5472,"hil":5473,"mere":5474,"Fig":5475,"Hell":5476,"gården":5477,"OL":5478,"##visjon":5479,"hender":5480,"omgang":5481,"one":5482,"##skriv":5483,"europe":5484,"gjeldende":5485,"tider":5486,"regnet":5487,"begynnelsen":5488,"##sny":5489,"husker":5490,"forhandling":5491,"##US":5492,"up":5493,"##ific":5494,"##ssp":5495,"kirken":5496,"trykk":5497,"##andid":5498,"stoff":5499,"##asjonene":5500,"klokken":5501,"##beg":5502,"bos":5503,"##etil":5504,"ansvaret":5505,"grund":5506,"##ii":5507,"##ams":5508,"Gener":5509,"tils":5510,"faller":5511,"avdeling":5512,"##ellene":5513,"fantast":5514,"stående":5515,"tillit":5516,"##spart":5517,"##mund":5518,"spise":5519,"nærmest":5520,"prp":5521,"tab":5522,"løsning":5523,"avgjørende":5524,"##ringe":5525,"brit":5526,"sving":5527,"kommunikasjon":5528,"ed":5529,"##isa":5530,"2020":5531,"styret":5532,"således":5533,"##sarbeid":5534,"##innen":5535,"oppgåver":5536,"Departementet":5537,"##igen":5538,"76":5539,"jakt":5540,"##gere":5541,"##grep":5542,"##ikkerhet":5543,"jobbe":5544,"##gifter":5545,"Famil":5546,"98":5547,"##resent":5548,"Red":5549,"##fort":5550,"kapit":5551,"glem":5552,"trolig":5553,"ytterligere":5554,"Andreas":5555,"##litt":5556,"venter":5557,"Bak":5558,"##ninga":5559,"nytte":5560,"Les":5561,"gratis":5562,"gren":5563,"##UR":5564,"skritt":5565,"##dommen":5566,"kjøpte":5567,"frukt":5568,"utenland":5569,"68":5570,"Val":5571,"94":5572,"rut":5573,"redusert":5574,"ryd":5575,"##atiske":5576,"slår":5577,"vond":5578,"##melding":5579,"##jøen":5580,"opplever":5581,"konser":5582,"levende":5583,"##sr":5584,"##lie":5585,"Hall":5586,"intervju":5587,"trengte":5588,"##ysten":5589,"forståelse":5590,"elsker":5591,"##tene":5592,"tanker":5593,"##skraft":5594,"undert":5595,"tanken":5596,"spennende":5597,"Likevel":5598,"##hel":5599,"lover":5600,"##synet":5601,"##asin":5602,"russ":5603,"Folke":5604,"hvilket":5605,"strøm":5606,"73":5607,"ori":5608,"historien":5609,"ru":5610,"varier":5611,"##sleder":5612,"kryss":5613,"##esen":5614,"##ennene":5615,"##rette":5616,"##con":5617,"##ould":5618,"dess":5619,"78":5620,"kaller":5621,"Midt":5622,"høst":5623,"##za":5624,"rapport":5625,"##ove":5626,"##ndelag":5627,"##<<":5628,"delta":5629,"##UL":5630,"fornøyd":5631,"framtid":5632,"skaper":5633,"##kjenn":5634,"##sent":5635,"##sem":5636,"Maria":5637,"Kjell":5638,"seng":5639,"##iør":5640,"##elskap":5641,"Ga":5642,"Mod":5643,"##ppene":5644,"skogen":5645,"##årene":5646,"diskusjon":5647,"enkel":5648,"fig":5649,"##kohol":5650,"Grunn":5651,"været":5652,"skil":5653,"utsatt":5654,"administrasjon":5655,"##ksten":5656,"##egen":5657,"fritt":5658,"gård":5659,"AV":5660,"vanligvis":5661,"grønn":5662,"kjemp":5663,"86":5664,"##kers":5665,"Forsk":5666,"kvinnen":5667,"relev":5668,"Ni":5669,"##jent":5670,"##osof":5671,"##ames":5672,"nødvendige":5673,"normalt":5674,"aktiv":5675,"##egående":5676,"##rop":5677,"##æg":5678,"Frankrike":5679,"##ora":5680,"Kva":5681,"##lov":5682,"NOR":5683,"Øv":5684,"##fjell":5685,"havde":5686,"##ras":5687,"##skom":5688,"port":5689,"gruppen":5690,"##ssystem":5691,"##olum":5692,"1987":5693,"##igt":5694,"Pedersen":5695,"kamer":5696,"spred":5697,"økonomi":5698,"Rad":5699,"##vise":5700,"total":5701,"uttal":5702,"div":5703,"Tabell":5704,"##utvikling":5705,"generelt":5706,"Mat":5707,"Alex":5708,"byr":5709,"1985":5710,"79":5711,"dyp":5712,"Mic":5713,"##RI":5714,"##itz":5715,"##anner":5716,"havet":5717,"Beste":5718,"88":5719,"dekket":5720,"heilt":5721,"inntrykk":5722,"Nattsending":5723,"øker":5724,"##ykke":5725,"##enteret":5726,"tilhør":5727,"anner":5728,"løse":5729,"##ekan":5730,"##rede":5731,"##vi":5732,"##inst":5733,"kommunest":5734,"øver":5735,"##NE":5736,"Mos":5737,"84":5738,"##veis":5739,"lat":5740,"møn":5741,"fær":5742,"Jacob":5743,"##struktur":5744,"demokrat":5745,"linje":5746,"##vensjon":5747,"Mil":5748,"##spe":5749,"TIL":5750,"symb":5751,"##lær":5752,"kjøpt":5753,"ligg":5754,"##sler":5755,"Pet":5756,"##iens":5757,"Byg":5758,"Trøndelag":5759,"83":5760,"fortalt":5761,"##prø":5762,"drikke":5763,"##industri":5764,"##aly":5765,"##elske":5766,"Ka":5767,"Må":5768,"##eden":5769,"been":5770,"streng":5771,"bygger":5772,"enig":5773,"##sdtr":5774,"smer":5775,"1986":5776,"sjelden":5777,"årets":5778,"##aver":5779,"yt":5780,"##nok":5781,"jenter":5782,"more":5783,"lun":5784,"Johansen":5785,"Do":5786,"andel":5787,"##istikk":5788,"##område":5789,"temperatur":5790,"differ":5791,"##lir":5792,"kone":5793,"Paris":5794,"##arm":5795,"##loven":5796,"toppen":5797,"nasjonale":5798,"vilje":5799,"##ski":5800,"Phil":5801,"annerledes":5802,"##ague":5803,"avtalen":5804,"vent":5805,"Alf":5806,"utført":5807,"Kari":5808,"##slov":5809,"Jakob":5810,"innsats":5811,"##hjem":5812,"Kongen":5813,"##yng":5814,"179":5815,"borger":5816,"##blad":5817,"##sdal":5818,"konflikt":5819,"perspekt":5820,"##aket":5821,"##ics":5822,"Part":5823,"oppfyl":5824,"tilt":5825,"gru":5826,"##kle":5827,"president":5828,"1960":5829,"bibliote":5830,"##vind":5831,"lån":5832,"Noe":5833,"invol":5834,"##ommene":5835,"planer":5836,"##ll":5837,"åt":5838,"##emid":5839,"livs":5840,"ende":5841,"bidrag":5842,"jobbet":5843,"fengsel":5844,"Fly":5845,"interessert":5846,"møtet":5847,"arbeidsgiver":5848,"avstand":5849,"##sle":5850,"import":5851,"boken":5852,"aner":5853,"##wn":5854,"##offer":5855,"øye":5856,"Forsvar":5857,"rot":5858,"positive":5859,"##alla":5860,"million":5861,"restaur":5862,"Histor":5863,"gulvet":5864,"Fisk":5865,"##sprogram":5866,"tirsdag":5867,"##ktet":5868,"87":5869,"adgang":5870,"endret":5871,"prosess":5872,"##endom":5873,"inngå":5874,"Bør":5875,"plikt":5876,"hente":5877,"snakk":5878,"##fi":5879,"forvent":5880,"##resten":5881,"forskrift":5882,"legg":5883,"##hjelp":5884,"regne":5885,"##atelse":5886,"##saa":5887,"their":5888,"kjøtt":5889,"##ape":5890,"96":5891,"vider":5892,"registrert":5893,"vedlike":5894,"neppe":5895,"##vidt":5896,"out":5897,"Høyre":5898,"est":5899,"##ament":5900,"forbud":5901,"gutten":5902,"strand":5903,"bygde":5904,"go":5905,"89":5906,"Result":5907,"fing":5908,"Russland":5909,"posisjon":5910,"leie":5911,"stab":5912,"konstru":5913,"##jennom":5914,"hentet":5915,"Morgensending":5916,"##kså":5917,"artikkel":5918,"Tru":5919,"##hal":5920,"rike":5921,"will":5922,"hard":5923,"lette":5924,"Vis":5925,"##).":5926,"other":5927,"vill":5928,"dypt":5929,"bind":5930,"mandag":5931,"##felt":5932,"##unden":5933,"##øye":5934,"##zz":5935,"##lade":5936,"kron":5937,"fortel":5938,"svare":5939,"##vne":5940,"Amerika":5941,"hyl":5942,"##odd":5943,"still":5944,"stykke":5945,"veit":5946,"##somme":5947,"##orld":5948,"##illere":5949,"##enden":5950,"##mma":5951,"##DAG":5952,"skjønner":5953,"svenske":5954,"Eid":5955,"ug":5956,"helhet":5957,"blomster":5958,"Nes":5959,"sosi":5960,"opps":5961,"evne":5962,"##ansvar":5963,"##RO":5964,"##vig":5965,"Svein":5966,"sil":5967,"uk":5968,"Dr":5969,"Bruk":5970,"##...":5971,"##ørsmål":5972,"tilsk":5973,"##ival":5974,"bygning":5975,"boka":5976,"lukket":5977,"nødt":5978,"Ivar":5979,"utel":5980,"Id":5981,"ønsk":5982,"totalt":5983,"minne":5984,"Mc":5985,"##bro":5986,"nevnte":5987,"kred":5988,"Nær":5989,"fotograf":5990,"utvalget":5991,"valgte":5992,"##slige":5993,"##vekt":5994,"##ities":5995,"etablert":5996,"##ordning":5997,"kommunale":5998,"1984":5999,"##legger":6000,"##ania":6001,"vand":6002,"##inene":6003,"##ikerne":6004,"##øyer":6005,"skad":6006,"fine":6007,"Hadde":6008,"søster":6009,"##jort":6010,"armen":6011,"Finnmark":6012,"systemet":6013,"##bel":6014,"alkohol":6015,"farge":6016,"Blant":6017,"##ution":6018,"behandlet":6019,"Van":6020,"##formen":6021,"##she":6022,"##ryg":6023,"111":6024,"tonn":6025,"Marit":6026,"Isra":6027,"Sammen":6028,"vinduet":6029,"##verre":6030,"##ular":6031,"Tek":6032,"ør":6033,"bøl":6034,"Tra":6035,"dep":6036,"utred":6037,"gn":6038,"mangler":6039,"lege":6040,"kjel":6041,"##enterte":6042,"latter":6043,"vedtatt":6044,"kjøper":6045,"utv":6046,"likte":6047,"##bjørn":6048,"##øyet":6049,"##fru":6050,"##lim":6051,"reglene":6052,"##vo":6053,"avd":6054,"resultatet":6055,"sølv":6056,"##samling":6057,"Frem":6058,"våren":6059,"##EST":6060,"drept":6061,"lavt":6062,"overbe":6063,"garden":6064,"stemmen":6065,"Regjeringen":6066,"##egor":6067,"grunnlegg":6068,"##oper":6069,"Kat":6070,"dobbelt":6071,"Tro":6072,"comp":6073,"yrke":6074,"muligheten":6075,"dating":6076,"##ordin":6077,"Mål":6078,"##innene":6079,"redusere":6080,"##råket":6081,"lyset":6082,"tilgang":6083,"##ullet":6084,"økte":6085,"##sal":6086,"pengene":6087,"nærheten":6088,"forel":6089,"Sæ":6090,"resultater":6091,"This":6092,"religi":6093,"hjelper":6094,"yrkes":6095,"##fr":6096,"##handler":6097,"kristne":6098,"røde":6099,"gjent":6100,"##rense":6101,"##stillinger":6102,"utgangspunktet":6103,"pst":6104,"Pol":6105,"stede":6106,"##annelse":6107,"##saker":6108,"objekt":6109,"såkalte":6110,"##strid":6111,"enkle":6112,"##ns":6113,"sterkere":6114,"##arbeider":6115,"begrunn":6116,"Holm":6117,"##ulere":6118,"##tten":6119,"interessant":6120,"initi":6121,"Nyheter":6122,"hemmelig":6123,"redu":6124,"##iff":6125,"##ona":6126,"mobil":6127,"spre":6128,"drev":6129,"verdier":6130,"Hot":6131,"begrenset":6132,"##egnet":6133,"neder":6134,"armene":6135,"##SB":6136,"ressurser":6137,"bist":6138,"DN":6139,"Fre":6140,"Einar":6141,"##vesen":6142,"##kjøp":6143,"##elset":6144,"fal":6145,"sørge":6146,"hode":6147,"##iering":6148,"Dags":6149,"Can":6150,"fisker":6151,"midten":6152,"##merket":6153,"may":6154,"##yk":6155,"illust":6156,"##skol":6157,"def":6158,"Gi":6159,"landets":6160,"##amin":6161,"##undersøk":6162,"##hvert":6163,"##jenesten":6164,"videregående":6165,"##krig":6166,"avsnitt":6167,"Robert":6168,"600":6169,"Magnus":6170,"##ating":6171,"begynt":6172,"skille":6173,"##adem":6174,"##ørene":6175,"utl":6176,"skjel":6177,"##kkene":6178,"##velop":6179,"##orene":6180,"handel":6181,"mangel":6182,"##uf":6183,"Tore":6184,"-\"\"":6185,"##cess":6186,"##50":6187,"målet":6188,"Fo":6189,"absolutt":6190,"ovenfor":6191,"also":6192,"ler":6193,"overt":6194,"vondt":6195,"Hed":6196,"bror":6197,"sjøen":6198,"Ragn":6199,"fjerde":6200,"galt":6201,"League":6202,"1981":6203,"##rip":6204,"##ror":6205,"naturen":6206,"##ited":6207,"kob":6208,"acc":6209,"fantes":6210,"autom":6211,"##ella":6212,"angrep":6213,"forslaget":6214,"kna":6215,"Deretter":6216,"oppfatning":6217,"##urens":6218,"trekker":6219,"grunnen":6220,"##setninger":6221,"kongen":6222,"preget":6223,"kontin":6224,"innvand":6225,"besky":6226,"Jer":6227,"##vekst":6228,"cons":6229,"dreier":6230,"##talen":6231,"##mester":6232,"mass":6233,"merk":6234,"nekt":6235,"##banen":6236,"##sgrupp":6237,"oppover":6238,"gjennomføre":6239,"etterpå":6240,"foreligger":6241,"##ellem":6242,"sats":6243,"flertall":6244,"markedet":6245,"konst":6246,"trener":6247,"##ween":6248,"##ada":6249,"Pe":6250,"pasient":6251,"Syn":6252,"ivaret":6253,"verken":6254,"utny":6255,"rene":6256,"##yer":6257,"berg":6258,"Natur":6259,"taler":6260,"1950":6261,"utgifter":6262,"##edrift":6263,"innfly":6264,"ristet":6265,"##dalen":6266,"fysisk":6267,"##elling":6268,"##inal":6269,"##ømme":6270,"##idar":6271,"Ør":6272,"Hele":6273,"##ønn":6274,"parker":6275,"##elde":6276,"##ulen":6277,"##prosjekt":6278,"##ama":6279,"##aard":6280,"Halvor":6281,"##lass":6282,"tungt":6283,"Na":6284,"##gjer":6285,"##esser":6286,"##ola":6287,"konge":6288,"huske":6289,"##verdig":6290,"Matt":6291,"landsb":6292,"direktør":6293,"Ital":6294,"gal":6295,"fattig":6296,"kjempe":6297,"føle":6298,"sikte":6299,"vakre":6300,"Fe":6301,"sluttet":6302,"Begge":6303,"1982":6304,"virkning":6305,"hvad":6306,"foruts":6307,"##ages":6308,"##vold":6309,"eldste":6310,"sle":6311,"##asjonal":6312,"Sil":6313,"forplikt":6314,"hovud":6315,"1983":6316,"kilometer":6317,"##ege":6318,"##øyt":6319,"hor":6320,"størrelse":6321,"1000":6322,"##ktoren":6323,"plassen":6324,"eval":6325,"##liv":6326,"kvalif":6327,"##oms":6328,"kompl":6329,"forskjellig":6330,"frø":6331,"Hov":6332,"samle":6333,"disp":6334,"Jensen":6335,"##giver":6336,"178":6337,"vik":6338,"flott":6339,"påpe":6340,"jorden":6341,"sykeple":6342,"##endal":6343,"##områder":6344,"##asitet":6345,"turen":6346,"positiv":6347,"Tot":6348,"##ferdig":6349,"##ynt":6350,"##gjort":6351,"##30":6352,"bokstav":6353,"##ced":6354,"fremme":6355,"veks":6356,"there":6357,"Fylke":6358,"enige":6359,"starter":6360,"forsvant":6361,"SP":6362,"##delen":6363,"kaffe":6364,"forvaltning":6365,"erfaringer":6366,"Gran":6367,"smør":6368,"Føl":6369,"Ras":6370,"##ulerer":6371,"##ktes":6372,"krimin":6373,"håp":6374,"rapporter":6375,"1975":6376,"##rørende":6377,"båten":6378,"halvparten":6379,"forbered":6380,"##NING":6381,"action":6382,"##erske":6383,"forklare":6384,"##stemer":6385,"runde":6386,"hvisk":6387,"Pris":6388,"gong":6389,"innrø":6390,"statsb":6391,"uv":6392,"##mot":6393,"kolleg":6394,"##chen":6395,"fremtid":6396,"sinn":6397,"Ung":6398,"##udsjett":6399,"##bygger":6400,"##ukket":6401,"heng":6402,"forretning":6403,"Strand":6404,"##bank":6405,"identif":6406,"ordene":6407,"lignende":6408,"##bær":6409,"dele":6410,"FN":6411,"##jul":6412,"1978":6413,"fjern":6414,"##sled":6415,"vinteren":6416,"vass":6417,"##bert":6418,"Stra":6419,"frisk":6420,"177":6421,"##ible":6422,"##veks":6423,"overfl":6424,"felle":6425,"veggen":6426,"skoler":6427,"1977":6428,"sesong":6429,"1979":6430,"fungerer":6431,"lands":6432,"you":6433,"##irektoratet":6434,"representerer":6435,"Sos":6436,"symp":6437,"hjertet":6438,"leir":6439,"drama":6440,"nærmeste":6441,"leser":6442,"pedagog":6443,"fornuft":6444,"ytre":6445,"yngre":6446,"Lo":6447,"##sund":6448,"##nede":6449,"##lemmene":6450,"taket":6451,"munn":6452,"##sessen":6453,"menneskene":6454,"ledelse":6455,"verre":6456,"##nevnte":6457,"##system":6458,"VG":6459,"##ieren":6460,"musk":6461,"sukker":6462,"##orgen":6463,"between":6464,"umiddel":6465,"profesjon":6466,"bidrar":6467,"Nilsen":6468,"fyller":6469,"##iseringen":6470,"tend":6471,"Nordland":6472,"kommentar":6473,"##æs":6474,"overrask":6475,"fla":6476,"##draget":6477,"Amer":6478,"son":6479,"skjønte":6480,"fjerne":6481,"øre":6482,"##ali":6483,"##slet":6484,"##jøl":6485,"stått":6486,"##yrk":6487,"måter":6488,"##urtig":6489,"åringen":6490,"måle":6491,"##han":6492,"tilfredsst":6493,"langsomt":6494,"tids":6495,"milliarder":6496,"##EF":6497,"stanset":6498,"800":6499,"butikk":6500,"areal":6501,"ordin":6502,"##imal":6503,"##cer":6504,"skikkelig":6505,"##spr":6506,"jub":6507,"handels":6508,"##føringen":6509,"århund":6510,"nedenfor":6511,"len":6512,"avvik":6513,"##smessige":6514,"nokre":6515,"myndighet":6516,"Off":6517,"behovet":6518,"##tein":6519,"risiko":6520,"veiled":6521,"1976":6522,"##nar":6523,"##imensjon":6524,"##fol":6525,"reist":6526,"Hav":6527,"tilgjengelig":6528,"##ænd":6529,"omfang":6530,"forholdene":6531,"Op":6532,"Norw":6533,"##spen":6534,"##posten":6535,"##voll":6536,"underholdning":6537,"PÅ":6538,"##virkning":6539,"Vir":6540,"virksomheten":6541,"tabell":6542,"##ittil":6543,"##ørsmålet":6544,"Litt":6545,"Aften":6546,"høyde":6547,"størst":6548,"hang":6549,"slippe":6550,"økning":6551,"emp":6552,"benyttet":6553,"176":6554,"##ty":6555,"erkl":6556,"prisen":6557,"konsekvens":6558,"innlegg":6559,"##settelse":6560,"innstilling":6561,"##kre":6562,"Rik":6563,"##hn":6564,"##ømm":6565,"Rett":6566,"they":6567,"himmelen":6568,"Dere":6569,"##arden":6570,"##budet":6571,"##skil":6572,"svensk":6573,"utrolig":6574,"Form":6575,"##OS":6576,"Lag":6577,"##seth":6578,"selger":6579,"##ior":6580,"##rika":6581,"##10":6582,"##abeth":6583,"snar":6584,"grense":6585,"undervis":6586,"rettigheter":6587,"korte":6588,"effektiv":6589,"benyttes":6590,"##riske":6591,"produkter":6592,"##iar":6593,"modell":6594,"spesiell":6595,"Just":6596,"tilpass":6597,"planen":6598,"åpner":6599,"sektor":6600,"##ttene":6601,"##undt":6602,"plast":6603,"soc":6604,"##imum":6605,"grunner":6606,"Met":6607,"forsikring":6608,"biler":6609,"problemet":6610,"lært":6611,"##rød":6612,"##iment":6613,"symbol":6614,"reser":6615,"##ahl":6616,"stilte":6617,"dru":6618,"fork":6619,"tyder":6620,"nokså":6621,"moral":6622,"utlandet":6623,"act":6624,"##anken":6625,"##splikt":6626,"Skog":6627,"hindre":6628,"Takk":6629,"kle":6630,"Noreg":6631,"##jorden":6632,"##forbund":6633,"jente":6634,"endre":6635,"sengen":6636,"dans":6637,"##ca":6638,"egg":6639,"Sær":6640,"stim":6641,"Col":6642,"grunnleggende":6643,"maks":6644,"nøye":6645,"brå":6646,"eksempler":6647,"##alk":6648,"Norway":6649,"klær":6650,"Marg":6651,"befolkningen":6652,"kunstner":6653,"talet":6654,"beløp":6655,"##nivå":6656,"##plasser":6657,"##start":6658,"knapt":6659,"redde":6660,"studer":6661,"##åte":6662,"demon":6663,"##ipl":6664,"hjør":6665,"sentralt":6666,"løsninger":6667,"stolt":6668,"##skrig":6669,"##onse":6670,"##eløpig":6671,"dial":6672,"Mannen":6673,"##ulering":6674,"##ela":6675,"utfordring":6676,"opphold":6677,"administrat":6678,"##ject":6679,"##kretær":6680,"observ":6681,"pasienter":6682,"dekke":6683,"blad":6684,"Ned":6685,"##ården":6686,"oppmerksomhet":6687,"##delt":6688,"Morten":6689,"##ollar":6690,"##etting":6691,"hyggelig":6692,"##ningar":6693,"##ripe":6694,"kollekt":6695,"potens":6696,"##appar":6697,"mennene":6698,"##pas":6699,"Bill":6700,"##oppen":6701,"##yrer":6702,"##posisjon":6703,"skapt":6704,"last":6705,"konsekvenser":6706,"ske":6707,"farlig":6708,"IV":6709,"##telse":6710,"##cial":6711,"fylkes":6712,"invest":6713,"kreve":6714,"korre":6715,"myndigheter":6716,"minutt":6717,"##funnet":6718,"presset":6719,"##sforhold":6720,"##askin":6721,"hund":6722,"taus":6723,"kok":6724,"Ger":6725,"Første":6726,"åpent":6727,"firma":6728,"sies":6729,"tunge":6730,"##ology":6731,"bedt":6732,"foregår":6733,"##liggende":6734,"studie":6735,"plassert":6736,"EN":6737,"Aar":6738,"erst":6739,"suks":6740,"1974":6741,"pil":6742,"##ze":6743,"##ower":6744,"organisasjoner":6745,"##løst":6746,"brans":6747,"Bodø":6748,"lur":6749,"##kr":6750,"bedriften":6751,"##øde":6752,"Spes":6753,"Bok":6754,"Helge":6755,"dyre":6756,"##fot":6757,"gate":6758,"korleis":6759,"Qu":6760,"undersøkelse":6761,"Ring":6762,"##rert":6763,"passe":6764,"had":6765,"##oer":6766,"programmet":6767,"skinn":6768,"typen":6769,"initiativ":6770,"status":6771,"trø":6772,"##klart":6773,"utbet":6774,"flest":6775,"##behandling":6776,"tung":6777,"skuesp":6778,"##nor":6779,"melding":6780,"tlf":6781,"##rel":6782,"sønnen":6783,"##ydro":6784,"overv":6785,"resp":6786,"##ming":6787,"heldig":6788,"1940":6789,"##stått":6790,"etc":6791,"##fød":6792,"1973":6793,"##atnet":6794,"##sområ":6795,"tekniske":6796,"##uste":6797,"frihet":6798,"Gjer":6799,"1945":6800,"fylt":6801,"foreta":6802,"##kser":6803,"stilt":6804,"1800":6805,"bønn":6806,"##økene":6807,"normal":6808,"vinne":6809,"##løse":6810,"175":6811,"tann":6812,"Math":6813,"1900":6814,"##indel":6815,"So":6816,"intet":6817,"Bon":6818,"markeds":6819,"strøk":6820,"mørk":6821,"##ivert":6822,"Micha":6823,"noget":6824,"##orth":6825,"brød":6826,"Ju":6827,"trukket":6828,"##EK":6829,"##aktør":6830,"politi":6831,"##kir":6832,"##skar":6833,"prosessen":6834,"erstatning":6835,"Fotball":6836,"Grat":6837,"Don":6838,"syss":6839,"forret":6840,"san":6841,"tilknytning":6842,"bestemme":6843,"Herren":6844,"fen":6845,"1972":6846,"##FT":6847,"##vendig":6848,"##otter":6849,"kyst":6850,"Vin":6851,"##jed":6852,"Com":6853,"##har":6854,"starte":6855,"fjellet":6856,"##oller":6857,"##valt":6858,"nordmenn":6859,"kostnader":6860,"##kjen":6861,"innbygg":6862,"fremmed":6863,"##mes":6864,"##fulle":6865,"teksten":6866,"Univers":6867,"120":6868,"debatt":6869,"trå":6870,"##isp":6871,"##ward":6872,"##edrag":6873,"sesongen":6874,"skader":6875,"beslut":6876,"##taket":6877,"filosof":6878,"Bes":6879,"tilstand":6880,"positivt":6881,"likhet":6882,"stoppet":6883,"##henger":6884,"innom":6885,"##kenes":6886,"##ures":6887,"Distrikt":6888,"fulgt":6889,"spr":6890,"låg":6891,"aktiviteter":6892,"Kle":6893,"diskuter":6894,"ringte":6895,"##lands":6896,"maskin":6897,"liksom":6898,"fulle":6899,"pasienten":6900,"gass":6901,"hotell":6902,"fav":6903,"spesif":6904,"iv":6905,"##ista":6906,"##osa":6907,"opplyser":6908,"motiv":6909,"henger":6910,"##nda":6911,"ressurs":6912,"tår":6913,"than":6914,"arkite":6915,"følelser":6916,"tilnær":6917,"##jeneste":6918,"sover":6919,"##bas":6920,"##beveg":6921,"uken":6922,"mi":6923,"##akere":6924,"analyse":6925,"minner":6926,"##dem":6927,"server":6928,"ramme":6929,"Store":6930,"Ellen":6931,"undersøkelser":6932,"tolk":6933,"igjennom":6934,"##kten":6935,"grov":6936,"##utvalget":6937,"Emil":6938,"##speri":6939,"greit":6940,"lærere":6941,"såg":6942,"##ied":6943,"sidan":6944,"tidleg":6945,"##AP":6946,"grenser":6947,"##stud":6948,"naturligvis":6949,"kjøkkenet":6950,"konkrete":6951,"sne":6952,"##ctor":6953,"Kunst":6954,"Aug":6955,"##tto":6956,"falle":6957,"EM":6958,"oppford":6959,"halsen":6960,"jule":6961,"uavhengig":6962,"grens":6963,"##fug":6964,"ettermiddag":6965,"virkeligheten":6966,"døra":6967,"luften":6968,"##setting":6969,"vises":6970,"oppleve":6971,"##gjøre":6972,"dir":6973,"##elet":6974,"personlige":6975,"used":6976,"dagene":6977,"ledet":6978,"##remt":6979,"##innes":6980,"##sjef":6981,"##alene":6982,"gled":6983,"##makt":6984,"Stock":6985,"##produ":6986,"læring":6987,"##omer":6988,"##rykket":6989,"How":6990,"##æv":6991,"Høg":6992,"Inger":6993,"idé":6994,"##atikk":6995,"UN":6996,"##artet":6997,"Son":6998,"verne":6999,"##nene":7000,"bon":7001,"##orge":7002,"##uth":7003,"klubb":7004,"Big":7005,"fransk":7006,"Rør":7007,"smak":7008,"stål":7009,"Agder":7010,"fik":7011,"##byr":7012,"Nett":7013,"Bang":7014,"##sesjon":7015,"##RU":7016,"Lev":7017,"ph":7018,"ansatt":7019,"##jev":7020,"dykt":7021,"Slike":7022,"Norweg":7023,"Politiet":7024,"generelle":7025,"Rand":7026,"materiale":7027,"Nic":7028,"##AK":7029,"kikket":7030,"ekteskap":7031,"Komm":7032,"utbygging":7033,"praktiske":7034,"1969":7035,"250":7036,"studier":7037,"##tende":7038,"våk":7039,"##asjons":7040,"prosjekter":7041,"##sens":7042,"lab":7043,"Venstre":7044,"Kø":7045,"##veit":7046,"klima":7047,"elem":7048,"##kontr":7049,"elektron":7050,"##asjen":7051,"Bolig":7052,"enhet":7053,"obser":7054,"##itann":7055,"fantastisk":7056,"ov":7057,"Fram":7058,"##cil":7059,"regnes":7060,"##benhavn":7061,"Kristiansand":7062,"partiet":7063,"##indre":7064,"##ktøy":7065,"Telem":7066,"##eloven":7067,"##miljø":7068,"San":7069,"##book":7070,"##ining":7071,"hevder":7072,"foretatt":7073,"##rak":7074,"gev":7075,"NY":7076,"##fatt":7077,"##fekt":7078,"møtt":7079,"korn":7080,"ekspl":7081,"##lå":7082,"drar":7083,"signal":7084,"tvers":7085,"levde":7086,"kvinnene":7087,"teknisk":7088,"##side":7089,"##ient":7090,"mik":7091,"retningslin":7092,"Fle":7093,"forklarer":7094,"sender":7095,"##cent":7096,"fo":7097,"Organ":7098,"sannsynligvis":7099,"skilt":7100,"Håkon":7101,"fait":7102,"##resjon":7103,"##rot":7104,"peker":7105,"mo":7106,"mester":7107,"Tar":7108,"framover":7109,"upp":7110,"oppstår":7111,"##osjon":7112,"gutter":7113,"ac":7114,"vidare":7115,"Spe":7116,"oversk":7117,"ordning":7118,"##utten":7119,"hverdag":7120,"##eles":7121,"##rekk":7122,"gle":7123,"forst":7124,"##skost":7125,"ferie":7126,"verste":7127,"forster":7128,"regner":7129,"skuldrene":7130,"mum":7131,"vegen":7132,"mal":7133,"samling":7134,"parti":7135,"publ":7136,"##hald":7137,"nest":7138,"Mennes":7139,"##cl":7140,"##SE":7141,"regulering":7142,"##peri":7143,"##åre":7144,"analys":7145,"ordfører":7146,"##vart":7147,"dukket":7148,"frig":7149,"##snivå":7150,"##ato":7151,"##somhet":7152,"ap":7153,"rekl":7154,"trett":7155,"følelse":7156,"sing":7157,"hjul":7158,"rygg":7159,"##tra":7160,"håpet":7161,"##øve":7162,"traff":7163,"##rådene":7164,"nokon":7165,"opprettet":7166,"super":7167,"danske":7168,"Elis":7169,"##ump":7170,"isol":7171,"meiner":7172,"foreslår":7173,"radio":7174,"smerte":7175,"hast":7176,"##fjorden":7177,"##ollene":7178,"Ib":7179,"Prosjekt":7180,"##ura":7181,"utfordringer":7182,"søknad":7183,"Willi":7184,"samarbeidet":7185,"øl":7186,"gjens":7187,"omgiv":7188,"færre":7189,"##hard":7190,"berør":7191,"kreft":7192,"forhånd":7193,"varmt":7194,"##aga":7195,"##aktivitet":7196,"prioriter":7197,"Anton":7198,"##ENT":7199,"anses":7200,"Ry":7201,"Rapp":7202,"arter":7203,"Island":7204,"lens":7205,"arr":7206,"argument":7207,"spilt":7208,"ære":7209,"174":7210,"Barne":7211,"##bred":7212,"Leg":7213,"##alp":7214,"Show":7215,"Bla":7216,"betalt":7217,"##UT":7218,"økende":7219,"fremover":7220,"ogsaa":7221,"##anden":7222,"AL":7223,"ball":7224,"##sil":7225,"##cept":7226,"opplevd":7227,"##ail":7228,"##øt":7229,"Michael":7230,"Sund":7231,"##iem":7232,"professor":7233,"##sfull":7234,"aksjon":7235,"von":7236,"Rich":7237,"##abrikk":7238,"Storbr":7239,"utslipp":7240,"##atret":7241,"velferd":7242,"cent":7243,"klubben":7244,"Lørdag":7245,"kald":7246,"##ksp":7247,"fanget":7248,"##vitt":7249,"stig":7250,"Geir":7251,"bygda":7252,"##bakken":7253,"##ØS":7254,"##astro":7255,"##uene":7256,"nogen":7257,"##aterial":7258,"##DER":7259,"handle":7260,"nøyaktig":7261,"##rans":7262,"##vegen":7263,"høyeste":7264,"negative":7265,"eventyr":7266,"##kanten":7267,"Bank":7268,"forferd":7269,"jød":7270,"Helse":7271,"##bordet":7272,"let":7273,"##insipp":7274,"##VER":7275,"rapporten":7276,"##IF":7277,"europeiske":7278,"IL":7279,"kona":7280,"Helt":7281,"skule":7282,"##jeg":7283,"franske":7284,"Go":7285,"Sunn":7286,"Pat":7287,"##kets":7288,"UT":7289,"##stolen":7290,"Fjell":7291,"forstand":7292,"1971":7293,"Rød":7294,"##leie":7295,"##oph":7296,"stikk":7297,"sens":7298,"##bon":7299,"kjører":7300,"##gitt":7301,"##itert":7302,"Hu":7303,"religion":7304,"Sande":7305,"åpenbart":7306,"Press":7307,"overgang":7308,"Norwegian":7309,"lokalt":7310,"##partementets":7311,"##elsens":7312,"##bes":7313,"tren":7314,"belast":7315,"##sgrunn":7316,"dam":7317,"##endt":7318,"krefter":7319,"valget":7320,"os":7321,"Nye":7322,"##SL":7323,".),":7324,"held":7325,"ulik":7326,"voksen":7327,"##bakk":7328,"Terje":7329,"Best":7330,"##ms":7331,"beregnet":7332,"orig":7333,"##idd":7334,"Ke":7335,"kaste":7336,"##strø":7337,"Lær":7338,"##uls":7339,"Storbritann":7340,"bety":7341,"dyn":7342,"##bout":7343,"##stiden":7344,"inf":7345,"aktuelt":7346,"teater":7347,"utdan":7348,"##anda":7349,"##jo":7350,"##spør":7351,"##våg":7352,"endte":7353,"##JON":7354,"Person":7355,"Jørgen":7356,"mulige":7357,"syssels":7358,"rekru":7359,"##hr":7360,"kyss":7361,"skru":7362,"##cted":7363,"work":7364,"døden":7365,"prop":7366,"##mmende":7367,"drevet":7368,"deltok":7369,"gjelde":7370,"##bør":7371,"ansvarlig":7372,"##iskop":7373,"##onger":7374,"samtale":7375,"Dom":7376,"overord":7377,"##oritet":7378,"##11":7379,"benytte":7380,"fritid":7381,"oftest":7382,"ettersom":7383,"##byen":7384,"##fen":7385,"inntekter":7386,"klipp":7387,"##strekning":7388,"~~":7389,"##ova":7390,"##skab":7391,"##ari":7392,"##que":7393,"##opper":7394,"his":7395,"##ti":7396,"Afrika":7397,"oppfølg":7398,"##inte":7399,"##førsel":7400,"##iest":7401,"Enk":7402,"its":7403,"filmen":7404,"Pres":7405,"treffe":7406,"##viklingen":7407,"develop":7408,"##agraf":7409,"flag":7410,"konsesjon":7411,"Tem":7412,"leste":7413,"Prem":7414,"Vict":7415,"kjer":7416,"##lad":7417,"##natt":7418,"grader":7419,"Frp":7420,"##havet":7421,"profil":7422,"pen":7423,"Simon":7424,"Ark":7425,"veier":7426,"farger":7427,"##hammer":7428,"snill":7429,"##ful":7430,"basis":7431,"##formasjon":7432,"bestemmer":7433,"##ison":7434,"svaret":7435,"##arbeidere":7436,"grunnlaget":7437,"Unn":7438,"forsknings":7439,"gjenopp":7440,"militær":7441,"##illende":7442,"utgift":7443,"beting":7444,"mun":7445,"##stiltak":7446,"sch":7447,"##legges":7448,"hurtig":7449,"Kristus":7450,"LO":7451,"Plan":7452,"læ":7453,"lest":7454,"bevegelse":7455,"##språk":7456,"dets":7457,"barnehage":7458,"##ANG":7459,"kravet":7460,"fastsatt":7461,"gifte":7462,"##famil":7463,"kontoret":7464,"hom":7465,"##ISK":7466,"##steder":7467,"Fru":7468,"##ara":7469,"nylig":7470,"##fullt":7471,"titt":7472,"1965":7473,"Israel":7474,"forklaring":7475,"spare":7476,"Italia":7477,"tankene":7478,"##rafikk":7479,"##ör":7480,"Cla":7481,"begrep":7482,"Bur":7483,"klokka":7484,"sed":7485,"##skon":7486,"krø":7487,"1930":7488,"tømmer":7489,"ER":7490,"manglende":7491,"fremtiden":7492,"##elly":7493,"Jose":7494,"##jorde":7495,"tilskudd":7496,"dominer":7497,"ele":7498,"##skrav":7499,"##\"\"\"":7500,"##fang":7501,"1968":7502,"student":7503,"godkjent":7504,"ild":7505,"faglig":7506,"##ends":7507,"##entering":7508,"##arn":7509,"Søndag":7510,"Sigur":7511,"##verr":7512,"inde":7513,"forsøke":7514,"##elegg":7515,"beslutning":7516,"grønne":7517,"foto":7518,"kunder":7519,"rart":7520,"fellesskap":7521,"Arn":7522,"kund":7523,"sta":7524,"##ligheten":7525,"komedie":7526,"some":7527,"innholdet":7528,"parall":7529,"##ræ":7530,"kolon":7531,"##strand":7532,"Program":7533,"NM":7534,"Senter":7535,"##II":7536,"hust":7537,"utenrik":7538,"##ikler":7539,"tilst":7540,"##ros":7541,"Dahl":7542,"##amet":7543,"grus":7544,"1967":7545,"##rete":7546,"Mun":7547,"1920":7548,"##wood":7549,"##orp":7550,"##setningen":7551,"Sof":7552,"##vesenet":7553,"##handel":7554,"mønster":7555,"Miljø":7556,"pal":7557,"##forskning":7558,"Dagbladet":7559,"inkludert":7560,"Gul":7561,"##vanlig":7562,"skifte":7563,"new":7564,"bygges":7565,"##smøte":7566,"triv":7567,"forny":7568,"dollar":7569,"konvensjon":7570,"internasjonal":7571,"##vald":7572,"##ømte":7573,"##isteren":7574,"Vet":7575,"tolv":7576,"tilfellet":7577,"representant":7578,"stabil":7579,"advokat":7580,"Sett":7581,"innd":7582,"jorda":7583,"exp":7584,"##hånd":7585,"##kan":7586,"##komst":7587,"bunn":7588,"Troms":7589,"situasjoner":7590,"##ndal":7591,"Bib":7592,"sæ":7593,"tilrett":7594,"Utvalget":7595,"##sikring":7596,"stri":7597,"##cher":7598,"bekl":7599,"Stockholm":7600,"##messige":7601,"København":7602,"##skj":7603,"##smenn":7604,"kreves":7605,"tj":7606,"##handlingen":7607,"slutte":7608,"forsto":7609,"Des":7610,"Kina":7611,"Fag":7612,"##augen":7613,"Sogn":7614,"marker":7615,"glob":7616,"if":7617,"##kul":7618,"##utdanning":7619,"mørket":7620,"perspektiv":7621,"kaldt":7622,"##spar":7623,"##ustad":7624,"organisasjonen":7625,"sendes":7626,"aksje":7627,"##rich":7628,"Sigurd":7629,"##irektør":7630,"skaff":7631,">>\"\"":7632,"##ENS":7633,"maten":7634,"Ask":7635,"engasjem":7636,"Journal":7637,"##ilet":7638,"Pal":7639,"700":7640,"##anp":7641,"##rast":7642,"kritikk":7643,"##xt":7644,"laste":7645,"selskaper":7646,"##identen":7647,"Lok":7648,"Lou":7649,"##institusjon":7650,"takt":7651,"etasje":7652,"Sandnes":7653,"##ikkelen":7654,"representanter":7655,"Fordi":7656,"##smål":7657,"forurens":7658,"##uring":7659,"Port":7660,"##ologien":7661,"Rolf":7662,"kalle":7663,"Sommer":7664,"mellem":7665,"henholdsvis":7666,"forbed":7667,"##inet":7668,"pan":7669,"vedlikehold":7670,"leverand":7671,"##sløs":7672,"nåværende":7673,"##svir":7674,"Akt":7675,"##iluft":7676,"dialog":7677,"Eir":7678,"mult":7679,"kategor":7680,"sykkel":7681,"##ingsf":7682,"aksept":7683,"fysiske":7684,"sosialt":7685,"##likevel":7686,"Eit":7687,"##IM":7688,"mu":7689,"maa":7690,"vurdert":7691,"utfor":7692,"ku":7693,"hug":7694,"ska":7695,"Tim":7696,"utføre":7697,"##kamp":7698,"tyng":7699,"170":7700,"foreslått":7701,"##inke":7702,"##stille":7703,"##snes":7704,"Kristin":7705,"vakker":7706,"Jar":7707,"ringe":7708,"Dy":7709,"Sven":7710,"motsetning":7711,"mekan":7712,"Råd":7713,"foreb":7714,"uro":7715,"Legg":7716,"tradisjonelle":7717,"planlagt":7718,"suksess":7719,"##ini":7720,"garant":7721,"sove":7722,"årlig":7723,"FR":7724,"serie":7725,"##sprosjekt":7726,"refle":7727,"offis":7728,"##ituasjonen":7729,"##fa":7730,"##retten":7731,"bekymret":7732,"human":7733,"forsik":7734,"##uddet":7735,"samlede":7736,"##løsning":7737,"##bygd":7738,"greie":7739,"teor":7740,"##ersoner":7741,"900":7742,"holdes":7743,"166":7744,"##IR":7745,"inngår":7746,"grundig":7747,"lim":7748,"##leren":7749,"kring":7750,"PR":7751,"foreløpig":7752,"Ob":7753,"Aks":7754,"forsøker":7755,"nevnes":7756,"##stjeneste":7757,"husket":7758,"fordelt":7759,"kunn":7760,"172":7761,"Verdens":7762,"##ya":7763,"forbruker":7764,"two":7765,"Side":7766,"service":7767,"dansk":7768,"##useet":7769,"Bjer":7770,"levert":7771,"avsluttet":7772,"Sosial":7773,"##blemer":7774,"teknologi":7775,"Aller":7776,"tørr":7777,"##igg":7778,"gjere":7779,"Rev":7780,"Solberg":7781,"forvir":7782,"##omet":7783,"Finans":7784,"Universitetet":7785,"vinner":7786,"##chn":7787,"##engde":7788,"tilfeldig":7789,"Ellers":7790,"beskytt":7791,"car":7792,"Neste":7793,"Storbritannia":7794,"##hengen":7795,"vendte":7796,"sekund":7797,"intens":7798,"##esund":7799,"miste":7800,"World":7801,"##agra":7802,"West":7803,"Daniel":7804,"design":7805,"nyhet":7806,"##gård":7807,"Li":7808,"Sov":7809,"begrepet":7810,"lyse":7811,"misten":7812,"##ides":7813,"##ila":7814,"Telemark":7815,"##sla":7816,"landene":7817,"##sti":7818,"mur":7819,"Brann":7820,"butikken":7821,"passasjer":7822,"##ience":7823,"##slutning":7824,"partene":7825,"hvisket":7826,"teori":7827,"ond":7828,"Tidligere":7829,"##veren":7830,"##elin":7831,"Hard":7832,"priser":7833,"Hagen":7834,"totale":7835,"likt":7836,"maler":7837,"such":7838,"jenta":7839,"##grammet":7840,"##jøres":7841,"these":7842,"sli":7843,"bevilg":7844,"##brand":7845,"forholdsvis":7846,"##appe":7847,"##ørr":7848,"Ot":7849,"myndighetene":7850,"##ierne":7851,"Frå":7852,"elsket":7853,"døgn":7854,"##virksomhet":7855,"##cr":7856,"bruken":7857,"##smed":7858,"##abler":7859,"trus":7860,"fukt":7861,"dec":7862,"kandid":7863,"melder":7864,"metall":7865,"Mi":7866,"kra":7867,"alli":7868,"##kens":7869,"utelu":7870,"lykkes":7871,"1964":7872,"##bum":7873,"ødeleg":7874,"starten":7875,"mak":7876,"stasjon":7877,"utstrekning":7878,"Ir":7879,"Tenk":7880,"enden":7881,"##burg":7882,"Hjel":7883,"skjul":7884,"##18":7885,"##ssy":7886,"eksisterende":7887,"##parti":7888,"planlegging":7889,"gleder":7890,"##lyst":7891,"##okument":7892,"toll":7893,"##økonom":7894,"jentene":7895,"##anpix":7896,"ledelsen":7897,"about":7898,"Str":7899,"##kja":7900,"##foss":7901,"Hvilke":7902,"##båt":7903,"##alderen":7904,"eventuelle":7905,"##ssam":7906,"##eleder":7907,"reager":7908,"radi":7909,"##rent":7910,"termin":7911,"num":7912,"innflytelse":7913,"##itim":7914,"Kirke":7915,"bærer":7916,"ans":7917,"kjøret":7918,"tomt":7919,"Finland":7920,"Soc":7921,"Fa":7922,"skipet":7923,"Vol":7924,"Vold":7925,"##atal":7926,"sivil":7927,"plant":7928,"identitet":7929,"Arbeiderpartiet":7930,"klem":7931,"##åter":7932,"kommand":7933,"##wa":7934,"overtok":7935,"kaff":7936,"sint":7937,"##allfall":7938,"##punkter":7939,"##beh":7940,"stiv":7941,"report":7942,"Dagsnytt":7943,"sprang":7944,"##røt":7945,"grensen":7946,"skrå":7947,"syv":7948,"##stall":7949,"##ifik":7950,"helg":7951,"##dtr":7952,"divisjon":7953,"beskrevet":7954,"ju":7955,"1966":7956,"oppmerksom":7957,"##ålmod":7958,"konsert":7959,"brystet":7960,"brevet":7961,"morgenen":7962,"gjem":7963,"telefonen":7964,"Rosen":7965,"aktivt":7966,"bestand":7967,"Fjord":7968,"militære":7969,"##skip":7970,"Ski":7971,"##isser":7972,"hesten":7973,"karri":7974,"glemt":7975,"historisk":7976,"##ason":7977,"##ordet":7978,"liter":7979,"eksper":7980,"##ci":7981,"Molde":7982,"##ree":7983,"rente":7984,"NH":7985,"into":7986,"tilfreds":7987,"nødvendigvis":7988,"Harry":7989,"##egrupp":7990,"##ografi":7991,"britiske":7992,"##eliv":7993,"ordningen":7994,"feltet":7995,"opph":7996,"belø":7997,"kant":7998,"talt":7999,"fløy":8000,"øk":8001,"##ubl":8002,"kompon":8003,"%.":8004,"revolusjon":8005,"Øog":8006,"landbruks":8007,"hverken":8008,"##ters":8009,"studenter":8010,"dimensjon":8011,"##mi":8012,"egenskaper":8013,"penge":8014,"liggende":8015,"##renge":8016,"staden":8017,"historiske":8018,"##ungen":8019,"føres":8020,"etablere":8021,"betaling":8022,"nevne":8023,"pekte":8024,"##analy":8025,"dessverre":8026,"Kal":8027,"je":8028,"innk":8029,"himmel":8030,"kysten":8031,"lek":8032,"##rup":8033,"KrF":8034,"tide":8035,"omstend":8036,"romant":8037,"vokste":8038,"##enny":8039,"##valitet":8040,"enor":8041,"sittende":8042,"##vete":8043,"##ressen":8044,"##nest":8045,"prinsippet":8046,"James":8047,"utsikt":8048,"Bel":8049,"AR":8050,"arv":8051,"##grupper":8052,"vegne":8053,"gaten":8054,"opprør":8055,"Rune":8056,"Ak":8057,"Sverre":8058,"særskilt":8059,"temmelig":8060,"fj":8061,"##vernet":8062,"Drammen":8063,"forutsetning":8064,"University":8065,"##tering":8066,"##itten":8067,"påvirke":8068,"sort":8069,"##????":8070,"##edskap":8071,"seinare":8072,"handlinger":8073,"beskriver":8074,"##fun":8075,"period":8076,"Aud":8077,"eksport":8078,"~~~~~":8079,"Georg":8080,"Ton":8081,"overrasket":8082,"##venn":8083,"jevn":8084,"....":8085,"komiteen":8086,"TR":8087,"holdning":8088,"pusten":8089,"##åg":8090,"banen":8091,"dame":8092,"##mos":8093,"dannet":8094,"produksjonen":8095,"Ru":8096,"Elev":8097,"##nadene":8098,"allmenn":8099,"hyp":8100,"Nar":8101,"gjenstand":8102,"##lagte":8103,"##atsen":8104,"173":8105,"##16":8106,"brudd":8107,"Fredag":8108,"synspunkt":8109,"1961":8110,"alvorlige":8111,"Mellom":8112,"##19":8113,"psykisk":8114,"##fallet":8115,"anvende":8116,"##bytte":8117,"tilby":8118,"##ulent":8119,"##staden":8120,"Senere":8121,"omtalt":8122,"verdt":8123,"bringe":8124,"##okker":8125,"show":8126,"bær":8127,"eksist":8128,"Bi":8129,"##uel":8130,"##løpet":8131,"medfører":8132,"Tryg":8133,"Gull":8134,"##orden":8135,"Komiteen":8136,"Rasmus":8137,"spenning":8138,"##nep":8139,"klassen":8140,"fylket":8141,"##rine":8142,"verdien":8143,"ing":8144,"Ingeborg":8145,"##bre":8146,"Hold":8147,"1962":8148,"Ingrid":8149,"arranger":8150,"gress":8151,"behandlingen":8152,"velkommen":8153,"##aliteten":8154,"frivillig":8155,"innført":8156,"##conom":8157,"punktum":8158,"Strøm":8159,"skiller":8160,"Hit":8161,"begrav":8162,"mottatt":8163,"##gave":8164,"terror":8165,"1963":8166,"count":8167,"##but":8168,"##slå":8169,"##givning":8170,"Aas":8171,"teoret":8172,"vog":8173,"tapt":8174,"infl":8175,"undersøkelsen":8176,"verdenskrig":8177,"##kkelen":8178,"Europe":8179,"Brø":8180,"die":8181,"##oth":8182,"##UM":8183,"mom":8184,"##//":8185,"Torsdag":8186,"##eme":8187,"Jonas":8188,"##uset":8189,"Hamar":8190,"myr":8191,"util":8192,"vanskelige":8193,"byens":8194,"1946":8195,"henvend":8196,"##sje":8197,"##terte":8198,"##kjennelse":8199,"sorg":8200,"bit":8201,"##sess":8202,"Elisabeth":8203,"Gift":8204,"effe":8205,"mikro":8206,"Rogaland":8207,"umiddelbart":8208,"rein":8209,"betra":8210,"Ca":8211,"nordiske":8212,"klage":8213,"##olt":8214,"støv":8215,"##elege":8216,"kvad":8217,"##iget":8218,"##ogg":8219,"Eva":8220,"##uta":8221,"låne":8222,"områdene":8223,"kapasitet":8224,"hytte":8225,"##apan":8226,"avisen":8227,"Hvilken":8228,"##sdatter":8229,"skyte":8230,"boliger":8231,"##15":8232,"sykehuset":8233,"Nu":8234,"ens":8235,"stress":8236,"anvendelse":8237,"##inav":8238,"##ndene":8239,"trinn":8240,"##inert":8241,"only":8242,"##rul":8243,"##penger":8244,"tunn":8245,"##renn":8246,"nom":8247,"Akers":8248,"bortsett":8249,"tjener":8250,"##slått":8251,"opphe":8252,"endel":8253,"vokser":8254,"slipper":8255,"synlig":8256,"engelske":8257,"##iteens":8258,"Ass":8259,"egnet":8260,"##add":8261,"##ico":8262,"Gå":8263,"inspir":8264,"ektef":8265,"slu":8266,"mengde":8267,"skudd":8268,"fund":8269,"hevdet":8270,"mog":8271,"Sw":8272,"konfer":8273,"##LER":8274,"nådde":8275,"opplevelse":8276,"##ygger":8277,"skapte":8278,"##ih":8279,"##foreningen":8280,"##kjente":8281,"støy":8282,"rec":8283,"##ORT":8284,"##UD":8285,"fylte":8286,"trur":8287,"kjørt":8288,"NC":8289,"##egang":8290,"vask":8291,"##sdagen":8292,"tilhører":8293,"##akse":8294,"trygt":8295,"##viser":8296,"##repren":8297,"Ur":8298,"sekunder":8299,"miljøet":8300,"kamper":8301,"funn":8302,"##gruppe":8303,"vende":8304,"Karen":8305,"veiledning":8306,"diff":8307,"høve":8308,"Gun":8309,"##lund":8310,"spec":8311,"avb":8312,"finger":8313,"##OK":8314,"bag":8315,"matem":8316,"##ibil":8317,"nyttig":8318,"ins":8319,"bemer":8320,"diagn":8321,"nar":8322,"eiendommen":8323,"##lesund":8324,"jam":8325,"fange":8326,"##ever":8327,"Tran":8328,"Lil":8329,"indust":8330,"hon":8331,"##smidler":8332,"##itor":8333,"##elat":8334,"##tting":8335,"sakene":8336,"##film":8337,"110":8338,"##skjer":8339,"##isjoner":8340,"Int":8341,"##kastet":8342,"lave":8343,"##bevis":8344,"utenlandske":8345,"##iva":8346,"inviter":8347,"##agasin":8348,"hjalp":8349,"##egård":8350,"Hei":8351,"##mmede":8352,"feir":8353,"##eldige":8354,"pur":8355,"Bestemm":8356,"retur":8357,"møtes":8358,"russiske":8359,"metode":8360,"magen":8361,"tingene":8362,"helgen":8363,"##bor":8364,"live":8365,"##ektig":8366,"Ko":8367,"konklusjon":8368,"Tøn":8369,"unntatt":8370,"danner":8371,"rollene":8372,"Ås":8373,"##agene":8374,"dekning":8375,"##sretten":8376,"##kkede":8377,"##egner":8378,"søkte":8379,"##fatter":8380,"fylle":8381,"bakover":8382,"avgrens":8383,"amerikansk":8384,"##90":8385,"##bed":8386,"],":8387,"##gress":8388,"operasjon":8389,"dokumenter":8390,"1948":8391,"Mac":8392,"forsøkt":8393,"debatten":8394,"Svar":8395,"repar":8396,"fortell":8397,"##ypt":8398,"fett":8399,"sum":8400,"foretak":8401,"beholde":8402,"##itar":8403,"forutsetter":8404,"bren":8405,"##bi":8406,"næ":8407,"imm":8408,"opplevde":8409,"gjennomgå":8410,"##my":8411,"SSSS":8412,"Grøn":8413,"Nik":8414,"Mari":8415,"melde":8416,"resultatene":8417,"##selskap":8418,"Hos":8419,"stolen":8420,"løpe":8421,"pause":8422,"institusjoner":8423,"offer":8424,"Erling":8425,"Richard":8426,"fersk":8427,"leilighet":8428,"faglige":8429,"utbygg":8430,"ledere":8431,"prat":8432,"varierer":8433,"iallfall":8434,"##ross":8435,"betegn":8436,"flotte":8437,"when":8438,"opprinnelig":8439,"forstyr":8440,"##snyheter":8441,"Not":8442,"##iew":8443,"##fore":8444,"usikker":8445,"Iver":8446,"Bær":8447,"##agelse":8448,"Ofte":8449,"##erten":8450,"lyder":8451,"statens":8452,"innh":8453,"solgte":8454,"##rog":8455,"##sre":8456,"iverks":8457,"kritisk":8458,"aksep":8459,"villig":8460,"##andinav":8461,"##ype":8462,"aktive":8463,"Industri":8464,"##omst":8465,"cir":8466,"Moss":8467,"medlemmene":8468,"##inc":8469,"Særlig":8470,"skjeb":8471,"dårlige":8472,"##IC":8473,"##ulert":8474,"##ilig":8475,"##idig":8476,"dømt":8477,"##ikeren":8478,"nes":8479,"innbyggere":8480,"##bur":8481,"'.":8482,"##mmes":8483,"Gust":8484,"##EC":8485,"Fur":8486,"gave":8487,"ulov":8488,"##................................":8489,"##12":8490,"understreker":8491,"##slam":8492,"boks":8493,"##ders":8494,"Foss":8495,"intro":8496,"##ansert":8497,"##bestemm":8498,"merkelig":8499,"lykkelig":8500,"kome":8501,"##aser":8502,"metoder":8503,"##BER":8504,"samtykke":8505,"hull":8506,"##åsen":8507,"Jack":8508,"##verden":8509,"glade":8510,"##ksus":8511,"assist":8512,"betraktet":8513,"Ingeb":8514,"øyeblikket":8515,"Eksemp":8516,"merker":8517,"Hels":8518,"##boks":8519,"##ondet":8520,"nark":8521,"##kultur":8522,"løfte":8523,"kriter":8524,"smiler":8525,"different":8526,"shall":8527,"antar":8528,"solen":8529,"Møre":8530,"Bert":8531,"menighet":8532,"##eten":8533,"perm":8534,"stillinger":8535,"kaf":8536,"##blikk":8537,"ok":8538,"plante":8539,"søvn":8540,"1956":8541,"Leif":8542,"##result":8543,"##høy":8544,"detaljer":8545,"##entert":8546,"sof":8547,"Face":8548,"elva":8549,"tverr":8550,"kull":8551,"##kehus":8552,"##seende":8553,"##sborg":8554,"presten":8555,"betre":8556,"##rasjonen":8557,"retningslinjer":8558,"##ati":8559,"1947":8560,"##enhet":8561,"##vd":8562,"Eiendom":8563,"##stiller":8564,"undersøke":8565,"Østfold":8566,"lurte":8567,"pet":8568,"##ivalen":8569,"tykk":8570,"evaluer":8571,"##tere":8572,"glemme":8573,"##egler":8574,"bryst":8575,"##ringene":8576,"toget":8577,"misjon":8578,"terreng":8579,"##jå":8580,"hittil":8581,"##pan":8582,"Johnsen":8583,"herr":8584,"Eriksen":8585,"tillatelse":8586,"##planen":8587,"næringsliv":8588,"mørkt":8589,"##ods":8590,"##rets":8591,"Søk":8592,"mangfold":8593,"fingrene":8594,"versjon":8595,"behandles":8596,"oppgitt":8597,"##vang":8598,"kalde":8599,"##bund":8600,"##kne":8601,"vurderes":8602,"##reis":8603,"##ration":8604,"kalte":8605,"EØS":8606,"daglige":8607,"jurid":8608,"##hengige":8609,"harde":8610,"etterspør":8611,"Fir":8612,"avtaler":8613,"bistand":8614,"Lud":8615,"Ålesund":8616,"Ram":8617,"utarbeidet":8618,"##yldig":8619,"mr":8620,"Luft":8621,"snu":8622,"bec":8623,"##pensjon":8624,"##appet":8625,"behøver":8626,"uen":8627,"fortvil":8628,"##ts":8629,"##VE":8630,"##saken":8631,"forskrifter":8632,"null":8633,"stoppe":8634,"aktører":8635,"##ctive":8636,"Hør":8637,"Rt":8638,"Sjå":8639,"liste":8640,"Real":8641,"vinden":8642,"Ris":8643,"takket":8644,"kommunens":8645,"dokumentarserie":8646,"sjanse":8647,"##nnet":8648,"detalj":8649,"##drift":8650,"##MS":8651,"video":8652,"Borg":8653,"mengder":8654,"Spørsmålet":8655,"Wal":8656,"Kort":8657,"August":8658,"øya":8659,"kos":8660,"nerv":8661,"faa":8662,"befinner":8663,"styring":8664,"utbred":8665,"##yting":8666,"##ré":8667,"fordeling":8668,"##itive":8669,"##splass":8670,"trykket":8671,"##åd":8672,"scenen":8673,"utføres":8674,"seil":8675,"##eldre":8676,"##spunktet":8677,"svake":8678,"##fast":8679,"guttene":8680,"utsk":8681,"May":8682,"løper":8683,"asyl":8684,"##IKK":8685,"##abl":8686,"##ature":8687,"Champ":8688,"##banken":8689,"1957":8690,"kommunestyret":8691,"befolkning":8692,"samisk":8693,"familier":8694,"pap":8695,"160":8696,"Storting":8697,"##uleg":8698,"gjennem":8699,"ordfør":8700,"##eds":8701,"giftet":8702,"1959":8703,"1958":8704,"passet":8705,"Akershus":8706,"Hånd":8707,"samband":8708,"##abet":8709,"tit":8710,"##ula":8711,"turist":8712,"gransk":8713,"Antall":8714,"utvidet":8715,"nav":8716,"forbruk":8717,"##ness":8718,"utenom":8719,"##trykk":8720,"stift":8721,"solid":8722,"allikevel":8723,"spiser":8724,"Gjø":8725,"gam":8726,"Fem":8727,"Grim":8728,"##ria":8729,"##mest":8730,"Grupp":8731,"IS":8732,"##meter":8733,"sigar":8734,"fremmede":8735,"Berlin":8736,"##gl":8737,"snur":8738,"spurt":8739,"any":8740,"klasser":8741,"org":8742,"tallene":8743,"where":8744,"aksjer":8745,"##itere":8746,"##hagen":8747,"##sdepartementet":8748,"Top":8749,"betaler":8750,"laga":8751,"##gikk":8752,"##unget":8753,"skiftet":8754,"##kjenning":8755,"##behov":8756,"##ymn":8757,"##iert":8758,"1949":8759,"Knud":8760,"1952":8761,"##),":8762,"spillere":8763,"##ads":8764,"1939":8765,"anst":8766,"internasjonalt":8767,"Trump":8768,"oppfølging":8769,"deltar":8770,"festet":8771,"Kåre":8772,"foreslå":8773,"##ij":8774,"syd":8775,"./":8776,"atom":8777,"Austral":8778,"oks":8779,"oppm":8780,"##lend":8781,",\"\"\"\"":8782,"Theory":8783,"##sse":8784,"how":8785,"##regn":8786,"##ool":8787,"forlot":8788,"forhand":8789,"International":8790,"gjera":8791,"##spiller":8792,"Home":8793,"##LA":8794,"Skriv":8795,"medan":8796,"rammer":8797,"##IST":8798,"##OD":8799,"##ather":8800,"oft":8801,"##uligheter":8802,"Brit":8803,"fler":8804,"##sform":8805,"optim":8806,"saksbe":8807,"barnd":8808,"dekk":8809,"bøyde":8810,"Prof":8811,"dekker":8812,"tegnet":8813,"Vind":8814,"erver":8815,"##smøtet":8816,"##boka":8817,"pent":8818,"##skapen":8819,"forklarte":8820,"faktorer":8821,"##illa":8822,"steng":8823,"krim":8824,"mind":8825,"peke":8826,"lyden":8827,"tu":8828,"##virke":8829,"##rerer":8830,"skriftlig":8831,"bjør":8832,"1955":8833,"bonde":8834,"##rerte":8835,"Eks":8836,"##politikk":8837,"Kim":8838,"Kristoffer":8839,"antas":8840,"huden":8841,"bestemmelse":8842,"innled":8843,"trist":8844,"##bak":8845,"##17":8846,"politim":8847,"forbindel":8848,"##issen":8849,"sympt":8850,"Spania":8851,"drap":8852,"bens":8853,"oppgjør":8854,"parkering":8855,"arrangem":8856,"antallet":8857,"##brev":8858,"tilfredsstillende":8859,"andres":8860,"##fir":8861,"verktøy":8862,"Onsdag":8863,"døy":8864,"stilles":8865,"innan":8866,"##ønster":8867,"##unge":8868,"typisk":8869,"midlertidig":8870,"Eirik":8871,"htt":8872,"##utstyr":8873,"Akkurat":8874,"##øyte":8875,"non":8876,"##ady":8877,"omsetning":8878,"mumlet":8879,"##forn":8880,"Få":8881,"samtlige":8882,"verdif":8883,"##slø":8884,"Riks":8885,"bein":8886,"delte":8887,"vilt":8888,"Åp":8889,"hr":8890,"##sgjer":8891,"Bjar":8892,"ansk":8893,"minnet":8894,"frivillige":8895,"Romsdal":8896,"hjemmet":8897,"##industrien":8898,"uend":8899,"bib":8900,"App":8901,"språket":8902,"William":8903,"tel":8904,"Enkelte":8905,"##bra":8906,"##arch":8907,"##OMM":8908,"##GE":8909,"bildene":8910,"gråt":8911,"Prø":8912,"##nner":8913,"avl":8914,"##otten":8915,"rammet":8916,"siv":8917,"modellen":8918,"##moen":8919,"fungere":8920,"hustru":8921,"ukjent":8922,"##habil":8923,"##smynd":8924,"klin":8925,"##atert":8926,"regi":8927,"US":8928,"separ":8929,"synet":8930,"faktum":8931,"##agere":8932,"sida":8933,"##kommun":8934,"motiver":8935,"pus":8936,"##leik":8937,"organisert":8938,"EF":8939,"hellige":8940,"drøm":8941,"seie":8942,"medier":8943,"politikere":8944,"##høg":8945,"##ctions":8946,"oblig":8947,"relevant":8948,"næringslivet":8949,"AB":8950,"revisjon":8951,"Været":8952,"##sinn":8953,"tone":8954,"Brand":8955,"Ekst":8956,"kret":8957,"',":8958,"##ates":8959,"kines":8960,"Sak":8961,"use":8962,"Ren":8963,"pannen":8964,"innsikt":8965,"##gjøring":8966,"line":8967,"Dagens":8968,"##hodet":8969,"##riter":8970,"(<<":8971,"engasjement":8972,"reality":8973,"##splassen":8974,"1953":8975,"##taler":8976,"Lillehammer":8977,"hjemmel":8978,"friluft":8979,"naturlige":8980,"##sæ":8981,"##lam":8982,"##gruppen":8983,"cor":8984,"volum":8985,"arbeidsmiljø":8986,"trappen":8987,"##user":8988,"Smith":8989,"].":8990,"følelsen":8991,"Avis":8992,"##fred":8993,"leke":8994,"##sprosessen":8995,"##--":8996,"##line":8997,"##ykt":8998,"##rough":8999,"byer":9000,"##represent":9001,"Max":9002,"Musikk":9003,"##zen":9004,"bade":9005,"##kapital":9006,"tele":9007,"##orsk":9008,"medføre":9009,"##ENE":9010,"nabo":9011,"mottak":9012,"##idrett":9013,"##ilen":9014,"Hum":9015,"##ittet":9016,"##ETT":9017,"forbe":9018,"119":9019,"skrik":9020,"Los":9021,"Pål":9022,"åpning":9023,"##orator":9024,"##jenester":9025,"gammelt":9026,"disc":9027,"analyser":9028,"virksom":9029,"##ago":9030,"##nesk":9031,"##riper":9032,"United":9033,"##kampen":9034,"gjennomføres":9035,"rem":9036,"##eling":9037,"most":9038,"##elskapet":9039,"##ÆR":9040,"partic":9041,"##arer":9042,"forandret":9043,"kommende":9044,"bryte":9045,"##esterett":9046,"MAR":9047,"stengt":9048,"vaske":9049,"##AB":9050,"Amund":9051,"truffet":9052,"Od":9053,"forskjeller":9054,"tendens":9055,"##ocke":9056,"##ktøren":9057,"måler":9058,"helset":9059,"##veig":9060,"anlegget":9061,"koster":9062,"institutt":9063,"indik":9064,"betydningen":9065,"Øvre":9066,"##rin":9067,"comm":9068,"Problem":9069,"herunder":9070,"hagen":9071,"##ordningen":9072,"personen":9073,"overalt":9074,"bakgrunnen":9075,"Hord":9076,"flink":9077,"##ants":9078,"##tekn":9079,"distrib":9080,"##holt":9081,"musikken":9082,"##40":9083,"regionen":9084,"Priv":9085,"##ting":9086,"MED":9087,"stortings":9088,"##sministeren":9089,"Fredrikstad":9090,"rettss":9091,"ordentlig":9092,"House":9093,"uka":9094,"##arter":9095,"Hil":9096,"##hor":9097,"Gab":9098,"Nok":9099,"##vika":9100,"århundre":9101,"##sskrift":9102,"CO":9103,"##akon":9104,"##faring":9105,"##ituasjon":9106,"kreditt":9107,"##13":9108,"##byrå":9109,"stillingen":9110,"##neren":9111,"General":9112,"Jern":9113,"Distriktsnyheter":9114,"opprinnelige":9115,"GR":9116,"##TT":9117,"Heg":9118,"temp":9119,"Ti":9120,"##ryss":9121,"avfall":9122,"##sforsk":9123,"ødelagt":9124,"kortere":9125,"##sserie":9126,"incre":9127,"##litter":9128,"##etningen":9129,"religiøse":9130,"##SP":9131,"verb":9132,"ankl":9133,"##ppa":9134,"lengst":9135,"Morgen":9136,"tilbyr":9137,"eventuell":9138,"front":9139,"##odde":9140,"øverste":9141,"##lingene":9142,"168":9143,"domm":9144,"alminnelig":9145,"130":9146,"forleng":9147,"Pri":9148,"War":9149,"##irekte":9150,"##oline":9151,"bestemmelsen":9152,"##kunst":9153,"billig":9154,"Hammer":9155,"##kvens":9156,"bestemmelsene":9157,"pant":9158,"forutsetninger":9159,"vanleg":9160,"element":9161,"idag":9162,"bytte":9163,"pkt":9164,"kontroller":9165,"group":9166,"##kommer":9167,"##etak":9168,"##ican":9169,"Lof":9170,"lykke":9171,"Jesu":9172,"bebo":9173,"##eskriv":9174,"samtalen":9175,"Stad":9176,"##mel":9177,"Laur":9178,"##ney":9179,"##klubb":9180,"##tar":9181,"Facebook":9182,"perfekt":9183,"ille":9184,"##krav":9185,"##ensasjon":9186,"bruks":9187,"hvorvidt":9188,"Gamle":9189,"datteren":9190,"##illinger":9191,"brøt":9192,"1954":9193,"fur":9194,"oppgaven":9195,"://":9196,"uttrykket":9197,"##ye":9198,"rust":9199,"##ivind":9200,"tidlegare":9201,"hvitt":9202,"anden":9203,"storm":9204,"##skritt":9205,"kunnet":9206,"høres":9207,"behandle":9208,"legen":9209,"Miss":9210,"##OG":9211,"##onser":9212,"beredskap":9213,"Egil":9214,"Stre":9215,"##SDAG":9216,"kjøpes":9217,"##ogra":9218,"geograf":9219,"##ORD":9220,"##bøker":9221,"##urdering":9222,"Will":9223,"datam":9224,"NAT":9225,"##pene":9226,"##sko":9227,"sene":9228,"herre":9229,"innbygger":9230,"fordeler":9231,"Ungdom":9232,"...>>":9233,"##gr":9234,"Dal":9235,"Rep":9236,"slit":9237,"treff":9238,"cell":9239,"lærte":9240,"##HET":9241,"gran":9242,"soldater":9243,"skulderen":9244,"Comm":9245,"nært":9246,"etterl":9247,"Mich":9248,"problemene":9249,"avdel":9250,"akk":9251,"tilstede":9252,"##holdes":9253,"##ript":9254,"generell":9255,"nektet":9256,"Pre":9257,"##ilder":9258,"stav":9259,"spiste":9260,"rekrutter":9261,"brun":9262,"##yggende":9263,"alminnelige":9264,"##ELL":9265,"opphav":9266,"gunst":9267,"Målet":9268,"eli":9269,"##utere":9270,"##inge":9271,"Herre":9272,"broren":9273,"Aftenposten":9274,"atter":9275,"Små":9276,"him":9277,"##cel":9278,"mulighetene":9279,"1951":9280,"George":9281,"Hj":9282,"##gaver":9283,"Super":9284,"forven":9285,"sans":9286,"##ykker":9287,"##kontoret":9288,"##æk":9289,"##siktige":9290,"Haugesund":9291,"moder":9292,"high":9293,"Myr":9294,"##ano":9295,"levere":9296,"park":9297,"##aksjonen":9298,"Helg":9299,"frie":9300,"tomme":9301,"gjester":9302,"##vit":9303,"##organisasjon":9304,"pleide":9305,"forekommer":9306,"##udsjettet":9307,"riktige":9308,"sver":9309,"lengde":9310,"ess":9311,"pul":9312,"Lau":9313,"sok":9314,"skuff":9315,"sidene":9316,"##sve":9317,"##sbjørn":9318,"Bus":9319,"would":9320,"saka":9321,"morg":9322,"halde":9323,"nettverk":9324,"##helm":9325,"Bas":9326,"##ople":9327,"appar":9328,"bab":9329,"cup":9330,"statlige":9331,"gjennomføring":9332,"Bern":9333,"well":9334,"Lie":9335,"humor":9336,"Allerede":9337,"noens":9338,"lovens":9339,"barnehagen":9340,"##vsagt":9341,"ss":9342,"rulle":9343,"##styre":9344,"mister":9345,"skild":9346,"forbundet":9347,"Neder":9348,"enklere":9349,"##arkedet":9350,"stykker":9351,"arkiv":9352,"kilde":9353,"##forstå":9354,"##spolitikk":9355,"Atl":9356,"##marks":9357,"selvstendig":9358,"##nummer":9359,"sikret":9360,"skrek":9361,"##samlingen":9362,"III":9363,"##PS":9364,"fattige":9365,"stu":9366,"drep":9367,"sec":9368,"vesle":9369,"buss":9370,"##ømt":9371,"Plutselig":9372,"Nav":9373,"##jing":9374,"Energ":9375,"bryll":9376,"Salt":9377,"Tour":9378,"utnytt":9379,"melk":9380,"##øys":9381,"##rykt":9382,"kvadrat":9383,"dus":9384,"hunden":9385,"202":9386,"elsk":9387,"##odene":9388,"##lete":9389,"ordre":9390,"sannheten":9391,"vegg":9392,"inngang":9393,"tilbudet":9394,"rektor":9395,"reduksjon":9396,"serien":9397,"##produs":9398,"Sent":9399,"##ugge":9400,"beina":9401,"process":9402,"##dr":9403,"bredt":9404,"But":9405,"Din":9406,"journalist":9407,"lit":9408,"arbeidskraft":9409,"gas":9410,"1500":9411,"Roy":9412,"##14":9413,"##egne":9414,"røyk":9415,"major":9416,"##rygd":9417,"Bry":9418,"##inerte":9419,"uttalelse":9420,"Master":9421,"slutter":9422,"lam":9423,"kommunal":9424,"##illingen":9425,"gøy":9426,"skuespiller":9427,"lød":9428,"Sog":9429,"prøvd":9430,"lurt":9431,"brutt":9432,"lede":9433,"##kurran":9434,"1700":9435,"trav":9436,"uttalte":9437,"overdra":9438,"herred":9439,"paragraf":9440,"Aur":9441,"Hor":9442,"##gelig":9443,"skjær":9444,"påvirker":9445,"skjema":9446,"IT":9447,"##uv":9448,"bedriftene":9449,"##terer":9450,"drepe":9451,"##ices":9452,"styrem":9453,"kristen":9454,"sb":9455,"##istan":9456,"statsminister":9457,"Fal":9458,"miner":9459,"##ollow":9460,"##urra":9461,"kostnadene":9462,"Kraft":9463,"retter":9464,"Sovjet":9465,"redeg":9466,"foredrag":9467,"planter":9468,"##ransport":9469,"##erence":9470,"protest":9471,"kanten":9472,"fangst":9473,"City":9474,"##program":9475,"ansett":9476,"arrest":9477,"Dis":9478,"##deler":9479,"##etta":9480,"støttet":9481,"net":9482,"##strasjon":9483,"##undes":9484,"dl":9485,"##role":9486,"##ALL":9487,"Henry":9488,"los":9489,"opprettholde":9490,"##snyhetene":9491,"Brun":9492,"##duc":9493,"##ington":9494,"##skv":9495,"##SI":9496,"UK":9497,"##verdige":9498,"reflekt":9499,"urett":9500,"##ned":9501,"##sene":9502,"tene":9503,"sjansen":9504,"Telefon":9505,"kjerne":9506,"skadet":9507,"##avdelingen":9508,"irrit":9509,"##bard":9510,"danse":9511,"spørsmålene":9512,"sånt":9513,"sper":9514,"Styr":9515,"Ud":9516,"##FF":9517,"studere":9518,"Fire":9519,"annan":9520,"Gjør":9521,"Tønsberg":9522,"##erst":9523,"Svend":9524,"##ssystemet":9525,"elektrisk":9526,"Ali":9527,"right":9528,"##stilte":9529,"Lin":9530,"##engden":9531,"##odden":9532,"varsel":9533,"Rundt":9534,"SC":9535,"##az":9536,"kjennskap":9537,"##ammet":9538,"##ife":9539,"Kra":9540,"##vannet":9541,"virkelighet":9542,"kjempet":9543,"##umentet":9544,"Japan":9545,"##ktene":9546,"onkel":9547,"innsk":9548,"##odt":9549,"antagelig":9550,"##problem":9551,"framfor":9552,"beskytte":9553,"1938":9554,"##afor":9555,"overf":9556,"betydelige":9557,"##mand":9558,"##iverse":9559,"Hy":9560,"nov":9561,"##imer":9562,"brukere":9563,"instrument":9564,"skjøt":9565,"forbaus":9566,"landskap":9567,"bena":9568,"forresten":9569,"##HE":9570,"blomst":9571,"Nyg":9572,"##bot":9573,"##verdien":9574,"##feld":9575,"seksjon":9576,"##prisen":9577,"sammenhengen":9578,"cl":9579,"automatisk":9580,"påpeker":9581,"incl":9582,"##øvrig":9583,"##ingens":9584,"##været":9585,"##vakt":9586,"Meg":9587,"##hem":9588,"##asat":9589,"tenk":9590,"hær":9591,"##uller":9592,"Bærum":9593,"##kkelige":9594,"damer":9595,"tips":9596,"Gri":9597,"##livet":9598,"##elov":9599,"minimum":9600,"selskapets":9601,"kall":9602,"Edvard":9603,"##ids":9604,"ligget":9605,"Krav":9606,"Lis":9607,"##emidler":9608,"spillet":9609,"katastro":9610,"Vestfold":9611,"rab":9612,"domstol":9613,"forskjellen":9614,"who":9615,"Ron":9616,"##sats":9617,"##keren":9618,"kravene":9619,"##olje":9620,"sees":9621,"equ":9622,"leiligheten":9623,"##EB":9624,"hellig":9625,"Bygg":9626,"AP":9627,"dal":9628,"tilpasset":9629,"kilder":9630,"Dagen":9631,"##sting":9632,"ringer":9633,"DET":9634,"regionale":9635,"ivrig":9636,"avgjørelse":9637,"elles":9638,"parad":9639,"Lise":9640,"sim":9641,"vurderer":9642,"banken":9643,"125":9644,"Sus":9645,"kjed":9646,"Skjø":9647,"løst":9648,"overvå":9649,"Nr":9650,"##osisjon":9651,"ballen":9652,"should":9653,"Ble":9654,"kalla":9655,"plikter":9656,"Ce":9657,"formen":9658,"avde":9659,"målt":9660,"sakte":9661,"Line":9662,"##vendt":9663,"brått":9664,"grunne":9665,"parter":9666,"##visor":9667,"##IA":9668,"Magne":9669,"hevet":9670,"vitne":9671,"##igelse":9672,"kjennet":9673,"India":9674,"140":9675,"Aut":9676,"Hotel":9677,"##gangsm":9678,"##skoler":9679,"##ennis":9680,"##sar":9681,"##feltet":9682,"livsstil":9683,"henge":9684,"skam":9685,"Mye":9686,"Bergens":9687,"jordbruks":9688,"##aret":9689,"KR":9690,"skift":9691,"##su":9692,"social":9693,"vedrørende":9694,"klim":9695,"##petanse":9696,"drøft":9697,"##ÅR":9698,"vaks":9699,"System":9700,"elven":9701,"Øster":9702,"##ét":9703,"ungdomssk":9704,"hvile":9705,"tante":9706,"taushet":9707,"Premier":9708,"seige":9709,"eitt":9710,"NCIS":9711,"1936":9712,"##preg":9713,"drog":9714,"Serv":9715,"vennlig":9716,"##ovasjon":9717,"Tekn":9718,"##historie":9719,"##mming":9720,"Død":9721,"##rader":9722,"Mann":9723,"særlige":9724,"overført":9725,"##søkonom":9726,"##rut":9727,"##splanen":9728,"sammenlignet":9729,"kniv":9730,"dype":9731,"latt":9732,"femte":9733,"##yren":9734,"marg":9735,"##ligt":9736,"støtter":9737,"Are":9738,"borg":9739,"##ryter":9740,"Mary":9741,"forlate":9742,"Dess":9743,"desto":9744,"##øter":9745,"Tror":9746,"Funn":9747,"heime":9748,"##bolig":9749,"såkalt":9750,"simp":9751,"Fest":9752,"beskrivelse":9753,"hage":9754,"hoppet":9755,"##ktiv":9756,"hensiktsmessig":9757,"unød":9758,"forstått":9759,"##biler":9760,"fisken":9761,"##ianne":9762,"##domm":9763,"Uansett":9764,"vunnet":9765,"trær":9766,"sem":9767,"##mennene":9768,"##stasjon":9769,"sank":9770,"stry":9771,"##kede":9772,"##act":9773,"perioder":9774,"syl":9775,"##ulf":9776,"anled":9777,"##landske":9778,"nyn":9779,"ulykke":9780,"Sval":9781,"##stekn":9782,"prom":9783,"uden":9784,"bosatt":9785,"KL":9786,"Espen":9787,"negativ":9788,"##ddet":9789,"Stand":9790,"Otto":9791,"Kveld":9792,"##isteret":9793,"see":9794,"reform":9795,"##sby":9796,"Sir":9797,"kaptein":9798,"##rommet":9799,"bundet":9800,"Felles":9801,"nysgjer":9802,"takke":9803,"##roleum":9804,"svakt":9805,"måltid":9806,"##åm":9807,"169":9808,"Kjer":9809,"Skole":9810,"gradvis":9811,"lovet":9812,"##ipend":9813,"unnskyld":9814,"past":9815,"Endelig":9816,"##sych":9817,"utstilling":9818,"Syd":9819,"##aer":9820,"Berit":9821,"##alth":9822,"##onne":9823,"##nevnt":9824,"fyrste":9825,"Holly":9826,"112":9827,"##keple":9828,"##aktige":9829,"Elekt":9830,"forening":9831,"##oria":9832,"ombord":9833,"ender":9834,"trang":9835,"materialet":9836,"Vann":9837,"hotellet":9838,"##rerende":9839,"foren":9840,"subjekt":9841,"investeringer":9842,"##punktet":9843,"Mitt":9844,"foten":9845,"first":9846,"muligens":9847,"##kontroll":9848,"Sann":9849,"finst":9850,"årsaken":9851,"##forbundet":9852,"evig":9853,"epis":9854,"effektivt":9855,"Hag":9856,"antak":9857,"seinere":9858,"rede":9859,"Bol":9860,"samarbeide":9861,"Bal":9862,"##still":9863,"kilo":9864,"##si":9865,"them":9866,"faktor":9867,"bøkene":9868,"Cor":9869,"##osen":9870,"##ANN":9871,"Alexander":9872,"kulturelle":9873,"benytter":9874,"vels":9875,"##ization":9876,"rasjon":9877,"##nam":9878,"##aade":9879,"spreng":9880,"takknem":9881,"##irasjon":9882,"tjenestem":9883,"kalk":9884,"Ros":9885,"Aker":9886,"##amping":9887,"beund":9888,"##ytter":9889,"##spor":9890,"hjernen":9891,"##kjøring":9892,"##eist":9893,"okk":9894,"holdninger":9895,"kapitlet":9896,"mit":9897,"##ileder":9898,"Astrid":9899,"søkt":9900,"rute":9901,"loc":9902,"Nytt":9903,"##skriften":9904,"##mynd":9905,"##sch":9906,"kø":9907,"Ragnhild":9908,"##dress":9909,"stjern":9910,"oppført":9911,"lenker":9912,"naar":9913,"angst":9914,"Tirsdag":9915,"Mandag":9916,"1942":9917,"forfatt":9918,"friske":9919,"##kro":9920,"Half":9921,"løpende":9922,"diskutere":9923,"dron":9924,"angår":9925,"##ØY":9926,"skutt":9927,"##osten":9928,"ri":9929,"##sbet":9930,"##svik":9931,"##elatende":9932,"Drø":9933,"forår":9934,"Hill":9935,">>-":9936,"167":9937,"##gjen":9938,"##nnen":9939,"Blir":9940,"##strå":9941,"digit":9942,"##ota":9943,"overl":9944,"evangel":9945,"//":9946,"hester":9947,"Cont":9948,"frokost":9949,"##oker":9950,"Sportsnyhetene":9951,"foreslo":9952,"alternative":9953,"fris":9954,"tydeligvis":9955,"bygninger":9956,"Rek":9957,"stjer":9958,"danne":9959,"nettet":9960,"bunnen":9961,"##ikre":9962,"through":9963,"##emb":9964,"trygge":9965,"biskop":9966,"##cu":9967,"strategi":9968,"noensinne":9969,"##ømmer":9970,"Øystein":9971,"fat":9972,"##kko":9973,"opplevelser":9974,"sørget":9975,"blodet":9976,"Nyhetene":9977,"##følgende":9978,"Hens":9979,"krevende":9980,"##viron":9981,"##ellig":9982,"ger":9983,"eine":9984,"##væ":9985,"oppfattet":9986,"##likter":9987,"1944":9988,"Øyvind":9989,"Mør":9990,"##rensen":9991,"Hem":9992,"overlev":9993,"##akkert":9994,"##ussen":9995,"##estad":9996,"bestefar":9997,"##stjenesten":9998,"arbeidsplasser":9999,";.":10000,"Lig":10001,"Nam":10002,"##driv":10003,"gnr":10004,"##rie":10005,"##inær":10006,"Olaf":10007,"##allene":10008,"fleks":10009,"Haugen":10010,"sammenlik":10011,"museum":10012,"kjend":10013,"Bernt":10014,"skjønne":10015,"Vinter":10016,"por":10017,"artikkelen":10018,"dommer":10019,"populære":10020,"dynam":10021,"##hjul":10022,"vesentlige":10023,"særleg":10024,"##grunnen":10025,"vurderinger":10026,"Lik":10027,"Gal":10028,"årlige":10029,"Lys":10030,"balanse":10031,"forventet":10032,"fond":10033,"##abrikken":10034,"Heid":10035,"motsatt":10036,"ferdige":10037,"komple":10038,"##sbyg":10039,"modern":10040,"Hordaland":10041,"fremfor":10042,"velly":10043,"Vig":10044,"farten":10045,"##lings":10046,"##JØ":10047,"make":10048,"nære":10049,"opptil":10050,"drakk":10051,"##riller":10052,"##aserie":10053,"systematisk":10054,"##fritt":10055,"Museum":10056,"ros":10057,"underveis":10058,"sjokk":10059,"ekspert":10060,"##edia":10061,"1941":10062,"Oper":10063,"##områdene":10064,"##rek":10065,"##askiner":10066,"vor":10067,"strakte":10068,"bene":10069,"Tan":10070,"Kval":10071,"arbeidslivet":10072,"##umin":10073,"isted":10074,"dum":10075,"##mene":10076,"årsaker":10077,"##sjøen":10078,"personal":10079,"##jørg":10080,"##fle":10081,"finansier":10082,"deltakelse":10083,"våknet":10084,"##sper":10085,"Heller":10086,"Siste":10087,"##ifer":10088,"innover":10089,"overskudd":10090,"EL":10091,"##asj":10092,"Gustav":10093,"plu":10094,"deleg":10095,"##edde":10096,"betal":10097,"damp":10098,"vanskeligere":10099,"##komne":10100,"##nekker":10101,"pluss":10102,"Norden":10103,"aviser":10104,"styrer":10105,"foretas":10106,"munt":10107,"somm":10108,"Sentral":10109,"moro":10110,"Canada":10111,"sukket":10112,"Fer":10113,"##ppel":10114,"##ological":10115,"dun":10116,"1937":10117,"Stats":10118,"cap":10119,"164":10120,"##avisen":10121,"##ateriale":10122,"porn":10123,"##sdalen":10124,"##ertil":10125,"hypp":10126,"riktignok":10127,"liber":10128,"rese":10129,"enheter":10130,"inngått":10131,"oppbe":10132,"Two":10133,"##sområde":10134,"bane":10135,"##KS":10136,"##arten":10137,"after":10138,"overraskende":10139,"beskrive":10140,"Por":10141,"##øres":10142,"Resultatet":10143,"rødt":10144,"##sevne":10145,"vassdrag":10146,"virkelige":10147,"*(":10148,"##vedt":10149,"roman":10150,"hat":10151,"Kristiania":10152,"pi":10153,"105":10154,"##rening":10155,"Arild":10156,"##agement":10157,"viktigere":10158,"Sarp":10159,"ald":10160,"utarbeide":10161,"Skj":10162,"##omster":10163,"Asbjørn":10164,"Bli":10165,"instit":10166,"nøytr":10167,"##arked":10168,"media":10169,"Alta":10170,"##las":10171,"koma":10172,"Ånd":10173,"handlet":10174,"overføring":10175,"FA":10176,"165":10177,"stoffer":10178,"bryter":10179,"dato":10180,"North":10181,"hovedsakelig":10182,"##ørs":10183,"##edom":10184,"blind":10185,"tapte":10186,"##JE":10187,"fore":10188,"##api":10189,"##test":10190,"øvre":10191,"kvinnelige":10192,"bun":10193,"##ileum":10194,"Kommunen":10195,"glimt":10196,"smitte":10197,"anmeld":10198,"Gabri":10199,"##ndre":10200,"skjønt":10201,"skjen":10202,"inni":10203,"##rafikken":10204,"barnets":10205,"Rol":10206,"yn":10207,"##uri":10208,"konkluder":10209,"dug":10210,"bygningen":10211,"budde":10212,"Nasjonal":10213,"vatn":10214,"påvirket":10215,"Dyr":10216,"Arendal":10217,"##spillet":10218,"underlig":10219,"tøff":10220,"bruket":10221,"eksped":10222,"Skulle":10223,"##itiv":10224,"utnytte":10225,"trag":10226,"fins":10227,"vedlegg":10228,"havne":10229,"stoffet":10230,"aust":10231,"svikt":10232,"forkyn":10233,"##smod":10234,"##skapene":10235,"funksjonshe":10236,"eigen":10237,"##øra":10238,"vo":10239,"##ikop":10240,"pleier":10241,"Regn":10242,"##aking":10243,"realityserie":10244,"##aka":10245,"administrative":10246,"opplysning":10247,"development":10248,"##una":10249,"Va":10250,"fjernet":10251,"raske":10252,"nyd":10253,"##finn":10254,"meas":10255,"##teret":10256,"##igere":10257,"##tred":10258,"foster":10259,"lyn":10260,"bekreftet":10261,"Efter":10262,"koll":10263,"##nu":10264,"##ional":10265,"presentert":10266,"humør":10267,"##vironment":10268,"kombinasjon":10269,"fisket":10270,"bost":10271,"ideer":10272,"hog":10273,"hæ":10274,"http":10275,"sog":10276,"andelen":10277,"byene":10278,"nedgang":10279,"Lunde":10280,"##uere":10281,"talte":10282,"potet":10283,"hytta":10284,"##ighed":10285,"Kjær":10286,"rettferd":10287,"##okol":10288,"follow":10289,"##øtte":10290,"##GEN":10291,"glas":10292,"gule":10293,"vokse":10294,"##erende":10295,"disposisjon":10296,"##gjørelse":10297,"RE":10298,"revet":10299,"##bygget":10300,"dårligere":10301,"indirekte":10302,"##steg":10303,"poss":10304,"Spare":10305,"vedtaket":10306,"##illes":10307,"generasjon":10308,"favor":10309,"##kal":10310,"hald":10311,"##itering":10312,"poteter":10313,"onde":10314,"forferdelig":10315,"Vide":10316,"oppgaver":10317,"Skien":10318,"vakkert":10319,"Wik":10320,"diam":10321,"univers":10322,"Skar":10323,"##barhet":10324,"1914":10325,"igang":10326,"##lte":10327,"##bler":10328,"samla":10329,"trygghet":10330,"læreren":10331,"tiår":10332,"##haver":10333,"1918":10334,"Jacobsen":10335,"NS":10336,"overgrep":10337,"Tob":10338,"reduseres":10339,"relasjon":10340,"innkjøp":10341,"satse":10342,"Albert":10343,"lete":10344,"avgjøre":10345,"pike":10346,"study":10347,"Møl":10348,"##rapport":10349,"##iserings":10350,"Sur":10351,"PC":10352,"sav":10353,"syns":10354,"omd":10355,"anm":10356,"##serne":10357,"##rama":10358,"hendelser":10359,"begeist":10360,"exper":10361,"1935":10362,"Jørg":10363,"what":10364,"##sgiver":10365,"Bev":10366,"usikkerhet":10367,"Kilde":10368,"##keg":10369,"##opol":10370,"American":10371,"Asker":10372,"Roger":10373,"##sand":10374,"##tur":10375,"prov":10376,"fremgår":10377,"samfunns":10378,"forretnings":10379,"emb":10380,"##ammens":10381,"resept":10382,"betydde":10383,"##kra":10384,"both":10385,"yngste":10386,"##assene":10387,"forsvinner":10388,"føttene":10389,"tilsynelatende":10390,"utgitt":10391,"!\"\"":10392,"overta":10393,"vern":10394,"##eløs":10395,"Lyng":10396,"##skogen":10397,"Velkommen":10398,"##råden":10399,"trodd":10400,"befant":10401,"ryn":10402,"##grepet":10403,"dommen":10404,"OM":10405,"hendte":10406,"opptak":10407,"##ystemet":10408,"##spel":10409,"activ":10410,"##menter":10411,"##lane":10412,"##inna":10413,"oppstå":10414,"102":10415,"greier":10416,"##forsvar":10417,"estim":10418,"tabellen":10419,"Arbeidet":10420,"Lat":10421,"maskiner":10422,"##chester":10423,"skolene":10424,"truet":10425,"kysset":10426,"##rigt":10427,"sunn":10428,"##press":10429,"nådd":10430,"advar":10431,"hvorav":10432,"##betaling":10433,"##stemt":10434,"enighet":10435,"Isak":10436,"Adam":10437,"funksjoner":10438,"##lymp":10439,"derved":10440,"Leder":10441,"##kontor":10442,"lyttet":10443,"bibliotek":10444,"gruppene":10445,"Eide":10446,"Krig":10447,"sannsyn":10448,"##amper":10449,"fyrst":10450,"##ygt":10451,"beveget":10452,"utvikler":10453,"tynne":10454,"col":10455,"resear":10456,"meldte":10457,"##entleg":10458,"##svil":10459,"##sselskap":10460,"Mu":10461,"aar":10462,"skarp":10463,"know":10464,"partier":10465,"Stortingets":10466,"Rapport":10467,"løsningen":10468,"Lib":10469,"##oo":10470,"besluttet":10471,"##valtning":10472,"##tekst":10473,"##ani":10474,"##renes":10475,"veget":10476,"tjenesten":10477,"ye":10478,"flat":10479,"Ting":10480,"Even":10481,"ordinære":10482,"tilpas":10483,"##pte":10484,"engasjert":10485,"##oget":10486,"1943":10487,"ungene":10488,"##hu":10489,"##haugen":10490,"bygging":10491,"NAV":10492,"Dat":10493,"nøkkel":10494,"forholde":10495,"kyrkje":10496,"Kristiansen":10497,"Middel":10498,"fjø":10499,"organer":10500,"politikerne":10501,"##gåver":10502,"##undervisning":10503,"##raksis":10504,"såret":10505,"Fast":10506,"~~~":10507,"Sag":10508,"styrker":10509,"individuelle":10510,"Programleder":10511,"##rick":10512,"stj":10513,"enke":10514,"kontant":10515,"aspekt":10516,"finan":10517,"såpass":10518,"Fakt":10519,"char":10520,"havnet":10521,"køy":10522,"varmen":10523,"studentene":10524,"Sarpsborg":10525,"skra":10526,"115":10527,"redaktør":10528,"standpunkt":10529,"skjult":10530,"meldt":10531,"##ossen":10532,"representert":10533,"Øn":10534,"forhandlinger":10535,"1917":10536,"involvert":10537,"lente":10538,"##ØN":10539,"##ffen":10540,"legitim":10541,"sjåfør":10542,"Grav":10543,"komment":10544,"##hallen":10545,"Australia":10546,"Kapittel":10547,"##liste":10548,"Faren":10549,"utgjorde":10550,"##ims":10551,"Viking":10552,"narkot":10553,"Bud":10554,"menneskelige":10555,"##stig":10556,"katol":10557,"##cis":10558,"konkurransen":10559,"eksisterer":10560,"Helene":10561,"konsentrasjon":10562,"rettferdig":10563,"kontrollere":10564,"hjørnet":10565,"##ralen":10566,"##alem":10567,"namn":10568,"gjest":10569,"##anerne":10570,"##ILL":10571,"för":10572,"fantas":10573,"Sara":10574,"##usten":10575,"?\"\"\"\"":10576,"##svalg":10577,"stanse":10578,"Luc":10579,"rekker":10580,"##okkene":10581,"utgave":10582,"jernban":10583,"Blad":10584,"besøke":10585,"Im":10586,"Gunder":10587,"##ubber":10588,"1933":10589,"118":10590,"spir":10591,"rasende":10592,"##kjenne":10593,"##ysse":10594,"OPP":10595,"Svalbard":10596,"sjølve":10597,"bidratt":10598,"turn":10599,"Johanne":10600,"TOR":10601,"Lor":10602,"definert":10603,"##smiddel":10604,"foregikk":10605,"gik":10606,"Kristine":10607,"##ioner":10608,"fjorden":10609,"deilig":10610,"utgiftene":10611,"##yndte":10612,"ledende":10613,"vedtok":10614,"sannhet":10615,"##row":10616,"eksamen":10617,"##politikken":10618,"driften":10619,"Had":10620,"##én":10621,"##kta":10622,"##utgifter":10623,"hydro":10624,"dokumentasjon":10625,"##datter":10626,"grønt":10627,"tju":10628,"tidspunktet":10629,"Kun":10630,"kontinuer":10631,"stk":10632,"regul":10633,"psykiske":10634,"origin":10635,"##avtale":10636,"sammenhenger":10637,"##anlegget":10638,"##ugg":10639,"Bull":10640,"lurer":10641,"##leggingen":10642,").\"\"":10643,"##revyen":10644,"##mennes":10645,"dukker":10646,"prinsip":10647,"samtaler":10648,"Jfr":10649,"historier":10650,"1910":10651,"komité":10652,"You":10653,"uheldig":10654,"mjøl":10655,"organisering":10656,"deles":10657,"BR":10658,"##ksen":10659,"raskere":10660,"Fisker":10661,"MA":10662,"Sid":10663,"appro":10664,"##srud":10665,"alderen":10666,"forberedt":10667,"overens":10668,"elementer":10669,"##skjema":10670,"1600":10671,"good":10672,"##veksling":10673,"##ship":10674,"skjule":10675,"##lia":10676,"gripe":10677,"straffes":10678,"leppene":10679,"trafikken":10680,"case":10681,"ere":10682,"##riften":10683,"106":10684,"protok":10685,"forsvarlig":10686,"Gutt":10687,"kvant":10688,"Hilde":10689,"##systemet":10690,"intervj":10691,"##avtalen":10692,"##kelen":10693,"##aterialet":10694,"dagar":10695,"##mør":10696,"Osc":10697,"hushold":10698,"brem":10699,"hed":10700,"tjue":10701,"##nett":10702,"##sområdet":10703,"162":10704,"Nielsen":10705,"Ri":10706,"lytte":10707,"imponer":10708,"politikken":10709,"##egori":10710,"##ji":10711,"Led":10712,"Black":10713,"beskyttelse":10714,"Kontakt":10715,"modeller":10716,"blanding":10717,"##ases":10718,"kundene":10719,"framleis":10720,"##musikk":10721,"samvitt":10722,"1905":10723,"Fylkesmannen":10724,"tyskerne":10725,"Steinar":10726,"##regel":10727,"från":10728,"uttalt":10729,"skr":10730,"fornuftig":10731,"##utningen":10732,"born":10733,"##viste":10734,"Roma":10735,"Ett":10736,"##lysninger":10737,"Pettersen":10738,"uni":10739,"halve":10740,"##ativer":10741,"##minister":10742,"##idde":10743,"##stendige":10744,"DAG":10745,"(-":10746,"billed":10747,"Samme":10748,"arrangert":10749,"Hollywood":10750,"Karin":10751,"antyd":10752,"ivareta":10753,"utbytte":10754,"forandring":10755,"##utvik":10756,"##ølen":10757,"##otek":10758,"##stykke":10759,"formiddag":10760,"innslag":10761,"flyet":10762,"utdannelse":10763,"leger":10764,"nasjonalt":10765,"Mrs":10766,"psykiat":10767,"linjer":10768,"mnd":10769,"betalte":10770,"##alde":10771,"##værelse":10772,"utfør":10773,"##pat":10774,"tørket":10775,"Syl":10776,"bevissthet":10777,"sjekke":10778,"##emiddel":10779,"research":10780,"##blå":10781,"##kester":10782,"##legen":10783,"etn":10784,"betong":10785,"##anny":10786,"Flor":10787,"##outh":10788,"liden":10789,"tilsier":10790,"Bibelen":10791,"brede":10792,"treffer":10793,"Kristi":10794,"##båten":10795,"##mord":10796,"##øyene":10797,"Stord":10798,"utslag":10799,"##bildet":10800,"anta":10801,"Rud":10802,"104":10803,"##mpet":10804,"bekrefter":10805,"##pes":10806,"ton":10807,"##veier":10808,"Mont":10809,"Spesielt":10810,"Tal":10811,"forank":10812,"##yter":10813,"##berget":10814,"tenkes":10815,"Jud":10816,"##ildene":10817,"eide":10818,"bakter":10819,"ordnet":10820,"Lyd":10821,"tynn":10822,"Jean":10823,"malt":10824,"Sigrid":10825,"bly":10826,"Fi":10827,"##lit":10828,"statistikk":10829,"menneskerett":10830,"##ae":10831,"##oil":10832,"##kurs":10833,"##sin":10834,"angrepet":10835,"Mob":10836,"lederen":10837,"HV":10838,"##vask":10839,"##egning":10840,"pin":10841,"Sec":10842,"Godt":10843,"##umen":10844,"dramaserie":10845,"Sandefjord":10846,"veter":10847,"medisinsk":10848,"##fiske":10849,"##ygen":10850,"tilp":10851,"requ":10852,"##etid":10853,"nytta":10854,"forber":10855,"Adresse":10856,"Kors":10857,"##ftene":10858,"##strakt":10859,"aff":10860,"Marc":10861,"##99":10862,"##sekretær":10863,"Næring":10864,"ff":10865,"##perioden":10866,"platt":10867,"##insippet":10868,"Nov":10869,"rd":10870,"P4":10871,"##itions":10872,"Grand":10873,"Gjøvik":10874,"##istikken":10875,"Hje":10876,"øverst":10877,"Røn":10878,"lufta":10879,"Lyn":10880,"lomm":10881,"Frid":10882,"very":10883,"##how":10884,"deltakerne":10885,"forventninger":10886,"uskyld":10887,"drømmer":10888,"vender":10889,"etablerte":10890,"##oke":10891,"##laus":10892,"flytter":10893,"##jøring":10894,"##fødte":10895,"utdannings":10896,"sykdommer":10897,"Bjarne":10898,"child":10899,"trygde":10900,"truleg":10901,"##ird":10902,"ønskelig":10903,"kjæreste":10904,"##BE":10905,"##redning":10906,"rykket":10907,"Nyhet":10908,"?\"\"":10909,"##gs":10910,"virksomheter":10911,"klærne":10912,"Øver":10913,"omfatte":10914,"kontra":10915,"arbeidsopp":10916,"##plom":10917,"stikke":10918,"##pri":10919,"flukt":10920,"oppfylt":10921,"uvanlig":10922,"Ove":10923,"nærmet":10924,"##ew":10925,"##yte":10926,"##komiteen":10927,"Eksterne":10928,"pleie":10929,"Rem":10930,"Imp":10931,"Tu":10932,"Forslag":10933,"Vidar":10934,"sult":10935,"avslør":10936,"urim":10937,"Kart":10938,"trekkes":10939,"planene":10940,"pred":10941,"103":10942,"##rust":10943,"krem":10944,"album":10945,"utmerket":10946,"flyktninger":10947,"Event":10948,"klager":10949,"##alisering":10950,"##sendt":10951,"listen":10952,"bånd":10953,"##sider":10954,"Sex":10955,"##inske":10956,"kaster":10957,"Husk":10958,"heldt":10959,"Full":10960,"##oe":10961,"Gratulerer":10962,"##serien":10963,"##iness":10964,"drives":10965,"lensmann":10966,"##aas":10967,"Lav":10968,"Tw":10969,"entrepren":10970,"klat":10971,"108":10972,"Skjer":10973,"anvendes":10974,"##vol":10975,"vanskeleg":10976,"anskaff":10977,"##ublik":10978,"begiven":10979,"Ske":10980,"dekar":10981,"bekymring":10982,"##ér":10983,"Undersøk":10984,"vanskeligheter":10985,"NOU":10986,"karriere":10987,"##kveld":10988,"islam":10989,"1890":10990,"reder":10991,"Halvorsen":10992,"enstemm":10993,"Mang":10994,"varslet":10995,"pepper":10996,"aa":10997,"gol":10998,"Snart":10999,"##askinen":11000,"straffe":11001,"skred":11002,"forutsatt":11003,"##yper":11004,"investering":11005,"ekstrem":11006,"døg":11007,"perman":11008,"rakk":11009,"ort":11010,"##inntekter":11011,"##GG":11012,"lokaler":11013,"##sbeg":11014,"King":11015,"rens":11016,"propos":11017,"##ding":11018,"##ettene":11019,"##mosf":11020,"107":11021,"senter":11022,"##atorer":11023,"##aterte":11024,"##apeut":11025,"##ries":11026,"point":11027,"##æng":11028,"forsam":11029,"Økonom":11030,"prosesser":11031,"Alm":11032,"ærlig":11033,"##iserie":11034,"##ack":11035,"Nedre":11036,"gjestene":11037,"##dition":11038,"interessante":11039,"Hauge":11040,"løfter":11041,"tegne":11042,"##jere":11043,"##sarbeidet":11044,"rid":11045,"tøy":11046,"Ida":11047,"systemer":11048,"##sjoner":11049,"##stasjonen":11050,"fjord":11051,"koste":11052,"respons":11053,"Styret":11054,"##60":11055,"skatter":11056,"prev":11057,"FRA":11058,"Imidlertid":11059,"Jf":11060,"dalen":11061,"Radio":11062,"Jos":11063,"verket":11064,"-/":11065,"Delt":11066,"##bal":11067,"politid":11068,"##bånd":11069,"ekskl":11070,"##brød":11071,"krise":11072,"overbevist":11073,"##ansene":11074,"pu":11075,"bortover":11076,"strålende":11077,"reddet":11078,"gjev":11079,"Pass":11080,"forsy":11081,"Organis":11082,"ledig":11083,"Høyesterett":11084,"personell":11085,"##hje":11086,"##ikar":11087,"plate":11088,"dømes":11089,"enorme":11090,"Hennes":11091,"embet":11092,"dyb":11093,"isen":11094,"##bol":11095,"glatt":11096,"##INN":11097,"musikal":11098,"Fjordane":11099,"Voss":11100,"lokalsam":11101,"Idrett":11102,"Sjøl":11103,"motsatte":11104,"tildelt":11105,"bitter":11106,"scanpix":11107,"Siri":11108,"Park":11109,"adresse":11110,"fase":11111,"trøst":11112,"Solveig":11113,"Selskapet":11114,"Bab":11115,"utvide":11116,"##personer":11117,"gjerning":11118,"Institutt":11119,"endelige":11120,"Start":11121,"Larvik":11122,"1927":11123,"rollen":11124,"sådan":11125,"ET":11126,"1919":11127,"##ålen":11128,"BL":11129,"kunnskaper":11130,"##imen":11131,"ts":11132,"aw":11133,"imellom":11134,"utgangen":11135,"nordover":11136,"husmann":11137,"Bay":11138,"##ådet":11139,"##rethe":11140,"anstreng":11141,"overs":11142,"sus":11143,"1934":11144,"scene":11145,"##iset":11146,"Funniest":11147,"##agram":11148,"nivået":11149,"Frode":11150,"##deg":11151,"Kjære":11152,"smal":11153,"number":11154,"information":11155,"regional":11156,"stole":11157,"prinsipper":11158,"##kjenner":11159,"høyr":11160,"slaget":11161,"trer":11162,"##ux":11163,"##bit":11164,"Angeles":11165,"kru":11166,"##uden":11167,"Friends":11168,"Ped":11169,"Set":11170,"##gaard":11171,"salgs":11172,"definer":11173,"drag":11174,"350":11175,"Bort":11176,"partner":11177,"vara":11178,"##ugen":11179,"ran":11180,"produsert":11181,"vogn":11182,"akadem":11183,"NATO":11184,"yd":11185,"faget":11186,"##edel":11187,"mv":11188,"1929":11189,"##skontroll":11190,"attrakt":11191,"troll":11192,"Hitler":11193,"SE":11194,"##mas":11195,"made":11196,"##lan":11197,"##skilde":11198,"##cul":11199,"harmon":11200,"indi":11201,"Ludvig":11202,"##avdeling":11203,"##hengighet":11204,"##ifor":11205,"gres":11206,"vestlige":11207,"salen":11208,"##spartiet":11209,"tekster":11210,"##opplæring":11211,"Helen":11212,"##otiske":11213,"Film":11214,"##sing":11215,"apen":11216,"##akne":11217,"kraftige":11218,"Sivert":11219,"1925":11220,"##elding":11221,"##ydelig":11222,"our":11223,"##jan":11224,"##iano":11225,"hendt":11226,"##aug":11227,"Familien":11228,"intensjon":11229,"##endes":11230,"snøen":11231,"##boken":11232,"term":11233,"nevner":11234,"##markedet":11235,"Joe":11236,"##nde":11237,"bevege":11238,"oppdrett":11239,"##smet":11240,"Dig":11241,"trenge":11242,"##last":11243,"Berge":11244,"must":11245,"koke":11246,"years":11247,"omtale":11248,"##øtt":11249,"Senterpartiet":11250,"##frid":11251,"##UND":11252,"##sling":11253,"##klær":11254,"mød":11255,"##innas":11256,"Cast":11257,"Charles":11258,"##insen":11259,"Totalt":11260,"1928":11261,"sjefen":11262,"lunsj":11263,"pist":11264,"Kjetil":11265,"##oli":11266,"distriktet":11267,"##sfri":11268,"##verte":11269,"mottar":11270,"##vester":11271,"blandet":11272,"løn":11273,"spissen":11274,"fasc":11275,"during":11276,"Karlsen":11277,"Rese":11278,"Nederland":11279,"hell":11280,"##skriver":11281,"rådet":11282,"Asia":11283,"Kre":11284,"punkter":11285,"sviger":11286,"finansiering":11287,"kvaliteten":11288,"økonomien":11289,"##geir":11290,"kledd":11291,"Wash":11292,"disipl":11293,"Sant":11294,"registrering":11295,"##deb":11296,"strenge":11297,"rakte":11298,"plassering":11299,"##overn":11300,"natta":11301,"She":11302,"##The":11303,"deltakere":11304,"Privat":11305,"##mmelige":11306,"Try":11307,"inneholde":11308,"fenomen":11309,"anse":11310,"laks":11311,"tørre":11312,"bodd":11313,"strengt":11314,"reagerer":11315,"##klubben":11316,"utfører":11317,"##idens":11318,"main":11319,"Fug":11320,"##vokaten":11321,"KON":11322,"Saken":11323,"keiser":11324,"stolte":11325,"rol":11326,"##hi":11327,"sten":11328,"Hedmark":11329,"lodd":11330,"ext":11331,"foreslås":11332,"Send":11333,"##IE":11334,"arrangement":11335,"Røde":11336,"1932":11337,"Justis":11338,"could":11339,"Moe":11340,"endres":11341,"evner":11342,"kommers":11343,"Kenn":11344,"Stør":11345,"ulovlig":11346,"sittet":11347,"Trygve":11348,"Valg":11349,"long":11350,"katt":11351,"Nina":11352,"##avis":11353,"##veksten":11354,"lande":11355,"Ville":11356,"Bedrift":11357,"later":11358,"##skjær":11359,"she":11360,"Marianne":11361,"Marius":11362,"fabrikk":11363,"##aksen":11364,"tax":11365,"##ami":11366,"Leon":11367,"##sutvikling":11368,"Sist":11369,"Tri":11370,"lærerne":11371,"sått":11372,"konstant":11373,"beslutninger":11374,"restaurant":11375,"transp":11376,"##iskap":11377,"##personell":11378,"1924":11379,"jevnt":11380,"ryt":11381,"troen":11382,"utredning":11383,"##veggen":11384,"forlag":11385,"##usalem":11386,"rehabil":11387,"model":11388,"greide":11389,"etablering":11390,"avgjort":11391,"frøken":11392,"drifts":11393,"elektriske":11394,"Bonde":11395,"##edyr":11396,"temaet":11397,"menneskelig":11398,"opplyst":11399,"sivile":11400,"##iety":11401,"helvete":11402,"Pla":11403,"gaa":11404,"forøvrig":11405,"117":11406,"tittelen":11407,"engst":11408,"##støtte":11409,"##flaten":11410,"##omb":11411,"bønder":11412,"##cle":11413,"feste":11414,"informasjonen":11415,"eleven":11416,"åtferd":11417,"Dar":11418,"overd":11419,"##otisk":11420,"forestilling":11421,"sjuk":11422,"##ograph":11423,"##fre":11424,"kult":11425,"faktiske":11426,"forfatteren":11427,"adv":11428,"kjærligheten":11429,"hem":11430,"selges":11431,"##run":11432,"pårørende":11433,"##obby":11434,"hag":11435,"sliter":11436,"##sskatt":11437,"nedre":11438,"old":11439,"skolens":11440,"##ssenter":11441,"lyste":11442,"smale":11443,"mogleg":11444,"forbudt":11445,"stemning":11446,"forbund":11447,"kombinert":11448,"##ringa":11449,"##forslag":11450,"femti":11451,"spent":11452,"bevare":11453,"skulen":11454,"##ART":11455,"back":11456,"##utvalg":11457,"1923":11458,"##alinger":11459,"stuen":11460,"Mosk":11461,"##kking":11462,"pakke":11463,"kommentarer":11464,"styrings":11465,"rådgiver":11466,"cond":11467,"##rering":11468,"risikoen":11469,"pasientene":11470,"##øyen":11471,"##bid":11472,"forne":11473,"Drift":11474,"Frø":11475,"barns":11476,"Landbruks":11477,"Stol":11478,"fact":11479,"trengs":11480,"reklame":11481,"sanger":11482,"høyst":11483,"effekten":11484,"industrien":11485,"##æss":11486,"synge":11487,"113":11488,"##skillig":11489,"regelen":11490,"Indre":11491,"samtid":11492,"trene":11493,"163":11494,"spra":11495,"Manchester":11496,"veggene":11497,"Jor":11498,"Kristiansund":11499,"kamera":11500,"Skatte":11501,"##kler":11502,"##fellen":11503,"ambass":11504,"Und":11505,"##UNN":11506,"kopp":11507,"##bilde":11508,"Dam":11509,"difor":11510,"Eivind":11511,"kryd":11512,"techn":11513,"##gata":11514,"team":11515,"arbeidstaker":11516,"##små":11517,"innføring":11518,"gjennomgang":11519,"Jerusalem":11520,"inte":11521,"Tilb":11522,"vol":11523,"##reper":11524,"##fs":11525,"hjemmes":11526,"##kamer":11527,"kjende":11528,"punktet":11529,"lærar":11530,"Sten":11531,"State":11532,"109":11533,"kino":11534,"strekker":11535,"samferd":11536,"døgnet":11537,"##bøl":11538,"konfir":11539,"Vårt":11540,"Wilhelm":11541,"varte":11542,"behandler":11543,"fremste":11544,"##uminium":11545,"##DR":11546,"found":11547,"seri":11548,"teik":11549,"##avene":11550,"eie":11551,"deira":11552,"kin":11553,"##eneres":11554,"satser":11555,"Forsvaret":11556,"##ikten":11557,"snitt":11558,"forlatt":11559,"1912":11560,"cur":11561,"##ryd":11562,"##feksjon":11563,"Ze":11564,"##svirksomhet":11565,"Tomm":11566,"nakken":11567,"framtida":11568,"##JER":11569,"relevante":11570,"##befolk":11571,"##gard":11572,"elend":11573,"oppfat":11574,"syne":11575,"1921":11576,"Gru":11577,"drepte":11578,"##aut":11579,"metoden":11580,"##dis":11581,"##geren":11582,"##UG":11583,"##klass":11584,"consider":11585,"##endommen":11586,"overføres":11587,"tilsvarer":11588,"belig":11589,"##sdotter":11590,"##ligvis":11591,"utforming":11592,"virkemidler":11593,"##oci":11594,"Harstad":11595,"menings":11596,"ettermiddagen":11597,"flaske":11598,"Sofie":11599,"vitner":11600,"eleg":11601,"##utan":11602,"##omt":11603,"jag":11604,"1915":11605,"##ennar":11606,"erklær":11607,"##holmen":11608,"Kongsberg":11609,"likestilling":11610,"Cecil":11611,"Fød":11612,"##stinget":11613,"Oscar":11614,"utø":11615,"##raham":11616,"##DAL":11617,"Ban":11618,"korrekt":11619,"101":11620,"opplær":11621,"Gen":11622,"##uther":11623,"each":11624,"##sperioden":11625,"Derimot":11626,"uttale":11627,"medhold":11628,"##sky":11629,"##ily":11630,"Elver":11631,"##ærende":11632,"fm":11633,"##AC":11634,"gruppa":11635,"fornær":11636,"##jakt":11637,"nøl":11638,"meth":11639,"stiger":11640,"##innasnekker":11641,"intervjuet":11642,"sovjet":11643,"vennskap":11644,"##gården":11645,"spek":11646,"##sprosess":11647,"inten":11648,"##rekke":11649,"tus":11650,"##rekker":11651,"##iret":11652,"##atoren":11653,"kvartal":11654,"dikter":11655,"Sun":11656,"infra":11657,"isk":11658,"sekretær":11659,"Handels":11660,"reaksjoner":11661,"##sverk":11662,"trives":11663,"intellig":11664,"arbeidstid":11665,"undervisningen":11666,"Instit":11667,"##få":11668,"##appen":11669,"nesen":11670,"##ence":11671,"ordne":11672,"##sred":11673,"##sfrist":11674,"##iska":11675,"sauer":11676,"1911":11677,"laborator":11678,"##sjonen":11679,"stemte":11680,"Halv":11681,"##økt":11682,"##krigen":11683,"understreke":11684,"##~~~~~~~~":11685,"utelukkende":11686,"##oser":11687,"Røy":11688,"forskere":11689,"##arly":11690,"bestemor":11691,"Stig":11692,"Lå":11693,"heste":11694,"##skifte":11695,"public":11696,"##atør":11697,"passende":11698,"Star":11699,"arab":11700,"fremhe":11701,"Egypt":11702,"forenk":11703,"vesen":11704,"rob":11705,"avh":11706,"rekord":11707,"Statoil":11708,"betraktning":11709,"Air":11710,"##IDE":11711,"banket":11712,"hekt":11713,"havn":11714,"Dre":11715,"Mamma":11716,"ødelegge":11717,"bøndene":11718,"##ones":11719,"tenner":11720,"kvarandre":11721,"opptrer":11722,"##ission":11723,"Cap":11724,"did":11725,"romantisk":11726,"DeG":11727,"Paulus":11728,"innføre":11729,"Radi":11730,".>>":11731,"meninger":11732,"eksemplar":11733,"koordin":11734,"vokst":11735,"##oto":11736,"##skostnader":11737,"##ternativ":11738,"morsomt":11739,"stopper":11740,"##abelt":11741,"speil":11742,"nåde":11743,"aften":11744,"auka":11745,"medarbeidere":11746,"DE":11747,"Total":11748,"##omi":11749,"dyktig":11750,"##lest":11751,"##våpen":11752,"Eik":11753,"Lofoten":11754,"barnevern":11755,"teke":11756,"artikler":11757,"##estrand":11758,"anbefaler":11759,"##ude":11760,"avgjer":11761,"##**":11762,"Vestlandet":11763,"tariff":11764,"myst":11765,"##FOR":11766,"1922":11767,"fryktelig":11768,"tvert":11769,"##bror":11770,"rov":11771,"Kjel":11772,"##__":11773,"##smiljø":11774,"nedbør":11775,"##edlem":11776,"forvand":11777,"Administ":11778,"programmer":11779,"##liga":11780,"##emer":11781,"##bryt":11782,"batter":11783,"##illit":11784,"##ulerte":11785,"Statistisk":11786,"Kunnskap":11787,"Kost":11788,"hørtes":11789,"##engene":11790,"svingte":11791,"Halden":11792,"doktor":11793,"argumenter":11794,"forsvare":11795,"Os":11796,"ÅR":11797,"Emma":11798,"##ipper":11799,"Reidar":11800,"##mal":11801,"##isont":11802,"tjen":11803,"1880":11804,"mistanke":11805,"##elva":11806,"##følelse":11807,"bryllup":11808,"kritiske":11809,"klokke":11810,"##eli":11811,"kvitt":11812,"Bakke":11813,"tålmod":11814,"Kons":11815,"namnet":11816,"relasjoner":11817,"oppvar":11818,"##blant":11819,"anim":11820,"trærne":11821,"##sråd":11822,"install":11823,"nyere":11824,"territ":11825,"##strekk":11826,"utkast":11827,"Greg":11828,"inse":11829,"arkitekt":11830,"besøkte":11831,"support":11832,"offisielle":11833,"resul":11834,"landskapet":11835,"##cht":11836,"Pan":11837,"##SM":11838,"komiserie":11839,"##sida":11840,"måneden":11841,"melod":11842,"##spensjon":11843,"nyttår":11844,"gjennomsnittlig":11845,"##YR":11846,"Gold":11847,"netto":11848,"snarere":11849,"Moren":11850,"Mjø":11851,"DeGeneres":11852,"##øder":11853,"følges":11854,"verda":11855,"##kring":11856,"##icy":11857,"##reise":11858,"medie":11859,"Ves":11860,"##hø":11861,"antakelig":11862,"Bjørg":11863,"glasset":11864,"##OLD":11865,"Juni":11866,"påske":11867,"antatt":11868,"respe":11869,"Brå":11870,"##produksjonen":11871,"1931":11872,"sikring":11873,"budsjettet":11874,"spredt":11875,"atferd":11876,"helga":11877,"ost":11878,"##møre":11879,"Folket":11880,"Washington":11881,"heil":11882,"##gren":11883,"flertallet":11884,"1926":11885,"stjerne":11886,"Julie":11887,"Narvik":11888,"utvil":11889,"opplysningene":11890,"bærekraft":11891,"##akken":11892,"arbeidstakere":11893,"##ITT":11894,"##spond":11895,"##ized":11896,"forvaltnings":11897,"America":11898,"livss":11899,"##oda":11900,"fastsettes":11901,"knytte":11902,"føles":11903,"heldigvis":11904,"adop":11905,"##sjø":11906,"##skatt":11907,"Internett":11908,"##visningen":11909,"produsere":11910,"##berst":11911,"forandre":11912,"Est":11913,"##sområder":11914,"beregning":11915,"JO":11916,"variere":11917,"##shistor":11918,"##skur":11919,"fødsel":11920,"flate":11921,"##ikon":11922,"Gode":11923,"lyde":11924,"Pensjon":11925,"##fallende":11926,"##ivelse":11927,"##organisasjonen":11928,"etterforsk":11929,"important":11930,"posten":11931,"håpe":11932,"If":11933,"Count":11934,"based":11935,"##sidig":11936,"rak":11937,"påstand":11938,"##etet":11939,"nyte":11940,"vegvesen":11941,"petroleum":11942,"##jefen":11943,"##hv":11944,"##iko":11945,"bestandig":11946,"PL":11947,"1865":11948,"##akerne":11949,"innrømme":11950,"kostet":11951,"ferdigheter":11952,"effektive":11953,"invitert":11954,"song":11955,"##varig":11956,"nit":11957,"aksjes":11958,"##bej":11959,"helses":11960,"akutt":11961,"Siv":11962,"Torbjørn":11963,"116":11964,"sola":11965,"medal":11966,"arbeidsled":11967,"rester":11968,"Abraham":11969,"level":11970,"badet":11971,"opplegg":11972,"##iserende":11973,"atmosf":11974,"Tone":11975,"note":11976,"Ax":11977,"sjokol":11978,"##feranse":11979,"##lysning":11980,"##ability":11981,"Jenny":11982,"internett":11983,"skalv":11984,"##ttar":11985,"114":11986,"sofaen":11987,"generalfor":11988,"partiene":11989,"##ksusfellen":11990,"SN":11991,"Fiske":11992,"leverer":11993,"##ble":11994,"##any":11995,"politidistrikt":11996,"Prest":11997,"Sem":11998,"##omfru":11999,"##fugl":12000,"Gil":12001,"##KKE":12002,"studiet":12003,"##agende":12004,"##dommene":12005,"oppnådd":12006,"##areal":12007,"ledige":12008,"magnet":12009,"cirka":12010,"opprette":12011,"Får":12012,"Polen":12013,"people":12014,"##sektoren":12015,"##fjellet":12016,"formue":12017,"Ten":12018,"##dy":12019,"metod":12020,"HA":12021,"Kur":12022,"##varing":12023,"##är":12024,"##sordning":12025,"tilhørende":12026,"Transport":12027,"veder":12028,"##gle":12029,"søsken":12030,"KV":12031,"##folket":12032,"undervisnings":12033,"oppvekst":12034,"beveger":12035,"estet":12036,"Gang":12037,"##vering":12038,"tempo":12039,"##analyse":12040,"National":12041,"##hy":12042,"stater":12043,"skuffet":12044,"##SER":12045,"ram":12046,"studerte":12047,"##retter":12048,"##rivil":12049,"Loven":12050,"##lid":12051,"Lab":12052,"es":12053,"135":12054,"123":12055,"##fakt":12056,"1916":12057,"##egnes":12058,"##sber":12059,"minoritet":12060,"kår":12061,"inngrep":12062,"tykke":12063,"skygge":12064,"##urch":12065,"gjentok":12066,"##ugo":12067,"##anc":12068,"sykehjem":12069,"følelses":12070,"Ner":12071,"diale":12072,"dekor":12073,"røre":12074,"##ony":12075,"##vitenskap":12076,"båter":12077,"omfattet":12078,"omtal":12079,"hevde":12080,"protester":12081,"Ull":12082,"##nemnda":12083,"##familien":12084,"Sing":12085,"##endørs":12086,"piken":12087,"##skomiteen":12088,"toal":12089,"filmer":12090,"gymn":12091,"konserv":12092,"Bildet":12093,"bussen":12094,"utlø":12095,"Forlag":12096,"##grø":12097,"##lei":12098,"hinder":12099,"##sser":12100,"##feil":12101,"Kvinner":12102,"Navn":12103,"meningen":12104,"flinke":12105,"stammer":12106,"konflikter":12107,"reisen":12108,"dæ":12109,"språ":12110,"spist":12111,"##lyd":12112,"oppgåvene":12113,"##anserte":12114,"enstemmig":12115,"##shus":12116,"oppsø":12117,"##neprest":12118,"Mind":12119,"fundament":12120,"##brans":12121,"foss":12122,"##srådet":12123,"fakta":12124,"##orger":12125,"Tyrk":12126,"Elling":12127,"Ret":12128,"Oppland":12129,"##risitet":12130,"##skilte":12131,"armer":12132,"hvorledes":12133,"engasjer":12134,"##fund":12135,"bol":12136,"Strø":12137,"##isi":12138,"AT":12139,"Cal":12140,"##elskaper":12141,"statlig":12142,"krevde":12143,"livets":12144,"kontinuerlig":12145,"Fager":12146,"fødsels":12147,"savnet":12148,"godkjenning":12149,"1875":12150,"##kerne":12151,"##gir":12152,"Eidsv":12153,"spillerne":12154,"##ima":12155,"1913":12156,"inder":12157,"normale":12158,"dramatisk":12159,"mad":12160,"order":12161,"##24":12162,"##fors":12163,"##apet":12164,"faen":12165,"don":12166,"##abrik":12167,"bryr":12168,"hemmelighet":12169,"##eldigvis":12170,"##møte":12171,"teknikk":12172,"stiftet":12173,"uttalelser":12174,"Charl":12175,"Hvad":12176,"##produkter":12177,"gut":12178,"naz":12179,"semin":12180,"DU":12181,"Alfred":12182,"oppsummer":12183,"stemp":12184,"Blå":12185,"CH":12186,"bring":12187,"Selvfølgelig":12188,"Randi":12189,"##eløpet":12190,"fugl":12191,"manglet":12192,"utfyl":12193,"okkup":12194,"populær":12195,"naken":12196,"ital":12197,"##St":12198,"utstyrt":12199,"##ifisert":12200,"klassisk":12201,"angitt":12202,"##skerud":12203,"Moen":12204,"fann":12205,"lad":12206,"Hanne":12207,"##apparatet":12208,"dypere":12209,"##middag":12210,"Produksjon":12211,"geb":12212,"##marka":12213,"anser":12214,"skjære":12215,"##JØR":12216,"##olin":12217,"##sformer":12218,"##skiftet":12219,"søknaden":12220,"##sspørsmål":12221,"##øtter":12222,"kommunes":12223,"##elf":12224,"##klasse":12225,"arena":12226,"grepet":12227,"Gje":12228,"uttaler":12229,"omgivelsene":12230,"##unket":12231,"ideen":12232,"##ivende":12233,"bestå":12234,"##skene":12235,"skjulte":12236,"Går":12237,"Ross":12238,"##umm":12239,"forsvunnet":12240,"skjøv":12241,"OSL":12242,"##parken":12243,"##rettes":12244,"##fta":12245,"##foren":12246,"ih":12247,"Bri":12248,"##round":12249,"tårer":12250,"##ingane":12251,"søt":12252,"##lis":12253,"André":12254,"##bibliote":12255,"##alls":12256,"ull":12257,"Bos":12258,"##ennen":12259,"knytter":12260,"overflaten":12261,"foregående":12262,"Cup":12263,"Hydro":12264,"##NES":12265,"##ows":12266,"maatte":12267,"/.":12268,"hennar":12269,"spel":12270,"Else":12271,"LE":12272,"##krev":12273,"Kron":12274,"arbeidere":12275,"bif":12276,"plukket":12277,"intelle":12278,"personlighet":12279,"vedtekt":12280,"##ektige":12281,"politiker":12282,"##jerte":12283,"##kommet":12284,"##cks":12285,"Josef":12286,"vellykket":12287,"##andel":12288,"fastsette":12289,"haug":12290,"oppdage":12291,"veksten":12292,"##ilbud":12293,"Kunne":12294,"##problemer":12295,"statsråd":12296,"##armen":12297,"ml":12298,"digital":12299,"##reden":12300,"##kjel":12301,"senket":12302,"russisk":12303,"syr":12304,"##sfag":12305,"lure":12306,"##asert":12307,"##kat":12308,"byttet":12309,"nedsatt":12310,"diplom":12311,"variasjon":12312,"primær":12313,"##PI":12314,"##conomic":12315,"Luk":12316,"##slovens":12317,"##itivt":12318,"pens":12319,"##paret":12320,"Svart":12321,"AF":12322,"materiell":12323,"oppr":12324,"Innst":12325,"##apparat":12326,"##70":12327,"nærmer":12328,"open":12329,"##heit":12330,"Elevene":12331,"knytt":12332,"##OV":12333,"Løv":12334,"gram":12335,"Kore":12336,"temper":12337,"Tør":12338,"erstattet":12339,"##orks":12340,"avgjørelsen":12341,"##BL":12342,"vurderingen":12343,"##fond":12344,"tiltre":12345,"##vatn":12346,"spøk":12347,"Elverum":12348,"krets":12349,"svel":12350,"brune":12351,"døydde":12352,"Ther":12353,"way":12354,"sorter":12355,"ungdommer":12356,"Il":12357,"tilpasse":12358,"tilhørte":12359,"##stoffer":12360,"dominerende":12361,"##ytta":12362,"maksim":12363,"Research":12364,"realitet":12365,"##senter":12366,"kontrollen":12367,"##ragt":12368,"water":12369,"Livet":12370,"statsbudsjettet":12371,"flagg":12372,"forbryt":12373,"meldingen":12374,"Fos":12375,"hverdagen":12376,"siktet":12377,"eige":12378,"Barna":12379,"aktiviteten":12380,"sykdommen":12381,"##sår":12382,"bam":12383,"synger":12384,"Mest":12385,"Johnn":12386,"Aldri":12387,"##enna":12388,"SM":12389,"##sstat":12390,"interne":12391,"own":12392,"fjernsyn":12393,"skjebne":12394,"konsekvensene":12395,"tiltakene":12396,"##bevisst":12397,"landslag":12398,"frik":12399,"rig":12400,"##knings":12401,"122":12402,"flytta":12403,"ulem":12404,"utvilsomt":12405,"Que":12406,"##inket":12407,"Tegn":12408,"dispon":12409,"fylkeskommunen":12410,"##revisjon":12411,"##spris":12412,"commun":12413,">>)":12414,"##idet":12415,"##keland":12416,"within":12417,"##pool":12418,"innvend":12419,":\"\"":12420,"00M":12421,"##aton":12422,"AM":12423,"Pra":12424,"avkast":12425,"##ERE":12426,"Henning":12427,"øret":12428,"Bestemmelsen":12429,"Herrens":12430,"##æret":12431,"jordbruk":12432,"størrelsen":12433,"elske":12434,"##bod":12435,"mont":12436,"##KE":12437,"husene":12438,"##ards":12439,"voldsomt":12440,"##ftig":12441,"Lærer":12442,"figuren":12443,"##cture":12444,"Jess":12445,"Førde":12446,"pedagogisk":12447,"Haw":12448,"Syria":12449,"##kehuset":12450,"##klaring":12451,"begrense":12452,"There":12453,"Rana":12454,"samvittighet":12455,"##atch":12456,"lettet":12457,"##uert":12458,"##stab":12459,"##ygget":12460,"##treng":12461,"Russ":12462,"##øen":12463,"##besk":12464,"##SV":12465,"overhodet":12466,"abs":12467,"vas":12468,"våt":12469,"Luksusfellen":12470,"ISB":12471,"##ni":12472,"medis":12473,"##stilbud":12474,"##speriode":12475,"##rus":12476,"Nesten":12477,"##fet":12478,"presteg":12479,"##skjø":12480,"Bent":12481,"year":12482,"departementets":12483,"desper":12484,"##ments":12485,"evnen":12486,"##grens":12487,"berømte":12488,"negativt":12489,"bensin":12490,"##cker":12491,"produktet":12492,"Nort":12493,"##elast":12494,"##enga":12495,"##skjel":12496,"Dokument":12497,"gyl":12498,"##atorisk":12499,"Spørsmål":12500,"1860":12501,"Svenske":12502,"##stider":12503,"Stemmen":12504,"avdelingen":12505,"cal":12506,"##usive":12507,"gråte":12508,"forandringer":12509,"betales":12510,"fantastiske":12511,"skaffet":12512,"husdyr":12513,"HEL":12514,"lem":12515,"Krog":12516,"tvunget":12517,"##administ":12518,"temperaturen":12519,"leid":12520,"##endene":12521,"1907":12522,"formelle":12523,"##akene":12524,"gonger":12525,"153":12526,"vri":12527,"##assa":12528,"Sørensen":12529,"hjørne":12530,"##hjert":12531,"timen":12532,"Ki":12533,"Stian":12534,"bronse":12535,"Street":12536,"Louis":12537,"Hann":12538,"##lant":12539,"prisene":12540,"##ducation":12541,"sørger":12542,"Gir":12543,"Nordre":12544,"helikop":12545,"relation":12546,"krysset":12547,"demonst":12548,"##instru":12549,"Ibsen":12550,"bul":12551,"##ordninger":12552,"##aal":12553,"##forsy":12554,"##80":12555,"##elv":12556,"datab":12557,"ukene":12558,"garder":12559,"##skader":12560,"Ox":12561,"##ksene":12562,"##selskapet":12563,"alp":12564,"erob":12565,"##skrev":12566,"skarpe":12567,"Våler":12568,"vennene":12569,"##ots":12570,"##ffic":12571,"forstod":12572,"##agg":12573,"##klassen":12574,"Kyst":12575,"Huset":12576,"svømme":12577,"Ingebrigt":12578,"Motor":12579,"eksistens":12580,"##direktoratet":12581,"skum":12582,"1870":12583,"kule":12584,"normer":12585,"ulykken":12586,"nat":12587,"##byggingen":12588,"##maet":12589,"Born":12590,"eieren":12591,"Håvard":12592,"heiter":12593,"langrenn":12594,"folks":12595,"gjenstander":12596,"Staten":12597,"tennene":12598,"##mmel":12599,"elektronisk":12600,"mg":12601,"rat":12602,"desc":12603,"Våre":12604,"##lien":12605,"fjær":12606,"sinne":12607,"##stua":12608,"Data":12609,"Tiden":12610,"oppfattes":12611,"presentere":12612,"inspirasjon":12613,"minnes":12614,"##ordnet":12615,"høf":12616,"besto":12617,"banker":12618,"##ylling":12619,"vorte":12620,"gm":12621,"##jande":12622,"##sfjord":12623,"(=":12624,"dratt":12625,"Fj":12626,"##fondet":12627,"påvirkning":12628,"Scott":12629,"garn":12630,"Mette":12631,"turer":12632,"##bevegelsen":12633,"nabol":12634,"sikrer":12635,"plak":12636,"sau":12637,"Ref":12638,"##sløse":12639,"diskrimin":12640,"Ingenting":12641,"mindret":12642,"being":12643,"##arte":12644,"skarpt":12645,"stykket":12646,"134":12647,"urolig":12648,"interesserte":12649,"##prosjektet":12650,"forpliktelser":12651,"Che":12652,"pp":12653,"Steph":12654,"primært":12655,"##ektor":12656,"vinn":12657,"melke":12658,"1906":12659,"offiser":12660,"digitale":12661,"##fo":12662,"forsøks":12663,"beite":12664,"##imet":12665,"målene":12666,"jordbruket":12667,"##okke":12668,"almind":12669,"control":12670,"##vogn":12671,"Ler":12672,"##ARD":12673,"Kommunal":12674,"CD":12675,"sykepleier":12676,"##komme":12677,"samler":12678,"stikker":12679,"Ikkje":12680,"ørene":12681,"forund":12682,"omsider":12683,"ast":12684,"##dige":12685,"tilgjengelige":12686,"makten":12687,"loj":12688,"##aledes":12689,"oppmunt":12690,"Brasil":12691,"blek":12692,"havner":12693,"ligner":12694,"bevegelser":12695,"Mur":12696,"avisa":12697,"Len":12698,"avtalt":12699,"autor":12700,"##22":12701,"wc":12702,"ISBN":12703,"##usi":12704,"##OC":12705,"##giftene":12706,"##apper":12707,"dødsf":12708,"Ky":12709,"##radi":12710,"brukerne":12711,"##go":12712,"etterhvert":12713,"undersøkt":12714,"##retninger":12715,"1908":12716,"##stuen":12717,"##næring":12718,"1902":12719,"##onert":12720,"markert":12721,"##ommeren":12722,"##ledge":12723,"Inne":12724,"##vt":12725,"omgivelser":12726,"administrasjonen":12727,"NB":12728,"varet":12729,"Dale":12730,"##agne":12731,"gjød":12732,"##anes":12733,"##ION":12734,"farlige":12735,"##kassen":12736,"hilsen":12737,"Jørgensen":12738,"##000":12739,"Chic":12740,"##eting":12741,"soldat":12742,"##givningen":12743,"##akeren":12744,"127":12745,"##sde":12746,"Buskerud":12747,"1850":12748,"##ught":12749,"/-":12750,"##åra":12751,"muse":12752,"##iltak":12753,"##inasjon":12754,"forsker":12755,"millionar":12756,"leiar":12757,"##sregler":12758,"Røros":12759,"Seb":12760,"##regud":12761,"stige":12762,"ethvert":12763,"sild":12764,"effektivitet":12765,"kake":12766,"rullet":12767,"##illene":12768,"betingelser":12769,"Utt":12770,"124":12771,"klassiske":12772,"##kol":12773,"utøver":12774,"oksygen":12775,"##spolitikken":12776,"teleg":12777,"bidro":12778,"roper":12779,"##avet":12780,"pålegg":12781,"rutiner":12782,"favoritt":12783,"øyeblikkelig":12784,"virkninger":12785,"##navn":12786,"levd":12787,"Iversen":12788,"elleve":12789,"##eled":12790,"##splasser":12791,"Løs":12792,"glød":12793,"Gjen":12794,"##ls":12795,"Maren":12796,"konfirm":12797,"##unksjon":12798,"registrerte":12799,"##sfulle":12800,"skifter":12801,"definisjon":12802,"frykter":12803,"##anere":12804,"##eper":12805,"Green":12806,"Moskva":12807,"budskap":12808,"Mex":12809,"arbeidsplass":12810,"rive":12811,"##osi":12812,"##utd":12813,"sambo":12814,"##forsker":12815,"ingeniør":12816,"##chef":12817,"Hvert":12818,"Presidenten":12819,"omstendigheter":12820,"126":12821,"følt":12822,"##sover":12823,"Christensen":12824,"gjengjeld":12825,"Vester":12826,"##sete":12827,"##jernen":12828,"##FO":12829,"tapet":12830,"ambul":12831,"Champions":12832,"orientering":12833,"biblioteket":12834,"treet":12835,"myk":12836,"meddel":12837,"bandet":12838,"pga":12839,"##synt":12840,"gitar":12841,"##park":12842,"komb":12843,"##olek":12844,"revol":12845,"Time":12846,"Bygge":12847,"fed":12848,"overst":12849,"Kongsv":12850,"Topp":12851,"Marte":12852,"Ansvar":12853,"Gyld":12854,"fradrag":12855,"kanal":12856,"Kyr":12857,"individual":12858,"occ":12859,"utsagn":12860,"synder":12861,"##nant":12862,"##ental":12863,"dyrene":12864,"##frie":12865,"ii":12866,"ettertid":12867,"##itch":12868,"Retten":12869,"selskapene":12870,"avdelinger":12871,"matematikk":12872,"derfrå":12873,"DEN":12874,"sagde":12875,"ukjente":12876,"ED":12877,"istedenfor":12878,"##interesser":12879,"##ridge":12880,"landsbyen":12881,"1909":12882,"Eksempel":12883,"rørte":12884,"blive":12885,"summen":12886,"many":12887,"Heim":12888,"##italen":12889,"kjens":12890,"yte":12891,"føde":12892,"oppmerksomheten":12893,"bransjen":12894,"inviterer":12895,"##ds":12896,"gale":12897,"perform":12898,"Hjert":12899,"fartøy":12900,"##føreren":12901,"Problemet":12902,"forsvinne":12903,"##entre":12904,"selge":12905,"##ands":12906,"mottok":12907,"date":12908,"forstås":12909,"##icle":12910,"##ATT":12911,"fortjener":12912,"##usjonen":12913,"Tele":12914,"give":12915,"skur":12916,"motta":12917,"Merk":12918,"Ordet":12919,"medisinske":12920,"avgang":12921,"129":12922,"##stue":12923,"##sperson":12924,"##papir":12925,"Ål":12926,"avstanden":12927,"Net":12928,"Helgeland":12929,"Vent":12930,"grønnsaker":12931,"stasjonen":12932,"ideal":12933,"##yse":12934,"leker":12935,"forvirret":12936,"mellomrom":12937,"sakk":12938,"Steink":12939,"##deleg":12940,"##handlinger":12941,"##landsk":12942,"Christiania":12943,"beslag":12944,"glemte":12945,"##regler":12946,"Johnny":12947,"##itative":12948,"nervøs":12949,"trenings":12950,"Tilbake":12951,"møttes":12952,"skept":12953,"ekstraordin":12954,"##vey":12955,"brukar":12956,"Linda":12957,"verksted":12958,"Helle":12959,"##aar":12960,"gongen":12961,"oppleves":12962,"begrunnelse":12963,"porten":12964,"AD":12965,"##ilsynet":12966,"træ":12967,"Lønn":12968,"soverom":12969,"visjon":12970,"##enteres":12971,"akter":12972,"kyrkja":12973,"impro":12974,"Sinnasnekker":12975,"Grimstad":12976,"overordnede":12977,"##sek":12978,"hovedstaden":12979,"reelle":12980,"idi":12981,"akseptere":12982,"halvdel":12983,"hul":12984,"##ists":12985,"##verker":12986,"##kenen":12987,"Dor":12988,"firmaet":12989,"##foretak":12990,"camping":12991,"Riktig":12992,"##itasjon":12993,"avisene":12994,"##sbygg":12995,"vinduene":12996,"Volda":12997,"brenn":12998,"ekteskapet":12999,"Henriksen":13000,"synspunkter":13001,"##lunde":13002,"månedene":13003,"avgifter":13004,"Barnet":13005,"##imeter":13006,"kontakten":13007,"flyktning":13008,"##dens":13009,"##rakter":13010,"Yng":13011,"##uttes":13012,"##sig":13013,"450":13014,"##institusjoner":13015,"nakne":13016,"skv":13017,"bredde":13018,"skjermen":13019,"then":13020,"##amilla":13021,"given":13022,"##sproblem":13023,"jap":13024,"##unk":13025,"forval":13026,"hunder":13027,"##vog":13028,"##valet":13029,"Salg":13030,"dekkes":13031,"large":13032,"133":13033,"kontrakten":13034,"levering":13035,"late":13036,"PRO":13037,"##riminal":13038,"##handelen":13039,"##rif":13040,"##rukket":13041,"FL":13042,"Heldigvis":13043,"##otet":13044,"times":13045,"Sveits":13046,"132":13047,"Produ":13048,"Utvikling":13049,"dørene":13050,"##sveg":13051,"Eil":13052,"puste":13053,"##umpe":13054,"What":13055,"##lion":13056,"##jup":13057,"kartet":13058,"korrid":13059,"##ords":13060,"##RIST":13061,"foruten":13062,"128":13063,"buk":13064,"endå":13065,"Hardanger":13066,"Jim":13067,"attende":13068,"Prosjektet":13069,"spekt":13070,"gatene":13071,"##verdiavgift":13072,"egentlige":13073,"##feranser":13074,"flytende":13075,"159":13076,"stakkars":13077,"##skade":13078,"anty":13079,"##ifisering":13080,"butikker":13081,"begrensninger":13082,"Resten":13083,"moment":13084,"##LAND":13085,"kors":13086,"Cop":13087,"Tab":13088,"##bust":13089,"European":13090,"ien":13091,"##edlemmer":13092,"##selv":13093,"life":13094,"three":13095,"environment":13096,"##skontor":13097,"Sovjetun":13098,"infrastruktur":13099,"##stryg":13100,"fullmakt":13101,"landbruk":13102,"komplisert":13103,"likeg":13104,"agent":13105,"Liver":13106,"saad":13107,"Special":13108,"begreper":13109,"isra":13110,"amm":13111,"tittel":13112,",-.":13113,"##egå":13114,"Long":13115,"##aksjoner":13116,"misly":13117,"Sein":13118,"##ikasjoner":13119,"##ipro":13120,"materialer":13121,"Søknad":13122,"cost":13123,"Desse":13124,"##faren":13125,"Jane":13126,"BAR":13127,"##fat":13128,"ane":13129,"##unet":13130,"##skuddet":13131,"##slår":13132,"lagmann":13133,"Of":13134,"Kvinn":13135,"bydel":13136,"riket":13137,"##OP":13138,"##ious":13139,"effect":13140,"utseende":13141,"Cas":13142,"##sfolk":13143,"##aft":13144,"##angrep":13145,"##eremon":13146,"kjøretøy":13147,"renter":13148,"##ommisjonen":13149,"Kjøp":13150,"Ast":13151,"gjensidig":13152,"forurensning":13153,"innbyggerne":13154,"##irs":13155,"##prøve":13156,"rammen":13157,"Ragnar":13158,"##konstru":13159,"rang":13160,"Øynene":13161,"gods":13162,"konsul":13163,"hensynet":13164,"Klokken":13165,"USAs":13166,"intere":13167,"Knudsen":13168,"##miks":13169,"oppstart":13170,"rydde":13171,"utk":13172,"levet":13173,"Heidi":13174,"svik":13175,"leverte":13176,"##bruken":13177,"klø":13178,"1200":13179,"Reis":13180,"Tol":13181,"##sed":13182,"fortid":13183,"##immel":13184,"begjær":13185,"##och":13186,"##ags":13187,"Ide":13188,"våken":13189,"sonen":13190,"##ough":13191,"domin":13192,"Fremskritt":13193,"avgjørelser":13194,"hoppe":13195,"fremtidige":13196,"strømmen":13197,"##ished":13198,"##stemning":13199,"##givende":13200,"fæl":13201,"barndom":13202,"##ikkene":13203,"FNs":13204,"Hellas":13205,"##nerne":13206,"endnu":13207,"Freder":13208,"senga":13209,"beskrives":13210,"##other":13211,"##STAD":13212,"overdratt":13213,"underholdningsprogram":13214,"innsatsen":13215,"formålet":13216,"##alender":13217,"avhør":13218,"##rygden":13219,"politik":13220,"fysi":13221,"156":13222,"leiren":13223,"One":13224,"menneskets":13225,"salget":13226,"dry":13227,"--.":13228,"Fant":13229,"elevane":13230,"tet":13231,"##enda":13232,"Elias":13233,"støtt":13234,"søsteren":13235,"##rix":13236,"Inform":13237,"##ekn":13238,"permanent":13239,"00N":13240,"ker":13241,"oftere":13242,"flyg":13243,"Sola":13244,"mektig":13245,"##lapp":13246,"##rente":13247,"seia":13248,"Arth":13249,"##undersøkelse":13250,"konto":13251,"teoretisk":13252,"varig":13253,"SAM":13254,"##ynet":13255,"##stemmelse":13256,"skit":13257,"##hall":13258,"##iana":13259,"gravid":13260,"aldersgrupp":13261,"##jobb":13262,"155":13263,"retts":13264,"Elin":13265,"øyet":13266,"muslim":13267,"##bland":13268,"hjå":13269,"avskjed":13270,"Ele":13271,"##styrer":13272,"åpenbar":13273,"##oppgjør":13274,"##ydig":13275,"CSI":13276,"Hund":13277,"blande":13278,"Deb":13279,"INN":13280,"##spolitiske":13281,"pålagt":13282,"##bygning":13283,"utle":13284,"langtid":13285,"##atoriske":13286,"##vilkår":13287,"##ivider":13288,"Steen":13289,"##juk":13290,"Gudbrand":13291,"##ox":13292,"innstillingen":13293,"overleve":13294,"FO":13295,"##psons":13296,"BER":13297,"opplyste":13298,"erstatte":13299,"Ku":13300,"Syk":13301,"##less":13302,"Ken":13303,"##well":13304,"##Wh":13305,"Tit":13306,"Esp":13307,"##IEN":13308,"##AF":13309,"##demokrat":13310,"Ster":13311,"samiske":13312,"skulder":13313,"redskap":13314,"opptre":13315,"##ighets":13316,"##arg":13317,"Rein":13318,"dører":13319,"seksuelle":13320,"1903":13321,"inneholdt":13322,"myke":13323,"1904":13324,"aktør":13325,"Bost":13326,"betraktes":13327,"Kas":13328,"##hyl":13329,"særdeles":13330,"quest":13331,"##bilen":13332,"krimserie":13333,"binde":13334,"manns":13335,"##kall":13336,"##setningene":13337,"motoren":13338,"kjøle":13339,"ytterst":13340,"variert":13341,"knust":13342,"Klasse":13343,"##hm":13344,"##litteratur":13345,"145":13346,"silke":13347,"SL":13348,"##helse":13349,"##ileg":13350,"##ume":13351,"##lager":13352,"tente":13353,"149":13354,"drikker":13355,"mengden":13356,"forhandlingene":13357,"sekret":13358,"konkurrans":13359,"Felle":13360,"styrt":13361,"Rådet":13362,"konkurs":13363,"redning":13364,"##urser":13365,"skjør":13366,"gata":13367,"ante":13368,"fylkeskommune":13369,"##ading":13370,"##ologer":13371,"amt":13372,"pengar":13373,"Law":13374,"prosed":13375,"Rock":13376,"Sok":13377,"motivasjon":13378,"Gundersen":13379,"potensial":13380,"##aften":13381,"ligning":13382,"che":13383,"uttrykker":13384,"høytid":13385,"Munch":13386,"Porsgrunn":13387,"##ynte":13388,"Holmen":13389,"markedsføring":13390,"overtatt":13391,"presidenten":13392,"Pap":13393,"jernbane":13394,"##elagt":13395,"##ERS":13396,"##dahl":13397,"tørt":13398,"aluminium":13399,"mess":13400,"##vares":13401,"Årets":13402,"hall":13403,"results":13404,"kasser":13405,"Horn":13406,"formidle":13407,"##æd":13408,"##cke":13409,"barnehager":13410,"Brev":13411,"Tak":13412,"andet":13413,"avhenger":13414,"%,":13415,"pressen":13416,"Hipp":13417,"seter":13418,"##siktig":13419,"Eier":13420,"Hare":13421,"overflate":13422,"understreket":13423,"##ommelig":13424,"low":13425,"again":13426,"##setnings":13427,"##øvelse":13428,"##teinen":13429,"##hamm":13430,"need":13431,"##ansvarlig":13432,"inngangen":13433,"væske":13434,"ulykker":13435,"##23":13436,"utvikles":13437,"##ili":13438,"##rakten":13439,"konsept":13440,"italien":13441,"Gerd":13442,"skrekk":13443,"produserer":13444,"##æra":13445,"##ettiget":13446,"##skop":13447,"1814":13448,"bebygg":13449,"telt":13450,"vilkårene":13451,"elite":13452,"##merke":13453,"mote":13454,"forbedre":13455,"Nordisk":13456,"Gard":13457,"dømme":13458,"##utdan":13459,"brannen":13460,"Stjør":13461,"Donald":13462,"brakt":13463,"fanger":13464,"Forbruker":13465,"Camp":13466,"bøy":13467,"##alten":13468,"##finans":13469,"##partiets":13470,"##ualitet":13471,"##direktør":13472,"##onering":13473,"Hi":13474,"hemmelige":13475,"diverse":13476,"resolusjon":13477,"garanter":13478,"Ala":13479,"Steinkjer":13480,"Aleks":13481,"dress":13482,"##miljøet":13483,"bob":13484,"144":13485,"atten":13486,",,":13487,"endringene":13488,"universitetet":13489,"##meldinger":13490,"##ural":13491,"##ikale":13492,"##ockey":13493,"sistnevnte":13494,"bestående":13495,"Pasi":13496,"##hre":13497,"nordisk":13498,"##ises":13499,"aldeles":13500,"gående":13501,"rikt":13502,"høgt":13503,"gulv":13504,"ungdommen":13505,"Rosenborg":13506,"##onnement":13507,"kollektiv":13508,"##acter":13509,"linjen":13510,"juridisk":13511,"Etterpå":13512,"##behagelig":13513,"Nap":13514,"Arnt":13515,"garanti":13516,"velges":13517,"rekna":13518,"##gaven":13519,"Ep":13520,"##bruddet":13521,"Svendsen":13522,"renn":13523,"omfanget":13524,"bursdag":13525,"##asiteten":13526,"hendelsen":13527,"fungerte":13528,"forsør":13529,"##avel":13530,"##rings":13531,"##elter":13532,"##spital":13533,"Klem":13534,"fortrinn":13535,"##settelsen":13536,"sysselsetting":13537,"Bart":13538,"utvidelse":13539,"asf":13540,"belastning":13541,"##FK":13542,"herlig":13543,"cre":13544,"enorm":13545,"##rollen":13546,"innvandrere":13547,"intellekt":13548,"Vedlegg":13549,"##virket":13550,"##søy":13551,"dukke":13552,"kriterier":13553,"tørke":13554,"kanter":13555,"vinduer":13556,"##inkel":13557,"kulturen":13558,"inkluderer":13559,"målsett":13560,"##sesser":13561,"##kortet":13562,"##ugar":13563,"dotter":13564,"take":13565,"##iges":13566,"åpningen":13567,"##no":13568,"varene":13569,"##ibel":13570,"passerte":13571,"beregnes":13572,"styrket":13573,"nydelig":13574,"##irk":13575,"kjen":13576,"einaste":13577,"##armer":13578,"bringer":13579,"tette":13580,"magasin":13581,"Birg":13582,"##engte":13583,"##vilje":13584,"Ac":13585,"tillatt":13586,"kutt":13587,"pas":13588,"demokrati":13589,"feire":13590,"Wi":13591,"dan":13592,"##kna":13593,"##edalen":13594,"leverandør":13595,"love":13596,"Torstein":13597,"iron":13598,"jubileum":13599,"Social":13600,"senior":13601,"Finansdepartementet":13602,"##festet":13603,"Tommy":13604,"Søn":13605,"herfrå":13606,"##ification":13607,"Mul":13608,"##vises":13609,"drømme":13610,"kvarter":13611,"aktuell":13612,"knapp":13613,"høyrer":13614,"Rh":13615,"interessen":13616,"bis":13617,"##otens":13618,"Liverpool":13619,"##forholdene":13620,"Vill":13621,"kode":13622,"##srommet":13623,"Sånn":13624,"High":13625,"Forfatter":13626,"innstilt":13627,"SSB":13628,"##ifikasjon":13629,"sovnet":13630,"fenom":13631,"forbehold":13632,"dirig":13633,"tiltaket":13634,"Psyk":13635,"##bekk":13636,"dreide":13637,"##geb":13638,"##eledes":13639,"##derne":13640,"skrives":13641,"top":13642,"femten":13643,"Andel":13644,"##oung":13645,"jazz":13646,"overgangen":13647,"##ettes":13648,"143":13649,"##unger":13650,"scen":13651,"##målet":13652,"musikkmiks":13653,"##siktet":13654,"pøl":13655,"##ttere":13656,"stoler":13657,"Hoff":13658,"##ils":13659,"kollektivt":13660,"berørte":13661,"##kse":13662,"angir":13663,"legem":13664,"diskusjonen":13665,"rettes":13666,"Tipp":13667,"lige":13668,"gris":13669,"136":13670,"##rande":13671,"##poeng":13672,"P1":13673,"føltes":13674,"omfattes":13675,"##oni":13676,"dies":13677,"##atan":13678,"##bygningen":13679,"regelmessig":13680,"Trans":13681,"usikkert":13682,"##75":13683,"##ærene":13684,"kolleger":13685,"##EFA":13686,"tæn":13687,"selvmord":13688,"kunden":13689,"fremstilling":13690,"Wa":13691,"##stur":13692,"utarbeid":13693,"løses":13694,"deltatt":13695,"skyndte":13696,"##tti":13697,"cle":13698,"Chr":13699,"Mort":13700,"Eld":13701,"avskriv":13702,"forelsket":13703,"ventil":13704,"klokker":13705,"flokk":13706,"AND":13707,"kinnet":13708,"Sub":13709,"oppfatter":13710,"Las":13711,"menigheten":13712,"contain":13713,"fortau":13714,"liknende":13715,"pract":13716,"eiere":13717,"handa":13718,"##merker":13719,"Eig":13720,"##asing":13721,"emne":13722,"profesjonelle":13723,"##wer":13724,"nynorsk":13725,"vitenskapelige":13726,"##løk":13727,"samles":13728,"innle":13729,"mord":13730,"utsp":13731,"vul":13732,"Tyrkia":13733,"verdifull":13734,"Vald":13735,"##idt":13736,"##teres":13737,"##iket":13738,"##handlet":13739,"##instit":13740,"stranden":13741,"Wall":13742,"##budsjett":13743,"139":13744,"kampan":13745,"##mmens":13746,"##bundet":13747,"bede":13748,"##ykket":13749,"Die":13750,"utbrøt":13751,"Rub":13752,"##bedrift":13753,"##annelsen":13754,"tilnærming":13755,"utvalgte":13756,"##svær":13757,"find":13758,"##com":13759,"Ill":13760,"##limt":13761,"respond":13762,"fam":13763,"forventer":13764,"##stjenester":13765,"##ury":13766,"FRED":13767,"formelt":13768,"##kandid":13769,"deter":13770,"finalen":13771,"innspill":13772,"Holt":13773,"autoritet":13774,"analysen":13775,"Love":13776,"##win":13777,"saks":13778,"##stykket":13779,"fortake":13780,"gunstig":13781,"teller":13782,"##issa":13783,"Sha":13784,"Johannessen":13785,"konsulent":13786,"tobakk":13787,"især":13788,"tillater":13789,"gjennomføringen":13790,"##heimen":13791,"Nicol":13792,"forestillinger":13793,"less":13794,"mobb":13795,"##vidde":13796,"##anza":13797,"##ussing":13798,"sone":13799,"##UST":13800,"regjeringens":13801,"reell":13802,"##irektøren":13803,"henter":13804,"scoret":13805,"##itteratur":13806,"britisk":13807,"klient":13808,"ruter":13809,"Rose":13810,"##skontoret":13811,"List":13812,"Hvilket":13813,"##organisasjoner":13814,"##hjelpen":13815,"papp":13816,"sporet":13817,"tingrett":13818,"meldinger":13819,"krang":13820,"kunnskapen":13821,"Au":13822,"Belg":13823,"Bård":13824,"##yndige":13825,"Ran":13826,"relativ":13827,"klok":13828,"halvtime":13829,"##ential":13830,"##prom":13831,"oppfylle":13832,"Tanken":13833,"hurra":13834,"kjemiske":13835,"utfordrende":13836,"stader":13837,"##skamp":13838,"boligen":13839,"heve":13840,"compar":13841,"##andet":13842,"Fyr":13843,"omsyn":13844,"152":13845,"##gruppa":13846,"Verden":13847,"oppå":13848,"##ically":13849,"Bob":13850,"Kjør":13851,"subsid":13852,"endog":13853,"##stod":13854,"innebære":13855,"utbredt":13856,"regning":13857,"søppel":13858,"kampene":13859,"elv":13860,"##risen":13861,"Bland":13862,"Wen":13863,"dronning":13864,"katal":13865,"154":13866,"åring":13867,"sopp":13868,"##ssaker":13869,"beskjeden":13870,"##helset":13871,"vinkel":13872,"##sforening":13873,"##urk":13874,"##asis":13875,"leveres":13876,"Troll":13877,"drå":13878,"##åpen":13879,"Kongsvinger":13880,"##mektig":13881,"##ologen":13882,"##ibet":13883,"##sforbund":13884,"Britt":13885,"smart":13886,"Hart":13887,"run":13888,"personar":13889,"ever":13890,"barnas":13891,"those":13892,"Chicago":13893,"Spør":13894,"Enda":13895,"dyktige":13896,"Gol":13897,"parlam":13898,"list":13899,"##gu":13900,"underlagt":13901,"aldrig":13902,"##hs":13903,"utstyret":13904,"elektro":13905,"##grav":13906,"esk":13907,"verdig":13908,"Marta":13909,"##light":13910,"chang":13911,"Navnet":13912,"Ytre":13913,"##ftes":13914,"##ado":13915,"##bilder":13916,"foreningen":13917,"hjulpet":13918,"##verv":13919,"ofre":13920,"premie":13921,"##ryte":13922,"##ummen":13923,"includ":13924,"##rogen":13925,"dob":13926,"tilsette":13927,"ål":13928,"Life":13929,"##utions":13930,"Family":13931,"##wards":13932,"turner":13933,"Foreld":13934,"Leir":13935,"##ki":13936,"hjerne":13937,"kunsten":13938,"diskutert":13939,"tenår":13940,"teorien":13941,"##smakt":13942,"male":13943,"137":13944,"mild":13945,"gumm":13946,"lignet":13947,"milliard":13948,"##ktorat":13949,"##LIG":13950,"middels":13951,"nedlagt":13952,"NTN":13953,"investerings":13954,"analysis":13955,"foregå":13956,"##årige":13957,"sjokolade":13958,"##stell":13959,"Lange":13960,"1901":13961,"220":13962,"Sna":13963,"##lok":13964,"down":13965,"Hof":13966,"mobilt":13967,"adm":13968,"forlang":13969,"urimelig":13970,"##IAN":13971,"conc":13972,"##fyr":13973,"##ikka":13974,"grove":13975,"innvil":13976,"Stang":13977,"Stab":13978,"Arthur":13979,"såleis":13980,"brødrene":13981,"Rel":13982,"Nasjon":13983,"##lette":13984,"publisert":13985,"Bot":13986,"sønner":13987,"latin":13988,"scor":13989,"##brutt":13990,"Nation":13991,"base":13992,"##seng":13993,"folker":13994,"jer":13995,"saksbehandling":13996,"##skir":13997,"regulert":13998,"oppi":13999,"##atikken":14000,"formannskapet":14001,"flytt":14002,"Igjen":14003,"rosa":14004,"Erna":14005,"##smo":14006,"koff":14007,"skrivebordet":14008,"tradisjonen":14009,"area":14010,"##ortert":14011,"skremmende":14012,"##førings":14013,"Bryn":14014,"oc":14015,"greske":14016,"karbon":14017,"etiske":14018,"##ertain":14019,"##zy":14020,"vitenskapelig":14021,"angående":14022,"forutsettes":14023,"fyren":14024,"tilknyttet":14025,"##verdier":14026,"##basert":14027,"stam":14028,"##STE":14029,"nederst":14030,"lova":14031,"1898":14032,"kursen":14033,"##fruer":14034,"##erdet":14035,"ansvarlige":14036,"##inering":14037,"148":14038,"ungdoms":14039,"dreiv":14040,"prester":14041,"endrer":14042,"OK":14043,"utsette":14044,"##uens":14045,"HAR":14046,"##YN":14047,"##astisk":14048,"##overnment":14049,"mæ":14050,"your":14051,"lidelser":14052,"##bind":14053,"Herman":14054,"##ays":14055,"##advokat":14056,"##alleri":14057,"Has":14058,"tåle":14059,"Stjørdal":14060,"landbruket":14061,"trådte":14062,"starta":14063,"##jellen":14064,"underhold":14065,"setning":14066,"Mexico":14067,"##jam":14068,"even":14069,"Bente":14070,"pakket":14071,"muskel":14072,"omstilling":14073,"##stilsynet":14074,"effekter":14075,"saaledes":14076,"mell":14077,"utsted":14078,"identifisere":14079,"profet":14080,"iblant":14081,"jæv":14082,"##ensyn":14083,"stram":14084,"##amfunn":14085,"tyngde":14086,"##representant":14087,"Anita":14088,"ifrå":14089,"Sul":14090,"##være":14091,"##asset":14092,"Tilsvar":14093,"europeisk":14094,"##kirke":14095,"realiteten":14096,"skreiv":14097,"slakt":14098,"vekke":14099,"horisont":14100,"market":14101,"differens":14102,"tunnel":14103,"##mis":14104,"info":14105,"Mø":14106,"tillate":14107,"overnatt":14108,"detaljert":14109,"beklager":14110,"##jour":14111,"avslutning":14112,"138":14113,"##lovens":14114,"svanger":14115,"Hur":14116,"##skinn":14117,"##kurranse":14118,"##stan":14119,"Sted":14120,"innsyn":14121,"##ipapir":14122,"studies":14123,"viagra":14124,"fos":14125,"Soph":14126,"##mere":14127,"##sutvalget":14128,"taller":14129,"betrakte":14130,"Prøv":14131,"kjøring":14132,"Nick":14133,"single":14134,"ekstremt":14135,"Bred":14136,"##issene":14137,"##sfakt":14138,"Teater":14139,"isolert":14140,"revisor":14141,"Nora":14142,"##oma":14143,"Saud":14144,"bustad":14145,"Vad":14146,"Ruth":14147,"##DEL":14148,"gresk":14149,"##politiske":14150,"##ased":14151,"sammensatt":14152,"dyrket":14153,"##akka":14154,"telef":14155,"Amundsen":14156,"Forslaget":14157,"##svilkår":14158,"Høyde":14159,"flyt":14160,"gjennomgått":14161,"##råder":14162,"Cath":14163,"Kamp":14164,"tradisjonelt":14165,"##nå":14166,"overordnet":14167,"##gjøres":14168,"lovgivning":14169,"beløpet":14170,"##ients":14171,"formues":14172,"knyttes":14173,"Studio":14174,"##eldende":14175,"fjellene":14176,"maskinen":14177,"##straff":14178,"However":14179,"Ulf":14180,"sannsynlighet":14181,"Charlie":14182,"allmen":14183,"Bratt":14184,"##rolige":14185,"##iga":14186,"Gyldendal":14187,"##ount":14188,"##bransjen":14189,"Torg":14190,"kunstnere":14191,"dyret":14192,"falsk":14193,"konsentrere":14194,"fremmet":14195,"##ammel":14196,"##athan":14197,"alternativer":14198,"tåler":14199,"!\"\"\"\"":14200,"##råkrat":14201,"Francis":14202,"##yggelige":14203,"##OB":14204,"IF":14205,"menes":14206,"sjølvsagt":14207,"Gau":14208,"Good":14209,"Cali":14210,"##lu":14211,"testam":14212,"##stant":14213,"folkene":14214,"innst":14215,"innebar":14216,"##jelder":14217,"stua":14218,"barnehag":14219,"übe":14220,"##inar":14221,"imponerende":14222,"158":14223,"straffer":14224,"senest":14225,"lyktes":14226,"Ene":14227,"Town":14228,"tang":14229,"Amerikansk":14230,"##sutgifter":14231,"Kommer":14232,"smerter":14233,"##bus":14234,"Stens":14235,"smile":14236,"Oddasat":14237,"##stokk":14238,"##mse":14239,"##ebok":14240,"Altså":14241,"plaget":14242,"Log":14243,"##sbok":14244,"forventning":14245,"##pend":14246,"##onia":14247,"påvist":14248,"Fader":14249,"##elia":14250,"berørt":14251,"Hild":14252,"beliggen":14253,"Samferd":14254,"sund":14255,"stev":14256,"drøftet":14257,"00S":14258,"##fald":14259,"##ammene":14260,"kirker":14261,"Torp":14262,"lagring":14263,"enno":14264,"##spektør":14265,"##oy":14266,"Unge":14267,"forg":14268,"representerte":14269,"##put":14270,"Bj":14271,"##anal":14272,"##formål":14273,"Gratis":14274,"121":14275,"deltaker":14276,"respon":14277,"##fylt":14278,"Dessverre":14279,"iss":14280,"hjartet":14281,"Trykk":14282,"biter":14283,"lages":14284,"leiligheter":14285,"##elegging":14286,"##itéen":14287,"styrte":14288,"DNA":14289,"##isasjon":14290,"stipend":14291,"eksempelvis":14292,"Informasjon":14293,"religiøs":14294,"kjemper":14295,"Sandvik":14296,"moralsk":14297,"##villig":14298,"bosted":14299,"tilslutning":14300,"##sprogrammet":14301,"satsing":14302,"lagene":14303,"flyplassen":14304,"reklam":14305,"##alin":14306,"##raget":14307,"tala":14308,"Selve":14309,"uttrykke":14310,"tig":14311,"##urther":14312,"territor":14313,"Mathias":14314,"##aps":14315,"3000":14316,"forkant":14317,"forebyggende":14318,"trass":14319,"Sek":14320,"regelverket":14321,"##bein":14322,"##VIK":14323,"##cup":14324,"##ENG":14325,"blokk":14326,"rynket":14327,"Bakken":14328,"OSLO":14329,"konkurr":14330,"tolkning":14331,"##inson":14332,"Sta":14333,"power":14334,"##slutt":14335,"kloster":14336,"beten":14337,"##gens":14338,"##andt":14339,"Skolen":14340,"sjømann":14341,"##sep":14342,"##fal":14343,"Årsaken":14344,"##sløst":14345,"følgelig":14346,"##listen":14347,"repr":14348,"Tun":14349,"Haakon":14350,"toler":14351,"kriminalitet":14352,"miss":14353,"lis":14354,"Nev":14355,"157":14356,"1899":14357,"Service":14358,"produsent":14359,"skjønnhet":14360,"##jønn":14361,"håndball":14362,"BA":14363,"reiseliv":14364,"##65":14365,"folkem":14366,"ryst":14367,"##OST":14368,"museet":14369,"PA":14370,"##redet":14371,"tomm":14372,"News":14373,"##sfullt":14374,"##bergs":14375,"tape":14376,"Ekte":14377,"##een":14378,"230":14379,"##incip":14380,"##atar":14381,"Vass":14382,"Romer":14383,"uventet":14384,"Camilla":14385,"lagde":14386,"ist":14387,"kjedelig":14388,"vidunder":14389,"skim":14390,"Sovjetunionen":14391,"roller":14392,"##vatnet":14393,"##vinning":14394,"##vju":14395,"øde":14396,"##opher":14397,"stien":14398,"##seffekt":14399,"##kysten":14400,"global":14401,"inspirert":14402,"Olje":14403,"slåss":14404,"billett":14405,"regelverk":14406,"das":14407,"Lit":14408,"##ansvaret":14409,"omvendt":14410,"styreleder":14411,"soldatene":14412,"høgre":14413,"Disk":14414,"##åle":14415,"uføre":14416,"sert":14417,"pedagogiske":14418,"egenkapital":14419,"##spektiv":14420,"gyld":14421,"##stens":14422,"##jempe":14423,"Hest":14424,"Jam":14425,"korrig":14426,"avslutter":14427,"1896":14428,"takknemlig":14429,"pressemelding":14430,"homof":14431,"##ping":14432,"koord":14433,"Kvar":14434,"forbauset":14435,"lod":14436,"Sin":14437,"Alder":14438,"Utenrik":14439,"Hr":14440,"Tok":14441,"rådmann":14442,"##innhold":14443,"ulikt":14444,"annonser":14445,"Ball":14446,"hestene":14447,"utanfor":14448,"dop":14449,"Chris":14450,"##oh":14451,"utlån":14452,"forbindelser":14453,"SU":14454,"##arl":14455,"konflikten":14456,"##ankene":14457,"spd":14458,"bruka":14459,"tyve":14460,"populært":14461,"Lisa":14462,"dyrt":14463,"meinte":14464,"##sordningen":14465,"##yrene":14466,"konstruksjon":14467,"næringsdriv":14468,"local":14469,"Korleis":14470,"##funksjon":14471,"kafé":14472,"Medlem":14473,"##strene":14474,"utm":14475,"dykk":14476,"Niels":14477,"fak":14478,"Kop":14479,"Pi":14480,"departement":14481,"UEFA":14482,"omtalte":14483,"##kart":14484,"Gord":14485,"nærhet":14486,"Verk":14487,"skjorte":14488,"signaler":14489,"Elise":14490,"medlemskap":14491,"grovt":14492,"Østerrike":14493,"##grip":14494,"tradisjonell":14495,"mors":14496,"##kjær":14497,"bilene":14498,"utformet":14499,"stønad":14500,"uform":14501,"##ønne":14502,"datert":14503,"lakse":14504,"##vnen":14505,"bevilget":14506,"Capp":14507,"##uch":14508,"##klin":14509,"redegjør":14510,"irritert":14511,"small":14512,"allierte":14513,"laur":14514,"project":14515,"sei":14516,"koron":14517,"world":14518,"svære":14519,"##sveien":14520,"Foreldre":14521,"evaluering":14522,"##stundes":14523,"##endet":14524,"unger":14525,"lista":14526,"##aber":14527,"trussel":14528,"Ug":14529,"natural":14530,"##CH":14531,"hørings":14532,"framlegg":14533,"Mess":14534,"##skapets":14535,"Korea":14536,"country":14537,"fugle":14538,"##ources":14539,"Sparebank":14540,"147":14541,"representanten":14542,"plassere":14543,"##garn":14544,"sørover":14545,"##real":14546,"stue":14547,"##veld":14548,"itali":14549,"Osl":14550,"grunnskolen":14551,"##sfart":14552,"Vestre":14553,"##skott":14554,"kab":14555,"spesialist":14556,"statsråden":14557,"##aset":14558,"avslutt":14559,"odel":14560,"Hon":14561,"lyser":14562,"porno":14563,"kreativ":14564,"tidsskrift":14565,"Lillestrøm":14566,"##TA":14567,"ensom":14568,"spø":14569,"Johanna":14570,"##ettslag":14571,"Besøkt":14572,"##jelp":14573,"Eric":14574,"Johnson":14575,"tilpasning":14576,"##inden":14577,"##keb":14578,"IM":14579,"Levanger":14580,"Vard":14581,"##frem":14582,"personalet":14583,"studio":14584,"##visende":14585,
[...]
