{
  "version": "1.0",
  "truncation": null,
  "padding": null,
  "added_tokens": [
    {
      "id": 0,
      "special": true,
      "content": "[PAD]",
      "single_word": false,
      "lstrip": false,
      "rstrip": false,
      "normalized": false
    },
    {
      "id": 1,
      "special": true,
      "content": "[UNK]",
      "single_word": false,
      "lstrip": false,
      "rstrip": false,
      "normalized": false
    },
    {
      "id": 2,
      "special": true,
      "content": "[CLS]",
      "single_word": false,
      "lstrip": false,
      "rstrip": false,
      "normalized": false
    },
    {
      "id": 3,
      "special": true,
      "content": "[SEP]",
      "single_word": false,
      "lstrip": false,
      "rstrip": false,
      "normalized": false
    },
    {
      "id": 4,
      "special": true,
      "content": "[MASK]",
      "single_word": false,
      "lstrip": false,
      "rstrip": false,
      "normalized": false
    }
  ],
  "normalizer": {
    "type": "Sequence",
    "normalizers": [
      {
        "type": "Lowercase"
      }
    ]
  },
  "pre_tokenizer": {
    "type": "Whitespace"
  },
  "post_processor": null,
  "decoder": null,
  "model": {
    "unk_token": "[UNK]",
    "continuing_subword_prefix": "##",
    "max_input_chars_per_word": 100,
    "vocab": {
      "[PAD]": 0,
      "[UNK]": 1,
      "[CLS]": 2,
      "[SEP]": 3,
      "[MASK]": 4,
      "!": 5,
      "\"": 6,
      "#": 7,
      "$": 8,
      "%": 9,
      "&": 10,
      "'": 11,
      "(": 12,
      ")": 13,
      "*": 14,
      "+": 15,
      ",": 16,
      "-": 17,
      ".": 18,
      "/": 19,
      "0": 20,
      "1": 21,
      "2": 22,
      "3": 23,
      "4": 24,
      "5": 25,
      "6": 26,
      "7": 27,
      "8": 28,
      "9": 29,
      ":": 30,
      ";": 31,
      "<": 32,
      "=": 33,
      ">": 34,
      "?": 35,
      "@": 36,
      "[": 37,
      "\\": 38,
      "]": 39,
      "^": 40,
      "_": 41,
      "`": 42,
      "a": 43,
      "b": 44,
      "c": 45,
      "d": 46,
      "e": 47,
      "f": 48,
      "g": 49,
      "h": 50,
      "i": 51,
      "j": 52,
      "k": 53,
      "l": 54,
      "m": 55,
      "n": 56,
      "o": 57,
      "p": 58,
      "q": 59,
      "r": 60,
      "s": 61,
      "t": 62,
      "u": 63,
      "v": 64,
      "w": 65,
      "x": 66,
      "y": 67,
      "z": 68,
      "{": 69,
      "|": 70,
      "}": 71,
      "~": 72,
      "£": 73,
      "¥": 74,
      "©": 75,
      "®": 76,
      "°": 77,
      "±": 78,
      "²": 79,
      "¸": 80,
      "½": 81,
      "×": 82,
      "ß": 83,
      "à": 84,
      "á": 85,
      "â": 86,
      "ã": 87,
      "ä": 88,
      "å": 89,
      "æ": 90,
      "ç": 91,
      "è": 92,
      "é": 93,
      "ê": 94,
      "ë": 95,
      "í": 96,
      "î": 97,
      "ï": 98,
      "ð": 99,
      "ñ": 100,
      "ò": 101,
      "ó": 102,
      "ô": 103,
      "ö": 104,
      "÷": 105,
      "ø": 106,
      "ú": 107,
      "ü": 108,
      "ý": 109,
      "ā": 110,
      "ă": 111,
      "ć": 112,
      "č": 113,
      "đ": 114,
      "ı": 115,
      "ł": 116,
      "ń": 117,
      "ŋ": 118,
      "ō": 119,
      "ş": 120,
      "š": 121,
      "ŧ": 122,
      "ū": 123,
      "ž": 124,
      "ˇ": 125,
      "α": 126,
      "δ": 127,
      "ε": 128,
      "ι": 129,
      "κ": 130,
      "μ": 131,
      "ν": 132,
      "ο": 133,
      "ρ": 134,
      "ς": 135,
      "τ": 136,
      "а": 137,
      "б": 138,
      "в": 139,
      "г": 140,
      "д": 141,
      "е": 142,
      "з": 143,
      "и": 144,
      "й": 145,
      "к": 146,
      "л": 147,
      "м": 148,
      "н": 149,
      "о": 150,
      "п": 151,
      "р": 152,
      "с": 153,
      "т": 154,
      "у": 155,
      "ч": 156,
      "ы": 157,
      "ь": 158,
      "я": 159,
      "ا": 160,
      "ت": 161,
      "ر": 162,
      "ل": 163,
      "م": 164,
      "ن": 165,
      "و": 166,
      "ي": 167,
      "‍": 168,
      "’": 169,
      "“": 170,
      "”": 171,
      "‼": 172,
      "⁄": 173,
      "⁉": 174,
      "€": 175,
      "⃣": 176,
      "™": 177,
      "ℹ": 178,
      "↑": 179,
      "→": 180,
      "↔": 181,
      "↕": 182,
      "↖": 183,
      "↗": 184,
      "↘": 185,
      "↙": 186,
      "↩": 187,
      "↪": 188,
      "−": 189,
      "⌚": 190,
      "⌛": 191,
      "⌨": 192,
      "⏏": 193,
      "⏩": 194,
      "⏪": 195,
      "⏫": 196,
      "⏬": 197,
      "⏭": 198,
      "⏮": 199,
      "⏯": 200,
      "⏰": 201,
      "⏱": 202,
      "⏲": 203,
      "⏳": 204,
      "⏸": 205,
      "⏹": 206,
      "⏺": 207,
      "ⓜ": 208,
      "█": 209,
      "■": 210,
      "□": 211,
      "▪": 212,
      "▫": 213,
      "▲": 214,
      "▶": 215,
      "►": 216,
      "▼": 217,
      "◀": 218,
      "◄": 219,
      "○": 220,
      "●": 221,
      "◗": 222,
      "◻": 223,
      "◼": 224,
      "◽": 225,
      "◾": 226,
      "☀": 227,
      "☁": 228,
      "☂": 229,
      "☃": 230,
      "☄": 231,
      "★": 232,
      "☎": 233,
      "☑": 234,
      "☔": 235,
      "☕": 236,
      "☘": 237,
      "☝": 238,
      "☠": 239,
      "☢": 240,
      "☣": 241,
      "☦": 242,
      "☪": 243,
      "☮": 244,
      "☯": 245,
      "☸": 246,
      "☹": 247,
      "☺": 248,
      "♀": 249,
      "♂": 250,
      "♈": 251,
      "♉": 252,
      "♊": 253,
      "♋": 254,
      "♌": 255,
      "♍": 256,
      "♎": 257,
      "♏": 258,
      "♐": 259,
      "♑": 260,
      "♒": 261,
      "♓": 262,
      "♟": 263,
      "♠": 264,
      "♣": 265,
      "♥": 266,
      "♦": 267,
      "♨": 268,
      "♻": 269,
      "♾": 270,
      "♿": 271,
      "⚒": 272,
      "⚓": 273,
      "⚔": 274,
      "⚕": 275,
      "⚖": 276,
      "⚗": 277,
      "⚙": 278,
      "⚛": 279,
      "⚜": 280,
      "⚠": 281,
      "⚡": 282,
      "⚧": 283,
      "⚪": 284,
      "⚫": 285,
      "⚰": 286,
      "⚱": 287,
      "⚽": 288,
      "⚾": 289,
      "⛅": 290,
      "⛈": 291,
      "⛎": 292,
      "⛏": 293,
      "⛑": 294,
      "⛓": 295,
      "⛔": 296,
      "⛩": 297,
      "⛪": 298,
      "⛰": 299,
      "⛱": 300,
      "⛲": 301,
      "⛳": 302,
      "⛴": 303,
      "⛵": 304,
      "⛷": 305,
      "⛸": 306,
      "⛹": 307,
      "⛽": 308,
      "✂": 309,
      "✅": 310,
      "✈": 311,
      "✉": 312,
      "✊": 313,
      "✋": 314,
      "✌": 315,
      "✍": 316,
      "✏": 317,
      "✒": 318,
      "✓": 319,
      "✔": 320,
      "✖": 321,
      "✝": 322,
      "✡": 323,
      "✨": 324,
      "✳": 325,
      "✴": 326,
      "✸": 327,
      "❄": 328,
      "❇": 329,
      "❌": 330,
      "❎": 331,
      "❓": 332,
      "❔": 333,
      "❕": 334,
      "❗": 335,
      "❣": 336,
      "❤": 337,
      "➕": 338,
      "➖": 339,
      "➗": 340,
      "➡": 341,
      "➰": 342,
      "➿": 343,
      "⤴": 344,
      "⤵": 345,
      "⬅": 346,
      "⬆": 347,
      "⬇": 348,
      "⬛": 349,
      "⬜": 350,
      "⭐": 351,
      "⭕": 352,
      "〰": 353,
      "〽": 354,
      "ー": 355,
      "㊗": 356,
      "㊙": 357,
      "️": 358,
      "�": 359,
      "🀄": 360,
      "🃏": 361,
      "🅰": 362,
      "🅱": 363,
      "🅾": 364,
      "🅿": 365,
      "🆎": 366,
      "🆑": 367,
      "🆒": 368,
      "🆓": 369,
      "🆔": 370,
      "🆕": 371,
      "🆖": 372,
      "🆗": 373,
      "🆘": 374,
      "🆙": 375,
      "🆚": 376,
      "🇦": 377,
      "🇧": 378,
      "🇨": 379,
      "🇩": 380,
      "🇪": 381,
      "🇫": 382,
      "🇬": 383,
      "🇭": 384,
      "🇮": 385,
      "🇯": 386,
      "🇰": 387,
      "🇱": 388,
      "🇲": 389,
      "🇳": 390,
      "🇴": 391,
      "🇵": 392,
      "🇶": 393,
      "🇷": 394,
      "🇸": 395,
      "🇹": 396,
      "🇺": 397,
      "🇻": 398,
      "🇼": 399,
      "🇽": 400,
      "🇾": 401,
      "🇿": 402,
      "🈁": 403,
      "🈂": 404,
      "🈯": 405,
      "🈲": 406,
      "🈳": 407,
      "🈴": 408,
      "🈵": 409,
      "🈶": 410,
      "🈷": 411,
      "🈸": 412,
      "🈹": 413,
      "🈺": 414,
      "🉐": 415,
      "🉑": 416,
      "🌁": 417,
      "🌂": 418,
      "🌃": 419,
      "🌅": 420,
      "🌆": 421,
      "🌈": 422,
      "🌊": 423,
      "🌋": 424,
      "🌌": 425,
      "🌍": 426,
      "🌎": 427,
      "🌏": 428,
      "🌐": 429,
      "🌑": 430,
      "🌓": 431,
      "🌔": 432,
      "🌕": 433,
      "🌖": 434,
      "🌗": 435,
      "🌙": 436,
      "🌚": 437,
      "🌛": 438,
      "🌜": 439,
      "🌝": 440,
      "🌞": 441,
      "🌟": 442,
      "🌠": 443,
      "🌡": 444,
      "🌤": 445,
      "🌥": 446,
      "🌦": 447,
      "🌧": 448,
      "🌨": 449,
      "🌩": 450,
      "🌪": 451,
      "🌫": 452,
      "🌬": 453,
      "🌭": 454,
      "🌯": 455,
      "🌰": 456,
      "🌱": 457,
      "🌲": 458,
      "🌳": 459,
      "🌴": 460,
      "🌵": 461,
      "🌶": 462,
      "🌷": 463,
      "🌸": 464,
      "🌹": 465,
      "🌺": 466,
      "🌻": 467,
      "🌼": 468,
      "🌽": 469,
      "🌾": 470,
      "🌿": 471,
      "🍀": 472,
      "🍁": 473,
      "🍂": 474,
      "🍃": 475,
      "🍄": 476,
      "🍅": 477,
      "🍆": 478,
      "🍇": 479,
      "🍈": 480,
      "🍉": 481,
      "🍊": 482,
      "🍋": 483,
      "🍍": 484,
      "🍎": 485,
      "🍐": 486,
      "🍑": 487,
      "🍒": 488,
      "🍓": 489,
      "🍔": 490,
      "🍕": 491,
      "🍖": 492,
      "🍗": 493,
      "🍘": 494,
      "🍙": 495,
      "🍚": 496,
      "🍛": 497,
      "🍜": 498,
      "🍝": 499,
      "🍞": 500,
      "🍟": 501,
      "🍠": 502,
      "🍢": 503,
      "🍣": 504,
      "🍤": 505,
      "🍥": 506,
      "🍦": 507,
      "🍧": 508,
      "🍨": 509,
      "🍩": 510,
      "🍪": 511,
      "🍬": 512,
      "🍭": 513,
      "🍮": 514,
      "🍯": 515,
      "🍰": 516,
      "🍱": 517,
      "🍲": 518,
      "🍳": 519,
      "🍴": 520,
      "🍵": 521,
      "🍶": 522,
      "🍷": 523,
      "🍸": 524,
      "🍹": 525,
      "🍺": 526,
      "🍻": 527,
      "🍼": 528,
      "🍽": 529,
      "🍾": 530,
      "🍿": 531,
      "🎀": 532,
      "🎁": 533,
      "🎂": 534,
      "🎃": 535,
      "🎄": 536,
      "🎅": 537,
      "🎆": 538,
      "🎇": 539,
      "🎈": 540,
      "🎉": 541,
      "🎊": 542,
      "🎋": 543,
      "🎌": 544,
      "🎍": 545,
      "🎎": 546,
      "🎏": 547,
      "🎐": 548,
      "🎑": 549,
      "🎒": 550,
      "🎓": 551,
      "🎖": 552,
      "🎗": 553,
      "🎙": 554,
      "🎚": 555,
      "🎛": 556,
      "🎞": 557,
      "🎟": 558,
      "🎠": 559,
      "🎡": 560,
      "🎢": 561,
      "🎣": 562,
      "🎤": 563,
      "🎥": 564,
      "🎦": 565,
      "🎧": 566,
      "🎨": 567,
      "🎩": 568,
      "🎪": 569,
      "🎫": 570,
      "🎬": 571,
      "🎭": 572,
      "🎮": 573,
      "🎯": 574,
      "🎰": 575,
      "🎱": 576,
      "🎲": 577,
      "🎳": 578,
      "🎴": 579,
      "🎵": 580,
      "🎶": 581,
      "🎷": 582,
      "🎹": 583,
      "🎺": 584,
      "🎻": 585,
      "🎼": 586,
      "🎽": 587,
      "🎾": 588,
      "🎿": 589,
      "🏀": 590,
      "🏁": 591,
      "🏂": 592,
      "🏃": 593,
      "🏄": 594,
      "🏅": 595,
      "🏆": 596,
      "🏇": 597,
      "🏈": 598,
      "🏉": 599,
      "🏊": 600,
      "🏋": 601,
      "🏌": 602,
      "🏍": 603,
      "🏎": 604,
      "🏏": 605,
      "🏐": 606,
      "🏑": 607,
      "🏒": 608,
      "🏓": 609,
      "🏔": 610,
      "🏕": 611,
      "🏖": 612,
      "🏗": 613,
      "🏘": 614,
      "🏙": 615,
      "🏚": 616,
      "🏛": 617,
      "🏜": 618,
      "🏝": 619,
      "🏞": 620,
      "🏟": 621,
      "🏠": 622,
      "🏡": 623,
      "🏢": 624,
      "🏣": 625,
      "🏤": 626,
      "🏥": 627,
      "🏦": 628,
      "🏧": 629,
      "🏨": 630,
      "🏩": 631,
      "🏫": 632,
      "🏬": 633,
      "🏭": 634,
      "🏮": 635,
      "🏯": 636,
      "🏰": 637,
      "🏳": 638,
      "🏴": 639,
      "🏵": 640,
      "🏷": 641,
      "🏸": 642,
      "🏹": 643,
      "🏺": 644,
      "🏻": 645,
      "🏼": 646,
      "🏽": 647,
      "🏾": 648,
      "🏿": 649,
      "🐀": 650,
      "🐁": 651,
      "🐂": 652,
      "🐃": 653,
      "🐄": 654,
      "🐅": 655,
      "🐆": 656,
      "🐇": 657,
      "🐈": 658,
      "🐉": 659,
      "🐊": 660,
      "🐋": 661,
      "🐌": 662,
      "🐍": 663,
      "🐏": 664,
      "🐐": 665,
      "🐑": 666,
      "🐒": 667,
      "🐓": 668,
      "🐔": 669,
      "🐕": 670,
      "🐖": 671,
      "🐗": 672,
      "🐘": 673,
      "🐙": 674,
      "🐚": 675,
      "🐛": 676,
      "🐜": 677,
      "🐝": 678,
      "🐞": 679,
      "🐟": 680,
      "🐠": 681,
      "🐡": 682,
      "🐢": 683,
      "🐣": 684,
      "🐤": 685,
      "🐥": 686,
      "🐦": 687,
      "🐧": 688,
      "🐨": 689,
      "🐩": 690,
      "🐪": 691,
      "🐫": 692,
      "🐬": 693,
      "🐭": 694,
      "🐮": 695,
      "🐯": 696,
      "🐰": 697,
      "🐱": 698,
      "🐳": 699,
      "🐴": 700,
      "🐵": 701,
      "🐶": 702,
      "🐷": 703,
      "🐸": 704,
      "🐹": 705,
      "🐻": 706,
      "🐼": 707,
      "🐽": 708,
      "🐾": 709,
      "🐿": 710,
      "👀": 711,
      "👁": 712,
      "👂": 713,
      "👃": 714,
      "👄": 715,
      "👅": 716,
      "👆": 717,
      "👇": 718,
      "👈": 719,
      "👉": 720,
      "👊": 721,
      "👋": 722,
      "👌": 723,
      "👍": 724,
      "👎": 725,
      "👏": 726,
      "👐": 727,
      "👑": 728,
      "👒": 729,
      "👓": 730,
      "👔": 731,
      "👕": 732,
      "👖": 733,
      "👗": 734,
      "👘": 735,
      "👙": 736,
      "👚": 737,
      "👛": 738,
      "👜": 739,
      "👝": 740,
      "👞": 741,
      "👟": 742,
      "👠": 743,
      "👡": 744,
      "👢": 745,
      "👣": 746,
      "👤": 747,
      "👥": 748,
      "👦": 749,
      "👧": 750,
      "👨": 751,
      "👩": 752,
      "👪": 753,
      "👫": 754,
      "👬": 755,
      "👭": 756,
      "👮": 757,
      "👯": 758,
      "👰": 759,
      "👱": 760,
      "👲": 761,
      "👳": 762,
      "👴": 763,
      "👵": 764,
      "👶": 765,
      "👷": 766,
      "👸": 767,
      "👹": 768,
      "👺": 769,
      "👻": 770,
      "👼": 771,
      "👽": 772,
      "👾": 773,
      "👿": 774,
      "💀": 775,
      "💁": 776,
      "💂": 777,
      "💃": 778,
      "💄": 779,
      "💅": 780,
      "💆": 781,
      "💇": 782,
      "💈": 783,
      "💉": 784,
      "💊": 785,
      "💋": 786,
      "💌": 787,
      "💍": 788,
      "💎": 789,
      "💏": 790,
      "💐": 791,
      "💑": 792,
      "💒": 793,
      "💓": 794,
      "💔": 795,
      "💕": 796,
      "💖": 797,
      "💗": 798,
      "💘": 799,
      "💚": 800,
      "💛": 801,
      "💜": 802,
      "💝": 803,
      "💞": 804,
      "💟": 805,
      "💠": 806,
      "💡": 807,
      "💢": 808,
      "💣": 809,
      "💤": 810,
      "💥": 811,
      "💦": 812,
      "💧": 813,
      "💨": 814,
      "💩": 815,
      "💪": 816,
      "💫": 817,
      "💬": 818,
      "💮": 819,
      "💯": 820,
      "💰": 821,
      "💱": 822,
      "💲": 823,
      "💳": 824,
      "💴": 825,
      "💵": 826,
      "💶": 827,
      "💷": 828,
      "💸": 829,
      "💹": 830,
      "💺": 831,
      "💻": 832,
      "💼": 833,
      "💽": 834,
      "💾": 835,
      "💿": 836,
      "📀": 837,
      "📁": 838,
      "📂": 839,
      "📃": 840,
      "📄": 841,
      "📅": 842,
      "📆": 843,
      "📇": 844,
      "📈": 845,
      "📉": 846,
      "📊": 847,
      "📋": 848,
      "📌": 849,
      "📍": 850,
      "📎": 851,
      "📏": 852,
      "📐": 853,
      "📑": 854,
      "📒": 855,
      "📓": 856,
      "📔": 857,
      "📕": 858,
      "📖": 859,
      "📗": 860,
      "📘": 861,
      "📙": 862,
      "📚": 863,
      "📛": 864,
      "📜": 865,
      "📝": 866,
      "📞": 867,
      "📟": 868,
      "📡": 869,
      "📢": 870,
      "📣": 871,
      "📤": 872,
      "📥": 873,
      "📧": 874,
      "📩": 875,
      "📪": 876,
      "📫": 877,
      "📬": 878,
      "📭": 879,
      "📮": 880,
      "📯": 881,
      "📰": 882,
      "📱": 883,
      "📲": 884,
      "📳": 885,
      "📴": 886,
      "📵": 887,
      "📶": 888,
      "📷": 889,
      "📸": 890,
      "📹": 891,
      "📺": 892,
      "📼": 893,
      "📽": 894,
      "📿": 895,
      "🔀": 896,
      "🔁": 897,
      "🔂": 898,
      "🔃": 899,
      "🔄": 900,
      "🔆": 901,
      "🔇": 902,
      "🔈": 903,
      "🔉": 904,
      "🔊": 905,
      "🔌": 906,
      "🔍": 907,
      "🔎": 908,
      "🔏": 909,
      "🔐": 910,
      "🔑": 911,
      "🔒": 912,
      "🔓": 913,
      "🔔": 914,
      "🔕": 915,
      "🔖": 916,
      "🔗": 917,
      "🔘": 918,
      "🔙": 919,
      "🔚": 920,
      "🔛": 921,
      "🔝": 922,
      "🔞": 923,
      "🔟": 924,
      "🔠": 925,
      "🔡": 926,
      "🔢": 927,
      "🔣": 928,
      "🔤": 929,
      "🔥": 930,
      "🔦": 931,
      "🔧": 932,
      "🔩": 933,
      "🔪": 934,
      "🔫": 935,
      "🔬": 936,
      "🔭": 937,
      "🔮": 938,
      "🔯": 939,
      "🔰": 940,
      "🔱": 941,
      "🔲": 942,
      "🔳": 943,
      "🔴": 944,
      "🔵": 945,
      "🔶": 946,
      "🔷": 947,
      "🔸": 948,
      "🔹": 949,
      "🔺": 950,
      "🔻": 951,
      "🔼": 952,
      "🔽": 953,
      "🕉": 954,
      "🕊": 955,
      "🕍": 956,
      "🕎": 957,
      "🕐": 958,
      "🕑": 959,
      "🕒": 960,
      "🕓": 961,
      "🕔": 962,
      "🕕": 963,
      "🕖": 964,
      "🕗": 965,
      "🕘": 966,
      "🕙": 967,
      "🕚": 968,
      "🕛": 969,
      "🕜": 970,
      "🕝": 971,
      "🕞": 972,
      "🕟": 973,
      "🕠": 974,
      "🕡": 975,
      "🕢": 976,
      "🕣": 977,
      "🕤": 978,
      "🕥": 979,
      "🕦": 980,
      "🕧": 981,
      "🕯": 982,
      "🕰": 983,
      "🕳": 984,
      "🕴": 985,
      "🕵": 986,
      "🕶": 987,
      "🕷": 988,
      "🕸": 989,
      "🕹": 990,
      "🕺": 991,
      "🖇": 992,
      "🖊": 993,
      "🖋": 994,
      "🖌": 995,
      "🖍": 996,
      "🖐": 997,
      "🖕": 998,
      "🖖": 999,
      "🖤": 1000,
      "🖥": 1001,
      "🖨": 1002,
      "🖱": 1003,
      "🖲": 1004,
      "🖼": 1005,
      "🗂": 1006,
      "🗃": 1007,
      "🗄": 1008,
      "🗑": 1009,
      "🗒": 1010,
      "🗓": 1011,
      "🗜": 1012,
      "🗝": 1013,
      "🗞": 1014,
      "🗡": 1015,
      "🗣": 1016,
      "🗨": 1017,
      "🗳": 1018,
      "🗺": 1019,
      "🗻": 1020,
      "🗼": 1021,
      "🗽": 1022,
      "🗾": 1023,
      "🗿": 1024,
      "😀": 1025,
      "😁": 1026,
      "😂": 1027,
      "😃": 1028,
      "😄": 1029,
      "😅": 1030,
      "😆": 1031,
      "😇": 1032,
      "😈": 1033,
      "😉": 1034,
      "😊": 1035,
      "😋": 1036,
      "😌": 1037,
      "😍": 1038,
      "😎": 1039,
      "😏": 1040,
      "😐": 1041,
      "😑": 1042,
      "😒": 1043,
      "😓": 1044,
      "😔": 1045,
      "😕": 1046,
      "😖": 1047,
      "😗": 1048,
      "😘": 1049,
      "😙": 1050,
      "😚": 1051,
      "😛": 1052,
      "😜": 1053,
      "😝": 1054,
      "😞": 1055,
      "😟": 1056,
      "😠": 1057,
      "😡": 1058,
      "😢": 1059,
      "😣": 1060,
      "😤": 1061,
      "😥": 1062,
      "😦": 1063,
      "😧": 1064,
      "😨": 1065,
      "😩": 1066,
      "😪": 1067,
      "😫": 1068,
      "😬": 1069,
      "😭": 1070,
      "😮": 1071,
      "😯": 1072,
      "😰": 1073,
      "😱": 1074,
      "😲": 1075,
      "😳": 1076,
      "😴": 1077,
      "😵": 1078,
      "😶": 1079,
      "😷": 1080,
      "😸": 1081,
      "😹": 1082,
      "😺": 1083,
      "😻": 1084,
      "😼": 1085,
      "😽": 1086,
      "😾": 1087,
      "😿": 1088,
      "🙀": 1089,
      "🙁": 1090,
      "🙂": 1091,
      "🙃": 1092,
      "🙄": 1093,
      "🙅": 1094,
      "🙆": 1095,
      "🙇": 1096,
      "🙈": 1097,
      "🙉": 1098,
      "🙊": 1099,
      "🙋": 1100,
      "🙌": 1101,
      "🙍": 1102,
      "🙎": 1103,
      "🙏": 1104,
      "🚀": 1105,
      "🚁": 1106,
      "🚂": 1107,
      "🚃": 1108,
      "🚄": 1109,
      "🚅": 1110,
      "🚆": 1111,
      "🚇": 1112,
      "🚈": 1113,
      "🚉": 1114,
      "🚊": 1115,
      "🚋": 1116,
      "🚌": 1117,
      "🚍": 1118,
      "🚎": 1119,
      "🚐": 1120,
      "🚑": 1121,
      "🚒": 1122,
      "🚓": 1123,
      "🚔": 1124,
      "🚕": 1125,
      "🚖": 1126,
      "🚗": 1127,
      "🚘": 1128,
      "🚙": 1129,
      "🚚": 1130,
      "🚛": 1131,
      "🚜": 1132,
      "🚝": 1133,
      "🚞": 1134,
      "🚟": 1135,
      "🚠": 1136,
      "🚡": 1137,
      "🚢": 1138,
      "🚣": 1139,
      "🚤": 1140,
      "🚥": 1141,
      "🚦": 1142,
      "🚧": 1143,
      "🚨": 1144,
      "🚩": 1145,
      "🚪": 1146,
      "🚫": 1147,
      "🚬": 1148,
      "🚭": 1149,
      "🚰": 1150,
      "🚱": 1151,
      "🚲": 1152,
      "🚳": 1153,
      "🚴": 1154,
      "🚵": 1155,
      "🚶": 1156,
      "🚷": 1157,
      "🚸": 1158,
      "🚹": 1159,
      "🚺": 1160,
      "🚼": 1161,
      "🚾": 1162,
      "🚿": 1163,
      "🛀": 1164,
      "🛁": 1165,
      "🛂": 1166,
      "🛃": 1167,
      "🛄": 1168,
      "🛅": 1169,
      "🛋": 1170,
      "🛌": 1171,
      "🛍": 1172,
      "🛎": 1173,
      "🛏": 1174,
      "🛐": 1175,
      "🛑": 1176,
      "🛒": 1177,
      "🛕": 1178,
      "🛖": 1179,
      "🛗": 1180,
      "🛠": 1181,
      "🛡": 1182,
      "🛢": 1183,
      "🛣": 1184,
      "🛤": 1185,
      "🛥": 1186,
      "🛩": 1187,
      "🛫": 1188,
      "🛰": 1189,
      "🛳": 1190,
      "🛴": 1191,
      "🛵": 1192,
      "🛶": 1193,
      "🛷": 1194,
      "🛸": 1195,
      "🛹": 1196,
      "🛺": 1197,
      "🛻": 1198,
      "🛼": 1199,
      "🟠": 1200,
      "🟢": 1201,
      "🟣": 1202,
      "🟤": 1203,
      "🟥": 1204,
      "🟦": 1205,
      "🟧": 1206,
      "🟨": 1207,
      "🟩": 1208,
      "🟫": 1209,
      "🤌": 1210,
      "🤍": 1211,
      "🤎": 1212,
      "🤏": 1213,
      "🤐": 1214,
      "🤑": 1215,
      "🤒": 1216,
      "🤓": 1217,
      "🤔": 1218,
      "🤕": 1219,
      "🤖": 1220,
      "🤗": 1221,
      "🤘": 1222,
      "🤙": 1223,
      "🤚": 1224,
      "🤛": 1225,
      "🤜": 1226,
      "🤝": 1227,
      "🤞": 1228,
      "🤟": 1229,
      "🤠": 1230,
      "🤡": 1231,
      "🤢": 1232,
      "🤣": 1233,
      "🤤": 1234,
      "🤥": 1235,
      "🤦": 1236,
      "🤧": 1237,
      "🤨": 1238,
      "🤩": 1239,
      "🤪": 1240,
      "🤫": 1241,
      "🤬": 1242,
      "🤭": 1243,
      "🤮": 1244,
      "🤯": 1245,
      "🤰": 1246,
      "🤱": 1247,
      "🤲": 1248,
      "🤳": 1249,
      "🤴": 1250,
      "🤵": 1251,
      "🤶": 1252,
      "🤷": 1253,
      "🤸": 1254,
      "🤹": 1255,
      "🤺": 1256,
      "🤼": 1257,
      "🤽": 1258,
      "🤾": 1259,
      "🤿": 1260,
      "🥀": 1261,
      "🥁": 1262,
      "🥂": 1263,
      "🥄": 1264,
      "🥅": 1265,
      "🥇": 1266,
      "🥈": 1267,
      "🥉": 1268,
      "🥊": 1269,
      "🥋": 1270,
      "🥌": 1271,
      "🥍": 1272,
      "🥎": 1273,
      "🥏": 1274,
      "🥐": 1275,
      "🥑": 1276,
      "🥒": 1277,
      "🥓": 1278,
      "🥕": 1279,
      "🥖": 1280,
      "🥗": 1281,
      "🥘": 1282,
      "🥙": 1283,
      "🥚": 1284,
      "🥛": 1285,
      "🥜": 1286,
      "🥝": 1287,
      "🥞": 1288,
      "🥠": 1289,
      "🥡": 1290,
      "🥢": 1291,
      "🥣": 1292,
      "🥤": 1293,
      "🥥": 1294,
      "🥦": 1295,
      "🥧": 1296,
      "🥨": 1297,
      "🥩": 1298,
      "🥪": 1299,
      "🥫": 1300,
      "🥬": 1301,
      "🥭": 1302,
      "🥮": 1303,
      "🥯": 1304,
      "🥰": 1305,
      "🥱": 1306,
      "🥲": 1307,
      "🥳": 1308,
      "🥴": 1309,
      "🥵": 1310,
      "🥶": 1311,
      "🥷": 1312,
      "🥸": 1313,
      "🥺": 1314,
      "🥻": 1315,
      "🥼": 1316,
      "🥽": 1317,
      "🥾": 1318,
      "🥿": 1319,
      "🦀": 1320,
      "🦁": 1321,
      "🦂": 1322,
      "🦃": 1323,
      "🦄": 1324,
      "🦅": 1325,
      "🦆": 1326,
      "🦇": 1327,
      "🦈": 1328,
      "🦉": 1329,
      "🦊": 1330,
      "🦋": 1331,
      "🦌": 1332,
      "🦍": 1333,
      "🦎": 1334,
      "🦏": 1335,
      "🦐": 1336,
      "🦑": 1337,
      "🦒": 1338,
      "🦓": 1339,
      "🦔": 1340,
      "🦕": 1341,
      "🦖": 1342,
      "🦗": 1343,
      "🦘": 1344,
      "🦙": 1345,
      "🦚": 1346,
      "🦛": 1347,
      "🦜": 1348,
      "🦝": 1349,
      "🦞": 1350,
      "🦟": 1351,
      "🦡": 1352,
      "🦢": 1353,
      "🦣": 1354,
      "🦤": 1355,
      "🦥": 1356,
      "🦦": 1357,
      "🦧": 1358,
      "🦨": 1359,
      "🦩": 1360,
      "🦪": 1361,
      "🦫": 1362,
      "🦬": 1363,
      "🦭": 1364,
      "🦮": 1365,
      "🦯": 1366,
      "🦰": 1367,
      "🦱": 1368,
      "🦲": 1369,
      "🦳": 1370,
      "🦴": 1371,
      "🦵": 1372,
      "🦶": 1373,
      "🦷": 1374,
      "🦸": 1375,
      "🦹": 1376,
      "🦺": 1377,
      "🦻": 1378,
      "🦼": 1379,
      "🦽": 1380,
      "🦾": 1381,
      "🦿": 1382,
      "🧀": 1383,
      "🧁": 1384,
      "🧂": 1385,
      "🧃": 1386,
      "🧄": 1387,
      "🧅": 1388,
      "🧆": 1389,
      "🧇": 1390,
      "🧈": 1391,
      "🧉": 1392,
      "🧊": 1393,
      "🧋": 1394,
      "🧍": 1395,
      "🧎": 1396,
      "🧏": 1397,
      "🧐": 1398,
      "🧑": 1399,
      "🧒": 1400,
      "🧓": 1401,
      "🧔": 1402,
      "🧕": 1403,
      "🧖": 1404,
      "🧗": 1405,
      "🧘": 1406,
      "🧙": 1407,
      "🧚": 1408,
      "🧛": 1409,
      "🧜": 1410,
      "🧝": 1411,
      "🧞": 1412,
      "🧟": 1413,
      "🧠": 1414,
      "🧡": 1415,
      "🧢": 1416,
      "🧣": 1417,
      "🧤": 1418,
      "🧥": 1419,
      "🧦": 1420,
      "🧧": 1421,
      "🧨": 1422,
      "🧩": 1423,
      "🧪": 1424,
      "🧫": 1425,
      "🧬": 1426,
      "🧭": 1427,
      "🧮": 1428,
      "🧯": 1429,
      "🧰": 1430,
      "🧱": 1431,
      "🧲": 1432,
      "🧳": 1433,
      "🧴": 1434,
      "🧵": 1435,
      "🧶": 1436,
      "🧷": 1437,
      "🧸": 1438,
      "🧹": 1439,
      "🧺": 1440,
      "🧼": 1441,
      "🧽": 1442,
      "🧾": 1443,
      "🧿": 1444,
      "🩰": 1445,
      "🩱": 1446,
      "🩲": 1447,
      "🩳": 1448,
      "🩴": 1449,
      "🩸": 1450,
      "🩹": 1451,
      "🩺": 1452,
      "🪀": 1453,
      "🪁": 1454,
      "🪂": 1455,
      "🪃": 1456,
      "🪄": 1457,
      "🪅": 1458,
      "🪐": 1459,
      "🪑": 1460,
      "🪒": 1461,
      "🪓": 1462,
      "🪔": 1463,
      "🪕": 1464,
      "🪖": 1465,
      "🪗": 1466,
      "🪘": 1467,
      "🪙": 1468,
      "🪚": 1469,
      "🪜": 1470,
      "🪝": 1471,
      "🪞": 1472,
      "🪟": 1473,
      "🪠": 1474,
      "🪢": 1475,
      "🪣": 1476,
      "🪤": 1477,
      "🪥": 1478,
      "🪦": 1479,
      "🪧": 1480,
      "🪨": 1481,
      "🪰": 1482,
      "🪱": 1483,
      "🪳": 1484,
      "🪴": 1485,
      "🪵": 1486,
      "🪶": 1487,
      "🫀": 1488,
      "🫁": 1489,
      "🫂": 1490,
      "🫐": 1491,
      "🫑": 1492,
      "🫓": 1493,
      "🫕": 1494,
      "🫖": 1495,
      "󠁢": 1496,
      "󠁣": 1497,
      "󠁥": 1498,
      "󠁧": 1499,
      "󠁬": 1500,
      "󠁮": 1501,
      "󠁳": 1502,
      "󠁴": 1503,
      "󠁿": 1504,
      "##e": 1505,
      "##n": 1506,
      "##s": 1507,
      "##i": 1508,
      "##o": 1509,
      "##v": 1510,
      "##r": 1511,
      "##c": 1512,
      "##h": 1513,
      "##u": 1514,
      "##g": 1515,
      "##l": 1516,
      "##k": 1517,
      "##p": 1518,
      "##a": 1519,
      "##t": 1520,
      "##7": 1521,
      "##5": 1522,
      "##4": 1523,
      "##j": 1524,
      "##å": 1525,
      "##d": 1526,
      "##m": 1527,
      "##f": 1528,
      "##x": 1529,
      "##æ": 1530,
      "##b": 1531,
      "##z": 1532,
      "##ø": 1533,
      "##y": 1534,
      "##w": 1535,
      "##®": 1536,
      "##)": 1537,
      "##1": 1538,
      "##0": 1539,
      "##6": 1540,
      "##3": 1541,
      "##é": 1542,
      "##q": 1543,
      "##\"": 1544,
      "##/": 1545,
      "##ä": 1546,
      "##2": 1547,
      "##^": 1548,
      "##8": 1549,
      "##\\": 1550,
      "##(": 1551,
      "##.": 1552,
      "##;": 1553,
      "##á": 1554,
      "##9": 1555,
      "##_": 1556,
      "##ö": 1557,
      "##]": 1558,
      "##'": 1559,
      "##ü": 1560,
      "##*": 1561,
      "##>": 1562,
      "##ô": 1563,
      "##п": 1564,
      "##и": 1565,
      "##а": 1566,
      "##в": 1567,
      "##о": 1568,
      "##р": 1569,
      "##к": 1570,
      "##у": 1571,
      "##е": 1572,
      "##й": 1573,
      "##т": 1574,
      "##л": 1575,
      "##с": 1576,
      "##я": 1577,
      "##н": 1578,
      "##м": 1579,
      "##б": 1580,
      "##г": 1581,
      "##з": 1582,
      "##д": 1583,
      "##}": 1584,
      "##,": 1585,
      "##{": 1586,
      "##🏾": 1587,
      "##ر": 1588,
      "##@": 1589,
      "##?": 1590,
      "##<": 1591,
      "##&": 1592,
      "##í": 1593,
      "##à": 1594,
      "##ò": 1595,
      "##~": 1596,
      "##-": 1597,
      "##:": 1598,
      "##ß": 1599,
      "##ι": 1600,
      "##κ": 1601,
      "##ê": 1602,
      "##ç": 1603,
      "##=": 1604,
      "##°": 1605,
      "##🏼": 1606,
      "##è": 1607,
      "##ı": 1608,
      "##ñ": 1609,
      "##ي": 1610,
      "##و": 1611,
      "##ا": 1612,
      "##[": 1613,
      "##!": 1614,
      "##ó": 1615,
      "##ï": 1616,
      "##ч": 1617,
      "##%": 1618,
      "##š": 1619,
      "##đ": 1620,
      "##ō": 1621,
      "##■": 1622,
      "##ã": 1623,
      "##™": 1624,
      "##ь": 1625,
      "##č": 1626,
      "##+": 1627,
      "##$": 1628,
      "##ë": 1629,
      "##ل": 1630,
      "##م": 1631,
      "##□": 1632,
      "###": 1633,
      "##ć": 1634,
      "##🇲": 1635,
      "##ń": 1636,
      "##â": 1637,
      "##ž": 1638,
      "##£": 1639,
      "##ł": 1640,
      "##ы": 1641,
      "##ă": 1642,
      "##ε": 1643,
      "##ρ": 1644,
      "##α": 1645,
      "##ā": 1646,
      "##♥": 1647,
      "##◀": 1648,
      "##|": 1649,
      "##ý": 1650,
      "##ς": 1651,
      "##“": 1652,
      "##”": 1653,
      "##🇯": 1654,
      "##ー": 1655,
      "##ت": 1656,
      "##🏽": 1657,
      "##ú": 1658,
      "##►": 1659,
      "##ن": 1660,
      "##ð": 1661,
      "##μ": 1662,
      "##τ": 1663,
      "##ο": 1664,
      "##î": 1665,
      "##ū": 1666,
      "##🏻": 1667,
      "##ŋ": 1668,
      "##ν": 1669,
      "##️": 1670,
      "##⃣": 1671,
      "##ş": 1672,
      "##🇪": 1673,
      "##🇳": 1674,
      "##▼": 1675,
      "##🏿": 1676,
      "##♦": 1677,
      "##↑": 1678,
      "##🇹": 1679,
      "##🇶": 1680,
      "##±": 1681,
      "##⁄": 1682,
      "##🇾": 1683,
      "##€": 1684,
      "##🇰": 1685,
      "##©": 1686,
      "##🇦": 1687,
      "##🔴": 1688,
      "##🇩": 1689,
      "##🇭": 1690,
      "##▲": 1691,
      "##🇸": 1692,
      "##÷": 1693,
      "##🇺": 1694,
      "##¥": 1695,
      "##🇮": 1696,
      "##→": 1697,
      "##ŧ": 1698,
      "##’": 1699,
      "##🌲": 1700,
      "##🍃": 1701,
      "##🐥": 1702,
      "##🌰": 1703,
      "##🇨": 1704,
      "##🇵": 1705,
      "##●": 1706,
      "##🇫": 1707,
      "##❤": 1708,
      "##δ": 1709,
      "##🤫": 1710,
      "##🤭": 1711,
      "##😷": 1712,
      "##🤢": 1713,
      "##🤬": 1714,
      "##🇬": 1715,
      "##🇽": 1716,
      "##😅": 1717,
      "##👍": 1718,
      "##�": 1719,
      "##💕": 1720,
      "##🇻": 1721,
      "##🇼": 1722,
      "##😁": 1723,
      "##✌": 1724,
      "##`": 1725,
      "##½": 1726,
      "##★": 1727,
      "##💪": 1728,
      "##🐴": 1729,
      "##🇷": 1730,
      "##😉": 1731,
      "##😎": 1732,
      "##🇧": 1733,
      "##🇴": 1734,
      "##◄": 1735,
      "##🙌": 1736,
      "##🇿": 1737,
      "##👏": 1738,
      "##😋": 1739,
      "##↘": 1740,
      "##♠": 1741,
      "##🌕": 1742,
      "##💲": 1743,
      "##🇱": 1744,
      "##○": 1745,
      "##󠁧": 1746,
      "##󠁢": 1747,
      "##󠁳": 1748,
      "##󠁣": 1749,
      "##󠁴": 1750,
      "##󠁿": 1751,
      "##🤣": 1752,
      "##👠": 1753,
      "##👌": 1754,
      "##⚽": 1755,
      "##✓": 1756,
      "##−": 1757,
      "##✔": 1758,
      "##😄": 1759,
      "##👊": 1760,
      "##🎖": 1761,
      "##😊": 1762,
      "##💃": 1763,
      "##💜": 1764,
      "##󠁥": 1765,
      "##󠁮": 1766,
      "##🎄": 1767,
      "##█": 1768,
      "##🕊": 1769,
      "##🐦": 1770,
      "##🎲": 1771,
      "##🐶": 1772,
      "##😀": 1773,
      "##🙏": 1774,
      "##♂": 1775,
      "##♣": 1776,
      "##🌟": 1777,
      "##²": 1778,
      "##✨": 1779,
      "##😑": 1780,
      "##🙃": 1781,
      "##😳": 1782,
      "##😂": 1783,
      "##💓": 1784,
      "##🌨": 1785,
      "##❄": 1786,
      "##↩": 1787,
      "##‍": 1788,
      "##🙂": 1789,
      "##󠁬": 1790,
      "##en": 1791,
      "##er": 1792,
      "##et": 1793,
      "##or": 1794,
      "##an": 1795,
      "##in": 1796,
      "##ar": 1797,
      "##el": 1798,
      "##il": 1799,
      "##st": 1800,
      "og": 1801,
      "##om": 1802,
      "##ed": 1803,
      "for": 1804,
      "##eg": 1805,
      "##ing": 1806,
      "##re": 1807,
      "##te": 1808,
      "det": 1809,
      "##ig": 1810,
      "##al": 1811,
      "##ke": 1812,
      "##on": 1813,
      "til": 1814,
      "##tt": 1815,
      "##de": 1816,
      "##is": 1817,
      "en": 1818,
      "##le": 1819,
      "av": 1820,
      "er": 1821,
      "##un": 1822,
      "##ra": 1823,
      "##es": 1824,
      "som": 1825,
      "på": 1826,
      "##ik": 1827,
      "st": 1828,
      "##id": 1829,
      "##ol": 1830,
      "##ene": 1831,
      "med": 1832,
      "de": 1833,
      "##ør": 1834,
      "sk": 1835,
      "in": 1836,
      "##sk": 1837,
      "##ne": 1838,
      "##at": 1839,
      "##am": 1840,
      "##ver": 1841,
      "at": 1842,
      "##pp": 1843,
      "##ag": 1844,
      "den": 1845,
      "##as": 1846,
      "##it": 1847,
      "han": 1848,
      "##ler": 1849,
      "##kt": 1850,
      "an": 1851,
      "##kke": 1852,
      "var": 1853,
      "om": 1854,
      "##ent": 1855,
      "ut": 1856,
      "har": 1857,
      "##se": 1858,
      "##ad": 1859,
      "ikke": 1860,
      "##and": 1861,
      "##ste": 1862,
      "##iv": 1863,
      "##ning": 1864,
      "##ul": 1865,
      "##der": 1866,
      "men": 1867,
      "##år": 1868,
      "##ro": 1869,
      "##ang": 1870,
      "vi": 1871,
      "##kk": 1872,
      "al": 1873,
      "##ær": 1874,
      "##ur": 1875,
      "##jon": 1876,
      "##li": 1877,
      "jeg": 1878,
      "fra": 1879,
      "##lig": 1880,
      "et": 1881,
      "opp": 1882,
      "##ett": 1883,
      "##ere": 1884,
      "gj": 1885,
      "##us": 1886,
      "##ri": 1887,
      "##ens": 1888,
      "##ot": 1889,
      "hv": 1890,
      "##ru": 1891,
      "##je": 1892,
      "##\"\"": 1893,
      "##ak": 1894,
      "##tter": 1895,
      "no": 1896,
      "kan": 1897,
      "kom": 1898,
      "##ikk": 1899,
      "##for": 1900,
      "inn": 1901,
      "##ende": 1902,
      "sam": 1903,
      "så": 1904,
      "19": 1905,
      "seg": 1906,
      "sp": 1907,
      "##sen": 1908,
      "<<": 1909,
      "be": 1910,
      "el": 1911,
      "##ter": 1912,
      "##het": 1913,
      "##ks": 1914,
      ">>": 1915,
      "##ge": 1916,
      "si": 1917,
      "vil": 1918,
      "un": 1919,
      "##od": 1920,
      "##ap": 1921,
      "##mer": 1922,
      "hun": 1923,
      "over": 1924,
      "##be": 1925,
      "der": 1926,
      "th": 1927,
      "må": 1928,
      "##att": 1929,
      "##elig": 1930,
      "had": 1931,
      "se": 1932,
      "##ist": 1933,
      "##me": 1934,
      "##av": 1935,
      "hadde": 1936,
      "##ell": 1937,
      "ar": 1938,
      "##ss": 1939,
      "du": 1940,
      "re": 1941,
      "ved": 1942,
      "##yn": 1943,
      "##ord": 1944,
      "##enn": 1945,
      "##dre": 1946,
      "sl": 1947,
      "##ir": 1948,
      "##ort": 1949,
      "bli": 1950,
      "tr": 1951,
      "##ann": 1952,
      "##isk": 1953,
      "##ok": 1954,
      "##ft": 1955,
      "##ut": 1956,
      "hel": 1957,
      "##gen": 1958,
      "eller": 1959,
      "etter": 1960,
      "ble": 1961,
      "bar": 1962,
      "før": 1963,
      "##est": 1964,
      "##ser": 1965,
      "##art": 1966,
      "20": 1967,
      "kon": 1968,
      "##øy": 1969,
      "##sl": 1970,
      "##så": 1971,
      "##unn": 1972,
      "år": 1973,
      "##ger": 1974,
      "##ov": 1975,
      "##ære": 1976,
      "pro": 1977,
      "##ud": 1978,
      "##asjon": 1979,
      "##sp": 1980,
      "##ling": 1981,
      "skal": 1982,
      "kj": 1983,
      "dette": 1984,
      "##ikt": 1985,
      "the": 1986,
      "##rå": 1987,
      "##old": 1988,
      "##men": 1989,
      "##all": 1990,
      "##inn": 1991,
      "da": 1992,
      "to": 1993,
      "##yg": 1994,
      "nor": 1995,
      "##ert": 1996,
      "også": 1997,
      "##ff": 1998,
      "##itt": 1999,
      "##em": 2000,
      "##yr": 2001,
      "##del": 2002,
      "kl": 2003,
      "##ant": 2004,
      "##os": 2005,
      "##beid": 2006,
      "##um": 2007,
      "ny": 2008,
      "##ker": 2009,
      "##og": 2010,
      "00": 2011,
      "##var": 2012,
      "##end": 2013,
      "kun": 2014,
      "under": 2015,
      "##ve": 2016,
      "gr": 2017,
      "tid": 2018,
      "##øl": 2019,
      "##iske": 2020,
      "sin": 2021,
      "min": 2022,
      "bl": 2023,
      "ha": 2024,
      "##net": 2025,
      "##else": 2026,
      "##sm": 2027,
      "mot": 2028,
      "##ion": 2029,
      "##und": 2030,
      "være": 2031,
      "kr": 2032,
      "##øn": 2033,
      "or": 2034,
      "##gj": 2035,
      "pl": 2036,
      "##øre": 2037,
      "##den": 2038,
      "##ch": 2039,
      "her": 2040,
      "le": 2041,
      "##eng": 2042,
      "fr": 2043,
      "##im": 2044,
      "br": 2045,
      "##leg": 2046,
      "##ie": 2047,
      "ver": 2048,
      "dag": 2049,
      "##akt": 2050,
      "andre": 2051,
      "##skap": 2052,
      "sa": 2053,
      "meg": 2054,
      "kv": 2055,
      "of": 2056,
      "pr": 2057,
      "reg": 2058,
      "bru": 2059,
      "få": 2060,
      "jo": 2061,
      "##ast": 2062,
      "stor": 2063,
      "##elt": 2064,
      "18": 2065,
      "##ier": 2066,
      "##ly": 2067,
      "##ab": 2068,
      "##ige": 2069,
      "##rem": 2070,
      "når": 2071,
      "##yl": 2072,
      "##ans": 2073,
      "denne": 2074,
      "nå": 2075,
      "##tte": 2076,
      "##jer": 2077,
      "##ale": 2078,
      "##..": 2079,
      "alle": 2080,
      "mer": 2081,
      "##ede": 2082,
      "arbeid": 2083,
      "li": 2084,
      "##ød": 2085,
      "##ket": 2086,
      "##ber": 2087,
      "hen": 2088,
      "--": 2089,
      "fort": 2090,
      "\"\"\"": 2091,
      "##eld": 2092,
      "##ært": 2093,
      "blir": 2094,
      "man": 2095,
      "komm": 2096,
      "##hold": 2097,
      "per": 2098,
      "##nes": 2099,
      "noe": 2100,
      "##alt": 2101,
      "##ingen": 2102,
      "##ass": 2103,
      "kunne": 2104,
      ").": 2105,
      "##ic": 2106,
      "##per": 2107,
      "10": 2108,
      "##ange": 2109,
      "##na": 2110,
      "god": 2111,
      "##iser": 2112,
      "##tid": 2113,
      "sel": 2114,
      "##elle": 2115,
      "ne": 2116,
      "hvor": 2117,
      "##ighet": 2118,
      "ham": 2119,
      "enn": 2120,
      "dem": 2121,
      "sv": 2122,
      "noen": 2123,
      "##lige": 2124,
      "beg": 2125,
      "##ret": 2126,
      "##vis": 2127,
      "bet": 2128,
      "mar": 2129,
      "skul": 2130,
      "bare": 2131,
      "ve": 2132,
      "##kte": 2133,
      "sy": 2134,
      "\"\"\"\"": 2135,
      "##let": 2136,
      "##jel": 2137,
      "##dag": 2138,
      "##ring": 2139,
      "##ien": 2140,
      "##ennom": 2141,
      "ned": 2142,
      "sm": 2143,
      "##pe": 2144,
      "del": 2145,
      "ta": 2146,
      "##ess": 2147,
      "frem": 2148,
      "eg": 2149,
      "gjennom": 2150,
      "##vik": 2151,
      "ber": 2152,
      "##lem": 2153,
      "##ster": 2154,
      "alt": 2155,
      "##stem": 2156,
      "##jem": 2157,
      "##ske": 2158,
      "##ken": 2159,
      "##itet": 2160,
      "##ner": 2161,
      "30": 2162,
      "hva": 2163,
      "land": 2164,
      "mange": 2165,
      "##det": 2166,
      "##kl": 2167,
      "tre": 2168,
      "slik": 2169,
      "##son": 2170,
      "##set": 2171,
      "##ellom": 2172,
      "##utt": 2173,
      "##res": 2174,
      "la": 2175,
      "##eder": 2176,
      "hver": 2177,
      "sammen": 2178,
      "##ust": 2179,
      "ein": 2180,
      "##før": 2181,
      "##ningen": 2182,
      "##legg": 2183,
      "hans": 2184,
      "15": 2185,
      "##ia": 2186,
      "##øp": 2187,
      "mellom": 2188,
      "and": 2189,
      "sj": 2190,
      "te": 2191,
      "dis": 2192,
      "##ug": 2193,
      "skulle": 2194,
      "gang": 2195,
      "##land": 2196,
      "##yd": 2197,
      "##iden": 2198,
      "##ost": 2199,
      "##tem": 2200,
      "##lere": 2201,
      "##tr": 2202,
      "##ult": 2203,
      "he": 2204,
      "##ire": 2205,
      "##opp": 2206,
      "kommun": 2207,
      "sier": 2208,
      "lang": 2209,
      "vært": 2210,
      "uten": 2211,
      "høy": 2212,
      "lag": 2213,
      ".\"\"": 2214,
      "##olit": 2215,
      "##ull": 2216,
      "fin": 2217,
      "ville": 2218,
      "##if": 2219,
      "17": 2220,
      "##ill": 2221,
      "##ive": 2222,
      "ma": 2223,
      "rett": 2224,
      "my": 2225,
      "ser": 2226,
      "##enter": 2227,
      "fors": 2228,
      "fol": 2229,
      "##alg": 2230,
      "201": 2231,
      "bå": 2232,
      "##pl": 2233,
      "##øm": 2234,
      ">>.": 2235,
      "grunn": 2236,
      "tilb": 2237,
      "mor": 2238,
      "##som": 2239,
      "vis": 2240,
      "dei": 2241,
      "##ninger": 2242,
      "fl": 2243,
      "##øk": 2244,
      "##elsen": 2245,
      "##op": 2246,
      "##00": 2247,
      "##rist": 2248,
      "vel": 2249,
      "byg": 2250,
      "ly": 2251,
      "nær": 2252,
      "##ane": 2253,
      "vir": 2254,
      "##tes": 2255,
      "##ets": 2256,
      "12": 2257,
      "bes": 2258,
      "inter": 2259,
      "fram": 2260,
      "deg": 2261,
      "##omm": 2262,
      "##ater": 2263,
      "går": 2264,
      "føl": 2265,
      "##ub": 2266,
      "oss": 2267,
      "##iktig": 2268,
      "11": 2269,
      "første": 2270,
      "##sb": 2271,
      "bil": 2272,
      "##rev": 2273,
      "##gang": 2274,
      "gå": 2275,
      "##kket": 2276,
      "##mp": 2277,
      "##ob": 2278,
      "end": 2279,
      "##ål": 2280,
      "##ct": 2281,
      "far": 2282,
      "##ille": 2283,
      "like": 2284,
      "##ind": 2285,
      "##ksjon": 2286,
      "liv": 2287,
      "##lag": 2288,
      "skj": 2289,
      "by": 2290,
      "henne": 2291,
      "form": 2292,
      "leg": 2293,
      "stat": 2294,
      "##rat": 2295,
      "syn": 2296,
      "##ram": 2297,
      "gl": 2298,
      "igj": 2299,
      "##di": 2300,
      "nok": 2301,
      "ei": 2302,
      "disse": 2303,
      "##sten": 2304,
      "mil": 2305,
      "ty": 2306,
      "fikk": 2307,
      "van": 2308,
      "##els": 2309,
      "199": 2310,
      "##kj": 2311,
      "sn": 2312,
      "forsk": 2313,
      "16": 2314,
      "får": 2315,
      "##ake": 2316,
      "##kker": 2317,
      "##ings": 2318,
      "##ten": 2319,
      "ans": 2320,
      "forb": 2321,
      "polit": 2322,
      "seiv": 2323,
      "##rift": 2324,
      "ch": 2325,
      "##nen": 2326,
      "tra": 2327,
      "##oll": 2328,
      "ol": 2329,
      "igjen": 2330,
      "##are": 2331,
      "##over": 2332,
      "##hand": 2333,
      "##nd": 2334,
      "##atte": 2335,
      "##inger": 2336,
      "all": 2337,
      "pros": 2338,
      "me": 2339,
      "flere": 2340,
      "nord": 2341,
      "ord": 2342,
      "ten": 2343,
      "vid": 2344,
      "dr": 2345,
      "selv": 2346,
      "##stil": 2347,
      "res": 2348,
      "ad": 2349,
      "##rett": 2350,
      "200": 2351,
      "##arbeid": 2352,
      "hå": 2353,
      "hele": 2354,
      "ingen": 2355,
      "gi": 2356,
      "bed": 2357,
      "kommer": 2358,
      "##kon": 2359,
      "par": 2360,
      "kn": 2361,
      "gjøre": 2362,
      "stør": 2363,
      "lø": 2364,
      "lig": 2365,
      "##enger": 2366,
      "pa": 2367,
      "mul": 2368,
      "lov": 2369,
      "##like": 2370,
      "##form": 2371,
      "##erne": 2372,
      "både": 2373,
      "##elser": 2374,
      "##ip": 2375,
      "ek": 2376,
      "godt": 2377,
      "##ry": 2378,
      "samme": 2379,
      "store": 2380,
      "sak": 2381,
      "##iet": 2382,
      "kra": 2383,
      "siden": 2384,
      "##ial": 2385,
      "fe": 2386,
      "##ine": 2387,
      "##atur": 2388,
      "13": 2389,
      "##tak": 2390,
      "litt": 2391,
      "##ard": 2392,
      "red": 2393,
      "nye": 2394,
      "##he": 2395,
      "14": 2396,
      "##ation": 2397,
      "hal": 2398,
      "hus": 2399,
      "hvis": 2400,
      "gikk": 2401,
      "##isjon": 2402,
      "gam": 2403,
      "person": 2404,
      "is": 2405,
      "),": 2406,
      "ja": 2407,
      "##pen": 2408,
      "ra": 2409,
      "mo": 2410,
      "helt": 2411,
      "##eter": 2412,
      "vår": 2413,
      "finn": 2414,
      "##oner": 2415,
      "sine": 2416,
      "ho": 2417,
      "##ce": 2418,
      "##elige": 2419,
      "##etter": 2420,
      "ti": 2421,
      "##ener": 2422,
      "##gan": 2423,
      "mann": 2424,
      "##entet": 2425,
      "norge": 2426,
      "ev": 2427,
      "mø": 2428,
      "##du": 2429,
      "##alen": 2430,
      "mye": 2431,
      "##erd": 2432,
      "##par": 2433,
      "##slag": 2434,
      "kont": 2435,
      "##ygg": 2436,
      "im": 2437,
      "##bru": 2438,
      "gra": 2439,
      "##kkje": 2440,
      "hol": 2441,
      "##unkt": 2442,
      "str": 2443,
      "kar": 2444,
      "mennes": 2445,
      "enk": 2446,
      "spør": 2447,
      "mid": 2448,
      "##øv": 2449,
      "tilbake": 2450,
      "##sel": 2451,
      "rund": 2452,
      "##ordan": 2453,
      "##>>": 2454,
      "ant": 2455,
      "fot": 2456,
      "ikkje": 2457,
      "eks": 2458,
      "lu": 2459,
      "##sker": 2460,
      "##ente": 2461,
      "##gi": 2462,
      "\"\"": 2463,
      "##ønn": 2464,
      "##sf": 2465,
      "##ide": 2466,
      "frå": 2467,
      "##kken": 2468,
      "tro": 2469,
      "bak": 2470,
      "sol": 2471,
      "##stand": 2472,
      "hjem": 2473,
      "hvordan": 2474,
      "sitt": 2475,
      "##rupp": 2476,
      "##ette": 2477,
      "norsk": 2478,
      "##red": 2479,
      "ind": 2480,
      "forhold": 2481,
      "##stad": 2482,
      "hov": 2483,
      "##get": 2484,
      "ss": 2485,
      "##ktiv": 2486,
      "198": 2487,
      "##ode": 2488,
      "##ole": 2489,
      "##rep": 2490,
      "annet": 2491,
      "21": 2492,
      "kor": 2493,
      "fly": 2494,
      "nr": 2495,
      "sig": 2496,
      "mens": 2497,
      "##vel": 2498,
      "##jene": 2499,
      "fyl": 2500,
      "##hus": 2501,
      "##ark": 2502,
      "tor": 2503,
      "sen": 2504,
      "led": 2505,
      "##kes": 2506,
      "bor": 2507,
      "##ytt": 2508,
      "svar": 2509,
      "blitt": 2510,
      "begyn": 2511,
      "vå": 2512,
      "barn": 2513,
      "am": 2514,
      "viktig": 2515,
      "##rer": 2516,
      "##ond": 2517,
      "utvik": 2518,
      "rundt": 2519,
      "øn": 2520,
      "plan": 2521,
      "hjel": 2522,
      "##sjon": 2523,
      "000": 2524,
      "##bl": 2525,
      "##ffe": 2526,
      "fj": 2527,
      "25": 2528,
      "##hol": 2529,
      "måtte": 2530,
      "lå": 2531,
      "##lev": 2532,
      "##kn": 2533,
      "tok": 2534,
      "bestem": 2535,
      "##olog": 2536,
      "siste": 2537,
      "dom": 2538,
      "##dom": 2539,
      "##ister": 2540,
      "##ate": 2541,
      "##nings": 2542,
      "##jør": 2543,
      "øy": 2544,
      "krist": 2545,
      "on": 2546,
      "##fter": 2547,
      "##slo": 2548,
      ",>>": 2549,
      "joh": 2550,
      "tidlig": 2551,
      "##kter": 2552,
      "22": 2553,
      "gjør": 2554,
      "folk": 2555,
      "hav": 2556,
      "derfor": 2557,
      "##heten": 2558,
      "##ennes": 2559,
      "##ib": 2560,
      "bør": 2561,
      "##gr": 2562,
      "##skje": 2563,
      "##ian": 2564,
      "##rik": 2565,
      "##pt": 2566,
      "##ma": 2567,
      "su": 2568,
      "##stå": 2569,
      "##ges": 2570,
      "tv": 2571,
      "##ank": 2572,
      "ro": 2573,
      "...": 2574,
      "stort": 2575,
      "kap": 2576,
      "##stre": 2577,
      "hand": 2578,
      "oslo": 2579,
      "kanskje": 2580,
      "197": 2581,
      "as": 2582,
      "##iten": 2583,
      "inne": 2584,
      "##les": 2585,
      "##olig": 2586,
      "verd": 2587,
      "##ald": 2588,
      "##aler": 2589,
      "sær": 2590,
      "sted": 2591,
      "spes": 2592,
      "##ikker": 2593,
      "sett": 2594,
      "##eller": 2595,
      "##sj": 2596,
      "23": 2597,
      "##elder": 2598,
      "##sv": 2599,
      "##sn": 2600,
      "##ck": 2601,
      "eit": 2602,
      "##met": 2603,
      "##gå": 2604,
      "sto": 2605,
      "sø": 2606,
      "##ise": 2607,
      "mest": 2608,
      "##pr": 2609,
      "ste": 2610,
      "tilf": 2611,
      "fle": 2612,
      "##istor": 2613,
      "hø": 2614,
      "##ite": 2615,
      "##elen": 2616,
      "##satt": 2617,
      "##amil": 2618,
      "##lingen": 2619,
      "##ys": 2620,
      "lik": 2621,
      "hoved": 2622,
      "komme": 2623,
      "bort": 2624,
      "sna": 2625,
      "##min": 2626,
      "full": 2627,
      "gud": 2628,
      "gir": 2629,
      "##ow": 2630,
      "styr": 2631,
      "##ande": 2632,
      "fast": 2633,
      "##rag": 2634,
      "##anse": 2635,
      "ba": 2636,
      "lær": 2637,
      "##asser": 2638,
      "hos": 2639,
      "50": 2640,
      "##ym": 2641,
      "bruk": 2642,
      "mål": 2643,
      "##asjonen": 2644,
      "pre": 2645,
      "off": 2646,
      "natur": 2647,
      "af": 2648,
      "di": 2649,
      "videre": 2650,
      "hvil": 2651,
      "annen": 2652,
      "fordi": 2653,
      "##anske": 2654,
      "organ": 2655,
      "##orde": 2656,
      "ene": 2657,
      "com": 2658,
      "sør": 2659,
      "tar": 2660,
      "##ven": 2661,
      "part": 2662,
      "utt": 2663,
      "##fl": 2664,
      "stil": 2665,
      "rå": 2666,
      "først": 2667,
      "vin": 2668,
      "##led": 2669,
      "spørsm": 2670,
      "##føl": 2671,
      "vet": 2672,
      "##br": 2673,
      "des": 2674,
      "##....": 2675,
      "kir": 2676,
      "bra": 2677,
      "norske": 2678,
      "egen": 2679,
      "sit": 2680,
      "##inner": 2681,
      "sent": 2682,
      "##ksom": 2683,
      "ald": 2684,
      "job": 2685,
      "##kom": 2686,
      "##vend": 2687,
      "hennes": 2688,
      "us": 2689,
      "ster": 2690,
      "hør": 2691,
      "##her": 2692,
      "fått": 2693,
      "rom": 2694,
      "blant": 2695,
      "eng": 2696,
      "nett": 2697,
      "##str": 2698,
      "##ultur": 2699,
      "mat": 2700,
      "side": 2701,
      "##olen": 2702,
      "##nad": 2703,
      "##kning": 2704,
      "fa": 2705,
      "kam": 2706,
      "områ": 2707,
      "##entlig": 2708,
      "veg": 2709,
      "##rakt": 2710,
      "hold": 2711,
      "vann": 2712,
      "con": 2713,
      "##ele": 2714,
      "famil": 2715,
      "##idler": 2716,
      "gjelder": 2717,
      "##la": 2718,
      "ung": 2719,
      "dø": 2720,
      "lok": 2721,
      "ofte": 2722,
      "##berg": 2723,
      "prob": 2724,
      "##iver": 2725,
      "##far": 2726,
      "##sy": 2727,
      "##sdag": 2728,
      "##med": 2729,
      "står": 2730,
      "##agt": 2731,
      "##enge": 2732,
      "tur": 2733,
      "##vir": 2734,
      "aldri": 2735,
      "kjø": 2736,
      "##sd": 2737,
      "##syn": 2738,
      "jord": 2739,
      "##usjon": 2740,
      "##styr": 2741,
      "pres": 2742,
      "klar": 2743,
      "##jekt": 2744,
      "##iner": 2745,
      "##pet": 2746,
      "##mann": 2747,
      "##nt": 2748,
      "fri": 2749,
      "?.": 2750,
      "fred": 2751,
      "lo": 2752,
      "so": 2753,
      "viser": 2754,
      "##vet": 2755,
      "ka": 2756,
      "innen": 2757,
      "nød": 2758,
      "ekse": 2759,
      "##pro": 2760,
      "##dd": 2761,
      "langt": 2762,
      "##esten": 2763,
      "##ativ": 2764,
      "åp": 2765,
      "##ue": 2766,
      "gjort": 2767,
      "##urder": 2768,
      "##ikken": 2769,
      "##jø": 2770,
      "tatt": 2771,
      "dy": 2772,
      "nytt": 2773,
      "gamle": 2774,
      "nav": 2775,
      "slutt": 2776,
      "deres": 2777,
      "mindre": 2778,
      "##eren": 2779,
      "196": 2780,
      "##funn": 2781,
      "inst": 2782,
      "samt": 2783,
      "mulig": 2784,
      "ting": 2785,
      "##io": 2786,
      "små": 2787,
      "tidligere": 2788,
      "##sh": 2789,
      "##org": 2790,
      "##gjør": 2791,
      "stud": 2792,
      "aller": 2793,
      "fil": 2794,
      "gjorde": 2795,
      "dire": 2796,
      "int": 2797,
      "større": 2798,
      "stem": 2799,
      "produ": 2800,
      "beh": 2801,
      "sh": 2802,
      "fag": 2803,
      ">>,": 2804,
      "##,,": 2805,
      "kal": 2806,
      "dat": 2807,
      "histor": 2808,
      "utv": 2809,
      "##ka": 2810,
      "40": 2811,
      "ga": 2812,
      "##partem": 2813,
      "ge": 2814,
      "halv": 2815,
      "lar": 2816,
      "gener": 2817,
      "##allet": 2818,
      "lett": 2819,
      "##skapet": 2820,
      "##des": 2821,
      "mener": 2822,
      "##ain": 2823,
      "bok": 2824,
      "##asjoner": 2825,
      "45": 2826,
      "betyd": 2827,
      "ca": 2828,
      "##ong": 2829,
      "eksemp": 2830,
      "ab": 2831,
      "mus": 2832,
      "##riv": 2833,
      "kultur": 2834,
      "##handling": 2835,
      "##kst": 2836,
      "delt": 2837,
      "##reg": 2838,
      "valg": 2839,
      "bo": 2840,
      "##heng": 2841,
      "rep": 2842,
      "##enner": 2843,
      "gre": 2844,
      "##assen": 2845,
      "art": 2846,
      "ter": 2847,
      "satt": 2848,
      "##veg": 2849,
      "##enes": 2850,
      "##ins": 2851,
      "eu": 2852,
      "id": 2853,
      "##øs": 2854,
      "vansk": 2855,
      "##mel": 2856,
      "##gram": 2857,
      "##asse": 2858,
      "sc": 2859,
      "##sket": 2860,
      "24": 2861,
      "sos": 2862,
      "stra": 2863,
      "##anger": 2864,
      "##kelig": 2865,
      "##ild": 2866,
      "it": 2867,
      "##elte": 2868,
      "dere": 2869,
      "##iter": 2870,
      "##uler": 2871,
      "grupp": 2872,
      "les": 2873,
      "ben": 2874,
      "##bet": 2875,
      "ulike": 2876,
      "heller": 2877,
      "##dal": 2878,
      "##age": 2879,
      "##sfor": 2880,
      "##føre": 2881,
      "##iller": 2882,
      "tillegg": 2883,
      "##by": 2884,
      "bedre": 2885,
      "05": 2886,
      ".)": 2887,
      "ul": 2888,
      "best": 2889,
      "alltid": 2890,
      "kroner": 2891,
      "##heter": 2892,
      "tror": 2893,
      "vurder": 2894,
      "fun": 2895,
      "##tidig": 2896,
      "##konom": 2897,
      "vest": 2898,
      "##fa": 2899,
      "##use": 2900,
      "ang": 2901,
      "hvert": 2902,
      "##ith": 2903,
      "ligger": 2904,
      "måte": 2905,
      "gode": 2906,
      "fem": 2907,
      "økonom": 2908,
      "##igheter": 2909,
      "stad": 2910,
      "##alte": 2911,
      "dersom": 2912,
      "##ilt": 2913,
      "03": 2914,
      "##spl": 2915,
      "##eldig": 2916,
      "mark": 2917,
      "wh": 2918,
      "##yld": 2919,
      "##alitet": 2920,
      "hatt": 2921,
      "kort": 2922,
      "spesi": 2923,
      "besk": 2924,
      "##fer": 2925,
      "finne": 2926,
      "##isen": 2927,
      "stø": 2928,
      "##ppen": 2929,
      "jul": 2930,
      "din": 2931,
      "##sak": 2932,
      "em": 2933,
      "gjen": 2934,
      "##vær": 2935,
      "co": 2936,
      "195": 2937,
      "194": 2938,
      "##gende": 2939,
      "løp": 2940,
      "##ktor": 2941,
      "##rig": 2942,
      "po": 2943,
      "fakt": 2944,
      "##ile": 2945,
      "op": 2946,
      "##ider": 2947,
      "##ensjon": 2948,
      "skap": 2949,
      "result": 2950,
      "kraft": 2951,
      "natt": 2952,
      "inv": 2953,
      "##kv": 2954,
      "skole": 2955,
      "##ført": 2956,
      "verden": 2957,
      "##ade": 2958,
      "##ben": 2959,
      "##stilling": 2960,
      "##bygg": 2961,
      "medlem": 2962,
      "prosent": 2963,
      "ele": 2964,
      "##ina": 2965,
      "##ity": 2966,
      "vær": 2967,
      "likevel": 2968,
      "senere": 2969,
      "##bar": 2970,
      "##rene": 2971,
      "milli": 2972,
      "kro": 2973,
      "##ppe": 2974,
      "nei": 2975,
      "06": 2976,
      "##spunkt": 2977,
      "inform": 2978,
      "##ynd": 2979,
      "##fe": 2980,
      "tan": 2981,
      "ret": 2982,
      "##river": 2983,
      "tem": 2984,
      "nev": 2985,
      "##inne": 2986,
      "##ott": 2987,
      "pe": 2988,
      "##delse": 2989,
      "lever": 2990,
      "met": 2991,
      "##gt": 2992,
      "##søk": 2993,
      "samfunn": 2994,
      "mag": 2995,
      "svært": 2996,
      "tiden": 2997,
      "##idlertid": 2998,
      "##partementet": 2999,
      "spørsmål": 3000,
      "jan": 3001,
      "imidlertid": 3002,
      "hjelp": 3003,
      "35": 3004,
      "beste": 3005,
      "##raf": 3006,
      "konk": 3007,
      "##ren": 3008,
      "bu": 3009,
      "##ga": 3010,
      "lite": 3011,
      "##bo": 3012,
      "sik": 3013,
      "eksempel": 3014,
      "liten": 3015,
      "søn": 3016,
      "##ha": 3017,
      "##da": 3018,
      "fire": 3019,
      "##odet": 3020,
      "##ies": 3021,
      "ex": 3022,
      "tjene": 3023,
      "##up": 3024,
      "vart": 3025,
      "stå": 3026,
      "nødvend": 3027,
      "fant": 3028,
      "barne": 3029,
      "##jen": 3030,
      "55": 3031,
      "##ich": 3032,
      "plass": 3033,
      "##ester": 3034,
      "fig": 3035,
      "ferd": 3036,
      "ansvar": 3037,
      "særlig": 3038,
      "##ringer": 3039,
      "dan": 3040,
      "fisk": 3041,
      "##under": 3042,
      "felle": 3043,
      "organis": 3044,
      "foto": 3045,
      "vanskelig": 3046,
      "##ftet": 3047,
      "##~~": 3048,
      "are": 3049,
      "hj": 3050,
      "øv": 3051,
      "akt": 3052,
      "##ave": 3053,
      "nesten": 3054,
      "##mark": 3055,
      "##ferd": 3056,
      "ett": 3057,
      "arbeidet": 3058,
      "samtidig": 3059,
      "slike": 3060,
      "##ja": 3061,
      "mod": 3062,
      "ute": 3063,
      "syke": 3064,
      "slag": 3065,
      "mennesker": 3066,
      "##inga": 3067,
      "forskjel": 3068,
      "problem": 3069,
      "mang": 3070,
      ":.": 3071,
      "il": 3072,
      "##ont": 3073,
      "##ous": 3074,
      "hens": 3075,
      "grad": 3076,
      "##part": 3077,
      "kjem": 3078,
      "intern": 3079,
      "##andre": 3080,
      "begge": 3081,
      "forv": 3082,
      ".,": 3083,
      "avt": 3084,
      "gar": 3085,
      "kommune": 3086,
      "enkelte": 3087,
      "##sett": 3088,
      "unn": 3089,
      "##svar": 3090,
      "att": 3091,
      "lenge": 3092,
      "allerede": 3093,
      "ønsker": 3094,
      "##yt": 3095,
      "##istr": 3096,
      "##sa": 3097,
      "tom": 3098,
      "##atet": 3099,
      "##lys": 3100,
      "kre": 3101,
      "##ansen": 3102,
      "råd": 3103,
      "bur": 3104,
      "død": 3105,
      "tru": 3106,
      "##sted": 3107,
      "##lene": 3108,
      "meget": 3109,
      "##ensen": 3110,
      "##sø": 3111,
      "bas": 3112,
      "##heim": 3113,
      "##int": 3114,
      "##dan": 3115,
      "veldig": 3116,
      "##ore": 3117,
      "##fj": 3118,
      "fø": 3119,
      "stand": 3120,
      "ko": 3121,
      "aktiv": 3122,
      "tak": 3123,
      "euro": 3124,
      "193": 3125,
      "gitt": 3126,
      "kjøp": 3127,
      "ob": 3128,
      "##revet": 3129,
      "##fol": 3130,
      "holdt": 3131,
      "menn": 3132,
      "utvikling": 3133,
      "spur": 3134,
      "##øren": 3135,
      "krig": 3136,
      "interes": 3137,
      "jun": 3138,
      "situ": 3139,
      "##pa": 3140,
      "neste": 3141,
      "post": 3142,
      "till": 3143,
      "do": 3144,
      "##iste": 3145,
      "##ikket": 3146,
      "livet": 3147,
      "##yttet": 3148,
      "##ffer": 3149,
      "##komm": 3150,
      "samarbeid": 3151,
      "skjer": 3152,
      "##ment": 3153,
      "kunn": 3154,
      "##spro": 3155,
      "##jef": 3156,
      "ven": 3157,
      "bid": 3158,
      "leder": 3159,
      "forslag": 3160,
      "løs": 3161,
      "##utter": 3162,
      "krav": 3163,
      "behov": 3164,
      "regjer": 3165,
      "pris": 3166,
      "bjør": 3167,
      "sty": 3168,
      "bud": 3169,
      "##til": 3170,
      "##tet": 3171,
      "##pper": 3172,
      "prosjekt": 3173,
      "##verk": 3174,
      "amer": 3175,
      "dra": 3176,
      "##ument": 3177,
      "##grunn": 3178,
      "rel": 3179,
      "##dene": 3180,
      "forel": 3181,
      "##uts": 3182,
      "##aten": 3183,
      "finnes": 3184,
      "sentr": 3185,
      "##sto": 3186,
      "##ører": 3187,
      "mån": 3188,
      "uttry": 3189,
      "with": 3190,
      "repres": 3191,
      "##uten": 3192,
      "##egn": 3193,
      "bel": 3194,
      "##onym": 3195,
      "##ålet": 3196,
      "##amp": 3197,
      "dagen": 3198,
      "våre": 3199,
      "##urs": 3200,
      "hu": 3201,
      "kontr": 3202,
      "##ford": 3203,
      "##uss": 3204,
      "##ay": 3205,
      "sommer": 3206,
      "forstå": 3207,
      "hvorfor": 3208,
      "##ember": 3209,
      "då": 3210,
      "##ager": 3211,
      "effe": 3212,
      "dyr": 3213,
      "årene": 3214,
      "bruker": 3215,
      "##rim": 3216,
      "sand": 3217,
      "ram": 3218,
      "priv": 3219,
      "##ften": 3220,
      "kunst": 3221,
      "##ball": 3222,
      "##stra": 3223,
      "pos": 3224,
      "26": 3225,
      "##sam": 3226,
      "##rukt": 3227,
      "landet": 3228,
      "sikker": 3229,
      "##va": 3230,
      "start": 3231,
      "anonym": 3232,
      "altså": 3233,
      "27": 3234,
      "arbeids": 3235,
      "begynte": 3236,
      "forkl": 3237,
      "helse": 3238,
      "hånd": 3239,
      "ag": 3240,
      "kost": 3241,
      "##ksomhet": 3242,
      "##drag": 3243,
      "##elses": 3244,
      "bruke": 3245,
      "##ytte": 3246,
      "28": 3247,
      "lenger": 3248,
      "dess": 3249,
      "not": 3250,
      "paa": 3251,
      "##ht": 3252,
      "fjer": 3253,
      "lille": 3254,
      "virkelig": 3255,
      "sver": 3256,
      "kontakt": 3257,
      "##ivå": 3258,
      "rekke": 3259,
      "forl": 3260,
      "##ule": 3261,
      "klo": 3262,
      "fød": 3263,
      "that": 3264,
      "##ete": 3265,
      "direkte": 3266,
      "holde": 3267,
      "##nr": 3268,
      "##olle": 3269,
      "dok": 3270,
      "kommet": 3271,
      "system": 3272,
      "vei": 3273,
      "fer": 3274,
      "##isering": 3275,
      "gjerne": 3276,
      "##ykk": 3277,
      "foret": 3278,
      "mel": 3279,
      "01": 3280,
      "##ator": 3281,
      "fordel": 3282,
      "synes": 3283,
      "##ilte": 3284,
      "na": 3285,
      "##one": 3286,
      "##uer": 3287,
      "saken": 3288,
      "domain": 3289,
      "tiltak": 3290,
      "##mene": 3291,
      "##orten": 3292,
      "hvem": 3293,
      "fleste": 3294,
      "øye": 3295,
      "vanlig": 3296,
      "##oven": 3297,
      "192": 3298,
      "elev": 3299,
      "anonymous": 3300,
      "##asi": 3301,
      "tekn": 3302,
      "felles": 3303,
      "sann": 3304,
      "##ttet": 3305,
      "forn": 3306,
      "##iss": 3307,
      "##iktet": 3308,
      "visste": 3309,
      "fo": 3310,
      "mør": 3311,
      "##vil": 3312,
      "ledd": 3313,
      "dermed": 3314,
      "eneste": 3315,
      "##oden": 3316,
      "ganger": 3317,
      "rad": 3318,
      "ungdom": 3319,
      "fall": 3320,
      "rik": 3321,
      "##fr": 3322,
      "føre": 3323,
      "##unnet": 3324,
      "##tekt": 3325,
      "##fon": 3326,
      "stille": 3327,
      "fortsatt": 3328,
      "lagt": 3329,
      "##endom": 3330,
      "tal": 3331,
      "##ått": 3332,
      "drift": 3333,
      "##igheten": 3334,
      "oppf": 3335,
      "prof": 3336,
      "foran": 3337,
      "kvinn": 3338,
      "program": 3339,
      "dår": 3340,
      "##ba": 3341,
      "mitt": 3342,
      "##ction": 3343,
      "##akter": 3344,
      "forbin": 3345,
      "nødvendig": 3346,
      "##ustri": 3347,
      "29": 3348,
      "##syk": 3349,
      "akk": 3350,
      "##eleg": 3351,
      "##isert": 3352,
      "##vert": 3353,
      "lin": 3354,
      "nasjon": 3355,
      "hverandre": 3356,
      "191": 3357,
      "##året": 3358,
      "juni": 3359,
      "tot": 3360,
      "bolig": 3361,
      "leng": 3362,
      "##anen": 3363,
      "mon": 3364,
      "##ansk": 3365,
      "##ningene": 3366,
      "gro": 3367,
      "imp": 3368,
      "send": 3369,
      "ing": 3370,
      "utenfor": 3371,
      "klart": 3372,
      "mannen": 3373,
      "event": 3374,
      "##uder": 3375,
      "##mere": 3376,
      "spe": 3377,
      "vind": 3378,
      "##dde": 3379,
      "møte": 3380,
      "kvinner": 3381,
      "##lagt": 3382,
      "rø": 3383,
      "gått": 3384,
      "##spe": 3385,
      "##rasjon": 3386,
      "forsø": 3387,
      "##gift": 3388,
      "sal": 3389,
      "##sikt": 3390,
      "##tre": 3391,
      "##ening": 3392,
      "kons": 3393,
      "tun": 3394,
      "##aker": 3395,
      "stre": 3396,
      "sta": 3397,
      "vo": 3398,
      "lev": 3399,
      "##ssk": 3400,
      "dager": 3401,
      "##urr": 3402,
      "unge": 3403,
      "um": 3404,
      "univer": 3405,
      "skr": 3406,
      "set": 3407,
      "sagt": 3408,
      "øst": 3409,
      "mater": 3410,
      "sch": 3411,
      "enda": 3412,
      "val": 3413,
      "##ærer": 3414,
      "minst": 3415,
      "##udd": 3416,
      "##yst": 3417,
      "oppg": 3418,
      "##lighet": 3419,
      "##iene": 3420,
      "##man": 3421,
      "navn": 3422,
      "kil": 3423,
      "##ev": 3424,
      "ves": 3425,
      "##ppet": 3426,
      "morgen": 3427,
      "ful": 3428,
      "##råk": 3429,
      "enkelt": 3430,
      "##vor": 3431,
      "kong": 3432,
      "##dt": 3433,
      "stein": 3434,
      "##byg": 3435,
      "bek": 3436,
      "va": 3437,
      "##fall": 3438,
      "kveld": 3439,
      "svarte": 3440,
      "car": 3441,
      "disk": 3442,
      "spurte": 3443,
      "fylke": 3444,
      "miljø": 3445,
      "hodet": 3446,
      "100": 3447,
      "sette": 3448,
      "prø": 3449,
      "kjent": 3450,
      "kat": 3451,
      "syk": 3452,
      "##ommet": 3453,
      "informasjon": 3454,
      "##ike": 3455,
      "nem": 3456,
      "feil": 3457,
      "jer": 3458,
      "fjell": 3459,
      "tab": 3460,
      "finner": 3461,
      "31": 3462,
      "amerik": 3463,
      "##........": 3464,
      "##elsene": 3465,
      "berg": 3466,
      "bestemm": 3467,
      "forskjellige": 3468,
      "##ats": 3469,
      "følge": 3470,
      "omf": 3471,
      "##agen": 3472,
      "##ves": 3473,
      "##grupp": 3474,
      "##mar": 3475,
      "##går": 3476,
      "fal": 3477,
      "forteller": 3478,
      "forsvar": 3479,
      "tør": 3480,
      "##urat": 3481,
      "##ure": 3482,
      "ska": 3483,
      "##tatt": 3484,
      "ander": 3485,
      "peri": 3486,
      "tap": 3487,
      "instit": 3488,
      "pra": 3489,
      "christ": 3490,
      "univers": 3491,
      "norges": 3492,
      "ring": 3493,
      "##fører": 3494,
      "##på": 3495,
      "hjemme": 3496,
      "##anser": 3497,
      "venn": 3498,
      "ganske": 3499,
      "##kene": 3500,
      "##iale": 3501,
      "##ellen": 3502,
      "pass": 3503,
      "arbeider": 3504,
      "brukt": 3505,
      "rapp": 3506,
      "##ader": 3507,
      "tred": 3508,
      "##nal": 3509,
      "##hav": 3510,
      "dre": 3511,
      "##oret": 3512,
      "##sta": 3513,
      "dram": 3514,
      "året": 3515,
      "sve": 3516,
      "##ium": 3517,
      "##sst": 3518,
      "spesielt": 3519,
      "##enten": 3520,
      "trenger": 3521,
      "##qu": 3522,
      "største": 3523,
      "##rum": 3524,
      "riktig": 3525,
      "gutt": 3526,
      "##fatter": 3527,
      "prøv": 3528,
      "##ote": 3529,
      "midt": 3530,
      "##bil": 3531,
      "seks": 3532,
      "folke": 3533,
      "skog": 3534,
      "stedet": 3535,
      "mine": 3536,
      "pub": 3537,
      "##ølv": 3538,
      "##erte": 3539,
      "kli": 3540,
      "omk": 3541,
      "aug": 3542,
      "erfar": 3543,
      "én": 3544,
      "##nem": 3545,
      "mai": 3546,
      "aks": 3547,
      "##øt": 3548,
      "##ital": 3549,
      "bord": 3550,
      "ener": 3551,
      "##følge": 3552,
      "lys": 3553,
      "ann": 3554,
      "kunnskap": 3555,
      "fores": 3556,
      "##rang": 3557,
      "tenkte": 3558,
      "02": 3559,
      "new": 3560,
      "##ansp": 3561,
      "##urt": 3562,
      "marked": 3563,
      "meld": 3564,
      "##aks": 3565,
      "anal": 3566,
      "##ynene": 3567,
      "skip": 3568,
      "##æring": 3569,
      "##stend": 3570,
      "tallet": 3571,
      "avsl": 3572,
      "gjer": 3573,
      "##len": 3574,
      "byen": 3575,
      "lokal": 3576,
      "##entene": 3577,
      "opplev": 3578,
      "akkurat": 3579,
      "begr": 3580,
      "jon": 3581,
      "lære": 3582,
      "##uelle": 3583,
      "##lert": 3584,
      "##øst": 3585,
      "bod": 3586,
      "ur": 3587,
      "ed": 3588,
      "08": 3589,
      "09": 3590,
      "området": 3591,
      "john": 3592,
      "kommunen": 3593,
      "##områ": 3594,
      "snart": 3595,
      "##inget": 3596,
      "utgang": 3597,
      "##ng": 3598,
      "but": 3599,
      "represent": 3600,
      "##fra": 3601,
      "efter": 3602,
      "sov": 3603,
      "skjed": 3604,
      "ris": 3605,
      "##linger": 3606,
      "##aren": 3607,
      "kjør": 3608,
      "##anter": 3609,
      "##ummer": 3610,
      "sub": 3611,
      "behand": 3612,
      "##ase": 3613,
      "veien": 3614,
      "løpet": 3615,
      "verdens": 3616,
      "alvor": 3617,
      "selskap": 3618,
      "støtte": 3619,
      "gjeld": 3620,
      "mand": 3621,
      "mart": 3622,
      "##annen": 3623,
      "laget": 3624,
      "60": 3625,
      "##ative": 3626,
      "vårt": 3627,
      "skje": 3628,
      "tele": 3629,
      "##ritt": 3630,
      "betydning": 3631,
      "skjøn": 3632,
      "oper": 3633,
      "##ta": 3634,
      "##eland": 3635,
      "##stein": 3636,
      "fest": 3637,
      "##iker": 3638,
      "bro": 3639,
      "pasi": 3640,
      "##bud": 3641,
      "kol": 3642,
      "##beide": 3643,
      "##føring": 3644,
      "ekte": 3645,
      "##oen": 3646,
      "kjente": 3647,
      "##ju": 3648,
      "bedrift": 3649,
      "kontroll": 3650,
      "##råd": 3651,
      "##snitt": 3652,
      "##bu": 3653,
      "##iktige": 3654,
      "##ikkert": 3655,
      "##atene": 3656,
      "etab": 3657,
      "forbindelse": 3658,
      "eiendom": 3659,
      "luft": 3660,
      "bergen": 3661,
      "utvalg": 3662,
      "nærmere": 3663,
      "gul": 3664,
      "utg": 3665,
      "legge": 3666,
      "psyk": 3667,
      "tysk": 3668,
      "egne": 3669,
      "##ivet": 3670,
      "seier": 3671,
      "##bruk": 3672,
      "##huset": 3673,
      "##disjon": 3674,
      "hensyn": 3675,
      "personer": 3676,
      "##vid": 3677,
      "punkt": 3678,
      "aut": 3679,
      "##kje": 3680,
      "huset": 3681,
      "opplys": 3682,
      "##står": 3683,
      "):": 3684,
      "##ice": 3685,
      "##fin": 3686,
      "ren": 3687,
      "musikk": 3688,
      "##satte": 3689,
      "grunnlag": 3690,
      "##deling": 3691,
      "##lik": 3692,
      "produksjon": 3693,
      "moder": 3694,
      "sterk": 3695,
      "lav": 3696,
      "komp": 3697,
      "sosial": 3698,
      "nil": 3699,
      "nu": 3700,
      "##oren": 3701,
      "##oler": 3702,
      "##deles": 3703,
      "time": 3704,
      "##rige": 3705,
      "##ifter": 3706,
      "skolen": 3707,
      "##sette": 3708,
      "##sland": 3709,
      "##ykt": 3710,
      "dam": 3711,
      "##of": 3712,
      "hend": 3713,
      "øynene": 3714,
      "bi": 3715,
      "kirke": 3716,
      "hev": 3717,
      "forklar": 3718,
      "##,,,": 3719,
      "alder": 3720,
      "tyd": 3721,
      "undersøk": 3722,
      "app": 3723,
      "##kka": 3724,
      "innenfor": 3725,
      "##ograf": 3726,
      "betyr": 3727,
      "##entlige": 3728,
      "##valg": 3729,
      "funksjon": 3730,
      "posit": 3731,
      "dokument": 3732,
      "##vere": 3733,
      "stadig": 3734,
      "elekt": 3735,
      "##kra": 3736,
      "##ons": 3737,
      "##ham": 3738,
      "høre": 3739,
      "hy": 3740,
      "norm": 3741,
      "##rifter": 3742,
      "ap": 3743,
      "##holder": 3744,
      "##adet": 3745,
      "strøm": 3746,
      "politiet": 3747,
      "##uar": 3748,
      "33": 3749,
      "##dig": 3750,
      "sid": 3751,
      "##vin": 3752,
      "beveg": 3753,
      "07": 3754,
      "erik": 3755,
      "190": 3756,
      "##dus": 3757,
      "vinter": 3758,
      "##cc": 3759,
      "millioner": 3760,
      "deler": 3761,
      "antall": 3762,
      "hjer": 3763,
      "##unt": 3764,
      "redus": 3765,
      "ir": 3766,
      "bygge": 3767,
      "region": 3768,
      "##orter": 3769,
      "32": 3770,
      "brukes": 3771,
      "vold": 3772,
      "vekt": 3773,
      "ifølge": 3774,
      "dro": 3775,
      "figur": 3776,
      "##enser": 3777,
      "lør": 3778,
      "eget": 3779,
      "##fjord": 3780,
      "ak": 3781,
      "sjø": 3782,
      "ras": 3783,
      "mott": 3784,
      "##sert": 3785,
      "barna": 3786,
      "tall": 3787,
      "##vern": 3788,
      "aktivitet": 3789,
      "sli": 3790,
      "mist": 3791,
      "eldre": 3792,
      "forut": 3793,
      "##minist": 3794,
      "##hl": 3795,
      "rask": 3796,
      "konkurr": 3797,
      "vise": 3798,
      "we": 3799,
      "trond": 3800,
      "##ori": 3801,
      "salg": 3802,
      "hvilke": 3803,
      "mis": 3804,
      "fi": 3805,
      "##lemer": 3806,
      "burde": 3807,
      "ph": 3808,
      "industri": 3809,
      "##essig": 3810,
      "bø": 3811,
      "##aksjon": 3812,
      "barnet": 3813,
      "##ledes": 3814,
      "##ikke": 3815,
      "døde": 3816,
      "internasjon": 3817,
      "##usen": 3818,
      ",.": 3819,
      "følgende": 3820,
      "langs": 3821,
      "tenke": 3822,
      "snakke": 3823,
      "lønn": 3824,
      "overfor": 3825,
      "nt": 3826,
      "press": 3827,
      "mars": 3828,
      "prakt": 3829,
      "ban": 3830,
      "##bok": 3831,
      "##ved": 3832,
      "real": 3833,
      "ellers": 3834,
      "##følg": 3835,
      "ide": 3836,
      "skriver": 3837,
      "##somt": 3838,
      "##nden": 3839,
      "hjelpe": 3840,
      "##blikk": 3841,
      "skyld": 3842,
      "##giv": 3843,
      "ski": 3844,
      "blå": 3845,
      "næring": 3846,
      "##sjett": 3847,
      "##agn": 3848,
      "dårlig": 3849,
      "kast": 3850,
      "eier": 3851,
      "konst": 3852,
      "this": 3853,
      "##landet": 3854,
      "##ress": 3855,
      "rus": 3856,
      "ole": 3857,
      "##ork": 3858,
      "usa": 3859,
      "fyr": 3860,
      "grå": 3861,
      "rød": 3862,
      "vit": 3863,
      "rette": 3864,
      ",-": 3865,
      "##mid": 3866,
      "bevis": 3867,
      "##organ": 3868,
      "pol": 3869,
      "utdan": 3870,
      "was": 3871,
      "behandling": 3872,
      "189": 3873,
      "sport": 3874,
      "foresl": 3875,
      "##ers": 3876,
      "from": 3877,
      "oppr": 3878,
      "gammel": 3879,
      "##ffet": 3880,
      "##uelt": 3881,
      "##kel": 3882,
      "søk": 3883,
      "kjær": 3884,
      "ud": 3885,
      "hvilken": 3886,
      "90": 3887,
      "##menn": 3888,
      "sky": 3889,
      "uttrykk": 3890,
      "tol": 3891,
      "ferdig": 3892,
      "##folk": 3893,
      "##ogen": 3894,
      "sjå": 3895,
      "##øse": 3896,
      "prins": 3897,
      "kamp": 3898,
      "alter": 3899,
      "##ingene": 3900,
      "vert": 3901,
      "apr": 3902,
      "nov": 3903,
      "##ses": 3904,
      "vok": 3905,
      "slags": 3906,
      "vite": 3907,
      "go": 3908,
      "regn": 3909,
      "dessuten": 3910,
      "måten": 3911,
      "funnet": 3912,
      "##ata": 3913,
      "70": 3914,
      "eksp": 3915,
      "høyre": 3916,
      "##ologi": 3917,
      "naturlig": 3918,
      "søndag": 3919,
      "glad": 3920,
      "stod": 3921,
      "##lf": 3922,
      "ii": 3923,
      "mynd": 3924,
      "##kast": 3925,
      "vari": 3926,
      "##20": 3927,
      "legger": 3928,
      "meter": 3929,
      "kjenner": 3930,
      "##ittel": 3931,
      "handel": 3932,
      "rev": 3933,
      "fotball": 3934,
      "fart": 3935,
      "gje": 3936,
      "ru": 3937,
      "anna": 3938,
      "avgjør": 3939,
      "borte": 3940,
      "juli": 3941,
      "tryg": 3942,
      "spiller": 3943,
      "##ogn": 3944,
      "gift": 3945,
      "jes": 3946,
      "tilsvar": 3947,
      "##anten": 3948,
      "tradisjon": 3949,
      "##sson": 3950,
      "##ksis": 3951,
      "født": 3952,
      "oppl": 3953,
      "penger": 3954,
      "hum": 3955,
      "spørsmålet": 3956,
      "reise": 3957,
      "egentlig": 3958,
      "krit": 3959,
      "august": 3960,
      "ark": 3961,
      "kva": 3962,
      "##ighetene": 3963,
      "imot": 3964,
      "fir": 3965,
      "##iz": 3966,
      "makt": 3967,
      "sikkert": 3968,
      "venstre": 3969,
      "inntekt": 3970,
      "fiske": 3971,
      "regi": 3972,
      "##ple": 3973,
      "bon": 3974,
      "##hør": 3975,
      "omkring": 3976,
      "##gte": 3977,
      "viste": 3978,
      "sle": 3979,
      "##orn": 3980,
      "mal": 3981,
      "familien": 3982,
      "lørdag": 3983,
      "80": 3984,
      "lærer": 3985,
      "him": 3986,
      "lange": 3987,
      "##aget": 3988,
      "januar": 3989,
      "hørte": 3990,
      "hot": 3991,
      "nøy": 3992,
      "ass": 3993,
      "04": 3994,
      "trom": 3995,
      "voks": 3996,
      "bib": 3997,
      "tredje": 3998,
      "bygg": 3999,
      "transp": 4000,
      "menneske": 4001,
      "##atning": 4002,
      "##istrikt": 4003,
      "##meld": 4004,
      "##isere": 4005,
      "##skj": 4006,
      "##skin": 4007,
      "##we": 4008,
      "au": 4009,
      "##ellet": 4010,
      "ses": 4011,
      "bre": 4012,
      "grat": 4013,
      "sek": 4014,
      "utgangspunkt": 4015,
      "##sut": 4016,
      "##visning": 4017,
      "familie": 4018,
      "faktisk": 4019,
      "ni": 4020,
      "##kar": 4021,
      "bestemt": 4022,
      "##arbeidet": 4023,
      ".\"\"\"": 4024,
      "april": 4025,
      "cl": 4026,
      "##hed": 4027,
      "retning": 4028,
      "alene": 4029,
      "departementet": 4030,
      "##vå": 4031,
      "##erer": 4032,
      "administ": 4033,
      "##stid": 4034,
      "slo": 4035,
      "tek": 4036,
      "finans": 4037,
      "års": 4038,
      "\"\"\"\".": 4039,
      "##enne": 4040,
      "bakgrunn": 4041,
      "##mon": 4042,
      "bjørn": 4043,
      "##departementet": 4044,
      "kvinne": 4045,
      "nettopp": 4046,
      "##punkt": 4047,
      "fore": 4048,
      "##atisk": 4049,
      "34": 4050,
      "##onom": 4051,
      "##ivil": 4052,
      "2018": 4053,
      "skatt": 4054,
      "tydelig": 4055,
      "##ach": 4056,
      "pap": 4057,
      "##ose": 4058,
      "yr": 4059,
      "regel": 4060,
      "skrive": 4061,
      "2016": 4062,
      "sterkt": 4063,
      "##skudd": 4064,
      "##ruktur": 4065,
      "takk": 4066,
      "##æl": 4067,
      "utford": 4068,
      "okt": 4069,
      "pri": 4070,
      "deretter": 4071,
      "##ding": 4072,
      "folket": 4073,
      "188": 4074,
      "knyttet": 4075,
      "stilling": 4076,
      "##unde": 4077,
      "tlf": 4078,
      "holder": 4079,
      "##mens": 4080,
      "hem": 4081,
      "konse": 4082,
      "##ions": 4083,
      "dig": 4084,
      "anne": 4085,
      "bred": 4086,
      "teg": 4087,
      "plasser": 4088,
      "rør": 4089,
      "elektr": 4090,
      "tilbud": 4091,
      "##van": 4092,
      "ekstra": 4093,
      "helst": 4094,
      "slå": 4095,
      "jobb": 4096,
      "##orer": 4097,
      "høg": 4098,
      "ry": 4099,
      "##app": 4100,
      "##holde": 4101,
      "lot": 4102,
      "##ors": 4103,
      "rek": 4104,
      "have": 4105,
      "36": 4106,
      "stol": 4107,
      "stav": 4108,
      "fre": 4109,
      "kart": 4110,
      "##enting": 4111,
      "anlegg": 4112,
      "pot": 4113,
      "slikt": 4114,
      "sep": 4115,
      "##nn": 4116,
      "fatt": 4117,
      "telefon": 4118,
      "vik": 4119,
      "privat": 4120,
      "kvalitet": 4121,
      "åpen": 4122,
      "brann": 4123,
      "fru": 4124,
      "sverige": 4125,
      "data": 4126,
      "-.": 4127,
      "timer": 4128,
      "##ph": 4129,
      "hånden": 4130,
      "##kkes": 4131,
      "##une": 4132,
      "engel": 4133,
      "##undet": 4134,
      "##ska": 4135,
      "blod": 4136,
      "sat": 4137,
      "peder": 4138,
      "stopp": 4139,
      "mig": 4140,
      "##setning": 4141,
      "tvil": 4142,
      "noko": 4143,
      "##verket": 4144,
      "fro": 4145,
      "treng": 4146,
      "##ical": 4147,
      "kostnad": 4148,
      "##isjonen": 4149,
      "fekk": 4150,
      "##istisk": 4151,
      "##repet": 4152,
      "dagens": 4153,
      "ansatte": 4154,
      "##fly": 4155,
      "brev": 4156,
      "##lege": 4157,
      "ytter": 4158,
      "traf": 4159,
      "universitet": 4160,
      "##ung": 4161,
      "##veien": 4162,
      "ref": 4163,
      "kompet": 4164,
      "qu": 4165,
      "fys": 4166,
      "##nev": 4167,
      "sku": 4168,
      "pluts": 4169,
      "##øte": 4170,
      "##ink": 4171,
      "##asje": 4172,
      "##ativt": 4173,
      "##mt": 4174,
      "tj": 4175,
      "saa": 4176,
      "ønsket": 4177,
      "tett": 4178,
      "##itte": 4179,
      "ennå": 4180,
      "johan": 4181,
      "lyst": 4182,
      "blom": 4183,
      "##esk": 4184,
      "offentlig": 4185,
      "bereg": 4186,
      "eig": 4187,
      "##yss": 4188,
      "186": 4189,
      "oms": 4190,
      "snakket": 4191,
      "altern": 4192,
      "lokale": 4193,
      "gull": 4194,
      "forh": 4195,
      "##ømme": 4196,
      "samlet": 4197,
      "##ktet": 4198,
      "star": 4199,
      "187": 4200,
      "sjel": 4201,
      "opprett": 4202,
      "lars": 4203,
      "høyere": 4204,
      "##rom": 4205,
      "jern": 4206,
      "uts": 4207,
      "sikkerhet": 4208,
      "##kkel": 4209,
      "besl": 4210,
      "indiv": 4211,
      "##oc": 4212,
      "##bin": 4213,
      "##\"\"\"\"": 4214,
      "språk": 4215,
      "##kår": 4216,
      "ton": 4217,
      "stund": 4218,
      "##inst": 4219,
      "##sbe": 4220,
      "praksis": 4221,
      "plutselig": 4222,
      "ansiktet": 4223,
      "##ås": 4224,
      "deb": 4225,
      "nyheter": 4226,
      "!.": 4227,
      "gangen": 4228,
      "tyn": 4229,
      "2017": 4230,
      "neg": 4231,
      "yo": 4232,
      "minutter": 4233,
      "historie": 4234,
      "##ese": 4235,
      "37": 4236,
      "virksomhet": 4237,
      "fredag": 4238,
      "høyt": 4239,
      "alm": 4240,
      "økt": 4241,
      "fører": 4242,
      "##hengig": 4243,
      "##lin": 4244,
      "pensjon": 4245,
      "##ps": 4246,
      "##bart": 4247,
      "karakter": 4248,
      "##obb": 4249,
      "pat": 4250,
      "skriv": 4251,
      "berre": 4252,
      "2015": 4253,
      "olav": 4254,
      "##entar": 4255,
      "tilfelle": 4256,
      "ke": 4257,
      "satte": 4258,
      "##sty": 4259,
      "lyd": 4260,
      "munn": 4261,
      "##ko": 4262,
      "øyeblikk": 4263,
      "bal": 4264,
      "barneh": 4265,
      "##kkelig": 4266,
      "sammenheng": 4267,
      "odd": 4268,
      "forsv": 4269,
      "##ban": 4270,
      "grøn": 4271,
      "problemer": 4272,
      "ress": 4273,
      "vist": 4274,
      "inntil": 4275,
      "jf": 4276,
      "knut": 4277,
      "##alet": 4278,
      "fang": 4279,
      "leve": 4280,
      "septem": 4281,
      "same": 4282,
      "##engt": 4283,
      "verdi": 4284,
      "følger": 4285,
      "topp": 4286,
      "interv": 4287,
      "september": 4288,
      "##sken": 4289,
      "##ac": 4290,
      "tross": 4291,
      "fremdeles": 4292,
      "##kont": 4293,
      "##pos": 4294,
      "inns": 4295,
      "##gangen": 4296,
      "film": 4297,
      "nærme": 4298,
      "##nte": 4299,
      "##ah": 4300,
      "##mod": 4301,
      "foreg": 4302,
      "økonomiske": 4303,
      "38": 4304,
      "faren": 4305,
      "##isme": 4306,
      "medlemmer": 4307,
      "kvar": 4308,
      "##ømmer": 4309,
      "##okk": 4310,
      "##rike": 4311,
      "påvir": 4312,
      "prøve": 4313,
      "meir": 4314,
      "ingenting": 4315,
      "vare": 4316,
      "mi": 4317,
      "ditt": 4318,
      "prest": 4319,
      "utl": 4320,
      "klare": 4321,
      "sannsyn": 4322,
      "bidra": 4323,
      "skar": 4324,
      "ola": 4325,
      "fjor": 4326,
      "johann": 4327,
      "och": 4328,
      "##au": 4329,
      "##giver": 4330,
      "gis": 4331,
      "##ifte": 4332,
      "bef": 4333,
      "sist": 4334,
      "vore": 4335,
      "regjeringen": 4336,
      "mill": 4337,
      "skol": 4338,
      "årsak": 4339,
      "pop": 4340,
      "nevnt": 4341,
      "##ppa": 4342,
      "##entr": 4343,
      "##dres": 4344,
      "##kommende": 4345,
      "bilen": 4346,
      "can": 4347,
      "gu": 4348,
      "stortinget": 4349,
      "##ober": 4350,
      "##eden": 4351,
      "ntb": 4352,
      "mu": 4353,
      "stab": 4354,
      "##vok": 4355,
      "hit": 4356,
      "##iserte": 4357,
      "merke": 4358,
      "##iteen": 4359,
      "nivå": 4360,
      "##kjent": 4361,
      "son": 4362,
      "41": 4363,
      "##føres": 4364,
      "ventet": 4365,
      "##tok": 4366,
      "##anlegg": 4367,
      "virke": 4368,
      "##melig": 4369,
      "sikre": 4370,
      "##deren": 4371,
      "##ulle": 4372,
      "##als": 4373,
      "vedtak": 4374,
      "nemlig": 4375,
      "##ars": 4376,
      "ot": 4377,
      "hil": 4378,
      "##aldt": 4379,
      "oppdag": 4380,
      "##borg": 4381,
      "omt": 4382,
      "##mes": 4383,
      "##rateg": 4384,
      "##edag": 4385,
      "steder": 4386,
      "##ollen": 4387,
      "sende": 4388,
      "vere": 4389,
      "statens": 4390,
      "uke": 4391,
      "fortelle": 4392,
      "kroppen": 4393,
      "erst": 4394,
      "km": 4395,
      "##ime": 4396,
      "selve": 4397,
      "desember": 4398,
      "kur": 4399,
      "##inister": 4400,
      "kristian": 4401,
      "##fold": 4402,
      "500": 4403,
      "39": 4404,
      "##ånd": 4405,
      "##dem": 4406,
      "##eltet": 4407,
      "##ering": 4408,
      "idrett": 4409,
      "##dra": 4410,
      "##ida": 4411,
      "endring": 4412,
      "##ivt": 4413,
      "##fte": 4414,
      "produs": 4415,
      "reiste": 4416,
      "75": 4417,
      "##itu": 4418,
      "ident": 4419,
      "##sg": 4420,
      "##ign": 4421,
      "nø": 4422,
      "##okus": 4423,
      "##yggen": 4424,
      "sentral": 4425,
      "##po": 4426,
      "høye": 4427,
      "##lende": 4428,
      "konsekv": 4429,
      "kapittel": 4430,
      "##annet": 4431,
      "##rende": 4432,
      "##forsk": 4433,
      "glem": 4434,
      "enten": 4435,
      "skyl": 4436,
      "kunde": 4437,
      "forskning": 4438,
      "##che": 4439,
      "straff": 4440,
      "bry": 4441,
      "transport": 4442,
      "utstyr": 4443,
      "andel": 4444,
      "##full": 4445,
      "blev": 4446,
      "##lever": 4447,
      "forbru": 4448,
      "relig": 4449,
      "185": 4450,
      "jour": 4451,
      "##ipp": 4452,
      "mente": 4453,
      "##ikasjon": 4454,
      "##eth": 4455,
      "mam": 4456,
      "døren": 4457,
      "##ktør": 4458,
      "politiske": 4459,
      "lese": 4460,
      "##uttet": 4461,
      "##rit": 4462,
      "##hver": 4463,
      "sil": 4464,
      "##ias": 4465,
      "frank": 4466,
      "foreldre": 4467,
      "møter": 4468,
      "##enta": 4469,
      "viktigste": 4470,
      "##gjøre": 4471,
      "wil": 4472,
      "general": 4473,
      "##imot": 4474,
      "risik": 4475,
      "reguler": 4476,
      "varme": 4477,
      "kjære": 4478,
      "følte": 4479,
      "##ations": 4480,
      "datter": 4481,
      "##kluder": 4482,
      "oktober": 4483,
      "2000": 4484,
      "##stendig": 4485,
      "setter": 4486,
      "klub": 4487,
      "##skaper": 4488,
      "##isten": 4489,
      "sju": 4490,
      "offentlige": 4491,
      "spesial": 4492,
      "febru": 4493,
      "trå": 4494,
      "oppe": 4495,
      "gen": 4496,
      "selskapet": 4497,
      "åpnet": 4498,
      "februar": 4499,
      "##kan": 4500,
      "je": 4501,
      "prosjektet": 4502,
      "torsdag": 4503,
      "bnr": 4504,
      "innhold": 4505,
      "saman": 4506,
      "midler": 4507,
      "arrang": 4508,
      "##king": 4509,
      "spille": 4510,
      "avis": 4511,
      "️‍": 4512,
      "##bord": 4513,
      "visst": 4514,
      "##co": 4515,
      "42": 4516,
      "individ": 4517,
      "sykdom": 4518,
      "sjølv": 4519,
      "oppn": 4520,
      "distrikt": 4521,
      "##fil": 4522,
      "viktige": 4523,
      "##angen": 4524,
      "heter": 4525,
      "bill": 4526,
      "smil": 4527,
      "middel": 4528,
      "##ansett": 4529,
      "##verd": 4530,
      "kongen": 4531,
      "europa": 4532,
      "gav": 4533,
      "foreld": 4534,
      "##ww": 4535,
      "vak": 4536,
      "interesse": 4537,
      "##iljø": 4538,
      "rolle": 4539,
      "tilsvarende": 4540,
      "tå": 4541,
      "##ikter": 4542,
      "##uft": 4543,
      "november": 4544,
      "##serv": 4545,
      "##ringen": 4546,
      "##rav": 4547,
      "elevene": 4548,
      "sitter": 4549,
      "viss": 4550,
      "regler": 4551,
      "mob": 4552,
      "##pass": 4553,
      "lage": 4554,
      "klass": 4555,
      "48": 4556,
      "##ris": 4557,
      "endelig": 4558,
      "##bruks": 4559,
      "ford": 4560,
      "##ongen": 4561,
      "##leis": 4562,
      "##ikkel": 4563,
      "sant": 4564,
      "fullt": 4565,
      "##trykk": 4566,
      "##øyd": 4567,
      "navnet": 4568,
      "ju": 4569,
      "##ius": 4570,
      "begrens": 4571,
      "trondheim": 4572,
      "analy": 4573,
      "nam": 4574,
      "ivar": 4575,
      "slett": 4576,
      "##ance": 4577,
      "røy": 4578,
      "##standen": 4579,
      "nes": 4580,
      "##attet": 4581,
      "dør": 4582,
      "##kten": 4583,
      "##allen": 4584,
      "##laget": 4585,
      "ep": 4586,
      "bland": 4587,
      "##ish": 4588,
      "hører": 4589,
      "krev": 4590,
      "44": 4591,
      "presid": 4592,
      "olje": 4593,
      "bildet": 4594,
      "##wo": 4595,
      "##aling": 4596,
      "gal": 4597,
      "##gn": 4598,
      "##arar": 4599,
      "øk": 4600,
      "##uter": 4601,
      "oppmer": 4602,
      "prem": 4603,
      "san": 4604,
      "rop": 4605,
      "resten": 4606,
      "organisasjon": 4607,
      "situasjonen": 4608,
      "##utning": 4609,
      "grav": 4610,
      "tekst": 4611,
      "saker": 4612,
      "tir": 4613,
      "##plass": 4614,
      "rob": 4615,
      "sentrum": 4616,
      "bom": 4617,
      "##~~~~": 4618,
      "hundre": 4619,
      "fremst": 4620,
      "besø": 4621,
      "kampen": 4622,
      "olsen": 4623,
      "ør": 4624,
      "håper": 4625,
      "##sagt": 4626,
      "arne": 4627,
      "vant": 4628,
      "sterke": 4629,
      "trakk": 4630,
      "##gjer": 4631,
      "##aken": 4632,
      "www": 4633,
      "milit": 4634,
      "bilde": 4635,
      "##esjon": 4636,
      "sosiale": 4637,
      "cm": 4638,
      "##produ": 4639,
      "fokus": 4640,
      "tabell": 4641,
      "strand": 4642,
      "##sc": 4643,
      "kvel": 4644,
      "##plan": 4645,
      "tenker": 4646,
      "politisk": 4647,
      "martin": 4648,
      "##ho": 4649,
      "##skomm": 4650,
      "preg": 4651,
      "måneder": 4652,
      "has": 4653,
      "##sminister": 4654,
      "##enske": 4655,
      "forskj": 4656,
      "svart": 4657,
      "begynner": 4658,
      "utdanning": 4659,
      "indre": 4660,
      "##itenskap": 4661,
      "områder": 4662,
      "##uld": 4663,
      "46": 4664,
      "inge": 4665,
      "skatte": 4666,
      "trodde": 4667,
      "##olf": 4668,
      "paul": 4669,
      "økonomisk": 4670,
      "venner": 4671,
      "##innet": 4672,
      "kval": 4673,
      "institusjon": 4674,
      "##ents": 4675,
      "test": 4676,
      "bank": 4677,
      "43": 4678,
      "skade": 4679,
      "##rådet": 4680,
      "rommet": 4681,
      "sånn": 4682,
      "sur": 4683,
      "uansett": 4684,
      "sønn": 4685,
      "gli": 4686,
      "ple": 4687,
      "gruppe": 4688,
      "##utte": 4689,
      "dine": 4690,
      "redd": 4691,
      "forret": 4692,
      "haug": 4693,
      "##uen": 4694,
      "##isin": 4695,
      "##atten": 4696,
      "onsdag": 4697,
      "tenkt": 4698,
      "##ån": 4699,
      "guds": 4700,
      "##mo": 4701,
      "2019": 4702,
      "inneb": 4703,
      "budsjett": 4704,
      "##fo": 4705,
      "mening": 4706,
      "hendene": 4707,
      "endringer": 4708,
      "ånd": 4709,
      "stats": 4710,
      "serv": 4711,
      "forest": 4712,
      "##uell": 4713,
      "##way": 4714,
      "vedkommende": 4715,
      "anled": 4716,
      "##bø": 4717,
      "passer": 4718,
      "##orte": 4719,
      "47": 4720,
      "raskt": 4721,
      "kyr": 4722,
      "##bef": 4723,
      "nrk": 4724,
      "##ystem": 4725,
      "##skole": 4726,
      "tale": 4727,
      "##ated": 4728,
      "tri": 4729,
      "##ita": 4730,
      "snø": 4731,
      "uh": 4732,
      "vera": 4733,
      "aust": 4734,
      "skrev": 4735,
      "##bygging": 4736,
      "char": 4737,
      "forand": 4738,
      "##iger": 4739,
      "mr": 4740,
      "journal": 4741,
      "peng": 4742,
      "##polit": 4743,
      "##etten": 4744,
      "område": 4745,
      "bus": 4746,
      "kin": 4747,
      "skape": 4748,
      "##so": 4749,
      "eli": 4750,
      "feng": 4751,
      "##fest": 4752,
      "utover": 4753,
      "yng": 4754,
      "dist": 4755,
      "##iddel": 4756,
      "##istiske": 4757,
      "gard": 4758,
      "staten": 4759,
      "##rimin": 4760,
      "karl": 4761,
      "ill": 4762,
      "retten": 4763,
      "stemme": 4764,
      "##ending": 4765,
      "loven": 4766,
      "jam": 4767,
      "##svis": 4768,
      "nab": 4769,
      "arbeide": 4770,
      "mad": 4771,
      "skjedde": 4772,
      "nasjonal": 4773,
      "dav": 4774,
      "daglig": 4775,
      "##ielle": 4776,
      "poeng": 4777,
      "skrift": 4778,
      "##ologisk": 4779,
      "brukte": 4780,
      "##hen": 4781,
      "salt": 4782,
      "##srett": 4783,
      "energi": 4784,
      "jesus": 4785,
      "besøk": 4786,
      "forvalt": 4787,
      "##tiden": 4788,
      "interess": 4789,
      "fredrik": 4790,
      "avtale": 4791,
      "slutten": 4792,
      "##ift": 4793,
      "hom": 4794,
      "##ational": 4795,
      "nyhet": 4796,
      "##æn": 4797,
      "##gar": 4798,
      "mulighet": 4799,
      "leil": 4800,
      "oppgå": 4801,
      "peter": 4802,
      "##iere": 4803,
      "moderne": 4804,
      "skikk": 4805,
      "litter": 4806,
      "\"\"\"\",": 4807,
      "hopp": 4808,
      "refer": 4809,
      "##gjeng": 4810,
      "##ående": 4811,
      "rim": 4812,
      "##åt": 4813,
      "spr": 4814,
      "##ologiske": 4815,
      "anders": 4816,
      "ønske": 4817,
      "idet": 4818,
      "port": 4819,
      "##sol": 4820,
      "##orden": 4821,
      "##person": 4822,
      "##ukt": 4823,
      "##bare": 4824,
      "tema": 4825,
      "løy": 4826,
      "fug": 4827,
      "forf": 4828,
      "arg": 4829,
      "##essen": 4830,
      "1990": 4831,
      "skrevet": 4832,
      "##ny": 4833,
      "##nende": 4834,
      "situasjon": 4835,
      "fortsatte": 4836,
      "unna": 4837,
      "hau": 4838,
      "##mannen": 4839,
      "184": 4840,
      "søknad": 4841,
      "##iel": 4842,
      "vol": 4843,
      "ner": 4844,
      "desse": 4845,
      "##iven": 4846,
      "##setter": 4847,
      "##its": 4848,
      "meng": 4849,
      "##vs": 4850,
      "51": 4851,
      "##egr": 4852,
      "utr": 4853,
      "##ight": 4854,
      "legg": 4855,
      "vekk": 4856,
      "popul": 4857,
      "kompetanse": 4858,
      "##vikling": 4859,
      "##sav": 4860,
      "stir": 4861,
      "tjeneste": 4862,
      "kjøpe": 4863,
      "##holdt": 4864,
      "mykje": 4865,
      "##edet": 4866,
      "##rid": 4867,
      "##jørn": 4868,
      "sag": 4869,
      "klasse": 4870,
      "ale": 4871,
      "##mål": 4872,
      "enhver": 4873,
      "kg": 4874,
      "kjøkken": 4875,
      "regist": 4876,
      "størr": 4877,
      "##esp": 4878,
      "vurdering": 4879,
      "ført": 4880,
      "##ally": 4881,
      "##aland": 4882,
      "europe": 4883,
      "##stemm": 4884,
      "frykt": 4885,
      "sendt": 4886,
      "utviklingen": 4887,
      "opptatt": 4888,
      "åpne": 4889,
      "##kost": 4890,
      "resultat": 4891,
      "##anc": 4892,
      "##enning": 4893,
      "sex": 4894,
      "overra": 4895,
      "startet": 4896,
      "deltak": 4897,
      "reis": 4898,
      "detal": 4899,
      "motor": 4900,
      "##ii": 4901,
      ".:": 4902,
      "##mb": 4903,
      "inc": 4904,
      "omsorg": 4905,
      "jfr": 4906,
      "iv": 4907,
      "vide": 4908,
      "kvelden": 4909,
      "defin": 4910,
      "strateg": 4911,
      "sannsynlig": 4912,
      "båt": 4913,
      "##øver": 4914,
      "uly": 4915,
      "##asjer": 4916,
      "krigen": 4917,
      "muse": 4918,
      "##lar": 4919,
      "##serie": 4920,
      "tim": 4921,
      "##ksomheten": 4922,
      "##kraft": 4923,
      "##hjel": 4924,
      "##ksjonen": 4925,
      "effektiv": 4926,
      "virket": 4927,
      "##gene": 4928,
      "nærings": 4929,
      "fortalte": 4930,
      "mamma": 4931,
      "est": 4932,
      "forholdet": 4933,
      "material": 4934,
      "##aen": 4935,
      "##vesen": 4936,
      "tanke": 4937,
      "opplysninger": 4938,
      "omtr": 4939,
      "##mor": 4940,
      "tegn": 4941,
      "forsik": 4942,
      "muligheter": 4943,
      "##th": 4944,
      "christian": 4945,
      "føler": 4946,
      "handling": 4947,
      "##rar": 4948,
      "##??": 4949,
      "gjøres": 4950,
      "##okrat": 4951,
      "bygget": 4952,
      "regjering": 4953,
      "sang": 4954,
      "##kam": 4955,
      "tusen": 4956,
      "gjennomsnitt": 4957,
      "smilte": 4958,
      ".-": 4959,
      "##yen": 4960,
      "##ix": 4961,
      "##liote": 4962,
      "publik": 4963,
      "ordet": 4964,
      "##ement": 4965,
      "95": 4966,
      "tel": 4967,
      "formid": 4968,
      "private": 4969,
      "vindu": 4970,
      "present": 4971,
      "gunn": 4972,
      "utan": 4973,
      "##ick": 4974,
      "##parten": 4975,
      "##ligere": 4976,
      "jør": 4977,
      "49": 4978,
      "##eres": 4979,
      "sein": 4980,
      "oversikt": 4981,
      "hansen": 4982,
      "just": 4983,
      "##eri": 4984,
      "##ika": 4985,
      "førte": 4986,
      "tilfred": 4987,
      "bir": 4988,
      "søker": 4989,
      "##enfor": 4990,
      "syntes": 4991,
      "derimot": 4992,
      "perioden": 4993,
      "##leder": 4994,
      "##ians": 4995,
      "glass": 4996,
      "kjøre": 4997,
      "forsøk": 4998,
      "bygd": 4999,
      "##dagen": 5000,
      "##essige": 5001,
      "##ming": 5002,
      "moren": 5003,
      "52": 5004,
      "fint": 5005,
      "måned": 5006,
      "papir": 5007,
      "##bel": 5008,
      "lei": 5009,
      "rot": 5010,
      "##sliv": 5011,
      "betydelig": 5012,
      "virker": 5013,
      "##kant": 5014,
      "brit": 5015,
      "opply": 5016,
      "##mus": 5017,
      "været": 5018,
      "stavanger": 5019,
      "omtrent": 5020,
      "uker": 5021,
      "type": 5022,
      "##ana": 5023,
      "ødel": 5024,
      "##øpet": 5025,
      "fulgte": 5026,
      "liker": 5027,
      "nat": 5028,
      "sæ": 5029,
      "kjærlighet": 5030,
      "kvart": 5031,
      "straks": 5032,
      "frit": 5033,
      "##sr": 5034,
      "##illet": 5035,
      "53": 5036,
      "##ettet": 5037,
      "##stene": 5038,
      "hin": 5039,
      "band": 5040,
      "fleire": 5041,
      "nils": 5042,
      "prote": 5043,
      "invester": 5044,
      "##strøm": 5045,
      "sykehus": 5046,
      "##stjene": 5047,
      "driv": 5048,
      "##ales": 5049,
      "##jekter": 5050,
      "styrke": 5051,
      "kirken": 5052,
      "samfunnet": 5053,
      "sir": 5054,
      "##vers": 5055,
      "##forhold": 5056,
      "lond": 5057,
      "hjert": 5058,
      "såk": 5059,
      "sum": 5060,
      "##able": 5061,
      "##ikere": 5062,
      "##udde": 5063,
      "##vann": 5064,
      "99": 5065,
      "åtte": 5066,
      "basert": 5067,
      "##ica": 5068,
      "amb": 5069,
      "prior": 5070,
      "bilder": 5071,
      "..": 5072,
      "##smessig": 5073,
      "består": 5074,
      "thom": 5075,
      "spor": 5076,
      "hardt": 5077,
      "bekym": 5078,
      "selvfølg": 5079,
      "hår": 5080,
      "respe": 5081,
      "jev": 5082,
      "gnr": 5083,
      "##vist": 5084,
      "mm": 5085,
      "##fot": 5086,
      "møtte": 5087,
      "petter": 5088,
      "hensikt": 5089,
      "##værende": 5090,
      "hørt": 5091,
      "183": 5092,
      "vannet": 5093,
      "col": 5094,
      "log": 5095,
      "##gående": 5096,
      "kastet": 5097,
      "erfaring": 5098,
      "engang": 5099,
      "varer": 5100,
      "ent": 5101,
      "forfatter": 5102,
      "gren": 5103,
      "tirsdag": 5104,
      "up": 5105,
      "##kap": 5106,
      "##inge": 5107,
      "anbef": 5108,
      "selvfølgelig": 5109,
      "##innelig": 5110,
      "benytte": 5111,
      "hest": 5112,
      "pal": 5113,
      "##iti": 5114,
      "eld": 5115,
      "try": 5116,
      "sven": 5117,
      "##sending": 5118,
      "##gens": 5119,
      "##iell": 5120,
      "forbi": 5121,
      "##delingen": 5122,
      "solgt": 5123,
      "fas": 5124,
      "mandag": 5125,
      "rapport": 5126,
      "oppnå": 5127,
      "tyskland": 5128,
      "##æren": 5129,
      "##ellene": 5130,
      "meste": 5131,
      "65": 5132,
      "##peratur": 5133,
      "vente": 5134,
      "##rib": 5135,
      "##ømt": 5136,
      "##skolen": 5137,
      "##apt": 5138,
      "london": 5139,
      "minste": 5140,
      "kropp": 5141,
      "snudde": 5142,
      "dog": 5143,
      "radio": 5144,
      "tank": 5145,
      "beskj": 5146,
      "91": 5147,
      "##legging": 5148,
      "##løs": 5149,
      "##lede": 5150,
      "flert": 5151,
      "##vare": 5152,
      "klarte": 5153,
      "##spolit": 5154,
      "kurs": 5155,
      "##ns": 5156,
      "54": 5157,
      "##................": 5158,
      "alvorlig": 5159,
      "thor": 5160,
      "sar": 5161,
      "##aven": 5162,
      "-,": 5163,
      "##aktig": 5164,
      "spar": 5165,
      "56": 5166,
      "##kelige": 5167,
      "glede": 5168,
      "hvite": 5169,
      "##akten": 5170,
      "comm": 5171,
      "##ennende": 5172,
      "##iteten": 5173,
      "henhold": 5174,
      "lager": 5175,
      "uav": 5176,
      "show": 5177,
      "etabler": 5178,
      "stakk": 5179,
      "blikk": 5180,
      "rut": 5181,
      "##arane": 5182,
      "which": 5183,
      "mun": 5184,
      "stjer": 5185,
      "##ary": 5186,
      "masse": 5187,
      "smer": 5188,
      "unngå": 5189,
      "dit": 5190,
      "bot": 5191,
      "verk": 5192,
      "vidt": 5193,
      "##oder": 5194,
      "tas": 5195,
      "skre": 5196,
      "sammenlig": 5197,
      "snakker": 5198,
      "handler": 5199,
      "##jet": 5200,
      "konkret": 5201,
      "und": 5202,
      "sider": 5203,
      "hard": 5204,
      "arbeidsm": 5205,
      "##sloven": 5206,
      "##førte": 5207,
      "hell": 5208,
      "##leve": 5209,
      "##mester": 5210,
      "elever": 5211,
      "##unst": 5212,
      "prøver": 5213,
      "##enterer": 5214,
      "ital": 5215,
      "##ca": 5216,
      "##oller": 5217,
      "registrer": 5218,
      "trygg": 5219,
      "tilsyn": 5220,
      "vekst": 5221,
      "##fri": 5222,
      "tidspunkt": 5223,
      "oppdrag": 5224,
      "valgt": 5225,
      "will": 5226,
      "grupper": 5227,
      "bad": 5228,
      "frivil": 5229,
      "1992": 5230,
      "##urer": 5231,
      "flyttet": 5232,
      "##rud": 5233,
      "funger": 5234,
      "inkluder": 5235,
      "##fag": 5236,
      "styre": 5237,
      "sje": 5238,
      "##organis": 5239,
      "##ander": 5240,
      "understre": 5241,
      "1995": 5242,
      "styret": 5243,
      "standard": 5244,
      "##rør": 5245,
      "##vene": 5246,
      "betale": 5247,
      "internasjonale": 5248,
      "legges": 5249,
      "bj": 5250,
      "##uren": 5251,
      "innebærer": 5252,
      "hvit": 5253,
      "##fyl": 5254,
      "##aster": 5255,
      "nede": 5256,
      "jobben": 5257,
      "##tra": 5258,
      "oven": 5259,
      "##vand": 5260,
      "mol": 5261,
      "engelsk": 5262,
      "2014": 5263,
      "181": 5264,
      "lam": 5265,
      "##skrift": 5266,
      "visse": 5267,
      "trekk": 5268,
      "jobber": 5269,
      "tilgjeng": 5270,
      "##anset": 5271,
      "wor": 5272,
      "veil": 5273,
      "##forb": 5274,
      "bevisst": 5275,
      "heim": 5276,
      "lat": 5277,
      "2001": 5278,
      "hud": 5279,
      "##igt": 5280,
      "trafikk": 5281,
      "##abr": 5282,
      "bøn": 5283,
      "jac": 5284,
      "##slaget": 5285,
      "##ård": 5286,
      "##ingar": 5287,
      "##lo": 5288,
      "bordet": 5289,
      "drep": 5290,
      "##fart": 5291,
      "len": 5292,
      "prim": 5293,
      "##iat": 5294,
      "gri": 5295,
      "##ron": 5296,
      "gran": 5297,
      "henrik": 5298,
      "1980": 5299,
      "tilfeller": 5300,
      "1993": 5301,
      "gjekk": 5302,
      "hall": 5303,
      "trans": 5304,
      "##cial": 5305,
      "krever": 5306,
      "arbeidst": 5307,
      "##ld": 5308,
      "sign": 5309,
      "##hel": 5310,
      "##ition": 5311,
      "if": 5312,
      "##pros": 5313,
      "##øya": 5314,
      "marie": 5315,
      "sjef": 5316,
      "##mede": 5317,
      "omfatt": 5318,
      "kjønn": 5319,
      "1999": 5320,
      "brød": 5321,
      "##aske": 5322,
      "voksne": 5323,
      "kontor": 5324,
      "##rest": 5325,
      "blei": 5326,
      "oppgave": 5327,
      "skil": 5328,
      "rese": 5329,
      "sold": 5330,
      "begynn": 5331,
      "lyn": 5332,
      "bos": 5333,
      "mos": 5334,
      "1997": 5335,
      "lege": 5336,
      "##iserer": 5337,
      "stam": 5338,
      "##inter": 5339,
      "skjedd": 5340,
      "drø": 5341,
      "##hjem": 5342,
      "##stillingen": 5343,
      "57": 5344,
      "kul": 5345,
      "##sreg": 5346,
      "vesentlig": 5347,
      "##inen": 5348,
      "##edal": 5349,
      "##vei": 5350,
      "ressur": 5351,
      "fan": 5352,
      "1994": 5353,
      "relativt": 5354,
      "skulde": 5355,
      "gratis": 5356,
      "##vende": 5357,
      "##iken": 5358,
      "##smann": 5359,
      "slått": 5360,
      "##settes": 5361,
      "trykk": 5362,
      "pappa": 5363,
      "grund": 5364,
      "##stander": 5365,
      "magn": 5366,
      "##ame": 5367,
      "##sid": 5368,
      "jur": 5369,
      "##spill": 5370,
      "neder": 5371,
      "reiser": 5372,
      "kjenn": 5373,
      "##ua": 5374,
      "##avn": 5375,
      "øyne": 5376,
      "stemmer": 5377,
      "målet": 5378,
      "vm": 5379,
      "total": 5380,
      "øver": 5381,
      "konfl": 5382,
      "may": 5383,
      "inneholder": 5384,
      "ansikt": 5385,
      "terr": 5386,
      "klokken": 5387,
      "1996": 5388,
      "##fisk": 5389,
      "bevil": 5390,
      "##aden": 5391,
      "##ordning": 5392,
      "180": 5393,
      "gru": 5394,
      "medisin": 5395,
      "felt": 5396,
      "##former": 5397,
      "dobb": 5398,
      "##out": 5399,
      "kraftig": 5400,
      "ropte": 5401,
      "danmark": 5402,
      "interesser": 5403,
      "foren": 5404,
      "##bered": 5405,
      "##urg": 5406,
      "2005": 5407,
      "##selen": 5408,
      "kle": 5409,
      "undersø": 5410,
      "kop": 5411,
      "maskin": 5412,
      "kne": 5413,
      "tida": 5414,
      "dann": 5415,
      "russ": 5416,
      "##arbeide": 5417,
      "##ærne": 5418,
      "comp": 5419,
      "div": 5420,
      "##kninger": 5421,
      "hjerte": 5422,
      "##attes": 5423,
      "bryst": 5424,
      "one": 5425,
      "1991": 5426,
      "prøvde": 5427,
      "##kjør": 5428,
      "ryggen": 5429,
      "trøn": 5430,
      "ment": 5431,
      "##plikt": 5432,
      "bekre": 5433,
      "lind": 5434,
      "blad": 5435,
      "1998": 5436,
      "utvikle": 5437,
      "resultatet": 5438,
      "sentrale": 5439,
      "utd": 5440,
      "effekt": 5441,
      "selvsagt": 5442,
      "forstår": 5443,
      "tilstre": 5444,
      "##styret": 5445,
      "beskriv": 5446,
      "spesielle": 5447,
      "##holdning": 5448,
      "heile": 5449,
      "steg": 5450,
      "##kort": 5451,
      "alternativ": 5452,
      "senter": 5453,
      "59": 5454,
      "pet": 5455,
      "johannes": 5456,
      "elem": 5457,
      "##skra": 5458,
      "opplæring": 5459,
      "##ctor": 5460,
      "##øtt": 5461,
      "sammens": 5462,
      "sunn": 5463,
      "##sprogram": 5464,
      "kron": 5465,
      "klem": 5466,
      "##kommen": 5467,
      "kommunene": 5468,
      "jens": 5469,
      "dels": 5470,
      "typ": 5471,
      "studer": 5472,
      "adj": 5473,
      "85": 5474,
      "vilkår": 5475,
      "litteratur": 5476,
      "##ygge": 5477,
      "##partiet": 5478,
      "##hild": 5479,
      "##smål": 5480,
      "sko": 5481,
      "via": 5482,
      "hor": 5483,
      "bestemte": 5484,
      "##tekter": 5485,
      "vilde": 5486,
      "spørre": 5487,
      "flytte": 5488,
      "fisker": 5489,
      "mennesket": 5490,
      "2002": 5491,
      "##skriv": 5492,
      "##skyld": 5493,
      "utn": 5494,
      "harald": 5495,
      "kommuner": 5496,
      "##delser": 5497,
      "97": 5498,
      "##slivet": 5499,
      "publikum": 5500,
      "##haug": 5501,
      "iver": 5502,
      "lid": 5503,
      "formann": 5504,
      "presse": 5505,
      "politi": 5506,
      "##post": 5507,
      "##ely": 5508,
      "forelig": 5509,
      "nummer": 5510,
      "bodde": 5511,
      "hvilket": 5512,
      "avhengig": 5513,
      "2003": 5514,
      "##sberg": 5515,
      "##skl": 5516,
      "##ppene": 5517,
      "forrige": 5518,
      "sjøl": 5519,
      "opt": 5520,
      "het": 5521,
      "frist": 5522,
      "##skom": 5523,
      "ger": 5524,
      "##ytter": 5525,
      "energ": 5526,
      "##rad": 5527,
      "lavere": 5528,
      "##ces": 5529,
      "anledning": 5530,
      "##omen": 5531,
      "bakken": 5532,
      "totalt": 5533,
      "struktur": 5534,
      "eventuelt": 5535,
      "bære": 5536,
      "delen": 5537,
      "utb": 5538,
      "##splan": 5539,
      "omfatter": 5540,
      "unntak": 5541,
      "pan": 5542,
      "##delag": 5543,
      "##ual": 5544,
      "##ton": 5545,
      "trekke": 5546,
      "orden": 5547,
      "drive": 5548,
      "##stru": 5549,
      "dikt": 5550,
      "tromsø": 5551,
      "ros": 5552,
      "begynne": 5553,
      "øke": 5554,
      "øvrige": 5555,
      "mich": 5556,
      "super": 5557,
      "produkt": 5558,
      "##egg": 5559,
      "##varer": 5560,
      "##gjort": 5561,
      "tanken": 5562,
      "##asj": 5563,
      "2004": 5564,
      "dens": 5565,
      "##ugh": 5566,
      "kombin": 5567,
      "akse": 5568,
      "##øyde": 5569,
      "hende": 5570,
      "tyske": 5571,
      "svenske": 5572,
      "velge": 5573,
      "høst": 5574,
      "ufor": 5575,
      "##tale": 5576,
      "##åten": 5577,
      "væ": 5578,
      "##agelig": 5579,
      "nytte": 5580,
      "##kningen": 5581,
      "tilh": 5582,
      "strå": 5583,
      "rent": 5584,
      "nedover": 5585,
      "sommeren": 5586,
      "##abil": 5587,
      "mørke": 5588,
      "tilkn": 5589,
      "##ips": 5590,
      "hed": 5591,
      "##abel": 5592,
      "fortsette": 5593,
      "##sjø": 5594,
      "jak": 5595,
      "fare": 5596,
      "eksister": 5597,
      "##vard": 5598,
      "registr": 5599,
      "slekt": 5600,
      "dvs": 5601,
      "årets": 5602,
      "natten": 5603,
      "munnen": 5604,
      "##holm": 5605,
      "##ley": 5606,
      "kapital": 5607,
      "blikket": 5608,
      "avdeling": 5609,
      "altfor": 5610,
      "foreldrene": 5611,
      "58": 5612,
      "marg": 5613,
      "61": 5614,
      "##itter": 5615,
      "##ala": 5616,
      "kvinnen": 5617,
      ".).": 5618,
      "tjenester": 5619,
      "lengre": 5620,
      "røde": 5621,
      "betrakt": 5622,
      "##gere": 5623,
      "##bladet": 5624,
      "##pris": 5625,
      "##stående": 5626,
      "400": 5627,
      "utvid": 5628,
      "skyldes": 5629,
      "300": 5630,
      "??": 5631,
      "##skil": 5632,
      "1970": 5633,
      "umul": 5634,
      "personlig": 5635,
      "supp": 5636,
      "profess": 5637,
      "overfl": 5638,
      "##dyr": 5639,
      "generelt": 5640,
      "##histor": 5641,
      "aar": 5642,
      "##gifter": 5643,
      "utvalget": 5644,
      "klarer": 5645,
      "regnskap": 5646,
      "##løp": 5647,
      "##asin": 5648,
      "fylkeskomm": 5649,
      "amerikanske": 5650,
      "##smannen": 5651,
      "absol": 5652,
      "forskrift": 5653,
      "spis": 5654,
      "periode": 5655,
      "stirret": 5656,
      "nikket": 5657,
      "vanlige": 5658,
      "dokumentar": 5659,
      "##edagog": 5660,
      "##sels": 5661,
      "##jord": 5662,
      "velger": 5663,
      "aften": 5664,
      "fær": 5665,
      "konkurranse": 5666,
      "##band": 5667,
      "sår": 5668,
      "vakt": 5669,
      "driver": 5670,
      "aktuelle": 5671,
      "spill": 5672,
      "gruppen": 5673,
      "husker": 5674,
      "ori": 5675,
      "ligge": 5676,
      "gård": 5677,
      "løn": 5678,
      "##ismen": 5679,
      "##ute": 5680,
      "67": 5681,
      "sinn": 5682,
      "##nær": 5683,
      "kontrakt": 5684,
      "##kret": 5685,
      "høsten": 5686,
      "62": 5687,
      "bunn": 5688,
      "##edes": 5689,
      "nar": 5690,
      "konser": 5691,
      "formål": 5692,
      "lettere": 5693,
      "lun": 5694,
      "england": 5695,
      "svak": 5696,
      "##hr": 5697,
      "##stav": 5698,
      "ug": 5699,
      "faste": 5700,
      "bedrifter": 5701,
      "øvrig": 5702,
      "praktisk": 5703,
      "cor": 5704,
      "don": 5705,
      "##yll": 5706,
      "##igh": 5707,
      "##istene": 5708,
      "president": 5709,
      "stemmen": 5710,
      "##byr": 5711,
      "##kjøp": 5712,
      "politikk": 5713,
      "eid": 5714,
      "vurdere": 5715,
      "grønn": 5716,
      "##uk": 5717,
      "ler": 5718,
      "historien": 5719,
      "advok": 5720,
      "##valget": 5721,
      "##mat": 5722,
      "##nere": 5723,
      "tvang": 5724,
      "intervju": 5725,
      "mistet": 5726,
      "utviklet": 5727,
      "isra": 5728,
      "##bane": 5729,
      "vent": 5730,
      "##kor": 5731,
      "delvis": 5732,
      "##ante": 5733,
      ".\"": 5734,
      "instru": 5735,
      "2010": 5736,
      ".\"\"\"\"": 5737,
      "##spr": 5738,
      "svarer": 5739,
      "brå": 5740,
      "rolig": 5741,
      "##anke": 5742,
      "kje": 5743,
      "middag": 5744,
      "kalt": 5745,
      "##yggelig": 5746,
      "##ometer": 5747,
      "søke": 5748,
      "ær": 5749,
      "thomas": 5750,
      "jakt": 5751,
      "2013": 5752,
      "grep": 5753,
      "fantast": 5754,
      "reaksjon": 5755,
      "71": 5756,
      "forhandling": 5757,
      "merket": 5758,
      "david": 5759,
      "vitenskap": 5760,
      "kristians": 5761,
      "vanligvis": 5762,
      "##kr": 5763,
      "fullstendig": 5764,
      "##edie": 5765,
      "##dere": 5766,
      "64": 5767,
      "63": 5768,
      "former": 5769,
      "##fi": 5770,
      "were": 5771,
      "osv": 5772,
      "##mund": 5773,
      "komiteen": 5774,
      "ske": 5775,
      "##lic": 5776,
      "##ksjoner": 5777,
      "2008": 5778,
      "##øg": 5779,
      "out": 5780,
      "hvad": 5781,
      "york": 5782,
      "strid": 5783,
      "oppd": 5784,
      "##siden": 5785,
      "##spektiv": 5786,
      "##ktig": 5787,
      "refle": 5788,
      "artikkel": 5789,
      "sitte": 5790,
      "2006": 5791,
      "kryss": 5792,
      "gården": 5793,
      "alko": 5794,
      "rimelig": 5795,
      "trolig": 5796,
      "vill": 5797,
      "således": 5798,
      "spise": 5799,
      "gjennomført": 5800,
      "##aller": 5801,
      "1989": 5802,
      "gutten": 5803,
      "##ktoratet": 5804,
      "trening": 5805,
      "undervisning": 5806,
      "byr": 5807,
      "##ikal": 5808,
      "##olusjon": 5809,
      "##skont": 5810,
      "ryd": 5811,
      "subst": 5812,
      "kred": 5813,
      "lund": 5814,
      "godkj": 5815,
      "other": 5816,
      "##our": 5817,
      "ettermid": 5818,
      "##kkene": 5819,
      "66": 5820,
      "##sser": 5821,
      "##za": 5822,
      "2007": 5823,
      "fine": 5824,
      "##ski": 5825,
      "såtte": 5826,
      "##ansvar": 5827,
      "kø": 5828,
      "##skog": 5829,
      "kaffe": 5830,
      "ac": 5831,
      "kapit": 5832,
      "##ønster": 5833,
      "##forening": 5834,
      "våpen": 5835,
      "herr": 5836,
      "fylkes": 5837,
      "stig": 5838,
      "##nene": 5839,
      "ku": 5840,
      "##slin": 5841,
      "##åp": 5842,
      "##umenter": 5843,
      "##ives": 5844,
      "tu": 5845,
      "2009": 5846,
      "##ory": 5847,
      "##han": 5848,
      "løsning": 5849,
      "bøker": 5850,
      "##skon": 5851,
      "##plassen": 5852,
      "92": 5853,
      "innlegg": 5854,
      "phil": 5855,
      "93": 5856,
      "pil": 5857,
      "administrasjon": 5858,
      "ib": 5859,
      "##my": 5860,
      "81": 5861,
      "bestemmelser": 5862,
      "##ømte": 5863,
      "sølv": 5864,
      "bla": 5865,
      "bibliote": 5866,
      "##stilt": 5867,
      "still": 5868,
      "##stol": 5869,
      "resp": 5870,
      "##ues": 5871,
      "hagen": 5872,
      "etterpå": 5873,
      "sendte": 5874,
      "omfattende": 5875,
      "##bruket": 5876,
      "##kkende": 5877,
      "##spros": 5878,
      "##sopp": 5879,
      "spilte": 5880,
      "demokrat": 5881,
      "forsiktig": 5882,
      "samsvar": 5883,
      "illust": 5884,
      "bær": 5885,
      "hovedsak": 5886,
      "##klar": 5887,
      "##inde": 5888,
      "77": 5889,
      "##stoff": 5890,
      "##sdtr": 5891,
      "82": 5892,
      "mass": 5893,
      "myr": 5894,
      "utgjør": 5895,
      ");": 5896,
      "##vo": 5897,
      "frukt": 5898,
      "##beh": 5899,
      "##angel": 5900,
      "andreas": 5901,
      "gunnar": 5902,
      "vend": 5903,
      "skogen": 5904,
      "dep": 5905,
      "forslaget": 5906,
      "you": 5907,
      "##sal": 5908,
      "##barn": 5909,
      "skaffe": 5910,
      "rele": 5911,
      "åra": 5912,
      "2011": 5913,
      "##edd": 5914,
      "##aus": 5915,
      "##yre": 5916,
      "andersen": 5917,
      "##arder": 5918,
      "mobil": 5919,
      "tillit": 5920,
      "2012": 5921,
      "##jema": 5922,
      "kommunest": 5923,
      "kamer": 5924,
      "grunnen": 5925,
      "##instit": 5926,
      "larsen": 5927,
      "tår": 5928,
      "there": 5929,
      "tilsk": 5930,
      "håret": 5931,
      "million": 5932,
      "fritt": 5933,
      "leir": 5934,
      "gjeng": 5935,
      "##skilt": 5936,
      "##ms": 5937,
      "72": 5938,
      "##verdi": 5939,
      "tilstrekkelig": 5940,
      "182": 5941,
      "##dalen": 5942,
      "søster": 5943,
      "kommunikasjon": 5944,
      "##si": 5945,
      "borger": 5946,
      "marit": 5947,
      "normalt": 5948,
      "##cy": 5949,
      "69": 5950,
      "##ksten": 5951,
      "stoff": 5952,
      "##ktoren": 5953,
      "##slig": 5954,
      "settes": 5955,
      "stiller": 5956,
      "avtalen": 5957,
      "tenk": 5958,
      "konge": 5959,
      "fortsetter": 5960,
      "vand": 5961,
      "tanker": 5962,
      "##staur": 5963,
      "gjeldende": 5964,
      "cat": 5965,
      "tider": 5966,
      "prp": 5967,
      "##tta": 5968,
      "##antene": 5969,
      "##legge": 5970,
      "ansvaret": 5971,
      "økonomi": 5972,
      "parker": 5973,
      "##asen": 5974,
      "matt": 5975,
      "disp": 5976,
      "alb": 5977,
      "næ": 5978,
      "befolk": 5979,
      "falt": 5980,
      "ky": 5981,
      "hender": 5982,
      "1988": 5983,
      "jenter": 5984,
      "motstand": 5985,
      "kjell": 5986,
      "boken": 5987,
      "more": 5988,
      "##wn": 5989,
      "skad": 5990,
      "tø": 5991,
      "ytre": 5992,
      "##tal": 5993,
      "kalles": 5994,
      "##sle": 5995,
      "alkohol": 5996,
      "problemet": 5997,
      "endret": 5998,
      "temperatur": 5999,
      "uttal": 6000,
      "framtid": 6001,
      "respekt": 6002,
      "arbeidspl": 6003,
      "diskusjon": 6004,
      "forekom": 6005,
      "##innelige": 6006,
      "ov": 6007,
      "kjer": 6008,
      "lands": 6009,
      "rist": 6010,
      "gjaldt": 6011,
      "carl": 6012,
      "insp": 6013,
      "løftet": 6014,
      "##iseres": 6015,
      "##atn": 6016,
      "heldig": 6017,
      "74": 6018,
      "typer": 6019,
      "##etil": 6020,
      "umulig": 6021,
      "lån": 6022,
      "levende": 6023,
      "##øtet": 6024,
      "forsøkte": 6025,
      "lover": 6026,
      "læ": 6027,
      "bind": 6028,
      "kjørte": 6029,
      "seng": 6030,
      "##øve": 6031,
      "enkel": 6032,
      "regnet": 6033,
      "ytterligere": 6034,
      "boka": 6035,
      "spare": 6036,
      "##somme": 6037,
      "act": 6038,
      "pust": 6039,
      "møtet": 6040,
      "##ssp": 6041,
      "blomster": 6042,
      "utenland": 6043,
      "avgift": 6044,
      "kyst": 6045,
      "150": 6046,
      "halvt": 6047,
      "kjøpte": 6048,
      "##spart": 6049,
      "minne": 6050,
      "oppgåver": 6051,
      "##arbeider": 6052,
      "##otte": 6053,
      "kjenne": 6054,
      "##melen": 6055,
      "os": 6056,
      "venter": 6057,
      "tøn": 6058,
      "##mende": 6059,
      "elsker": 6060,
      "##ola": 6061,
      "begynnelsen": 6062,
      "statsb": 6063,
      "skjønn": 6064,
      "acc": 6065,
      "##kle": 6066,
      "omgang": 6067,
      "##zz": 6068,
      "vass": 6069,
      "skritt": 6070,
      "fornøyd": 6071,
      "##ssel": 6072,
      "##af": 6073,
      "##ité": 6074,
      "mere": 6075,
      "##ionen": 6076,
      "hyl": 6077,
      "spennende": 6078,
      "##yret": 6079,
      "snakk": 6080,
      "bygde": 6081,
      "nærmest": 6082,
      "oppdaget": 6083,
      "delta": 6084,
      "havet": 6085,
      "fing": 6086,
      "avgjørende": 6087,
      "faller": 6088,
      "flykt": 6089,
      "eval": 6090,
      "lab": 6091,
      "reglene": 6092,
      "##stedet": 6093,
      "##grep": 6094,
      "redusert": 6095,
      "los": 6096,
      "sosi": 6097,
      "##visjon": 6098,
      "skjel": 6099,
      "opps": 6100,
      "stående": 6101,
      "##partement": 6102,
      "dyp": 6103,
      "##andid": 6104,
      "symb": 6105,
      "##blad": 6106,
      "ramme": 6107,
      "##ingsm": 6108,
      "slår": 6109,
      "bidrag": 6110,
      "##isa": 6111,
      "vond": 6112,
      "kob": 6113,
      "73": 6114,
      "##elighet": 6115,
      "wo": 6116,
      "##må": 6117,
      "##sny": 6118,
      "list": 6119,
      "sund": 6120,
      "kjøper": 6121,
      "uv": 6122,
      "kå": 6123,
      "fry": 6124,
      "trengte": 6125,
      "##havn": 6126,
      "##bjørn": 6127,
      "varm": 6128,
      "teater": 6129,
      "garden": 6130,
      "aker": 6131,
      "spred": 6132,
      "differ": 6133,
      "von": 6134,
      "utform": 6135,
      "##ific": 6136,
      "##mi": 6137,
      "alf": 6138,
      "##lie": 6139,
      "helg": 6140,
      "forbud": 6141,
      "##aser": 6142,
      "drikke": 6143,
      "kjøtt": 6144,
      "lyset": 6145,
      "kok": 6146,
      "varier": 6147,
      "##melding": 6148,
      "76": 6149,
      "jobbe": 6150,
      "rettet": 6151,
      "1987": 6152,
      "##iler": 6153,
      "jacob": 6154,
      "utgangspunktet": 6155,
      "##tert": 6156,
      "##delsen": 6157,
      "utsatt": 6158,
      "høyde": 6159,
      "prinsi": 6160,
      "tråd": 6161,
      "kall": 6162,
      "forståelse": 6163,
      "funn": 6164,
      ")\"\"": 6165,
      "skaper": 6166,
      "98": 6167,
      "heilt": 6168,
      "##hetene": 6169,
      "pu": 6170,
      "##asjonene": 6171,
      "sing": 6172,
      "two": 6173,
      "94": 6174,
      "gn": 6175,
      "they": 6176,
      "68": 6177,
      "yt": 6178,
      "innstilling": 6179,
      "opplever": 6180,
      "livs": 6181,
      "78": 6182,
      "import": 6183,
      "##atiske": 6184,
      "kaller": 6185,
      "øker": 6186,
      "##sområ": 6187,
      "johansen": 6188,
      "##sleder": 6189,
      "##ura": 6190,
      "##spør": 6191,
      "tilhør": 6192,
      "sykeple": 6193,
      "##ena": 6194,
      "linje": 6195,
      "usikker": 6196,
      "nattsending": 6197,
      "gjest": 6198,
      "beskjed": 6199,
      "velkommen": 6200,
      "jub": 6201,
      "##atter": 6202,
      "86": 6203,
      "pedersen": 6204,
      "våren": 6205,
      "rec": 6206,
      "maria": 6207,
      "##ørt": 6208,
      "kone": 6209,
      "alex": 6210,
      "leie": 6211,
      "##unne": 6212,
      "hotell": 6213,
      "##yp": 6214,
      "kjøpt": 6215,
      "##edlem": 6216,
      "arbeidsgiver": 6217,
      "sjelden": 6218,
      "autom": 6219,
      "##cts": 6220,
      "fur": 6221,
      "aner": 6222,
      "kommentar": 6223,
      "##vig": 6224,
      "##try": 6225,
      "morgens": 6226,
      "mur": 6227,
      "##ama": 6228,
      "##ssjef": 6229,
      "##iks": 6230,
      "nasjonale": 6231,
      "konflikt": 6232,
      "##aner": 6233,
      "##ffen": 6234,
      "1985": 6235,
      "toppen": 6236,
      "konv": 6237,
      "##utvikling": 6238,
      "korleis": 6239,
      "##vest": 6240,
      "yrkes": 6241,
      "##dr": 6242,
      "##området": 6243,
      "jorden": 6244,
      "smør": 6245,
      "maks": 6246,
      "resultater": 6247,
      "uk": 6248,
      "##sem": 6249,
      "dekket": 6250,
      "prisen": 6251,
      "skjønner": 6252,
      "pengene": 6253,
      "##ella": 6254,
      "dal": 6255,
      "anner": 6256,
      "hurt": 6257,
      "nødvendige": 6258,
      "registrert": 6259,
      "afrik": 6260,
      "påpe": 6261,
      "enig": 6262,
      "frankrike": 6263,
      "ligg": 6264,
      "##<<": 6265,
      "2020": 6266,
      "fortell": 6267,
      "##ds": 6268,
      "hag": 6269,
      "##yer": 6270,
      "1986": 6271,
      "88": 6272,
      "##rop": 6273,
      "restaur": 6274,
      "jar": 6275,
      "initi": 6276,
      "bygning": 6277,
      "avd": 6278,
      "vedlike": 6279,
      "opphold": 6280,
      "##egor": 6281,
      "endre": 6282,
      "##veis": 6283,
      "farge": 6284,
      "havde": 6285,
      "trøndelag": 6286,
      "##øye": 6287,
      "##iør": 6288,
      "ec": 6289,
      "jakob": 6290,
      "svein": 6291,
      "innsats": 6292,
      "veit": 6293,
      "##sler": 6294,
      "bøl": 6295,
      "bygger": 6296,
      "planer": 6297,
      "fengsel": 6298,
      "planen": 6299,
      "fjord": 6300,
      "##nok": 6301,
      "##ric": 6302,
      "##ryt": 6303,
      "språ": 6304,
      "##orm": 6305,
      "##vise": 6306,
      "##brudd": 6307,
      "##ereg": 6308,
      "##shus": 6309,
      "herre": 6310,
      "armen": 6311,
      "vg": 6312,
      "##ving": 6313,
      "vilje": 6314,
      "service": 6315,
      "84": 6316,
      "synd": 6317,
      "##vi": 6318,
      "bist": 6319,
      "mangel": 6320,
      "hovud": 6321,
      "hind": 6322,
      "fjern": 6323,
      "inntrykk": 6324,
      "hentet": 6325,
      "plikt": 6326,
      "ende": 6327,
      "positive": 6328,
      "dating": 6329,
      "79": 6330,
      "fortel": 6331,
      "milj": 6332,
      "arm": 6333,
      "ball": 6334,
      "##ec": 6335,
      "hemmelig": 6336,
      "mangler": 6337,
      "løse": 6338,
      "##ora": 6339,
      "regne": 6340,
      "sats": 6341,
      "kari": 6342,
      "forvent": 6343,
      "bror": 6344,
      "dyre": 6345,
      "rike": 6346,
      "##skar": 6347,
      "##ynt": 6348,
      "kommunale": 6349,
      "systemet": 6350,
      "annerledes": 6351,
      "##esel": 6352,
      "latter": 6353,
      "##enen": 6354,
      "##ague": 6355,
      "gulvet": 6356,
      "##delt": 6357,
      "prosess": 6358,
      "##lipp": 6359,
      "hjertet": 6360,
      "##industri": 6361,
      "last": 6362,
      "line": 6363,
      "drøm": 6364,
      "their": 6365,
      "dobbelt": 6366,
      "rand": 6367,
      "##ssystem": 6368,
      "flott": 6369,
      "kna": 6370,
      "##oter": 6371,
      "##merket": 6372,
      "verken": 6373,
      "båten": 6374,
      "fortalt": 6375,
      "hyd": 6376,
      "##hal": 6377,
      "trener": 6378,
      "##utdan": 6379,
      "innvand": 6380,
      "neppe": 6381,
      "1960": 6382,
      "##strid": 6383,
      "utført": 6384,
      "utred": 6385,
      "inngå": 6386,
      "adgang": 6387,
      "cal": 6388,
      "direktør": 6389,
      "##ival": 6390,
      "stykke": 6391,
      "##sev": 6392,
      "avstand": 6393,
      "absolutt": 6394,
      "##lø": 6395,
      "##ics": 6396,
      "##sund": 6397,
      "finnmark": 6398,
      "ordene": 6399,
      "parti": 6400,
      "sikt": 6401,
      "##ral": 6402,
      "tren": 6403,
      "innb": 6404,
      "drev": 6405,
      "landbruks": 6406,
      "dim": 6407,
      "##etning": 6408,
      "krimin": 6409,
      "##hj": 6410,
      "frø": 6411,
      "helhet": 6412,
      "##frå": 6413,
      "been": 6414,
      "israel": 6415,
      "overbe": 6416,
      "paris": 6417,
      "##messig": 6418,
      "##fort": 6419,
      "cont": 6420,
      "hente": 6421,
      "nokre": 6422,
      "rein": 6423,
      "morgensending": 6424,
      "##ommene": 6425,
      "posisjon": 6426,
      "##verre": 6427,
      "sukker": 6428,
      "dypt": 6429,
      "tann": 6430,
      "slapp": 6431,
      "underholdning": 6432,
      "behovet": 6433,
      "pst": 6434,
      "smak": 6435,
      "oppfyl": 6436,
      "jobbet": 6437,
      "interessert": 6438,
      "##tar": 6439,
      "##vind": 6440,
      "eksempler": 6441,
      "invest": 6442,
      "lette": 6443,
      "##klub": 6444,
      "89": 6445,
      "invol": 6446,
      "forsikring": 6447,
      "redu": 6448,
      "##istikk": 6449,
      "dru": 6450,
      "korn": 6451,
      "83": 6452,
      "##miljø": 6453,
      "##aste": 6454,
      "##bed": 6455,
      "ok": 6456,
      "frisk": 6457,
      "##gaver": 6458,
      "åpent": 6459,
      "orig": 6460,
      "sav": 6461,
      "rene": 6462,
      "fysisk": 6463,
      "pen": 6464,
      "##ege": 6465,
      "nedenfor": 6466,
      "##sdal": 6467,
      "##ensene": 6468,
      "åt": 6469,
      "##atelse": 6470,
      "utel": 6471,
      "sving": 6472,
      "hjør": 6473,
      "brun": 6474,
      "87": 6475,
      "cam": 6476,
      "mak": 6477,
      "179": 6478,
      "muligheten": 6479,
      "nest": 6480,
      "##felt": 6481,
      "##slov": 6482,
      "utgifter": 6483,
      "##edning": 6484,
      "scan": 6485,
      "##oks": 6486,
      "##urd": 6487,
      "mester": 6488,
      "##saker": 6489,
      "huske": 6490,
      "vinduet": 6491,
      "##).": 6492,
      "forvaltning": 6493,
      "nevnte": 6494,
      "magnus": 6495,
      "ønsk": 6496,
      "##kså": 6497,
      "forbed": 6498,
      "forestil": 6499,
      "##amen": 6500,
      "server": 6501,
      "arkite": 6502,
      "turen": 6503,
      "symp": 6504,
      "sne": 6505,
      "yrke": 6506,
      "ri": 6507,
      "96": 6508,
      "lukket": 6509,
      "amerika": 6510,
      "interessant": 6511,
      "videreg": 6512,
      "landets": 6513,
      "spre": 6514,
      "##odd": 6515,
      "konstru": 6516,
      "##onse": 6517,
      "etablert": 6518,
      "##vidt": 6519,
      "##hjelp": 6520,
      "fattig": 6521,
      "rak": 6522,
      "111": 6523,
      "fjerde": 6524,
      "pedagog": 6525,
      "utenrik": 6526,
      "leser": 6527,
      "esp": 6528,
      "svare": 6529,
      "##bygger": 6530,
      "hr": 6531,
      "hjelper": 6532,
      "##har": 6533,
      "vedtatt": 6534,
      "kristne": 6535,
      "tore": 6536,
      "naturen": 6537,
      "tilgang": 6538,
      "##kjenn": 6539,
      "##ada": 6540,
      "##endal": 6541,
      "pasient": 6542,
      "kvalif": 6543,
      "galt": 6544,
      "##ykke": 6545,
      "foruts": 6546,
      "plassen": 6547,
      "forbered": 6548,
      "##ras": 6549,
      "russland": 6550,
      "religi": 6551,
      "fylkeskommun": 6552,
      "##legger": 6553,
      "professor": 6554,
      "sus": 6555,
      "areal": 6556,
      "kirk": 6557,
      "sørge": 6558,
      "sønnen": 6559,
      "gjent": 6560,
      "action": 6561,
      "nødt": 6562,
      "kontin": 6563,
      "kunstner": 6564,
      "støv": 6565,
      "egg": 6566,
      "1984": 6567,
      "##saa": 6568,
      "evne": 6569,
      "##synet": 6570,
      "cons": 6571,
      "##ace": 6572,
      "administrat": 6573,
      "##ution": 6574,
      "adres": 6575,
      "##ods": 6576,
      "valgte": 6577,
      "##bro": 6578,
      "##kul": 6579,
      "##ament": 6580,
      "likte": 6581,
      "behandlet": 6582,
      "musk": 6583,
      "innr": 6584,
      "##øyer": 6585,
      "kapte": 6586,
      "##ci": 6587,
      "armene": 6588,
      "tonn": 6589,
      "##bær": 6590,
      "##ward": 6591,
      "mik": 6592,
      "begrenset": 6593,
      "halvparten": 6594,
      "størrelse": 6595,
      "##skraft": 6596,
      "hug": 6597,
      "##arch": 6598,
      "##ities": 6599,
      "tilknyt": 6600,
      "##ania": 6601,
      "landsb": 6602,
      "markedet": 6603,
      "ettersom": 6604,
      "øster": 6605,
      "##flyt": 6606,
      "vinteren": 6607,
      "skuld": 6608,
      "##aket": 6609,
      "øvre": 6610,
      "##...": 6611,
      "##tene": 6612,
      "##nader": 6613,
      "videregående": 6614,
      "ovenfor": 6615,
      "økte": 6616,
      "hode": 6617,
      "foreløp": 6618,
      "##cer": 6619,
      "drept": 6620,
      "drama": 6621,
      "##foren": 6622,
      "tend": 6623,
      "angrep": 6624,
      "##kal": 6625,
      "robert": 6626,
      "jap": 6627,
      "##illere": 6628,
      "##rette": 6629,
      "rygg": 6630,
      "snar": 6631,
      "##natt": 6632,
      "politik": 6633,
      "mørk": 6634,
      "skille": 6635,
      "##osof": 6636,
      "fremtid": 6637,
      "intet": 6638,
      "enkle": 6639,
      "jule": 6640,
      "ragn": 6641,
      "##slige": 6642,
      "kolle": 6643,
      "##vold": 6644,
      "detalj": 6645,
      "##wa": 6646,
      "##rapp": 6647,
      "mennene": 6648,
      "##enterte": 6649,
      "##sforhold": 6650,
      "erfaringer": 6651,
      "skrem": 6652,
      "league": 6653,
      "tyr": 6654,
      "sterkere": 6655,
      "runde": 6656,
      "modell": 6657,
      "##egen": 6658,
      "also": 6659,
      "##ennene": 6660,
      "verdier": 6661,
      "forutset": 6662,
      "observ": 6663,
      "##samling": 6664,
      "sjøen": 6665,
      "dele": 6666,
      "##gje": 6667,
      "nordland": 6668,
      "##grupper": 6669,
      "kilometer": 6670,
      "menneskene": 6671,
      "##ze": 6672,
      "avsnitt": 6673,
      "taler": 6674,
      "dommer": 6675,
      "nærheten": 6676,
      "himmelen": 6677,
      "##elde": 6678,
      "##øyet": 6679,
      "##iar": 6680,
      "tilt": 6681,
      "dyn": 6682,
      "einar": 6683,
      "publ": 6684,
      "##oper": 6685,
      "##lov": 6686,
      "sidan": 6687,
      "##igen": 6688,
      "dial": 6689,
      "universitetet": 6690,
      "rapporter": 6691,
      "ordin": 6692,
      "vondt": 6693,
      "fen": 6694,
      "dir": 6695,
      "stede": 6696,
      "##liv": 6697,
      "langsomt": 6698,
      "dreier": 6699,
      "##aktiv": 6700,
      "dec": 6701,
      "kompl": 6702,
      "sog": 6703,
      "kontra": 6704,
      "butikk": 6705,
      "nilsen": 6706,
      "175": 6707,
      "midten": 6708,
      "kolleg": 6709,
      "prop": 6710,
      "##aa": 6711,
      "lom": 6712,
      "bol": 6713,
      "siv": 6714,
      "1981": 6715,
      "fremme": 6716,
      "fotograf": 6717,
      "redusere": 6718,
      "virkning": 6719,
      "trekker": 6720,
      "dans": 6721,
      "##offer": 6722,
      "syd": 6723,
      "##kser": 6724,
      "##delen": 6725,
      "##eta": 6726,
      "positiv": 6727,
      "##seth": 6728,
      "##iering": 6729,
      "såkalte": 6730,
      "##område": 6731,
      "firma": 6732,
      "plast": 6733,
      "bokstav": 6734,
      "##ape": 6735,
      "##sarbeid": 6736,
      "##gde": 6737,
      "👨🏾": 6738,
      "👨🏼": 6739,
      "👨🏽": 6740,
      "👨🏻": 6741,
      "👨🏿": 6742,
      "👩🏾": 6743,
      "👩🏼": 6744,
      "👩🏽": 6745,
      "👩🏻": 6746,
      "👩🏿": 6747,
      "ye": 6748,
      "biler": 6749,
      "##ordin": 6750,
      "preget": 6751,
      "flertall": 6752,
      "teknisk": 6753,
      "museum": 6754,
      "institutt": 6755,
      "kjempe": 6756,
      "##ulere": 6757,
      "størst": 6758,
      "håp": 6759,
      "rog": 6760,
      "##tten": 6761,
      "foreligger": 6762,
      "ordfører": 6763,
      "upp": 6764,
      "##snytt": 6765,
      "island": 6766,
      "hei": 6767,
      "##undersøk": 6768,
      "identif": 6769,
      "prosjekter": 6770,
      "sluttet": 6771,
      "markeds": 6772,
      "##ited": 6773,
      "##ssam": 6774,
      "##fir": 6775,
      "##krig": 6776,
      "fantes": 6777,
      "samle": 6778,
      "eldste": 6779,
      "lens": 6780,
      "jensen": 6781,
      "##30": 6782,
      "forbruker": 6783,
      "##ove": 6784,
      "world": 6785,
      "sesong": 6786,
      "anven": 6787,
      "ts": 6788,
      "profesjon": 6789,
      "live": 6790,
      "##troll": 6791,
      "vakre": 6792,
      "skinn": 6793,
      "##handler": 6794,
      "##amin": 6795,
      "signal": 6796,
      "perfe": 6797,
      "ås": 6798,
      "danske": 6799,
      "##rere": 6800,
      "def": 6801,
      "lavt": 6802,
      "##bes": 6803,
      "reser": 6804,
      "sw": 6805,
      "sikte": 6806,
      "##sinn": 6807,
      "selger": 6808,
      "omfang": 6809,
      "##blem": 6810,
      "programmet": 6811,
      "##inal": 6812,
      "bis": 6813,
      "ressurser": 6814,
      "grunnlegg": 6815,
      "avvik": 6816,
      "##kir": 6817,
      "##ty": 6818,
      "##urens": 6819,
      "rapporten": 6820,
      "##bank": 6821,
      "##verdig": 6822,
      "naturligvis": 6823,
      "##sre": 6824,
      "virksomheten": 6825,
      "eventyr": 6826,
      "oppover": 6827,
      "helge": 6828,
      "big": 6829,
      "bonde": 6830,
      "begynt": 6831,
      "bedriften": 6832,
      "taket": 6833,
      "devel": 6834,
      "human": 6835,
      "forholdene": 6836,
      "##pix": 6837,
      "gjennomføre": 6838,
      "himmel": 6839,
      "##illa": 6840,
      "##vekst": 6841,
      "600": 6842,
      "gate": 6843,
      "dessverre": 6844,
      "årh": 6845,
      "yngre": 6846,
      "starter": 6847,
      "##kre": 6848,
      "verre": 6849,
      "bab": 6850,
      "##hvert": 6851,
      "skam": 6852,
      "nort": 6853,
      "##ulerer": 6854,
      "tone": 6855,
      "greit": 6856,
      "ristet": 6857,
      "die": 6858,
      "forretning": 6859,
      "##ween": 6860,
      "heng": 6861,
      "svensk": 6862,
      "roll": 6863,
      "1950": 6864,
      "arr": 6865,
      "klær": 6866,
      "kilde": 6867,
      "exp": 6868,
      "##avgift": 6869,
      "normal": 6870,
      "norway": 6871,
      "status": 6872,
      "oppfatning": 6873,
      "tilgjengelig": 6874,
      "risiko": 6875,
      "-\"\"": 6876,
      "erkl": 6877,
      "##system": 6878,
      "veks": 6879,
      "##æringen": 6880,
      "glob": 6881,
      "symbol": 6882,
      "mc": 6883,
      "##hn": 6884,
      "##ular": 6885,
      "måle": 6886,
      "##mot": 6887,
      "toll": 6888,
      "lignende": 6889,
      "overrask": 6890,
      "maj": 6891,
      "frihet": 6892,
      "forskjell": 6893,
      "gong": 6894,
      "scanpix": 6895,
      "fla": 6896,
      "##chen": 6897,
      "organisasjoner": 6898,
      "utrolig": 6899,
      "debatt": 6900,
      "skoler": 6901,
      "sentralt": 6902,
      "umiddel": 6903,
      "tungt": 6904,
      "tilfredsst": 6905,
      "stolt": 6906,
      "melding": 6907,
      "develop": 6908,
      "##val": 6909,
      "1000": 6910,
      "gamm": 6911,
      "##gård": 6912,
      "demon": 6913,
      "##rettet": 6914,
      "##jøl": 6915,
      "perspektiv": 6916,
      "lur": 6917,
      "forsknings": 6918,
      "1979": 6919,
      "1982": 6920,
      "cla": 6921,
      "##nor": 6922,
      "##ullet": 6923,
      "ordning": 6924,
      "kreft": 6925,
      "1977": 6926,
      "##jenesten": 6927,
      "nærmeste": 6928,
      "##idar": 6929,
      "taus": 6930,
      "##enden": 6931,
      "between": 6932,
      "##ryg": 6933,
      "ledelse": 6934,
      "lad": 6935,
      "moral": 6936,
      "1978": 6937,
      "halvor": 6938,
      "statsminister": 6939,
      "klima": 6940,
      "forskjellig": 6941,
      "forsvant": 6942,
      "pasienter": 6943,
      "##gruppe": 6944,
      "doll": 6945,
      "øre": 6946,
      "##ellem": 6947,
      "lave": 6948,
      "##banen": 6949,
      "brans": 6950,
      "skuesp": 6951,
      "grense": 6952,
      "math": 6953,
      "##entral": 6954,
      "1983": 6955,
      "føle": 6956,
      "jente": 6957,
      "##anal": 6958,
      "hurtig": 6959,
      "##itz": 6960,
      "fransk": 6961,
      "bev": 6962,
      "studie": 6963,
      "##veks": 6964,
      "produkter": 6965,
      "forklare": 6966,
      "elektron": 6967,
      "sove": 6968,
      "##ferdig": 6969,
      "svaret": 6970,
      "hust": 6971,
      "sec": 6972,
      "reist": 6973,
      "##skol": 6974,
      "korre": 6975,
      "veggen": 6976,
      "##fru": 6977,
      "##sens": 6978,
      "øl": 6979,
      "grov": 6980,
      "work": 6981,
      "##øde": 6982,
      "##struktur": 6983,
      "##nede": 6984,
      "##yttelse": 6985,
      "##stemer": 6986,
      "##aktør": 6987,
      "fav": 6988,
      "hvisk": 6989,
      "morten": 6990,
      "advokat": 6991,
      "##rede": 6992,
      "##gl": 6993,
      "1975": 6994,
      "utfor": 6995,
      "skjønte": 6996,
      "##skiner": 6997,
      "samling": 6998,
      "norw": 6999,
      "enige": 7000,
      "##rørende": 7001,
      "teksten": 7002,
      "fjerne": 7003,
      "tilpass": 7004,
      "##bi": 7005,
      "nordmenn": 7006,
      "##ktes": 7007,
      "stu": 7008,
      "##tto": 7009,
      "verne": 7010,
      "##plasser": 7011,
      "sannsynligvis": 7012,
      "myndigheter": 7013,
      "##posten": 7014,
      "##onn": 7015,
      "bidrar": 7016,
      "##eler": 7017,
      "befolkningen": 7018,
      "##ael": 7019,
      "178": 7020,
      "vidare": 7021,
      "åpner": 7022,
      "1976": 7023,
      "ask": 7024,
      "stål": 7025,
      "tekniske": 7026,
      "##middel": 7027,
      "##stillinger": 7028,
      "##kende": 7029,
      "lim": 7030,
      "økning": 7031,
      "stri": 7032,
      "##gruppen": 7033,
      "initiativ": 7034,
      "representerer": 7035,
      "sengen": 7036,
      "177": 7037,
      "amerikansk": 7038,
      "åringen": 7039,
      "mom": 7040,
      "##egnet": 7041,
      "##øyt": 7042,
      "##emark": 7043,
      "tunge": 7044,
      "inger": 7045,
      "søv": 7046,
      "##asitet": 7047,
      "##cess": 7048,
      "176": 7049,
      "fungerer": 7050,
      "arkiv": 7051,
      "sektor": 7052,
      "spesiell": 7053,
      "utlandet": 7054,
      "talet": 7055,
      "benyttes": 7056,
      "tils": 7057,
      "##orene": 7058,
      "stanset": 7059,
      "filmen": 7060,
      "fritid": 7061,
      "##strand": 7062,
      "cent": 7063,
      "analyse": 7064,
      "inde": 7065,
      "fortr": 7066,
      "fyller": 7067,
      "herren": 7068,
      "skikkelig": 7069,
      "syl": 7070,
      "tilp": 7071,
      "tung": 7072,
      "korte": 7073,
      "partiet": 7074,
      "kvinnene": 7075,
      "fored": 7076,
      "beslut": 7077,
      "tømmer": 7078,
      "minutt": 7079,
      "stått": 7080,
      "milliarder": 7081,
      "##voll": 7082,
      "##start": 7083,
      "pasienten": 7084,
      "grunnleggende": 7085,
      "stock": 7086,
      "let": 7087,
      "##irektoratet": 7088,
      "potens": 7089,
      "##loven": 7090,
      "##føringen": 7091,
      "ekster": 7092,
      "his": 7093,
      "##vent": 7094,
      "gled": 7095,
      "sover": 7096,
      "##ona": 7097,
      "##iseringen": 7098,
      "##sset": 7099,
      "##sper": 7100,
      "utfordring": 7101,
      "report": 7102,
      "##bør": 7103,
      "løsninger": 7104,
      "hyggelig": 7105,
      "undersøkelse": 7106,
      "måter": 7107,
      "motiv": 7108,
      "prosessen": 7109,
      "flo": 7110,
      "klubb": 7111,
      "konsent": 7112,
      "benyttet": 7113,
      "hang": 7114,
      "knapt": 7115,
      "stim": 7116,
      "##iens": 7117,
      "hund": 7118,
      "stru": 7119,
      "sort": 7120,
      "undervis": 7121,
      "##ilde": 7122,
      "luften": 7123,
      "##abeth": 7124,
      "##grens": 7125,
      "##nevnte": 7126,
      "team": 7127,
      "##skrig": 7128,
      "ettermiddag": 7129,
      "student": 7130,
      "undersøkelser": 7131,
      "analys": 7132,
      "##ela": 7133,
      "farlig": 7134,
      "##own": 7135,
      "design": 7136,
      "retningslin": 7137,
      "800": 7138,
      "konsekvenser": 7139,
      "some": 7140,
      "##ating": 7141,
      "##beg": 7142,
      "diskuter": 7143,
      "hindre": 7144,
      "##økene": 7145,
      "flest": 7146,
      "klubben": 7147,
      "##små": 7148,
      "##ros": 7149,
      "ferie": 7150,
      "##10": 7151,
      "rest": 7152,
      "mult": 7153,
      "rettigheter": 7154,
      "slippe": 7155,
      "oppmerksomhet": 7156,
      "storting": 7157,
      "religion": 7158,
      "##ytta": 7159,
      "suks": 7160,
      "##smessige": 7161,
      "sovjet": 7162,
      "bodø": 7163,
      "myndighet": 7164,
      "##ugen": 7165,
      "##esser": 7166,
      "gutter": 7167,
      "stikk": 7168,
      "plu": 7169,
      "beløp": 7170,
      "skule": 7171,
      "tidleg": 7172,
      "##retning": 7173,
      "serie": 7174,
      "studier": 7175,
      "nokså": 7176,
      "noreg": 7177,
      "##imum": 7178,
      "redde": 7179,
      "ansvarlig": 7180,
      "##draget": 7181,
      "war": 7182,
      "##nivå": 7183,
      "spesif": 7184,
      "gjens": 7185,
      "bag": 7186,
      "typen": 7187,
      "frp": 7188,
      "samarbeidet": 7189,
      "tit": 7190,
      "minn": 7191,
      "##slet": 7192,
      "nabo": 7193,
      "maler": 7194,
      "gyld": 7195,
      "##ittil": 7196,
      "##formen": 7197,
      "presset": 7198,
      "##rykk": 7199,
      "noget": 7200,
      "top": 7201,
      "sykkel": 7202,
      "regulering": 7203,
      "aud": 7204,
      "gjem": 7205,
      "##æs": 7206,
      "these": 7207,
      "##sled": 7208,
      "##sbru": 7209,
      "##ior": 7210,
      "kravet": 7211,
      "##kjente": 7212,
      "læring": 7213,
      "dum": 7214,
      "##områder": 7215,
      "lis": 7216,
      "grunner": 7217,
      "1973": 7218,
      "kjøkkenet": 7219,
      "bekl": 7220,
      "##ible": 7221,
      "##innen": 7222,
      "##orgen": 7223,
      "uavhengig": 7224,
      "##skip": 7225,
      "cup": 7226,
      "stilte": 7227,
      "fantastisk": 7228,
      "kona": 7229,
      "lært": 7230,
      "##fjorden": 7231,
      "high": 7232,
      "mum": 7233,
      "nøye": 7234,
      "ef": 7235,
      "1972": 7236,
      "fik": 7237,
      "minner": 7238,
      "erstatning": 7239,
      "betra": 7240,
      "skader": 7241,
      "kommunal": 7242,
      "dekke": 7243,
      "1974": 7244,
      "##atnet": 7245,
      "kreve": 7246,
      "tyder": 7247,
      "sim": 7248,
      "frig": 7249,
      "tilstand": 7250,
      "##litt": 7251,
      "etc": 7252,
      "##nar": 7253,
      "kos": 7254,
      "##resten": 7255,
      "##forbund": 7256,
      "voksen": 7257,
      "generelle": 7258,
      "skilt": 7259,
      "grønne": 7260,
      "vedlegg": 7261,
      "sivil": 7262,
      "begrunn": 7263,
      "ins": 7264,
      "aktiviteter": 7265,
      "##bon": 7266,
      "foreløpig": 7267,
      "##bas": 7268,
      "##ino": 7269,
      "foregår": 7270,
      "fork": 7271,
      "foreta": 7272,
      "gass": 7273,
      "##sord": 7274,
      "sesongen": 7275,
      "lak": 7276,
      "rekl": 7277,
      "utbet": 7278,
      "ellen": 7279,
      "henger": 7280,
      "fril": 7281,
      "##arden": 7282,
      "fornuft": 7283,
      "passe": 7284,
      "bortsett": 7285,
      "##ørene": 7286,
      "grenser": 7287,
      "vog": 7288,
      "bestemmelsen": 7289,
      "##behandling": 7290,
      "net": 7291,
      "##akk": 7292,
      "kostnader": 7293,
      "simp": 7294,
      "bedt": 7295,
      "##mun": 7296,
      "sogn": 7297,
      "pål": 7298,
      "idé": 7299,
      "fabr": 7300,
      "sies": 7301,
      "halsen": 7302,
      "video": 7303,
      "flag": 7304,
      "døra": 7305,
      "innled": 7306,
      "tomt": 7307,
      "##aard": 7308,
      "##splikt": 7309,
      "vegen": 7310,
      "rich": 7311,
      "od": 7312,
      "##etting": 7313,
      "fylt": 7314,
      "liksom": 7315,
      "døden": 7316,
      "optim": 7317,
      "begrepet": 7318,
      "dagene": 7319,
      "fjellet": 7320,
      "plassert": 7321,
      "lærere": 7322,
      "##50": 7323,
      "emil": 7324,
      "låg": 7325,
      "##asjem": 7326,
      "blo": 7327,
      "sender": 7328,
      "stilt": 7329,
      "tilknytning": 7330,
      "uken": 7331,
      "rosen": 7332,
      "sens": 7333,
      "enhet": 7334,
      "adresse": 7335,
      "strøk": 7336,
      "##gitt": 7337,
      "##cl": 7338,
      "hjul": 7339,
      "overv": 7340,
      "##ology": 7341,
      "##posisjon": 7342,
      "misjon": 7343,
      "fremmed": 7344,
      "foss": 7345,
      "##stet": 7346,
      "fn": 7347,
      "tilnær": 7348,
      "##midler": 7349,
      "organisasjonen": 7350,
      "mørket": 7351,
      "##liggende": 7352,
      "personlige": 7353,
      "sed": 7354,
      "sten": 7355,
      "skapt": 7356,
      "##parti": 7357,
      "integ": 7358,
      "utbygging": 7359,
      "hverdag": 7360,
      "##ts": 7361,
      "##iment": 7362,
      "than": 7363,
      "praktiske": 7364,
      "ære": 7365,
      "camp": 7366,
      "bang": 7367,
      "likhet": 7368,
      "virkeligheten": 7369,
      "miss": 7370,
      "håpet": 7371,
      "jorda": 7372,
      "kring": 7373,
      "##trer": 7374,
      "ekst": 7375,
      "stoppet": 7376,
      "##ject": 7377,
      "kalle": 7378,
      "klokka": 7379,
      "##ielt": 7380,
      "##virkning": 7381,
      "lyse": 7382,
      "nom": 7383,
      "materiale": 7384,
      "##alter": 7385,
      "##ssy": 7386,
      "ekspl": 7387,
      "bestemme": 7388,
      "ringe": 7389,
      "##produksjon": 7390,
      "##program": 7391,
      "starte": 7392,
      "valget": 7393,
      "positivt": 7394,
      "1945": 7395,
      "cap": 7396,
      "##henger": 7397,
      "##ining": 7398,
      "1800": 7399,
      "agder": 7400,
      "tver": 7401,
      "ansatt": 7402,
      "utgift": 7403,
      "##stat": 7404,
      "120": 7405,
      "##fug": 7406,
      "##jektet": 7407,
      "kristiansand": 7408,
      "##annelse": 7409,
      "følelser": 7410,
      "barnehage": 7411,
      "##lands": 7412,
      "norweg": 7413,
      "ara": 7414,
      "kolon": 7415,
      "##virksomhet": 7416,
      "ringte": 7417,
      "##lå": 7418,
      "tog": 7419,
      "laur": 7420,
      "sjøm": 7421,
      "##vendt": 7422,
      "aksjon": 7423,
      "velferd": 7424,
      "trus": 7425,
      "##våg": 7426,
      "##ages": 7427,
      "parall": 7428,
      "europeiske": 7429,
      "1940": 7430,
      "hur": 7431,
      "##ures": 7432,
      "innom": 7433,
      "skru": 7434,
      "merk": 7435,
      "face": 7436,
      "obser": 7437,
      "arkitekt": 7438,
      "park": 7439,
      "vinner": 7440,
      "fulle": 7441,
      "igjennom": 7442,
      "resultatene": 7443,
      "trett": 7444,
      "##ænd": 7445,
      "##oritet": 7446,
      "vinne": 7447,
      "trukket": 7448,
      "bjer": 7449,
      "eide": 7450,
      "falle": 7451,
      "geir": 7452,
      "lil": 7453,
      "##oms": 7454,
      "when": 7455,
      "ekteskap": 7456,
      "tilst": 7457,
      "##fød": 7458,
      "oppfølg": 7459,
      "##cr": 7460,
      "internasjonal": 7461,
      "opplyser": 7462,
      "elis": 7463,
      "sok": 7464,
      "dur": 7465,
      "våk": 7466,
      "aktuelt": 7467,
      "foretatt": 7468,
      "nogen": 7469,
      "inntekter": 7470,
      "forlag": 7471,
      "##book": 7472,
      "innholdet": 7473,
      "forster": 7474,
      "##vekt": 7475,
      "##ye": 7476,
      "forst": 7477,
      "utfordringer": 7478,
      "basis": 7479,
      "sande": 7480,
      "##sessen": 7481,
      "færre": 7482,
      "she": 7483,
      "##ced": 7484,
      "num": 7485,
      "samtale": 7486,
      "oppt": 7487,
      "alminnelig": 7488,
      "fulgt": 7489,
      "##stått": 7490,
      "##fulle": 7491,
      "konvensjon": 7492,
      "dn": 7493,
      "frivillig": 7494,
      "##rak": 7495,
      "parag": 7496,
      "mønster": 7497,
      "vig": 7498,
      "ogsaa": 7499,
      "##ulen": 7500,
      "##deler": 7501,
      "ledet": 7502,
      "##bordet": 7503,
      "1900": 7504,
      "overgang": 7505,
      "tvers": 7506,
      "##ti": 7507,
      "isol": 7508,
      "##sti": 7509,
      "veier": 7510,
      "##byen": 7511,
      "sekret": 7512,
      "konkrete": 7513,
      "##klusjon": 7514,
      "skuldrene": 7515,
      "omgiv": 7516,
      "vises": 7517,
      "lokalt": 7518,
      "kald": 7519,
      "oversk": 7520,
      "storm": 7521,
      "##ep": 7522,
      "kikket": 7523,
      "stift": 7524,
      "drar": 7525,
      "rol": 7526,
      "konsert": 7527,
      "tilskudd": 7528,
      "kristen": 7529,
      "terje": 7530,
      "##øtte": 7531,
      "174": 7532,
      "##bakken": 7533,
      "opprettet": 7534,
      "fellesskap": 7535,
      "smerte": 7536,
      "høyeste": 7537,
      "vedlikehold": 7538,
      "##sjef": 7539,
      "pul": 7540,
      "framover": 7541,
      "pant": 7542,
      "levde": 7543,
      "regner": 7544,
      "mellem": 7545,
      "rekru": 7546,
      "##beveg": 7547,
      "##arm": 7548,
      "##asjen": 7549,
      "filosof": 7550,
      "nøyaktig": 7551,
      "forhånd": 7552,
      "historisk": 7553,
      "nokon": 7554,
      "hog": 7555,
      "såg": 7556,
      "unnt": 7557,
      "##veit": 7558,
      "##rive": 7559,
      "aksje": 7560,
      "oppstår": 7561,
      "##gjorde": 7562,
      "jenta": 7563,
      "tankene": 7564,
      "##skab": 7565,
      "regnes": 7566,
      "sof": 7567,
      "##æg": 7568,
      "##setting": 7569,
      "##tred": 7570,
      "used": 7571,
      "pi": 7572,
      "eir": 7573,
      "utelu": 7574,
      "titt": 7575,
      "##liam": 7576,
      "lek": 7577,
      "250": 7578,
      "##nda": 7579,
      "##inene": 7580,
      "jentene": 7581,
      "fait": 7582,
      "##ower": 7583,
      "ull": 7584,
      "nylig": 7585,
      "##ae": 7586,
      "meiner": 7587,
      "traff": 7588,
      "belast": 7589,
      "##brand": 7590,
      "hjal": 7591,
      "manglende": 7592,
      "oppleve": 7593,
      "##resent": 7594,
      "ressurs": 7595,
      "prioriter": 7596,
      "emp": 7597,
      "fremover": 7598,
      "argument": 7599,
      "##ogra": 7600,
      "social": 7601,
      "tids": 7602,
      "verste": 7603,
      "trinn": 7604,
      "kjører": 7605,
      "militær": 7606,
      "1969": 7607,
      "fanget": 7608,
      "dollar": 7609,
      "økende": 7610,
      "handle": 7611,
      "profil": 7612,
      "grunnlaget": 7613,
      "bevilg": 7614,
      "kontoret": 7615,
      "marker": 7616,
      "snu": 7617,
      "jevn": 7618,
      "##kamp": 7619,
      "##ders": 7620,
      "myndighetene": 7621,
      "##idd": 7622,
      "##cept": 7623,
      "non": 7624,
      "cir": 7625,
      "hesten": 7626,
      "##famil": 7627,
      "##stud": 7628,
      "dansk": 7629,
      "peker": 7630,
      "##aliteten": 7631,
      "##fore": 7632,
      "1971": 7633,
      "kyss": 7634,
      "##vant": 7635,
      "anses": 7636,
      "næringsliv": 7637,
      "penge": 7638,
      "##ulering": 7639,
      "##atret": 7640,
      "anton": 7641,
      "skjær": 7642,
      "dame": 7643,
      "##ninga": 7644,
      "alli": 7645,
      "##asjons": 7646,
      "~~": 7647,
      "##gra": 7648,
      "##pel": 7649,
      "ulik": 7650,
      "negative": 7651,
      "arter": 7652,
      "legem": 7653,
      "##eloven": 7654,
      "innst": 7655,
      "innflyt": 7656,
      "forstand": 7657,
      "forklarer": 7658,
      "##hammer": 7659,
      "bygda": 7660,
      "##shem": 7661,
      "##ash": 7662,
      "følelse": 7663,
      "research": 7664,
      "master": 7665,
      "##gren": 7666,
      "bam": 7667,
      "kla": 7668,
      "håkon": 7669,
      "##handel": 7670,
      "opplevd": 7671,
      "franske": 7672,
      "undersøkelsen": 7673,
      "maten": 7674,
      "lest": 7675,
      "liter": 7676,
      "mulige": 7677,
      "storbr": 7678,
      "held": 7679,
      "bety": 7680,
      "mog": 7681,
      "hevder": 7682,
      "##foss": 7683,
      "bost": 7684,
      "##jent": 7685,
      "##oppen": 7686,
      "##funnet": 7687,
      "its": 7688,
      "årlig": 7689,
      "##otter": 7690,
      "##que": 7691,
      "##vendig": 7692,
      "bakgrunnen": 7693,
      "##somhet": 7694,
      "studenter": 7695,
      "##pene": 7696,
      "fos": 7697,
      "betalt": 7698,
      "overord": 7699,
      "dukket": 7700,
      "representant": 7701,
      "varmt": 7702,
      "norwegian": 7703,
      "##hard": 7704,
      "##off": 7705,
      "termin": 7706,
      "##jev": 7707,
      "##tom": 7708,
      "tørr": 7709,
      "mekan": 7710,
      "max": 7711,
      "michael": 7712,
      "gave": 7713,
      "møtt": 7714,
      "solen": 7715,
      "godkjent": 7716,
      "begrep": 7717,
      "group": 7718,
      "ordningen": 7719,
      "premier": 7720,
      "anden": 7721,
      "beregnet": 7722,
      "##havet": 7723,
      "grus": 7724,
      "eksport": 7725,
      "gram": 7726,
      "nedre": 7727,
      "##fjell": 7728,
      "fremtiden": 7729,
      "##undre": 7730,
      "spilt": 7731,
      "faglig": 7732,
      "garant": 7733,
      "beting": 7734,
      "##skost": 7735,
      "sosialt": 7736,
      "##ssels": 7737,
      "farger": 7738,
      "laste": 7739,
      "skifte": 7740,
      "##ör": 7741,
      "evaluer": 7742,
      "##isse": 7743,
      "konsesjon": 7744,
      "##sik": 7745,
      "##årene": 7746,
      "dags": 7747,
      "stortings": 7748,
      "stabil": 7749,
      "foreslår": 7750,
      "##ious": 7751,
      "mont": 7752,
      "nm": 7753,
      "any": 7754,
      "##folkning": 7755,
      "##ipl": 7756,
      "##nest": 7757,
      "triv": 7758,
      "##enteret": 7759,
      "##resjon": 7760,
      "##esen": 7761,
      "forklaring": 7762,
      "##snivå": 7763,
      "oftest": 7764,
      "##skapene": 7765,
      "seinare": 7766,
      "troms": 7767,
      "tolv": 7768,
      "##vitt": 7769,
      "priser": 7770,
      "##legget": 7771,
      "lit": 7772,
      "##skv": 7773,
      "offis": 7774,
      "slu": 7775,
      "##ktøy": 7776,
      "partene": 7777,
      "deltok": 7778,
      "jørgen": 7779,
      "holm": 7780,
      "hon": 7781,
      "ringer": 7782,
      "bruken": 7783,
      "##11": 7784,
      "trul": 7785,
      "##ttene": 7786,
      "fastsatt": 7787,
      "##alder": 7788,
      "international": 7789,
      "##astro": 7790,
      "bein": 7791,
      "simon": 7792,
      "##partementets": 7793,
      "fund": 7794,
      "forurens": 7795,
      "hast": 7796,
      "##sfull": 7797,
      "konklusjon": 7798,
      "menighet": 7799,
      "avisen": 7800,
      "etasje": 7801,
      "see": 7802,
      "tips": 7803,
      "##ningar": 7804,
      "william": 7805,
      "presten": 7806,
      "what": 7807,
      "brevet": 7808,
      "west": 7809,
      "rust": 7810,
      "dahl": 7811,
      "##hald": 7812,
      "##fs": 7813,
      "arn": 7814,
      "##sjøen": 7815,
      "snill": 7816,
      "inkludert": 7817,
      "##vegen": 7818,
      "grim": 7819,
      "seil": 7820,
      "##apir": 7821,
      "brand": 7822,
      "krefter": 7823,
      "kant": 7824,
      "##stiltak": 7825,
      "teknologi": 7826,
      "##rot": 7827,
      "storbrit": 7828,
      "operasjon": 7829,
      "sem": 7830,
      "hels": 7831,
      "plant": 7832,
      "samlede": 7833,
      "##bakk": 7834,
      "oppmerksom": 7835,
      "##vald": 7836,
      "komite": 7837,
      "afrika": 7838,
      "nordisk": 7839,
      "gjelde": 7840,
      "utsikt": 7841,
      "avl": 7842,
      "uro": 7843,
      "syv": 7844,
      "syssels": 7845,
      "fylket": 7846,
      "bestemmer": 7847,
      "leste": 7848,
      "##stolen": 7849,
      "arv": 7850,
      "turist": 7851,
      "##alene": 7852,
      "##egj": 7853,
      "##peri": 7854,
      "##illende": 7855,
      "teor": 7856,
      "drevet": 7857,
      "grensen": 7858,
      "årsaken": 7859,
      "rente": 7860,
      "beslutning": 7861,
      "storbritann": 7862,
      "bringe": 7863,
      "fløy": 7864,
      "metall": 7865,
      "##rel": 7866,
      "##itert": 7867,
      "##smøte": 7868,
      "debatten": 7869,
      "##speri": 7870,
      "##esund": 7871,
      "about": 7872,
      "##rekk": 7873,
      "teori": 7874,
      "##benhavn": 7875,
      "parad": 7876,
      "##settelse": 7877,
      "isl": 7878,
      "##ends": 7879,
      "##oph": 7880,
      "hellige": 7881,
      "hverken": 7882,
      "##leie": 7883,
      "how": 7884,
      "##sdatter": 7885,
      "##anda": 7886,
      "åpenbart": 7887,
      "fat": 7888,
      "dekk": 7889,
      "kommand": 7890,
      "tallene": 7891,
      "rart": 7892,
      "ledelsen": 7893,
      "kategor": 7894,
      "høv": 7895,
      "##ome": 7896,
      "##inntekt": 7897,
      "##entering": 7898,
      "antar": 7899,
      "tilrett": 7900,
      "born": 7901,
      "butikken": 7902,
      "eventuelle": 7903,
      "rig": 7904,
      "##ij": 7905,
      "1965": 7906,
      "##anne": 7907,
      "##kanten": 7908,
      "kunder": 7909,
      "gjenopp": 7910,
      "nic": 7911,
      "##cher": 7912,
      "hydro": 7913,
      "##send": 7914,
      "##førsel": 7915,
      "##bolig": 7916,
      "misten": 7917,
      "##stiden": 7918,
      "kaste": 7919,
      "oppford": 7920,
      "pur": 7921,
      "##iskop": 7922,
      "dets": 7923,
      "dialog": 7924,
      "kristin": 7925,
      "##fullt": 7926,
      "##ient": 7927,
      "##akere": 7928,
      "##cted": 7929,
      "passasjer": 7930,
      "##ail": 7931,
      "sykehuset": 7932,
      "leverand": 7933,
      "##jeneste": 7934,
      "##udsjett": 7935,
      "planlegging": 7936,
      "offer": 7937,
      "betaling": 7938,
      "bevegelse": 7939,
      "##vesenet": 7940,
      "home": 7941,
      "italia": 7942,
      "##elag": 7943,
      "engasjem": 7944,
      "sorg": 7945,
      "grø": 7946,
      "##elsens": 7947,
      "sla": 7948,
      "konfer": 7949,
      "1967": 7950,
      "##atikk": 7951,
      "champ": 7952,
      "kjøret": 7953,
      "##arbeidere": 7954,
      "rådet": 7955,
      "sti": 7956,
      "dominer": 7957,
      "##ova": 7958,
      "eiendommen": 7959,
      "sendes": 7960,
      "gol": 7961,
      "##utvalget": 7962,
      "infl": 7963,
      "nåværende": 7964,
      "indust": 7965,
      "##fen": 7966,
      "##budet": 7967,
      "kandid": 7968,
      "radi": 7969,
      "tradisjonelle": 7970,
      "bun": 7971,
      "treffe": 7972,
      "gleder": 7973,
      "endte": 7974,
      "takt": 7975,
      "house": 7976,
      "kritikk": 7977,
      "komedie": 7978,
      "motiver": 7979,
      "##sky": 7980,
      "lyden": 7981,
      "##komst": 7982,
      "##strekning": 7983,
      "landene": 7984,
      "such": 7985,
      "gifte": 7986,
      "ki": 7987,
      "##forskning": 7988,
      "karen": 7989,
      "##hing": 7990,
      "intro": 7991,
      "nik": 7992,
      "telefonen": 7993,
      "byens": 7994,
      "sandnes": 7995,
      "nyhetene": 7996,
      "##inder": 7997,
      "samisk": 7998,
      "lykke": 7999,
      "##ommen": 8000,
      "telemark": 8001,
      "lut": 8002,
      "kors": 8003,
      "fingrene": 8004,
      "hammer": 8005,
      "bygges": 8006,
      "##ktige": 8007,
      "rune": 8008,
      "##båt": 8009,
      "vurdert": 8010,
      "bestemmelsene": 8011,
      "##ek": 8012,
      "sekund": 8013,
      "internett": 8014,
      "hittil": 8015,
      "1930": 8016,
      "innov": 8017,
      "1968": 8018,
      "forvir": 8019,
      "geograf": 8020,
      "stasjon": 8021,
      "stram": 8022,
      "spenning": 8023,
      "planlagt": 8024,
      "##arn": 8025,
      "skrå": 8026,
      "##onger": 8027,
      "fysiske": 8028,
      "front": 8029,
      "dagbladet": 8030,
      "brudd": 8031,
      "theory": 8032,
      "tilfellet": 8033,
      "åpning": 8034,
      "selskaper": 8035,
      "representanter": 8036,
      "ran": 8037,
      "ond": 8038,
      "##stjeneste": 8039,
      "##ful": 8040,
      "vinden": 8041,
      "##artet": 8042,
      "##smenn": 8043,
      "kreves": 8044,
      "##elin": 8045,
      "##steder": 8046,
      "tjener": 8047,
      ".),": 8048,
      "1920": 8049,
      "allmenn": 8050,
      "kristus": 8051,
      "forening": 8052,
      "jød": 8053,
      "husket": 8054,
      "dron": 8055,
      "##kjer": 8056,
      "##opper": 8057,
      "retur": 8058,
      "##chn": 8059,
      "##sene": 8060,
      "hat": 8061,
      "ild": 8062,
      "##sla": 8063,
      "forsøke": 8064,
      "rasjon": 8065,
      "kina": 8066,
      "##oger": 8067,
      "bob": 8068,
      "ordfør": 8069,
      "##usk": 8070,
      "atom": 8071,
      "rolf": 8072,
      "prat": 8073,
      "##fta": 8074,
      "grundig": 8075,
      "kompon": 8076,
      "##esse": 8077,
      "døgn": 8078,
      "tunn": 8079,
      ">>\"\"": 8080,
      "jose": 8081,
      "##ison": 8082,
      "vakker": 8083,
      "divisjon": 8084,
      "prinsippet": 8085,
      "hytte": 8086,
      "støy": 8087,
      "stockholm": 8088,
      "forsto": 8089,
      "produksjonen": 8090,
      "##mos": 8091,
      "##ikler": 8092,
      "flat": 8093,
      "##økonom": 8094,
      "sigurd": 8095,
      "solberg": 8096,
      "forsøker": 8097,
      "stiv": 8098,
      "overl": 8099,
      "mac": 8100,
      "suksess": 8101,
      "veiledning": 8102,
      "##blikket": 8103,
      "hyp": 8104,
      "##inte": 8105,
      "historiske": 8106,
      "opprinnelig": 8107,
      "situasjoner": 8108,
      "nordiske": 8109,
      "spen": 8110,
      "foreslått": 8111,
      "##ktivt": 8112,
      "eksisterende": 8113,
      "gjere": 8114,
      "##yse": 8115,
      "slutte": 8116,
      "karri": 8117,
      "dun": 8118,
      "levert": 8119,
      "bit": 8120,
      "kaldt": 8121,
      "verdien": 8122,
      "##byggere": 8123,
      "##snes": 8124,
      "170": 8125,
      "henholdsvis": 8126,
      "daniel": 8127,
      "##sløs": 8128,
      "##ari": 8129,
      "faglige": 8130,
      "fordelt": 8131,
      "endel": 8132,
      "prin": 8133,
      "bekymret": 8134,
      "revolusjon": 8135,
      "##lement": 8136,
      "tilfeldig": 8137,
      "nevnes": 8138,
      "##alb": 8139,
      "heldigvis": 8140,
      "heime": 8141,
      "##lim": 8142,
      "##xt": 8143,
      "feir": 8144,
      "##engte": 8145,
      "kvad": 8146,
      "##wood": 8147,
      "låne": 8148,
      "totale": 8149,
      "forplikt": 8150,
      "##\"\"\"": 8151,
      "##vanlig": 8152,
      "##fatt": 8153,
      "long": 8154,
      "inngår": 8155,
      "##elling": 8156,
      "fon": 8157,
      "friluft": 8158,
      "##talen": 8159,
      "##ikkelen": 8160,
      "##ifor": 8161,
      "holdes": 8162,
      "##oppl": 8163,
      "##iest": 8164,
      "sola": 8165,
      "psykisk": 8166,
      "kontrol": 8167,
      "møl": 8168,
      "utføre": 8169,
      "172": 8170,
      "aksept": 8171,
      "##but": 8172,
      "grader": 8173,
      "døm": 8174,
      "tilby": 8175,
      "es": 8176,
      "##ience": 8177,
      "##kja": 8178,
      "lou": 8179,
      "tide": 8180,
      "romant": 8181,
      "##lund": 8182,
      "skipet": 8183,
      "rab": 8184,
      "##makt": 8185,
      "##irektør": 8186,
      "forholdsvis": 8187,
      "bistand": 8188,
      "behandlingen": 8189,
      "starten": 8190,
      "tilfreds": 8191,
      "##ai": 8192,
      "dimensjon": 8193,
      "most": 8194,
      "fris": 8195,
      "terror": 8196,
      "klage": 8197,
      "🧑🏾": 8198,
      "🧑🏼": 8199,
      "🧑🏽": 8200,
      "🧑🏻": 8201,
      "🧑🏿": 8202,
      "leilighet": 8203,
      "identitet": 8204,
      "##skjer": 8205,
      "teoret": 8206,
      "avsluttet": 8207,
      "morgenen": 8208,
      "bered": 8209,
      "øya": 8210,
      "mari": 8211,
      "deil": 8212,
      "##ologien": 8213,
      "mit": 8214,
      "##ism": 8215,
      "vor": 8216,
      "romer": 8217,
      "kysten": 8218,
      "følg": 8219,
      "troll": 8220,
      "##ieren": 8221,
      "konsul": 8222,
      "hage": 8223,
      "##ou": 8224,
      "##naden": 8225,
      "700": 8226,
      "opph": 8227,
      "guttene": 8228,
      "særskilt": 8229,
      "flyt": 8230,
      "##gjøring": 8231,
      "finland": 8232,
      "##nu": 8233,
      "flam": 8234,
      "##eleder": 8235,
      "##bb": 8236,
      "only": 8237,
      "diagn": 8238,
      "austral": 8239,
      "skjul": 8240,
      "samtlige": 8241,
      "kommunestyret": 8242,
      "1966": 8243,
      "##institusjon": 8244,
      "166": 8245,
      "ødeleg": 8246,
      "avgjøre": 8247,
      "bestand": 8248,
      "##orge": 8249,
      "miste": 8250,
      "jag": 8251,
      "intens": 8252,
      "liste": 8253,
      "klassen": 8254,
      "feltet": 8255,
      "##likevel": 8256,
      "egenskaper": 8257,
      "melder": 8258,
      "sprang": 8259,
      "toget": 8260,
      "røn": 8261,
      "lykkes": 8262,
      "skand": 8263,
      "##hengen": 8264,
      "equ": 8265,
      "##endt": 8266,
      "rt": 8267,
      "utbred": 8268,
      "sint": 8269,
      "##edyr": 8270,
      "føres": 8271,
      "##ict": 8272,
      "antallet": 8273,
      "##utvik": 8274,
      "fett": 8275,
      "opphe": 8276,
      "dagsnytt": 8277,
      "gjenstand": 8278,
      "molde": 8279,
      "modern": 8280,
      "banen": 8281,
      "##ath": 8282,
      "overh": 8283,
      "##ides": 8284,
      "##ini": 8285,
      "hamar": 8286,
      "mind": 8287,
      "##spekt": 8288,
      "eksper": 8289,
      "staden": 8290,
      "##kkelen": 8291,
      "reager": 8292,
      "vendte": 8293,
      "medlemmene": 8294,
      "helset": 8295,
      "motsetning": 8296,
      "coun": 8297,
      "##lek": 8298,
      "allikevel": 8299,
      "journalist": 8300,
      "##atert": 8301,
      "ukjent": 8302,
      "greie": 8303,
      "gas": 8304,
      "##sekret": 8305,
      "maa": 8306,
      "first": 8307,
      "parkering": 8308,
      "mikro": 8309,
      "brem": 8310,
      "bærer": 8311,
      "hjemmel": 8312,
      "storbritannia": 8313,
      "britiske": 8314,
      "ens": 8315,
      "unnskyld": 8316,
      "synspunkt": 8317,
      "##egrupp": 8318,
      "##fun": 8319,
      "enden": 8320,
      "##anna": 8321,
      "##ging": 8322,
      "util": 8323,
      "##bra": 8324,
      "klin": 8325,
      "overtok": 8326,
      "moss": 8327,
      "fler": 8328,
      "verkst": 8329,
      "heg": 8330,
      "into": 8331,
      "##ksp": 8332,
      "##felle": 8333,
      "hvisket": 8334,
      "kaptein": 8335,
      "takket": 8336,
      "brystet": 8337,
      "typisk": 8338,
      "likt": 8339,
      "vegne": 8340,
      "tw": 8341,
      "sverre": 8342,
      "##cis": 8343,
      "militære": 8344,
      "gratulerer": 8345,
      "matem": 8346,
      "##ason": 8347,
      "pusten": 8348,
      "##sig": 8349,
      "##byrå": 8350,
      "university": 8351,
      "##utdanning": 8352,
      "vell": 8353,
      "pause": 8354,
      "kull": 8355,
      "##ypt": 8356,
      "##ligheten": 8357,
      "københavn": 8358,
      "forny": 8359,
      "##jo": 8360,
      "rektor": 8361,
      "lud": 8362,
      "pus": 8363,
      "finger": 8364,
      "elsket": 8365,
      "##enny": 8366,
      "glemt": 8367,
      "##punkter": 8368,
      "riktignok": 8369,
      "##osjon": 8370,
      "##meng": 8371,
      "arranger": 8372,
      "##været": 8373,
      "hull": 8374,
      "##bytte": 8375,
      "gun": 8376,
      "trur": 8377,
      "##ifik": 8378,
      "tverr": 8379,
      "##ålmod": 8380,
      "hær": 8381,
      "##arer": 8382,
      "##uddet": 8383,
      "samferd": 8384,
      "riks": 8385,
      "eva": 8386,
      "fylkesmannen": 8387,
      "kim": 8388,
      "173": 8389,
      "aktivt": 8390,
      "##sport": 8391,
      "undert": 8392,
      "rogaland": 8393,
      "repar": 8394,
      "enor": 8395,
      "ledere": 8396,
      "1964": 8397,
      "betegn": 8398,
      "##umet": 8399,
      "oks": 8400,
      "banken": 8401,
      "##imer": 8402,
      "##rup": 8403,
      "gaten": 8404,
      "oft": 8405,
      "ansett": 8406,
      "temmelig": 8407,
      "facebook": 8408,
      "fed": 8409,
      "forutsetning": 8410,
      "##18": 8411,
      "omstend": 8412,
      "mengde": 8413,
      "por": 8414,
      "##eliv": 8415,
      "##vernet": 8416,
      "kilder": 8417,
      "spec": 8418,
      "arbeiderpartiet": 8419,
      "talt": 8420,
      "##gress": 8421,
      "wa": 8422,
      "viking": 8423,
      "merkelig": 8424,
      "umiddelbart": 8425,
      "##kultur": 8426,
      "pekte": 8427,
      "metode": 8428,
      "musikken": 8429,
      "##nep": 8430,
      "utstrekning": 8431,
      "##bred": 8432,
      "org": 8433,
      "##lesund": 8434,
      "forskrifter": 8435,
      "where": 8436,
      "forskjellen": 8437,
      "speil": 8438,
      "##????": 8439,
      "##yting": 8440,
      "omtalt": 8441,
      "sittende": 8442,
      "fukt": 8443,
      "##allfall": 8444,
      "even": 8445,
      "##legges": 8446,
      "lyder": 8447,
      "naar": 8448,
      "rasmus": 8449,
      "##lagte": 8450,
      "luks": 8451,
      "##lu": 8452,
      "søvn": 8453,
      "ess": 8454,
      "##bre": 8455,
      "verdt": 8456,
      "##agasin": 8457,
      "beskrevet": 8458,
      "drammen": 8459,
      "innflytelse": 8460,
      "##illes": 8461,
      "liggende": 8462,
      "møre": 8463,
      "##15": 8464,
      "krim": 8465,
      "handlinger": 8466,
      "##penger": 8467,
      "sss": 8468,
      "boliger": 8469,
      "etablere": 8470,
      "presidenten": 8471,
      "##rip": 8472,
      "skyte": 8473,
      "##bygd": 8474,
      "rødt": 8475,
      "anvende": 8476,
      "##grid": 8477,
      "%.": 8478,
      "##veren": 8479,
      "elisabeth": 8480,
      "prinsipp": 8481,
      "james": 8482,
      "900": 8483,
      "komment": 8484,
      "dokumenter": 8485,
      "##dommer": 8486,
      "aas": 8487,
      "holdning": 8488,
      "verdenskrig": 8489,
      "##slutning": 8490,
      "##handlingen": 8491,
      "gust": 8492,
      "##boka": 8493,
      "##skapen": 8494,
      "##sdepartementet": 8495,
      "vokste": 8496,
      "##isser": 8497,
      "fersk": 8498,
      "befolkning": 8499,
      "pin": 8500,
      "uen": 8501,
      "partner": 8502,
      "##viser": 8503,
      "##innene": 8504,
      "legen": 8505,
      "assist": 8506,
      "utbygg": 8507,
      "##sdagen": 8508,
      "borg": 8509,
      "bergens": 8510,
      "cas": 8511,
      "elles": 8512,
      "bul": 8513,
      "medfører": 8514,
      "nevne": 8515,
      "##ørte": 8516,
      "etterspør": 8517,
      "dannet": 8518,
      "fange": 8519,
      "##jeg": 8520,
      "aka": 8521,
      "##16": 8522,
      "roman": 8523,
      "kalde": 8524,
      "asyl": 8525,
      "##repren": 8526,
      "onkel": 8527,
      "national": 8528,
      "overrasket": 8529,
      "egnet": 8530,
      "knytte": 8531,
      "inspir": 8532,
      "inviter": 8533,
      "##staden": 8534,
      "uttrykket": 8535,
      "development": 8536,
      "synlig": 8537,
      "ingrid": 8538,
      "angel": 8539,
      "engelske": 8540,
      "null": 8541,
      "anvendelse": 8542,
      "alvorlige": 8543,
      "##lad": 8544,
      "##etak": 8545,
      "omsetning": 8546,
      "diff": 8547,
      "veter": 8548,
      "period": 8549,
      "områdene": 8550,
      "beskriver": 8551,
      "##atsen": 8552,
      "tomm": 8553,
      "##aktivitet": 8554,
      "pent": 8555,
      "loc": 8556,
      "lød": 8557,
      "innkjøp": 8558,
      "well": 8559,
      "unntatt": 8560,
      "petro": 8561,
      "##uel": 8562,
      "fordeling": 8563,
      "ingeborg": 8564,
      "##ied": 8565,
      "....": 8566,
      "##19": 8567,
      "hvorvidt": 8568,
      "bens": 8569,
      "bade": 8570,
      "mottatt": 8571,
      "perm": 8572,
      "shall": 8573,
      "##domm": 8574,
      "magen": 8575,
      "dato": 8576,
      "gråt": 8577,
      "lem": 8578,
      "nyttig": 8579,
      "gjennem": 8580,
      "##minister": 8581,
      "retningslinjer": 8582,
      "tapt": 8583,
      "eksist": 8584,
      "tilhører": 8585,
      "##ree": 8586,
      "##bak": 8587,
      "##ierne": 8588,
      "bytte": 8589,
      "##appar": 8590,
      "terreng": 8591,
      "innbygger": 8592,
      "1961": 8593,
      "skjeb": 8594,
      "##ya": 8595,
      "kommunens": 8596,
      "who": 8597,
      "##løse": 8598,
      "kapasitet": 8599,
      "internasjonalt": 8600,
      "bildene": 8601,
      "iverks": 8602,
      "oblig": 8603,
      "##ads": 8604,
      "bemer": 8605,
      "cro": 8606,
      "helgen": 8607,
      "trist": 8608,
      "utvidet": 8609,
      "eksterne": 8610,
      "##bot": 8611,
      "utenlandske": 8612,
      "air": 8613,
      "##ira": 8614,
      "##blemer": 8615,
      "nødvendigvis": 8616,
      "##inke": 8617,
      "utkast": 8618,
      "kritisk": 8619,
      "oppfølging": 8620,
      "jonas": 8621,
      "huden": 8622,
      "saksbe": 8623,
      "engasj": 8624,
      "vesle": 8625,
      "medan": 8626,
      "flotte": 8627,
      "kamper": 8628,
      "russiske": 8629,
      "dårlige": 8630,
      "kriter": 8631,
      "innført": 8632,
      "stillinger": 8633,
      "forstyr": 8634,
      "gjennomgå": 8635,
      "##æv": 8636,
      "trygt": 8637,
      "ål": 8638,
      "miljøet": 8639,
      "##bur": 8640,
      "utst": 8641,
      "bakover": 8642,
      "right": 8643,
      "bri": 8644,
      "##slå": 8645,
      "jurid": 8646,
      "sakene": 8647,
      "trav": 8648,
      "høve": 8649,
      "begj": 8650,
      "bert": 8651,
      "##eten": 8652,
      "rid": 8653,
      "##givning": 8654,
      "stolen": 8655,
      "mangfold": 8656,
      "kristoffer": 8657,
      "aksjer": 8658,
      "##film": 8659,
      "synet": 8660,
      "##lam": 8661,
      "innh": 8662,
      "lovens": 8663,
      "stillingen": 8664,
      "##lingene": 8665,
      "skum": 8666,
      "møtes": 8667,
      "##cent": 8668,
      "life": 8669,
      "utenom": 8670,
      "aa": 8671,
      "påvirke": 8672,
      "dekning": 8673,
      "revisjon": 8674,
      "##fang": 8675,
      "distrib": 8676,
      "##uv": 8677,
      "virksom": 8678,
      "modellen": 8679,
      "##valt": 8680,
      "bakke": 8681,
      "hustru": 8682,
      "##renn": 8683,
      "##iff": 8684,
      "tilbudet": 8685,
      "##iem": 8686,
      "##ungen": 8687,
      "skiller": 8688,
      "eriksen": 8689,
      "##ården": 8690,
      "hellig": 8691,
      "tidssk": 8692,
      "kreditt": 8693,
      "språket": 8694,
      "##fallet": 8695,
      "##kkert": 8696,
      "evangel": 8697,
      "plante": 8698,
      "opplevelse": 8699,
      "##kampen": 8700,
      "kjørt": 8701,
      "##alderen": 8702,
      "sho": 8703,
      "utslipp": 8704,
      "arrangem": 8705,
      "##edel": 8706,
      "##retten": 8707,
      "iii": 8708,
      "##sborg": 8709,
      "kines": 8710,
      "##drift": 8711,
      "vende": 8712,
      "##ivalen": 8713,
      "alders": 8714,
      "ulov": 8715,
      "##//": 8716,
      "nark": 8717,
      "##12": 8718,
      "fylte": 8719,
      "vanskelige": 8720,
      "vilt": 8721,
      "samband": 8722,
      "avtaler": 8723,
      "idag": 8724,
      "tingene": 8725,
      "iallfall": 8726,
      "ålesund": 8727,
      "skapte": 8728,
      "erling": 8729,
      ",\"\"\"\"": 8730,
      "harry": 8731,
      "hevdet": 8732,
      "##slått": 8733,
      "rat": 8734,
      "rollene": 8735,
      "major": 8736,
      "sene": 8737,
      "glade": 8738,
      "elva": 8739,
      "##inav": 8740,
      "koll": 8741,
      "vidar": 8742,
      "samtykke": 8743,
      "slipper": 8744,
      "institusjoner": 8745,
      "helga": 8746,
      "##ump": 8747,
      "##taket": 8748,
      "punktum": 8749,
      "##bor": 8750,
      "eirik": 8751,
      "##spar": 8752,
      "harde": 8753,
      "helvet": 8754,
      "1962": 8755,
      "1946": 8756,
      "nyg": 8757,
      "##uta": 8758,
      "##hv": 8759,
      "##itor": 8760,
      "melde": 8761,
      "oppgaven": 8762,
      "lie": 8763,
      "##cus": 8764,
      "løpe": 8765,
      "nådde": 8766,
      "indi": 8767,
      "nys": 8768,
      "henry": 8769,
      "kontroller": 8770,
      "sekunder": 8771,
      "##egler": 8772,
      "gab": 8773,
      "##stiller": 8774,
      "##ned": 8775,
      "aktive": 8776,
      "##ters": 8777,
      "##onen": 8778,
      "##hor": 8779,
      "opplevde": 8780,
      "avgrens": 8781,
      "betydningen": 8782,
      "metoder": 8783,
      "horn": 8784,
      "different": 8785,
      "##ioder": 8786,
      "medier": 8787,
      "flytt": 8788,
      "##egang": 8789,
      "barnd": 8790,
      "tillatelse": 8791,
      "good": 8792,
      "øyeblikket": 8793,
      "reform": 8794,
      "samtalen": 8795,
      "##go": 8796,
      "formen": 8797,
      "andres": 8798,
      "glas": 8799,
      "krf": 8800,
      "foretak": 8801,
      "richard": 8802,
      "vokser": 8803,
      "forutsetter": 8804,
      "count": 8805,
      "hjemmet": 8806,
      "søkte": 8807,
      "styring": 8808,
      "##iva": 8809,
      "merker": 8810,
      "ekstrem": 8811,
      "versjon": 8812,
      "tykk": 8813,
      "##bal": 8814,
      "støn": 8815,
      "open": 8816,
      "##egner": 8817,
      "##ibil": 8818,
      "atl": 8819,
      "haugen": 8820,
      "##sons": 8821,
      "110": 8822,
      "løper": 8823,
      "miner": 8824,
      "lengde": 8825,
      "tante": 8826,
      "'.": 8827,
      "trykket": 8828,
      "utnytte": 8829,
      "media": 8830,
      "##kommun": 8831,
      "##fé": 8832,
      "solid": 8833,
      "##side": 8834,
      "##stall": 8835,
      "detaljer": 8836,
      "##kro": 8837,
      "##dis": 8838,
      "løfte": 8839,
      "damp": 8840,
      "lykkelig": 8841,
      "jack": 8842,
      "oppgjør": 8843,
      "akadem": 8844,
      "datteren": 8845,
      "##papir": 8846,
      "##ygger": 8847,
      "skiftet": 8848,
      "##ble": 8849,
      "spiser": 8850,
      "##ico": 8851,
      "giftet": 8852,
      "isb": 8853,
      "aksep": 8854,
      "##ship": 8855,
      "danner": 8856,
      "dl": 8857,
      "##foreningen": 8858,
      "##ssitu": 8859,
      "##tering": 8860,
      "leif": 8861,
      "##boks": 8862,
      "hjalp": 8863,
      "østfold": 8864,
      "etterl": 8865,
      "##terte": 8866,
      "##anden": 8867,
      "##kta": 8868,
      "solgte": 8869,
      "brenne": 8870,
      "broren": 8871,
      "laga": 8872,
      "grens": 8873,
      "techn": 8874,
      "familier": 8875,
      "past": 8876,
      "##anken": 8877,
      "forsøkt": 8878,
      "##elege": 8879,
      "##ula": 8880,
      "stoppe": 8881,
      "buss": 8882,
      "##ansert": 8883,
      "betraktet": 8884,
      "##por": 8885,
      "husk": 8886,
      "forbund": 8887,
      "1963": 8888,
      "run": 8889,
      "pluss": 8890,
      "sb": 8891,
      "1948": 8892,
      "beskrivelse": 8893,
      "biskop": 8894,
      "stengt": 8895,
      "utarbeidet": 8896,
      "##snyheter": 8897,
      "forferd": 8898,
      "##ottet": 8899,
      "overalt": 8900,
      "johnsen": 8901,
      "justis": 8902,
      "##seende": 8903,
      "redaktør": 8904,
      "innbyggere": 8905,
      "case": 8906,
      "skrik": 8907,
      "##90": 8908,
      "diam": 8909,
      "dømt": 8910,
      "styrem": 8911,
      "scenen": 8912,
      "city": 8913,
      "##ulert": 8914,
      "sannheten": 8915,
      "japan": 8916,
      "##fast": 8917,
      "##ila": 8918,
      "fremmede": 8919,
      "dus": 8920,
      "varierer": 8921,
      "berlin": 8922,
      "perfekt": 8923,
      "behandles": 8924,
      "##rerte": 8925,
      "bryll": 8926,
      "bestefar": 8927,
      "bane": 8928,
      "##verks": 8929,
      "##sha": 8930,
      "],": 8931,
      "øog": 8932,
      "##imal": 8933,
      "kåre": 8934,
      "foster": 8935,
      "##ppel": 8936,
      "##verden": 8937,
      "akershus": 8938,
      "isted": 8939,
      "##itten": 8940,
      "rammet": 8941,
      "glemme": 8942,
      "oppgitt": 8943,
      "bruks": 8944,
      "midlertidig": 8945,
      "kjeller": 8946,
      "old": 8947,
      "econom": 8948,
      "jø": 8949,
      "rem": 8950,
      "behøver": 8951,
      "aktører": 8952,
      "##eldige": 8953,
      "state": 8954,
      "sjeld": 8955,
      "frivillige": 8956,
      "##kommer": 8957,
      "foredrag": 8958,
      "fylle": 8959,
      "##svir": 8960,
      "##~~~~~~~~": 8961,
      "atter": 8962,
      "betre": 8963,
      "roy": 8964,
      "after": 8965,
      "måler": 8966,
      "separ": 8967,
      "utføres": 8968,
      "næringslivet": 8969,
      "mengder": 8970,
      "ker": 8971,
      "tyrk": 8972,
      "##gikk": 8973,
      "##egård": 8974,
      "personen": 8975,
      "kalte": 8976,
      "anlegget": 8977,
      "ssss": 8978,
      "##bert": 8979,
      "foll": 8980,
      "analyser": 8981,
      "beholde": 8982,
      "##regn": 8983,
      "lillehammer": 8984,
      "bønn": 8985,
      "gjennomføring": 8986,
      "##rog": 8987,
      "##holdet": 8988,
      "faktorer": 8989,
      "understreker": 8990,
      "##skr": 8991,
      "sper": 8992,
      "smiler": 8993,
      "skriftlig": 8994,
      "forhand": 8995,
      "generell": 8996,
      "mørkt": 8997,
      "selskapets": 8998,
      "daglige": 8999,
      "utdannings": 9000,
      "forresten": 9001,
      "antagelig": 9002,
      "aur": 9003,
      "melk": 9004,
      "serien": 9005,
      "trø": 9006,
      "befinner": 9007,
      "forbundet": 9008,
      "vaske": 9009,
      "cell": 9010,
      "villig": 9011,
      "amund": 9012,
      "bestemmelse": 9013,
      "erver": 9014,
      "##ømm": 9015,
      "faktum": 9016,
      "kjøpes": 9017,
      "##jar": 9018,
      "snur": 9019,
      "##cke": 9020,
      "##result": 9021,
      "##agelse": 9022,
      "spania": 9023,
      "bebo": 9024,
      "forsvaret": 9025,
      "##burg": 9026,
      "nerv": 9027,
      "partic": 9028,
      "trump": 9029,
      "##kne": 9030,
      "song": 9031,
      "hord": 9032,
      "mulighetene": 9033,
      "use": 9034,
      "skøy": 9035,
      "hunden": 9036,
      "mottak": 9037,
      "fond": 9038,
      "nyn": 9039,
      "##verse": 9040,
      "knud": 9041,
      "vurderes": 9042,
      "avfall": 9043,
      "kome": 9044,
      "konsentrasjon": 9045,
      "did": 9046,
      "##ype": 9047,
      "##sretten": 9048,
      "dekker": 9049,
      "rulle": 9050,
      "##ria": 9051,
      "billig": 9052,
      "tvert": 9053,
      "##gs": 9054,
      "##agram": 9055,
      "##kontoret": 9056,
      "tilfredsstillende": 9057,
      "bøyde": 9058,
      "##bjør": 9059,
      "undersøke": 9060,
      "stry": 9061,
      "##bøker": 9062,
      "lengst": 9063,
      "##uth": 9064,
      "klasser": 9065,
      "dokumentarserie": 9066,
      "##hengige": 9067,
      "arab": 9068,
      "skjema": 9069,
      "innan": 9070,
      "betaler": 9071,
      "##ykket": 9072,
      "fenomen": 9073,
      "forbe": 9074,
      "1947": 9075,
      "##omet": 9076,
      "##utstyr": 9077,
      "leke": 9078,
      "beskytte": 9079,
      "lurte": 9080,
      "dyb": 9081,
      "distr": 9082,
      "elver": 9083,
      "slit": 9084,
      "##--": 9085,
      "##bevis": 9086,
      "love": 9087,
      "materialet": 9088,
      "franc": 9089,
      "streng": 9090,
      "wal": 9091,
      "##lir": 9092,
      "##aer": 9093,
      "byer": 9094,
      "forbruk": 9095,
      "passet": 9096,
      "##line": 9097,
      "##moen": 9098,
      "##zen": 9099,
      "elsk": 9100,
      "1956": 9101,
      "160": 9102,
      "georg": 9103,
      "henven": 9104,
      "##høg": 9105,
      "foreslå": 9106,
      "høres": 9107,
      "minnet": 9108,
      "##onser": 9109,
      "turn": 9110,
      "tidlegare": 9111,
      "fm": 9112,
      "festet": 9113,
      "##mater": 9114,
      "frie": 9115,
      "boks": 9116,
      "delte": 9117,
      "deltar": 9118,
      "spurt": 9119,
      "hert": 9120,
      "##su": 9121,
      "##bestemm": 9122,
      "1957": 9123,
      "half": 9124,
      "drag": 9125,
      "##hov": 9126,
      "##blant": 9127,
      "fakta": 9128,
      "spillere": 9129,
      "##tekn": 9130,
      "verktøy": 9131,
      "##idig": 9132,
      "public": 9133,
      "dalen": 9134,
      "lyng": 9135,
      "følelsen": 9136,
      "herred": 9137,
      "skudd": 9138,
      "redaksjon": 9139,
      "fisken": 9140,
      "tour": 9141,
      "disc": 9142,
      "hvitt": 9143,
      "humor": 9144,
      "svake": 9145,
      "herunder": 9146,
      "##kapital": 9147,
      "mess": 9148,
      "romsdal": 9149,
      "elektrisk": 9150,
      "flink": 9151,
      "##isjoner": 9152,
      "danse": 9153,
      "##smidler": 9154,
      "verdif": 9155,
      "gjø": 9156,
      "skuespiller": 9157,
      "##besk": 9158,
      "rekrutter": 9159,
      "soldater": 9160,
      "koster": 9161,
      "##elset": 9162,
      "gammelt": 9163,
      "1939": 9164,
      "##gja": 9165,
      "##planen": 9166,
      "paragraf": 9167,
      "##rul": 9168,
      "##klart": 9169,
      "water": 9170,
      "##esterett": 9171,
      "##itar": 9172,
      "politikere": 9173,
      "kjerne": 9174,
      "sjanse": 9175,
      "bust": 9176,
      "##smøtet": 9177,
      "kyrkje": 9178,
      "problemene": 9179,
      "damer": 9180,
      "barnehagen": 9181,
      "religiøse": 9182,
      "personal": 9183,
      "antas": 9184,
      "gym": 9185,
      "liber": 9186,
      "spring": 9187,
      "ordentlig": 9188,
      "##oline": 9189,
      "begrav": 9190,
      "##åsen": 9191,
      "konsekvens": 9192,
      "1949": 9193,
      "organisert": 9194,
      "symptom": 9195,
      "##17": 9196,
      "##splassen": 9197,
      "jim": 9198,
      "##meter": 9199,
      "##ness": 9200,
      "##språk": 9201,
      "##iert": 9202,
      "lod": 9203,
      "blind": 9204,
      "spørsmålene": 9205,
      "rammer": 9206,
      "fangst": 9207,
      "skjønt": 9208,
      "luksus": 9209,
      "vegg": 9210,
      "##pensjon": 9211,
      "opprør": 9212,
      "eik": 9213,
      "gjester": 9214,
      "##svik": 9215,
      "##smynd": 9216,
      "eksem": 9217,
      "##marks": 9218,
      "lor": 9219,
      "sida": 9220,
      "process": 9221,
      "naturlige": 9222,
      "dynam": 9223,
      "engasjement": 9224,
      "kvadrat": 9225,
      "mæ": 9226,
      "læreren": 9227,
      "##uset": 9228,
      "##ordet": 9229,
      "alminnelige": 9230,
      "##ivind": 9231,
      "avdel": 9232,
      "##virke": 9233,
      "##klo": 9234,
      "appar": 9235,
      "grand": 9236,
      "ordre": 9237,
      "uka": 9238,
      "##banken": 9239,
      "trappen": 9240,
      "forlot": 9241,
      "flertallet": 9242,
      "##itere": 9243,
      "elven": 9244,
      "##inert": 9245,
      "tegnet": 9246,
      "##nam": 9247,
      "misfor": 9248,
      "##**": 9249,
      "saka": 9250,
      "døy": 9251,
      "kravene": 9252,
      "edu": 9253,
      "##elat": 9254,
      "##spiller": 9255,
      "formålet": 9256,
      "pors": 9257,
      "fordeler": 9258,
      "inner": 9259,
      "opphav": 9260,
      "tabellen": 9261,
      "tran": 9262,
      "tomme": 9263,
      "tilstede": 9264,
      "./": 9265,
      "jud": 9266,
      "##messige": 9267,
      "##rerer": 9268,
      "eøs": 9269,
      "##behov": 9270,
      "domstol": 9271,
      "##iget": 9272,
      "frokost": 9273,
      "relevant": 9274,
      "konsentr": 9275,
      "inngang": 9276,
      "##politikk": 9277,
      "##sve": 9278,
      "drap": 9279,
      "##kunst": 9280,
      "##knad": 9281,
      "hæ": 9282,
      "##issen": 9283,
      "##ordningen": 9284,
      "utstilling": 9285,
      "##splass": 9286,
      "reality": 9287,
      "##industrien": 9288,
      "would": 9289,
      "forleng": 9290,
      "glimt": 9291,
      "fredrikstad": 9292,
      "reduksjon": 9293,
      "united": 9294,
      "porn": 9295,
      "garder": 9296,
      "nederland": 9297,
      "brøt": 9298,
      "aftenposten": 9299,
      "##ines": 9300,
      "1959": 9301,
      "tøy": 9302,
      "##rich": 9303,
      "bratt": 9304,
      "eventuell": 9305,
      "##dy": 9306,
      "##akon": 9307,
      "grunne": 9308,
      "##lyst": 9309,
      "sammenhengen": 9310,
      "##hu": 9311,
      "fremsk": 9312,
      "rock": 9313,
      "##sbet": 9314,
      "spillet": 9315,
      "beina": 9316,
      "nettverk": 9317,
      "utsk": 9318,
      "peke": 9319,
      "##................................": 9320,
      "##amer": 9321,
      "programleder": 9322,
      "##ll": 9323,
      "##ré": 9324,
      "spir": 9325,
      "øverste": 9326,
      "##habil": 9327,
      "innsikt": 9328,
      "forklarte": 9329,
      "##veig": 9330,
      "##gjeld": 9331,
      "kret": 9332,
      "##ialet": 9333,
      "kostnadene": 9334,
      "##13": 9335,
      "gøy": 9336,
      "vennlig": 9337,
      "pannen": 9338,
      "sans": 9339,
      "##14": 9340,
      "##represent": 9341,
      "bryte": 9342,
      "anty": 9343,
      "yn": 9344,
      "##gaard": 9345,
      "hotel": 9346,
      "element": 9347,
      "##uro": 9348,
      "vas": 9349,
      "##hånd": 9350,
      "selvstendig": 9351,
      "egil": 9352,
      "andelen": 9353,
      "mister": 9354,
      "1958": 9355,
      "ekspert": 9356,
      "bredt": 9357,
      "skjøt": 9358,
      "rettss": 9359,
      "statlige": 9360,
      "forskjeller": 9361,
      "vanleg": 9362,
      "].": 9363,
      "##ingsf": 9364,
      "kommende": 9365,
      "smith": 9366,
      "##åd": 9367,
      "mjøl": 9368,
      "##ney": 9369,
      "træ": 9370,
      "##hagen": 9371,
      "law": 9372,
      "##unget": 9373,
      "mumlet": 9374,
      "flor": 9375,
      "sakte": 9376,
      "cre": 9377,
      "##brev": 9378,
      "lise": 9379,
      "forandret": 9380,
      "instrument": 9381,
      "vern": 9382,
      "##reis": 9383,
      "overvå": 9384,
      "uend": 9385,
      "##),": 9386,
      "##vang": 9387,
      "metod": 9388,
      "##prøv": 9389,
      "konkur": 9390,
      "jesu": 9391,
      "##ool": 9392,
      "htt": 9393,
      "ff": 9394,
      "arbeidsmark": 9395,
      "prom": 9396,
      "integr": 9397,
      "protok": 9398,
      "leiligheten": 9399,
      "(<<": 9400,
      "##holt": 9401,
      "##biler": 9402,
      "protest": 9403,
      "konkluder": 9404,
      "##itive": 9405,
      "child": 9406,
      "bosatt": 9407,
      "treff": 9408,
      "haugesund": 9409,
      "adam": 9410,
      "kalk": 9411,
      "fungere": 9412,
      "dar": 9413,
      "eitt": 9414,
      "##erg": 9415,
      "opprinnelige": 9416,
      "1952": 9417,
      "uttalelse": 9418,
      "muligens": 9419,
      "##agere": 9420,
      "tyskerne": 9421,
      "brått": 9422,
      "##sil": 9423,
      "las": 9424,
      "hester": 9425,
      "information": 9426,
      "',": 9427,
      "##asat": 9428,
      "forretnings": 9429,
      "##utvalg": 9430,
      "skulderen": 9431,
      "islam": 9432,
      "119": 9433,
      "klim": 9434,
      "##ript": 9435,
      "dommen": 9436,
      "røyk": 9437,
      "dj": 9438,
      "gjera": 9439,
      "1953": 9440,
      "kortere": 9441,
      "##iew": 9442,
      "sigar": 9443,
      "artikkelen": 9444,
      "seinere": 9445,
      "forutsetninger": 9446,
      "foruten": 9447,
      "##ctions": 9448,
      "##orator": 9449,
      "varsel": 9450,
      "gunst": 9451,
      "##giften": 9452,
      "lofot": 9453,
      "soc": 9454,
      "scene": 9455,
      "point": 9456,
      "##kjennelse": 9457,
      "ødelagt": 9458,
      "høyesterett": 9459,
      "gevin": 9460,
      "bedriftene": 9461,
      "latin": 9462,
      "hilsen": 9463,
      "orient": 9464,
      "seksjon": 9465,
      "##haugen": 9466,
      "##olk": 9467,
      "annan": 9468,
      "##brød": 9469,
      "medføre": 9470,
      "folketryg": 9471,
      "retter": 9472,
      "ille": 9473,
      "truffet": 9474,
      "psy": 9475,
      "faa": 9476,
      "regionale": 9477,
      "gjennomføres": 9478,
      "landskap": 9479,
      "pkt": 9480,
      "sidene": 9481,
      "##sområde": 9482,
      "sånt": 9483,
      "##abl": 9484,
      "forandring": 9485,
      "forfatt": 9486,
      "fyrste": 9487,
      "##irasjon": 9488,
      "reder": 9489,
      "minimum": 9490,
      "##agene": 9491,
      "antak": 9492,
      "tilbyr": 9493,
      "rute": 9494,
      "sug": 9495,
      "spiste": 9496,
      "entrepren": 9497,
      "bern": 9498,
      "taushet": 9499,
      "seie": 9500,
      "1955": 9501,
      "vassdrag": 9502,
      "##nummer": 9503,
      "##isitet": 9504,
      "##arne": 9505,
      "lærte": 9506,
      "posten": 9507,
      "beredskap": 9508,
      "fleks": 9509,
      "##abet": 9510,
      "stilles": 9511,
      "mrs": 9512,
      "##kontor": 9513,
      "1951": 9514,
      "##ran": 9515,
      "nært": 9516,
      "brenn": 9517,
      "##frem": 9518,
      "forekommer": 9519,
      "##ctive": 9520,
      "##40": 9521,
      "##derne": 9522,
      "kniv": 9523,
      "keiser": 9524,
      "##fred": 9525,
      "##ids": 9526,
      "nordre": 9527,
      "ankl": 9528,
      "særleg": 9529,
      "vers": 9530,
      "desto": 9531,
      "brutt": 9532,
      "evig": 9533,
      "fisket": 9534,
      "studio": 9535,
      "##advok": 9536,
      "##idrett": 9537,
      "epis": 9538,
      "bibliotek": 9539,
      "168": 9540,
      "tene": 9541,
      "##gata": 9542,
      "strengt": 9543,
      "distriktsnyheter": 9544,
      "north": 9545,
      "asb": 9546,
      "##øter": 9547,
      "pas": 9548,
      "systematisk": 9549,
      "sammenlignet": 9550,
      "billed": 9551,
      "##sko": 9552,
      "##lete": 9553,
      "stykker": 9554,
      "derved": 9555,
      "thro": 9556,
      "arrest": 9557,
      "blodet": 9558,
      "exper": 9559,
      "##port": 9560,
      "##jesel": 9561,
      "heid": 9562,
      "ballen": 9563,
      "underveis": 9564,
      "frøken": 9565,
      "##klubb": 9566,
      "difor": 9567,
      "målt": 9568,
      "femte": 9569,
      "hul": 9570,
      "lande": 9571,
      "##bod": 9572,
      "##sprosessen": 9573,
      "##uligheter": 9574,
      "pleide": 9575,
      "##unden": 9576,
      "eine": 9577,
      "hotellet": 9578,
      "behandle": 9579,
      "stress": 9580,
      "havne": 9581,
      "vinn": 9582,
      "##ara": 9583,
      "trygde": 9584,
      "regjeringens": 9585,
      "bruket": 9586,
      "skien": 9587,
      "regionen": 9588,
      "vedtaket": 9589,
      "ron": 9590,
      "riktige": 9591,
      "##ago": 9592,
      "130": 9593,
      "katastro": 9594,
      "##ansport": 9595,
      "irrit": 9596,
      "arena": 9597,
      "parter": 9598,
      "##kjøring": 9599,
      "fattige": 9600,
      "kjed": 9601,
      "lede": 9602,
      "særlige": 9603,
      "faktor": 9604,
      "nektet": 9605,
      "skild": 9606,
      "egypt": 9607,
      "sikret": 9608,
      "lurt": 9609,
      "jordbruks": 9610,
      "århundre": 9611,
      "tenn": 9612,
      "##rader": 9613,
      "1500": 9614,
      "sjåfør": 9615,
      "levere": 9616,
      "##spolitikk": 9617,
      "##ani": 9618,
      "##jern": 9619,
      "enklere": 9620,
      "##tere": 9621,
      "##skrav": 9622,
      "aff": 9623,
      "##holdes": 9624,
      "1700": 9625,
      "##organisasjon": 9626,
      "1954": 9627,
      "##sserie": 9628,
      "trafikken": 9629,
      "kjennet": 9630,
      "framfor": 9631,
      "number": 9632,
      "trær": 9633,
      "##gre": 9634,
      "##undret": 9635,
      "vatn": 9636,
      "##aga": 9637,
      "##trol": 9638,
      "fel": 9639,
      "verket": 9640,
      "kunnet": 9641,
      "løsningen": 9642,
      "bibel": 9643,
      "drepe": 9644,
      "kjennskap": 9645,
      "uden": 9646,
      "avgjørelse": 9647,
      "##samlingen": 9648,
      "bena": 9649,
      "##rafikk": 9650,
      "odel": 9651,
      "##litter": 9652,
      "revis": 9653,
[...]
