{
  "version": "1.0",
  "truncation": null,
  "padding": null,
  "added_tokens": [
    {
      "id": 0,
      "special": true,
      "content": "[PAD]",
      "single_word": false,
      "lstrip": false,
      "rstrip": false,
      "normalized": false
    },
    {
      "id": 1,
      "special": true,
      "content": "[UNK]",
      "single_word": false,
      "lstrip": false,
      "rstrip": false,
      "normalized": false
    },
    {
      "id": 2,
      "special": true,
      "content": "[CLS]",
      "single_word": false,
      "lstrip": false,
      "rstrip": false,
      "normalized": false
    },
    {
      "id": 3,
      "special": true,
      "content": "[SEP]",
      "single_word": false,
      "lstrip": false,
      "rstrip": false,
      "normalized": false
    },
    {
      "id": 4,
      "special": true,
      "content": "[MASK]",
      "single_word": false,
      "lstrip": false,
      "rstrip": false,
      "normalized": false
    }
  ],
  "normalizer": {
    "type": "Sequence",
    "normalizers": [
      {
        "type": "Lowercase"
      }
    ]
  },
  "pre_tokenizer": {
    "type": "Whitespace"
  },
  "post_processor": null,
  "decoder": null,
  "model": {
    "unk_token": "[UNK]",
    "continuing_subword_prefix": "##",
    "max_input_chars_per_word": 100,
    "vocab": {
      "[PAD]": 0,
      "[UNK]": 1,
      "[CLS]": 2,
      "[SEP]": 3,
      "[MASK]": 4,
      "!": 5,
      "\"": 6,
      "#": 7,
      "$": 8,
      "%": 9,
      "&": 10,
      "'": 11,
      "(": 12,
      ")": 13,
      "*": 14,
      "+": 15,
      ",": 16,
      "-": 17,
      ".": 18,
      "/": 19,
      "0": 20,
      "1": 21,
      "2": 22,
      "3": 23,
      "4": 24,
      "5": 25,
      "6": 26,
      "7": 27,
      "8": 28,
      "9": 29,
      ":": 30,
      ";": 31,
      "<": 32,
      "=": 33,
      ">": 34,
      "?": 35,
      "@": 36,
      "[": 37,
      "\\": 38,
      "]": 39,
      "^": 40,
      "_": 41,
      "`": 42,
      "a": 43,
      "b": 44,
      "c": 45,
      "d": 46,
      "e": 47,
      "f": 48,
      "g": 49,
      "h": 50,
      "i": 51,
      "j": 52,
      "k": 53,
      "l": 54,
      "m": 55,
      "n": 56,
      "o": 57,
      "p": 58,
      "q": 59,
      "r": 60,
      "s": 61,
      "t": 62,
      "u": 63,
      "v": 64,
      "w": 65,
      "x": 66,
      "y": 67,
      "z": 68,
      "{": 69,
      "|": 70,
      "}": 71,
      "~": 72,
      "£": 73,
      "¤": 74,
      "¥": 75,
      "¦": 76,
      "¨": 77,
      "©": 78,
      "ª": 79,
      "¬": 80,
      "®": 81,
      "°": 82,
      "±": 83,
      "²": 84,
      "³": 85,
      "µ": 86,
      "¸": 87,
      "¹": 88,
      "º": 89,
      "¼": 90,
      "½": 91,
      "¾": 92,
      "×": 93,
      "ß": 94,
      "à": 95,
      "á": 96,
      "â": 97,
      "ã": 98,
      "ä": 99,
      "å": 100,
      "æ": 101,
      "ç": 102,
      "è": 103,
      "é": 104,
      "ê": 105,
      "ë": 106,
      "ì": 107,
      "í": 108,
      "î": 109,
      "ï": 110,
      "ð": 111,
      "ñ": 112,
      "ò": 113,
      "ó": 114,
      "ô": 115,
      "õ": 116,
      "ö": 117,
      "÷": 118,
      "ø": 119,
      "ù": 120,
      "ú": 121,
      "û": 122,
      "ü": 123,
      "ý": 124,
      "þ": 125,
      "ÿ": 126,
      "ā": 127,
      "ă": 128,
      "ą": 129,
      "ć": 130,
      "č": 131,
      "ď": 132,
      "đ": 133,
      "ē": 134,
      "ė": 135,
      "ę": 136,
      "ě": 137,
      "ğ": 138,
      "ī": 139,
      "ı": 140,
      "ļ": 141,
      "ł": 142,
      "ń": 143,
      "ņ": 144,
      "ň": 145,
      "ŋ": 146,
      "ō": 147,
      "ő": 148,
      "œ": 149,
      "ř": 150,
      "ś": 151,
      "ş": 152,
      "š": 153,
      "ţ": 154,
      "ť": 155,
      "ŧ": 156,
      "ū": 157,
      "ů": 158,
      "ź": 159,
      "ż": 160,
      "ž": 161,
      "ſ": 162,
      "ƒ": 163,
      "ƭ": 164,
      "ư": 165,
      "ǎ": 166,
      "ǫ": 167,
      "ș": 168,
      "ț": 169,
      "ɔ": 170,
      "ə": 171,
      "ʌ": 172,
      "ʺ": 173,
      "ʻ": 174,
      "ʿ": 175,
      "ˇ": 176,
      "ˈ": 177,
      "˚": 178,
      "́": 179,
      "̇": 180,
      "̊": 181,
      "̋": 182,
      "ά": 183,
      "έ": 184,
      "ή": 185,
      "ί": 186,
      "α": 187,
      "β": 188,
      "γ": 189,
      "δ": 190,
      "ε": 191,
      "ζ": 192,
      "η": 193,
      "θ": 194,
      "ι": 195,
      "κ": 196,
      "λ": 197,
      "μ": 198,
      "ν": 199,
      "ξ": 200,
      "ο": 201,
      "π": 202,
      "ρ": 203,
      "ς": 204,
      "σ": 205,
      "τ": 206,
      "υ": 207,
      "φ": 208,
      "χ": 209,
      "ω": 210,
      "ό": 211,
      "ύ": 212,
      "ώ": 213,
      "а": 214,
      "б": 215,
      "в": 216,
      "г": 217,
      "д": 218,
      "е": 219,
      "ж": 220,
      "з": 221,
      "и": 222,
      "й": 223,
      "к": 224,
      "л": 225,
      "м": 226,
      "н": 227,
      "о": 228,
      "п": 229,
      "р": 230,
      "с": 231,
      "т": 232,
      "у": 233,
      "ф": 234,
      "х": 235,
      "ц": 236,
      "ч": 237,
      "ш": 238,
      "щ": 239,
      "ъ": 240,
      "ы": 241,
      "ь": 242,
      "э": 243,
      "ю": 244,
      "я": 245,
      "ё": 246,
      "ѕ": 247,
      "і": 248,
      "ї": 249,
      "ա": 250,
      "թ": 251,
      "վ": 252,
      "ְ": 253,
      "ִ": 254,
      "ָ": 255,
      "ּ": 256,
      "ב": 257,
      "ה": 258,
      "ו": 259,
      "י": 260,
      "ל": 261,
      "ע": 262,
      "ר": 263,
      "ש": 264,
      "ء": 265,
      "أ": 266,
      "ا": 267,
      "ب": 268,
      "ة": 269,
      "ت": 270,
      "ث": 271,
      "ج": 272,
      "ح": 273,
      "خ": 274,
      "د": 275,
      "ر": 276,
      "ز": 277,
      "س": 278,
      "ش": 279,
      "ص": 280,
      "ط": 281,
      "ع": 282,
      "ف": 283,
      "ق": 284,
      "ك": 285,
      "ل": 286,
      "م": 287,
      "ن": 288,
      "ه": 289,
      "و": 290,
      "ى": 291,
      "ي": 292,
      "ک": 293,
      "ی": 294,
      "र": 295,
      "ा": 296,
      "्": 297,
      "ḥ": 298,
      "ṭ": 299,
      "ạ": 300,
      "ấ": 301,
      "ầ": 302,
      "ế": 303,
      "ệ": 304,
      "⁄": 305,
      "₂": 306,
      "₪": 307,
      "€": 308,
      "℃": 309,
      "™": 310,
      "←": 311,
      "↑": 312,
      "→": 313,
      "↓": 314,
      "↔": 315,
      "∀": 316,
      "∂": 317,
      "∃": 318,
      "∆": 319,
      "∈": 320,
      "−": 321,
      "∙": 322,
      "√": 323,
      "∞": 324,
      "≤": 325,
      "⊨": 326,
      "⋅": 327,
      "│": 328,
      "█": 329,
      "■": 330,
      "□": 331,
      "▪": 332,
      "▫": 333,
      "▲": 334,
      "▶": 335,
      "►": 336,
      "▻": 337,
      "▼": 338,
      "◀": 339,
      "◄": 340,
      "◆": 341,
      "○": 342,
      "●": 343,
      "◗": 344,
      "★": 345,
      "☆": 346,
      "☺": 347,
      "♠": 348,
      "♡": 349,
      "♣": 350,
      "♥": 351,
      "♦": 352,
      "♭": 353,
      "♯": 354,
      "⚫": 355,
      "✅": 356,
      "✆": 357,
      "✍": 358,
      "✑": 359,
      "✓": 360,
      "✔": 361,
      "✶": 362,
      "✸": 363,
      "❄": 364,
      "❖": 365,
      "❚": 366,
      "❞": 367,
      "❤": 368,
      "❥": 369,
      "➤": 370,
      "➥": 371,
      "⠀": 372,
      "あ": 373,
      "い": 374,
      "う": 375,
      "え": 376,
      "お": 377,
      "か": 378,
      "が": 379,
      "き": 380,
      "く": 381,
      "け": 382,
      "こ": 383,
      "さ": 384,
      "し": 385,
      "す": 386,
      "た": 387,
      "だ": 388,
      "っ": 389,
      "て": 390,
      "で": 391,
      "と": 392,
      "ど": 393,
      "な": 394,
      "に": 395,
      "の": 396,
      "は": 397,
      "ま": 398,
      "も": 399,
      "や": 400,
      "よ": 401,
      "ら": 402,
      "り": 403,
      "る": 404,
      "れ": 405,
      "わ": 406,
      "を": 407,
      "ん": 408,
      "ア": 409,
      "イ": 410,
      "カ": 411,
      "キ": 412,
      "ク": 413,
      "グ": 414,
      "サ": 415,
      "シ": 416,
      "ス": 417,
      "ズ": 418,
      "タ": 419,
      "チ": 420,
      "ッ": 421,
      "ト": 422,
      "ド": 423,
      "パ": 424,
      "フ": 425,
      "プ": 426,
      "マ": 427,
      "ラ": 428,
      "リ": 429,
      "ル": 430,
      "レ": 431,
      "ロ": 432,
      "ン": 433,
      "ー": 434,
      "䄀": 435,
      "䈀": 436,
      "䔀": 437,
      "䤀": 438,
      "一": 439,
      "中": 440,
      "乡": 441,
      "了": 442,
      "亥": 443,
      "体": 444,
      "作": 445,
      "入": 446,
      "全": 447,
      "公": 448,
      "出": 449,
      "匀": 450,
      "区": 451,
      "医": 452,
      "南": 453,
      "县": 454,
      "吀": 455,
      "和": 456,
      "城": 457,
      "大": 458,
      "好": 459,
      "子": 460,
      "安": 461,
      "山": 462,
      "市": 463,
      "平": 464,
      "年": 465,
      "康": 466,
      "愀": 467,
      "挀": 468,
      "攀": 469,
      "文": 470,
      "最": 471,
      "月": 472,
      "本": 473,
      "椀": 474,
      "欀": 475,
      "氀": 476,
      "法": 477,
      "洀": 478,
      "海": 479,
      "渀": 480,
      "漀": 481,
      "爀": 482,
      "猀": 483,
      "琀": 484,
      "生": 485,
      "用": 486,
      "的": 487,
      "石": 488,
      "社": 489,
      "行": 490,
      "街": 491,
      "道": 492,
      "镇": 493,
      "长": 494,
      "院": 495,
      "️": 496,
      "�": 497,
      "🏼": 498,
      "👍": 499,
      "👏": 500,
      "😀": 501,
      "😉": 502,
      "😊": 503,
      "🙂": 504,
      "##o": 505,
      "##n": 506,
      "##k": 507,
      "##u": 508,
      "##r": 509,
      "##a": 510,
      "##s": 511,
      "##e": 512,
      "##g": 513,
      "##l": 514,
      "##m": 515,
      "##t": 516,
      "##h": 517,
      "##j": 518,
      "##i": 519,
      "##d": 520,
      "##y": 521,
      "##f": 522,
      "##ø": 523,
      "##p": 524,
      "##b": 525,
      "##å": 526,
      "##c": 527,
      "##0": 528,
      "##ä": 529,
      "##æ": 530,
      "##v": 531,
      "##é": 532,
      "##w": 533,
      "##đ": 534,
      "##z": 535,
      "##8": 536,
      "##2": 537,
      "##6": 538,
      "##x": 539,
      "##š": 540,
      "##7": 541,
      "##q": 542,
      "##3": 543,
      "##1": 544,
      "##ß": 545,
      "##5": 546,
      "##9": 547,
      "##_": 548,
      "##*": 549,
      "##,": 550,
      "##4": 551,
      "##ö": 552,
      "##í": 553,
      "##\"": 554,
      "##)": 555,
      "##|": 556,
      "##а": 557,
      "##л": 558,
      "##е": 559,
      "##р": 560,
      "##ь": 561,
      "##в": 562,
      "##и": 563,
      "##ч": 564,
      "##}": 565,
      "##=": 566,
      "##\\": 567,
      "##>": 568,
      "##.": 569,
      "##á": 570,
      "##ü": 571,
      "##&": 572,
      "##]": 573,
      "##?": 574,
      "##д": 575,
      "##н": 576,
      "##т": 577,
      "##:": 578,
      "##/": 579,
      "##'": 580,
      "##ı": 581,
      "##ó": 582,
      "##-": 583,
      "##(": 584,
      "##<": 585,
      "##°": 586,
      "##%": 587,
      "##č": 588,
      "##à": 589,
      "##ţ": 590,
      "##■": 591,
      "##з": 592,
      "##с": 593,
      "##о": 594,
      "##!": 595,
      "##ã": 596,
      "##+": 597,
      "##ッ": 598,
      "##キ": 599,
      "##マ": 600,
      "##ト": 601,
      "##λ": 602,
      "##α": 603,
      "##γ": 604,
      "##ι": 605,
      "##ά": 606,
      "##ρ": 607,
      "##;": 608,
      "##ñ": 609,
      "##ā": 610,
      "##è": 611,
      "##^": 612,
      "##ª": 613,
      "##к": 614,
      "##п": 615,
      "##я": 616,
      "##ş": 617,
      "##ô": 618,
      "##£": 619,
      "##イ": 620,
      "##シ": 621,
      "##ク": 622,
      "##ス": 623,
      "##の": 624,
      "##を": 625,
      "##も": 626,
      "##ら": 627,
      "##う": 628,
      "##は": 629,
      "##ð": 630,
      "##©": 631,
      "##ω": 632,
      "##ν": 633,
      "##ë": 634,
      "##м": 635,
      "##~": 636,
      "##ḥ": 637,
      "##[": 638,
      "##行": 639,
      "##ī": 640,
      "##û": 641,
      "##$": 642,
      "##ú": 643,
      "##ò": 644,
      "##у": 645,
      "##镇": 646,
      "##ο": 647,
      "##φ": 648,
      "##ł": 649,
      "##ő": 650,
      "##ж": 651,
      "##ê": 652,
      "##́": 653,
      "##â": 654,
      "##¨": 655,
      "##ă": 656,
      "##¥": 657,
      "##ą": 658,
      "##ÿ": 659,
      "##π": 660,
      "##υ": 661,
      "##ί": 662,
      "##ý": 663,
      "##ž": 664,
      "##ю": 665,
      "##ー": 666,
      "##リ": 667,
      "##チ": 668,
      "##が": 669,
      "##ン": 670,
      "##で": 671,
      "##す": 672,
      "##х": 673,
      "##ы": 674,
      "##街": 675,
      "##道": 676,
      "##ė": 677,
      "##€": 678,
      "##ï": 679,
      "##ш": 680,
      "##®": 681,
      "##ù": 682,
      "##ń": 683,
      "##ď": 684,
      "##爀": 685,
      "##琀": 686,
      "##攀": 687,
      "##渀": 688,
      "##ć": 689,
      "##{": 690,
      "##ì": 691,
      "##♦": 692,
      "##匀": 693,
      "##䤀": 694,
      "##г": 695,
      "##™": 696,
      "##م": 697,
      "##ا": 698,
      "##ф": 699,
      "##ц": 700,
      "##й": 701,
      "##σ": 702,
      "##ε": 703,
      "##χ": 704,
      "##η": 705,
      "##か": 706,
      "##さ": 707,
      "##し": 708,
      "##て": 709,
      "##っ": 710,
      "##い": 711,
      "##ま": 712,
      "##た": 713,
      "##²": 714,
      "##🏼": 715,
      "##ğ": 716,
      "##ç": 717,
      "##ț": 718,
      "##ъ": 719,
      "##ō": 720,
      "##ū": 721,
      "##►": 722,
      "##і": 723,
      "##י": 724,
      "##ר": 725,
      "##ל": 726,
      "##社": 727,
      "##区": 728,
      "##乡": 729,
      "##ل": 730,
      "##ج": 731,
      "##ت": 732,
      "##ع": 733,
      "##ي": 734,
      "##δ": 735,
      "##ạ": 736,
      "##ف": 737,
      "##خ": 738,
      "##ر": 739,
      "###": 740,
      "##ŋ": 741,
      "##レ": 742,
      "##タ": 743,
      "##城": 744,
      "##î": 745,
      "##º": 746,
      "##̊": 747,
      "##⁄": 748,
      "##ё": 749,
      "##ド": 750,
      "##ě": 751,
      "##ό": 752,
      "##τ": 753,
      "##ς": 754,
      "##ط": 755,
      "##ه": 756,
      "##ώ": 757,
      "##市": 758,
      "##公": 759,
      "##安": 760,
      "##康": 761,
      "##医": 762,
      "##院": 763,
      "##ی": 764,
      "##ن": 765,
      "##س": 766,
      "##أ": 767,
      "##▲": 768,
      "##ǎ": 769,
      "##□": 770,
      "##د": 771,
      "##ř": 772,
      "##プ": 773,
      "##サ": 774,
      "##ق": 775,
      "##ة": 776,
      "##ʿ": 777,
      "##ب": 778,
      "##え": 779,
      "##く": 780,
      "##れ": 781,
      "##ん": 782,
      "##け": 783,
      "##ど": 784,
      "##ή": 785,
      "##ア": 786,
      "##パ": 787,
      "##好": 788,
      "##き": 789,
      "##に": 790,
      "##ș": 791,
      "##θ": 792,
      "##κ": 793,
      "##ŧ": 794,
      "##ƭ": 795,
      "##و": 796,
      "##ו": 797,
      "##山": 798,
      "##̋": 799,
      "##б": 800,
      "##र": 801,
      "##@": 802,
      "##中": 803,
      "##ك": 804,
      "##ル": 805,
      "##り": 806,
      "##あ": 807,
      "##ę": 808,
      "##ा": 809,
      "##्": 810,
      "##`": 811,
      "##平": 812,
      "##吀": 813,
      "##★": 814,
      "##わ": 815,
      "##や": 816,
      "##お": 817,
      "##入": 818,
      "##と": 819,
      "##վ": 820,
      "##œ": 821,
      "##生": 822,
      "##る": 823,
      "##大": 824,
      "##な": 825,
      "##μ": 826,
      "##文": 827,
      "##●": 828,
      "##ラ": 829,
      "##ص": 830,
      "##海": 831,
      "##ح": 832,
      "##ś": 833,
      "##月": 834,
      "##õ": 835,
      "##щ": 836,
      "##ズ": 837,
      "##本": 838,
      "##ї": 839,
      "##ѕ": 840,
      "##♡": 841,
      "##½": 842,
      "##长": 843,
      "##了": 844,
      "##全": 845,
      "##法": 846,
      "##年": 847,
      "##ư": 848,
      "##ǫ": 849,
      "##ζ": 850,
      "##έ": 851,
      "##þ": 852,
      "##ک": 853,
      "##子": 854,
      "##フ": 855,
      "##±": 856,
      "##漀": 857,
      "##猀": 858,
      "##椀": 859,
      "##ز": 860,
      "##よ": 861,
      "##ロ": 862,
      "##ż": 863,
      "##ē": 864,
      "##氀": 865,
      "##最": 866,
      "##愀": 867,
      "##ˈ": 868,
      "##ύ": 869,
      "##▼": 870,
      "##ť": 871,
      "##ů": 872,
      "##一": 873,
      "##ּ": 874,
      "##体": 875,
      "##ệ": 876,
      "##县": 877,
      "##ى": 878,
      "##ň": 879,
      "##挀": 880,
      "##ấ": 881,
      "##ִ": 882,
      "##ź": 883,
      "##ث": 884,
      "##ء": 885,
      "##̇": 886,
      "##ָ": 887,
      "##ב": 888,
      "##β": 889,
      "##ņ": 890,
      "##こ": 891,
      "##ξ": 892,
      "##ע": 893,
      "##ה": 894,
      "##だ": 895,
      "##ְ": 896,
      "##ṭ": 897,
      "##ļ": 898,
      "##ա": 899,
      "##和": 900,
      "##ɔ": 901,
      "##👍": 902,
      "##用": 903,
      "##グ": 904,
      "##ế": 905,
      "##ش": 906,
      "##ə": 907,
      "##µ": 908,
      "##䔀": 909,
      "##э": 910,
      "##ƒ": 911,
      "##ש": 912,
      "##石": 913,
      "##👏": 914,
      "##作": 915,
      "##的": 916,
      "##⠀": 917,
      "##😊": 918,
      "##→": 919,
      "##カ": 920,
      "##洀": 921,
      "##☆": 922,
      "##թ": 923,
      "##♥": 924,
      "##❤": 925,
      "##南": 926,
      "##↑": 927,
      "##÷": 928,
      "##😀": 929,
      "##ʻ": 930,
      "##♭": 931,
      "##出": 932,
      "##✓": 933,
      "##䄀": 934,
      "##−": 935,
      "##¤": 936,
      "##ầ": 937,
      "##ſ": 938,
      "##ʺ": 939,
      "##䈀": 940,
      "##欀": 941,
      "##亥": 942,
      "##◀": 943,
      "##ʌ": 944,
      "##�": 945,
      "##◄": 946,
      "##¼": 947,
      "##¬": 948,
      "##✶": 949,
      "##❄": 950,
      "##♯": 951,
      "##😉": 952,
      "##◆": 953,
      "##✔": 954,
      "##³": 955,
      "##️": 956,
      "##♠": 957,
      "##🙂": 958,
      "##█": 959,
      "##○": 960,
      "##♣": 961,
      "##∂": 962,
      "##en": 963,
      "##er": 964,
      "##et": 965,
      "##or": 966,
      "##an": 967,
      "##in": 968,
      "##ar": 969,
      "##el": 970,
      "##il": 971,
      "##st": 972,
      "og": 973,
      "##om": 974,
      "##ed": 975,
      "for": 976,
      "##eg": 977,
      "##ing": 978,
      "##re": 979,
      "##te": 980,
      "det": 981,
      "##ig": 982,
      "##al": 983,
      "##ke": 984,
      "##on": 985,
      "til": 986,
      "##tt": 987,
      "##de": 988,
      "##is": 989,
      "en": 990,
      "##le": 991,
      "av": 992,
      "er": 993,
      "##un": 994,
      "##ra": 995,
      "##es": 996,
      "som": 997,
      "på": 998,
      "##ik": 999,
      "st": 1000,
      "##id": 1001,
      "##ol": 1002,
      "##ene": 1003,
      "med": 1004,
      "de": 1005,
      "##ør": 1006,
      "sk": 1007,
      "in": 1008,
      "##sk": 1009,
      "##ne": 1010,
      "##at": 1011,
      "##am": 1012,
      "##ver": 1013,
      "at": 1014,
      "##pp": 1015,
      "##ag": 1016,
      "den": 1017,
      "##as": 1018,
      "##it": 1019,
      "han": 1020,
      "##ler": 1021,
      "##kt": 1022,
      "an": 1023,
      "##kke": 1024,
      "var": 1025,
      "om": 1026,
      "##ent": 1027,
      "ut": 1028,
      "har": 1029,
      "##se": 1030,
      "##ad": 1031,
      "ikke": 1032,
      "##and": 1033,
      "##ste": 1034,
      "##iv": 1035,
      "##ning": 1036,
      "##ul": 1037,
      "##der": 1038,
      "men": 1039,
      "##år": 1040,
      "##ro": 1041,
      "##ang": 1042,
      "vi": 1043,
      "##kk": 1044,
      "al": 1045,
      "##ær": 1046,
      "##ur": 1047,
      "##jon": 1048,
      "##li": 1049,
      "jeg": 1050,
      "fra": 1051,
      "##lig": 1052,
      "et": 1053,
      "opp": 1054,
      "##ett": 1055,
      "##ere": 1056,
      "gj": 1057,
      "##us": 1058,
      "##ri": 1059,
      "##ens": 1060,
      "##ot": 1061,
      "hv": 1062,
      "##ru": 1063,
      "##je": 1064,
      "##\"\"": 1065,
      "##ak": 1066,
      "##tter": 1067,
      "no": 1068,
      "kan": 1069,
      "kom": 1070,
      "##ikk": 1071,
      "##for": 1072,
      "inn": 1073,
      "##ende": 1074,
      "sam": 1075,
      "så": 1076,
      "19": 1077,
      "seg": 1078,
      "sp": 1079,
      "##sen": 1080,
      "<<": 1081,
      "be": 1082,
      "el": 1083,
      "##ter": 1084,
      "##het": 1085,
      "##ks": 1086,
      ">>": 1087,
      "##ge": 1088,
      "si": 1089,
      "vil": 1090,
      "un": 1091,
      "##od": 1092,
      "##ap": 1093,
      "##mer": 1094,
      "hun": 1095,
      "over": 1096,
      "##be": 1097,
      "der": 1098,
      "th": 1099,
      "må": 1100,
      "##att": 1101,
      "##elig": 1102,
      "had": 1103,
      "se": 1104,
      "##ist": 1105,
      "##me": 1106,
      "##av": 1107,
      "hadde": 1108,
      "##ell": 1109,
      "ar": 1110,
      "##ss": 1111,
      "du": 1112,
      "re": 1113,
      "ved": 1114,
      "##yn": 1115,
      "##ord": 1116,
      "##enn": 1117,
      "##dre": 1118,
      "sl": 1119,
      "##ir": 1120,
      "##ort": 1121,
      "bli": 1122,
      "tr": 1123,
      "##ann": 1124,
      "##isk": 1125,
      "##ok": 1126,
      "##ft": 1127,
      "##ut": 1128,
      "hel": 1129,
      "##gen": 1130,
      "eller": 1131,
      "etter": 1132,
      "ble": 1133,
      "bar": 1134,
      "før": 1135,
      "##est": 1136,
      "##ser": 1137,
      "##art": 1138,
      "20": 1139,
      "kon": 1140,
      "##øy": 1141,
      "##sl": 1142,
      "##så": 1143,
      "##unn": 1144,
      "år": 1145,
      "##ger": 1146,
      "##ov": 1147,
      "##ære": 1148,
      "pro": 1149,
      "##ud": 1150,
      "##asjon": 1151,
      "##sp": 1152,
      "##ling": 1153,
      "skal": 1154,
      "kj": 1155,
      "dette": 1156,
      "##ikt": 1157,
      "the": 1158,
      "##rå": 1159,
      "##old": 1160,
      "##men": 1161,
      "##all": 1162,
      "##inn": 1163,
      "da": 1164,
      "to": 1165,
      "##yg": 1166,
      "nor": 1167,
      "##ert": 1168,
      "også": 1169,
      "##ff": 1170,
      "##itt": 1171,
      "##em": 1172,
      "##yr": 1173,
      "##del": 1174,
      "kl": 1175,
      "##ant": 1176,
      "##os": 1177,
      "##beid": 1178,
      "##um": 1179,
      "ny": 1180,
      "##ker": 1181,
      "##og": 1182,
      "00": 1183,
      "##var": 1184,
      "##end": 1185,
      "kun": 1186,
      "under": 1187,
      "##ve": 1188,
      "gr": 1189,
      "tid": 1190,
      "##øl": 1191,
      "##iske": 1192,
      "sin": 1193,
      "min": 1194,
      "bl": 1195,
      "ha": 1196,
      "##net": 1197,
      "##else": 1198,
      "##sm": 1199,
      "mot": 1200,
      "##ion": 1201,
      "##und": 1202,
      "være": 1203,
      "kr": 1204,
      "##øn": 1205,
      "or": 1206,
      "##gj": 1207,
      "pl": 1208,
      "##øre": 1209,
      "##den": 1210,
      "##ch": 1211,
      "her": 1212,
      "le": 1213,
      "##eng": 1214,
      "fr": 1215,
      "##im": 1216,
      "br": 1217,
      "##leg": 1218,
      "##ie": 1219,
      "ver": 1220,
      "dag": 1221,
      "##akt": 1222,
      "andre": 1223,
      "##skap": 1224,
      "sa": 1225,
      "meg": 1226,
      "kv": 1227,
      "of": 1228,
      "pr": 1229,
      "reg": 1230,
      "bru": 1231,
      "få": 1232,
      "jo": 1233,
      "##ast": 1234,
      "stor": 1235,
      "##elt": 1236,
      "18": 1237,
      "##ier": 1238,
      "##ly": 1239,
      "##ab": 1240,
      "##ige": 1241,
      "##rem": 1242,
      "når": 1243,
      "##yl": 1244,
      "##ans": 1245,
      "denne": 1246,
      "nå": 1247,
      "##tte": 1248,
      "##jer": 1249,
      "##ale": 1250,
      "##..": 1251,
      "alle": 1252,
      "mer": 1253,
      "##ede": 1254,
      "arbeid": 1255,
      "li": 1256,
      "##ød": 1257,
      "##ket": 1258,
      "##ber": 1259,
      "hen": 1260,
      "--": 1261,
      "fort": 1262,
      "\"\"\"": 1263,
      "##eld": 1264,
      "##ært": 1265,
      "blir": 1266,
      "man": 1267,
      "komm": 1268,
      "##hold": 1269,
      "per": 1270,
      "##nes": 1271,
      "noe": 1272,
      "##alt": 1273,
      "##ingen": 1274,
      "##ass": 1275,
      "kunne": 1276,
      ").": 1277,
      "##ic": 1278,
      "##per": 1279,
      "10": 1280,
      "##ange": 1281,
      "##na": 1282,
      "god": 1283,
      "##iser": 1284,
      "##tid": 1285,
      "sel": 1286,
      "##elle": 1287,
      "ne": 1288,
      "hvor": 1289,
      "##ighet": 1290,
      "ham": 1291,
      "enn": 1292,
      "dem": 1293,
      "sv": 1294,
      "noen": 1295,
      "##lige": 1296,
      "beg": 1297,
      "##ret": 1298,
      "##vis": 1299,
      "bet": 1300,
      "mar": 1301,
      "skul": 1302,
      "bare": 1303,
      "ve": 1304,
      "##kte": 1305,
      "sy": 1306,
      "\"\"\"\"": 1307,
      "##let": 1308,
      "##jel": 1309,
      "##dag": 1310,
      "##ring": 1311,
      "##ien": 1312,
      "##ennom": 1313,
      "ned": 1314,
      "sm": 1315,
      "##pe": 1316,
      "del": 1317,
      "ta": 1318,
      "##ess": 1319,
      "frem": 1320,
      "eg": 1321,
      "gjennom": 1322,
      "##vik": 1323,
      "ber": 1324,
      "##lem": 1325,
      "##ster": 1326,
      "alt": 1327,
      "##stem": 1328,
      "##jem": 1329,
      "##ske": 1330,
      "##ken": 1331,
      "##itet": 1332,
      "##ner": 1333,
      "30": 1334,
      "hva": 1335,
      "land": 1336,
      "mange": 1337,
      "##det": 1338,
      "##kl": 1339,
      "tre": 1340,
      "slik": 1341,
      "##son": 1342,
      "##set": 1343,
      "##ellom": 1344,
      "##utt": 1345,
      "##res": 1346,
      "la": 1347,
      "##eder": 1348,
      "hver": 1349,
      "sammen": 1350,
      "##ust": 1351,
      "ein": 1352,
      "##før": 1353,
      "##ningen": 1354,
      "##legg": 1355,
      "hans": 1356,
      "15": 1357,
      "##ia": 1358,
      "##øp": 1359,
      "mellom": 1360,
      "and": 1361,
      "sj": 1362,
      "te": 1363,
      "dis": 1364,
      "##ug": 1365,
      "skulle": 1366,
      "gang": 1367,
      "##land": 1368,
      "##yd": 1369,
      "##iden": 1370,
      "##ost": 1371,
      "##tem": 1372,
      "##lere": 1373,
      "##tr": 1374,
      "##ult": 1375,
      "he": 1376,
      "##ire": 1377,
      "##opp": 1378,
      "kommun": 1379,
      "sier": 1380,
      "lang": 1381,
      "vært": 1382,
      "uten": 1383,
      "høy": 1384,
      "lag": 1385,
      ".\"\"": 1386,
      "##olit": 1387,
      "##ull": 1388,
      "fin": 1389,
      "ville": 1390,
      "##if": 1391,
      "17": 1392,
      "##ill": 1393,
      "##ive": 1394,
      "ma": 1395,
      "rett": 1396,
      "my": 1397,
      "ser": 1398,
      "##enter": 1399,
      "fors": 1400,
      "fol": 1401,
      "##alg": 1402,
      "201": 1403,
      "bå": 1404,
      "##pl": 1405,
      "##øm": 1406,
      ">>.": 1407,
      "grunn": 1408,
      "tilb": 1409,
      "mor": 1410,
      "##som": 1411,
      "vis": 1412,
      "dei": 1413,
      "##ninger": 1414,
      "fl": 1415,
      "##øk": 1416,
      "##elsen": 1417,
      "##op": 1418,
      "##00": 1419,
      "##rist": 1420,
      "vel": 1421,
      "byg": 1422,
      "ly": 1423,
      "nær": 1424,
      "##ane": 1425,
      "vir": 1426,
      "##tes": 1427,
      "##ets": 1428,
      "12": 1429,
      "bes": 1430,
      "inter": 1431,
      "fram": 1432,
      "deg": 1433,
      "##omm": 1434,
      "##ater": 1435,
      "går": 1436,
      "føl": 1437,
      "##ub": 1438,
      "oss": 1439,
      "##iktig": 1440,
      "11": 1441,
      "første": 1442,
      "##sb": 1443,
      "bil": 1444,
      "##rev": 1445,
      "##gang": 1446,
      "gå": 1447,
      "##kket": 1448,
      "##mp": 1449,
      "##ob": 1450,
      "end": 1451,
      "##ål": 1452,
      "##ct": 1453,
      "far": 1454,
      "##ille": 1455,
      "like": 1456,
      "##ind": 1457,
      "##ksjon": 1458,
      "liv": 1459,
      "##lag": 1460,
      "skj": 1461,
      "by": 1462,
      "henne": 1463,
      "form": 1464,
      "leg": 1465,
      "stat": 1466,
      "##rat": 1467,
      "syn": 1468,
      "##ram": 1469,
      "gl": 1470,
      "igj": 1471,
      "##di": 1472,
      "nok": 1473,
      "ei": 1474,
      "disse": 1475,
      "##sten": 1476,
      "mil": 1477,
      "ty": 1478,
      "fikk": 1479,
      "van": 1480,
      "##els": 1481,
      "199": 1482,
      "##kj": 1483,
      "sn": 1484,
      "forsk": 1485,
      "16": 1486,
      "får": 1487,
      "##ake": 1488,
      "##kker": 1489,
      "##ings": 1490,
      "##ten": 1491,
      "ans": 1492,
      "forb": 1493,
      "polit": 1494,
      "seiv": 1495,
      "##rift": 1496,
      "ch": 1497,
      "##nen": 1498,
      "tra": 1499,
      "##oll": 1500,
      "ol": 1501,
      "igjen": 1502,
      "##are": 1503,
      "##over": 1504,
      "##hand": 1505,
      "##nd": 1506,
      "##atte": 1507,
      "##inger": 1508,
      "all": 1509,
      "pros": 1510,
      "me": 1511,
      "flere": 1512,
      "nord": 1513,
      "ord": 1514,
      "ten": 1515,
      "vid": 1516,
      "dr": 1517,
      "selv": 1518,
      "##stil": 1519,
      "res": 1520,
      "ad": 1521,
      "##rett": 1522,
      "200": 1523,
      "##arbeid": 1524,
      "hå": 1525,
      "hele": 1526,
      "ingen": 1527,
      "gi": 1528,
      "bed": 1529,
      "kommer": 1530,
      "##kon": 1531,
      "par": 1532,
      "kn": 1533,
      "gjøre": 1534,
      "stør": 1535,
      "lø": 1536,
      "lig": 1537,
      "##enger": 1538,
      "pa": 1539,
      "mul": 1540,
      "lov": 1541,
      "##like": 1542,
      "##form": 1543,
      "##erne": 1544,
      "både": 1545,
      "##elser": 1546,
      "##ip": 1547,
      "ek": 1548,
      "godt": 1549,
      "##ry": 1550,
      "samme": 1551,
      "store": 1552,
      "sak": 1553,
      "##iet": 1554,
      "kra": 1555,
      "siden": 1556,
      "##ial": 1557,
      "fe": 1558,
      "##ine": 1559,
      "##atur": 1560,
      "13": 1561,
      "##tak": 1562,
      "litt": 1563,
      "##ard": 1564,
      "red": 1565,
      "nye": 1566,
      "##he": 1567,
      "14": 1568,
      "##ation": 1569,
      "hal": 1570,
      "hus": 1571,
      "hvis": 1572,
      "gikk": 1573,
      "##isjon": 1574,
      "gam": 1575,
      "person": 1576,
      "is": 1577,
      "),": 1578,
      "ja": 1579,
      "##pen": 1580,
      "ra": 1581,
      "mo": 1582,
      "helt": 1583,
      "##eter": 1584,
      "vår": 1585,
      "finn": 1586,
      "##oner": 1587,
      "sine": 1588,
      "ho": 1589,
      "##ce": 1590,
      "##elige": 1591,
      "##etter": 1592,
      "ti": 1593,
      "##ener": 1594,
      "##gan": 1595,
      "mann": 1596,
      "##entet": 1597,
      "norge": 1598,
      "ev": 1599,
      "mø": 1600,
      "##du": 1601,
      "##alen": 1602,
      "mye": 1603,
      "##erd": 1604,
      "##par": 1605,
      "##slag": 1606,
      "kont": 1607,
      "##ygg": 1608,
      "im": 1609,
      "##bru": 1610,
      "gra": 1611,
      "##kkje": 1612,
      "hol": 1613,
      "##unkt": 1614,
      "str": 1615,
      "kar": 1616,
      "mennes": 1617,
      "enk": 1618,
      "spør": 1619,
      "mid": 1620,
      "##øv": 1621,
      "tilbake": 1622,
      "##sel": 1623,
      "rund": 1624,
      "##ordan": 1625,
      "##>>": 1626,
      "ant": 1627,
      "fot": 1628,
      "ikkje": 1629,
      "eks": 1630,
      "lu": 1631,
      "##sker": 1632,
      "##ente": 1633,
      "##gi": 1634,
      "\"\"": 1635,
      "##ønn": 1636,
      "##sf": 1637,
      "##ide": 1638,
      "frå": 1639,
      "##kken": 1640,
      "tro": 1641,
      "bak": 1642,
      "sol": 1643,
      "##stand": 1644,
      "hjem": 1645,
      "hvordan": 1646,
      "sitt": 1647,
      "##rupp": 1648,
      "##ette": 1649,
      "norsk": 1650,
      "##red": 1651,
      "ind": 1652,
      "forhold": 1653,
      "##stad": 1654,
      "hov": 1655,
      "##get": 1656,
      "ss": 1657,
      "##ktiv": 1658,
      "198": 1659,
      "##ode": 1660,
      "##ole": 1661,
      "##rep": 1662,
      "annet": 1663,
      "21": 1664,
      "kor": 1665,
      "fly": 1666,
      "nr": 1667,
      "sig": 1668,
      "mens": 1669,
      "##vel": 1670,
      "##jene": 1671,
      "fyl": 1672,
      "##hus": 1673,
      "##ark": 1674,
      "tor": 1675,
      "sen": 1676,
      "led": 1677,
      "##kes": 1678,
      "bor": 1679,
      "##ytt": 1680,
      "svar": 1681,
      "blitt": 1682,
      "begyn": 1683,
      "vå": 1684,
      "barn": 1685,
      "am": 1686,
      "viktig": 1687,
      "##rer": 1688,
      "##ond": 1689,
      "utvik": 1690,
      "rundt": 1691,
      "øn": 1692,
      "plan": 1693,
      "hjel": 1694,
      "##sjon": 1695,
      "000": 1696,
      "##bl": 1697,
      "##ffe": 1698,
      "fj": 1699,
      "25": 1700,
      "##hol": 1701,
      "måtte": 1702,
      "lå": 1703,
      "##lev": 1704,
      "##kn": 1705,
      "tok": 1706,
      "bestem": 1707,
      "##olog": 1708,
      "siste": 1709,
      "dom": 1710,
      "##dom": 1711,
      "##ister": 1712,
      "##ate": 1713,
      "##nings": 1714,
      "##jør": 1715,
      "øy": 1716,
      "krist": 1717,
      "on": 1718,
      "##fter": 1719,
      "##slo": 1720,
      ",>>": 1721,
      "joh": 1722,
      "tidlig": 1723,
      "##kter": 1724,
      "22": 1725,
      "gjør": 1726,
      "folk": 1727,
      "hav": 1728,
      "derfor": 1729,
      "##heten": 1730,
      "##ennes": 1731,
      "##ib": 1732,
      "bør": 1733,
      "##gr": 1734,
      "##skje": 1735,
      "##ian": 1736,
      "##rik": 1737,
      "##pt": 1738,
      "##ma": 1739,
      "su": 1740,
      "##stå": 1741,
      "##ges": 1742,
      "tv": 1743,
      "##ank": 1744,
      "ro": 1745,
      "...": 1746,
      "stort": 1747,
      "kap": 1748,
      "##stre": 1749,
      "hand": 1750,
      "oslo": 1751,
      "kanskje": 1752,
      "197": 1753,
      "as": 1754,
      "##iten": 1755,
      "inne": 1756,
      "##les": 1757,
      "##olig": 1758,
      "verd": 1759,
      "##ald": 1760,
      "##aler": 1761,
      "sær": 1762,
      "sted": 1763,
      "spes": 1764,
      "##ikker": 1765,
      "sett": 1766,
      "##eller": 1767,
      "##sj": 1768,
      "23": 1769,
      "##elder": 1770,
      "##sv": 1771,
      "##sn": 1772,
      "##ck": 1773,
      "eit": 1774,
      "##met": 1775,
      "##gå": 1776,
      "sto": 1777,
      "sø": 1778,
      "##ise": 1779,
      "mest": 1780,
      "##pr": 1781,
      "ste": 1782,
      "tilf": 1783,
      "fle": 1784,
      "##istor": 1785,
      "hø": 1786,
      "##ite": 1787,
      "##elen": 1788,
      "##satt": 1789,
      "##amil": 1790,
      "##lingen": 1791,
      "##ys": 1792,
      "lik": 1793,
      "hoved": 1794,
      "komme": 1795,
      "bort": 1796,
      "sna": 1797,
      "##min": 1798,
      "full": 1799,
      "gud": 1800,
      "gir": 1801,
      "##ow": 1802,
      "styr": 1803,
      "##ande": 1804,
      "fast": 1805,
      "##rag": 1806,
      "##anse": 1807,
      "ba": 1808,
      "lær": 1809,
      "##asser": 1810,
      "hos": 1811,
      "50": 1812,
      "##ym": 1813,
      "bruk": 1814,
      "mål": 1815,
      "##asjonen": 1816,
      "pre": 1817,
      "off": 1818,
      "natur": 1819,
      "af": 1820,
      "di": 1821,
      "videre": 1822,
      "hvil": 1823,
      "annen": 1824,
      "fordi": 1825,
      "##anske": 1826,
      "organ": 1827,
      "##orde": 1828,
      "ene": 1829,
      "com": 1830,
      "sør": 1831,
      "tar": 1832,
      "##ven": 1833,
      "part": 1834,
      "utt": 1835,
      "##fl": 1836,
      "stil": 1837,
      "rå": 1838,
      "først": 1839,
      "vin": 1840,
      "##led": 1841,
      "spørsm": 1842,
      "##føl": 1843,
      "vet": 1844,
      "##br": 1845,
      "des": 1846,
      "##....": 1847,
      "kir": 1848,
      "bra": 1849,
      "norske": 1850,
      "egen": 1851,
      "sit": 1852,
      "##inner": 1853,
      "sent": 1854,
      "##ksom": 1855,
      "ald": 1856,
      "job": 1857,
      "##kom": 1858,
      "##vend": 1859,
      "hennes": 1860,
      "us": 1861,
      "ster": 1862,
      "hør": 1863,
      "##her": 1864,
      "fått": 1865,
      "rom": 1866,
      "blant": 1867,
      "eng": 1868,
      "nett": 1869,
      "##str": 1870,
      "##ultur": 1871,
      "mat": 1872,
      "side": 1873,
      "##olen": 1874,
      "##nad": 1875,
      "##kning": 1876,
      "fa": 1877,
      "kam": 1878,
      "områ": 1879,
      "##entlig": 1880,
      "veg": 1881,
      "##rakt": 1882,
      "hold": 1883,
      "vann": 1884,
      "con": 1885,
      "##ele": 1886,
      "famil": 1887,
      "##idler": 1888,
      "gjelder": 1889,
      "##la": 1890,
      "ung": 1891,
      "dø": 1892,
      "lok": 1893,
      "ofte": 1894,
      "##berg": 1895,
      "prob": 1896,
      "##iver": 1897,
      "##far": 1898,
      "##sy": 1899,
      "##sdag": 1900,
      "##med": 1901,
      "står": 1902,
      "##agt": 1903,
      "##enge": 1904,
      "tur": 1905,
      "##vir": 1906,
      "aldri": 1907,
      "kjø": 1908,
      "##sd": 1909,
      "##syn": 1910,
      "jord": 1911,
      "##usjon": 1912,
      "##styr": 1913,
      "pres": 1914,
      "klar": 1915,
      "##jekt": 1916,
      "##iner": 1917,
      "##pet": 1918,
      "##mann": 1919,
      "##nt": 1920,
      "fri": 1921,
      "?.": 1922,
      "fred": 1923,
      "lo": 1924,
      "so": 1925,
      "viser": 1926,
      "##vet": 1927,
      "ka": 1928,
      "innen": 1929,
      "nød": 1930,
      "ekse": 1931,
      "##pro": 1932,
      "##dd": 1933,
      "langt": 1934,
      "##esten": 1935,
      "##ativ": 1936,
      "åp": 1937,
      "##ue": 1938,
      "gjort": 1939,
      "##urder": 1940,
      "##ikken": 1941,
      "##jø": 1942,
      "tatt": 1943,
      "dy": 1944,
      "nytt": 1945,
      "gamle": 1946,
      "nav": 1947,
      "slutt": 1948,
      "deres": 1949,
      "mindre": 1950,
      "##eren": 1951,
      "196": 1952,
      "##funn": 1953,
      "inst": 1954,
      "samt": 1955,
      "mulig": 1956,
      "ting": 1957,
      "##io": 1958,
      "små": 1959,
      "tidligere": 1960,
      "##sh": 1961,
      "##org": 1962,
      "##gjør": 1963,
      "stud": 1964,
      "aller": 1965,
      "fil": 1966,
      "gjorde": 1967,
      "dire": 1968,
      "int": 1969,
      "større": 1970,
      "stem": 1971,
      "produ": 1972,
      "beh": 1973,
      "sh": 1974,
      "fag": 1975,
      ">>,": 1976,
      "kal": 1977,
      "dat": 1978,
      "histor": 1979,
      "utv": 1980,
      "##ka": 1981,
      "40": 1982,
      "ga": 1983,
      "##partem": 1984,
      "ge": 1985,
      "halv": 1986,
      "lar": 1987,
      "gener": 1988,
      "##allet": 1989,
      "lett": 1990,
      "##skapet": 1991,
      "##des": 1992,
      "mener": 1993,
      "##ain": 1994,
      "bok": 1995,
      "##asjoner": 1996,
      "45": 1997,
      "betyd": 1998,
      "ca": 1999,
      "##ong": 2000,
      "eksemp": 2001,
      "ab": 2002,
      "mus": 2003,
      "##riv": 2004,
      "kultur": 2005,
      "##handling": 2006,
      "##kst": 2007,
      "delt": 2008,
      "##reg": 2009,
      "valg": 2010,
      "bo": 2011,
      "##heng": 2012,
      "rep": 2013,
      "##enner": 2014,
      "gre": 2015,
      "##assen": 2016,
      "art": 2017,
      "ter": 2018,
      "satt": 2019,
      "##veg": 2020,
      "##enes": 2021,
      "##ins": 2022,
      "eu": 2023,
      "id": 2024,
      "##øs": 2025,
      "vansk": 2026,
      "##mel": 2027,
      "##gram": 2028,
      "##asse": 2029,
      "sc": 2030,
      "##sket": 2031,
      "24": 2032,
      "sos": 2033,
      "stra": 2034,
      "##anger": 2035,
      "##kelig": 2036,
      "##ild": 2037,
      "it": 2038,
      "##elte": 2039,
      "dere": 2040,
      "##iter": 2041,
      "##uler": 2042,
      "grupp": 2043,
      "les": 2044,
      "ben": 2045,
      "##bet": 2046,
      "ulike": 2047,
      "heller": 2048,
      "##dal": 2049,
      "##age": 2050,
      "##sfor": 2051,
      "##føre": 2052,
      "##iller": 2053,
      "tillegg": 2054,
      "##by": 2055,
      "bedre": 2056,
      "05": 2057,
      ".)": 2058,
      "ul": 2059,
      "best": 2060,
      "alltid": 2061,
      "kroner": 2062,
      "##heter": 2063,
      "tror": 2064,
      "vurder": 2065,
      "fun": 2066,
      "##tidig": 2067,
      "##konom": 2068,
      "vest": 2069,
      "##fa": 2070,
      "##use": 2071,
      "ang": 2072,
      "hvert": 2073,
      "##ith": 2074,
      "ligger": 2075,
      "måte": 2076,
      "gode": 2077,
      "fem": 2078,
      "økonom": 2079,
      "##igheter": 2080,
      "stad": 2081,
      "##alte": 2082,
      "dersom": 2083,
      "##ilt": 2084,
      "03": 2085,
      "##spl": 2086,
      "##eldig": 2087,
      "mark": 2088,
      "wh": 2089,
      "##yld": 2090,
      "##alitet": 2091,
      "hatt": 2092,
      "kort": 2093,
      "spesi": 2094,
      "besk": 2095,
      "##fer": 2096,
      "finne": 2097,
      "##isen": 2098,
      "stø": 2099,
      "##ppen": 2100,
      "jul": 2101,
      "din": 2102,
      "##sak": 2103,
      "em": 2104,
      "gjen": 2105,
      "##vær": 2106,
      "co": 2107,
      "195": 2108,
      "194": 2109,
      "##gende": 2110,
      "løp": 2111,
      "##ktor": 2112,
      "##rig": 2113,
      "po": 2114,
      "fakt": 2115,
      "##ile": 2116,
      "op": 2117,
      "##ider": 2118,
      "##ensjon": 2119,
      "skap": 2120,
      "result": 2121,
      "kraft": 2122,
      "natt": 2123,
      "inv": 2124,
      "##kv": 2125,
      "skole": 2126,
      "##ført": 2127,
      "verden": 2128,
      "##ade": 2129,
      "##ben": 2130,
      "##stilling": 2131,
      "##bygg": 2132,
      "medlem": 2133,
      "prosent": 2134,
      "ele": 2135,
      "##ina": 2136,
      "##ity": 2137,
      "vær": 2138,
      "likevel": 2139,
      "senere": 2140,
      "##bar": 2141,
      "##rene": 2142,
      "milli": 2143,
      "kro": 2144,
      "##ppe": 2145,
      "nei": 2146,
      "06": 2147,
      "##spunkt": 2148,
      "inform": 2149,
      "##ynd": 2150,
      "##fe": 2151,
      "tan": 2152,
      "ret": 2153,
      "##river": 2154,
      "tem": 2155,
      "nev": 2156,
      "##inne": 2157,
      "##ott": 2158,
      "pe": 2159,
      "##delse": 2160,
      "lever": 2161,
      "met": 2162,
      "##gt": 2163,
      "##søk": 2164,
      "samfunn": 2165,
      "mag": 2166,
      "svært": 2167,
      "tiden": 2168,
      "##idlertid": 2169,
      "##partementet": 2170,
      "spørsmål": 2171,
      "jan": 2172,
      "imidlertid": 2173,
      "hjelp": 2174,
      "35": 2175,
      "beste": 2176,
      "##raf": 2177,
      "konk": 2178,
      "##ren": 2179,
      "bu": 2180,
      "##ga": 2181,
      "lite": 2182,
      "##bo": 2183,
      "sik": 2184,
      "eksempel": 2185,
      "liten": 2186,
      "søn": 2187,
      "##ha": 2188,
      "##da": 2189,
      "fire": 2190,
      "##odet": 2191,
      "##ies": 2192,
      "ex": 2193,
      "tjene": 2194,
      "##up": 2195,
      "vart": 2196,
      "stå": 2197,
      "nødvend": 2198,
      "fant": 2199,
      "barne": 2200,
      "##jen": 2201,
      "55": 2202,
      "##ich": 2203,
      "plass": 2204,
      "##ester": 2205,
      "fig": 2206,
      "ferd": 2207,
      "ansvar": 2208,
      "særlig": 2209,
      "##ringer": 2210,
      "dan": 2211,
      "fisk": 2212,
      "##under": 2213,
      "felle": 2214,
      "organis": 2215,
      "foto": 2216,
      "vanskelig": 2217,
      "##ftet": 2218,
      "##~~": 2219,
      "are": 2220,
      "hj": 2221,
      "øv": 2222,
      "akt": 2223,
      "##ave": 2224,
      "nesten": 2225,
      "##mark": 2226,
      "##ferd": 2227,
      "ett": 2228,
      "arbeidet": 2229,
      "samtidig": 2230,
      "slike": 2231,
      "##ja": 2232,
      "mod": 2233,
      "ute": 2234,
      "syke": 2235,
      "slag": 2236,
      "mennesker": 2237,
      "##inga": 2238,
      "forskjel": 2239,
      "problem": 2240,
      "mang": 2241,
      ":.": 2242,
      "il": 2243,
      "##ont": 2244,
      "##ous": 2245,
      "hens": 2246,
      "grad": 2247,
      "##part": 2248,
      "kjem": 2249,
      "intern": 2250,
      "##andre": 2251,
      ".,": 2252,
      "begge": 2253,
      "forv": 2254,
      "avt": 2255,
      "gar": 2256,
      "kommune": 2257,
      "enkelte": 2258,
      "##sett": 2259,
      "unn": 2260,
      "##svar": 2261,
      "att": 2262,
      "lenge": 2263,
      "allerede": 2264,
      "ønsker": 2265,
      "##yt": 2266,
      "##istr": 2267,
      "##sa": 2268,
      "tom": 2269,
      "##atet": 2270,
      "##lys": 2271,
      "kre": 2272,
      "##ansen": 2273,
      "råd": 2274,
      "bur": 2275,
      "død": 2276,
      "tru": 2277,
      "##sted": 2278,
      "##lene": 2279,
      "meget": 2280,
      "##ensen": 2281,
      "##sø": 2282,
      "bas": 2283,
      "##heim": 2284,
      "##int": 2285,
      "##dan": 2286,
      "veldig": 2287,
      "##ore": 2288,
      "##fj": 2289,
      "fø": 2290,
      "stand": 2291,
      "ko": 2292,
      "aktiv": 2293,
      "tak": 2294,
      "euro": 2295,
      "193": 2296,
      "gitt": 2297,
      "kjøp": 2298,
      "ob": 2299,
      "##revet": 2300,
      "##fol": 2301,
      "holdt": 2302,
      "menn": 2303,
      "utvikling": 2304,
      "spur": 2305,
      "##øren": 2306,
      "krig": 2307,
      "interes": 2308,
      "jun": 2309,
      "situ": 2310,
      "##pa": 2311,
      "neste": 2312,
      "post": 2313,
      "till": 2314,
      "do": 2315,
      "##iste": 2316,
      "##ikket": 2317,
      "livet": 2318,
      "##yttet": 2319,
      "##ffer": 2320,
      "##komm": 2321,
      "samarbeid": 2322,
      "skjer": 2323,
      "##ment": 2324,
      "kunn": 2325,
      "##spro": 2326,
      "##jef": 2327,
      "ven": 2328,
      "bid": 2329,
      "leder": 2330,
      "forslag": 2331,
      "løs": 2332,
      "##utter": 2333,
      "krav": 2334,
      "behov": 2335,
      "regjer": 2336,
      "pris": 2337,
      "bjør": 2338,
      "sty": 2339,
      "bud": 2340,
      "##til": 2341,
      "##tet": 2342,
      "##pper": 2343,
      "prosjekt": 2344,
      "##verk": 2345,
      "amer": 2346,
      "dra": 2347,
      "##ument": 2348,
      "##grunn": 2349,
      "rel": 2350,
      "##dene": 2351,
      "forel": 2352,
      "##uts": 2353,
      "##aten": 2354,
      "finnes": 2355,
      "sentr": 2356,
      "##sto": 2357,
      "##ører": 2358,
      "mån": 2359,
      "uttry": 2360,
      "with": 2361,
      "repres": 2362,
      "##uten": 2363,
      "##egn": 2364,
      "bel": 2365,
      "##onym": 2366,
      "##ålet": 2367,
      "##amp": 2368,
      "dagen": 2369,
      "våre": 2370,
      "##urs": 2371,
      "hu": 2372,
      "kontr": 2373,
      "##ford": 2374,
      "##uss": 2375,
      "##ay": 2376,
      "sommer": 2377,
      "forstå": 2378,
      "hvorfor": 2379,
      "##ember": 2380,
      "då": 2381,
      "##ager": 2382,
      "effe": 2383,
      "dyr": 2384,
      "årene": 2385,
      "bruker": 2386,
      "##rim": 2387,
      "sand": 2388,
      "ram": 2389,
      "priv": 2390,
      "##ften": 2391,
      "kunst": 2392,
      "##ball": 2393,
      "##stra": 2394,
      "pos": 2395,
      "26": 2396,
      "##sam": 2397,
      "##rukt": 2398,
      "landet": 2399,
      "sikker": 2400,
      "##va": 2401,
      "start": 2402,
      "anonym": 2403,
      "altså": 2404,
      "27": 2405,
      "arbeids": 2406,
      "begynte": 2407,
      "forkl": 2408,
      "helse": 2409,
      "hånd": 2410,
      "ag": 2411,
      "kost": 2412,
      "##ksomhet": 2413,
      "##drag": 2414,
      "##elses": 2415,
      "bruke": 2416,
      "##ytte": 2417,
      "28": 2418,
      "lenger": 2419,
      "dess": 2420,
      "not": 2421,
      "paa": 2422,
      "##ht": 2423,
      "fjer": 2424,
      "lille": 2425,
      "virkelig": 2426,
      "sver": 2427,
      "kontakt": 2428,
      "##ivå": 2429,
      "rekke": 2430,
      "forl": 2431,
      "##ule": 2432,
      "klo": 2433,
      "fød": 2434,
      "that": 2435,
      "##ete": 2436,
      "direkte": 2437,
      "holde": 2438,
      "##nr": 2439,
      "##olle": 2440,
      "dok": 2441,
      "kommet": 2442,
      "system": 2443,
      "vei": 2444,
      "fer": 2445,
      "##isering": 2446,
      "gjerne": 2447,
      "##ykk": 2448,
      "foret": 2449,
      "mel": 2450,
      "01": 2451,
      "##ator": 2452,
      "fordel": 2453,
      "synes": 2454,
      "na": 2455,
      "##ilte": 2456,
      "##one": 2457,
      "##uer": 2458,
      "saken": 2459,
      "domain": 2460,
      "tiltak": 2461,
      "##mene": 2462,
      "##orten": 2463,
      "hvem": 2464,
      "fleste": 2465,
      "øye": 2466,
      "vanlig": 2467,
      "##oven": 2468,
      "192": 2469,
      "elev": 2470,
      "anonymous": 2471,
      "##asi": 2472,
      "tekn": 2473,
      "felles": 2474,
      "sann": 2475,
      "##ttet": 2476,
      "forn": 2477,
      "##iss": 2478,
      "##iktet": 2479,
      "visste": 2480,
      "fo": 2481,
      "mør": 2482,
      "##vil": 2483,
      "ledd": 2484,
      "dermed": 2485,
      "eneste": 2486,
      "##oden": 2487,
      "ganger": 2488,
      "rad": 2489,
      "ungdom": 2490,
      "fall": 2491,
      "rik": 2492,
      "##fr": 2493,
      "føre": 2494,
      "##unnet": 2495,
      "##tekt": 2496,
      "##fon": 2497,
      "stille": 2498,
      "fortsatt": 2499,
      "lagt": 2500,
      "##endom": 2501,
      "tal": 2502,
      "##ått": 2503,
      "drift": 2504,
      "##igheten": 2505,
      "oppf": 2506,
      "prof": 2507,
      "foran": 2508,
      "kvinn": 2509,
      "program": 2510,
      "dår": 2511,
      "##ba": 2512,
      "mitt": 2513,
      "##ction": 2514,
      "##akter": 2515,
      "forbin": 2516,
      "nødvendig": 2517,
      "##ustri": 2518,
      "29": 2519,
      "##syk": 2520,
      "akk": 2521,
      "##eleg": 2522,
      "##isert": 2523,
      "##vert": 2524,
      "lin": 2525,
      "nasjon": 2526,
      "hverandre": 2527,
      "191": 2528,
      "##året": 2529,
      "juni": 2530,
      "tot": 2531,
      "bolig": 2532,
      "leng": 2533,
      "##anen": 2534,
      "mon": 2535,
      "##ansk": 2536,
      "##ningene": 2537,
      "gro": 2538,
      "imp": 2539,
      "send": 2540,
      "ing": 2541,
      "utenfor": 2542,
      "klart": 2543,
      "mannen": 2544,
      "event": 2545,
      "##uder": 2546,
      "##mere": 2547,
      "spe": 2548,
      "vind": 2549,
      "##dde": 2550,
      "møte": 2551,
      "kvinner": 2552,
      "##lagt": 2553,
      "rø": 2554,
      "gått": 2555,
      "##spe": 2556,
      "##rasjon": 2557,
      "forsø": 2558,
      "##gift": 2559,
      "sal": 2560,
      "##sikt": 2561,
      "##tre": 2562,
      "##ening": 2563,
      "kons": 2564,
      "tun": 2565,
      "##aker": 2566,
      "stre": 2567,
      "sta": 2568,
      "vo": 2569,
      "lev": 2570,
      "##ssk": 2571,
      "dager": 2572,
      "##urr": 2573,
      "unge": 2574,
      "um": 2575,
      "univer": 2576,
      "skr": 2577,
      "set": 2578,
      "sagt": 2579,
      "øst": 2580,
      "mater": 2581,
      "sch": 2582,
      "enda": 2583,
      "val": 2584,
      "##ærer": 2585,
      "minst": 2586,
      "##udd": 2587,
      "##yst": 2588,
      "oppg": 2589,
      "##lighet": 2590,
      "##iene": 2591,
      "##man": 2592,
      "navn": 2593,
      "kil": 2594,
      "##ev": 2595,
      "ves": 2596,
      "##ppet": 2597,
      "morgen": 2598,
      "ful": 2599,
      "##råk": 2600,
      "enkelt": 2601,
      "##vor": 2602,
      "kong": 2603,
      "##dt": 2604,
      "stein": 2605,
      "##byg": 2606,
      "bek": 2607,
      "va": 2608,
      "##fall": 2609,
      "kveld": 2610,
      "svarte": 2611,
      "car": 2612,
      "disk": 2613,
      "spurte": 2614,
      "fylke": 2615,
      "miljø": 2616,
      "hodet": 2617,
      "100": 2618,
      "sette": 2619,
      "prø": 2620,
      "kjent": 2621,
      "kat": 2622,
      "syk": 2623,
      "##ommet": 2624,
      "informasjon": 2625,
      "##ike": 2626,
      "nem": 2627,
      "feil": 2628,
      "jer": 2629,
      "fjell": 2630,
      "tab": 2631,
      "finner": 2632,
      "31": 2633,
      "amerik": 2634,
      "##........": 2635,
      "##elsene": 2636,
      "berg": 2637,
      "bestemm": 2638,
      "forskjellige": 2639,
      "##ats": 2640,
      "følge": 2641,
      "omf": 2642,
      "##agen": 2643,
      "##ves": 2644,
      "##grupp": 2645,
      "##mar": 2646,
      "##går": 2647,
      "fal": 2648,
      "forteller": 2649,
      "forsvar": 2650,
      "##ure": 2651,
      "tør": 2652,
      "##urat": 2653,
      "ska": 2654,
      "##tatt": 2655,
      "ander": 2656,
      "peri": 2657,
      "tap": 2658,
      "instit": 2659,
      "pra": 2660,
      "christ": 2661,
      "univers": 2662,
      "norges": 2663,
      "ring": 2664,
      "##fører": 2665,
      "##på": 2666,
      "hjemme": 2667,
      "##anser": 2668,
      "venn": 2669,
      "ganske": 2670,
      "##kene": 2671,
      "##iale": 2672,
      "##ellen": 2673,
      "pass": 2674,
      "arbeider": 2675,
      "brukt": 2676,
      "rapp": 2677,
      "##ader": 2678,
      "tred": 2679,
      "##nal": 2680,
      "##hav": 2681,
      "dre": 2682,
      "##oret": 2683,
      "##sta": 2684,
      "dram": 2685,
      "året": 2686,
      "sve": 2687,
      "##ium": 2688,
      "##sst": 2689,
      "spesielt": 2690,
      "##enten": 2691,
      "trenger": 2692,
      "##qu": 2693,
      "største": 2694,
      "##rum": 2695,
      "riktig": 2696,
      "gutt": 2697,
      "##fatter": 2698,
      "prøv": 2699,
      "##ote": 2700,
      "midt": 2701,
      "##bil": 2702,
      "seks": 2703,
      "folke": 2704,
      "skog": 2705,
      "stedet": 2706,
      "mine": 2707,
      "pub": 2708,
      "##ølv": 2709,
      "##erte": 2710,
      "kli": 2711,
      "omk": 2712,
      "aug": 2713,
      "erfar": 2714,
      "én": 2715,
      "##nem": 2716,
      "mai": 2717,
      "aks": 2718,
      "##øt": 2719,
      "##ital": 2720,
      "bord": 2721,
      "ener": 2722,
      "##følge": 2723,
      "lys": 2724,
      "ann": 2725,
      "kunnskap": 2726,
      "fores": 2727,
      "##rang": 2728,
      "tenkte": 2729,
      "02": 2730,
      "new": 2731,
      "##ansp": 2732,
      "##urt": 2733,
      "marked": 2734,
      "meld": 2735,
      "##aks": 2736,
      "anal": 2737,
      "##ynene": 2738,
      "skip": 2739,
      "##æring": 2740,
      "##stend": 2741,
      "tallet": 2742,
      "avsl": 2743,
      "gjer": 2744,
      "##len": 2745,
      "byen": 2746,
      "lokal": 2747,
      "##entene": 2748,
      "opplev": 2749,
      "akkurat": 2750,
      "begr": 2751,
      "jon": 2752,
      "lære": 2753,
      "##uelle": 2754,
      "##lert": 2755,
      "##øst": 2756,
      "bod": 2757,
      "ur": 2758,
      "ed": 2759,
      "08": 2760,
      "09": 2761,
      "området": 2762,
      "john": 2763,
      "kommunen": 2764,
      "##områ": 2765,
      "snart": 2766,
      "##inget": 2767,
      "utgang": 2768,
      "##ng": 2769,
      "but": 2770,
      "represent": 2771,
      "##fra": 2772,
      "efter": 2773,
      "sov": 2774,
      "skjed": 2775,
      "ris": 2776,
      "##linger": 2777,
      "##aren": 2778,
      "kjør": 2779,
      "##anter": 2780,
      "##ummer": 2781,
      "sub": 2782,
      "behand": 2783,
      "##ase": 2784,
      "veien": 2785,
      "løpet": 2786,
      "verdens": 2787,
      "alvor": 2788,
      "selskap": 2789,
      "støtte": 2790,
      "gjeld": 2791,
      "mand": 2792,
      "mart": 2793,
      "##annen": 2794,
      "laget": 2795,
      "60": 2796,
      "##ative": 2797,
      "vårt": 2798,
      "skje": 2799,
      "tele": 2800,
      "##ritt": 2801,
      "betydning": 2802,
      "skjøn": 2803,
      "oper": 2804,
      "##ta": 2805,
      "##eland": 2806,
      "##stein": 2807,
      "fest": 2808,
      "##iker": 2809,
      "bro": 2810,
      "pasi": 2811,
      "##bud": 2812,
      "kol": 2813,
      "##beide": 2814,
      "##føring": 2815,
      "ekte": 2816,
      "##oen": 2817,
      "kjente": 2818,
      "##ju": 2819,
      "bedrift": 2820,
      "kontroll": 2821,
      "##råd": 2822,
      "##snitt": 2823,
      "##bu": 2824,
      "##iktige": 2825,
      "##ikkert": 2826,
      "##atene": 2827,
      "etab": 2828,
      "forbindelse": 2829,
      "eiendom": 2830,
      "luft": 2831,
      "bergen": 2832,
      "utvalg": 2833,
      "nærmere": 2834,
      "gul": 2835,
      "utg": 2836,
      "legge": 2837,
      "psyk": 2838,
      "tysk": 2839,
      "egne": 2840,
      "##ivet": 2841,
      "seier": 2842,
      "##bruk": 2843,
      "##huset": 2844,
      "##disjon": 2845,
      "hensyn": 2846,
      "personer": 2847,
      "##vid": 2848,
      "punkt": 2849,
      "aut": 2850,
      "##kje": 2851,
      "huset": 2852,
      "opplys": 2853,
      "##står": 2854,
      "):": 2855,
      "##ice": 2856,
      "##fin": 2857,
      "ren": 2858,
      "musikk": 2859,
      "##satte": 2860,
      "grunnlag": 2861,
      "##deling": 2862,
      "##lik": 2863,
      "produksjon": 2864,
      "moder": 2865,
      "sterk": 2866,
      "lav": 2867,
      "komp": 2868,
      "sosial": 2869,
      "nil": 2870,
      "nu": 2871,
      "##oren": 2872,
      "##oler": 2873,
      "##deles": 2874,
      "time": 2875,
      "##rige": 2876,
      "##ifter": 2877,
      "skolen": 2878,
      "##sette": 2879,
      "##sland": 2880,
      "##ykt": 2881,
      "dam": 2882,
      "##of": 2883,
      "hend": 2884,
      "øynene": 2885,
      "kirke": 2886,
      "bi": 2887,
      "hev": 2888,
      "forklar": 2889,
      "alder": 2890,
      "tyd": 2891,
      "undersøk": 2892,
      "app": 2893,
      "##kka": 2894,
      "innenfor": 2895,
      "##ograf": 2896,
      "betyr": 2897,
      "##entlige": 2898,
      "##valg": 2899,
      "funksjon": 2900,
      "posit": 2901,
      "dokument": 2902,
      "##vere": 2903,
      "stadig": 2904,
      "elekt": 2905,
      "##kra": 2906,
      "##ons": 2907,
      "##ham": 2908,
      "høre": 2909,
      "hy": 2910,
      "norm": 2911,
      "##rifter": 2912,
      "ap": 2913,
      "##holder": 2914,
      "##adet": 2915,
      "strøm": 2916,
      "politiet": 2917,
      "##uar": 2918,
      "33": 2919,
      "##dig": 2920,
      "sid": 2921,
      "##vin": 2922,
      "beveg": 2923,
      "07": 2924,
      "erik": 2925,
      "190": 2926,
      "##dus": 2927,
      "vinter": 2928,
      "##cc": 2929,
      "millioner": 2930,
      "deler": 2931,
      "antall": 2932,
      "hjer": 2933,
      "##unt": 2934,
      "redus": 2935,
      "ir": 2936,
      "bygge": 2937,
      "region": 2938,
      "##orter": 2939,
      "32": 2940,
      "brukes": 2941,
      "vold": 2942,
      "vekt": 2943,
      "ifølge": 2944,
      "dro": 2945,
      "figur": 2946,
      "##enser": 2947,
      "lør": 2948,
      "eget": 2949,
      "##fjord": 2950,
      "ak": 2951,
      "sjø": 2952,
      "ras": 2953,
      "mott": 2954,
      "##sert": 2955,
      "barna": 2956,
      "tall": 2957,
      "##vern": 2958,
      "aktivitet": 2959,
      "sli": 2960,
      "mist": 2961,
      "eldre": 2962,
      "forut": 2963,
      "##minist": 2964,
      "##hl": 2965,
      "rask": 2966,
      "konkurr": 2967,
      "vise": 2968,
      "we": 2969,
      "trond": 2970,
      "##ori": 2971,
      "salg": 2972,
      "hvilke": 2973,
      "mis": 2974,
      "fi": 2975,
      "##lemer": 2976,
      "burde": 2977,
      "ph": 2978,
      "industri": 2979,
      "##essig": 2980,
      "bø": 2981,
      "##aksjon": 2982,
      "barnet": 2983,
      "##ledes": 2984,
      "##ikke": 2985,
      "døde": 2986,
      "internasjon": 2987,
      "##usen": 2988,
      ",.": 2989,
      "følgende": 2990,
      "langs": 2991,
      "tenke": 2992,
      "snakke": 2993,
      "lønn": 2994,
      "overfor": 2995,
      "nt": 2996,
      "press": 2997,
      "mars": 2998,
      "prakt": 2999,
      "ban": 3000,
      "##bok": 3001,
      "##ved": 3002,
      "real": 3003,
      "ellers": 3004,
      "##følg": 3005,
      "ide": 3006,
      "skriver": 3007,
      "##somt": 3008,
      "##nden": 3009,
      "hjelpe": 3010,
      "##blikk": 3011,
      "skyld": 3012,
      "##giv": 3013,
      "ski": 3014,
      "blå": 3015,
      "næring": 3016,
      "##sjett": 3017,
      "##agn": 3018,
      "dårlig": 3019,
      "kast": 3020,
      "eier": 3021,
      "konst": 3022,
      "this": 3023,
      "##landet": 3024,
      "##ress": 3025,
      "rus": 3026,
      "ole": 3027,
      "##ork": 3028,
      "usa": 3029,
      "fyr": 3030,
      "grå": 3031,
      "rød": 3032,
      "rette": 3033,
      "vit": 3034,
      ",-": 3035,
      "##mid": 3036,
      "bevis": 3037,
      "##organ": 3038,
      "pol": 3039,
      "utdan": 3040,
      "was": 3041,
      "behandling": 3042,
      "189": 3043,
      "sport": 3044,
      "foresl": 3045,
      "##ers": 3046,
      "from": 3047,
      "oppr": 3048,
      "gammel": 3049,
      "##ffet": 3050,
      "##uelt": 3051,
      "##kel": 3052,
      "søk": 3053,
      "kjær": 3054,
      "ud": 3055,
      "hvilken": 3056,
      "90": 3057,
      "##menn": 3058,
      "sky": 3059,
      "uttrykk": 3060,
      "tol": 3061,
      "ferdig": 3062,
      "##folk": 3063,
      "##ogen": 3064,
      "sjå": 3065,
      "##øse": 3066,
      "prins": 3067,
      "kamp": 3068,
      "alter": 3069,
      "##ingene": 3070,
      "vert": 3071,
      "apr": 3072,
      "nov": 3073,
      "##ses": 3074,
      "vok": 3075,
      "slags": 3076,
      "go": 3077,
      "vite": 3078,
      "regn": 3079,
      "dessuten": 3080,
      "måten": 3081,
      "funnet": 3082,
      "##ata": 3083,
      "70": 3084,
      "eksp": 3085,
      "høyre": 3086,
      "##ologi": 3087,
      "naturlig": 3088,
      "søndag": 3089,
      "glad": 3090,
      "stod": 3091,
      "##lf": 3092,
      "ii": 3093,
      "mynd": 3094,
      "##kast": 3095,
      "vari": 3096,
      "##20": 3097,
      "legger": 3098,
      "meter": 3099,
      "kjenner": 3100,
      "##ittel": 3101,
      "handel": 3102,
      "rev": 3103,
      "fotball": 3104,
      "fart": 3105,
      "gje": 3106,
      "ru": 3107,
      "anna": 3108,
      "avgjør": 3109,
      "borte": 3110,
      "juli": 3111,
      "tryg": 3112,
      "spiller": 3113,
      "##ogn": 3114,
      "gift": 3115,
      "jes": 3116,
      "tilsvar": 3117,
      "##anten": 3118,
      "tradisjon": 3119,
      "##sson": 3120,
      "##ksis": 3121,
      "født": 3122,
      "oppl": 3123,
      "penger": 3124,
      "hum": 3125,
      "spørsmålet": 3126,
      "reise": 3127,
      "egentlig": 3128,
      "krit": 3129,
      "august": 3130,
      "ark": 3131,
      "kva": 3132,
      "##ighetene": 3133,
      "imot": 3134,
      "fir": 3135,
      "##iz": 3136,
      "makt": 3137,
      "sikkert": 3138,
      "venstre": 3139,
      "inntekt": 3140,
      "fiske": 3141,
      "regi": 3142,
      "##ple": 3143,
      "bon": 3144,
      "##hør": 3145,
      "omkring": 3146,
      "##gte": 3147,
      "viste": 3148,
      "sle": 3149,
      "##orn": 3150,
      "mal": 3151,
      "familien": 3152,
      "lørdag": 3153,
      "80": 3154,
      "lærer": 3155,
      "him": 3156,
      "lange": 3157,
      "##aget": 3158,
      "januar": 3159,
      "hørte": 3160,
      "hot": 3161,
      "nøy": 3162,
      "ass": 3163,
      "04": 3164,
      "trom": 3165,
      "voks": 3166,
      "bib": 3167,
      "tredje": 3168,
      "bygg": 3169,
      "transp": 3170,
      "menneske": 3171,
      "##atning": 3172,
      "##istrikt": 3173,
      "##meld": 3174,
      "##isere": 3175,
      "##skj": 3176,
      "##skin": 3177,
      "##we": 3178,
      "au": 3179,
      "##ellet": 3180,
      "ses": 3181,
      "bre": 3182,
      "grat": 3183,
      "sek": 3184,
      "utgangspunkt": 3185,
      "##sut": 3186,
      "##visning": 3187,
      "familie": 3188,
      "faktisk": 3189,
      "ni": 3190,
      "##kar": 3191,
      "bestemt": 3192,
      "##arbeidet": 3193,
      ".\"\"\"": 3194,
      "april": 3195,
      "cl": 3196,
      "##hed": 3197,
      "retning": 3198,
      "alene": 3199,
      "departementet": 3200,
      "##vå": 3201,
      "##erer": 3202,
      "administ": 3203,
      "##stid": 3204,
      "slo": 3205,
      "tek": 3206,
      "finans": 3207,
      "års": 3208,
      "\"\"\"\".": 3209,
      "##enne": 3210,
      "bakgrunn": 3211,
      "##mon": 3212,
      "bjørn": 3213,
      "##departementet": 3214,
      "kvinne": 3215,
      "nettopp": 3216,
      "##punkt": 3217,
      "fore": 3218,
      "##atisk": 3219,
      "34": 3220,
      "##onom": 3221,
      "##ivil": 3222,
      "2018": 3223,
      "skatt": 3224,
      "tydelig": 3225,
      "##ach": 3226,
      "pap": 3227,
      "##ose": 3228,
      "yr": 3229,
      "regel": 3230,
      "skrive": 3231,
      "2016": 3232,
      "sterkt": 3233,
      "##skudd": 3234,
      "##ruktur": 3235,
      "takk": 3236,
      "##æl": 3237,
      "utford": 3238,
      "okt": 3239,
      "pri": 3240,
      "deretter": 3241,
      "##ding": 3242,
      "folket": 3243,
      "188": 3244,
      "knyttet": 3245,
      "stilling": 3246,
      "##unde": 3247,
      "tlf": 3248,
      "holder": 3249,
      "##mens": 3250,
      "hem": 3251,
      "konse": 3252,
      "##ions": 3253,
      "dig": 3254,
      "anne": 3255,
      "bred": 3256,
      "teg": 3257,
      "plasser": 3258,
      "rør": 3259,
      "elektr": 3260,
      "tilbud": 3261,
      "##van": 3262,
      "ekstra": 3263,
      "helst": 3264,
      "slå": 3265,
      "jobb": 3266,
      "##orer": 3267,
      "høg": 3268,
      "ry": 3269,
      "##app": 3270,
      "##holde": 3271,
      "lot": 3272,
      "##ors": 3273,
      "rek": 3274,
      "have": 3275,
      "36": 3276,
      "stol": 3277,
      "stav": 3278,
      "fre": 3279,
      "kart": 3280,
      "##enting": 3281,
      "anlegg": 3282,
      "pot": 3283,
      "slikt": 3284,
      "sep": 3285,
      "##nn": 3286,
      "fatt": 3287,
      "telefon": 3288,
      "vik": 3289,
      "privat": 3290,
      "kvalitet": 3291,
      "åpen": 3292,
      "brann": 3293,
      "fru": 3294,
      "sverige": 3295,
      "data": 3296,
      "-.": 3297,
      "timer": 3298,
      "##ph": 3299,
      "hånden": 3300,
      "##kkes": 3301,
      "##une": 3302,
      "engel": 3303,
      "##undet": 3304,
      "##ska": 3305,
      "blod": 3306,
      "sat": 3307,
      "peder": 3308,
      "stopp": 3309,
      "mig": 3310,
      "##setning": 3311,
      "tvil": 3312,
      "noko": 3313,
      "##verket": 3314,
      "fro": 3315,
      "treng": 3316,
      "##ical": 3317,
      "kostnad": 3318,
      "##isjonen": 3319,
      "fekk": 3320,
      "##istisk": 3321,
      "##repet": 3322,
      "dagens": 3323,
      "ansatte": 3324,
      "##fly": 3325,
      "brev": 3326,
      "##lege": 3327,
      "ytter": 3328,
      "traf": 3329,
      "universitet": 3330,
      "##ung": 3331,
      "##veien": 3332,
      "ref": 3333,
      "kompet": 3334,
      "qu": 3335,
      "fys": 3336,
      "##nev": 3337,
      "sku": 3338,
      "pluts": 3339,
      "##øte": 3340,
      "##ink": 3341,
      "##asje": 3342,
      "##ativt": 3343,
      "##mt": 3344,
      "tj": 3345,
      "saa": 3346,
      "ønsket": 3347,
      "tett": 3348,
      "##itte": 3349,
      "ennå": 3350,
      "johan": 3351,
      "lyst": 3352,
      "blom": 3353,
      "##esk": 3354,
      "offentlig": 3355,
      "bereg": 3356,
      "eig": 3357,
      "##yss": 3358,
      "186": 3359,
      "oms": 3360,
      "snakket": 3361,
      "altern": 3362,
      "lokale": 3363,
      "gull": 3364,
      "forh": 3365,
      "##ømme": 3366,
      "samlet": 3367,
      "##ktet": 3368,
      "star": 3369,
      "187": 3370,
      "sjel": 3371,
      "opprett": 3372,
      "lars": 3373,
      "høyere": 3374,
      "##rom": 3375,
      "jern": 3376,
      "uts": 3377,
      "sikkerhet": 3378,
      "##kkel": 3379,
      "besl": 3380,
      "indiv": 3381,
      "##oc": 3382,
      "##bin": 3383,
      "##\"\"\"\"": 3384,
      "språk": 3385,
      "##kår": 3386,
      "ton": 3387,
      "stund": 3388,
      "##inst": 3389,
      "##sbe": 3390,
      "praksis": 3391,
      "plutselig": 3392,
      "ansiktet": 3393,
      "##ås": 3394,
      "deb": 3395,
      "nyheter": 3396,
      "!.": 3397,
      "gangen": 3398,
      "tyn": 3399,
      "2017": 3400,
      "neg": 3401,
      "yo": 3402,
      "minutter": 3403,
      "historie": 3404,
      "##ese": 3405,
      "37": 3406,
      "virksomhet": 3407,
      "fredag": 3408,
      "høyt": 3409,
      "alm": 3410,
      "økt": 3411,
      "fører": 3412,
      "##hengig": 3413,
      "##lin": 3414,
      "pensjon": 3415,
      "##ps": 3416,
      "##bart": 3417,
      "karakter": 3418,
      "##obb": 3419,
      "pat": 3420,
      "skriv": 3421,
      "berre": 3422,
      "2015": 3423,
      "olav": 3424,
      "##entar": 3425,
      "tilfelle": 3426,
      "ke": 3427,
      "satte": 3428,
      "##sty": 3429,
      "lyd": 3430,
      "munn": 3431,
      "##ko": 3432,
      "øyeblikk": 3433,
      "bal": 3434,
      "barneh": 3435,
      "##kkelig": 3436,
      "sammenheng": 3437,
      "odd": 3438,
      "forsv": 3439,
      "##ban": 3440,
      "grøn": 3441,
      "problemer": 3442,
      "ress": 3443,
      "vist": 3444,
      "inntil": 3445,
      "jf": 3446,
      "knut": 3447,
      "##alet": 3448,
      "fang": 3449,
      "leve": 3450,
      "septem": 3451,
      "same": 3452,
      "##engt": 3453,
      "verdi": 3454,
      "følger": 3455,
      "topp": 3456,
      "interv": 3457,
      "september": 3458,
      "##sken": 3459,
      "##ac": 3460,
      "tross": 3461,
      "fremdeles": 3462,
      "##kont": 3463,
      "##pos": 3464,
      "inns": 3465,
      "##gangen": 3466,
      "film": 3467,
      "nærme": 3468,
      "##nte": 3469,
      "##ah": 3470,
      "##mod": 3471,
      "foreg": 3472,
      "økonomiske": 3473,
      "38": 3474,
      "faren": 3475,
      "##isme": 3476,
      "medlemmer": 3477,
      "kvar": 3478,
      "##ømmer": 3479,
      "##okk": 3480,
      "##rike": 3481,
      "påvir": 3482,
      "prøve": 3483,
      "meir": 3484,
      "ingenting": 3485,
      "mi": 3486,
      "vare": 3487,
      "ditt": 3488,
      "prest": 3489,
      "utl": 3490,
      "klare": 3491,
      "sannsyn": 3492,
      "bidra": 3493,
      "skar": 3494,
      "ola": 3495,
      "fjor": 3496,
      "johann": 3497,
      "och": 3498,
      "##au": 3499,
      "##giver": 3500,
      "gis": 3501,
      "##ifte": 3502,
      "bef": 3503,
      "sist": 3504,
      "vore": 3505,
      "regjeringen": 3506,
      "mill": 3507,
      "skol": 3508,
      "årsak": 3509,
      "pop": 3510,
      "nevnt": 3511,
      "##ppa": 3512,
      "##entr": 3513,
      "##dres": 3514,
      "##kommende": 3515,
      "bilen": 3516,
      "can": 3517,
      "gu": 3518,
      "stortinget": 3519,
      "##ober": 3520,
      "##eden": 3521,
      "ntb": 3522,
      "mu": 3523,
      "stab": 3524,
      "##vok": 3525,
      "hit": 3526,
      "##iserte": 3527,
      "merke": 3528,
      "##iteen": 3529,
      "nivå": 3530,
      "##kjent": 3531,
      "son": 3532,
      "41": 3533,
      "##føres": 3534,
      "ventet": 3535,
      "##tok": 3536,
      "##anlegg": 3537,
      "virke": 3538,
      "##melig": 3539,
      "sikre": 3540,
      "##deren": 3541,
      "##ulle": 3542,
      "##als": 3543,
      "vedtak": 3544,
      "nemlig": 3545,
      "##ars": 3546,
      "ot": 3547,
      "hil": 3548,
      "##aldt": 3549,
      "oppdag": 3550,
      "##borg": 3551,
      "omt": 3552,
      "##mes": 3553,
      "##rateg": 3554,
      "##edag": 3555,
      "steder": 3556,
      "##ollen": 3557,
      "sende": 3558,
      "vere": 3559,
      "statens": 3560,
      "uke": 3561,
      "fortelle": 3562,
      "kroppen": 3563,
      "erst": 3564,
      "km": 3565,
      "##ime": 3566,
      "selve": 3567,
      "desember": 3568,
      "kur": 3569,
      "##inister": 3570,
      "kristian": 3571,
      "##fold": 3572,
      "500": 3573,
      "39": 3574,
      "##ånd": 3575,
      "##dem": 3576,
      "##eltet": 3577,
      "##ering": 3578,
      "idrett": 3579,
      "##dra": 3580,
      "##ida": 3581,
      "endring": 3582,
      "##ivt": 3583,
      "##fte": 3584,
      "produs": 3585,
      "reiste": 3586,
      "75": 3587,
      "##itu": 3588,
      "ident": 3589,
      "##sg": 3590,
      "##ign": 3591,
      "nø": 3592,
      "##okus": 3593,
      "##yggen": 3594,
      "sentral": 3595,
      "##po": 3596,
      "høye": 3597,
      "##lende": 3598,
      "konsekv": 3599,
      "kapittel": 3600,
      "##annet": 3601,
      "##rende": 3602,
      "##forsk": 3603,
      "glem": 3604,
      "enten": 3605,
      "skyl": 3606,
      "kunde": 3607,
      "forskning": 3608,
      "##che": 3609,
      "straff": 3610,
      "bry": 3611,
      "transport": 3612,
      "utstyr": 3613,
      "andel": 3614,
      "##full": 3615,
      "blev": 3616,
      "##lever": 3617,
      "forbru": 3618,
      "relig": 3619,
      "185": 3620,
      "jour": 3621,
      "##ipp": 3622,
      "mente": 3623,
      "##ikasjon": 3624,
      "##eth": 3625,
      "mam": 3626,
      "døren": 3627,
      "##ktør": 3628,
      "politiske": 3629,
      "lese": 3630,
      "##uttet": 3631,
      "##rit": 3632,
      "##hver": 3633,
      "sil": 3634,
      "##ias": 3635,
      "frank": 3636,
      "foreldre": 3637,
      "møter": 3638,
      "##enta": 3639,
      "viktigste": 3640,
      "##gjøre": 3641,
      "wil": 3642,
      "general": 3643,
      "##imot": 3644,
      "risik": 3645,
      "reguler": 3646,
      "varme": 3647,
      "kjære": 3648,
      "følte": 3649,
      "##ations": 3650,
      "datter": 3651,
      "##kluder": 3652,
      "oktober": 3653,
      "2000": 3654,
      "##stendig": 3655,
      "setter": 3656,
      "klub": 3657,
      "##skaper": 3658,
      "##isten": 3659,
      "sju": 3660,
      "offentlige": 3661,
      "spesial": 3662,
      "febru": 3663,
      "trå": 3664,
      "oppe": 3665,
      "gen": 3666,
      "selskapet": 3667,
      "åpnet": 3668,
      "februar": 3669,
      "##kan": 3670,
      "je": 3671,
      "prosjektet": 3672,
      "torsdag": 3673,
      "bnr": 3674,
      "innhold": 3675,
      "saman": 3676,
      "midler": 3677,
      "arrang": 3678,
      "##king": 3679,
      "spille": 3680,
      "avis": 3681,
      "##bord": 3682,
      "visst": 3683,
      "##co": 3684,
      "42": 3685,
      "individ": 3686,
      "sykdom": 3687,
      "sjølv": 3688,
      "oppn": 3689,
      "distrikt": 3690,
      "##fil": 3691,
      "viktige": 3692,
      "##angen": 3693,
      "heter": 3694,
      "bill": 3695,
      "smil": 3696,
      "middel": 3697,
      "##ansett": 3698,
      "##verd": 3699,
      "kongen": 3700,
      "europa": 3701,
      "gav": 3702,
      "foreld": 3703,
      "##ww": 3704,
      "vak": 3705,
      "interesse": 3706,
      "##iljø": 3707,
      "rolle": 3708,
      "tilsvarende": 3709,
      "tå": 3710,
      "##ikter": 3711,
      "##uft": 3712,
      "november": 3713,
      "##serv": 3714,
      "##ringen": 3715,
      "##rav": 3716,
      "elevene": 3717,
      "sitter": 3718,
      "viss": 3719,
      "regler": 3720,
      "mob": 3721,
      "##pass": 3722,
      "lage": 3723,
      "klass": 3724,
      "48": 3725,
      "##ris": 3726,
      "endelig": 3727,
      "##bruks": 3728,
      "ford": 3729,
      "##ongen": 3730,
      "##leis": 3731,
      "##ikkel": 3732,
      "sant": 3733,
      "fullt": 3734,
      "##trykk": 3735,
      "##øyd": 3736,
      "navnet": 3737,
      "ju": 3738,
      "##ius": 3739,
      "begrens": 3740,
      "trondheim": 3741,
      "analy": 3742,
      "nam": 3743,
      "ivar": 3744,
      "slett": 3745,
      "##ance": 3746,
      "røy": 3747,
      "##standen": 3748,
      "nes": 3749,
      "##attet": 3750,
      "dør": 3751,
      "##kten": 3752,
      "##allen": 3753,
      "##laget": 3754,
      "ep": 3755,
      "bland": 3756,
      "##ish": 3757,
      "hører": 3758,
      "krev": 3759,
      "44": 3760,
      "presid": 3761,
      "olje": 3762,
      "bildet": 3763,
      "##wo": 3764,
      "##aling": 3765,
      "gal": 3766,
      "##gn": 3767,
      "##arar": 3768,
      "øk": 3769,
      "##uter": 3770,
      "oppmer": 3771,
      "prem": 3772,
      "san": 3773,
      "rop": 3774,
      "resten": 3775,
      "organisasjon": 3776,
      "situasjonen": 3777,
      "##utning": 3778,
      "grav": 3779,
      "tekst": 3780,
      "saker": 3781,
      "tir": 3782,
      "##plass": 3783,
      "rob": 3784,
      "sentrum": 3785,
      "bom": 3786,
      "##~~~~": 3787,
      "hundre": 3788,
      "fremst": 3789,
      "besø": 3790,
      "kampen": 3791,
      "olsen": 3792,
      "ør": 3793,
      "håper": 3794,
      "##sagt": 3795,
      "arne": 3796,
      "vant": 3797,
      "sterke": 3798,
      "trakk": 3799,
      "##gjer": 3800,
      "##aken": 3801,
      "www": 3802,
      "milit": 3803,
      "bilde": 3804,
      "##esjon": 3805,
      "sosiale": 3806,
      "cm": 3807,
      "##produ": 3808,
      "fokus": 3809,
      "tabell": 3810,
      "strand": 3811,
      "##sc": 3812,
      "kvel": 3813,
      "##plan": 3814,
      "tenker": 3815,
      "politisk": 3816,
      "martin": 3817,
      "##ho": 3818,
      "##skomm": 3819,
      "preg": 3820,
      "måneder": 3821,
      "has": 3822,
      "##sminister": 3823,
      "##enske": 3824,
      "forskj": 3825,
      "svart": 3826,
      "begynner": 3827,
      "utdanning": 3828,
      "indre": 3829,
      "##itenskap": 3830,
      "områder": 3831,
      "##uld": 3832,
      "46": 3833,
      "inge": 3834,
      "skatte": 3835,
      "trodde": 3836,
      "##olf": 3837,
      "paul": 3838,
      "økonomisk": 3839,
      "venner": 3840,
      "##innet": 3841,
      "kval": 3842,
      "institusjon": 3843,
      "##ents": 3844,
      "test": 3845,
      "bank": 3846,
      "43": 3847,
      "skade": 3848,
      "##rådet": 3849,
      "rommet": 3850,
      "sånn": 3851,
      "sur": 3852,
      "uansett": 3853,
      "sønn": 3854,
      "gli": 3855,
      "ple": 3856,
      "gruppe": 3857,
      "##utte": 3858,
      "dine": 3859,
      "redd": 3860,
      "forret": 3861,
      "haug": 3862,
      "##uen": 3863,
      "##isin": 3864,
      "##atten": 3865,
      "onsdag": 3866,
      "tenkt": 3867,
      "##ån": 3868,
      "guds": 3869,
      "##mo": 3870,
      "2019": 3871,
      "inneb": 3872,
      "budsjett": 3873,
      "##fo": 3874,
      "mening": 3875,
      "hendene": 3876,
      "endringer": 3877,
      "ånd": 3878,
      "stats": 3879,
      "serv": 3880,
      "forest": 3881,
      "##uell": 3882,
      "##way": 3883,
      "vedkommende": 3884,
      "anled": 3885,
      "##bø": 3886,
      "passer": 3887,
      "##orte": 3888,
      "47": 3889,
      "raskt": 3890,
      "kyr": 3891,
      "##bef": 3892,
      "nrk": 3893,
      "##ystem": 3894,
      "##skole": 3895,
      "tale": 3896,
      "##ated": 3897,
      "tri": 3898,
      "##ita": 3899,
      "snø": 3900,
      "uh": 3901,
      "vera": 3902,
      "aust": 3903,
      "skrev": 3904,
      "##bygging": 3905,
      "char": 3906,
      "forand": 3907,
      "##iger": 3908,
      "mr": 3909,
      "journal": 3910,
      "peng": 3911,
      "##polit": 3912,
      "##etten": 3913,
      "område": 3914,
      "bus": 3915,
      "kin": 3916,
      "skape": 3917,
      "##so": 3918,
      "eli": 3919,
      "feng": 3920,
      "##fest": 3921,
      "utover": 3922,
      "yng": 3923,
      "dist": 3924,
      "##iddel": 3925,
      "##istiske": 3926,
      "gard": 3927,
      "staten": 3928,
      "##rimin": 3929,
      "karl": 3930,
      "ill": 3931,
      "retten": 3932,
      "stemme": 3933,
      "##ending": 3934,
      "loven": 3935,
      "jam": 3936,
      "##svis": 3937,
      "nab": 3938,
      "arbeide": 3939,
      "mad": 3940,
      "skjedde": 3941,
      "nasjonal": 3942,
      "dav": 3943,
      "daglig": 3944,
      "##ielle": 3945,
      "poeng": 3946,
      "skrift": 3947,
      "##ologisk": 3948,
      "brukte": 3949,
      "##hen": 3950,
      "salt": 3951,
      "##srett": 3952,
      "energi": 3953,
      "jesus": 3954,
      "besøk": 3955,
      "forvalt": 3956,
      "##tiden": 3957,
      "interess": 3958,
      "fredrik": 3959,
      "avtale": 3960,
      "slutten": 3961,
      "##ift": 3962,
      "hom": 3963,
      "##ational": 3964,
      "nyhet": 3965,
      "##æn": 3966,
      "##gar": 3967,
      "mulighet": 3968,
      "leil": 3969,
      "oppgå": 3970,
      "peter": 3971,
      "##iere": 3972,
      "moderne": 3973,
      "\"\"\"\",": 3974,
      "skikk": 3975,
      "litter": 3976,
      "hopp": 3977,
      "refer": 3978,
      "##gjeng": 3979,
      "##ående": 3980,
      "rim": 3981,
      "##åt": 3982,
      "spr": 3983,
      "##ologiske": 3984,
      "anders": 3985,
      "ønske": 3986,
      "idet": 3987,
      "port": 3988,
      "##sol": 3989,
      "##orden": 3990,
      "##person": 3991,
      "##ukt": 3992,
      "##bare": 3993,
      "tema": 3994,
      "løy": 3995,
      "fug": 3996,
      "forf": 3997,
      "arg": 3998,
      "##essen": 3999,
      "1990": 4000,
      "skrevet": 4001,
      "##nende": 4002,
      "situasjon": 4003,
      "##ny": 4004,
      "fortsatte": 4005,
      "unna": 4006,
      "hau": 4007,
      "##mannen": 4008,
      "184": 4009,
      "søknad": 4010,
      "##iel": 4011,
      "vol": 4012,
      "ner": 4013,
      "desse": 4014,
      "##iven": 4015,
      "##setter": 4016,
      "##its": 4017,
      "meng": 4018,
      "##vs": 4019,
      "51": 4020,
      "##egr": 4021,
      "utr": 4022,
      "##ight": 4023,
      "legg": 4024,
      "vekk": 4025,
      "popul": 4026,
      "kompetanse": 4027,
      "##vikling": 4028,
      "##sav": 4029,
      "stir": 4030,
      "tjeneste": 4031,
      "kjøpe": 4032,
      "##holdt": 4033,
      "mykje": 4034,
      "##edet": 4035,
      "##rid": 4036,
      "##jørn": 4037,
      "sag": 4038,
      "klasse": 4039,
      "ale": 4040,
      "##mål": 4041,
      "enhver": 4042,
      "kg": 4043,
      "kjøkken": 4044,
      "regist": 4045,
      "størr": 4046,
      "##esp": 4047,
      "vurdering": 4048,
      "ført": 4049,
      "##ally": 4050,
      "##aland": 4051,
      "europe": 4052,
      "##stemm": 4053,
      "frykt": 4054,
      "sendt": 4055,
      "utviklingen": 4056,
      "opptatt": 4057,
      "åpne": 4058,
      "##kost": 4059,
      "resultat": 4060,
      "##anc": 4061,
      "##enning": 4062,
      "sex": 4063,
      "overra": 4064,
      "startet": 4065,
      "deltak": 4066,
      "reis": 4067,
      "detal": 4068,
      "motor": 4069,
      "##ii": 4070,
      ".:": 4071,
      "##mb": 4072,
      "inc": 4073,
      "omsorg": 4074,
      "jfr": 4075,
      "iv": 4076,
      "vide": 4077,
      "kvelden": 4078,
      "defin": 4079,
      "strateg": 4080,
      "sannsynlig": 4081,
      "båt": 4082,
      "##øver": 4083,
      "uly": 4084,
      "##asjer": 4085,
      "##lar": 4086,
      "krigen": 4087,
      "muse": 4088,
      "##serie": 4089,
      "tim": 4090,
      "##ksomheten": 4091,
      "##kraft": 4092,
      "##hjel": 4093,
      "##ksjonen": 4094,
      "effektiv": 4095,
      "virket": 4096,
      "##gene": 4097,
      "nærings": 4098,
      "fortalte": 4099,
      "mamma": 4100,
      "est": 4101,
      "forholdet": 4102,
      "material": 4103,
      "##aen": 4104,
      "##vesen": 4105,
      "tanke": 4106,
      "opplysninger": 4107,
      "omtr": 4108,
      "##mor": 4109,
      "tegn": 4110,
      "forsik": 4111,
      "muligheter": 4112,
      "##th": 4113,
      "christian": 4114,
      "føler": 4115,
      "handling": 4116,
      "##rar": 4117,
      "##??": 4118,
      "gjøres": 4119,
      "##okrat": 4120,
      "bygget": 4121,
      "regjering": 4122,
      "sang": 4123,
      "##kam": 4124,
      "tusen": 4125,
      "gjennomsnitt": 4126,
      "smilte": 4127,
      ".-": 4128,
      "##yen": 4129,
      "##ix": 4130,
      "##liote": 4131,
      "publik": 4132,
      "ordet": 4133,
      "##ement": 4134,
      "95": 4135,
      "tel": 4136,
      "formid": 4137,
      "private": 4138,
      "vindu": 4139,
      "present": 4140,
      "gunn": 4141,
      "utan": 4142,
      "##ick": 4143,
      "##parten": 4144,
      "##ligere": 4145,
      "jør": 4146,
      "49": 4147,
      "##eres": 4148,
      "sein": 4149,
      "oversikt": 4150,
      "hansen": 4151,
      "just": 4152,
      "##eri": 4153,
      "##ika": 4154,
      "førte": 4155,
      "tilfred": 4156,
      "bir": 4157,
      "søker": 4158,
      "##enfor": 4159,
      "syntes": 4160,
      "derimot": 4161,
      "perioden": 4162,
      "##leder": 4163,
      "##ians": 4164,
      "glass": 4165,
      "kjøre": 4166,
      "forsøk": 4167,
      "bygd": 4168,
      "##dagen": 4169,
      "##essige": 4170,
      "##ming": 4171,
      "moren": 4172,
      "52": 4173,
      "fint": 4174,
      "måned": 4175,
      "papir": 4176,
      "##bel": 4177,
      "lei": 4178,
      "rot": 4179,
      "##sliv": 4180,
      "betydelig": 4181,
      "virker": 4182,
      "##kant": 4183,
      "brit": 4184,
      "opply": 4185,
      "##mus": 4186,
      "været": 4187,
      "stavanger": 4188,
      "omtrent": 4189,
      "uker": 4190,
      "type": 4191,
      "##ana": 4192,
      "ødel": 4193,
      "##øpet": 4194,
      "fulgte": 4195,
      "liker": 4196,
      "nat": 4197,
      "sæ": 4198,
      "kjærlighet": 4199,
      "kvart": 4200,
      "straks": 4201,
      "frit": 4202,
      "##sr": 4203,
      "##illet": 4204,
      "53": 4205,
      "##ettet": 4206,
      "##stene": 4207,
      "hin": 4208,
      "band": 4209,
      "fleire": 4210,
      "nils": 4211,
      "prote": 4212,
      "invester": 4213,
      "##strøm": 4214,
      "sykehus": 4215,
      "##stjene": 4216,
      "driv": 4217,
      "##ales": 4218,
      "##jekter": 4219,
      "styrke": 4220,
      "kirken": 4221,
      "samfunnet": 4222,
      "sir": 4223,
      "##vers": 4224,
      "##forhold": 4225,
      "lond": 4226,
      "hjert": 4227,
      "såk": 4228,
      "sum": 4229,
      "##able": 4230,
      "##ikere": 4231,
      "##udde": 4232,
      "##vann": 4233,
      "99": 4234,
      "åtte": 4235,
      "basert": 4236,
      "##ica": 4237,
      "amb": 4238,
      "prior": 4239,
      "bilder": 4240,
      "..": 4241,
      "##smessig": 4242,
      "består": 4243,
      "thom": 4244,
      "spor": 4245,
      "hardt": 4246,
      "bekym": 4247,
      "selvfølg": 4248,
      "hår": 4249,
      "respe": 4250,
      "jev": 4251,
      "gnr": 4252,
      "##vist": 4253,
      "mm": 4254,
      "##fot": 4255,
      "møtte": 4256,
      "petter": 4257,
      "hensikt": 4258,
      "##værende": 4259,
      "hørt": 4260,
      "183": 4261,
      "vannet": 4262,
      "col": 4263,
      "log": 4264,
      "##gående": 4265,
      "kastet": 4266,
      "erfaring": 4267,
      "engang": 4268,
      "varer": 4269,
      "ent": 4270,
      "forfatter": 4271,
      "gren": 4272,
      "tirsdag": 4273,
      "up": 4274,
      "##kap": 4275,
      "##inge": 4276,
      "anbef": 4277,
      "selvfølgelig": 4278,
      "##innelig": 4279,
      "benytte": 4280,
      "hest": 4281,
      "pal": 4282,
      "##iti": 4283,
      "eld": 4284,
      "try": 4285,
      "sven": 4286,
      "##sending": 4287,
      "##gens": 4288,
      "##iell": 4289,
      "forbi": 4290,
      "##delingen": 4291,
      "solgt": 4292,
      "fas": 4293,
      "mandag": 4294,
      "rapport": 4295,
      "oppnå": 4296,
      "tyskland": 4297,
      "##æren": 4298,
      "##ellene": 4299,
      "meste": 4300,
      "65": 4301,
      "##peratur": 4302,
      "vente": 4303,
      "##rib": 4304,
      "##ømt": 4305,
      "##skolen": 4306,
      "##apt": 4307,
      "london": 4308,
      "minste": 4309,
      "kropp": 4310,
      "snudde": 4311,
      "dog": 4312,
      "radio": 4313,
      "tank": 4314,
      "beskj": 4315,
      "91": 4316,
      "##legging": 4317,
      "##løs": 4318,
      "##lede": 4319,
      "flert": 4320,
      "##vare": 4321,
      "klarte": 4322,
      "##spolit": 4323,
      "kurs": 4324,
      "##ns": 4325,
      "54": 4326,
      "##................": 4327,
      "alvorlig": 4328,
      "thor": 4329,
      "-,": 4330,
      "sar": 4331,
      "##aven": 4332,
      "##aktig": 4333,
      "spar": 4334,
      "56": 4335,
      "##kelige": 4336,
      "glede": 4337,
      "hvite": 4338,
      "##akten": 4339,
      "comm": 4340,
      "##ennende": 4341,
      "##iteten": 4342,
      "henhold": 4343,
      "lager": 4344,
      "uav": 4345,
      "show": 4346,
      "etabler": 4347,
      "stakk": 4348,
      "blikk": 4349,
      "rut": 4350,
      "##arane": 4351,
      "which": 4352,
      "mun": 4353,
      "stjer": 4354,
      "##ary": 4355,
      "masse": 4356,
      "smer": 4357,
      "unngå": 4358,
      "dit": 4359,
      "bot": 4360,
      "verk": 4361,
      "vidt": 4362,
      "##oder": 4363,
      "tas": 4364,
      "skre": 4365,
      "sammenlig": 4366,
      "snakker": 4367,
      "handler": 4368,
      "##jet": 4369,
      "konkret": 4370,
      "und": 4371,
      "sider": 4372,
      "hard": 4373,
      "arbeidsm": 4374,
      "##sloven": 4375,
      "##førte": 4376,
      "hell": 4377,
      "##leve": 4378,
      "##mester": 4379,
      "elever": 4380,
      "##unst": 4381,
      "prøver": 4382,
      "##enterer": 4383,
      "ital": 4384,
      "##ca": 4385,
      "##oller": 4386,
      "registrer": 4387,
      "trygg": 4388,
      "tilsyn": 4389,
      "vekst": 4390,
      "##fri": 4391,
      "tidspunkt": 4392,
      "oppdrag": 4393,
      "valgt": 4394,
      "will": 4395,
      "grupper": 4396,
      "bad": 4397,
      "frivil": 4398,
      "1992": 4399,
      "##urer": 4400,
      "flyttet": 4401,
      "##rud": 4402,
      "funger": 4403,
      "inkluder": 4404,
      "##fag": 4405,
      "styre": 4406,
      "sje": 4407,
      "##organis": 4408,
      "##ander": 4409,
      "understre": 4410,
      "1995": 4411,
      "styret": 4412,
      "standard": 4413,
      "##rør": 4414,
      "##vene": 4415,
      "betale": 4416,
      "internasjonale": 4417,
      "legges": 4418,
      "bj": 4419,
      "##uren": 4420,
      "innebærer": 4421,
      "hvit": 4422,
      "##fyl": 4423,
      "##aster": 4424,
      "nede": 4425,
      "jobben": 4426,
      "##tra": 4427,
      "oven": 4428,
      "##vand": 4429,
      "mol": 4430,
      "engelsk": 4431,
      "2014": 4432,
      "181": 4433,
      "lam": 4434,
      "##skrift": 4435,
      "visse": 4436,
      "trekk": 4437,
      "jobber": 4438,
      "tilgjeng": 4439,
      "##anset": 4440,
      "wor": 4441,
      "veil": 4442,
      "##forb": 4443,
      "bevisst": 4444,
      "heim": 4445,
      "lat": 4446,
      "2001": 4447,
      "hud": 4448,
      "##igt": 4449,
      "trafikk": 4450,
      "##abr": 4451,
      "bøn": 4452,
      "jac": 4453,
      "##slaget": 4454,
      "##ård": 4455,
      "##ingar": 4456,
      "bordet": 4457,
      "##lo": 4458,
      "drep": 4459,
      "##fart": 4460,
      "len": 4461,
      "prim": 4462,
      "##iat": 4463,
      "gri": 4464,
      "##ron": 4465,
      "gran": 4466,
      "henrik": 4467,
      "1980": 4468,
      "tilfeller": 4469,
      "1993": 4470,
      "gjekk": 4471,
      "hall": 4472,
      "trans": 4473,
      "##cial": 4474,
      "krever": 4475,
      "arbeidst": 4476,
      "##ld": 4477,
      "sign": 4478,
      "##hel": 4479,
      "##ition": 4480,
      "if": 4481,
      "##pros": 4482,
      "##øya": 4483,
      "marie": 4484,
      "sjef": 4485,
      "##mede": 4486,
      "omfatt": 4487,
      "kjønn": 4488,
      "1999": 4489,
      "brød": 4490,
      "##aske": 4491,
      "voksne": 4492,
      "kontor": 4493,
      "##rest": 4494,
      "blei": 4495,
      "oppgave": 4496,
      "skil": 4497,
      "rese": 4498,
      "sold": 4499,
      "begynn": 4500,
      "lyn": 4501,
      "bos": 4502,
      "mos": 4503,
      "1997": 4504,
      "lege": 4505,
      "##iserer": 4506,
      "stam": 4507,
      "##inter": 4508,
      "skjedd": 4509,
      "drø": 4510,
      "##hjem": 4511,
      "##stillingen": 4512,
      "57": 4513,
      "kul": 4514,
      "##sreg": 4515,
      "vesentlig": 4516,
      "##inen": 4517,
      "##edal": 4518,
      "##vei": 4519,
      "ressur": 4520,
      "fan": 4521,
      "1994": 4522,
      "relativt": 4523,
      "skulde": 4524,
      "gratis": 4525,
      "##vende": 4526,
      "##iken": 4527,
      "##smann": 4528,
      "slått": 4529,
      "##settes": 4530,
      "trykk": 4531,
      "pappa": 4532,
      "grund": 4533,
      "##stander": 4534,
      "magn": 4535,
      "##ame": 4536,
      "##sid": 4537,
      "jur": 4538,
      "##spill": 4539,
      "neder": 4540,
      "reiser": 4541,
      "kjenn": 4542,
      "##avn": 4543,
      "##ua": 4544,
      "øyne": 4545,
      "stemmer": 4546,
      "målet": 4547,
      "vm": 4548,
      "total": 4549,
      "øver": 4550,
      "konfl": 4551,
      "may": 4552,
      "inneholder": 4553,
      "ansikt": 4554,
      "terr": 4555,
      "klokken": 4556,
      "1996": 4557,
      "##fisk": 4558,
      "bevil": 4559,
      "##aden": 4560,
      "##ordning": 4561,
      "180": 4562,
      "gru": 4563,
      "medisin": 4564,
      "felt": 4565,
      "##former": 4566,
      "dobb": 4567,
      "##out": 4568,
      "kraftig": 4569,
      "ropte": 4570,
      "danmark": 4571,
      "interesser": 4572,
      "foren": 4573,
      "##bered": 4574,
      "##urg": 4575,
      "2005": 4576,
      "##selen": 4577,
      "kle": 4578,
      "undersø": 4579,
      "kop": 4580,
      "maskin": 4581,
      "kne": 4582,
      "tida": 4583,
      "dann": 4584,
      "russ": 4585,
      "##arbeide": 4586,
      "##ærne": 4587,
      "comp": 4588,
      "div": 4589,
      "##kninger": 4590,
      "hjerte": 4591,
      "##attes": 4592,
      "bryst": 4593,
      "one": 4594,
      "1991": 4595,
      "prøvde": 4596,
      "##kjør": 4597,
      "ryggen": 4598,
      "trøn": 4599,
      "ment": 4600,
      "##plikt": 4601,
      "bekre": 4602,
      "lind": 4603,
      "blad": 4604,
      "1998": 4605,
      "utvikle": 4606,
      "resultatet": 4607,
      "sentrale": 4608,
      "utd": 4609,
      "effekt": 4610,
      "selvsagt": 4611,
      "forstår": 4612,
      "tilstre": 4613,
      "##styret": 4614,
      "beskriv": 4615,
      "spesielle": 4616,
      "##holdning": 4617,
      "heile": 4618,
      "steg": 4619,
      "##kort": 4620,
      "alternativ": 4621,
      "senter": 4622,
      "59": 4623,
      "pet": 4624,
      "johannes": 4625,
      "elem": 4626,
      "##skra": 4627,
      "opplæring": 4628,
      "##ctor": 4629,
      "##øtt": 4630,
      "sammens": 4631,
      "sunn": 4632,
      "##sprogram": 4633,
      "kron": 4634,
      "klem": 4635,
      "##kommen": 4636,
      "kommunene": 4637,
      "jens": 4638,
      "dels": 4639,
      "typ": 4640,
      "studer": 4641,
      "adj": 4642,
      "85": 4643,
      "vilkår": 4644,
      "litteratur": 4645,
      "##ygge": 4646,
      "##partiet": 4647,
      "##hild": 4648,
      "##smål": 4649,
      "sko": 4650,
      "via": 4651,
      "hor": 4652,
      "bestemte": 4653,
      "##tekter": 4654,
      "vilde": 4655,
      "spørre": 4656,
      "flytte": 4657,
      "fisker": 4658,
      "mennesket": 4659,
      "2002": 4660,
      "##skriv": 4661,
      "##skyld": 4662,
      "utn": 4663,
      "harald": 4664,
      "kommuner": 4665,
      "##delser": 4666,
      "97": 4667,
      "##slivet": 4668,
      "publikum": 4669,
      "##haug": 4670,
      "iver": 4671,
      "lid": 4672,
      "formann": 4673,
      "presse": 4674,
      "politi": 4675,
      "##post": 4676,
      "##ely": 4677,
      "forelig": 4678,
      "nummer": 4679,
      "bodde": 4680,
      "hvilket": 4681,
      "avhengig": 4682,
      "2003": 4683,
      "##sberg": 4684,
      "##skl": 4685,
      "##ppene": 4686,
      "forrige": 4687,
      "sjøl": 4688,
      "opt": 4689,
      "het": 4690,
      "frist": 4691,
      "##skom": 4692,
      "ger": 4693,
      "##ytter": 4694,
      "energ": 4695,
      "##rad": 4696,
      "lavere": 4697,
      "##ces": 4698,
      "anledning": 4699,
      "##omen": 4700,
      "bakken": 4701,
      "totalt": 4702,
      "struktur": 4703,
      "eventuelt": 4704,
      "bære": 4705,
      "delen": 4706,
      "utb": 4707,
      "##splan": 4708,
      "omfatter": 4709,
      "unntak": 4710,
      "pan": 4711,
      "##delag": 4712,
      "##ual": 4713,
      "##ton": 4714,
      "trekke": 4715,
      "orden": 4716,
      "drive": 4717,
      "##stru": 4718,
      "dikt": 4719,
      "tromsø": 4720,
      "ros": 4721,
      "begynne": 4722,
      "øke": 4723,
      "øvrige": 4724,
      "mich": 4725,
      "super": 4726,
      "produkt": 4727,
      "##egg": 4728,
      "##varer": 4729,
      "##gjort": 4730,
      "tanken": 4731,
      "##asj": 4732,
      "2004": 4733,
      "dens": 4734,
      "##ugh": 4735,
      "kombin": 4736,
      "akse": 4737,
      "##øyde": 4738,
      "hende": 4739,
      "tyske": 4740,
      "svenske": 4741,
      "velge": 4742,
      "høst": 4743,
      "ufor": 4744,
      "##tale": 4745,
      "##åten": 4746,
      "væ": 4747,
      "##agelig": 4748,
      "nytte": 4749,
      "##kningen": 4750,
      "tilh": 4751,
      "strå": 4752,
      "rent": 4753,
      "nedover": 4754,
      "sommeren": 4755,
      "##abil": 4756,
      "mørke": 4757,
      "tilkn": 4758,
      "##ips": 4759,
      "hed": 4760,
      "##abel": 4761,
      "fortsette": 4762,
      "##sjø": 4763,
      "jak": 4764,
      "fare": 4765,
      "eksister": 4766,
      "##vard": 4767,
      "registr": 4768,
      "slekt": 4769,
      "dvs": 4770,
      "årets": 4771,
      "natten": 4772,
      "munnen": 4773,
      "##holm": 4774,
      "##ley": 4775,
      "kapital": 4776,
      "blikket": 4777,
      "avdeling": 4778,
      "altfor": 4779,
      "foreldrene": 4780,
      "58": 4781,
      "marg": 4782,
      "61": 4783,
      "##itter": 4784,
      "##ala": 4785,
      "kvinnen": 4786,
      ".).": 4787,
      "tjenester": 4788,
      "lengre": 4789,
      "røde": 4790,
      "betrakt": 4791,
      "##gere": 4792,
      "##bladet": 4793,
      "##pris": 4794,
      "##stående": 4795,
      "400": 4796,
      "utvid": 4797,
      "skyldes": 4798,
      "300": 4799,
      "??": 4800,
      "##skil": 4801,
      "1970": 4802,
      "umul": 4803,
      "personlig": 4804,
      "supp": 4805,
      "profess": 4806,
      "overfl": 4807,
      "##dyr": 4808,
      "generelt": 4809,
      "##histor": 4810,
      "aar": 4811,
      "##gifter": 4812,
      "utvalget": 4813,
      "klarer": 4814,
      "regnskap": 4815,
      "##løp": 4816,
      "##asin": 4817,
      "fylkeskomm": 4818,
      "amerikanske": 4819,
      "##smannen": 4820,
      "absol": 4821,
      "forskrift": 4822,
      "spis": 4823,
      "periode": 4824,
      "stirret": 4825,
      "nikket": 4826,
      "vanlige": 4827,
      "dokumentar": 4828,
      "##edagog": 4829,
      "##sels": 4830,
      "##jord": 4831,
      "velger": 4832,
      "aften": 4833,
      "fær": 4834,
      "konkurranse": 4835,
      "##band": 4836,
      "sår": 4837,
      "vakt": 4838,
      "driver": 4839,
      "aktuelle": 4840,
      "spill": 4841,
      "gruppen": 4842,
      "husker": 4843,
      "ori": 4844,
      "ligge": 4845,
      "gård": 4846,
      "løn": 4847,
      "##ismen": 4848,
      "##ute": 4849,
      "67": 4850,
      "sinn": 4851,
      "##nær": 4852,
      "kontrakt": 4853,
      "##kret": 4854,
      "høsten": 4855,
      "62": 4856,
      "bunn": 4857,
      "##edes": 4858,
      "nar": 4859,
      "konser": 4860,
      "formål": 4861,
      "lettere": 4862,
      "lun": 4863,
      "england": 4864,
      "svak": 4865,
      "##hr": 4866,
      "##stav": 4867,
      "ug": 4868,
      "faste": 4869,
      "bedrifter": 4870,
      "øvrig": 4871,
      "praktisk": 4872,
      "cor": 4873,
      "don": 4874,
      "##yll": 4875,
      "##igh": 4876,
      "##istene": 4877,
      "president": 4878,
      "stemmen": 4879,
      "##byr": 4880,
      "##kjøp": 4881,
      "politikk": 4882,
      "eid": 4883,
      "vurdere": 4884,
      "grønn": 4885,
      "##uk": 4886,
      "ler": 4887,
      "historien": 4888,
      "advok": 4889,
      "##valget": 4890,
      "##mat": 4891,
      "##nere": 4892,
      "tvang": 4893,
      "intervju": 4894,
      "mistet": 4895,
      "isra": 4896,
      "utviklet": 4897,
      "##bane": 4898,
      "vent": 4899,
      "##kor": 4900,
      "delvis": 4901,
      "##ante": 4902,
      ".\"": 4903,
      "instru": 4904,
      "2010": 4905,
      ".\"\"\"\"": 4906,
      "##spr": 4907,
      "svarer": 4908,
      "brå": 4909,
      "rolig": 4910,
      "##anke": 4911,
      "kje": 4912,
      "middag": 4913,
      "kalt": 4914,
      "##yggelig": 4915,
      "##ometer": 4916,
      "søke": 4917,
      "ær": 4918,
      "thomas": 4919,
      "jakt": 4920,
      "2013": 4921,
      "grep": 4922,
      "fantast": 4923,
      "reaksjon": 4924,
      "71": 4925,
      "forhandling": 4926,
      "merket": 4927,
      "david": 4928,
      "vitenskap": 4929,
      "kristians": 4930,
      "vanligvis": 4931,
      "##kr": 4932,
      "fullstendig": 4933,
      "##edie": 4934,
      "##dere": 4935,
      "63": 4936,
      "64": 4937,
      "former": 4938,
      "##fi": 4939,
      "were": 4940,
      "osv": 4941,
      "##mund": 4942,
      "komiteen": 4943,
      "ske": 4944,
      "##lic": 4945,
      "##ksjoner": 4946,
      "2008": 4947,
      "##øg": 4948,
      "out": 4949,
      "hvad": 4950,
      "york": 4951,
      "strid": 4952,
      "oppd": 4953,
      "##siden": 4954,
      "##spektiv": 4955,
      "##ktig": 4956,
      "refle": 4957,
      "artikkel": 4958,
      "sitte": 4959,
      "2006": 4960,
      "kryss": 4961,
      "gården": 4962,
      "alko": 4963,
      "rimelig": 4964,
      "trolig": 4965,
      "vill": 4966,
      "således": 4967,
      "spise": 4968,
      "gjennomført": 4969,
      "##aller": 4970,
      "1989": 4971,
      "gutten": 4972,
      "##ktoratet": 4973,
      "trening": 4974,
      "undervisning": 4975,
      "byr": 4976,
      "##ikal": 4977,
      "##olusjon": 4978,
      "##skont": 4979,
      "ryd": 4980,
      "subst": 4981,
      "kred": 4982,
      "lund": 4983,
      "godkj": 4984,
      "other": 4985,
      "##our": 4986,
      "ettermid": 4987,
      "##kkene": 4988,
      "66": 4989,
      "##sser": 4990,
      "##za": 4991,
      "2007": 4992,
      "fine": 4993,
      "##ski": 4994,
      "såtte": 4995,
      "##ansvar": 4996,
      "kø": 4997,
      "##skog": 4998,
      "kaffe": 4999,
      "ac": 5000,
      "kapit": 5001,
      "##ønster": 5002,
      "##forening": 5003,
      "våpen": 5004,
      "herr": 5005,
      "fylkes": 5006,
      "stig": 5007,
      "##nene": 5008,
      "ku": 5009,
      "##slin": 5010,
      "##åp": 5011,
      "##umenter": 5012,
      "##ives": 5013,
      "tu": 5014,
      "2009": 5015,
      "##ory": 5016,
      "##han": 5017,
      "løsning": 5018,
      "bøker": 5019,
      "##skon": 5020,
      "##plassen": 5021,
      "92": 5022,
      "innlegg": 5023,
      "phil": 5024,
      "93": 5025,
      "pil": 5026,
      "administrasjon": 5027,
      "##my": 5028,
      "81": 5029,
      "ib": 5030,
      "bestemmelser": 5031,
      "##ømte": 5032,
      "sølv": 5033,
      "bla": 5034,
      "bibliote": 5035,
      "##stilt": 5036,
      "still": 5037,
      "##stol": 5038,
      "resp": 5039,
      "##ues": 5040,
      "hagen": 5041,
      "etterpå": 5042,
      "sendte": 5043,
      "omfattende": 5044,
      "##bruket": 5045,
      "##kkende": 5046,
      "##spros": 5047,
      "##sopp": 5048,
      "spilte": 5049,
      "demokrat": 5050,
      "forsiktig": 5051,
      "samsvar": 5052,
      "illust": 5053,
      "bær": 5054,
      "hovedsak": 5055,
      "##klar": 5056,
      "##inde": 5057,
      "77": 5058,
      "##stoff": 5059,
      "##sdtr": 5060,
      "82": 5061,
      "mass": 5062,
      "myr": 5063,
      "utgjør": 5064,
      ");": 5065,
      "##vo": 5066,
      "frukt": 5067,
      "##beh": 5068,
      "##angel": 5069,
      "andreas": 5070,
      "gunnar": 5071,
      "vend": 5072,
      "skogen": 5073,
      "dep": 5074,
      "forslaget": 5075,
      "you": 5076,
      "##sal": 5077,
      "##barn": 5078,
      "skaffe": 5079,
      "rele": 5080,
      "åra": 5081,
      "2011": 5082,
      "##edd": 5083,
      "##aus": 5084,
      "##yre": 5085,
      "andersen": 5086,
      "##arder": 5087,
      "mobil": 5088,
      "tillit": 5089,
      "2012": 5090,
      "##jema": 5091,
      "kommunest": 5092,
      "kamer": 5093,
      "grunnen": 5094,
      "##instit": 5095,
      "larsen": 5096,
      "tår": 5097,
      "there": 5098,
      "tilsk": 5099,
      "håret": 5100,
      "million": 5101,
      "fritt": 5102,
      "leir": 5103,
      "gjeng": 5104,
      "##skilt": 5105,
      "##ms": 5106,
      "72": 5107,
      "##verdi": 5108,
      "tilstrekkelig": 5109,
      "182": 5110,
      "##dalen": 5111,
      "søster": 5112,
      "##si": 5113,
      "kommunikasjon": 5114,
      "borger": 5115,
      "marit": 5116,
      "normalt": 5117,
      "##cy": 5118,
      "69": 5119,
      "##ksten": 5120,
      "stoff": 5121,
      "##ktoren": 5122,
      "##slig": 5123,
      "settes": 5124,
      "stiller": 5125,
      "avtalen": 5126,
      "tenk": 5127,
      "konge": 5128,
      "fortsetter": 5129,
      "vand": 5130,
      "tanker": 5131,
      "##staur": 5132,
      "gjeldende": 5133,
      "cat": 5134,
      "tider": 5135,
      "prp": 5136,
      "##tta": 5137,
      "##antene": 5138,
      "##legge": 5139,
      "ansvaret": 5140,
      "økonomi": 5141,
      "parker": 5142,
      "##asen": 5143,
      "matt": 5144,
      "disp": 5145,
      "alb": 5146,
      "næ": 5147,
      "befolk": 5148,
      "falt": 5149,
      "ky": 5150,
      "hender": 5151,
      "1988": 5152,
      "jenter": 5153,
      "motstand": 5154,
      "kjell": 5155,
      "boken": 5156,
      "more": 5157,
      "##wn": 5158,
      "skad": 5159,
      "tø": 5160,
      "ytre": 5161,
      "##tal": 5162,
      "kalles": 5163,
      "##sle": 5164,
      "alkohol": 5165,
      "problemet": 5166,
      "endret": 5167,
      "temperatur": 5168,
      "uttal": 5169,
      "framtid": 5170,
      "respekt": 5171,
      "arbeidspl": 5172,
      "diskusjon": 5173,
      "forekom": 5174,
      "##innelige": 5175,
      "ov": 5176,
      "kjer": 5177,
      "lands": 5178,
      "rist": 5179,
      "gjaldt": 5180,
      "carl": 5181,
      "insp": 5182,
      "løftet": 5183,
      "##iseres": 5184,
      "##atn": 5185,
      "heldig": 5186,
      "74": 5187,
      "typer": 5188,
      "##etil": 5189,
      "umulig": 5190,
      "lån": 5191,
      "levende": 5192,
      "##øtet": 5193,
      "forsøkte": 5194,
      "lover": 5195,
      "læ": 5196,
      "bind": 5197,
      "kjørte": 5198,
      "seng": 5199,
      "##øve": 5200,
      "enkel": 5201,
      "regnet": 5202,
      "ytterligere": 5203,
      "boka": 5204,
      "spare": 5205,
      "##somme": 5206,
      "act": 5207,
      "pust": 5208,
      "møtet": 5209,
      "##ssp": 5210,
      "blomster": 5211,
      "utenland": 5212,
      "avgift": 5213,
      "kyst": 5214,
      "150": 5215,
      "halvt": 5216,
      "kjøpte": 5217,
      "##spart": 5218,
      "minne": 5219,
      "oppgåver": 5220,
      "##arbeider": 5221,
      "##otte": 5222,
      "kjenne": 5223,
      "##melen": 5224,
      "os": 5225,
      "venter": 5226,
      "tøn": 5227,
      "##mende": 5228,
      "elsker": 5229,
      "##ola": 5230,
      "begynnelsen": 5231,
      "statsb": 5232,
      "skjønn": 5233,
      "acc": 5234,
      "##kle": 5235,
      "omgang": 5236,
      "vass": 5237,
      "##zz": 5238,
      "skritt": 5239,
      "fornøyd": 5240,
      "##ssel": 5241,
      "##af": 5242,
      "##ité": 5243,
      "mere": 5244,
      "##ionen": 5245,
      "hyl": 5246,
      "spennende": 5247,
      "##yret": 5248,
      "snakk": 5249,
      "bygde": 5250,
      "nærmest": 5251,
      "oppdaget": 5252,
      "delta": 5253,
      "havet": 5254,
      "fing": 5255,
      "avgjørende": 5256,
      "faller": 5257,
      "flykt": 5258,
      "eval": 5259,
      "lab": 5260,
      "reglene": 5261,
      "##stedet": 5262,
      "##grep": 5263,
      "redusert": 5264,
      "los": 5265,
      "sosi": 5266,
      "##visjon": 5267,
      "skjel": 5268,
      "opps": 5269,
      "stående": 5270,
      "##partement": 5271,
      "dyp": 5272,
      "##andid": 5273,
      "symb": 5274,
      "##blad": 5275,
      "ramme": 5276,
      "##ingsm": 5277,
      "slår": 5278,
      "bidrag": 5279,
      "##isa": 5280,
      "vond": 5281,
      "kob": 5282,
      "73": 5283,
      "##elighet": 5284,
      "wo": 5285,
      "##må": 5286,
      "##sny": 5287,
      "list": 5288,
      "sund": 5289,
      "kjøper": 5290,
      "uv": 5291,
      "kå": 5292,
      "fry": 5293,
      "trengte": 5294,
      "##havn": 5295,
      "##bjørn": 5296,
      "varm": 5297,
      "teater": 5298,
      "aker": 5299,
      "garden": 5300,
      "spred": 5301,
      "differ": 5302,
      "von": 5303,
      "##mi": 5304,
      "utform": 5305,
      "##ific": 5306,
      "alf": 5307,
      "##lie": 5308,
      "helg": 5309,
      "forbud": 5310,
      "##aser": 5311,
      "drikke": 5312,
      "kjøtt": 5313,
      "lyset": 5314,
      "kok": 5315,
      "varier": 5316,
      "##melding": 5317,
      "76": 5318,
      "jobbe": 5319,
      "rettet": 5320,
      "1987": 5321,
      "##iler": 5322,
      "jacob": 5323,
      "utgangspunktet": 5324,
      "##tert": 5325,
      "##delsen": 5326,
      "utsatt": 5327,
      "høyde": 5328,
      "prinsi": 5329,
      "tråd": 5330,
      "kall": 5331,
      "forståelse": 5332,
      "funn": 5333,
      ")\"\"": 5334,
      "skaper": 5335,
      "98": 5336,
      "heilt": 5337,
      "##hetene": 5338,
      "pu": 5339,
      "##asjonene": 5340,
      "sing": 5341,
      "two": 5342,
      "94": 5343,
      "gn": 5344,
      "they": 5345,
      "68": 5346,
      "yt": 5347,
      "innstilling": 5348,
      "opplever": 5349,
      "livs": 5350,
      "78": 5351,
      "import": 5352,
      "##atiske": 5353,
      "kaller": 5354,
      "øker": 5355,
      "##sområ": 5356,
      "johansen": 5357,
      "##sleder": 5358,
      "##ura": 5359,
      "##spør": 5360,
      "tilhør": 5361,
      "sykeple": 5362,
      "##ena": 5363,
      "linje": 5364,
      "usikker": 5365,
      "nattsending": 5366,
      "gjest": 5367,
      "beskjed": 5368,
      "velkommen": 5369,
      "jub": 5370,
      "##atter": 5371,
      "86": 5372,
      "pedersen": 5373,
      "våren": 5374,
      "rec": 5375,
      "maria": 5376,
      "##ørt": 5377,
      "kone": 5378,
      "alex": 5379,
      "leie": 5380,
      "##unne": 5381,
      "hotell": 5382,
      "##yp": 5383,
      "kjøpt": 5384,
      "##edlem": 5385,
      "arbeidsgiver": 5386,
      "sjelden": 5387,
      "autom": 5388,
      "##cts": 5389,
      "fur": 5390,
      "aner": 5391,
      "kommentar": 5392,
      "##vig": 5393,
      "##try": 5394,
      "morgens": 5395,
      "mur": 5396,
      "##ama": 5397,
      "##ssjef": 5398,
      "##iks": 5399,
      "nasjonale": 5400,
      "konflikt": 5401,
      "##aner": 5402,
      "##ffen": 5403,
      "1985": 5404,
      "toppen": 5405,
      "konv": 5406,
      "##utvikling": 5407,
      "korleis": 5408,
      "##vest": 5409,
      "yrkes": 5410,
      "##dr": 5411,
      "##området": 5412,
      "jorden": 5413,
      "smør": 5414,
      "maks": 5415,
      "resultater": 5416,
      "uk": 5417,
      "##sem": 5418,
      "dekket": 5419,
      "prisen": 5420,
      "skjønner": 5421,
      "pengene": 5422,
      "##ella": 5423,
      "dal": 5424,
      "anner": 5425,
      "hurt": 5426,
      "nødvendige": 5427,
      "registrert": 5428,
      "afrik": 5429,
      "påpe": 5430,
      "enig": 5431,
      "frankrike": 5432,
      "ligg": 5433,
      "##<<": 5434,
      "2020": 5435,
      "fortell": 5436,
      "##ds": 5437,
      "hag": 5438,
      "##yer": 5439,
      "1986": 5440,
      "88": 5441,
      "##rop": 5442,
      "restaur": 5443,
      "jar": 5444,
      "initi": 5445,
      "bygning": 5446,
      "avd": 5447,
      "vedlike": 5448,
      "opphold": 5449,
      "##egor": 5450,
      "endre": 5451,
      "##veis": 5452,
      "farge": 5453,
      "havde": 5454,
      "trøndelag": 5455,
      "##øye": 5456,
      "##iør": 5457,
      "ec": 5458,
      "jakob": 5459,
      "svein": 5460,
      "innsats": 5461,
      "veit": 5462,
      "##sler": 5463,
      "bøl": 5464,
      "bygger": 5465,
      "planer": 5466,
      "fengsel": 5467,
      "planen": 5468,
      "fjord": 5469,
      "##nok": 5470,
      "##ric": 5471,
      "##ryt": 5472,
      "språ": 5473,
      "##orm": 5474,
      "##vise": 5475,
      "##brudd": 5476,
      "##ereg": 5477,
      "##shus": 5478,
      "herre": 5479,
      "armen": 5480,
      "vg": 5481,
      "##ving": 5482,
      "vilje": 5483,
      "service": 5484,
      "84": 5485,
      "synd": 5486,
      "##vi": 5487,
      "bist": 5488,
      "mangel": 5489,
      "hovud": 5490,
      "hind": 5491,
      "fjern": 5492,
      "inntrykk": 5493,
      "hentet": 5494,
      "plikt": 5495,
      "ende": 5496,
      "positive": 5497,
      "dating": 5498,
      "79": 5499,
      "fortel": 5500,
      "milj": 5501,
      "arm": 5502,
      "ball": 5503,
      "##ec": 5504,
      "hemmelig": 5505,
      "mangler": 5506,
      "løse": 5507,
      "##ora": 5508,
      "regne": 5509,
      "sats": 5510,
      "kari": 5511,
      "forvent": 5512,
      "bror": 5513,
      "dyre": 5514,
      "rike": 5515,
      "##skar": 5516,
      "##ynt": 5517,
      "kommunale": 5518,
      "systemet": 5519,
      "annerledes": 5520,
      "##esel": 5521,
      "latter": 5522,
      "##enen": 5523,
      "##ague": 5524,
      "gulvet": 5525,
      "##delt": 5526,
      "prosess": 5527,
      "##lipp": 5528,
      "hjertet": 5529,
      "##industri": 5530,
      "last": 5531,
      "line": 5532,
      "drøm": 5533,
      "their": 5534,
      "dobbelt": 5535,
      "rand": 5536,
      "##ssystem": 5537,
      "flott": 5538,
      "kna": 5539,
      "##oter": 5540,
      "##merket": 5541,
      "verken": 5542,
      "båten": 5543,
      "fortalt": 5544,
      "hyd": 5545,
      "##hal": 5546,
      "trener": 5547,
      "##utdan": 5548,
      "innvand": 5549,
      "neppe": 5550,
      "1960": 5551,
      "##strid": 5552,
      "utført": 5553,
      "utred": 5554,
      "inngå": 5555,
      "adgang": 5556,
      "cal": 5557,
      "direktør": 5558,
      "##ival": 5559,
      "stykke": 5560,
      "##sev": 5561,
      "avstand": 5562,
      "absolutt": 5563,
      "##lø": 5564,
      "##ics": 5565,
      "##sund": 5566,
      "finnmark": 5567,
      "ordene": 5568,
      "parti": 5569,
      "sikt": 5570,
      "##ral": 5571,
      "tren": 5572,
      "innb": 5573,
      "drev": 5574,
      "landbruks": 5575,
      "dim": 5576,
      "##etning": 5577,
      "krimin": 5578,
      "##hj": 5579,
      "frø": 5580,
      "helhet": 5581,
      "##frå": 5582,
      "been": 5583,
      "israel": 5584,
      "overbe": 5585,
      "paris": 5586,
      "##messig": 5587,
      "##fort": 5588,
      "cont": 5589,
      "hente": 5590,
      "nokre": 5591,
      "rein": 5592,
      "morgensending": 5593,
      "##ommene": 5594,
      "posisjon": 5595,
      "##verre": 5596,
      "sukker": 5597,
      "dypt": 5598,
      "tann": 5599,
      "slapp": 5600,
      "underholdning": 5601,
      "behovet": 5602,
      "pst": 5603,
      "smak": 5604,
      "oppfyl": 5605,
      "jobbet": 5606,
      "interessert": 5607,
      "##tar": 5608,
      "##vind": 5609,
      "eksempler": 5610,
      "invest": 5611,
      "lette": 5612,
      "##klub": 5613,
      "89": 5614,
      "invol": 5615,
      "forsikring": 5616,
      "redu": 5617,
      "##istikk": 5618,
      "dru": 5619,
      "korn": 5620,
      "83": 5621,
      "##miljø": 5622,
      "##aste": 5623,
      "##bed": 5624,
      "ok": 5625,
      "frisk": 5626,
      "##gaver": 5627,
      "åpent": 5628,
      "orig": 5629,
      "sav": 5630,
      "rene": 5631,
      "fysisk": 5632,
      "pen": 5633,
      "##ege": 5634,
      "nedenfor": 5635,
      "##sdal": 5636,
      "##ensene": 5637,
      "åt": 5638,
      "##atelse": 5639,
      "utel": 5640,
      "sving": 5641,
      "hjør": 5642,
      "brun": 5643,
      "87": 5644,
      "cam": 5645,
      "mak": 5646,
      "179": 5647,
      "muligheten": 5648,
      "nest": 5649,
      "##felt": 5650,
      "##slov": 5651,
      "utgifter": 5652,
      "##edning": 5653,
      "scan": 5654,
      "##oks": 5655,
      "##urd": 5656,
      "mester": 5657,
      "##saker": 5658,
      "huske": 5659,
      "vinduet": 5660,
      "##).": 5661,
      "forvaltning": 5662,
      "nevnte": 5663,
      "magnus": 5664,
      "ønsk": 5665,
      "##kså": 5666,
      "forbed": 5667,
      "forestil": 5668,
      "##amen": 5669,
      "server": 5670,
      "arkite": 5671,
      "turen": 5672,
      "symp": 5673,
      "sne": 5674,
      "yrke": 5675,
      "ri": 5676,
      "96": 5677,
      "lukket": 5678,
      "amerika": 5679,
      "interessant": 5680,
      "videreg": 5681,
      "landets": 5682,
      "spre": 5683,
      "##odd": 5684,
      "konstru": 5685,
      "##onse": 5686,
      "etablert": 5687,
      "##vidt": 5688,
      "##hjelp": 5689,
      "fattig": 5690,
      "rak": 5691,
      "111": 5692,
      "fjerde": 5693,
      "pedagog": 5694,
      "utenrik": 5695,
      "leser": 5696,
      "esp": 5697,
      "svare": 5698,
      "##bygger": 5699,
      "hr": 5700,
      "hjelper": 5701,
      "##har": 5702,
      "vedtatt": 5703,
      "kristne": 5704,
      "tore": 5705,
      "naturen": 5706,
      "tilgang": 5707,
      "##kjenn": 5708,
      "##ada": 5709,
      "##endal": 5710,
      "pasient": 5711,
      "kvalif": 5712,
      "galt": 5713,
      "##ykke": 5714,
      "foruts": 5715,
      "plassen": 5716,
      "forbered": 5717,
      "##ras": 5718,
      "russland": 5719,
      "religi": 5720,
      "fylkeskommun": 5721,
      "##legger": 5722,
      "professor": 5723,
      "sus": 5724,
      "areal": 5725,
      "kirk": 5726,
      "sørge": 5727,
      "sønnen": 5728,
      "gjent": 5729,
      "action": 5730,
      "nødt": 5731,
      "kontin": 5732,
      "kunstner": 5733,
      "støv": 5734,
      "egg": 5735,
      "1984": 5736,
      "##saa": 5737,
      "evne": 5738,
      "##synet": 5739,
      "cons": 5740,
      "##ace": 5741,
      "administrat": 5742,
      "##ution": 5743,
      "adres": 5744,
      "##ods": 5745,
      "valgte": 5746,
      "##bro": 5747,
      "##kul": 5748,
      "##ament": 5749,
      "likte": 5750,
      "behandlet": 5751,
      "musk": 5752,
      "innr": 5753,
      "##ci": 5754,
      "##øyer": 5755,
      "kapte": 5756,
      "armene": 5757,
      "tonn": 5758,
      "##bær": 5759,
      "##ward": 5760,
      "mik": 5761,
      "begrenset": 5762,
      "halvparten": 5763,
      "størrelse": 5764,
      "##skraft": 5765,
      "hug": 5766,
      "##arch": 5767,
      "##ities": 5768,
      "tilknyt": 5769,
      "##ania": 5770,
      "landsb": 5771,
      "markedet": 5772,
      "ettersom": 5773,
      "øster": 5774,
      "##flyt": 5775,
      "vinteren": 5776,
      "skuld": 5777,
      "##aket": 5778,
      "øvre": 5779,
      "##...": 5780,
      "##tene": 5781,
      "##nader": 5782,
      "videregående": 5783,
      "ovenfor": 5784,
      "økte": 5785,
      "hode": 5786,
      "foreløp": 5787,
      "##cer": 5788,
      "drept": 5789,
      "drama": 5790,
      "##foren": 5791,
      "tend": 5792,
      "angrep": 5793,
      "##kal": 5794,
      "robert": 5795,
      "jap": 5796,
      "##illere": 5797,
      "##rette": 5798,
      "rygg": 5799,
      "snar": 5800,
      "##natt": 5801,
      "politik": 5802,
      "mørk": 5803,
      "skille": 5804,
      "##osof": 5805,
      "fremtid": 5806,
      "intet": 5807,
      "enkle": 5808,
      "jule": 5809,
      "ragn": 5810,
      "##slige": 5811,
      "kolle": 5812,
      "##vold": 5813,
      "detalj": 5814,
      "##wa": 5815,
      "##rapp": 5816,
      "mennene": 5817,
      "##enterte": 5818,
      "##sforhold": 5819,
      "erfaringer": 5820,
      "skrem": 5821,
      "league": 5822,
      "tyr": 5823,
      "sterkere": 5824,
      "runde": 5825,
      "modell": 5826,
      "##egen": 5827,
      "also": 5828,
      "##ennene": 5829,
      "verdier": 5830,
      "forutset": 5831,
      "observ": 5832,
      "##samling": 5833,
      "sjøen": 5834,
      "dele": 5835,
      "##gje": 5836,
      "nordland": 5837,
      "##grupper": 5838,
      "kilometer": 5839,
      "menneskene": 5840,
      "##ze": 5841,
      "avsnitt": 5842,
      "taler": 5843,
      "dommer": 5844,
      "nærheten": 5845,
      "himmelen": 5846,
      "##elde": 5847,
      "##øyet": 5848,
      "##iar": 5849,
      "tilt": 5850,
      "dyn": 5851,
      "einar": 5852,
      "publ": 5853,
      "##oper": 5854,
      "##lov": 5855,
      "sidan": 5856,
      "##igen": 5857,
      "dial": 5858,
      "universitetet": 5859,
      "rapporter": 5860,
      "ordin": 5861,
      "vondt": 5862,
      "fen": 5863,
      "dir": 5864,
      "stede": 5865,
      "##liv": 5866,
      "langsomt": 5867,
      "dreier": 5868,
      "##aktiv": 5869,
      "dec": 5870,
      "kompl": 5871,
      "sog": 5872,
      "kontra": 5873,
      "butikk": 5874,
      "nilsen": 5875,
      "175": 5876,
      "midten": 5877,
      "kolleg": 5878,
      "prop": 5879,
      "lom": 5880,
      "##aa": 5881,
      "bol": 5882,
      "siv": 5883,
      "1981": 5884,
      "fremme": 5885,
      "fotograf": 5886,
      "redusere": 5887,
      "virkning": 5888,
      "trekker": 5889,
      "dans": 5890,
      "##offer": 5891,
      "syd": 5892,
      "##kser": 5893,
      "##delen": 5894,
      "##eta": 5895,
      "positiv": 5896,
      "##seth": 5897,
      "##iering": 5898,
      "såkalte": 5899,
      "##område": 5900,
      "firma": 5901,
      "plast": 5902,
      "bokstav": 5903,
      "##ape": 5904,
      "##sarbeid": 5905,
      "##gde": 5906,
      "ye": 5907,
      "biler": 5908,
      "##ordin": 5909,
      "preget": 5910,
      "flertall": 5911,
      "teknisk": 5912,
      "museum": 5913,
      "institutt": 5914,
      "kjempe": 5915,
      "##ulere": 5916,
      "størst": 5917,
      "håp": 5918,
      "rog": 5919,
      "##tten": 5920,
      "foreligger": 5921,
      "ordfører": 5922,
      "upp": 5923,
      "##snytt": 5924,
      "island": 5925,
      "hei": 5926,
      "##undersøk": 5927,
      "identif": 5928,
      "prosjekter": 5929,
      "sluttet": 5930,
      "markeds": 5931,
      "##ited": 5932,
      "##ssam": 5933,
      "##fir": 5934,
      "##krig": 5935,
      "fantes": 5936,
      "samle": 5937,
      "eldste": 5938,
      "lens": 5939,
      "jensen": 5940,
      "##30": 5941,
      "forbruker": 5942,
      "##ove": 5943,
      "world": 5944,
      "sesong": 5945,
      "anven": 5946,
      "ts": 5947,
      "profesjon": 5948,
      "live": 5949,
      "##troll": 5950,
      "vakre": 5951,
      "skinn": 5952,
      "##handler": 5953,
      "##amin": 5954,
      "signal": 5955,
      "perfe": 5956,
      "ås": 5957,
      "danske": 5958,
      "##rere": 5959,
      "def": 5960,
      "lavt": 5961,
      "##bes": 5962,
      "reser": 5963,
      "sw": 5964,
      "sikte": 5965,
      "##sinn": 5966,
      "selger": 5967,
      "omfang": 5968,
      "##blem": 5969,
      "programmet": 5970,
      "##inal": 5971,
      "bis": 5972,
      "ressurser": 5973,
      "grunnlegg": 5974,
      "avvik": 5975,
      "##kir": 5976,
      "##ty": 5977,
      "##urens": 5978,
      "rapporten": 5979,
      "##bank": 5980,
      "##verdig": 5981,
      "naturligvis": 5982,
      "##sre": 5983,
      "virksomheten": 5984,
      "eventyr": 5985,
      "oppover": 5986,
      "helge": 5987,
      "big": 5988,
      "bonde": 5989,
      "begynt": 5990,
      "bedriften": 5991,
      "taket": 5992,
      "devel": 5993,
      "human": 5994,
      "forholdene": 5995,
      "##pix": 5996,
      "gjennomføre": 5997,
      "himmel": 5998,
      "##illa": 5999,
      "##vekst": 6000,
      "600": 6001,
      "gate": 6002,
      "dessverre": 6003,
      "årh": 6004,
      "yngre": 6005,
      "starter": 6006,
      "##kre": 6007,
      "verre": 6008,
      "bab": 6009,
      "##hvert": 6010,
      "skam": 6011,
      "nort": 6012,
      "##ulerer": 6013,
      "tone": 6014,
      "greit": 6015,
      "ristet": 6016,
      "die": 6017,
      "forretning": 6018,
      "##ween": 6019,
      "heng": 6020,
      "svensk": 6021,
      "roll": 6022,
      "1950": 6023,
      "arr": 6024,
      "klær": 6025,
      "kilde": 6026,
      "exp": 6027,
      "##avgift": 6028,
      "normal": 6029,
      "norway": 6030,
      "status": 6031,
      "oppfatning": 6032,
      "tilgjengelig": 6033,
      "risiko": 6034,
      "-\"\"": 6035,
      "erkl": 6036,
      "##system": 6037,
      "veks": 6038,
      "##æringen": 6039,
      "glob": 6040,
      "symbol": 6041,
      "mc": 6042,
      "##hn": 6043,
      "##ular": 6044,
      "måle": 6045,
      "##mot": 6046,
      "toll": 6047,
      "lignende": 6048,
      "overrask": 6049,
      "maj": 6050,
      "frihet": 6051,
      "forskjell": 6052,
      "gong": 6053,
      "scanpix": 6054,
      "fla": 6055,
      "##chen": 6056,
      "organisasjoner": 6057,
      "utrolig": 6058,
      "debatt": 6059,
      "skoler": 6060,
      "sentralt": 6061,
      "umiddel": 6062,
      "tungt": 6063,
      "tilfredsst": 6064,
      "stolt": 6065,
      "melding": 6066,
      "develop": 6067,
      "##val": 6068,
      "1000": 6069,
      "gamm": 6070,
      "##gård": 6071,
      "demon": 6072,
      "##rettet": 6073,
      "##jøl": 6074,
      "perspektiv": 6075,
      "lur": 6076,
      "forsknings": 6077,
      "1979": 6078,
      "1982": 6079,
      "cla": 6080,
      "##nor": 6081,
      "##ullet": 6082,
      "ordning": 6083,
      "kreft": 6084,
      "1977": 6085,
      "##jenesten": 6086,
      "nærmeste": 6087,
      "##idar": 6088,
      "taus": 6089,
      "##enden": 6090,
      "between": 6091,
      "##ryg": 6092,
      "ledelse": 6093,
      "lad": 6094,
      "moral": 6095,
      "1978": 6096,
      "halvor": 6097,
      "statsminister": 6098,
      "klima": 6099,
      "forskjellig": 6100,
      "forsvant": 6101,
      "pasienter": 6102,
      "##gruppe": 6103,
      "doll": 6104,
      "øre": 6105,
      "##ellem": 6106,
      "lave": 6107,
      "##banen": 6108,
      "brans": 6109,
      "skuesp": 6110,
      "grense": 6111,
      "math": 6112,
      "##entral": 6113,
      "1983": 6114,
      "føle": 6115,
      "jente": 6116,
      "##anal": 6117,
      "hurtig": 6118,
      "##itz": 6119,
      "fransk": 6120,
      "bev": 6121,
      "studie": 6122,
      "##veks": 6123,
      "produkter": 6124,
      "forklare": 6125,
      "elektron": 6126,
      "sove": 6127,
      "##ferdig": 6128,
      "svaret": 6129,
      "hust": 6130,
      "sec": 6131,
      "reist": 6132,
      "##skol": 6133,
      "korre": 6134,
      "veggen": 6135,
      "##fru": 6136,
      "##sens": 6137,
      "øl": 6138,
      "grov": 6139,
      "work": 6140,
      "##øde": 6141,
      "##struktur": 6142,
      "##nede": 6143,
      "##yttelse": 6144,
      "##stemer": 6145,
      "##aktør": 6146,
      "fav": 6147,
      "hvisk": 6148,
      "morten": 6149,
      "advokat": 6150,
      "##rede": 6151,
      "##gl": 6152,
      "1975": 6153,
      "utfor": 6154,
      "skjønte": 6155,
      "##skiner": 6156,
      "samling": 6157,
      "norw": 6158,
      "enige": 6159,
      "##rørende": 6160,
      "teksten": 6161,
      "fjerne": 6162,
      "tilpass": 6163,
      "##bi": 6164,
      "nordmenn": 6165,
      "##ktes": 6166,
      "stu": 6167,
      "##tto": 6168,
      "verne": 6169,
      "##plasser": 6170,
      "sannsynligvis": 6171,
      "myndigheter": 6172,
      "##posten": 6173,
      "##onn": 6174,
      "bidrar": 6175,
      "##eler": 6176,
      "befolkningen": 6177,
      "##ael": 6178,
      "178": 6179,
      "vidare": 6180,
      "åpner": 6181,
      "1976": 6182,
      "ask": 6183,
      "stål": 6184,
      "tekniske": 6185,
      "##middel": 6186,
      "##stillinger": 6187,
      "##kende": 6188,
      "lim": 6189,
      "økning": 6190,
      "stri": 6191,
      "##gruppen": 6192,
      "initiativ": 6193,
      "representerer": 6194,
      "sengen": 6195,
      "177": 6196,
      "amerikansk": 6197,
      "åringen": 6198,
      "mom": 6199,
      "##egnet": 6200,
      "##øyt": 6201,
      "##emark": 6202,
      "tunge": 6203,
      "inger": 6204,
      "søv": 6205,
      "##asitet": 6206,
      "##cess": 6207,
      "176": 6208,
      "fungerer": 6209,
      "arkiv": 6210,
      "sektor": 6211,
      "spesiell": 6212,
      "utlandet": 6213,
      "talet": 6214,
      "benyttes": 6215,
      "tils": 6216,
      "##orene": 6217,
      "stanset": 6218,
      "filmen": 6219,
      "fritid": 6220,
      "##strand": 6221,
      "cent": 6222,
      "analyse": 6223,
      "inde": 6224,
      "fortr": 6225,
      "fyller": 6226,
      "herren": 6227,
      "skikkelig": 6228,
      "syl": 6229,
      "tilp": 6230,
      "tung": 6231,
      "korte": 6232,
      "partiet": 6233,
      "kvinnene": 6234,
      "fored": 6235,
      "beslut": 6236,
      "tømmer": 6237,
      "minutt": 6238,
      "stått": 6239,
      "milliarder": 6240,
      "##voll": 6241,
      "##start": 6242,
      "pasienten": 6243,
      "grunnleggende": 6244,
      "stock": 6245,
      "let": 6246,
      "##irektoratet": 6247,
      "potens": 6248,
      "##loven": 6249,
      "##føringen": 6250,
      "ekster": 6251,
      "his": 6252,
      "##vent": 6253,
      "gled": 6254,
      "sover": 6255,
      "##ona": 6256,
      "##iseringen": 6257,
      "##sset": 6258,
      "##sper": 6259,
      "utfordring": 6260,
      "report": 6261,
      "##bør": 6262,
      "løsninger": 6263,
      "hyggelig": 6264,
      "undersøkelse": 6265,
      "måter": 6266,
      "motiv": 6267,
      "prosessen": 6268,
      "flo": 6269,
      "klubb": 6270,
      "konsent": 6271,
      "benyttet": 6272,
      "hang": 6273,
      "knapt": 6274,
      "stim": 6275,
      "##iens": 6276,
      "hund": 6277,
      "stru": 6278,
      "sort": 6279,
      "undervis": 6280,
      "##ilde": 6281,
      "luften": 6282,
      "##abeth": 6283,
      "##grens": 6284,
      "##nevnte": 6285,
      "team": 6286,
      "##skrig": 6287,
      "ettermiddag": 6288,
      "student": 6289,
      "undersøkelser": 6290,
      "analys": 6291,
      "##ela": 6292,
      "farlig": 6293,
      "##own": 6294,
      "design": 6295,
      "retningslin": 6296,
      "800": 6297,
      "konsekvenser": 6298,
      "some": 6299,
      "##ating": 6300,
      "##beg": 6301,
      "diskuter": 6302,
      "hindre": 6303,
      "##økene": 6304,
      "flest": 6305,
      "klubben": 6306,
      "##små": 6307,
      "##ros": 6308,
      "ferie": 6309,
      "##10": 6310,
      "rest": 6311,
      "mult": 6312,
      "rettigheter": 6313,
      "slippe": 6314,
      "oppmerksomhet": 6315,
      "storting": 6316,
      "religion": 6317,
      "##ytta": 6318,
      "suks": 6319,
      "##smessige": 6320,
      "sovjet": 6321,
      "bodø": 6322,
      "myndighet": 6323,
      "##ugen": 6324,
      "##esser": 6325,
      "gutter": 6326,
      "stikk": 6327,
      "plu": 6328,
      "beløp": 6329,
      "skule": 6330,
      "tidleg": 6331,
      "##retning": 6332,
      "serie": 6333,
      "studier": 6334,
      "nokså": 6335,
      "noreg": 6336,
      "##imum": 6337,
      "redde": 6338,
      "ansvarlig": 6339,
      "##draget": 6340,
      "war": 6341,
      "##nivå": 6342,
      "spesif": 6343,
      "gjens": 6344,
      "bag": 6345,
      "typen": 6346,
      "frp": 6347,
      "samarbeidet": 6348,
      "tit": 6349,
      "minn": 6350,
      "##slet": 6351,
      "nabo": 6352,
      "maler": 6353,
      "gyld": 6354,
      "##ittil": 6355,
      "##formen": 6356,
      "presset": 6357,
      "##rykk": 6358,
      "noget": 6359,
      "top": 6360,
      "sykkel": 6361,
      "regulering": 6362,
      "aud": 6363,
      "gjem": 6364,
      "##æs": 6365,
      "these": 6366,
      "##sled": 6367,
      "##sbru": 6368,
      "##ior": 6369,
      "kravet": 6370,
      "##kjente": 6371,
      "læring": 6372,
      "dum": 6373,
      "##områder": 6374,
      "lis": 6375,
      "grunner": 6376,
      "1973": 6377,
      "kjøkkenet": 6378,
      "bekl": 6379,
      "##ible": 6380,
      "##innen": 6381,
      "##orgen": 6382,
      "uavhengig": 6383,
      "##skip": 6384,
      "cup": 6385,
      "stilte": 6386,
      "fantastisk": 6387,
      "kona": 6388,
      "lært": 6389,
      "##fjorden": 6390,
      "high": 6391,
      "mum": 6392,
      "nøye": 6393,
      "ef": 6394,
      "1972": 6395,
      "fik": 6396,
      "minner": 6397,
      "erstatning": 6398,
      "betra": 6399,
      "skader": 6400,
      "kommunal": 6401,
      "dekke": 6402,
      "1974": 6403,
      "##atnet": 6404,
      "kreve": 6405,
      "tyder": 6406,
      "sim": 6407,
      "frig": 6408,
      "tilstand": 6409,
      "##litt": 6410,
      "etc": 6411,
      "##nar": 6412,
      "kos": 6413,
      "##resten": 6414,
      "##forbund": 6415,
      "voksen": 6416,
      "generelle": 6417,
      "skilt": 6418,
      "grønne": 6419,
      "vedlegg": 6420,
      "sivil": 6421,
      "begrunn": 6422,
      "aktiviteter": 6423,
      "##bon": 6424,
      "ins": 6425,
      "foreløpig": 6426,
      "##bas": 6427,
      "##ino": 6428,
      "foregår": 6429,
      "fork": 6430,
      "foreta": 6431,
      "gass": 6432,
      "##sord": 6433,
      "sesongen": 6434,
      "lak": 6435,
      "rekl": 6436,
      "utbet": 6437,
      "ellen": 6438,
      "henger": 6439,
      "fril": 6440,
      "##arden": 6441,
      "fornuft": 6442,
      "passe": 6443,
      "bortsett": 6444,
      "##ørene": 6445,
      "grenser": 6446,
      "vog": 6447,
      "bestemmelsen": 6448,
      "##behandling": 6449,
      "net": 6450,
      "##akk": 6451,
      "kostnader": 6452,
      "simp": 6453,
      "bedt": 6454,
      "##mun": 6455,
      "sogn": 6456,
      "pål": 6457,
      "idé": 6458,
      "fabr": 6459,
      "sies": 6460,
      "halsen": 6461,
      "video": 6462,
      "flag": 6463,
      "døra": 6464,
      "innled": 6465,
      "tomt": 6466,
      "##aard": 6467,
      "##splikt": 6468,
      "vegen": 6469,
      "rich": 6470,
      "od": 6471,
      "##etting": 6472,
      "fylt": 6473,
      "liksom": 6474,
      "døden": 6475,
      "optim": 6476,
      "begrepet": 6477,
      "dagene": 6478,
      "fjellet": 6479,
      "plassert": 6480,
      "lærere": 6481,
      "##50": 6482,
      "emil": 6483,
      "låg": 6484,
      "##asjem": 6485,
      "blo": 6486,
      "sender": 6487,
      "stilt": 6488,
      "tilknytning": 6489,
      "uken": 6490,
      "rosen": 6491,
      "sens": 6492,
      "enhet": 6493,
      "adresse": 6494,
      "strøk": 6495,
      "##gitt": 6496,
      "##cl": 6497,
      "hjul": 6498,
      "overv": 6499,
      "##ology": 6500,
      "##posisjon": 6501,
      "misjon": 6502,
      "fremmed": 6503,
      "foss": 6504,
      "##stet": 6505,
      "fn": 6506,
      "tilnær": 6507,
      "##midler": 6508,
      "organisasjonen": 6509,
      "mørket": 6510,
      "##liggende": 6511,
      "personlige": 6512,
      "sed": 6513,
      "sten": 6514,
      "skapt": 6515,
      "##parti": 6516,
      "integ": 6517,
      "utbygging": 6518,
      "hverdag": 6519,
      "##ts": 6520,
      "##iment": 6521,
      "than": 6522,
      "praktiske": 6523,
      "ære": 6524,
      "camp": 6525,
      "bang": 6526,
      "likhet": 6527,
      "virkeligheten": 6528,
      "miss": 6529,
      "håpet": 6530,
      "jorda": 6531,
      "kring": 6532,
      "##trer": 6533,
      "ekst": 6534,
      "stoppet": 6535,
      "##ject": 6536,
      "kalle": 6537,
      "klokka": 6538,
      "##ielt": 6539,
      "##virkning": 6540,
      "lyse": 6541,
      "nom": 6542,
      "materiale": 6543,
      "##alter": 6544,
      "##ssy": 6545,
      "ekspl": 6546,
      "bestemme": 6547,
      "ringe": 6548,
      "##produksjon": 6549,
      "##program": 6550,
      "starte": 6551,
      "valget": 6552,
      "positivt": 6553,
      "1945": 6554,
      "cap": 6555,
      "##henger": 6556,
      "##ining": 6557,
      "1800": 6558,
      "agder": 6559,
      "tver": 6560,
      "ansatt": 6561,
      "utgift": 6562,
      "##stat": 6563,
      "120": 6564,
      "##fug": 6565,
      "##jektet": 6566,
      "kristiansand": 6567,
      "##annelse": 6568,
      "følelser": 6569,
      "barnehage": 6570,
      "##lands": 6571,
      "norweg": 6572,
      "ara": 6573,
      "kolon": 6574,
      "##virksomhet": 6575,
      "ringte": 6576,
      "##lå": 6577,
      "tog": 6578,
      "laur": 6579,
      "sjøm": 6580,
      "##vendt": 6581,
      "aksjon": 6582,
      "velferd": 6583,
      "trus": 6584,
      "##våg": 6585,
      "##ages": 6586,
      "parall": 6587,
      "europeiske": 6588,
      "1940": 6589,
      "hur": 6590,
      "##ures": 6591,
      "innom": 6592,
      "skru": 6593,
      "merk": 6594,
      "face": 6595,
      "obser": 6596,
      "arkitekt": 6597,
      "park": 6598,
      "vinner": 6599,
      "fulle": 6600,
      "igjennom": 6601,
      "resultatene": 6602,
      "trett": 6603,
      "##ænd": 6604,
      "##oritet": 6605,
      "vinne": 6606,
      "trukket": 6607,
      "bjer": 6608,
      "eide": 6609,
      "falle": 6610,
      "geir": 6611,
      "lil": 6612,
      "##oms": 6613,
      "when": 6614,
      "ekteskap": 6615,
      "tilst": 6616,
      "##fød": 6617,
      "oppfølg": 6618,
      "##cr": 6619,
      "internasjonal": 6620,
      "opplyser": 6621,
      "elis": 6622,
      "sok": 6623,
      "dur": 6624,
      "våk": 6625,
      "aktuelt": 6626,
      "foretatt": 6627,
      "nogen": 6628,
      "inntekter": 6629,
      "forlag": 6630,
      "##book": 6631,
      "innholdet": 6632,
      "forster": 6633,
      "##vekt": 6634,
      "forst": 6635,
      "utfordringer": 6636,
      "##ye": 6637,
      "basis": 6638,
      "sande": 6639,
      "##sessen": 6640,
      "færre": 6641,
      "she": 6642,
      "##ced": 6643,
      "num": 6644,
      "samtale": 6645,
      "##ti": 6646,
      "alminnelig": 6647,
      "oppt": 6648,
      "fulgt": 6649,
      "##stått": 6650,
      "##fulle": 6651,
      "konvensjon": 6652,
      "dn": 6653,
      "frivillig": 6654,
      "##rak": 6655,
      "parag": 6656,
      "mønster": 6657,
      "vig": 6658,
      "ogsaa": 6659,
      "##ulen": 6660,
      "##deler": 6661,
      "ledet": 6662,
      "##bordet": 6663,
      "1900": 6664,
      "overgang": 6665,
      "tvers": 6666,
      "isol": 6667,
      "##sti": 6668,
      "veier": 6669,
      "##byen": 6670,
      "sekret": 6671,
      "konkrete": 6672,
      "##klusjon": 6673,
      "skuldrene": 6674,
      "omgiv": 6675,
      "vises": 6676,
      "lokalt": 6677,
      "kald": 6678,
      "oversk": 6679,
      "##ep": 6680,
      "storm": 6681,
      "kikket": 6682,
      "stift": 6683,
      "drar": 6684,
      "rol": 6685,
      "konsert": 6686,
      "tilskudd": 6687,
      "kristen": 6688,
      "terje": 6689,
      "##øtte": 6690,
      "174": 6691,
      "##bakken": 6692,
      "opprettet": 6693,
      "fellesskap": 6694,
      "smerte": 6695,
      "høyeste": 6696,
      "vedlikehold": 6697,
      "##sjef": 6698,
      "pul": 6699,
      "framover": 6700,
      "pant": 6701,
      "levde": 6702,
      "regner": 6703,
      "mellem": 6704,
      "rekru": 6705,
      "##beveg": 6706,
      "##arm": 6707,
      "##asjen": 6708,
      "filosof": 6709,
      "nøyaktig": 6710,
      "forhånd": 6711,
      "historisk": 6712,
      "nokon": 6713,
      "hog": 6714,
      "såg": 6715,
      "unnt": 6716,
      "##veit": 6717,
      "##rive": 6718,
      "aksje": 6719,
      "oppstår": 6720,
      "##gjorde": 6721,
      "jenta": 6722,
      "tankene": 6723,
      "##skab": 6724,
      "regnes": 6725,
      "sof": 6726,
      "##æg": 6727,
      "##setting": 6728,
      "##tred": 6729,
      "used": 6730,
      "pi": 6731,
      "eir": 6732,
      "utelu": 6733,
      "titt": 6734,
      "##liam": 6735,
      "lek": 6736,
      "250": 6737,
      "##nda": 6738,
      "##inene": 6739,
      "jentene": 6740,
      "fait": 6741,
      "##ower": 6742,
      "ull": 6743,
      "nylig": 6744,
      "##ae": 6745,
      "meiner": 6746,
      "traff": 6747,
      "belast": 6748,
      "##brand": 6749,
      "hjal": 6750,
      "manglende": 6751,
      "oppleve": 6752,
      "##resent": 6753,
      "ressurs": 6754,
      "prioriter": 6755,
      "emp": 6756,
      "fremover": 6757,
      "argument": 6758,
      "##ogra": 6759,
      "social": 6760,
      "tids": 6761,
      "verste": 6762,
      "trinn": 6763,
      "kjører": 6764,
      "militær": 6765,
      "1969": 6766,
      "fanget": 6767,
      "dollar": 6768,
      "økende": 6769,
      "handle": 6770,
      "profil": 6771,
      "grunnlaget": 6772,
      "bevilg": 6773,
      "kontoret": 6774,
      "marker": 6775,
      "snu": 6776,
      "jevn": 6777,
      "##kamp": 6778,
      "##ders": 6779,
      "myndighetene": 6780,
      "##idd": 6781,
      "##cept": 6782,
      "non": 6783,
      "cir": 6784,
      "hesten": 6785,
      "##famil": 6786,
      "##stud": 6787,
      "dansk": 6788,
      "peker": 6789,
      "##aliteten": 6790,
      "##fore": 6791,
      "1971": 6792,
      "kyss": 6793,
      "##vant": 6794,
      "anses": 6795,
      "næringsliv": 6796,
      "penge": 6797,
      "##ulering": 6798,
      "##atret": 6799,
      "anton": 6800,
      "skjær": 6801,
      "dame": 6802,
      "##ninga": 6803,
      "alli": 6804,
      "##asjons": 6805,
      "~~": 6806,
      "##gra": 6807,
      "##pel": 6808,
      "ulik": 6809,
      "negative": 6810,
      "arter": 6811,
      "legem": 6812,
      "##eloven": 6813,
      "innst": 6814,
      "innflyt": 6815,
      "forstand": 6816,
      "forklarer": 6817,
      "##hammer": 6818,
      "bygda": 6819,
      "##shem": 6820,
      "##ash": 6821,
      "følelse": 6822,
      "research": 6823,
      "master": 6824,
      "##gren": 6825,
      "bam": 6826,
      "kla": 6827,
      "håkon": 6828,
      "##handel": 6829,
      "opplevd": 6830,
      "franske": 6831,
      "undersøkelsen": 6832,
      "maten": 6833,
      "lest": 6834,
      "liter": 6835,
      "mulige": 6836,
      "storbr": 6837,
      "held": 6838,
      "bety": 6839,
      "mog": 6840,
      "hevder": 6841,
      "##foss": 6842,
      "bost": 6843,
      "##jent": 6844,
      "##oppen": 6845,
      "##funnet": 6846,
      "its": 6847,
      "årlig": 6848,
      "##otter": 6849,
      "##que": 6850,
      "##vendig": 6851,
      "bakgrunnen": 6852,
      "##somhet": 6853,
      "studenter": 6854,
      "##pene": 6855,
      "fos": 6856,
      "betalt": 6857,
      "overord": 6858,
      "dukket": 6859,
      "representant": 6860,
      "varmt": 6861,
      "norwegian": 6862,
      "##hard": 6863,
      "##off": 6864,
      "termin": 6865,
      "##jev": 6866,
      "##tom": 6867,
      "tørr": 6868,
      "mekan": 6869,
      "max": 6870,
      "michael": 6871,
      "gave": 6872,
      "møtt": 6873,
      "solen": 6874,
      "godkjent": 6875,
      "begrep": 6876,
      "group": 6877,
      "ordningen": 6878,
      "premier": 6879,
      "anden": 6880,
      "beregnet": 6881,
      "##havet": 6882,
      "grus": 6883,
      "eksport": 6884,
      "gram": 6885,
      "nedre": 6886,
      "##fjell": 6887,
      "fremtiden": 6888,
      "##undre": 6889,
      "spilt": 6890,
      "faglig": 6891,
      "garant": 6892,
      "beting": 6893,
      "##skost": 6894,
      "sosialt": 6895,
      "##ssels": 6896,
      "farger": 6897,
      "laste": 6898,
      "skifte": 6899,
      "##ör": 6900,
      "evaluer": 6901,
      "##isse": 6902,
      "konsesjon": 6903,
      "##sik": 6904,
      "##årene": 6905,
      "dags": 6906,
      "stortings": 6907,
      "stabil": 6908,
      "foreslår": 6909,
      "##ious": 6910,
      "mont": 6911,
      "any": 6912,
      "##folkning": 6913,
      "##ipl": 6914,
      "##nest": 6915,
      "triv": 6916,
      "##enteret": 6917,
      "nm": 6918,
      "##resjon": 6919,
      "##esen": 6920,
      "forklaring": 6921,
      "##snivå": 6922,
      "oftest": 6923,
      "##skapene": 6924,
      "seinare": 6925,
      "troms": 6926,
      "tolv": 6927,
      "##vitt": 6928,
      "priser": 6929,
      "##legget": 6930,
      "lit": 6931,
      "##skv": 6932,
      "offis": 6933,
      "slu": 6934,
      "##ktøy": 6935,
      "partene": 6936,
      "deltok": 6937,
      "jørgen": 6938,
      "holm": 6939,
      "hon": 6940,
      "ringer": 6941,
      "bruken": 6942,
      "##11": 6943,
      "trul": 6944,
      "##ttene": 6945,
      "fastsatt": 6946,
      "##alder": 6947,
      "international": 6948,
      "##astro": 6949,
      "bein": 6950,
      "simon": 6951,
      "##partementets": 6952,
      "fund": 6953,
      "forurens": 6954,
      "hast": 6955,
      "##sfull": 6956,
      "konklusjon": 6957,
      "menighet": 6958,
      "avisen": 6959,
      "etasje": 6960,
      "see": 6961,
      "tips": 6962,
      "##ningar": 6963,
      "william": 6964,
      "presten": 6965,
      "what": 6966,
      "brevet": 6967,
      "west": 6968,
      "rust": 6969,
      "dahl": 6970,
      "##hald": 6971,
      "##fs": 6972,
      "arn": 6973,
      "##sjøen": 6974,
      "snill": 6975,
      "inkludert": 6976,
      "##vegen": 6977,
      "grim": 6978,
      "seil": 6979,
      "##apir": 6980,
      "brand": 6981,
      "krefter": 6982,
      "kant": 6983,
      "##stiltak": 6984,
      "teknologi": 6985,
      "##rot": 6986,
      "storbrit": 6987,
      "operasjon": 6988,
      "sem": 6989,
      "hels": 6990,
      "plant": 6991,
      "samlede": 6992,
      "##bakk": 6993,
      "oppmerksom": 6994,
      "##vald": 6995,
      "komite": 6996,
      "afrika": 6997,
      "nordisk": 6998,
      "gjelde": 6999,
      "utsikt": 7000,
      "avl": 7001,
      "uro": 7002,
      "syv": 7003,
      "syssels": 7004,
      "fylket": 7005,
      "bestemmer": 7006,
      "leste": 7007,
      "##stolen": 7008,
      "arv": 7009,
      "turist": 7010,
      "##alene": 7011,
      "##egj": 7012,
      "##peri": 7013,
      "##illende": 7014,
      "teor": 7015,
      "drevet": 7016,
      "grensen": 7017,
      "årsaken": 7018,
      "rente": 7019,
      "beslutning": 7020,
      "storbritann": 7021,
      "bringe": 7022,
      "fløy": 7023,
      "metall": 7024,
      "##rel": 7025,
      "##itert": 7026,
      "##smøte": 7027,
      "debatten": 7028,
      "##speri": 7029,
      "##esund": 7030,
      "about": 7031,
      "##rekk": 7032,
      "teori": 7033,
      "##benhavn": 7034,
      "parad": 7035,
      "##settelse": 7036,
      "isl": 7037,
      "##ends": 7038,
      "##oph": 7039,
      "hellige": 7040,
      "hverken": 7041,
      "##leie": 7042,
      "how": 7043,
      "##sdatter": 7044,
      "##anda": 7045,
      "åpenbart": 7046,
      "fat": 7047,
      "dekk": 7048,
      "kommand": 7049,
      "tallene": 7050,
      "rart": 7051,
      "ledelsen": 7052,
      "kategor": 7053,
      "høv": 7054,
      "##ome": 7055,
      "##inntekt": 7056,
      "##entering": 7057,
      "antar": 7058,
      "tilrett": 7059,
      "born": 7060,
      "butikken": 7061,
      "eventuelle": 7062,
      "##ij": 7063,
      "rig": 7064,
      "1965": 7065,
      "##anne": 7066,
      "##kanten": 7067,
      "kunder": 7068,
      "gjenopp": 7069,
      "nic": 7070,
      "##cher": 7071,
      "hydro": 7072,
      "##send": 7073,
      "##førsel": 7074,
      "##bolig": 7075,
      "misten": 7076,
      "##stiden": 7077,
      "kaste": 7078,
      "oppford": 7079,
      "pur": 7080,
      "##iskop": 7081,
      "dets": 7082,
      "dialog": 7083,
      "kristin": 7084,
      "##fullt": 7085,
      "##ient": 7086,
      "##akere": 7087,
      "##cted": 7088,
      "passasjer": 7089,
      "##ail": 7090,
      "sykehuset": 7091,
      "leverand": 7092,
      "##jeneste": 7093,
      "##udsjett": 7094,
      "planlegging": 7095,
      "offer": 7096,
      "betaling": 7097,
      "bevegelse": 7098,
      "##vesenet": 7099,
      "home": 7100,
      "##elag": 7101,
      "italia": 7102,
      "engasjem": 7103,
      "sorg": 7104,
      "grø": 7105,
      "##elsens": 7106,
      "sla": 7107,
      "konfer": 7108,
      "1967": 7109,
      "##atikk": 7110,
      "champ": 7111,
      "kjøret": 7112,
      "##arbeidere": 7113,
      "rådet": 7114,
      "sti": 7115,
      "dominer": 7116,
      "##ova": 7117,
      "eiendommen": 7118,
      "sendes": 7119,
      "gol": 7120,
      "##utvalget": 7121,
      "infl": 7122,
      "nåværende": 7123,
      "indust": 7124,
      "##fen": 7125,
      "##budet": 7126,
      "kandid": 7127,
      "radi": 7128,
      "tradisjonelle": 7129,
      "bun": 7130,
      "treffe": 7131,
      "gleder": 7132,
      "endte": 7133,
      "takt": 7134,
      "house": 7135,
      "kritikk": 7136,
      "komedie": 7137,
      "motiver": 7138,
      "##sky": 7139,
      "lyden": 7140,
      "##komst": 7141,
      "##strekning": 7142,
      "ki": 7143,
      "landene": 7144,
      "such": 7145,
      "gifte": 7146,
      "##forskning": 7147,
      "karen": 7148,
      "##hing": 7149,
      "intro": 7150,
      "nik": 7151,
      "telefonen": 7152,
      "byens": 7153,
      "sandnes": 7154,
      "nyhetene": 7155,
      "##inder": 7156,
      "samisk": 7157,
      "lykke": 7158,
      "##ommen": 7159,
      "telemark": 7160,
      "lut": 7161,
      "kors": 7162,
      "fingrene": 7163,
      "hammer": 7164,
      "bygges": 7165,
      "##ktige": 7166,
      "rune": 7167,
      "##båt": 7168,
      "vurdert": 7169,
      "bestemmelsene": 7170,
      "##ek": 7171,
      "sekund": 7172,
      "internett": 7173,
      "hittil": 7174,
      "1930": 7175,
      "innov": 7176,
      "1968": 7177,
      "forvir": 7178,
      "geograf": 7179,
      "stasjon": 7180,
      "stram": 7181,
      "spenning": 7182,
      "planlagt": 7183,
      "##arn": 7184,
      "skrå": 7185,
      "##onger": 7186,
      "fysiske": 7187,
      "front": 7188,
      "dagbladet": 7189,
      "brudd": 7190,
      "theory": 7191,
      "tilfellet": 7192,
      "åpning": 7193,
      "selskaper": 7194,
      "representanter": 7195,
      "ond": 7196,
      "ran": 7197,
      "##stjeneste": 7198,
      "##ful": 7199,
      "vinden": 7200,
      "##artet": 7201,
      "##smenn": 7202,
      "kreves": 7203,
      "##elin": 7204,
      "##steder": 7205,
      "tjener": 7206,
      ".),": 7207,
      "1920": 7208,
      "allmenn": 7209,
      "kristus": 7210,
      "forening": 7211,
      "jød": 7212,
      "husket": 7213,
      "dron": 7214,
      "##kjer": 7215,
      "##opper": 7216,
      "retur": 7217,
      "##sene": 7218,
      "##chn": 7219,
      "hat": 7220,
      "ild": 7221,
      "##sla": 7222,
      "forsøke": 7223,
      "rasjon": 7224,
      "kina": 7225,
      "##oger": 7226,
      "bob": 7227,
      "ordfør": 7228,
      "##usk": 7229,
      "atom": 7230,
      "rolf": 7231,
      "prat": 7232,
      "##fta": 7233,
      "grundig": 7234,
      "kompon": 7235,
      "##esse": 7236,
      "døgn": 7237,
      "tunn": 7238,
      ">>\"\"": 7239,
      "jose": 7240,
      "##ison": 7241,
      "vakker": 7242,
      "divisjon": 7243,
      "prinsippet": 7244,
      "hytte": 7245,
      "støy": 7246,
      "stockholm": 7247,
      "forsto": 7248,
      "produksjonen": 7249,
      "##mos": 7250,
      "##ikler": 7251,
      "flat": 7252,
      "##økonom": 7253,
      "sigurd": 7254,
      "solberg": 7255,
      "forsøker": 7256,
      "stiv": 7257,
      "overl": 7258,
      "mac": 7259,
      "suksess": 7260,
      "veiledning": 7261,
      "##blikket": 7262,
      "hyp": 7263,
      "##inte": 7264,
      "historiske": 7265,
      "opprinnelig": 7266,
      "situasjoner": 7267,
      "nordiske": 7268,
      "spen": 7269,
      "foreslått": 7270,
      "##ktivt": 7271,
      "eksisterende": 7272,
      "gjere": 7273,
      "##yse": 7274,
      "slutte": 7275,
      "karri": 7276,
      "dun": 7277,
      "levert": 7278,
      "bit": 7279,
      "kaldt": 7280,
      "verdien": 7281,
      "##byggere": 7282,
      "##snes": 7283,
      "170": 7284,
      "henholdsvis": 7285,
      "daniel": 7286,
      "##sløs": 7287,
      "faglige": 7288,
      "##ari": 7289,
      "fordelt": 7290,
      "endel": 7291,
      "prin": 7292,
      "bekymret": 7293,
      "revolusjon": 7294,
      "##lement": 7295,
      "tilfeldig": 7296,
      "nevnes": 7297,
      "##alb": 7298,
      "heldigvis": 7299,
      "heime": 7300,
      "##lim": 7301,
      "##xt": 7302,
      "feir": 7303,
      "##engte": 7304,
      "kvad": 7305,
      "##wood": 7306,
      "låne": 7307,
      "totale": 7308,
      "forplikt": 7309,
      "##\"\"\"": 7310,
      "##vanlig": 7311,
      "##fatt": 7312,
      "long": 7313,
      "inngår": 7314,
      "##elling": 7315,
      "fon": 7316,
      "friluft": 7317,
      "##talen": 7318,
      "##ikkelen": 7319,
      "##ifor": 7320,
      "holdes": 7321,
      "##oppl": 7322,
      "##iest": 7323,
      "sola": 7324,
      "psykisk": 7325,
      "kontrol": 7326,
      "møl": 7327,
      "utføre": 7328,
      "172": 7329,
      "aksept": 7330,
      "##but": 7331,
      "grader": 7332,
      "døm": 7333,
      "tilby": 7334,
      "es": 7335,
      "##ience": 7336,
      "##kja": 7337,
      "lou": 7338,
      "tide": 7339,
      "romant": 7340,
      "##lund": 7341,
      "skipet": 7342,
      "rab": 7343,
      "##makt": 7344,
      "##irektør": 7345,
      "forholdsvis": 7346,
      "bistand": 7347,
      "behandlingen": 7348,
      "starten": 7349,
      "tilfreds": 7350,
      "dimensjon": 7351,
      "most": 7352,
      "##ai": 7353,
      "fris": 7354,
      "terror": 7355,
      "klage": 7356,
      "leilighet": 7357,
      "identitet": 7358,
      "##skjer": 7359,
      "teoret": 7360,
      "avsluttet": 7361,
      "morgenen": 7362,
      "mari": 7363,
      "bered": 7364,
      "øya": 7365,
      "deil": 7366,
      "##ologien": 7367,
      "mit": 7368,
      "##ism": 7369,
      "vor": 7370,
      "romer": 7371,
      "kysten": 7372,
      "følg": 7373,
      "troll": 7374,
      "##ieren": 7375,
      "konsul": 7376,
      "hage": 7377,
      "##ou": 7378,
      "##naden": 7379,
      "700": 7380,
      "opph": 7381,
      "guttene": 7382,
      "særskilt": 7383,
      "flyt": 7384,
      "##gjøring": 7385,
      "finland": 7386,
      "##nu": 7387,
      "flam": 7388,
      "##eleder": 7389,
      "##bb": 7390,
      "only": 7391,
      "diagn": 7392,
      "austral": 7393,
      "skjul": 7394,
      "samtlige": 7395,
      "kommunestyret": 7396,
      "1966": 7397,
      "##institusjon": 7398,
      "166": 7399,
      "ødeleg": 7400,
      "avgjøre": 7401,
      "bestand": 7402,
      "##orge": 7403,
      "miste": 7404,
      "jag": 7405,
      "intens": 7406,
      "liste": 7407,
      "klassen": 7408,
      "feltet": 7409,
      "##likevel": 7410,
      "egenskaper": 7411,
      "melder": 7412,
      "sprang": 7413,
      "toget": 7414,
      "røn": 7415,
      "lykkes": 7416,
      "skand": 7417,
      "##hengen": 7418,
      "equ": 7419,
      "##endt": 7420,
      "rt": 7421,
      "utbred": 7422,
      "sint": 7423,
      "##edyr": 7424,
      "føres": 7425,
      "##ict": 7426,
      "antallet": 7427,
      "##utvik": 7428,
      "fett": 7429,
      "opphe": 7430,
      "dagsnytt": 7431,
      "gjenstand": 7432,
      "molde": 7433,
      "modern": 7434,
      "banen": 7435,
      "##ath": 7436,
      "overh": 7437,
      "##ides": 7438,
      "##ini": 7439,
      "hamar": 7440,
      "mind": 7441,
      "##spekt": 7442,
      "eksper": 7443,
      "staden": 7444,
      "##kkelen": 7445,
      "reager": 7446,
      "vendte": 7447,
      "medlemmene": 7448,
      "helset": 7449,
      "motsetning": 7450,
      "coun": 7451,
      "##lek": 7452,
      "allikevel": 7453,
      "journalist": 7454,
      "##atert": 7455,
      "ukjent": 7456,
      "greie": 7457,
      "gas": 7458,
      "##sekret": 7459,
      "maa": 7460,
      "first": 7461,
      "parkering": 7462,
      "mikro": 7463,
      "brem": 7464,
      "bærer": 7465,
      "hjemmel": 7466,
      "storbritannia": 7467,
      "britiske": 7468,
      "ens": 7469,
      "unnskyld": 7470,
      "synspunkt": 7471,
      "##bra": 7472,
      "##egrupp": 7473,
      "##fun": 7474,
      "enden": 7475,
      "##anna": 7476,
      "##ging": 7477,
      "util": 7478,
      "klin": 7479,
      "overtok": 7480,
      "moss": 7481,
      "fler": 7482,
      "verkst": 7483,
      "heg": 7484,
      "into": 7485,
      "##ksp": 7486,
      "##felle": 7487,
      "hvisket": 7488,
      "kaptein": 7489,
      "takket": 7490,
      "brystet": 7491,
      "typisk": 7492,
      "likt": 7493,
      "vegne": 7494,
      "tw": 7495,
      "sverre": 7496,
      "##cis": 7497,
      "militære": 7498,
      "gratulerer": 7499,
      "matem": 7500,
      "##ason": 7501,
      "pusten": 7502,
      "##sig": 7503,
      "##byrå": 7504,
      "university": 7505,
      "##utdanning": 7506,
      "vell": 7507,
      "pause": 7508,
      "kull": 7509,
      "##ypt": 7510,
      "##ligheten": 7511,
      "københavn": 7512,
      "forny": 7513,
      "##jo": 7514,
      "rektor": 7515,
      "lud": 7516,
      "pus": 7517,
      "finger": 7518,
      "elsket": 7519,
      "##enny": 7520,
      "glemt": 7521,
      "##punkter": 7522,
      "riktignok": 7523,
      "##osjon": 7524,
      "##meng": 7525,
      "arranger": 7526,
      "##været": 7527,
      "hull": 7528,
      "##bytte": 7529,
      "gun": 7530,
      "trur": 7531,
      "##ifik": 7532,
      "tverr": 7533,
      "##ålmod": 7534,
      "hær": 7535,
      "##arer": 7536,
      "##uddet": 7537,
      "samferd": 7538,
      "riks": 7539,
      "eva": 7540,
      "fylkesmannen": 7541,
      "kim": 7542,
      "173": 7543,
      "aktivt": 7544,
      "##sport": 7545,
      "undert": 7546,
      "rogaland": 7547,
      "repar": 7548,
      "enor": 7549,
      "ledere": 7550,
      "1964": 7551,
      "betegn": 7552,
      "##umet": 7553,
      "oks": 7554,
      "banken": 7555,
      "##imer": 7556,
      "##rup": 7557,
      "gaten": 7558,
      "oft": 7559,
      "ansett": 7560,
      "temmelig": 7561,
      "facebook": 7562,
      "fed": 7563,
      "forutsetning": 7564,
      "##18": 7565,
      "omstend": 7566,
      "mengde": 7567,
      "por": 7568,
      "##eliv": 7569,
      "##vernet": 7570,
      "kilder": 7571,
      "spec": 7572,
      "arbeiderpartiet": 7573,
      "talt": 7574,
      "wa": 7575,
      "##gress": 7576,
      "viking": 7577,
      "merkelig": 7578,
      "umiddelbart": 7579,
      "##kultur": 7580,
      "pekte": 7581,
      "metode": 7582,
      "musikken": 7583,
      "##nep": 7584,
      "utstrekning": 7585,
      "##bred": 7586,
      "org": 7587,
      "##lesund": 7588,
      "forskrifter": 7589,
      "where": 7590,
      "forskjellen": 7591,
      "speil": 7592,
      "##????": 7593,
      "##yting": 7594,
      "omtalt": 7595,
      "sittende": 7596,
      "fukt": 7597,
      "##lu": 7598,
      "##allfall": 7599,
      "even": 7600,
      "##legges": 7601,
      "lyder": 7602,
      "naar": 7603,
      "rasmus": 7604,
      "##lagte": 7605,
      "luks": 7606,
      "søvn": 7607,
      "ess": 7608,
      "##bre": 7609,
      "verdt": 7610,
      "##agasin": 7611,
      "beskrevet": 7612,
      "drammen": 7613,
      "innflytelse": 7614,
      "##illes": 7615,
      "liggende": 7616,
      "møre": 7617,
      "##15": 7618,
      "krim": 7619,
      "handlinger": 7620,
      "##penger": 7621,
      "sss": 7622,
      "boliger": 7623,
      "etablere": 7624,
      "presidenten": 7625,
      "##rip": 7626,
      "skyte": 7627,
      "##bygd": 7628,
      "rødt": 7629,
      "anvende": 7630,
      "##grid": 7631,
      "%.": 7632,
      "##veren": 7633,
      "elisabeth": 7634,
      "prinsipp": 7635,
      "james": 7636,
      "900": 7637,
      "komment": 7638,
      "dokumenter": 7639,
      "##dommer": 7640,
      "aas": 7641,
      "holdning": 7642,
      "verdenskrig": 7643,
      "##slutning": 7644,
      "##handlingen": 7645,
      "gust": 7646,
      "##boka": 7647,
      "##skapen": 7648,
      "##sdepartementet": 7649,
      "vokste": 7650,
      "##isser": 7651,
      "fersk": 7652,
      "befolkning": 7653,
      "pin": 7654,
      "uen": 7655,
      "partner": 7656,
      "##viser": 7657,
      "##innene": 7658,
      "legen": 7659,
      "assist": 7660,
      "utbygg": 7661,
      "##sdagen": 7662,
      "borg": 7663,
      "bergens": 7664,
      "cas": 7665,
      "elles": 7666,
      "bul": 7667,
      "medfører": 7668,
      "nevne": 7669,
      "##ørte": 7670,
      "etterspør": 7671,
      "dannet": 7672,
      "fange": 7673,
      "##jeg": 7674,
      "##16": 7675,
      "aka": 7676,
      "roman": 7677,
      "kalde": 7678,
      "asyl": 7679,
      "##repren": 7680,
      "onkel": 7681,
      "national": 7682,
      "overrasket": 7683,
      "egnet": 7684,
      "knytte": 7685,
      "inspir": 7686,
      "inviter": 7687,
      "##staden": 7688,
      "uttrykket": 7689,
      "development": 7690,
      "synlig": 7691,
      "ingrid": 7692,
      "angel": 7693,
      "engelske": 7694,
      "null": 7695,
      "anvendelse": 7696,
      "alvorlige": 7697,
      "##lad": 7698,
      "##etak": 7699,
      "omsetning": 7700,
      "diff": 7701,
      "veter": 7702,
      "period": 7703,
      "områdene": 7704,
      "beskriver": 7705,
      "##atsen": 7706,
      "tomm": 7707,
      "##aktivitet": 7708,
      "pent": 7709,
      "loc": 7710,
      "lød": 7711,
      "innkjøp": 7712,
      "well": 7713,
      "unntatt": 7714,
      "petro": 7715,
      "##uel": 7716,
      "fordeling": 7717,
      "ingeborg": 7718,
      "##ied": 7719,
      "....": 7720,
      "##19": 7721,
      "hvorvidt": 7722,
      "bens": 7723,
      "bade": 7724,
      "mottatt": 7725,
      "perm": 7726,
      "shall": 7727,
      "##domm": 7728,
      "magen": 7729,
      "dato": 7730,
      "gråt": 7731,
      "lem": 7732,
      "nyttig": 7733,
      "gjennem": 7734,
      "##minister": 7735,
      "retningslinjer": 7736,
      "tapt": 7737,
      "eksist": 7738,
      "tilhører": 7739,
      "##ree": 7740,
      "##bak": 7741,
      "##ierne": 7742,
      "bytte": 7743,
      "##appar": 7744,
      "terreng": 7745,
      "innbygger": 7746,
      "1961": 7747,
      "skjeb": 7748,
      "##ya": 7749,
      "kommunens": 7750,
      "who": 7751,
      "##løse": 7752,
      "kapasitet": 7753,
      "internasjonalt": 7754,
      "bildene": 7755,
      "iverks": 7756,
      "oblig": 7757,
      "##ads": 7758,
      "bemer": 7759,
      "cro": 7760,
      "helgen": 7761,
      "trist": 7762,
      "utvidet": 7763,
      "eksterne": 7764,
      "##bot": 7765,
      "utenlandske": 7766,
      "air": 7767,
      "##ira": 7768,
      "##blemer": 7769,
      "nødvendigvis": 7770,
      "##inke": 7771,
      "utkast": 7772,
      "kritisk": 7773,
      "oppfølging": 7774,
      "jonas": 7775,
      "huden": 7776,
      "saksbe": 7777,
      "engasj": 7778,
      "vesle": 7779,
      "medan": 7780,
      "flotte": 7781,
      "kamper": 7782,
      "russiske": 7783,
      "dårlige": 7784,
      "kriter": 7785,
      "innført": 7786,
      "stillinger": 7787,
      "forstyr": 7788,
      "gjennomgå": 7789,
      "##æv": 7790,
      "trygt": 7791,
      "ål": 7792,
      "miljøet": 7793,
      "##bur": 7794,
      "utst": 7795,
      "bakover": 7796,
      "right": 7797,
      "bri": 7798,
      "##slå": 7799,
      "jurid": 7800,
      "sakene": 7801,
      "trav": 7802,
      "høve": 7803,
      "begj": 7804,
      "bert": 7805,
      "##eten": 7806,
      "rid": 7807,
      "##givning": 7808,
      "stolen": 7809,
      "mangfold": 7810,
      "kristoffer": 7811,
      "aksjer": 7812,
      "##film": 7813,
      "synet": 7814,
      "##lam": 7815,
      "innh": 7816,
      "lovens": 7817,
      "stillingen": 7818,
      "##lingene": 7819,
      "skum": 7820,
      "møtes": 7821,
      "##cent": 7822,
      "life": 7823,
      "utenom": 7824,
      "aa": 7825,
      "påvirke": 7826,
      "dekning": 7827,
      "revisjon": 7828,
      "##uv": 7829,
      "##fang": 7830,
      "distrib": 7831,
      "virksom": 7832,
      "modellen": 7833,
      "##valt": 7834,
      "bakke": 7835,
      "hustru": 7836,
      "##renn": 7837,
      "##iff": 7838,
      "tilbudet": 7839,
      "##iem": 7840,
      "##ungen": 7841,
      "skiller": 7842,
      "eriksen": 7843,
      "##ården": 7844,
      "hellig": 7845,
      "tidssk": 7846,
      "kreditt": 7847,
      "språket": 7848,
      "##fallet": 7849,
      "##kkert": 7850,
      "evangel": 7851,
      "plante": 7852,
      "opplevelse": 7853,
      "##kampen": 7854,
      "kjørt": 7855,
      "##alderen": 7856,
      "sho": 7857,
      "utslipp": 7858,
      "arrangem": 7859,
      "##edel": 7860,
      "##retten": 7861,
      "iii": 7862,
      "##sborg": 7863,
      "kines": 7864,
      "##drift": 7865,
      "vende": 7866,
      "##ivalen": 7867,
      "alders": 7868,
      "ulov": 7869,
      "##//": 7870,
      "nark": 7871,
      "##12": 7872,
      "fylte": 7873,
      "vanskelige": 7874,
      "vilt": 7875,
      "samband": 7876,
      "avtaler": 7877,
      "idag": 7878,
      "tingene": 7879,
      "iallfall": 7880,
      "ålesund": 7881,
      "skapte": 7882,
      "erling": 7883,
      ",\"\"\"\"": 7884,
      "harry": 7885,
      "hevdet": 7886,
      "##slått": 7887,
      "rat": 7888,
      "rollene": 7889,
      "major": 7890,
      "sene": 7891,
      "glade": 7892,
      "elva": 7893,
      "##inav": 7894,
      "koll": 7895,
      "vidar": 7896,
      "samtykke": 7897,
      "slipper": 7898,
      "institusjoner": 7899,
      "helga": 7900,
      "##ump": 7901,
      "##taket": 7902,
      "punktum": 7903,
      "##bor": 7904,
      "eirik": 7905,
      "##spar": 7906,
      "harde": 7907,
      "helvet": 7908,
      "1962": 7909,
      "1946": 7910,
      "nyg": 7911,
      "##uta": 7912,
      "##hv": 7913,
      "##itor": 7914,
      "melde": 7915,
      "oppgaven": 7916,
      "lie": 7917,
      "##cus": 7918,
      "løpe": 7919,
      "nådde": 7920,
      "indi": 7921,
      "nys": 7922,
      "henry": 7923,
      "kontroller": 7924,
      "sekunder": 7925,
      "##egler": 7926,
      "gab": 7927,
      "##stiller": 7928,
      "##ned": 7929,
      "aktive": 7930,
      "##ters": 7931,
      "##onen": 7932,
      "##hor": 7933,
      "opplevde": 7934,
      "avgrens": 7935,
      "betydningen": 7936,
      "metoder": 7937,
      "horn": 7938,
      "different": 7939,
      "##ioder": 7940,
      "medier": 7941,
      "flytt": 7942,
      "##egang": 7943,
      "barnd": 7944,
      "tillatelse": 7945,
      "good": 7946,
      "øyeblikket": 7947,
      "reform": 7948,
      "##go": 7949,
      "samtalen": 7950,
      "formen": 7951,
      "andres": 7952,
      "glas": 7953,
      "krf": 7954,
      "foretak": 7955,
      "richard": 7956,
      "vokser": 7957,
      "forutsetter": 7958,
      "count": 7959,
      "hjemmet": 7960,
      "søkte": 7961,
      "styring": 7962,
      "##iva": 7963,
      "merker": 7964,
      "ekstrem": 7965,
      "versjon": 7966,
      "tykk": 7967,
      "##bal": 7968,
      "støn": 7969,
      "open": 7970,
      "##egner": 7971,
      "##ibil": 7972,
      "atl": 7973,
      "haugen": 7974,
      "##sons": 7975,
      "110": 7976,
      "løper": 7977,
      "miner": 7978,
      "lengde": 7979,
      "tante": 7980,
      "'.": 7981,
      "trykket": 7982,
      "utnytte": 7983,
      "media": 7984,
      "##kommun": 7985,
      "##fé": 7986,
      "solid": 7987,
      "##side": 7988,
      "##stall": 7989,
      "detaljer": 7990,
      "##kro": 7991,
      "##dis": 7992,
      "løfte": 7993,
      "damp": 7994,
      "lykkelig": 7995,
      "jack": 7996,
      "oppgjør": 7997,
      "akadem": 7998,
      "datteren": 7999,
      "##papir": 8000,
      "##ygger": 8001,
      "skiftet": 8002,
      "##ble": 8003,
      "spiser": 8004,
      "##ico": 8005,
      "giftet": 8006,
      "isb": 8007,
      "aksep": 8008,
      "##ship": 8009,
      "danner": 8010,
      "dl": 8011,
      "##foreningen": 8012,
      "##ssitu": 8013,
      "##tering": 8014,
      "leif": 8015,
      "##boks": 8016,
      "hjalp": 8017,
      "østfold": 8018,
      "etterl": 8019,
      "##terte": 8020,
      "##anden": 8021,
      "##kta": 8022,
      "solgte": 8023,
      "brenne": 8024,
      "broren": 8025,
      "laga": 8026,
      "grens": 8027,
      "techn": 8028,
      "familier": 8029,
      "past": 8030,
      "##anken": 8031,
      "forsøkt": 8032,
      "##elege": 8033,
      "##ula": 8034,
      "stoppe": 8035,
      "buss": 8036,
      "##ansert": 8037,
      "betraktet": 8038,
      "husk": 8039,
      "forbund": 8040,
      "##por": 8041,
      "1963": 8042,
      "run": 8043,
      "pluss": 8044,
      "sb": 8045,
      "1948": 8046,
      "beskrivelse": 8047,
      "biskop": 8048,
      "stengt": 8049,
      "utarbeidet": 8050,
      "##snyheter": 8051,
      "forferd": 8052,
      "##ottet": 8053,
      "overalt": 8054,
      "johnsen": 8055,
      "justis": 8056,
      "##seende": 8057,
      "redaktør": 8058,
      "innbyggere": 8059,
      "case": 8060,
      "skrik": 8061,
      "##90": 8062,
      "diam": 8063,
      "dømt": 8064,
      "styrem": 8065,
      "scenen": 8066,
      "city": 8067,
      "##ulert": 8068,
      "sannheten": 8069,
      "japan": 8070,
      "##fast": 8071,
      "##ila": 8072,
      "fremmede": 8073,
      "dus": 8074,
      "varierer": 8075,
      "berlin": 8076,
      "perfekt": 8077,
      "behandles": 8078,
      "##rerte": 8079,
      "bryll": 8080,
      "bestefar": 8081,
      "],": 8082,
      "bane": 8083,
      "##verks": 8084,
      "##sha": 8085,
      "øog": 8086,
      "##imal": 8087,
      "kåre": 8088,
      "foster": 8089,
      "##ppel": 8090,
      "##verden": 8091,
      "akershus": 8092,
      "isted": 8093,
      "##itten": 8094,
      "rammet": 8095,
      "glemme": 8096,
      "old": 8097,
      "oppgitt": 8098,
      "bruks": 8099,
      "midlertidig": 8100,
      "kjeller": 8101,
      "econom": 8102,
      "jø": 8103,
      "rem": 8104,
      "behøver": 8105,
      "aktører": 8106,
      "##eldige": 8107,
      "state": 8108,
      "sjeld": 8109,
      "frivillige": 8110,
      "##kommer": 8111,
      "foredrag": 8112,
      "fylle": 8113,
      "##svir": 8114,
      "##~~~~~~~~": 8115,
      "atter": 8116,
      "betre": 8117,
      "roy": 8118,
      "after": 8119,
      "måler": 8120,
      "separ": 8121,
      "utføres": 8122,
      "næringslivet": 8123,
      "mengder": 8124,
      "ker": 8125,
      "tyrk": 8126,
      "##gikk": 8127,
      "##egård": 8128,
      "personen": 8129,
      "kalte": 8130,
      "anlegget": 8131,
      "ssss": 8132,
      "##bert": 8133,
      "foll": 8134,
      "analyser": 8135,
      "beholde": 8136,
      "##regn": 8137,
      "lillehammer": 8138,
      "bønn": 8139,
      "gjennomføring": 8140,
      "##rog": 8141,
      "##holdet": 8142,
      "faktorer": 8143,
      "understreker": 8144,
      "##skr": 8145,
      "sper": 8146,
      "smiler": 8147,
      "skriftlig": 8148,
      "forhand": 8149,
      "generell": 8150,
      "mørkt": 8151,
      "selskapets": 8152,
      "daglige": 8153,
      "utdannings": 8154,
      "forresten": 8155,
      "antagelig": 8156,
      "aur": 8157,
      "melk": 8158,
      "serien": 8159,
      "trø": 8160,
      "befinner": 8161,
      "forbundet": 8162,
      "vaske": 8163,
      "cell": 8164,
      "villig": 8165,
      "amund": 8166,
      "bestemmelse": 8167,
      "erver": 8168,
      "##ømm": 8169,
      "faktum": 8170,
      "kjøpes": 8171,
      "##jar": 8172,
      "snur": 8173,
      "##cke": 8174,
      "##result": 8175,
      "##agelse": 8176,
      "spania": 8177,
      "bebo": 8178,
      "forsvaret": 8179,
      "##burg": 8180,
      "nerv": 8181,
      "partic": 8182,
      "trump": 8183,
      "##kne": 8184,
      "song": 8185,
      "hord": 8186,
      "mulighetene": 8187,
      "use": 8188,
      "skøy": 8189,
      "hunden": 8190,
      "mottak": 8191,
      "fond": 8192,
      "nyn": 8193,
      "##verse": 8194,
      "knud": 8195,
      "vurderes": 8196,
      "avfall": 8197,
      "kome": 8198,
      "konsentrasjon": 8199,
      "did": 8200,
      "##ype": 8201,
      "##sretten": 8202,
      "dekker": 8203,
      "rulle": 8204,
      "##ria": 8205,
      "billig": 8206,
      "tvert": 8207,
      "##agram": 8208,
      "##kontoret": 8209,
      "##gs": 8210,
      "tilfredsstillende": 8211,
      "bøyde": 8212,
      "##bjør": 8213,
      "undersøke": 8214,
      "stry": 8215,
      "##bøker": 8216,
      "lengst": 8217,
      "##uth": 8218,
      "klasser": 8219,
      "dokumentarserie": 8220,
      "##hengige": 8221,
      "arab": 8222,
      "skjema": 8223,
      "innan": 8224,
      "betaler": 8225,
      "##ykket": 8226,
      "fenomen": 8227,
      "forbe": 8228,
      "1947": 8229,
      "##omet": 8230,
      "##utstyr": 8231,
      "leke": 8232,
      "beskytte": 8233,
      "lurte": 8234,
      "dyb": 8235,
      "distr": 8236,
      "elver": 8237,
      "slit": 8238,
      "##--": 8239,
      "##bevis": 8240,
      "love": 8241,
      "materialet": 8242,
      "franc": 8243,
      "streng": 8244,
      "wal": 8245,
      "##lir": 8246,
      "##aer": 8247,
      "byer": 8248,
      "forbruk": 8249,
      "passet": 8250,
      "##line": 8251,
      "##moen": 8252,
      "##zen": 8253,
      "elsk": 8254,
      "1956": 8255,
      "160": 8256,
      "georg": 8257,
      "henven": 8258,
      "##høg": 8259,
      "foreslå": 8260,
      "høres": 8261,
      "minnet": 8262,
      "##onser": 8263,
      "turn": 8264,
      "tidlegare": 8265,
      "festet": 8266,
      "fm": 8267,
      "##mater": 8268,
      "frie": 8269,
      "boks": 8270,
      "delte": 8271,
      "deltar": 8272,
      "spurt": 8273,
      "hert": 8274,
      "##su": 8275,
      "##bestemm": 8276,
      "1957": 8277,
      "half": 8278,
      "drag": 8279,
      "##hov": 8280,
      "##blant": 8281,
      "fakta": 8282,
      "spillere": 8283,
      "##tekn": 8284,
      "verktøy": 8285,
      "##idig": 8286,
      "public": 8287,
      "dalen": 8288,
      "lyng": 8289,
      "følelsen": 8290,
      "herred": 8291,
      "skudd": 8292,
      "redaksjon": 8293,
      "fisken": 8294,
      "tour": 8295,
      "disc": 8296,
      "hvitt": 8297,
      "humor": 8298,
      "svake": 8299,
      "herunder": 8300,
      "##kapital": 8301,
      "mess": 8302,
      "romsdal": 8303,
      "elektrisk": 8304,
      "flink": 8305,
      "##isjoner": 8306,
      "danse": 8307,
      "##smidler": 8308,
      "verdif": 8309,
      "gjø": 8310,
      "skuespiller": 8311,
      "##besk": 8312,
      "rekrutter": 8313,
      "soldater": 8314,
      "koster": 8315,
      "##elset": 8316,
      "gammelt": 8317,
      "1939": 8318,
      "##gja": 8319,
      "##rul": 8320,
      "##planen": 8321,
      "paragraf": 8322,
      "##klart": 8323,
      "water": 8324,
      "##esterett": 8325,
      "##itar": 8326,
      "politikere": 8327,
      "kjerne": 8328,
      "sjanse": 8329,
      "bust": 8330,
      "##smøtet": 8331,
      "kyrkje": 8332,
      "problemene": 8333,
      "damer": 8334,
      "barnehagen": 8335,
      "religiøse": 8336,
      "personal": 8337,
      "antas": 8338,
      "gym": 8339,
      "liber": 8340,
      "spring": 8341,
      "ordentlig": 8342,
      "##oline": 8343,
      "begrav": 8344,
      "##åsen": 8345,
      "konsekvens": 8346,
      "1949": 8347,
      "organisert": 8348,
      "symptom": 8349,
      "##17": 8350,
      "##splassen": 8351,
      "jim": 8352,
      "##meter": 8353,
      "##ness": 8354,
      "##språk": 8355,
      "##iert": 8356,
      "lod": 8357,
      "blind": 8358,
      "spørsmålene": 8359,
      "rammer": 8360,
      "fangst": 8361,
      "skjønt": 8362,
      "luksus": 8363,
      "vegg": 8364,
      "##pensjon": 8365,
      "opprør": 8366,
      "eik": 8367,
      "gjester": 8368,
      "##svik": 8369,
      "##smynd": 8370,
      "eksem": 8371,
      "##marks": 8372,
      "lor": 8373,
      "sida": 8374,
      "process": 8375,
      "naturlige": 8376,
      "dynam": 8377,
      "engasjement": 8378,
      "kvadrat": 8379,
      "mæ": 8380,
      "læreren": 8381,
      "##uset": 8382,
      "##ordet": 8383,
      "alminnelige": 8384,
      "##ivind": 8385,
      "avdel": 8386,
      "##virke": 8387,
      "##klo": 8388,
      "appar": 8389,
      "grand": 8390,
      "ordre": 8391,
      "uka": 8392,
      "##banken": 8393,
      "trappen": 8394,
      "forlot": 8395,
      "flertallet": 8396,
      "##itere": 8397,
      "elven": 8398,
      "##inert": 8399,
      "tegnet": 8400,
      "##nam": 8401,
      "misfor": 8402,
      "##**": 8403,
      "saka": 8404,
      "døy": 8405,
      "kravene": 8406,
      "edu": 8407,
      "##elat": 8408,
      "##spiller": 8409,
      "formålet": 8410,
      "pors": 8411,
      "fordeler": 8412,
      "inner": 8413,
      "opphav": 8414,
      "tabellen": 8415,
      "tran": 8416,
      "tomme": 8417,
      "tilstede": 8418,
      "./": 8419,
      "jud": 8420,
      "##messige": 8421,
      "##rerer": 8422,
      "eøs": 8423,
      "##behov": 8424,
      "domstol": 8425,
      "##iget": 8426,
      "frokost": 8427,
      "relevant": 8428,
      "konsentr": 8429,
      "inngang": 8430,
      "##politikk": 8431,
      "##sve": 8432,
      "drap": 8433,
      "##kunst": 8434,
      "##knad": 8435,
      "hæ": 8436,
      "##issen": 8437,
      "##ordningen": 8438,
      "utstilling": 8439,
      "##splass": 8440,
      "reality": 8441,
      "##industrien": 8442,
      "would": 8443,
      "forleng": 8444,
      "glimt": 8445,
      "fredrikstad": 8446,
      "reduksjon": 8447,
      "united": 8448,
      "porn": 8449,
      "garder": 8450,
      "nederland": 8451,
      "brøt": 8452,
      "aftenposten": 8453,
      "##ines": 8454,
      "1959": 8455,
      "tøy": 8456,
      "##dy": 8457,
      "##rich": 8458,
      "bratt": 8459,
      "eventuell": 8460,
      "##akon": 8461,
      "grunne": 8462,
      "##lyst": 8463,
      "sammenhengen": 8464,
      "##hu": 8465,
      "fremsk": 8466,
      "rock": 8467,
      "##sbet": 8468,
      "spillet": 8469,
      "beina": 8470,
      "nettverk": 8471,
      "utsk": 8472,
      "peke": 8473,
      "##................................": 8474,
      "##amer": 8475,
      "programleder": 8476,
      "##ll": 8477,
      "##ré": 8478,
      "spir": 8479,
      "øverste": 8480,
      "##habil": 8481,
      "innsikt": 8482,
      "forklarte": 8483,
      "##veig": 8484,
      "##gjeld": 8485,
      "kret": 8486,
      "##ialet": 8487,
      "kostnadene": 8488,
      "##13": 8489,
      "gøy": 8490,
      "vennlig": 8491,
      "pannen": 8492,
      "sans": 8493,
      "##14": 8494,
      "##represent": 8495,
      "bryte": 8496,
      "anty": 8497,
      "yn": 8498,
      "##gaard": 8499,
      "hotel": 8500,
      "element": 8501,
      "##uro": 8502,
      "vas": 8503,
      "##hånd": 8504,
      "selvstendig": 8505,
      "egil": 8506,
      "andelen": 8507,
      "mister": 8508,
      "1958": 8509,
      "ekspert": 8510,
      "bredt": 8511,
      "skjøt": 8512,
      "rettss": 8513,
      "statlige": 8514,
      "forskjeller": 8515,
      "vanleg": 8516,
      "].": 8517,
      "##ingsf": 8518,
      "kommende": 8519,
      "smith": 8520,
      "##åd": 8521,
      "mjøl": 8522,
      "##ney": 8523,
      "træ": 8524,
      "##hagen": 8525,
      "law": 8526,
      "##unget": 8527,
      "mumlet": 8528,
      "flor": 8529,
      "sakte": 8530,
      "cre": 8531,
      "##brev": 8532,
      "lise": 8533,
      "forandret": 8534,
      "instrument": 8535,
      "vern": 8536,
      "##reis": 8537,
      "overvå": 8538,
      "##),": 8539,
      "uend": 8540,
      "##vang": 8541,
      "metod": 8542,
      "##prøv": 8543,
      "konkur": 8544,
      "jesu": 8545,
      "##ool": 8546,
      "htt": 8547,
      "ff": 8548,
      "arbeidsmark": 8549,
      "prom": 8550,
      "integr": 8551,
      "protok": 8552,
      "leiligheten": 8553,
      "(<<": 8554,
      "##holt": 8555,
      "##biler": 8556,
      "protest": 8557,
      "konkluder": 8558,
      "##itive": 8559,
      "child": 8560,
      "bosatt": 8561,
      "treff": 8562,
      "haugesund": 8563,
      "adam": 8564,
      "kalk": 8565,
      "fungere": 8566,
      "dar": 8567,
      "eitt": 8568,
      "##erg": 8569,
      "opprinnelige": 8570,
      "1952": 8571,
      "uttalelse": 8572,
      "muligens": 8573,
      "##agere": 8574,
      "tyskerne": 8575,
      "',": 8576,
      "brått": 8577,
      "##sil": 8578,
      "las": 8579,
      "hester": 8580,
      "information": 8581,
      "##asat": 8582,
      "forretnings": 8583,
      "##utvalg": 8584,
      "skulderen": 8585,
      "islam": 8586,
      "119": 8587,
      "klim": 8588,
      "##ript": 8589,
      "dommen": 8590,
      "røyk": 8591,
      "dj": 8592,
      "gjera": 8593,
      "1953": 8594,
      "kortere": 8595,
      "##iew": 8596,
      "sigar": 8597,
      "artikkelen": 8598,
      "seinere": 8599,
      "forutsetninger": 8600,
      "foruten": 8601,
      "##ctions": 8602,
      "##orator": 8603,
      "varsel": 8604,
      "gunst": 8605,
      "##giften": 8606,
      "lofot": 8607,
      "soc": 8608,
      "scene": 8609,
      "point": 8610,
      "##kjennelse": 8611,
      "ødelagt": 8612,
      "høyesterett": 8613,
      "gevin": 8614,
      "bedriftene": 8615,
      "latin": 8616,
      "hilsen": 8617,
      "orient": 8618,
      "seksjon": 8619,
      "##haugen": 8620,
      "##olk": 8621,
      "annan": 8622,
      "##brød": 8623,
      "medføre": 8624,
      "folketryg": 8625,
      "retter": 8626,
      "ille": 8627,
      "truffet": 8628,
      "psy": 8629,
      "faa": 8630,
      "regionale": 8631,
      "gjennomføres": 8632,
      "landskap": 8633,
      "pkt": 8634,
      "sidene": 8635,
      "##sområde": 8636,
      "sånt": 8637,
      "##abl": 8638,
      "forandring": 8639,
      "forfatt": 8640,
      "fyrste": 8641,
      "##irasjon": 8642,
      "reder": 8643,
      "minimum": 8644,
      "##agene": 8645,
      "antak": 8646,
      "tilbyr": 8647,
      "rute": 8648,
      "sug": 8649,
      "spiste": 8650,
      "entrepren": 8651,
      "bern": 8652,
      "taushet": 8653,
      "seie": 8654,
      "1955": 8655,
      "vassdrag": 8656,
      "##nummer": 8657,
      "##isitet": 8658,
      "##arne": 8659,
      "lærte": 8660,
      "posten": 8661,
      "beredskap": 8662,
      "fleks": 8663,
      "##abet": 8664,
      "stilles": 8665,
      "mrs": 8666,
      "##kontor": 8667,
      "1951": 8668,
      "##ran": 8669,
      "nært": 8670,
      "brenn": 8671,
      "##frem": 8672,
      "forekommer": 8673,
      "##ctive": 8674,
      "##40": 8675,
      "##derne": 8676,
      "kniv": 8677,
      "keiser": 8678,
      "##fred": 8679,
      "##ids": 8680,
      "nordre": 8681,
      "ankl": 8682,
      "særleg": 8683,
      "vers": 8684,
      "desto": 8685,
      "brutt": 8686,
      "evig": 8687,
      "fisket": 8688,
      "studio": 8689,
      "##advok": 8690,
      "##idrett": 8691,
      "epis": 8692,
      "bibliotek": 8693,
      "168": 8694,
      "tene": 8695,
      "##gata": 8696,
      "strengt": 8697,
      "distriktsnyheter": 8698,
      "north": 8699,
      "asb": 8700,
      "##øter": 8701,
      "pas": 8702,
      "systematisk": 8703,
      "sammenlignet": 8704,
      "billed": 8705,
      "##sko": 8706,
      "##lete": 8707,
      "stykker": 8708,
      "derved": 8709,
      "thro": 8710,
      "arrest": 8711,
      "blodet": 8712,
      "exper": 8713,
      "##jesel": 8714,
      "##port": 8715,
      "heid": 8716,
      "ballen": 8717,
      "underveis": 8718,
      "frøken": 8719,
      "##klubb": 8720,
      "difor": 8721,
      "målt": 8722,
      "femte": 8723,
      "hul": 8724,
      "lande": 8725,
      "##bod": 8726,
      "##sprosessen": 8727,
      "##uligheter": 8728,
      "pleide": 8729,
      "##unden": 8730,
      "eine": 8731,
      "hotellet": 8732,
      "behandle": 8733,
      "stress": 8734,
      "havne": 8735,
      "vinn": 8736,
      "##ara": 8737,
      "trygde": 8738,
      "regjeringens": 8739,
      "bruket": 8740,
      "skien": 8741,
      "regionen": 8742,
      "vedtaket": 8743,
      "ron": 8744,
      "riktige": 8745,
      "##ago": 8746,
      "130": 8747,
      "katastro": 8748,
      "##ansport": 8749,
      "irrit": 8750,
      "arena": 8751,
      "parter": 8752,
      "##kjøring": 8753,
      "fattige": 8754,
      "kjed": 8755,
      "lede": 8756,
      "særlige": 8757,
      "faktor": 8758,
      "nektet": 8759,
      "skild": 8760,
      "egypt": 8761,
      "sikret": 8762,
      "lurt": 8763,
      "jordbruks": 8764,
      "århundre": 8765,
      "tenn": 8766,
      "##rader": 8767,
      "1500": 8768,
      "sjåfør": 8769,
      "levere": 8770,
      "##spolitikk": 8771,
      "##ani": 8772,
      "##jern": 8773,
      "enklere": 8774,
      "##tere": 8775,
      "##skrav": 8776,
      "aff": 8777,
      "##holdes": 8778,
      "1700": 8779,
      "##organisasjon": 8780,
      "1954": 8781,
      "##sserie": 8782,
      "trafikken": 8783,
      "kjennet": 8784,
      "framfor": 8785,
      "number": 8786,
      "trær": 8787,
      "##gre": 8788,
      "##undret": 8789,
      "vatn": 8790,
      "##aga": 8791,
      "##trol": 8792,
      "fel": 8793,
      "verket": 8794,
      "kunnet": 8795,
      "løsningen": 8796,
      "bibel": 8797,
      "drepe": 8798,
      "kjennskap": 8799,
      "uden": 8800,
      "avgjørelse": 8801,
      "##samlingen": 8802,
      "bena": 8803,
      "##rafikk": 8804,
      "odel": 8805,
      "##litter": 8806,
      "revis": 8807,
      "norden": 8808,
      "dug": 8809,
      "study": 8810,
      "espen": 8811,
      "berge": 8812,
      "prov": 8813,
      "påvirker": 8814,
      "malt": 8815,
      "bygningen": 8816,
      "##styre": 8817,
      "##ati": 8818,
      "##dtr": 8819,
      "nysgjer": 8820,
      "tilretteleg": 8821,
      "##cel": 8822,
      "trang": 8823,
      "støttet": 8824,
      "formiddag": 8825,
      "##kenes": 8826,
      "special": 8827,
      "håndball": 8828,
      "##cker": 8829,
      "overført": 8830,
      "stj": 8831,
      "sjansen": 8832,
      "://": 8833,
      "##kkede": 8834,
      "straffe": 8835,
      "##ople": 8836,
      "forbaus": 8837,
      "doktor": 8838,
      "sul": 8839,
      "##atør": 8840,
      "oppsummer": 8841,
      "##sform": 8842,
      "##driv": 8843,
      "skadet": 8844,
      "##etningen": 8845,
      "kanten": 8846,
      "sau": 8847,
      "halde": 8848,
      "##ants": 8849,
      "alternative": 8850,
      "202": 8851,
      "bygninger": 8852,
      "##nas": 8853,
      "ender": 8854,
      "vedrørende": 8855,
      "...>>": 8856,
      "tilpasset": 8857,
      "fran": 8858,
      "potet": 8859,
      "måltid": 8860,
      "george": 8861,
      "regional": 8862,
      "eksempl": 8863,
      "##ration": 8864,
      "spel": 8865,
      "##udsjettet": 8866,
      "must": 8867,
      "your": 8868,
      "komité": 8869,
      "prøvd": 8870,
      "oppbe": 8871,
      "nyd": 8872,
      "skrek": 8873,
      "black": 8874,
      "fyrst": 8875,
      "##dens": 8876,
      "##umentet": 8877,
      "utgitt": 8878,
      "incre": 8879,
      "automatisk": 8880,
      "##ografi": 8881,
      "##taler": 8882,
      "##ittet": 8883,
      "##olje": 8884,
      "besøkt": 8885,
      "cru": 8886,
      "market": 8887,
      "strategi": 8888,
      "virkelighet": 8889,
      "omset": 8890,
      "betydelige": 8891,
      "angst": 8892,
      "##produs": 8893,
      "1938": 8894,
      "fortvil": 8895,
      "tendens": 8896,
      "roger": 8897,
      "##helm": 8898,
      "alp": 8899,
      "##høy": 8900,
      "sykehjem": 8901,
      "##avdelingen": 8902,
      "planter": 8903,
      "##prisen": 8904,
      "hvile": 8905,
      "gyl": 8906,
      "know": 8907,
      "##ikeren": 8908,
      "kalla": 8909,
      "bull": 8910,
      "them": 8911,
      "##gave": 8912,
      "overføring": 8913,
      "ungdomssk": 8914,
      "pc": 8915,
      "oppnev": 8916,
      "##erence": 8917,
      "##verdige": 8918,
      "##leik": 8919,
      "sjuke": 8920,
      "balanse": 8921,
      "tju": 8922,
      "moro": 8923,
      "inkl": 8924,
      "eksped": 8925,
      "vestfold": 8926,
      "ivrig": 8927,
      "rens": 8928,
      "1936": 8929,
      "urett": 8930,
      "skjen": 8931,
      "gradvis": 8932,
      "vitne": 8933,
      "forfatteren": 8934,
      "noens": 8935,
      "gry": 8936,
      "##irekte": 8937,
      "##bit": 8938,
      "##orsk": 8939,
      "bærum": 8940,
      "stjerner": 8941,
      "cost": 8942,
      "##ican": 8943,
      "sammenlik": 8944,
      "vurderer": 8945,
      "##utere": 8946,
      "ulykke": 8947,
      "slutter": 8948,
      "finansier": 8949,
      "##terer": 8950,
      "##åm": 8951,
      "kapitlet": 8952,
      "henge": 8953,
      "kjend": 8954,
      "rub": 8955,
      "back": 8956,
      "statistisk": 8957,
      "veget": 8958,
      "deleg": 8959,
      "##selskap": 8960,
      "##øra": 8961,
      "##istan": 8962,
      "apote": 8963,
      "ober": 8964,
      "edvard": 8965,
      "hjernen": 8966,
      "times": 8967,
      "##ligt": 8968,
      "unød": 8969,
      "india": 8970,
      "##uf": 8971,
      "##cil": 8972,
      "definer": 8973,
      "stord": 8974,
      "model": 8975,
      "munt": 8976,
      "sees": 8977,
      "##sspør": 8978,
      "tønsberg": 8979,
      "seige": 8980,
      "##test": 8981,
      "howe": 8982,
      "##leum": 8983,
      "kilo": 8984,
      "##rapport": 8985,
      "##nesk": 8986,
      "##æk": 8987,
      "##ykker": 8988,
      "##smålet": 8989,
      "##ianne": 8990,
      "digit": 8991,
      "tjenestem": 8992,
      "kjemp": 8993,
      "##vart": 8994,
      "opplysning": 8995,
      "forøv": 8996,
      "innsk": 8997,
      "stev": 8998,
      "opprettholde": 8999,
      "169": 9000,
      "nasjonalt": 9001,
      "origin": 9002,
      "##hi": 9003,
      "##vika": 9004,
      "regul": 9005,
      "##sjoner": 9006,
      "kjempet": 9007,
      "utgiftene": 9008,
      "##ahl": 9009,
      "forstått": 9010,
      "##idge": 9011,
      "avisa": 9012,
      "investeringer": 9013,
      "studere": 9014,
      "##oo": 9015,
      "##finn": 9016,
      "drog": 9017,
      "nak": 9018,
      "##åter": 9019,
      "##sby": 9020,
      "global": 9021,
      "wc": 9022,
      "skift": 9023,
      "manag": 9024,
      "reklame": 9025,
      "victor": 9026,
      "øyvind": 9027,
      "##verdien": 9028,
      "livsstil": 9029,
      "farten": 9030,
      "øystein": 9031,
      "##elefon": 9032,
      "bøkene": 9033,
      "bernt": 9034,
      "1944": 9035,
      "organisering": 9036,
      "##sforb": 9037,
      "skarp": 9038,
      "okk": 9039,
      "que": 9040,
      "lunsj": 9041,
      "miljøvern": 9042,
      "drøft": 9043,
      "fab": 9044,
      "brede": 9045,
      "smitte": 9046,
      "baker": 9047,
      "##plom": 9048,
      "kontant": 9049,
      "bene": 9050,
      "gule": 9051,
      "svend": 9052,
      "meas": 9053,
      "syr": 9054,
      "uni": 9055,
      "ungene": 9056,
      "commun": 9057,
      "aviser": 9058,
      "skuff": 9059,
      "ane": 9060,
      "##feltet": 9061,
      "way": 9062,
      "administrative": 9063,
      "politikerne": 9064,
      "overgrep": 9065,
      "arendal": 9066,
      "statsråd": 9067,
      "##illing": 9068,
      "dype": 9069,
      "servic": 9070,
      "##isteret": 9071,
      "##åg": 9072,
      "##any": 9073,
      "inf": 9074,
      "konstant": 9075,
      "svakt": 9076,
      "brukere": 9077,
      "støtter": 9078,
      "trag": 9079,
      "##møte": 9080,
      "rud": 9081,
      "##kkelige": 9082,
      "elite": 9083,
      "negativ": 9084,
      "lunde": 9085,
      "125": 9086,
      "##øvet": 9087,
      "sofa": 9088,
      "takke": 9089,
      "meth": 9090,
      "ost": 9091,
      "studentene": 9092,
      "perioder": 9093,
      "167": 9094,
      "##øres": 9095,
      "opptil": 9096,
      "140": 9097,
      "ragnhild": 9098,
      "##stekn": 9099,
      "holdninger": 9100,
      "barnets": 9101,
      "lj": 9102,
      "##enhet": 9103,
      "##oker": 9104,
      "##edom": 9105,
      "anstr": 9106,
      "##sikring": 9107,
      "ah": 9108,
      "petroleum": 9109,
      "educ": 9110,
      "ombord": 9111,
      "fjorden": 9112,
      "##brøt": 9113,
      "forventet": 9114,
      "avde": 9115,
      "##kat": 9116,
      "##ifer": 9117,
      "##arter": 9118,
      "inni": 9119,
      "kollektiv": 9120,
      "vaks": 9121,
      "tax": 9122,
      "repub": 9123,
      "såkalt": 9124,
      "##livet": 9125,
      "##feld": 9126,
      "ligget": 9127,
      "stoffet": 9128,
      "lederen": 9129,
      "##stilte": 9130,
      "uttalte": 9131,
      "påpeker": 9132,
      "sank": 9133,
      "##ano": 9134,
      "hjelpem": 9135,
      "##egne": 9136,
      "melod": 9137,
      "1942": 9138,
      "samarbeide": 9139,
      "trygge": 9140,
      "nøkkel": 9141,
      "##ét": 9142,
      "##odt": 9143,
      "##stasjon": 9144,
      "bundet": 9145,
      "tilsynelat": 9146,
      "pp": 9147,
      "hoppet": 9148,
      "##sfri": 9149,
      "magne": 9150,
      "tydeligvis": 9151,
      "##imen": 9152,
      "##historie": 9153,
      "##avisen": 9154,
      "motsatt": 9155,
      "however": 9156,
      "otto": 9157,
      "##krev": 9158,
      "##ssystemet": 9159,
      "hill": 9160,
      "##lend": 9161,
      "verb": 9162,
      "bege": 9163,
      "##skoler": 9164,
      "för": 9165,
      "##rø": 9166,
      "vunnet": 9167,
      "##preg": 9168,
      "friske": 9169,
      "løv": 9170,
      "kongens": 9171,
      "##ammen": 9172,
      "løst": 9173,
      "##ibliote": 9174,
      "fugl": 9175,
      "overdra": 9176,
      "ncis": 9177,
      "##az": 9178,
      "ther": 9179,
      "##etta": 9180,
      "grønt": 9181,
      "112": 9182,
      "deltakelse": 9183,
      "both": 9184,
      "##odden": 9185,
      "main": 9186,
      "danne": 9187,
      "##vakt": 9188,
      "opptak": 9189,
      "prev": 9190,
      "rede": 9191,
      "##ktøren": 9192,
      "løpende": 9193,
      "maskiner": 9194,
      "##sekretær": 9195,
      "##kons": 9196,
      "##duksjon": 9197,
      "ungdoms": 9198,
      "betong": 9199,
      "holly": 9200,
      "tapte": 9201,
      "mary": 9202,
      "osc": 9203,
      "hevet": 9204,
      "##snyhetene": 9205,
      "##forbundet": 9206,
      "latt": 9207,
      "##osen": 9208,
      "hordaland": 9209,
      "astrid": 9210,
      "##user": 9211,
      "fremfor": 9212,
      "stoffer": 9213,
      "skutt": 9214,
      "##umin": 9215,
      "##utten": 9216,
      "foten": 9217,
      "##kjø": 9218,
      "gut": 9219,
      "deltakerne": 9220,
      "wik": 9221,
      "arild": 9222,
      "bunnen": 9223,
      "takknem": 9224,
      "krem": 9225,
      "plikter": 9226,
      "berit": 9227,
      "gress": 9228,
      "che": 9229,
      "##gården": 9230,
      "##fabr": 9231,
      "dokumentasjon": 9232,
      "##ensasjon": 9233,
      "diverse": 9234,
      "jernbane": 9235,
      "##alth": 9236,
      "forøvrig": 9237,
      "lovet": 9238,
      "##ipend": 9239,
      "angår": 9240,
      "hensiktsmessig": 9241,
      "populære": 9242,
      "statist": 9243,
      "rd": 9244,
      "lenker": 9245,
      "tus": 9246,
      "hypp": 9247,
      "jor": 9248,
      "ryn": 9249,
      "kab": 9250,
      "sarp": 9251,
      "havn": 9252,
      "tilpas": 9253,
      "ze": 9254,
      "forpl": 9255,
      "##viron": 9256,
      "menneskerett": 9257,
      "naz": 9258,
      "ulem": 9259,
      "kulturelle": 9260,
      "generalfor": 9261,
      "ox": 9262,
      "##kko": 9263,
      "alexander": 9264,
      "finst": 9265,
      "effektivt": 9266,
      "people": 9267,
      "should": 9268,
      "##kontroll": 9269,
      "opplevelser": 9270,
      "enke": 9271,
      "eigen": 9272,
      "skolene": 9273,
      "årsaker": 9274,
      "haust": 9275,
      "nøytr": 9276,
      "øverst": 9277,
      "ax": 9278,
      "fu": 9279,
      "investering": 9280,
      "arve": 9281,
      "jernban": 9282,
      "//": 9283,
      "konkurransen": 9284,
      "overskudd": 9285,
      "føttene": 9286,
      "forlate": 9287,
      "##ikerne": 9288,
      "rov": 9289,
      "##splanen": 9290,
      "drakk": 9291,
      "funksjonshem": 9292,
      "kombinasjon": 9293,
      "klassisk": 9294,
      "sult": 9295,
      "tjenesten": 9296,
      "brø": 9297,
      "##uet": 9298,
      "europ": 9299,
      "##vante": 9300,
      "##mas": 9301,
      "##jektiv": 9302,
      "dæ": 9303,
      "vurderinger": 9304,
      "ivaret": 9305,
      "betal": 9306,
      "viktigere": 9307,
      "plate": 9308,
      "##ydde": 9309,
      "aw": 9310,
      "##ky": 9311,
      "krevende": 9312,
      "årlige": 9313,
      "gur": 9314,
      "##rut": 9315,
      "lensmann": 9316,
      "katt": 9317,
      "anska": 9318,
      "overlev": 9319,
      "benytter": 9320,
      "##sch": 9321,
      "olaf": 9322,
      "sjefen": 9323,
      "##ølen": 9324,
      "lete": 9325,
      "ån": 9326,
      "straffes": 9327,
      "høyr": 9328,
      "søkt": 9329,
      "gjennomsnittlig": 9330,
      "flyktninger": 9331,
      "oppfattet": 9332,
      "canada": 9333,
      "##egori": 9334,
      "kristiania": 9335,
      "forkyn": 9336,
      "alta": 9337,
      "##sområdet": 9338,
      "digital": 9339,
      "psykiat": 9340,
      "##bruker": 9341,
      "ml": 9342,
      "##ryter": 9343,
      "environ": 9344,
      "1941": 9345,
      "humør": 9346,
      "##dommen": 9347,
      "favor": 9348,
      "##elov": 9349,
      "standpunkt": 9350,
      "arbeidstaker": 9351,
      "oppført": 9352,
      "##stjenesten": 9353,
      "stang": 9354,
      "fins": 9355,
      "##muse": 9356,
      "komiteens": 9357,
      "nære": 9358,
      "##aktige": 9359,
      "revet": 9360,
      "##spel": 9361,
      "##osten": 9362,
      "1937": 9363,
      "##sats": 9364,
      "isak": 9365,
      "skjønne": 9366,
      "nettet": 9367,
      "steinar": 9368,
      "kino": 9369,
      "rh": 9370,
      "lærar": 9371,
      "our": 9372,
      "frid": 9373,
      "sjokk": 9374,
      "styrer": 9375,
      "pike": 9376,
      "inder": 9377,
      "statistikk": 9378,
      "poteter": 9379,
      "##rommet": 9380,
      "strømmen": 9381,
      "##etre": 9382,
      "kristendom": 9383,
      "deilig": 9384,
      "lurer": 9385,
      "##aserie": 9386,
      "forsam": 9387,
      "king": 9388,
      "##bler": 9389,
      "##ikkerhet": 9390,
      "eksamen": 9391,
      "sommar": 9392,
      "utarbeide": 9393,
      "samla": 9394,
      "underlig": 9395,
      "overraskende": 9396,
      "generasjon": 9397,
      "##folket": 9398,
      "beskrive": 9399,
      "asbjørn": 9400,
      "##avnet": 9401,
      "ih": 9402,
      "##fritt": 9403,
      "helvete": 9404,
      "netto": 9405,
      "##still": 9406,
      "tilsynelatende": 9407,
      "klat": 9408,
      "##assene": 9409,
      "sørget": 9410,
      "hytta": 9411,
      "note": 9412,
      "bryter": 9413,
      "forår": 9414,
      "innover": 9415,
      "ferdige": 9416,
      "relasjon": 9417,
      "inngått": 9418,
      "avslut": 9419,
      "vesentlige": 9420,
      "##ørr": 9421,
      "foreslo": 9422,
      "rettferd": 9423,
      "##følgende": 9424,
      "appro": 9425,
      "skred": 9426,
      "truleg": 9427,
      "##mennes": 9428,
      "##edia": 9429,
      "arbeidslivet": 9430,
      "##sevne": 9431,
      "ever": 9432,
      "pepper": 9433,
      "bibelen": 9434,
      "##løst": 9435,
      "svalb": 9436,
      "arbeidsopp": 9437,
      "mem": 9438,
      "##alla": 9439,
      "skra": 9440,
      "bygging": 9441,
[...]
