{"version":"1.0","truncation":null,"padding":null,"added_tokens":[{"id":0,"special":true,"content":"[PAD]","single_word":false,"lstrip":false,"rstrip":false,"normalized":false},{"id":1,"special":true,"content":"[UNK]","single_word":false,"lstrip":false,"rstrip":false,"normalized":false},{"id":2,"special":true,"content":"[CLS]","single_word":false,"lstrip":false,"rstrip":false,"normalized":false},{"id":3,"special":true,"content":"[SEP]","single_word":false,"lstrip":false,"rstrip":false,"normalized":false},{"id":4,"special":true,"content":"[MASK]","single_word":false,"lstrip":false,"rstrip":false,"normalized":false}],"normalizer":null,"pre_tokenizer":null,"post_processor":null,"decoder":null,"model":{"unk_token":"[UNK]","continuing_subword_prefix":"##","max_input_chars_per_word":100,"vocab":{"[PAD]":0,"[UNK]":1,"[CLS]":2,"[SEP]":3,"[MASK]":4,"\n":5," ":6,"!":7,"\"":8,"#":9,"$":10,"%":11,"&":12,"'":13,"(":14,")":15,"*":16,"+":17,",":18,"-":19,".":20,"/":21,"0":22,"1":23,"2":24,"3":25,"4":26,"5":27,"6":28,"7":29,"8":30,"9":31,":":32,";":33,"<":34,"=":35,">":36,"?":37,"@":38,"A":39,"B":40,"C":41,"D":42,"E":43,"F":44,"G":45,"H":46,"I":47,"J":48,"K":49,"L":50,"M":51,"N":52,"O":53,"P":54,"Q":55,"R":56,"S":57,"T":58,"U":59,"V":60,"W":61,"X":62,"Y":63,"Z":64,"[":65,"\\":66,"]":67,"^":68,"_":69,"`":70,"a":71,"b":72,"c":73,"d":74,"e":75,"f":76,"g":77,"h":78,"i":79,"j":80,"k":81,"l":82,"m":83,"n":84,"o":85,"p":86,"q":87,"r":88,"s":89,"t":90,"u":91,"v":92,"w":93,"x":94,"y":95,"z":96,"{":97,"|":98,"}":99,"~":100,"¢":101,"£":102,"¤":103,"¥":104,"¦":105,"¨":106,"©":107,"ª":108,"¬":109,"®":110,"¯":111,"°":112,"±":113,"²":114,"³":115,"µ":116,"¸":117,"¹":118,"º":119,"¼":120,"½":121,"¾":122,"À":123,"Á":124,"Â":125,"Ã":126,"Ä":127,"Å":128,"Æ":129,"Ç":130,"È":131,"É":132,"Ê":133,"Ë":134,"Ì":135,"Í":136,"Î":137,"Ï":138,"Ð":139,"Ñ":140,"Ò":141,"Ó":142,"Ô":143,"Õ":144,"Ö":145,"×":146,"Ø":147,"Ú":148,"Û":149,"Ü":150,"Þ":151,"ß":152,"à":153,"á":154,"â":155,"ã":156,"ä":157,"å":158,"æ":159,"ç":160,"è":161,"é":162,"ê":163,"ë":164,"ì":165,"í":166,"î":167,"ï":168,"ð":169,"ñ":170,"ò":171,"ó":172,"ô":173,"õ":174,"ö":175,"÷":176,"ø":177,"ù":178,"ú":179,"û":180,"ü":181,"ý":182,"þ":183,"ÿ":184,"Ā":185,"ā":186,"ă":187,"ą":188,"Ć":189,"ć":190,"Č":191,"č":192,"Ď":193,"Đ":194,"đ":195,"ē":196,"ė":197,"Ę":198,"ę":199,"ě":200,"ğ":201,"ġ":202,"ī":203,"İ":204,"ı":205,"ļ":206,"ľ":207,"Ł":208,"ł":209,"ń":210,"ņ":211,"ň":212,"Ŋ":213,"ŋ":214,"Ō":215,"ō":216,"ŏ":217,"ő":218,"Œ":219,"œ":220,"Ř":221,"ř":222,"Ś":223,"ś":224,"Ş":225,"ş":226,"Š":227,"š":228,"Ţ":229,"ţ":230,"ť":231,"ŧ":232,"ū":233,"ŭ":234,"ů":235,"ű":236,"ŷ":237,"ź":238,"Ż":239,"ż":240,"Ž":241,"ž":242,"ſ":243,"Ə":244,"ƒ":245,"ƭ":246,"ư":247,"ǎ":248,"ǐ":249,"ǒ":250,"ǔ":251,"ǫ":252,"ǿ":253,"ș":254,"ț":255,"Ⱥ":256,"Ʌ":257,"ɐ":258,"ɑ":259,"ɔ":260,"ɕ":261,"ə":262,"ɛ":263,"ɣ":264,"ʃ":265,"ʒ":266,"ʲ":267,"ʷ":268,"ʺ":269,"ʻ":270,"ʾ":271,"ʿ":272,"˃":273,"ˇ":274,"ˈ":275,"ː":276,"˚":277,"˜":278,"́":279,"̊":280,"̋":281,"͡":282,"ΐ":283,"Α":284,"Β":285,"Γ":286,"Δ":287,"Ε":288,"Η":289,"Θ":290,"Ι":291,"Κ":292,"Λ":293,"Μ":294,"Ν":295,"Ο":296,"Π":297,"Ρ":298,"Σ":299,"Τ":300,"Υ":301,"Φ":302,"Χ":303,"Ω":304,"ά":305,"έ":306,"ή":307,"ί":308,"α":309,"β":310,"γ":311,"δ":312,"ε":313,"ζ":314,"η":315,"θ":316,"ι":317,"κ":318,"λ":319,"μ":320,"ν":321,"ξ":322,"ο":323,"π":324,"ρ":325,"ς":326,"σ":327,"τ":328,"υ":329,"φ":330,"χ":331,"ω":332,"ό":333,"ύ":334,"ώ":335,"Ѕ":336,"І":337,"А":338,"Б":339,"В":340,"Г":341,"Д":342,"Е":343,"Ж":344,"З":345,"И":346,"К":347,"Л":348,"М":349,"Н":350,"О":351,"П":352,"Р":353,"С":354,"Т":355,"У":356,"Ф":357,"Х":358,"Ц":359,"Ч":360,"Ш":361,"Э":362,"Ю":363,"Я":364,"а":365,"б":366,"в":367,"г":368,"д":369,"е":370,"ж":371,"з":372,"и":373,"й":374,"к":375,"л":376,"м":377,"н":378,"о":379,"п":380,"р":381,"с":382,"т":383,"у":384,"ф":385,"х":386,"ц":387,"ч":388,"ш":389,"щ":390,"ъ":391,"ы":392,"ь":393,"э":394,"ю":395,"я":396,"ё":397,"і":398,"ї":399,"Ґ":400,"Ե":401,"Թ":402,"Խ":403,"Ճ":404,"Պ":405,"Ռ":406,"Վ":407,"ա":408,"ն":409,"ր":410,"ְ":411,"ִ":412,"ַ":413,"ָ":414,"ֹ":415,"ּ":416,"ׁ":417,"א":418,"ב":419,"ד":420,"ה":421,"ו":422,"ז":423,"ח":424,"ט":425,"י":426,"כ":427,"ל":428,"ם":429,"מ":430,"נ":431,"ס":432,"ע":433,"ק":434,"ר":435,"ש":436,"ת":437,"ء":438,"أ":439,"إ":440,"ئ":441,"ا":442,"ب":443,"ة":444,"ت":445,"ث":446,"ج":447,"ح":448,"خ":449,"د":450,"ذ":451,"ر":452,"ز":453,"س":454,"ش":455,"ص":456,"ض":457,"ط":458,"ظ":459,"ع":460,"ف":461,"ق":462,"ك":463,"ل":464,"م":465,"ن":466,"ه":467,"و":468,"ى":469,"ي":470,"پ":471,"ک":472,"گ":473,"ی":474,"क":475,"ग":476,"ज":477,"त":478,"द":479,"न":480,"र":481,"ा":482,"ि":483,"ी":484,"ु":485,"े":486,"्":487,"এ":488,"ন":489,"প":490,"ব":491,"ম":492,"র":493,"স":494,"া":495,"ে":496,"্":497,"১":498,"২":499,"்":500,"ག":501,"ས":502,"ᄐ":503,"ᄣ":504,"ា":505,"ᥱ":506,"Ḥ":507,"ḥ":508,"ṣ":509,"ṭ":510,"ṯ":511,"ạ":512,"ả":513,"ấ":514,"ầ":515,"ẹ":516,"ế":517,"ệ":518,"ị":519,"ố":520,"ồ":521,"ờ":522,"ứ":523,"ự":524,"ἀ":525,"Ἀ":526,"ἐ":527,"ἡ":528,"⁄":529,"⁰":530,"₂":531,"₨":532,"₪":533,"€":534,"℃":535,"℉":536,"™":537,"←":538,"↑":539,"→":540,"↓":541,"↔":542,"↖":543,"⇒":544,"∀":545,"∂":546,"∃":547,"∆":548,"∈":549,"∑":550,"−":551,"∗":552,"∙":553,"√":554,"∞":555,"∧":556,"∨":557,"∫":558,"≈":559,"≤":560,"≥":561,"⊨":562,"⋅":563,"⌚":564,"─":565,"│":566,"█":567,"■":568,"□":569,"▪":570,"▫":571,"▲":572,"△":573,"▶":574,"▸":575,"►":576,"▻":577,"▼":578,"◀":579,"◄":580,"◆":581,"○":582,"●":583,"◗":584,"◦":585,"☀":586,"★":587,"☆":588,"☕":589,"☝":590,"☺":591,"♠":592,"♡":593,"♣":594,"♥":595,"♦":596,"♪":597,"♭":598,"♯":599,"⚫":600,"⚽":601,"✂":602,"✅":603,"✆":604,"✍":605,"✎":606,"✑":607,"✓":608,"✔":609,"✨":610,"✶":611,"✸":612,"❄":613,"❈":614,"❑":615,"❖":616,"❗":617,"❚":618,"❞":619,"❤":620,"❥":621,"➊":622,"➋":623,"➌":624,"➔":625,"➜":626,"➠":627,"➤":628,"➥":629,"➦":630,"➧":631,"⟶":632,"⠀":633,"ⱥ":634,"あ":635,"い":636,"う":637,"え":638,"お":639,"か":640,"が":641,"き":642,"く":643,"け":644,"こ":645,"ご":646,"さ":647,"し":648,"じ":649,"す":650,"せ":651,"そ":652,"た":653,"だ":654,"ち":655,"っ":656,"つ":657,"て":658,"で":659,"と":660,"ど":661,"な":662,"に":663,"の":664,"は":665,"へ":666,"ま":667,"み":668,"め":669,"も":670,"や":671,"よ":672,"ら":673,"り":674,"る":675,"れ":676,"わ":677,"を":678,"ん":679,"ア":680,"ィ":681,"イ":682,"ウ":683,"ェ":684,"エ":685,"オ":686,"カ":687,"ガ":688,"キ":689,"ク":690,"グ":691,"コ":692,"サ":693,"シ":694,"ジ":695,"ス":696,"ズ":697,"セ":698,"タ":699,"チ":700,"ッ":701,"ツ":702,"テ":703,"デ":704,"ト":705,"ド":706,"ナ":707,"ニ":708,"ノ":709,"バ":710,"パ":711,"ビ":712,"フ":713,"ブ":714,"プ":715,"ポ":716,"マ":717,"ム":718,"メ":719,"ャ":720,"ュ":721,"ョ":722,"ヨ":723,"ラ":724,"リ":725,"ル":726,"レ":727,"ロ":728,"ワ":729,"ン":730,"ー":731,"㘀":732,"㠀":733,"㨀":734,"䄀":735,"䈀":736,"䐀":737,"䔀":738,"䘀":739,"䜀":740,"䤀":741,"䬀":742,"䰀":743,"䴀":744,"一":745,"丁":746,"三":747,"上":748,"下":749,"丙":750,"业":751,"东":752,"两":753,"个":754,"中":755,"丹":756,"主":757,"乙":758,"乡":759,"了":760,"亥":761,"产":762,"京":763,"人":764,"今":765,"代":766,"以":767,"伀":768,"会":769,"体":770,"作":771,"使":772,"保":773,"倀":774,"優":775,"入":776,"全":777,"公":778,"共":779,"关":780,"内":781,"况":782,"出":783,"刀":784,"分":785,"切":786,"划":787,"前":788,"务":789,"動":790,"匀":791,"化":792,"区":793,"医":794,"南":795,"县":796,"取":797,"口":798,"古":799,"台":800,"司":801,"吀":802,"合":803,"同":804,"向":805,"和":806,"品":807,"唀":808,"嘀":809,"四":810,"回":811,"国":812,"在":813,"地":814,"坂":815,"城":816,"基":817,"夕":818,"大":819,"太":820,"好":821,"娘":822,"子":823,"安":824,"定":825,"客":826,"家":827,"小":828,"少":829,"尻":830,"山":831,"州":832,"工":833,"市":834,"带":835,"平":836,"年":837,"庄":838,"庚":839,"康":840,"建":841,"待":842,"得":843,"心":844,"怀":845,"思":846,"息":847,"悪":848,"情":849,"愀":850,"戀":851,"戊":852,"戌":853,"成":854,"手":855,"执":856,"报":857,"挀":858,"据":859,"探":860,"搀":861,"攀":862,"支":863,"放":864,"数":865,"文":866,"新":867,"方":868,"族":869,"日":870,"時":871,"智":872,"最":873,"月":874,"有":875,"服":876,"期":877,"未":878,"本":879,"村":880,"来":881,"栀":882,"株":883,"格":884,"桥":885,"椀":886,"業":887,"楼":888,"様":889,"欀":890,"正":891,"歳":892,"氀":893,"民":894,"気":895,"江":896,"河":897,"治":898,"法":899,"洀":900,"派":901,"海":902,"渀":903,"漀":904,"瀀":905,"為":906,"爀":907,"版":908,"物":909,"猀":910,"王":911,"珞":912,"琀":913,"甀":914,"生":915,"用":916,"甲":917,"瘀":918,"癸":919,"白":920,"的":921,"目":922,"真":923,"石":924,"码":925,"礀":926,"社":927,"祖":928,"米":929,"經":930,"自":931,"良":932,"華":933,"藍":934,"行":935,"街":936,"西":937,"要":938,"見":939,"解":940,"言":941,"設":942,"購":943,"质":944,"辛":945,"辞":946,"辰":947,"运":948,"通":949,"道":950,"部":951,"都":952,"量":953,"镇":954,"长":955,"间":956,"阳":957,"陈":958,"院":959,"除":960,"陳":961,"集":962,"霰":963,"风":964,"食":965,"高":966,"魔":967,"공":968,"국":969,"기":970,"동":971,"산":972,"야":973,"어":974,"한":975,"항":976,"️":977,"�":978,"🌟":979,"🎲":980,"🏻":981,"🏼":982,"🏽":983,"🐴":984,"👀":985,"👍":986,"👏":987,"💕":988,"💛":989,"💪":990,"😀":991,"😁":992,"😂":993,"😄":994,"😅":995,"😉":996,"😊":997,"😍":998,"😛":999,"🙁":1000,"🙂":1001,"🙌":1002,"🤗":1003,"🤩":1004,"##e":1005,"##t":1006,"## ":1007,"##v":1008,"##a":1009,"##r":1010,"##i":1011,"##n":1012,"##l":1013,"##d":1014,"##g":1015,"##h":1016,"##s":1017,"##m":1018,"##k":1019,"##p":1020,"##o":1021,"##\n":1022,"##å":1023,"##u":1024,"##ø":1025,"##J":1026,"##æ":1027,"##f":1028,"##b":1029,"##.":1030,"##y":1031,"##F":1032,"##,":1033,"##c":1034,"##è":1035,"##H":1036,"##x":1037,"##S":1038,"##Y":1039,"##T":1040,"##j":1041,"##1":1042,"##7":1043,"##9":1044,"##5":1045,"##D":1046,"##N":1047,"##U":1048,"##M":1049,"##K":1050,"##A":1051,"##>":1052,"##0":1053,"##4":1054,"##8":1055,"##3":1056,"##6":1057,"##/":1058,"##E":1059,"##-":1060,"##@":1061,"##R":1062,"##I":1063,"##L":1064,"##O":1065,"##V":1066,"##)":1067,"##é":1068,"##(":1069,"##?":1070,"##Ø":1071,"##B":1072,"##<":1073,"##G":1074,"##2":1075,"##:":1076,"##!":1077,"##P":1078,"##\"":1079,"##{":1080,"##w":1081,"##C":1082,"##z":1083,"##W":1084,"##'":1085,"##[":1086,"##Å":1087,"##&":1088,"##]":1089,"##q":1090,"##ü":1091,"##™":1092,"##á":1093,"##;":1094,"##*":1095,"##%":1096,"##^":1097,"##Z":1098,"##Æ":1099,"##~":1100,"##=":1101,"##■":1102,"##X":1103,"##ß":1104,"##_":1105,"##ä":1106,"##Ü":1107,"##Q":1108,"##+":1109,"##Ö":1110,"##►":1111,"##●":1112,"##ê":1113,"##®":1114,"##\\":1115,"##ó":1116,"##š":1117,"##|":1118,"##©":1119,"##°":1120,"##đ":1121,"##İ":1122,"##£":1123,"##ö":1124,"##²":1125,"##ç":1126,"##}":1127,"###":1128,"##→":1129,"##ò":1130,"##р":1131,"##и":1132,"##в":1133,"##к":1134,"##а":1135,"##у":1136,"##т":1137,"##е":1138,"##ж":1139,"##д":1140,"##п":1141,"##о":1142,"##ф":1143,"##с":1144,"##м":1145,"##э":1146,"##н":1147,"##ь":1148,"##з":1149,"##г":1150,"##à":1151,"##❞":1152,"##ș":1153,"##í":1154,"##♦":1155,"##±":1156,"##ž":1157,"##🙂":1158,"##¬":1159,"##♠":1160,"##ş":1161,"##ã":1162,"##$":1163,"##€":1164,"##É":1165,"##ë":1166,"##□":1167,"##½":1168,"##ð":1169,"##č":1170,"##ع":1171,"##ب":1172,"##د":1173,"##ا":1174,"##ل":1175,"##ر":1176,"##ح":1177,"##م":1178,"##ن":1179,"##س":1180,"##ز":1181,"##Ä":1182,"##⁄":1183,"##ñ":1184,"##▼":1185,"##œ":1186,"##️":1187,"##⚫":1188,"##➤":1189,"##`":1190,"##ས":1191,"##ག":1192,"##л":1193,"##б":1194,"##я":1195,"##щ":1196,"##й":1197,"##×":1198,"##ï":1199,"##â":1200,"##õ":1201,"##ô":1202,"##ļ":1203,"##Ã":1204,"##¦":1205,"##¸":1206,"##♣":1207,"##Š":1208,"##ʲ":1209,"##↑":1210,"##Ð":1211,"##ō":1212,"##ý":1213,"##Н":1214,"##ŧ":1215,"##Á":1216,"##Î":1217,"##大":1218,"##Œ":1219,"##И":1220,"##М":1221,"##Е":1222,"##А":1223,"##ئ":1224,"##ي":1225,"##ā":1226,"##ī":1227,"##Č":1228,"##♥":1229,"##⚽":1230,"##ŋ":1231,"##¥":1232,"##ż":1233,"##○":1234,"##산":1235,"##ć":1236,"##ł":1237,"##Ž":1238,"##δ":1239,"##⊨":1240,"##ʷ":1241,"##ə":1242,"##÷":1243,"##Ḥ":1244,"##❤":1245,"##💪":1246,"##Ч":1247,"##Ç":1248,"##█":1249,"##Т":1250,"##˚":1251,"##↖":1252,"##Ď":1253,"##λ":1254,"##ά":1255,"##α":1256,"##😉":1257,"##∂":1258,"##̋":1259,"##х":1260,"##ч":1261,"##Г":1262,"##ц":1263,"##ы":1264,"##ě":1265,"##ú":1266,"##È":1267,"##♯":1268,"##♭":1269,"##Ó":1270,"##▪":1271,"##Đ":1272,"##ğ":1273,"##❖":1274,"##ſ":1275,"##ν":1276,"##σ":1277,"##τ":1278,"##ι":1279,"##ο":1280,"##ς":1281,"##Ρ":1282,"##υ":1283,"##β":1284,"##ַ":1285,"##ׁ":1286,"##ע":1287,"##ר":1288,"##ה":1289,"##מ":1290,"##ָ":1291,"##ק":1292,"##ִ":1293,"##י":1294,"##ם":1295,"##ك":1296,"##כ":1297,"##א":1298,"##η":1299,"##ư":1300,"##↔":1301,"##ē":1302,"##�":1303,"##î":1304,"##◄":1305,"##霰":1306,"##▶":1307,"##ı":1308,"##ť":1309,"##π":1310,"##μ":1311,"##ε":1312,"##χ":1313,"##Ê":1314,"##ū":1315,"##∙":1316,"##́":1317,"##Ć":1318,"##þ":1319,"##ę":1320,"##★":1321,"##ة":1322,"##ś":1323,"##ÿ":1324,"##Κ":1325,"##ω":1326,"##ί":1327,"##ζ":1328,"##ř":1329,"##◀":1330,"##ė":1331,"##Ʌ":1332,"##ẹ":1333,"##ấ":1334,"##街":1335,"##道":1336,"##ň":1337,"##ń":1338,"##¤":1339,"##Ú":1340,"##∃":1341,"##❥":1342,"##º":1343,"##😊":1344,"##С":1345,"##≤":1346,"##◗":1347,"##乙":1348,"##楼":1349,"##ù":1350,"##ì":1351,"##Թ":1352,"##Վ":1353,"##Ì":1354,"##³":1355,"##✓":1356,"##😄":1357,"##−":1358,"##Í":1359,"##̊":1360,"##¨":1361,"##と":1362,"##期":1363,"##待":1364,"##し":1365,"##て":1366,"##購":1367,"##入":1368,"##祖":1369,"##Â":1370,"##₂":1371,"##ą":1372,"##ت":1373,"##و":1374,"##ق":1375,"##城":1376,"##族":1377,"##自":1378,"##治":1379,"##县":1380,"##ど":1381,"##ん":1382,"##お":1383,"##月":1384,"##好":1385,"##っ":1386,"##き":1387,"##株":1388,"##会":1389,"##社":1390,"##ב":1391,"##Ò":1392,"##خ":1393,"##ی":1394,"##ج":1395,"##ش":1396,"##ه":1397,"##ف":1398,"##Ґ":1399,"##ʿ":1400,"##Π":1401,"##γ":1402,"##ρ":1403,"##ő":1404,"##ṯ":1405,"##😀":1406,"##ذ":1407,"##ص":1408,"##ى":1409,"##ệ":1410,"##ă":1411,"##ạ":1412,"##ế":1413,"##ồ":1414,"##ố":1415,"##上":1416,"##海":1417,"##辞":1418,"##出":1419,"##版":1420,"##✔":1421,"##✶":1422,"##Ż":1423,"##ʺ":1424,"##😂":1425,"##û":1426,"##南":1427,"##区":1428,"##Ş":1429,"##ш":1430,"##В":1431,"##أ":1432,"##Ε":1433,"##κ":1434,"##έ":1435,"##Ł":1436,"##ź":1437,"##甀":1438,"##猀":1439,"##椀":1440,"##欀":1441,"##愀":1442,"##氀":1443,"##ग":1444,"##ु":1445,"##र":1446,"##ţ":1447,"##ờ":1448,"##ŭ":1449,"##¯":1450,"##◆":1451,"##Д":1452,"##ύ":1453,"##Α":1454,"##О":1455,"##言":1456,"##い":1457,"##ま":1458,"##す":1459,"##ア":1460,"##ン":1461,"##パ":1462,"##マ":1463,"##の":1464,"##子":1465,"##へ":1466,"##プ":1467,"##レ":1468,"##ト":1469,"##に":1470,"##た":1471,"##が":1472,"##も":1473,"##わ":1474,"##か":1475,"##り":1476,"##や":1477,"##く":1478,"##気":1479,"##で":1480,"##内":1481,"##見":1482,"##目":1483,"##良":1484,"##思":1485,"##あ":1486,"##う":1487,"##え":1488,"##だ":1489,"##る":1490,"##な":1491,"##は":1492,"##を":1493,"##れ":1494,"##√":1495,"##ा":1496,"##न":1497,"##क":1498,"##🤗":1499,"##ǐ":1500,"##Û":1501,"##¹":1502,"##Б":1503,"##漀":1504,"##爀":1505,"##琀":1506,"##戀":1507,"##搀":1508,"##ˇ":1509,"##▲":1510,"##品":1511,"##▸":1512,"##丁":1513,"##亥":1514,"##戊":1515,"##ṭ":1516,"##ک":1517,"##گ":1518,"##Φ":1519,"##Δ":1520,"##Ô":1521,"##↓":1522,"##Ю":1523,"##時":1524,"##集":1525,"##ط":1526,"##ņ":1527,"##φ":1528,"##ό":1529,"##有":1530,"##年":1531,"##一":1532,"##数":1533,"##了":1534,"##带":1535,"##来":1536,"##的":1537,"##化":1538,"##्":1539,"##ְ":1540,"##ּ":1541,"##ו":1542,"##ֹ":1543,"##ש":1544,"##😁":1545,"##🐴":1546,"##ầ":1547,"##ả":1548,"##以":1549,"##丙":1550,"##˜":1551,"##Ś":1552,"##Л":1553,"##К":1554,"##Р":1555,"##У":1556,"##Ω":1557,"##∨":1558,"##إ":1559,"##ț":1560,"##ї":1561,"##Ѕ":1562,"##ǔ":1563,"##Ἀ":1564,"##À":1565,"##Ŋ":1566,"##京":1567,"##长":1568,"##江":1569,"##桥":1570,"##👏":1571,"##Υ":1572,"##ƭ":1573,"##Ë":1574,"##▫":1575,"##Þ":1576,"##合":1577,"##Ñ":1578,"##民":1579,"##生":1580,"##放":1581,"##經":1582,"##ث":1583,"##∀":1584,"##支":1585,"##ḥ":1586,"##得":1587,"##˃":1588,"##ǫ":1589,"##Ф":1590,"##ƒ":1591,"##行":1592,"##山":1593,"##主":1594,"##人":1595,"##公":1596,"##リ":1597,"##ス":1598,"##悪":1599,"##魔":1600,"##ח":1601,"##ז":1602,"##ת":1603,"##ל":1604,"##і":1605,"##¾":1606,"##ª":1607,"##¼":1608,"##渀":1609,"##最":1610,"##攀":1611,"##ⱥ":1612,"##Ō":1613,"##村":1614,"##智":1615,"##☆":1616,"##ᥱ":1617,"##≥":1618,"##庄":1619,"##回":1620,"##乡":1621,"##格":1622,"##♪":1623,"##✸":1624,"##个":1625,"##分":1626,"##工":1627,"##Γ":1628,"##Õ":1629,"##ξ":1630,"##❑":1631,"##ǒ":1632,"##🌟":1633,"##ー":1634,"##オ":1635,"##ワ":1636,"##ル":1637,"##ド":1638,"##王":1639,"##様":1640,"##ら":1641,"##イ":1642,"##動":1643,"##こ":1644,"##設":1645,"##定":1646,"##下":1647,"##本":1648,"##心":1649,"##使":1650,"##よ":1651,"##息":1652,"##為":1653,"##さ":1654,"##ち":1655,"##ώ":1656,"##Μ":1657,"##ッ":1658,"##ラ":1659,"##デ":1660,"##キ":1661,"##グ":1662,"##バ":1663,"##エ":1664,"##☺":1665,"##ű":1666,"##成":1667,"##都":1668,"##市":1669,"##安":1670,"##康":1671,"##医":1672,"##院":1673,"##✅":1674,"##派":1675,"##ю":1676,"##⠀":1677,"##辰":1678,"##Х":1679,"##ʒ":1680,"##͡":1681,"##한":1682,"##항":1683,"##공":1684,"##ġ":1685,"##ů":1686,"##石":1687,"##ή":1688,"##Ш":1689,"##阳":1690,"##倀":1691,"##䈀":1692,"##䄀":1693,"##䐀":1694,"##䔀":1695,"##吀":1696,"##嘀":1697,"##䤀":1698,"##唀":1699,"##䘀":1700,"##瘀":1701,"##伀":1702,"##匀":1703,"##←":1704,"##µ":1705,"##ΐ":1706,"##П":1707,"##Я":1708,"##ʾ":1709,"##≈":1710,"##Τ":1711,"##Ο":1712,"##Σ":1713,"##Ν":1714,"##😅":1715,"##Ⱥ":1716,"##ː":1717,"##ד":1718,"##和":1719,"##用":1720,"##据":1721,"##体":1722,"##司":1723,"##运":1724,"##情":1725,"##况":1726,"##务":1727,"##未":1728,"##通":1729,"##食":1730,"##テ":1731,"##ブ":1732,"##ウ":1733,"##そ":1734,"##今":1735,"##日":1736,"##ム":1737,"##ク":1738,"##タ":1739,"##ご":1740,"##🎲":1741,"##া":1742,"##স":1743,"##ম":1744,"##ন":1745,"##্":1746,"##ء":1747,"##划":1748,"##代":1749,"##码":1750,"##℃":1751,"##℉":1752,"##Ι":1753,"##θ":1754,"##⋅":1755,"##∈":1756,"##ľ":1757,"##ʻ":1758,"##方":1759,"##Β":1760,"##ṣ":1761,"##ứ":1762,"##中":1763,"##২":1764,"##এ":1765,"##১":1766,"##ে":1767,"##প":1768,"##ব":1769,"##র":1770,"##ˈ":1771,"##Η":1772,"##Θ":1773,"##Λ":1774,"##∆":1775,"##ュ":1776,"##シ":1777,"##コ":1778,"##め":1779,"##正":1780,"##∫":1781,"##🏼":1782,"##台":1783,"##∞":1784,"##Ե":1785,"##癸":1786,"##甲":1787,"##文":1788,"##全":1789,"##国":1790,"##两":1791,"##间":1792,"##高":1793,"##法":1794,"##三":1795,"##基":1796,"##解":1797,"##执":1798,"##要":1799,"##质":1800,"##作":1801,"##在":1802,"##四":1803,"##报":1804,"##地":1805,"##建":1806,"##З":1807,"##物":1808,"##前":1809,"##カ":1810,"##フ":1811,"##歳":1812,"##み":1813,"##け":1814,"##ポ":1815,"##庚":1816,"##戌":1817,"##辛":1818,"##✆":1819,"##Խ":1820,"##₪":1821,"##🤩":1822,"##∗":1823,"##➜":1824,"##Ճ":1825,"##△":1826,"##挀":1827,"##栀":1828,"##洀":1829,"##藍":1830,"##پ":1831,"##切":1832,"##➥":1833,"##נ":1834,"##❗":1835,"##白":1836,"##ズ":1837,"##業":1838,"##Ə":1839,"##🙌":1840,"##ἡ":1841,"##기":1842,"##ǎ":1843,"##द":1844,"##ज":1845,"##Ę":1846,"##Ř":1847,"##ロ":1848,"##メ":1849,"##ノ":1850,"##新":1851,"##古":1852,"##국":1853,"##어":1854,"##陈":1855,"##👍":1856,"##Ā":1857,"##✎":1858,"##華":1859,"##ビ":1860,"##ض":1861,"##Ц":1862,"##ɕ":1863,"##Э":1864,"##त":1865,"##ि":1866,"##ự":1867,"##💛":1868,"##ᄐ":1869,"##ᄣ":1870,"##І":1871,"##州":1872,"##西":1873,"##真":1874,"##镇":1875,"##东":1876,"##河":1877,"##口":1878,"##平":1879,"##瀀":1880,"##ŏ":1881,"##∧":1882,"##ŷ":1883,"##ी":1884,"##サ":1885,"##Ï":1886,"##ʃ":1887,"##▻":1888,"##ἐ":1889,"##➧":1890,"##ニ":1891,"##ィ":1892,"##䴀":1893,"##䬀":1894,"##㘀":1895,"##ɛ":1896,"##Ţ":1897,"##🏽":1898,"##セ":1899,"##😛":1900,"##🏻":1901,"##Պ":1902,"##䜀":1903,"##─":1904,"##ɑ":1905,"##ɐ":1906,"##家":1907,"##❄":1908,"##Χ":1909,"##ё":1910,"##❚":1911,"##服":1912,"##业":1913,"##探":1914,"##共":1915,"##丹":1916,"##➠":1917,"##ị":1918,"##Ж":1919,"##ャ":1920,"##ǿ":1921,"##少":1922,"##つ":1923,"##取":1924,"##ガ":1925,"##ジ":1926,"##小":1927,"##保":1928,"##்":1929,"##∑":1930,"##珞":1931,"##➋":1932,"##♡":1933,"##ɔ":1934,"##⇒":1935,"##太":1936,"##客":1937,"##せ":1938,"##夕":1939,"##│":1940,"##チ":1941,"##ェ":1942,"##同":1943,"##向":1944,"##じ":1945,"##坂":1946,"##礀":1947,"##㠀":1948,"##刀":1949,"##㨀":1950,"##ἀ":1951,"##☝":1952,"##ɣ":1953,"##े":1954,"##ナ":1955,"##ъ":1956,"##关":1957,"##风":1958,"##ס":1959,"##❈":1960,"##ツ":1961,"##👀":1962,"##✨":1963,"##➊":1964,"##💕":1965,"##陳":1966,"##产":1967,"##手":1968,"##ョ":1969,"##⁰":1970,"##¢":1971,"##ヨ":1972,"##部":1973,"##ր":1974,"##ա":1975,"##ն":1976,"##除":1977,"##量":1978,"##➔":1979,"##ט":1980,"##야":1981,"##동":1982,"##䰀":1983,"##⟶":1984,"##ظ":1985,"##🙁":1986,"##ា":1987,"##娘":1988,"##✂":1989,"##怀":1990,"##😍":1991,"##◦":1992,"##☕":1993,"##✍":1994,"##₨":1995,"##優":1996,"##米":1997,"##☀":1998,"##➌":1999,"##尻":2000,"##Ռ":2001,"##e ":2002,"##en":2003,"##er":2004,"##t ":2005,"##er ":2006,"##g ":2007,"##.\n":2008,"##en ":2009,"##an":2010,"##or":2011,"##in":2012,"##et ":2013,"##, ":2014,"##ar":2015,"##st":2016,"##el":2017,"##å ":2018,"##om":2019,"##i ":2020,"##il":2021,"##et":2022,"##sk":2023,"##ed":2024,"##s ":2025,"##og ":2026,"##for":2027,"##al":2028,"##om ":2029,"##ik":2030,"##a ":2031,"##on":2032,"##de ":2033,"##av":2034,"##un":2035,"##ar ":2036,"##til":2037,"##re":2038,"##li":2039,"##at":2040,"##ing":2041,"##det ":2042,"##ed ":2043,"##te ":2044,"##som ":2045,"##an ":2046,"##til ":2047,"##r ":2048,"##av ":2049,"##id":2050,"##am":2051,"##på ":2052,"##for ":2053,"##. ":2054,"##ikk":2055,"##se":2056,"##ak":2057,"##le":2058,"##at ":2059,"##ol":2060,"##ut":2061,"##d ":2062,"##ør":2063,"##med ":2064,"##pp":2065,"##is":2066,"##le ":2067,"##it":2068,"##be":2069,"##ig":2070,"##as":2071,"##re ":2072,"##enn":2073,"##ag":2074,"##ene ":2075,"##fr":2076,"##em":2077,"##ver":2078,"##inn":2079,"##den ":2080,"##eg ":2081,"##and":2082,"##ing ":2083,"##ad":2084,"##es":2085,"##var ":2086,"##ek":2087,"##e.\n":2088,"##tr":2089,"##ell":2090,"##\"\"":2091,"##har ":2092,"##es ":2093,"##ett":2094,"##opp":2095,"##sp":2096,"##gj":2097,"##ul":2098,"##ikke ":2099,"##iv":2100,"##eg":2101,"##ro":2102,"##sl":2103,"##en.\n":2104,"##ent":2105,"##jon":2106,"##så ":2107,"##ur":2108,"## og ":2109,"##ig ":2110,"##e, ":2111,"##år ":2112,"##ge ":2113,"##ær":2114,"##der":2115,"##o ":2116,"##ok":2117,"##isk":2118,"##br":2119,"##ist":2120,"##ov":2121,"##se ":2122,"##:\n":2123,"##ere ":2124,"##ann":2125,"##00":2126,"##uk":2127,"##og":2128,"##er.\n":2129,"##unn":2130,"##han ":2131,"##omm":2132,"##vil":2133,"##gr":2134,"##us":2135,"##est":2136,"##in ":2137,"##al ":2138,"##sam":2139,"##der ":2140,"##del":2141,"##, og ":2142,"##ning":2143,"##et.\n":2144,"Det ":2145,"##ap":2146,"##fra ":2147,"##ang":2148,"##or ":2149,"##ter":2150,"##men ":2151,"##19":2152,"##- ":2153,"##all":2154,"##ende ":2155,"##år":2156,"##seg ":2157,"##kan ":2158,"##dr":2159,"##hv":2160,"##bl":2161,"##n ":2162,"##kj":2163,"##ir":2164,"##mo":2165,"##en, ":2166,"##u ":2167,"##kr":2168,"##tid":2169,"##jeg ":2170,"##adde ":2171,"##lig":2172,"##un ":2173,"##y ":2174,"##eller ":2175,"##hadde ":2176,"##0 ":2177,"##no":2178,"##ord":2179,"##var":2180,"##im":2181,"##end":2182,"##ens ":2183,"## i ":2184,"##yn":2185,"##ev":2186,"##eng":2187,"##th":2188,"##sm":2189,"##før":2190,"##ter ":2191,"##kl":2192,"##os":2193,"##) ":2194,"- ":2195,"##er, ":2196,"##ette ":2197,"##kon":2198,"##kk":2199,"##vi ":2200,"##fø":2201,"##ne ":2202,"##lit":2203,"##um":2204,"##lig ":2205,"##asjon":2206,"##of":2207,"##bar":2208,"##komm":2209,"##hol":2210,"##if":2211,"##is ":2212,"##> ":2213,"##t.\n":2214,"##ble ":2215,"##ste ":2216,"##str":2217,"##øy":2218,"##pro":2219,"##åt":2220,"##pl":2221,"##sen ":2222,"##het":2223,"##fl":2224,"##yt":2225,"##skj":2226,"##od":2227,"##k ":2228,"##sj":2229,"##hel":2230,"##etter ":2231,"##ei":2232,"##ud":2233,"##yg":2234,"##ved ":2235,"##ot":2236,"##øn":2237,"##skal ":2238,"##t i ":2239,"##pr":2240,"##ill":2241,"##er i ":2242,"##ære ":2243,"##si":2244,"##af":2245,"##du ":2246,"##art":2247,"##el ":2248,"##?\n":2249,"##arbe":2250,"##vil ":2251,"##and ":2252,"##leg":2253,"##enne ":2254,"##de":2255,"##til å ":2256,"##er og ":2257,"##yr":2258,"##att ":2259,"<<":2260,"##over":2261,"##ens":2262,"##res":2263,"##akt":2264,"##ag ":2265,"##<<":2266,"##skap":2267,"## m":2268,"##hun ":2269,"##ingen ":2270,"##ål":2271,"##ans":2272,"##vis":2273,"##også ":2274,"##øk":2275,"##sel":2276,"##et, ":2277,"##st ":2278,"I ":2279,"##tet ":2280,"##sn":2281,"##over ":2282,"##bruk":2283,"##vik":2284,"##ige ":2285,"##per":2286,"##ch":2287,"##on ":2288,"##ut ":2289,"##ett ":2290,"##org":2291,"##ikk ":2292,"##være ":2293,"##dag":2294,"##5 ":2295,"##ning ":2296,"##bli":2297,"##iske ":2298,"##irk":2299,"##sv":2300,"##for å ":2301,"##isk ":2302,"##arbeid":2303,"##a.\n":2304,"##reg":2305,"##rem":2306,"##hj":2307,"\"\n":2308,"##ske ":2309,"##sy":2310,"##ind":2311,"##ort":2312,"##the ":2313,"##ass":2314,"##ef":2315,"##to ":2316,"## av ":2317,"##da ":2318,"##kunn":2319,"##18":2320,"##ant":2321,"##ør ":2322,"##form":2323,"Han ":2324,"##\"\"\n":2325,"##ber":2326,"##und":2327,"##skr":2328,"##sen":2329,"##lik":2330,"##er det ":2331,"##yl":2332,"##kv":2333,"##..":2334,"##bet":2335,"Jeg ":2336,"##St":2337,"##1 ":2338,"##ic":2339,"##rå":2340,"##eld":2341,"##20":2342,"##en av ":2343,"##).\n":2344,"##mer ":2345,"##att":2346,"##)\n":2347,"##ert ":2348,"##mot ":2349,"##enk":2350,"##2 ":2351,"##tak":2352,"<<\n":2353,"##andre ":2354,"##.00":2355,"##blir ":2356,"##led":2357,"##po":2358,"##em ":2359,"##tal":2360,"##me ":2361,"##dette ":2362,"##\"\"\"\"":2363,"##a, ":2364,"##bak":2365,"##men":2366,"##ly":2367,"##lø":2368,"##kunne ":2369,"##ham":2370,"##itt ":2371,"##en og ":2372,"##elig ":2373,"##må ":2374,"##lag":2375,"##>> ":2376,"##ab":2377,"##føl":2378,"##ært ":2379,"##byg":2380,"##er som ":2381,"##stem":2382,"##, men ":2383,"##slik":2384,"##en i ":2385,">> ":2386,"##v ":2387,"##alle ":2388,"##ha ":2389,"##ån":2390,"##ast":2391,"##ke ":2392,"##enn ":2393,"##sid":2394,"##skul":2395,"##lige ":2396,"##els":2397,"##else ":2398,"##med":2399,"##land":2400,"##han":2401,"##ange ":2402,"##ob":2403,"##opp ":2404,"##(r":2405,"##sa ":2406,"##denne ":2407,"##as ":2408,"##ort ":2409,"##hand":2410,"##ok ":2411,"##kt":2412,"Men ":2413,"##at det ":2414,"##ye ":2415,"##alt ":2416,"##noe ":2417,"##; ":2418,"##bare ":2419,"##ine ":2420,"##ang ":2421,"##lem":2422,"##ket ":2423,"##sjon":2424,"##ings":2425,"##ent ":2426,"##ene.\n":2427,"##grunn":2428,"##!\n":2429,"##få ":2430,"##3 ":2431,"##ekt":2432,"##>>":2433,"##ark":2434,"##øv":2435,"##son":2436,"##ug":2437,"##ant ":2438,"##når ":2439,"##of ":2440,"##ion":2441,"##på":2442,"##et i ":2443,"##under":2444,"##gjenn":2445,"##eri":2446,"##er på ":2447,"##red":2448,"De ":2449,"##frem":2450,"##ad ":2451,"##rik":2452,"##fol":2453,"Det er ":2454,"##p ":2455,"##litt ":2456,"##ta ":2457,"##e\n":2458,"##fort":2459,"##man ":2460,"##bil":2461,"##syn":2462,"##hold":2463,"##mer":2464,"##t, ":2465,"##ull":2466,"##iv ":2467,"##val":2468,"##søk":2469,"##sin ":2470,"##ød":2471,"##ykk":2472,"##di":2473,"##virk":2474,"##app":2475,"##rett":2476,"##je ":2477,"##4 ":2478,"##en m":2479,"##sak":2480,"##ho":2481,"##ets ":2482,"##under ":2483,"##ing av ":2484,"##fer":2485,"##gang":2486,"##het ":2487,"##us ":2488,"##sk ":2489,"##tid ":2490,"##17":2491,"##ein ":2492,"##skulle ":2493,"##beg":2494,"##ern":2495,"##ale ":2496,"##far":2497,"##ac":2498,"##s.\n":2499,"##kom ":2500,"##ede ":2501,"##inter":2502,"##stor":2503,"##nor":2504,"##part":2505,"##bli ":2506,"##øt":2507,"##ess":2508,"##eb":2509,"##noen ":2510,"##god":2511,"##rev":2512,"##øm":2513,"##svar":2514,"##ellom ":2515,"##ville ":2516,"##meg ":2517,"##sier ":2518,"##min":2519,"##åp":2520,"##erne ":2521,"##ått ":2522,"##ing.\n":2523,"Vi ":2524,"##det er ":2525,"##vært ":2526,"##6 ":2527,"##liv":2528,"##kommun":2529,"##net ":2530,"Hv":2531,"Den ":2532,"##ei ":2533,"##il ":2534,"##oll":2535,"##op":2536,"##gjør":2537,"##An":2538,"##lev":2539,"##ger ":2540,"##ult":2541,"##mange ":2542,"##dis":2543,"##.3":2544,"##esk":2545,"##ift":2546,"##vid":2547,"##este ":2548,"##finn":2549,"##elig":2550,"##sit":2551,"##S ":2552,"##iste ":2553,"Hun ":2554,"##slik ":2555,"##kom":2556,"##kn":2557,"##pres":2558,"##elle ":2559,"##sik":2560,"##dag ":2561,"##fram":2562,"##ser ":2563,"##est ":2564,"##van":2565,"##før ":2566,"##nå ":2567,"##rekk":2568,"##ster":2569,"##else":2570,"##oss ":2571,"##he":2572,"##igj":2573,"##m ":2574,"##handl":2575,"##all ":2576,"##.\"\"\n":2577,"##stat":2578,"##fj":2579,"##bed":2580,"##hvor ":2581,"##(r) ":2582,"##t og ":2583,"##mann":2584,"##15":2585,"##ra ":2586,"##som":2587,"##erte ":2588,"##ty":2589,"##nær":2590,"##, som ":2591,"##mu":2592,"##klar":2593,"Og ":2594,"##barn":2595,"##menn":2596,"##øl":2597,"En ":2598,"##Nor":2599,"##høy":2600,"##en er ":2601,"##hus":2602,"##inn ":2603,"##upp":2604,"##amm":2605,"##te":2606,"## S":2607,"##- og ":2608,"##go":2609,"##10":2610,"##et og ":2611,"##en\n":2612,"##ive ":2613,"##still":2614,"##hov":2615,"##200":2616,"##ung":2617,"##første ":2618,"##elt ":2619,"##henn":2620,"##slut":2621,"##ene, ":2622,"##en som ":2623,"##får ":2624,"##tig ":2625,"##lang":2626,"##ER":2627,"##akk":2628,"##gi":2629,"##polit":2630,"##unk":2631,"##uten ":2632,"19":2633,"##by":2634,"##ank":2635,"##fikk ":2636,"##bå":2637,"##går ":2638,"##mot":2639,"##ene i ":2640,"##måt":2641,"##lov":2642,"##hva ":2643,"##stil":2644,"##styr":2645,"##1. ":2646,"##gang ":2647,"##7 ":2648,"##16":2649,"##In":2650,"##mellom ":2651,"##et av ":2652,"##dig":2653,"##legg":2654,"Dette ":2655,"##stør":2656,"##Det ":2657,"##ønn":2658,"##dei ":2659,"##satt ":2660,"##elsen ":2661,"##f ":2662,"##sted":2663,"##ip":2664,"##e i ":2665,"##ser":2666,"##ask":2667,"##8 ":2668,"##er for ":2669,"##hver":2670,"##er til ":2671,"##t på ":2672,"##nat":2673,"##e og ":2674,"##,\n":2675,"##tek":2676,"##rist":2677,"##ur ":2678,"##sem":2679,"##hans ":2680,"##jen":2681,"##er med ":2682,"##199":2683,"##øp":2684,"##hør":2685,"##meg":2686,"##dem":2687,"##en til ":2688,"##ell ":2689,"##ori":2690,"##sat":2691,"-- ":2692,"##ost":2693,"##flere ":2694,"##itt":2695,"##he ":2696,"##her":2697,"##h ":2698,"##12":2699,"##au":2700,"##hav":2701,"##isjon":2702,"##ned":2703,"##er en ":2704,"##ep":2705,"##hele ":2706,"##re.\n":2707,"##ion ":2708,"##dom":2709,"##dem ":2710,"##la ":2711,"##Tr":2712,"##gjennom ":2713,"##syk":2714,"##set":2715,"## for ":2716,"##bygg":2717,"##er av ":2718,"##ved":2719,"##utvik":2720,"##dat":2721,"##ener":2722,"##off":2723,"##9 ":2724,"##både ":2725,"##en på ":2726,"##disse ":2727,"##gl":2728,"##fyl":2729,"Det var ":2730,"##samme ":2731,"## som ":2732,"##person":2733,"##alv":2734,"##gikk ":2735,"##ard":2736,"##idl":2737,"##tilbak":2738,"##gå ":2739,"##forb":2740,"##verd":2741,"##hold ":2742,"##nye ":2743,"##står ":2744,"##bo":2745,"##veg":2746,"##hjel":2747,"##yd":2748,"##EN":2749,"##annet ":2750,"##iser":2751,"##det.\n":2752,"##tenk":2753,"##uf":2754,"##at de ":2755,"##fin":2756,"##ein":2757,"##rek":2758,"##ham ":2759,"For ":2760,"##er\n":2761,"##rund":2762,"##ordan ":2763,"##ub":2764,"##områ":2765,"##), ":2766,"##ss":2767,"##vi":2768,"##hen":2769,"##Ar":2770,"##slag":2771,"##at han ":2772,"##seg":2773,"##etter":2774,"##er å ":2775,"##prod":2776,"##store ":2777,"##14":2778,"##kan":2779,"##rep":2780,"##spør":2781,"##sine ":2782,"##gjøre ":2783,"##tok ":2784,"##Jo":2785,"##som er ":2786,"##13":2787,"##vel":2788,"##ned ":2789,"##et på ":2790,"##lær":2791,"##skol":2792,"##ret":2793,"##s, ":2794,"##ny":2795,"##ær ":2796,"##smål":2797,"##folk":2798,"##helt ":2799,"##selv":2800,"##funn":2801,"##amp":2802,"##mil":2803,"##vis ":2804,"##ikkje ":2805,"##begyn":2806,"##mål":2807,"##stad":2808,"##ers ":2809,"St":2810,"##Br":2811,"##ert":2812,"##e, og ":2813,"##ing, ":2814,"##es.\n":2815,">>":2816,"##gjør ":2817,"##les ":2818,"##bestem":2819,"##ec":2820,"##full":2821,"##nyt":2822,"##e på ":2823,"##ma":2824,"##d.\n":2825,"## til ":2826,"##vek":2827,"##mye ":2828,"##r. ":2829,"##lei":2830,"##er ikke ":2831,"##.0":2832,"##var det ":2833,"##tre ":2834,"##blitt ":2835,"##deg ":2836,"## (":2837,"##alt":2838,"##sammen ":2839,"##ement":2840,"##gjel":2841,"##tatt ":2842,"##obb":2843,"##gi ":2844,"##vend":2845,"##ond":2846,"##mat":2847,"##plan":2848,"##skje ":2849,"##ili":2850,"In":2851,"##t av ":2852,"##er at ":2853,"##olog":2854,"##res ":2855,"##så":2856,"##organ":2857,"##hø":2858,"##utvikl":2859,"##leng":2860,"##e til ":2861,"##grupp":2862,"##itet":2863,"##en, og ":2864,"##tig":2865,"##ford":2866,"##legg ":2867,"##eren ":2868,"##hjem":2869,"##,>> ":2870,"##t til ":2871,"##vei":2872,"##stor ":2873,"##det var ":2874,"##okk":2875,"##mennesk":2876,"##\"\n":2877,"##Mar":2878,"##00 ":2879,"##mark":2880,"##ri":2881,"##nings":2882,"Da ":2883,"##Jeg ":2884,"##aa ":2885,"##jø":2886,"##are ":2887,"##kvinn":2888,"##henne ":2889,"##valg":2890,"##rest":2891,"##sø":2892,"##mor":2893,"##nok ":2894,"##fel":2895,"##evn":2896,"##ing og ":2897,"##>>.\n":2898,"##198":2899,"##kommer ":2900,"##ust":2901,"##trykk":2902,"##a og ":2903,"##2. ":2904,"##I ":2905,"##ane ":2906,"##nå":2907,"##E ":2908,"##hjelp":2909,"##verk":2910,"##gen ":2911,"##inn i ":2912,"##fe":2913,"##det":2914,"##tor":2915,"##esi":2916,"##arbei":2917,"##lo":2918,"##11":2919,"##t med ":2920,"##her ":2921,"##par":2922,"##indre ":2923,"##siste ":2924,"##gjennom":2925,"##ven":2926,"##tar ":2927,">>.\n":2928,"##mens ":2929,"##sitt ":2930,"##måtte ":2931,"##-- ":2932,"##sol":2933,"##ene og ":2934,"##fi":2935,"##ord ":2936,"På ":2937,"Al":2938,"##a\n":2939,"##Sk":2940,"##enes ":2941,"##sett ":2942,"##stand":2943,"##ud ":2944,"##gjor":2945,"##kor":2946,"##ne":2947,"##....":2948,"##elige ":2949,"##vent":2950,"##er om ":2951,"##gjer":2952,"##vå":2953,"##Al":2954,"##ike ":2955,"##ønsk":2956,"##si ":2957,"##ref":2958,"##.4":2959,"##.00\n":2960,"For":2961,"##fat":2962,"##annen ":2963,"##tim":2964,"##skriv":2965,"##tur":2966,"##sh":2967,"##et for ":2968,"##gir ":2969,"##sentr":2970,"##hvordan ":2971,"##erer ":2972,"##ene som ":2973,"##und ":2974,"##sett":2975,"##sag":2976,"##heng":2977,"##jør":2978,"##godt ":2979,"##ningen ":2980,"##mid":2981,"##bok":2982,"##ys":2983,"##land ":2984,"##frå ":2985,"##.5":2986,"##kur":2987,"##seiv ":2988,"##um ":2989,"##it ":2990,"##Fr":2991,"##enfor ":2992,"##l ":2993,"##sær":2994,"##ch ":2995,"##pos":2996,"i ":2997,"##tem":2998,"##eit ":2999,"##amili":3000,"##spørsmål":3001,"##like ":3002,"##følg":3003,"##ia ":3004,"##0\n":3005,"##anske ":3006,"##yr ":3007,"##ligere ":3008,"##vet ":3009,"##ygg":3010,"##aff":3011,"##mel":3012,"##hån":3013,"##iver":3014,"##ighet":3015,"##mar":3016,"##aldr":3017,"##Ch":3018,"##vann":3019,"##ustr":3020,"##.2":3021,"##0. ":3022,"##Gr":3023,"##et til ":3024,"##hos ":3025,"##bør ":3026,"##rett ":3027,"##hver ":3028,"##kron":3029,"##prob":3030,"##3. ":3031,"##sammen":3032,"##ain":3033,"##m.\n":3034,"## på ":3035,"##kap":3036,"##ie ":3037,"##Ber":3038,"##forsk":3039,"## med ":3040,"##løp":3041,"##vok":3042,"##sal":3043,"##10 ":3044,"##vær":3045,"##lok":3046,"##jobb":3047,"##lan":3048,"##5. ":3049,"##istr":3050,"##gam":3051,"##ass ":3052,"##Osl":3053,"##rop":3054,"##.00 ":3055,"##dal":3056,"##Norg":3057,"##\"\"\"\n":3058,"##fått ":3059,"##197":3060,"##fordi ":3061,"##f. ":3062,"##jo ":3063,"##nett":3064,"##tter ":3065,"##inger ":3066,"##?.\n":3067,"##5\n":3068,"##ing i ":3069,"##kjøp":3070,"##god ":3071,"##ve":3072,"##forst":3073,"##re, ":3074,"##aug":3075,"##spill":3076,"##sek":3077,"##For":3078,"##IN":3079,"##produk":3080,"##en har ":3081,"##usjon":3082,"##lek":3083,"##år.\n":3084,"##blant ":3085,"##sikk":3086,"##hist":3087,"##sb":3088,"##nok":3089,"##prøv":3090,"##vit":3091,"##yst":3092,"##dann":3093,"##oc":3094,"##present":3095,"##spesi":3096,"##t for ":3097,"##natur":3098,"Så ":3099,"Når ":3100,"##dø":3101,"##en for ":3102,"##ny ":3103,"##jenest":3104,"##gjorde ":3105,"##fil":3106,"##0-":3107,"##hvis ":3108,"##io":3109,"##er seg ":3110,"##AN":3111,"##4. ":3112,"##gjelder ":3113,"##ar.\n":3114,"##mest ":3115,"##dek":3116,"An":3117,"##rundt ":3118,"Der":3119,"##lighet":3120,"##forskj":3121,"Du ":3122,"##kontr":3123,"##ast ":3124,"##kal":3125,"##forhold ":3126,"##urder":3127,"##konom":3128,"##bel":3129,"##med en ":3130,"##hoved":3131,"##jord":3132,"##ytt":3133,"##lat":3134,"##derfor ":3135,"##nød":3136,"##en var ":3137,"##gå":3138,"##met":3139,"##ere.\n":3140,"##Ol":3141,"##i.\n":3142,"##6. ":3143,"##osi":3144,"##yk":3145,"##fag":3146,"##kraf":3147,"##lin":3148,"##kar":3149,"##aldri ":3150,"##sko":3151,"##kjenn":3152,"##ning.\n":3153,"##se.\n":3154,"##hvil":3155,"##w ":3156,"##ler ":3157,"##OR":3158,"##7. ":3159,"##ultur":3160,"##famili":3161,"##mø":3162,"##enkel":3163,"##A ":3164,"##plass":3165,"##s. ":3166,"##e:\n":3167,"##utt":3168,"##eh":3169,"##behandl":3170,"##ring":3171,"##vel ":3172,"##(r)\n":3173,"##yp":3174,"##t å ":3175,"##selskap":3176,"fra ":3177,"##heim":3178,"##gjort ":3179,"##ans ":3180,"##inst":3181,"##et som ":3182,"##eksem":3183,"##8. ":3184,"##nasjon":3185,"##partement":3186,"##ument":3187,"##en s":3188,"##fisk":3189,"##ente ":3190,"##lag ":3191,"##stud":3192,">> <<":3193,"##gif":3194,"##vansk":3195,"##med å ":3196,"##ikt":3197,"##norske ":3198,"##deg":3199,"##rel":3200,"##skil":3201,"##Nord":3202,"##a. ":3203,"##følge ":3204,"##T ":3205,"##kun":3206,"##delig ":3207,"##organis":3208,"##ju":3209,"##rekt":3210,"##hun":3211,"##idler":3212,"##id ":3213,"##com":3214,"##er er ":3215,"##viktig ":3216,"##skyl":3217,"##od ":3218,"##~~":3219,"##t som ":3220,"##reis":3221,"##gre":3222,"##større ":3223,"##det, ":3224,"##yttet ":3225,"##9. ":3226,"##le.\n":3227,"##arbeidet ":3228,"##: ":3229,"##send":3230,"##et\n":3231,"##Krist":3232,"##komme ":3233,"##int":3234,"##kanskje ":3235,"##endr":3236,"##fle":3237,"##et er ":3238,"##ation":3239,"##raf":3240,"##\"\"\"\" ":3241,"##vurder":3242,"##asj":3243,"##bor":3244,"##holde ":3245,"##000 ":3246,"##siden ":3247,"##sette ":3248,"##som har ":3249,"##to":3250,"##es, ":3251,"##len":3252,"##nav":3253,"##te å ":3254,"##lys":3255,"##te på ":3256,"##merk":3257,"##entlig ":3258,"##sjek":3259,"##a i ":3260,"##samfunn":3261,"##økonom":3262,"##folk ":3263,"##Norge ":3264,"##es i ":3265,"## om ":3266,"##er, og ":3267,"##der.\n":3268,"##gav":3269,"##e-":3270,"##up":3271,"##kjør":3272,"##ong":3273,"##ering":3274,"##te i ":3275,"##bedr":3276,"##nest":3277,"- Det ":3278,"##gamle ":3279,"##con":3280,"##arbeids":3281,"##ah":3282,"##bud":3283,"##196":3284,"##treng":3285,"##ulike ":3286,"##les":3287,"##problem":3288,"##Joh":3289,"##tall":3290,"##SS ":3291,"##min ":3292,"##e, men ":3293,"##en med ":3294,"##at jeg ":3295,"##slag ":3296,"* ":3297,"##AR":3298,"##/ ":3299,"##saml":3300,"##en h":3301,"##ene er ":3302,"##sig":3303,"##.30 ":3304,"##15 ":3305,"##else av ":3306,"##uc":3307,"Etter ":3308,"##spr":3309,"##veld":3310,"##fakt":3311,"##De ":3312,"##ban":3313,"##støt":3314,"##qu":3315,"##ille ":3316,"##pass":3317,"##ation ":3318,"##avtal":3319,"##vart ":3320,"##ensjon":3321,"##ofte ":3322,"##mindre ":3323,"##o.\n":3324,"##egn":3325,"##berg":3326,"##nevn":3327,"##ex":3328,"##ben":3329,"##sep":3330,"##vol":3331,"##akk ":3332,"##,>> sa ":3333,"##tilf":3334,"##vest":3335,"##i, ":3336,"##G ":3337,"##va ":3338,"##ande ":3339,"##--":3340,"##ate ":3341,"##dere ":3342,"##kirk":3343,"##vin":3344,"##gener":3345,"##er fra ":3346,"##uasjon":3347,"##sa":3348,"##tidig ":3349,"##pris":3350,"##somm":3351,"##et, og ":3352,"##fot":3353,"##komp":3354,"##fred":3355,"##del ":3356,"##inform":3357,"##egen ":3358,"##aks":3359,"##evel ":3360,"##21":3361,"##het.\n":3362,"##of the ":3363,"##gitt ":3364,"##ukk":3365,"##dre":3366,"##ko":3367,"##ses ":3368,"##har vært ":3369,"##mod":3370,"##ra":3371,"##kost":3372,"##En":3373,"##nad":3374,"##at vi ":3375,"##st.\n":3376,"##om å ":3377,"##eff":3378,"##langt ":3379,"##, sier ":3380,"##som en ":3381,"##fa":3382,"##tror ":3383,"##22":3384,"##opplev":3385,"##mus":3386,"##del av ":3387,"##gjen":3388,"Ut":3389,"##fall":3390,"##spro":3391,"##te seg ":3392,"##hvert ":3393,"##et med ":3394,"##peng":3395,"##, så ":3396,"##Un":3397,"##bi":3398,"##art ":3399,"##hennes ":3400,"##23":3401,"##typ":3402,"##pas":3403,"##aller":3404,"##ay":3405,"##tidligere ":3406,"##sen, ":3407,"##bedre ":3408,"##venn":3409,"##finne ":3410,"##ST":3411,"##alltid ":3412,"##Vi ":3413,"##ingen av ":3414,"##s\n":3415,"##han.\n":3416,"##må":3417,"##ig.\n":3418,"##at den ":3419,"Et ":3420,"## H":3421,"##nødvend":3422,"##sosi":3423,"##deres ":3424,"##:.\n":3425,"##vår ":3426,"##sc":3427,"##aktiv":3428,"##illi":3429,"##ber ":3430,"##system":3431,"Nå ":3432,"##seg.\n":3433,"##sto ":3434,"##rekke ":3435,"##ful":3436,"##vår":3437,"##lever":3438,"##situasjon":3439,"##nærm":3440,"##svært ":3441,"##hev":3442,"##ves":3443,"##result":3444,"##kultur":3445,"##eksemp":3446,"##domm":3447,"##en t":3448,"##det som ":3449,"##ris":3450,"##behov":3451,"##hatt ":3452,"##først ":3453,"##ing\n":3454,"##50 ":3455,"##ene på ":3456,"##idlertid ":3457,"##hal":3458,"##hu":3459,"##at hun ":3460,"##gode ":3461,"##d, ":3462,"##af ":3463,"##d og ":3464,"##en d":3465,"##bid":3466,"##nord":3467,"##mang":3468,"##går":3469,"##fatt":3470,"##gar":3471,"##ende.\n":3472,"##ga ":3473,"##The ":3474,"##lå":3475,"##er et ":3476,"##ram":3477,"- H":3478,"##elev":3479,"##rom":3480,"##ier ":3481,"##stol":3482,"Sk":3483,"##ken ":3484,"##eres ":3485,"##holdt ":3486,"##nr. ":3487,"##>>, ":3488,"##regn":3489,"##iet ":3490,"##er:\n":3491,"##dig ":3492,"##sterk":3493,"##kke ":3494,"##abl":3495,"##des":3496,"##ret ":3497,"##histori":3498,"##e?\n":3499,"##delse ":3500,"##20 ":3501,"##be ":3502,"##medlem":3503,"##bu":3504,"##tillegg ":3505,"##ony":3506,"##ham.\n":3507,"##sammen med ":3508,"##grens":3509,"##ning av ":3510,"##by ":3511,"##else.\n":3512,"##fast":3513,"##man":3514,"##undersøk":3515,"##departement":3516,"##arr":3517,"##ut av ":3518,"##øyn":3519,"##lagt ":3520,"##EL":3521,"##bur":3522,"##leg ":3523,"##n.\n":3524,"##tred":3525,"##sent":3526,"##spur":3527,"##gram":3528,"##na ":3529,"##halv":3530,"##su":3531,"##fød":3532,"##dør":3533,"##bas":3534,"##194":3535,"##ball":3536,"##tes ":3537,"##giv":3538,"##lite ":3539,"##er den ":3540,"##represent":3541,"##fest":3542,"##wit":3543,"##minn":3544,"The ":3545,"##nem":3546,"##snak":3547,"##El":3548,"##hens":3549,"##holder ":3550,"##ter, ":3551,"##samm":3552,"##gjø":3553,"##spunk":3554,"- Jeg ":3555,"##føre ":3556,"##imidlertid ":3557,"##det i ":3558,"##SS":3559,"##heller ":3560,"##195":3561,"##ce ":3562,"##d i ":3563,"##Kar":3564,"##dett":3565,"##Sp":3566,"##kes":3567,"##le, ":3568,"##kontroll":3569,"##en, men ":3570,"##dighet":3571,"##en for":3572,"Ved ":3573,"Un":3574,"Denne ":3575,"##ten":3576,"##organisasjon":3577,"##dag.\n":3578,"##Th":3579,"##ow":3580,"##ve ":3581,"##side ":3582,"##ene til ":3583,"##skog":3584,"##er vi ":3585,"##hvor":3586,"##krev":3587,"##sli":3588,"##smil":3589,"##særlig ":3590,"##tel":3591,"##rat":3592,"##lå ":3593,"##jeg":3594,"20":3595,"Sam":3596,"##kamp":3597,"Med ":3598,"##kast":3599,"Hvis ":3600,"##lav":3601,"##ore ":3602,"Hva ":3603,"##sør":3604,"##fly":3605,"##la":3606,"##veldig ":3607,"##videre ":3608,"##forskjel":3609,"##IL":3610,"##på en ":3611,"##K ":3612,"##mulig ":3613,"##interess":3614,"##vinn":3615,"##utdann":3616,"Som ":3617,"##møt":3618,"##jern":3619,"##dyr":3620,"##å få ":3621,"18":3622,"##arm":3623,"##., ":3624,"##ommun":3625,"##betyd":3626,"##seiv":3627,"##på.\n":3628,"##ar, ":3629,"##nøy":3630,"##lig.\n":3631,"Nor":3632,"##son ":3633,"##å være ":3634,"##ses":3635,"##foret":3636,"##stand ":3637,"##barn ":3638,"##urop":3639,"##skjed":3640,"##ativ":3641,"##ress":3642,"##struk":3643,"##krig":3644,"##s og ":3645,"##ran":3646,"##ete ":3647,"##amer":3648,"##ble":3649,"##bort ":3650,"##ge":3651,"##...\n":3652,"##x ":3653,"##bort":3654,"##ner":3655,"##den.\n":3656,"##(r) 0":3657,"##for at ":3658,"##uft":3659,"##stad ":3660,"##inga ":3661,"##ti":3662,"##sin":3663,"##kjø":3664,"##er (":3665,"##ian ":3666,"Ar":3667,"##ligg":3668,"##enkelte ":3669,"##blikk":3670,"##slike ":3671,"##i en ":3672,"fra 20":3673,"##Re":3674,"##fire ":3675,"##o, ":3676,"##aksjon":3677,"##grad ":3678,"##stort ":3679,"##vari":3680,"##tank":3681,"##ard ":3682,"##norsk ":3683,"##kjent ":3684,"##i og ":3685,"##olk":3686,"##dok":3687,"##rask":3688,"##forbin":3689,"##se, ":3690,"##miljø":3691,"##ym":3692,"##eksp":3693,"##forhold":3694,"##AL":3695,"##our":3696,"##sen.\n":3697,"##mous":3698,"##kjem":3699,"## B":3700,"##gått ":3701,"##legge ":3702,"##skatt":3703,"##alit":3704,"##verdi":3705,"Her ":3706,"##fordr":3707,"##30 ":3708,"##om at ":3709,"##plass ":3710,"##ton":3711,"##domain":3712,"##tiltak":3713,"##allerede ":3714,"##meld":3715,"##onymous":3716,"##uttrykk":3717,"##råd":3718,"##imp":3719,"##domain.":3720,"##@domain.":3721,"##onymous@domain.":3722,"##fall ":3723,"##tjenest":3724,"##fordel":3725,"##jent":3726,"##eneste ":3727,"##elsk":3728,"##satte ":3729,"##US":3730,"##hi":3731,"##å ha ":3732,"##atur":3733,"##ic ":3734,"##forsøk":3735,"##me":3736,"##liten ":3737,"##oms":3738,"##sjø":3739,"##foren":3740,"##ere, ":3741,"##post":3742,"##informasjon":3743,"##et seg ":3744,"##slik at ":3745,"##pek":3746,"##språ":3747,"##anal":3748,"##lenge ":3749,"##ligger ":3750,"##viser ":3751,"##ikke er ":3752,"##ående ":3753,"##-\n":3754,"##visste ":3755,"##unge ":3756,"##gjerne ":3757,"##senere ":3758,"##betal":3759,"##ter og ":3760,"##sig ":3761,"##i det ":3762,"##ansvar":3763,"##olit":3764,"##) og ":3765,"##produksjon":3766,"##eksempel ":3767,"##y.\n":3768,"## M":3769,"##mør":3770,"##ninger ":3771,"##viktig":3772,"##e med ":3773,"##synes ":3774,"##fek":3775,"##igjen.\n":3776,"##ukket ":3777,"##no ":3778,"##likevel ":3779,"##os ":3780,"##mån":3781,"##forklar":3782,"##ient":3783,"##bestemm":3784,"##bruke ":3785,"##tren":3786,"##fleste ":3787,"##nesten ":3788,"##tekn":3789,"##på den ":3790,"##igjen ":3791,"##Le":3792,"##virksom":3793,"Sp":3794,"##sted ":3795,"##eir ":3796,"##sagt ":3797,"##assen ":3798,"##neste ":3799,"##en (":3800,"##tige ":3801,"##jun":3802,"##ere og ":3803,"##start":3804,"##hånd":3805,"##rev ":3806,"##193":3807,"##Berg":3808,"##grav":3809,"##igh":3810,"##er du ":3811,"##ingen.\n":3812,"##setter ":3813,"##industr":3814,"##død":3815,"##sjef":3816,"##r.\n":3817,"##instit":3818,"##. H":3819,"##24":3820,"##de.\n":3821,"##........":3822,"##alis":3823,"##eget ":3824,"##til.\n":3825,"##beste ":3826,"##0,":3827,"##skad":3828,"##unksjon":3829,"##skud":3830,"##rim":3831,"##aut":3832,"##te og ":3833,"##enskap":3834,"##ont":3835,"##ian":3836,"##altså ":3837,"##el.\n":3838,"##beveg":3839,"##fal":3840,"- D":3841,"##ved å ":3842,"##sann":3843,"##sist":3844,"En":3845,"##selv ":3846,"##3\n":3847,"##ET":3848,"##ting ":3849,"##når det ":3850,"##du":3851,"Til ":3852,"##gamm":3853,"##' ":3854,"##ubb":3855,"##begge ":3856,"##priv":3857,"##til en ":3858,"##kan være ":3859,"##ner ":3860,"##ff":3861,"##at det er ":3862,"##fjell":3863,"##Lar":3864,"##ene":3865,"No":3866,"##egne ":3867,"##ble det ":3868,"##rad":3869,"##meg.\n":3870,"##jer":3871,"##fang":3872,"##konkur":3873,"##paa ":3874,"##anse ":3875,"##avis":3876,"##åtte ":3877,"##de i ":3878,"##våre ":3879,"##stu":3880,"##ømm":3881,"##berg ":3882,"##bevis":3883,"##tv":3884,"##D ":3885,"##han hadde ":3886,"##ho ":3887,"##finnes ":3888,"##kont":3889,"##rø":3890,"##06":3891,"##resultat":3892,"##rapp":3893,"##kil":3894,"##ført ":3895,"##ever":3896,"##ar og ":3897,"##ON":3898,"##drag":3899,"##Gud":3900,"##te.\n":3901,"##henne.\n":3902,"## er ":3903,"##stå ":3904,"##i den ":3905,"##Tor":3906,"##event":3907,"##er, men ":3908,"##my":3909,"##enda ":3910,"##, S":3911,"##lett":3912,"##hil":3913,"##kunst":3914,"##samarbeid":3915,"##ide":3916,"##kjente ":3917,"##året ":3918,"##gift":3919,"##k.\n":3920,"##kol":3921,"##prosen":3922,"##agn":3923,"##g.\n":3924,"##uten":3925,"##erfar":3926,"##set ":3927,"##erende ":3928,"##fant ":3929,"##vind":3930,"##that ":3931,"##forhold til ":3932,"##fortsatt ":3933,"##disk":3934,"##dår":3935,"##opp i ":3936,"##grunn av ":3937,"##ja ":3938,"##spl":3939,"##en:\n":3940,"##oper":3941,"2. ":3942,"##lett ":3943,"##bak ":3944,"og ":3945,"##ca. ":3946,"##natt":3947,"##Mo":3948,"##mak":3949,"##øy ":3950,"##sdag ":3951,"##regl":3952,"##12 ":3953,"##som var ":3954,"##mal":3955,"##er de ":3956,"##beid":3957,"##elv":3958,"##ten ":3959,"##ateg":3960,"##e seg ":3961,"##yng":3962,"##, sa ":3963,"##rør":3964,"##flyt":3965,"##meget ":3966,"##kli":3967,"##prin":3968,"##forut":3969,"##tap":3970,"##forel":3971,"##Her":3972,"##ident":3973,"##innen ":3974,"##avheng":3975,"##ene har ":3976,"##in the ":3977,"##ansk":3978,"##en om ":3979,"Br":3980,"##et har ":3981,"##hend":3982,"##håp":3983,"##dist":3984,"## K":3985,"##oppgav":3986,"##morg":3987,"##funksjon":3988,"##ite":3989,"##forskjellige ":3990,"##skole":3991,"##kropp":3992,"##imot ":3993,"1. ":3994,"##alvor":3995,"##ganske ":3996,"##skrev":3997,"##ere":3998,"##der, ":3999,"##et om ":4000,"##dem.\n":4001,"##are":4002,"##et p":4003,"##trekk":4004,"##spurte ":4005,"##ut.\n":4006,"##na":4007,"##lighet ":4008,"##om.\n":4009,"##traf":4010,"##din ":4011,"##også":4012,"El":4013,"##gen":4014,"##sport":4015,"##with ":4016,"##forteller ":4017,"##rekte ":4018,"##eldre ":4019,"##ik ":4020,"##små ":4021,"##emm":4022,"##but":4023,"##vanskelig ":4024,"##ning, ":4025,"##5-":4026,"##stend":4027,"##e som ":4028,"##stille ":4029,"##slutt":4030,"##dersom ":4031,"##læ":4032,"##y, ":4033,"##IS":4034,"##seri":4035,"##ke":4036,"##1.":4037,"##mener ":4038,"##nes ":4039,"##Stat":4040,"##regjer":4041,"##ww":4042,"##inne":4043,"##yhet":4044,"##sten ":4045,"##ograf":4046,"##isse ":4047,"##er har ":4048,"##væ":4049,"##esp":4050,"##til at ":4051,"##ald":4052,"1 ":4053,"##jul":4054,"##ade ":4055,"##in.\n":4056,"##skyld":4057,"##alist":4058,"##tro":4059,"##ene for ":4060,"##lokal":4061,"##Hol":4062,"##'s ":4063,"##hag":4064,"##orting":4065,"##skrif":4066,"##pu":4067,"##gat":4068,"##kunnskap":4069,"##om det ":4070,"##ay ":4071,"##1, ":4072,"##al.\n":4073,"- Vi ":4074,"##største ":4075,"##nytt ":4076,"##ansen ":4077,"##regul":4078,"##svarte ":4079,"##marked":4080,"##gjeng":4081,"##v.\n":4082,"##forsik":4083,"##ogn":4084,"##ste":4085,"##tiden ":4086,"##tt":4087,"s. ":4088,"##posit":4089,"##en?\n":4090,"##krit":4091,"##mulighet":4092,"##på å ":4093,"##prosjek":4094,"##helse":4095,"##ingene ":4096,"##ei, ":4097,"##skip":4098,"##lang ":4099,"##tør":4100,"##11 ":4101,"##stein":4102,"##minst ":4103,"##avdel":4104,"##OL":4105,"##bek":4106,"##dal ":4107,"##l.\n":4108,"##co":4109,"##.000 ":4110,"##ER ":4111,"##iversit":4112,"##fram ":4113,"##krav ":4114,"##gled":4115,"##aus":4116,"##etabl":4117,"##ct":4118,"##løs":4119,"##fri":4120,"##små":4121,"##Ro":4122,"##skrift":4123,"Ikke ":4124,"##rette ":4125,"##stid":4126,"##yn ":4127,"##e for ":4128,"##mest":4129,"##materi":4130,"##en ble ":4131,"##.30\n":4132,"##2-":4133,"##ekk":4134,"##bred":4135,"##samt ":4136,"##søn":4137,"##utenfor ":4138,"##resp":4139,"##myn":4140,"##at du ":4141,"##ikke.\n":4142,"##tran":4143,"##t\n":4144,"##Oslo ":4145,"##ro ":4146,"Alle ":4147,"##direkt":4148,"##driv":4149,"##bin":4150,"##forbindelse ":4151,"##Christ":4152,"##trad":4153,"##let ":4154,"##unkt":4155,"##Kj":4156,"Pro":4157,"##en st":4158,"##én ":4159,"##0, ":4160,"##en, som ":4161,"##ternat":4162,"##sel ":4163,"##vak":4164,"##legger ":4165,"##Hel":4166,"##strøm":4167,"##offent":4168,"##ann ":4169,"##et var ":4170,"##nr ":4171,"##.)\n":4172,"##Bjør":4173,"Jeg har ":4174,"##Vest":4175,"##egr":4176,"##ighet ":4177,"##ist ":4178,"17":4179,"##av de ":4180,"##ikasjon":4181,"##øvr":4182,"##samtidig ":4183,"##hund":4184,"##ektiv":4185,"##2, ":4186,"## milli":4187,"##egg":4188,"##landet ":4189,"##er også ":4190,"##AT":4191,"##utgang":4192,"##tid.\n":4193,"##25":4194,"##noe som ":4195,"##eder":4196,"##sty":4197,"##er jeg ":4198,"##ligvis ":4199,"##forstå":4200,"##fas":4201,"##vei ":4202,"##andre.\n":4203,"##Or":4204,"##punk":4205,"##gren":4206,"Om ":4207,"##trod":4208,"##oto":4209,"##dam":4210,"##a-":4211,"##klag":4212,"##dokument":4213,"##ly ":4214,"##drift":4215,"##Han ":4216,"##mis":4217,"##ytter":4218,"##ministr":4219,"##ti ":4220,"##lik ":4221,"##elser ":4222,"##romm":4223,"##opplys":4224,"##eil":4225,"##Sør":4226,"##ina ":4227,"##sikker":4228,"##RE":4229,"##sjekt":4230,"##siden av ":4231,"##dy":4232,"##deles ":4233,"##bolig":4234,"##slo ":4235,"##):\n":4236,"##mist":4237,"##eder ":4238,"##tilbake til ":4239,"##øye":4240,"##ering ":4241,"##. . ":4242,"##hus ":4243,"##vi har ":4244,"## fra ":4245,"##andr":4246,"##viste ":4247,"##prof":4248,"##ut i ":4249,"##jeg har ":4250,"##spil":4251,"##dre ":4252,"##lekt":4253,"##ren":4254,"##1-":4255,"##kort":4256,"##land.\n":4257,"##Ander":4258,"##,.\n":4259,"##ene var ":4260,"##løpet av ":4261,"##eig":4262,"##ative ":4263,"##psyk":4264,"##elen ":4265,"##topp":4266,"##gro":4267,"##elsen av ":4268,"##Sol":4269,"##bru":4270,"##foran ":4271,"##ar i ":4272,"##e å ":4273,"##studi":4274,"##, og det ":4275,"##utvalg":4276,"##best":4277,"##bank":4278,"##ert i ":4279,"##, for ":4280,"##mer enn ":4281,"##med et ":4282,"##serv":4283,"##redus":4284,"##uttal":4285,"##Ne":4286,"##tom":4287,"##fem":4288,"##elighet":4289,"##sjøl":4290,"##eter ":4291,"##anu":4292,"Fra ":4293,"##urat ":4294,"##ds":4295,"##ende, ":4296,"Er ":4297,"##efon":4298,"##Sam":4299,"##en kan ":4300,"##kort ":4301,"##tre":4302,"##kveld":4303,"##ivil":4304,"##lot ":4305,"##førte ":4306,"an":4307,"##fart":4308,"##tekt":4309,"##ver ":4310,"##ator":4311,"##onymous@domain.com":4312,"##el, ":4313,"##sku":4314,"##dom ":4315,"##spenn":4316,"##atte ":4317,"##registr":4318,"##feil":4319,"##en hadde ":4320,"##betyr ":4321,"##grunn ":4322,"##oli":4323,"##ikke har ":4324,"##stadig ":4325,"##aur":4326,"##Den ":4327,"##ib":4328,"##nes":4329,"##i\n":4330,"##Str":4331,"##fir":4332,"##AS":4333,"##hun.\n":4334,"##sub":4335,"##mon":4336,"##kval":4337,"##eiend":4338,"##fant":4339,"##hod":4340,"##klar ":4341,"##askin":4342,"##retning":4343,"##perio":4344,"##n, ":4345,"##begynn":4346,"##kontak":4347,"##niv":4348,"##g og ":4349,"##er eller ":4350,"##asse ":4351,"##de to ":4352,"##rik ":4353,"##etr":4354,"##å.\n":4355,"##fortal":4356,"##16 ":4357,"##med.\n":4358,"##stre":4359,"##tot":4360,"##da han ":4361,"##uss":4362,"##parti":4363,"##ehus":4364,"##saa ":4365,"##um.\n":4366,"##rit":4367,"##kl. ":4368,"##f.\n":4369,"##3, ":4370,"##en fra ":4371,"##hørte ":4372,"##Sver":4373,"##fylk":4374,"##det ikke ":4375,"##æn":4376,"##ikk.\n":4377,"##år, ":4378,"##alder":4379,"##ter i ":4380,"##mag":4381,"##moder":4382,"##ach":4383,"##uelle ":4384,"##burde ":4385,"##ital":4386,"##inger.\n":4387,"##ir ":4388,"##kan ikke ":4389,"##fores":4390,"##M ":4391,"##vert ":4392,"##Norsk ":4393,"##elek":4394,"##iz":4395,"##ar\n":4396,"##prakt":4397,"##utt ":4398,"##pasient":4399,"##slipp":4400,"##4-":4401,"##ior":4402,"##igur":4403,"##for en ":4404,"##5, ":4405,"##f.":4406,"##ect":4407,"##forsvar":4408,"##hjemm":4409,"##kvel":4410,"##smess":4411,"##V ":4412,"- M":4413,"##kjær":4414,"##teg":4415,"##knyttet ":4416,"##\"\"\"\".\n":4417,"##kun ":4418,"##Bar":4419,"##3-":4420,"##ou":4421,"##ons":4422,"##ru":4423,"##test":4424,"##et fra ":4425,"##fulg":4426,"##edi":4427,"##Sand":4428,"##slags ":4429,"##grad":4430,"##stoff":4431,"##innenfor ":4432,"##bedrift":4433,"##Europ":4434,"##de som ":4435,"##ing på ":4436,"##klass":4437,"##<<\n":4438,"##vanlig ":4439,"##opp.\n":4440,"##arg":4441,"##40 ":4442,"##14 ":4443,"##blant annet ":4444,"##hy":4445,"##and.\n":4446,"##omkr":4447,"Der ":4448,"##fast ":4449,"##et, men ":4450,"##for å få ":4451,"##stykk":4452,"##t at ":4453,"##virkelig ":4454,"##følgende ":4455,"##.\"\"\"\n":4456,"##slov":4457,"##ide ":4458,"##konse":4459,"##spesielt ":4460,"##æl":4461,"##har":4462,"##for.\n":4463,"##verden ":4464,"##ker ":4465,"##Dan":4466,"##arrang":4467,"##region":4468,"##svar ":4469,"##usikk":4470,"##løf":4471,"##dermed ":4472,"##heil":4473,"Vi har ":4474,"##en skal ":4475,"##inist":4476,"##retts":4477,"##es av ":4478,"Opp":4479,"##besøk":4480,"##stod ":4481,"##& ":4482,"##av.\n":4483,"##nov":4484,"##bidr":4485,"##1,":4486,"##lønn":4487,"##øf":4488,"##??":4489,"##at det var ":4490,"##a på ":4491,"##spis":4492,"##sov":4493,"##anden ":4494,"##Stor":4495,"##ramm":4496,"##byr":4497,"##Har":4498,"##varm":4499,"##27":4500,"##otek":4501,"##tro ":4502,"##hadde vært ":4503,"##Norges ":4504,"##Kn":4505,"##åd":4506,"##II":4507,"##besk":4508,"##strek":4509,"##kommet ":4510,"##ment":4511,"##6, ":4512,"##nødvendig ":4513,"##internasjon":4514,"##Nil":4515,"##ytte ":4516,"##hard":4517,"##tradisjon":4518,"##administr":4519,"##ity ":4520,"##kjemp":4521,"##undervis":4522,"##forslag ":4523,"##jel":4524,"##ich":4525,"##til den ":4526,"##bod":4527,"##anc":4528,"##ere i ":4529,"##ier":4530,"##anlegg":4531,"##act":4532,"##4, ":4533,"##s-":4534,"##e av ":4535,"##kontor":4536,"##brud":4537,"##Kr":4538,"##aul":4539,"##oner ":4540,"##atr":4541,"##kall":4542,"##iddel":4543,"##ink":4544,"##18 ":4545,"##gul":4546,"##kret":4547,"##mitt ":4548,"##28":4549,"##kong":4550,"##OT":4551,"##.20":4552,"##. S":4553,"Han var ":4554,"##entr":4555,"##age ":4556,"##anse":4557,"##ill ":4558,"##årene ":4559,"##seg i ":4560,"Disse ":4561,"##stemm":4562,"##a som ":4563,"##ansik":4564,"##lege ":4565,"##strak":4566,"##Ut":4567,"##EN ":4568,"##fem ":4569,"##* ":4570,"Inn":4571,"##gså ":4572,"##i:\n":4573,">> <<\n":4574,"##mine ":4575,"##Er":4576,"##tat":4577,"##opprett":4578,"Til":4579,"##j ":4580,"##øst":4581,"##overfor ":4582,"##snakke ":4583,"##a, og ":4584,"##praks":4585,"##nærmere ":4586,"##forval":4587,"##te med ":4588,"##9, ":4589,"##prest":4590,"##an.\n":4591,"##is.\n":4592,"##Pro":4593,"##ning og ":4594,"##13 ":4595,"##ump":4596,"##luft":4597,"##s i ":4598,"##aw":4599,"16":4600,"##ressur":4601,"##båt":4602,"##.no":4603,"##ork":4604,"##t om ":4605,"##program":4606,"##so ":4607,"##ning til ":4608,"##ut fra ":4609,"##... ":4610,"##fører ":4611,"##vise ":4612,"##prosjekt":4613,"##bety":4614,"##de, ":4615,"I tillegg ":4616,"##han var ":4617,"##produs":4618,"##ien ":4619,"##a til ":4620,"##laget ":4621,"##direkte ":4622,"##sjett":4623,"##nærings":4624,"##hest":4625,"##utfordr":4626,"##fyr":4627,"##menn ":4628,"##elses":4629,"##interes":4630,"##dess":4631,"##ong ":4632,"##bruk av ":4633,"##klokk":4634,"##avgjør":4635,"##invest":4636,"##UN":4637,"##am ":4638,"##else, ":4639,"##ende og ":4640,"##abil":4641,"##der og ":4642,"##kr ":4643,"##asjons":4644,"##apr":4645,"##snakk":4646,"##asjon ":4647,"##edr":4648,"Tr":4649,"##bro":4650,"##høv":4651,"##es til ":4652,"##pot":4653,"##t, og ":4654,"##hjem ":4655,"##strekk":4656,"##tenkte ":4657,"##pap":4658,"##lenger ":4659,"##bord":4660,"##akkurat ":4661,"##je":4662,"##d med ":4663,"##høg":4664,"##hensyn ":4665,"##betr":4666,"##utsel":4667,"##ning for ":4668,"##ler":4669,"##kons":4670,"##ert på ":4671,"##posisjon":4672,"##hvem ":4673,"##årsak":4674,"##som et ":4675,"##flat":4676,"##janu":4677,"##kompet":4678,"##syn ":4679,"##Storting":4680,"##gutt":4681,"##stilling ":4682,"##ering av ":4683,"##institusjon":4684,"##bakk":4685,"##tryg":4686,"##en eller ":4687,"##iti":4688,"##rol":4689,"##gjeld":4690,"##se på ":4691,"##AG":4692,"##elektr":4693,"199":4694,"##ien":4695,"##az":4696,"##Car":4697,"##har vi ":4698,"##vite ":4699,"3. ":4700,"##skal være ":4701,"##ivid":4702,"##heller ikke ":4703,"##hans":4704,"##sd":4705,"##kje ":4706,"##rut":4707,"##st i ":4708,"##er, som ":4709,"##B ":4710,"##ekstr":4711,"##akter":4712,"##t fra ":4713,"##pul":4714,"##get ":4715,"##snart ":4716,"##holdet ":4717,"##ene av ":4718,"##inn på ":4719,"##føres ":4720,"##ise":4721,"##189":4722,"##sen og ":4723,"##26":4724,"##klubb":4725,"##lykk":4726,"##O ":4727,"Man ":4728,"##søk ":4729,"##ene, og ":4730,"##de og ":4731,"##livet ":4732,"##dagen ":4733,"##blad":4734,"##sym":4735,"##forbindelse med ":4736,"##erk":4737,"##deb":4738,"##amerik":4739,"##sipp":4740,"##NT":4741,"##spor":4742,"##% ":4743,"##seg til ":4744,"##at man ":4745,"##vere ":4746,"##ite ":4747,"##er så ":4748,"Mange ":4749,"Dei ":4750,"##IK":4751,"##fo":4752,"##7, ":4753,"##eter":4754,"##ukt":4755,"##num":4756,"##ille":4757,"##ning i ":4758,"##25 ":4759,"##språk":4760,"##over.\n":4761,"##krist":4762,"##den i ":4763,"##tids":4764,"##svak":4765,"##8, ":4766,"nr. ":4767,"##aliser":4768,"##Fred":4769,"##tilsvar":4770,"##Jes":4771,"15":4772,"##var i ":4773,"##vårt ":4774,"##opplær":4775,"##ling":4776,"##opplysning":4777,"##onymous@domain.com\n":4778,"##at en ":4779,"##opp til ":4780,"##t over ":4781,"##tilbake ":4782,"##1\n":4783,"##anskje ":4784,"##190":4785,"##te, ":4786,"##Bl":4787,"##oppfat":4788,"##deg.\n":4789,"##!.\n":4790,"##seng":4791,"##pr. ":4792,"##langs ":4793,"##skriver ":4794,"##vilk":4795,"##det og ":4796,"##hva som ":4797,"##-.\n":4798,"##ingen i ":4799,"##, er ":4800,"##grunnlag ":4801,"##full ":4802,"##ikke å ":4803,"##inntekt":4804,"Han hadde ":4805,"Norsk ":4806,"##por":4807,"Fl":4808,"##2\n":4809,"##ferd":4810,"##. (":4811,"##kvar":4812,"##lands":4813,"##00-":4814,"##kan det ":4815,"##Norge.\n":4816,"##dyp":4817,"##skif":4818,"##liv ":4819,"##lyst ":4820,"##aktivitet":4821,"##ipp":4822,"##ningen.\n":4823,"##him":4824,"##, i ":4825,"##lim":4826,"##sikkert ":4827,"##ure ":4828,"##gang.\n":4829,"##ING":4830,"##risik":4831,"##far ":4832,"##hvilke ":4833,"##rom ":4834,"##egentlig ":4835,"##påvirk":4836,"##kommende ":4837,"##alternat":4838,"##~~~~":4839,"##stilling":4840,"##star":4841,"##gel":4842,"##ka":4843,"##efter ":4844,"##utgangspunk":4845,"##het og ":4846,"##om de ":4847,"##te han ":4848,"##dagens ":4849,"Th":4850,"##ari":4851,"##politiske ":4852,"##skon":4853,"##for den ":4854,"##oss":4855,"##stopp":4856,"##neg":4857,"##borg":4858,"##tag":4859,"##av den ":4860,"##er ved ":4861,"##gn":4862,"##vern":4863,"##tekst":4864,"##uff":4865,"2 ":4866,"##blikk ":4867,"##riktig ":4868,"##faktisk ":4869,"##ger":4870,"- S":4871,"##bøk":4872,"##ene fra ":4873,"##, M":4874,"##solg":4875,"##tok":4876,"##bar ":4877,"##sån":4878,"##og med ":4879,"##fekk ":4880,"##de seg ":4881,"##histor":4882,"##d på ":4883,"##bud ":4884,"##ust ":4885,"##, eller ":4886,"##av en ":4887,"<\n":4888,"##inneb":4889,"##tru":4890,"##stre ":4891,"Kon":4892,"##stedet ":4893,"##oppr":4894,"##17. ":4895,"##uelt ":4896,"##snakket ":4897,"##one ":4898,"##ting":4899,"##kostnad":4900,"##Be":4901,"##for eksempel ":4902,"##gramm":4903,"##enhet":4904,"##blom":4905,"##oss.\n":4906,"##seson":4907,"##rikt":4908,"- N":4909,"##ikken ":4910,"##var en ":4911,"f. ":4912,"##hum":4913,"##ernes ":4914,"##de på ":4915,"##list":4916,"##60 ":4917,"##sign":4918,"##ninger.\n":4919,"##jeg ikke ":4920,"##ungdom":4921,"##den og ":4922,"##vinter":4923,"##30":4924,"##defin":4925,"##en av de ":4926,"##ansi":4927,"##funnet ":4928,"##begrens":4929,"##delige ":4930,"##då ":4931,"##elig.\n":4932,"##17 ":4933,"##valg ":4934,"##hent":4935,"##Ver":4936,"##munn":4937,"##skrive ":4938,"##lange ":4939,"##vedtak":4940,"##oto: ":4941,"##<\n":4942,"##ø ":4943,"##nettopp ":4944,"##har en ":4945,"Fr":4946,"##jeg.\n":4947,"##antall ":4948,"##ott":4949,"##skjøn":4950,"##oppgå":4951,"##or.\n":4952,"Gj":4953,"##29":4954,"##uksjon":4955,"##forslag":4956,"##samtal":4957,"##vidt ":4958,"##else og ":4959,"##IT":4960,"##estill":4961,"##økonomiske ":4962,"##in, ":4963,"Gr":4964,"##sven":4965,"##oppdag":4966,"##utselig ":4967,"##Johann":4968,"##inntek":4969,"Før":4970,"##inj":4971,"##188":4972,"##edag":4973,"##glad ":4974,"##nø":4975,"##plik":4976,"##endring":4977,"10":4978,"##ellom":4979,"##avhengig ":4980,"##18. ":4981,"##orat":4982,"##ere enn ":4983,"##skaff":4984,"##best ":4985,"##ikke bare ":4986,"##ordin":4987,"##lokale ":4988,"##alj":4989,"##ical ":4990,"##et par ":4991,"##NR":4992,"##åpen":4993,"##sess":4994,"14":4995,"##es som ":4996,"##etter at ":4997,"##Dag":4998,"##ter som ":4999,"##ed.\n":5000,"##2,":5001,"Se":5002,"##Trond":5003,"##verk ":5004,"##analy":5005,"##Arbeid":5006,"##gard":5007,"##Gud ":5008,"Dette er ":5009,"##nyhet":5010,"##nu ":5011,"##bruker ":5012,"##Og ":5013,"##Sch":5014,"##sikre ":5015,"##...":5016,"##Od":5017,"##lar":5018,"##Opp":5019,"##lille ":5020,"##bjør":5021,"##virksomhet":5022,"Har ":5023,"##Am":5024,"##Reg":5025,"##med den ":5026,"##tredje ":5027,"##and, ":5028,"##inc":5029,"##a?\n":5030,"##kraft":5031,"##forvalt":5032,"##pe":5033,"##mann ":5034,"##fung":5035,"##begynte å ":5036,"##iversitet":5037,"##politi":5038,"##sch":5039,"##op ":5040,"##brø":5041,"##N ":5042,"##t til å ":5043,"##forsv":5044,"##ung ":5045,"##fug":5046,"##deltak":5047,"##was ":5048,"##idet ":5049,"##sommer":5050,"##p.\n":5051,"##kr. ":5052,"##dens ":5053,"##e om ":5054,"##ert.\n":5055,"##noko ":5056,"##sekt":5057,"##Kon":5058,"##c ":5059,"##Co":5060,"##ansvar ":5061,"##her.\n":5062,"##strid":5063,"##brann":5064,"##bered":5065,"##student":5066,"Også ":5067,"##klu":5068,"##blir det ":5069,"##.15":5070,"##drep":5071,"##løy":5072,"##beslut":5073,"##ing som ":5074,"##reiste ":5075,"##hin":5076,"##erings":5077,"##ansk ":5078,"##OM":5079,"Å ":5080,"##spar":5081,"##dette.\n":5082,"Dersom ":5083,"##vir":5084,"##foreg":5085,"##skap ":5086,"##e, som ":5087,"##sho":5088,"##F ":5089,"Derfor ":5090,"##Ma":5091,"##husk":5092,"##prosent":5093,"##park":5094,"##have ":5095,"##norm":5096,"##å ta ":5097,"##ID":5098,"##film":5099,"##ykt":5100,"##er han ":5101,"##for det ":5102,"##befolk":5103,"##interv":5104,"##milli":5105,"##glem":5106,"##felles ":5107,"##nemlig ":5108,"##for de ":5109,"##Høy":5110,"##vik ":5111,"##ne.\n":5112,"##individ":5113,"Eg ":5114,"##har fått ":5115,"##orfor ":5116,"##fram til ":5117,"##per ":5118,"##dene ":5119,"##bit":5120,"##ig, ":5121,"##ald ":5122,"##hun hadde ":5123,"##telefon":5124,"##Øst":5125,"##myndighet":5126,"##ment ":5127,"##desem":5128,"##s of ":5129,"##peri":5130,"##septem":5131,"##på det ":5132,"13":5133,"##stasjon":5134,"##ellers ":5135,"##straff":5136,"##frem ":5137,"Bar":5138,"##ie":5139,"##a med ":5140,"Reg":5141,"##juni ":5142,"##at dette ":5143,"##skikk":5144,"##støtte ":5145,"##bygge ":5146,"##barneh":5147,"##bedrif":5148,"- Det er ":5149,"##kam":5150,"##hor":5151,"##livs":5152,"##lån":5153,"##tab":5154,"##gut":5155,"##R ":5156,"Bl":5157,"##ønsket ":5158,"##på et ":5159,"##vil være ":5160,"##ute ":5161,"##15. ":5162,"##sum":5163,"##187":5164,"##lov ":5165,"##Hen":5166,"##feng":5167,"##edlem":5168,"##elser.\n":5169,"##konsekv":5170,"til ":5171,"Kanskje ":5172,"##omfat":5173,"##brev":5174,"23":5175,"##ES":5176,"##omtal":5177,"##aksj":5178,"##iden ":5179,"##onn":5180,"##En ":5181,"##ferdig":5182,"##arbeide ":5183,"##ingent":5184,"##skjønn":5185,"##anke ":5186,"##den":5187,"##økt ":5188,"At ":5189,"Av ":5190,"##16. ":5191,"##kat":5192,"##ker":5193,"##ing for ":5194,"##sminist":5195,"##ial ":5196,"##dram":5197,"##blod":5198,"##drif":5199,"##forvent":5200,"##handling":5201,"200":5202,"##frå":5203,"##seiv om ":5204,"##we":5205,"##rent":5206,"##ferdig ":5207,"##alg":5208,"##ativt ":5209,"##er som er ":5210,"##git":5211,"##tur ":5212,"##Bo":5213,"##ue ":5214,"##inn.\n":5215,"##berre ":5216,"##Ham":5217,"##evne ":5218,"##erstat":5219,"##i et ":5220,"##. . .\n":5221,"##sdag":5222,"##us.\n":5223,"##forbruk":5224,"##eleg":5225,"##svis ":5226,"##, med ":5227,"##seier ":5228,"##Mart":5229,"Dag":5230,"##pensjon":5231,"##sønn":5232,"##gjøres ":5233,"##edes ":5234,"##uten å ":5235,"##kul":5236,"##ganger ":5237,"##org ":5238,"##ansett ":5239,"##Amer":5240,"##f.ek":5241,"##ulykk":5242,"##Ty":5243,"##Par":5244,"##skapet ":5245,"##to the ":5246,"##politik":5247,"##ED":5248,"##pat":5249,"Av":5250,"##kalt ":5251,"##følger ":5252,"##en ny ":5253,"##relig":5254,"##uro":5255,"##oppmerk":5256,"##sannsyn":5257,"##ikke noe ":5258,"##ensi":5259,"##tref":5260,"##6-":5261,"##litter":5262,"##from ":5263,"##vindu":5264,"##fok":5265,"##ot ":5266,"##nær ":5267,"##eksist":5268,"##seks ":5269,"##Ul":5270,"##up ":5271,"##on.\n":5272,"##ikke var ":5273,"##ras":5274,"##a er ":5275,"##blev ":5276,"##anled":5277,"##nå.\n":5278,"##krav":5279,"##oth":5280,"##EM":5281,"##enkelt ":5282,"##aden ":5283,"##ekst":5284,"##old":5285,"##USA":5286,"##yll":5287,"Kj":5288,"##tjen":5289,"Hvor ":5290,"##hot":5291,"##skar":5292,"##merke ":5293,"##kan du ":5294,"##bal":5295,"##Pr":5296,"##tross ":5297,"##høy ":5298,"##ia.\n":5299,"##lig, ":5300,"##186":5301,"##trakk ":5302,"##foresl":5303,"in":5304,"##på at ":5305,"##AM":5306,"##størr":5307,"##fre":5308,"##.30":5309,"##punkt":5310,"##frit":5311,"##sky":5312,"##vore ":5313,"##inntil ":5314,"##erv":5315,"##.03\n":5316,"##hodet ":5317,"##nikk":5318,"##ta":5319,"##ønn ":5320,"##viktigste ":5321,"##skjer":5322,"##klart ":5323,"##industri":5324,"##ante ":5325,"##møte ":5326,"##sil":5327,"##en til å ":5328,"##kan vi ":5329,"##knyttet til ":5330,"##leis ":5331,"##tilfelle ":5332,"Hvordan ":5333,"##hadde han ":5334,"##jor":5335,"##hjelpe ":5336,"##øver":5337,"##rige ":5338,"##musikk":5339,"##strateg":5340,"##stig":5341,"##midl":5342,"##gu":5343,"##heng ":5344,"##st og ":5345,"##oh":5346,"##d for ":5347,"##bestemt ":5348,"##mannen ":5349,"##ene med ":5350,"##For ":5351,"##seg, ":5352,"##bry":5353,"##innsat":5354,"##modell":5355,"##området ":5356,"##re og ":5357,"##klær":5358,"##roll":5359,"##brit":5360,"##et:\n":5361,"##gull":5362,"##enter":5363,"##land, ":5364,"##en mellom ":5365,"##setning":5366,"##TV":5367,"##oft":5368,"##a (":5369,"##kok":5370,"##vil bli ":5371,"##den som ":5372,"##Oslo":5373,"##stit":5374,"##formål":5375,"##lage ":5376,"##fjern":5377,"##08":5378,"##omp":5379,"##S\n":5380,"##hverandre ":5381,"##fremdeles ":5382,"##refer":5383,"##ack":5384,"##febru":5385,"##fortelle ":5386,"##aller ":5387,"##elt":5388,"##lør":5389,"##de siste ":5390,"##kant":5391,"##departementet ":5392,"##Ed":5393,"##L ":5394,"Det ble ":5395,"##Am.\n":5396,"##ned i ":5397,"##nede ":5398,"##19 ":5399,"## mellom ":5400,"##høre ":5401,"##en ved ":5402,"##barnehag":5403,"##helst ":5404,"##al, ":5405,"##finner ":5406,"##har det ":5407,"##100 ":5408,"##:00":5409,"##? ":5410,"##wh":5411,"##09":5412,"##7-":5413,"##tus":5414,"##Ing":5415,"##bær":5416,"##Kong":5417,"##Trom":5418,"12":5419,"##gud":5420,"##ensen ":5421,"##rak":5422,"##slutt ":5423,"##seiv.\n":5424,"##begrep":5425,"##10. ":5426,"##kjøkk":5427,"##omfatt":5428,"##hvorfor ":5429,"##fr.\n":5430,"##smak":5431,"##når det gjelder ":5432,"Sel":5433,"##novem":5434,"##Ja, ":5435,"##settes ":5436,"##stats":5437,"##så mye ":5438,"##itet ":5439,"##slikt ":5440,"##rygg":5441,"##å bli ":5442,"##und.\n":5443,"##Ge":5444,"##knyt":5445,"##fys":5446,"##tung":5447,"##es\n":5448,"##ønsker å ":5449,"##rig":5450,"##ester":5451,"##a for ":5452,"##bereg":5453,"##bol":5454,"##f.eks. ":5455,"##2) ":5456,"##farg":5457,"##makt":5458,"##linj":5459,"##lar ":5460,"##the":5461,"##ber\n":5462,"##de fleste ":5463,"##nog":5464,"Re":5465,"##prinsipp":5466,"##offentlige ":5467,"##kluder":5468,"##meir ":5469,"##b ":5470,"##okrat":5471,"##use":5472,"##motor":5473,"##viktige ":5474,"##bus":5475,"##inne ":5476,"Men det ":5477,"##det?\n":5478,"##en slik ":5479,"##bland":5480,"##e; ":5481,"##stendig ":5482,"##røy":5483,"##som om ":5484,"##~ ":5485,"##preg":5486,"##gis ":5487,"##felles":5488,"##IV":5489,"##rød":5490,"##ing med ":5491,"##trafikk":5492,"##isk.\n":5493,"##orten ":5494,"##mit":5495,"##Mat":5496,"##Fran":5497,"##en gang ":5498,"##snitt":5499,"##mer.\n":5500,"##irekt":5501,"##th ":5502,"##sammenheng":5503,"##regel":5504,"##stav":5505,"##De":5506,"##snud":5507,"##de andre ":5508,"##Inn":5509,"##åpnet ":5510,"##vegg":5511,"##mand":5512,"##orter":5513,"##tidlig ":5514,"##sjel":5515,"##ledd ":5516,"##sosiale ":5517,"##enten ":5518,"##smann":5519,"##kref":5520,"##e (":5521,"##leil":5522,"##100":5523,"##blå":5524,"198":5525,"##når de ":5526,"##i dag ":5527,"##finansi":5528,"##end ":5529,"##sterkt ":5530,"##Ole ":5531,"##skape ":5532,"##norsk":5533,"##bruk ":5534,"##hjelp ":5535,"##ing til ":5536,"##else i ":5537,"##sikkerhet":5538,"##skal ha ":5539,"##at.\n":5540,"##ekk ":5541,"Det kan ":5542,"##enc":5543,"##sfor":5544,"##isin":5545,"##okt":5546,"##slå ":5547,"##sang":5548,"##Finn":5549,"##måte ":5550,"##Fin":5551,"##sykehus":5552,"##ement ":5553,"##arbeid ":5554,"##Andre":5555,"##ars ":5556,"##landet.\n":5557,"##.55 ":5558,"##sende ":5559,"##har ikke ":5560,"##avslut":5561,"##period":5562,"##navn ":5563,"##sur":5564,"##P ":5565,"##och ":5566,"##tilfred":5567,"##abo":5568,"##struktur":5569,"##, det ":5570,"##Trondheim":5571,"##trent ":5572,"##He":5573,"##hvilken ":5574,"##foreldr":5575,"##y\n":5576,"##grep":5577,"##ga":5578,"##atisk ":5579,"22":5580,"##ut på ":5581,"##den, ":5582,"##dager ":5583,"##viss ":5584,"##stak":5585,"##(r) (":5586,"##lur":5587,"##øyeblikk":5588,"##fjord":5589,"##kin":5590,"##plat":5591,"##ære":5592,"##um, ":5593,"##8-":5594,"##gjest":5595,"##nam":5596,"##ningen av ":5597,"Seiv ":5598,"##vist ":5599,"##kart":5600,"##ødel":5601,"##fylkes":5602,"##AK":5603,"##merket ":5604,"##deler av ":5605,"##ise ":5606,"##kroner.\n":5607,"##vanskelig å ":5608,"##11. ":5609,"##åte ":5610,"##måned":5611,"##døde ":5612,"##trenger ":5613,"##en rekke ":5614,"##butikk":5615,"##i-":5616,"##s (":5617,"##øse ":5618,"##.10":5619,"##EU":5620,"##14. ":5621,"##ifølge ":5622,"##er ut":5623,"##luk":5624,"##opp og ":5625,"##im ":5626,"##elsen.\n":5627,"##barna ":5628,"##e!\n":5629,"##feri":5630,"##råd ":5631,"##er?\n":5632,"##hensyn til ":5633,"##ourn":5634,"##konkurran":5635,"##rid":5636,"Slik ":5637,"##amb":5638,"##tas ":5639,"##h.\n":5640,"##blik":5641,"##05":5642,"##ologiske ":5643,"##, d":5644,"##den andre ":5645,"##sei":5646,"##tj":5647,"Noen ":5648,"##brukes ":5649,"##opp på ":5650,"##spolit":5651,"##stir":5652,"##hell":5653,"##Haug":5654,"##bon":5655,"##pi":5656,"##iss":5657,"##Fl":5658,"##1) ":5659,"##også.\n":5660,"##C ":5661,"##beskriv":5662,"##splass":5663,"##drag ":5664,"Om":5665,"##spir":5666,"##tet i ":5667,"##skl":5668,"##av det ":5669,"##med det ":5670,"##meng":5671,"##s and ":5672,"##Stav":5673,"##sentral":5674,"##omkring ":5675,"##ter\n":5676,"##Men ":5677,"##n og ":5678,"##på grunn av ":5679,"##dem som ":5680,"##her i ":5681,"##AV":5682,"##9-":5683,"##plant":5684,"##oversik":5685,"##ski":5686,"##ock":5687,"##last":5688,"##= ":5689,"##.10 ":5690,"##bøy":5691,"##dårlig ":5692,"##fri ":5693,"##bliotek":5694,"Or":5695,"##giver":5696,"SS ":5697,"Ingen ":5698,"##.45 ":5699,"##mente ":5700,"Mar":5701,"##avhengig av ":5702,"##mor ":5703,"##bring":5704,"##Ha":5705,"##]\n":5706,"##bygning":5707,"##ha":5708,"##tter":5709,"##engasj":5710,"##proses":5711,"##Land":5712,"##den første ":5713,"##treff":5714,"##oved":5715,"##kel":5716,"##19. ":5717,"##gammel ":5718,"##komment":5719,"##Hans ":5720,"##vil det ":5721,"##utbygg":5722,"##områder ":5723,"##lede ":5724,"Foto: ":5725,"##er kan ":5726,"##undet ":5727,"##dels ":5728,"##effekt":5729,"##70 ":5730,"##bor ":5731,"##ere som ":5732,"##trodde ":5733,"##plikt":5734,"##, der ":5735,"##papir":5736,"##80 ":5737,"##plutselig ":5738,"##ians":5739,"for ":5740,"##yrk":5741,"##til et ":5742,"##brenn":5743,"##mark ":5744,"##legges ":5745,"##gjennomfør":5746,"##eng ":5747,"##selve ":5748,"##forfat":5749,"##ereg":5750,"##ild":5751,"##Eli":5752,"##SK":5753,"##fing":5754,"##lære ":5755,"##sinn":5756,"##m.":5757,"##huset ":5758,"##i i ":5759,"##utter ":5760,"##port":5761,"##grip":5762,"##fullt ":5763,"##sen\n":5764,"##leire ":5765,"##opptatt ":5766,"##grat":5767,"##endelig ":5768,"##tykk":5769,"##ament":5770,"##betrakt":5771,"##aktør":5772,"##ager":5773,"##pol":5774,"##har jeg ":5775,"##;\n":5776,"##kontakt med ":5777,"##, mens ":5778,"##uli":5779,"##Ad":5780,"##han ikke ":5781,"##popul":5782,"##barnet ":5783,"##etid":5784,"##trapp":5785,"##fon":5786,"##50":5787,"##................":5788,"21":5789,"##kapit":5790,"##de å ":5791,"##var ikke ":5792,"##ordning":5793,"##plei":5794,"##dif":5795,"##slått ":5796,"##begynte ":5797,"##vandr":5798,"##prior":5799,"##salg":5800,"##EF":5801,"##opply":5802,"##pris ":5803,"##bestemmels":5804,"##holdning":5805,"##eleg ":5806,"##verden":5807,"##ativ ":5808,"##du har ":5809,"##verre ":5810,"##Tel":5811,"##it.\n":5812,"##lad":5813,"##drøm":5814,"##moderne ":5815,"##som i ":5816,"##brukt ":5817,"##stående ":5818,"##veien ":5819,"##bø":5820,"##a:\n":5821,"##this ":5822,"##karakter":5823,"##ene ble ":5824,"##budsjett":5825,"##ennesk":5826,"##bra ":5827,"##syntes ":5828,"##nåd":5829,"##milit":5830,"##s- og ":5831,"##ennom ":5832,"##siden.\n":5833,"##maskin":5834,"##an, ":5835,"##Hv":5836,"##isert ":5837,"##proble":5838,"##tilsvarende ":5839,"##snø":5840,"##ia, ":5841,"##naturlig ":5842,"##vant ":5843,"##21 ":5844,"##anna ":5845,"##same ":5846,"Ja, ":5847,"##OTO":5848,"##regnskap":5849,"##Guds ":5850,"Jeg er ":5851,"##ane.\n":5852,"##om, ":5853,"##olj":5854,"##kyst":5855,"##kommune ":5856,"##bl.":5857,"##artikk":5858,"##kjenner ":5859,"##politisk ":5860,"##brukte ":5861,"##gav ":5862,"##troll":5863,"##isk og ":5864,"##sterk ":5865,"##må være ":5866,"##verket ":5867,"##asse":5868,"##en stor ":5869,"##forstå ":5870,"##ck":5871,"##vold":5872,"##mun":5873,"##døm":5874,"##New ":5875,"##som kan ":5876,"Hel":5877,"##fornøy":5878,"##i S":5879,"##egge ":5880,"##unst":5881,"Dess":5882,"##visst ":5883,"##høyere ":5884,"##åpne ":5885,"##material":5886,"##somhet":5887,"##års":5888,"##nytt":5889,"##>> og ":5890,"##himmel":5891,"##overrask":5892,"##å gjøre ":5893,"##bekym":5894,"##prim":5895,"##en god ":5896,"##lepp":5897,"##først":5898,"##sed":5899,"##Jon":5900,"##alt.\n":5901,"##185":5902,"##kapitt":5903,"##mess":5904,"##sammen.\n":5905,"##sled":5906,"##yss":5907,"Lik":5908,"##kunde ":5909,"##betydelig ":5910,"- E":5911,"##på, ":5912,"##err":5913,"##sein":5914,"##til det ":5915,"##bom":5916,"##frist":5917,"##omsorg":5918,"##E\n":5919,"##bidra ":5920,"197":5921,"##sterke ":5922,"##sitter ":5923,"##fotball":5924,"##løse ":5925,"##et ble ":5926,"##aren ":5927,"##Til":5928,"##12. ":5929,"##økonomisk ":5930,"##uct":5931,"La ":5932,"##22 ":5933,"##ikke kan ":5934,"##ene\n":5935,"##able ":5936,"##ansj":5937,"Det er ikke ":5938,"##e>> ":5939,"##med seg ":5940,"##Erik":5941,"##evel":5942,"##navnet ":5943,"Under ":5944,"##ebo":5945,"##hed":5946,"##igvis ":5947,"##eplei":5948,"##90 ":5949,"##utstyr":5950,"##ennå ":5951,"##et?\n":5952,"##års ":5953,"##ater":5954,"##, men det ":5955,"##består ":5956,"##rolig ":5957,"##whi":5958,"##beting":5959,"##følgelig ":5960,"##ent.\n":5961,"##bakgrunn":5962,"##aug ":5963,"##ne, ":5964,"##l. ":5965,"##som hadde ":5966,"##AND":5967,"##not ":5968,"##07":5969,"##mørk":5970,"##igjen, ":5971,"##så på ":5972,"##prosent av ":5973,"##ning på ":5974,"##sammenheng ":5975,"##.1 ":5976,"##vær ":5977,"##befal":5978,"##tol":5979,"##like":5980,"##io ":5981,"##es med ":5982,"##24 ":5983,"##bevil":5984,"##kombin":5985,"##a av ":5986,"##og frem":5987,"##den er ":5988,"##hjert":5989,"##meg, ":5990,"##Kor":5991,"##person ":5992,"##Gj":5993,"##omite":5994,"##som det ":5995,"##3,":5996,"##20. ":5997,"##slapp":5998,"For å ":5999,"Samtidig ":6000,"##Nord-":6001,"##rec":6002,"##ham, ":6003,"##bør":6004,"##ak ":6005,"##et ved ":6006,"##Tysk":6007,"##bunn":6008,"##dekk":6009,"##kalte ":6010,"##fær":6011,"##en ut":6012,"##ions ":6013,"##ingens ":6014,"##usk":6015,"##innebær":6016,"##skrev ":6017,"##kommer til å ":6018,"##deretter ":6019,"Hvorfor ":6020,"##AD":6021,"##andre":6022,"##produkt":6023,"##ingen":6024,"##jur":6025,"##måten ":6026,"##sjå ":6027,"##ies ":6028,"##Paul":6029,"##isk m":6030,"##smessig ":6031,"##Hun ":6032,"##styrk":6033,"##ling ":6034,"##vedkommende ":6035,"##her, ":6036,"##.15 ":6037,"##kkel":6038,"##streng":6039,"##trå":6040,"##kjøt":6041,"##ikk i ":6042,"##advok":6043,"##mellom":6044,"##ØR":6045,"##tilgjeng":6046,"##transport":6047,"##ol ":6048,"##sår":6049,"##da hun ":6050,"##terr":6051,"##flyttet ":6052,"##nevnte ":6053,"##utgif":6054,"##tydelig ":6055,"##lign":6056,"##vask":6057,"##tillat":6058,"##frik":6059,"##tegn":6060,"##leder ":6061,"4. ":6062,"##time ":6063,"##3) ":6064,"##jøl":6065,"##ated ":6066,"##t (":6067,"##avgif":6068,"## millioner ":6069,"##om en ":6070,"##anonymous@domain.com\n":6071,"##eier":6072,"##Eng":6073,"##sæ":6074,"##et (":6075,"##visse ":6076,"##ferd ":6077,"##eksempl":6078,"##fortalte ":6079,"##z ":6080,"##behov for ":6081,"##Mon":6082,"##us, ":6083,"##on, ":6084,"##hjemme ":6085,"##hopp":6086,"##bart ":6087,"##kom til ":6088,"##san":6089,"##en etter ":6090,"##out":6091,"##ign":6092,"##ditt ":6093,"##haug":6094,"##hundre ":6095,"##utvikle ":6096,"##de har ":6097,"##ary ":6098,"##konsekvens":6099,"##grunnlag":6100,"##konsentr":6101,"##het i ":6102,"##kastet ":6103,"##0-tall":6104,"##.20 ":6105,"##com ":6106,"##se og ":6107,"##ice ":6108,"Bare ":6109,"##bill":6110,"##tilsyn":6111,"##obj":6112,"##rå ":6113,"##Å ":6114,"##sen (":6115,"Hans ":6116,"##ansiktet ":6117,"##Hans":6118,"##supp":6119,"##avgift":6120,"##liv.\n":6121,"##ill. ":6122,"##es og ":6123,"##Norw":6124,"##jeg hadde ":6125,"##tilstrekk":6126,"##vitenskap":6127,"##ekstra ":6128,"##øs":6129,"##Oslo.\n":6130,"##en annen ":6131,"## min":6132,"Stat":6133,"##høst":6134,"##en k":6135,"Ek":6136,"##somt ":6137,"##FOR":6138,"##tidlig":6139,"##seg på ":6140,"##akt ":6141,"##problemer ":6142,"##AS ":6143,"##forskjell":6144,"##Li":6145,"##løp ":6146,"##kjønn":6147,"##Sc":6148,"##skift":6149,"##dels":6150,"##dik":6151,"##vekt":6152,"##Con":6153,"##isere ":6154,"Tid":6155,"##inne i ":6156,"##.25 ":6157,"##flot":6158,"##også i ":6159,"##ikke hadde ":6160,"##Dr":6161,"##praksis ":6162,"##papp":6163,"##ei.\n":6164,"##temper":6165,"##OG ":6166,"##vekst":6167,"##our ":6168,"##regel ":6169,"##asjon.\n":6170,"##] ":6171,"##www":6172,"Se ":6173,"##tr.\n":6174,"##hjelp av ":6175,"##grøn":6176,"##slå":6177,"##offentlig ":6178,"##detalj":6179,"##bevar":6180,"##opprinn":6181,"##medi":6182,"##server":6183,"##kvalitet":6184,"##enhver ":6185,"##sand":6186,"##vil ha ":6187,"##EK":6188,"##Jør":6189,"##grep ":6190,"##Hal":6191,"##komite":6192,"##et over ":6193,"##hånden ":6194,"##184":6195,"##priorit":6196,"##konfl":6197,"##ifiser":6198,"##mamm":6199,"##er blitt ":6200,"av ":6201,"##sak ":6202,"##øvrig ":6203,"i. ":6204,"Hun hadde ":6205,"##betale ":6206,"##programm":6207,"##yrkes":6208,"##etiske ":6209,"##før.\n":6210,"##é ":6211,"##ologisk ":6212,"##fulle ":6213,"##mobil":6214,"##kyr":6215,"##tver":6216,"##byen ":6217,"##35":6218,"##bl.a. ":6219,"##saken ":6220,"##log":6221,"##Vik":6222,"##hemm":6223,"##wo":6224,"##Per":6225,"##nek":6226,"##er for å ":6227,"##er etter ":6228,"##undr":6229,"##is, ":6230,"##da.\n":6231,"##U ":6232,"##øst ":6233,"##omtrent ":6234,"##do":6235,"##Eg":6236,"##Stavang":6237,"##ne og ":6238,"##samlet ":6239,"##arked":6240,"##erne.\n":6241,"##fulgte ":6242,"##åde ":6243,"##aste ":6244,"##forholdet ":6245,"##pan":6246,"##vat":6247,"##rene ":6248,"##lys ":6249,"##skjem":6250,"##ism":6251,"##99":6252,"##fleire ":6253,"##hygg":6254,"##Af":6255,"##er - ":6256,"##stjern":6257,"##ett.\n":6258,"##lis":6259,"##jord ":6260,"##ressurs":6261,"##.:\n":6262,"##slutten av ":6263,"##klare ":6264,"##fabr":6265,"##rettighet":6266,"3 ":6267,"##ppe ":6268,"##mai ":6269,"Ver":6270,"##tall ":6271,"##bekref":6272,"##til, ":6273,"##ET ":6274,"##bad":6275,"##revis":6276,"##Ag":6277,"##ingen, ":6278,"##født ":6279,"##ag.\n":6280,"##hører ":6281,"##europ":6282,"##alitet":6283,">> Han ":6284,"##åk":6285,"##gjent":6286,"##13. ":6287,"##oktob":6288,"##ional ":6289,"##ai":6290,"##dt ":6291,"##IG":6292,"Polit":6293,"##en liten ":6294,"##han har ":6295,"##der i ":6296,"##.45\n":6297,"##Lars ":6298,"##old ":6299,"To ":6300,"##dine ":6301,"##dag, ":6302,"##ekn":6303,"##luf":6304,"##frivil":6305,"##syst":6306,"##Jac":6307,"##.\"\n":6308,"Vid":6309,"##slett ":6310,"##demokrat":6311,", ":6312,"##først og frem":6313,"##med i ":6314,"##bruks":6315,"##sekret":6316,"##sektor":6317,"##Rom":6318,"##jeg er ":6319,"##relativt ":6320,"##ts ":6321,"##satt i ":6322,"##ja, ":6323,"##Gunn":6324,"##34":6325,"##hår":6326,"##riktig":6327,"##kan også ":6328,"##.05\n":6329,"##veil":6330,"##standen ":6331,"##1/":6332,"##en del ":6333,"##ater ":6334,"##Lond":6335,"##journ":6336,"##eren.\n":6337,"##energi":6338,"##Anne ":6339,"##skill":6340,"##å se ":6341,"##, B":6342,"##kjenne ":6343,"##formann":6344,"##så mange ":6345,"##rolle ":6346,"##ryd":6347,"##alen ":6348,"##ånd":6349,"##kled":6350,"##den nye ":6351,"##vil ikke ":6352,"##pust":6353,"##slår ":6354,"##internasjonale ":6355,"##splan":6356,"##ail":6357,"##virket ":6358,"##at og ":6359,"##noen av ":6360,"på ":6361,"##buk":6362,"##ence ":6363,"##skulde ":6364,"##www.":6365,"##ingsm":6366,"##aksep":6367,"##hennes.\n":6368,"##engang ":6369,"##barn.\n":6370,"##orient":6371,"##ai ":6372,"I m":6373,"##el\n":6374,"##hjer":6375,"##en for å ":6376,"##var på ":6377,"##anlegg ":6378,"##lass":6379,"##falt ":6380,"##steng":6381,"##en.\"\"\n":6382,"Ein ":6383,"##desse ":6384,"##ally ":6385,"##flert":6386,"##vera ":6387,"##sland ":6388,"##>> (":6389,"##sin egen ":6390,"##bord ":6391,"##kjem ":6392,"##private ":6393,"##te til ":6394,"##middel":6395,"##plassen ":6396,"##hans.\n":6397,"##une ":6398,"##kontakt":6399,"##gående ":6400,"##bryst":6401,"##en ikke ":6402,"##plan ":6403,"##igur ":6404,"##elov":6405,"##o\n":6406,"##los":6407,"##via ":6408,"##den av ":6409,"##ene om ":6410,"##0-år":6411,"##tvil":6412,"##s for ":6413,"##ville ha ":6414,"##skinn":6415,"##vekt på ":6416,"##før han ":6417,"##Lang":6418,"##umm":6419,"##de er ":6420,"##edagog":6421,"##lese ":6422,"##enkelt":6423,"##dra ":6424,"##kvalit":6425,"##etil":6426,"Over":6427,"##hur":6428,"##Te":6429,"##n i ":6430,"##A. ":6431,"##John":6432,"- K":6433,"##en!\n":6434,"##23 ":6435,"##nev":6436,"##ar som ":6437,"##mulig å ":6438,"##ick":6439,"##appar":6440,"##areal":6441,"##ønske ":6442,"##ivt ":6443,"##prosent ":6444,"##tilfeller ":6445,"##voks":6446,"##sendt ":6447,"##inneholder ":6448,"##spille ":6449,"##espill":6450,"##effektiv":6451,"##ese ":6452,"##faktor":6453,"##fjor":6454,"##nad ":6455,"##et eller ":6456,"##which ":6457,"##forelig":6458,"##løsn":6459,"##fjer":6460,"##Lov":6461,"##kjøpe ":6462,"##Folk":6463,"##Sv":6464,"##e) ":6465,"Før ":6466,"##ytt ":6467,"##sosial":6468,"##tilbake.\n":6469,"##scen":6470,"##The":6471,"##mein":6472,"##dessuten ":6473,"##ear":6474,"##røm":6475,"##en p":6476,"##o og ":6477,"##det til ":6478,"##tak i ":6479,"##overfør":6480,"##januar ":6481,"##.2 ":6482,"##styr ":6483,"##latt ":6484,"##verdens ":6485,"##var han ":6486,"##å gå ":6487,"##kraftig ":6488,"##bre":6489,"##lomm":6490,"##følte ":6491,"##sper":6492,"##arbeid.\n":6493,"##aktig ":6494,"##as.\n":6495,"##styrke ":6496,"##invit":6497,"##som ikke ":6498,"##tilfreds":6499,"##arv":6500,"##skap.\n":6501,"##uld ":6502,"##NTB":6503,"##Olav ":6504,"##kunne ikke ":6505,"## eller ":6506,"##system ":6507,"##alminn":6508,"##andre, ":6509,"##kaff":6510,"##ateri":6511,"##kjøkken":6512,"##eskommun":6513,"##reaksjon":6514,"##imin":6515,"##forek":6516,"##sukk":6517,"##seil":6518,"##Av":6519,"##6\n":6520,"##, og han ":6521,"##seg og ":6522,"##drive ":6523,"##PP":6524,"##midt":6525,"##amerikanske ":6526,"Pr":6527,"##en f":6528,"##attsend":6529,"##bibliotek":6530,"Kan ":6531,"##Is":6532,"##off ":6533,"##prem":6534,"##rein":6535,"##ut og ":6536,"##:3":6537,"##ma ":6538,"##Per ":6539,"##skjer ":6540,"##bilde ":6541,"##medisin":6542,"##en blir ":6543,"##resten av ":6544,"##sikr":6545,"##å, ":6546,"##hotell":6547,"##ll":6548,"##ene kan ":6549,"##først og fremst ":6550,"##jf. ":6551,"##vesentlig ":6552,"##John ":6553,"##øg":6554,"Alt ":6555,"##Det er ":6556,"##Amerik":6557,"##S-":6558,"##liggende ":6559,"##møter ":6560,"##brev ":6561,"##forn":6562,"##ba":6563,"De":6564,"##umu":6565,"##utred":6566,"##inkluder":6567,"##anne ":6568,"##var blitt ":6569,"##spesielle ":6570,"##tiden.\n":6571,"##du ikke ":6572,"##figur":6573,"##persp":6574,"##ønsker ":6575,"##s på ":6576,"##planlegg":6577,"##diskut":6578,"##lic":6579,"##om den ":6580,"##onymous@domain.com ":6581,"##lokk":6582,"##ikke, ":6583,"##eske ":6584,"##d. ":6585,"##and the ":6586,"##egg ":6587,"##rus":6588,"##konkr":6589,"##frem til ":6590,"##sål":6591,"##de hadde ":6592,"##hit":6593,"##tyske ":6594,"##tydel":6595,"##inntrykk":6596,"Det har ":6597,"##uell ":6598,"##hvite ":6599,"##de ikke ":6600,"##Mari":6601,"##tenke ":6602,"##d\n":6603,"##må ha ":6604,"##gjekk ":6605,"##bransj":6606,"##bok ":6607,"##et mot ":6608,"##e- og ":6609,"##sentrale ":6610,"##A-":6611,"Mens ":6612,"##bøl":6613,"##våk":6614,"##sor":6615,"## m ":6616,"##På ":6617,"##ved siden av ":6618,"##TR":6619,"##stillingen ":6620,"##, H":6621,"##Arne ":6622,"##ansatte ":6623,"##til de ":6624,"##att.\n":6625,"##Tid":6626,"##ba ":6627,"##5,":6628,"##privat":6629,"##i de ":6630,"##henne, ":6631,"##publik":6632,"##Johan ":6633,"##politiet ":6634,"##A/":6635,"##% av ":6636,"##4\n":6637,"##svik":6638,"##dyr ":6639,"##|\n":6640,"##organiser":6641,"##værende ":6642,"##a, men ":6643,"##trekke ":6644,"##ing fra ":6645,"##skudd ":6646,"##eventuelt ":6647,"##Dav":6648,"##Kristians":6649,"##gjeld ":6650,"##en) ":6651,"##altfor ":6652,"##7\n":6653,"##bort til ":6654,"##orgens":6655,"##nemn":6656,"##prosjektet ":6657,"##eid":6658,"##adj":6659,"##atter":6660,"##, en ":6661,"##unde ":6662,"##tog":6663,"##kommunikasjon":6664,"##OTO:\n":6665,"##juli ":6666,"##gangen ":6667,"##, og jeg ":6668,"##erens ":6669,"##Peder":6670,"##endel":6671,"##øynene ":6672,"##orn":6673,"##EG":6674,"##ert av ":6675,"##vanlige ":6676,"##kr.\n":6677,"##hjul":6678,"##ase ":6679,"##muse":6680,"##basert på ":6681,"##flykt":6682,"##plag":6683,"##et ut":6684,"##rent ":6685,"##da jeg ":6686,"##når han ":6687,"##fort ":6688,"##g. ":6689,"##lak":6690,"##pon":6691,"##det ble ":6692,"##skyldes ":6693,"##4,":6694,"##distrikt":6695,"##v. ":6696,"##es på ":6697,"##len ":6698,"##trolig ":6699,"##søl":6700,"##stans":6701,"##med de ":6702,"##its ":6703,"##reise ":6704,"##mig ":6705,"## for å ":6706,"##straf":6707,"##UL":6708,"##smø":6709,"##leve ":6710,"##Rus":6711,"##tyn":6712,"##asjonen ":6713,"##i denne ":6714,"##stein ":6715,"##viser at ":6716,"##t, men ":6717,"##domin":6718,"Når det ":6719,"##jam":6720,"##øs ":6721,">> spurte ":6722,"##m. ":6723,"##els ":6724,"##uke ":6725,"##jell":6726,"##dige ":6727,"##begynne ":6728,"##on the ":6729,"##stad.\n":6730,"##er over ":6731,"##orgensend":6732,"##politikk":6733,"##sving":6734,"##grunn til å ":6735,"##ton ":6736,"##skrevet ":6737,"##Kirk":6738,"##ned på ":6739,"##Statens ":6740,"Flere ":6741,"##en min ":6742,"##snar":6743,"##ing om ":6744,"##med på ":6745,"##strål":6746,"##tein":6747,"##Dette ":6748,"##kan ha ":6749,"##stikk":6750,"##Tromsø":6751,"##ance ":6752,"##oss, ":6753,"##flytt":6754,"06":6755,"##Se":6756,"##oppfyl":6757,"##vand":6758,"##intervju":6759,"##statist":6760,"##ca ":6761,"##hå":6762,"##wor":6763,"##dial":6764,"##eiendomm":6765,"##00-tall":6766,"##engel":6767,"##lende ":6768,"##ing:\n":6769,"##blem":6770,"##kred":6771,"##Nyhet":6772,"##forsøk ":6773,"##tidspunk":6774,"##felt":6775,"Str":6776,"##idrett":6777,"##.15\n":6778,"##velge ":6779,"##han og ":6780,"##sav":6781,"##kamer":6782,"##Gu":6783,"##gjør det ":6784,"##olusjon":6785,"##oci":6786,"##interesse ":6787,"##vakt":6788,"##eval":6789,"##omfatter ":6790,"Kr":6791,"##ettermid":6792,"##.50\n":6793,"##sr":6794,"##01":6795,"##har hatt ":6796,"##va":6797,"##ordet ":6798,"##europe":6799,"##dette er ":6800,"for":6801,"##ing (":6802,"- V":6803,"##4) ":6804,"##.).\n":6805,"##utan ":6806,"##år i ":6807,"##ordfør":6808,"##us og ":6809,"##bryt":6810,"##tilbud ":6811,"##spørsmål ":6812,"##kan bli ":6813,"##hverandre.\n":6814,"##foreldre ":6815,"##st, ":6816,"##skal":6817,"5. ":6818,"##ium":6819,"##par ":6820,"##behand":6821,"##da":6822,"##pa":6823,"##spred":6824,"##sats":6825,"##emn":6826,"##type ":6827,"##sammenlig":6828,"##selskapet ":6829,"##bror":6830,"##Mal":6831,"##ind ":6832,"##differ":6833,"##bygd ":6834,"##eller":6835,"##trans":6836,"##partiet ":6837,"##OK":6838,"##t:\n":6839,"##årets ":6840,"##Sverige ":6841,"##unntak":6842,"##skal vi ":6843,"##utover ":6844,"##omas ":6845,"##utform":6846,"##stjenest":6847,"##. \"\"\"\"":6848,"##ter til ":6849,"##til å bli ":6850,"##tl":6851,"##medlemmer ":6852,"##de\n":6853,"##PR":6854,"##elsene ":6855,"Ber":6856,"##initi":6857,"##som skal ":6858,"##integr":6859,"##ou ":6860,"##lig og ":6861,"##teor":6862,"##Bro":6863,"##sport ":6864,"##når vi ":6865,"Arbeid":6866,"##allet ":6867,"##jfr.\n":6868,"##drøf":6869,"##en del av ":6870,"##en - ":6871,"##blei ":6872,"##bos":6873,"##april ":6874,"##ed\n":6875,"##Stein":6876,"##grå":6877,"##ingen og ":6878,"##det samme ":6879,"##ål ":6880,"##elsen":6881,"##oppdrag":6882,"##noe.\n":6883,"##sesong":6884,"##vor":6885,"##Om":6886,"##in og ":6887,"##glass":6888,"##uansett ":6889,"##ys ":6890,"##+ ":6891,"##Jan ":6892,"##m, ":6893,"##en; ":6894,"##over i ":6895,"##asje ":6896,"##ord.\n":6897,"##enn i ":6898,"##tryk":6899,"##el og ":6900,"##navn":6901,"##livet.\n":6902,"##delt ":6903,"##heter ":6904,"##form av ":6905,"##øke ":6906,"##2.":6907,"##skjul":6908,"##pre":6909,"##aktuelle ":6910,"##sson ":6911,"##forrige ":6912,"##\"\"\"\", ":6913,"(r":6914,"##36":6915,"##Mad":6916,"##ert og ":6917,"##sen i ":6918,"##heile ":6919,"##splik":6920,"##ig og ":6921,"##Qu":6922,"##itet.\n":6923,"##sområ":6924,"##ere på ":6925,"##gli":6926,"##bestemte ":6927,"##fortsatte ":6928,"##dekket ":6929,"##Val":6930,"##sens ":6931,"##en mann":6932,"##element":6933,"##isi":6934,"##mulig":6935,"Han har ":6936,"##venstre ":6937,"##ister":6938,"##faste ":6939,"##for seg ":6940,"##unngå ":6941,"##meste ":6942,"##trakt":6943,"##inn til ":6944,"##møn":6945,"##mulighet ":6946,"##emidl":6947,"##vilde ":6948,"##Inter":6949,"##kohol":6950,"##delen av ":6951,"##med at ":6952,"##- eller ":6953,"##ing er ":6954,"##et, som ":6955,"##drev":6956,"##videre":6957,"##tolk":6958,"##absol":6959,"##Rik":6960,"##re\n":6961,"##rykk":6962,"##skjø":6963,"##alle de ":6964,"##vi kan ":6965,"##inger og ":6966,"##ligge ":6967,"##elag":6968,"##, var ":6969,"##den ene ":6970,"##nivå":6971,"##kalles ":6972,"##ival":6973,"##dagen.\n":6974,"##gjald":6975,"##en så ":6976,"In ":6977,"##:00\n":6978,"##gruppe ":6979,"##40":6980,"##vs. ":6981,"##slekt":6982,"Tor":6983,"##/\n":6984,"##uer":6985,"##iske og ":6986,"##spek":6987,"##tir":6988,"##hall":6989,"##dette, ":6990,"##tett":6991,"##dags":6992,"##fryk":6993,"##-og ":6994,"##er det ikke ":6995,"##dobb":6996,"##urn":6997,"##37":6998,"##andid":6999,"##lengre ":7000,"##perioden ":7001,"##8\n":7002,"##vil si ":7003,"##erled":7004,"##en mot ":7005,"Ifølge ":7006,"##1).\n":7007,"##tilfell":7008,"##H ":7009,"##spør ":7010,"##forestill":7011,"##elle":7012,"##berør":7013,"##Lind":7014,"##.50 ":7015,"##UR":7016,"Ho ":7017,"##a var ":7018,"##esel":7019,"##.05 ":7020,"4 ":7021,"##ed to ":7022,"##ulle ":7023,"##olk ":7024,"frå ":7025,"##stim":7026,"##mars ":7027,"##skjær":7028,"##se\n":7029,"##sted.\n":7030,"##anter ":7031,"##etter.\n":7032,"##innbygg":7033,"##deg, ":7034,"##9\n":7035,"##Du ":7036,"##fylkeskommun":7037,"##relev":7038,"##t.":7039,"Dermed ":7040,"##ut til ":7041,"##ene skal ":7042,"##spart":7043,"##år og ":7044,"##agg":7045,"##utfør":7046,"##stad, ":7047,"##minste ":7048,"##b.\n":7049,"Jeg tror ":7050,"##fra":7051,"##tenn":7052,"##havn":7053,"##et han ":7054,"##soldat":7055,"##må vi ":7056,"##>> i ":7057,"##hr":7058,"##ekte":7059,"##da, ":7060,"##) er ":7061,"##russ":7062,"##gal":7063,"##akter ":7064,"##Bi":7065,"##det på ":7066,"##Mel":7067,"##sendte ":7068,"196":7069,"##opptatt av ":7070,"##ystem":7071,"##poeng":7072,"##ar til ":7073,"##veiled":7074,"##sikker på ":7075,"##emp":7076,"##meto":7077,"##tysk":7078,"##ut, ":7079,"##ansikt":7080,"##Mid":7081,"##las":7082,"kl. ":7083,"I dag ":7084,"##Lille":7085,"##kva ":7086,"##so":7087,"##løsning":7088,"Kommun":7089,"##-år":7090,"##and og ":7091,"##ahl":7092,"##ss ":7093,"A ":7094,"##publi":7095,"##datter ":7096,"##kan man ":7097,"##fantast":7098,"##Rog":7099,"##.25\n":7100,"##feil ":7101,"##bert ":7102,"##april":7103,"##nasjonale ":7104,"##barn og ":7105,"##desember ":7106,"##straks ":7107,"##tilstrekkelig ":7108,"##Ap":7109,"##ond ":7110,"##Ind":7111,"##45":7112,"##det første ":7113,"##Ann":7114,"##Di":7115,"##02":7116,"##konkurr":7117,"Bruk":7118,"##å si ":7119,"##regnet ":7120,"##rapport":7121,"##derimot ":7122,"##øvrige ":7123,"##argument":7124,"##ant.\n":7125,"##Em":7126,"##som ble ":7127,"##Hå":7128,"##dro ":7129,"Både ":7130,"##UT":7131,"##mykje ":7132,"##instr":7133,"##esult":7134,"##inger, ":7135,"##stab":7136,"##leilighet":7137,"##kikk":7138,"##forsikr":7139,"##avvik":7140,"##dit":7141,"##jar":7142,"##Ho":7143,"med ":7144,"## mill. ":7145,"##første gang ":7146,"##er var ":7147,"##des ":7148,"##Trøn":7149,"##rot":7150,"##skole ":7151,"##yndighet":7152,"##om han ":7153,"##oppgåv":7154,"##Hva ":7155,"##utvikling":7156,"##forstår ":7157,"##ene, men ":7158,"##gang til ":7159,"##vr":7160,"##prosess":7161,"##ene:\n":7162,"##ige.\n":7163,"##i av ":7164,"##kak":7165,"##were ":7166,"Andre ":7167,"##en, så ":7168,"##nevnt ":7169,"##anbefal":7170,"##er til å ":7171,"##mottak":7172,"Det blir ":7173,"##Sel":7174,"##leir":7175,"##snyhet":7176,"##Jak":7177,"Han er ":7178,"##35 ":7179,"##28 ":7180,"##lærer":7181,"##Ros":7182,"##skatte":7183,"##jevn":7184,"##en, sier ":7185,"##Anders ":7186,"##iment":7187,"##høyt ":7188,"##forhandl":7189,"##en vil ":7190,"##ild ":7191,"##fortsette ":7192,"##konser":7193,"##da de ":7194,"##løftet ":7195,"##45 ":7196,"##ikke så ":7197,"##han, ":7198,"##delvis ":7199,"##Char":7200,"##has ":7201,"##sitt":7202,"##enor":7203,"##høye ":7204,"##atur ":7205,"##betydning for ":7206,"##utstyr ":7207,"##istisk ":7208,"##vakk":7209,"##omme ":7210,"##fotograf":7211,"##h, ":7212,"##) i ":7213,"##bnr ":7214,"##Mag":7215,"##ict":7216,"##et en ":7217,"##estyr":7218,"##else for ":7219,"##A\n":7220,"##tett ":7221,"##et kan ":7222,"##SS\n":7223,"##var.\n":7224,"##)\"\"\n":7225,"##en>> ":7226,"##ene hadde ":7227,"##pik":7228,"##Thor":7229,"##ungdomm":7230,"##formid":7231,"##klam":7232,"##ene ved ":7233,"##spel":7234,"##bilder ":7235,"##Fredrik":7236,"##angrep":7237,"##bind":7238,"##, har ":7239,"##triv":7240,"##skraf":7241,"##forand":7242,"##vide":7243,"##landske ":7244,"##forskrif":7245,"##ons ":7246,"##øp ":7247,"som ":7248,"##igr":7249,"##offer":7250,"##skrem":7251,"##is\n":7252,"##ugg":7253,"##varme ":7254,"##varsl":7255,"##rog":7256,"##teknolog":7257,"##mur":7258,"##hun var ":7259,"##att i ":7260,"##38":7261,"##not":7262,"##begrunn":7263,"##fav":7264,"##iljø":7265,"##tillegg":7266,"##område ":7267,"##adr":7268,"##ar på ":7269,"##evær":7270,"##restaur":7271,"##pedagog":7272,"##utter":7273,"##seksu":7274,"##OS":7275,"##okument":7276,"##datter":7277,"##mål ":7278,"##føre til ":7279,"##nytte ":7280,"##pe ":7281,"##ell.\n":7282,"##, og så ":7283,"##aret":7284,"##fugl":7285,"##200 ":7286,"##lam":7287,"##2).\n":7288,"##dighet ":7289,"##ku":7290,"##cr":7291,"##som han ":7292,"##sson":7293,"##a har ":7294,"##kyn":7295,"##abr":7296,"##.40\n":7297,"##øyeblikk ":7298,"##lyd":7299,"Men jeg ":7300,"of ":7301,"##er meg ":7302,"##og.\n":7303,"Er det ":7304,"##27 ":7305,"##sprogram":7306,"##Frankr":7307,"- F":7308,"Ing":7309,"##debatt":7310,"##9,":7311,"##stått ":7312,"##fullstendig ":7313,"##ta i ":7314,"##slinj":7315,"##verden.\n":7316,"##vert":7317,"##er inn":7318,"##o:\n":7319,"##ng":7320,"en ":7321,"##vende ":7322,"##hindre ":7323,"##, og det er ":7324,"Her":7325,"##); ":7326,"##kveld ":7327,"##brød":7328,"Videre ":7329,"##i (":7330,"##ytter ":7331,"##et godt ":7332,"##heim ":7333,"##RI":7334,"##lf.\n":7335,"- Du ":7336,"##kilom":7337,"##flu":7338,"##isk, ":7339,"##gjeldende ":7340,"##sant":7341,"##gjev":7342,"##at det ikke ":7343,"##fen":7344,"Am.\n":7345,"##ull ":7346,"##tråd":7347,"##alkohol":7348,"##lex":7349,"##der det ":7350,"##26 ":7351,"##ostnad":7352,"##let":7353,"##et stort ":7354,"##esjon":7355,"##km ":7356,"##o-":7357,"##erne i ":7358,"##tvil ":7359,"##Arbeider":7360,"##bein":7361,"##egenskap":7362,"##rett og ":7363,"##Magn":7364,"##motiv":7365,"##hørt ":7366,"Bil":7367,"##satt":7368,"##direktør ":7369,"##en <<":7370,"##mere ":7371,"##benytt":7372,"##snitt ":7373,"##div":7374,"##menneske ":7375,"##ene (":7376,"##mennesker ":7377,"##ekan":7378,"##hvilket ":7379,"##wo ":7380,"Be":7381,"##ack ":7382,"##fac":7383,"##Knut ":7384,"##lettere ":7385,"##kund":7386,"##gru":7387,"##stå":7388,"##Sør-":7389,"##og i ":7390,"##lo ":7391,"##lav ":7392,"##Bergen ":7393,"##relasjon":7394,"##parten av ":7395,"##svirk":7396,"##ations ":7397,"##ned til ":7398,"##autom":7399,"##fra den ":7400,"##gulv":7401,"##gjøre.\n":7402,"##sten":7403,"##verdens":7404,"##Jesus ":7405,"##tøm":7406,"##ørsmål":7407,"##våp":7408,"##bekk":7409,"##ed by ":7410,"##andel":7411,"##asjon av ":7412,"##skjedde ":7413,"##erie\n":7414,"##vass":7415,"##adet ":7416,"##høyre ":7417,"##uttrykk for ":7418,"##elser, ":7419,"##den på ":7420,"##en måte ":7421,"##.no ":7422,"##tanke ":7423,"##levende ":7424,"##et for å ":7425,"##04":7426,"##frykt":7427,"##betegn":7428,"##vanligvis ":7429,"##hvit":7430,"##sikt":7431,"##motstand":7432,"##ned.\n":7433,"##aj":7434,"##form ":7435,"##fortell":7436,"##speil":7437,"##hente ":7438,"##forbered":7439,"##el på ":7440,"##blå ":7441,"##grund":7442,"##selvsagt ":7443,"##fritt ":7444,"##året.\n":7445,"##ni ":7446,"##alli":7447,"##diag":7448,"##e.\"\"\n":7449,"##J. ":7450,"##kommunen ":7451,"##angel":7452,"\"\"":7453,"##ver.\n":7454,"##eks.\n":7455,"##til å være ":7456,"Men det er ":7457,"##armen ":7458,"##slit":7459,"##alene ":7460,"##03":7461,"##de:\n":7462,"Dessuten ":7463,"##75 ":7464,"##virkelighet":7465,"##forskning":7466,"##(199":7467,"##mass":7468,"##arbeidstak":7469,"##till":7470,"##når du ":7471,"##utgift":7472,"##ING ":7473,"##bo ":7474,"##onom":7475,"##selvfølgelig ":7476,"##cell":7477,"##entlige ":7478,"##spørsmål om ":7479,"##landets ":7480,"##osof":7481,"##ire ":7482,"##som de ":7483,"##veksl":7484,"##ion.\n":7485,"194":7486,"##y of ":7487,"##Ak":7488,"##omfattende ":7489,"##t eller ":7490,"##stemme ":7491,"Kar":7492,"##drifts":7493,"##Eid":7494,"##litteratur":7495,"##sniv":7496,"##s:\n":7497,"##anven":7498,"er ":7499,"##det med ":7500,"##annet enn ":7501,"##er dette ":7502,"##Fri":7503,"##TER":7504,"##Hag":7505,"##forret":7506,"##ventet ":7507,"##vanskelig":7508,"##und, ":7509,"##Ter":7510,"##mik":7511,"##til å ta ":7512,"##struksjon":7513,"##samarbeid med ":7514,"##auk":7515,"##, og i ":7516,"##etisk ":7517,"##vill":7518,"##spesial":7519,"##utvid":7520,"##opp, ":7521,"##vensjon":7522,"##spes":7523,"##hodet.\n":7524,"##sf":7525,"##nærmest ":7526,"##ommer":7527,"##, og de ":7528,"Hun var ":7529,"##general":7530,"--":7531,"##skot":7532,"##rei":7533,"##gjennomsnitt":7534,"##g i ":7535,"##pa ":7536,"##21. ":7537,"##Over":7538,"##analys":7539,"##gan":7540,"##trygg":7541,"##side.\n":7542,"##ap.\n":7543,"Og så ":7544,"##vond":7545,"##atiske ":7546,"##samsvar ":7547,"##Er ":7548,"##misjon":7549,"##ter.\n":7550,"##33":7551,"##følge av ":7552,"##annerled":7553,"##død ":7554,"##helg":7555,"##forfatter":7556,"##ali":7557,"##g av ":7558,"##sjuk":7559,"##ight ":7560,"##22. ":7561,"##som den ":7562,"##bevisst":7563,"##inspir":7564,"##Trøndel":7565,"##kroner ":7566,"##sånn ":7567,"##ved at ":7568,"##kommunale ":7569,"##dog ":7570,"##området.\n":7571,"##et nytt ":7572,"##iff":7573,"##sykeplei":7574,"##, K":7575,"##Rø":7576,"##har også ":7577,"##å gi ":7578,"##ert med ":7579,"##tilfeld":7580,"##ser på ":7581,"##kateg":7582,"##invol":7583,"##bist":7584,"##Sj":7585,"##leik":7586,"##vekk ":7587,"##sa:\n":7588,"-- Jeg ":7589,"##beskj":7590,">> sa ":7591,"##ing the ":7592,"##USA ":7593,"##forsknings":7594,"##mistet ":7595,"##Gar":7596,"Eller ":7597,"##i alle ":7598,"##skade ":7599,"##acc":7600,"##Col":7601,"Sj":7602,"##rok":7603,"##ikl":7604,"##Herr":7605,"##ser ut ":7606,"##gje ":7607,"##saman ":7608,"##effek":7609,"##ess ":7610,"##nærhet":7611,"##Norge, ":7612,"##ob ":7613,"##vært i ":7614,"##ittet ":7615,"##åre ":7616,"##diskusjon":7617,"##raskt ":7618,"##.-":7619,"##hjør":7620,"##, L":7621,"##soli":7622,"##handel":7623,"##leder":7624,"##ville ikke ":7625,"##år\n":7626,"##anger":7627,"##Hus":7628,"##6,":7629,"##tid, ":7630,"##strand":7631,"##sykdomm":7632,"##påpek":7633,"##DAG":7634,"##ligger i ":7635,"##alvorlig ":7636,"##Man":7637,"##forsaml":7638,"##New Y":7639,"##es det ":7640,"##en S":7641,"##du kan ":7642,"Først ":7643,"##stø":7644,"##stek":7645,"##Ven":7646,"##Ny":7647,"##hadde ikke ":7648,"##til og med ":7649,"##hast":7650,"##drei":7651,"##er ble ":7652,"##Op":7653,"##sjef ":7654,"##rike ":7655,"##, R":7656,"##coun":7657,"##ings ":7658,"##er som har ":7659,"##or i ":7660,"##gård":7661,"##var den ":7662,"##en-":7663,"##if ":7664,"##havde ":7665,"##Ein":7666,"##Marie ":7667,"##både i ":7668,"##dem, ":7669,"##bevilg":7670,"##hild ":7671,"##plass.\n":7672,"##m\n":7673,"##en opp":7674,"##skyt":7675,"##nødvendige ":7676,"##eller i ":7677,"##repar":7678,"##land og ":7679,"##pil":7680,"##egnet ":7681,"##.00. ":7682,"##spilte ":7683,"##utgjør ":7684,"##fru":7685,"##10-":7686,"##formen ":7687,"##skaps":7688,"##skulle være ":7689,"##Regi:\n":7690,"##hun ikke ":7691,"##er enn ":7692,"##sex":7693,"##band":7694,"##Ger":7695,"FOTO:\n":7696,"Sol":7697,"##183":7698,"##en hans ":7699,"##AP":7700,"##:5":7701,"##ent i ":7702,"##tå":7703,"##tilknyt":7704,"##resultat ":7705,"##er mot ":7706,"##sammens":7707,"##styre ":7708,"##imo":7709,"Hvil":7710,"##æv":7711,"##virksomhet ":7712,"##er der ":7713,"Krist":7714,"<<N":7715,"##nedover ":7716,"##Bjørn":7717,"##kap.\n":7718,"##stand til å ":7719,"##Ev":7720,"##ham og ":7721,"##ungdoms":7722,"##ick ":7723,"##voksne ":7724,">> Hun ":7725,"##ax":7726,"##kass":7727,"##.9":7728,"##et skal ":7729,"Under":7730,"## må ":7731,"##NO":7732,"##på denne ":7733,"##fru ":7734,"##res.\n":7735,"##alternativ":7736,"##foretak":7737,"##er opp":7738,"##sel.\n":7739,"##kamp ":7740,"##vurdere ":7741,"##startet ":7742,"##ytterligere ":7743,"##kjærlighet":7744,"##skuff":7745,"Hvem ":7746,"##sing":7747,"##hyl":7748,"##AB":7749,"##at han hadde ":7750,"##aner":7751,"Nord":7752,"##kjøpte ":7753,"##skolen ":7754,"##tatt i ":7755,"##for, ":7756,"##kunne ha ":7757,"##kommer til ":7758,"##hvert fall ":7759,"##kontin":7760,"##Ni":7761,"##ning\n":7762,"##kjæ":7763,"##arane ":7764,"##møtte ":7765,"##ect ":7766,"##seg om ":7767,"##Om ":7768,"##adem":7769,"##aum":7770,"##jem":7771,"##tillit":7772,"##ene sin":7773,"##fjor ":7774,"##kolleg":7775,"##ost ":7776,"Jeg vil ":7777,"##gåt":7778,"##skilt ":7779,"##er, sier ":7780,"##så lenge ":7781,"##uler":7782,"Departement":7783,"##dal.\n":7784,"##Gener":7785,"##as, ":7786,"##lem ":7787,"##bruker":7788,"##hindr":7789,"##medlemm":7790,"##grunnlegg":7791,"##somhet ":7792,"##avgjørende ":7793,"##ad.\n":7794,"##kompetanse ":7795,"##vises ":7796,"##pakk":7797,"##EST":7798,"##juli":7799,"##IL ":7800,"##sev":7801,"##7,":7802,"##innfør":7803,"##Regjer":7804,"##enig ":7805,"Likevel ":7806,"##således ":7807,"##sland":7808,"##rep ":7809,"##gjem":7810,"##kjed":7811,"##lend":7812,"##het, ":7813,"##over, ":7814,"##bildet ":7815,"the ":7816,"##andel ":7817,"##viktig å ":7818,"##svenske ":7819,"##hus.\n":7820,"##i B":7821,"##ed, ":7822,"##vogn":7823,"##fred ":7824,"##ning som ":7825,"##sørge ":7826,"##elser og ":7827,"##operasjon":7828,"##Erik ":7829,"##a) ":7830,"##saks":7831,"##universitet":7832,"##olf ":7833,"##kjørte ":7834,"##sivil":7835,"- B":7836,"##orgensending ":7837,"##vor ":7838,"##somme ":7839,"##Fo":7840,"##istori":7841,"##for alle ":7842,"##ome ":7843,"##sjølv":7844,"Joh":7845,"##tår":7846,"##erver":7847,"##-, ":7848,"##vil jeg ":7849,"##.6":7850,"##isol":7851,"##bøn":7852,"##en min":7853,"##kop":7854,"##fokus":7855,"##vi skal ":7856,"##grønn":7857,"##virke ":7858,"##kyrkj":7859,"##utsatt ":7860,"##can ":7861,"##Pres":7862,"##tar":7863,"##anledning ":7864,"##tilpas":7865,"##reform":7866,"##.3 ":7867,"##3).\n":7868,"##bot":7869,"##pak":7870,"##eit":7871,"##gjøre det ":7872,"Skal ":7873,"##samfunns":7874,"##VM":7875,"##29 ":7876,"##ikk og ":7877,"##Dem":7878,"##etter hvert ":7879,"##blomst":7880,"##neder":7881,"##øy.\n":7882,"##og til ":7883,"##bruk.\n":7884,"##stilt ":7885,"##endringer i ":7886,"##ningen i ":7887,"##Ask":7888,"##Sar":7889,"##apt ":7890,"##andet ":7891,"##edie\n":7892,"##mind":7893,"##estr":7894,"##nivå ":7895,"##hjern":7896,"##fine ":7897,"##le\n":7898,"##at, ":7899,"##februar ":7900,"##kre":7901,"##den store ":7902,"##belast":7903,"##videreg":7904,"##ans.\n":7905,"##sels":7906,"##krimin":7907,"##august ":7908,"##ningene ":7909,"##sjon ":7910,"##oni":7911,"##servic":7912,"##er!\n":7913,"##leste ":7914,"##Gre":7915,"##Gnr ":7916,"##velger ":7917,"\" ":7918,"##lære":7919,"##ekon":7920,"##foreld":7921,"##aa":7922,"Osl":7923,"##nummer ":7924,"##Nils ":7925,"##tida ":7926,"##å finne ":7927,"##illustr":7928,"##nasjonal":7929,"Di":7930,"##redd ":7931,"Er":7932,"##forretning":7933,"##symbol":7934,"##ane i ":7935,"##ferd med å ":7936,"##riv":7937,"##.35 ":7938,"##skal jeg ":7939,"##jakt":7940,"##fortsetter ":7941,"##september ":7942,"##nå, ":7943,"##sekk":7944,"##IR":7945,"##støv":7946,"##studer":7947,"##religi":7948,"##oppnå ":7949,"##stiller ":7950,"##utel":7951,"##ash":7952,"##beskytt":7953,"##såkalte ":7954,"År":7955,"##pin":7956,"Per":7957,"##folket ":7958,"##gende ":7959,"##Mor":7960,"##august":7961,"6. ":7962,"##dro":7963,"##4).\n":7964,"##profesjon":7965,"##opp mot ":7966,"##handels":7967,"##har du ":7968,"Siden ":7969,"##istiske ":7970,"##Hall":7971,"##År":7972,"Pl":7973,"##klem":7974,"##form for ":7975,"##7).\n":7976,"##berg.\n":7977,"##byr ":7978,"##Veg":7979,"##ode ":7980,"##pur":7981,"##unna ":7982,"##arder ":7983,"##ikk, ":7984,"##tilbud":7985,"##når man ":7986,"##smilte ":7987,"##ter på ":7988,"##ias ":7989,"##reflek":7990,"##.40 ":7991,"##ropte ":7992,"##esultat":7993,"Jeg vet ":7994,"##ause ":7995,"##nak":7996,"##det blir ":7997,"##iserte ":7998,"##øre ":7999,"##cm ":8000,"##spiller ":8001,"##tilhør":8002,"##Ek":8003,"##5) ":8004,"De fleste ":8005,"##dekke ":8006,"##IF":8007,"##NRK ":8008,"##A.\n":8009,"##Sh":8010,"##ivaret":8011,"##seg seiv ":8012,"##e, så ":8013,"Var ":8014,"##neppe ":8015,"##hel ":8016,"##borte ":8017,"##gjaldt ":8018,"##ER\n":8019,"Mål":8020,"##tegn ":8021,"##kvar ":8022,"##i sin ":8023,"##rett til ":8024,"##mat ":8025,"##elevene ":8026,"##ister ":8027,"##ende":8028,"##velg":8029,"##etter en ":8030,"##arkit":8031,"##NRK":8032,"##søv":8033,"##rådet ":8034,"##sau":8035,"##smessige ":8036,"##overflat":8037,"##daglig ":8038,"- T":8039,"##spec":8040,"##lyst til å ":8041,"##brøt ":8042,"##jeg var ":8043,"##en over ":8044,"##St. ":8045,"##sluttet ":8046,"##denn":8047,"##i tillegg ":8048,"##mekt":8049,"##redusere ":8050,"##behag":8051,"##? spurte ":8052,"##arkiv":8053,"##6) ":8054,"##LO":8055,"##net.\n":8056,"##ville være ":8057,"##fremmed":8058,"dram":8059,"##'n ":8060,"##t-":8061,"##al\n":8062,"##lu":8063,"##urens":8064,"##Wil":8065,"##ansatt":8066,"##Skj":8067,"##Bjørn ":8068,"##kan få ":8069,"##forbi ":8070,"##kommand":8071,"##observ":8072,"##gyl":8073,"##betalt ":8074,"##huset.\n":8075,"##ction":8076,"##renn":8077,"00":8078,"##positive ":8079,"##trett":8080,"##øk ":8081,"##videre.\n":8082,"##november ":8083,"##det hele ":8084,"##arbeidet med ":8085,"##23. ":8086,"195":8087,"##spørsmålet om ":8088,"Hoved":8089,"##suk":8090,"##ité":8091,"##inger i ":8092,"st":8093,"##utslipp":8094,"##ang.\n":8095,"##Ex":8096,"Ad":8097,"##tlige ":8098,"##musik":8099,"##ene sine ":8100,"##markeds":8101,"##byen.\n":8102,"##Danmark":8103,"##godt.\n":8104,"##ber.\n":8105,"##seg med ":8106,"##praktisk ":8107,"##veit ":8108,"Fred":8109,"##ellen ":8110,"##lid":8111,"##konfer":8112,"##dag\n":8113,"##ert, ":8114,"##formidl":8115,"##trukket ":8116,"##kontrakt":8117,"##ærlig ":8118,"##kapittel ":8119,"Le":8120,"##30. ":8121,"##oter":8122,"##den gamle ":8123,"##, og at ":8124,"##iend":8125,"##Mol":8126,"##ept":8127,"##skolen.\n":8128,"##ige, ":8129,"##hadde hun ":8130,"##agu":8131,"##akte ":8132,"##kjent":8133,"##ender ":8134,"##filosof":8135,"##skal det ":8136,"##anten ":8137,"##conc":8138,"##menighet":8139,"##39":8140,"##er; ":8141,"##stort sett ":8142,"##erett":8143,"##. .\n":8144,"##vet":8145,"##istrikt":8146,"##ighet.\n":8147,"##ebil":8148,"##profess":8149,"##ylkes":8150,"##verdi ":8151,"##dim":8152,"##lag.\n":8153,"##regjeringen ":8154,"##skal ikke ":8155,"- Men ":8156,"##an og ":8157,"##jød":8158,"##for et ":8159,"##oppfør":8160,"##Norske ":8161,"##på de ":8162,"##8).\n":8163,"##steg ":8164,"##drett":8165,"##føre":8166,"##enige ":8167,"##rimelig ":8168,"Då ":8169,"##statsb":8170,"##ikke minst ":8171,"##ham i ":8172,"##.00-":8173,"##utøv":8174,"##ering.\n":8175,"##umulig ":8176,"Etter":8177,"##ultur ":8178,"##mener at ":8179,"##kvelden ":8180,"##bekymr":8181,"##godt":8182,"##institut":8183,"##ørk":8184,"##stabil":8185,"##, T":8186,"##består av ":8187,"##natt ":8188,"##LE":8189,"##innvandr":8190,"##krever ":8191,"##es of ":8192,"##vard ":8193,"Norg":8194,"Tab":8195,"##ed in ":8196,"##hjem.\n":8197,"##sist ":8198,"##5).\n":8199,"##hem":8200,"##stall":8201,"##sle":8202,"##egen":8203,"##stam":8204,"##vente ":8205,"##hvisk":8206,"##kunne være ":8207,"##en viss ":8208,"##, kan ":8209,"##arbeidsplass":8210,"##sønn ":8211,"Ell":8212,"##Før":8213,"Seiv om ":8214,"##den siste ":8215,"##inal":8216,"##itets":8217,"##lavere ":8218,"##elsen, ":8219,"##jernban":8220,"##økte ":8221,"##di ":8222,"##knapp":8223,"##an\n":8224,"##flertall":8225,"##Juli":8226,"##6).\n":8227,"##morgen":8228,"##hull":8229,"##tale ":8230,"##tet og ":8231,"##er for":8232,"##es for ":8233,"##yngre ":8234,"##500 ":8235,"##Arn":8236,"##revisjon":8237,"##skaffe ":8238,"##fra en ":8239,"##mørke ":8240,"##, P":8241,"##rommet ":8242,"Vil ":8243,"##ach ":8244,"Høy":8245,"##helset":8246,"##næring":8247,"##temperatur":8248,"## met":8249,"##landbruk":8250,"##Jon ":8251,"##er under ":8252,"##.no\n":8253,"##y og ":8254,"##heten ":8255,"##Bod":8256,"##other ":8257,"##ine":8258,"##vi ikke ":8259,"##fra.\n":8260,"##sentrum":8261,"##klar over ":8262,"##ved hjelp av ":8263,"##will ":8264,"##skur":8265,"##ryg":8266,"##e, sier ":8267,"##at alle ":8268,"##fritid":8269,"##forhold.\n":8270,"##nab":8271,"##8) ":8272,"##Sal":8273,"Blant ":8274,"##teori":8275,"##dele ":8276,"##klarte ":8277,"##eliv":8278,"##vedlike":8279,"##OG":8280,"##skulle ha ":8281,"##årlig ":8282,"##voll":8283,"##styret ":8284,"##agt ":8285,"7. ":8286,"##drikk":8287,"##ende på ":8288,"##demon":8289,"##ssel":8290,"##over til ":8291,"##kapas":8292,"##avl":8293,"##var så ":8294,"##data ":8295,"##den til ":8296,"##evelop":8297,"##ter med ":8298,"##aud":8299,"##import":8300,"##tenke på ":8301,"##hvor det ":8302,"##blokk":8303,"##umiddel":8304,"##engelsk":8305,"##ron":8306,"##før de ":8307,"##Christian ":8308,"Nei, ":8309,"##domstol":8310,"##har et ":8311,"##virker ":8312,"##elig, ":8313,"##president":8314,"##Var":8315,"##lod":8316,"##personlig ":8317,"##ific":8318,"##aster":8319,"##vesen":8320,"den ":8321,"##ehus ":8322,"##forlat":8323,"##understrek":8324,"##lands ":8325,"##Øy":8326,"##alt og ":8327,"##hensikt":8328,"##prp.\n":8329,"##v om ":8330,"##Ør":8331,"##aksim":8332,"##BR":8333,"##isp":8334,"##Der":8335,"##er man ":8336,"anonymous@domain.com\n":8337,"##med, ":8338,"##heilt ":8339,"##familien ":8340,"##saken.\n":8341,"##duk":8342,"##om og ":8343,"##ende i ":8344,"##sver":8345,"##dans":8346,"##hun og ":8347,"##utgangspunkt i ":8348,"##, og som ":8349,"##:00 ":8350,"##emann":8351,"##ått":8352,"##(r) 14":8353,"##står i ":8354,"##vannet ":8355,"##pet":8356,"##behøv":8357,"##stål":8358,"##ene blir ":8359,"- Hva ":8360,"##et opp":8361,"##DN":8362,"##Med ":8363,"##lekk":8364,"##overbevis":8365,"##el. ":8366,"##den samme ":8367,"Vi er ":8368,"##ni":8369,"##tidige ":8370,"##skritt ":8371,"##aar":8372,"##ir.\n":8373,"##oktober ":8374,"##eland ":8375,"##ar av ":8376,"##Bern":8377,"##videregående ":8378,"Regi:\n":8379,"##ory ":8380,"##med andre ":8381,"##ita ":8382,"##søke ":8383,"##ser vi ":8384,"##24. ":8385,"##andør":8386,"##fyller ":8387,"##typer ":8388,"##sens":8389,"##smert":8390,"##nødt til å ":8391,"##henhold ":8392,"Nyhet":8393,"##iel ":8394,"##ident ":8395,"##du er ":8396,"##sear":8397,"##7) ":8398,"##spunkt":8399,"##SV":8400,"##kjøre ":8401,"Min ":8402,"##rof":8403,"##besøk ":8404,"##ell\n":8405,"##klipp":8406,"##ation of ":8407,"##8,":8408,"##itet og ":8409,"##ikke i ":8410,"##ument ":8411,"##må det ":8412,"##adres":8413,"##arbeidet.\n":8414,"##show":8415,"##ene hans ":8416,"##et <<":8417,"##ert til ":8418,"##myr":8419,"##har han ":8420,"##9).\n":8421,"##olf":8422,"##ligste ":8423,"##egår":8424,"##nabo":8425,"##S. ":8426,"##rasjon":8427,"##E.\n":8428,"##måte.\n":8429,"##Da ":8430,"##.8":8431,"##regne ":8432,"##vilkår ":8433,"##energ":8434,"##etter å ha ":8435,"##fredag ":8436,"##NOR":8437,"##spesif":8438,"SS\n":8439,"##Kristian ":8440,"##føle ":8441,"##t er ":8442,"##trav":8443,"##utvikling ":8444,"##plass i ":8445,"##forutset":8446,"##et lite ":8447,"##hvad ":8448,"##mer og ":8449,"##et annet ":8450,"##more ":8451,"##åpent ":8452,"##bra":8453,"##rap":8454,"##elighet ":8455,"##Martin ":8456,"##vilje ":8457,"##Når ":8458,"##går i ":8459,"##trengte ":8460,"##lapp":8461,"##32 ":8462,"##(r) 18":8463,"##otball":8464,"##kapital":8465,"##bag":8466,"##Kol":8467,"##borger":8468,"##ansvarlig ":8469,"##investering":8470,"##skuldr":8471,"##repr":8472,"##verk.\n":8473,"##lørdag ":8474,"##dikt":8475,"##skatt ":8476,"##dykt":8477,"##ael ":8478,"##lette ":8479,"##bl.\n":8480,"##bringe ":8481,"##band ":8482,"d. ":8483,"##spørre ":8484,"##put":8485,"##turist":8486,"##au ":8487,"##now":8488,"##legem":8489,"##Ab":8490,"##speri":8491,"##mulig.\n":8492,"##ark ":8493,"##fore":8494,"##nokre ":8495,"##krav til ":8496,"##also ":8497,"##ordning ":8498,"##lov om ":8499,"##assist":8500,"##lukk":8501,"##jente ":8502,"##es at ":8503,"##løst ":8504,"##AF":8505,"##ordnet ":8506,"##ingen som ":8507,"##tak ":8508,"##e fra ":8509,"##en inn":8510,"##liv og ":8511,"##mange av ":8512,"##asin":8513,"5 ":8514,"Og det ":8515,"##sett fra ":8516,"##opp med ":8517,"Gjennom ":8518,"##1 og ":8519,"##but ":8520,"##eldste ":8521,"##lement":8522,"Deretter ":8523,"##col":8524,"a. ":8525,"##Pol":8526,"det ":8527,"##avsl":8528,"##nærmeste ":8529,"##Ph":8530,"##et til å ":8531,"##kvinner ":8532,"##ely ":8533,"##ikke på ":8534,"##Isra":8535,"##fur":8536,"##atom":8537,"##Sig":8538,"##ingen er ":8539,"##veit":8540,"##fly ":8541,"##en sin ":8542,"##proc":8543,"##tert ":8544,"Vær":8545,"##Etter ":8546,"##28. ":8547,"##røde ":8548,"i 20":8549,"##utgangspunktet ":8550,"##hardt ":8551,"##radio":8552,"##lukket ":8553,"##OD":8554,"##33 ":8555,"##positiv":8556,"##oug":8557,"##optim":8558,"##høyr":8559,"##tu":8560,"##å komme ":8561,"##hom":8562,"##bestand":8563,"##din":8564,"##etasj":8565,"##ank ":8566,"##nett ":8567,"##enge ":8568,"##scor":8569,"##e/":8570,"##26. ":8571,"##rett.\n":8572,"Det finnes ":8573,"24":8574,"##Mer":8575,"min":8576,"##stakk ":8577,"##poeng ":8578,"Jo":8579,"##begynner å ":8580,"##sjå":8581,"##iør":8582,"##jent ":8583,"##elles ":8584,"##arbeider":8585,"##prøvde å ":8586,"##etryg":8587,"##use ":8588,"##riks":8589,"##en må ":8590,"##lun":8591,"##stilte ":8592,"##No":8593,"##omset":8594,"##absolutt ":8595,"Begge ":8596,"##alle":8597,"##så langt ":8598,"##påt":8599,"##selg":8600,"##Ir":8601,"##ere med ":8602,"##cor":8603,"##Go":8604,"Det er en ":8605,"##ulighet":8606,"##90":8607,"Jeg hadde ":8608,"##passasj":8609,"##ninger, ":8610,"##sjelden ":8611,"##endre ":8612,"##kalle ":8613,"##lab":8614,"##årene.\n":8615,"##betwe":8616,"##garant":8617,"##oppdaget ":8618,"##faglig ":8619,"##normalt ":8620,"##ting.\n":8621,"##ninger og ":8622,"##dem i ":8623,"##kraft ":8624,"##lært ":8625,"##snakk ":8626,"##hyt":8627,"##plast":8628,"##nok til å ":8629,"##nerv":8630,"##29. ":8631,"##n\n":8632,"##ar med ":8633,"■ ":8634,"##utviklings":8635,"##AR ":8636,"##betydning ":8637,"##, vil ":8638,"##Universitet":8639,"##, men jeg ":8640,"##tann":8641,"##beløp":8642,"##Dem ":8643,"##fund":8644,"##åg":8645,"##, og den ":8646,"##der\n":8647,"##passet ":8648,"##spennende ":8649,"Vi må ":8650,"##for meg ":8651,"##Karl":8652,"##emark":8653,"##punkt ":8654,"##ikk m":8655,"##rust":8656,"##how ":8657,"##ka ":8658,"##skal få ":8659,"Her er ":8660,"##u.\n":8661,"##Se ":8662,"##aland ":8663,"##stort":8664,"##en din ":8665,"##staden ":8666,"##skjønte ":8667,"##E:\n":8668,"##inn og ":8669,"##low":8670,"##ew":8671,"##ia":8672,"##jev":8673,"##lut":8674,"##\"\"\"\" (":8675,"##arrangement":8676,"##tiltak ":8677,"Det vil ":8678,"##UK":8679,"##å bruke ":8680,"##aust":8681,"##ær og ":8682,"##mann.\n":8683,"##Ikke ":8684,"##itt.\n":8685,"##barne":8686,"##eth":8687,"##fremme ":8688,"##herr":8689,"##ipl":8690,"##linje ":8691,"##gjort":8692,"##forbund":8693,"##dest":8694,"##ation.\n":8695,"##ball ":8696,"##kjern":8697,"##har de ":8698,"##elt.\n":8699,"##dvs. ":8700,"##stand.\n":8701,"##reag":8702,"##folke":8703,"##25. ":8704,"##gjennomføre ":8705,"##delsen ":8706,"##sion ":8707,"##: \"\"\"\"":8708,"##je.\n":8709,"##1 (":8710,"##der han ":8711,"(r) ":8712,"##vann ":8713,"##eier ":8714,"##, er det ":8715,"##respek":8716,"##bokstav":8717,"##rekn":8718,"##tyder ":8719,"##pal":8720,"##asjon og ":8721,"##sdtr.\n":8722,"##2 (":8723,"##Thomas ":8724,"##skaper ":8725,"##Gro":8726,"##hadde fått ":8727,"##isme ":8728,"##kveld.\n":8729,"##elektron":8730,"##Ital":8731,"##Sim":8732,"##Can":8733,"##ne i ":8734,"##udsjett":8735,"##perspektiv":8736,"##Fisk":8737,"##hende ":8738,"##har i ":8739,"##kollekt":8740,"##Far":8741,"##bygget ":8742,"##grei":8743,"##forsiktig ":8744,"##de var ":8745,"##kreve ":8746,"##tekniske ":8747,"##ud, ":8748,"##berg, ":8749,"##vest ":8750,"##ute i ":8751,"##Jens":8752,"##har blitt ":8753,"##nokså ":8754,"##(r) 17":8755,"##fokus ":8756,"##tilnærm":8757,"##eventyr":8758,"##forstyr":8759,"##anses ":8760,"##Ot":8761,"##Gul":8762,"##stilles ":8763,"##stj":8764,"##Nær":8765,"##k, ":8766,"I den ":8767,"##potensi":8768,"##personal":8769,"##grunnleggende ":8770,"##formu":8771,"##advokat":8772,"##eksam":8773,"##ke og ":8774,"##trek":8775,"##syssel":8776,"##sminister ":8777,"Sn":8778,"##ands":8779,"##motset":8780,"##IM":8781,"##hovud":8782,"##oversikt over ":8783,"##var et ":8784,"##forurens":8785,"Hele ":8786,"##oy":8787,"Hver ":8788,"Ch":8789,"##(r) 15":8790,"##J ":8791,"##på seg ":8792,"##(r) 13":8793,"##jeneste ":8794,"##de med ":8795,"##skjel":8796,"##(r) 16":8797,"##privat ":8798,"##konsul":8799,"##ole":8800,"##their ":8801,"##tiltal":8802,"##tema":8803,"##skre":8804,"Lov":8805,"##såtte ":8806,"##Ola ":8807,"##sølv":8808,"##verkt":8809,"##prøve ":8810,"##kant ":8811,"##anger ":8812,"##søker ":8813,"##bønn":8814,"##en r":8815,"##lignende ":8816,"##har gjort ":8817,"- Dette ":8818,"##de for ":8819,"##snakke med ":8820,"##forandr":8821,"##or, ":8822,"##år siden ":8823,"##smiljø":8824,"##igg":8825,"##dyn":8826,"##nr.\n":8827,"##ningsm":8828,"##dets ":8829,"##Fra ":8830,"##omin":8831,"##det at ":8832,"##flask":8833,"## ST":8834,"##Kristian":8835,"##slapp ":8836,"##enter ":8837,"##feir":8838,"##konflik":8839,"##i L":8840,"- L":8841,"##Hell":8842,"##ler.\n":8843,"This ":8844,"##formul":8845,"##innflyt":8846,"##Bor":8847,"##ansvar for ":8848,"##vist":8849,"##jet":8850,"##selv om ":8851,"##rapport ":8852,"##cup":8853,"##gjer ":8854,"##hef":8855,"##utvalg ":8856,"##ace ":8857,"##ligg ":8858,"##tvang":8859,"##lest ":8860,"##komme til ":8861,"##frukt":8862,"##klusjon":8863,"##vinne ":8864,"##way ":8865,"##ion of ":8866,"##jordbruk":8867,"##et blir ":8868,"##irekte.\n":8869,"##sykkel":8870,"##skuespill":8871,"##Afrik":8872,"##hold.\n":8873,"##dannet ":8874,"##foreta ":8875,"##de første ":8876,"##drap":8877,"##tid og ":8878,"I denne ":8879,"##skole.\n":8880,"##skulle bli ":8881,"##som vi ":8882,"##60":8883,"##NS":8884,"##ital ":8885,"##snytt ":8886,"##holdsvis ":8887,"##benyttet ":8888,"##rapporter":8889,"##anse.\n":8890,"##øff":8891,"##så vidt ":8892,"##protest":8893,"##likte ":8894,"##JON":8895,"##til slutt ":8896,"##Harald ":8897,"##heit":8898,"##, som er ":8899,"##y-":8900,"##00. ":8901,"##Olsen ":8902,"##millioner ":8903,"##apparat":8904,"##tend":8905,"##front":8906,"##omgiv":8907,"##hog":8908,"##oks":8909,"##korleis ":8910,"Best":8911,"##felle":8912,"##, hvor ":8913,"Hadde ":8914,"##(se ":8915,"##klasse ":8916,"Skr":8917,"##net":8918,"##Wor":8919,"##ester ":8920,"##ytre ":8921,"##Hov":8922,"##orig":8923,"##ikke-":8924,"##Anna ":8925,"##stede ":8926,"##ensid":8927,"##mes":8928,"##Jer":8929,"##Jam":8930,"##æ ":8931,"## mån":8932,"##aft":8933,"##skog ":8934,"##ster ":8935,"##utvi":8936,"##sover":8937,"fra 2018. ":8938,"##ar for ":8939,"##hed ":8940,"##fjord ":8941,"##.\"\"\"\" ":8942,"##distrik":8943,"##ing eller ":8944,"##.00 S":8945,"##en u":8946,"##henhold til ":8947,"##evalu":8948,"##personlige ":8949,"##gass":8950,"##utgav":8951,"##viser til ":8952,"##drev ":8953,"##brut":8954,"##met ":8955,"##Til ":8956,"##bra.\n":8957,"##.7":8958,"##, at ":8959,"##fabrikk":8960,"##etat":8961,"##bodde ":8962,"##er.\"\"\n":8963,"##cont":8964,"##ordningen ":8965,"##Med":8966,"##, men det er ":8967,"##Mc":8968,"##2 og ":8969,"Når det gjelder ":8970,"##stor grad ":8971,"##als ":8972,"##antag":8973,"##saman":8974,"##journalist":8975,"##ungdom ":8976,"##europeiske ":8977,"##et for":8978,"##rutin":8979,"##Kommun":8980,"De har ":8981,"##bort fra ":8982,"##søknad":8983,"##ste.\n":8984,"##huske ":8985,"##ator ":8986,"##Oslo, ":8987,"##Andreas ":8988,"##bestemme ":8989,"##tilfredsstill":8990,"##opplyser ":8991,"##tokoll":8992,"##ingenting ":8993,"##fruk":8994,"##beskjed ":8995,"##erklær":8996,"##reklam":8997,"##else på ":8998,"##svart ":8999,"##etc":9000,"##tilbake i ":9001,"##55 ":9002,"##totalt ":9003,"##skikkelig ":9004,"##ah ":9005,"##byrå":9006,"##uper":9007,"##Forsvar":9008,"##le og ":9009,"##tål":9010,"##mens han ":9011,"##alk":9012,"##kompon":9013,"##ville bli ":9014,"##samsvar med ":9015,"##oppfølg":9016,"##samtykk":9017,"##slett":9018,"##sk.\n":9019,"##Bre":9020,"##stoff ":9021,"##forsøkte å ":9022,"##el i ":9023,"##midt i ":9024,"##skal bli ":9025,"##hensyn":9026,"##kristne ":9027,"##al og ":9028,"##flytte ":9029,"##skiftet ":9030,"##contr":9031,"##fy":9032,"##godkjenn":9033,"##Gjer":9034,"##et etter ":9035,"##iger":9036,"##toll":9037,"##manns":9038,"##own ":9039,"##vann.\n":9040,"##),\n":9041,"##hyggelig ":9042,"##ef ":9043,"##rib":9044,"##kor ":9045,"##os.\n":9046,"##sikte på ":9047,"##Gam":9048,"##bjørn ":9049,"##M. ":9050,"##ana ":9051,"##ven ":9052,"##øpig ":9053,"##lenger.\n":9054,"##omen":9055,"##døds":9056,"##timer ":9057,"##ingspro":9058,"##for å være ":9059,"##prosent.\n":9060,"##folk.\n":9061,"##Gunnar ":9062,"Kvinn":9063,"##potet":9064,"##Odd":9065,"##VER":9066,"##når jeg ":9067,"##UD":9068,"##rekr":9069,"##atter ":9070,"##titt":9071,"##.03 ":9072,"##fag ":9073,"##kom i ":9074,"##elsen i ":9075,"##de tre ":9076,"##svei":9077,"##Hed":9078,"##vi er ":9079,"##; men ":9080,"##konvensjon":9081,"##° ":9082,"##27. ":9083,"##pst":9084,"##frie ":9085,"##ey":9086,"##fylte ":9087,"##sorg":9088,"~\n":9089,"##SEN":9090,"##senter":9091,"##stiv":9092,"##hersk":9093,"##normal":9094,"01":9095,"##//":9096,"##fli":9097,"##II ":9098,"##ble han ":9099,"##ygge ":9100,"##kandid":9101,"##får vi ":9102,"Vi kan ":9103,"##anvend":9104,"##kr\n":9105,"##ut over ":9106,"##2016":9107,"##E. ":9108,"##ledd.\n":9109,"##, da ":9110,"##stirret ":9111,"##Hil":9112,"##sus":9113,"##car":9114,"##snudde seg ":9115,"##at denne ":9116,"##sørg":9117,"##mer, ":9118,"##løs ":9119,"##Pl":9120,"##en å ":9121,"##delser ":9122,"##Hansen ":9123,"##At":9124,"##gratis ":9125,"##had":9126,"##olje":9127,"##2018":9128,"##faglige ":9129,"##Liv":9130,"Norge ":9131,"##ain ":9132,"##innhold ":9133,"##hytt":9134,"##ud.\n":9135,"##nok.\n":9136,"##historiske ":9137,"##ley ":9138,"at ":9139,"##ins ":9140,"##dig.\n":9141,"##kniv":9142,"##ologi":9143,"##ow ":9144,"##år sid":9145,"##(200":9146,"##interessant ":9147,"De er ":9148,"##handler om ":9149,"##e).\n":9150,"##et.\"\"\n":9151,"##forplikt":9152,"##Ram":9153,"##kaf":9154,"##sitt eget ":9155,"##reduksjon":9156,"##t ved ":9157,"##oven":9158,"##han er ":9159,"##Under":9160,"##på dette ":9161,"##Petter ":9162,"##, men også ":9163,"##okal":9164,"##for å kunne ":9165,"##IC":9166,"##rull":9167,"##ferdighet":9168,"##.55\n":9169,"##Vi":9170,"##????":9171,"##sykdom":9172,"##ut som ":9173,"##agraf":9174,"##form.\n":9175,"Mor":9176,"##generelle ":9177,"##selv.\n":9178,"##okk ":9179,"##midler":9180,"##d som ":9181,"##fører til ":9182,"##om lag ":9183,"##landet, ":9184,"##d til ":9185,"##arbeider ":9186,"6 ":9187,"##kjøl":9188,"##2017":9189,"##søndag ":9190,"##fjerne ":9191,"##metod":9192,"##veg ":9193,"##vurdering av ":9194,"##ryk":9195,"##felt ":9196,"##how":9197,"##Deres ":9198,"##48":9199,"##kommune.\n":9200,"##arbeidsgiver":9201,"##jak":9202,"##år) ":9203,"##divisjon":9204,"##pann":9205,"##grønne ":9206,"##den var ":9207,"##anonymous@domain.com ":9208,"##sju ":9209,"##instrument":9210,"##et ikke ":9211,"##æg":9212,"##attsending ":9213,"Ol":9214,"##hand ":9215,"##Pet":9216,"##rett til å ":9217,"##itim":9218,"##180":9219,"##hang ":9220,"##gjort.\n":9221,"##knapt ":9222,"##31 ":9223,"##villig ":9224,"Spørsmål":9225,"##t seg ":9226,"##en av":9227,"##bidrag ":9228,"##GR":9229,"##stykke ":9230,"Slike ":9231,"Føl":9232,"##sannsynligvis ":9233,"##31. ":9234,"##han til ":9235,"##ær.\n":9236,"##skom":9237,"##syke":9238,"##grense ":9239,"##Vid":9240,"## ved ":9241,"##fin ":9242,"##de samme ":9243,"##forbundet ":9244,"##sender ":9245,"##retningslinj":9246,"##ing, og ":9247,"##.35\n":9248,"##forklare ":9249,"##alders":9250,"##skip ":9251,"##Hav":9252,"##pel":9253,"##britann":9254,"##else som ":9255,"##hon":9256,"##er-":9257,"##rimin":9258,"##utb":9259,"##Vol":9260,"##Ragn":9261,"##åpn":9262,"##doll":9263,"##asi":9264,"##glad i ":9265,"##kroner i ":9266,"##stift":9267,"##torsdag ":9268,"##fjerde ":9269,"##svarer ":9270,"Du kan ":9271,"##rundt i ":9272,"##sirk":9273,"##reise":9274,"##samlede ":9275,"##er mellom ":9276,"##brun":9277,"##Øv":9278,"##kom det ":9279,"##they ":9280,"##hva de ":9281,"##lett å ":9282,"##cur":9283,"##overgang":9284,"##firma":9285,"##ekstrem":9286,"##-- og ":9287,"##irrit":9288,"##at han ikke ":9289,"##FR":9290,"##47":9291,"##bad ":9292,"##veien.\n":9293,"##.20\n":9294,"##x\n":9295,"##Gl":9296,"##that the ":9297,"God ":9298,"##press":9299,"un":9300,"##meg og ":9301,"##dreier seg ":9302,"##~\n":9303,"##utviklingen ":9304,"##Alle ":9305,"##fattig":9306,"##at i ":9307,"##On":9308,"##finn ":9309,"##områd":9310,"##aget ":9311,"##ule ":9312,"##Fil":9313,"##spesiell ":9314,"##ar du ":9315,"##gres":9316,"##poli":9317,"11":9318,"##kaste ":9319,"##impon":9320,"##Stortinget ":9321,"##ish ":9322,"Morgensending ":9323,"##er oss ":9324,"kom":9325,"##hak":9326,"##, D":9327,"##vil kunne ":9328,"##), og ":9329,"##kryss":9330,"##skriv ":9331,"##fysisk ":9332,"##boka ":9333,"##179":9334,"##sok":9335,"##m/":9336,"##profil":9337,"##Ly":9338,"##ør og ":9339,"##kom til å ":9340,"##beth ":9341,"##kunstn":9342,"##er, så ":9343,"##46":9344,"##34 ":9345,"##subj":9346,"##at dei ":9347,"##skam":9348,"##.05":9349,"I det ":9350,"##informasjon om ":9351,"##his ":9352,"##hamp":9353,"##jo":9354,"##dit ":9355,"##de til ":9356,"##Frankrik":9357,"##møtet ":9358,"##rettet ":9359,"##forskrift":9360,"##verdig ":9361,"##kategori":9362,"Men i ":9363,"##tit":9364,"##t?\n":9365,"##vev":9366,"##ett og ":9367,"##eled":9368,"Inter":9369,"##prøver å ":9370,"##been ":9371,"##■ ":9372,"##alle.\n":9373,"##på samme ":9374,"##i K":9375,"##lovens ":9376,"##dispon":9377,"##pus":9378,"##størst ":9379,"##konkrete ":9380,"##krys":9381,"8. ":9382,"##enn det ":9383,"Sen":9384,"##slik som ":9385,"##with the ":9386,"##=\n":9387,"##rang":9388,"##FN":9389,"##eto":9390,"##elser i ":9391,"##aktive ":9392,"##såg ":9393,"##gang, ":9394,"##snudde ":9395,"##økende ":9396,"##det for ":9397,"##dager.\n":9398,"##bam":9399,"##frav":9400,"##krigs":9401,"##beskjed":9402,"##ommisjon":9403,"##slik at det ":9404,"##erie.\n":9405,"##kjære ":9406,"##ør.\n":9407,"' ":9408,"##glø":9409,"##kjøret":9410,"##ane, ":9411,"##olje ":9412,"På den ":9413,"##erik":9414,"##Alex":9415,"##Bir":9416,"##cl":9417,"##jule":9418,"##meter ":9419,"##man kan ":9420,"##ut med ":9421,"##had ":9422,"##et slikt ":9423,"##art.\n":9424,"##av dem ":9425,"##revolusjon":9426,"##n:\n":9427,"##det kan ":9428,"##ip ":9429,"##Bør":9430,"##e er ":9431,"##øker ":9432,"##parall":9433,"##dus":9434,"##generelt ":9435,"##forslag til ":9436,"##sof":9437,"##ulik":9438,"##ums":9439,"##valgte ":9440,"##Fro":9441,"##seg seiv":9442,"##Y ":9443,"##and\n":9444,"##, og da ":9445,"##55":9446,"##, den ":9447,"##gangen.\n":9448,"##hei":9449,"-- Det ":9450,"##mask":9451,"##øben":9452,"##politikk ":9453,"##hundr":9454,"##benk":9455,"##vik.\n":9456,"##E-":9457,"- Hv":9458,"##.4 ":9459,"##s av ":9460,"##franske ":9461,"##unne ":9462,"##skal du ":9463,"##naden ":9464,"##36 ":9465,"##faller ":9466,"##Dal":9467,"##klin":9468,"##way":9469,"##nevnt i ":9470,"##Aften":9471,"##Hot":9472,"##Mil":9473,"##inntekts":9474,"##sang ":9475,"##skille ":9476,"##artikkel ":9477,"##demonstr":9478,"##glim":9479,"##Ju":9480,"##trinn":9481,"##erne, ":9482,"##oppdrag ":9483,"##støtt":9484,"##. \"\"\"\n":9485,"##signal":9486,"##Willi":9487,"##loven ":9488,"##itter":9489,"##aren":9490,"##stitut":9491,"##praktiske ":9492,"##yen ":9493,"##sjeld":9494,"##forskjellig ":9495,"##! ":9496,"##arbeidsm":9497,"##igjen og ":9498,"##offisi":9499,"##ual ":9500,"##skulder":9501,"- Ja, ":9502,"##AG ":9503,"Fort":9504,"##tenkt å ":9505,"##en sin.\n":9506,"##jeg kan ":9507,"##lige.\n":9508,"##taus":9509,"##standard":9510,"##ving":9511,"##om i ":9512,"##f. eks.\n":9513,"##Jacob":9514,"##o i ":9515,"##e>>.\n":9516,"##stemmen ":9517,"##s som ":9518,"##henne og ":9519,"##stirr":9520,"##dd ":9521,"##bul":9522,"##, ikke ":9523,"Folk ":9524,"##lot":9525,"##Grøn":9526,"##hets":9527,"##klokken ":9528,"## som er ":9529,"Hus":9530,"##høyeste ":9531,"##06.00\n":9532,"fra 200":9533,"##øyt":9534,"##forekomm":9535,"##gev":9536,"##s in ":9537,"##hadde en ":9538,"De to ":9539,"Resultat":9540,"Det var ikke ":9541,"##Hø":9542,"##enn m":9543,"##hug":9544,"##Nic":9545,"##vil vi ":9546,"##Ras":9547,"##80":9548,"##dimensjon":9549,"##dde ":9550,"##alt, ":9551,"##Borg":9552,"##forskning ":9553,"##involver":9554,"##mom":9555,"##kg ":9556,"##kinn":9557,"##innled":9558,"##ht":9559,"Det er også ":9560,"##intens":9561,"##nådde ":9562,"##beregnet ":9563,"##s.":9564,"##Jens ":9565,"##skygg":9566,"##bladet ":9567,"##ansvaret for ":9568,"##er/":9569,"##komme i ":9570,"##st på ":9571,"##danske ":9572,"##tunge ":9573,"##DR":9574,"##Aker":9575,"##føy":9576,"##preget av ":9577,"##ockhol":9578,"##fei":9579,"##annon":9580,"##sund ":9581,"##ose ":9582,"Kn":9583,"02":9584,"##avstand ":9585,"10 ":9586,"##IS ":9587,"##tegnet ":9588,"##Tim":9589,"##Stud":9590,"##gjennomført ":9591,"##ii":9592,"##vell":9593,"##utvikling.\n":9594,"##minim":9595,"##søkte ":9596,"##minutter ":9597,"##a!\n":9598,"##annet.\n":9599,"##kl ":9600,"##øya ":9601,"##fra det ":9602,"##interessert i ":9603,"##you ":9604,"##intet ":9605,"##eli":9606,"##eis":9607,"##Skog":9608,"##begynnelsen av ":9609,"##tilrett":9610,"##kjøpt ":9611,"##sen til ":9612,"##Sunn":9613,"##g, ":9614,"##idé":9615,"##noen få ":9616,"##vikl":9617,"##kommune":9618,"##at han var ":9619,"##tøy":9620,"##seg av ":9621,"##karri":9622,"##hendene ":9623,"##EC":9624,"##driver ":9625,"##is og ":9626,"##ått.\n":9627,"##sion":9628,"##sier at ":9629,"##than ":9630,"##ell, ":9631,"##:0":9632,"##avtale ":9633,"##B. ":9634,"##sberg ":9635,"Men han ":9636,"##mester":9637,"##fortalt ":9638,"en":9639,"##G. ":9640,"##itet, ":9641,"##SP":9642,"##for oss ":9643,"##si.\n":9644,"##holdes ":9645,"##gang i ":9646,"##hovedsak":9647,"Jeg skal ":9648,"##Bon":9649,"##hat ":9650,"##spørsmål.\n":9651,"##religion":9652,"##oblig":9653,"##de ulike ":9654,"##I.\n":9655,"##alder ":9656,"##falle ":9657,"##fantes ":9658,"##Austr":9659,"##om\n":9660,"##det å ":9661,"##slav":9662,"##innlegg":9663,"##ninger i ":9664,"##hat":9665,"##barnever":9666,"sk":9667,"##tatt.\n":9668,"##mund ":9669,"##ektiv ":9670,"##mum":9671,"##det har ":9672,"##er skal ":9673,"##alt i ":9674,"##tross for ":9675,"##tusen ":9676,"##for å ha ":9677,"##hul":9678,"##Kl":9679,"##hvis du ":9680,"##et den ":9681,"##en).\n":9682,"##fril":9683,"##naturligvis ":9684,"##behandling ":9685,"##run":9686,"##ogsaa ":9687,"##slag.\n":9688,"##diagno":9689,"##Mark":9690,"##glob":9691,"##9) ":9692,"##Cat":9693,"##melig ":9694,"##Karl ":9695,"##, og vi ":9696,"##noe om ":9697,"##full av ":9698,"##er hun ":9699,"de ":9700,"##Hj":9701,"##vare ":9702,"##tun":9703,"##Post":9704,"##perfek":9705,"##te av ":9706,"##øtt":9707,"##øren ":9708,"##Pal":9709,"##uni":9710,"##Skr":9711,"##ean ":9712,"##skyld ":9713,"##ders ":9714,"##48 ":9715,"##idretts":9716,"##begrav":9717,"##ter av ":9718,"Kap":9719,"##administrasjon":9720,"##likn":9721,"##grense":9722,"##Bu":9723,"##eut":9724,"##næ":9725,"##serie\n":9726,"##Norweg":9727,"##oppleve ":9728,"##fisk ":9729,"##s med ":9730,"##usik":9731,"##flin":9732,"##alske ":9733,"##stokk":9734,"##fint ":9735,"##det, men ":9736,"##såp":9737,"##leverandør":9738,"##ica ":9739,"##tid til å ":9740,"##termin":9741,"##75":9742,"##kommunestyr":9743,"##gruppen ":9744,"##enhet ":9745,"##må du ":9746,"##tere ":9747,"##enkle ":9748,"##verste ":9749,"##2000 ":9750,"##solgt for ":9751,"##landskap":9752,"##~~~~~~~~":9753,"##Nes":9754,"##ase":9755,"##spor ":9756,"- De ":9757,"##ational ":9758,"##ld ":9759,"##C. ":9760,"##mål.\n":9761,"##negative ":9762,"##lenk":9763,"##between ":9764,"##65 ":9765,"##gå i ":9766,"##emat":9767,"##byens ":9768,"##super":9769,"Komite":9770,"##ifikasjon":9771,"##folk som ":9772,"##Storbritann":9773,"##alvor ":9774,"##utvikling av ":9775,"##Johans":9776,"##spise ":9777,"##X ":9778,"##valgt ":9779,"##70":9780,"##enk ":9781,"##retten ":9782,"##Jord":9783,"##desig":9784,"##sentral ":9785,"##under.\n":9786,"##sine egne ":9787,"##tunn":9788,"##messig ":9789,"##opp av ":9790,"##sjons":9791,"##kjærlighet ":9792,"##historisk ":9793,"##mi":9794,"##blikket ":9795,"##tek ":9796,"##mekan":9797,"##fa ":9798,"##sosial ":9799,"##traff ":9800,"##lån ":9801,"10. ":9802,"##intel":9803,"##Ingeb":9804,"##henholdsvis ":9805,"##er til":9806,"##rende ":9807,"<<H":9808,"##42 ":9809,"##opptak":9810,"##kjel":9811,"##flekk":9812,"##Tur":9813,"##dec":9814,"##Universit":9815,"##noen m":9816,"##....\n":9817,"##fiske":9818,"##fö":9819,"##allmenn":9820,"##work":9821,"##middag ":9822,"##været ":9823,"##( ":9824,"##befolkning":9825,"##kapp":9826,"##fik":9827,"##any ":9828,"##ens.\n":9829,"##inga av ":9830,"##skyn":9831,"##være.\n":9832,"05":9833,"##oppfordr":9834,"##strøk ":9835,"##metall":9836,"##million":9837,"##-\"\"\n":9838,"##organ ":9839,"##slippe ":9840,"##andres ":9841,"##tradisjonelle ":9842,"##tet av ":9843,"##rammen ":9844,"##direktorat":9845,"De hadde ":9846,"##NE":9847,"##vind ":9848,"##grunnlag for ":9849,"##ey ":9850,"##anpi":9851,"##borte.\n":9852,"##en>>.\n":9853,"##ansat":9854,"11. ":9855,"##firm":9856,"##risiko":9857,"##arar ":9858,"Grunn":9859,"##dukket ":9860,"##forvaltning":9861,"##oftest ":9862,"##Peter ":9863,"##dratt ":9864,"##er deg ":9865,"##ene som er ":9866,"##44 ":9867,"##å for":9868,"##er det som ":9869,"##lef":9870,"##eksper":9871,"##jørn ":9872,"Lang":9873,"##from the ":9874,"##en b":9875,"##, og hun ":9876,"##steder ":9877,"##bror ":9878,"##bygger ":9879,"##Kin":9880,"##onsdag ":9881,"##løn":9882,"##cent":9883,"##gift med ":9884,"al":9885,">> Jeg ":9886,"##Johannes ":9887,"##stemmer ":9888,"##ph":9889,"##Øster":9890,"##dyrk":9891,"##a seg ":9892,"##korte ":9893,"##arkitekt":9894,"##Kat":9895,"##barn, ":9896,"##i som ":9897,"##myk":9898,"##over og ":9899,"##resep":9900,"##hva det ":9901,"##dukk":9902,"07":9903,"##for å bli ":9904,"##holds":9905,"ut":9906,"##stimul":9907,"##to be ":9908,"##T\n":9909,"##eringen ":9910,"##tilgjengelig ":9911,"##we ":9912,"##ingsk":9913,"Det samme ":9914,"##39 ":9915,"##NM":9916,"##hus, ":9917,"##fra S":9918,"##skjedd ":9919,"##regulering":9920,"##mindre enn ":9921,"##overlev":9922,"##hva han ":9923,"##redde ":9924,"##slik at de ":9925,"##epp":9926,"##i forhold til ":9927,"##H. ":9928,"##åte.\n":9929,"##elser som ":9930,"##ere til ":9931,"##fuk":9932,"##Aug":9933,"##95":9934,"##lang tid ":9935,"##omgang ":9936,"##rede ":9937,"##stund ":9938,"##ther ":9939,"##gjenstand":9940,"##lene ":9941,"##tyng":9942,"##2)\n":9943,"##treffe ":9944,"##sykl":9945,"- Han ":9946,"##2:\n":9947,"##elat":9948,"##, <<":9949,"##mulige ":9950,"##loc":9951,"##utvalget ":9952,"##ye":9953,"##prom":9954,"##begynt å ":9955,"##Fac":9956,"##N\n":9957,"##ført til ":9958,"##dep":9959,"##ender":9960,"##Por":9961,"##e.":9962,"##sammen, ":9963,"##behandling av ":9964,"##SM":9965,"##uker ":9966,"##forholdet mellom ":9967,"##holdt på ":9968,"##redusert ":9969,"##snakke om ":9970,"##tepp":9971,"##rett og slett ":9972,"##iske, ":9973,"##situasjonen ":9974,"##hud":9975,"##maksim":9976,"##38 ":9977,"##vedtatt ":9978,"## million":9979,"##12-":9980,"##av, ":9981,"##ekte ":9982,"##at <<":9983,"##Lund":9984,"##opp for ":9985,"##konflikt":9986,"Jeg var ":9987,"##Norge og ":9988,"##halvt ":9989,"##hevder ":9990,"Mot":9991,"##et, sier ":9992,"##final":9993,"##stedet.\n":9994,"##dum":9995,"##sidan ":9996,"Vel":9997,"##pål":9998,"##2015":9999,"##totale ":10000,"##flest ":10001,"##å holde ":10002,"##ingar ":10003,"##sitt.\n":10004,"##konstruksjon":10005,"##kobl":10006,"##kirke ":10007,"fra 2016. ":10008,"##osv.\n":10009,"##åt ":10010,"fra 2017. ":10011,"##azz":10012,"##vern ":10013,"##registrert ":10014,"##ien.\n":10015,"##tein ":10016,"##edre ":10017,"##fos":10018,"##1:\n":10019,"##hvor de ":10020,"##hvordan det ":10021,"##ANG":10022,"##Finnmark":10023,"##li ":10024,"##hjemme":10025,"##aterial":10026,"##drar ":10027,"##handle ":10028,"##alternativ ":10029,"##merke til ":10030,"##ium ":10031,"##roman":10032,">>\"\"\n":10033,"##mn":10034,"##Po":10035,"##hadde det ":10036,"##ordi ":10037,"##geograf":10038,"##samtid":10039,"##prøve å ":10040,"##nøyaktig ":10041,"##lover ":10042,"##inne.\n":10043,"##hvor mye ":10044,"##gården ":10045,"##178":10046,"##kel ":10047,"##anter":10048,"##utstrek":10049,"##ry ":10050,"##positiv ":10051,"##kommentar":10052,"Det må ":10053,"##mennene ":10054,"##Johan":10055,"##vig":10056,"##feltet ":10057,"##d av ":10058,"##sitte ":10059,"##Sæ":10060,"##Ivar ":10061,"##retning ":10062,"##velkomm":10063,"##uhel":10064,"##37 ":10065,"Han ble ":10066,"##sul":10067,"##tenker ":10068,"##av disse ":10069,"##es:\n":10070,"##et; ":10071,"##nokon ":10072,"##fry":10073,"##røyk":10074,"##fører":10075,"##eksisterende ":10076,"##manglende ":10077,"Med":10078,"##300 ":10079,"##søster":10080,"##iat":10081,"##AC":10082,"Pres":10083,"##gikk i ":10084,"No ":10085,"##teknisk ":10086,"##may ":10087,"##ø.\n":10088,"##Laur":10089,"##svek":10090,"##representant":10091,"##ekteskap":10092,"##pst. ":10093,"##arry ":10094,"##farlig ":10095,"##enkl":10096,"to ":10097,"##utnytt":10098,"##men.\n":10099,"##ele":10100,"Dette var ":10101,"##en som er ":10102,"Stor":10103,"##begj":10104,"##bygd":10105,"##skab":10106,"##staten ":10107,"##.10\n":10108,"##tenkt ":10109,"##er i en ":10110,"##ige og ":10111,"##kultur ":10112,"##ved en ":10113,"Sport":10114,"##- som ":10115,"##koordin":10116,"##ELL":10117,"##rådgiv":10118,"##bygg ":10119,"##duksjon":10120,"##tip":10121,"##grå ":10122,"##elsens ":10123,"##aar ":10124,"##blad ":10125,"##Jakob":10126,"##EN\n":10127,"##20\n":10128,"##fellesskap":10129,"##inngang":10130,"##skal kunne ":10131,"##et, så ":10132,"Stud":10133,"##bakken ":10134,"Men det var ":10135,"##hjelp.\n":10136,"##energi ":10137,"##jo ikke ":10138,"##BL":10139,"##hentet ":10140,"##understre":10141,"##entral":10142,"Rik":10143,"##er nå ":10144,"##skarp":10145,"##foreligger ":10146,"##her og ":10147,"##han i ":10148,"##før hun ":10149,"##150 ":10150,"##kvinne ":10151,"##kald":10152,"##nei ":10153,"##(S":10154,"##brygg":10155,"##eg.\n":10156,"##dur":10157,"##vokste ":10158,"##Så ":10159,"##forhandling":10160,"##produsent":10161,"##a, som ":10162,"##vendte ":10163,"##situasjon ":10164,"##eventuelle ":10165,"##statens ":10166,"##Byg":10167,"##klok":10168,"Par":10169,"##vil du ":10170,"Of":10171,"##etall":10172,"##New":10173,"##his":10174,"##hatt":10175,"##av et ":10176,"On":10177,"##autor":10178,"##etablert ":10179,"##blant de ":10180,"##terror":10181,"Del":10182,"##foretatt ":10183,"##Bil":10184,"##Cor":10185,"##embet":10186,"##(r) 12":10187,"##My":10188,"##forfer":10189,"##litt":10190,"##mening ":10191,"##resten ":10192,"##ichael ":10193,"##er) ":10194,"##forny":10195,"##forvir":10196,"##samle ":10197,"##sene ":10198,"##mistenk":10199,"##ovn":10200,"##tatt":10201,"##just":10202,"##henvis":10203,"##temmelig ":10204,"##ia og ":10205,"##harm":10206,"##for the ":10207,"##ømte ":10208,"##h\n":10209,"##mog":10210,"##bedt ":10211,"##analyse ":10212,"##at\n":10213,"##lykt":10214,"##God":10215,"##inf":10216,"##bile":10217,"##Angel":10218,"##den norske ":10219,"##aen ":10220,"##igjen i ":10221,"##verdenskr":10222,"##meg i ":10223,"##Cl":10224,"##by.\n":10225,"##hard ":10226,"##nordiske ":10227,"##bevisst ":10228,"##skips":10229,"##aktiv ":10230,"##liker ":10231,"##.000 fra ":10232,"##Hand":10233,"##NH":10234,"##inger som ":10235,"##bygde ":10236,"##samtidig som ":10237,"##dens":10238,"##fra de ":10239,"##asyl":10240,"##skriver":10241,"##medarbeid":10242,"Vi skal ":10243,"##B-":10244,"##Ben":10245,"##gransk":10246,"##hva jeg ":10247,"##.12":10248,"##49":10249,"##versjon":10250,"##nåværende ":10251,"## meg ":10252,"##%.\n":10253,"##Aas":10254,"##tilknytning til ":10255,"##sit ":10256,"##Henrik":10257,"##der de ":10258,"##aard":10259,"##.11":10260,"##beklag":10261,"##till ":10262,"##deler ":10263,"##hånd ":10264,"##von ":10265,"##bån":10266,"##amil":10267,"##ha vært ":10268,"##develop":10269,"##et mellom ":10270,"##fig.\n":10271,"##Min":10272,"##ters ":10273,"##ift ":10274,"##frigj":10275,"##stilling.\n":10276,"##være en ":10277,"##bild":10278,"##(r) 11":10279,"##TV-":10280,"##masse ":10281,"##hvem som ":10282,"##Big ":10283,"##hadde jeg ":10284,"##sies ":10285,"##Don":10286,"##bryll":10287,"##sider ":10288,"##else\n":10289,"##abilit":10290,"##Odd ":10291,"##imm":10292,"##Indi":10293,"##Aust":10294,"##bygda ":10295,"##New Yor":10296,"##Lis":10297,"##beret":10298,"##ettet ":10299,"##osisjon":10300,"##erne og ":10301,"##ebok":10302,"##data":10303,"##gjorde det ":10304,"##,>> sier ":10305,"##gjøre":10306,"##den enkelte ":10307,"Dr":10308,"##ser.\n":10309,"##alb":10310,"##och":10311,"##der som ":10312,"##vin ":10313,"Det var en ":10314,"##respond":10315,"Ei ":10316,"##Eik":10317,"##kreft":10318,"##kommet til ":10319,"##anta ":10320,"##vakre ":10321,"##i løpet av ":10322,"##gammel":10323,"##ol.\n":10324,"##dal, ":10325,"##176":10326,"##fødsel":10327,"##adgang ":10328,"##Bill":10329,"##imidlertid ikke ":10330,"##radi":10331,"Har du ":10332,"##jakk":10333,"##på S":10334,"##ALL":10335,"##ektef":10336,"##dir":10337,"##efter":10338,"##20-":10339,"##Engl":10340,"##å kunne ":10341,"##ingsl":10342,"##son, ":10343,"##er).\n":10344,"Vår ":10345,"##stund":10346,"##forsto ":10347,"##a/":10348,"##nr":10349,"##sjøm":10350,"##planlag":10351,"##skrik":10352,"##generasjon":10353,"##svensk":10354,"##flott ":10355,"##iel":10356,"##on-":10357,"##E S":10358,"##personer ":10359,"##EØ":10360,"##forest":10361,"##elsker ":10362,"##hær":10363,"##skjeb":10364,"##andin":10365,"##prat":10366,"08":10367,"##te:\n":10368,"##isch":10369,"##likev":10370,"##hvit ":10371,"##Americ":10372,"##skut":10373,"##eik":10374,"##er det i ":10375,"De var ":10376,"##samfunnet ":10377,"##endte ":10378,"##ist.\n":10379,"##transport ":10380,"Ta ":10381,"##tilbake":10382,"##ena ":10383,"##konklusjon":10384,"##e, sa ":10385,"##iall":10386,"##Eir":10387,"##END":10388,"##Maria ":10389,"##Einar ":10390,"##um og ":10391,"##skontor":10392,"##Bet":10393,"##festival":10394,"##frok":10395,"##ter fra ":10396,"##olig":10397,"##Roms":10398,"##er S":10399,"##ion, ":10400,"##ad, ":10401,"##lyst":10402,"Im":10403,"Mat":10404,"##anledning til å ":10405,"##pens":10406,"##respon":10407,"##ute på ":10408,"##ther":10409,"Mid":10410,"##likhet ":10411,"##representerer ":10412,"##alistisk ":10413,"##vitt":10414,"##takk ":10415,"##sun":10416,"##anfor ":10417,"##oppgjør":10418,"##graf":10419,"##iverk":10420,"##variasjon":10421,"Ole ":10422,"##tid i ":10423,"##Tore ":10424,"##b) ":10425,"##ulov":10426,"Det betyr ":10427,"##edel":10428,"##dei":10429,"##etterforsk":10430,"##Lev":10431,"##T-":10432,"##1 m":10433,"##ått i ":10434,"##ja.\n":10435,"##sir":10436,"##sim":10437,"##500":10438,"##verken ":10439,"Kor":10440,"##giftet ":10441,"##side\n":10442,"##IKK":10443,"##utrolig ":10444,"##177":10445,"##forbund ":10446,"03":10447,"##bære ":10448,"##Polit":10449,"##i dette ":10450,"##er>> ":10451,"##ne av ":10452,"##også en ":10453,"##, men han ":10454,"##I\n":10455,"##2/":10456,"##der er ":10457,"##for å ta ":10458,"##nødvendigvis ":10459,"##innlegg ":10460,"##døg":10461,"##konkurranse":10462,"##foreldrene ":10463,"##kan gi ":10464,"##vunn":10465,"##hjal":10466,"##en hennes ":10467,"##ew ":10468,"##Sogn":10469,"##(r) 09":10470,"##nylig ":10471,"##venstre":10472,"##alt det ":10473,"09":10474,"##melder ":10475,"##lir ":10476,"##ree ":10477,"##21.00\n":10478,"##NC":10479,"##id.\n":10480,"##v.":10481,"##gong":10482,"##Franc":10483,"##ENT":10484,"##gang på ":10485,"##kriteri":10486,"##budet ":10487,"##equ":10488,"##41 ":10489,"##Cam":10490,"##borg ":10491,"##ous ":10492,"##opplevd ":10493,"##snes ":10494,"##håret ":10495,"##AU":10496,"##unt":10497,"##kjol":10498,"##søy":10499,"##vare":10500,"##gjere ":10501,"##bestemmer ":10502,"##nådd ":10503,"##då":10504,"##i H":10505,"##vare på ":10506,"##igjennom ":10507,"Ellers ":10508,"##frisk":10509,"##ÅR":10510,"##dating ":10511,"##finner vi ":10512,"##ned og ":10513,"##kull":10514,"##.1.":10515,"##frakt":10516,"##smør":10517,"##bare en ":10518,"##angrep ":10519,"##departementets ":10520,"##ene?\n":10521,"##fare ":10522,"##ansett":10523,"##har.\n":10524,"##kjent med ":10525,"##ifik":10526,"##urg":10527,"##ennom":10528,"##internasjonal ":10529,"##prosessen ":10530,"##et at ":10531,"##asp":10532,"##antar ":10533,"##ptom":10534,"##1)\n":10535,"##edal":10536,"##(r) 06":10537,"##inga.\n":10538,"##hva som er ":10539,"##britiske ":10540,"##adi":10541,"##en meget ":10542,"##klo":10543,"##ent, ":10544,"##5 m":10545,"##de store ":10546,"##hvor mange ":10547,"##ler, ":10548,"##cel":10549,"##am.\n":10550,"##Strøm":10551,"Tre ":10552,"Du har ":10553,"##etablere ":10554,"##grunnlaget for ":10555,"##fornuf":10556,"##, og det var ":10557,"##menn.\n":10558,"##kaller ":10559,"##deil":10560,"##ov ":10561,"##Esp":10562,"##install":10563,"##omst":10564,"##truff":10565,"##kong ":10566,"##as\n":10567,"##Rev":10568,"##3 og ":10569,"##det nye ":10570,"##øynene.\n":10571,"##foreslår ":10572,"##re-":10573,"##terap":10574,"##historie ":10575,"##46 ":10576,"##miste ":10577,"##.no/":10578,"SS":10579,"##et så ":10580,"##egn ":10581,"##19.00\n":10582,"##når hun ":10583,"##ogg":10584,"##real":10585,"##stedet for ":10586,"##færre ":10587,"##atør":10588,"##kut":10589,"##EP":10590,"##flokk":10591,"##tet":10592,"dokument":10593,"7 ":10594,"##undervisning":10595,"##lige, ":10596,"##laget.\n":10597,"##.5 ":10598,"##i for ":10599,"##ahl ":10600,"##, jeg ":10601,"##univer":10602,"##en at ":10603,"##med sin ":10604,"##splan ":10605,"##emeld":10606,"##er at det ":10607,"- Og ":10608,"##efer":10609,"##ypp":10610,"##By":10611,"##Jar":10612,"##illa ":10613,"##me.\n":10614,"##Br.\n":10615,">> Det ":10616,"##(r) 02":10617,"##oss i ":10618,"##skv":10619,"##feil.\n":10620,"##o.":10621,"##liste ":10622,"##varer ":10623,"##åten ":10624,"Selv":10625,"##lighet.\n":10626,"##2019":10627,"##filmen ":10628,"##ordinære ":10629,"##terte ":10630,"##tidligere.\n":10631,"##styrem":10632,"##sterkere ":10633,"##DAG\n":10634,"##(198":10635,"##Aar":10636,"8 ":10637,"##allik":10638,"##smidl":10639,"##sannhet":10640,"##sleng":10641,"##utføre ":10642,"<<K":10643,"##lerede ":10644,"##delte ":10645,"##medvirk":10646,"##mod ":10647,"##noen som ":10648,"##et hadde ":10649,"##omstend":10650,"##cond":10651,"##S.\n":10652,"##skulle få ":10653,"##beløp ":10654,"Til slutt ":10655,"##i M":10656,"##onde ":10657,"m. ":10658,"##O. ":10659,"##vet ikke ":10660,"##engelske ":10661,"##sloven ":10662,"##av dei ":10663,"##knytt":10664,"##ene sine.\n":10665,"##Et ":10666,"##:30 ":10667,"##**":10668,"##er over":10669,"##on\n":10670,"##vei.\n":10671,"##bedre enn ":10672,"##- men ":10673,"##livets ":10674,"##Kir":10675,"##ske":10676,"##bilde av ":10677,"##figur ":10678,"##D-":10679,"## i en ":10680,"##for å se ":10681,"##å legge ":10682,"##isted":10683,"##ere fra ":10684,"##ating ":10685,"##håp ":10686,"##et vil ":10687,"##vekk":10688,"##43 ":10689,"##handler ":10690,"##hvor han ":10691,"##estad ":10692,"##tror jeg ":10693,"##død.\n":10694,"##ekj":10695,"I en ":10696,"##myst":10697,"##nu":10698,"##2 m":10699,"##tilli":10700,"##spekt":10701,"##eller mindre ":10702,"##47 ":10703,"##reas":10704,"##Leagu":10705,"- J":10706,"##underholdning":10707,"##0).\n":10708,"##Span":10709,"##aktuelt ":10710,"##bedrifter ":10711,"##mene.\n":10712,"##sør ":10713,"##orgen":10714,"##berett":10715,"##s til ":10716,"##Tot":10717,"##et det ":10718,"##en måtte ":10719,"##konkurrans":10720,"Sak":10721,"##i F":10722,"##smel":10723,"##sj ":10724,"##fordi de ":10725,"##gjord":10726,"##:10":10727,"##seg for ":10728,"##språk ":10729,"##~~ ":10730,"##ens og ":10731,"##lagt til ":10732,"##in\n":10733,"##som jeg ":10734,"##.45":10735,"Noe ":10736,"##ismen ":10737,"##departementet.\n":10738,"##usikker":10739,"Mo":10740,"##skapte ":10741,"##tju":10742,"##tjeneste ":10743,"##her er ":10744,"##orden ":10745,"##kas":10746,"##beregn":10747,"##fikk m":10748,"##etter, ":10749,"##fartøy":10750,"##forsøk på å ":10751,"##skole, ":10752,"##sykdom ":10753,"##ebank":10754,"##deleg":10755,"##forbud":10756,"##br.\n":10757,"##sjølv ":10758,"##fornøyd med ":10759,"##Nav":10760,"##avfall":10761,"Tot":10762,"##spreng":10763,"##eiendoms":10764,"##døy":10765,"##støn":10766,"##dyre":10767,"##adj.\n":10768,"##e?.\n":10769,"##52 ":10770,"- Vi har ":10771,"##verne":10772,"##gong ":10773,"##instruk":10774,"##strøk":10775,"##Ste":10776,"##område.\n":10777,"##1000 ":10778,"##ring ":10779,"##anz":10780,"##konst":10781,"##isen ":10782,"##ere av ":10783,"##vilj":10784,"##son.\n":10785,"##foredr":10786,"##a om ":10787,"##fortel ":10788,"##fond":10789,"##ering og ":10790,"##avgrens":10791,"##ell og ":10792,"I løpet av ":10793,"##takk":10794,"##saker ":10795,"##sons ":10796,"##inner":10797,"##starte ":10798,"##].\n":10799,"##aktør ":10800,"##undt ":10801,"##det, og ":10802,"Grat":10803,"##fram.\n":10804,"##pen":10805,"##Wal":10806,"##tt ":10807,"Skj":10808,"##ene, som ":10809,"##Sport":10810,"##attr":10811,"##kunne få ":10812,"##presset ":10813,"##ation, ":10814,"##hustr":10815,"##eland":10816,"##militære ":10817,"##die ":10818,"##kompetanse":10819,"##beit":10820,"##- i ":10821,"##man ikke ":10822,"##neden":10823,"##forholdsvis ":10824,"##bidrar ":10825,"##union":10826,"##heller.\n":10827,"##................................":10828,"##tron":10829,"##nen ":10830,"##kunnskap om ":10831,"##kunstner":10832,"##sen på ":10833,"##lov til å ":10834,"##unn ":10835,"##klas":10836,"##kommer i ":10837,"##by\n":10838,"##gjør at ":10839,"Lær":10840,"##mennesker.\n":10841,"##, til ":10842,"##rom.\n":10843,"##andinav":10844,"##Ring":10845,"##roug":10846,"##glass ":10847,"##motiver":10848,"##struktur ":10849,"##alene.\n":10850,"##fengsel":10851,"##skap til ":10852,"##gebr":10853,"##alisert ":10854,"##aal":10855,"##president ":10856,"##Bergen.\n":10857,"##saf":10858,"##en stund ":10859,"##an-":10860,"##such ":10861,"##dessverre ":10862,"Politiet ":10863,"##Hoved":10864,"##alvorlige ":10865,"opp":10866,"Det som ":10867,"##Ru":10868,"##register":10869,"##Marit ":10870,"##nakk":10871,"##??\n":10872,"##ere for ":10873,"##depunk":10874,"##eks":10875,"##um\n":10876,"##ilj":10877,"##asjon, ":10878,"##lese":10879,"Fin":10880,"##and a ":10881,"##Trøndelag ":10882,"Kl":10883,"##finne ut ":10884,"##jurid":10885,"##presse":10886,"##Off":10887,"##et å ":10888,"##etterspør":10889,"##bec":10890,"## i den ":10891,"##85 ":10892,"##stru":10893,"##Kjell ":10894,"##gran":10895,"##ial":10896,"##g.":10897,"##AV ":10898,"##net med ":10899,"##Kultur":10900,"##; og ":10901,"##itz":10902,"##raft":10903,"##kommisjon":10904,"##grov":10905,"##fysiske ":10906,"##lever ":10907,"##chn":10908,"##fler":10909,"##fortvil":10910,"Tidligere ":10911,"##Vel":10912,"##foran":10913,"##esak":10914,"Han så ":10915,"##favor":10916,"##fikk han ":10917,"##skor":10918,"##C-":10919,"##fell":10920,"##lipp":10921,"##løk":10922,"##do ":10923,"##sug":10924,"##^ ":10925,"##kurs":10926,"a ":10927,"##innen":10928,"##comm":10929,"Da han ":10930,"##ar:\n":10931,"##si at ":10932,"##ene ikke ":10933,"##historie.\n":10934,"##rommet.\n":10935,"##russiske ":10936,"##døren.\n":10937,"##Nam":10938,"##oppstår ":10939,"##nark":10940,"##ane og ":10941,"##separ":10942,"##bort.\n":10943,"##spark":10944,"##bedre.\n":10945,"##OP":10946,"##abel":10947,"##vilkår":10948,"##Red":10949,"##hadde de ":10950,"Kva ":10951,"##musikk ":10952,"<<S":10953,"##skjema":10954,"##haug ":10955,"##deltag":10956,"##aks ":10957,"##these ":10958,"##else fra ":10959,"##tikk":10960,"##annen m":10961,"##add":10962,"##opprør":10963,"##ros":10964,"##(H":10965,"##oppmerksom ":10966,"##lemp":10967,"##97":10968,"##beholde ":10969,"##ologi ":10970,"##inder":10971,"##hvordan de ":10972,"##køy":10973,"##hjertet ":10974,"##ers":10975,"##,>> svarte ":10976,"##bemerk":10977,"##ning fra ":10978,"##ILL":10979,"##lif":10980,"##adrat":10981,"##omfang":10982,"##enkel ":10983,"##tig.\n":10984,"##La ":10985,"##nevne ":10986,"##går.\n":10987,"##indr":10988,"##e- ":10989,"##Just":10990,"##175":10991,"##politim":10992,"##Frem":10993,"##oppfatning ":10994,"om ":10995,"##rig ":10996,"##t etter ":10997,"1-":10998,"##opprinnelig ":10999,"##medlem av ":11000,"##nå er ":11001,"##forsvant ":11002,"##out ":11003,"##indik":11004,"##en kom ":11005,"min. ":11006,"##95 ":11007,"##noe å ":11008,"##folk i ":11009,"##Rich":11010,"##Bak":11011,"##fradr":11012,"Spesi":11013,"##post ":11014,"Hvis du ":11015,"##våpen":11016,"##tropp":11017,"##V-":11018,"##fisker":11019,"##lønns":11020,"##damp":11021,"##0 og ":11022,"##entrepr":11023,"##eller en ":11024,"##første":11025,"##et sted ":11026,"##es ved ":11027,"##utenlandske ":11028,"##opphev":11029,"##spørsmålet ":11030,"##Norwegian ":11031,"Styr":11032,"##utviklet ":11033,"##tal ":11034,"##uten at ":11035,"##intern":11036,"##ukke ":11037,"##maa ":11038,"##kos":11039,"##holdet i ":11040,"##strømm":11041,"##forretnings":11042,"##shall ":11043,"##ocial ":11044,"##januar\n":11045,"##det siste ":11046,"I dette ":11047,"##antas ":11048,"##ene vil ":11049,"##ovenfor ":11050,"##aktu":11051,"##katast":11052,"##har gått ":11053,"##gå til ":11054,"##er i dag ":11055,"##Tyskland ":11056,"##x.\n":11057,"##brid":11058,"##begrenset ":11059,"##reserv":11060,"Utvalg":11061,"##slaget ":11062,"##ventet på ":11063,"##trus":11064,"##lokal ":11065,"##utdanning":11066,"##respekt":11067,"##satte seg ":11068,"Pris":11069,"##Fj":11070,"##mener det ":11071,"##ej":11072,"##ene må ":11073,"##ETT":11074,"##over hele ":11075,"##bety ":11076,"##parti ":11077,"##Denne ":11078,"##ata ":11079,"##innrøm":11080,"##la seg ":11081,"##Ur":11082,"##ine.\n":11083,"##sti":11084,"##kontroll ":11085,"##kan jeg ":11086,"##det andre ":11087,"##ur.\n":11088,"##ake ":11089,"##fold ":11090,"##proj":11091,"## med":11092,"##ingen på ":11093,"##ubli":11094,"##skar ":11095,"##bebo":11096,"##en skulle ":11097,"##helt til ":11098,"##.55":11099,"##en over":11100,"##trær":11101,"##at det blir ":11102,"anonymous@domain.com ":11103,"##uss ":11104,"##arbeid og ":11105,"##ledd":11106,"##passe ":11107,"##oppdat":11108,"##on og ":11109,"##ent og ":11110,"##nøkkel":11111,"##det være ":11112,"##større enn ":11113,"04":11114,"##held ":11115,"##VG":11116,"##arbeid i ":11117,"##summer":11118,"##fris":11119,"##konsern":11120,"##er som kan ":11121,"##tet for ":11122,"et ":11123,"##kle":11124,"##,\"\"\"\" ":11125,"##istriktsnyhet":11126,"##amin":11127,"##utenrik":11128,"##edirekt":11129,"##skel":11130,"##tidleg":11131,"##trur ":11132,"##skudd":11133,"##Søn":11134,"##om et ":11135,"##du?\n":11136,"## man ":11137,"##behovet for ":11138,"##leser ":11139,"##vil i ":11140,"##høsten ":11141,"##undersøkelsen ":11142,"##Rør":11143,"##materiale ":11144,"##Folke":11145,"##selskapets ":11146,"##NING":11147,"##om jeg ":11148,"##utter.\n":11149,"##med på å ":11150,"##går det ":11151,"##bil ":11152,"##systemet ":11153,"##ter for ":11154,"Du er ":11155,"##kommunens ":11156,"##(r) 10":11157,"##UM":11158,"##knad":11159,"##sprang ":11160,"##fantastisk ":11161,"##stres":11162,"##trø":11163,"##re:\n":11164,"##Peder ":11165,"##ikker":11166,"##skritt":11167,"##bordet.\n":11168,"##også at ":11169,"##benytte ":11170,"##ay.\n":11171,"##fordi det ":11172,"Bak":11173,"##line ":11174,"##Fjord":11175,"Den første ":11176,"##vanskelige ":11177,"##forsvinn":11178,"##avslør":11179,"##om hun ":11180,"##icul":11181,"##ÆR":11182,"##paragraf":11183,"##psykisk ":11184,"##en M":11185,"##funger":11186,"##gripe ":11187,"Plan":11188,"action":11189,"##only ":11190,"##definisjon":11191,"Eg":11192,"##t mot ":11193,"##a hadde ":11194,"##most ":11195,"##liv i ":11196,"##øve ":11197,"##ikke lenger ":11198,"##daglige ":11199,"##>>, som ":11200,"##itte ":11201,"##ebook":11202,"##helsetjenest":11203,"##premi":11204,"##noe, ":11205,"> ":11206,"##å sette ":11207,"##sett på ":11208,"Land":11209,"##bens":11210,"##11-":11211,"##naturlige ":11212,"##Holm":11213,"##påvirke ":11214,"##introd":11215,"##rov":11216,"##har gitt ":11217,"##viste seg ":11218,"##ydro":11219,"##henven":11220,"##tirsdag ":11221,"##Sund":11222,"##dron":11223,"##en, sa ":11224,"##ER.\n":11225,"##eksempel":11226,"##samme.\n":11227,"##ymn":11228,"##OB":11229,"##flyktning":11230,"##klarte å ":11231,"##, f. ":11232,"##istor":11233,"##litt.\n":11234,"##klassen ":11235,"##egl":11236,"Ro":11237,"##Åles":11238,"##protokoll":11239,"##også for ":11240,"##ER:\n":11241,"Tlf.\n":11242,"##dot":11243,"##,>> sa han.\n":11244,"##ends ":11245,"##geb":11246,"##status ":11247,"##verdif":11248,"##igur\n":11249,"## milliarder ":11250,"##foregår ":11251,"It ":11252,"##er og andre ":11253,"##mer om ":11254,"##kongen ":11255,"##cap":11256,"##ska ":11257,"##sykehus ":11258,"##foreslått ":11259,"##vi hadde ":11260,"##godkjent ":11261,"##klima":11262,"##katt":11263,"##en er det ":11264,"##teater":11265,"##rab":11266,"##varig ":11267,"##part ":11268,"##teri":11269,"##sen er ":11270,"##eide ":11271,"##slutt.\n":11272,"##lans":11273,"##49 ":11274,"##større grad ":11275,"Far":11276,"##, A":11277,"##int ":11278,"##åpenbart ":11279,"##ek ":11280,"##ish":11281,"##lovgiv":11282,"##foreløpig ":11283,"##fluk":11284,"##67 ":11285,"##helhet":11286,"##halvparten av ":11287,"##tenkte på ":11288,"##rollene:\n":11289,"##mult":11290,"##Stockhol":11291,"##kilomet":11292,"##bisk":11293,"##Ved ":11294,"##skap og ":11295,"##65":11296,"##foreningen ":11297,"##sekretær ":11298,"Var":11299,"##følte seg ":11300,"##rørende ":11301,"##(r) 03":11302,"##sa.\n":11303,"##sgjer":11304,"##itet i ":11305,"##heldig":11306,"##Tom ":11307,"##Tab":11308,"##slags":11309,"##vis.\n":11310,"##eksport":11311,"##66 ":11312,"##et!\n":11313,"##Bjer":11314,"##es, og ":11315,"##oppe i ":11316,"##jobbe ":11317,"##militær":11318,"##film ":11319,"##ELS":11320,"##000. ":11321,"##reiser ":11322,"##samtlige ":11323,"##liksom ":11324,"##forklarer ":11325,"##ompet":11326,"##initiativ":11327,"Bes":11328,"Søn":11329,"##en under ":11330,"##angr":11331,"##samisk ":11332,"##fortel":11333,"##blo":11334,"##Knut":11335,"##fløy":11336,"##marg":11337,"##uck":11338,"##noe av ":11339,"##korn":11340,"##mi ":11341,"##begynner ":11342,"##noen gang ":11343,"##særskilt ":11344,"##otik":11345,"##, N":11346,"##budsj":11347,"##et>> ":11348,"##frid":11349,"##italien":11350,"##starter ":11351,"Neste ":11352,"##takket ":11353,"NT":11354,"##with":11355,"##ge og ":11356,"##kring ":11357,"##enz":11358,"##kines":11359,"##bnr. ":11360,"##finnes i ":11361,"##alt som ":11362,"##forfatt":11363,"##alsk ":11364,"##ristet på ":11365,"##eksped":11366,"##parad":11367,"##rad ":11368,"##ås ":11369,"##former for ":11370,"##.03":11371,"##Rand":11372,"Ul":11373,"##en mer ":11374,"- I ":11375,"##ere, og ":11376,"##dårlige ":11377,"##hvert som ":11378,"##, et ":11379,"##ofot":11380,"##identif":11381,"##kt ":11382,"En av ":11383,"##er u":11384,"##gens":11385,"##ave ":11386,"##så godt ":11387,"##behandling.\n":11388,"##utbetal":11389,"##Sof":11390,"##ction ":11391,"##lyn":11392,"Særlig ":11393,"##alisere ":11394,"##O-":11395,"##virkning":11396,"##om du ":11397,"##områder.\n":11398,"##wood":11399,"##som.\n":11400,"##herred":11401,"##R. ":11402,"##oen ":11403,"##Industr":11404,"##på sin ":11405,"##Del":11406,"##Magnus ":11407,"##iss ":11408,"##hensik":11409,"##behandles ":11410,"##disc":11411,"La oss ":11412,"##.1. ":11413,"##3 (":11414,"Red":11415,"##klasse":11416,"##kvart ":11417,"Lør":11418,"sp":11419,"##alem":11420,"##daglig":11421,"##mangler ":11422,"##olv":11423,"##bruken av ":11424,"Men så ":11425,"##utsik":11426,"##dypt ":11427,"##strip":11428,"##: \"\"\"\n":11429,"##ft":11430,"##etter den ":11431,"##når den ":11432,"##ienc":11433,"##P-":11434,"##utelukk":11435,"##bilen ":11436,"25":11437,"##en?.\n":11438,"##stakk":11439,"##Tor ":11440,"##K. ":11441,"##sak.\n":11442,"##..\n":11443,"##or og ":11444,"##IST":11445,"##Terje ":11446,"##ND":11447,"##Nasjon":11448,"##ganger.\n":11449,"##epar":11450,"##mp":11451,"##sund":11452,"##brem":11453,"##o (":11454,"##er blir ":11455,"##får du ":11456,"Person":11457,"##land\n":11458,"##smenn":11459,"##døgn":11460,"##work ":11461,"##Håkon":11462,"##us\n":11463,"##ttp":11464,"##eine ":11465,"##David ":11466,"##støy":11467,"##dar":11468,"##overtok ":11469,"##nødvendig å ":11470,"##seg seiv.\n":11471,"##tet med ":11472,"##inn under ":11473,"##mulighet til å ":11474,"##mas":11475,"##praksis":11476,"##regler ":11477,"##tilbake på ":11478,"##storting":11479,"- Nei, ":11480,"Regjer":11481,"##om det er ":11482,"##\"\"\"\" og ":11483,"##smeld":11484,"##vi må ":11485,"##tjeneste":11486,"##ferdige ":11487,"##salt":11488,"##about ":11489,"##trop":11490,"Bet":11491,"##400 ":11492,"##sommeren ":11493,"##opplevde ":11494,"##T. ":11495,"##pred":11496,"##tillegg til ":11497,"##esse ":11498,"- Jeg har ":11499,"##og det ":11500,"##noe med ":11501,"##mede ":11502,"i 199":11503,"##opplysninger om ":11504,"##kjøtt":11505,"##(r) 08":11506,"##amerikansk ":11507,"##syr":11508,"##es and ":11509,"##ledd i ":11510,"##viktig at ":11511,"##veis ":11512,"##juni\n":11513,"##KK":11514,"Ved":11515,"##UND":11516,"##Grim":11517,"##kjennet":11518,"##as a ":11519,"##enest":11520,"##en lang ":11521,"##bab":11522,"##innvend":11523,"##ramme ":11524,"##til i ":11525,"##snakker ":11526,"##tverr":11527,"##mykj":11528,"##rul":11529,"##skostnad":11530,"##Ellen ":11531,"##spilt ":11532,"##husker ":11533,"##leksi":11534,"##fait ":11535,"##, J":11536,"##isc":11537,"##take ":11538,"##report":11539,"##det er ikke ":11540,"##tysk ":11541,"##Elisa":11542,"##rekrutter":11543,"##representanter ":11544,"##det han ":11545,"##engelsk ":11546,"##valu":11547,"##vanskelighet":11548,"##ser det ":11549,"##4 og ":11550,"##deg?\n":11551,"##OMM":11552,"##den for ":11553,"##frekv":11554,"##en helt ":11555,"##utbred":11556,"##fron":11557,"##føtt":11558,"##datam":11559,"##rede":11560,"##viktig for ":11561,"##måneder ":11562,"##evne til å ":11563,"##klart at ":11564,"Bok":11565,"## - ":11566,"##år siden.\n":11567,"##okto":11568,"##passasjer":11569,"##lings":11570,"##some ":11571,"##stiltak":11572,"##Part":11573,"##oppe ":11574,"##Mac":11575,"##) (":11576,"##glede ":11577,"Departementet ":11578,"##ju ":11579,"##skifte ":11580,"##two ":11581,"##dd":11582,"##Ac":11583,"##ferds":11584,"##friluft":11585,"##Høg":11586,"##smitt":11587,"##levere ":11588,"##slek":11589,"##Lou":11590,"##at the ":11591,"##betydelige ":11592,"##.25":11593,"Gener":11594,"##Torg":11595,"##enighet ":11596,"##ikke være ":11597,"##representant ":11598,"##var de ":11599,"##om å få ":11600,"##ere har ":11601,"##fylle ":11602,"## har ":11603,"##elever":11604,"##leder i ":11605,"##ur og ":11606,"##stif":11607,"##grus":11608,"##mann, ":11609,"##opplegg":11610,"##kan det være ":11611,"##L. ":11612,"##år gamle ":11613,"##bb":11614,"##til rette ":11615,"##ove ":11616,"##apotek":11617,"##else til ":11618,"##kamerat":11619,"##vassdrag":11620,"Den er ":11621,"Enkel":11622,"##in a ":11623,"##at de ikke ":11624,"Ord":11625,"##Europa ":11626,"##en,\n":11627,"##estim":11628,"##nasjonal ":11629,"##grensen ":11630,"##bakgrunn av ":11631,"##Mør":11632,"##opp en ":11633,"##alminnelig ":11634,"##eseri":11635,"##erg":11636,"##berettig":11637,"27":11638,"##han seg ":11639,"##ikke":11640,"##synspunk":11641,"##innov":11642,"##en, eller ":11643,"##sene.\n":11644,"##hjem til ":11645,"Fil":11646,"##Lø":11647,"##t. ":11648,"##i det hele ":11649,"##modell ":11650,"##apital":11651,"##statlige ":11652,"##plass til ":11653,"= ":11654,"##sproses":11655,"##pet ":11656,"##måter ":11657,"##levert ":11658,"##m og ":11659,"##kyss":11660,"##inn, ":11661,"##pri":11662,"##t, sier ":11663,"##endret ":11664,"##mikro":11665,"##da vi ":11666,"Litt ":11667,"Me ":11668,"##insipp":11669,"##et av de ":11670,"##KL":11671,"##eks ":11672,"##reist ":11673,"##als":11674,"##konstat":11675,"##ning om ":11676,"##bygge":11677,"##forutsetning":11678,"##3/":11679,"##Tøn":11680,"##ander ":11681,"Elev":11682,"##spise":11683,"##år, og ":11684,"##gå.\n":11685,"##ringe ":11686,"##opphold ":11687,"##bør være ":11688,"##TT":11689,"##etten ":11690,"##redaksjon":11691,"##Ton":11692,"##som blir ":11693,"##bygging av ":11694,"##Norge\n":11695,"##bordet ":11696,"##gjøre, ":11697,"##Show ":11698,"##elles":11699,"##mens hun ":11700,"##Sil":11701,"##avdeling":11702,"##symptom":11703,"##fiske ":11704,"##role":11705,"##kommunen.\n":11706,"##10, ":11707,"Figur ":11708,"##ils ":11709,"##11, ":11710,"Like ":11711,"##herunder ":11712,"##hvorvidt ":11713,"##KJ":11714,"##Petter":11715,"##stip":11716,"##ame ":11717,"##forutsetter ":11718,"##eor":11719,"##se i ":11720,"##ledes ":11721,"##vil også ":11722,"##Fos":11723,"##komité":11724,"##Ved":11725,"Nær":11726,"##skapt ":11727,"##Si":11728,"##unntatt ":11729,"##Mic":11730,"##da?\n":11731,"##ekker":11732,"##sikkerhet ":11733,"##kris":11734,"##var, ":11735,"##resul":11736,"- Er ":11737,"##man har ":11738,"##behov.\n":11739,"ar":11740,"##bundet ":11741,"Folk":11742,"##y and ":11743,"##framtid":11744,"##isering av ":11745,"##etak":11746,"##billed":11747,"##regim":11748,"##time.\n":11749,"Akk":11750,"##struct":11751,"##atrul":11752,"##sle ":11753,"##standar":11754,"##TV ":11755,"##fest ":11756,"##somhet.\n":11757,"##åpner ":11758,"##havet.\n":11759,"##træ":11760,"##Christian":11761,"##P. ":11762,"##lung":11763,"##countr":11764,"##ge.\n":11765,"##løpende ":11766,"##innom ":11767,"##At ":11768,"##en g":11769,"##, men ikke ":11770,"##orden":11771,"##samfunnet.\n":11772,"##Bel":11773,"##skrekk":11774,"##ANN":11775,"##TIL":11776,"##klart å ":11777,"##klokka ":11778,"##OPP":11779,"##isk-":11780,"##drene ":11781,"##elig og ":11782,"##folkem":11783,"Har":11784,"##ere\n":11785,"##evik":11786,"##evangel":11787,"##lave ":11788,"##forsyn":11789,"##ella ":11790,"##frihet":11791,"##juk":11792,"##eskol":11793,"##dem og ":11794,"##bortsett fra ":11795,"##rett i ":11796,"##Kari ":11797,"##ld":11798,"##Pe":11799,"##CH":11800,"##minut":11801,"##kanal":11802,"##Ung":11803,"##ORD":11804,"Gud":11805,"##ings- og ":11806,"##:30\n":11807,"##et hun ":11808,"##realit":11809,"##forbe":11810,"##Danmark ":11811,"##samarbeidet ":11812,"##platt":11813,"##ansatt ":11814,"##del.\n":11815,"##arbeid, ":11816,"##Ingr":11817,"##opprinnelige ":11818,"##hverandre, ":11819,"##shus ":11820,"##oppgave ":11821,"##onymous@domain.com\"\"\n":11822,"##ag\n":11823,"##Tryg":11824,"##utgifter ":11825,"##ville han ":11826,"##ord og ":11827,"##tabell":11828,"Mannen ":11829,"##klat":11830,"##mottatt ":11831,"##risiko ":11832,"##nar":11833,"##kvadrat":11834,"Tel":11835,"##bevis ":11836,"##typisk ":11837,"##underlig ":11838,"##serie.\n":11839,"##mot den ":11840,"##byggj":11841,"##siktig ":11842,"##klarer å ":11843,"##sett i ":11844,"##Unit":11845,"##fortsett":11846,"##knem":11847,"##øverste ":11848,"##snittet ":11849,"##hele tiden ":11850,"##tilbake, ":11851,"##there ":11852,"##talt ":11853,"##utsatt for ":11854,"##Bank":11855,"##Prem":11856,"##høres ":11857,"##Helge ":11858,"##for øvrig ":11859,"##da det ":11860,"##NAT":11861,"##motsetning til ":11862,"##/eller ":11863,"##kommunene ":11864,"##Vær":11865,"##fjor.\n":11866,"##første ledd ":11867,"##ste, ":11868,"##les.\n":11869,"##store, ":11870,"##Gun":11871,"##et - ":11872,"##I. ":11873,"##har tatt ":11874,"##dug":11875,"##; (":11876,"##frivillig ":11877,"##solgt for kr ":11878,"##eri ":11879,"##Bø":11880,"##annerledes ":11881,"##nærheten av ":11882,"##/ / ":11883,"##esam":11884,"##ende, og ":11885,"##hjemmel":11886,"##Bakk":11887,"Eit ":11888,"##avn":11889,"##itive ":11890,"##en, der ":11891,"##vil få ":11892,"##kommer fra ":11893,"##er, eller ":11894,"##Nar":11895,"##at det ikke er ":11896,"##frivillige ":11897,"##de enkelte ":11898,"##en, med ":11899,"##bryte ":11900,"##ord, ":11901,"##Arend":11902,"Og jeg ":11903,"##hen ":11904,"##sert":11905,"- Det var ":11906,"##er bare ":11907,"##tilstand":11908,"##en mu":11909,"Dette gjelder ":11910,"##d (":11911,"##år gamm":11912,"Famili":11913,"##epis":11914,"##personer som ":11915,"##leser":11916,"##abel ":11917,"##erte og ":11918,"i 200":11919,"##US ":11920,"##forskjell ":11921,"Legg ":11922,"##så det ":11923,"##ast.\n":11924,"12. ":11925,"##estin":11926,"##over den ":11927,"##prøvde ":11928,"##Nat":11929,"##44":11930,"##Ri":11931,"##gift ":11932,"##entrepren":11933,"##kunne se ":11934,"##turn":11935,"##latter":11936,"##nes.\n":11937,"##leie ":11938,"##splassen ":11939,"##utstrekning ":11940,"##forlot ":11941,"##forsy":11942,"##ende for ":11943,"##Johannes":11944,"##terreng":11945,"##a)\n":11946,"##hyp":11947,"##mene ":11948,"Frem":11949,"##dalen ":11950,"##Aur":11951,"##bred ":11952,"##han som ":11953,"##skolen i ":11954,"##subst":11955,"##et de ":11956,"##vart det ":11957,"##lengst ":11958,"##ors ":11959,"##Syn":11960,"##saker.\n":11961,"##bestef":11962,"##Champ":11963,"##innsik":11964,"##kulturelle ":11965,"##disipl":11966,"##etil ":11967,"##angiv":11968,"##immel":11969,"##semin":11970,"##areal ":11971,"##ytr":11972,"##sjokk":11973,"##født i ":11974,"##Lud":11975,"##såt":11976,"##57":11977,"##://":11978,"##snill":11979,"##ient ":11980,"##Mos":11981,"##ekl":11982,"##herr ":11983,"##AN ":11984,"##alminnelige ":11985,"##dykk":11986,"##ettersom ":11987,"##se:\n":11988,"##2015 ":11989,"##religiøse ":11990,"##search ":11991,"##efon ":11992,"##øbenhav":11993,"##es (":11994,"##hjalp ":11995,"##ering, ":11996,"Rapp":11997,"Sal":11998,"##Gust":11999,"##tusen":12000,"Hen":12001,"##Ån":12002,"##pr ":12003,"##sløy":12004,"##char":12005,"##eringen av ":12006,"##liber":12007,"##All":12008,"##tvung":12009,"Det skal ":12010,"##før jeg ":12011,"##air":12012,"##Mun":12013,"##arbeid med ":12014,"##en viktig ":12015,"fra 2015. ":12016,"##objek":12017,"##forsøke å ":12018,"##elit":12019,"##64 ":12020,"##erte.\n":12021,"##fengsl":12022,"##Ki":12023,"##forbaus":12024,"##jenta ":12025,"##juster":12026,"##ringte ":12027,"##, F":12028,"##handel ":12029,"##Dy":12030,"Jo ":12031,"##får en ":12032,"##Bruk":12033,"##valut":12034,"##komplek":12035,"##bu ":12036,"##ISK":12037,"##vel ikke ":12038,"##inntrykk av ":12039,"##uden ":12040,"##ures ":12041,"##årlige ":12042,"##henge ":12043,"##pyn":12044,"Det er et ":12045,"##vo":12046,"##familie ":12047,"##modern":12048,"##ekstra":12049,"##alistiske ":12050,"##smer":12051,"##store og ":12052,"##skolens ":12053,"##forstått ":12054,"Ja ":12055,"##liv, ":12056,"##C.\n":12057,"##Canad":12058,"God":12059,"##of a ":12060,"Første ":12061,"##avhengige ":12062,"##Universitetet i ":12063,"Mart":12064,"##vald ":12065,"##takt":12066,"##EB":12067,"##arbeidskraf":12068,"##oppfatt":12069,"##ant, ":12070,"##krigen ":12071,"##eselskap":12072,"##Vest-":12073,"##gjelde ":12074,"##exper":12075,"##enda mer ":12076,"##fter ":12077,"##tilby ":12078,"##strid med ":12079,"##bond":12080,"##kredit":12081,"##inn for ":12082,"##Jørgen ":12083,"##iallfall ":12084,"##eth ":12085,"##tonn ":12086,"##Stavanger ":12087,"##yte ":12088,"##skøy":12089,"##relat":12090,"##when ":12091,"##bryllup":12092,"##hellige ":12093,"##eksempler på ":12094,"##forstyrr":12095,"##fangst":12096,"Oslo ":12097,"##diam":12098,"Norges ":12099,"##krav om ":12100,"##erst":12101,"##medan ":12102,"Dette er en ":12103,"##brak":12104,"##eller andre ":12105,"##inger fra ":12106,"Når vi ":12107,"##Hit":12108,"##advokat ":12109,"##fiend":12110,"##strategi":12111,"##1:":12112,"##sberg":12113,"##3 m":12114,"##avnet ":12115,"##anty":12116,"##sannsynlig ":12117,"##hurtig":12118,"##ith ":12119,"##basert ":12120,"##er>>.\n":12121,"##tid til ":12122,"193":12123,"##eventuell ":12124,"##iatr":12125,"##tog ":12126,"##total":12127,"##London ":12128,"##2016 ":12129,"##.) ":12130,"##Hun":12131,"##), som ":12132,"##(red":12133,"##balans":12134,"##ingen har ":12135,"##anskaff":12136,"##ingeniør":12137,"##ed for ":12138,"##ett, ":12139,"##tidspunkt ":12140,"##særlige ":12141,"##informasjon ":12142,"##gikk til ":12143,"##51 ":12144,"##problem ":12145,"##midten av ":12146,"##styre":12147,"##behandle ":12148,"##77 ":12149,"##artikl":12150,"##Hou":12151,"##jobb ":12152,"##elser av ":12153,"##en eller annen ":12154,"Foto":12155,"##vik, ":12156,"##fulgt ":12157,"##unød":12158,"##så ut ":12159,"##en, mens ":12160,"##mer fra ":12161,"##KR":12162,"ST":12163,"##smøt":12164,"##til å få ":12165,"##fore ":12166,"##umin":12167,"##van ":12168,"##d:\n":12169,"##Bibel":12170,"Tenk ":12171,"##solgte ":12172,"##skildr":12173,"##.00:\n":12174,"##år)\n":12175,"##elsen og ":12176,"##bjørn":12177,"##tn":12178,"##bakken.\n":12179,"##lønn ":12180,"##pip":12181,">> <<Jeg ":12182,"##ero":12183,"##um i ":12184,"##de forskjellige ":12185,"##den med ":12186,"##kunne bli ":12187,"##lar seg ":12188,"##var hun ":12189,"##underhold":12190,"##Dag ":12191,"##beskrev":12192,"##War":12193,"##ingen til ":12194,"##skule":12195,"##mir":12196,"##krig ":12197,"##innsats ":12198,"##Fylkes":12199,"##new ":12200,"##Aftenpost":12201,"##ere å ":12202,"##ordentlig ":12203,"##sysselsett":12204,"##ED ":12205,"##inne på ":12206,"Komm":12207,"##du.\n":12208,"##grundig ":12209,"##dtr.\n":12210,"##tiltak som ":12211,"##nektet ":12212,"##kalla ":12213,"##håper ":12214,"##medføre ":12215,"Helt ":12216,"##ømme ":12217,"##Sven":12218,"##videre til ":12219,"##;.\n":12220,"##henne i ":12221,"##vas":12222,"##5 og ":12223,"Det er derfor ":12224,"9. ":12225,"##(r)":12226,"##mangfol":12227,"##interesse for ":12228,"##opplever ":12229,"##hek":12230,"##Mål":12231,"##at hun hadde ":12232,"##er, er ":12233,"##grunn for ":12234,"Sid":12235,"##ende:\n":12236,"##direktør":12237,"##test ":12238,"##anj":12239,"##utarbeidet ":12240,"##00 m":12241,"##disposisjon":12242,"##6)\n":12243,"##nummer":12244,"\"\"\"":12245,"##ant i ":12246,"##sjans":12247,"##henger ":12248,"##fastsatt ":12249,"##ofr":12250,"##ES ":12251,"##mm":12252,"##Will":12253,"##opprettholde ":12254,"##Big B":12255,"##døren ":12256,"##kritisk ":12257,"##Lilleham":12258,"##t mellom ":12259,"##trenings":12260,"##mor og ":12261,"##nysgjer":12262,"##forkyn":12263,"##hold av ":12264,"##hver gang ":12265,"##team":12266,"I tillegg til ":12267,"##te at ":12268,"##ag, ":12269,"##saksbehandl":12270,"##inger av ":12271,"##hva du ":12272,"##omstendighet":12273,"##målsett":12274,"##oppmerksomhet":12275,"##Av ":12276,"##delta i ":12277,"##flere av ":12278,"##morgen ":12279,"##en, i ":12280,"##anti":12281,"##And":12282,"##vegen ":12283,"##54 ":12284,"##alog":12285,"##oratori":12286,"##passer ":12287,"##rettet mot ":12288,"##lenge.\n":12289,"##snakket med ":12290,"##en, er ":12291,"##språket ":12292,"##økonomi":12293,"##svekk":12294,"##appro":12295,"##Eiend":12296,"##tidens ":12297,"##nar ":12298,"##ht ":12299,"##inte ":12300,"##igurd ":12301,"##utnyt":12302,"##trag":12303,"##spiste ":12304,"##gjød":12305,"##che ":12306,"##sukses":12307,"##tør ":12308,"##søst":12309,"##møte med ":12310,"##ition":12311,"##måtte være ":12312,"##USA.\n":12313,"##så fall ":12314,"##skilte ":12315,"##en halv":12316,"##virksomhet.\n":12317,"##kanskj":12318,"##sammen og ":12319,"##undersøkelse ":12320,"##Morten ":12321,"Dagsnytt ":12322,"##Jap":12323,"##Gi":12324,"##plas":12325,"##alle som ":12326,"##Henrik ":12327,"til":12328,"##itenskap":12329,"##låg ":12330,"##(r) 01":12331,"##ordene ":12332,"##bygger på ":12333,"##sant ":12334,"##.), ":12335,"##såkalt ":12336,"##grunnlag av ":12337,"##aske ":12338,"##skiv":12339,"##flag":12340,"##svin":12341,"##at jeg ikke ":12342,"##Comm":12343,"##antak":12344,"##side":12345,"##hit ":12346,"##mannen.\n":12347,"Etter at ":12348,"##Robert ":12349,"##beslutning":12350,"##veter":12351,"##We":12352,"##al-":12353,"##akadem":12354,"##jord.\n":12355,"##sjekk":12356,"##Carl ":12357,"##fun":12358,"##innkjøp":12359,"##hjart":12360,"##tet.\n":12361,"##uavhengig av ":12362,"##Mand":12363,"##ingane ":12364,"##ch.\n":12365,"##hig":12366,"##6 og ":12367,"##lager ":12368,"##99 ":12369,"##ira ":12370,"##mengder ":12371,"##fortsat":12372,"##partiets ":12373,"Liv":12374,"##Mot":12375,"##emiddel":12376,"##for mange ":12377,"Jeg kan ":12378,"##regionale ":12379,"##kod":12380,"##klapp":12381,"##Internat":12382,"##gon":12383,"En annen ":12384,"##antall":12385,"##nytt.\n":12386,"##måte å ":12387,"##ez":12388,"##anstreng":12389,"##edal ":12390,"##smannen ":12391,"##flotte ":12392,"##krem":12393,"##tilgang til ":12394,"##bølg":12395,"##spøk":12396,"##vidar":12397,"##U-":12398,"##ulv":12399,"www":12400,"##vels":12401,"##esid":12402,"##kroppen ":12403,"##Oslo\n":12404,"##Rosen":12405,"##et et ":12406,"##ine, ":12407,"##blin":12408,"##kunnet ":12409,"han ":12410,"##lei ":12411,"##år etter ":12412,"##es fra ":12413,"##men med ":12414,"##], ":12415,"##tet på ":12416,"##både for ":12417,"##innebærer at ":12418,"##ligger på ":12419,"##jobber ":12420,"##eres i ":12421,"##Andre ":12422,"##seie ":12423,"##tråd med ":12424,"##virkemidl":12425,"##offentlig":12426,"##automat":12427,"##null":12428,"##) som ":12429,"##milj":12430,"##So":12431,"##evid":12432,"av":12433,"##indi":12434,"Dette kan ":12435,"##kvinner.\n":12436,"##periode ":12437,"##T:\n":12438,"##korp":12439,"inn":12440,"##inkludert ":12441,"##Trondheim ":12442,"##2013":12443,"##bege":12444,"##Andr":12445,"##kona ":12446,"##igjen, og ":12447,"##kjønns":12448,"##trekker ":12449,"##eromm":12450,"##langsom":12451,"##ren ":12452,"##kopp":12453,"##esten ":12454,"##63 ":12455,"##at noen ":12456,"##yld":12457,"Fran":12458,"##67":12459,"##NY":12460,"##cul":12461,"##realitet":12462,"Hun er ":12463,"##at de har ":12464,"##Tom":12465,"##Du":12466,"##toppen av ":12467,"##å ut":12468,"##også på ":12469,"##danne ":12470,"å ":12471,"##hverken ":12472,"##osial":12473,"##hr. ":12474,"##senere.\n":12475,"##måte som ":12476,"##slik:\n":12477,"##saman med ":12478,"Dere ":12479,"Ny":12480,"##skall":12481,"##vid ":12482,"##pent ":12483,"##anklag":12484,"##Halvor":12485,"##s to ":12486,"##Sov":12487,"##æng":12488,"##ump ":12489,"##strid ":12490,"##hvilk":12491,"##vig ":12492,"##et meg ":12493,"##konsesjon":12494,"##Ris":12495,"##adel":12496,"##tanke på ":12497,"Hol":12498,"##søsk":12499,"##camp":12500,"##Olav":12501,"##avisen ":12502,"##mo ":12503,"##Sag":12504,"##(r) 20":12505,"##sentralt ":12506,"##men og ":12507,"##que ":12508,"##derne ":12509,"##begrepet ":12510,"Ofte ":12511,"##forsikrings":12512,"##selger ":12513,"##elektrisk ":12514,"##en dag ":12515,"##glemme ":12516,"##sdag.\n":12517,"##Luk":12518,"##statsminist":12519,"##garden ":12520,"##Not":12521,"##Luc":12522,"##ene etter ":12523,"<<T":12524,"##kreves ":12525,"##fokus på ":12526,"##nes, ":12527,"##cm.\n":12528,"##forsin":12529,"##fransk":12530,"Kultur":12531,"##nære ":12532,"##sti ":12533,"##nest ":12534,"##FF":12535,"##activ":12536,"##kandidat":12537,"##ØY":12538,"##søknad ":12539,"##Europa.\n":12540,"##Nei, ":12541,"##livet, ":12542,"##penger.\n":12543,"##det norske ":12544,"##kunne han ":12545,"##gå på ":12546,"##sog":12547,"##Kap":12548,"##et ham ":12549,"##lie ":12550,"##annan ":12551,"##forebygg":12552,"##legitim":12553,"##Cla":12554,"##hovedsak ":12555,"##ute av ":12556,"##nit":12557,"##skjelv":12558,"##sju":12559,"##satt på ":12560,"##nedenfor ":12561,"##søkonom":12562,"##omsorgs":12563,"##veget":12564,"##bæ":12565,"##svar på ":12566,"jeg ":12567,"##ede.\n":12568,"##frihet ":12569,"##istrik":12570,"##Russland ":12571,"##betre ":12572,"##når det er ":12573,"##bolig ":12574,"Over ":12575,"S. ":12576,"##dan ":12577,"##, ble ":12578,"##stitusjon":12579,"##arter ":12580,"##advar":12581,"##steder.\n":12582,"##offer ":12583,"##utarbeid":12584,"##well ":12585,"##stav ":12586,"##Dat":12587,"##varm ":12588,"##eriet ":12589,"##menneske":12590,"##Ry":12591,"##folket":12592,"##vei til ":12593,"##dokumentar":12594,"##inær":12595,"##innstilling ":12596,"##kompens":12597,"Eksem":12598,"9 ":12599,"##aktivt ":12600,"28":12601,"##deltar ":12602,"##jorden ":12603,"##holde seg ":12604,"##går til ":12605,"##tekst ":12606,"##mangel":12607,"##England ":12608,"##atter.\n":12609,"##typen ":12610,"##CO":12611,"##endelige ":12612,"##masse":12613,"##bass":12614,"##ede, ":12615,"##ene for å ":12616,"##kom.\n":12617,"##Kv":12618,"##61 ":12619,"##Geir ":12620,"##seg, og ":12621,"##kristend":12622,"##bidra til å ":12623,"##ekr":12624,"##ett av ":12625,"##selskap ":12626,"##sprosjek":12627,"##øyne ":12628,"##noget ":12629,"Syn":12630,"##98":12631,"##så lang":12632,"##nært ":12633,"##enny ":12634,"##skjell":12635,"##ut for ":12636,"##bære":12637,"##Fre":12638,"##EV":12639,"##fylt ":12640,"##possi":12641,"##viron":12642,"##mandag ":12643,"##; m":12644,"##noens":12645,"el":12646,"##nsk":12647,"##3:\n":12648,"##W. ":12649,"Da jeg ":12650,"##ørr":12651,"##plassert ":12652,"##avn ":12653,"##at et ":12654,"##riktige ":12655,"##Svein ":12656,"##Ka":12657,"##få":12658,"##Mik":12659,"##EI":12660,"##forsterk":12661,"##go ":12662,"##Lær":12663,"##takknem":12664,"##fram i ":12665,"##hele tid":12666,"Allerede ":12667,"##jeg, ":12668,"##forening ":12669,"##kommer":12670,"##bruk i ":12671,"##landsk ":12672,"##PL":12673,"En slik ":12674,"##vedrørende ":12675,"##tydeligvis ":12676,"##>> og <<":12677,"##faren ":12678,"##levde ":12679,"##middag":12680,"##heim.\n":12681,"##opp fra ":12682,"##fersk":12683,"##Frp":12684,"##huk":12685,"##ikke det ":12686,"##skjerm":12687,"##snivå":12688,"##blod ":12689,"##åpning":12690,"##romant":12691,"##synes det er ":12692,"##2014":12693,"##en hans.\n":12694,"##kreditt":12695,"##, the ":12696,"##bron":12697,"##exp":12698,"##ting som ":12699,"##prøvd ":12700,"##ann.\n":12701,"##doms":12702,"##shem":12703,"##where ":12704,"Christ":12705,"##ha en ":12706,"##og/eller ":12707,"##retning av ":12708,"##behov ":12709,"##er det en ":12710,"##ledd, ":12711,"##må man ":12712,"##offiser":12713,"##generell ":12714,"##gjenstand ":12715,"##ledende ":12716,"##her på ":12717,"##ett i ":12718,"##sa han ":12719,"##tilbyr ":12720,"##ott ":12721,"##forbud ":12722,"Fordi ":12723,"##ånn ":12724,"##tok i ":12725,"##ule":12726,"##slø":12727,"##skjenk":12728,"##fyll":12729,"##ård ":12730,"##lament":12731,"##ering i ":12732,"##fordi han ":12733,"##sekretær":12734,"##anvendelse ":12735,"##kant av ":12736,"Les ":12737,"##hypp":12738,"##tilsynelat":12739,"##over det ":12740,"##hender ":12741,"Program":12742,"Led":12743,"##Myr":12744,"##rød ":12745,"##drømm":12746,"##itt i ":12747,"##øll":12748,"##SB":12749,"##det vil si ":12750,"##sic":12751,"##gress":12752,"##retter ":12753,"##behov for å ":12754,"##sittende ":12755,"##fang ":12756,"##relevant ":12757,"##W ":12758,"##rømm":12759,"##fleksi":12760,"##in (":12761,"##gled ":12762,"##nikket.\n":12763,"Plutselig ":12764,"##nøye ":12765,"##sikkerhets":12766,"##SL":12767,"##skjør":12768,"##ts":12769,"##nyn":12770,"##Jensen ":12771,"##lamp":12772,"##Tlf.\n":12773,"##elast":12774,"##mannens ":12775,"##10\n":12776,"##vesle ":12777,"##ie.\n":12778,"##know":12779,"##ska":12780,"##katastrof":12781,"##ikken.\n":12782,"##kryp":12783,"##syd":12784,"##mai\n":12785,"##ene hennes ":12786,"##tomm":12787,"##Lo":12788,"##stille.\n":12789,"##lærer ":12790,"##kikket ":12791,"##Brand":12792,"##mens de ":12793,"##fall.\n":12794,"##edrift":12795,"##eplass":12796,"##alv ":12797,"##styrings":12798,"##vil gi ":12799,"##i dag.\n":12800,"##noen av de ":12801,"##glas":12802,"##publikum ":12803,"##forlate ":12804,"##58":12805,"##bef":12806,"##sammenheng med ":12807,"##støtter ":12808,"##elske ":12809,"##utdanning ":12810,"##navn.\n":12811,"##produksjons":12812,"##den lille ":12813,"##sproblem":12814,"##at disse ":12815,"##svare ":12816,"##isten ":12817,"##g\n":12818,"##påsk":12819,"##forhold som ":12820,"##eren, ":12821,"##>>\n":12822,"##. (199":12823,"##Fjell":12824,"##lyste ":12825,"##eck":12826,"##delse.\n":12827,"##bely":12828,"##mennesker som ":12829,"##selvstendig ":12830,"##dør ":12831,"##Wi":12832,"##etn":12833,"##leder:\n":12834,"##måle":12835,"##origin":12836,"##est i ":12837,"##overvåk":12838,"##else med ":12839,"##fantas":12840,"##eie ":12841,"##utviklingen av ":12842,"##kroner, ":12843,"##nei, ":12844,"##kunder ":12845,"##Nik":12846,"##elege ":12847,"##sat ":12848,"##meld.\n":12849,"##allikevel ":12850,"##a).\n":12851,"##mer i ":12852,"## men":12853,"Selv om ":12854,"##kvant":12855,"##betydning.\n":12856,"##utstill":12857,"##barnets ":12858,"##sant?\n":12859,"##år med ":12860,"##valbar":12861,"##digit":12862,"##mumlet ":12863,"##:4":12864,"##svalg":12865,"##bibel":12866,"##tømmer":12867,"##rens":12868,"##Muse":12869,"##, V":12870,"##mellem ":12871,"##y (":12872,"##sykk":12873,"##, som var ":12874,"##foster":12875,"##okol":12876,"##notat":12877,"##greie ":12878,"Ned":12879,"##Bær":12880,"##på for":12881,"##dynam":12882,"##1.\n":12883,"##viser seg ":12884,"##, and ":12885,"FOR":12886,"##Kristin ":12887,"##TH":12888,"##mangel på ":12889,"www.":12890,"##t!\n":12891,"##./":12892,"##ul ":12893,"##seg mot ":12894,"##visjon":12895,"##basis ":12896,"##irektorat":12897,"##antagelig ":12898,"##grunn.\n":12899,"har ":12900,"##te det ":12901,"##ganis":12902,"##New York ":12903,"##låt":12904,"##seier":12905,"##før den ":12906,"##særleg ":12907,"##områdene ":12908,"##obil":12909,"##ryggen ":12910,"##rakk ":12911,"##mar ":12912,"##føring av ":12913,"##kilometer ":12914,"Svar":12915,"##lud":12916,"##fange ":12917,"##må ikke ":12918,"##salg ":12919,"##drikke ":12920,"Fisk":12921,"##>>, og ":12922,"##egrupp":12923,"##sagt.\n":12924,"##>>, <<":12925,"##Journ":12926,"##Rå":12927,"##stamm":12928,"##malt ":12929,"##ennes ":12930,"##ser, ":12931,"##62 ":12932,"##Heg":12933,"##gjort i ":12934,"##is a ":12935,"##righ":12936,"##eres.\n":12937,"##erkjenn":12938,"##stid ":12939,"##15-":12940,"##D. ":12941,"##stag":12942,"##forholdene ":12943,"##jeg skal ":12944,"##revet ":12945,"##mem":12946,"##Gret":12947,"##rundt.\n":12948,"##oppover ":12949,"##t, så ":12950,"Arbe":12951,"Ty":12952,"##bare å ":12953,"##hva slags ":12954,"##alternative ":12955,"##dansk":12956,"##mende ":12957,"Kirk":12958,"##2012":12959,"##vesentlige ":12960,"##dere.\n":12961,"##und\n":12962,"##Asi":12963,"##ath":12964,"##Dam":12965,"##3)\n":12966,"##effektiv ":12967,"##skred":12968,"##ock ":12969,"Ak":12970,"##morgen.\n":12971,"##nøl":12972,"##Øyst":12973,"##doktor":12974,"##ta.\n":12975,"##nyttig ":12976,"Enkelte ":12977,"##lyse ":12978,"##product":12979,"##administrative ":12980,"##valg av ":12981,"##6/":12982,"##sted i ":12983,"##ora ":12984,"##samband ":12985,"##at det i ":12986,"##ressurser ":12987,"##vellykk":12988,"##er:.\n":12989,"##- en ":12990,"##arbeidstid":12991,"##visste ikke ":12992,"##hør ":12993,"##snakk om ":12994,"##hjemme.\n":12995,"##Fur":12996,"##!\"\"\n":12997,"##far.\n":12998,"##læg":12999,"##strå":13000,"17. ":13001,"##ika ":13002,"##lager":13003,"##Port":13004,"##asjon i ":13005,"I et ":13006,"##INN":13007,"##56 ":13008,"##ing mellom ":13009,"##er i den ":13010,"##vog":13011,"##elen.\n":13012,"##kollektiv":13013,"##parkering":13014,"##.19":13015,"##ikop":13016,"##med sine ":13017,"##endør":13018,"##mannskap":13019,"##salg av ":13020,"##68":13021,"re":13022,"##eller ikke ":13023,"##A:\n":13024,"##hennes, ":13025,"##fremo":13026,"##ryn":13027,"##Lor":13028,"##NN":13029,"Uten ":13030,"## og en ":13031,"##Rød":13032,"##frø":13033,"##volum":13034,"##befant ":13035,"##Nyg":13036,"##ort.\n":13037,"##sjåfør":13038,"##overord":13039,"##urett":13040,"##Inger ":13041,"##regjering":13042,"##would ":13043,"##78":13044,"##antallet ":13045,"##eitt ":13046,"##konkluder":13047,"##, men det var ":13048,"##side, ":13049,"##runde ":13050,"##Jesu ":13051,"##(Gnr ":13052,"##en mens ":13053,"##asat ":13054,"##F-":13055,"##for mye ":13056,"##gitt av ":13057,"##professor ":13058,"##pist":13059,"##mange som ":13060,"##åra ":13061,"##forsøker å ":13062,"##Sy":13063,"##Finnmark ":13064,"##forandring":13065,"##ensidig ":13066,"##sland.\n":13067,"##utføres ":13068,"##soci":13069,"##ordr":13070,"##restr":13071,"##innspill":13072,"##sviger":13073,"##legging av ":13074,"##radik":13075,"##en mann ":13076,"##etts":13077,"##dei som ":13078,"##Best":13079,"##er det også ":13080,"##nøytr":13081,"##mye.\n":13082,"##situasjon.\n":13083,"##nomin":13084,"##dagen, ":13085,"Hun har ":13086,"##april\n":13087,"##sikret ":13088,"##ship ":13089,"##beskytte ":13090,"##HET":13091,"##folketryg":13092,"##som <<":13093,"##den største ":13094,"##e,\n":13095,"##glade ":13096,"##busk":13097,"##sjøen.\n":13098,"##epeng":13099,"##harmon":13100,"##ns ":13101,"##øye på ":13102,"##rammer ":13103,"##Ra":13104,"##årt ":13105,"##irsdag ":13106,"##bebygg":13107,"##selvstend":13108,"##57 ":13109,"##sendes ":13110,"##as og ":13111,"##skontroll":13112,"##yc":13113,"##det av ":13114,"##slik m":13115,"##likhet med ":13116,"##var også ":13117,"##innebærer ":13118,"##småt":13119,"##partn":13120,"##Kil":13121,"##000,":13122,"##flyg":13123,"##står på ":13124,"##0-årene ":13125,"##system.\n":13126,"##er i det ":13127,"Direkte.\n":13128,"##erud ":13129,"##.50":13130,"##talte ":13131,"##abb":13132,"##ferdsel":13133,"##Regjeringen ":13134,"##Vis":13135,"Mer":13136,"##den eneste ":13137,"##var å ":13138,"##syv ":13139,"##AL ":13140,"##ver, ":13141,"##row":13142,"##sw":13143,"##amme ":13144,"##ene mine ":13145,"##den har ":13146,"##ræ":13147,"##Finn ":13148,"På denne ":13149,"##åpenbar":13150,"##Su":13151,"##et henne ":13152,"##også, ":13153,"##avdelingen ":13154,"##inn i en ":13155,"Van":13156,"##elegg":13157,"##om dette ":13158,"##til:\n":13159,"##hverandre":13160,"##subst.\n":13161,"##et hans ":13162,"##inndel":13163,"##seinare ":13164,"Senere ":13165,"##ene til å ":13166,"##efull":13167,"##bidra til ":13168,"##kalde ":13169,"##kommune, ":13170,"##sentrum.\n":13171,"##hvis det ":13172,"##psb":13173,"##53 ":13174,"##sted, ":13175,"##for å sikre ":13176,"##rundt og ":13177,"##hver eneste ":13178,"##pensjons":13179,"##Ib":13180,"##verdige ":13181,"##mor.\n":13182,"##nordmenn ":13183,"Hvilke ":13184,"##venn ":13185,"##).\"\"\n":13186,"##huset, ":13187,"##fed":13188,"##bra, ":13189,"##ket og ":13190,"##naar ":13191,"##erte i ":13192,"##iske.\n":13193,"##Grunn":13194,"##ship":13195,"##befolkningen ":13196,"##fenomen":13197,"##vanleg ":13198,"##fastsett":13199,"##06.00 ":13200,"##kjærest":13201,"##andel av ":13202,"##ani":13203,"##sta ":13204,"Ung":13205,"##Hauges":13206,"##reb":13207,"##politid":13208,"##er hadde ":13209,"##et helt ":13210,"##Emil":13211,"##til og ":13212,"fra 2019. ":13213,"##muligens ":13214,"##det!\n":13215,"##SD":13216,"##inger om ":13217,"##es in ":13218,"##ville det ":13219,"Vi vil ":13220,"##følelse av ":13221,"The":13222,"##stirret på ":13223,"##kritikk ":13224,"##Fotball":13225,"##årør":13226,"12 ":13227,"##annen side ":13228,"##drepe ":13229,"##kontinuer":13230,"Søk":13231,"##Fag":13232,"##re i ":13233,"##esc":13234,"##allerede i ":13235,"##Vil":13236,"##hun har ":13237,"Og det er ":13238,"##68 ":13239,"##oren ":13240,"##du skal ":13241,"##hovedsakelig ":13242,"##har man ":13243,"##horis":13244,"##pant":13245,"##Lin":13246,"##uttryk":13247,"##fl.\n":13248,"##en/":13249,"##Natur":13250,"##trer ":13251,"##går på ":13252,"##verb":13253,"##angen ":13254,"##formelle ":13255,"Mand":13256,"##om hvordan ":13257,"##human":13258,"##er vil ":13259,"##set.\n":13260,"##sa til ":13261,"##henne, og ":13262,"##reh":13263,"##red ":13264,"##mjøl":13265,"##sikker ":13266,"##løsning ":13267,"##ordne ":13268,"##pump":13269,"##arm ":13270,"##fikk jeg ":13271,"##ilit":13272,"##syl":13273,"##formål ":13274,"pr":13275,"##A, ":13276,"##harde ":13277,"##aksepter":13278,"Byg":13279,"##er ein ":13280,"##kone ":13281,"##kjend":13282,"##.no.\n":13283,"##EU-":13284,"##App":13285,"##tøff":13286,"##ryt":13287,"##who ":13288,"##vestlige ":13289,"##s are ":13290,"##ål.\n":13291,"##en som har ":13292,"##svensk ":13293,"##bun":13294,"##en, for ":13295,"##nevnes ":13296,"##Larsen ":13297,"##oppfattet ":13298,"##kir":13299,"##brand":13300,"##overfl":13301,"##ard.\n":13302,"##mars\n":13303,"##a- ":13304,"##fra et ":13305,"##t i en ":13306,"##mann i ":13307,"Nye ":13308,"##neb":13309,"##bemann":13310,"##før det ":13311,"##iv.\n":13312,"##Bes":13313,"##Strand":13314,"##det som er ":13315,"##asn":13316,"##regist":13317,"##proposisjon":13318,"##teik":13319,"##ience ":13320,"##barnevern":13321,"##ning med ":13322,"##eme ":13323,"##N. ":13324,"##en kunne ":13325,"##de at ":13326,"##tilvær":13327,"##ute.\n":13328,"- G":13329,"##ested":13330,"##øte ":13331,"##ed the ":13332,"Ny ":13333,"##sopp":13334,"##NG":13335,"##IP":13336,"##formasjon":13337,"##sparti":13338,"##ta på ":13339,"##benytter ":13340,"##69 ":13341,"##, sier han.\n":13342,"##aup":13343,"##dyr.\n":13344,"##populære ":13345,"##lensmann":13346,"##u, ":13347,"##stjeneste ":13348,"##lød ":13349,"##samfunn ":13350,"##Reid":13351,"##dekker ":13352,"##gir":13353,"##0) ":13354,"##B.\n":13355,"##etning":13356,"##om vi ":13357,"##beskrive ":13358,"##of m":13359,"##ene mellom ":13360,"##kompl":13361,"##lastebil":13362,"##befinn":13363,"##pepp":13364,"##tau":13365,"##ar (":13366,"##forleng":13367,"##begiv":13368,"##for å finne ":13369,"##både på ":13370,"##my ":13371,"##høn":13372,"##250 ":13373,"##Peter":13374,"##art, ":13375,"##post:\n":13376,"Sand":13377,"##seg en ":13378,"##ramme":13379,"##ty ":13380,"##feb":13381,"##bryter ":13382,"##terne ":13383,"##E M":13384,"##hånden.\n":13385,"##sort":13386,"##dalen.\n":13387,"##a>> ":13388,"##Hord":13389,"##så han ":13390,"##esty":13391,"##ende til ":13392,"##kjennskap til ":13393,"##vil.\n":13394,"##sosialt ":13395,"##gradvis ":13396,"Post":13397,"##ande.\n":13398,"##har vore ":13399,"##kjempe ":13400,"##øken ":13401,"##fyrste ":13402,"##ae ":13403,"##enes":13404,"##sterne ":13405,"##ifisert ":13406,"##være i ":13407,"##The Big B":13408,"##eng.\n":13409,"##enn å ":13410,"##frem og ":13411,"##spe":13412,"##atte":13413,"##stoppe ":13414,"##utfordring":13415,"##it is ":13416,"##virkelige ":13417,"##land i ":13418,"Oslo:\n":13419,"##arab":13420,"##greit ":13421,"##tapp":13422,"##innhold":13423,"##lente ":13424,"##74 ":13425,"##00,":13426,"##våg":13427,"##istriktsnyheter ":13428,"Sv":13429,"##ious ":13430,"Tur":13431,"##Ass":13432,"##aktige ":13433,"##Trond ":13434,"##gitte ":13435,"##magn":13436,"##ønsket å ":13437,"##Met":13438,"##noe annet ":13439,"##seksjon":13440,"##utøver":13441,"##problemer.\n":13442,"##miner":13443,"##jag":13444,"##1), ":13445,"##Leg":13446,"##delse":13447,"##skjønner ":13448,"##seige ":13449,"##klim":13450,"Hos ":13451,"##jobbet ":13452,"##opl":13453,"##enstemm":13454,"##ødelag":13455,"##dobbelt":13456,"##eller på ":13457,"##vold ":13458,"<<Nei, ":13459,"##ser og ":13460,"##oph":13461,"Hun så ":13462,"Te":13463,"##ce":13464,"##unnskyld":13465,"Ved å ":13466,"Frå ":13467,"Mye ":13468,"##Rad":13469,"##en sk":13470,"##likt ":13471,"##F. ":13472,"##ha.\n":13473,"##4/":13474,"##Rob":13475,"##forklarte ":13476,"##der for ":13477,"##informasjons":13478,"##ten.\n":13479,"##rer ":13480,"##finnes det ":13481,"##oline ":13482,"I stedet ":13483,"##regnes ":13484,"##ags":13485,"##langsomt ":13486,"##halde ":13487,"##(r) 04":13488,"##der med ":13489,"##bruk og ":13490,"##uh":13491,"Klokk":13492,"##steg":13493,"##prinsi":13494,"##sluk":13495,"##arrest":13496,"##Rune ":13497,"##s of the ":13498,"##ervic":13499,"##forandret ":13500,"##utsag":13501,"##sleder ":13502,"##direk":13503,"##juli\n":13504,"##Sø":13505,"##elt i ":13506,"##avtale med ":13507,"##Adam":13508,"##i forbindelse med ":13509,"##blomstr":13510,"##Home ":13511,"##>>-":13512,"##erfaring":13513,"Fram":13514,"##kjer":13515,"##merkelig ":13516,"##diver":13517,"##siktet ":13518,"##IN ":13519,"##gitt i ":13520,"##Sw":13521,"##innstill":13522,"##nivå.\n":13523,"##tilstand ":13524,"13. ":13525,"##en slags ":13526,"-- H":13527,"##objekt":13528,"##seg over ":13529,"##evirk":13530,"##gikk det ":13531,"##standard ":13532,"##Funn":13533,"##59":13534,"##Wik":13535,"##era ":13536,"##var jeg ":13537,"##anch":13538,"##lærar":13539,"##bj":13540,"##de nye ":13541,"##meste av ":13542,"##fatt ":13543,"##Ud":13544,"##samvitt":13545,"##<< ":13546,"Deres ":13547,"Selv ":13548,"##OV":13549,"##kvinnelige ":13550,"##ple":13551,"##atten ":13552,"##boks ":13553,"##feste ":13554,"##Gud.\n":13555,"##atmo":13556,"##svømm":13557,"##hvisket ":13558,"Amer":13559,"##verket.\n":13560,"Problem":13561,"##hus og ":13562,"##SF":13563,"##desto ":13564,"##utført ":13565,"##, skal ":13566,"##undersøke ":13567,"##er ikke å ":13568,"##Hvor ":13569,"##, men i ":13570,"Hva er ":13571,"##sider.\n":13572,"##Park":13573,"##eir":13574,"Jeg må ":13575,"##grunn til ":13576,"##Pris":13577,"##ing etter ":13578,"##sprekk":13579,"##Svar":13580,
[...]
