{"version":"1.0","truncation":null,"padding":null,"added_tokens":[{"id":0,"special":true,"content":"[PAD]","single_word":false,"lstrip":false,"rstrip":false,"normalized":false},{"id":1,"special":true,"content":"[UNK]","single_word":false,"lstrip":false,"rstrip":false,"normalized":false},{"id":2,"special":true,"content":"[CLS]","single_word":false,"lstrip":false,"rstrip":false,"normalized":false},{"id":3,"special":true,"content":"[SEP]","single_word":false,"lstrip":false,"rstrip":false,"normalized":false},{"id":4,"special":true,"content":"[MASK]","single_word":false,"lstrip":false,"rstrip":false,"normalized":false}],"normalizer":{"type":"NFKC"},"pre_tokenizer":{"type":"Metaspace","replacement":"▁","str_rep":"▁","add_prefix_space":true},"post_processor":null,"decoder":{"type":"Metaspace","replacement":"▁","str_rep":"▁","add_prefix_space":true},"model":{"dropout":null,"unk_token":null,"continuing_subword_prefix":null,"end_of_word_suffix":null,"fuse_unk":false,"vocab":{"[PAD]":0,"[UNK]":1,"[CLS]":2,"[SEP]":3,"[MASK]":4,"\n":5,"!":6,"\"":7,"#":8,"$":9,"%":10,"&":11,"'":12,"(":13,")":14,"*":15,"+":16,",":17,"-":18,".":19,"/":20,"0":21,"1":22,"2":23,"3":24,"4":25,"5":26,"6":27,"7":28,"8":29,"9":30,":":31,";":32,"<":33,"=":34,">":35,"?":36,"@":37,"A":38,"B":39,"C":40,"D":41,"E":42,"F":43,"G":44,"H":45,"I":46,"J":47,"K":48,"L":49,"M":50,"N":51,"O":52,"P":53,"Q":54,"R":55,"S":56,"T":57,"U":58,"V":59,"W":60,"X":61,"Y":62,"Z":63,"[":64,"\\":65,"]":66,"^":67,"_":68,"`":69,"a":70,"b":71,"c":72,"d":73,"e":74,"f":75,"g":76,"h":77,"i":78,"j":79,"k":80,"l":81,"m":82,"n":83,"o":84,"p":85,"q":86,"r":87,"s":88,"t":89,"u":90,"v":91,"w":92,"x":93,"y":94,"z":95,"{":96,"|":97,"}":98,"~":99,"¢":100,"£":101,"¤":102,"¥":103,"¦":104,"©":105,"¬":106,"®":107,"°":108,"±":109,"À":110,"Á":111,"Â":112,"Ã":113,"Ä":114,"Å":115,"Æ":116,"Ç":117,"È":118,"É":119,"Ê":120,"Ë":121,"Ì":122,"Í":123,"Î":124,"Ï":125,"Ð":126,"Ñ":127,"Ò":128,"Ó":129,"Ô":130,"Õ":131,"Ö":132,"×":133,"Ø":134,"Ú":135,"Ü":136,"Þ":137,"ß":138,"à":139,"á":140,"â":141,"ã":142,"ä":143,"å":144,"æ":145,"ç":146,"è":147,"é":148,"ê":149,"ë":150,"ì":151,"í":152,"î":153,"ï":154,"ð":155,"ñ":156,"ò":157,"ó":158,"ô":159,"õ":160,"ö":161,"÷":162,"ø":163,"ù":164,"ú":165,"û":166,"ü":167,"ý":168,"þ":169,"ÿ":170,"Ā":171,"ā":172,"ă":173,"ą":174,"Ć":175,"ć":176,"Č":177,"č":178,"Ď":179,"Đ":180,"đ":181,"ē":182,"ė":183,"ę":184,"ě":185,"ğ":186,"ī":187,"ĭ":188,"İ":189,"ı":190,"ĺ":191,"ļ":192,"ľ":193,"Ł":194,"ł":195,"ń":196,"ņ":197,"ň":198,"Ŋ":199,"ŋ":200,"Ō":201,"ō":202,"ŏ":203,"ő":204,"Œ":205,"œ":206,"Ř":207,"ř":208,"Ś":209,"ś":210,"Ş":211,"ş":212,"Š":213,"š":214,"ţ":215,"ť":216,"ŧ":217,"ũ":218,"ū":219,"ŭ":220,"ů":221,"ų":222,"Ÿ":223,"ź":224,"Ż":225,"ż":226,"Ž":227,"ž":228,"ƒ":229,"ơ":230,"ƭ":231,"ư":232,"ǎ":233,"ǐ":234,"ǒ":235,"ǔ":236,"ǫ":237,"Ș":238,"ș":239,"ț":240,"Ʌ":241,"ɑ":242,"ɔ":243,"ə":244,"ɛ":245,"ɪ":246,"ʁ":247,"ʃ":248,"ʊ":249,"ʹ":250,"ʻ":251,"ʾ":252,"ʿ":253,"ˆ":254,"ˇ":255,"ˈ":256,"ː":257,"́":258,"̃":259,"̄":260,"̈":261,"̊":262,"̧":263,"Α":264,"Β":265,"Γ":266,"Δ":267,"Ε":268,"Η":269,"Θ":270,"Ι":271,"Κ":272,"Λ":273,"Μ":274,"Ν":275,"Ο":276,"Π":277,"Ρ":278,"Σ":279,"Τ":280,"Υ":281,"Φ":282,"Χ":283,"Ω":284,"ά":285,"έ":286,"ή":287,"ί":288,"α":289,"β":290,"γ":291,"δ":292,"ε":293,"ζ":294,"η":295,"θ":296,"ι":297,"κ":298,"λ":299,"μ":300,"ν":301,"ξ":302,"ο":303,"π":304,"ρ":305,"ς":306,"σ":307,"τ":308,"υ":309,"φ":310,"χ":311,"ψ":312,"ω":313,"ό":314,"ύ":315,"ώ":316,"Ѕ":317,"І":318,"А":319,"Б":320,"В":321,"Г":322,"Д":323,"Е":324,"Ж":325,"З":326,"И":327,"К":328,"Л":329,"М":330,"Н":331,"О":332,"П":333,"Р":334,"С":335,"Т":336,"У":337,"Ф":338,"Х":339,"Ц":340,"Ч":341,"Ш":342,"Э":343,"Ю":344,"Я":345,"а":346,"б":347,"в":348,"г":349,"д":350,"е":351,"ж":352,"з":353,"и":354,"й":355,"к":356,"л":357,"м":358,"н":359,"о":360,"п":361,"р":362,"с":363,"т":364,"у":365,"ф":366,"х":367,"ц":368,"ч":369,"ш":370,"щ":371,"ъ":372,"ы":373,"ь":374,"э":375,"ю":376,"я":377,"ё":378,"і":379,"ї":380,"ј":381,"њ":382,"Ґ":383,"Թ":384,"Ռ":385,"Վ":386,"ա":387,"ե":388,"ի":389,"յ":390,"ն":391,"ո":392,"ր":393,"ְ":394,"ִ":395,"ֵ":396,"ֶ":397,"ַ":398,"ָ":399,"ֹ":400,"ּ":401,"ׁ":402,"א":403,"ב":404,"ג":405,"ד":406,"ה":407,"ו":408,"ז":409,"ח":410,"ט":411,"י":412,"כ":413,"ל":414,"ם":415,"מ":416,"ן":417,"נ":418,"ס":419,"ע":420,"פ":421,"צ":422,"ק":423,"ר":424,"ש":425,"ת":426,"ء":427,"آ":428,"أ":429,"إ":430,"ئ":431,"ا":432,"ب":433,"ة":434,"ت":435,"ث":436,"ج":437,"ح":438,"خ":439,"د":440,"ذ":441,"ر":442,"ز":443,"س":444,"ش":445,"ص":446,"ض":447,"ط":448,"ع":449,"غ":450,"ـ":451,"ف":452,"ق":453,"ك":454,"ل":455,"م":456,"ن":457,"ه":458,"و":459,"ى":460,"ي":461,"َ":462,"پ":463,"ک":464,"گ":465,"ی":466,"क":467,"ज":468,"त":469,"द":470,"न":471,"प":472,"म":473,"य":474,"र":475,"ल":476,"व":477,"स":478,"ह":479,"ा":480,"ि":481,"ी":482,"ु":483,"े":484,"्":485,"া":486,"ਾ":487,"ਿ":488,"்":489,"ก":490,"ง":491,"ท":492,"น":493,"ม":494,"ย":495,"ร":496,"ล":497,"ว":498,"อ":499,"ั":500,"า":501,"ิ":502,"ี":503,"฿":504,"เ":505,"่":506,"้":507,"ག":508,"ད":509,"ན":510,"པ":511,"བ":512,"ར":513,"ས":514,"ི":515,"ེ":516,"ོ":517,"ྱ":518,"ა":519,"ე":520,"ი":521,"ღ":522,"ᄀ":523,"Ḥ":524,"ḥ":525,"ṃ":526,"ṇ":527,"ṣ":528,"ṭ":529,"ạ":530,"ả":531,"ấ":532,"ầ":533,"ẩ":534,"ậ":535,"ế":536,"ề":537,"ể":538,"ễ":539,"ệ":540,"ị":541,"ọ":542,"ố":543,"ồ":544,"ộ":545,"ớ":546,"ờ":547,"ở":548,"ủ":549,"ự":550,"⁄":551,"€":552,"←":553,"↑":554,"→":555,"↓":556,"↗":557,"∂":558,"∆":559,"∇":560,"∈":561,"∏":562,"−":563,"∙":564,"√":565,"∞":566,"∫":567,"≈":568,"≤":569,"≥":570,"⋅":571,"─":572,"│":573,"▁":574,"█":575,"■":576,"□":577,"▪":578,"▫":579,"▲":580,"▶":581,"▸":582,"►":583,"▼":584,"◀":585,"◄":586,"◆":587,"◉":588,"○":589,"●":590,"◗":591,"☀":592,"★":593,"☆":594,"☎":595,"☺":596,"♀":597,"♂":598,"♠":599,"♡":600,"♣":601,"♥":602,"♦":603,"♫":604,"⚫":605,"✂":606,"✆":607,"✍":608,"✑":609,"✓":610,"✔":611,"✚":612,"✨":613,"✪":614,"✶":615,"✸":616,"❄":617,"❆":618,"❑":619,"❖":620,"❚":621,"❞":622,"❤":623,"❥":624,"➊":625,"➋":626,"➌":627,"➍":628,"➔":629,"➜":630,"➤":631,"➥":632,"➦":633,"⠀":634,"あ":635,"い":636,"う":637,"え":638,"お":639,"か":640,"が":641,"き":642,"く":643,"け":644,"こ":645,"さ":646,"し":647,"す":648,"そ":649,"た":650,"だ":651,"ち":652,"っ":653,"つ":654,"て":655,"で":656,"と":657,"ど":658,"な":659,"に":660,"の":661,"は":662,"ま":663,"み":664,"め":665,"も":666,"や":667,"よ":668,"ら":669,"り":670,"る":671,"れ":672,"を":673,"ん":674,"ア":675,"ィ":676,"イ":677,"ウ":678,"エ":679,"オ":680,"カ":681,"キ":682,"ク":683,"グ":684,"コ":685,"サ":686,"シ":687,"ジ":688,"ス":689,"ズ":690,"タ":691,"ダ":692,"チ":693,"ッ":694,"ツ":695,"テ":696,"デ":697,"ト":698,"ド":699,"ナ":700,"ニ":701,"バ":702,"パ":703,"ビ":704,"ピ":705,"フ":706,"ブ":707,"プ":708,"マ":709,"ミ":710,"ム":711,"メ":712,"ャ":713,"ュ":714,"ラ":715,"リ":716,"ル":717,"レ":718,"ロ":719,"ン":720,"ー":721,"㘀":722,"㤀":723,"㨀":724,"䄀":725,"䈀":726,"䐀":727,"䔀":728,"䘀":729,"䜀":730,"䤀":731,"䬀":732,"䰀":733,"䴀":734,"一":735,"丁":736,"万":737,"三":738,"上":739,"下":740,"不":741,"世":742,"业":743,"东":744,"中":745,"为":746,"主":747,"之":748,"九":749,"乡":750,"了":751,"事":752,"二":753,"五":754,"京":755,"人":756,"今":757,"代":758,"以":759,"伀":760,"会":761,"作":762,"信":763,"元":764,"光":765,"入":766,"全":767,"八":768,"公":769,"六":770,"内":771,"准":772,"出":773,"刀":774,"分":775,"利":776,"前":777,"力":778,"匀":779,"化":780,"北":781,"区":782,"十":783,"华":784,"单":785,"南":786,"原":787,"县":788,"双":789,"发":790,"口":791,"古":792,"台":793,"司":794,"吀":795,"合":796,"同":797,"名":798,"和":799,"品":800,"嘀":801,"四":802,"国":803,"图":804,"國":805,"在":806,"地":807,"场":808,"址":809,"坛":810,"城":811,"多":812,"大":813,"天":814,"太":815,"奖":816,"女":817,"好":818,"姐":819,"子":820,"字":821,"学":822,"安":823,"宗":824,"定":825,"宝":826,"家":827,"富":828,"小":829,"尾":830,"山":831,"川":832,"州":833,"工":834,"己":835,"市":836,"帝":837,"平":838,"年":839,"库":840,"建":841,"开":842,"式":843,"彩":844,"德":845,"心":846,"愀":847,"戀":848,"成":849,"我":850,"手":851,"报":852,"挂":853,"搀":854,"攀":855,"教":856,"数":857,"文":858,"料":859,"新":860,"方":861,"族":862,"日":863,"昀":864,"明":865,"是":866,"時":867,"最":868,"月":869,"有":870,"期":871,"未":872,"本":873,"机":874,"李":875,"村":876,"来":877,"東":878,"林":879,"果":880,"栀":881,"椀":882,"樀":883,"欀":884,"正":885,"武":886,"氀":887,"民":888,"氓":889,"水":890,"江":891,"河":892,"治":893,"法":894,"波":895,"洀":896,"海":897,"渀":898,"港":899,"漀":900,"瀀":901,"爀":902,"版":903,"牌":904,"物":905,"特":906,"狗":907,"猀":908,"玄":909,"王":910,"琀":911,"理":912,"甀":913,"生":914,"用":915,"田":916,"甲":917,"瘀":918,"白":919,"的":920,"皇":921,"真":922,"石":923,"码":924,"礀":925,"社":926,"神":927,"福":928,"空":929,"站":930,"算":931,"管":932,"精":933,"經":934,"红":935,"经":936,"网":937,"美":938,"老":939,"者":940,"肖":941,"能":942,"自":943,"色":944,"花":945,"英":946,"藏":947,"行":948,"街":949,"西":950,"要":951,"解":952,"论":953,"财":954,"资":955,"跑":956,"路":957,"辛":958,"通":959,"道":960,"部":961,"都":962,"里":963,"金":964,"镇":965,"长":966,"门":967,"阳":968,"集":969,"香":970,"马":971,"高":972,"黄":973,"龙":974,"기":975,"다":976,"대":977,"리":978,"사":979,"산":980,"시":981,"의":982,"이":983,"한":984,"️":985,"�":986,"🏻":987,"🏼":988,"👍":989,"👏":990,"😀":991,"😁":992,"😂":993,"😃":994,"😄":995,"😅":996,"😉":997,"😊":998,"😍":999,"😛":1000,"🙁":1001,"🙂":1002,"🙌":1003,"🙏":1004,"▁s":1005,"de":1006,"te":1007,"re":1008,".\n":1009,"an":1010,"▁f":1011,"▁o":1012,"in":1013,"▁e":1014,"le":1015,"or":1016,"ne":1017,"▁h":1018,"▁m":1019,"▁de":1020,"ar":1021,"▁t":1022,"▁v":1023,"ke":1024,"▁a":1025,"▁i":1026,"ge":1027,"il":1028,"▁b":1029,"om":1030,"▁og":1031,"▁k":1032,"se":1033,"▁p":1034,"li":1035,"ve":1036,"▁me":1037,"st":1038,"▁for":1039,"je":1040,"▁g":1041,"ra":1042,"me":1043,"▁til":1044,"un":1045,"▁det":1046,"is":1047,"ter":1048,"et":1049,"ing":1050,"al":1051,"on":1052,"▁d":1053,"▁av":1054,"▁en":1055,"▁er":1056,"▁å":1057,"▁n":1058,"▁D":1059,"▁som":1060,"tt":1061,"▁på":1062,"▁S":1063,"kke":1064,"▁1":1065,"ri":1066,"▁u":1067,"▁med":1068,"la":1069,"▁H":1070,"ti":1071,"▁se":1072,"ten":1073,"lle":1074,"▁at":1075,"▁st":1076,"▁sk":1077,"pp":1078,"sk":1079,"ver":1080,"ør":1081,"▁in":1082,"am":1083,"gen":1084,"and":1085,"▁ve":1086,"▁l":1087,"ro":1088,"lig":1089,"der":1090,"▁M":1091,"ol":1092,"▁var":1093,"▁den":1094,"▁be":1095,"▁et":1096,"▁re":1097,"ste":1098,"▁om":1099,"▁he":1100,"ie":1101,"he":1102,"▁har":1103,"▁-":1104,"pe":1105,"\"\"":1106,"▁A":1107,"▁F":1108,"ren":1109,"at":1110,"▁(":1111,"sen":1112,"ik":1113,"be":1114,"▁ikke":1115,"▁B":1116,"as":1117,"▁2":1118,"id":1119,"▁T":1120,"ger":1121,"▁N":1122,"▁ut":1123,"år":1124,"▁E":1125,"ru":1126,"▁han":1127,"▁ha":1128,"kt":1129,"den":1130,"▁K":1131,"ig":1132,"▁vi":1133,"▁Det":1134,"▁I":1135,"▁fra":1136,"t.\n":1137,"▁opp":1138,"ns":1139,"▁J":1140,"ll":1141,":\n":1142,"ner":1143,"▁V":1144,"tte":1145,"ta":1146,"00":1147,"ss":1148,"ær":1149,"ser":1150,"men":1151,"ks":1152,"▁<":1153,"▁O":1154,"ur":1155,"▁L":1156,"▁le":1157,"▁an":1158,"ning":1159,">>":1160,"▁De":1161,"▁P":1162,"dde":1163,"jen":1164,"▁kan":1165,"for":1166,"ag":1167,"▁seg":1168,"▁kom":1169,"▁<<":1170,"▁no":1171,"ller":1172,"ler":1173,"lt":1174,"nen":1175,"▁R":1176,"us":1177,"▁je":1178,"▁så":1179,"▁men":1180,"▁G":1181,"it":1182,"rer":1183,"▁li":1184,"▁sam":1185,"jø":1186,"kk":1187,"ot":1188,"▁vil":1189,"nes":1190,"ker":1191,"▁jeg":1192,"tet":1193,"▁19":1194,"fe":1195,"jon":1196,"va":1197,"jo":1198,"▁inn":1199,"▁må":1200,"ang":1201,"ret":1202,"øy":1203,"▁hadde":1204,"▁over":1205,"▁bli":1206,"lse":1207,"det":1208,"mer":1209,"▁un":1210,"nd":1211,"ingen":1212,"res":1213,"ld":1214,"len":1215,"▁si":1216,"▁r":1217,"ære":1218,"ok":1219,"▁ne":1220,"▁man":1221,"na":1222,"▁ble":1223,"eg":1224,"▁ved":1225,"▁sa":1226,"ord":1227,"ine":1228,"od":1229,"▁eller":1230,"net":1231,"så":1232,"isk":1233,"ir":1234,"ap":1235,"▁du":1236,"lige":1237,"▁sp":1238,"ut":1239,"▁noe":1240,"rå":1241,"▁Me":1242,"▁and":1243,"▁hun":1244,"▁hv":1245,"▁3":1246,"▁ar":1247,"ort":1248,"ore":1249,"get":1250,"▁C":1251,"lo":1252,"▁skal":1253,"▁etter":1254,"▁før":1255,"ske":1256,"ier":1257,"nt":1258,"yg":1259,"▁der":1260,"os":1261,"▁da":1262,"▁ba":1263,"jer":1264,"▁Han":1265,"▁c":1266,"▁pro":1267,"iske":1268,"het":1269,"?\n":1270,"▁la":1271,"\"\n":1272,"▁også":1273,"▁kun":1274,"▁to":1275,"inger":1276,"▁kon":1277,"ikk":1278,"og":1279,"nde":1280,"sp":1281,"rø":1282,"▁of":1283,"di":1284,"mme":1285,"ye":1286,"old":1287,"ly":1288,"▁\n":1289,"▁ta":1290,"▁fe":1291,"t,":1292,"n.\n":1293,"leg":1294,"lan":1295,"▁pe":1296,"▁ø":1297,"▁the":1298,"▁>>":1299,"▁Jeg":1300,"ne.\n":1301,"▁være":1302,"ling":1303,"ist":1304,"▁år":1305,"▁U":1306,"ud":1307,"yn":1308,"kte":1309,"ppe":1310,"..":1311,"▁j":1312,"▁under":1313,"ry":1314,"▁4":1315,"▁hen":1316,"yr":1317,"▁te":1318,"sa":1319,"let":1320,"▁<<\n":1321,"ma":1322,"▁\"\n":1323,"und":1324,"▁mot":1325,"ran":1326,"▁dette":1327,"var":1328,"ket":1329,"um":1330,"jel":1331,"iv":1332,"▁få":1333,"▁min":1334,"▁He":1335,"vis":1336,"lag":1337,"▁fø":1338,"\"\"\n":1339,"ul":1340,"ue":1341,"▁5":1342,"set":1343,"vi":1344,"▁Men":1345,"lik":1346,"ad":1347,"▁bru":1348,"▁alle":1349,"▁0":1350,"▁St":1351,"▁ver":1352,").\n":1353,"▁andre":1354,"▁20":1355,"▁gjen":1356,"dre":1357,"n,":1358,"▁or":1359,"▁fa":1360,")\n":1361,"run":1362,"sm":1363,"▁sy":1364,"ng":1365,"asjon":1366,"rem":1367,"▁tid":1368,"ce":1369,"▁blir":1370,"art":1371,"▁Vi":1372,"▁meg":1373,"ært":1374,"da":1375,"\"\"\"\"":1376,".00":1377,"kker":1378,"▁Den":1379,"ia":1380,"▁arbe":1381,"▁kunne":1382,"▁For":1383,"ft":1384,"ber":1385,"▁18":1386,"ch":1387,"gi":1388,"▁mer":1389,"kti":1390,"all":1391,"skap":1392,"jør":1393,"du":1394,"av":1395,"ba":1396,"▁sin":1397,"per":1398,"ane":1399,"▁--":1400,"ken":1401,"tid":1402,"gene":1403,"▁enn":1404,"▁Nor":1405,"nom":1406,"▁denne":1407,"▁tre":1408,"land":1409,"oli":1410,"▁ste":1411,"▁sku":1412,"▁god":1413,"▁w":1414,"▁Be":1415,"lv":1416,"si":1417,"▁ny":1418,"▁fin":1419,"▁ma":1420,"▁6":1421,"ven":1422,"▁(r":1423,"▁nå":1424,"del":1425,"ne,":1426,"▁ho":1427,"▁dem":1428,"!\n":1429,"fø":1430,"▁bar":1431,"▁ham":1432,"lu":1433,"s.\n":1434,"mu":1435,"▁van":1436,"vik":1437,"▁bare":1438,"iste":1439,"tion":1440,"▁når":1441,"▁her":1442,"▁beg":1443,"hold":1444,"▁bet":1445,"sø":1446,"▁Ve":1447,"▁noen":1448,"▁W":1449,"▁lø":1450,"red":1451,"ille":1452,"vet":1453,"alt":1454,"▁fle":1455,"ffe":1456,"▁ra":1457,"▁gjennom":1458,"ningen":1459,"llom":1460,"▁En":1461,"▁Se":1462,"rs":1463,"lø":1464,"vin":1465,"ien":1466,"▁ti":1467,"▁hvor":1468,"ka":1469,"▁7":1470,"▁Og":1471,"itt":1472,"ov":1473,"▁mange":1474,"lsen":1475,"▁sammen":1476,"las":1477,"atte":1478,"▁reg":1479,"tter":1480,"▁mellom":1481,"▁skulle":1482,"ings":1483,"ale":1484,"1.":1485,"▁Hun":1486,"tene":1487,"ant":1488,"jonen":1489,"▁sier":1490,"▁ned":1491,"▁hver":1492,"isse":1493,"▁frem":1494,"▁slik":1495,"▁vært":1496,"tig":1497,"▁ville":1498,"gjen":1499,"▁In":1500,"ttet":1501,"re.\n":1502,"▁8":1503,"dd":1504,"▁del":1505,"▁9":1506,"rie":1507,"▁alt":1508,"kket":1509,"▁kl":1510,"ster":1511,"oe":1512,"▁dag":1513,"man":1514,"pen":1515,"ull":1516,"▁grun":1517,"▁uten":1518,"▁jo":1519,"2.":1520,"ninger":1521,"r.":1522,"▁sø":1523,"s,":1524,"kon":1525,"rende":1526,"▁set":1527,"▁arbeid":1528,"30":1529,"▁fore":1530,"19":1531,"ire":1532,"▁ly":1533,"ill":1534,"ød":1535,"ug":1536,"r.\n":1537,"▁fort":1538,"▁ein":1539,"ring":1540,"▁lang":1541,"dom":1542,"im":1543,"a,":1544,"jøre":1545,"▁Sk":1546,"ny":1547,"sten":1548,"▁oss":1549,"legg":1550,"ab":1551,"▁mo":1552,"▁al":1553,"par":1554,"pet":1555,"▁gj":1556,"▁nor":1557,"▁deg":1558,"▁bå":1559,"▁mu":1560,"▁(r)":1561,"skje":1562,"▁første":1563,"dag":1564,"lem":1565,"3.":1566,"ga":1567,"▁går":1568,"hol":1569,"▁vir":1570,"met":1571,"▁sm":1572,"▁fram":1573,"▁17":1574,"øye":1575,"arbe":1576,"ff":1577,"▁gå":1578,"lge":1579,".\"\"\n":1580,"▁10":1581,"▁Dette":1582,"ter.\n":1583,"▁nær":1584,"ic":1585,"bru":1586,"▁ten":1587,"▁Re":1588,"ha":1589,"▁stor":1590,"▁hva":1591,"▁igjen":1592,"ost":1593,"som":1594,"▁byg":1595,"▁dei":1596,"▁fikk":1597,"lå":1598,"gan":1599,"dere":1600,"▁ty":1601,"a.\n":1602,"før":1603,"nings":1604,"▁fors":1605,"▁like":1606,"sent":1607,"nene":1608,"ak":1609,"▁par":1610,"▁får":1611,"vel":1612,"opp":1613,"ole":1614,"ål":1615,"heten":1616,"sel":1617,"5.":1618,"d.\n":1619,"▁kjø":1620,"▁fol":1621,"rin":1622,"▁Da":1623,"rist":1624,"▁beste":1625,"yl":1626,"▁ro":1627,"rat":1628,"kom":1629,"over":1630,"joner":1631,"▁201":1632,"ise":1633,"▁*":1634,"sje":1635,"▁Norge":1636,"▁nok":1637,"),":1638,"6.":1639,"rik":1640,"jem":1641,"▁Jo":1642,"▁An":1643,"▁gi":1644,"▁ser":1645,"▁grunn":1646,"▁ven":1647,"▁samme":1648,"like":1649,"are":1650,"▁rett":1651,"gang":1652,"ment":1653,"dt":1654,"ER":1655,"▁kommer":1656,"kse":1657,"op":1658,"mid":1659,"ode":1660,"hand":1661,"▁kjen":1662,"4.":1663,"▁vik":1664,"oliti":1665,"ust":1666,"ige":1667,"▁Ar":1668,"▁hans":1669,"ult":1670,"ska":1671,"▁stør":1672,"alg":1673,"▁vel":1674,"▁ingen":1675,"▁pers":1676,"stil":1677,"▁hele":1678,"▁kommu":1679,"kken":1680,"▁ri":1681,"▁flere":1682,"▁tra":1683,"▁spe":1684,"dig":1685,"▁seiv":1686,"▁gikk":1687,"sy":1688,"▁tr":1689,"ite":1690,"▁200":1691,"mp":1692,"▁Ø":1693,"▁mil":1694,"▁all":1695,"▁disse":1696,"▁hø":1697,"▁nye":1698,"rene":1699,"les":1700,"re,":1701,"▁lig":1702,"skri":1703,"▁gang":1704,"▁\"\"\"\"":1705,"▁mø":1706,"ris":1707,"dene":1708,"▁dø":1709,"ter,":1710,"▁store":1711,"▁ans":1712,"▁Le":1713,"▁sine":1714,"▁Ne":1715,"▁ka":1716,"▁hå":1717,"▁Å":1718,"20":1719,"▁land":1720,"bake":1721,"ksjon":1722,"▁litt":1723,"▁199":1724,"▁både":1725,"des":1726,"▁selv":1727,"▁tro":1728,"sert":1729,"kkje":1730,"▁pa":1731,"ds":1732,"▁Pe":1733,"lser":1734,"▁Mar":1735,"▁ska":1736,"▁The":1737,"k.\n":1738,"ing.\n":1739,"ordan":1740,"▁siden":1741,"▁mye":1742,"▁tilbake":1743,"▁sn":1744,"lene":1745,"▁mulig":1746,"lass":1747,"tes":1748,"▁helt":1749,"▁kra":1750,"▁eg":1751,"ub":1752,"de.\n":1753,"▁mar":1754,"m.\n":1755,"min":1756,"gt":1757,"tiv":1758,"ron":1759,"EN":1760,"byg":1761,"sta":1762,"▁ikkje":1763,",\n":1764,"reg":1765,"ans":1766,"▁kro":1767,"▁vis":1768,"▁SS":1769,"slo":1770,"vil":1771,"▁godt":1772,"▁høy":1773,"▁vin":1774,"▁gam":1775,"▁mennes":1776,"ved":1777,"fter":1778,"▁mor":1779,"▁skri":1780,"rom":1781,"▁gjøre":1782,"▁På":1783,"▁kont":1784,"▁egen":1785,"ob":1786,"ide":1787,"▁frå":1788,"kes":1789,"▁Her":1790,"▁gra":1791,"stad":1792,"▁rund":1793,"ten.\n":1794,"▁len":1795,"d,":1796,"lte":1797,"han":1798,"ali":1799,"▁blitt":1800,"oner":1801,"▁spør":1802,"▁forb":1803,"▁ad":1804,"lin":1805,"▁plan":1806,"dal":1807,"▁1.":1808,"▁ei":1809,"tt.\n":1810,"▁gan":1811,"den.\n":1812,"▁far":1813,"▁Te":1814,"stre":1815,"l.\n":1816,"▁bil":1817,"nn":1818,"ndig":1819,"▁Du":1820,"▁annet":1821,"▁15":1822,"ses":1823,"ho":1824,"▁måtte":1825,"sb":1826,"gra":1827,"mpe":1828,"10":1829,"rig":1830,"▁henne":1831,"▁viktig":1832,"stå":1833,"ruppe":1834,"mar":1835,"8.":1836,"7.":1837,"van":1838,"▁fly":1839,"tak":1840,"▁ele":1841,"▁enke":1842,"▁vår":1843,"oren":1844,"anse":1845,"te.\n":1846,"▁dri":1847,"▁bor":1848,"sen,":1849,"neste":1850,"▁vå":1851,"▁sto":1852,"▁lå":1853,"▁utvik":1854,"▁tok":1855,"▁Je":1856,"▁gje":1857,"dra":1858,"▁16":1859,"▁bo":1860,"▁f.":1861,"gende":1862,"▁Så":1863,"▁gjel":1864,"▁øns":1865,"kter":1866,"▁is":1867,"▁hjel":1868,"▁ord":1869,"olog":1870,"rede":1871,"heter":1872,"▁Ber":1873,"satt":1874,"▁00":1875,"ard":1876,"▁kvin":1877,"▁siste":1878,"▁mens":1879,"▁leg":1880,"▁sv":1881,"▁sitt":1882,"sen.\n":1883,"gå":1884,"▁inte":1885,"▁12":1886,"....":1887,"▁lan":1888,"▁y":1889,"ip":1890,"kst":1891,"lut":1892,"▁sta":1893,"▁fun":1894,"ile":1895,"▁hel":1896,"orde":1897,"▁by":1898,"▁hal":1899,"▁pre":1900,"▁begyn":1901,"att":1902,"▁mid":1903,">>.\n":1904,"inn":1905,"▁pri":1906,"lant":1907,"▁gjør":1908,"ksom":1909,"▁rundt":1910,"▁sna":1911,"▁nat":1912,"amil":1913,"pro":1914,"▁det.\n":1915,"▁>>.\n":1916,"ras":1917,"▁pas":1918,"ldig":1919,"▁hus":1920,"ni":1921,"ligere":1922,"▁komme":1923,"med":1924,"▁liv":1925,"itu":1926,"▁11":1927,"mo":1928,"▁198":1929,"form":1930,"▁Til":1931,"i,":1932,"▁kor":1933,"ing,":1934,"delig":1935,"▁Ha":1936,"5\n":1937,"use":1938,"istor":1939,"rev":1940,"▁Man":1941,"50":1942,"▁Oslo":1943,"gen.\n":1944,"ble":1945,"▁ru":1946,"▁tren":1947,"ende":1948,"fun":1949,"▁forsk":1950,"val":1951,"▁2.":1952,"k,":1953,"▁lu":1954,"▁eks":1955,"ts":1956,"▁hand":1957,"▁politi":1958,"▁hvordan":1959,"rett":1960,"irke":1961,"▁Ch":1962,"ktet":1963,"-1":1964,"▁Når":1965,"▁bør":1966,"ærlig":1967,"ian":1968,"▁th":1969,"dri":1970,"der.\n":1971,"de,":1972,"▁end":1973,"▁forhold":1974,"▁inne":1975,"det.\n":1976,"▁res":1977,"tens":1978,"pt":1979,"▁lo":1980,"no":1981,"▁hos":1982,"▁produ":1983,"▁ga":1984,"▁gir":1985,"tive":1986,"fer":1987,".00\n":1988,"▁annen":1989,"▁bak":1990,"ges":1991,"▁eit":1992,"▁sel":1993,"kl":1994,"▁større":1995,"▁full":1996,"idet":1997,"g.\n":1998,"▁forte":1999,"▁fått":2000,"9.":2001,"if":2002,"sf":2003,"▁Hv":2004,"▁hol":2005,"▁fri":2006,"iser":2007,"st.\n":2008,"ingene":2009,"▁skje":2010,"▁utt":2011,"▁Der":2012,"kene":2013,"pre":2014,"▁Etter":2015,"ning.\n":2016,"te,":2017,"skapet":2018,"kelig":2019,"▁.":2020,"▁ald":2021,"ome":2022,"▁ko":2023,"▁svar":2024,"▁dy":2025,"olen":2026,"▁ster":2027,"▁sig":2028,"▁Sp":2029,"▁stra":2030,"▁vet":2031,"gel":2032,"\"\"\"\n":2033,"▁su":2034,"▁fordi":2035,"▁kal":2036,"▁sett":2037,"▁hennes":2038,"osi":2039,"tal":2040,"dan":2041,"▁job":2042,"▁kri":2043,"▁14":2044,"▁197":2045,"▁inter":2046,"?.\n":2047,"▁lov":2048,"▁(1":2049,"▁fast":2050,"mun":2051,"~~":2052,"gre":2053,"▁hvis":2054,"▁sj":2055,"fat":2056,"▁står":2057,"▁13":2058,"her":2059,"bu":2060,"▁tar":2061,"asjonen":2062,"son":2063,",>>":2064,"▁Kon":2065,"ck":2066,"▁Sam":2067,"▁derfor":2068,"▁sti":2069,"mentet":2070,"mt":2071,"nere":2072,"rens":2073,"▁di":2074,"▁gjelder":2075,"▁stø":2076,"▁my":2077,"▁bety":2078,"▁bi":2079,"▁viser":2080,"ten,":2081,"▁Nord":2082,"▁aldri":2083,"konom":2084,"bo":2085,"far":2086,"▁kla":2087,"▁Hva":2088,"▁fo":2089,"ys":2090,"org":2091,"▁Ma":2092,"vende":2093,"dens":2094,"▁Ut":2095,"▁person":2096,"▁videre":2097,"delse":2098,"▁spørsm":2099,"arbeid":2100,"▁områ":2101,"▁Ho":2102,"hus":2103,"▁ofte":2104,"▁bl":2105,"▁stat":2106,"til":2107,"bet":2108,"▁mest":2109,"▁.\n":2110,"▁fer":2111,"ct":2112,"ja":2113,"▁bort":2114,"▁hold":2115,"▁dra":2116,"ren.\n":2117,"stand":2118,"midler":2119,"▁blant":2120,"▁nød":2121,"tale":2122,"▁Med":2123,"raf":2124,"▁mindre":2125,"▁organ":2126,"▁innen":2127,"iner":2128,"▁form":2129,"▁tan":2130,"▁el":2131,"kning":2132,"▁so":2133,"jerne":2134,"iller":2135,"▁Har":2136,"▁lok":2137,"parte":2138,"i.\n":2139,"▁san":2140,"unkt":2141,"▁kanskje":2142,"▁ekse":2143,"sie":2144,"▁af":2145,"ktig":2146,"▁/":2147,"▁gjorde":2148,"▁kap":2149,"mber":2150,"▁gjort":2151,"▁Sta":2152,"jor":2153,">>,":2154,"ar.\n":2155,"▁Er":2156,"laget":2157,"▁Et":2158,"ærer":2159,"by":2160,"▁sikker":2161,"▁Gud":2162,"den,":2163,"▁norske":2164,"▁tatt":2165,"▁slu":2166,"▁(19":2167,"▁(r)\n":2168,"▁prø":2169,"kjen":2170,"▁sent":2171,"IN":2172,"amp":2173,"berg":2174,"▁små":2175,"▁Nå":2176,"OR":2177,"▁rå":2178,"▁mener":2179,"sty":2180,"▁gre":2181,"0.":2182,"ider":2183,"▁gamle":2184,"▁3.":2185,"kn":2186,"▁sjø":2187,"▁Som":2188,"▁sli":2189,"▁s.":2190,"▁va":2191,"▁Ge":2192,"▁langt":2193,"▁skole":2194,"oen":2195,"a.":2196,"▁sik":2197,"sette":2198,"▁..":2199,"▁satt":2200,"▁dat":2201,"▁syn":2202,"AN":2203,"▁sty":2204,"søke":2205,"▁nett":2206,"teg":2207,"▁Om":2208,"▁kre":2209,"ral":2210,"▁rom":2211,"rige":2212,"sto":2213,"▁nr.":2214,"▁føl":2215,"▁pra":2216,"pte":2217,"stan":2218,"dning":2219,"vent":2220,"▁folk":2221,"iden":2222,"▁famil":2223,"vir":2224,"nder":2225,"nesten":2226,"▁Krist":2227,"mmer":2228,"tre":2229,"▁vanske":2230,"▁La":2231,"tidig":2232,"isjon":2233,"tert":2234,"▁bu":2235,"llen":2236,"▁Ved":2237,"▁Y":2238,"fa":2239,"▁fyl":2240,"▁ulike":2241,"stet":2242,"gen,":2243,"▁Al":2244,"▁bedre":2245,"ktiv":2246,"▁kroner":2247,"▁arbeids":2248,"bar":2249,"vens":2250,"ger.\n":2251,"gens":2252,"▁196":2253,"▁først":2254,"ation":2255,"lles":2256,"▁pres":2257,"lingen":2258,"heng":2259,"▁alltid":2260,"jemme":2261,"der,":2262,"▁bra":2263,"rykk":2264,"tatt":2265,"ike":2266,"▁det,":2267,"▁deres":2268,"▁barn":2269,"▁ret":2270,"▁ligger":2271,"stru":2272,"▁Th":2273,"▁øy":2274,"▁ber":2275,"▁natur":2276,"nskap":2277,"ande":2278,"▁nytt":2279,"▁vur":2280,"bli":2281,"▁tillegg":2282,"▁kommune":2283,"ule":2284,"▁sky":2285,"we":2286,"▁heller":2287,"▁nord":2288,"fte":2289,"▁hoved":2290,"sse":2291,"▁sva":2292,"▁hvil":2293,"▁behand":2294,"▁Ro":2295,"hen":2296,"▁åp":2297,"▁tje":2298,"tende":2299,"▁tilfe":2300,"▁con":2301,"▁ung":2302,"het.\n":2303,"går":2304,"▁gode":2305,"jone":2306,"uro":2307,"▁finne":2308,"mpel":2309,"▁histor":2310,"nsyn":2311,"▁stort":2312,"ion":2313,"▁,":2314,"▁tror":2315,"ors":2316,"▁klar":2317,"fol":2318,"ith":2319,"pa":2320,"ringer":2321,"ass":2322,"▁side":2323,"▁kva":2324,"▁op":2325,"ind":2326,"lie":2327,"▁Pro":2328,"0-":2329,"▁bruk":2330,"ina":2331,"▁kar":2332,"nte":2333,"▁konk":2334,"ilt":2335,"▁on":2336,"▁tru":2337,"▁hvert":2338,"▁Ste":2339,"▁økonom":2340,"▁Reg":2341,"ldre":2342,"onen":2343,"stem":2344,"▁'":2345,"sik":2346,"▁Kom":2347,"▁hatt":2348,"ty":2349,"midlertid":2350,"vde":2351,"partementet":2352,"▁bruke":2353,"s\n":2354,"ultur":2355,"len.\n":2356,"▁gene":2357,"▁nav":2358,"▁hør":2359,"følge":2360,"com":2361,"▁skjø":2362,"lig.\n":2363,"▁tidligere":2364,"AR":2365,"sn":2366,"▁21":2367,"føre":2368,"vene":2369,"to":2370,"kla":2371,"▁mus":2372,"olit":2373,"ST":2374,"▁milli":2375,"▁dre":2376,"▁mis":2377,"mot":2378,"asjoner":2379,"ote":2380,"▁norsk":2381,"▁Hvis":2382,"utt":2383,"▁000":2384,"▁valg":2385,"▁Denne":2386,"▁Johan":2387,"▁spesie":2388,"▁nødve":2389,"▁din":2390,"pper":2391,":.\n":2392,"agt":2393,"▁styr":2394,"▁per":2395,"▁hjem":2396,"ony":2397,"▁Av":2398,"▁ute":2399,"▁seg.\n":2400,"▁avg":2401,"▁vart":2402,"ls":2403,"▁barne":2404,"bil":2405,"▁pen":2406,"sene":2407,"▁stu":2408,"▁mat":2409,"▁Norsk":2410,"uren":2411,"alte":2412,"▁nærme":2413,"▁stå":2414,"▁samfun":2415,"▁han.\n":2416,"▁svært":2417,"ikke":2418,"ar,":2419,"▁fre":2420,"▁(2":2421,"▁nev":2422,"tet.\n":2423,"▁bø":2424,"▁fakt":2425,"ben":2426,"alle":2427,"▁Fe":2428,"ain":2429,"▁best":2430,"uset":2431,"▁jord":2432,"ko":2433,"det,":2434,"unn":2435,"lse.\n":2436,"▁opple":2437,"▁fag":2438,"▁And":2439,"tere":2440,"▁offe":2441,"▁dere":2442,"▁imidlertid":2443,"ger,":2444,"tige":2445,"sh":2446,"40":2447,"v.\n":2448,"ften":2449,"▁hjemme":2450,"ker.\n":2451,"rid":2452,"ført":2453,"sky":2454,"▁4.":2455,"▁dire":2456,"▁lite":2457,"▁Kar":2458,"ure":2459,"▁fan":2460,"ET":2461,"▁Hvor":2462,"▁gruppe":2463,"stilling":2464,"▁lag":2465,"up":2466,"▁år.\n":2467,"▁lenge":2468,"røm":2469,"l,":2470,"▁hy":2471,"▁inns":2472,"▁halv":2473,"styr":2474,"kt.\n":2475,"▁as":2476,"▁interes":2477,"▁kj":2478,"mann":2479,"▁bok":2480,"ktivi":2481,"▁mann":2482,"grun":2483,"sfor":2484,"▁eksempel":2485,"▁øye":2486,"▁Ja":2487,"ppen":2488,"one":2489,"▁fem":2490,"spro":2491,"vert":2492,"oku":2493,"▁nesten":2494,"15":2495,"mess":2496,"▁Fra":2497,"tta":2498,"ves":2499,"rit":2500,"lad":2501,"▁Sve":2502,"▁ham.\n":2503,"▁ju":2504,"heim":2505,"▁ge":2506,"▁dan":2507,"▁gitt":2508,"▁beh":2509,"▁[":2510,"-2":2511,"▁22":2512,"▁liten":2513,"▁Tor":2514,"▁fire":2515,"et.\n":2516,"▁fot":2517,"s-":2518,"ae":2519,"ler.\n":2520,"inge":2521,"late":2522,"▁syke":2523,"rand":2524,"▁star":2525,"▁are":2526,"▁holdt":2527,"ktor":2528,"r,":2529,"▁høye":2530,"▁forsø":2531,"▁særlig":2532,"sle":2533,"▁bye":2534,"jell":2535,"▁Kan":2536,"▁kjem":2537,"net.\n":2538,"▁grad":2539,"▁Bar":2540,"▁lære":2541,"▁veg":2542,"che":2543,"▁spur":2544,"▁veldig":2545,".com":2546,"▁meget":2547,"vem":2548,"gte":2549,"ori":2550,"▁Ta":2551,"▁ting":2552,"▁Sø":2553,"dige":2554,"slag":2555,"▁po":2556,"▁ønsker":2557,"▁ett":2558,"ild":2559,"▁194":2560,"ong":2561,"ond":2562,"p.\n":2563,"▁enkelte":2564,"ister":2565,"vid":2566,"▁likevel":2567,"▁mål":2568,"st,":2569,"ou":2570,"▁bry":2571,"kere":2572,"▁Alle":2573,"▁plass":2574,"▁sol":2575,"▁offent":2576,"▁Ny":2577,"▁forskjel":2578,"▁helse":2579,"▁prosje":2580,"▁situ":2581,"▁fil":2582,"EL":2583,"▁anony":2584,"▁bid":2585,"▁dom":2586,"▁Ra":2587,"kle":2588,"▁spørsmål":2589,"ars":2590,"ald":2591,"sere":2592,"▁forstå":2593,"ålet":2594,"▁vanskelig":2595,"jord":2596,"▁Opp":2597,"ning,":2598,"▁opply":2599,"▁finnes":2600,"mel":2601,"▁måte":2602,"▁slike":2603,"mene":2604,"under":2605,"▁30":2606,"▁To":2607,"SA":2608,"▁stil":2609,"itte":2610,"▁utvikling":2611,"▁prosent":2612,"fra":2613,"ighet":2614,"▁lett":2615,"bud":2616,"▁allerede":2617,"stri":2618,"▁Mo":2619,"▁sør":2620,"spe":2621,"▁Før":2622,"vol":2623,"5,":2624,"ndom":2625,"ren,":2626,"▁slag":2627,"tall":2628,"▁5.":2629,"på":2630,"ford":2631,"ivå":2632,"ygge":2633,"▁følge":2634,"▁tils":2635,"▁rø":2636,"▁Mor":2637,"▁kommun":2638,"▁rekke":2639,"ker,":2640,"ich":2641,"▁195":2642,"▁kr":2643,"3,":2644,"▁arbeidet":2645,"▁sle":2646,"▁repre":2647,".30":2648,"kan":2649,"▁begynte":2650,"ju":2651,"kje":2652,"mous":2653,"▁tur":2654,"lagt":2655,"ing\n":2656,"▁100":2657,"▁stand":2658,"tie":2659,"▁nødvendig":2660,"asse":2661,"uten":2662,"▁fiske":2663,"▁<\n":2664,"▁holde":2665,"▁kontro":2666,"▁fleste":2667,"▁ja":2668,"▁gle":2669,"▁foran":2670,"▁ter":2671,"dende":2672,"tt,":2673,"▁medlem":2674,".,":2675,"iale":2676,"▁bedri":2677,"▁anonymous":2678,"▁skjer":2679,"domain":2680,"▁Ola":2681,"domain.com":2682,"@domain.com":2683,"▁anonymous@domain.com":2684,"▁peri":2685,"▁Pa":2686,"▁effe":2687,"▁fy":2688,"▁virkelig":2689,"kna":2690,"veld":2691,"bygg":2692,"........":2693,"▁altså":2694,"▁eie":2695,"▁that":2696,"ity":2697,"▁Fa":2698,"formasjon":2699,"▁Ikke":2700,"▁neste":2701,"sti":2702,"▁with":2703,"▁hende":2704,"inga":2705,"▁hverand":2706,"ler,":2707,"asje":2708,"4,":2709,"▁Eg":2710,"▁senere":2711,"▁gjerne":2712,"▁måne":2713,"uni":2714,"▁synes":2715,"rasjon":2716,"ril":2717,"▁begge":2718,"ulle":2719,"▁eneste":2720,"velse":2721,"ppet":2722,"▁We":2723,"▁på.\n":2724,"▁Or":2725,"▁igjen.\n":2726,"lende":2727,"▁kommet":2728,"▁kort":2729,"2,":2730,"vat":2731,"▁visste":2732,"ret.\n":2733,"▁ex":2734,"▁tran":2735,"▁ledd":2736,"ser.\n":2737,"1,":2738,"▁samt":2739,"hetene":2740,"▁paa":2741,"ftet":2742,"lig,":2743,"syk":2744,"ction":2745,"▁kny":2746,"mmet":2747,"▁organis":2748,"▁gar":2749,"▁forbin":2750,"▁verden":2751,"tro":2752,"lf":2753,".000":2754,"ple":2755,"gruppe":2756,"ders":2757,"▁ene":2758,"▁Sa":2759,"nen.\n":2760,"IL":2761,"▁klo":2762,"▁sit":2763,"▁menneske":2764,"▁død":2765,"6,":2766,"sam":2767,"▁kl.":2768,"▁vann":2769,"▁Ba":2770,"▁&":2771,"▁redu":2772,"drag":2773,"▁meg.\n":2774,"▁stille":2775,"03":2776,"▁Sy":2777,"▁stad":2778,"▁ban":2779,"ps":2780,"of":2781,"▁Arbe":2782,"▁bur":2783,"▁lagt":2784,"▁ungdom":2785,"aly":2786,"▁23":2787,"▁ansvar":2788,"7,":2789,"kk.\n":2790,"▁50":2791,"o.\n":2792,"▁hånd":2793,"▁familie":2794,"8,":2795,"▁akt":2796,"▁mine":2797,"▁sje":2798,"▁fortsatt":2799,"▁m.":2800,"▁leve":2801,"▁våre":2802,"ulta":2803,"▁dår":2804,"▁21.":2805,"▁Ka":2806,"▁bestemme":2807,"▁kultur":2808,"▁avs":2809,"▁ob":2810,"▁plas":2811,"▁polit":2812,"▁miljø":2813,"ge,":2814,"tlig":2815,"▁24":2816,"▁til.\n":2817,"usjon":2818,"▁bek":2819,"het,":2820,"▁bruker":2821,"sett":2822,"▁inst":2823,"▁pla":2824,"ann":2825,"▁tiden":2826,"lub":2827,"▁proble":2828,"▁fant":2829,"takt":2830,"▁At":2831,"▁é":2832,"områ":2833,"fin":2834,"len,":2835,"kten":2836,"nne":2837,"▁sette":2838,"▁imp":2839,"ner.\n":2840,"ostna":2841,"9,":2842,"▁ry":2843,"▁utenfor":2844,"▁ca.":2845,"▁hjelpe":2846,"hø":2847,"▁tu":2848,"▁kirke":2849,"▁løs":2850,"dø":2851,"tet,":2852,"▁Hol":2853,"▁25":2854,"gelse":2855,"▁vid":2856,"▁gått":2857,"fører":2858,"▁Joh":2859,"▁na":2860,"▁spurte":2861,"▁slå":2862,"▁Dan":2863,"▁henne.\n":2864,"serte":2865,"▁Hans":2866,"▁forut":2867,"still":2868,"qu":2869,"▁Fot":2870,"▁marke":2871,"▁we":2872,"dis":2873,"mb":2874,"▁Andre":2875,"mende":2876,"lef":2877,"▁Bjør":2878,"▁virksom":2879,"▁enda":2880,"kku":2881,"ted":2882,"▁fall":2883,"serie":2884,"co":2885,"▁hjelp":2886,"▁Bo":2887,"▁felles":2888,"▁leng":2889,"m,":2890,"▁hjer":2891,"▁indi":2892,"▁finner":2893,"▁forskjellige":2894,"▁Par":2895,"▁mør":2896,"▁ansik":2897,"25":2898,"▁tun":2899,"revet":2900,"▁føle":2901,"send":2902,"▁året":2903,"nelse":2904,"▁vok":2905,"ball":2906,"ilte":2907,"▁forteller":2908,"45":2909,"▁teg":2910,"▁dersom":2911,"▁minst":2912,"▁føre":2913,"▁livet":2914,"AL":2915,"▁krav":2916,"▁møte":2917,"su":2918,"▁samtidig":2919,"ater":2920,"mer.\n":2921,"tivt":2922,"get.\n":2923,"▁ris":2924,"deling":2925,"▁sen":2926,"▁dis":2927,"▁Sol":2928,"▁~":2929,"▁enkelt":2930,"▁vanlig":2931,"▁største":2932,"valg":2933,"▁Hal":2934,"▁sko":2935,"▁mennesker":2936,"▁svarte":2937,"▁konkur":2938,"ON":2939,"ci":2940,"▁klart":2941,"▁mitt":2942,"▁Ver":2943,"▁behov":2944,"blem":2945,"nns":2946,"ress":2947,"▁15.":2948,"▁doku":2949,"▁Under":2950,"▁nem":2951,"▁landet":2952,"IS":2953,"'s":2954,"ats":2955,"▁vurder":2956,"ndt":2957,"inget":2958,"▁ganske":2959,"▁event":2960,"▁reise":2961,"tra":2962,"ed":2963,"▁kje":2964,"sek":2965,"skom":2966,"ke.\n":2967,"meld":2968,"væ":2969,"lere":2970,"verk":2971,"▁regi":2972,"kt,":2973,"vne":2974,"ca":2975,"▁Fran":2976,"▁193":2977,"råd":2978,"terte":2979,"▁dem.\n":2980,"▁att":2981,"▁tenkte":2982,"▁kvar":2983,"terna":2984,"vå":2985,"uelle":2986,"▁bes":2987,"ett":2988,"ge.\n":2989,"▁informasjon":2990,"ksjonen":2991,"▁gjø":2992,"▁Hen":2993,"lje":2994,"ryg":2995,"tiet":2996,"rent":2997,"▁utdan":2998,"bi":2999,"lar":3000,"se.\n":3001,"▁23.":3002,"nende":3003,"▁12.":3004,"ay":3005,"klar":3006,"rer.\n":3007,"▁vei":3008,"▁Dag":3009,"▁jen":3010,"ingen.\n":3011,"▁kjent":3012,"▁øv":3013,"▁6.":3014,"55":3015,"▁folke":3016,"▁kvali":3017,".no":3018,"▁rette":3019,"▁sted":3020,"retter":3021,"▁\"":3022,"▁seks":3023,"ken.\n":3024,"løp":3025,"▁%":3026,"lane":3027,"▁forbindelse":3028,"▁forn":3029,"▁lever":3030,"th":3031,"▁11.":3032,"skole":3033,"▁då":3034,"æring":3035,"o,":3036,"▁mater":3037,"▁ap":3038,"▁samarbeid":3039,"▁kam":3040,"▁mang":3041,"kkurat":3042,"▁22.":3043,"holdet":3044,"men.\n":3045,"rette":3046,"▁bud":3047,"agn":3048,"vet.\n":3049,"uler":3050,"▁delta":3051,"gere":3052,"▁16.":3053,"▁gren":3054,"▁14.":3055,"▁fores":3056,"▁lik":3057,"▁brukt":3058,"▁løpet":3059,"▁tilfelle":3060,"▁Bru":3061,"▁kn":3062,"satte":3063,"▁Z":3064,"skape":3065,"▁alv":3066,"▁kunst":3067,"pos":3068,"står":3069,"▁ganger":3070,"▁Fol":3071,"fall":3072,"gram":3073,"▁legge":3074,"▁disk":3075,"urs":3076,"▁innte":3077,"ING":3078,"▁seg,":3079,"▁tom":3080,"▁støtte":3081,"n\n":3082,"▁Kn":3083,"▁unge":3084,"▁Stort":3085,"--":3086,"▁tør":3087,"ner,":3088,"skaper":3089,"▁trenger":3090,"▁com":3091,"▁ferdig":3092,"iver":3093,"▁dist":3094,"▁slutt":3095,"minist":3096,"g,":3097,"▁lenger":3098,"▁time":3099,"▁slo":3100,"▁Norges":3101,"tikk":3102,"ser,":3103,"▁fred":3104,"▁nasjon":3105,"uer":3106,"▁sær":3107,"▁råd":3108,"bel":3109,"bø":3110,"▁leder":3111,"▁pris":3112,"fri":3113,"▁(S":3114,"▁10.":3115,"ndte":3116,"▁bidra":3117,"bane":3118,"▁17.":3119,"kkel":3120,"▁år,":3121,"rn":3122,"råk":3123,"nasjon":3124,"▁omk":3125,"deles":3126,"▁egne":3127,"ban":3128,"▁alvor":3129,"▁tred":3130,"▁kveld":3131,"gs":3132,"▁Sør":3133,"▁fjer":3134,"▁13.":3135,"▁direkte":3136,"▁én":3137,"▁40":3138,"▁tekn":3139,"▁feil":3140,"tic":3141,"itet":3142,"▁sosi":3143,"ke,":3144,"nsjon":3145,"▁bran":3146,"ret,":3147,"ig.\n":3148,"terer":3149,"vere":3150,"▁undersøke":3151,"rert":3152,"uss":3153,"▁unn":3154,"on,":3155,"▁betyr":3156,"igur":3157,"mø":3158,"sbe":3159,"▁Co":3160,"ror":3161,"):\n":3162,"▁etab":3163,"▁sagt":3164,"▁snakke":3165,"▁do":3166,"▁ut.\n":3167,"▁personer":3168,"▁kvinne":3169,"ppor":3170,"▁regjer":3171,"ktene":3172,"kar":3173,"ting":3174,"arbeidet":3175,"▁dyr":3176,"▁Stor":3177,"ies":3178,"kka":3179,"kningen":3180,"▁millioner":3181,"▁spesielt":3182,"stat":3183,"▁=":3184,"▁kjente":3185,"▁1,":3186,"▁sla":3187,"kjø":3188,"▁mel":3189,"ze":3190,"▁ekst":3191,"stein":3192,"ym":3193,"▁bygge":3194,"kerne":3195,"ham":3196,"▁verd":3197,"▁Tron":3198,"ffer":3199,"iljø":3200,"AG":3201,"▁spille":3202,"▁erfar":3203,"▁sub":3204,"▁Fred":3205,"holde":3206,"▁18.":3207,"▁ab":3208,"▁ikke.\n":3209,"liv":3210,"▁Min":3211,"▁ekte":3212,"▁med.\n":3213,"▁grø":3214,"fi":3215,"nytte":3216,"▁USA":3217,"▁syk":3218,"sens":3219,"▁vise":3220,"▁problem":3221,":00":3222,"lighet":3223,"mat":3224,"▁indu":3225,"lege":3226,"y.\n":3227,"▁juni":3228,"ket.\n":3229,"ilde":3230,"▁...":3231,"▁stadig":3232,"rer,":3233,"land,":3234,"ht":3235,"▁Car":3236,"ata":3237,"gående":3238,"ræ":3239,"▁ren":3240,"AT":3241,"▁Christ":3242,"vare":3243,"ons":3244,"▁kli":3245,"f.":3246,"▁ski":3247,"tallet":3248,"sed":3249,"ktør":3250,"▁Fin":3251,"18":3252,"y,":3253,"▁lin":3254,"▁beve":3255,"valget":3256,"▁7.":3257,"▁stud":3258,"ita":3259,"▁ce":3260,"▁Euro":3261,"anske":3262,"sende":3263,"itee":3264,"▁Noen":3265,"▁tenke":3266,"utter":3267,"net,":3268,"▁skj":3269,"▁posi":3270,"merik":3271,"▁tal":3272,"mor":3273,"▁dermed":3274,"▁riktig":3275,"▁forsik":3276,"▁fru":3277,"▁eget":3278,"ES":3279,"▁hun.\n":3280,"▁hav":3281,"▁kontakt":3282,"land.\n":3283,"et,":3284,"▁Lø":3285,"rar":3286,"udd":3287,"▁aktivi":3288,"▁klas":3289,"▁omfat":3290,"▁Ad":3291,"▁tol":3292,"▁overfor":3293,"vær":3294,"▁innenfor":3295,"løs":3296,"▁Ingen":3297,"ledes":3298,"▁forslag":3299,"▁Lu":3300,"gjør":3301,"nr":3302,"▁ope":3303,"▁fla":3304,"ningene":3305,"▁Hå":3306,"▁Per":3307,"må":3308,"▁dager":3309,"▁Disse":3310,"stendig":3311,"▁dro":3312,"nå":3313,"▁tredje":3314,"▁meg,":3315,"messig":3316,"oks":3317,"▁spen":3318,"▁fry":3319,"▁Dei":3320,"vd":3321,"▁laget":3322,"▁burde":3323,"▁seier":3324,"▁Am.\n":3325,"sering":3326,"▁■":3327,"▁prin":3328,"▁brø":3329,"sko":3330,"▁forbe":3331,"0,":3332,"▁akkurat":3333,"-p":3334,"stø":3335,"▁wh":3336,"▁skolen":3337,"▁mannen":3338,"▁jan":3339,"rere":3340,"sport":3341,"▁nu":3342,"ED":3343,"▁Nil":3344,"▁fjor":3345,"▁stedet":3346,"▁dagen":3347,"varet":3348,"grunn":3349,"▁Inn":3350,"lg":3351,"gangsp":3352,"eks":3353,"gave":3354,"▁skriver":3355,"ndag":3356,"▁192":3357,"▁val":3358,"▁vare":3359,"▁regist":3360,"▁Ein":3361,"se,":3362,"▁tryg":3363,"▁eng":3364,"▁Ja,":3365,"stisk":3366,"▁snart":3367,"▁stre":3368,"▁meld":3369,"ssuten":3370,"▁kraft":3371,"▁øyebli":3372,"bok":3373,"▁brukes":3374,"▁ener":3375,"▁kvinner":3376,"on.\n":3377,"\"\"\"\".\n":3378,"▁efter":3379,"produ":3380,"▁gro":3381,"▁nærmere":3382,"ograf":3383,"ksis":3384,"mark":3385,"sj":3386,"▁Ole":3387,"▁have":3388,"▁tjeneste":3389,"▁Trond":3390,"ark":3391,"▁stod":3392,"▁Sand":3393,"stra":3394,"RK":3395,"▁mun":3396,"▁co":3397,"tok":3398,"kk,":3399,"skon":3400,"▁Over":3401,"kto":3402,"▁deler":3403,"llet":3404,"hy":3405,"▁legger":3406,"▁skrive":3407,"▁tø":3408,"▁følgende":3409,"▁Mange":3410,"▁...\n":3411,"likt":3412,"▁rolle":3413,"▁Vest":3414,"▁ham,":3415,"▁19.":3416,"▁Ty":3417,"▁pub":3418,"fly":3419,"▁drift":3420,"selig":3421,"ital":3422,"▁blå":3423,"handling":3424,"▁Jon":3425,"▁hvem":3426,"▁viste":3427,"▁Var":3428,"fy":3429,"▁tv":3430,"iene":3431,"organ":3432,"▁rela":3433,"po":3434,"▁skul":3435,"▁grå":3436,"▁flo":3437,"▁Ind":3438,"nem":3439,"full":3440,"OT":3441,"▁slags":3442,"rum":3443,"stene":3444,"holder":3445,"mer,":3446,"▁Li":3447,"fal":3448,"gelig":3449,"uelt":3450,"rien":3451,"▁kry":3452,"▁Mart":3453,"▁internasjon":3454,"kor":3455,"føring":3456,"▁Ke":3457,"ikt":3458,"lom":3459,"▁tap":3460,"bruk":3461,"▁Hø":3462,"▁eiendom":3463,"▁nærings":3464,"▁psyk":3465,"▁John":3466,".)\n":3467,"uar":3468,"▁barna":3469,"▁from":3470,"▁tiltak":3471,"ksjoner":3472,"▁ful":3473,"mis":3474,"05":3475,"11":3476,"▁lette":3477,"iet":3478,"jonene":3479,"▁rea":3480,"▁Is":3481,"o:":3482,"▁New":3483,"▁fylke":3484,"gift":3485,"~~~~":3486,"ugust":3487,"-19":3488,"derne":3489,"fatte":3490,"inen":3491,"lede":3492,"a\n":3493,"▁20.":3494,"gar":3495,"▁behandling":3496,"sted":3497,"menn":3498,"▁vårt":3499,"ene":3500,"▁hensyn":3501,"▁dag.\n":3502,"mes":3503,"▁omkring":3504,"▁funnet":3505,"▁Alt":3506,"mens":3507,"rsom":3508,"▁ide":3509,"▁kontroll":3510,"▁betydning":3511,"▁Hvordan":3512,"departementet":3513,"inger.\n":3514,"unktet":3515,"▁på,":3516,"ninger.\n":3517,"▁hån":3518,"▁fal":3519,"▁slut":3520,"my":3521,"▁Sch":3522,"▁hørte":3523,"▁sentra":3524,"hal":3525,"nelsen":3526,"setning":3527,"▁Lo":3528,"▁elekt":3529,"▁Dersom":3530,"el":3531,"▁menn":3532,"▁historie":3533,"35":3534,"▁tri":3535,"▁oppda":3536,"hå":3537,"▁virke":3538,"mte":3539,"▁Jan":3540,"▁knyttet":3541,"▁skatte":3542,"▁myndig":3543,"vok":3544,"30\n":3545,"▁kjøpe":3546,"ate":3547,"ktive":3548,"▁Si":3549,"setter":3550,"▁prøve":3551,"rav":3552,"▁8.":3553,"▁sal":3554,"sker":3555,"▁ansatte":3556,"fred":3557,"▁mai":3558,"▁lokal":3559,"▁Erik":3560,"▁lille":3561,"▁saken":3562,"▁Ham":3563,"OL":3564,"▁lokale":3565,"tering":3566,"▁hev":3567,"loven":3568,"▁06":3569,"▁lær":3570,"▁vite":3571,"▁pr.":3572,"oden":3573,"??":3574,"12":3575,"▁utgangsp":3576,"▁merke":3577,"▁resulta":3578,"▁væ":3579,"▁musikk":3580,"▁<<S":3581,"▁drø":3582,"▁kjenner":3583,"▁tå":3584,".\"\"\"\n":3585,"gu":3586,"ara":3587,"mod":3588,"king":3589,"▁langs":3590,"ram":3591,"▁kommunen":3592,"▁hi":3593,"▁faktisk":3594,"ppa":3595,"let.\n":3596,"gje":3597,"▁El":3598,"atter":3599,"kkelig":3600,"▁27":3601,"▁rask":3602,"risten":3603,"snitt":3604,"▁antall":3605,"▁26":3606,"▁<<H":3607,"▁naturlig":3608,"▁besø":3609,"▁skog":3610,"pas":3611,"▁verdi":3612,"▁imot":3613,"▁kil":3614,"▁kr.":3615,"valt":3616,"lsene":3617,"▁Ju":3618,"▁vekt":3619,"SS":3620,"▁grunnlag":3621,"▁nø":3622,"leder":3623,"▁Høy":3624,"▁skyld":3625,"ttene":3626,"▁sl":3627,"▁genere":3628,"▁den.\n":3629,"▁stemme":3630,"▁anonymous@domain.com\n":3631,"▁nettopp":3632,"▁arti":3633,"▁regel":3634,"ww":3635,"▁egentlig":3636,"▁fekk":3637,"▁was":3638,"▁lærer":3639,"delige":3640,"▁So":3641,"▁midt":3642,"fil":3643,"▁fremme":3644,"hets":3645,"▁opp.\n":3646,"▁analy":3647,"▁holder":3648,"bor":3649,"iali":3650,"▁kunnskap":3651,"▁ekstra":3652,"▁kraf":3653,"sig":3654,"▁Q":3655,"▁189":3656,"landet":3657,"▁viktige":3658,"▁Også":3659,"▁bevis":3660,"lse,":3661,"▁28":3662,"hengig":3663,"▁Uni":3664,"▁bestemt":3665,"▁sikkert":3666,"udde":3667,"kende":3668,"▁Finn":3669,"▁utford":3670,"▁2,":3671,"▁Land":3672,"legge":3673,"▁opplys":3674,"▁arbeider":3675,"vers":3676,"▁sma":3677,"▁hj":3678,"▁hvorfor":3679,"▁Kanskje":3680,"talen":3681,"so":3682,"▁tydelig":3683,"ffet":3684,"bå":3685,"plas":3686,"▁hvilke":3687,"ranse":3688,"▁hodet":3689,"▁reali":3690,"▁lav":3691,"▁sos":3692,"!.\n":3693,"varende":3694,"▁aks":3695,"pli":3696,"utvik":3697,"kel":3698,"føres":3699,"▁\"\"\"\n":3700,"▁not":3701,"gangen":3702,"drett":3703,"▁inve":3704,"▁Eli":3705,"▁til,":3706,"▁tak":3707,"▁deg.\n":3708,"sak":3709,"mal":3710,"stid":3711,"gj":3712,"petanse":3713,"▁pasien":3714,"▁gu":3715,"▁års":3716,"▁uttrykk":3717,"▁eldre":3718,"▁bereg":3719,"hav":3720,"foren":3721,"▁Sverige":3722,"▁Mid":3723,"▁aut":3724,"-.\n":3725,"▁sterkt":3726,"tar":3727,"risk":3728,"▁satte":3729,"▁olje":3730,"▁lot":3731,"vor":3732,"▁skape":3733,"fore":3734,"dire":3735,"s.":3736,"▁glad":3737,"ørdag":3738,"mannen":3739,"gjøre":3740,"kri":3741,"deren":3742,"▁høre":3743,"skin":3744,"▁sek":3745,"▁<<J":3746,"▁mode":3747,"▁april":3748,"menter":3749,"▁Lar":3750,"▁beskri":3751,"kken.\n":3752,"▁AS":3753,"-0":3754,"▁bro":3755,"▁skap":3756,"ratur":3757,"▁yr":3758,"▁ryg":3759,"▁administ":3760,"ummer":3761,"yen":3762,"huset":3763,"▁Derfor":3764,"▁barnet":3765,"▁veien":3766,"IK":3767,"pri":3768,"▁ennå":3769,"ningen.\n":3770,"▁same":3771,"▁omt":3772,"▁represen":3773,"svar":3774,"▁it":3775,"▁ac":3776,"▁kjør":3777,"oss":3778,"▁vore":3779,"▁lys":3780,"gitt":3781,"▁ch":3782,"TB":3783,"▁Stortinget":3784,"vn":3785,"hver":3786,"▁natt":3787,"aler":3788,"OM":3789,"▁ca":3790,"ken,":3791,"▁Pet":3792,"▁praksis":3793,"▁kostna":3794,"▁em":3795,"que":3796,"▁lese":3797,"▁betra":3798,"▁igjen,":3799,"▁bre":3800,"▁døde":3801,"somt":3802,"▁bal":3803,"▁ni":3804,"rets":3805,"▁juli":3806,"▁190":3807,"▁sve":3808,"led":3809,"▁(199":3810,"▁Ga":3811,"sket":3812,"▁krig":3813,"▁No":3814,"bell":3815,"▁snakket":3816,"▁ønsket":3817,"16":3818,"▁uttry":3819,"i:\n":3820,"plan":3821,"▁TV":3822,"ringen":3823,"▁åpen":3824,"▁verdens":3825,"lutselig":3826,"▁stilling":3827,"▁måten":3828,"▁produksjon":3829,"▁delt":3830,"▁Anne":3831,"▁i.":3832,"▁oms":3833,"▁Rom":3834,"▁vær":3835,"kkes":3836,"▁gli":3837,"▁II":3838,"▁jeg.\n":3839,"akter":3840,"▁hu":3841,"▁vide":3842,"▁fører":3843,"mon":3844,"▁noko":3845,"▁stund":3846,"▁och":3847,"▁mon":3848,"▁Rø":3849,"-3":3850,"▁system":3851,"▁årene":3852,"▁ytter":3853,"meri":3854,"17":3855,"▁jobb":3856,"▁hvilken":3857,"▁blod":3858,"▁d.":3859,"▁sak":3860,"▁mig":3861,"▁sende":3862,"▁Tid":3863,"int":3864,"▁saa":3865,"arbeide":3866,"▁høyere":3867,"▁prakt":3868,"sdag":3869,"▁arran":3870,"bruks":3871,"▁plane":3872,"▁Bergen":3873,"sending":3874,"▁ky":3875,"▁result":3876,"▁der.\n":3877,"▁X":3878,"▁vist":3879,"men,":3880,"sg":3881,"▁lege":3882,"unde":3883,"▁post":3884,"▁meir":3885,"▁her.\n":3886,"bla":3887,"sen\n":3888,"raft":3889,"um.\n":3890,"▁Tom":3891,"inne":3892,"▁vold":3893,"▁ress":3894,"▁9.":3895,"dsel":3896,"▁spiller":3897,"▁følger":3898,"▁amerik":3899,"ski":3900,"▁varme":3901,"▁hens":3902,"▁sikre":3903,"▁nemlig":3904,"▁økonomiske":3905,"nev":3906,"▁Slik":3907,"▁60":3908,"▁selskapet":3909,"▁(N":3910,"▁navn":3911,"▁lar":3912,"▁Mon":3913,"▁Øst":3914,"▁Lars":3915,"ptember":3916,"▁gru":3917,"fjord":3918,"▁part":3919,"mi":3920,"▁Bi":3921,"▁Hvorfor":3922,"ftene":3923,"ator":3924,"▁:\n":3925,"▁salg":3926,"ula":3927,"ID":3928,"▁forskje":3929,"vand":3930,"▁gjer":3931,"-A":3932,"sman":3933,"▁188":3934,"sjon":3935,"sli":3936,"▁meter":3937,"▁av.\n":3938,"fen":3939,"teres":3940,"▁Like":3941,"sav":3942,"sus":3943,"▁arbeide":3944,"-\n":3945,"port":3946,"▁dette.\n":3947,"▁berre":3948,"▁fyr":3949,"▁reiste":3950,"▁+":3951,"▁konf":3952,"▁kunde":3953,"▁skip":3954,"▁sjå":3955,"▁Knut":3956,"▁lyst":3957,"▁ditt":3958,"▁sosial":3959,"▁rød":3960,"▁Eng":3961,"▁punkt":3962,"▁tidlig":3963,"▁Norge.\n":3964,"▁fortelle":3965,"▁januar":3966,"▁29":3967,"leis":3968,"in.\n":3969,"▁Peder":3970,"mentar":3971,"▁slikt":3972,"▁lage":3973,"RE":3974,"iti":3975,"▁snø":3976,"mål":3977,"▁forand":3978,"ien.\n":3979,"▁hum":3980,"sember":3981,"▁kamp":3982,"▁gul":3983,"▁ind":3984,"inst":3985,"▁nevnt":3986,"▁alterna":3987,"lys":3988,"▁tross":3989,"▁blev":3990,"03\n":3991,"▁vere":3992,"00-":3993,"▁klare":3994,"▁fl":3995,"▁still":3996,"▁politiske":3997,"▁ellers":3998,"▁fatt":3999,"▁Eller":4000,"▁telef":4001,"-k":4002,"▁viktigste":4003,"ork":4004,"▁hverandre":4005,"▁eier":4006,"▁profe":4007,"▁represent":4008,"▁inntil":4009,"ime":4010,"undet":4011,"skolen":4012,"ssy":4013,"▁lange":4014,"▁følte":4015,"tell":4016,"▁oppfat":4017,"▁tot":4018,"▁Wil":4019,"▁Mø":4020,"-e":4021,"▁Seiv":4022,"▁Gjen":4023,"▁ST":4024,"hi":4025,"ver,":4026,"▁offentlig":4027,"merksom":4028,"atten":4029,"nda":4030,"itus":4031,"▁Ant":4032,"▁Trom":4033,"▁nivå":4034,"linger":4035,"tiden":4036,"▁hundre":4037,"▁A.":4038,"serer":4039,"vist":4040,"pene":4041,"sny":4042,"røy":4043,"▁politiet":4044,"▁Ei":4045,"▁vesent":4046,"dy":4047,"rings":4048,"...":4049,"▁dårlig":4050,"▁økt":4051,"middel":4052,"▁au":4053,"▁Olav":4054,"▁tid.\n":4055,"▁studen":4056,"ktige":4057,"▁Bå":4058,"lert":4059,"▁Foto:":4060,"ktober":4061,"d\n":4062,"▁tvil":4063,"unst":4064,"tor":4065,"▁offentlige":4066,"visning":4067,"▁kjærlig":4068,"▁ev":4069,"veien":4070,"in,":4071,"ørsm":4072,"stemme":4073,"▁kontra":4074,"▁Kristian":4075,"▁ang":4076,"▁Am":4077,"nner":4078,"▁oppe":4079,"▁venn":4080,"▁øynene":4081,"▁helst":4082,"▁sannsyn":4083,"▁Kor":4084,"mus":4085,"▁nove":4086,"▁henne,":4087,"▁Vil":4088,"▁konsek":4089,"▁strø":4090,"peri":4091,"▁Hau":4092,"▁desember":4093,"▁mente":4094,"▁født":4095,"ver.\n":4096,"▁samlet":4097,"▁gammel":4098,"▁deri":4099,"ving":4100,"ree":4101,"wo":4102,"fla":4103,"▁fremdeles":4104,"▁stri":4105,"▁engel":4106,"▁Con":4107,"▁prinsi":4108,"▁NRK":4109,"▁august":4110,"pi":4111,"▁gjeld":4112,"ikasjon":4113,"▁setter":4114,"▁bolig":4115,"▁186":4116,"aner":4117,"▁samfunns":4118,"▁sag":4119,"bart":4120,"▁iden":4121,"▁distri":4122,"smø":4123,"▁vest":4124,"how":4125,"RA":4126,"▁try":4127,"styret":4128,"urt":4129,"▁sykdom":4130,"jeneste":4131,"nen,":4132,"eks.":4133,"▁huset":4134,"▁kvel":4135,"legget":4136,"al.\n":4137,"▁this":4138,"last":4139,"tif":4140,"▁trakk":4141,"14":4142,"▁tanke":4143,"teten":4144,"ia.\n":4145,"geb":4146,"▁aller":4147,"▁Ly":4148,"kkene":4149,"else":4150,"kommende":4151,"▁187":4152,"▁sat":4153,"▁God":4154,"▁San":4155,"▁Beg":4156,"▁september":4157,"▁barneha":4158,"▁stru":4159,"▁morgen":4160,"▁funksjon":4161,"fle":4162,"...\n":4163,"ive":4164,"▁dem,":4165,"▁yn":4166,"es":4167,"▁vit":4168,"13":4169,"en.\n":4170,"f.\n":4171,"lands":4172,"IT":4173,"▁ut,":4174,"▁S.":4175,"▁Ing":4176,"▁ple":4177,"▁gis":4178,"▁sten":4179,"▁stol":4180,"uell":4181,"rene.\n":4182,"ow":4183,"vern":4184,"▁oss.\n":4185,"▁sommer":4186,"▁stem":4187,"UN":4188,"▁forklar":4189,"▁sammenheng":4190,"bin":4191,"pport":4192,"ida":4193,"fl":4194,"▁sitter":4195,"▁nå.\n":4196,"▁blo":4197,"▁fir":4198,"dio":4199,"ra.\n":4200,"▁byen":4201,"▁spesi":4202,"sson":4203,"▁æ":4204,"amma":4205,"▁Arbeid":4206,"▁As":4207,"▁kur":4208,"▁06.":4209,"nar":4210,"verket":4211,"▁forkla":4212,"▁skade":4213,"▁skre":4214,"▁x":4215,"▁inneb":4216,"-år":4217,"▁oppmerksom":4218,"▁(F":4219,"▁tale":4220,"▁35":4221,"sikt":4222,"▁-\n":4223,"sol":4224,"▁0,":4225,"▁saman":4226,"SK":4227,"▁sterke":4228,"skudd":4229,"▁ku":4230,"gde":4231,"\"\"\"\",":4232,"▁foreldre":4233,"um,":4234,"▁heter":4235,"▁SS\n":4236,"lov":4237,"io":4238,"way":4239,"isten":4240,"▁mill":4241,"ittel":4242,"▁presen":4243,"▁her,":4244,"ndige":4245,"▁oktober":4246,"▁området":4247,"▁spørsmålet":4248,"▁selve":4249,"▁sosiale":4250,"▁viss":4251,"▁åpnet":4252,"plass":4253,"▁tett":4254,"▁penger":4255,"gifter":4256,"▁luft":4257,"bra":4258,"▁My":4259,"▁Selv":4260,"▁blom":4261,"øya":4262,"▁fremst":4263,"▁rappor":4264,"▁trodde":4265,"atisk":4266,"iere":4267,"ia,":4268,"ttes":4269,"hjel":4270,"▁Trondheim":4271,"▁betale":4272,"▁Bare":4273,"▁Bor":4274,"tene.\n":4275,"▁styre":4276,"ingen,":4277,"ft.\n":4278,"sut":4279,"▁enten":4280,"LE":4281,"ins":4282,"øren":4283,"▁brev":4284,"▁pop":4285,"▁Su":4286,"▁fjell":4287,"▁handel":4288,"▁seiv.\n":4289,"▁vert":4290,"▁app":4291,"▁skjedde":4292,"dagen":4293,"kjent":4294,"▁Nei,":4295,"værende":4296,"ninger,":4297,"iteen":4298,"▁(A":4299,"▁hører":4300,"▁(3":4301,"▁øde":4302,"orsdag":4303,"▁Jesus":4304,"ast":4305,"vit":4306,"vet,":4307,"kår":4308,"dert":4309,"▁finans":4310,"ngå":4311,"▁kna":4312,"lla":4313,"vice":4314,"terne":4315,"cy":4316,"▁Guds":4317,"▁Odd":4318,"▁<<N":4319,"▁febru":4320,"<<":4321,"▁budsje":4322,"▁os":4323,"ansk":4324,"▁hans.\n":4325,"▁gla":4326,"▁inntekt":4327,"▁dine":4328,"▁Olsen":4329,"riks":4330,"met.\n":4331,"▁unna":4332,"▁velge":4333,"assen":4334,"ologi":4335,"▁mand":4336,"▁avtale":4337,"delt":4338,"▁Dire":4339,"▁visst":4340,"▁relig":4341,"000":4342,"▁pos":4343,"▁bygg":4344,"vo":4345,"varer":4346,"sikker":4347,"ier.\n":4348,"▁topp":4349,"ket,":4350,"▁utvi":4351,"▁skyl":4352,"stemet":4353,"▁skrev":4354,"▁høyt":4355,"▁data":4356,"▁situasjonen":4357,"▁fullt":4358,"▁tyn":4359,"▁Arne":4360,"▁deg,":4361,"▁Regi:\n":4362,"oeng":4363,"melig":4364,"▁01.":4365,"▁tenker":4366,"ung":4367,"v.":4368,"▁dig":4369,"▁Spe":4370,"▁timer":4371,"▁sterk":4372,"virke":4373,"▁vind":4374,"▁brukte":4375,"▁Hus":4376,"▁J.":4377,"▁sjølv":4378,"stu":4379,"▁tenkt":4380,"jonelle":4381,"aster":4382,"▁privat":4383,"▁pap":4384,"▁økonomisk":4385,"▁ring":4386,"▁kompetanse":4387,"▁begynner":4388,"▁dagens":4389,"▁fortsatte":4390,"▁Sel":4391,"▁Vå":4392,"▁Mer":4393,"abil":4394,"▁Ed":4395,"skrift":4396,"nelig":4397,"jær":4398,"▁besky":4399,"▁november":4400,"▁bren":4401,"▁venstre":4402,"ksten":4403,"por":4404,"smin":4405,"onde":4406,"▁fler":4407,"▁Un":4408,"al,":4409,"▁nå,":4410,"▁fys":4411,"urna":4412,"▁redd":4413,"▁rek":4414,"▁tradis":4415,"▁Lille":4416,"▁gav":4417,"▁sju":4418,"ledning":4419,"veg":4420,"▁univer":4421,"▁begren":4422,"▁innt":4423,"▁skif":4424,"h.\n":4425,"oret":4426,"▁om.\n":4427,"▁oppnå":4428,"▁lei":4429,"▁ifølge":4430,"▁energi":4431,"bare":4432,"▁fi":4433,"IG":4434,"ologisk":4435,"▁pan":4436,"▁|":4437,"lser.\n":4438,"ingsp":4439,"▁hin":4440,"▁(e":4441,"▁Sig":4442,"hil":4443,"▁Mat":4444,"rud":4445,"▁milit":4446,"▁det?\n":4447,"2\n":4448,"▁tilsvarende":4449,"llene":4450,"................":4451,"▁OG":4452,"fold":4453,"ansett":4454,"retten":4455,".a.":4456,"▁00.":4457,"▁kolle":4458,"▁andre.\n":4459,"1\n":4460,"▁Jen":4461,"lær":4462,"▁befol":4463,"▁priva":4464,"▁type":4465,"▁møter":4466,"ssa":4467,"-N":4468,"seres":4469,"▁hånden":4470,"anger":4471,"olf":4472,"▁kroner.\n":4473,"kta":4474,"ansen":4475,"▁med,":4476,"▁forsvar":4477,"ktivt":4478,"▁fart":4479,"ach":4480,"▁også.\n":4481,"▁Ru":4482,"▁ke":4483,"▁uke":4484,"▁Tre":4485,"ologiske":4486,"▁mykje":4487,"▁endringer":4488,"rådet":4489,"fag":4490,"rang":4491,"fta":4492,"▁Sal":4493,"▁himme":4494,"us,":4495,"▁(se":4496,"▁Øy":4497,"kast":4498,"▁gjøres":4499,"▁ventet":4500,"aland":4501,"ms":4502,"▁vak":4503,"▁opptatt":4504,"delen":4505,"en,":4506,"▁tema":4507,"delsen":4508,"heten.\n":4509,"▁32":4510,"can":4511,"▁stir":4512,"▁pensjon":4513,"uen":4514,"stad,":4515,"har":4516,"▁eld":4517,"▁håper":4518,"▁Gu":4519,"manns":4520,"me.\n":4521,"▁mott":4522,"bliote":4523,"▁ud":4524,"▁33":4525,"ilig":4526,"▁ü":4527,"unt":4528,"▁fran":4529,"▁drama":4530,"tets":4531,"▁vente":4532,"]\n":4533,"▁feng":4534,"▁has":4535,"-4":4536,"vanger":4537,"iler":4538,"▁mod":4539,"▁bilde":4540,"▁Vin":4541,"▁g.":4542,"▁traf":4543,"taket":4544,"▁St.":4545,"▁Politi":4546,"▁benytte":4547,"forsk":4548,"▁Samtidig":4549,"hør":4550,"p,":4551,"▁risik":4552,"▁90":4553,"is.\n":4554,"▁begre":4555,"▁klub":4556,"▁plutselig":4557,"messige":4558,"▁sjel":4559,"▁(H":4560,"▁overra":4561,"gelsen":4562,"▁situasjon":4563,"▁oppgå":4564,"▁seson":4565,"▁forret":4566,"▁virket":4567,"▁foren":4568,"▁tall":4569,"▁jobbe":4570,"gn":4571,"▁straffe":4572,"▁Anders":4573,"bal":4574,"▁opp,":4575,"standen":4576,"▁utover":4577,"le,":4578,"partiet":4579,"ters":4580,"▁fortalte":4581,"▁resten":4582,"▁gang.\n":4583,"us.\n":4584,"▁sendt":4585,"▁midler":4586,"▁øyne":4587,"▁gr":4588,"OTO":4589,"▁politisk":4590,"▁vera":4591,"sc":4592,"fr.\n":4593,"▁søn":4594,"▁foreld":4595,"▁36":4596,"▁bom":4597,"ter\n":4598,"▁han,":4599,"▁parti":4600,"▁Ce":4601,"▁voks":4602,"▁mulighet":4603,"sagt":4604,"▁pu":4605,"▁jern":4606,"▁beskje":4607,";\n":4608,"legging":4609,"▁betydelig":4610,"▁karakter":4611,"ar\n":4612,"virksom":4613,"▁Martin":4614,"▁dag,":4615,"▁slutten":4616,"▁70":4617,"▁søndag":4618,"▁EU":4619,"▁syntes":4620,"▁førte":4621,"▁anta":4622,"▁ass":4623,"▁ark":4624,"▁problemer":4625,"▁<<T":4626,"▁Lang":4627,"▁off":4628,"▁Natt":4629,"▁bord":4630,"▁departementet":4631,"isen":4632,"▁f.eks.":4633,"▁Christian":4634,"▁nab":4635,"▁3,":4636,"▁mars":4637,"ane.\n":4638,"/S":4639,"▁region":4640,"▁alene":4641,"▁interesse":4642,"▁Paul":4643,"▁røy":4644,"▁Far":4645,"politi":4646,"▁løy":4647,"▁meste":4648,"▁Ander":4649,"▁familien":4650,"▁tilk":4651,"▁pi":4652,"▁tilbud":4653,"ll.\n":4654,"freds":4655,"inger,":4656,"▁Tlf":4657,"▁80":4658,"▁borte":4659,"▁ønske":4660,"▁skrevet":4661,"▁Rik":4662,"▁avgjøre":4663,"▁kult":4664,"ktur":4665,"au":4666,"vant":4667,"▁kjenne":4668,"▁utstyr":4669,"▁ann":4670,"▁(G":4671,"t\n":4672,"ppene":4673,"▁foreslå":4674,"▁Bjørn":4675,"▁km":4676,"▁tek":4677,"svis":4678,"▁erstat":4679,"stående":4680,"ph":4681,"▁dette,":4682,"▁språk":4683,"nsdag":4684,"▁interv":4685,"lasjon":4686,"ve.\n":4687,"▁progra":4688,"kken,":4689,"▁detal":4690,"cial":4691,"▁grat":4692,"▁Bil":4693,"▁Bra":4694,"▁skulde":4695,"▁tids":4696,"punkt":4697,"nær":4698,"▁(18":4699,"pers":4700,"▁minste":4701,"pent":4702,"▁2019":4703,"tions":4704,"▁spise":4705,"side":4706,"sess":4707,"parten":4708,"▁ikke,":4709,"▁ki":4710,"ven.\n":4711,"▁(200":4712,"▁industri":4713,"▁Em":4714,"nor":4715,"iss":4716,"▁består":4717,"▁skil":4718,"ører":4719,"holdt":4720,"hl":4721,"jar":4722,"▁ufor":4723,"▁snudde":4724,"▁medlemmer":4725,"ØR":4726,"▁almin":4727,"ical":4728,"▁individ":4729,"klu":4730,"she":4731,"▁\"\"":4732,"▁fu":4733,"heter.\n":4734,"▁føler":4735,"▁Må":4736,"nes,":4737,"age":4738,"me,":4739,"▁Thom":4740,"▁skikke":4741,"▁bekym":4742,"▁Ale":4743,"haug":4744,"organis":4745,"byr":4746,"▁Bø":4747,"4)":4748,"▁Gi":4749,"▁gran":4750,"▁regler":4751,"▁obser":4752,"AS":4753,"-T":4754,"▁makt":4755,"AND":4756,"▁idet":4757,"▁bred":4758,"tting":4759,"sre":4760,"▁Ele":4761,"▁resultat":4762,"▁am":4763,"▁respe":4764,"delingen":4765,"▁gen":4766,"ati":4767,"▁uly":4768,"mmelig":4769,"▁ramme":4770,"urer":4771,"bygging":4772,"kap":4773,"skap.\n":4774,"øyd":4775,"▁vant":4776,"boe":4777,"▁Kjø":4778,"▁instru":4779,"▁fulgte":4780,"rim":4781,"spor":4782,"▁såk":4783,"▁utan":4784,"h,":4785,"ielle":4786,"▁Sto":4787,"årene":4788,"▁der,":4789,"▁folket":4790,"▁skar":4791,"livet":4792,"▁Kristi":4793,"forb":4794,"▁Fri":4795,"▁moderne":4796,"▁Ser":4797,"le.\n":4798,"▁deretter":4799,"▁kastet":4800,"▁kjøre":4801,"45\n":4802,"▁engang":4803,"-og":4804,"▁stren":4805,"▁fok":4806,"▁Berg":4807,"▁Lond":4808,"lia":4809,"ling.\n":4810,"orer":4811,"▁startet":4812,"kre":4813,"▁virker":4814,"▁02.":4815,"dyr":4816,"▁sammen.\n":4817,"▁Ameri":4818,"▁which":4819,"▁Hvil":4820,"▁Kap":4821,"▁ressur":4822,"nes.\n":4823,"▁henhold":4824,"denfor":4825,"let,":4826,"▁anlegg":4827,"bert":4828,"▁reguler":4829,"▁akse":4830,"teren":4831,"▁minutter":4832,"asjer":4833,"▁Stein":4834,"▁vedkommende":4835,"nester":4836,"▁steder":4837,"▁forvalt":4838,"▁tor":4839,"▁Gar":4840,"▁utviklingen":4841,"▁åpne":4842,"versi":4843,"▁gift":4844,"riske":4845,"▁søke":4846,"▁sannsynlig":4847,"ier,":4848,"▁Bro":4849,"▁45":4850,"▁medis":4851,"▁Nat":4852,"▁invester":4853,"▁klarte":4854,"mand":4855,"▁tilhø":4856,"▁ansiktet":4857,"▁Vik":4858,"▁formid":4859,"▁foret":4860,"-9":4861,"▁bla":4862,"▁Jør":4863,"▁faren":4864,"lses":4865,"▁raskt":4866,"▁go":4867,"ance":4868,"▁navnet":4869,"▁red":4870,"▁dob":4871,"taler":4872,"▁www":4873,"ikken":4874,"▁høyre":4875,"frå":4876,"histor":4877,"▁endelig":4878,"▁stats":4879,"▁Oslo.\n":4880,"stille":4881,"▁Gunn":4882,"▁kol":4883,"▁pass":4884,"▁nega":4885,"▁tidsp":4886,"verd":4887,"▁er.\n":4888,"TE":4889,"▁for.\n":4890,"dem":4891,"▁Hel":4892,"▁Fore":4893,"De":4894,"▁prote":4895,"jørn":4896,"smid":4897,"▁Tan":4898,"▁innebærer":4899,"vise":4900,"ogn":4901,"▁enhver":4902,"▁34":4903,"▁åtte":4904,"arbeider":4905,"▁bl.a.":4906,"▁understre":4907,"▁eksemp":4908,"lutning":4909,"inert":4910,"nal":4911,"▁mill.":4912,"verre":4913,"▁visse":4914,"▁dessuten":4915,"▁sist":4916,"▁komp":4917,"rete":4918,"førte":4919,"8\n":4920,"stiske":4921,"▁Stat":4922,"riet":4923,"▁gull":4924,"▁masse":4925,"▁lørdag":4926,"▁publik":4927,"▁private":4928,"▁Peter":4929,"▁anbe":4930,"▁omsorg":4931,"▁påvir":4932,"mune":4933,"▁fortsette":4934,"▁gangen":4935,"▁lønns":4936,"▁prosjekt":4937,"▁fleire":4938,"mera":4939,"ien,":4940,"▁blei":4941,"▁anvende":4942,"▁handler":4943,"-7":4944,"▁legges":4945,"▁utgangspunkt":4946,"▁tilfeller":4947,"▁mag":4948,"▁Po":4949,"▁Fredrik":4950,"▁fotball":4951,"an.\n":4952,"▁tas":4953,"utten":4954,"IV":4955,"▁Nils":4956,"▁basert":4957,"▁unngå":4958,"15\n":4959,"isere":4960,"ynt":4961,"stillingen":4962,"▁FOR":4963,"derer":4964,"▁straks":4965,"ie.\n":4966,"alen":4967,"ala":4968,"▁elevene":4969,"▁Bre":4970,"▁Gjennom":4971,"▁FOTO":4972,"▁spor":4973,"▁kyr":4974,"▁huse":4975,"▁Regjer":4976,"n:\n":4977,"▁oppgave":4978,"dalen":4979,"▁Mens":4980,"ther":4981,"belt":4982,"▁desse":4983,"▁>":4984,"gren":4985,"ku":4986,"iø":4987,"▁somme":4988,"tu":4989,"▁Statens":4990,"▁snakker":4991,"jef":4992,"igh":4993,"pla":4994,"cu":4995,"▁07.":4996,"▁kart":4997,"▁Mot":4998,"▁08.":4999,"▁organisasjon":5000,"▁skjedd":5001,"grep":5002,"AM":5003,"▁uttale":5004,"isering":5005,"▁500":5006,"▁refe":5007,"▁vidt":5008,"▁sh":5009,"▁37":5010,"▁kir":5011,"serie\n":5012,"▁omtrent":5013,"onn":5014,"ctor":5015,"▁konser":5016,"▁sce":5017,"rettet":5018,"gerne":5019,"▁Morgen":5020,"▁enkle":5021,"▁indre":5022,"siden":5023,"05\n":5024,"▁plu":5025,"▁ført":5026,"ie\n":5027,"▁dør":5028,"our":5029,"▁transport":5030,"anter":5031,"▁saker":5032,"KT":5033,"▁solgt":5034,"▁sur":5035,"▁hvite":5036,"▁Tysk":5037,"50\n":5038,"▁Pri":5039,"▁liker":5040,"▁uav":5041,"b.\n":5042,"oll":5043,"▁Ter":5044,"kommen":5045,"6\n":5046,"▁daglig":5047,"▁middel":5048,"▁bygget":5049,"▁er,":5050,"▁gud":5051,"▁euro":5052,"▁saks":5053,"kers":5054,"syn":5055,"nede":5056,"-5":5057,"▁Byg":5058,"▁gjekk":5059,"▁jobber":5060,"▁kne":5061,"▁tilfreds":5062,"▁vas":5063,"▁Mag":5064,"▁Com":5065,"▁www.":5066,"kkende":5067,"▁Kva":5068,"▁Hvem":5069,"▁Fø":5070,"▁fisk":5071,"▁læ":5072,"rue":5073,"▁stein":5074,"orge":5075,"▁tempe":5076,"lsen.\n":5077,"være":5078,"▁tilgjen":5079,"▁vekst":5080,"kur":5081,"ve,":5082,"ktora":5083,"▁muligheter":5084,"strøm":5085,"an,":5086,"veren":5087,"urnali":5088,"▁besk":5089,"AD":5090,"set.\n":5091,"con":5092,"▁oven":5093,"▁opplysninger":5094,"iz":5095,"▁flyttet":5096,"lling":5097,"▁fest":5098,"▁Na":5099,"-8":5100,"over.\n":5101,"▁Jac":5102,"▁hørt":5103,"▁slett":5104,"ktoren":5105,"▁opprin":5106,"▁Anna":5107,"▁smer":5108,"ring.\n":5109,"▁styrke":5110,"▁Tro":5111,"venske":5112,"▁Både":5113,"hånd":5114,"▁tekst":5115,"ferdig":5116,"▁aksje":5117,"▁kle":5118,"▁tilstre":5119,"▁inn.\n":5120,"ming":5121,"ange":5122,"ka.\n":5123,"▁bilen":5124,"▁utvikle":5125,"▁gri":5126,"▁Flere":5127,"▁sov":5128,"▁fje":5129,"dene.\n":5130,"▁forhand":5131,"▁<<K":5132,"sken":5133,"▁sentral":5134,"▁Vår":5135,"læring":5136,"▁a.":5137,"ssel":5138,"ces":5139,"▁tyske":5140,"7\n":5141,"▁relativt":5142,"▁(B":5143,"rasjonen":5144,"arbei":5145,"▁internasjonale":5146,"3\n":5147,"▁Først":5148,"m\n":5149,"res.\n":5150,"▁von":5151,"▁38":5152,"▁trekke":5153,"▁09.":5154,"rerte":5155,"▁krever":5156,"▁sammenlig":5157,"▁hendene":5158,"▁Kro":5159,"▁bas":5160,"▁met":5161,"▁poeng":5162,"mmene":5163,"is,":5164,"▁def":5165,"lot":5166,"▁ropte":5167,"ie,":5168,"ft,":5169,"▁selvfølge":5170,"▁interess":5171,"▁Ca":5172,"▁valgt":5173,"und.\n":5174,"gene.\n":5175,"▁Rå":5176,"t.":5177,"90":5178,"▁den,":5179,"gerer":5180,"▁vesentlig":5181,"▁por":5182,"▁syns":5183,"▁kroppen":5184,"▁inklu":5185,"▁fredag":5186,"nter":5187,"kker.\n":5188,"▁Grø":5189,"-18":5190,"rør":5191,"▁Uten":5192,"▁bekre":5193,"▁forven":5194,"løpet":5195,"irsdag":5196,"▁prøvde":5197,"▁bestemte":5198,"▁infor":5199,"jå":5200,"aling":5201,"sla":5202,"▁kjempe":5203,"▁tusen":5204,"▁bevisst":5205,"kter.\n":5206,"▁Petter":5207,"▁proses":5208,"pun":5209,"▁Bu":5210,"▁før.\n":5211,"huse":5212,"▁tilli":5213,"▁Aust":5214,"▁tilbake.\n":5215,"▁Johannes":5216,"lene.\n":5217,"små":5218,"hel":5219,"▁avhengig":5220,"▁avgjø":5221,"▁Lin":5222,"▁prøver":5223,"▁møtte":5224,"ric":5225,"▁hjerte":5226,"▁Dem":5227,"als":5228,"▁vurdering":5229,"▁hennes.\n":5230,"lic":5231,"rike":5232,"▁prosjektet":5233,"▁bodde":5234,"▁utvalg":5235,"▁forelig":5236,"ib":5237,"kker,":5238,"▁Arbeider":5239,"stad.\n":5240,"▁områder":5241,"inere":5242,"▁øke":5243,"▁virksomhet":5244,"ddet":5245,"▁Dav":5246,"▁linje":5247,"▁Siden":5248,"settes":5249,"løse":5250,"▁Ska":5251,"▁periode":5252,"▁derimot":5253,"EM":5254,"▁inneholder":5255,"▁forholdet":5256,"▁anna":5257,"▁glem":5258,"malt":5259,"▁ane":5260,"▁årsa":5261,"▁språ":5262,"▁forskning":5263,"▁Skal":5264,"▁ep":5265,"▁oss,":5266,"▁År":5267,"▁M.":5268,"▁øst":5269,"skog":5270,"mulig":5271,"▁sykehus":5272,"2)":5273,"▁livs":5274,"tel":5275,"▁kjære":5276,"und,":5277,"▁kaffe":5278,"▁konsekven":5279,"giver":5280,"▁05.":5281,"▁konsent":5282,"▁forstår":5283,"▁hardt":5284,"▁Fo":5285,"▁|\n":5286,"ias":5287,"▁~\n":5288,"▁dog":5289,"folk":5290,"splas":5291,"▁drive":5292,"6)":5293,"▁H.":5294,"(r":5295,"▁ill":5296,"▁(198":5297,"▁omf":5298,"▁betyd":5299,"▁søkna":5300,"ama":5301,"▁overle":5302,"▁heile":5303,"▁presiden":5304,"▁Kvin":5305,"▁klass":5306,"bre":5307,"forhold":5308,"▁perioden":5309,"▁løp":5310,"ingens":5311,"nelige":5312,"▁sex":5313,"▁begynne":5314,"▁alder":5315,"kets":5316,"▁sid":5317,"▁sor":5318,"▁skrift":5319,"▁Hu":5320,"ll,":5321,"tional":5322,"▁presse":5323,"anlegg":5324,"▁(f":5325,"▁mamma":5326,"-6":5327,"▁Ven":5328,"gent":5329,"▁utfor":5330,"KK":5331,"mester":5332,"aldt":5333,"▁ner":5334,"▁were":5335,"▁sentrale":5336,"▁spesielle":5337,"▁foreta":5338,".30\n":5339,"▁strøm":5340,"teter":5341,"▁inc":5342,"▁smil":5343,"▁dels":5344,"dro":5345,"▁takk":5346,"▁usikker":5347,"▁kin":5348,"▁sånn":5349,"▁Videre":5350,"▁Gra":5351,"▁bære":5352,"▁rør":5353,"▁idrett":5354,"lser,":5355,"ra,":5356,"▁orden":5357,"▁Tru":5358,"dagog":5359,"▁skyldes":5360,"ola":5361,"▁kraftig":5362,"▁selskap":5363,"skif":5364,"giv":5365,"▁lands":5366,"pende":5367,"▁endring":5368,"▁hvit":5369,"tikken":5370,"skil":5371,"▁forme":5372,"wn":5373,"4\n":5374,"▁omfatter":5375,"▁Sim":5376,"mater":5377,"▁argu":5378,"▁eventuelt":5379,"at.\n":5380,"II":5381,"hed":5382,"▁Henrik":5383,"ium":5384,"▁Jens":5385,"▁Ifølge":5386,"ningen,":5387,"ss.\n":5388,"y\n":5389,"somme":5390,"▁tid,":5391,"▁pus":5392,"▁Tu":5393,"nyttet":5394,"▁Sjø":5395,"læ":5396,"▁stakk":5397,"▁hår":5398,"løy":5399,"▁skaffe":5400,"▁Thor":5401,"TER":5402,"borg":5403,"bro":5404,"nr.":5405,"▁kost":5406,"ient":5407,"get,":5408,"tik":5409,"▁Ban":5410,"▁sene":5411,"▁39":5412,"anen":5413,"▁Ag":5414,"▁4,":5415,"▁vedtak":5416,"▁Ap":5417,"▁Dy":5418,"▁faste":5419,"▁øyeblikk":5420,"▁disku":5421,"▁id":5422,"▁siden.\n":5423,"ines":5424,"jet":5425,"▁smilte":5426,"bry":5427,"ante":5428,"▁spørre":5429,"▁48":5430,"▁bakgrunn":5431,"▁Char":5432,"▁reiser":5433,"10.":5434,"▁frivil":5435,"SEN":5436,"▁Fil":5437,".\"\n":5438,"▁185":5439,"▁Dermed":5440,"bord":5441,"sid":5442,"▁viten":5443,"▁vindu":5444,"▁ingenting":5445,"▁Då":5446,"▁flytte":5447,"ton":5448,"▁kropp":5449,"▁kr.\n":5450,"resse":5451,"stoff":5452,"-S":5453,"ferd":5454,"▁Helge":5455,"▁søker":5456,"sten.\n":5457,"▁fug":5458,"▁Norske":5459,"▁program":5460,"dal,":5461,"▁Tra":5462,"ac":5463,"▁bnr":5464,"alet":5465,"▁Magn":5466,"▁vinter":5467,"▁pr":5468,"▁kampen":5469,"▁kapittel":5470,"▁stirret":5471,"da.\n":5472,"▁Mus":5473,"▁Ti":5474,"▁Thomas":5475,"▁øvrig":5476,"▁område":5477,"kam":5478,"▁studie":5479,"rolig":5480,"▁avslu":5481,"▁-e":5482,"▁Met":5483,"▁Bet":5484,"▁Tromsø":5485,"▁diffe":5486,"▁03.":5487,"gg":5488,"▁via":5489,"ugh":5490,"/2":5491,"kket.\n":5492,"▁Fors":5493,"▁vurdere":5494,"zz":5495,"▁forrige":5496,"▁altfor":5497,"PP":5498,"ned":5499,"▁dens":5500,"▁Mad":5501,"j.\n":5502,"▁bun":5503,"▁ligge":5504,"▁delen":5505,"▁Sc":5506,"øyde":5507,"indu":5508,"▁Kun":5509,"▁sikkerhet":5510,"▁lavere":5511,"40\n":5512,"asjon.\n":5513,"▁utdanning":5514,"▁All":5515,"uf":5516,"brø":5517,"kke.\n":5518,"dtr.\n":5519,"▁Kirke":5520,"▁engelsk":5521,"▁gjennomsnitt":5522,"-,":5523,"ltet":5524,"▁handling":5525,"▁anledning":5526,"▁bygd":5527,"▁aktuelle":5528,"▁kontor":5529,"▁glede":5530,"bb":5531,"dal.\n":5532,"▁Fyl":5533,"▁forsiktig":5534,"▁sitte":5535,"ND":5536,"▁slått":5537,"▁mening":5538,"▁04.":5539,"▁uansett":5540,"lag.\n":5541,"▁motor":5542,"▁Dessuten":5543,"▁Di":5544,"ldige":5545,"▁31":5546,"25\n":5547,"prosje":5548,"▁klær":5549,"▁ir":5550,"▁Hy":5551,"▁tidlige":5552,"▁nasjonal":5553,"▁om,":5554,"▁By":5555,"▁Van":5556,"yer":5557,"kant":5558,"pan":5559,"▁sold":5560,"holdene":5561,"stikk":5562,"▁Norge,":5563,"itter":5564,"20\n":5565,"▁0.":5566,"-f":5567,"ura":5568,"▁sann":5569,"▁stan":5570,"▁måneder":5571,"utvikling":5572,"▁Vær":5573,"▁fullstendig":5574,"▁vilde":5575,"▁lengre":5576,"▁Veg":5577,"latt":5578,"▁strå":5579,"EG":5580,"▁Universi":5581,"▁Jak":5582,"ven,":5583,"▁(M":5584,"▁09":5585,"▁trø":5586,"▁svart":5587,"ssor":5588,":00\n":5589,"▁hur":5590,"▁forsøk":5591,"7)":5592,"▁Grun":5593,"▁bevil":5594,"▁staten":5595,"▁Mol":5596,"▁vanlige":5597,"▁rede":5598,"innte":5599,"velser":5600,"▁såtte":5601,"▁jor":5602,"vold":5603,"lis":5604,"▁retten":5605,"verdi":5606,"isk.\n":5607,"▁Sport":5608,"▁Hoved":5609,"ogra":5610,"▁døren":5611,"its":5612,"▁varer":5613,"▁sc":5614,"orene":5615,"▁fro":5616,"▁mistet":5617,"▁sang":5618,"hu":5619,"it,":5620,"spill":5621,"▁bus":5622,"US":5623,"▁nytte":5624,"▁und":5625,"▁184":5626,"▁amerikanske":5627,"hund":5628,"▁log":5629,"gjer":5630,"▁tilta":5631,"▁Figur":5632,"▁kommen":5633,"▁gal":5634,"▁kjøp":5635,"▁fine":5636,"isjonen":5637,"▁barn.\n":5638,"▁noe.\n":5639,"bri":5640,"▁hverandre.\n":5641,"▁forbru":5642,"▁popul":5643,"▁End":5644,"omme":5645,"isk,":5646,"▁Do":5647,"oster":5648,"▁sammenhen":5649,"▁utgjør":5650,"Jeg":5651,"ary":5652,"▁Folke":5653,"▁fylkeskom":5654,"▁FOTO:\n":5655,"kost":5656,"▁Sm":5657,"iel":5658,"E\n":5659,"▁prem":5660,"sal":5661,"▁svarer":5662,"disjon":5663,"ttet.\n":5664,"▁Deres":5665,"ringe":5666,"nivå":5667,"▁Andreas":5668,"▁samfunnet":5669,"▁sendte":5670,"tning":5671,"kelse":5672,"▁universi":5673,"▁Gran":5674,"▁nedover":5675,"senter":5676,"▁klarer":5677,"i\n":5678,"▁retts":5679,"▁måte.\n":5680,"▁fylkes":5681,"ick":5682,"▁seiv,":5683,"▁can":5684,"▁lun":5685,".00.":5686,"▁høg":5687,"▁utviklet":5688,"isert":5689,"▁sikte":5690,"iell":5691,"▁Russ":5692,"kret":5693,"fart":5694,"▁retning":5695,"▁Ko":5696,"ika":5697,"ppen.\n":5698,"▁Ingeb":5699,"▁Harald":5700,"orien":5701,"▁formål":5702,"▁55":5703,"▁Ex":5704,"▁stam":5705,"▁kalt":5706,"▁vekk":5707,"▁tilpas":5708,"8)":5709,"▁innbyg":5710,"▁Fro":5711,"▁Tø":5712,"1)":5713,"AV":5714,"▁75":5715,"▁serie":5716,"70":5717,"kkelen":5718,"▁konge":5719,"▁gamme":5720,"▁skatt":5721,"æren":5722,"▁godkjen":5723,"gen\n":5724,"▁forbi":5725,"60":5726,"▁Kristians":5727,"derte":5728,"▁institus":5729,"▁David":5730,"▁blan":5731,"▁lyd":5732,"▁mørke":5733,"▁elever":5734,"kjør":5735,"hild":5736,"▁Nær":5737,"landske":5738,"lår":5739,"kte.\n":5740,"pen.\n":5741,"▁het":5742,"▁eksiste":5743,"æl":5744,"kke,":5745,"rene,":5746,"▁jø":5747,"spi":5748,"pens":5749,"tten":5750,"▁stopp":5751,"3)":5752,"året":5753,"▁prosen":5754,"▁klasse":5755,"nk":5756,"▁z":5757,"▁delvis":5758,"▁settes":5759,"▁lettere":5760,"lei":5761,"▁(i":5762,"▁dv":5763,"▁vol":5764,"rest":5765,"▁spilte":5766,"▁B.":5767,"maet":5768,"-t":5769,"▁Departementet":5770,"▁fanta":5771,"▁hor":5772,"plik":5773,"▁absol":5774,"▁øvrige":5775,"9\n":5776,"anten":5777,"prø":5778,"▁alvorlig":5779,"▁glass":5780,"mund":5781,"▁2018.":5782,"▁indust":5783,"miljø":5784,"▁arrange":5785,"▁stiller":5786,"▁SK":5787,"berg,":5788,"▁Hver":5789,"pres":5790,"▁forekom":5791,"▁42":5792,"▁kvalitet":5793,"▁ove":5794,"▁ordet":5795,"okra":5796,"telse":5797,"▁veile":5798,"▁verk":5799,"ordning":5800,"▁<<B":5801,"dele":5802,"▁<<Ne":5803,"▁<<A":5804,"▁ur":5805,"▁fint":5806,"▁hove":5807,"▁nede":5808,"▁driver":5809,"▁ettermid":5810,"▁syste":5811,"alog":5812,"brudd":5813,"grepet":5814,"▁torsdag":5815,"budet":5816,"hjem":5817,"fulle":5818,"▁forsøkte":5819,"▁rele":5820,"▁Karl":5821,"▁tvang":5822,"▁utø":5823,"▁(K":5824,"▁obje":5825,"▁brann":5826,"lend":5827,"▁refle":5828,"hovet":5829,"▁jf.":5830,"verdig":5831,"▁opprett":5832,"S-":5833,"▁yrkes":5834,"ité":5835,"▁film":5836,"▁måle":5837,"vard":5838,"▁(5":5839,"▁300":5840,"vig":5841,"▁konkurranse":5842,"▁Marie":5843,"▁Pers":5844,"▁middag":5845,"▁etabler":5846,"iat":5847,"▁invi":5848,"▁markeds":5849,"▁►":5850,"▁beteg":5851,"▁innhold":5852,"ice":5853,"▁erfaring":5854,"▁Gro":5855,"▁stemmer":5856,"▁litte":5857,"▁Gre":5858,"keren":5859,"▁min.":5860,"▁bilder":5861,"▁fordel":5862,"kninger":5863,"vest":5864,"reng":5865,"▁dik":5866,"omer":5867,"▁venner":5868,"▁merket":5869,"▁andel":5870,"▁personlig":5871,"▁kjørte":5872,"▁kalles":5873,"ade":5874,"▁enkel":5875,"▁hil":5876,"medlem":5877,"▁Post":5878,"ste.\n":5879,"▁Bod":5880,"▁februar":5881,"UR":5882,"▁motta":5883,"▁farge":5884,"75":5885,"▁hygge":5886,"▁<<M":5887,"spiller":5888,"▁rent":5889,"▁begynnelsen":5890,"stilt":5891,"▁bildet":5892,"▁rettet":5893,"redt":5894,"▁Dist":5895,"itusjon":5896,"ana":5897,"▁hov":5898,"▁grep":5899,"▁selvsagt":5900,"▁løftet":5901,"kens":5902,"tid.\n":5903,"▁qu":5904,"▁Ol":5905,"rønde":5906,"gert":5907,"▁kop":5908,"▁(T":5909,"▁G.":5910,"▁typer":5911,"▁rommet":5912,":2":5913,"▁Del":5914,"▁gjaldt":5915,"▁E.":5916,"velsen":5917,"▁oversikt":5918,"▁dele":5919,"ktet.\n":5920,"vitt":5921,"▁Bli":5922,"▁trafikk":5923,"▁mas":5924,"▁uker":5925,"▁stående":5926,"v,":5927,"melding":5928,"▁Kr":5929,"▁avgjørende":5930,"▁land.\n":5931,"▁Res":5932,"behandling":5933,"▁Liv":5934,"▁aktivitet":5935,"▁08":5936,"nad":5937,"nok":5938,"▁Frankri":5939,"▁vand":5940,"Det":5941,"ish":5942,"o:\n":5943,"▁omfattende":5944,"▁hard":5945,"spar":5946,"▁2016.":5947,"▁perspe":5948,"▁tilstrekkelig":5949,"fon":5950,"▁undervis":5951,"▁av,":5952,"▁soli":5953,"▁Vel":5954,"▁Stavanger":5955,"▁30.":5956,"deler":5957,"ked":5958,"▁deb":5959,"▁slår":5960,"skilt":5961,"▁fengsel":5962,"tin":5963,"kro":5964,"▁VM":5965,");":5966,"▁one":5967,",.\n":5968,"▁Inter":5969,"▁Mal":5970,"▁lager":5971,"▁;":5972,"▁Helse":5973,"▁avdeling":5974,"stro":5975,"▁levende":5976,"▁skaper":5977,"fest":5978,"▁landet.\n":5979,"lanen":5980,"▁cm":5981,"▁således":5982,"▁Likevel":5983,"▁krist":5984,"▁NTB":5985,"▁Eks":5986,"ky":5987,"cal":5988,"UL":5989,"skar":5990,"▁IN":5991,"DE":5992,"▁velger":5993,"▁bin":5994,"▁(R":5995,"▁Hor":5996,"pris":5997,"asjons":5998,"▁påpe":5999,"▁ferd":6000,"ster.\n":6001,"følg":6002,"▁voksne":6003,"▁kommunikasjon":6004,"▁moren":6005,"▁over.\n":6006,"▁ek":6007,"▁kjøpte":6008,"▁hvilket":6009,"ments":6010,"▁trolig":6011,"▁grupper":6012,"▁Bla":6013,"▁46":6014,"na.\n":6015,"▁more":6016,"▁Kir":6017,"(r)":6018,"▁Go":6019,"▁div":6020,"løst":6021,"▁loven":6022,"føl":6023,"▁trygg":6024,"smannen":6025,"rut":6026,"▁bygde":6027,"skap,":6028,"▁Ret":6029,"▁alko":6030,"▁mi":6031,"▁pol":6032,"urens":6033,"▁Stra":6034,"ane,":6035,"heter,":6036,"▁kg":6037,"▁Noe":6038,"▁ferie":6039,"▁bland":6040,"▁nar":6041,"kks":6042,"▁bee":6043,"iendom":6044,"▁selvfølgelig":6045,"▁arbeidsta":6046,"▁kaller":6047,"kraf":6048,"▁overbe":6049,"▁mask":6050,"▁praktisk":6051,"▁vilje":6052,"▁sentrum":6053,"▁180":6054,"bur":6055,"▁begrun":6056,"▁beskytte":6057,"▁sant":6058,"▁stoff":6059,"▁oppt":6060,"re\n":6061,"stander":6062,"▁europe":6063,"▁skin":6064,"nens":6065,"illet":6066,"▁initi":6067,"kas":6068,"▁sjelden":6069,"▁Val":6070,"bladet":6071,"20.":6072,"▁Ung":6073,"▁onsdag":6074,"▁samsvar":6075,"cess":6076,"▁Inst":6077,"▁5,":6078,"▁løse":6079,"inene":6080,"▁regnskap":6081,"jonens":6082,"▁Famil":6083,"▁nødvendige":6084,"vokat":6085,"rea":6086,"▁forståelse":6087,"▁falt":6088,"vali":6089,"▁nærmest":6090,"▁<<F":6091,"wa":6092,"tene,":6093,"▁kap.\n":6094,"retning":6095,"agra":6096,"▁underhold":6097,"sområ":6098,"▁191":6099,"gy":6100,"▁oppga":6101,"▁leie":6102,"▁sand":6103,"▁gjennomført":6104,"jenesten":6105,"▁sønn":6106,"▁andre,":6107,"lens":6108,"lor":6109,"wer":6110,"▁opplever":6111,"strand":6112,"▁25.":6113,"▁husker":6114,"ment.\n":6115,"▁havde":6116,"▁omgang":6117,"gjø":6118,"batt":6119,"▁Fre":6120,"ster,":6121,"usjonen":6122,"▁(4":6123,"▁åt":6124,"▁rese":6125,"▁Oslo,":6126,"▁Stu":6127,"▁eksp":6128,"▁idee":6129,"teret":6130,"▁ja,":6131,"▁total":6132,"▁(L":6133,"siali":6134,"ørre":6135,"▁Skri":6136,"▁sjo":6137,"▁NO":6138,"▁Bak":6139,"▁2017.":6140,"ringene":6141,"▁Mand":6142,"oc":6143,"RI":6144,"able":6145,"▁Sammen":6146,"▁vanligvis":6147,"▁meng":6148,"▁SV":6149,"kså":6150,"▁eig":6151,"▁spre":6152,"▁Gunnar":6153,"ague":6154,"▁passer":6155,"▁Europa":6156,"▁44":6157,"▁kommunene":6158,"sve":6159,"▁fare":6160,"▁AV":6161,"▁art":6162,"sin":6163,"▁faller":6164,"▁Folk":6165,"▁anner":6166,"▁budsjett":6167,"allet":6168,"▁ned.\n":6169,"stedet":6170,"tto":6171,"smar":6172,"▁fær":6173,"saa":6174,"▁Sn":6175,"▁sider":6176,"▁bedrift":6177,"▁liv.\n":6178,"1).\n":6179,"sar":6180,"▁general":6181,"skjer":6182,"▁kommuner":6183,"bbe":6184,"▁out":6185,"igheter":6186,"▁TIL":6187,"▁Midt":6188,"▁Va":6189,"ne\n":6190,"ammen":6191,"ta.\n":6192,"arder":6193,"▁see":6194,"▁elev":6195,"▁regn":6196,"▁nam":6197,"▁også,":6198,"▁sa:\n":6199,"fo":6200,"wee":6201,"ansvar":6202,"lt,":6203,"veks":6204,"▁start":6205,"▁bibliote":6206,"feran":6207,"▁hans,":6208,"▁tegn":6209,"▁Alex":6210,"▁ende":6211,"olo":6212,"heten,":6213,"▁regnet":6214,"▁dokumentar":6215,"lige,":6216,"gått":6217,"▁blin":6218,"▁høsten":6219,"▁fortsetter":6220,"▁oppdaget":6221,"legger":6222,"▁ansvaret":6223,"▁trengte":6224,"ka,":6225,"▁invol":6226,"▁Kultur":6227,"tas":6228,"▁medisin":6229,"▁jobben":6230,"lsen,":6231,"▁ak":6232,"rt":6233,"▁2000":6234,"▁spar":6235,"ath":6236,"▁nasjonale":6237,"▁Mil":6238,"▁blikk":6239,"▁øver":6240,"ous":6241,"iserte":6242,"▁legg":6243,"▁årets":6244,"▁oppdrag":6245,"sjen":6246,"▁Tlf.\n":6247,".\"\"\"\"":6248,"▁heilt":6249,"tenes":6250,"selen":6251,"▁inntrykk":6252,"EF":6253,"▁sår":6254,"band":6255,"drift":6256,"▁vilkår":6257,"▁dess":6258,"▁rimelig":6259,"▁gjøre.\n":6260,"▁dyre":6261,"skapene":6262,"▁sil":6263,"▁24.":6264,"▁°":6265,"▁jobbet":6266,"▁treffe":6267,"▁gang,":6268,"▁i,":6269,"kjer":6270,"▁sport":6271,"▁trekk":6272,"▁mobil":6273,"▁verden.\n":6274,"▁Kjell":6275,"▁01":6276,"▁skille":6277,"▁endre":6278,"▁Gjer":6279,"▁bygger":6280,"▁47":6281,"set,":6282,"2).\n":6283,"▁183":6284,"vik,":6285,"utdan":6286,"ssp":6287,"time":6288,"▁resta":6289,"fter.\n":6290,"▁sum":6291,"isket":6292,"▁Tabell":6293,"ah":6294,"▁28.":6295,"▁overraske":6296,"▁Fly":6297,"▁venter":6298,"▁forskri":6299,"ual":6300,"▁K.":6301,"▁utsatt":6302,"▁kvelden":6303,"▁klokken":6304,"vrig":6305,"▁O.":6306,"▁adgang":6307,"▁fjerde":6308,"ration":6309,"ial":6310,"urder":6311,"istiske":6312,"gle":6313,"stillinger":6314,"▁mere":6315,"▁Ord":6316,"▁trå":6317,"skapen":6318,"▁svenske":6319,"▁neppe":6320,"nds":6321,"▁sørge":6322,"ssen":6323,"▁journali":6324,"▁gutt":6325,"rerer":6326,"ties":6327,"▁engasje":6328,"-M":6329,"▁gjeldende":6330,"▁brå":6331,"▁Jacob":6332,"▁Jakob":6333,"▁besøk":6334,"direktora":6335,"▁positive":6336,"9)":6337,"▁Phil":6338,"▁blikket":6339,"▁el.":6340,"▁(f.":6341,"velo":6342,"▁sir":6343,"▁Sti":6344,"▁var.\n":6345,"▁ligg":6346,"vidt":6347,"orld":6348,"▁their":6349,"▁up":6350,"cke":6351,"▁Leg":6352,"▁43":6353,"▁ytterligere":6354,"▁tråd":6355,"▁vannet":6356,"▁London":6357,"▁enig":6358,"▁forfat":6359,"▁oppfy":6360,"▁hit":6361,"▁Nav":6362,"te\n":6363,"▁hodet.\n":6364,"▁spesial":6365,"RO":6366,"rikt":6367,"jonell":6368,"synet":6369,"▁hensik":6370,"ions":6371,"▁trykk":6372,"▁Gam":6373,"▁umulig":6374,"tisk":6375,"▁bot":6376,"mas":6377,"undersøke":6378,"▁lykke":6379,"▁positiv":6380,"▁hente":6381,"ksi":6382,"resten":6383,"▁kurs":6384,"kra":6385,"▁sin.\n":6386,"▁former":6387,"gene,":6388,"EST":6389,"▁barn,":6390,"▁dvs.":6391,"▁aner":6392,"10\n":6393,"▁lover":6394,"leggende":6395,"▁parker":6396,"▁Store":6397,"ory":6398,"▁vedlike":6399,"ss,":6400,"▁will":6401,"kal":6402,"met,":6403,"▁stati":6404,"▁(P":6405,"▁übe":6406,"▁Ram":6407,"▁avstand":6408,"▁m.\n":6409,"▁elsker":6410,".:\n":6411,"▁other":6412,"smiljø":6413,"▁fas":6414,"ould":6415,"▁konstru":6416,"▁Histor":6417,"▁jeg,":6418,"▁NOR":6419,"▁ledelse":6420,"▁Dra":6421,"'n":6422,"liggende":6423,"sme":6424,"▁anti":6425,"▁dit":6426,"lent":6427,"klas":6428,"lever":6429,"▁hentet":6430,"▁It":6431,"▁grense":6432,"▁sammens":6433,"▁jule":6434,"stig":6435,"▁undersø":6436,"ste,":6437,"▁sammen,":6438,"▁Ford":6439,"god":6440,"▁nyheter":6441,"80":6442,"ling,":6443,"▁Kol":6444,"kraft":6445,"▁samle":6446,"▁gard":6447,"▁kommunale":6448,"▁Blant":6449,"▁bedrifter":6450,"▁krigen":6451,"ope":6452,"klub":6453,"▁tilkny":6454,"skyld":6455,"▁Ans":6456,"▁31.":6457,"▁typ":6458,"▁muse":6459,"▁reda":6460,"▁Lov":6461,"▁næ":6462,"▁m/":6463,"4).\n":6464,"▁Sæ":6465,"6).\n":6466,"-E":6467,"▁tillate":6468,"rali":6469,"ktes":6470,"▁Ben":6471,"▁samfunn":6472,"▁tilb":6473,"▁tidspunkt":6474,"▁snakk":6475,"otter":6476,"ens":6477,"▁foreldrene":6478,"▁26.":6479,"▁A/S":6480,"▁resp":6481,"▁29.":6482,"SB":6483,"▁slippe":6484,"▁flin":6485,"jære":6486,"▁ben":6487,"▁bestemmelser":6488,"▁straff":6489,"▁minne":6490,"▁regne":6491,"person":6492,"sd":6493,"isme":6494,"hov":6495,"3).\n":6496,"7).\n":6497,"styre":6498,"▁lønn":6499,"▁400":6500,"▁regjeringen":6501,"▁service":6502,"den\n":6503,"ander":6504,"▁slekt":6505,"▁kob":6506,"▁valgte":6507,"ingar":6508,"▁nøye":6509,"dia":6510,"▁uhe":6511,"▁kapital":6512,"gelen":6513,"▁nødt":6514,"rasjoner":6515,"▁rad":6516,"▁amb":6517,"▁redusere":6518,"▁Dom":6519,"▁fortalt":6520,"▁sme":6521,"asin":6522,"delser":6523,"▁telefon":6524,"neren":6525,"▁stykke":6526,"▁95":6527,"▁slapp":6528,"stol":6529,"▁but":6530,"▁Tore":6531,"▁selge":6532,"k\n":6533,"▁Frem":6534,"isa":6535,"▁fig":6536,"▁mandag":6537,"idar":6538,"▁konkurran":6539,"▁Isra":6540,"the":6541,"aen":6542,"▁ford":6543,"▁gy":6544,"▁kjøpt":6545,"kter,":6546,"▁Ger":6547,"▁redde":6548,"▁06.00\n":6549,"▁kilome":6550,"mentet.\n":6551,"vei":6552,"▁russ":6553,"skriv":6554,"▁svi":6555,"▁Ivar":6556,"høy":6557,"▁tilgang":6558,"▁likte":6559,"▁vakker":6560,"▁been":6561,"▁håp":6562,"-H":6563,"sminister":6564,"▁såkalte":6565,"ingene.\n":6566,"▁priori":6567,"yndig":6568,"low":6569,"sk.\n":6570,"ring,":6571,"▁Jørgen":6572,"▁identi":6573,"▁P.":6574,"line":6575,"at,":6576,"▁utnytte":6577,"▁ube":6578,"▁leilig":6579,"▁radi":6580,"▁strateg":6581,"▁nevnte":6582,"▁kristen":6583,"▁Mu":6584,"legges":6585,"▁varie":6586,"▁prest":6587,"▁felt":6588,"▁Tran":6589,"▁dokument":6590,"▁held":6591,"vø":6592,"iende":6593,"▁Hele":6594,"▁Mc":6595,"▁tanken":6596,"▁nøya":6597,"▁ryggen":6598,"▁Sty":6599,"▁Tot":6600,"rine":6601,"▁bevege":6602,"lt.\n":6603,"spille":6604,"ativ":6605,"present":6606,"▁Bran":6607,"▁landets":6608,"▁revol":6609,"▁økte":6610,"▁dekket":6611,"▁evne":6612,"▁27.":6613,"vart":6614,"▁glo":6615,"▁Hadde":6616,"▁Eid":6617,"▁ovenfor":6618,"rp":6619,"12.":6620,"99":6621,"▁videregående":6622,"▁League":6623,"▁neder":6624,"▁redusert":6625,"troll":6626,"▁kjærlighet":6627,"vend":6628,"va.\n":6629,"per.\n":6630,"▁ue":6631,"▁beslut":6632,"parti":6633,"▁Maria":6634,"asjonene":6635,"▁sjøl":6636,"tali":6637,"tetet":6638,"▁illust":6639,"▁million":6640,"▁forvent":6641,"hau":6642,"iter":6643,"▁utgi":6644,"▁spill":6645,"▁sne":6646,"▁videre.\n":6647,"▁dobbelt":6648,"edie\n":6649,"der\n":6650,"fjor":6651,"▁Bir":6652,"▁beskjed":6653,"▁grund":6654,"ash":6655,"▁veit":6656,"▁intervju":6657,"▁uro":6658,"øy.\n":6659,"▁tida":6660,"▁opplæring":6661,"▁boli":6662,"▁steg":6663,"▁kjøkke":6664,"ctive":6665,"▁etterpå":6666,"vann":6667,"▁52":6668,"▁Nore":6669,"▁heim":6670,"▁Deretter":6671,"▁før,":6672,"▁enor":6673,"cc":6674,"▁meto":6675,"stor":6676,"▁sølv":6677,"▁Kle":6678,"▁L.":6679,"ER\n":6680,"▁)":6681,"ialet":6682,"▁behø":6683,"▁Vis":6684,"▁tirsdag":6685,"akt":6686,"▁nummer":6687,"▁(E":6688,"munen":6689,"▁grav":6690,"▁fritt":6691,"▁revis":6692,"arch":6693,"▁for,":6694,"▁Ann":6695,"▁2015.":6696,"▁Col":6697,"▁brit":6698,"▁This":6699,"Ve":6700,"▁Bri":6701,"▁papir":6702,"▁17.00":6703,"linjer":6704,"NING":6705,"geren":6706,"▁Sent":6707,"sku":6708,"▁Svein":6709,"hvert":6710,"▁bist":6711,"▁næring":6712,"8).\n":6713,"▁Øv":6714,"alitet":6715,"▁(j":6716,"▁also":6717,"▁skue":6718,"i-":6719,"▁im":6720,"▁innfly":6721,":30":6722,"▁dreier":6723,"lly":6724,"▁I.":6725,"▁godt.\n":6726,"▁vakt":6727,"▁befolkningen":6728,"▁Ry":6729,"▁spennende":6730,"▁trekker":6731,"▁dokumen":6732,"za":6733,"▁preget":6734,"▁garan":6735,"▁innvand":6736,"misjonen":6737,"jent":6738,"hetens":6739,"vile":6740,"▁Hansen":6741,"▁Op":6742,"▁dating":6743,"ørsmål":6744,"▁bakgrun":6745,"▁mist":6746,"▁drev":6747,"▁gratis":6748,"▁fris":6749,"rørende":6750,"▁verken":6751,"▁flykt":6752,"▁byr":6753,"▁autom":6754,"NE":6755,"▁utført":6756,"ael":6757,"arar":6758,"▁Regjeringen":6759,"▁OL":6760,"▁Klo":6761,"iør":6762,"spen":6763,"lige.\n":6764,"▁interessert":6765,"▁Begge":6766,"fyl":6767,"lings":6768,"▁import":6769,"▁enige":6770,"▁da,":6771,"▁defin":6772,"sler":6773,"▁muligheten":6774,"gikk":6775,"vekst":6776,"▁forutset":6777,"▁borger":6778,"▁ungdoms":6779,"▁Ragn":6780,"▁6,":6781,"▁(D":6782,"▁rik":6783,"▁partie":6784,"▁gjor":6785,"▁artikkel":6786,"berg.\n":6787,"▁rev":6788,"▁utgangspunktet":6789,"▁nr":6790,"oder":6791,"▁Plan":6792,"stav":6793,"bør":6794,"▁registrert":6795,"▁T.":6796,"▁normal":6797,"▁normalt":6798,"sjef":6799,"odd":6800,"▁C.":6801,"▁lave":6802,"▁absolutt":6803,"▁sykeple":6804,"▁Br":6805,"dets":6806,"mmen":6807,"▁bille":6808,"klær":6809,"jue":6810,"asjon,":6811,"uft":6812,"ield":6813,"▁prosess":6814,"fors":6815,"▁Morten":6816,"▁datter":6817,"▁ristet":6818,"▁pun":6819,"tidige":6820,"▁begynt":6821,"-s":6822,"▁leser":6823,"økonom":6824,"▁passe":6825,"bruket":6826,"▁Danmark":6827,"and.\n":6828,"▁Mich":6829,"▁materiale":6830,"▁kaste":6831,"pass":6832,"▁eval":6833,"▁frø":6834,"▁<<G":6835,"▁styret":6836,"▁innrø":6837,"▁forsvin":6838,"▁York":6839,"▁opprette":6840,"▁synd":6841,"male":6842,"▁rene":6843,"▁jakt":6844,"▁rig":6845,"la.\n":6846,"▁forsknings":6847,"▁hjør":6848,"▁endret":6849,"9).\n":6850,"▁skjønner":6851,"ween":6852,"▁Kje":6853,"▁Kongen":6854,"▁v.":6855,"▁hjelper":6856,"▁Kari":6857,"▁og.\n":6858,"▁fantes":6859,"SD":6860,"serie.\n":6861,"▁dekke":6862,"na,":6863,"ssi":6864,"▁noe,":6865,"▁ag":6866,"▁kateg":6867,"▁R.":6868,"▁religiø":6869,"▁you":6870,"▁Mi":6871,"▁Bruk":6872,"▁182":6873,"▁tilsk":6874,"bon":6875,"▁oppleve":6876,"▁bror":6877,"▁die":6878,"▁umiddel":6879,"▁Au":6880,"øy,":6881,"lag,":6882,"merket":6883,"cts":6884,"▁Gje":6885,"lat":6886,"ieren":6887,"▁Sil":6888,"gjort":6889,"▁mer.\n":6890,"arane":6891,"▁Haug":6892,"bjørn":6893,"▁retnings":6894,"▁65":6895,"▁publikum":6896,"▁Morgensending":6897,"ont":6898,"▁<<Jeg":6899,"▁?\n":6900,"ldigvis":6901,"skere":6902,"▁båt":6903,"abri":6904,"redning":6905,"lien":6906,"▁18.00":6907,"▁<<E":6908,"▁avgift":6909,"sk,":6910,"uth":6911,"▁eldste":6912,"▁Vol":6913,"▁kat":6914,"▁behandlet":6915,"55\n":6916,"▁Can":6917,"▁rike":6918,"vik.\n":6919,"▁alternativ":6920,"området":6921,"-a":6922,"▁fyller":6923,"dret":6924,"star":6925,"gerte":6926,"▁Pre":6927,"▁alkohol":6928,"▁fing":6929,"produksjon":6930,"▁røde":6931,"▁kvinnen":6932,"▁sine.\n":6933,"▁århund":6934,"▁reist":6935,"▁2\n":6936,"istisk":6937,"▁skritt":6938,"udsje":6939,"cer":6940,"nett":6941,"ur.\n":6942,"▁hvad":6943,"o\n":6944,"▁tung":6945,"-K":6946,"IF":6947,"osof":6948,"▁etablert":6949,"aten":6950,".).\n":6951,"ute":6952,"▁øker":6953,"ulerer":6954,"alde":6955,"slet":6956,"gruppen":6957,"lagte":6958,"▁institu":6959,"▁bidrar":6960,"tim":6961,"▁unntak":6962,"▁skjønte":6963,"▁inn,":6964,"sproses":6965,"lset":6966,"/e":6967,"▁klima":6968,"▁desig":6969,"cil":6970,"▁gjennomføre":6971,"▁Ras":6972,"▁nedenfor":6973,"▁litteratur":6974,"▁varia":6975,"▁vor":6976,"▁us":6977,"▁totalt":6978,"▁abo":6979,"uld":6980,"▁ske":6981,"jæ":6982,"▁(20":6983,"▁finansier":6984,"▁fornøyd":6985,"▁ør":6986,"▁FN":6987,"▁2016":6988,"▁symp":6989,"▁may":6990,"▁Bl":6991,"▁02":6992,"nr.\n":6993,"▁hindre":6994,"later":6995,"▁PÅ":6996,"▁mm":6997,"▁49":6998,"▁kreve":6999,"▁aktiv":7000,"▁nokre":7001,"▁fulle":7002,"tensi":7003,"▁fortel":7004,"▁Sh":7005,"▁klem":7006,"ig,":7007,"▁Mel":7008,"▁Fiske":7009,"▁des":7010,"sjø":7011,"orite":7012,"-20":7013,"da,":7014,"▁DN":7015,"▁fork":7016,"▁jernbane":7017,"▁dype":7018,"▁været":7019,"▁fik":7020,"▁prim":7021,",-":7022,"▁mulig.\n":7023,"▁fokus":7024,"▁Første":7025,"lått":7026,"vind":7027,"▁150":7028,"selskapet":7029,"▁utføre":7030,"skip":7031,"fot":7032,"dag.\n":7033,"▁drikke":7034,"st\n":7035,"▁reglene":7036,"▁stått":7037,"▁vidare":7038,"▁vedtatt":7039,"▁Kra":7040,"mere":7041,"splan":7042,"▁his":7043,"▁Nyheter":7044,"▁bef":7045,"▁varm":7046,"tent":7047,"▁19.00":7048,"▁felle":7049,"vendig":7050,"▁riks":7051,"▁kr\n":7052,"▁53":7053,"▁statsb":7054,"analy":7055,"▁spørsmå":7056,"▁lukket":7057,"▁perm":7058,"▁distrikt":7059,"senet":7060,"nevnte":7061,"▁seng":7062,"iker":7063,"▁bidrag":7064,"weg":7065,"▁hind":7066,"▁halvparten":7067,"ets":7068,"ta,":7069,"▁sluttet":7070,"▁opps":7071,"▁/\n":7072,"▁Dri":7073,"rinsi":7074,"▁tilsy":7075,"ii":7076,"utvalget":7077,"▁Bør":7078,"▁Einar":7079,"res,":7080,"▁kul":7081,"▁nokså":7082,"▁representerer":7083,"▁svak":7084,"ius":7085,"▁bad":7086,"▁detaljer":7087,"▁07":7088,"dent":7089,"▁tyder":7090,"▁flertall":7091,"mennene":7092,"▁latter":7093,"llem":7094,"▁99":7095,"smann":7096,"ongen":7097,"dels":7098,"▁fysisk":7099,"▁side.\n":7100,"▁partiet":7101,"▁figur":7102,"▁oppfatning":7103,"gers":7104,"▁organisasjoner":7105,"▁eks.\n":7106,"▁vari":7107,"▁var,":7108,"▁56":7109,"▁Halvor":7110,"▁oppgåver":7111,"knings":7112,"gir":7113,"▁fjerne":7114,"▁komb":7115,"▁SP":7116,"cent":7117,"▁motstand":7118,"ten\n":7119,"▁till":7120,"spoliti":7121,"o-":7122,"▁planer":7123,"EK":7124,"ular":7125,"rinn":7126,"kne":7127,"lite":7128,"▁salt":7129,".no\n":7130,"æn":7131,"▁forslaget":7132,"▁grunnen":7133,"viten":7134,"▁tilf":7135,"▁(b":7136,"▁fang":7137,"samfun":7138,"ning\n":7139,"▁Fort":7140,"jenes":7141,"▁stilte":7142,"vnet":7143,"▁bevegelse":7144,"▁grunnleggende":7145,"▁spa":7146,"▁fli":7147,"sreg":7148,"▁kron":7149,"snytt":7150,"unne":7151,"rative":7152,"▁forbud":7153,"11.":7154,"▁begrenset":7155,"▁direktør":7156,"200":7157,"▁økning":7158,"as,":7159,"▁dypt":7160,"steren":7161,"▁nærmeste":7162,"▁kvart":7163,"▁høyeste":7164,"▁huske":7165,"▁generelt":7166,"yrk":7167,"▁Norway":7168,"▁undervisning":7169,"▁emp":7170,"▁than":7171,"▁Br.\n":7172,"isjoner":7173,"-B":7174,"▁åpner":7175,"▁frisk":7176,"▁Magnus":7177,"▁(Gnr":7178,"▁foregår":7179,"ues":7180,"▁lur":7181,"▁sterkere":7182,"▁munnen":7183,"▁historien":7184,"▁ol":7185,"▁Litt":7186,"▁vakre":7187,"▁Kongs":7188,"▁falle":7189,"▁ytre":7190,"ley":7191,"▁innstilling":7192,"▁tjenester":7193,"▁forklare":7194,"rad":7195,"▁D.":7196,"famil":7197,"▁reser":7198,"▁korleis":7199,"ational":7200,"▁opphold":7201,"▁trær":7202,"▁knapt":7203,"AP":7204,"▁preste":7205,"▁Strand":7206,"▁54":7207,"stjeneste":7208,"unnet":7209,"▁Cor":7210,"▁bedt":7211,"▁^":7212,"▁behovet":7213,"felt":7214,"▁port":7215,"▁forta":7216,"▁band":7217,"▁led":7218,"viser":7219,"▁Wh":7220,"▁Rog":7221,"▁korte":7222,"tallet.\n":7223,"sor":7224,"▁Stø":7225,"duksjon":7226,"▁demon":7227,"▁formu":7228,"rering":7229,"▁innsats":7230,"raturen":7231,"andid":7232,"▁utbet":7233,"▁utvalget":7234,"▁ordin":7235,"▁perfe":7236,"▁les":7237,"▁Pres":7238,"ften.\n":7239,"▁between":7240,"▁kristne":7241,"▁milliarder":7242,"▁Cla":7243,"▁Dere":7244,"▁Barne":7245,"settelse":7246,"▁Mannen":7247,"▁uavhengig":7248,"▁Les":7249,"▁etc":7250,"plassen":7251,"▁strid":7252,"stren":7253,"stede":7254,"▁N.":7255,"øyer":7256,"▁taler":7257,"▁pedagog":7258,"ffen":7259,"▁20.00":7260,"▁danske":7261,"▁verne":7262,"▁trening":7263,"▁starter":7264,"▁Bodø":7265,"beve":7266,"iserer":7267,"▁Mos":7268,"dte":7269,"▁Mun":7270,"ikal":7271,"mati":7272,"▁svare":7273,"▁ree":7274,"▁sukse":7275,"st.":7276,"▁(C":7277,"▁Dø":7278,"gård":7279,"▁rep":7280,"▁b.":7281,"rence":7282,"▁sving":7283,"-post":7284,"▁fattig":7285,"▁fei":7286,"▁Bus":7287,"▁kjøtt":7288,"llen.\n":7289,"▁VG":7290,"▁utrolig":7291,"ight":7292,"▁Lund":7293,"ment,":7294,"or.\n":7295,"▁bordet":7296,"over,":7297,")\"\"\n":7298,"kler":7299,"▁there":7300,"pt.\n":7301,"here":7302,"▁sommeren":7303,"se\n":7304,"hus,":7305,"ré":7306,"▁Kø":7307,"▁jfr.\n":7308,"nome":7309,"▁resultatet":7310,"▁kulture":7311,"mation":7312,"▁tekniske":7313,"assa":7314,"▁nei":7315,"▁Høyre":7316,"lus":7317,"▁kamera":7318,"▁mangler":7319,"▁håret":7320,"▁Tyskland":7321,"UT":7322,"▁forskjell":7323,"▁Skog":7324,"mine":7325,"▁utsli":7326,"voll":7327,"nest":7328,"alp":7329,"▁fylt":7330,"nn.\n":7331,"ørsmålet":7332,"▁arbeid.\n":7333,"mann,":7334,"▁krev":7335,"▁spesiali":7336,"▁1950":7337,"▁©":7338,"▁tanker":7339,"velop":7340,"ssjef":7341,"tegi":7342,"35\n":7343,"▁tilbake,":7344,"▁Lind":7345,"▁lært":7346,"▁rein":7347,"fug":7348,"▁etter.\n":7349,"konto":7350,"onen.\n":7351,"▁frukt":7352,"▁innom":7353,"▁Hi":7354,"ne:\n":7355,"▁driv":7356,"▁president":7357,"▁opplyser":7358,"AK":7359,"▁løpe":7360,"▁trukket":7361,"leie":7362,"▁spesiell":7363,"▁Aften":7364,"tein":7365,"▁medle":7366,"saken":7367,"▁Ring":7368,"ditt":7369,"▁liksom":7370,"ikk.\n":7371,"▁7,":7372,"mode":7373,"▁Ky":7374,"▁vass":7375,"▁smør":7376,"▁siden,":7377,"OS":7378,"▁Aa":7379,"▁Tryg":7380,"handel":7381,"▁kunn":7382,"▁armene":7383,"merke":7384,"ndene":7385,"søk":7386,"▁høyde":7387,"▁da.\n":7388,"▁finn":7389,"venn":7390,"▁Frank":7391,"▁størst":7392,"▁jul":7393,"▁they":7394,"benhav":7395,"22":7396,"fter,":7397,"lene,":7398,"▁maskin":7399,"▁sted.\n":7400,"▁symb":7401,"ki":7402,"sset":7403,"▁igjennom":7404,"linje":7405,"▁Pris":7406,"▁plassert":7407,"▁arbeidsplas":7408,"vegen":7409,"as.\n":7410,"▁forskjellig":7411,"▁naturligvis":7412,"▁presset":7413,"▁undersøkelse":7414,"møte":7415,"fik":7416,"tte.\n":7417,"iens":7418,"▁samty":7419,"▁flott":7420,"saker":7421,"▁mik":7422,"▁Don":7423,"▁sies":7424,"65":7425,"r\n":7426,"▁jenter":7427,"▁tidleg":7428,"▁Ul":7429,"▁skikkelig":7430,"▁Hav":7431,"▁nøyaktig":7432,"sider":7433,"veis":7434,"▁Nye":7435,"▁tilnær":7436,"ful":7437,"▁hode":7438,"aste":7439,"▁halvt":7440,"▁ringe":7441,"▁komple":7442,"▁AN":7443,"▁Lan":7444,"▁ens":7445,"▁<<L":7446,"lingene":7447,"▁våpen":7448,"ller.\n":7449,"sten,":7450,"▁IV":7451,"draget":7452,"▁toppen":7453,"▁marked":7454,"▁Lag":7455,"▁foreløp":7456,"tids":7457,"▁benyttet":7458,"▁arkite":7459,"nat":7460,"▁buti":7461,"▁turen":7462,"▁blomster":7463,"▁sein":7464,"inal":7465,"▁Grat":7466,"▁midten":7467,"▁år\n":7468,"▁Fylke":7469,"▁Ab":7470,"▁<<e":7471,"▁generelle":7472,"▁starte":7473,"serne":7474,"punkter":7475,"▁gutten":7476,"▁praktiske":7477,"▁Slike":7478,"▁Matt":7479,"▁Bal":7480,"-\"\"\n":7481,"de\n":7482,"▁(I":7483,"▁treng":7484,"ordin":7485,"▁Sund":7486,"fiske":7487,"▁=\n":7488,"▁hang":7489,"▁kapas":7490,"ård":7491,"▁boken":7492,"▁\"\"\n":7493,"▁kikket":7494,"amen":7495,"▁~~~~":7496,"▁stab":7497,"ining":7498,"▁penge":7499,"▁F.":7500,"▁Jord":7501,"▁samtale":7502,"▁Emil":7503,"▁o.":7504,"▁interesser":7505,"ssam":7506,"▁Fotball":7507,"▁orien":7508,"▁forholdene":7509,"brit":7510,"kjente":7511,"▁plikt":7512,"▁foreligger":7513,"▁idé":7514,"▁fantastisk":7515,"tte,":7516,"▁1\n":7517,"▁oppford":7518,"nst":7519,"▁(s":7520,"aren":7521,"▁regnes":7522,"▁løsning":7523,"▁ras":7524,"▁kong":7525,"▁tider":7526,"retts":7527,"▁såg":7528,"iteten":7529,"▁Gene":7530,"▁åpent":7531,"go":7532,"lsett":7533,"▁oppstår":7534,"▁t.":7535,"▁livet.\n":7536,"▁drøm":7537,"-å":7538,"kun":7539,"▁intet":7540,"▁svø":7541,"▁ler":7542,"▁action":7543,"lasjoner":7544,"book":7545,"dar":7546,"lok":7547,"▁um":7548,"▁kveld.\n":7549,"kning.\n":7550,"▁Marit":7551,"holm":7552,"▁Kå":7553,"▁yngre":7554,"▁flu":7555,"gri":7556,"▁bøker":7557,"▁utelu":7558,"▁politikk":7559,"RU":7560,"per,":7561,"føringen":7562,"ums":7563,"▁Bang":7564,"ations":7565,"▁br":7566,"tiver":7567,"▁utgifter":7568,"▁Arbeiderpartiet":7569,"vensk":7570,"▁gong":7571,"▁(V":7572,"▁mum":7573,"ona":7574,"▁Stock":7575,"bran":7576,"▁forsøke":7577,"ri.\n":7578,"▁tlf":7579,"▁henger":7580,"▁tilknytning":7581,"våg":7582,"▁57":7583,"▁forretnings":7584,"▁møtet":7585,"kene.\n":7586,"pen,":7587,"▁naturen":7588,"▁vat":7589,"▁Resulta":7590,"▁anbef":7591,"hor":7592,"▁publi":7593,"lovens":7594,"▁nikket":7595,"▁konkrete":7596,"▁pengene":7597,"▁sannsynligvis":7598,"posisjon":7599,"▁(for":7600,"▁ye":7601,"▁interessant":7602,"wegian":7603,"▁fr":7604,"ittil":7605,"▁1)":7606,"▁Politiet":7607,"▁identif":7608,"førsel":7609,"▁likhet":7610,"▁Just":7611,"meter":7612,"-L":7613,"ica":7614,"▁Fer":7615,"▁tilfredsstil":7616,"▁tilstand":7617,"komme":7618,"sprogram":7619,"▁eksempler":7620,"▁kriti":7621,"try":7622,"▁<<Nei,":7623,"deres":7624,"▁forklarer":7625,"▁ære":7626,"mag":7627,"▁Å,":7628,"offer":7629,"▁Big":7630,"former":7631,"▁land,":7632,"▁personlige":7633,"▁19.30":7634,"selskap":7635,"ams":7636,"▁Kat":7637,"▁nokon":7638,"plikte":7639,"▁tunge":7640,"▁Lyn":7641,"grupper":7642,"▁omgi":7643,"▁41":7644,"nu":7645,"klo":7646,"▁foreslår":7647,"▁Hed":7648,"▁Kla":7649,"▁analyse":7650,"▁morge":7651,"▁effektiv":7652,"▁bed":7653,"▁Fal":7654,"▁Univers":7655,"▁følelse":7656,"▁Nort":7657,"hus.\n":7658,"▁traff":7659,"▁håpet":7660,"▁landsb":7661,"OK":7662,"▁Håkon":7663,"kort":7664,"landet.\n":7665,"▁utfordringer":7666,"▁formann":7667,"▁hevder":7668,"▁året.\n":7669,"▁kapit":7670,"▁stolt":7671,"▁skapt":7672,"ards":7673,"0-tallet":7674,"ENT":7675,"dene,":7676,"æret":7677,"▁anses":7678,"hn":7679,"▁skrem":7680,"▁hote":7681,"hin":7682,"▁forster":7683,"iew":7684,"▁konst":7685,"▁ledet":7686,"▁sender":7687,"▁vog":7688,"isteren":7689,"nø":7690,"30.":7691,"▁stanset":7692,"▁hender":7693,"likter":7694,"mil":7695,"▁frie":7696,"▁vises":7697,"▁berør":7698,"▁skam":7699,"▁67":7700,"▁grov":7701,"seg":7702,"▁Qu":7703,"▁mennesket":7704,"▁stilt":7705,"la,":7706,"▁benyttes":7707,"▁Prosje":7708,"▁energ":7709,"ners":7710,"▁Sar":7711,"jort":7712,"l.":7713,"sesjon":7714,"▁sats":7715,"▁økende":7716,"▁vent":7717,"▁Che":7718,"▁e.":7719,"▁forhånd":7720,"▁fungerer":7721,"▁dagen.\n":7722,"onne":7723,"▁laste":7724,"▁18.30":7725,"røndelag":7726,"▁forfer":7727,"▁meiner":7728,"▁hverandre,":7729,"▁lenger.\n":7730,"▁ting.\n":7731,"▁gate":7732,"▁85":7733,"ktivitet":7734,"ally":7735,"▁Show":7736,"▁sæ":7737,"part":7738,"do":7739,"23":7740,"▁tilgjengelig":7741,"▁peker":7742,"▁kno":7743,"or,":7744,"▁NY":7745,"▁gruppen":7746,"),\n":7747,"▁vill":7748,"▁saken.\n":7749,"▁restaur":7750,"JON":7751,"▁Rør":7752,"ørene":7753,"▁fulgt":7754,"▁test":7755,"ninga":7756,"▁skjel":7757,"▁upp":7758,"▁marker":7759,"fisk":7760,"verks":7761,"▁ned,":7762,"e.\n":7763,"mos":7764,"▁Europ":7765,"▁dikt":7766,"oer":7767,"▁Ør":7768,"marke":7769,"▁Organ":7770,"▁kilometer":7771,"AG\n":7772,"fet":7773,"▁97":7774,"▁besøke":7775,"▁fis":7776,"▁2019.":7777,"▁had":7778,"▁kontrolle":7779,"▁menneskene":7780,"▁internasjonal":7781,"▁tiden.\n":7782,"▁2015":7783,"▁jun":7784,"▁respon":7785,"▁dukket":7786,"sopp":7787,"▁super":7788,"▁hun,":7789,"E.\n":7790,"▁(0":7791,"▁bra.\n":7792,"dat":7793,"atiske":7794,"▁negative":7795,"▁Elisa":7796,"sdal":7797,"▁ordene":7798,"▁IL":7799,"▁prosent.\n":7800,"▁(15":7801,"ine,":7802,"▁hotell":7803,"nnet":7804,"nn,":7805,"▁lån":7806,"beth":7807,"verk.\n":7808,"▁posisjon":7809,"ilighet":7810,"▁21.00\n":7811,"va,":7812,"▁kjer":7813,"dømme":7814,"▁Ellen":7815,"▁ov":7816,"▁ansatt":7817,"ås":7818,"inns":7819,"▁ulik":7820,"seth":7821,"▁Hov":7822,"▁son":7823,"istene":7824,"▁minut":7825,"▁Willi":7826,"▁standard":7827,"ri,":7828,"amin":7829,"▁franske":7830,"▁kommune.\n":7831,"▁tver":7832,"▁Carl":7833,"▁Geir":7834,"▁59":7835,"▁nok.\n":7836,"▁Distrikt":7837,"▁selv.\n":7838,"SL":7839,"▁Nattsending":7840,"▁Terje":7841,"▁regner":7842,"24":7843,"okrat":7844,"▁lens":7845,"▁risiko":7846,"asjonen.\n":7847,"▁kons":7848,"▁ledd.\n":7849,"▁etasje":7850,"ine.\n":7851,"▁drar":7852,"▁regjering":7853,"cted":7854,"▁06.00":7855,"log":7856,"▁foretatt":7857,"▁tilrette":7858,"▁klage":7859,"▁maks":7860,"rape":7861,"▁avis":7862,"ma.\n":7863,"virkning":7864,"▁våren":7865,"▁deltok":7866,"▁Strøm":7867,"FT":7868,"▁innlegg":7869,"ISK":7870,"▁Storbrit":7871,"▁boka":7872,"ksen":7873,"00.":7874,"▁kyst":7875,"▁Tur":7876,"▁(O":7877,"▁179":7878,"▁fabri":7879,"▁mennene":7880,"▁erfaringer":7881,"▁bane":7882,"▁Æ":7883,"▁uts":7884,"▁inspi":7885,"▁kv":7886,"▁melding":7887,"setningen":7888,"▁Enke":7889,"▁typen":7890,"▁metode":7891,"▁Nie":7892,"▁spare":7893,"▁smu":7894,"stal":7895,"▁forfatte":7896,"▁vinne":7897,"talt":7898,"smål":7899,"▁rolig":7900,"▁Mennes":7901,"▁Hos":7902,"▁ettersom":7903,"▁rekla":7904,"▁møtt":7905,"▁supp":7906,"The":7907,"virksomhet":7908,"▁stortings":7909,"kjøp":7910,"▁gjenopp":7911,"meng":7912,"omen":7913,"▁used":7914,"jonelt":7915,"▁stoppe":7916,"ttet,":7917,"▁kone":7918,"syste":7919,"▁teknisk":7920,"▁tvers":7921,"▁lyset":7922,"▁drept":7923,"▁gas":7924,"▁some":7925,"▁korre":7926,"tede":7927,"barn":7928,"bed":7929,"▁anty":7930,"fs":7931,"▁gifte":7932,"ielt":7933,"▁kvi":7934,"▁rekru":7935,"▁elektron":7936,"▁hennes,":7937,"▁Wal":7938,"▁dru":7939,"▁press":7940,"▁hurtig":7941,"▁tabell":7942,"undt":7943,"▁kalle":7944,"▁appe":7945,"▁arbei":7946,"fullt":7947,"▁stemmen":7948,"▁sønnen":7949,"▁taus":7950,"nster":7951,"tiske":7952,"▁~~":7953,"▁hovud":7954,"▁stabil":7955,"▁kirken":7956,"▁Fle":7957,"pr":7958,"VER":7959,"▁skifte":7960,"▁fron":7961,"▁forsto":7962,"føle":7963,"▁skjønn":7964,"ligvis":7965,"▁kome":7966,"▁Hall":7967,"▁strukt":7968,"▁Aren":7969,"spør":7970,"▁hjem.\n":7971,"▁its":7972,"▁ressurser":7973,"▁administrasjon":7974,"▁stimu":7975,"brand":7976,"▁ansikt":7977,"vesenet":7978,"▁færre":7979,"▁handle":7980,"-10":7981,"▁sove":7982,"▁15.00":7983,"▁pat":7984,"▁1990":7985,"ANG":7986,"▁AL":7987,"▁veks":7988,"▁ild":7989,"/3":7990,"▁byen.\n":7991,"progra":7992,"vete":7993,"▁måned":7994,"▁Son":7995,"▁bestemmer":7996,"▁58":7997,"and,":7998,"▁nærheten":7999,"s:\n":8000,"▁forstand":8001,"▁Norwegian":8002,"▁VI":8003,"▁noget":8004,"handlingen":8005,"▁Robert":8006,"▁oppfølg":8007,"ison":8008,"ller,":8009,"▁skriv":8010,"▁professor":8011,"▁annon":8012,"olitiske":8013,"▁moral":8014,"▁Lørdag":8015,"▁kontak":8016,"▁titte":8017,"x\n":8018,"▁gut":8019,"▁danse":8020,"▁Sko":8021,"▁lede":8022,"▁gården":8023,"▁ran":8024,"▁år)":8025,"▁tungt":8026,"▁smi":8027,"▁betinge":8028,"▁Nu":8029,"▁tradisjon":8030,"▁1995":8031,"▁oppover":8032,"▁endte":8033,"▁21.00":8034,"▁gjens":8035,"▁forsvant":8036,"▁fait":8037,"▁Jor":8038,"▁Rich":8039,"▁drevet":8040,"▁armen":8041,"give":8042,"onell":8043,"▁Tar":8044,"▁66":8045,"bler":8046,"▁hemme":8047,"jøl":8048,"gress":8049,"ktøy":8050,"▁13.00":8051,"▁(6":8052,"▁tilfeldig":8053,"anda":8054,"rier":8055,"▁Kri":8056,"(e":8057,"▁sover":8058,"forstå":8059,"øst":8060,"▁rapport":8061,"stolen":8062,"▁europeiske":8063,"▁lom":8064,"▁snill":8065,"▁62":8066,"▁rut":8067,"▁rettferdig":8068,"▁10,":8069,"▁Aar":8070,"▁øre":8071,"▁stoppet":8072,"dommen":8073,"▁Kunst":8074,"▁kongen":8075,"▁produkt":8076,"▁Ski":8077,"▁omfatte":8078,"▁64":8079,"▁mulige":8080,"▁flest":8081,"fjell":8082,"▁Mark":8083,"▁miste":8084,"lam":8085,"▁dets":8086,"▁orig":8087,"▁sens":8088,"▁over,":8089,"▁manglende":8090,"hjelp":8091,"▁(og":8092,"0-å":8093,"tation":8094,"ora":8095,"▁sivil":8096,"ce,":8097,"▁bonde":8098,"ampen":8099,"wood":8100,"▁05":8101,"▁12.00":8102,"▁2017":8103,"▁pst.":8104,"▁åpenbart":8105,"▁avvik":8106,"▁grunner":8107,"▁Af":8108,"▁iso":8109,"▁tysk":8110,"▁Brø":8111,"▁bon":8112,"ppen,":8113,"talte":8114,"rop":8115,"n)":8116,"▁UT":8117,"▁ordfører":8118,"tak.\n":8119,"▁mester":8120,"pap":8121,"▁målet":8122,"▁kjøper":8123,"▁(197":8124,"▁høst":8125,"ce.\n":8126,"vak":8127,"▁EN":8128,"▁sentralt":8129,"distri":8130,"▁jub":8131,"▁misten":8132,"▁elske":8133,"▁oftest":8134,"er.\n":8135,"▁effekt":8136,"▁Indust":8137,"▁spilt":8138,"▁oppstå":8139,"▁grunnlaget":8140,"▁03":8141,"▁beløp":8142,"mennes":8143,"▁a)":8144,"▁Prem":8145,"▁opplær":8146,"l\n":8147,"▁Institu":8148,"▁eige":8149,"▁Ange":8150,"▁ånde":8151,"▁spis":8152,"▁63":8153,"gru":8154,"▁glas":8155,"▁krø":8156,"▁ringte":8157,"▁21.30":8158,"lli":8159,"nge":8160,"▁intens":8161,"//":8162,"indust":8163,"▁sjanse":8164,"ttere":8165,"ENS":8166,"▁skuld":8167,"▁Direkte.\n":8168,"imum":8169,"▁Eiendom":8170,"▁påvirke":8171,"▁tilby":8172,"il.\n":8173,"▁tilgjenge":8174,"▁ogsaa":8175,"▁ille":8176,"▁opprettet":8177,"IM":8178,"▁Syn":8179,"rende.\n":8180,"▁papp":8181,"ada":8182,"▁Mål":8183,"▁(som":8184,"vald":8185,"▁annerledes":8186,"▁svik":8187,"▁sho":8188,"olitisk":8189,"ales":8190,"▁b)":8191,"▁runde":8192,"▁On":8193,"▁blø":8194,"pe.\n":8195,"talet":8196,"▁Utvalget":8197,"▁snu":8198,"▁maa":8199,"▁Telem":8200,"▁kys":8201,"▁pasienter":8202,"▁fat":8203,"▁bnr.":8204,"▁høve":8205,"▁verdier":8206,"▁fødsel":8207,"▁betal":8208,"▁bein":8209,"▁hust":8210,"▁beregnet":8211,"▁Frie":8212,"▁England":8213,"▁skule":8214,"▁paralle":8215,"▁moder":8216,"▁8,":8217,"vang":8218,"▁helhet":8219,"▁pappa":8220,"▁kjøkken":8221,"bye":8222,"▁2018":8223,"dager":8224,"/9":8225,"▁kontrakt":8226,"▁2)":8227,"▁Kommun":8228,"▁ed":8229,"strø":8230,"▁myndigheter":8231,"▁areal":8232,"skre":8233,"IR":8234,"▁show":8235,"▁Kal":8236,"▁ER":8237,"minal":8238,"▁Søndag":8239,"▁situasjoner":8240,"▁alt.\n":8241,"▁kyrkje":8242,"likevel":8243,"▁hjertet":8244,"▁konsekvenser":8245,"▁selskaper":8246,"drene":8247,"▁mate":8248,"▁Sigur":8249,"▁læring":8250,"kket,":8251,"-200":8252,"▁tann":8253,"▁77":8254,"▁minner":8255,"kamp":8256,"▁verste":8257,"laget.\n":8258,"▁Frå":8259,"▁yte":8260,"▁male":8261,"▁Inger":8262,"▁subje":8263,"visen":8264,"▁nest":8265,"▁skru":8266,"▁natten":8267,"x.\n":8268,"belen":8269,"åp":8270,"▁Sky":8271,"▁Jose":8272,"▁mann,":8273,"▁kvinnene":8274,"strekning":8275,"▁berø":8276,"▁Sommer":8277,"▁Ze":8278,"▁vedlikehold":8279,"▁178":8280,"▁mul":8281,"tekn":8282,"▁alle.\n":8283,"sion":8284,"jul":8285,"▁befin":8286,"▁Fram":8287,"ordningen":8288,"mann.\n":8289,"▁Andersen":8290,"▁Københav":8291,"posten":8292,"▁Dram":8293,"arbeidere":8294,"▁klokka":8295,"▁Kin":8296,"ness":8297,"▁250":8298,"▁Gri":8299,"▁barnehage":8300,"▁Grunn":8301,"hr":8302,"▁into":8303,"▁fastsatt":8304,"▁ansvarlig":8305,"▁lignende":8306,"▁kombin":8307,"▁Bjer":8308,"▁Sande":8309,"▁henholdsvis":8310,"-F":8311,"▁bos":8312,"▁Barn":8313,"▁11,":8314,"▁fordeling":8315,"▁fremmed":8316,"am.\n":8317,"▁1000":8318,"00-tallet":8319,"▁tradisjonelle":8320,"▁osv.\n":8321,"inter":8322,"▁Helt":8323,"nis":8324,"▁flag":8325,"ynam":8326,"gjorde":8327,"bot":8328,"▁gjelde":8329,"asjen":8330,"▁dramat":8331,"▁Miljø":8332,"bakken":8333,"tiden.\n":8334,"▁org":8335,"▁havet":8336,"▁hom":8337,"▁utb":8338,"ustad":8339,"▁faglig":8340,"▁angrep":8341,"▁nåværende":8342,"▁samlede":8343,"bær":8344,"▁kroner,":8345,"tain":8346,"mask":8347,"▁Ib":8348,"▁Span":8349,"▁skjul":8350,"▁området.\n":8351,"mentene":8352,"▁institusjon":8353,"nene.\n":8354,"nnen":8355,"rek":8356,"▁hug":8357,"▁leste":8358,"skostna":8359,"▁våk":8360,"▁nikke":8361,"▁langsomt":8362,"▁Pol":8363,"▁Eit":8364,"skapet.\n":8365,"sprosje":8366,"▁opplevd":8367,"▁temp":8368,"▁hyggelig":8369,"er,":8370,"▁heime":8371,"stue":8372,"stod":8373,"ur,":8374,"▁pasienten":8375,"lyst":8376,"▁konsu":8377,"ikk,":8378,"-åringen":8379,"yd":8380,"▁prisen":8381,"redelse":8382,"▁(d":8383,"▁Storbritann":8384,"▁Venstre":8385,"oni":8386,"bestemme":8387,"▁totale":8388,"▁Neste":8389,"▁fysiske":8390,"▁inngår":8391,"▁utbygging":8392,"▁mal":8393,"▁Sett":8394,"▁borte.\n":8395,"▁innle":8396,"rne":8397,"▁innsat":8398,"▁Paris":8399,"vog":8400,"resp":8401,"▁forsøker":8402,"▁Od":8403,"▁human":8404,"▁selvstendig":8405,"kkede":8406,"▁kring":8407,"pend":8408,"▁vendte":8409,"▁car":8410,"▁frig":8411,"▁forvir":8412,"▁Mic":8413,"▁ul":8414,"ktisk":8415,"▁hovedsak":8416,"▁Michael":8417,"▁present":8418,"-17":8419,"▁EM":8420,"????":8421,"▁Rød":8422,"▁Fordi":8423,"▁Nasjon":8424,"▁Ellers":8425,"/1":8426,"▁mann.\n":8427,"▁begra":8428,"▁levde":8429,"-15":8430,"▁cor":8431,"▁run":8432,"▁Ofte":8433,"sad":8434,"sprogra":8435,"▁hud":8436,"▁hæ":8437,"▁låg":8438,"▁kjører":8439,"▁Pla":8440,"partementet.\n":8441,"▁nogen":8442,"▁leverand":8443,"▁■\n":8444,"▁Senter":8445,"▁overdra":8446,"▁Gun":8447,"pren":8448,"A-":8449,"rich":8450,"▁ivare":8451,"mark.\n":8452,"▁82":8453,"▁Hell":8454,"▁samarbeidet":8455,"▁plass.\n":8456,"struktur":8457,"▁mangel":8458,"▁Lok":8459,"▁strøk":8460,"▁aksjon":8461,"▁tonn":8462,"▁Nar":8463,"▁har.\n":8464,"▁forlen":8465,"vide":8466,"vange":8467,"▁fordelt":8468,"▁eventyr":8469,"▁>>\"\"\n":8470,"▁such":8471,"stere":8472,"▁overf":8473,"▁slutte":8474,"▁årene.\n":8475,"▁new":8476,"▁godt,":8477,"▁forholdsvis":8478,"▁Larsen":8479,"▁prosjekter":8480,"ced":8481,"etter":8482,"mm":8483,"▁Pas":8484,"▁sendes":8485,"▁69":8486,"riluft":8487,"▁beslu":8488,"rast":8489,"▁jente":8490,"▁Rob":8491,"▁Bolig":8492,"iert":8493,"skaffe":8494,"bus":8495,"▁opphe":8496,"dighet":8497,"▁berg":8498,"▁motiv":8499,"▁militære":8500,"▁sidan":8501,"▁avsnitt":8502,"▁positivt":8503,"skaps":8504,"▁ikke-":8505,"▁yng":8506,"steder":8507,"vanlig":8508,"▁forel":8509,"▁ord.\n":8510,"▁bærer":8511,"▁51":8512,"▁Program":8513,"▁militær":8514,"▁overord":8515,"▁Pra":8516,"▁mekan":8517,"▁overgang":8518,"▁mellem":8519,"canpi":8520,"▁jam":8521,"formen":8522,"▁sektor":8523,"▁profes":8524,"▁pasient":8525,"▁19.00\n":8526,"▁Bon":8527,"sert.\n":8528,"fatt":8529,"▁skrå":8530,"direktoratet":8531,"byrå":8532,"▁World":8533,"EN\n":8534,"▁tømmer":8535,"nytt":8536,"ålmod":8537,"▁bl.\n":8538,"▁overtok":8539,"▁Legg":8540,"▁2014.":8541,"▁eventuelle":8542,"▁Skole":8543,"▁aktuelt":8544,"felle":8545,"▁120":8546,"▁skipet":8547,"▁Tidligere":8548,"fan":8549,"▁Natur":8550,"▁brun":8551,"▁båten":8552,"▁melder":8553,"minister":8554,"▁rulle":8555,"son,":8556,"▁Svar":8557,"allfall":8558,"▁18.00\n":8559,"▁two":8560,"▁Nic":8561,"▁modell":8562,"makt":8563,"bygge":8564,"▁etablere":8565,"▁Hvilke":8566,"▁Side":8567,"▁tjene":8568,"▁låne":8569,"▁fransk":8570,"▁tide":8571,"/4":8572,"ump":8573,"uene":8574,"▁kreves":8575,"▁farlig":8576,"vurder":8577,"cebook":8578,"ila":8579,"▁Rolf":8580,"▁sitt.\n":8581,"▁©\n":8582,"▁Sof":8583,"▁Jar":8584,"stiva":8585,"▁gjøre,":8586,"▁du,":8587,"▁Lou":8588,"▁signa":8589,"▁sukker":8590,"ktøren":8591,"chen":8592,"▁PR":8593,"A.\n":8594,"▁Moe":8595,"e,":8596,"ollar":8597,"▁FR":8598,"▁(7":8599,"▁Ande":8600,"UD":8601,"▁erstatning":8602,"klart":8603,"▁Flo":8604,"▁greie":8605,"▁motsetning":8606,"cis":8607,"▁num":8608,"jente":8609,"stiden":8610,"ks.\n":8611,"▁britiske":8612,"nt,":8613,"▁nødvendigvis":8614,"▁(1)":8615,"▁nylig":8616,"lit":8617,"▁erkjen":8618,"▁strand":8619,"regi":8620,"conom":8621,"▁kona":8622,"nerne":8623,"▁undersøkelser":8624,"lim":8625,"▁Øster":8626,"▁kravet":8627,"▁holdes":8628,"▁Fag":8629,"▁Fu":8630,"▁aktive":8631,"▁begrepet":8632,"▁skolen.\n":8633,"▁utform":8634,"33":8635,"lade":8636,"▁Afri":8637,"ship":8638,"▁rettigheter":8639,"landsk":8640,"▁dia":8641,"▁offis":8642,"▁initiativ":8643,"▁yrke":8644,"▁kald":8645,"▁kjo":8646,"▁hemmelig":8647,"▁liv,":8648,"▁Fjell":8649,"▁Kommune":8650,"▁egenskaper":8651,"▁sch":8652,"▁husket":8653,"anne":8654,"▁Ås":8655,"▁hverken":8656,"▁alternative":8657,"▁Frankrike":8658,"▁kjønns":8659,"ting.\n":8660,"▁disp":8661,"proble":8662,"▁Ende":8663,"▁status":8664,"▁about":8665,"forening":8666,"skud":8667,"▁Øog":8668,"-V":8669,"▁\\":8670,"▁hvisket":8671,"▁Ri":8672,"▁She":8673,"ant.\n":8674,"▁Universitetet":8675,"▁600":8676,"datter":8677,"▁teks":8678,"▁rente":8679,"▁utenriks":8680,"rum.\n":8681,"▁Sin":8682,"▁plassen":8683,"▁Pedersen":8684,"dør":8685,"▁datte":8686,"▁eksisterende":8687,"▁verre":8688,"▁verden,":8689,"▁inde":8690,"▁<<V":8691,"▁nevnes":8692,"▁størrelse":8693,"lære":8694,"▁standar":8695,"▁perspektiv":8696,"▁Bry":8697,"▁Høg":8698,"atastro":8699,"▁virksomheten":8700,"▁smerte":8701,"snivå":8702,"Re":8703,"▁Bok":8704,"▁#":8705,"▁just":8706,"press":8707,"▁opplevelse":8708,"OD":8709,"▁Høye":8710,"▁temmelig":8711,"▁skogen":8712,"range":8713,"▁Anton":8714,"▁University":8715,"ferdsel":8716,"cus":8717,"▁bruken":8718,"▁kompli":8719,"start":8720,"▁Bæ":8721,"▁Gul":8722,"▁dialog":8723,"................................":8724,"▁historiske":8725,"▁dager.\n":8726,"▁dyp":8727,"▁lest":8728,"ksel":8729,"▁skoler":8730,"▁dame":8731,"▁spesif":8732,"▁problemet":8733,"▁stål":8734,"g\n":8735,"▁vende":8736,"▁planen":8737,"forsam":8738,"▁bevilg":8739,"tti":8740,"gjeld":8741,"sene.\n":8742,"▁overta":8743,"SE":8744,"▁måter":8745,"cup":8746,"område":8747,"▁medfører":8748,"▁68":8749,"▁systemet":8750,"▁beholde":8751,"▁garden":8752,"▁Vet":8753,"nsy":8754,"▁vondt":8755,"strid":8756,"▁produksjonen":8757,"▁boksta":8758,"▁potens":8759,"▁Hil":8760,"rus":8761,"21":8762,"UM":8763,"▁balanse":8764,"ssitu":8765,"▁behandlingen":8766,"▁avslut":8767,"▁vann.\n":8768,"▁byens":8769,"▁2005":8770,"▁betalt":8771,"▁være.\n":8772,"▁fylle":8773,"▁Lil":8774,"▁vanskelige":8775,"▁pin":8776,"m.":8777,"▁Cat":8778,"▁døg":8779,"▁ordning":8780,"▁annet.\n":8781,"muse":8782,"▁util":8783,"▁geograf":8784,"▁(J":8785,"▁Muse":8786,"▁sekret":8787,"▁use":8788,"anke":8789,"orsk":8790,"▁pul":8791,"▁Bur":8792,"▁chan":8793,"▁Fjord":8794,"▁Rosen":8795,"▁grønne":8796,"seringen":8797,"runder":8798,"aker":8799,"grø":8800,"▁93":8801,"▁fortell":8802,"▁utstrekning":8803,"▁bedriften":8804,"▁tabe":8805,"▁Mellom":8806,"systemet":8807,"▁Nes":8808,"▁pote":8809,"ited":8810,"▁Juli":8811,"▁levert":8812,"▁arm":8813,"▁Forsk":8814,"vendt":8815,"▁Fredag":8816,"strå":8817,"▁verdenskri":8818,"▁lokali":8819,"▁vitenskape":8820,"pp.\n":8821,"▁skiller":8822,"orgen":8823,"ja,":8824,"▁konflikt":8825,"▁utbygg":8826,"▁spø":8827,"▁foreslått":8828,"direktør":8829,"▁kjøret":8830,"▁Herren":8831,"setting":8832,"▁gleder":8833,"ubli":8834,"▁engasjer":8835,"▁Rasmus":8836,"▁nevne":8837,"▁bjør":8838,"vesen":8839,"▁Fy":8840,"▁177":8841,"▁hvile":8842,"▁Kristin":8843,"▁Inge":8844,"▁gon":8845,"siktig":8846,"byen":8847,"▁Finnmark":8848,"▁lavt":8849,"stjer":8850,"▁stiv":8851,"pe,":8852,"smøte":8853,"▁9,":8854,"▁representant":8855,"▁Rand":8856,"iteens":8857,"▁begrens":8858,"▁ånd":8859,"▁bringe":8860,"lefon":8861,"▁Ali":8862,"▁hensikts":8863,"sfe":8864,"▁lyse":8865,"▁inngå":8866,"▁pekte":8867,"utstyr":8868,"▁Heg":8869,"▁plast":8870,"▁<<P":8871,"▁Ekse":8872,"▁filosof":8873,"lør":8874,"▁fon":8875,"syke":8876,"▁voksen":8877,"steret":8878,"▁bank":8879,"▁Johansen":8880,"▁nådde":8881,"▁Komiteen":8882,"sloven":8883,"ged":8884,"▁domine":8885,"-kon":8886,"▁heller.\n":8887,"tlige":8888,"skraft":8889,"bruker":8890,"ir.\n":8891,"▁produkter":8892,"▁bakken":8893,"▁Kre":8894,"▁konkl":8895,"▁eksper":8896,"handler":8897,"▁Home":8898,"▁trygge":8899,"tivet":8900,"▁1992":8901,"▁Sara":8902,"▁bind":8903,"ppar":8904,"ORT":8905,"▁176":8906,"▁Simon":8907,"▁mikro":8908,"tida":8909,"▁tilhører":8910,"akk":8911,"▁vo":8912,"▁AR":8913,"ELL":8914,"▁Harry":8915,"rak":8916,"▁Marg":8917,"▁glø":8918,"▁pause":8919,"▁nordiske":8920,"▁terror":8921,"▁Dagsnytt":8922,"▁Ob":8923,"▁gass":8924,"▁Ris":8925,"▁tyde":8926,"▁klø":8927,"▁Arn":8928,"▁engelske":8929,"rappor":8930,"▁innholdet":8931,"▁genera":8932,"skab":8933,"▁løfte":8934,"▁Hit":8935,"▁Sten":8936,"ino":8937,"▁landbruks":8938,"▁adj":8939,"▁Oslo\n":8940,"▁beskriver":8941,"▁glemme":8942,"▁Utvik":8943,"▁only":8944,"▁Bestemme":8945,"▁(2)":8946,"nytter":8947,"▁liggende":8948,"▁jevn":8949,"▁konvens":8950,"▁Stati":8951,"▁Torsdag":8952,"▁NM":8953,"▁Hjer":8954,"bun":8955,"▁kritikk":8956,"▁plante":8957,"▁Ungdom":8958,"▁76":8959,"▁these":8960,"lang":8961,"▁mål.\n":8962,"nske":8963,"▁p.":8964,"▁Hvilken":8965,"uali":8966,"dition":8967,"▁landet,":8968,"▁Sun":8969,"▁transpor":8970,"▁fange":8971,"▁fö":8972,"▁brudd":8973,"▁Gå":8974,"▁min,":8975,"▁Gren":8976,"▁Norge\n":8977,"▁slan":8978,"fé":8979,"likten":8980,"▁varmt":8981,"▁foreløpig":8982,"▁72":8983,"jeg":8984,"▁Nord-N":8985,"▁advokat":8986,"▁virkning":8987,"▁alders":8988,"▁fylte":8989,"▁bestand":8990,"pper.\n":8991,"▁175":8992,"▁bra,":8993,"▁demokra":8994,"▁svin":8995,"pill":8996,"▁Pat":8997,"▁sosialt":8998,"▁Alf":8999,"iner,":9000,"▁utenlandske":9001,"▁slipper":9002,"uel":9003,"▁98":9004,"▁fantas":9005,"inerte":9006,"▁adj.\n":9007,"▁Rett":9008,"▁økonomi":9009,"▁Akers":9010,"▁konsesjon":9011,"▁representanter":9012,"rap":9013,"▁irri":9014,"▁dårlige":9015,"▁(k":9016,"],":9017,"▁Sog":9018,"▁aktivt":9019,"▁resultater":9020,"▁bade":9021,"▁godkjent":9022,"▁Port":9023,"splass":9024,"▁har,":9025,"▁Dr.":9026,"▁spec":9027,"▁kø":9028,"▁il":9029,"sleder":9030,"sektoren":9031,"▁klin":9032,"seende":9033,"▁vokste":9034,"EC":9035,"].\n":9036,"▁basis":9037,"▁vurdert":9038,"▁forutsetning":9039,"▁menings":9040,"▁fanget":9041,"uren.\n":9042,"▁LO":9043,"unds":9044,"▁NH":9045,"▁særskilt":9046,"▁Ingeborg":9047,"▁Vir":9048,"▁forståe":9049,"hard":9050,"fir":9051,"ssk":9052,"▁Hjel":9053,"▁radio":9054,"▁lærere":9055,"▁Finans":9056,"fast":9057,"▁historisk":9058,"▁fotograf":9059,"▁Tenk":9060,"plane":9061,"▁overve":9062,"hage":9063,"▁800":9064,"▁side\n":9065,"▁Råd":9066,"▁Press":9067,"▁gres":9068,"aga":9069,"▁NC":9070,"▁Rune":9071,"▁mennesker.\n":9072,"▁Rogaland":9073,"▁kjæ":9074,"▁slen":9075,"igheten":9076,"rykket":9077,"▁død.\n":9078,"▁Sj":9079,"▁78":9080,"▁tillit":9081,"▁institusjoner":9082,"▁operasjon":9083,"▁Sosi":9084,"høg":9085,"IC":9086,"▁integ":9087,"usjoner":9088,"vas":9089,"▁Særlig":9090,"▁respekt":9091,"/8":9092,"stin":9093,"▁psykisk":9094,"▁inform":9095,"hei":9096,"▁Gud,":9097,"▁sysse":9098,"kommer":9099,"sedy":9100,"▁alvorlige":9101,"▁Sov":9102,"ferds":9103,"▁Daniel":9104,"▁stede":9105,"▁Bergen.\n":9106,"▁øynene.\n":9107,"▁74":9108,"off":9109,"jenester":9110,"▁iallfall":9111,"▁avgi":9112,"▁søkte":9113,"år.\n":9114,"▁danner":9115,"fisert":9116,"▁sittende":9117,"mark,":9118,"▁frykte":9119,"▁biler":9120,"alder":9121,"▁teater":9122,"anser":9123,"▁melde":9124,"▁bortsett":9125,"los":9126,"▁skjeb":9127,":3":9128,"ningar":9129,"▁vaske":9130,"▁aksep":9131,"ol.\n":9132,"▁virkeligheten":9133,"ER.\n":9134,"▁debatt":9135,"▁da?\n":9136,"▁sin,":9137,"▁tolv":9138,"sch":9139,"▁beskrevet":9140,"▁Mac":9141,"▁nok,":9142,"S\n":9143,"A\n":9144,"fje":9145,"diet":9146,"ame":9147,"▁tidligere.\n":9148,"▁nom":9149,"▁forstyr":9150,"▁betraktet":9151,"▁fritid":9152,"▁forplikte":9153,"ndal":9154,"▁reaksjon":9155,"skor":9156,"▁kostnader":9157,"-G":9158,"▁ting,":9159,"▁sprang":9160,"▁utby":9161,"▁hevdet":9162,"tur":9163,"▁kontin":9164,"▁Lau":9165,"▁understreker":9166,"▁skyte":9167,"▁Ros":9168,"▁syv":9169,"▁forsøkt":9170,"▁Arbeids":9171,"▁Jonas":9172,"▁stikk":9173,"▁ressurs":9174,"▁hon":9175,"▁teksten":9176,"▁huset.\n":9177,"▁stjer":9178,"▁karrie":9179,"ma,":9180,"ORD":9181,"▁Senere":9182,"▁avtalen":9183,"pes":9184,"▁Hard":9185,"▁forvaltnings":9186,"▁intro":9187,"cher":9188,"▁nøy":9189,"▁hytte":9190,"▁si.\n":9191,"▁statens":9192,"▁religion":9193,"▁omstendig":9194,"▁1997":9195,"cen":9196,"▁fram.\n":9197,"kli":9198,"▁russiske":9199,"▁to.":9200,"▁mørk":9201,"▁dannet":9202,"▁kjørt":9203,"u,":9204,"▁gård":9205,"▁if":9206,"alo":9207,"▁skapte":9208,"mental":9209,"▁beslutning":9210,"▁ulov":9211,"▁skader":9212,"▁behandle":9213,"▁løsninger":9214,"28":9215,"▁medie":9216,"▁munn":9217,":4":9218,"▁inkludert":9219,"▁Interna":9220,"▁gutter":9221,"▁when":9222,"▁solen":9223,"▁Fru":9224,"ismen":9225,"▁Teg":9226,"▁retningslinjer":9227,"ud,":9228,"▁kriter":9229,"▁Nik":9230,"ker\n":9231,"▁komedie\n":9232,"tert.\n":9233,"▁hittil":9234,"▁aktiviteter":9235,"??\n":9236,"▁solgte":9237,"▁TR":9238,"▁antar":9239,"▁elsket":9240,"▁konsta":9241,"▁Dat":9242,"blad":9243,"▁Nordland":9244,"▁bri":9245,"kadem":9246,"▁egnet":9247,"▁stanse":9248,"▁Sle":9249,"▁Dis":9250,"IKK":9251,"▁trur":9252,"▁tankene":9253,"▁omfang":9254,"▁forutsetter":9255,"prp.\n":9256,"▁wor":9257,"▁hjalp":9258,"bygd":9259,"▁develop":9260,"▁dessverre":9261,"▁Små":9262,"▁kalte":9263,"ktig.\n":9264,"rommet":9265,"▁Østfold":9266,"speri":9267,"dagens":9268,"▁86":9269,"▁tog":9270,"▁Kli":9271,"▁kommunens":9272,"▁villig":9273,"▁finan":9274,"▁opplevde":9275,"sentra":9276,"▁pike":9277,"hengige":9278,"▁seie":9279,"▁lurte":9280,"id.\n":9281,"ural":9282,"▁88":9283,"▁SSSS":9284,"▁indivi":9285,":5":9286,"▁merkelig":9287,"▁Russland":9288,"mellom":9289,"▁legen":9290,"▁NT":9291,"▁prinsippet":9292,"▁Fig.\n":9293,"▁War":9294,"▁Kong":9295,"given":9296,"▁mottatt":9297,"▁<<D":9298,"gang.\n":9299,"▁overfla":9300,"▁Person":9301,"▁Vold":9302,"▁befinner":9303,"øyet":9304,"lier":9305,"▁Master":9306,".no/":9307,"OG":9308,"▁Mr.":9309,"forn":9310,"▁tunne":9311,"ose":9312,"iks":9313,"▁Gust":9314,"▁opprinnelig":9315,"bak":9316,"▁brød":9317,"▁bag":9318,"ward":9319,"▁1994":9320,"angen":9321,"▁utføres":9322,"ira":9323,"▁gave":9324,"▁1993":9325,"▁Få":9326,"▁any":9327,"xe":9328,"▁16.00":9329,"▁mengde":9330,"95":9331,"▁frivillig":9332,"▁store,":9333,"strukt":9334,"rende,":9335,"▁hjul":9336,"komst":9337,"▁opprettholde":9338,"▁{":9339,"▁entre":9340,"▁bryte":9341,"▁Lå":9342,"▁føres":9343,"▁Spørsmålet":9344,"akte":9345,"▁Leif":9346,"stall":9347,"▁stue":9348,"▁ita":9349,"▁gjere":9350,"▁Gift":9351,"▁shall":9352,"-16":9353,"▁allikevel":9354,"▁måte,":9355,"▁Felles":9356,"▁10.00":9357,"▁Sverre":9358,"▁flotte":9359,"▁faglige":9360,"▁opti":9361,"▁bort.\n":9362,"uta":9363,"▁bedre.\n":9364,"▁giftet":9365,"urnal":9366,"▁seinare":9367,"▁uen":9368,"▁Sigurd":9369,"▁2010":9370,"a-":9371,"gaard":9372,"▁jurid":9373,"oene":9374,"▁tomme":9375,"▁Gjø":9376,"▁fornuf":9377,"▁aug":9378,"▁73":9379,"▁kunstner":9380,"orier":9381,"myndig":9382,"▁hensy":9383,"▁attra":9384,"▁omtalt":9385,"foss":9386,"▁galt":9387,"▁sikkerhets":9388,"▁bered":9389,"▁bile":9390,"sielt":9391,"reguler":9392,"▁W.":9393,"▁Champ":9394,"▁gjennem":9395,"▁kok":9396,"ryte":9397,"▁Jap":9398,"▁61":9399,"▁Antall":9400,"▁vinduet":9401,"▁(t":9402,"IST":9403,"▁Åles":9404,"▁!\n":9405,"interes":9406,"▁fenome":9407,"blå":9408,"▁valget":9409,"▁forklaring":9410,"løsning":9411,"▁dagene":9412,"▁Jensen":9413,"frem":9414,"▁Verdens":9415,"ningens":9416,"arbeid.\n":9417,"26":9418,"rog":9419,"▁utenom":9420,"iseres":9421,"▁behøver":9422,"▁oppfatte":9423,"▁partene":9424,"▁hog":9425,"AB":9426,"▁Sunn":9427,"▁butikk":9428,"ari":9429,"▁Ols":9430,"▁støv":9431,"▁(c":9432,"lyn":9433,"system":9434,"snyheter":9435,"▁fattige":9436,"▁1991":9437,"▁cir":9438,"▁William":9439,"▁1999":9440,"▁rammer":9441,"habil":9442,"▁folk.\n":9443,"▁arter":9444,"kaste":9445,"▁Trump":9446,"▁eine":9447,"områder":9448,"▁pur":9449,"▁000.":9450,"▁bygnings":9451,"▁forhold.\n":9452,"nittet":9453,"▁utarbeidet":9454,"▁egg":9455,"amling":9456,"jan":9457,"▁medan":9458,"ør.\n":9459,"▁prosessen":9460,"lund":9461,"målet":9462,"▁kommunal":9463,"mert":9464,"▁etterspør":9465,"▁laga":9466,"▁trener":9467,"▁Stud":9468,"gt.\n":9469,"▁forskrift":9470,"▁amerikansk":9471,"ikere":9472,"ods":9473,"▁12,":9474,"atene":9475,"▁uri":9476,"▁spørsmål.\n":9477,"▁bit":9478,"ros":9479,"d:\n":9480,"SP":9481,"▁forlot":9482,"▁staden":9483,"▁tilfellet":9484,"▁vegne":9485,"▁sykkel":9486,"boks":9487,"▁vegen":9488,"▁Hand":9489,"jøe":9490,"▁unntatt":9491,"▁daglige":9492,"▁verdt":9493,"▁a)\n":9494,"▁tørr":9495,"▁antas":9496,"▁Lud":9497,"ia\n":9498,"onene":9499,"▁bekymret":9500,"▁peke":9501,"▁bokstav":9502,"ly,":9503,"▁henvende":9504,"fallet":9505,"ard,":9506,"▁lokalt":9507,"▁Sogn":9508,"▁oppdra":9509,"▁1996":9510,"▁spiser":9511,"verte":9512,"▁leke":9513,"▁teoret":9514,"▁myr":9515,"rafikk":9516,"▁anled":9517,"▁aspe":9518,"▁erver":9519,"kostna":9520,"vede":9521,"▁midlertidig":9522,"personer":9523,"▁ment":9524,"visst":9525,"inde":9526,":30\n":9527,"▁Lilleham":9528,"il,":9529,"▁temperatur":9530,"▁pens":9531,"▁vinteren":9532,"▁gjort.\n":9533,"ival":9534,"iner.\n":9535,"▁Nett":9536,"▁KrF":9537,"llet.\n":9538,"krig":9539,"gjørelse":9540,"EB":9541,"ksus":9542,"▁januar\n":9543,"▁EØ":9544,"▁du?\n":9545,"▁04":9546,"▁yt":9547,"see":9548,"▁årlig":9549,"ÆR":9550,"▁eksport":9551,"▁grundig":9552,"'e":9553,"olje":9554,"▁frykt":9555,"ER:\n":9556,"▁los":9557,"▁(<<":9558,"▁krefter":9559,"▁2001":9560,"▁August":9561,"dagen.\n":9562,"OMM":9563,"▁svake":9564,"▁himmel":9565,"▁ses":9566,"▁Iver":9567,"veit":9568,"ligens":9569,"▁myndighetene":9570,"▁misjon":9571,"▁1980":9572,"gården":9573,"▁bøyde":9574,"ined":9575,"▁Grøn":9576,"▁kommune,":9577,"▁she":9578,"▁fersk":9579,"▁sjøe":9580,"▁barndom":9581,"▁Søren":9582,"▁grenser":9583,"-P":9584,"blikk":9585,"▁Prin":9586,"▁alminnelig":9587,"▁svensk":9588,"▁count":9589,"▁turist":9590,"▁inf":9591,"▁markedet":9592,"▁Top":9593,"ALL":9594,"▁atom":9595,"▁konkret":9596,"huset.\n":9597,"▁forklarte":9598,"▁planlegg":9599,"▁where":9600,"▁dømt":9601,"▁Berlin":9602,"▁snur":9603,"▁ordre":9604,"▁mumlet":9605,"▁divisjon":9606,"▁taket":9607,"▁Jo,":9608,"▁inntekter":9609,"vangeli":9610,"▁smitte":9611,"▁innført":9612,"▁Møre":9613,"He":9614,"pensjon":9615,"ftig":9616,"▁sjef":9617,"▁øk":9618,"▁oppmerksomhet":9619,"▁greit":9620,"taks":9621,"▁hellige":9622,"▁drama\n":9623,"Te":9624,"▁Ingrid":9625,"▁Enkelte":9626,"▁innan":9627,"▁harde":9628,"▁hei":9629,"▁samme.\n":9630,"▁diskusjon":9631,"▁konklu":9632,"▁tallet":9633,"▁vokser":9634,"▁kret":9635,"▁tjener":9636,"▁enden":9637,"sningene":9638,"▁Figur\n":9639,"▁nyttig":9640,"▁studier":9641,"▁gjenstand":9642,"▁innflytelse":9643,"▁aksjer":9644,"▁(s.":9645,"▁nei,":9646,"gro":9647,"nets":9648,"▁takket":9649,"▁aksepte":9650,"▁talt":9651,"havet":9652,"▁Knud":9653,"▁Nilsen":9654,"▁trist":9655,"▁jev":9656,"▁1998":9657,"▁rett.\n":9658,"▁tingene":9659,"▁reality":9660,"▁døy":9661,"redit":9662,"nas":9663,"▁samtlige":9664,"▁evig":9665,"▁lige":9666,"kapital":9667,"ETT":9668,"▁gjennomføres":9669,"▁Ener":9670,"arm":9671,"▁frihet":9672,"▁nordmenn":9673,"▁West":9674,"S.\n":9675,"ralt":9676,"uring":9677,"▁Elisabeth":9678,"▁Tri":9679,"▁Unn":9680,"▁Karen":9681,"▁Ope":9682,"▁bens":9683,"▁Onsdag":9684,"▁betrakt":9685,"▁skjen":9686,"institus":9687,"▁94":9688,"▁enhet":9689,"fru":9690,"dder":9691,"▁fra.\n":9692,"▁trans":9693,"lasjonen":9694,"▁Bjar":9695,"ær.\n":9696,"▁antallet":9697,"▁real":9698,"▁dekker":9699,"it.\n":9700,"▁sympt":9701,"▁Sv":9702,"▁ettermiddag":9703,"▁avta":9704,"▁Dagens":9705,"asjoner.\n":9706,"▁liste":9707,"▁oblig":9708,"imal":9709,"▁selv,":9710,"oms":9711,"▁Erling":9712,"▁who":9713,"▁Skatte":9714,"▁84":9715,"▁tegne":9716,"▁partic":9717,"▁kni":9718,"wi":9719,"▁kull":9720,"▁verdien":9721,"matikk":9722,"/5":9723,"▁Oslo:\n":9724,"▁arbeidsmiljø":9725,"ch,":9726,"▁Hauges":9727,"▁festet":9728,"▁Kv":9729,"amb":9730,"▁priorite":9731,"▁(p":9732,"▁forurens":9733,"▁følelser":9734,"▁drifts":9735,"FF":9736,"▁rart":9737,"▁avdel":9738,"▁tjenes":9739,"▁sted,":9740,"▁KL":9741,"maskin":9742,"▁fund":9743,"▁alene.\n":9744,"▁cent":9745,"viste":9746,"▁Stre":9747,"banen":9748,"feranse":9749,"vilkår":9750,"▁Bank":9751,"▁jorden":9752,"litte":9753,"▁hage":9754,"ney":9755,"▁synlig":9756,"▁side,":9757,"▁pil":9758,"▁ledere":9759,"▁forfatter":9760,"▁Kristiansand":9761,"▁b)\n":9762,"▁hverdag":9763,"ologien":9764,"ttar":9765,"▁Foren":9766,"▁83":9767,"▁Europe":9768,"▁Johanne":9769,"▁Net":9770,"▁Gab":9771,"▁UN":9772,"▁varierer":9773,"akten":9774,"▁kommende":9775,"vene.\n":9776,"▁selger":9777,"kanten":9778,"verk,":9779,"▁raske":9780,"smyndig":9781,"▁Sha":9782,"skjø":9783,"▁MED":9784,"▁filmen":9785,"▁opprinnelige":9786,"z,":9787,"itet.\n":9788,"skudde":9789,"blo":9790,"▁Eva":9791,"brev":9792,"▁kommenta":9793,"kontor":9794,"▁legi":9795,"▁trygt":9796,"▁20.00\n":9797,"▁struktur":9798,"▁tilbyr":9799,"gede":9800,"▁sver":9801,"▁17.30":9802,"smu":9803,"skriften":9804,"▁Off":9805,"▁Los":9806,"▁bekla":9807,"øse":9808,"alene":9809,"▁eventuell":9810,"▁mark":9811,"▁hushold":9812,"▁observ":9813,"▁hesten":9814,"▁hull":9815,"sgjer":9816,"▁Nan":9817,"▁deg?\n":9818,"osten":9819,"▁likt":9820,"▁teori":9821,"▁send":9822,"▁(av":9823,"▁nervø":9824,"▁Wa":9825,"▁minutt":9826,"▁svaret":9827,"stiltak":9828,"▁asyl":9829,"▁menn.\n":9830,"▁heste":9831,"▁House":9832,"usen":9833,"kja":9834,"▁Facebook":9835,"▁pet":9836,"▁betydningen":9837,"▁vanleg":9838,"://":9839,"HET":9840,"▁arbeid,":9841,"ria":9842,"vs":9843,"▁organisasjonen":9844,"▁Kim":9845,"▁passet":9846,"VE":9847,"▁detalj":9848,"▁forholde":9849,"tid,":9850,"▁bygning":9851,"▁Fla":9852,"▁avsluttet":9853,"▁strategi":9854,"▁Kristoffer":9855,":10":9856,"▁Foss":9857,"▁kjerne":9858,"▁forlate":9859,"0-årene":9860,"▁Ble":9861,"▁favor":9862,"▁gulvet":9863,"liste":9864,"▁<<O":9865,"▁(10":9866,"knad":9867,"▁hvorvidt":9868,"kt.":9869,"~\n":9870,"drat":9871,"▁Presiden":9872,"▁resultatene":9873,"ied":9874,"ssø":9875,"▁havne":9876,"▁konsekvens":9877,"▁glade":9878,"▁belast":9879,"▁kritisk":9880,"▁starten":9881,"▁diag":9882,"▁rapporten":9883,"▁samling":9884,"▁Tiden":9885,"▁innb":9886,"årsa":9887,"▁que":9888,"passe":9889,"▁opera":9890,"▁øverste":9891,"▁Siv":9892,"▁delte":9893,"▁betaler":9894,"▁kalde":9895,"▁trygde":9896,"iro":9897,"br":9898,"/eller":9899,"ktivet":9900,"▁brøt":9901,"▁forba":9902,"▁vesle":9903,"▁formue":9904,"lagt.\n":9905,"▁barnever":9906,"ulere":9907,"stilte":9908,"bruk.\n":9909,"▁slutt.\n":9910,"statte":9911,"▁Ned":9912,"▁typisk":9913,"▁dagen,":9914,"▁kve":9915,"▁alminnelige":9916,"været":9917,"▁dus":9918,"ullet":9919,"▁grønns":9920,"▁dimens":9921,"smiddel":9922,"ason":9923,"▁Jesu":9924,"unge":9925,"▁spiste":9926,"▁poli":9927,"SI":9928,"▁gjem":9929,"pp,":9930,"nam":9931,"os.\n":9932,"▁stilles":9933,"▁bestemmelse":9934,"sep":9935,"▁planlagt":9936,"27":9937,"▁andres":9938,"▁James":9939,"▁elle":9940,"▁herr":9941,"ierne":9942,"▁Distriktsnyheter":9943,"▁Fig":9944,"▁AB":9945,"▁juni\n":9946,"▁overrasket":9947,"▁Din":9948,"▁--\n":9949,"▁Hord":9950,"▁Forsvaret":9951,"▁ord,":9952,"chn":9953,"▁anvendelse":9954,"▁industrie":9955,"▁Nok":9956,"▁kommand":9957,"▁Hør":9958,"▁would":9959,"▁bytte":9960,"▁Radi":9961,"▁forbundet":9962,"▁jenta":9963,"penger":9964,"tter.\n":9965,"▁merker":9966,"▁let":9967,"▁non":9968,"▁Gull":9969,"bedri":9970,"▁al.\n":9971,"▁metall":9972,"▁avfall":9973,"anti":9974,"▁MAR":9975,"▁behandles":9976,"▁71":9977,"▁Ang":9978,"▁prakti":9979,"▁signi":9980,"▁him":9981,"▁null":9982,"nav":9983,"▁friluft":9984,"▁feil.\n":9985,"ini":9986,"/7":9987,"▁trykket":9988,"▁anonymous@domain.com\"\"\n":9989,"ures":9990,"/6":9991,"verdige":9992,"▁jentene":9993,"▁Syke":9994,"▁tho":9995,"▁grensen":9996,"cr":9997,"ær,":9998,"role":9999,"▁ledd,":10000,"▁Kort":10001,"▁medføre":10002,"smarke":10003,"▁96":10004,"ssyste":10005,"▁Brand":10006,"tative":10007,"▁Prø":10008,"▁GR":10009,"▁skyg":10010,"▁Allerede":10011,"▁forvaltning":10012,"itten":10013,"▁Produ":10014,"nela":10015,"▁Sjå":10016,"▁Innen":10017,"▁beboe":10018,"▁bege":10019,"▁kunnet":10020,"▁Målet":10021,"▁ent":10022,"▁symbol":10023,"nert":10024,"▁Eirik":10025,"oden.\n":10026,"ing:\n":10027,"▁Marian":10028,"▁noens":10029,"▁kå":10030,"▁retur":10031,"ksy":10032,"oph":10033,"▁veien.\n":10034,"ya":10035,"kdom":10036,"øs":10037,"▁utvidet":10038,"▁kaldt":10039,"kirke":10040,"▁handlinger":10041,"▁2002":10042,"▁forbed":10043,"sborg":10044,"▁preg":10045,"▁arve":10046,"via":10047,"▁naturlige":10048,"▁lærte":10049,"▁ton":10050,"▁1985":10051,"▁brevet":10052,"kå":10053,"ommet":10054,"land\n":10055,"eth":10056,"▁veiledning":10057,"▁kru":10058,"▁-Jeg":10059,"verkse":10060,"fabri":10061,"ndre":10062,"▁Øvre":10063,"rag":10064,"▁veggen":10065,"▁TV-":10066,"senteret":10067,"▁79":10068,"støtte":10069,"▁appro":10070,"▁veier":10071,"▁samisk":10072,"▁Sven":10073,"▁negativ":10074,"ep":10075,"skraf":10076,"ighets":10077,"▁bryll":10078,"natt":10079,"▁ekstrem":10080,"▁mur":10081,"de:\n":10082,"▁Jim":10083,"▁bruk.\n":10084,"pu":10085,"29":10086,"resulta":10087,"▁leilighet":10088,"cks":10089,"▁Været":10090,"▁friske":10091,"▁Georg":10092,"▁og/eller":10093,"▁sviger":10094,"▁Musikk":10095,"▁1930":10096,"',":10097,"skatt":10098,"▁NAT":10099,"▁skøy":10100,"▁Dal":10101,"▁nektet":10102,"▁påske":10103,"ology":10104,"▁proje":10105,"ynte":10106,"▁4-":10107,"▁Amund":10108,"▁lovens":10109,"bjør":10110,"▁aa":10111,"▁mein":10112,"▁halde":10113,"▁betre":10114,"▁Neder":10115,"ÅR":10116,"represent":10117,"▁Lof":10118,"▁brenne":10119,"▁Solberg":10120,"▁Nærings":10121,"▁skiftet":10122,"▁International":10123,"▁femte":10124,"▁2014":10125,"__":10126,"▁3\n":10127,"▁programmet":10128,"▁utvide":10129,"▁glemt":10130,"um\n":10131,"▁fasts":10132,"▁Mye":10133,"▁2003":10134,"oppga":10135,"▁tegnet":10136,"▁vurderes":10137,"▁skilt":10138,"mene.\n":10139,"xt":10140,"▁generell":10141,"▁spurt":10142,"▁begrense":10143,"▁alt,":10144,"marks":10145,"▁medlemmene":10146,"▁levere":10147,"▁belø":10148,"ILL":10149,"▁Takk":10150,"▁thro":10151,"▁fjor.\n":10152,"▁Plutselig":10153,"▁klubben":10154,"▁Kåre":10155,"▁betydelige":10156,"▁påvirker":10157,"▁2004":10158,"▁holdning":10159,"▁Joe":10160,"▁fløy":10161,"▁velly":10162,"▁myndighet":10163,"▁Tøns":10164,"sfa":10165,"▁kreditt":10166,"onen,":10167,"▁bruks":10168,"gere.\n":10169,"▁subst.\n":10170,"▁htt":10171,"-C":10172,"kastet":10173,"▁Ask":10174,"▁kolon":10175,"▁årsak":10176,"▁3)":10177,"▁Pi":10178,"▁du.\n":10179,"▁line":10180,"sproble":10181,"▁Israel":10182,"00,":10183,"▁betaling":10184,"▁bisk":10185,"▁Lis":10186,"u.\n":10187,"duc":10188,"sem":10189,"pper,":10190,"▁87":10191,"Se":10192,"▁kommunen.\n":10193,"▁There":10194,"henger":10195,"▁gjera":10196,"ool":10197,"kser":10198,"▁prom":10199,"▁går.\n":10200,"selskaper":10201,"▁spy":10202,"▁kjennskap":10203,"sser":10204,"▁group":10205,"fort":10206,"▁City":10207,"▁kvalif":10208,"stes":10209,"▁should":10210,"▁Smith":10211,"tion.\n":10212,"▁gunst":10213,"▁umiddelbart":10214,"▁opphav":10215,"▁by\n":10216,"▁følelsen":10217,"▁(17":10218,"▁reduksjon":10219,"▁different":10220,"▁119":10221,"sson,":10222,"▁1920":10223,"stemm":10224,"▁samband":10225,"▁flø":10226,"▁lyder":10227,"▁dollar":10228,"▁fød":10229,"ant,":10230,"▁frivillige":10231,"▁CO":10232,"▁mister":10233,"▁Tal":10234,"▁bestemmelsene":10235,"▁relevan":10236,"▁beskrivelse":10237,"stasjon":10238,"▁kjempet":10239,"▁rime":10240,"omet":10241,"▁maten":10242,"▁registrer":10243,"▁Akkurat":10244,"Me":10245,"alys":10246,"▁uttalte":10247,"▁rot":10248,"▁fyrste":10249,"▁Nei":10250,"▁174":10251,"▁Premier":10252,"39":10253,"TT":10254,"feld":10255,"om.\n":10256,"▁knu":10257,"▁mengder":10258,"▁Real":10259,"▁Gr":10260,"ge\n":10261,"all.\n":10262,"▁Skjø":10263,"▁1989":10264,"▁konsert":10265,"▁e-post":10266,"▁korn":10267,"▁Asb":10268,"▁gangen.\n":10269,"forbundet":10270,"øre":10271,"▁studenter":10272,"▁tillatelse":10273,"▁religiøse":10274,"5)":10275,"▁dam":10276,"▁dekning":10277,"E:\n":10278,"▁instal":10279,"▁statlige":10280,"plasser":10281,"▁hjar":10282,"▁barns":10283,"mali":10284,"gin":10285,"▁Aud":10286,"▁framfor":10287,"trykk":10288,"▁åra":10289,"▁pleide":10290,"landet,":10291,"▁16.30":10292,"▁vedrørende":10293,"▁fig.\n":10294,"▁Fire":10295,"▁rollene:\n":10296,"▁beskrive":10297,"▁sjøen":10298,"▁Rol":10299,"▁høres":10300,"▁komiteen":10301,"om,":10302,"▁uni":10303,"▁Ir":10304,"▁Hammer":10305,"▁elektrisk":10306,"▁doktor":10307,"▁Ku":10308,"▁døra":10309,"▁atter":10310,"▁s\n":10311,"denes":10312,"▁samarbeide":10313,"▁organisert":10314,"▁resul":10315,"brøt":10316,"▁sengen":10317,"▁erstatte":10318,"▁møtes":10319,"▁Henry":10320,"▁Not":10321,"-R":10322,"jal":10323,"▁hovedsa":10324,"▁Lig":10325,"Be":10326,"▁major":10327,"▁Blo":10328,"▁Theory":10329,"▁henge":10330,"idig":10331,"▁bestem":10332,"fli":10333,"ped":10334,"▁automatisk":10335,"antene":10336,"kni":10337,"▁mai\n":10338,"x,":10339,"▁sper":10340,"▁minnet":10341,"▁sco":10342,"▁Gamle":10343,"nevnt":10344,"▁utdannings":10345,"▁regionale":10346,"kontoret":10347,"▁2013.":10348,"hygge":10349,"▁hyp":10350,"▁kjenneteg":10351,"▁(red":10352,"▁retter":10353,"▁herunder":10354,"▁Hum":10355,"▁period":10356,"▁søster":10357,"▁døren.\n":10358,"▁vurderer":10359,"▁arbeidsgiver":10360,"▁departe":10361,"▁herre":10362,"▁ond":10363,"veig":10364,"mør":10365,"antisk":10366,"-g":10367,"▁:":10368,"▁Eids":10369,"▁støttet":10370,"▁vedta":10371,"▁eitt":10372,"▁Vig":10373,"rane":10374,"▁manns":10375,"▁ivareta":10376,"▁seige":10377,"▁iste":10378,"▁Jern":10379,"bæ":10380,"▁Borg":10381,"▁Pål":10382,"▁mass":10383,"▁søknad":10384,"feltet":10385,"▁bygges":10386,"▁ledelsen":10387,"▁Dess":10388,"▁etterforsk":10389,"▁firma":10390,"tallet,":10391,"▁<<Ja,":10392,"▁ulykke":10393,"▁bryst":10394,"▁hest":10395,"▁Industri":10396,"hjer":10397,"▁(8":10398,"jorte":10399,"industri":10400,"▁takke":10401,"▁sun":10402,"▁danne":10403,"▁koster":10404,"bank":10405,"▁Kristen":10406,"▁NCIS":10407,"heim,":10408,"▁ganger.\n":10409,"▁student":10410,"rett,":10411,"▁Nyg":10412,"▁bistand":10413,"▁-en":10414,"ication":10415,"af":10416,"ffic":10417,"lle.\n":10418,"▁tilskudd":10419,"▁inner":10420,"▁hjem,":10421,"I.\n":10422,"▁nært":10423,"▁Rundt":10424,"▁eta":10425,"▁sekund":10426,"▁Ron":10427,"▁skole.\n":10428,"▁avde":10429,"sting":10430,"▁katastro":10431,"▁tilpasset":10432,"▁en.\n":10433,"stab":10434,"▁buss":10435,"ANN":10436,"-J":10437,"▁sok":10438,"mmede":10439,"▁smiler":10440,"-O":10441,"▁Vestfold":10442,"▁hr.":10443,"▁A\n":10444,"▁plasser":10445,"▁Even":10446,"rapport":10447,"▁bestemmelsen":10448,"▁mulighetene":10449,"▁kapasitet":10450,"materiale":10451,"▁si,":10452,"▁ref":10453,"▁varsel":10454,"▁bis":10455,"▁latt":10456,"▁stry":10457,"▁170":10458,"søkt":10459,"▁vedte":10460,"▁most":10461,"▁kraftige":10462,"forbund":10463,"▁lenge.\n":10464,"▁23.00":10465,"frue":10466,"▁dum":10467,"▁Hold":10468,"sons":10469,"▁solid":10470,"▁planlegging":10471,"▁desto":10472,"ics":10473,"▁vei.\n":10474,"▁uken":10475,"▁Jack":10476,"▁Direkte":10477,"jærlig":10478,"kontro":10479,"▁byen,":10480,"▁Bonde":10481,"▁jus":10482,"▁report":10483,"▁selskapets":10484,"▁kjær":10485,"▁antagelig":10486,"lærer":10487,"▁øl":10488,"▁beite":10489,"▁overvå":10490,"▁Pors":10491,"skal":10492,"▁Selskapet":10493,"▁Ove":10494,"▁ordningen":10495,"▁halsen":10496,"▁verktøy":10497,"-12":10498,"▁sorg":10499,"ger\n":10500,"▁11.00":10501,"▁DET":10502,"▁nysgjer":10503,"beg":10504,"▁USA.\n":10505,"▁himmelen":10506,"leng":10507,"▁sesong":10508,"BER":10509,"▁forsin":10510,"stiller":10511,"▁lykkes":10512,"▁krim":10513,"▁teknologi":10514,"▁Ark":10515,"▁kortere":10516,"▁senere.\n":10517,"▁high":10518,"▁utviklings":10519,"jempe":10520,"▁Går":10521,"▁Bren":10522,"▁1988":10523,"▁faa":10524,"▁utfordring":10525,"▁mulig,":10526,"▁etter,":10527,"▁gradvis":10528,"ative":10529,"ang,":10530,"▁studere":10531,"▁SM":10532,"▁minutter.\n":10533,"▁omsetning":10534,"få":10535,"▁sammenlignet":10536,"▁slik:\n":10537,"▁tallene":10538,"▁cm.\n":10539,"▁inten":10540,"▁Skriv":10541,"institu":10542,"▁Try":10543,"▁equ":10544,"▁skriftlig":10545,"ality":10546,"tidens":10547,"tekst":10548,"▁annan":10549,"GG":10550,"rep":10551,"▁allmenn":10552,"▁ekteskap":10553,"▁ombord":10554,"▁styring":10555,"JØ":10556,"misjon":10557,"▁Vo":10558,"▁erkl":10559,"bordet":10560,"laget,":10561,"▁musk":10562,"hørte":10563,"▁<<He":10564,"▁relevant":10565,"▁Victor":10566,"▁Skulle":10567,"▁lyden":10568,"bod":10569,"▁lengst":10570,"▁UK":10571,"▁Ran":10572,"reise":10573,"▁prøvd":10574,"▁separ":10575,"leren":10576,"▁Ki":10577,"lagene":10578,"b,":10579,"▁hvitt":10580,"sych":10581,"▁påpeker":10582,"▁synet":10583,"▁Brit":10584,"▁blad":10585,"▁uttrykket":10586,"▁utvikling.\n":10587,"▁deltar":10588,"▁indire":10589,"▁takknem":10590,"▁166":10591,"oline":10592,"▁Haa":10593,"▁bestå":10594,"▁nabo":10595,"bildet":10596,"▁hjelp.\n":10597,"▁Os":10598,"ff.\n":10599,"▁kilde":10600,"▁ivrig":10601,"▁Fi":10602,"▁Bill":10603,"▁rute":10604,"ppara":10605,"▁forekommer":10606,"▁truffet":10607,"▁klasser":10608,"▁rec":10609,"▁kalla":10610,"▁gevin":10611,"rale":10612,"leik":10613,"▁vinner":10614,"▁benytter":10615,"UND":10616,"▁støtter":10617,"HE":10618,"▁level":10619,"▁stig":10620,"▁Aas":10621,"dals":10622,"lutt":10623,"ØY":10624,"▁såkalt":10625,"▁Fir":10626,"asat":10627,"▁V.":10628,"▁ie":10629,"▁Flor":10630,"▁folk,":10631,"▁14.00":10632,"▁anerkjen":10633,"Ja,":10634,"▁(h":10635,"sending\n":10636,"▁samtykke":10637,"jev":10638,"oen.\n":10639,"▁løper":10640,"stud":10641,"basert":10642,"rur":10643,"▁sakte":10644,"▁drepe":10645,"ople":10646,"▁angår":10647,"▁tidlegare":10648,"▁arbeidet.\n":10649,"jene":10650,"▁Super":10651,"vanns":10652,"rum,":10653,"▁Half":10654,"▁(196":10655,"▁en,":10656,"▁Troms":10657,"▁stole":10658,"letter":10659,"▁tillits":10660,"▁støy":10661,"innen":10662,"▁slutter":10663,"▁kontoret":10664,"gler":10665,"nelse.\n":10666,"vekt":10667,"▁spred":10668,"givende":10669,"▁jordbruks":10670,"▁rygg":10671,"36":10672,"man,":10673,"▁fien":10674,"ften,":10675,"▁hoppet":10676,"▁fjellet":10677,"kene,":10678,"▁beund":10679,"▁forretning":10680,"▁særlige":10681,"stasjonen":10682,"▁Hove":10683,"▁Egil":10684,"▁sikret":10685,"▁foreslo":10686,"▁vara":10687,"▁(U":10688,"▁23.30":10689,"▁Sportsny":10690,"Vi":10691,"▁sakene":10692,"▁Grim":10693,"zen":10694,"▁klubbe":10695,"▁Sus":10696,"bakk":10697,"▁områdene":10698,"kvar":10699,"▁opprør":10700,"▁expe":10701,"▁eigen":10702,"▁tydeligvis":10703,"rethe":10704,"smøtet":10705,"▁kvinner.\n":10706,"A,":10707,"▁Kristus":10708,"▁Mari":10709,"▁Hånd":10710,"▁sine,":10711,"▁fremmede":10712,"▁dr.":10713,"▁personen":10714,"▁ledig":10715,"▁Holly":10716,"▁tendens":10717,"▁forskjeller":10718,"▁Rus":10719,"ivind":10720,"▁bosatt":10721,"▁cap":10722,"▁grunne":10723,"▁rase":10724,"▁KR":10725,"▁)\n":10726,"cti":10727,"ja.\n":10728,"▁Mikke":10729,"▁IT":10730,"▁Gruppe":10731,"▁fos":10732,"kring":10733,"▁Øystein":10734,"▁Sval":10735,"smidler":10736,"ligt":10737,"anerne":10738,"▁Ren":10739,"ktene.\n":10740,"▁EF":10741,"bit":10742,"▁Mandag":10743,"199":10744,"▁pal":10745,"▁mennesker,":10746,"len\n":10747,"▁1970":10748,"ord.\n":10749,"▁Star":10750,"▁Ten":10751,"▁luften":10752,"verdien":10753,"▁dyktig":10754,"▁løpende":10755,"▁Elekt":10756,"▁main":10757,"▁Brun":10758,"▁Sovjet":10759,"▁opptre":10760,"▁muligens":10761,"▁110":10762,"▁tiden,":10763,"▁bore":10764,"▁krevende":10765,"▁vaks":10766,"vakt":10767,"f,":10768,"▁litt.\n":10769,"ding":10770,"▁(til":10771,"▁flaske":10772,"▁skjøt":10773,"▁nære":10774,"▁rekrutter":10775,"øvrig":10776,"lav":10777,"▁Ass":10778,"arene":10779,"▁Kil":10780,"▁22.30":10781,"▁mog":10782,"▁20.30":10783,"-for":10784,"▁oppgitt":10785,"▁drog":10786,"kking":10787,"ff,":10788,"▁Que":10789,"ksjonene":10790,"os,":10791,"▁disip":10792,"fellen":10793,"▁fokuse":10794,"post":10795,"▁Siste":10796,"▁gled":10797,"lls":10798,"S.":10799,"▁nytt.\n":10800,"ylden":10801,"tz":10802,"sdepartementet":10803,"▁89":10804,"▁multi":10805,"vannet":10806,"▁begeist":10807,"hodet":10808,"følgende":10809,"▁nikket.\n":10810,"▁jer":10811,"▁Richard":10812,"▁sammenlik":10813,"▁strakte":10814,"▁SC":10815,"▁13,":10816,"▁sees":10817,"▁gammelt":10818,"▁debatten":10819,"▁betrakte":10820,"punktet":10821,"▁Dagen":10822,"▁Israe":10823,"▁onde":10824,"▁demokrat":10825,"ftige":10826,"▁suksess":10827,"▁tjue":10828,"▁spi":10829,"▁stifte":10830,"▁bøl":10831,"mæ":10832,"AC":10833,"▁vond":10834,"▁Christen":10835,"▁sørget":10836,"▁aktører":10837,"▁Pen":10838,"sing":10839,"▁ferdige":10840,"▁evalue":10841,"▁uven":10842,"▁fremfor":10843,"▁pluss":10844,"▁formen":10845,"▁hydro":10846,"▁historie.\n":10847,"bulan":10848,"biler":10849,"▁time.\n":10850,"▁Die":10851,"EP":10852,"lering":10853,"foreningen":10854,"hald":10855,"▁rammet":10856,"båt":10857,"▁forskjellen":10858,"san":10859,"▁reklame":10860,"ppel":10861,"▁oppfølging":10862,"▁akk":10863,"▁til:\n":10864,"▁tykke":10865,"▁populære":10866,"▁sjuke":10867,"▁gjennomføring":10868,"▁Magne":10869,"skott":10870,"▁(a":10871,"program":10872,"▁(3)":10873,"▁forandret":10874,"▁2006":10875,"▁(NTB":10876,"▁Lie":10877,"nelatende":10878,"▁overraskende":10879,"▁avgren":10880,"▁atten":10881,"helm":10882,"▁work":10883,"▁fungere":10884,"▁innrømme":10885,"▁Bergen,":10886,"lle,":10887,"boka":10888,"▁Tabell\n":10889,"▁undervisnings":10890,"▁vitne":10891,"▁særleg":10892,"pping":10893,"fjorden":10894,"kin":10895,"skritt":10896,"▁Ita":10897,"▁Endelig":10898,"lån":10899,"▁hustru":10900,"-en":10901,"tret":10902,"▁romer":10903,"gard":10904,"ross":10905,"▁betydning.\n":10906,"▁kunder":10907,"▁Kjer":10908,"▁Frp":10909,"regn":10910,"▁tlf.":10911,"▁toget":10912,"ga.\n":10913,"bygget":10914,"▁datteren":10915,"'.":10916,"▁riktignok":10917,"▁aviser":10918,"kere.\n":10919,"▁tvun":10920,"▁server":10921,"▁pent":10922,"-06":10923,"venes":10924,"▁2008":10925,"▁oppbe":10926,"▁Fos":10927,"lsetting":10928,"▁Spare":10929,"sted.\n":10930,"▁slit":10931,"▁Line":10932,"▁kostnads":10933,"▁forskrifter":10934,"id,":10935,"▁Max":10936,"▁fingrene":10937,"▁livsstil":10938,"uther":10939,"dd.\n":10940,"▁ærlig":10941,"▁ins":10942,"smode":10943,"hug":10944,"års":10945,"livet.\n":10946,"~~~~~~~~":10947,"▁mye.\n":10948,"▁generasjon":10949,"▁systematisk":10950,"bevegelsen":10951,"▁alle,":10952,"-14":10953,"▁livet,":10954,"▁mars\n":10955,"▁°C":10956,"tatte":10957,"▁jf":10958,"▁lete":10959,"▁Roy":10960,"▁lød":10961,"ang.\n":10962,"▁unød":10963,"▁velsig":10964,"▁målt":10965,"▁Nø":10966,"▁Tirsdag":10967,"▁hensiktsmessig":10968,"ch.\n":10969,"▁kryss":10970,"▁faktorer":10971,"▁ødelegge":10972,"▁årlige":10973,"▁søkt":10974,"▁budde":10975,"▁dron":10976,"sfull":10977,"▁eksperi":10978,"▁111":10979,"▁guttene":10980,"▁beha":10981,"lated":10982,"▁folketryg":10983,"kten.\n":10984,"▁pusten":10985,"skra":10986,"▁Arbeidet":10987,"▁Gjør":10988,"▁jur":10989,"▁snar":10990,"▁Drammen":10991,"ventyr":10992,"▁gym":10993,"▁(g":10994,";.\n":10995,"▁Two":10996,"▁lod":10997,"▁Bern":10998,"c.\n":10999,"▁avtaler":11000,"▁hypp":11001,"▁gjeng":11002,"▁22.00":11003,"▁urett":11004,"▁Olje":11005,"▁kas":11006,"▁fleksi":11007,"▁kniv":11008,"▁jorda":11009,"▁Holm":11010,"▁ær":11011,"▁Gud.\n":11012,"▁takt":11013,"vinne":11014,"▁hevet":11015,"▁undersøkelsen":11016,"tika":11017,"▁opptil":11018,"▁element":11019,"▁Svend":11020,"▁\"\"\"":11021,"▁Vel,":11022,"▁billig":11023,"▁ligget":11024,"▁epis":11025,"stad\n":11026,"yp":11027,"▁oppfylle":11028,"▁prp.\n":11029,"▁velkommen":11030,"▁Hordaland":11031,"æv":11032,"flo":11033,"▁sant?\n":11034,"kkens":11035,"▁Resultatet":11036,"▁underholdning":11037,"blant":11038,"▁seksjon":11039,"frie":11040,"navn":11041,"ftens":11042,"▁<<R":11043,"▁OM":11044,"▁argumen":11045,"▁dynam":11046,"▁funksjonshe":11047,"viron":11048,"▁Yor":11049,"▁skuldre":11050,"!\"\"\n":11051,"pet.\n":11052,"▁tone":11053,"▁demonst":11054,"▁heldig":11055,"▁agen":11056,"▁krise":11057,"▁skild":11058,"▁naar":11059,"▁foredrag":11060,"▁Molde":11061,"▁oppfattet":11062,"wever,":11063,"kunst":11064,"▁utslipp":11065,"▁2007":11066,"▁meas":11067,"▁Stats":11068,"iar":11069,"føreren":11070,"▁n.":11071,"▁Hagen":11072,"rd":11073,"ransport":11074,"nekker":11075,"skifte":11076,"▁argument":11077,"▁rundt.\n":11078,"ign":11079,"▁Kap.\n":11080,"▁kvinnelige":11081,"verne":11082,"▁priser":11083,"▁medlems":11084,"undes":11085,"▁passasje":11086,"▁eksk":11087,"▁Ulle":11088,"▁øyeblikket":11089,"▁hjemme.\n":11090,"▁universitet":11091,"▁dun":11092,"▁Stand":11093,"▁number":11094,"inen.\n":11095,"on\n":11096,"▁fordeler":11097,"▁Noreg":11098,"▁drømme":11099,"▁Lise":11100,"▁koste":11101,"▁14.00\n":11102,"▁kvadrat":11103,"jern":11104,"liv.\n":11105,"▁Aut":11106,"▁sagt,":11107,"▁programme":11108,"▁EL":11109,"▁Gabrie":11110,"bility":11111,"▁metoder":11112,"▁Ni":11113,"llen,":11114,"▁enklere":11115,"▁presten":11116,"▁gule":11117,"▁14,":11118,"▁bunn":11119,"mate":11120,"▁sog":11121,"▁fjø":11122,"▁Espen":11123,"▁George":11124,"▁Blom":11125,"uri":11126,"▁riktige":11127,"▁Kommunen":11128,"▁Blir":11129,"▁aren":11130,"▁peng":11131,"itz":11132,"▁hovedsakelig":11133,"▁oppført":11134,"▁<<I":11135,"▁gram":11136,"▁elles":11137,"▁april\n":11138,"▁Stavan":11139,"▁herred":11140,"▁signal":11141,"▁kulturelle":11142,"tn":11143,"▁lønnsom":11144,"utviklingen":11145,"▁betydde":11146,"nt.\n":11147,"▁utarbeide":11148,"▁nyte":11149,"ries":11150,"illa":11151,"▁after":11152,"▁anmel":11153,"▁arbeidsgi":11154,"grad":11155,"▁vesentlige":11156,"ulture":11157,"▁skrek":11158,"▁Rt.\n":11159,"▁forferdelig":11160,"▁ensom":11161,"derlig":11162,"▁Hill":11163,"▁Hilde":11164,"▁Vide":11165,"▁strengt":11166,"▁gå.\n":11167,"onert":11168,"lement":11169,"▁bundet":11170,"▁åpning":11171,"▁Hur":11172,"pel":11173,"liggen":11174,"▁fisker":11175,"▁fremgår":11176,"medis":11177,"▁narko":11178,"kårene":11179,"▁sjeld":11180,"▁mer,":11181,"▁døden":11182,"▁reduseres":11183,"▁fæ":11184,"▁leir":11185,"▁stedet.\n":11186,"ded":11187,"▁Mør":11188,"▁libe":11189,"▁Profe":11190,"▁broren":11191,"ological":11192,"hetene.\n":11193,"oppgå":11194,"▁first":11195,"▁befolkning":11196,"staden":11197,"▁Gustav":11198,"hold.\n":11199,"all,":11200,"ologi.\n":11201,"▁meta":11202,"inget.\n":11203,"prosjektet":11204,"▁handlet":11205,"▁due":11206,"stens":11207,"▁Barn:\n":11208,"37":11209,"▁distrik":11210,"▁eiendommen":11211,"▁lomme":11212,"ard.\n":11213,"▁2009":11214,"▁barnets":11215,"▁utstilling":11216,"likop":11217,"▁utred":11218,"▁interne":11219,"▁gik":11220,"sforen":11221,"bruk,":11222,"▁brede":11223,"▁know":11224,"skrifter":11225,"▁mit":11226,"jing":11227,"hjemme":11228,"smulig":11229,"▁utlandet":11230,"▁finst":11231,"▁dans":11232,"lassen":11233,"linjen":11234,"▁faktum":11235,"▁Myr":11236,"▁saken,":11237,"▁15.30":11238,"verse":11239,"▁nyn":11240,"▁Nyhetene":11241,"34":11242,"▁15,":11243,"▁well":11244,"grunnen":11245,"▁Sarp":11246,"▁Deri":11247,"▁kjøkkenet":11248,"▁Uansett":11249,"▁dansk":11250,"▁Sosial":11251,"▁stor,":11252,"▁kandid":11253,"N\n":11254,"▁Mathi":11255,"li,":11256,"▁Edvard":11257,"ister.\n":11258,"▁koke":11259,"▁befant":11260,"▁alb":11261,"lod":11262,"bes":11263,"▁Jer":11264,"jøen":11265,"banken":11266,"iest":11267,"▁øn":11268,"gge":11269,"▁Hamar":11270,"leder:\n":11271,"▁prop":11272,"▁kravene":11273,".-":11274,"▁Mitt":11275,"▁koord":11276,"ologi,":11277,"▁stund.\n":11278,"▁kommunestyret":11279,"▁tilsyn":11280,"▁bron":11281,"▁sofa":11282,"▁Romsdal":11283,"kvali":11284,"▁stress":11285,"ma\n":11286,"▁diskutere":11287,"▁statsbudsje":11288,"▁mome":11289,"▁morgen.\n":11290,"▁1987":11291,"▁kamper":11292,"▁define":11293,"▁beten":11294,"givning":11295,"▁smak":11296,"cip":11297,"▁Funn":11298,"▁kasse":11299,"je.\n":11300,"iff":11301,"▁Sv.\n":11302,"▁lovet":11303,"åt":11304,"▁gn":11305,"▁vann,":11306,"▁Bernt":11307,"▁Johns":11308,"▁Tour":11309,"▁to,":11310,"▁bildene":11311,"ublik":11312,"▁skole,":11313,"▁11.00\n":11314,"▁what":11315,"▁ryn":11316,"▁gjort,":11317,"▁frå\n":11318,"ist,":11319,"▁●":11320,"▁Egen":11321,"▁hensikt":11322,">>\n":11323,"▁Ud":11324,"▁Stol":11325,"▁skinn":11326,"▁årsaken":11327,"gyldig":11328,"Ne":11329,"spillet":11330,"ience":11331,"▁Proble":11332,"▁lente":11333,"▁tele":11334,"posisjonen":11335,"ings-":11336,"▁700":11337,"ils":11338,"▁venst":11339,"regler":11340,"▁funksjoner":11341,"▁skolen,":11342,"sund":11343,"▁utgave":11344,"itar":11345,"▁Luft":11346,"▁Lære":11347,"▁rommet.\n":11348,"▁camp":11349,"▁Kina":11350,"▁dl":11351,"▁næringsliv":11352,"▁ordentlig":11353,"▁Berit":11354,"▁din.\n":11355,"▁Brann":11356,"▁Sportsnyhetene":11357,"▁fet":11358,"▁psykiske":11359,"slig":11360,"▁mæ":11361,"▁Glo":11362,"▁angi":11363,"asjoner,":11364,"kling":11365,"▁Fan":11366,"▁idag":11367,"▁Stortingets":11368,"jefen":11369,"faren":11370,"▁lurt":11371,"reen":11372,"▁overført":11373,"▁derved":11374,"ktorer":11375,"▁regulering":11376,"▁skjule":11377,"blom":11378,"▁stjerne":11379,"▁internasjonalt":11380,"kul":11381,"gangs":11382,"▁næringslivet":11383,"departementet.\n":11384,"EN.\n":11385,"▁Bol":11386,"siktige":11387,"gjennom":11388,"▁ordinære":11389,"www":11390,"▁utgjorde":11391,"▁elektro":11392,"I\n":11393,"▁sjansen":11394,"▁individuelle":11395,"bilen":11396,"villig":11397,"▁politikere":11398,"50,":11399,"gata":11400,"▁vilt":11401,"▁dømme":11402,"▁Wer":11403,"▁lea":11404,"satt.\n":11405,"▁Dahl":11406,"▁samla":11407,"▁saue":11408,"▁Sandnes":11409,"▁Otto":11410,"skiftet":11411,"uly":11412,"▁forh":11413,"by,":11414,"politikk":11415,"▁grønn":11416,"▁Dah":11417,"▁pleier":11418,"▁Moss":11419,"▁boliger":11420,"▁vedtok":11421,"▁bygda":11422,"▁Nytt":11423,"4-":11424,"▁arkiv":11425,"▁problemene":11426,"▁Service":11427,"▁hånden.\n":11428,"▁meldte":11429,"forvalt":11430,"▁ss":11431,"tter,":11432,"▁hus.\n":11433,"▁videre,":11434,"iering":11435,"smo":11436,"▁c.":11437,"▁kom,":11438,"06.":11439,"▁sekunder":11440,"▁2011":11441,"sæ":11442,"▁virkelige":11443,"prest":11444,"▁bero":11445,"▁both":11446,"▁pø":11447,"▁andelen":11448,"▁revisjon":11449,"▁damp":11450,"▁engasjement":11451,"▁år)\n":11452,"nelse,":11453,"▁aktivite":11454,"▁frist":11455,"lymp":11456,"p://":11457,"▁ulem":11458,"gon":11459,"tical":11460,"sby":11461,"▁uttalelse":11462,"▁tomt":11463,"▁bordet.\n":11464,"▁Kr.":11465,"▁rektor":11466,"▁1975":11467,"▁sida":11468,"ogni":11469,"▁sykehuset":11470,"▁hat":11471,"/10":11472,"▁Helle":11473,"▁5\n":11474,"ks,":11475,"Le":11476,"▁Part":11477,"▁utlø":11478,"▁kostnadene":11479,"psjon":11480,"▁skuespiller":11481,"født":11482,"▁gol":11483,"85":11484,"▁Oli":11485,"▁live":11486,"ttelse":11487,"▁forplik":11488,"sa.\n":11489,"▁bemer":11490,"▁syd":11491,"▁administrative":11492,"▁Ev":11493,"▁sing":11494,"ksjon.\n":11495,"dium":11496,"▁sort":11497,"▁sei":11498,"▁AP":11499,"▁anstren":11500,"▁tilsynelatende":11501,"▁Tim":11502,"▁1986":11503,"▁besluttet":11504,"▁sosiali":11505,"ntil":11506,"▁fins":11507,"▁tatt.\n":11508,"lerte":11509,"▁uende":11510,"▁femti":11511,"▁hvorav":11512,"▁eksplo":11513,"▁Are":11514,"▁avisen":11515,"kede":11516,"▁Senterpartiet":11517,"ført.\n":11518,"▁forresten":11519,"▁penger.\n":11520,"UG":11521,"velig":11522,"slaget":11523,"▁fett":11524,"ji":11525,"gelser":11526,"▁forsv":11527,"le\n":11528,"▁foregikk":11529,"▁social":11530,"ck,":11531,"▁dukker":11532,"værelse":11533,"▁(9":11534,"jeld":11535,"▁kontinuer":11536,"▁OPP":11537,"meren":11538,"ctions":11539,"nene,":11540,"▁Amerika":11541,"otiske":11542,"▁stillinger":11543,"▁indirekte":11544,"▁Ske":11545,"dalen.\n":11546,"▁stille.\n":11547,"▁Nasjonal":11548,"▁tapt":11549,"rud,":11550,"▁tilfredsstillende":11551,"▁2012.":11552,"▁beveget":11553,"▁dommer":11554,"▁Mary":11555,"▁nedgang":11556,"▁anlegget":11557,"▁Ald":11558,"▁tidligere,":11559,"47":11560,"▁havnet":11561,"sev":11562,"▁satse":11563,"▁såpass":11564,"▁Fr":11565,"▁c)\n":11566,"▁sentrum.\n":11567,"▁Øyvind":11568,"▁Universitet":11569,"▁Arti":11570,"▁framleis":11571,"pensasjon":11572,"▁sb":11573,"▁brem":11574,"/k":11575,"▁motsatt":11576,"▁ram":11577,"▁de.\n":11578,"▁toll":11579,"kkar":11580,"▁plate":11581,"▁det!\n":11582,"▁Hotel":11583,"▁kreft":11584,"▁tår":11585,"▁påvirket":11586,"▁<<s":11587,"betal":11588,"▁American":11589,"srett":11590,"▁Dagbladet":11591,"▁Nam":11592,"▁vunnet":11593,"ituasjonen":11594,"▁ender":11595,"▁oppmun":11596,"▁2013":11597,"▁nes":11598,"T\n":11599,"ner\n":11600,"pra":11601,"▁skjønt":11602,"mede":11603,"▁navn.\n":11604,"▁utvikler":11605,"slag.\n":11606,"▁lande":11607,"prisen":11608,"▁trang":11609,"▁statsrå":11610,"ngjør":11611,"▁profil":11612,"▁..\n":11613,"▁Sentral":11614,"▁styrer":11615,"klare":11616,"▁meldt":11617,"▁tyve":11618,"▁hunden":11619,"▁halve":11620,"▁Øde":11621,"▁bekreftet":11622,"▁Wik":11623,"▁skygge":11624,"utvalg":11625,"▁ing":11626,"rigt":11627,"-re":11628,"▁seni":11629,"▁forf":11630,"▁\"\"\"\"S":11631,"▁køy":11632,"▁bekrefte":11633,"▁unnskyld":11634,"boli":11635,"avgift":11636,"ister,":11637,"▁mitt.\n":11638,"▁brutt":11639,"ale.\n":11640,"▁samvitt":11641,"▁kontroller":11642,"▁lufta":11643,"hagen":11644,"▁Isa":11645,"▁tilba":11646,"?\"\"\n":11647,"▁standpunkt":11648,"▁fornuftig":11649,"▁sank":11650,"skoler":11651,"fic":11652,"01":11653,"▁Island":11654,"ili":11655,"▁forsvare":11656,"SM":11657,"▁form.\n":11658,"▁forutsetninger":11659,"▁Arild":11660,"▁bidratt":11661,"▁fotogra":11662,"▁kines":11663,"▁perfekt":11664,"▁2012":11665,"▁humor":11666,"▁make":11667,"▁fangst":11668,"▁kysset":11669,"xic":11670,"▁døgn":11671,"▁art.\n":11672,"budsje":11673,"am,":11674,"▁drakk":11675,"▁allmen":11676,"▁forske":11677,"▁stillingen":11678,"leg.\n":11679,"▁evi":11680,"▁anden":11681,"▁Sag":11682,"▁sammenhengen":11683,"▁vil.\n":11684,"▁sikt":11685,"▁tapte":11686,"▁fel":11687,"▁91":11688,"▁sådan":11689,"førings":11690,"03.":11691,"ber,":11692,"▁skuffe":11693,"▁gripe":11694,"▁seil":11695,"alis":11696,"▁forne":11697,"ressen":11698,"stendige":11699,"lemen":11700,"▁borte,":11701,"38":11702,"itale":11703,"▁Lun":11704,"umin":11705,"ulation":11706,"▁Alexander":11707,"▁(m":11708,"scri":11709,"vester":11710,"▁drøfte":11711,"▁Hollywood":11712,"▁Bull":11713,"▁EØS-":11714,"▁virksomhet.\n":11715,"skonto":11716,"rerende":11717,"▁forbruker":11718,"▁foretas":11719,"arn":11720,"chester":11721,"ør,":11722,"▁parad":11723,"▁Olaf":11724,"▁koma":11725,"▁□":11726,"prin":11727,"▁introdu":11728,"▁BR":11729,"▁Tekn":11730,"add":11731,"▁meg?\n":11732,"▁Mob":11733,"▁nærmet":11734,"▁lykkelig":11735,"▁Telemark":11736,"riller":11737,"▁Lær":11738,"▁16,":11739,"kontroll":11740,"▁fylkeskommu":11741,"▁Spesielt":11742,"▁Pal":11743,"A.":11744,"▁testa":11745,"▁datama":11746,"▁vår.\n":11747,"▁tverr":11748,"32":11749,"▁igang":11750,"▁dip":11751,"al\n":11752,"▁1984":11753,"vt":11754,"▁lurer":11755,"▁ledende":11756,"▁plikter":11757,"▁klubb":11758,"ugge":11759,"▁utgitt":11760,"▁kvartal":11761,"▁vennlig":11762,"▁Cent":11763,"▁Gunder":11764,"gangsmå":11765,"01.":11766,"▁increa":11767,"▁Faren":11768,"kningene":11769,"▁tante":11770,"▁sjekke":11771,"▁Kapittel":11772,"kommun":11773,"▁unna.\n":11774,"▁tilstede":11775,"▁Høyeste":11776,"▁lengde":11777,"▁bekrefter":11778,"▁onkel":11779,"sel.\n":11780,"▁prinsip":11781,"ating":11782,"▁ønskelig":11783,"▁talte":11784,"▁vanskeligere":11785,"▁PC":11786,"▁bredt":11787,"terin":11788,"▁se.\n":11789,"▁kant":11790,"▁bod":11791,"▁Tren":11792,"▁juli\n":11793,"▁video":11794,"▁arv":11795,"▁term":11796,"jonen.\n":11797,"▁utle":11798,"▁Sco":11799,"▁trenings":11800,"▁fastsette":11801,"▁slik.\n":11802,"ssystem":11803,"▁triv":11804,"▁Efter":11805,"feste":11806,"▁through":11807,"▁sym":11808,"▁Ett":11809,"▁trinn":11810,"kurran":11811,"▁Astrid":11812,"▁TOR":11813,"planen":11814,"▁Kontakt":11815,"▁kommunesty":11816,"▁EU-":11817,"nden":11818,"▁spillere":11819,"yene":11820,"▁Kors":11821,"idi":11822,"▁statsminister":11823,"▁yngste":11824,"▁Ragnhild":11825,"ist.\n":11826,"vdeling":11827,"▁svømme":11828,"▁Gal":11829,"▁000,":11830,"srev":11831,"▁frem.\n":11832,"▁Time":11833,"▁92":11834,"▁kveld,":11835,"▁ute.\n":11836,"▁Skar":11837,"▁feste":11838,"ltet.\n":11839,"▁rei":11840,"▁forstått":11841,"▁huset,":11842,"▁omtale":11843,"▁butikken":11844,"▁menneskelige":11845,"▁Næ":11846,"▁130":11847,"EN:\n":11848,"reres":11849,"▁skå":11850,"▁oppsi":11851,"▁liter":11852,"amet":11853,"▁forsy":11854,"▁bedriftene":11855,"vite":11856,"▁Sandefjord":11857,"▁trom":11858,"▁inngått":11859,"iktet":11860,"▁redaktør":11861,"ringer.\n":11862,"▁linjer":11863,"▁damer":11864,"▁bakter":11865,"▁Lat":11866,"NTB":11867,"▁vedlegg":11868,"stekn":11869,"iseringen":11870,"▁angrepet":11871,"ville":11872,"▁vinden":11873,"helse":11874,"gne":11875,"IP":11876,"▁1940":11877,"ivt":11878,"▁musikken":11879,"▁viktigere":11880,"▁behov.\n":11881,"▁Nedre":11882,"▁Chris":11883,"ordninger":11884,"▁dal":11885,"▁soldater":11886,"tru":11887,"ik,":11888,"tera":11889,"KS":11890,"skrav":11891,"INN":11892,"▁Osc":11893,"▁offer":11894,"utan":11895,"▁lyn":11896,"**":11897,"▁1981":11898,"▁trene":11899,"moen":11900,"▁liden":11901,"ikat":11902,"▁Ur":11903,"▁engste":11904,"▁foten":11905,"sen:\n":11906,"ly.\n":11907,"▁Eksterne":11908,"▁morsom":11909,"▁viktig.\n":11910,"oo":11911,"▁NAV":11912,"▁aust":11913,"jener":11914,"▁angri":11915,"▁inni":11916,"▁enighet":11917,"▁Imidlertid":11918,"▁uheldig":11919,"pin":11920,"▁truleg":11921,"▁labor":11922,"spa":11923,"▁træ":11924,"mak":11925,"▁sem":11926,"▁grader":11927,"▁rykket":11928,"legen":11929,"▁Røy":11930,"▁ballen":11931,"48":11932,"▁blomst":11933,"▁kom.\n":11934,"cel":11935,"mosf":11936,"tav":11937,"▁hend":11938,"bibliote":11939,"▁krimin":11940,"uk":11941,"▁åre":11942,"skjema":11943,"ikken.\n":11944,"49":11945,"▁plass,":11946,"▁PL":11947,"kil":11948,"je,":11949,"ovasjon":11950,"▁flertallet":11951,"faler":11952,"▁overbevist":11953,"come":11954,"lsens":11955,"▁heldt":11956,"▁papi":11957,"▁mønster":11958,"▁ingenting.\n":11959,"▁deles":11960,"▁kran":11961,"▁øvre":11962,"▁skutt":11963,"splikt":11964,"▁Sna":11965,"▁model":11966,"▁2011.":11967,"naden":11968,"▁Storbritannia":11969,"byggende":11970,"▁acc":11971,"▁Trøndelag":11972,"▁presentert":11973,"▁innsikt":11974,"▁skudd":11975,"▁oversik":11976,"▁from\n":11977,"▁sint":11978,"rusa":11979,"▁Heller":11980,"▁Samme":11981,"▁vri":11982,"▁BL":11983,"mse":11984,"▁minimum":11985,"▁Tys":11986,"▁mat.\n":11987,"▁begiven":11988,"▁hellig":11989,"▁very":11990,"▁dry":11991,"▁telefonen":11992,"fang":11993,"▁Red":11994,"toko":11995,"▁innhen":11996,"pat":11997,"▁case":11998,"ette":11999,"▁hast":12000,"▁net":12001,"▁deltakelse":12002,"aria":12003,"▁nådd":12004,"urene":12005,"▁ukjent":12006,"gno":12007,"www.":12008,"▁Sverige.\n":12009,"▁føde":12010,"▁konta":12011,"▁Tol":12012,"▁mjøl":12013,"row":12014,"▁Velkommen":12015,"▁avgjørelse":12016,"▁2-":12017,"▁endel":12018,"linger.\n":12019,"▁fjern":12020,"▁mangfold":12021,"▁ringer":12022,"▁900":12023,"▁Adresse":12024,"▁overens":12025,"▁kombinasjon":12026,"▁Aur":12027,"▁bakgrunnen":12028,"avtale":12029,"▁Meg":12030,"▁Jø":12031,"▁motsatte":12032,"cep":12033,"disk":12034,"▁fellesskap":12035,"▁spørsmålene":12036,"idrett":12037,"BE":12038,"▁endelige":12039,"mers":12040,"▁Roger":12041,"iserie":12042,"▁far,":12043,"▁distrib":12044,"▁landene":12045,"▁flå":12046,"▁Akershus":12047,"jonene.\n":12048,"kretær":12049,"▁v/":12050,"▁Amerik":12051,"50.":12052,"is\n":12053,"▁innk":12054,"▁forde":12055,"▁forhandling":12056,"▁Luc":12057,"▁HV":12058,"▁medisinsk":12059,"avtalen":12060,"▁ansiktet.\n":12061,"▁enstemm":12062,"▁betalte":12063,"by.\n":12064,"▁seg\n":12065,"ady":12066,"▁samfunnet.\n":12067,"▁treffer":12068,"▁desember\n":12069,"31":12070,"▁Programleder:\n":12071,"▁morgenen":12072,"▁etable":12073,"ase":12074,"▁hus,":12075,"stemt":12076,"nna":12077,"▁AND":12078,"▁angre":12079,"▁oppgaven":12080,"▁arbeidstid":12081,"cker":12082,"▁Bot":12083,"▁imellom":12084,"▁dager,":12085,"▁seri":12086,"▁fram,":12087,"ips":12088,"▁flom":12089,"▁Mis":12090,"▁ger":12091,"▁vender":12092,"kko":12093,"laug":12094,"ad,":12095,"komne":12096,"▁termin":12097,"▁Europa.\n":12098,"▁stikke":12099,"rot":12100,"større":12101,"papir":12102,"▁Bob":12103,"▁tenkes":12104,"▁familier":12105,"▁etablerte":12106,"Gene":12107,"kere,":12108,"▁scanpi":12109,"leggelse":12110,"▁entrepren":12111,"▁ganger,":12112,"▁1978":12113,"▁Mik":12114,"▁lokalsamfun":12115,"-te":12116,"irken":12117,".no.\n":12118,"jorde":12119,"▁Ph":12120,"▁løst":12121,"behov":12122,"▁17,":12123,"▁81":12124,"▁kaster":12125,"▁bakover":12126,"▁tøy":12127,"▁embet":12128,"▁definert":12129,"▁vers":12130,"rick":12131,"05.":12132,"▁knytte":12133,"▁Wo":12134,"▁vil,":12135,"hode":12136,"ærne":12137,"▁sidene":12138,"▁kunnskaper":12139,"▁kontrollere":12140,"▁IS":12141,"funnet":12142,"▁stengt":12143,"▁Por":12144,"arbeidet.\n":12145,"OLD":12146,"kelen":12147,"▁rakte":12148,"▁drømmer":12149,"▁Ja.\n":12150,"▁bryter":12151,"▁fysi":12152,"▁samtalen":12153,"▁roman":12154,"ad.\n":12155,"▁mørkt":12156,"språk":12157,"▁Lange":12158,"▁ball":12159,"▁Vid":12160,"▁uden":12161,"▁februar\n":12162,"▁underlig":12163,"▁Organis":12164,"▁Aker":12165,"▁Styret":12166,"▁innover":12167,"inntekt":12168,"rande":12169,"▁Ama":12170,"stinget":12171,"▁Vann":12172,"rinsippet":12173,"▁miljøet":12174,"▁komité":12175,"▁trekkes":12176,"END":12177,"▁døds":12178,"▁Hennes":12179,"rate":12180,"▁tilbudet":12181,"▁Snart":12182,"▁spra":12183,"▁ekspe":12184,"▁Lyng":12185,"▁garanti":12186,"sendt":12187,"musikk":12188,"▁død,":12189,"▁revet":12190,"stole":12191,"sprogram\n":12192,"valgte":12193,"rom.\n":12194,"ser\n":12195,"▁Ville":12196,"bror":12197,"▁mat,":12198,"▁evangeli":12199,"▁flytter":12200,"▁musikal":12201,"▁drap":12202,"oma":12203,"skuddet":12204,"▁seinere":12205,"▁skjult":12206,"▁underteg":12207,"litt":12208,"▁arrangert":12209,"▁kysten":12210,"▁Full":12211,"▁Fem":12212,"ilde:\n":12213,"innas":12214,"▁tips":12215,"▁May":12216,"oes":12217,"sert,":12218,"▁last":12219,"▁<<C":12220,"▁Tør":12221,"▁brystet":12222,"▁Dor":12223,"/12":12224,"▁deres.\n":12225,"ressur":12226,"▁september\n":12227,"▁bestefar":12228,"mmeret":12229,"▁trenge":12230,"cle":12231,"▁trafik":12232,"▁1,5":12233,"bøker":12234,"▁(eller":12235,"serende":12236,"▁troe":12237,"▁Medlem":12238,"▁Trondheim.\n":12239,"▁relasjon":12240,"▁S\n":12241,"skjær":12242,"▁Blå":12243,"▁You":12244,"sikring":12245,"▁forsikring":12246,"fel":12247,"sammen":12248,"baserte":12249,"▁Tob":12250,"▁hær":12251,"▁could":12252,"▁*(e":12253,"lett":12254,"▁United":12255,"▁Imp":12256,"▁Journal":12257,"▁pleie":12258,"▁Skjer":12259,"▁Funniest":12260,"▁Adam":12261,"▁tit":12262,"▁trodd":12263,"▁artikkelen":12264,"▁demokrati":12265,"▁fiskeri":12266,"▁fremtiden":12267,"▁melke":12268,"out":12269,"▁uttalt":12270,"▁fisken":12271,"▁deilig":12272,"▁klassen":12273,"huset,":12274,"▁Alta":12275,"▁frokost":12276,"8)\n":12277,"▁Mrs":12278,"▁vinte":12279,"▁Asbjørn":12280,"▁Bud":12281,"▁kanten":12282,"▁Økonom":12283,"▁brått":12284,"▁hjemmel":12285,"▁året,":12286,"proses":12287,"▁Halv":12288,"hun":12289,"▁karak":12290,"Den":12291,"istens":12292,"▁Mode":12293,"▁Grand":12294,"▁kroppen.\n":12295,"▁lunsj":12296,"▁styg":12297,"▁ennå.\n":12298,"▁How":12299,"pere":12300,"▁opplysning":12301,"▁1977":12302,"▁søvn":12303,"▁our":12304,"▁Camp":12305,"▁FRA":12306,"smessig":12307,"▁resol":12308,"▁Rese":12309,"▁Justis":12310,"▁utfører":12311,"▁(11":12312,"▁rettig":12313,"▁rydde":12314,"skole.\n":12315,"▁1-":12316,"▁Steinar":12317,"varte":12318,"▁esti":12319,"doku":12320,"▁psykiat":12321,"▁punktum":12322,"▁krigs":12323,"▁Friends":12324,"▁<<Er":12325,"▁dømes":12326,"▁Kur":12327,"lid":12328,"overn":12329,"▁tilpasse":12330,"▁forsikrings":12331,"perspe":12332,"▁Bygg":12333,"▁sak.\n":12334,"▁greide":12335,"hallen":12336,"t:\n":12337,"▁gjenta":12338,"▁Lys":12339,"skapet,":12340,"▁NATO":12341,"▁Bas":12342,"▁nedbør":12343,"▁Voss":12344,"▁difor":12345,"us\n":12346,"▁tildelt":12347,"▁navn,":12348,"▁kos":12349,"▁vanskeleg":12350,"▁contro":12351,"▁nedre":12352,"▁che":12353,"▁Ala":12354,"▁Jean":12355,"▁elektriske":12356,"data":12357,"▁Kjetil":12358,"▁Birke":12359,"▁drives":12360,"T:\n":12361,"▁bølge":12362,"▁bygging":12363,"▁vokse":12364,"llet,":12365,"▁col":12366,"▁Sir":12367,"▁true":12368,"iska":12369,"norsk":12370,"▁bredde":12371,"▁Utdan":12372,"▁Handel":12373,"▁//":12374,"▁mye,":12375,"▁svakt":12376,"▁uke.\n":12377,"serings":12378,"FOR":12379,"▁materialet":12380,"▁lyste":12381,"▁pist":12382,"alisering":12383,"komiteen":12384,"tion,":12385,"stivalen":12386,"▁øyne.\n":12387,"▁1976":12388,"▁1979":12389,"▁trett":12390,"▁talen":12391,"vner":12392,"▁Fest":12393,"▁Gratulerer":12394,"▁rakk":12395,"▁stolen":12396,"▁nødvendig.\n":12397,"▁statistikk":12398,"▁14.30":12399,"▁far.\n":12400,"▁nytta":12401,"at\n":12402,"tier":12403,"▁engasjert":12404,"rusalem":12405,"produksjonen":12406,"▁gyldig":12407,"▁information":12408,"▁våknet":12409,"▁Hjemme":12410,"▁smal":12411,"▁forhandlinger":12412,"▁revi":12413,"▁hendte":12414,"▁kall":12415,"▁november\n":12416,"lasse":12417,"▁oktober\n":12418,"▁_":12419,"ridge":12420,"46":12421,"▁tynne":12422,"'t":12423,"▁hjerne":12424,"▁pårørende":12425,"▁jap":12426,"▁Røde":12427,"loven.\n":12428,"▁faktiske":12429,"lyse":12430,"arbeid,":12431,"▁dyb":12432,"▁rehabil":12433,"▁1983":12434,"▁Saken":12435,"▁blanding":12436,"skade":12437,"utdanning":12438,"vær.\n":12439,"▁Telefon":12440,"▁faktor":12441,"▁tidspunktet":12442,"▁forval":12443,"▁tvi":12444,"agraf":12445,"▁Ludvig":12446,"ashing":12447,"oret.\n":12448,"▁lytte":12449,"skur":12450,"▁rett,":12451,"▁menneskerett":12452,"▁(om":12453,"ago":12454,"ik.\n":12455,"▁forkyn":12456,"19.":12457,"▁kapitlet":12458,"isky":12459,"▁infl":12460,"▁litt,":12461,"øv":12462,"▁VII":12463,"heim.\n":12464,"▁jobb.\n":12465,"velsene":12466,"cept":12467,"▁Genere":12468,"stilling.\n":12469,"▁nysgjerrig":12470,"▁oppgjør":12471,"▁Livet":12472,"gare":12473,"▁1982":12474,"▁Mod":12475,"▁cons":12476,"▁mine.\n":12477,"opplys":12478,"▁se,":12479,"conomic":12480,"▁Interne":12481,"▁kledd":12482,"▁advok":12483,"ated":12484,"rømte":12485,"▁d'":12486,"▁senere,":12487,"▁follow":12488,"ASS":12489,"▁materia":12490,"▁tju":12491,"▁oppgi":12492,"k.":12493,"▁anbefal":12494,"▁eide":12495,"▁innbyggere":12496,"▁Stockholm":12497,"▁Gru":12498,"tri":12499,"stati":12500,"▁Kjen":12501,"▁kval":12502,"▁mål,":12503,"▁Finland":12504,"▁foreslås":12505,"▁overføres":12506,"▁http://":12507,"▁tørket":12508,"▁Miss":12509,"LER":12510,"▁dokumenter":12511,"▁12.00\n":12512,"▁skjønne":12513,"▁2010.":12514,"▁yd":12515,"▁Jud":12516,"delta":12517,"▁byer":12518,"rekke":12519,"▁(med":12520,"▁røyk":12521,"▁minu":12522,"▁Øver":12523,"gam":12524,"kenes":12525,"▁Totalt":12526,"▁E\n":12527,"▁menneskelig":12528,"issen":12529,"▁oksy":12530,"ocia":12531,"▁styrings":12532,"▁elve":12533,"øe":12534,"▁aff":12535,"▁Ålesund":12536,"arme":12537,"reis":12538,"▁Kveld":12539,"▁fylket":12540,"▁inkl":12541,"iko":12542,"▁tilbe":12543,"▁Eide":12544,"▁181":12545,"resjon":12546,"▁stasjon":12547,"rei":12548,"▁m.v.":12549,"▁Foto:\n":12550,"son.\n":12551,"▁bevare":12552,"▁General":12553,"▁1974":12554,"▁lør":12555,"▁sittet":12556,"▁rest":12557,"▁arbeidsle":12558,"▁Jos":12559,"▁Moren":12560,"▁Lillehammer":12561,"▁tekni":12562,"▁huden":12563,"▁bodd":12564,"▁foster":12565,"nsik":12566,"medlemmer":12567,"▁virkemidler":12568,"▁gøy":12569,"skillig":12570,"▁Dyre":12571,"▁skolens":12572,"▁ordnet":12573,"▁ryt":12574,"▁ha.\n":12575,"itali":12576,"▁hoppe":12577,"▁Fylkesmannen":12578,"▁innføre":12579,"▁Mjø":12580,"▁dårligere":12581,"sministeren":12582,"▁pant":12583,"ilsynet":12584,"alth":12585,"▁beskyttelse":12586,">>-":12587,"▁Data":12588,"▁KON":12589,"▁Engel":12590,"inering":12591,"fting":12592,"▁*(en)":12593,"sjå":12594,"▁oppos":12595,"nsp":12596,"▁each":12597,"▁overføring":12598,"▁bly":12599,"198":12600,"▁eleg":12601,"innasnekker":12602,"dommer":12603,"▁finger":12604,"▁Itali":12605,"▁hjemmet":12606,"anna":12607,"▁bøkene":12608,"kkert":12609,"O\n":12610,"ét":12611,"▁Kristine":12612,"-tre":12613,"nnes":12614,"▁teik":12615,"organisasjon":12616,"gjøring":12617,"▁Tror":12618,"shistor":12619,"tekt":12620,"▁strekker":12621,"▁feltet":12622,"arden":12623,"▁enorme":12624,"▁skuldrene":12625,"▁ET":12626,"kontra":12627,"▁Doku":12628,"▁Derimot":12629,"▁Helene":12630,"▁truet":12631,"▁stran":12632,"▁jubile":12633,"▁opph":12634,"▁Las":12635,"▁Has":12636,"▁trafi":12637,"ritt":12638,"▁20,":12639,"▁child":12640,"▁mottar":12641,"▁fremhe":12642,"▁lærar":12643,"▁århundre":12644,"▁vegg":12645,"jus":12646,"▁understreke":12647,"▁konfir":12648,"▁Sex":12649,"▁handels":12650,"▁Stord":12651,"▁krem":12652,"båten":12653,"▁Reise":12654,"▁Idrett":12655,"skj":12656,"xi":12657,"▁trin":12658,"bergs":12659,"▁utelukkende":12660,"5).\n":12661,"▁Fylkes":12662,"▁mai.\n":12663,"oten":12664,"▁gjeste":12665,"reda":12666,"▁sått":12667,"▁strenge":12668,"▁Dig":12669,"▁Julie":12670,"▁språket":12671,"▁frede":12672,"▁Sid":12673,"▁oppvar":12674,"▁Abra":12675,"▁sec":12676,"▁celle":12677,"▁pakke":12678,"ce\n":12679,"▁kaptein":12680,"▁dekk":12681,"mperatur":12682,"▁lek":12683,"▁tvin":12684,"▁Alv":12685,"▁gjester":12686,"år,":12687,"▁tilsier":12688,"▁<<det":12689,"▁politikerne":12690,"▁stemme.\n":12691,"▁them":12692,"▁læreren":12693,"▁meth":12694,"▁prinsipp":12695,"▁stolte":12696,"▁garde":12697,"▁harmon":12698,"▁List":12699,"▁være,":12700,"▁Stato":12701,"▁kule":12702,"andina":12703,"▁kjøle":12704,"ink":12705,"rde":12706,"rafikken":12707,"ation.\n":12708,"▁Ac":12709,"oto":12710,"▁fornær":12711,"OB":12712,"▁revolusjon":12713,"▁identitet":12714,"▁modellen":12715,"▁investering":12716,"sted,":12717,"▁Ane":12718,"▁App":12719,"▁svar.\n":12720,"▁effektivt":12721,"instru":12722,"ssystemet":12723,"▁avslør":12724,"fatter":12725,"▁kvarand":12726,"▁utgiftene":12727,"▁vekke":12728,"▁iverkse":12729,"▁Isak":12730,"▁kontant":12731,"▁1960":12732,"▁dags":12733,"▁hopp":12734,"▁utsikt":12735,"▁design":12736,"▁diagno":12737,"regist":12738,"▁1.\n":12739,"retningen":12740,"▁investeringer":12741,"▁Drø":12742,"44":12743,"▁bene":12744,"▁lenger,":12745,"▁helg":12746,"▁material":12747,"▁fremste":12748,"ERS":12749,"▁ja.\n":12750,"▁reaksjoner":12751,"▁banket":12752,"▁Middel":12753,"▁greier":12754,"▁bortover":12755,"▁trer":12756,"vis.\n":12757,"▁mnd":12758,"▁DAG":12759,"▁erklær":12760,"▁øya":12761,"onens":12762,"urg":12763,"▁forberede":12764,"tial":12765,"▁Valg":12766,"▁utslag":12767,"▁Sarpsborg":12768,"▁billed":12769,"▁forhold,":12770,"▁årene,":12771,"ting,":12772,"▁kostnad":12773,"▁platt":12774,"holdes":12775,"▁flink":12776,"▁1969":12777,"▁18,":12778,"▁Len":12779,"▁tøffe":12780,"ierte":12781,"▁infra":12782,"▁Landbruks":12783,"▁old":12784,"▁Syd":12785,"▁<<The":12786,"▁nevner":12787,"▁Fun":12788,"▁160":12789,"▁tålmod":12790,".)":12791,"▁holdninger":12792,"2)\n":12793,"rett.\n":12794,"▁magen":12795,"▁tilsvarer":12796,"▁research":12797,"▁Dar":12798,"▁1973":12799,"▁studentene":12800,"▁Black":12801,"▁høyst":12802,"AF":12803,"▁inneholde":12804,"500":12805,"ferie":12806,"▁hau":12807,"▁Frode":12808,"stykke":12809,"JE":12810,"▁reagerer":12811,"▁avvi":12812,"▁apote":12813,"▁forutsatt":12814,"▁cur":12815,"▁Hanna":12816,"▁forny":12817,"▁beina":12818,"▁Cecil":12819,"▁kulturmin":12820,"atur":12821,"▁lat":12822,"▁mørket":12823,"knader":12824,"▁must":12825,"▁sesongen":12826,"▁august\n":12827,"▁Jerusalem":12828,"▁heil":12829,"▁spenning":12830,"▁veder":12831,"geir":12832,"▁Rome":12833,"▁bena":12834,"▁kjønn":12835,"spartiet":12836,"▁elva":12837,"very":12838,"▁<<Hva":12839,"▁permane":12840,"▁forårsa":12841,"▁subst":12842,"oen,":12843,"▁Washing":12844,"▁det,>>":12845,"▁Mas":12846,"ler\n":12847,"sfar":12848,"▁varslet":12849,"▁gråt":12850,"▁3-":12851,"▁Cap":12852,"▁forberedt":12853,"▁forventet":12854,"ber.\n":12855,"lose":12856,"▁Brå":12857,"▁utlend":12858,"▁blodet":12859,"store":12860,"▁utsette":12861,"▁gjennomgå":12862,"▁regional":12863,"faring":12864,"▁institutt":12865,"▁fuktig":12866,"YR":12867,"▁tenden":12868,"▁2020":12869,"▁ødelagt":12870,"▁utvil":12871,"oritet":12872,"▁er:\n":12873,"komedie\n":12874,"tiden,":12875,"▁forøvrig":12876,"▁blandet":12877,"▁mor,":12878,"fødte":12879,"▁Administ":12880,"▁kalk":12881,"▁Bærum":12882,"▁Bygge":12883,"▁verdig":12884,"▁nøkkel":12885,"▁nasjonalt":12886,"▁tiltak.\n":12887,"radi":12888,"▁Husk":12889,"▁DeGene":12890,"▁vedtaket":12891,"är":12892,"▁noen.\n":12893,"▁forsvarlig":12894,"▁late":12895,"▁Kl.\n":12896,"skule":12897,"▁sitt,":12898,"sete":12899,"2-":12900,"Ar":12901,"▁-.\n":12902,"▁1945":12903,"▁motstan":12904,"ume":12905,"▁forvand":12906,"▁Jenny":12907,"et\n":12908,"språ":12909,"▁svingte":12910,"▁menn,":12911,"▁metal":12912,"atori":12913,"▁skjær":12914,"spart":12915,"▁bransje":12916,"▁perioder":12917,"OV":12918,"sprosessen":12919,"▁ungene":12920,"sielle":12921,"▁fatte":12922,"▁tys":12923,"grader":12924,"▁Rapport":12925,"08.":12926,"iske,":12927,"▁kollega":12928,"sbet":12929,"z.\n":12930,"▁nettverk":12931,"▁Herman":12932,"AKT":12933,"▁søv":12934,"rup":12935,"▁banken":12936,"▁Trygve":12937,"rekk":12938,"▁snarere":12939,"folket":12940,"jelder":12941,"▁vurderinger":12942,"▁Ton":12943,"medal":12944,"▁skit":12945,"▁Sak":12946,"rab":12947,"▁brukere":12948,"serien":12949,"▁bryllup":12950,"▁funn":12951,"▁pian":12952,"▁Ting":12953,"▁fremover":12954,"▁Hug":12955,"▁intelli":12956,"▁taushet":12957,"ilet":12958,"▁Kraft":12959,"visjon":12960,"▁ankom":12961,"▁Vidar":12962,"▁gjev":12963,"▁patie":12964,"haugen":12965,"▁malt":12966,"▁horison":12967,"rust":12968,"▁offisielle":12969,"▁medhold":12970,"▁bestemor":12971,"▁begå":12972,"▁Bjarne":12973,"▁Tw":12974,"▁USA,":12975,"▁2020.":12976,"▁disposisjon":12977,"▁Elver":12978,"dom.\n":12979,"kampen":12980,"▁styrker":12981,"▁adop":12982,"▁krigen.\n":12983,"dahl":12984,"bund":12985,"6)\n":12986,"orm":12987,"▁q":12988,"▁kvaliteten":12989,"▁dæ":12990,"▁teke":12991,"▁gjennomgang":12992,"▁stav":12993,"▁relasjoner":12994,"▁anskaffe":12995,"ck.\n":12996,"▁168":12997,"ale,":12998,"▁mor.\n":12999,"▁komiserie":13000,"▁først.\n":13001,"▁kommentar":13002,"▁utgangen":13003,"▁heldigvis":13004,"skilte":13005,"▁personal":13006,"zy":13007,"velser.\n":13008,"▁Jfr.\n":13009,"▁Mosk":13010,"veksten":13011,"tren":13012,"▁ambassa":13013,"▁Italia":13014,"▁timer.\n":13015,"skrevet":13016,"▁arkitekt":13017,"▁pum":13018,"▁Vårt":13019,"▁Cast":13020,"▁besøkte":13021,"film":13022,"▁Slo":13023,"sat":13024,"▁flat":13025,"▁don":13026,"alderen":13027,"ttene.\n":13028,"▁Kart":13029,"▁Fast":13030,"▁påta":13031,"k-":13032,"▁Leon":13033,"▁Privat":13034,"▁Sen":13035,"▁informasjonen":13036,"▁1972":13037,"▁sagt.\n":13038,"▁Familien":13039,"boken":13040,"▁Indre":13041,"▁innføring":13042,"▁Karin":13043,"▁wa":13044,"▁State":13045,"seks":13046,"▁leiligheten":13047,"ponen":13048,"▁Fredrikstad":13049,"▁antakelig":13050,"▁problemer.\n":13051,"▁lim":13052,"▁interessante":13053,"▁effektive":13054,"▁bake":13055,"▁sliter":13056,"▁penger,":13057,"▁Kas":13058,"▁melod":13059,"▁effektivi":13060,"ligheten":13061,"▁grunn.\n":13062,"▁sjølve":13063,"▁vestlige":13064,"gruppa":13065,"diske":13066,"nelser":13067,"▁possi":13068,"▁4)":13069,"▁scenen":13070,"▁borti":13071,"▁batter":13072,"bust":13073,"▁strålende":13074,"▁dug":13075,"▁annerlede":13076,"▁pkt.":13077,"▁US":13078,"▁avslø":13079,"▁Gol":13080,"ciet":13081,"arly":13082,"▁netto":13083,"▁bilen.\n":13084,"ummen":13085,"▁Lærer":13086,"▁gjentok":13087,"▁territ":13088,"mord":13089,"▁kategor":13090,"▁Send":13091,"ret\n":13092,"▁22.00\n":13093,"UNN":13094,"▁kritiske":13095,"▁anse":13096,"▁atmosf":13097,"▁ordne":13098,"▁ydmy":13099,"▁beveger":13100,"▁01.00":13101,"▁impor":13102,"▁gjennomsnittlig":13103,"▁Forslag":13104,"▁Dre":13105,"▁(W":13106,"▁Kam":13107,"▁anbefaler":13108,"sive":13109,"▁produsert":13110,"▁terren":13111,"▁dei.\n":13112,"▁hodet,":13113,"▁2000.":13114,"▁Statistisk":13115,"▁framover":13116,"▁Asker":13117,"▁sivile":13118,"▁deg!\n":13119,"▁anvendes":13120,"-b":13121,"pert":13122,"lukt":13123,"▁planter":13124,"▁drepte":13125,"retninger":13126,"▁Verden":13127,"▁smile":13128,"fem":13129,"agement":13130,"▁hørtes":13131,"▁nå?\n":13132,"▁Lunde":13133,"verket.\n":13134,"▁Polen":13135,"▁representert":13136,"▁sjoko":13137,"▁Barna":13138,"▁*S":13139,"ksusfellen":13140,"▁RE":13141,"00-tallet.\n":13142,"skogen":13143,"▁kren":13144,"hed,":13145,"bilde":13146,"▁parla":13147,"vendte":13148,"▁nyhet":13149,"▁(4)":13150,"07.":13151,"ENE":13152,"▁intern":13153,"joner.\n":13154,"▁saka":13155,"sel,":13156,"lende.\n":13157,"pell":13158,"ily":13159,"fu":13160,"▁ÅR":13161,"kont":13162,"▁utro":13163,"▁Siri":13164,"▁petrole":13165,"▁Bergens":13166,"▁Nord-":13167,"▁italie":13168,"▁Sist":13169,"mmel":13170,"grunnlaget":13171,"▁Hei":13172,"▁nyere":13173,"dal\n":13174,"▁tilhørende":13175,"▁små,":13176,"▁kombinert":13177,"bolig":13178,"▁Mur":13179,"▁Hydro":13180,"nende.\n":13181,"li.\n":13182,"▁Region":13183,"▁DeGeneres":13184,"▁Solveig":13185,"09.":13186,"▁Abraham":13187,"▁løfter":13188,"▁<<for":13189,"driften":13190,"▁menig":13191,"....\n":13192,"▁rekna":13193,"▁Føl":13194,"skrive":13195,"table":13196,"▁alene,":13197,"perioden":13198,"j,":13199,"cter":13200,"iness":13201,"▁bunnen":13202,"▁tiltre":13203,"▁sinns":13204,"▁kjende":13205,"▁prosent,":13206,"▁span":13207,"▁akutt":13208,"gere,":13209,"▁way":13210,"innasnekker'n":13211,"▁Dyr":13212,"industrien":13213,"ARD":13214,"▁Ida":13215,"NES":13216,"arki":13217,"▁teor":13218,"▁vokst":13219,"▁dec":13220,"▁usikkerhet":13221,"oner.\n":13222,"▁Lam":13223,"bransjen":13224,"▁deltakerne":13225,"▁1/2":13226,"▁drøy":13227,"▁Manchester":13228,"▁langvar":13229,"▁Drift":13230,"ffent":13231,"▁Frø":13232,"tan":13233,"ssing":13234,"uter":13235,"▁19,":13236,"▁eksisterer":13237,"▁Undersøke":13238,"▁væske":13239,"politiske":13240,"▁ere":13241,"liga":13242,"ée":13243,"▁hund":13244,"-06.00":13245,"lande":13246,"rul":13247,"ktoratet":13248,"▁troll":13249,"▁ankla":13250,"▁konto":13251,"▁risikoen":13252,"▁sykehjem":13253,"▁Forsvar":13254,"burg":13255,"iene.\n":13256,"forskning":13257,"idd":13258,"▁opptrer":13259,"▁från":13260,"når":13261,"JER":13262,"▁(in":13263,"▁romantisk":13264,"▁hvorledes":13265,"▁kvit":13266,"ART":13267,"▁samta":13268,"▁bryg":13269,"▁stoffet":13270,"▁Sigrid":13271,"▁referanse":13272,"▁infe":13273,"▁long":13274,"?\"\"\"\"":13275,"▁oppvekst":13276,"▁generalforsam":13277,"øyene":13278,"ungen":13279,"øyen":13280,"▁Salt":13281,"veksling":13282,"nning":13283,"▁flytta":13284,"▁hevde":13285,"kamera":13286,"▁Wi":13287,"▁ts":13288,"illi":13289,"▁Coun":13290,"-13":13291,"▁Air":13292,"▁Atlan":13293,"▁Hæ":13294,"JØR":13295,"2.\n":13296,"▁begrep":13297,"▁mogleg":13298,"▁oppdage":13299,"▁litter":13300,"▁snitt":13301,"▁ledige":13302,"▁populær":13303,"▁%.\n":13304,"▁1900":13305,"▁auka":13306,"▁medier":13307,"▁maatte":13308,"▁jevnt":13309,"▁praksis.\n":13310,"▁utg":13311,"▁Stig":13312,"▁Step":13313,"▁bakken.\n":13314,"▁Cas":13315,"▁føles":13316,"▁vakkert":13317,"▁temperat":13318,"▁Johnsen":13319,"▁Agder":13320,"visa":13321,"vilg":13322,"▁parkeringsp":13323,"▁relevante":13324,"ova":13325,"▁plag":13326,"SV":13327,"vika":13328,"▁give":13329,"▁Hansen,":13330,"▁uvanlig":13331,"▁eiende":13332,"▁samtaler":13333,"▁kvelden.\n":13334,"▁behandler":13335,"OH":13336,"skren":13337,"▁hjernen":13338,"▁lyttet":13339,"hjul":13340,"ua":13341,"▁Godt":13342,"gende.\n":13343,"▁skyld.\n":13344,"bbet":13345,"sa,":13346,"rente":13347,"▁skjøv":13348,"▁King":13349,"▁Pan":13350,"▁døydde":13351,"▁føttene":13352,"OP":13353,"▁....\n":13354,"▁plukket":13355,"sidig":13356,"▁Nr.\n":13357,"▁gards":13358,"▁Aks":13359,"▁Gode":13360,"dagen,":13361,"ærene":13362,"vitenskape":13363,"▁gaten":13364,"iskap":13365,"▁fasc":13366,"▁forandre":13367,"▁døde.\n":13368,"▁reddet":13369,"▁rollen":13370,"▁området,":13371,"setninger":13372,"▁feil,":13373,"IA":13374,"▁cirka":13375,"▁ull":13376,"▁kommer.\n":13377,"fra.\n":13378,"▁politidistri":13379,"-Ag":13380,"▁Gylden":13381,"▁gammel.\n":13382,"finn":13383,"▁inspe":13384,"▁rive":13385,"▁noensinne":13386,"splane":13387,"▁studerte":13388,"▁omfattet":13389,"▁rødt":13390,"66":13391,"spra":13392,":\"\"\n":13393,"▁foregående":13394,"vering":13395,"▁bryr":13396,"ighet,":13397,"dist":13398,"▁ug":13399,"▁etablering":13400,"▁relative":13401,"veres":13402,"▁nit":13403,"kol":13404,"ra\n":13405,"▁Start":13406,"▁gjør.\n":13407,"▁sul":13408,"▁24.00":13409,"▁diplom":13410,"▁Olsen,":13411,"▁skarp":13412,"BL":13413,"▁utbytte":13414,"gree":13415,"▁Elin":13416,"▁reflekte":13417,"vinger":13418,"▁vassdrag":13419,"▁Marius":13420,"▁livets":13421,"lyset":13422,"ude":13423,"betaling":13424,"▁good":13425,"77":13426,"▁veien,":13427,"▁Tyrk":13428,"▁Eriksen":13429,"▁AS.\n":13430,"▁Spor":13431,"rong":13432,"▁Viking":13433,"▁janu":13434,"ten:\n":13435,"▁Total":13436,"br.\n":13437,"▁rekker":13438,"▁bønder":13439,"/11":13440,"ism":13441,"▁målsett":13442,"▁opplegg":13443,"▁Prosjektet":13444,"ografi":13445,"lish":13446,"▁Bras":13447,"ve\n":13448,"skolen.\n":13449,"▁stor.\n":13450,"▁vern":13451,"▁nærmer":13452,"▁parter":13453,"▁reform":13454,"idde":13455,"▁forbedre":13456,"▁usky":13457,"▁håpe":13458,"▁innslag":13459,"sgren":13460,"-D":13461,"▁elementer":13462,"▁(jfr.\n":13463,"▁jag":13464,"▁knytter":13465,"▁uttaler":13466,"▁satser":13467,"▁Bort":13468,"▁likestilling":13469,"▁stopper":13470,"▁område.\n":13471,"ktø":13472,"▁punkter":13473,"▁dokumentasjon":13474,"sforhold":13475,"▁bønn":13476,"▁betong":13477,"▁raskere":13478,"▁1-2":13479,"▁bort,":13480,"ipe":13481,"konstru":13482,"▁Konge":13483,"▁Kommunal":13484,"▁Hare":13485,"▁skand":13486,"kraftig":13487,"▁utfy":13488,"▁Marianne":13489,"▁skulderen":13490,"▁måneder.\n":13491,"▁merk":13492,"▁avise":13493,"terings":13494,"0-tallet.\n":13495,"4)\n":13496,"▁Charles":13497,"▁intelle":13498,"▁Svenske":13499,"▁spørsmål,":13500,"▁Fug":13501,"▁versjon":13502,"▁steder.\n":13503,"▁involvert":13504,"oh":13505,"ksem":13506,"▁Tone":13507,"▁smale":13508,"▁KV":13509,"▁anser":13510,"▁Vinter":13511,"▁Øns":13512,"/\n":13513,"▁169":13514,"ståe":13515,"▁hyl":13516,"▁AD":13517,"▁development":13518,"▁sus":13519,"▁frek":13520,"▁naz":13521,"▁statlig":13522,"▁kostet":13523,"▁DU":13524,"▁klassif":13525,"▁foretak":13526,"▁leverer":13527,"▁banen":13528,"▁innspill":13529,"▁grave":13530,"bein":13531,"skilde":13532,"dom,":13533,"▁øverst":13534,"▁utstyrt":13535,"▁forbere":13536,"▁dr":13537,"ksik":13538,"skue":13539,"▁Nina":13540,"▁kilder":13541,"▁fastsettes":13542,"less":13543,"▁lam":13544,"▁verke":13545,"▁fjernet":13546,"▁bol":13547,"▁insp":13548,"▁interna":13549,"▁Id":13550,"▁skadet":13551,"▁Hitler":13552,"▁2009.":13553,"ution":13554,"▁Mrs.":13555,"savtale":13556,"▁spin":13557,"ningene.\n":13558,"stikken":13559,"oner,":13560,"▁Bestemmelsen":13561,"▁smilte.\n":13562,"▁krevde":13563,"IX":13564,"▁varte":13565,"▁politiet.\n":13566,"▁Inne":13567,"arter":13568,"personell":13569,"▁journalist":13570,"▁tykk":13571,"tivity":13572,"▁Sivert":13573,"▁informan":13574,"▁Motor":13575,"▁slik,":13576,"▁Institutt":13577,"▁produsere":13578,"▁Juni":13579,"▁bygninger":13580,"▁varig":13581,"▁passende":13582,"▁forsøks":13583,"02.":13584,"/B":13585,"▁within":13586,"▁primær":13587,"▁går,":13588,"▁samferdsel":13589,"ere":13590,"I,":13591,"▁løsningen":13592,"▁Fry":13593,"▁Loven":13594,"/s":13595,"▁beca":13596,"området.\n":13597,"▁A,":13598,"teor":13599,"▁found":13600,"▁skum":13601,"angs":13602,"setnings":13603,"ITT":13604,"▁tittelen":13605,"▁Bildet":13606,"ansert":13607,"amlingen":13608,"an\n":13609,"krigen":13610,"▁made":13611,"▁varian":13612,"▁diale":13613,"▁OSL":13614,"deb":13615,"▁requ":13616,"▁besto":13617,"finans":13618,"▁tyskerne":13619,"▁Helen":13620,"sene,":13621,"▁NOU":13622,"GE":13623,"▁anke":13624,"▁Fis":13625,"æs":13626,"▁fantastiske":13627,"▁media":13628,"▁skaffet":13629,"K.\n":13630,"▁stykker":13631,"▁Bab":13632,"▁Elevene":13633,"istent":13634,"30,":13635,"▁fortol":13636,"dalen,":13637,"fritt":13638,"▁19.30\n":13639,"itet,":13640,"▁Research":13641,"▁Mamma":13642,"▁tørre":13643,"▁Selvfølge":13644,"r:\n":13645,"funksjon":13646,"stant":13647,"dere,":13648,"▁hovedt":13649,"veien.\n":13650,"▁Syl":13651,"▁process":13652,"▁Cup":13653,"illes":13654,"▁sære":13655,"▁fylkeskommune":13656,"sering.\n":13657,"orden":13658,"▁skred":13659,"▁sunn":13660,"▁spredt":13661,"▁utvilsomt":13662,"▁sånt":13663,"tage":13664,"italen":13665,"nast":13666,"▁unng":13667,"stam":13668,"▁prof":13669,"▁leger":13670,"▁restri":13671,"▁Trø":13672,"sbø":13673,"▁Gnr":13674,"▁arbeidstaker":13675,"▁acti":13676,"win":13677,"▁g.m.\n":13678,"▁utsik":13679,"▁despe":13680,"prosjekt":13681,"▁så,":13682,"▁måten.\n":13683,"▁smy":13684,"formål":13685,"▁utmerket":13686,"andel":13687,"▁driften":13688,"▁public":13689,"funn":13690,"▁Mang":13691,"andida":13692,"▁avgjer":13693,"▁Ster":13694,"▁intera":13695,"▁g.\n":13696,"▁Nattsending\n":13697,"▁planene":13698,"▁departementets":13699,"▁langsom":13700,"▁(en":13701,"▁kundene":13702,"▁Alfred":13703,"▁Nord-Norge":13704,"forslag":13705,"▁2:\n":13706,"ropp":13707,"klubb":13708,"peren":13709,"▁scene":13710,"▁misforstå":13711,"bard":13712,"▁Prosjekt":13713,"▁fast.\n":13714,"▁lærerne":13715,"anene":13716,"▁salgs":13717,"▁Lav":13718,"▁avskje":13719,"folkningen":13720,"▁tvunget":13721,"▁erstattet":13722,"▁vei,":13723,"remø":13724,"kultur":13725,"▁nak":13726,"▁stal":13727,"▁bruket":13728,"▁meter.\n":13729,"▁helset":13730,"▁klie":13731,"▁likevel.\n":13732,"▁c)":13733,"▁glimt":13734,"▁arres":13735,"-Euro":13736,"virksomheten":13737,"▁Får":13738,"ppe.\n":13739,"▁Fød":13740,"▁nedsatt":13741,"ging":13742,"▁smil.\n":13743,"▁2008.":13744,"▁Reidar":13745,"kry":13746,"▁veget":13747,"▁lenge,":13748,"jande":13749,"▁Luksusfellen":13750,"▁realityserie\n":13751,"▁moro":13752,"▁Rud":13753,"▁semin":13754,"▁tiår":13755,"ntal":13756,"▁Will":13757,"▁hagen":13758,"▁opplyst":13759,"▁Ingebrigt":13760,"anlegget":13761,"▁turn":13762,"▁gulvet.\n":13763,"▁integra":13764,"OC":13765,"stet.\n":13766,"fordeling":13767,"▁20.30\n":13768,"▁områder.\n":13769,"ION":13770,"kat":13771,"▁Angeles":13772,"▁relation":13773,"▁Oscar":13774,"kk\n":13775,"▁avkast":13776,"▁Styr":13777,"▁effekten":13778,"▁eleven":13779,"ksa":13780,"▁forstod":13781,"▁erob":13782,"▁forventninger":13783,"▁Stemmen":13784,"▁(Se":13785,"▁langren":13786,"▁important":13787,"ringa":13788,"▁Chic":13789,"▁bidro":13790,"▁Vas":13791,"▁fryktelig":13792,"mesteren":13793,"slut":13794,"▁fjord":13795,"▁dokumentarserie\n":13796,"olin":13797,"▁Wilhelm":13798,"t,>>":13799,"▁stund,":13800,"▁conta":13801,"delse.\n":13802,"inen,":13803,"▁bif":13804,"aer":13805,"▁forsvinner":13806,"▁forund":13807,"▁kvan":13808,"▁sikrer":13809,"srevyen":13810,"skat":13811,"▁But":13812,"▁underholdnings":13813,"velt":13814,"alleri":13815,"K\n":13816,"gaven":13817,"▁Ins":13818,"▁rekord":13819,"▁kredit":13820,"▁Hanne":13821,"▁lure":13822,"▁opplysningene":13823,"▁<<en":13824,"▁Tele":13825,"▁<<den":13826,"feransen":13827,"▁innkjøp":13828,"▁Fager":13829,"▁Nord-T":13830,"inalen":13831,"▁digitale":13832,"▁kopp":13833,"▁Uts":13834,"▁National":13835,"▁]":13836,"▁front":13837,"▁2,5":13838,"▁Eivind":13839,"▁Frede":13840,"▁Buske":13841,"▁forfatteren":13842,"▁Miche":13843,"04.":13844,"▁programmer":13845,"▁impone":13846,"▁base":13847,"ager":13848,"▁2005.":13849,"▁sørger":13850,"▁ideer":13851,"illing":13852,"▁Nesten":13853,"own":13854,"lange":13855,"stjenesten":13856,"▁opplevelser":13857,"klubben":13858,"▁vorte":13859,"tert,":13860,"vande":13861,"▁høf":13862,"opplær":13863,"gul":13864,"S,":13865,"▁Berge":13866,"▁organisering":13867,"▁sovjet":13868,"▁folks":13869,"skole,":13870,"▁nivå.\n":13871,"67":13872,"▁13.00\n":13873,"▁Spar":13874,"forbin":13875,"▁trengs":13876,"▁det?.\n":13877,"▁cy":13878,"▁para":13879,"lagt,":13880,"▁frøken":13881,"▁tilla":13882,"otisk":13883,"oppgave":13884,"▁ethvert":13885,"oren.\n":13886,"▁16.00\n":13887,"▁berømte":13888,"▁AM":13889,"▁namnet":13890,"▁voldsom":13891,"ssak":13892,"teringer":13893,"▁trives":13894,"▁Åp":13895,"ordet.\n":13896,"▁Pensjon":13897,"historie":13898,"▁seia":13899,"▁motive":13900,"▁alderen":13901,"▁beredskap":13902,"utgifter":13903,"▁gjestene":13904,"▁spent":13905,"▁inspirasjon":13906,"registe":13907,"▁presentere":13908,"holt":13909,"▁kollektiv":13910,"▁arbeidsplass":13911,"▁System":13912,"▁mottok":13913,"▁antatt":13914,"▁tariff":13915,"lud":13916,"▁skolene":13917,"strakt":13918,"▁Fiskeri":13919,"▁Cri":13920,"kelsen":13921,"▁invitert":13922,"▁grepet":13923,"▁dette?\n":13924,"▁ansatte.\n":13925,"▁etn":13926,"kasse":13927,"områdene":13928,"odden":13929,"▁Herre":13930,"kommune":13931,"▁punktet":13932,"▁utseende":13933,"ånd":13934,"▁samord":13935,"bygda":13936,"▁Transport":13937,"▁rasjon":13938,"▁Rein":13939,"behandlingen":13940,"▁farten":13941,"øg":13942,"takene":13943,"othe":13944,"▁røre":13945,"osp":13946,"▁gårds":13947,"▁velv":13948,"▁behandling.\n":13949,"▁how":13950,"▁inviterer":13951,"kjøring":13952,"▁evnen":13953,"▁ure":13954,"▁avgjort":13955,"▁velferds":13956,"▁substan":13957,"▁derfrå":13958,"▁velferd":13959,"▁oppfattes":13960,"▁André":13961,"sfol":13962,"menn.\n":13963,"ane\n":13964,"▁repar":13965,"▁Ringe":13966,"▁skjema":13967,"giften":13968,"▁konsentrasjon":13969,"▁Huset":13970,"▁Bent":13971,"▁primært":13972,"▁rus":13973,"▁oppgaver":13974,"plass.\n":13975,"▁oppnådd":13976,"▁Sla":13977,"▁tilhørte":13978,"▁stemte":13979,"▁1994.":13980,"▁helgen":13981,"▁isk":13982,"02":13983,"▁æren":13984,"▁tabellen":13985,"▁stadi":13986,"stryg":13987,"▁natten.\n":13988,"grunnlag":13989,"ypt":13990,"▁skuldrene.\n":13991,"▁Aftenposten":13992,"▁Ye":13993,"▁gruppene":13994,"fram":13995,"ants":13996,"forskje":13997,"▁1990.":13998,"▁årsaker":13999,"▁utdannelse":14000,"▁stoffer":14001,"▁sanse":14002,"▁situasjon.\n":14003,"▁senket":14004,"▁utry":14005,"vans":14006,"▁I,":14007,"▁retning.\n":14008,"▁han:\n":14009,"▁pålegg":14010,"rator":14011,"plikt":14012,"ux":14013,"▁akadem":14014,"▁2001.":14015,"▁troen":14016,"▁Herrens":14017,"▁fase":14018,"▁Ot.":14019,"rae":14020,"▁1995.":14021,"▁vår,":14022,"A:\n":14023,"▁partier":14024,"ksjonen.\n":14025,"▁liten,":14026,"▁karakte":14027,"middag":14028,"giftene":14029,"▁globa":14030,"▁Hvert":14031,"▁angst":14032,"▁paragra":14033,"▁stammer":14034,"▁ISB":14035,"▁aga":14036,"uminium":14037,"matiske":14038,"▁de,":14039,"▁svo":14040,"▁commun":14041,"▁rørte":14042,"▁1997.":14043,"▁mistanke":14044,"▁fisket":14045,"vedtak":14046,"▁Lab":14047,"▁Meld":14048,"▁profi":14049,"▁Paulus":14050,"pset":14051,"komité":14052,"▁LE":14053,"▁AS,":14054,"▁teleg":14055,"▁ute,":14056,"▁m,":14057,"▁tre.\n":14058,"▁herlig":14059,"▁hendelser":14060,"▁Sur":14061,"hout":14062,"▁endå":14063,"jakt":14064,"▁Rev":14065,"▁Kunne":14066,"▁fort.\n":14067,"▁1965":14068,"GEN":14069,"▁tvert":14070,"▁formelle":14071,"▁aar":14072,"rom,":14073,"bid":14074,"▁Stan":14075,"ftes":14076,"▁Tilbake":14077,"▁Våre":14078,"▁radik":14079,"obje":14080,"▁istedenfor":14081,"politikken":14082,"▁ligner":14083,"▁medisinske":14084,"▁bedre,":14085,"▁husdyr":14086,"▁arab":14087,"▁stiftet":14088,"ren\n":14089,"▁klærne":14090,"▁Bos":14091,"▁pig":14092,"▁proce":14093,"▁-a":14094,"merat":14095,"▁Stortinget.\n":14096,"▁skarpe":14097,"jast":14098,"▁sele":14099,"▁Nyhet":14100,"fron":14101,"åsen":14102,"▁friste":14103,"▁regelen":14104,"undervis":14105,"▁forlo":14106,"fond":14107,"▁vig":14108,"▁(n":14109,"▁vannet.\n":14110,"▁her?\n":14111,"▁lakse":14112,"▁fra,":14113,"▁Simp":14114,"▁vennskap":14115,"▁okk":14116,"▁comple":14117,"▁beman":14118,"▁dep":14119,"O.\n":14120,"▁forlatt":14121,"sma":14122,"ELS":14123,"mene,":14124,"LAND":14125,"▁disc":14126,"▁(r).\n":14127,"periode":14128,"▁dødsf":14129,"mente":14130,"▁analys":14131,"▁140":14132,"▁bånd":14133,"▁ektefelle":14134,"nemnd":14135,"▁impro":14136,".),":14137,"regjer":14138,"▁temperaturen":14139,"umet":14140,"▁Heldigvis":14141,"asjonens":14142,"▁interessen":14143,"▁Eksempel":14144,"15.":14145,"▁Swe":14146,"T.\n":14147,"▁kapittel\n":14148,"▁siktet":14149,"hag":14150,"▁arbeidsplasser":14151,"▁metod":14152,"▁trykke":14153,"2018":14154,"nes\n":14155,"▁1993.":14156,"En":14157,"43":14158,"▁spren":14159,"▁bibel":14160,"▁ulovlig":14161,"▁komponen":14162,"▁Bakke":14163,"▁kilo":14164,"▁life":14165,"▁FL":14166,"▁problem.\n":14167,"▁1992.":14168,"▁Sofie":14169,"▁intensi":14170,"▁large":14171,"▁N\n":14172,"▁Problemet":14173,"▁pedagogisk":14174,"▁Sverige,":14175,"▁\"\"\"\"H":14176,"▁Død":14177,"▁Bille":14178,"▁nei.\n":14179,"▁1967":14180,"▁apen":14181,"▁hem":14182,"ird":14183,"▁barnehagen":14184,"service":14185,"▁virksomheter":14186,"▁følt":14187,"▁colle":14188,"stilbud":14189,"▁skjulte":14190,"▁back":14191,"▁juni.\n":14192,"▁tel":14193,"▁fann":14194,"ai":14195,"▁som.\n":14196,"gang,":14197,"▁Arendal":14198,"▁korrid":14199,"▁misly":14200,"▁dag\n":14201,"▁Elias":14202,"ultat":14203,"chef":14204,"▁Haugesund":14205,"▁SØ":14206,"▁sannheten":14207,"▁Sovjetuni":14208,"sprosess":14209,"sbil":14210,"▁anten":14211,"vik\n":14212,"paret":14213,"▁morgen\n":14214,"▁flate":14215,"▁bombe":14216,"vass":14217,"▁søndag.\n":14218,"▁Selve":14219,"▁blive":14220,"▁flyktninger":14221,"▁Loren":14222,"▁►\n":14223,"▁København":14224,"▁personell":14225,"▁vitner":14226,"▁sa,":14227,"▁bæ":14228,"▁historier":14229,"▁fremtidige":14230,"vedt":14231,"▁bær":14232,"lubben":14233,"▁Stå":14234,"▁grønt":14235,"▁plassering":14236,"oenget":14237,"▁endnu":14238,"▁leppene":14239,"▁Ikkje":14240,"▁ansett":14241,"usten":14242,"▁flinke":14243,"▁vel,":14244,"▁Best":14245,"▁orke":14246,"ppe,":14247,"▁song":14248,"uli":14249,"▁Cal":14250,"RIST":14251,"▁Desse":14252,"ano":14253,"opple":14254,"▁erstatnings":14255,"▁Stockhol":14256,"steg":14257,"▁cen":14258,"▁É":14259,"▁byttet":14260,"▁angitt":14261,"▁klassiske":14262,"▁Mæ":14263,"quen":14264,"▁and\n":14265,"▁Kilde:\n":14266,"▁riktig.\n":14267,"stid.\n":14268,"▁disse.\n":14269,"▁stikker":14270,"▁overskudd":14271,"▁registrering":14272,"lunde":14273,"▁kontinuerlig":14274,"drivende":14275,"▁overdratt":14276,"▁synge":14277,"▁1968":14278,"▁annet,":14279,"▁din,":14280,"teringen":14281,"▁Dam":14282,"▁prosedy":14283,"▁sans":14284,"▁Effe":14285,"▁toale":14286,"yre":14287,"▁valg.\n":14288,"ater,":14289,"▁helikop":14290,"69":14291,"anere":14292,"▁prosjektet.\n":14293,"▁tilbra":14294,"▁marine":14295,"▁1:\n":14296,"▁ekstraordin":14297,"▁1971":14298,"▁det:\n":14299,"byggingen":14300,"-in":14301,"skontor":14302,"▁oppdrett":14303,"retten.\n":14304,"42":14305,"▁Bjørns":14306,"▁three":14307,"▁rar":14308,"▁America":14309,"verer":14310,"ids":14311,"skomiteen":14312,"▁foregå":14313,"▁halvdel":14314,"orge.\n":14315,"▁møn":14316,"▁ante":14317,"vatnet":14318,"▁2006.":14319,"▁samler":14320,"▁saad":14321,"jen.\n":14322,"▁meningen":14323,"▁vennene":14324,"vene,":14325,"▁Retten":14326,"▁Ner":14327,"IDE":14328,"dam":14329,"pedagog":14330,"▁$":14331,"▁partner":14332,"▁slø":14333,"▁Johnny":14334,"▁Norden":14335,"▁struct":14336,"vask":14337,"▁akti":14338,"▁forman":14339,"▁ambulan":14340,"uens":14341,"sag":14342,"▁regnskaps":14343,"splik":14344,"▁mange,":14345,"ta\n":14346,"▁1.1":14347,"▁Else":14348,"▁Mexic":14349,"▁variere":14350,"bland":14351,"▁Gir":14352,"▁Mater":14353,"▁ham?\n":14354,"▁kjøpes":14355,"medle":14356,"fyr":14357,"▁Øynene":14358,"bels":14359,"atret":14360,"▁water":14361,"jam":14362,"▁roper":14363,"vic":14364,"▁<<h":14365,"P-":14366,"▁islam":14367,"▁bruka":14368,"▁frykter":14369,"▁U.":14370,"▁osv.":14371,"▁stiger":14372,"▁veksten":14373,"..\n":14374,"▁Torbjørn":14375,"▁listen":14376,"igen":14377,"OST":14378,"▁forbli":14379,"▁firmaet":14380,"▁historie,":14381,"▁hjå":14382,"ramme":14383,"kett":14384,"industrie":14385,"trer":14386,"bred":14387,"spri":14388,"▁opptak":14389,"▁Liver":14390,"▁Klokken":14391,"følelse":14392,"▁,\n":14393,"▁BAR":14394,"▁DE":14395,"▁Tønsberg":14396,"▁hensynet":14397,"regning":14398,"▁Radio":14399,"irs":14400,"▁registrerte":14401,"▁Kl":14402,"▁Albert":14403,"▁konkurransen":14404,"UST":14405,"▁sukket":14406,"▁dommen":14407,"▁Torstein":14408,"▁klassisk":14409,"▁minnes":14410,"▁sakk":14411,"▁selges":14412,"▁kapte":14413,"▁klager":14414,"▁venner.\n":14415,"▁porno":14416,"▁pale":14417,"▁Rappor":14418,"mot.\n":14419,"▁modeller":14420,"▁oppleves":14421,"▁Josef":14422,"styrer":14423,"▁dratt":14424,"▁Kval":14425,"▁produsen":14426,"▁Fremskritt":14427,"▁USAs":14428,"▁mindret":14429,"kurs":14430,"▁spillet":14431,"lederen":14432,"lyd":14433,"▁forskere":14434,"hers":14435,"hyggelig":14436,"retti":14437,"▁trappen":14438,"lova":14439,"▁cell":14440,"▁usyn":14441,"▁annen.\n":14442,"▁cost":14443,"▁menneskets":14444,"▁bøndene":14445,"▁Cha":14446,"▁wc":14447,"-11":14448,"▁fornye":14449,"▁premie":14450,"▁tynn":14451,"▁occ":14452,"▁avdø":14453,"sil":14454,"▁1999.":14455,"Ny":14456,"▁för":14457,"▁utredning":14458,"▁eigedom":14459,"▁styres":14460,"▁resept":14461,"▁inne.\n":14462,"▁pga":14463,"col":14464,"▁165":14465,"▁gress":14466,"krav":14467,"▁PRO":14468,"▁rasende":14469,"knads":14470,"steds":14471,"▁glemte":14472,"organisasjonen":14473,"lysning":14474,"▁descri":14475,"▁seksuelle":14476,"D,":14477,"▁Ide":14478,"right":14479,"anget":14480,"▁størrelsen":14481,"▁21,":14482,"▁note":14483,"▁fjor,":14484,"▁medal":14485,"▁administrasjonen":14486,"▁dukke":14487,"197":14488,"▁varmen":14489,"▁CH":14490,"▁gnr.":14491,"▁environ":14492,"▁gangen,":14493,"▁125":14494,"▁uttrykke":14495,"rativ":14496,"▁Log":14497,"▁1998.":14498,"▁konsekvensene":14499,"▁Ill":14500,"én":14501,"▁Linda":14502,"leg,":14503,"▁betraktes":14504,"▁storm":14505,"▁If":14506,"▁utvidelse":14507,"▁sha":14508,"▁gravid":14509,"▁beregning":14510,"latelse":14511,"▁Salg":14512,"▁hilse":14513,"▁defini":14514,"▁familien.\n":14515,"▁Energi":14516,"▁350":14517,"▁ferdig.\n":14518,"▁heve":14519,"▁Arth":14520,"▁blun":14521,"▁Resten":14522,"▁Spania":14523,"▁sa.\n":14524,"uet":14525,"▁Kvar":14526,"▁finansiering":14527,"▁skje.\n":14528,"▁AT":14529,"fos":14530,"▁come":14531,"▁CSI":14532,"rutdan":14533,"▁Jess":14534,"dotter":14535,"▁medarbeidere":14536,"▁leverte":14537,"▁heller,":14538,"▁overhodet":14539,"▁Gil":14540,"▁FNs":14541,"▁Tils":14542,"▁klokke":14543,"iten":14544,"ation,":14545,"08":14546,"▁morgen,":14547,"rapeut":14548,"▁Sør-A":14549,"▁forhå":14550,"10,":14551,"▁tilfredsstille":14552,"remål":14553,"undervisning":14554,"mande":14555,"▁etterpå.\n":14556,"▁egentlige":14557,"▁DEN":14558,"▁særdeles":14559,"▁2007.":14560,"IND":14561,"▁Sje":14562,"▁tape":14563,"▁glim":14564,"▁beslag":14565,"▁sprøy":14566,"▁elite":14567,"▁fl.\n":14568,"09":14569,"▁havet.\n":14570,"▁ien":14571,"▁fugle":14572,"▁people":14573,"▁kapitte":14574,"▁das":14575,"▁bam":14576,"▁reelle":14577,"▁SAM":14578,"føren":14579,"form.\n":14580,"▁Yng":14581,"▁Fler":14582,"repet":14583,"▁22,":14584,"sevne":14585,"▁kvitt":14586,"▁hjemme,":14587,"▁Frøy":14588,"▁krets":14589,"iga":14590,"▁cri":14591,"▁py":14592,"▁betales":14593,"vatn":14594,"skt":14595,"▁dypere":14596,"lation":14597,"▁melk":14598,"istan":14599,"▁brune":14600,"▁avhenger":14601,"▁2018\n":14602,"▁tørke":14603,"fallende":14604,"▁hester":14605,"▁bue":14606,"▁konstant":14607,"▁latin":14608,"▁Riktig":14609,"15,":14610,"annet":14611,"▁Ute":14612,"▁enheter":14613,"itor":14614,"▁bestående":14615,"▁Analy":14616,"▁overskri":14617,"▁cer":14618,"▁later":14619,"▁potet":14620,"alls":14621,"▁trafikken":14622,"▁manglet":14623,"▁Let":14624,"▁knust":14625,"sitt":14626,"▁Law":14627,"▁instan":14628,"skan":14629,"▁Charlo":14630,"▁inse":14631,"▁kirke.\n":14632,"▁tente":14633,"▁adresse":14634,"uert":14635,"▁langt,":14636,"▁farger":14637,"▁uka":14638,"▁samboe":14639,"urch":14640,"ån":14641,"landene":14642,"bygningen":14643,"▁Ox":14644,"▁produktet":14645,"▁Cali":14646,"▁nåde":14647,"▁funda":14648,"▁gå,":14649,").\"\"\n":14650,"▁Sing":14651,"▁brakt":14652,"▁elektronisk":14653,"▁definisjon":14654,"una":14655,"▁Stjør":14656,"▁Kunnskap":14657,"▁Danie":14658,"▁kjærligheten":14659,"▁fact":14660,"▁avstanden":14661,"▁Vester":14662,"▁(195":14663,"iv.\n":14664,"ghan":14665,"▁fordø":14666,"kommu":14667,"▁Emma":14668,"▁gum":14669,"▁Eld":14670,"▁august.\n":14671,"dende.\n":14672,"▁knytt":14673,"▁pasientene":14674,"▁fremtid":14675,"▁Nikola":14676,"▁forsør":14677,"▁ideen":14678,"▁Aleks":14679,"▁European":14680,"▁lederen":14681,"▁hunde":14682,"▁gry":14683,"udet":14684,"ir,":14685,"▁skjør":14686,"berget":14687,"▁tette":14688,"▁mange.\n":14689,"▁frust":14690,"▁kjæreste":14691,"▁Sinnasnekker'n":14692,"ikeren":14693,"▁ikke?\n":14694,"ferdige":14695,"▁nydelig":14696,"ott":14697,"▁Kyr":14698,"▁gjest":14699,"bere":14700,"▁15.00\n":14701,"pool":14702,"▁eksamen":14703,"▁dreide":14704,"legget.\n":14705,"▁byene":14706,"frist":14707,"berst":14708,"irk":14709,"▁denne.\n":14710,"▁binde":14711,"miljøet":14712,"feil":14713,"▁herfrå":14714,"▁Klem":14715,"▁jobb,":14716,"bile":14717,"festet":14718,"▁1996.":14719,"itt.\n":14720,"▁kvinner,":14721,"betinge":14722,"▁konkurren":14723,"▁summen":14724,"▁uttrykker":14725,"merte":14726,"▁formidle":14727,"menter.\n":14728,"▁hinder":14729,"▁Nei.\n":14730,"▁gående":14731,"▁bransjen":14732,"▁bygningen":14733,"▁(Ap":14734,"dede":14735,"▁manu":14736,"oth":14737,"▁lev":14738,"inntekter":14739,"aktig":14740,"▁dominerende":14741,"-d":14742,"▁Skien":14743,"ads":14744,"▁Nordre":14745,"▁Etterpå":14746,"natur":14747,"▁Kjære":14748,"▁Sli":14749,"matisk":14750,"▁landslag":14751,"bygning":14752,"ET\n":14753,"▁impul":14754,"▁Læ":14755,"leggene":14756,"▁rom.\n":14757,"▁uttalelser":14758,"▁sed":14759,"osiali":14760,"bånd":14761,"▁30-":14762,"41":14763,"kning,":14764,"▁undertry":14765,"▁opplyste":14766,"ordfører":14767,"▁specif":14768,"back":14769,"verenskom":14770,"▁Sw":14771,"sspørsmål":14772,"▁tilsette":14773,"▁nytt,":14774,"felles":14775,"-/":14776,"▁BER":14777,"▁Øye":14778,"handlinger":14779,"miks":14780,"valet":14781,"▁kunnskaps":14782,"arti":14783,"ato":14784,":1":14785,"▁Wen":14786,"gate":14787,"pene.\n":14788,"▁ansette":14789,"lags":14790,"▁fradrag":14791,"seren":14792,"markedet":14793,"▁rullet":14794,"mming":14795,"neprest":14796,"▁prinsipper":14797,"▁skyndte":14798,"▁tydelige":14799,"▁Progra":14800,"▁1966":14801,"▁diskrim":14802,"▁bede":14803,"▁smelte":14804,"kop":14805,"▁frem,":14806,"▁intervjue":14807,"▁09.00":14808,"▁reisen":14809,"ringer,":14810,"▁year":14811,"▁Finansdepartementet":14812,"▁produksjons":14813,
[...]
