{"version":"1.0","truncation":null,"padding":null,"added_tokens":[{"id":0,"special":true,"content":"[PAD]","single_word":false,"lstrip":false,"rstrip":false,"normalized":false},{"id":1,"special":true,"content":"[UNK]","single_word":false,"lstrip":false,"rstrip":false,"normalized":false},{"id":2,"special":true,"content":"[CLS]","single_word":false,"lstrip":false,"rstrip":false,"normalized":false},{"id":3,"special":true,"content":"[SEP]","single_word":false,"lstrip":false,"rstrip":false,"normalized":false},{"id":4,"special":true,"content":"[MASK]","single_word":false,"lstrip":false,"rstrip":false,"normalized":false}],"normalizer":{"type":"BertNormalizer","clean_text":true,"handle_chinese_chars":false,"strip_accents":false,"lowercase":false},"pre_tokenizer":{"type":"BertPreTokenizer"},"post_processor":null,"decoder":{"type":"WordPiece","prefix":"##","cleanup":true},"model":{"unk_token":"[UNK]","continuing_subword_prefix":"##","max_input_chars_per_word":100,"vocab":{"[PAD]":0,"[UNK]":1,"[CLS]":2,"[SEP]":3,"[MASK]":4,"!":5,"\"":6,"#":7,"$":8,"%":9,"&":10,"'":11,"(":12,")":13,"*":14,"+":15,",":16,"-":17,".":18,"/":19,"0":20,"1":21,"2":22,"3":23,"4":24,"5":25,"6":26,"7":27,"8":28,"9":29,":":30,";":31,"<":32,"=":33,">":34,"?":35,"@":36,"A":37,"B":38,"C":39,"D":40,"E":41,"F":42,"G":43,"H":44,"I":45,"J":46,"K":47,"L":48,"M":49,"N":50,"O":51,"P":52,"Q":53,"R":54,"S":55,"T":56,"U":57,"V":58,"W":59,"X":60,"Y":61,"Z":62,"[":63,"\\":64,"]":65,"^":66,"_":67,"`":68,"a":69,"b":70,"c":71,"d":72,"e":73,"f":74,"g":75,"h":76,"i":77,"j":78,"k":79,"l":80,"m":81,"n":82,"o":83,"p":84,"q":85,"r":86,"s":87,"t":88,"u":89,"v":90,"w":91,"x":92,"y":93,"z":94,"{":95,"|":96,"}":97,"~":98,"¢":99,"£":100,"¤":101,"¥":102,"¦":103,"¨":104,"©":105,"ª":106,"¬":107,"®":108,"¯":109,"°":110,"±":111,"²":112,"³":113,"µ":114,"¸":115,"¹":116,"º":117,"¼":118,"½":119,"¾":120,"À":121,"Á":122,"Â":123,"Ã":124,"Ä":125,"Å":126,"Æ":127,"Ç":128,"È":129,"É":130,"Ê":131,"Ë":132,"Ì":133,"Í":134,"Î":135,"Ï":136,"Ð":137,"Ñ":138,"Ò":139,"Ó":140,"Ô":141,"Õ":142,"Ö":143,"×":144,"Ø":145,"Ú":146,"Ü":147,"Þ":148,"ß":149,"à":150,"á":151,"â":152,"ã":153,"ä":154,"å":155,"æ":156,"ç":157,"è":158,"é":159,"ê":160,"ë":161,"ì":162,"í":163,"î":164,"ï":165,"ð":166,"ñ":167,"ò":168,"ó":169,"ô":170,"õ":171,"ö":172,"÷":173,"ø":174,"ù":175,"ú":176,"û":177,"ü":178,"ý":179,"þ":180,"ÿ":181,"Ā":182,"ā":183,"ă":184,"ą":185,"Ć":186,"ć":187,"Č":188,"č":189,"Ď":190,"Đ":191,"đ":192,"ē":193,"ė":194,"ę":195,"ě":196,"ğ":197,"ī":198,"ĭ":199,"İ":200,"ı":201,"ĺ":202,"ļ":203,"ľ":204,"Ł":205,"ł":206,"ń":207,"ņ":208,"ň":209,"Ŋ":210,"ŋ":211,"Ō":212,"ō":213,"ŏ":214,"ő":215,"Œ":216,"œ":217,"Ř":218,"ř":219,"Ś":220,"ś":221,"Ş":222,"ş":223,"Š":224,"š":225,"ţ":226,"ť":227,"ŧ":228,"ũ":229,"ū":230,"ŭ":231,"ů":232,"ų":233,"Ÿ":234,"ź":235,"Ż":236,"ż":237,"Ž":238,"ž":239,"ſ":240,"ƒ":241,"ơ":242,"ƭ":243,"ư":244,"ǎ":245,"ǐ":246,"ǒ":247,"ǔ":248,"ǫ":249,"ș":250,"ț":251,"Ʌ":252,"ɑ":253,"ɔ":254,"ə":255,"ɛ":256,"ɪ":257,"ʁ":258,"ʃ":259,"ʰ":260,"ʹ":261,"ʻ":262,"ʿ":263,"ˆ":264,"ˇ":265,"ˈ":266,"ː":267,"˚":268,"˜":269,"́":270,"̊":271,"Α":272,"Β":273,"Γ":274,"Δ":275,"Ε":276,"Η":277,"Θ":278,"Ι":279,"Κ":280,"Λ":281,"Μ":282,"Ν":283,"Ο":284,"Π":285,"Ρ":286,"Σ":287,"Τ":288,"Υ":289,"Φ":290,"Χ":291,"Ω":292,"ά":293,"έ":294,"ή":295,"ί":296,"α":297,"β":298,"γ":299,"δ":300,"ε":301,"ζ":302,"η":303,"θ":304,"ι":305,"κ":306,"λ":307,"μ":308,"ν":309,"ξ":310,"ο":311,"π":312,"ρ":313,"ς":314,"σ":315,"τ":316,"υ":317,"φ":318,"χ":319,"ψ":320,"ω":321,"ό":322,"ύ":323,"ώ":324,"ϕ":325,"Ѕ":326,"І":327,"А":328,"Б":329,"В":330,"Г":331,"Д":332,"Е":333,"Ж":334,"З":335,"И":336,"К":337,"Л":338,"М":339,"Н":340,"О":341,"П":342,"Р":343,"С":344,"Т":345,"У":346,"Ф":347,"Х":348,"Ц":349,"Ч":350,"Ш":351,"Э":352,"Ю":353,"Я":354,"а":355,"б":356,"в":357,"г":358,"д":359,"е":360,"ж":361,"з":362,"и":363,"й":364,"к":365,"л":366,"м":367,"н":368,"о":369,"п":370,"р":371,"с":372,"т":373,"у":374,"ф":375,"х":376,"ц":377,"ч":378,"ш":379,"щ":380,"ъ":381,"ы":382,"ь":383,"э":384,"ю":385,"я":386,"ё":387,"і":388,"ї":389,"ј":390,"њ":391,"Ґ":392,"Թ":393,"Ռ":394,"Վ":395,"ա":396,"ե":397,"ի":398,"յ":399,"ն":400,"ո":401,"ր":402,"ְ":403,"ִ":404,"ֵ":405,"ֶ":406,"ַ":407,"ָ":408,"ֹ":409,"ּ":410,"ׁ":411,"א":412,"ב":413,"ג":414,"ד":415,"ה":416,"ו":417,"ז":418,"ח":419,"ט":420,"י":421,"כ":422,"ל":423,"ם":424,"מ":425,"ן":426,"נ":427,"ס":428,"ע":429,"פ":430,"צ":431,"ק":432,"ר":433,"ש":434,"ת":435,"ء":436,"آ":437,"أ":438,"إ":439,"ئ":440,"ا":441,"ب":442,"ة":443,"ت":444,"ث":445,"ج":446,"ح":447,"خ":448,"د":449,"ذ":450,"ر":451,"ز":452,"س":453,"ش":454,"ص":455,"ض":456,"ط":457,"ع":458,"غ":459,"ـ":460,"ف":461,"ق":462,"ك":463,"ل":464,"م":465,"ن":466,"ه":467,"و":468,"ى":469,"ي":470,"َ":471,"پ":472,"ک":473,"گ":474,"ی":475,"क":476,"ज":477,"त":478,"द":479,"न":480,"प":481,"म":482,"य":483,"र":484,"ल":485,"व":486,"स":487,"ह":488,"ा":489,"ि":490,"ी":491,"े":492,"्":493,"া":494,"ਾ":495,"ਿ":496,"்":497,"ก":498,"ง":499,"ท":500,"น":501,"ม":502,"ย":503,"ร":504,"ล":505,"ว":506,"อ":507,"ั":508,"า":509,"฿":510,"เ":511,"่":512,"ག":513,"ད":514,"པ":515,"བ":516,"ར":517,"ས":518,"ི":519,"ེ":520,"ོ":521,"ა":522,"ე":523,"ი":524,"ღ":525,"Ḥ":526,"ḥ":527,"ṃ":528,"ṇ":529,"ṣ":530,"ṭ":531,"ạ":532,"ả":533,"ấ":534,"ầ":535,"ẩ":536,"ậ":537,"ế":538,"ề":539,"ể":540,"ễ":541,"ệ":542,"ị":543,"ọ":544,"ố":545,"ồ":546,"ộ":547,"ớ":548,"ờ":549,"ở":550,"ủ":551,"ự":552,"⁄":553,"₂":554,"₨":555,"€":556,"℃":557,"℉":558,"™":559,"←":560,"↑":561,"→":562,"↓":563,"↗":564,"∂":565,"∆":566,"∇":567,"∈":568,"∏":569,"−":570,"∙":571,"√":572,"∞":573,"∫":574,"≈":575,"≤":576,"≥":577,"⋅":578,"─":579,"│":580,"█":581,"■":582,"□":583,"▪":584,"▫":585,"▲":586,"▶":587,"▸":588,"►":589,"▼":590,"◀":591,"◄":592,"◆":593,"◉":594,"○":595,"●":596,"◗":597,"☀":598,"★":599,"☆":600,"☎":601,"☺":602,"♀":603,"♂":604,"♠":605,"♡":606,"♣":607,"♥":608,"♦":609,"♫":610,"⚫":611,"✂":612,"✆":613,"✍":614,"✑":615,"✓":616,"✔":617,"✚":618,"✨":619,"✪":620,"✶":621,"✸":622,"❄":623,"❆":624,"❑":625,"❖":626,"❚":627,"❞":628,"❤":629,"❥":630,"➊":631,"➋":632,"➌":633,"➍":634,"➔":635,"➜":636,"➤":637,"➥":638,"➦":639,"⠀":640,"あ":641,"い":642,"う":643,"え":644,"お":645,"か":646,"が":647,"き":648,"く":649,"け":650,"こ":651,"さ":652,"し":653,"す":654,"そ":655,"た":656,"だ":657,"ち":658,"っ":659,"つ":660,"て":661,"で":662,"と":663,"ど":664,"な":665,"に":666,"の":667,"は":668,"ま":669,"み":670,"め":671,"も":672,"や":673,"よ":674,"ら":675,"り":676,"る":677,"れ":678,"を":679,"ん":680,"ア":681,"ィ":682,"イ":683,"ウ":684,"エ":685,"オ":686,"カ":687,"キ":688,"ク":689,"グ":690,"コ":691,"サ":692,"シ":693,"ジ":694,"ス":695,"ズ":696,"タ":697,"ダ":698,"チ":699,"ッ":700,"ツ":701,"テ":702,"デ":703,"ト":704,"ド":705,"ナ":706,"ニ":707,"バ":708,"パ":709,"ビ":710,"ピ":711,"フ":712,"ブ":713,"プ":714,"マ":715,"ミ":716,"ム":717,"メ":718,"ャ":719,"ュ":720,"ラ":721,"リ":722,"ル":723,"レ":724,"ロ":725,"ン":726,"ー":727,"㈀":728,"㘀":729,"㤀":730,"㨀":731,"䄀":732,"䈀":733,"䐀":734,"䔀":735,"䘀":736,"䜀":737,"䤀":738,"䬀":739,"䰀":740,"䴀":741,"一":742,"丁":743,"万":744,"三":745,"上":746,"下":747,"不":748,"世":749,"业":750,"东":751,"中":752,"为":753,"主":754,"之":755,"九":756,"乡":757,"了":758,"事":759,"二":760,"五":761,"京":762,"人":763,"今":764,"代":765,"以":766,"伀":767,"会":768,"作":769,"元":770,"光":771,"全":772,"八":773,"公":774,"六":775,"内":776,"准":777,"出":778,"刀":779,"分":780,"利":781,"前":782,"力":783,"匀":784,"化":785,"北":786,"区":787,"十":788,"华":789,"单":790,"南":791,"原":792,"县":793,"双":794,"发":795,"口":796,"古":797,"台":798,"司":799,"吀":800,"合":801,"同":802,"名":803,"和":804,"品":805,"嘀":806,"四":807,"国":808,"图":809,"國":810,"在":811,"地":812,"场":813,"址":814,"坛":815,"城":816,"多":817,"大":818,"天":819,"太":820,"奖":821,"女":822,"好":823,"姐":824,"子":825,"学":826,"安":827,"宗":828,"定":829,"宝":830,"家":831,"富":832,"小":833,"山":834,"川":835,"州":836,"工":837,"己":838,"市":839,"帝":840,"平":841,"年":842,"库":843,"建":844,"开":845,"式":846,"彩":847,"德":848,"心":849,"愀":850,"戀":851,"成":852,"我":853,"手":854,"报":855,"挂":856,"搀":857,"攀":858,"教":859,"数":860,"文":861,"料":862,"新":863,"方":864,"族":865,"日":866,"昀":867,"明":868,"是":869,"時":870,"最":871,"月":872,"有":873,"期":874,"未":875,"本":876,"机":877,"李":878,"村":879,"来":880,"東":881,"林":882,"果":883,"栀":884,"椀":885,"樀":886,"欀":887,"正":888,"武":889,"氀":890,"民":891,"氓":892,"水":893,"江":894,"河":895,"治":896,"法":897,"波":898,"洀":899,"海":900,"渀":901,"港":902,"漀":903,"瀀":904,"爀":905,"版":906,"牌":907,"物":908,"特":909,"狗":910,"猀":911,"玄":912,"王":913,"琀":914,"理":915,"甀":916,"生":917,"用":918,"田":919,"甲":920,"瘀":921,"白":922,"的":923,"皇":924,"真":925,"石":926,"码":927,"礀":928,"社":929,"神":930,"福":931,"空":932,"站":933,"算":934,"管":935,"精":936,"經":937,"红":938,"经":939,"网":940,"美":941,"老":942,"者":943,"肖":944,"能":945,"自":946,"色":947,"花":948,"藏":949,"行":950,"街":951,"西":952,"要":953,"解":954,"论":955,"财":956,"资":957,"跑":958,"路":959,"辛":960,"通":961,"道":962,"部":963,"都":964,"里":965,"金":966,"镇":967,"长":968,"门":969,"阳":970,"集":971,"香":972,"马":973,"高":974,"黄":975,"龙":976,"기":977,"다":978,"대":979,"리":980,"사":981,"산":982,"의":983,"이":984,"한":985,"️":986,"🏻":987,"🏼":988,"👍":989,"👏":990,"😀":991,"😁":992,"😂":993,"😃":994,"😄":995,"😅":996,"😉":997,"😊":998,"😍":999,"😛":1000,"🙁":1001,"🙂":1002,"🙌":1003,"🙏":1004,"##å":1005,"##e":1006,"##n":1007,"##d":1008,"##v":1009,"##r":1010,"##g":1011,"##t":1012,"##o":1013,"##B":1014,"##s":1015,"##f":1016,"##l":1017,"##m":1018,"##i":1019,"##a":1020,"##ø":1021,"##k":1022,"##p":1023,"##T":1024,"##A":1025,"##V":1026,"##S":1027,"##Ø":1028,"##I":1029,"##E":1030,"##N":1031,"##L":1032,"##C":1033,"##U":1034,"##K":1035,"##J":1036,"##D":1037,"##h":1038,"##y":1039,"##u":1040,"##1":1041,"##0":1042,"##b":1043,"##c":1044,"##z":1045,"##j":1046,"##H":1047,"##æ":1048,"##Q":1049,"##R":1050,"##O":1051,"##3":1052,"##5":1053,"##4":1054,"##W":1055,"##G":1056,"##9":1057,"##M":1058,"##Å":1059,"##w":1060,"##F":1061,"##7":1062,"##2":1063,"##6":1064,"##ä":1065,"##о":1066,"##е":1067,"##Y":1068,"##è":1069,"##é":1070,"##ラ":1071,"##ー":1072,"##ン":1073,"##q":1074,"##x":1075,"##О":1076,"##К":1077,"##У":1078,"##М":1079,"##Е":1080,"##Н":1081,"##Т":1082,"##В":1083,"##ß":1084,"##á":1085,"##8":1086,"##P":1087,"##ö":1088,"##É":1089,"##Æ":1090,"##南":1091,"##族":1092,"##乡":1093,"##р":1094,"##б":1095,"##в":1096,"##а":1097,"##н":1098,"##и":1099,"##я":1100,"##м":1101,"##¬":1102,"##đ":1103,"##υ":1104,"##μ":1105,"##φ":1106,"##ε":1107,"##ρ":1108,"##ό":1109,"##ν":1110,"##τ":1111,"##ω":1112,"##Z":1113,"##ë":1114,"##Υ":1115,"##°":1116,"##£":1117,"##у":1118,"##д":1119,"##з":1120,"##ё":1121,"##X":1122,"##Š":1123,"##ਿ":1124,"##ü":1125,"##ſ":1126,"##à":1127,"##λ":1128,"##ι":1129,"##ο":1130,"##ς":1131,"##ô":1132,"##ч":1133,"##к":1134,"##■":1135,"##西":1136,"##自":1137,"##治":1138,"##州":1139,"##â":1140,"##下":1141,"##小":1142,"##大":1143,"##家":1144,"##明":1145,"##ï":1146,"##ș":1147,"##ă":1148,"##ل":1149,"##ف":1150,"##ن":1151,"##ا":1152,"##ر":1153,"##ř":1154,"##ó":1155,"##肖":1156,"##解":1157,"##公":1158,"##式":1159,"##š":1160,"##®":1161,"##ą":1162,"##ā":1163,"##ī":1164,"##í":1165,"##İ":1166,"##л":1167,"##т":1168,"##́":1169,"##г":1170,"##河":1171,"##街":1172,"##道":1173,"##子":1174,"##Ž":1175,"##ł":1176,"##с":1177,"##х":1178,"##ˇ":1179,"##¸":1180,"##і":1181,"##č":1182,"##™":1183,"##ò":1184,"##δ":1185,"##κ":1186,"##η":1187,"##σ":1188,"##ά":1189,"##ŧ":1190,"##ç":1191,"##õ":1192,"##年":1193,"##Р":1194,"##И":1195,"##ð":1196,"##Ü":1197,"##ę":1198,"##Í":1199,"##台":1200,"##报":1201,"##码":1202,"##Ä":1203,"##ć":1204,"##⁄":1205,"##ա":1206,"##ф":1207,"##ъ":1208,"##п":1209,"##Ã":1210,"##ί":1211,"##ū":1212,"##す":1213,"##ら":1214,"##い":1215,"##の":1216,"##א":1217,"##ו":1218,"##ב":1219,"##נ":1220,"##י":1221,"##Ö":1222,"##П":1223,"##त":1224,"##ी":1225,"##њ":1226,"##º":1227,"##©":1228,"##й":1229,"##ŋ":1230,"##波":1231,"##ã":1232,"##的":1233,"##国":1234,"##€":1235,"##Á":1236,"##Ŋ":1237,"##ì":1238,"##●":1239,"##京":1240,"##ビ":1241,"##ッ":1242,"##グ":1243,"##サ":1244,"##イ":1245,"##ト":1246,"##安":1247,"##國":1248,"##±":1249,"##ع":1250,"##ش":1251,"##ú":1252,"##ы":1253,"##正":1254,"##田":1255,"##上":1256,"##心":1257,"##²":1258,"##前":1259,"##か":1260,"##に":1261,"##し":1262,"##て":1263,"##ま":1264,"##ה":1265,"##ד":1266,"##ס":1267,"##ם":1268,"##山":1269,"##市":1270,"##ш":1271,"##宗":1272,"##ц":1273,"##ь":1274,"##ê":1275,"##Â":1276,"##中":1277,"##东":1278,"##是":1279,"##部":1280,"##東":1281,"##Ê":1282,"##ю":1283,"##أ":1284,"##غ":1285,"##و":1286,"##ط":1287,"##˚":1288,"##Ó":1289,"##女":1290,"##方":1291,"##ж":1292,"##س":1293,"##م":1294,"##Д":1295,"##С":1296,"##Λ":1297,"##Ω":1298,"##Ν":1299,"##Ι":1300,"##Ο":1301,"##Ç":1302,"##ž":1303,"##学":1304,"##社":1305,"##会":1306,"##主":1307,"##利":1308,"##高":1309,"##手":1310,"##ạ":1311,"##ý":1312,"##ي":1313,"##ة":1314,"##¤":1315,"##♦":1316,"##¥":1317,"##ñ":1318,"##ਾ":1319,"##十":1320,"##五":1321,"##多":1322,"##分":1323,"##ǔ":1324,"##ח":1325,"##פ":1326,"##ù":1327,"##な":1328,"##全":1329,"##シ":1330,"##ズ":1331,"##能":1332,"##港":1333,"##开":1334,"##奖":1335,"##一":1336,"##ض":1337,"##ニ":1338,"##ア":1339,"##さ":1340,"##ん":1341,"##料":1342,"##理":1343,"##集":1344,"##漀":1345,"##欀":1346,"##猀":1347,"##攀":1348,"##渀":1349,"##林":1350,"##د":1351,"##镇":1352,"##ب":1353,"##生":1354,"##阳":1355,"##▶":1356,"##和":1357,"##平":1358,"##最":1359,"##ώ":1360,"##も":1361,"##ク":1362,"##ロ":1363,"##バ":1364,"##ル":1365,"##キ":1366,"##ń":1367,"##ź":1368,"##ɔ":1369,"##ė":1370,"##ت":1371,"##ص":1372,"##π":1373,"##γ":1374,"##ψ":1375,"##♥":1376,"##武":1377,"##石":1378,"##三":1379,"##人":1380,"##为":1381,"##þ":1382,"##û":1383,"##ئ":1384,"##特":1385,"##ा":1386,"##स":1387,"##ि":1388,"##क":1389,"##्":1390,"##य":1391,"##ţ":1392,"##工":1393,"##作":1394,"##品":1395,"##了":1396,"##メ":1397,"##が":1398,"##た":1399,"##パ":1400,"##ス":1401,"##ド":1402,"##を":1403,"##力":1404,"##チ":1405,"##は":1406,"##で":1407,"##き":1408,"##️":1409,"##−":1410,"##ě":1411,"##э":1412,"##ή":1413,"##こ":1414,"##と":1415,"##Л":1416,"##ť":1417,"##ح":1418,"##来":1419,"##ō":1420,"##А":1421,"##ミ":1422,"##ナ":1423,"##ē":1424,"##œ":1425,"##ǎ":1426,"##ャ":1427,"##α":1428,"##タ":1429,"##ț":1430,"##ї":1431,"##Ѕ":1432,"##代":1433,"##事":1434,"##★":1435,"##پ":1436,"##空":1437,"##ồ":1438,"##ג":1439,"##ק":1440,"##ל":1441,"##花":1442,"##ʰ":1443,"##ɛ":1444,"##ː":1445,"##ַ":1446,"##ְ":1447,"##ר":1448,"##ִ":1449,"##ָ":1450,"##ּ":1451,"##天":1452,"##ż":1453,"##다":1454,"##î":1455,"##王":1456,"##古":1457,"##本":1458,"##つ":1459,"##り":1460,"##ĭ":1461,"##っ":1462,"##レ":1463,"##デ":1464,"##ィ":1465,"##化":1466,"##文":1467,"##의":1468,"##门":1469,"##ह":1470,"##न":1471,"##द":1472,"##ج":1473,"##ه":1474,"##版":1475,"##果":1476,"##单":1477,"##双":1478,"##ֹ":1479,"##ك":1480,"##َ":1481,"##お":1482,"##め":1483,"##る":1484,"##Я":1485,"##Г":1486,"##˜":1487,"##ų":1488,"##龙":1489,"##图":1490,"##库":1491,"##テ":1492,"##כ":1493,"##ת":1494,"##β":1495,"##ś":1496,"##以":1497,"##村":1498,"##ύ":1499,"##È":1500,"##网":1501,"##站":1502,"##ʃ":1503,"##ɑ":1504,"##爀":1505,"##ى":1506,"##ի":1507,"##ն":1508,"##瀀":1509,"##琀":1510,"##椀":1511,"##栀":1512,"##氀":1513,"##法":1514,"##地":1515,"##ő":1516,"##ņ":1517,"##ş":1518,"##Ð":1519,"##מ":1520,"##ֵ":1521,"##ע":1522,"##ı":1523,"##ậ":1524,"##ǫ":1525,"##خ":1526,"##之":1527,"##牌":1528,"##ล":1529,"##÷":1530,"##า":1531,"##ก":1532,"##ร":1533,"##ม":1534,"##น":1535,"##ั":1536,"##ง":1537,"##อ":1538,"##เ":1539,"##ย":1540,"##通":1541,"##♠":1542,"##Ô":1543,"##¨":1544,"##□":1545,"##ی":1546,"##ğ":1547,"##ֶ":1548,"##χ":1549,"##ث":1550,"##え":1551,"##挂":1552,"##¾":1553,"##Ú":1554,"##Ë":1555,"##ª":1556,"##ũ":1557,"##光":1558,"##र":1559,"##प":1560,"##ÿ":1561,"##发":1562,"##×":1563,"##Х":1564,"##व":1565,"##☺":1566,"##川":1567,"##教":1568,"##长":1569,"##定":1570,"##ک":1571,"##Ñ":1572,"##县":1573,"##🏻":1574,"##►":1575,"##ש":1576,"##ṭ":1577,"##神":1578,"##算":1579,"##论":1580,"##坛":1581,"##洀":1582,"##ŏ":1583,"##θ":1584,"##ן":1585,"##😍":1586,"##辛":1587,"##─":1588,"##∏":1589,"##經":1590,"##Þ":1591,"##щ":1592,"##德":1593,"##ј":1594,"##内":1595,"##合":1596,"##同":1597,"##华":1598,"##四":1599,"##六":1600,"##玄":1601,"##机":1602,"##Б":1603,"##Ď":1604,"##ṣ":1605,"##彩":1606,"##马":1607,"##出":1608,"##美":1609,"##有":1610,"##物":1611,"##路":1612,"##帝":1613,"##成":1614,"##不":1615,"##🏼":1616,"##З":1617,"##🙌":1618,"##海":1619,"##区":1620,"##ა":1621,"##ი":1622,"##ق":1623,"##ز":1624,"##要":1625,"##்":1626,"##皇":1627,"##里":1628,"##≤":1629,"##用":1630,"##经":1631,"##ल":1632,"##月":1633,"##日":1634,"##❤":1635,"##¼":1636,"##ẩ":1637,"##ə":1638,"##Π":1639,"##在":1640,"##ƒ":1641,"##行":1642,"##あ":1643,"##䄀":1644,"##䰀":1645,"##刀":1646,"##伀":1647,"##匀":1648,"##䜀":1649,"##け":1650,"##ζ":1651,"##₂":1652,"##リ":1653,"##া":1654,"##名":1655,"##水":1656,"##¢":1657,"##カ":1658,"##真":1659,"##ט":1660,"##ʁ":1661,"##よ":1662,"##う":1663,"##े":1664,"##À":1665,"##∂":1666,"##金":1667,"##色":1668,"##新":1669,"##址":1670,"##ム":1671,"##ů":1672,"##ウ":1673,"##←":1674,"##↑":1675,"##◀":1676,"##😁":1677,"##😉":1678,"##έ":1679,"##瘀":1680,"##搀":1681,"##愀":1682,"##业":1683,"##³":1684,"##ư":1685,"##ờ":1686,"##姐":1687,"##○":1688,"##時":1689,"##世":1690,"##̊":1691,"##ե":1692,"##ジ":1693,"##城":1694,"##ˈ":1695,"##ち":1696,"##😃":1697,"##ピ":1698,"##プ":1699,"##白":1700,"##ň":1701,"##Ÿ":1702,"##资":1703,"##管":1704,"##म":1705,"##口":1706,"##ɪ":1707,"##场":1708,"##إ":1709,"##ʿ":1710,"##藏":1711,"##∙":1712,"##だ":1713,"##コ":1714,"##Ò":1715,"##く":1716,"##や":1717,"##れ":1718,"##者":1719,"##エ":1720,"##✨":1721,"##ء":1722,"##我":1723,"##¯":1724,"##▪":1725,"##フ":1726,"##ュ":1727,"##ľ":1728,"##Đ":1729,"##ブ":1730,"##℃":1731,"##ệ":1732,"##老":1733,"##江":1734,"##리":1735,"##数":1736,"##ṃ":1737,"##≈":1738,"##Č":1739,"##氓":1740,"##¦":1741,"##民":1742,"##산":1743,"##♡":1744,"##→":1745,"##¹":1746,"##Ф":1747,"##ʹ":1748,"##丁":1749,"##❄":1750,"##财":1751,"##ŭ":1752,"##二":1753,"##富":1754,"##ツ":1755,"##ơ":1756,"##▼":1757,"##甀":1758,"##ḥ":1759,"##♀":1760,"##ǐ":1761,"##ξ":1762,"##Ε":1763,"##Ρ":1764,"##Τ":1765,"##Ï":1766,"##▲":1767,"##Φ":1768,"##Α":1769,"##Κ":1770,"##Δ":1771,"##🙏":1772,"##己":1773,"##ļ":1774,"##元":1775,"##昀":1776,"##そ":1777,"##ど":1778,"##이":1779,"##未":1780,"##µ":1781,"##ṇ":1782,"##Œ":1783,"##І":1784,"##ׁ":1785,"##マ":1786,"##대":1787,"##ǒ":1788,"##ོ":1789,"##ག":1790,"##ས":1791,"##好":1792,"##Թ":1793,"##北":1794,"##∫":1795,"##👍":1796,"##✓":1797,"##㈀":1798,"##Χ":1799,"##Γ":1800,"##Σ":1801,"##ـ":1802,"##😀":1803,"##😅":1804,"##万":1805,"##ე":1806,"##期":1807,"##ེ":1808,"##Ж":1809,"##红":1810,"##准":1811,"##司":1812,"##ր":1813,"##յ":1814,"##ո":1815,"##建":1816,"##ダ":1817,"##צ":1818,"##ว":1819,"##ད":1820,"##䐀":1821,"##䔀":1822,"##㨀":1823,"##ज":1824,"##嘀":1825,"##䤀":1826,"##都":1827,"##√":1828,"##👏":1829,"##ذ":1830,"##⋅":1831,"##่":1832,"##ท":1833,"##八":1834,"##བ":1835,"##ז":1836,"##기":1837,"##😂":1838,"##原":1839,"##䬀":1840,"##吀":1841,"##今":1842,"##オ":1843,"##😊":1844,"##ớ":1845,"##黄":1846,"##Μ":1847,"##Ц":1848,"##精":1849,"##Ґ":1850,"##ĺ":1851,"##跑":1852,"##ấ":1853,"##戀":1854,"##Ḥ":1855,"##礀":1856,"##한":1857,"##ར":1858,"##گ":1859,"##☀":1860,"##Ş":1861,"##Ì":1862,"##ộ":1863,"##Ō":1864,"##Ż":1865,"##み":1866,"##宝":1867,"##狗":1868,"##ọ":1869,"##ự":1870,"##Ч":1871,"##✶":1872,"##ế":1873,"##樀":1874,"##ễ":1875,"##福":1876,"##½":1877,"##ị":1878,"##ố":1879,"##ˆ":1880,"##☆":1881,"##ả":1882,"##Ł":1883,"##Β":1884,"##Θ":1885,"##사":1886,"##❆":1887,"##Ш":1888,"##Ć":1889,"##➔":1890,"##ầ":1891,"##香":1892,"##ƭ":1893,"##Ā":1894,"##ề":1895,"##太":1896,"##九":1897,"##∆":1898,"##Э":1899,"##䴀":1900,"##甲":1901,"##䈀":1902,"##➤":1903,"##Î":1904,"##䘀":1905,"##✆":1906,"##Ř":1907,"##ʻ":1908,"##Ю":1909,"##∇":1910,"##Η":1911,"##ི":1912,"##∞":1913,"##♂":1914,"##█":1915,"##Õ":1916,"##😄":1917,"##⠀":1918,"##㘀":1919,"##㤀":1920,"##ღ":1921,"##✔":1922,"##↓":1923,"##🙂":1924,"##✍":1925,"##❖":1926,"##✂":1927,"##李":1928,"##Ś":1929,"##≥":1930,"##ể":1931,"##∈":1932,"##آ":1933,"##◄":1934,"##ở":1935,"##⚫":1936,"##↗":1937,"##Վ":1938,"##ϕ":1939,"##▫":1940,"##➦":1941,"##◆":1942,"##ủ":1943,"##➜":1944,"##✸":1945,"##♣":1946,"##│":1947,"##པ":1948,"##➥":1949,"##✪":1950,"##♫":1951,"##😛":1952,"##❥":1953,"##◗":1954,"##Ռ":1955,"##➊":1956,"##฿":1957,"##🙁":1958,"##❚":1959,"##Ʌ":1960,"##❞":1961,"##☎":1962,"##◉":1963,"##➋":1964,"##➌":1965,"##➍":1966,"##✑":1967,"##❑":1968,"##et":1969,"##te":1970,"##re":1971,"##an":1972,"##or":1973,"##ne":1974,"##de":1975,"##le":1976,"##in":1977,"##ar":1978,"##ke":1979,"##il":1980,"##ge":1981,"##om":1982,"og":1983,"##se":1984,"de":1985,"##li":1986,"me":1987,"##st":1988,"for":1989,"##ve":1990,"til":1991,"##ra":1992,"##me":1993,"det":1994,"##je":1995,"##is":1996,"##ing":1997,"##al":1998,"##on":1999,"en":2000,"av":2001,"er":2002,"##eg":2003,"som":2004,"##ter":2005,"##un":2006,"på":2007,"##at":2008,"##ri":2009,"##kke":2010,"med":2011,"st":2012,"##el":2013,"at":2014,"sk":2015,"##sk":2016,"##pp":2017,"##am":2018,"##ør":2019,"in":2020,"##kt":2021,"##ver":2022,"##ol":2023,"##gen":2024,"##it":2025,"##as":2026,"##ten":2027,"##id":2028,"##der":2029,"##ler":2030,"et":2031,"var":2032,"##ig":2033,"den":2034,"##lig":2035,"##ed":2036,"om":2037,"##nt":2038,"##ag":2039,"har":2040,"##ns":2041,"##ro":2042,"##kk":2043,"##ie":2044,"ikke":2045,"ut":2046,"##and":2047,"##ste":2048,"##ad":2049,"##nd":2050,"##ger":2051,"vi":2052,"##pe":2053,"##år":2054,"##ren":2055,"han":2056,"##be":2057,"be":2058,"Det":2059,"##sen":2060,"##ru":2061,"he":2062,"##ner":2063,"fra":2064,"opp":2065,"se":2066,"##ul":2067,"##tt":2068,"##he":2069,"##den":2070,"##ær":2071,"al":2072,"##ser":2073,"##ks":2074,"##us":2075,"##ur":2076,"##ning":2077,"##ot":2078,"De":2079,"ve":2080,"kan":2081,"19":2082,"seg":2083,"re":2084,"kom":2085,"##nn":2086,"no":2087,"##for":2088,"##nen":2089,"##iv":2090,"##ett":2091,"##ss":2092,"##het":2093,"så":2094,"##rer":2095,"sam":2096,"##ker":2097,"vil":2098,"men":2099,"jeg":2100,"##jø":2101,"el":2102,"##jon":2103,"##ik":2104,"##ang":2105,"##adde":2106,"må":2107,"hv":2108,"##nes":2109,"over":2110,"##len":2111,"hadde":2112,"bli":2113,"##ak":2114,"le":2115,"##mer":2116,"inn":2117,"##od":2118,"##ut":2119,"##ingen":2120,"##men":2121,"##att":2122,"si":2123,"##la":2124,"##res":2125,"##ord":2126,"##ok":2127,"gje":2128,"man":2129,"##ære":2130,"un":2131,"ble":2132,"ved":2133,"##ir":2134,"##ap":2135,"##ye":2136,"eller":2137,"##fe":2138,"##isk":2139,"20":2140,"##ort":2141,"sp":2142,"##så":2143,"du":2144,"##ikk":2145,"##lige":2146,"noe":2147,"##rå":2148,"##itt":2149,"##ll":2150,"##lse":2151,"and":2152,"hun":2153,"##are":2154,"##os":2155,"##art":2156,"ar":2157,"an":2158,"te":2159,"skal":2160,"##av":2161,"etter":2162,"##ret":2163,"##jo":2164,"##ier":2165,"før":2166,"##yg":2167,"der":2168,"##ans":2169,"pro":2170,"da":2171,"##old":2172,"##net":2173,"##ta":2174,"##ud":2175,"##ist":2176,"##ore":2177,"##sl":2178,"kon":2179,"##rø":2180,"sa":2181,"også":2182,"kun":2183,"##nde":2184,"##inger":2185,"##og":2186,"##ft":2187,"00":2188,"##iske":2189,"of":2190,"to":2191,"Jeg":2192,"##øy":2193,"Han":2194,"Me":2195,"##leg":2196,"år":2197,"##all":2198,"##nne":2199,"the":2200,"##ti":2201,"pe":2202,"være":2203,"##rd":2204,"##sp":2205,"##ly":2206,"##ling":2207,"##jer":2208,"li":2209,"##ry":2210,"sy":2211,"under":2212,"##und":2213,"##ant":2214,"##na":2215,"##beid":2216,"##um":2217,"hel":2218,"mot":2219,"##tte":2220,"ha":2221,"##si":2222,"St":2223,"##ppe":2224,"##va":2225,"##ken":2226,"##lt":2227,"##jen":2228,"ne":2229,"meg":2230,"dette":2231,"min":2232,"##ng":2233,"få":2234,"fe":2235,"##hete":2236,"18":2237,"##yr":2238,"##rem":2239,"fø":2240,"##ane":2241,"##var":2242,"kl":2243,"##kte":2244,"bru":2245,"##ld":2246,"##asjon":2247,"alle":2248,"sli":2249,"##vis":2250,"Men":2251,"##ete":2252,"##sm":2253,"andre":2254,"##ale":2255,"Vi":2256,"##rs":2257,"tid":2258,"##ært":2259,"##run":2260,"blir":2261,"##ab":2262,"##ch":2263,"##ket":2264,"sl":2265,"##jør":2266,"##mme":2267,"For":2268,"##red":2269,"##ov":2270,"##kker":2271,"kunne":2272,"10":2273,"mer":2274,"Nor":2275,"##let":2276,"##ber":2277,"##set":2278,"##skap":2279,"##del":2280,"##det":2281,"##jel":2282,"sin":2283,"##hold":2284,"##ige":2285,"pl":2286,"##oli":2287,"##ce":2288,"##ment":2289,"bl":2290,"denne":2291,"enn":2292,"ste":2293,"ny":2294,"##ien":2295,"##ion":2296,"god":2297,"##alt":2298,"He":2299,"fin":2300,"##ann":2301,"##nnom":2302,"##ven":2303,"##get":2304,"reg":2305,"skul":2306,"nå":2307,"##ast":2308,"komm":2309,"bet":2310,"bar":2311,"dem":2312,"ham":2313,"Be":2314,"##land":2315,"##ob":2316,"##iste":2317,"beg":2318,"bare":2319,"##les":2320,"ta":2321,"##ske":2322,"##fø":2323,"##per":2324,"når":2325,"noen":2326,"arbeid":2327,"##gene":2328,"##ma":2329,"Den":2330,"##ine":2331,"##du":2332,"her":2333,"lø":2334,"sel":2335,"##vik":2336,"frem":2337,"tre":2338,"ver":2339,"30":2340,"##sø":2341,"ma":2342,"fle":2343,"##mp":2344,"vel":2345,"gjennom":2346,"En":2347,"##sten":2348,"##dre":2349,"##tene":2350,"hvor":2351,"##ire":2352,"Og":2353,"##ue":2354,"##llom":2355,"##ktig":2356,"##ass":2357,"##da":2358,"##vin":2359,"15":2360,"mange":2361,"##lag":2362,"##yn":2363,"ti":2364,"##ningen":2365,"##atte":2366,"ned":2367,"##ran":2368,"la":2369,"##ffe":2370,"mellom":2371,"skulle":2372,"Hun":2373,"##im":2374,"sammen":2375,"##ings":2376,"##ia":2377,"sier":2378,"##lene":2379,"##jonen":2380,"vært":2381,"alt":2382,"hver":2383,"##isse":2384,"##lem":2385,"Sk":2386,"##ba":2387,"slik":2388,"##stil":2389,"##pen":2390,"##ød":2391,"##runn":2392,"##yl":2393,"ville":2394,"##tid":2395,"tr":2396,"201":2397,"##kket":2398,"17":2399,"sm":2400,"##ic":2401,"ho":2402,"##ug":2403,"##ster":2404,"dag":2405,"fort":2406,"uten":2407,"del":2408,"land":2409,"##gi":2410,"##jøre":2411,"##vi":2412,"sø":2413,"##vel":2414,"##00":2415,"ly":2416,"##oe":2417,"hø":2418,"##kken":2419,"##rende":2420,"##nene":2421,"hen":2422,"##gjen":2423,"ein":2424,"Se":2425,"##met":2426,"lang":2427,"##op":2428,"##ninger":2429,"gj":2430,"12":2431,"##ff":2432,"ty":2433,"##tel":2434,"nor":2435,"##tter":2436,"##dere":2437,"##sent":2438,"oss":2439,"##rie":2440,"##legg":2441,"##ring":2442,"11":2443,"or":2444,"##dene":2445,"deg":2446,"##sel":2447,"##ille":2448,"bå":2449,"##ost":2450,"mu":2451,"hans":2452,"første":2453,"##rat":2454,"vir":2455,"går":2456,"##vet":2457,"fram":2458,"##ult":2459,"##ub":2460,"henne":2461,"gå":2462,"Dette":2463,"##dag":2464,"##tes":2465,"nær":2466,"##kon":2467,"##ise":2468,"##utt":2469,"byg":2470,"##elt":2471,"##ets":2472,"Norge":2473,"199":2474,"##ny":2475,"##anske":2476,"In":2477,"16":2478,"stor":2479,"##rene":2480,"##bru":2481,"rett":2482,"fikk":2483,"dei":2484,"##ål":2485,"kje":2486,"##pet":2487,"##før":2488,"like":2489,"mil":2490,"fore":2491,"Da":2492,"##gan":2493,"får":2494,"##lo":2495,"fol":2496,"##akt":2497,"##rik":2498,"ans":2499,"Re":2500,"beste":2501,"##dt":2502,"grunn":2503,"##rist":2504,"##ull":2505,"##joner":2506,"hva":2507,"samme":2508,"igjen":2509,"Jo":2510,"##skje":2511,"##ust":2512,"##dig":2513,"##lsen":2514,"ser":2515,"##opp":2516,"nok":2517,"##over":2518,"200":2519,"sv":2520,"kjø":2521,"ann":2522,"##som":2523,"liv":2524,"##rin":2525,"##di":2526,"ten":2527,"##gang":2528,"##ktet":2529,"##kl":2530,"gi":2531,"##heten":2532,"##ER":2533,"##des":2534,"Ar":2535,"##ali":2536,"kommer":2537,"##sert":2538,"lag":2539,"##mid":2540,"poli":2541,"Ve":2542,"##ette":2543,"##ram":2544,"beh":2545,"##par":2546,"##ode":2547,"##elle":2548,"pers":2549,"ord":2550,"##nings":2551,"stør":2552,"##alg":2553,"kommu":2554,"##kom":2555,"flere":2556,"ingen":2557,"13":2558,"bed":2559,"tra":2560,"hele":2561,"##fter":2562,"##eter":2563,"føl":2564,"sko":2565,"##lø":2566,"seiv":2567,"14":2568,"gikk":2569,"ge":2570,"##ard":2571,"lig":2572,"godt":2573,"spe":2574,"disse":2575,"nye":2576,"mø":2577,"The":2578,"sn":2579,"gang":2580,"##ive":2581,"Ne":2582,"Le":2583,"store":2584,"##kse":2585,"##skri":2586,"##ris":2587,"dø":2588,"sine":2589,"##ill":2590,"##ell":2591,"##ksjon":2592,"##ide":2593,"##ga":2594,"##ska":2595,"litt":2596,"##dom":2597,"Al":2598,"selv":2599,"både":2600,"##bake":2601,"##heter":2602,"##ha":2603,"Mar":2604,"##sy":2605,"##kkje":2606,"##ation":2607,"##kter":2608,"siden":2609,"gjøre":2610,"mar":2611,"helt":2612,"mye":2613,"tilbake":2614,"eg":2615,"##ordan":2616,"##sb":2617,"mulig":2618,"tro":2619,"kont":2620,"forb":2621,"kra":2622,"hus":2623,"##slo":2624,"SS":2625,"##nere":2626,"##dd":2627,"##rett":2628,"##kes":2629,"##ron":2630,"##tet":2631,"vis":2632,"##ktiv":2633,"##ses":2634,"vin":2635,"ikkje":2636,"hå":2637,"##hol":2638,"red":2639,"##kel":2640,"gam":2641,"##EN":2642,"kro":2643,"eks":2644,"høy":2645,"bil":2646,"##form":2647,"par":2648,"21":2649,"mor":2650,"##min":2651,"198":2652,"##gå":2653,"ad":2654,"skri":2655,"På":2656,"egen":2657,"annet":2658,"Her":2659,"##undt":2660,"frå":2661,"##reg":2662,"pa":2663,"##slag":2664,"len":2665,"mo":2666,"##stad":2667,"##rig":2668,"##stre":2669,"##hus":2670,"##nder":2671,"##vil":2672,"hje":2673,"##oner":2674,"spør":2675,"##arbeid":2676,"blitt":2677,"##sa":2678,"Du":2679,"sitt":2680,"ei":2681,"##ved":2682,"##ip":2683,"##ligere":2684,"000":2685,"##ange":2686,"25":2687,"##rom":2688,"gra":2689,"##ite":2690,"sto":2691,"leg":2692,"##ndig":2693,"far":2694,"##vor":2695,"form":2696,"fly":2697,"måtte":2698,"ele":2699,"Te":2700,"sit":2701,"viktig":2702,"##kene":2703,"##med":2704,"forsk":2705,"pre":2706,"dri":2707,"##stå":2708,"##byg":2709,"##gende":2710,"forhold":2711,"##ruppe":2712,"vår":2713,"rundt":2714,"##dri":2715,"Je":2716,"ba":2717,"vå":2718,"##ingene":2719,"th":2720,"Pe":2721,"##asse":2722,"##ande":2723,"ra":2724,"##ttet":2725,"utvik":2726,"##anger":2727,"di":2728,"##olog":2729,"mennes":2730,"lå":2731,"Så":2732,"##inn":2733,"##mar":2734,"Ber":2735,"##sje":2736,"tok":2737,"jo":2738,"##ka":2739,"ska":2740,"hjel":2741,"22":2742,"gjel":2743,"##rede":2744,"kvin":2745,"Ch":2746,"##ras":2747,"##neste":2748,"##pl":2749,"##itet":2750,"##if":2751,"siste":2752,"mens":2753,"##orde":2754,"##ges":2755,"nat":2756,"pri":2757,"Joh":2758,"fun":2759,"mid":2760,"##gel":2761,"fors":2762,"van":2763,"by":2764,"##oren":2765,"is":2766,"Ja":2767,"bak":2768,"hal":2769,"##kn":2770,"##oll":2771,"ri":2772,"##sta":2773,"##yd":2774,"##ksom":2775,"gjør":2776,"##ct":2777,"##like":2778,"dom":2779,"##amil":2780,"inne":2781,"197":2782,"Til":2783,"##kje":2784,"ant":2785,"##kst":2786,"##satt":2787,"##pt":2788,"23":2789,"##iser":2790,"##tak":2791,"end":2792,"##ow":2793,"##use":2794,"Oslo":2795,"##ile":2796,"##rev":2797,"##istor":2798,"komme":2799,"##delig":2800,"inte":2801,"lu":2802,"##mt":2803,"hand":2804,"##val":2805,"kor":2806,"større":2807,"hvordan":2808,"##unn":2809,"Når":2810,"res":2811,"##ende":2812,"bør":2813,"##sf":2814,"Sp":2815,"sj":2816,"produ":2817,"##tern":2818,"##lik":2819,"sna":2820,"50":2821,"stat":2822,"kr":2823,"##ck":2824,"tren":2825,"com":2826,"hos":2827,"je":2828,"##ian":2829,"sett":2830,"##man":2831,"eit":2832,"gir":2833,"##atter":2834,"##nte":2835,"barn":2836,"fl":2837,"ga":2838,"tilf":2839,"annen":2840,"lov":2841,"##kelig":2842,"##rens":2843,"##ule":2844,"videre":2845,"##org":2846,"spesi":2847,"bort":2848,"fri":2849,"fått":2850,"##ym":2851,"##vir":2852,"nr":2853,"hol":2854,"sær":2855,"##asjonen":2856,"skje":2857,"fast":2858,"fyl":2859,"Der":2860,"Etter":2861,"ka":2862,"##ib":2863,"##io":2864,"Med":2865,"##vent":2866,"##dra":2867,"##anse":2868,"sig":2869,"Ha":2870,"dy":2871,"fa":2872,"kri":2873,"##lingen":2874,"ster":2875,"##ften":2876,"##dal":2877,"##bei":2878,"Ut":2879,"Sam":2880,"##gt":2881,"fordi":2882,"job":2883,"##sko":2884,"##føl":2885,"hennes":2886,"my":2887,"Kon":2888,"kal":2889,"su":2890,"##berg":2891,"hvis":2892,"##iver":2893,"##ys":2894,"##kning":2895,"områ":2896,"sta":2897,"##pro":2898,"gjelder":2899,"stø":2900,"##mentet":2901,"##sket":2902,"tar":2903,"står":2904,"folk":2905,"##kere":2906,"Nord":2907,"##tert":2908,"bor":2909,"vet":2910,"plan":2911,"lo":2912,"ofte":2913,"##pre":2914,"##ksemp":2915,"derfor":2916,"##konom":2917,"verd":2918,"rom":2919,"Hva":2920,"##iet":2921,"kap":2922,"stra":2923,"##dde":2924,"gjort":2925,"person":2926,"so":2927,"viser":2928,"bo":2929,"Har":2930,"##hand":2931,"gl":2932,"spørsm":2933,"aldri":2934,"mest":2935,"##oen":2936,"196":2937,"##tens":2938,"##sto":2939,"Er":2940,"øns":2941,"##delse":2942,"hold":2943,"ret":2944,"##ja":2945,"##iner":2946,"##agt":2947,"##ind":2948,"Ma":2949,"nett":2950,"tatt":2951,"blant":2952,"side":2953,"nød":2954,"##vende":2955,"organ":2956,"langt":2957,"##midler":2958,"mindre":2959,"sent":2960,"gre":2961,"prob":2962,"gjorde":2963,"svar":2964,"kommune":2965,"##ial":2966,"##stand":2967,"##far":2968,"##iller":2969,"lok":2970,"##assen":2971,"Gud":2972,"Et":2973,"40":2974,"led":2975,"##skapet":2976,"##allet":2977,"##her":2978,"##røm":2979,"##unkt":2980,"kanskje":2981,"##parte":2982,"Som":2983,"##ltid":2984,"innen":2985,"##yen":2986,"##amp":2987,"norske":2988,"##lle":2989,"prø":2990,"##sn":2991,"sikker":2992,"fortel":2993,"##ppen":2994,"##lser":2995,"Nå":2996,"rå":2997,"Ho":2998,"##ral":2999,"##ærer":3000,"eksemp":3001,"Ge":3002,"##vem":3003,"##son":3004,"45":3005,"##tre":3006,"##ister":3007,"sjø":3008,"gamle":3009,"Om":3010,"små":3011,"mener":3012,"politi":3013,"##OR":3014,"##tion":3015,"##IN":3016,"famil":3017,"mann":3018,"##ativ":3019,"sty":3020,"satt":3021,"af":3022,"bruk":3023,"##rykk":3024,"##sty":3025,"tidligere":3026,"24":3027,"##ina":3028,"først":3029,"Krist":3030,"##gelig":3031,"##rakt":3032,"nytt":3033,"part":3034,"##rige":3035,"begyn":3036,"Th":3037,"##stem":3038,"##asser":3039,"##by":3040,"ca":3041,"##ben":3042,"##isjon":3043,"Ved":3044,"##dan":3045,"##jor":3046,"##tale":3047,"##tere":3048,"vanske":3049,"kjen":3050,"##one":3051,"El":3052,"##AN":3053,"##tende":3054,"##sj":3055,"mål":3056,"tje":3057,"##ilt":3058,"##gens":3059,"##tidig":3060,"##ighet":3061,"tan":3062,"##asjoner":3063,"##dens":3064,"hoved":3065,"05":3066,"##rne":3067,"kroner":3068,"måte":3069,"ulike":3070,"##sh":3071,"##vene":3072,"full":3073,"##omm":3074,"##vens":3075,"bedre":3076,"##heng":3077,"all":3078,"kla":3079,"ting":3080,"alltid":3081,"##lå":3082,"##alte":3083,"##bo":3084,"ligger":3085,"natur":3086,"##olle":3087,"##gram":3088,"ber":3089,"La":3090,"##ds":3091,"##avn":3092,"195":3093,"deres":3094,"stort":3095,"nord":3096,"øy":3097,"##ith":3098,"ung":3099,"ro":3100,"con":3101,"##mel":3102,"##stit":3103,"##uren":3104,"##jell":3105,"##bet":3106,"vur":3107,"ven":3108,"tillegg":3109,"behand":3110,"dra":3111,"skole":3112,"##fun":3113,"03":3114,"##nsyn":3115,"finne":3116,"hvil":3117,"194":3118,"##ome":3119,"heller":3120,"histor":3121,"kre":3122,"hjem":3123,"##stru":3124,"åp":3125,"sky":3126,"ful":3127,"##mene":3128,"hvert":3129,"##pper":3130,"Pro":3131,"##ors":3132,"utt":3133,"##iden":3134,"syn":3135,"##går":3136,"Ro":3137,"op":3138,"##rid":3139,"##ure":3140,"bra":3141,"forskjel":3142,"gode":3143,"##hen":3144,"økonom":3145,"##ført":3146,"polit":3147,"##rit":3148,"tror":3149,"bø":3150,"on":3151,"##uro":3152,"enkel":3153,"##bud":3154,"##ringer":3155,"arbeids":3156,"##jær":3157,"Av":3158,"Reg":3159,"hatt":3160,"tru":3161,"dere":3162,"Ste":3163,"##gre":3164,"##etter":3165,"fag":3166,"Man":3167,"fo":3168,"##sv":3169,"##føre":3170,"06":3171,"kult":3172,"Hel":3173,"offe":3174,"##irke":3175,"mus":3176,"dat":3177,"##led":3178,"klar":3179,"##mot":3180,"sos":3181,"prosent":3182,"##resse":3183,"kn":3184,"hav":3185,"##raf":3186,"##midlertid":3187,"avg":3188,"forsø":3189,"hør":3190,"##ktige":3191,"##ater":3192,"##andre":3193,"skjø":3194,"##ous":3195,"##ies":3196,"norsk":3197,"##bar":3198,"lite":3199,"##beider":3200,"##ftet":3201,"##aste":3202,"veg":3203,"sik":3204,"kar":3205,"35":3206,"##lighet":3207,"Norsk":3208,"##partementet":3209,"Am":3210,"halv":3211,"dre":3212,"bi":3213,"Denne":3214,"milli":3215,"##stan":3216,"as":3217,"##odet":3218,"Hvis":3219,"##AR":3220,"styr":3221,"##lie":3222,"valg":3223,"per":3224,"br":3225,"liten":3226,"jord":3227,"din":3228,"nødve":3229,"##olk":3230,"Johan":3231,"verden":3232,"vart":3233,"And":3234,"ind":3235,"##pa":3236,"va":3237,"55":3238,"##ST":3239,"svært":3240,"##ves":3241,"pen":3242,"gruppe":3243,"##kur":3244,"fakt":3245,"##ild":3246,"nærme":3247,"dire":3248,"inns":3249,"kva":3250,"nev":3251,"stå":3252,"Hvor":3253,"eksempel":3254,"tiden":3255,"##ilte":3256,"Kar":3257,"opple":3258,"##ain":3259,"ute":3260,"##sene":3261,"fem":3262,"##anen":3263,"##up":3264,"##ålet":3265,"imidlertid":3266,"##jone":3267,"mat":3268,"slutt":3269,"barne":3270,"vann":3271,"ferd":3272,"bok":3273,"lik":3274,"fot":3275,"ansvar":3276,"grad":3277,"##ald":3278,"lett":3279,"##lende":3280,"##ET":3281,"##stilling":3282,"senere":3283,"##ars":3284,"lenge":3285,"##kla":3286,"kraft":3287,"fire":3288,"##ike":3289,"pr":3290,"##sky":3291,"best":3292,"mennesker":3293,"omf":3294,"##lert":3295,"##gelse":3296,"nesten":3297,"sol":3298,"innt":3299,"##ong":3300,"##mann":3301,"Tor":3302,"Kan":3303,"##atet":3304,"##elles":3305,"Sve":3306,"samt":3307,"fil":3308,"kv":3309,"pos":3310,"An":3311,"ski":3312,"##dende":3313,"are":3314,"##itte":3315,"##inga":3316,"##oku":3317,"Bar":3318,"##ferd":3319,"##mess":3320,"prosje":3321,"gitt":3322,"holdt":3323,"akt":3324,"##spro":3325,"##styr":3326,"ønsker":3327,"##ich":3328,"unn":3329,"inform":3330,"Sø":3331,"ett":3332,"syke":3333,"193":3334,"særlig":3335,"##heim":3336,"meget":3337,"##ndt":3338,"slag":3339,"sted":3340,"##gte":3341,"gjen":3342,"arbeidet":3343,"høye":3344,"##utter":3345,"##ond":3346,"plass":3347,"##port":3348,"##uten":3349,"veldig":3350,"bruke":3351,"spur":3352,"kort":3353,"##rand":3354,"bry":3355,"lære":3356,"##vert":3357,"##verk":3358,"##hetene":3359,"Alle":3360,"##ted":3361,"Opp":3362,"enkelte":3363,"offent":3364,"vanskelig":3365,"##ae":3366,"ko":3367,"øye":3368,"ide":3369,"likevel":3370,"situ":3371,"##sg":3372,"Ny":3373,"##gere":3374,"##mb":3375,"##ikken":3376,"##ford":3377,"stad":3378,"##ho":3379,"hjemme":3380,"##teg":3381,"##fte":3382,"allerede":3383,"##sse":3384,"san":3385,"ja":3386,"spørsmål":3387,"aktiv":3388,"##under":3389,"bid":3390,"anon":3391,"##mber":3392,"##pte":3393,"##EL":3394,"forstå":3395,"opply":3396,"##spl":3397,"##sfor":3398,"Før":3399,"##eten":3400,"Mor":3401,"utvikling":3402,"Mo":3403,"sør":3404,"medlem":3405,"##velse":3406,"finnes":3407,"livet":3408,"årene":3409,"slike":3410,"26":3411,"tur":3412,"hjelp":3413,"##ndom":3414,"##nr":3415,"##jord":3416,"with":3417,"kommun":3418,"begynte":3419,"##lagt":3420,"28":3421,"27":3422,"##veld":3423,"året":3424,"behov":3425,"Un":3426,"anonym":3427,"repre":3428,"##ivå":3429,"##SA":3430,"met":3431,"holde":3432,"stand":3433,"betyd":3434,"Ola":3435,"rekke":3436,"##ppet":3437,"oppf":3438,"ene":3439,"##asje":3440,"##ote":3441,"kommet":3442,"##bl":3443,"ju":3444,"stu":3445,"##ity":3446,"##rasjon":3447,"skjer":3448,"Ikke":3449,"lenger":3450,"bedri":3451,"effe":3452,"Eg":3453,"våre":3454,"peri":3455,"##nter":3456,"##lv":3457,"nødvendig":3458,"landet":3459,"ter":3460,"foran":3461,"##ntet":3462,"domain":3463,"##ktor":3464,"01":3465,"tak":3466,"fleste":3467,"192":3468,"gjerne":3469,"##lit":3470,"##søke":3471,"Sel":3472,"rø":3473,"##ont":3474,"altså":3475,"##iene":3476,"ex":3477,"anonymous":3478,"pas":3479,"virkelig":3480,"paa":3481,"Fra":3482,"måne":3483,"that":3484,"helse":3485,"tils":3486,"kontr":3487,"##vat":3488,"##ay":3489,"##mpe":3490,"hende":3491,"##ark":3492,"stil":3493,"neste":3494,"##lede":3495,"død":3496,"##idt":3497,"##ps":3498,"begge":3499,"##syk":3500,"##kkel":3501,"synes":3502,"##ril":3503,"Hans":3504,"rel":3505,"enke":3506,"##ksomhet":3507,"ev":3508,"##ats":3509,"bef":3510,"##revet":3511,"eneste":3512,"ganger":3513,"foret":3514,"samarbeid":3515,"eie":3516,"##mmer":3517,"##vde":3518,"##mende":3519,"organis":3520,"##of":3521,"dagen":3522,"##istri":3523,"##else":3524,"##agn":3525,"visste":3526,"##uni":3527,"hjer":3528,"problem":3529,"Fe":3530,"bur":3531,"##lere":3532,"191":3533,"##vere":3534,"ledd":3535,"bruker":3536,"##late":3537,"##nende":3538,"##deling":3539,"forbin":3540,"29":3541,"sak":3542,"kny":3543,"##uk":3544,"At":3545,"Fot":3546,"hy":3547,"##ht":3548,"##dust":3549,"##angen":3550,"##året":3551,"##bli":3552,"##bygg":3553,"vei":3554,"hverandre":3555,"inter":3556,"mel":3557,"##lef":3558,"pres":3559,"##drag":3560,"##råk":3561,"lagt":3562,"##mark":3563,"gått":3564,"fjer":3565,"ungdom":3566,"Sol":3567,"fortsatt":3568,"##IL":3569,"ob":3570,"##alen":3571,"##rum":3572,"##merik":3573,"##alle":3574,"Sta":3575,"##takt":3576,"##ction":3577,"kost":3578,"kultur":3579,"miljø":3580,"##aly":3581,"##nskap":3582,"Pa":3583,"tun":3584,"løs":3585,"##pene":3586,"saken":3587,"felles":3588,"Sy":3589,"begy":3590,"##råd":3591,"dager":3592,"imp":3593,"bud":3594,"hånd":3595,"dår":3596,"vanlig":3597,"##sette":3598,"sje":3599,"klart":3600,"##æring":3601,"##stet":3602,"##van":3603,"To":3604,"bestemme":3605,"##leder":3606,"fant":3607,"sagt":3608,"##kret":3609,"##slut":3610,"forslag":3611,"att":3612,"Hol":3613,"Nei":3614,"##aner":3615,"##tta":3616,"samfun":3617,"##sett":3618,"leder":3619,"mine":3620,"po":3621,"##usjon":3622,"fiske":3623,"##ikt":3624,"krav":3625,"31":3626,"100":3627,"Andre":3628,"sette":3629,"bek":3630,"Bjør":3631,"stud":3632,"We":3633,"##oden":3634,"##ball":3635,"##iel":3636,"##uler":3637,"utenfor":3638,"intern":3639,"##alet":3640,"##sam":3641,"##linger":3642,"spurte":3643,"møte":3644,"svarte":3645,"##på":3646,"##kkelig":3647,"##ilde":3648,"##laget":3649,"slå":3650,"##nding":3651,"kjent":3652,"forut":3653,"fall":3654,"gar":3655,"##bruk":3656,"##hø":3657,"##lin":3658,"følge":3659,"##isen":3660,"mis":3661,"##spe":3662,"minst":3663,"Sa":3664,"enkelt":3665,"##fører":3666,"##ori":3667,"##ress":3668,"hodet":3669,"leng":3670,"tekn":3671,"##oret":3672,"teg":3673,"finner":3674,"##che":3675,"##kku":3676,"mør":3677,"##ivers":3678,"##ting":3679,"enda":3680,"##iale":3681,"##følge":3682,"kapit":3683,"forskjellige":3684,"marke":3685,"##ygg":3686,"##tatt":3687,"foreld":3688,"føle":3689,"Under":3690,"råd":3691,"trans":3692,"Kn":3693,"kunst":3694,"##udd":3695,"##utten":3696,"dersom":3697,"unge":3698,"bel":3699,"dis":3700,"forteller":3701,"Dag":3702,"event":3703,"##part":3704,"##mes":3705,"konkur":3706,"##rn":3707,"##akter":3708,"doku":3709,"dan":3710,"samtidig":3711,"##liv":3712,"brukt":3713,"års":3714,"vok":3715,"ban":3716,"Ta":3717,"kvinner":3718,"menn":3719,"Bl":3720,"##AL":3721,"Bo":3722,"nem":3723,"##ons":3724,"Ra":3725,"største":3726,"mitt":3727,"##områ":3728,"fred":3729,"##nns":3730,"Kom":3731,"##ndte":3732,"vurder":3733,"juni":3734,"##ffer":3735,"##we":3736,"##rert":3737,"##ON":3738,"tilfel":3739,"##kerne":3740,"seks":3741,"komp":3742,"mater":3743,"##menn":3744,"ganske":3745,"føre":3746,"##fra":3747,"Inn":3748,"hjelpe":3749,"##urs":3750,"02":3751,"##varer":3752,"pra":3753,"##lf":3754,"stedet":3755,"trenger":3756,"kvinne":3757,"informasjon":3758,"##uss":3759,"reise":3760,"kam":3761,"tenkte":3762,"09":3763,"Ka":3764,"Dan":3765,"##onen":3766,"##lege":3767,"set":3768,"na":3769,"ap":3770,"##kkurat":3771,"##uelle":3772,"Hv":3773,"##IS":3774,"Ander":3775,"ram":3776,"stille":3777,"syk":3778,"##gje":3779,"08":3780,"##terte":3781,"øv":3782,"sen":3783,"Ba":3784,"##ksjonen":3785,"nø":3786,"##ski":3787,"klo":3788,"##kka":3789,"##serie":3790,"disk":3791,"##kten":3792,"mang":3793,"tu":3794,"##tell":3795,"##urt":3796,"tiltak":3797,"forf":3798,"då":3799,"forbindelse":3800,"##uer":3801,"##beide":3802,"##satte":3803,"##terer":3804,"##deles":3805,"##sted":3806,"##ledes":3807,"Hø":3808,"lever":3809,"Hen":3810,"##retter":3811,"tallet":3812,"ab":3813,"fr":3814,"##inget":3815,"delta":3816,"it":3817,"##co":3818,"##ppa":3819,"tom":3820,"Fran":3821,"##int":3822,"##fl":3823,"60":3824,"forn":3825,"fores":3826,"Euro":3827,"én":3828,"ol":3829,"pris":3830,"##mo":3831,"løpet":3832,"##vær":3833,"##mat":3834,"##raft":3835,"innte":3836,"Stort":3837,"egne":3838,"Norges":3839,"menneske":3840,"tør":3841,"støtte":3842,"tred":3843,"##klar":3844,"alvor":3845,"riktig":3846,"##står":3847,"##jonene":3848,"##fa":3849,"Bergen":3850,"legge":3851,"##ING":3852,"##gjør":3853,"nasjon":3854,"grun":3855,"##inne":3856,"##serte":3857,"##ktene":3858,"omk":3859,"utdan":3860,"##bø":3861,"##deren":3862,"regjer":3863,"##minist":3864,"##sed":3865,"##huset":3866,"Fa":3867,"##pos":3868,"spesielt":3869,"start":3870,"##meld":3871,"feil":3872,"kirke":3873,"området":3874,"kjente":3875,"Sør":3876,"Bru":3877,"jf":3878,"kveld":3879,"##vol":3880,"##skaper":3881,"##likt":3882,"bidra":3883,"Stor":3884,"##sd":3885,"mannen":3886,"ch":3887,"Hal":3888,"190":3889,"##bu":3890,"we":3891,"ferdig":3892,"result":3893,"##føring":3894,"direkte":3895,"mai":3896,"##valg":3897,"bord":3898,"##rav":3899,"byen":3900,"##iler":3901,"##ative":3902,"laget":3903,"##valget":3904,"##nsjon":3905,"veien":3906,"##kan":3907,"Fred":3908,"07":3909,"eng":3910,"##ju":3911,"etab":3912,"sub":3913,"drift":3914,"Ty":3915,"Tron":3916,"##ningene":3917,"Per":3918,"dyr":3919,"grø":3920,"betyr":3921,"personer":3922,"##oc":3923,"USA":3924,"##ata":3925,"##yer":3926,"nærmere":3927,"##igur":3928,"##tlig":3929,"##menter":3930,"ekst":3931,"Pl":3932,"##lis":3933,"leve":3934,"##ou":3935,"gene":3936,"bety":3937,"millioner":3938,"Christ":3939,"##gift":3940,"ekte":3941,"meld":3942,"kontakt":3943,"##fer":3944,"Mart":3945,"##adet":3946,"familie":3947,"33":3948,"##uar":3949,"##orten":3950,"post":3951,"Car":3952,"gren":3953,"betydning":3954,"not":3955,"##svar":3956,"##snitt":3957,"##fall":3958,"brø":3959,"##messig":3960,"tenke":3961,"erfar":3962,"rette":3963,"lin":3964,"Ingen":3965,"##bel":3966,"##oliti":3967,"vise":3968,"Par":3969,"beve":3970,"snart":3971,"##AG":3972,"##stene":3973,"navn":3974,"slo":3975,"posit":3976,"Ad":3977,"##gående":3978,"stadig":3979,"##landet":3980,"kli":3981,"32":3982,"##nelse":3983,"Lø":3984,"##sland":3985,"deler":3986,"Noen":3987,"id":3988,"kommunen":3989,"##lemer":3990,"brukes":3991,"##nta":3992,"beny":3993,"art":3994,"eget":3995,"##ham":3996,"##ummer":3997,"##sere":3998,"##vå":3999,"snakke":4000,"bygge":4001,"ope":4002,"Ann":4003,"##sti":4004,"##nden":4005,"vær":4006,"Tr":4007,"vårt":4008,"##orer":4009,"##olit":4010,"fru":4011,"##rek":4012,"##nad":4013,"dermed":4014,"fry":4015,"##AT":4016,"prin":4017,"##iljø":4018,"##itee":4019,"døde":4020,"##rar":4021,"tot":4022,"psyk":4023,"##ygge":4024,"time":4025,"kjør":4026,"sh":4027,"##oks":4028,"seier":4029,"##ca":4030,"189":4031,"##apt":4032,"huset":4033,"folke":4034,"##gruppe":4035,"indust":4036,"overfor":4037,"innenfor":4038,"##mø":4039,"Var":4040,"Dei":4041,"##sek":4042,"but":4043,"akkurat":4044,"##ork":4045,"burde":4046,"dro":4047,"ener":4048,"tv":4049,"Disse":4050,"##rien":4051,"jan":4052,"##ES":4053,"##une":4054,"tredje":4055,"Nil":4056,"##selig":4057,"Jon":4058,"efter":4059,"Foto":4060,"skolen":4061,"kjem":4062,"øynene":4063,"##skole":4064,"##avnet":4065,"##unktet":4066,"##kle":4067,"Vest":4068,"Mange":4069,"##ida":4070,"ry":4071,"instit":4072,"Trond":4073,"fylke":4074,"øyebli":4075,"Ein":4076,"rad":4077,"##grunn":4078,"fan":4079,"gro":4080,"rapp":4081,"##uelt":4082,"##somt":4083,"regist":4084,"##ffet":4085,"90":4086,"pla":4087,"tø":4088,"fjor":4089,"##ssuten":4090,"##mte":4091,"Co":4092,"##dis":4093,"Sand":4094,"70":4095,"##aler":4096,"øn":4097,"Over":4098,"##gangsp":4099,"val":4100,"sti":4101,"venn":4102,"##sle":4103,"##tr":4104,"skriver":4105,"Br":4106,"program":4107,"##ple":4108,"##rike":4109,"##ndag":4110,"##20":4111,"##sset":4112,"##talen":4113,"lys":4114,"Ole":4115,"##derne":4116,"##ED":4117,"Ind":4118,"##hel":4119,"vite":4120,"interes":4121,"pub":4122,"##stein":4123,"Fin":4124,"funnet":4125,"delt":4126,"Hå":4127,"##ulle":4128,"Alt":4129,"##gangen":4130,"##ograf":4131,"##vd":4132,"Sch":4133,"##ksis":4134,"følgende":4135,"måten":4136,"blå":4137,"##stendig":4138,"##ologi":4139,"Kl":4140,"hvem":4141,"stod":4142,"skyld":4143,"##RK":4144,"prakt":4145,"eldre":4146,"legger":4147,"slags":4148,"wh":4149,"##sjett":4150,"##departementet":4151,"vekt":4152,"do":4153,"kry":4154,"Min":4155,"New":4156,"##ban":4157,"Land":4158,"Gje":4159,"##arbeidet":4160,"##mens":4161,"borte":4162,"ris":4163,"##kjø":4164,"tri":4165,"80":4166,"hu":4167,"nærings":4168,"fjell":4169,"begynne":4170,"imot":4171,"gr":4172,"viste":4173,"co":4174,"##ty":4175,"##fen":4176,"04":4177,"eiendom":4178,"skrive":4179,"grå":4180,"skj":4181,"##uen":4182,"morgen":4183,"system":4184,"##stø":4185,"##rette":4186,"kj":4187,"internasjon":4188,"##sending":4189,"##nner":4190,"Or":4191,"##orn":4192,"ky":4193,"##age":4194,"from":4195,"##stat":4196,"Erik":4197,"##gs":4198,"barna":4199,"##OT":4200,"bu":4201,"penger":4202,"Hvordan":4203,"barnet":4204,"2016":4205,"##søk":4206,"##ranse":4207,"virke":4208,"hensyn":4209,"star":4210,"##ksjoner":4211,"##kar":4212,"sikkert":4213,"##øs":4214,"##anter":4215,"vare":4216,"lav":4217,"behandling":4218,"bestemt":4219,"spille":4220,"##mor":4221,"##ene":4222,"Jes":4223,"##handling":4224,"aug":4225,"gammel":4226,"##kkes":4227,"##øren":4228,"Ant":4229,"mars":4230,"kjenner":4231,"elekt":4232,"sentra":4233,"##ko":4234,"hørte":4235,"##styret":4236,"##setter":4237,"##ze":4238,"verdens":4239,"##tering":4240,"34":4241,"tjeneste":4242,"##dagen":4243,"##risten":4244,"2018":4245,"fy":4246,"Ver":4247,"omkring":4248,"##veien":4249,"Lu":4250,"Jan":4251,"##pers":4252,"naturlig":4253,"musikk":4254,"Ham":4255,"##rsom":4256,"188":4257,"##aller":4258,"##ftene":4259,"mun":4260,"##holder":4261,"##må":4262,"ang":4263,"natt":4264,"##kende":4265,"##ath":4266,"Dersom":4267,"John":4268,"sterkt":4269,"##produ":4270,"ansatte":4271,"##bok":4272,"##til":4273,"uttrykk":4274,"des":4275,"##dent":4276,"knyttet":4277,"oppga":4278,"myndig":4279,"Finn":4280,"36":4281,"##bil":4282,"##visning":4283,"##organ":4284,"##ime":4285,"##ium":4286,"hev":4287,"##qu":4288,"kjær":4289,"kontroll":4290,"vit":4291,"##nader":4292,"kjøpe":4293,"##fin":4294,"glad":4295,"##nå":4296,"##fi":4297,"##kkene":4298,"merke":4299,"##undet":4300,"alene":4301,"##ator":4302,"##stemet":4303,"have":4304,"egentlig":4305,"tå":4306,"##livet":4307,"##væ":4308,"langs":4309,"##iktet":4310,"regel":4311,"lette":4312,"nu":4313,"bevis":4314,"høre":4315,"##gn":4316,"Komm":4317,"utgangsp":4318,"arbeider":4319,"drø":4320,"app":4321,"##astet":4322,"##mu":4323,"##sson":4324,"hj":4325,"Si":4326,"analy":4327,"skatte":4328,"antall":4329,"faktisk":4330,"genere":4331,"##ogn":4332,"rask":4333,"##lsene":4334,"##verket":4335,"Høy":4336,"Sh":4337,"##unde":4338,"januar":4339,"##atten":4340,"holder":4341,"##sikt":4342,"norm":4343,"##senter":4344,"##ikket":4345,"skog":4346,"##isten":4347,"Ke":4348,"##isering":4349,"meter":4350,"kil":4351,"NT":4352,"født":4353,"##gj":4354,"midt":4355,"aks":4356,"##sker":4357,"lille":4358,"represent":4359,"helst":4360,"lærer":4361,"##setning":4362,"sle":4363,"retning":4364,"lokale":4365,"Vel":4366,"aut":4367,"sla":4368,"Kanskje":4369,"fekk":4370,"##mi":4371,"alder":4372,"##valt":4373,"gjø":4374,"##annen":4375,"##vok":4376,"kunnskap":4377,"##ttes":4378,"##vern":4379,"was":4380,"grunnlag":4381,"nettopp":4382,"##sende":4383,"##varende":4384,"##istet":4385,"klare":4386,"Arbeid":4387,"##vid":4388,"TV":4389,"timer":4390,"Også":4391,"##jenes":4392,"utford":4393,"lange":4394,"tidlig":4395,"viktige":4396,"Peder":4397,"hvorfor":4398,"vest":4399,"opplys":4400,"##pi":4401,"lege":4402,"reali":4403,"Lars":4404,"fatt":4405,"tale":4406,"##po":4407,"2017":4408,"ekstra":4409,"##ringen":4410,"##vs":4411,"Sverige":4412,"dårlig":4413,"kvali":4414,"slikt":4415,"hånden":4416,"##løp":4417,"hvilke":4418,"tydelig":4419,"inve":4420,"##hengig":4421,"##hl":4422,"##skudd":4423,"høyere":4424,"gul":4425,"##mod":4426,"186":4427,"april":4428,"187":4429,"lær":4430,"##ces":4431,"administ":4432,"ønsket":4433,"undersøke":4434,"mig":4435,"##king":4436,"Ol":4437,"noko":4438,"##gifter":4439,"##unt":4440,"bereg":4441,"##føres":4442,"##ala":4443,"##utselig":4444,"##rud":4445,"snakket":4446,"##lia":4447,"II":4448,"lot":4449,"##SS":4450,"Rom":4451,"tilfelle":4452,"##ativt":4453,"##isjonen":4454,"Anne":4455,"distri":4456,"##foren":4457,"37":4458,"##ansen":4459,"##rad":4460,"politiet":4461,"satte":4462,"okt":4463,"##petanse":4464,"lese":4465,"bro":4466,"##ollen":4467,"redu":4468,"##ate":4469,"##bart":4470,"spiller":4471,"yr":4472,"Ly":4473,"AS":4474,"olje":4475,"prøve":4476,"juli":4477,"sommer":4478,"##utvik":4479,"gangen":4480,"vert":4481,"##ører":4482,"##sering":4483,"luft":4484,"##mentar":4485,"2015":4486,"##ørdag":4487,"åpen":4488,"pasien":4489,"beskri":4490,"##delige":4491,"##OL":4492,"##hå":4493,"sikre":4494,"##nev":4495,"##gar":4496,"ru":4497,"##hav":4498,"Øst":4499,"familien":4500,"##ratur":4501,"høyt":4502,"minutter":4503,"lyst":4504,"Derfor":4505,"##range":4506,"##vare":4507,"amerik":4508,"ellers":4509,"ennå":4510,"##fil":4511,"fører":4512,"##fly":4513,"stre":4514,"Kr":4515,"praksis":4516,"##sens":4517,"saa":4518,"##ving":4519,"sjå":4520,"Ju":4521,"##legget":4522,"##ksten":4523,"vore":4524,"krig":4525,"gru":4526,"Hus":4527,"same":4528,"Is":4529,"lokal":4530,"##oss":4531,"produksjon":4532,"spen":4533,"interesse":4534,"følger":4535,"rek":4536,"38":4537,"vist":4538,"##tiden":4539,"stilling":4540,"##kjen":4541,"##IK":4542,"##bruks":4543,"##holdet":4544,"uke":4545,"bolig":4546,"skip":4547,"##fri":4548,"##OM":4549,"blod":4550,"ke":4551,"ren":4552,"##atisk":4553,"##pli":4554,"konf":4555,"No":4556,"indiv":4557,"##unst":4558,"problemer":4559,"jobb":4560,"historie":4561,"##iere":4562,"##gjøre":4563,"vid":4564,"påvir":4565,"##funn":4566,"##als":4567,"Fol":4568,"Knut":4569,"##ree":4570,"tilbud":4571,"##iss":4572,"skape":4573,"stund":4574,"41":4575,"och":4576,"hvilken":4577,"sterk":4578,"##iteen":4579,"##leis":4580,"Trom":4581,"stemme":4582,"ytter":4583,"nevnt":4584,"##lar":4585,"ventet":4586,"Eng":4587,"##ivt":4588,"##løs":4589,"##mannen":4590,"##aling":4591,"nemlig":4592,"##ulta":4593,"økonomiske":4594,"##kjent":4595,"spørsmålet":4596,"##verd":4597,"vold":4598,"Stat":4599,"hi":4600,"##jem":4601,"ress":4602,"salg":4603,"39":4604,"Hvorfor":4605,"##gu":4606,"lar":4607,"tap":4608,"kamp":4609,"##oeng":4610,"Lar":4611,"Tid":4612,"##ions":4613,"##aster":4614,"##skin":4615,"meir":4616,"finans":4617,"##abel":4618,"##eth":4619,"Ga":4620,"bod":4621,"Slik":4622,"ST":4623,"500":4624,"##taler":4625,"sende":4626,"fremdeles":4627,"##kommende":4628,"språk":4629,"##klu":4630,"##sdag":4631,"rød":4632,"Rø":4633,"##aske":4634,"sc":4635,"punkt":4636,"Stortinget":4637,"##ober":4638,"nivå":4639,"##øya":4640,"##ktør":4641,"kunde":4642,"75":4643,"hum":4644,"økt":4645,"berre":4646,"skade":4647,"varme":4648,"##tra":4649,"vere":4650,"##my":4651,"bnr":4652,"kir":4653,"samlet":4654,"sikkerhet":4655,"##ade":4656,"altern":4657,"##urer":4658,"telef":4659,"##ph":4660,"##ptember":4661,"##rådet":4662,"hens":4663,"Like":4664,"##dert":4665,"steder":4666,"ansiktet":4667,"fyr":4668,"still":4669,"##es":4670,"##nda":4671,"rea":4672,"engel":4673,"2000":4674,"mente":4675,"sal":4676,"##uttet":4677,"##yggen":4678,"Wil":4679,"##tok":4680,"##fjord":4681,"ditt":4682,"##borg":4683,"fart":4684,"##onn":4685,"sosial":4686,"eier":4687,"##legging":4688,"reiste":4689,"##uld":4690,"##skrift":4691,"##hver":4692,"##cti":4693,"blev":4694,"##rim":4695,"makt":4696,"##ins":4697,"Mø":4698,"##bå":4699,"##delsen":4700,"oms":4701,"politiske":4702,"##ID":4703,"##attet":4704,"Seiv":4705,"Bare":4706,"venstre":4707,"medlemmer":4708,"inntekt":4709,"folket":4710,"##oder":4711,"Eller":4712,"##sbe":4713,"##aget":4714,"##middel":4715,"offentlig":4716,"##ppene":4717,"inntil":4718,"##abri":4719,"##mål":4720,"tross":4721,"##inge":4722,"kol":4723,"##legge":4724,"bal":4725,"##sember":4726,"tett":4727,"##bert":4728,"##fel":4729,"##teren":4730,"##jet":4731,"Kristian":4732,"virksomhet":4733,"uts":4734,"##aen":4735,"viktigste":4736,"##dø":4737,"bygg":4738,"##stid":4739,"##ara":4740,"##ood":4741,"##ssel":4742,"fortelle":4743,"km":4744,"42":4745,"God":4746,"flo":4747,"følte":4748,"vesent":4749,"august":4750,"##rere":4751,"prinsi":4752,"##rettet":4753,"neg":4754,"Vil":4755,"Bå":4756,"##RE":4757,"##iz":4758,"åpnet":4759,"##akten":4760,"desember":4761,"##rati":4762,"rolle":4763,"tvil":4764,"em":4765,"##fold":4766,"##pri":4767,"##ledning":4768,"##itu":4769,"offentlige":4770,"##itter":4771,"##sny":4772,"karakter":4773,"##reds":4774,"##bord":4775,"48":4776,"sten":4777,"##th":4778,"185":4779,"Univers":4780,"##stisk":4781,"kvel":4782,"bilen":4783,"sannsyn":4784,"Ei":4785,"sat":4786,"styre":4787,"oppe":4788,"setter":4789,"##rent":4790,"NRK":4791,"##ander":4792,"gjeld":4793,"foreldre":4794,"Frank":4795,"Arne":4796,"september":4797,"uttry":4798,"samfunns":4799,"##skolen":4800,"Europa":4801,"selskap":4802,"##ww":4803,"fir":4804,"konsek":4805,"##skomm":4806,"kroppen":4807,"traf":4808,"tol":4809,"##abil":4810,"##ita":4811,"lage":4812,"hundre":4813,"##riks":4814,"##melig":4815,"stru":4816,"sykdom":4817,"##holde":4818,"##ansett":4819,"avsl":4820,"gift":4821,"##dalen":4822,"fullt":4823,"tall":4824,"Lo":4825,"##cy":4826,"ident":4827,"bred":4828,"funksjon":4829,"møter":4830,"Beg":4831,"44":4832,"##bruar":4833,"##standen":4834,"##ikasjon":4835,"Ing":4836,"##gra":4837,"forsvar":4838,"deb":4839,"##isere":4840,"privat":4841,"My":4842,"this":4843,"kart":4844,"##ric":4845,"Ed":4846,"##so":4847,"visst":4848,"døren":4849,"Fr":4850,"aller":4851,"Berg":4852,"sitter":4853,"måneder":4854,"trakk":4855,"kvar":4856,"ring":4857,"##hed":4858,"##smø":4859,"##ssy":4860,"##abell":4861,"deri":4862,"mon":4863,"tanke":4864,"Regi":4865,"stol":4866,"##stemme":4867,"midler":4868,"##dels":4869,"##ung":4870,"##delingen":4871,"##stra":4872,"oppmer":4873,"tilb":4874,"sammenheng":4875,"##sikker":4876,"##vember":4877,"Fl":4878,"strøm":4879,"##ient":4880,"lei":4881,"##delen":4882,"barneha":4883,"prosjekt":4884,"von":4885,"##ansk":4886,"oktober":4887,"www":4888,"snø":4889,"stem":4890,"ple":4891,"##iteten":4892,"Vær":4893,"##ations":4894,"gis":4895,"Hau":4896,"Olav":4897,"##delt":4898,"fest":4899,"##ika":4900,"regler":4901,"##oster":4902,"##forb":4903,"##øyd":4904,"fisk":4905,"##lys":4906,"43":4907,"2019":4908,"##RA":4909,"##ørsm":4910,"gli":4911,"##loven":4912,"represen":4913,"##bygging":4914,"industri":4915,"forklar":4916,"dig":4917,"Trondheim":4918,"Dem":4919,"##folk":4920,"##igheter":4921,"try":4922,"hører":4923,"vak":4924,"profe":4925,"Bjørn":4926,"ud":4927,"tenkt":4928,"##peri":4929,"sve":4930,"##mm":4931,"46":4932,"skyl":4933,"vindu":4934,"data":4935,"områder":4936,"saker":4937,"##IT":4938,"brev":4939,"##vist":4940,"##lemme":4941,"mill":4942,"pop":4943,"##meren":4944,"sterke":4945,"tenker":4946,"##itets":4947,"forkla":4948,"Olsen":4949,"vedtak":4950,"viss":4951,"##amma":4952,"Guds":4953,"blom":4954,"Tom":4955,"ingenting":4956,"topp":4957,"begynner":4958,"Ri":4959,"Jesus":4960,"##jeneste":4961,"inneb":4962,"##apir":4963,"sosiale":4964,"##vesen":4965,"##ndige":4966,"enten":4967,"arti":4968,"februar":4969,"Odd":4970,"relig":4971,"selve":4972,"##ias":4973,"faren":4974,"##siktig":4975,"##br":4976,"##ose":4977,"forbe":4978,"Martin":4979,"##forsk":4980,"trodde":4981,"fre":4982,"##ibli":4983,"betale":4984,"vant":4985,"raskt":4986,"##plan":4987,"saman":4988,"øyeblikk":4989,"47":4990,"Mer":4991,"individ":4992,"Inge":4993,"##orden":4994,"##isert":4995,"mand":4996,"##stillingen":4997,"##SK":4998,"bilde":4999,"avtale":5000,"##arar":5001,"skjedde":5002,"Vå":5003,"Dire":5004,"##olf":5005,"##orsdag":5006,"Mel":5007,"##bare":5008,"##LE":5009,"ark":5010,"heter":5011,"##læring":5012,"##øse":5013,"##UN":5014,"felt":5015,"Mon":5016,"pass":5017,"##ign":5018,"plutselig":5019,"off":5020,"økonomisk":5021,"situasjonen":5022,"##retning":5023,"gjer":5024,"##kår":5025,"ref":5026,"cm":5027,"mott":5028,"stri":5029,"##hy":5030,"##way":5031,"##vant":5032,"Kor":5033,"november":5034,"dine":5035,"fys":5036,"rop":5037,"##utte":5038,"##ank":5039,"##ms":5040,"samfunnet":5041,"##pas":5042,"fer":5043,"skrev":5044,"dagens":5045,"##apit":5046,"tradis":5047,"##inen":5048,"##plass":5049,"sjølv":5050,"##velser":5051,"unna":5052,"Far":5053,"Stav":5054,"mob":5055,"kompetanse":5056,"klub":5057,"##ologisk":5058,"brukte":5059,"besky":5060,"milit":5061,"slutten":5062,"mulighet":5063,"jern":5064,"Vin":5065,"seson":5066,"##uft":5067,"rommet":5068,"##sessen":5069,"##æren":5070,"##teres":5071,"##mus":5072,"##uell":5073,"område":5074,"tal":5075,"##vne":5076,"mening":5077,"##ight":5078,"##jonelle":5079,"hendene":5080,"1990":5081,"##holdt":5082,"fortsatte":5083,"##grep":5084,"##han":5085,"##vn":5086,"OG":5087,"NTB":5088,"skil":5089,"##ologiske":5090,"vente":5091,"Spe":5092,"##igheten":5093,"##ach":5094,"##sess":5095,"sist":5096,"##nelig":5097,"ifølge":5098,"redd":5099,"mod":5100,"##veg":5101,"##sut":5102,"Ap":5103,"Anders":5104,"opptatt":5105,"##bane":5106,"skrevet":5107,"tilsvarende":5108,"Tre":5109,"##sagt":5110,"hin":5111,"##hør":5112,"oppnå":5113,"region":5114,"Sn":5115,"presen":5116,"##sik":5117,"184":5118,"ass":5119,"Øy":5120,"##telse":5121,"høyre":5122,"##vate":5123,"sku":5124,"##aland":5125,"virket":5126,"##IG":5127,"nei":5128,"fi":5129,"bren":5130,"Fri":5131,"##able":5132,"##skape":5133,"sek":5134,"##kast":5135,"int":5136,"##maet":5137,"gav":5138,"##sol":5139,"himme":5140,"51":5141,"Paul":5142,"endringer":5143,"stein":5144,"pensjon":5145,"prosjektet":5146,"feng":5147,"##ance":5148,"mykje":5149,"##ksomheten":5150,"begre":5151,"forand":5152,"ønske":5153,"##isin":5154,"vari":5155,"au":5156,"foren":5157,"voks":5158,"stir":5159,"venner":5160,"gjøres":5161,"Bil":5162,"sendt":5163,"##ræ":5164,"utdanning":5165,"fortalte":5166,"Su":5167,"EU":5168,"##kost":5169,"fig":5170,"##hjel":5171,"Eli":5172,"vera":5173,"##nem":5174,"situasjon":5175,"håper":5176,"risik":5177,"sentrum":5178,"sjel":5179,"bom":5180,"tjenes":5181,"tryg":5182,"##retten":5183,"arbeide":5184,"##ibliote":5185,"interv":5186,"Lang":5187,"##pent":5188,"forl":5189,"politisk":5190,"##gitt":5191,"Samtidig":5192,"smilte":5193,"navnet":5194,"startet":5195,"skar":5196,"has":5197,"kur":5198,"selskapet":5199,"##ational":5200,"elevene":5201,"##parten":5202,"ac":5203,"oppgå":5204,"type":5205,"95":5206,"##nali":5207,"##fta":5208,"Christian":5209,"##mon":5210,"##udde":5211,"vedkommende":5212,"unnt":5213,"##gde":5214,"##pekt":5215,"##rang":5216,"åpne":5217,"##messige":5218,"kampen":5219,"##rings":5220,"klasse":5221,"ni":5222,"##vand":5223,"##ole":5224,"reduse":5225,"muligheter":5226,"fork":5227,"Mot":5228,"49":5229,"betra":5230,"Sc":5231,"syntes":5232,"##hal":5233,"søndag":5234,"utover":5235,"energi":5236,"Stein":5237,"løy":5238,"moderne":5239,"Selv":5240,"resten":5241,"##røy":5242,"takk":5243,"ce":5244,"52":5245,"##slutning":5246,"krit":5247,"røy":5248,"perioden":5249,"betydelig":5250,"##ical":5251,"utstyr":5252,"##OTO":5253,"beskje":5254,"##æl":5255,"førte":5256,"uker":5257,"fremst":5258,"fulgte":5259,"Natt":5260,"##jørn":5261,"##vers":5262,"overra":5263,"##ssa":5264,"##inert":5265,"##riet":5266,"Sal":5267,"##verre":5268,"Bø":5269,"avgjøre":5270,"nab":5271,"##dtr":5272,"rus":5273,"##strøm":5274,"##kont":5275,"##kelse":5276,"53":5277,"undersø":5278,"##isme":5279,"Tlf":5280,"tilk":5281,"##ndal":5282,"##iti":5283,"forskning":5284,"##ana":5285,"virker":5286,"meste":5287,"effektiv":5288,"##ally":5289,"##gelser":5290,"føler":5291,"##lands":5292,"grat":5293,"##fag":5294,"krigen":5295,"fotball":5296,"##nnen":5297,"tids":5298,"##dy":5299,"kvelden":5300,"##knad":5301,"##siden":5302,"##gerne":5303,"løp":5304,"Tysk":5305,"deretter":5306,"såk":5307,"Ele":5308,"##manns":5309,"##atning":5310,"Sig":5311,"##bi":5312,"##nsdag":5313,"Thom":5314,"eksp":5315,"##ulering":5316,"transport":5317,"fare":5318,"sva":5319,"Hansen":5320,"styrke":5321,"##slaget":5322,"##ionen":5323,"vurdering":5324,"detal":5325,"omsorg":5326,"Rus":5327,"uly":5328,"foreslå":5329,"Lond":5330,"slett":5331,"opplysninger":5332,"bygget":5333,"##ians":5334,"almin":5335,"gull":5336,"##iteter":5337,"poeng":5338,"vekk":5339,"instru":5340,"spise":5341,"daglig":5342,"hardt":5343,"##ante":5344,"Ser":5345,"##gder":5346,"##arbeider":5347,"##dige":5348,"sant":5349,"Ph":5350,"obser":5351,"bus":5352,"hørt":5353,"99":5354,"Em":5355,"##side":5356,"##stående":5357,"private":5358,"##jerne":5359,"##aket":5360,"65":5361,"anlegg":5362,"##rolig":5363,"##aten":5364,"ufor":5365,"består":5366,"glede":5367,"sånn":5368,"##værende":5369,"Lille":5370,"##følgelig":5371,"##jef":5372,"snudde":5373,"bildet":5374,"##svis":5375,"sannsynlig":5376,"forvalt":5377,"und":5378,"Nils":5379,"bekym":5380,"Con":5381,"##bef":5382,"Gar":5383,"183":5384,"kastet":5385,"##ØR":5386,"idet":5387,"begrens":5388,"minste":5389,"Ale":5390,"Bro":5391,"##smin":5392,"sov":5393,"##ultur":5394,"##punkt":5395,"resultat":5396,"Jør":5397,"##nede":5398,"fang":5399,"stren":5400,"##haug":5401,"##AS":5402,"Hvil":5403,"utan":5404,"Må":5405,"resulta":5406,"Ce":5407,"##felt":5408,"Sm":5409,"So":5410,"ove":5411,"56":5412,"forbi":5413,"Liv":5414,"##skont":5415,"dob":5416,"Ord":5417,"##otte":5418,"##unkter":5419,"rør":5420,"##ktur":5421,"##its":5422,"Gi":5423,"Gunn":5424,"##AND":5425,"##kraft":5426,"##ura":5427,"masse":5428,"which":5429,"Stavanger":5430,"budsjett":5431,"##gent":5432,"##anten":5433,"Kjø":5434,"London":5435,"staten":5436,"Sto":5437,"kg":5438,"liker":5439,"Nat":5440,"hjerte":5441,"ressur":5442,"##fest":5443,"##derer":5444,"fok":5445,"engang":5446,"solgt":5447,"akse":5448,"Bor":5449,"##vice":5450,"verdi":5451,"##førte":5452,"##syn":5453,"pi":5454,"henhold":5455,"stats":5456,"kjøre":5457,"##telsen":5458,"##ident":5459,"invester":5460,"Ca":5461,"##arane":5462,"klarte":5463,"Bra":5464,"##varet":5465,"mag":5466,"54":5467,"##gelsen":5468,"popul":5469,"skap":5470,"øst":5471,"utviklingen":5472,"##arbeide":5473,"tilhø":5474,"##giver":5475,"formid":5476,"##yene":5477,"##asjer":5478,"Li":5479,"vidt":5480,"basert":5481,"##denfor":5482,"åtte":5483,"komb":5484,"Peter":5485,"##orene":5486,"handler":5487,"forsik":5488,"bilder":5489,"prote":5490,"##trent":5491,"fleire":5492,"endelig":5493,"Petter":5494,"enhver":5495,"kvart":5496,"Fredrik":5497,"kne":5498,"91":5499,"publik":5500,"dessuten":5501,"##KT":5502,"Politi":5503,"varer":5504,"valgt":5505,"vinter":5506,"##usjoner":5507,"konkret":5508,"søke":5509,"2001":5510,"##pende":5511,"alvorlig":5512,"lørdag":5513,"visse":5514,"FOR":5515,"1995":5516,"svart":5517,"##istisk":5518,"Statens":5519,"##ola":5520,"Johannes":5521,"2014":5522,"innebærer":5523,"1992":5524,"Dav":5525,"fint":5526,"##stille":5527,"Sv":5528,"euro":5529,"##akte":5530,"understre":5531,"##ful":5532,"omtrent":5533,"##anset":5534,"tilfreds":5535,"##mmelig":5536,"##grun":5537,"##ble":5538,"##lov":5539,"lønns":5540,"##ama":5541,"legges":5542,"retten":5543,"##øp":5544,"FOTO":5545,"##ryg":5546,"##boe":5547,"tas":5548,"ført":5549,"##sin":5550,"regjeringen":5551,"fremme":5552,"##kelser":5553,"##inere":5554,"blei":5555,"anvende":5556,"kyr":5557,"##bruket":5558,"sønn":5559,"Amerik":5560,"##olde":5561,"San":5562,"vannet":5563,"anta":5564,"konser":5565,"sider":5566,"Hvem":5567,"##our":5568,"Bre":5569,"sce":5570,"tilfeller":5571,"bakgrunn":5572,"gjekk":5573,"utgangspunkt":5574,"##organis":5575,"Gjennom":5576,"##aldt":5577,"kons":5578,"loven":5579,"1997":5580,"unngå":5581,"Regjer":5582,"bland":5583,"kat":5584,"straks":5585,"gud":5586,"Ab":5587,"organisasjon":5588,"181":5589,"tidsp":5590,"model":5591,"##kjenne":5592,"leil":5593,"##geren":5594,"lyd":5595,"##rør":5596,"1994":5597,"refe":5598,"utb":5599,"departementet":5600,"Morgen":5601,"flyttet":5602,"Mag":5603,"forholdet":5604,"Mens":5605,"##onde":5606,"##partiet":5607,"Ter":5608,"##sloven":5609,"##fore":5610,"ill":5611,"saks":5612,"1993":5613,"snakker":5614,"dør":5615,"##øst":5616,"desse":5617,"Pri":5618,"film":5619,"tekst":5620,"##AM":5621,"uav":5622,"##ick":5623,"##ute":5624,"Af":5625,"hvite":5626,"skjedd":5627,"verk":5628,"vesentlig":5629,"gjennomsnitt":5630,"##kkende":5631,"##ettet":5632,"##mulig":5633,"krever":5634,"sur":5635,"##isa":5636,"##sav":5637,"bre":5638,"57":5639,"Gu":5640,"besk":5641,"ki":5642,"##ton":5643,"##ifte":5644,"##kta":5645,"forhand":5646,"##arbei":5647,"bordet":5648,"1999":5649,"180":5650,"prøver":5651,"gri":5652,"lønn":5653,"tusen":5654,"till":5655,"Vår":5656,"univers":5657,"vekst":5658,"bevisst":5659,"1980":5660,"##alitet":5661,"##frå":5662,"jobben":5663,"yng":5664,"Grø":5665,"inc":5666,"kapittel":5667,"##mera":5668,"jobber":5669,"1996":5670,"Del":5671,"sju":5672,"grupper":5673,"##ned":5674,"kvalitet":5675,"idrett":5676,"##illet":5677,"skrift":5678,"erfaring":5679,"##naden":5680,"##lu":5681,"fredag":5682,"##ærne":5683,"tilgjen":5684,"Di":5685,"nede":5686,"opprin":5687,"vind":5688,"##skom":5689,"Kva":5690,"skulde":5691,"endring":5692,"##kers":5693,"Fø":5694,"##kommen":5695,"2005":5696,"##sla":5697,"Fore":5698,"utny":5699,"def":5700,"tyske":5701,"elever":5702,"dit":5703,"Skal":5704,"Po":5705,"##IV":5706,"##kkelen":5707,"ropte":5708,"smer":5709,"59":5710,"##drene":5711,"uansett":5712,"##venske":5713,"strø":5714,"Tyskland":5715,"Kro":5716,"Trø":5717,"##urnali":5718,"Både":5719,"Flere":5720,"##rue":5721,"Mi":5722,"##rasjonen":5723,"oppda":5724,"bygd":5725,"##AD":5726,"##edag":5727,"mode":5728,"samfunn":5729,"##ider":5730,"inklu":5731,"handling":5732,"relativt":5733,"blikk":5734,"væ":5735,"##orte":5736,"tilstre":5737,"forvent":5738,"indre":5739,"1998":5740,"fortsette":5741,"Hoved":5742,"Aust":5743,"85":5744,"ep":5745,"mi":5746,"Først":5747,"hit":5748,"##utvikling":5749,"##edre":5750,"##sc":5751,"kjærlighet":5752,"skatt":5753,"Rå":5754,"##TE":5755,"##holdene":5756,"gjeng":5757,"presse":5758,"sentral":5759,"menne":5760,"##polit":5761,"##keren":5762,"##melt":5763,"##rerte":5764,"internasjonale":5765,"VM":5766,"sykehus":5767,"##ordning":5768,"##las":5769,"sammenlig":5770,"Jac":5771,"##jene":5772,"##melding":5773,"##lic":5774,"##jenesten":5775,"##irsdag":5776,"uttale":5777,"##nær":5778,"interess":5779,"##stillinger":5780,"##vise":5781,"syns":5782,"##otter":5783,"øyne":5784,"prøvde":5785,"bestemte":5786,"##stander":5787,"mm":5788,"##ora":5789,"høg":5790,"##ming":5791,"##være":5792,"Uten":5793,"Bi":5794,"##anke":5795,"Marie":5796,"arrange":5797,"##ino":5798,"##stedet":5799,"##full":5800,"2002":5801,"##settes":5802,"Sj":5803,"##skyld":5804,"Na":5805,"##usjonen":5806,"1991":5807,"tog":5808,"##ctor":5809,"straffe":5810,"##histor":5811,"utvikle":5812,"inneholder":5813,"2003":5814,"##dyr":5815,"Anna":5816,"bekre":5817,"##etten":5818,"velge":5819,"konge":5820,"passer":5821,"##hånd":5822,"utvalg":5823,"Arbeider":5824,"Kvin":5825,"voksne":5826,"ras":5827,"ryggen":5828,"##belt":5829,"læ":5830,"##øyde":5831,"gard":5832,"##anlegg":5833,"##ampen":5834,"farge":5835,"97":5836,"øke":5837,"tempe":5838,"##attende":5839,"##sprogram":5840,"Danmark":5841,"##anne":5842,"##giv":5843,"##selen":5844,"pus":5845,"##ments":5846,"hvit":5847,"AN":5848,"tida":5849,"##dem":5850,"kommuner":5851,"forsøk":5852,"##deler":5853,"Siden":5854,"lavere":5855,"##ish":5856,"avhengig":5857,"trekke":5858,"##atteren":5859,"konsent":5860,"kommunene":5861,"sign":5862,"##ius":5863,"bodde":5864,"glem":5865,"sentrale":5866,"##edri":5867,"58":5868,"##veren":5869,"brann":5870,"##vedt":5871,"Karl":5872,"kaffe":5873,"hår":5874,"2004":5875,"forelig":5876,"##talt":5877,"stemmer":5878,"ordet":5879,"kjenne":5880,"derimot":5881,"delen":5882,"kjære":5883,"dog":5884,"##hjem":5885,"##que":5886,"engelsk":5887,"All":5888,"##mere":5889,"##ition":5890,"##ther":5891,"passe":5892,"vide":5893,"##ada":5894,"##små":5895,"tor":5896,"ner":5897,"##delser":5898,"avgjø":5899,"##ua":5900,"drive":5901,"omfatter":5902,"Lin":5903,"mørke":5904,"sex":5905,"##iat":5906,"forstår":5907,"lager":5908,"61":5909,"##ssk":5910,"Fil":5911,"eventuelt":5912,"flert":5913,"##ary":5914,"viten":5915,"argu":5916,"overle":5917,"##later":5918,"moren":5919,"Tru":5920,"jul":5921,"##tensi":5922,"Magn":5923,"heile":5924,"##owe":5925,"NO":5926,"amb":5927,"anna":5928,"were":5929,"Jens":5930,"##fart":5931,"Henrik":5932,"300":5933,"##velsen":5934,"mamma":5935,"spørre":5936,"konsekven":5937,"##former":5938,"Veg":5939,"400":5940,"##mester":5941,"rik":5942,"trø":5943,"sammens":5944,"Sjø":5945,"dels":5946,"eld":5947,"lengre":5948,"##jar":5949,"##aren":5950,"Ul":5951,"spesielle":5952,"##smid":5953,"##ration":5954,"anledning":5955,"Gnr":5956,"skyldes":5957,"Mus":5958,"##hild":5959,"adj":5960,"bære":5961,"tilkny":5962,"stakk":5963,"sann":5964,"ak":5965,"##kningen":5966,"besøk":5967,"usikker":5968,"nedover":5969,"periode":5970,"Harald":5971,"Videre":5972,"Char":5973,"nikket":5974,"##ugh":5975,"trafikk":5976,"##nnene":5977,"Mich":5978,"Norske":5979,"slått":5980,"kurs":5981,"søker":5982,"##stilt":5983,"fu":5984,"##KK":5985,"##resten":5986,"ligge":5987,"##nster":5988,"kraftig":5989,"dens":5990,"##asjonene":5991,"62":5992,"##tten":5993,"ment":5994,"1970":5995,"##bladet":5996,"##vei":5997,"##ingar":5998,"aktivitet":5999,"##orter":6000,"Helge":6001,"møtte":6002,"gu":6003,"oversikt":6004,"bas":6005,"frivil":6006,"up":6007,"Tromsø":6008,"oppgave":6009,"##stiske":6010,"fug":6011,"svare":6012,"Ifølge":6013,"kle":6014,"##elsen":6015,"By":6016,"##vit":6017,"dvs":6018,"##yld":6019,"stirret":6020,"Fyl":6021,"reiser":6022,"67":6023,"handel":6024,"##ammer":6025,"studen":6026,"sport":6027,"effekt":6028,"##own":6029,"kropp":6030,"Intern":6031,"##ammen":6032,"skaffe":6033,"ir":6034,"##urn":6035,"##redt":6036,"##gert":6037,"sold":6038,"Tø":6039,"##line":6040,"jfr":6041,"trekk":6042,"log":6043,"utfor":6044,"Då":6045,"Dy":6046,"##au":6047,"konkurranse":6048,"##TER":6049,"vurdere":6050,"2008":6051,"##ging":6052,"##ringe":6053,"more":6054,"yrkes":6055,"via":6056,"øvrig":6057,"årsa":6058,"lettere":6059,"##smannen":6060,"Dermed":6061,"sid":6062,"2010":6063,"natten":6064,"2013":6065,"Dessuten":6066,"##forhold":6067,"jobbe":6068,"publikum":6069,"##nelige":6070,"vilde":6071,"bedrifter":6072,"##SEN":6073,"##sak":6074,"##istrikt":6075,"gjennomført":6076,"71":6077,"oven":6078,"kontor":6079,"##orien":6080,"##wo":6081,"64":6082,"diffe":6083,"strå":6084,"kontra":6085,"hotell":6086,"utviklet":6087,"øde":6088,"##ters":6089,"Sport":6090,"styret":6091,"drama":6092,"Fig":6093,"altfor":6094,"ansikt":6095,"kolle":6096,"Mid":6097,"Hall":6098,"sum":6099,"66":6100,"##kor":6101,"forrige":6102,"2006":6103,"##nnet":6104,"tider":6105,"Ex":6106,"Figur":6107,"band":6108,"##ked":6109,"##kant":6110,"##edagog":6111,"##vard":6112,"opplæring":6113,"munnen":6114,"##fol":6115,"rep":6116,"oppdag":6117,"2007":6118,"##skapene":6119,"##vann":6120,"amerikanske":6121,"gen":6122,"IN":6123,"##skog":6124,"mistet":6125,"York":6126,"##serer":6127,"##inner":6128,"aktuelle":6129,"##rus":6130,"drøm":6131,"##holm":6132,"##øver":6133,"63":6134,"tjenester":6135,"##hov":6136,"Ven":6137,"motor":6138,"##tning":6139,"Ti":6140,"forsiktig":6141,"kalt":6142,"svarer":6143,"Deres":6144,"##innte":6145,"selvfølgelig":6146,"straff":6147,"spor":6148,"##band":6149,"Thor":6150,"vanlige":6151,"sang":6152,"rede":6153,"##hund":6154,"fro":6155,"2009":6156,"ben":6157,"##spill":6158,"##rense":6159,"##kninger":6160,"fullstendig":6161,"siv":6162,"##stri":6163,"##bry":6164,"1989":6165,"disku":6166,"Thomas":6167,"##PP":6168,"prem":6169,"##yggelig":6170,"##ash":6171,"##inene":6172,"tek":6173,"##ory":6174,"End":6175,"bevil":6176,"trygg":6177,"##tar":6178,"hov":6179,"##gård":6180,"##iker":6181,"##con":6182,"##jøe":6183,"##EG":6184,"ende":6185,"##ktoratet":6186,"##sid":6187,"##oller":6188,"82":6189,"2011":6190,"93":6191,"bedrift":6192,"fylkeskomm":6193,"sitte":6194,"##EM":6195,"dram":6196,"can":6197,"##rep":6198,"##rine":6199,"såtte":6200,"tegn":6201,"##telser":6202,"merket":6203,"##slin":6204,"##risk":6205,"##rier":6206,"datter":6207,"lan":6208,"tema":6209,"salt":6210,"grep":6211,"Barn":6212,"Hu":6213,"##synet":6214,"##somme":6215,"faste":6216,"kjøp":6217,"182":6218,"nasjonal":6219,"##ttelse":6220,"ek":6221,"klarer":6222,"åra":6223,"nummer":6224,"utvi":6225,"##skapen":6226,"SK":6227,"høsten":6228,"lun":6229,"##plassen":6230,"sammenhen":6231,"##ås":6232,"sendte":6233,"##iserte":6234,"Lov":6235,"77":6236,"Regjeringen":6237,"David":6238,"svi":6239,"##ransen":6240,"2012":6241,"spilte":6242,"utgjør":6243,"kjempe":6244,"81":6245,"tillit":6246,"Kirke":6247,"Kristians":6248,"livs":6249,"stopp":6250,"obje":6251,"##fy":6252,"selvsagt":6253,"69":6254,"middel":6255,"##ase":6256,"div":6257,"osv":6258,"flytte":6259,"##aker":6260,"regn":6261,"tilstrekkelig":6262,"rent":6263,"Kir":6264,"##ktoren":6265,"besø":6266,"kop":6267,"##skl":6268,"formål":6269,"nytte":6270,"omfattende":6271,"##pektiv":6272,"##lingene":6273,"Gl":6274,"##pport":6275,"92":6276,"##jorden":6277,"innbyg":6278,"blikket":6279,"Nær":6280,"##usen":6281,"fine":6282,"Bod":6283,"driver":6284,"##bro":6285,"##rag":6286,"eksiste":6287,"medisin":6288,"##kjør":6289,"##cial":6290,"gutt":6291,"delvis":6292,"vol":6293,"##skjell":6294,"##ice":6295,"sjøl":6296,"72":6297,"erstat":6298,"politikk":6299,"Jen":6300,"sommeren":6301,"veile":6302,"##istiske":6303,"VI":6304,"##urg":6305,"former":6306,"settes":6307,"##AV":6308,"##skilt":6309,"##ongen":6310,"gran":6311,"personlig":6312,"papir":6313,"##terne":6314,"plasser":6315,"##ica":6316,"##arder":6317,"sir":6318,"Mad":6319,"Res":6320,"absol":6321,"##urens":6322,"##edie":6323,"##lipp":6324,"##nadene":6325,"Gro":6326,"##cess":6327,"##verks":6328,"##inde":6329,"Red":6330,"sikte":6331,"pat":6332,"torsdag":6333,"Hver":6334,"fanta":6335,"Gunnar":6336,"##ley":6337,"##lei":6338,"kjørte":6339,"As":6340,"##rt":6341,"gjaldt":6342,"England":6343,"##kre":6344,"sag":6345,"formann":6346,"kalles":6347,"##reng":6348,"##DE":6349,"forekom":6350,"Direkte":6351,"rele":6352,"##unne":6353,"øvrige":6354,"refle":6355,"litte":6356,"##alder":6357,"tvang":6358,"##za":6359,"stiller":6360,"Sti":6361,"##but":6362,"innhold":6363,"##anene":6364,"##pens":6365,"##gått":6366,"##olo":6367,"SV":6368,"am":6369,"##skrifter":6370,"Gra":6371,"##vegen":6372,"Do":6373,"forret":6374,"foreldrene":6375,"befolk":6376,"ettermid":6377,"Jak":6378,"forsøkte":6379,"Folke":6380,"one":6381,"mere":6382,"##cal":6383,"bestemmelser":6384,"##dire":6385,"##stoff":6386,"dokumentar":6387,"##ikker":6388,"opprett":6389,"bakken":6390,"Post":6391,"oppdrag":6392,"umulig":6393,"falt":6394,"out":6395,"##ringene":6396,"praktisk":6397,"1988":6398,"##nar":6399,"middag":6400,"##nds":6401,"bun":6402,"##rael":6403,"båt":6404,"It":6405,"rettet":6406,"Pers":6407,"150":6408,"arbeidspl":6409,"beteg":6410,"bot":6411,"elev":6412,"##cts":6413,"Bli":6414,"lom":6415,"##gave":6416,"74":6417,"##brudd":6418,"anbef":6419,"see":6420,"hensikt":6421,"##ité":6422,"pappa":6423,"markeds":6424,"##verdig":6425,"##skar":6426,"##derte":6427,"linje":6428,"##ometer":6429,"jakt":6430,"Andersen":6431,"##eller":6432,"avdeling":6433,"Folk":6434,"løftet":6435,"Fro":6436,"##ssor":6437,"Mal":6438,"retts":6439,"hil":6440,"sand":6441,"Vik":6442,"##iter":6443,"##vo":6444,"inst":6445,"##blem":6446,"næring":6447,"##lens":6448,"orden":6449,"fortsetter":6450,"##sken":6451,"alternativ":6452,"foreta":6453,"##sler":6454,"oppdaget":6455,"nyheter":6456,"##sing":6457,"##ielle":6458,"##beg":6459,"##US":6460,"##isket":6461,"##styre":6462,"##alp":6463,"arbeidsm":6464,"##spi":6465,"##mund":6466,"Gre":6467,"kul":6468,"krist":6469,"##ls":6470,"typer":6471,"utle":6472,"Bet":6473,"##vig":6474,"gjeldende":6475,"bøker":6476,"europe":6477,"##nor":6478,"##saa":6479,"Van":6480,"Eks":6481,"##ieren":6482,"regnet":6483,"Larsen":6484,"##alsk":6485,"Ung":6486,"invi":6487,"fylkes":6488,"##gelen":6489,"##anser":6490,"aksje":6491,"begynnelsen":6492,"fordel":6493,"##smessig":6494,"bos":6495,"ansvaret":6496,"gården":6497,"##ott":6498,"OL":6499,"dating":6500,"qu":6501,"håp":6502,"##vokat":6503,"hender":6504,"76":6505,"##nest":6506,"##she":6507,"soli":6508,"Tra":6509,"stående":6510,"ur":6511,"##neren":6512,"##allen":6513,"kvalit":6514,"##smann":6515,"andel":6516,"##last":6517,"husker":6518,"forståelse":6519,"nærmest":6520,"prp":6521,"således":6522,"##omen":6523,"dele":6524,"telefon":6525,"##verdi":6526,"levende":6527,"68":6528,"kirken":6529,"##vest":6530,"Famil":6531,"vakker":6532,"åt":6533,"##instit":6534,"ku":6535,"avgjørende":6536,"klokken":6537,"måned":6538,"general":6539,"Sl":6540,"oppgåver":6541,"##igh":6542,"rimelig":6543,"gratis":6544,"##ink":6545,"##området":6546,"venter":6547,"velger":6548,"Stra":6549,"faller":6550,"##ømme":6551,"vakt":6552,"98":6553,"Midt":6554,"slår":6555,"##partement":6556,"kjøpte":6557,"trykk":6558,"følelse":6559,"##prø":6560,"ytterligere":6561,"Bu":6562,"2020":6563,"fengsel":6564,"##ogra":6565,"trolig":6566,"hvilket":6567,"redusert":6568,"##UR":6569,"Andreas":6570,"Departementet":6571,"kommunikasjon":6572,"skaper":6573,"løsning":6574,"##nens":6575,"##lade":6576,"pol":6577,"opplever":6578,"##rete":6579,"73":6580,"trengte":6581,"glass":6582,"##slå":6583,"Likevel":6584,"##gg":6585,"94":6586,"Frem":6587,"måle":6588,"##lling":6589,"lover":6590,"##jøen":6591,"78":6592,"##alog":6593,"##asin":6594,"##legger":6595,"tanken":6596,"Mat":6597,"##hets":6598,"spennende":6599,"##havn":6600,"regnskap":6601,"fokus":6602,"##asjons":6603,"##behandling":6604,"##ndelag":6605,"##wa":6606,"smil":6607,"Maria":6608,"alko":6609,"rolig":6610,"demok":6611,"##UL":6612,"kaller":6613,"##amme":6614,"historien":6615,"vilje":6616,"været":6617,"##legges":6618,"Dom":6619,"##kens":6620,"innb":6621,"prest":6622,"prim":6623,"##rets":6624,"håret":6625,"##skil":6626,"bee":6627,"##selskap":6628,"ramme":6629,"innsats":6630,"##fjell":6631,"onsdag":6632,"##sund":6633,"##landske":6634,"rese":6635,"AV":6636,"fornøyd":6637,"##virksomhet":6638,"arbeidsta":6639,"tanker":6640,"samsvar":6641,"Frankrike":6642,"Skri":6643,"fas":6644,"##ttene":6645,"tilpas":6646,"vers":6647,"nam":6648,"##dsel":6649,"kvinnen":6650,"serie":6651,"Pre":6652,"86":6653,"utsatt":6654,"1987":6655,"##ugen":6656,"løse":6657,"elsker":6658,"##komm":6659,"1985":6660,"oppt":6661,"##miljø":6662,"##ulerer":6663,"##iende":6664,"Byg":6665,"nødvendige":6666,"Fo":6667,"havde":6668,"trening":6669,"pot":6670,"Mand":6671,"undervisning":6672,"plas":6673,"Bak":6674,"normalt":6675,"gruppen":6676,"##unnet":6677,"underhold":6678,"vanligvis":6679,"begrun":6680,"Pedersen":6681,"##jonell":6682,"omgang":6683,"##redning":6684,"skogen":6685,"Alex":6686,"##jonens":6687,"##nerledes":6688,"##nelsen":6689,"bad":6690,"tråd":6691,"leie":6692,"grund":6693,"bedriften":6694,"studie":6695,"##rske":6696,"##rekk":6697,"##øv":6698,"kone":6699,"drikke":6700,"79":6701,"NOR":6702,"fritt":6703,"Jørgen":6704,"88":6705,"##uttene":6706,"84":6707,"##cc":6708,"##veis":6709,"het":6710,"havet":6711,"Rad":6712,"øver":6713,"generelt":6714,"dekket":6715,"regjering":6716,"comp":6717,"TIL":6718,"##fla":6719,"##ague":6720,"##orm":6721,"jenter":6722,"rike":6723,"etabler":6724,"##nivå":6725,"bibliote":6726,"Nattsending":6727,"##RI":6728,"##NE":6729,"kjøpt":6730,"##sdal":6731,"framtid":6732,"##strand":6733,"##oer":6734,"øker":6735,"fær":6736,"Trøndelag":6737,"størrelse":6738,"##kså":6739,"journali":6740,"83":6741,"Tabell":6742,"##kort":6743,"Jacob":6744,"heilt":6745,"fortalt":6746,"resta":6747,"parti":6748,"##rerer":6749,"motta":6750,"Sim":6751,"ledelse":6752,"Leg":6753,"1986":6754,"slekt":6755,"##løse":6756,"##attes":6757,"sår":6758,"##arer":6759,"##nok":6760,"våpen":6761,"Fly":6762,"##drett":6763,"sjelden":6764,"Kultur":6765,"enig":6766,"fjerde":6767,"standard":6768,"Gam":6769,"Lund":6770,"been":6771,"årets":6772,"Ans":6773,"##forening":6774,"Kjell":6775,"Op":6776,"##unen":6777,"##løst":6778,"Noe":6779,"nasjonale":6780,"##iendom":6781,"toppen":6782,"lands":6783,"Paris":6784,"annerledes":6785,"##ård":6786,"Kong":6787,"179":6788,"Johansen":6789,"##ninga":6790,"Jakob":6791,"bygger":6792,"svenske":6793,"Phil":6794,"invol":6795,"Tro":6796,"eig":6797,"##tein":6798,"typ":6799,"##rering":6800,"utført":6801,"avtalen":6802,"##sider":6803,"kristen":6804,"regne":6805,"##ts":6806,"vilkår":6807,"Kap":6808,"planer":6809,"1960":6810,"ligg":6811,"inntrykk":6812,"positive":6813,"bygde":6814,"##sjekt":6815,"##spart":6816,"Mil":6817,"##merket":6818,"spar":6819,"##pass":6820,"Kari":6821,"##bruker":6822,"funge":6823,"##ssp":6824,"økonomi":6825,"steg":6826,"Ame":6827,"Ten":6828,"skritt":6829,"jobbet":6830,"##splan":6831,"port":6832,"muse":6833,"grav":6834,"##iserer":6835,"##iven":6836,"parker":6837,"##gjer":6838,"Store":6839,"Kongen":6840,"##ii":6841,"##idar":6842,"interessert":6843,"strateg":6844,"hente":6845,"beskjed":6846,"Histor":6847,"##ykke":6848,"frukt":6849,"##latelse":6850,"boken":6851,"Fort":6852,"engasje":6853,"aner":6854,"##liggende":6855,"Are":6856,"go":6857,"søk":6858,"##grunnen":6859,"##ror":6860,"møtet":6861,"##anti":6862,"religi":6863,"##riske":6864,"adgang":6865,"pu":6866,"systemet":6867,"kjøtt":6868,"Kol":6869,"Tot":6870,"bevegelse":6871,"tilgjengelig":6872,"##vidt":6873,"dikt":6874,"##ppar":6875,"heim":6876,"dist":6877,"##kra":6878,"dokument":6879,"evne":6880,"gulvet":6881,"##atiske":6882,"96":6883,"89":6884,"neppe":6885,"artikkel":6886,"##orgen":6887,"nav":6888,"##draget":6889,"##ansvar":6890,"russ":6891,"##low":6892,"bla":6893,"Ford":6894,"87":6895,"hard":6896,"dess":6897,"sørge":6898,"vedlike":6899,"gutten":6900,"registrert":6901,"forme":6902,"##tto":6903,"treffe":6904,"sma":6905,"Bør":6906,"##leggende":6907,"lat":6908,"konstru":6909,"##lelse":6910,"##barn":6911,"Ben":6912,"##DAG":6913,"hentet":6914,"##uth":6915,"##område":6916,"their":6917,"Amerika":6918,"endret":6919,"snakk":6920,"##istene":6921,"Nore":6922,"##lien":6923,"stoff":6924,"rene":6925,"##orld":6926,"##lte":6927,"##itetet":6928,"Høyre":6929,"##årene":6930,"ryd":6931,"rev":6932,"Russland":6933,"dypt":6934,"erst":6935,"##lær":6936,"overbe":6937,"other":6938,"sjøe":6939,"Sæ":6940,"Morgensending":6941,"stykke":6942,"Tore":6943,"resp":6944,"fran":6945,"subst":6946,"spill":6947,"##spiller":6948,"PR":6949,"avstand":6950,"forbud":6951,"##klub":6952,"##jeld":6953,"##ffen":6954,"##setting":6955,"minne":6956,"veit":6957,"Eid":6958,"##gikk":6959,"dyre":6960,"Hadde":6961,"will":6962,"##OS":6963,"boka":6964,"Bir":6965,"##ni":6966,"##sig":6967,"blomster":6968,"svak":6969,"energ":6970,"skjønner":6971,"Alf":6972,"1984":6973,"##sar":6974,"brit":6975,"##sme":6976,"Marit":6977,"Svein":6978,"##ky":6979,"##seth":6980,"kommunale":6981,"distrikt":6982,"leser":6983,"##har":6984,"marked":6985,"nevnte":6986,"produkt":6987,"##medlem":6988,"Magnus":6989,"etablert":6990,"##assi":6991,"##mennene":6992,"Ivar":6993,"totalt":6994,"valgte":6995,"##pere":6996,"Vis":6997,"figur":6998,"utvalget":6999,"prof":7000,"##vold":7001,"kob":7002,"kin":7003,"interesser":7004,"##ania":7005,"Øv":7006,"garden":7007,"##wee":7008,"Blant":7009,"høst":7010,"gjent":7011,"##øyet":7012,"sil":7013,"likte":7014,"##urder":7015,"##gjort":7016,"mangler":7017,"million":7018,"lukket":7019,"##æn":7020,"markedet":7021,"rot":7022,"reglene":7023,"Forsvar":7024,"##iell":7025,"behandlet":7026,"seng":7027,"president":7028,"nødt":7029,"##iør":7030,"##kedet":7031,"##ulere":7032,"ue":7033,"sne":7034,"stede":7035,"111":7036,"##ac":7037,"##50":7038,"legg":7039,"helhet":7040,"tidspunkt":7041,"##leren":7042,"Sammen":7043,"##mentene":7044,"##gjennom":7045,"##iert":7046,"Mc":7047,"##vart":7048,"##alit":7049,"redusere":7050,"vinduet":7051,"avgift":7052,"kna":7053,"##punkter":7054,"kred":7055,"##rut":7056,"vedtatt":7057,"Morten":7058,"hode":7059,"trad":7060,"##tim":7061,"##skon":7062,"##alisering":7063,"##bjørn":7064,"##sminister":7065,"revol":7066,"rut":7067,"##ah":7068,"neder":7069,"drept":7070,"muligheten":7071,"material":7072,"trå":7073,"##etene":7074,"##EST":7075,"##cent":7076,"mandag":7077,"##dning":7078,"##aga":7079,"slippe":7080,"økte":7081,"sosi":7082,"lyset":7083,"##rasjoner":7084,"resultatet":7085,"pst":7086,"##onne":7087,"##indust":7088,"dobbelt":7089,"verdier":7090,"armen":7091,"##skraft":7092,"Can":7093,"respekt":7094,"stemmen":7095,"enkle":7096,"slapp":7097,"tilgang":7098,"våren":7099,"##iering":7100,"##parti":7101,"resultater":7102,"næ":7103,"unntak":7104,"nærheten":7105,"såkalte":7106,"undersøkelse":7107,"##ørene":7108,"##isjoner":7109,"##nny":7110,"##steder":7111,"##ual":7112,"begrenset":7113,"##veks":7114,"##likter":7115,"røde":7116,"skjel":7117,"Finnmark":7118,"Einar":7119,"perm":7120,"import":7121,"utgangspunktet":7122,"sølv":7123,"##zz":7124,"pengene":7125,"kapital":7126,"grense":7127,"bidrag":7128,"lavt":7129,"armene":7130,"##skud":7131,"This":7132,"Sent":7133,"##rans":7134,"sterkere":7135,"Nyheter":7136,"byr":7137,"midten":7138,"Val":7139,"may":7140,"##pert":7141,"##mpet":7142,"die":7143,"##ular":7144,"interessant":7145,"kristne":7146,"##ced":7147,"synd":7148,"##hvert":7149,"##steren":7150,"Gran":7151,"skrem":7152,"##onell":7153,"Bruk":7154,"ressurser":7155,"landets":7156,"##skjer":7157,"Ru":7158,"illust":7159,"naturen":7160,"jule":7161,"DN":7162,"endre":7163,"##gerte":7164,"begynt":7165,"vidare":7166,"##SB":7167,"ovenfor":7168,"Stud":7169,"600":7170,"huske":7171,"gal":7172,"videregående":7173,"also":7174,"vondt":7175,"intervju":7176,"Bri":7177,"gjennomføre":7178,"boli":7179,"revis":7180,"##jert":7181,"##velop":7182,"##yndig":7183,"borger":7184,"sjøen":7185,"sving":7186,"total":7187,"League":7188,"fantes":7189,"1981":7190,"galt":7191,"Ragn":7192,"bøl":7193,"ed":7194,"ler":7195,"##bakken":7196,"integ":7197,"##setninger":7198,"absolutt":7199,"Israel":7200,"oppfatning":7201,"samle":7202,"grunnen":7203,"strid":7204,"tonn":7205,"Deretter":7206,"temp":7207,"##jære":7208,"forslaget":7209,"preget":7210,"##råket":7211,"tirsdag":7212,"autom":7213,"##lisert":7214,"##ining":7215,"##ula":7216,"##vekst":7217,"målet":7218,"foreligger":7219,"##ndene":7220,"##kjente":7221,"##skriv":7222,"Tu":7223,"taler":7224,"flertall":7225,"identif":7226,"##ues":7227,"1950":7228,"etterpå":7229,"Hele":7230,"trekker":7231,"##ona":7232,"eldste":7233,"mennesket":7234,"kjøkke":7235,"utgifter":7236,"##blad":7237,"initi":7238,"beslut":7239,"##kretær":7240,"##ismen":7241,"bist":7242,"oppover":7243,"Ko":7244,"Robert":7245,"##hetens":7246,"prosess":7247,"flykt":7248,"vakre":7249,"fysisk":7250,"åringen":7251,"##ferdig":7252,"##assene":7253,"##aks":7254,"Sty":7255,"ivaret":7256,"ens":7257,"##ktes":7258,"innfly":7259,"##fyl":7260,"##øyaktig":7261,"hjelper":7262,"gate":7263,"1982":7264,"##ulen":7265,"ford":7266,"##banen":7267,"forpli":7268,"analyse":7269,"landsb":7270,"skue":7271,"dreier":7272,"1000":7273,"ristet":7274,"sluttet":7275,"befolkningen":7276,"tungt":7277,"##ams":7278,"##ween":7279,"##rak":7280,"##NING":7281,"defin":7282,"verken":7283,"Begge":7284,"##ondet":7285,"Halvor":7286,"Matt":7287,"drev":7288,"hovud":7289,"178":7290,"intens":7291,"kongen":7292,"jente":7293,"1983":7294,"##isteren":7295,"##rørende":7296,"erfaringer":7297,"##pris":7298,"##30":7299,"Haug":7300,"ferie":7301,"Bry":7302,"##ligheten":7303,"##rika":7304,"Spørsm":7305,"Fre":7306,"positiv":7307,"##ipp":7308,"vent":7309,"Tan":7310,"##osa":7311,"##raturen":7312,"påpe":7313,"Bus":7314,"forskjellig":7315,"kilometer":7316,"båten":7317,"vand":7318,"##funnet":7319,"supp":7320,"overraske":7321,"hvad":7322,"sykeple":7323,"utføre":7324,"##ales":7325,"Riks":7326,"##present":7327,"frø":7328,"there":7329,"jorden":7330,"turen":7331,"avsnitt":7332,"##slet":7333,"forklare":7334,"##fo":7335,"forsvant":7336,"enige":7337,"eval":7338,"##områder":7339,"kateg":7340,"1975":7341,"##lår":7342,"starter":7343,"kron":7344,"plassen":7345,"##stav":7346,"Part":7347,"sove":7348,"##sre":7349,"##stemer":7350,"ordene":7351,"SP":7352,"1979":7353,"##snytt":7354,"Jensen":7355,"varm":7356,"Carl":7357,"smør":7358,"Sil":7359,"##rop":7360,"##arch":7361,"nøye":7362,"fungerer":7363,"profes":7364,"Sos":7365,"ær":7366,"##voll":7367,"1977":7368,"mist":7369,"forskjell":7370,"##iali":7371,"forven":7372,"##stiden":7373,"Ski":7374,"VG":7375,"Bel":7376,"forsknings":7377,"forsvin":7378,"##øre":7379,"Ita":7380,"bror":7381,"hjør":7382,"##issen":7383,"aksep":7384,"##møte":7385,"halvparten":7386,"spre":7387,"Col":7388,"um":7389,"skoler":7390,"øre":7391,"representerer":7392,"direktør":7393,"menneskene":7394,"1978":7395,"ytre":7396,"##stol":7397,"##lid":7398,"lignende":7399,"hjertet":7400,"##nnem":7401,"vinteren":7402,"##lemmene":7403,"Daniel":7404,"##ria":7405,"you":7406,"Nilsen":7407,"177":7408,"runde":7409,"Mu":7410,"Hed":7411,"##belen":7412,"regi":7413,"Wh":7414,"verre":7415,"FN":7416,"høyde":7417,"##våg":7418,"ske":7419,"##alske":7420,"##rab":7421,"##fulle":7422,"flott":7423,"rapport":7424,"undervis":7425,"bygning":7426,"yngre":7427,"statsb":7428,"##ivet":7429,"riks":7430,"veggen":7431,"kostnad":7432,"gong":7433,"##gaard":7434,"symp":7435,"taket":7436,"##uel":7437,"umiddel":7438,"Dri":7439,"##ommet":7440,"nærmeste":7441,"litteratur":7442,"rein":7443,"##ctive":7444,"utø":7445,"##ullet":7446,"skjønte":7447,"##ront":7448,"##deres":7449,"##istikk":7450,"abo":7451,"bidrar":7452,"##føringen":7453,"##tent":7454,"##hjelp":7455,"##ldre":7456,"800":7457,"tysk":7458,"stått":7459,"måter":7460,"service":7461,"langsomt":7462,"maskin":7463,"fla":7464,"##brø":7465,"##kapit":7466,"Kle":7467,"kong":7468,"Lil":7469,"##posten":7470,"fen":7471,"between":7472,"Ras":7473,"Program":7474,"##EF":7475,"##ating":7476,"århund":7477,"fing":7478,"fyller":7479,"il":7480,"##drift":7481,"##grupper":7482,"##utdan":7483,"test":7484,"stanset":7485,"##oms":7486,"##ael":7487,"nedenfor":7488,"org":7489,"læring":7490,"reist":7491,"PÅ":7492,"Hav":7493,"milliarder":7494,"nokre":7495,"Met":7496,"skikkelig":7497,"##digvis":7498,"##sområ":7499,"Com":7500,"##osof":7501,"forholdene":7502,"##kjer":7503,"lån":7504,"behovet":7505,"##fisk":7506,"Les":7507,"##usene":7508,"fattig":7509,"1976":7510,"##fot":7511,"mark":7512,"utel":7513,"cent":7514,"Lind":7515,"##budet":7516,"pan":7517,"Første":7518,"##inte":7519,"omfang":7520,"kriti":7521,"ungdoms":7522,"klem":7523,"størst":7524,"prosjekter":7525,"##bra":7526,"##jort":7527,"produkter":7528,"virksomheten":7529,"hor":7530,"erkl":7531,"##rast":7532,"maks":7533,"rettigheter":7534,"##10":7535,"##økonom":7536,"emp":7537,"##mater":7538,"##offer":7539,"##ittil":7540,"plikt":7541,"Aften":7542,"ag":7543,"symb":7544,"##ralt":7545,"##abeth":7546,"##atene":7547,"vass":7548,"alkohol":7549,"##igt":7550,"##ollar":7551,"176":7552,"barnehage":7553,"##tting":7554,"hest":7555,"benyttet":7556,"Litt":7557,"##inasjon":7558,"Ry":7559,"##forbund":7560,"økning":7561,"utrolig":7562,"Forsk":7563,"utlandet":7564,"Hov":7565,"##ilen":7566,"##formen":7567,"tunge":7568,"##ollene":7569,"grunner":7570,"Fiske":7571,"himmelen":7572,"##likten":7573,"Rog":7574,"korte":7575,"us":7576,"##ci":7577,"planen":7578,"lært":7579,"åpner":7580,"they":7581,"stjer":7582,"tyder":7583,"##rømme":7584,"##kul":7585,"##dager":7586,"klass":7587,"spesial":7588,"problemet":7589,"organisasjoner":7590,"benyttes":7591,"biler":7592,"redde":7593,"##ific":7594,"##redelse":7595,"##here":7596,"##rative":7597,"reser":7598,"übe":7599,"hindre":7600,"prisen":7601,"##ller":7602,"dekke":7603,"##sjektet":7604,"klær":7605,"brå":7606,"motstand":7607,"nokså":7608,"latter":7609,"stilte":7610,"lave":7611,"vill":7612,"fjerne":7613,"##hn":7614,"varie":7615,"spesiell":7616,"##cel":7617,"materiale":7618,"##sal":7619,"grunnleggende":7620,"##løpig":7621,"knapt":7622,"Mannen":7623,"Norway":7624,"##giftene":7625,"##weg":7626,"eksempler":7627,"sengen":7628,"Strand":7629,"##anda":7630,"programmet":7631,"##wn":7632,"##yrk":7633,"Bla":7634,"Kat":7635,"Instit":7636,"pasienter":7637,"pedagog":7638,"skjønn":7639,"##rammen":7640,"Mos":7641,"kjøkken":7642,"Takk":7643,"##sreg":7644,"##gl":7645,"jub":7646,"mennene":7647,"angrep":7648,"myndigheter":7649,"##ders":7650,"sein":7651,"orie":7652,"løsninger":7653,"##grepet":7654,"Ram":7655,"intet":7656,"farlig":7657,"sentralt":7658,"Cla":7659,"##ities":7660,"hyl":7661,"ør":7662,"##ulert":7663,"talet":7664,"##rodu":7665,"oppmerksomhet":7666,"hind":7667,"press":7668,"IV":7669,"skapt":7670,"demon":7671,"Mark":7672,"finn":7673,"##bor":7674,"Sær":7675,"Sko":7676,"frisk":7677,"stolt":7678,"fulle":7679,"kreve":7680,"risiko":7681,"sies":7682,"##givelse":7683,"##gren":7684,"##dommen":7685,"##ited":7686,"Helse":7687,"##skriften":7688,"Jord":7689,"opphold":7690,"konsekvenser":7691,"driv":7692,"##vendig":7693,"##vering":7694,"plassert":7695,"EN":7696,"sukker":7697,"innstilling":7698,"1974":7699,"##yens":7700,"presset":7701,"son":7702,"ordin":7703,"åpent":7704,"##vind":7705,"##asset":7706,"##dighet":7707,"penge":7708,"brans":7709,"perspektiv":7710,"##EK":7711,"##stått":7712,"bedt":7713,"sukse":7714,"##ktive":7715,"##jenester":7716,"##produksjon":7717,"Ky":7718,"perfe":7719,"##utvalget":7720,"##ordningen":7721,"ube":7722,"foregår":7723,"nøyaktig":7724,"##klart":7725,"##andid":7726,"##kne":7727,"areal":7728,"Fylke":7729,"etc":7730,"fav":7731,"typen":7732,"modell":7733,"plu":7734,"korleis":7735,"forh":7736,"Hy":7737,"Inter":7738,"status":7739,"Marg":7740,"##spen":7741,"##oni":7742,"##imum":7743,"ul":7744,"Mun":7745,"Nordland":7746,"fylt":7747,"utbet":7748,"sønnen":7749,"##vensk":7750,"stim":7751,"##por":7752,"vinne":7753,"tekniske":7754,"##ssjef":7755,"kulture":7756,"##kontr":7757,"1900":7758,"##alene":7759,"Kø":7760,"1973":7761,"krim":7762,"##cil":7763,"##jent":7764,"##stede":7765,"forfatter":7766,"1940":7767,"##vete":7768,"##jente":7769,"175":7770,"##program":7771,"Dere":7772,"##udsjett":7773,"##stjeneste":7774,"##antene":7775,"##aktiv":7776,"##bb":7777,"uro":7778,"sats":7779,"virksom":7780,"lykke":7781,"##amin":7782,"Aar":7783,"stilt":7784,"prior":7785,"flest":7786,"syssel":7787,"##chen":7788,"##bre":7789,"tlf":7790,"##virkning":7791,"##viser":7792,"jø":7793,"Bodø":7794,"Spesi":7795,"##ens":7796,"Barne":7797,"skule":7798,"##urtig":7799,"##ydro":7800,"verne":7801,"taus":7802,"##rest":7803,"stab":7804,"trukket":7805,"noget":7806,"##seres":7807,"beløp":7808,"##saker":7809,"##FT":7810,"ære":7811,"uavhengig":7812,"Jf":7813,"##agra":7814,"Nye":7815,"##gården":7816,"starte":7817,"1800":7818,"tjene":7819,"Pris":7820,"##lite":7821,"##ørre":7822,"Herren":7823,"fremtid":7824,"##ingens":7825,"trener":7826,"1945":7827,"arran":7828,"strøk":7829,"luften":7830,"tit":7831,"låg":7832,"hyggelig":7833,"Verd":7834,"1972":7835,"digit":7836,"halvt":7837,"prosessen":7838,"smerte":7839,"melding":7840,"##vesenet":7841,"##stren":7842,"action":7843,"##sopp":7844,"initiativ":7845,"##orge":7846,"danske":7847,"sesongen":7848,"##ningar":7849,"##dern":7850,"##useum":7851,"##vendt":7852,"120":7853,"aktiviteter":7854,"##kjøp":7855,"fulgt":7856,"Ag":7857,"##venn":7858,"##rommet":7859,"kunn":7860,"Rett":7861,"krev":7862,"##ures":7863,"fjellet":7864,"##iseres":7865,"positivt":7866,"ringte":7867,"##start":7868,"##jue":7869,"idee":7870,"Don":7871,"arkite":7872,"##fjorden":7873,"skille":7874,"##ners":7875,"gle":7876,"mask":7877,"##ibel":7878,"Skog":7879,"##ics":7880,"Gene":7881,"Gul":7882,"rappor":7883,"##jonelt":7884,"##bordet":7885,"than":7886,"had":7887,"##olitikken":7888,"##asitet":7889,"kostnader":7890,"teater":7891,"Ska":7892,"heng":7893,"liksom":7894,"opplyser":7895,"kjøkkenet":7896,"ye":7897,"undersøkelser":7898,"innom":7899,"stoppet":7900,"likhet":7901,"tilknytning":7902,"Produ":7903,"##sion":7904,"##setningen":7905,"##tede":7906,"##AP":7907,"Lag":7908,"Fotball":7909,"Emil":7910,"tilnær":7911,"sidan":7912,"falle":7913,"teksten":7914,"##iew":7915,"sjef":7916,"##sjef":7917,"pasienten":7918,"kjel":7919,"konkrete":7920,"Ellen":7921,"Strøm":7922,"##aktør":7923,"On":7924,"såg":7925,"greit":7926,"##arbeidere":7927,"kontrakt":7928,"iv":7929,"##plasser":7930,"solid":7931,"les":7932,"tidleg":7933,"##brit":7934,"EM":7935,"fremmed":7936,"rund":7937,"##arene":7938,"brød":7939,"##iens":7940,"##mmet":7941,"gård":7942,"##RU":7943,"uken":7944,"tilsy":7945,"potensi":7946,"virkeligheten":7947,"Grat":7948,"følelser":7949,"fris":7950,"naturligvis":7951,"skader":7952,"student":7953,"egg":7954,"##cke":7955,"##isker":7956,"##skost":7957,"##AK":7958,"##uf":7959,"igjennom":7960,"##ari":7961,"Dra":7962,"##ati":7963,"fabri":7964,"##gress":7965,"##ology":7966,"##vald":7967,"##urte":7968,"Vol":7969,"kamera":7970,"##cer":7971,"personlige":7972,"Stock":7973,"Venstre":7974,"halsen":7975,"Gr":7976,"##jul":7977,"Math":7978,"##cus":7979,"UN":7980,"grov":7981,"##minister":7982,"1969":7983,"preste":7984,"ansatt":7985,"gass":7986,"oppleve":7987,"Just":7988,"hang":7989,"##fug":7990,"fornuft":7991,"henger":7992,"grenser":7993,"##analy":7994,"dagene":7995,"idé":7996,"Son":7997,"generelle":7998,"lærere":7999,"tabell":8000,"his":8001,"praktiske":8002,"avis":8003,"Hell":8004,"##rinsi":8005,"kikket":8006,"disp":8007,"kaste":8008,"Agder":8009,"blo":8010,"fortell":8011,"sover":8012,"kvinnene":8013,"vises":8014,"##jøl":8015,"døra":8016,"radio":8017,"avvik":8018,"Slike":8019,"Big":8020,"År":8021,"##orth":8022,"##fullt":8023,"##vitt":8024,"##stud":8025,"##ward":8026,"##lim":8027,"Kristiansand":8028,"250":8029,"##rykket":8030,"Aug":8031,"mester":8032,"Politiet":8033,"used":8034,"fantastisk":8035,"Telem":8036,"Bang":8037,"regulering":8038,"tilstand":8039,"Norweg":8040,"regnes":8041,"##atur":8042,"kyst":8043,"minner":8044,"hevder":8045,"ledet":8046,"tilfredsstil":8047,"Kå":8048,"oppford":8049,"partiet":8050,"teknisk":8051,"##ible":8052,"møtt":8053,"##book":8054,"mum":8055,"Kunst":8056,"priori":8057,"Nett":8058,"ordfører":8059,"##ografi":8060,"utbygging":8061,"forretnings":8062,"##artet":8063,"levde":8064,"forklarer":8065,"tvers":8066,"oppstår":8067,"##SE":8068,"klage":8069,"foretatt":8070,"drar":8071,"tann":8072,"##sia":8073,"føres":8074,"sannsynligvis":8075,"##sesjon":8076,"Håkon":8077,"##kkelse":8078,"##asjen":8079,"restaur":8080,"NY":8081,"fait":8082,"Rør":8083,"Michael":8084,"##ods":8085,"##olet":8086,"marker":8087,"tide":8088,"forvaltning":8089,"Mål":8090,"erstatning":8091,"Qu":8092,"vegen":8093,"##viten":8094,"fransk":8095,"Pet":8096,"##kro":8097,"##ranser":8098,"##fal":8099,"fritid":8100,"sender":8101,"##kanten":8102,"forster":8103,"arm":8104,"opprettet":8105,"utelu":8106,"##amen":8107,"##veit":8108,"verste":8109,"framover":8110,"Mr":8111,"##ower":8112,"##førsel":8113,"nokon":8114,"peker":8115,"Fram":8116,"skuldrene":8117,"etasje":8118,"##olkning":8119,"Kra":8120,"present":8121,"ettermiddag":8122,"munn":8123,"retningslin":8124,"##sgruppe":8125,"vat":8126,"tung":8127,"Senter":8128,"##bær":8129,"Hos":8130,"Organ":8131,"inspi":8132,"frihet":8133,"kjøper":8134,"male":8135,"debatt":8136,"##rot":8137,"mobil":8138,"foreslår":8139,"traff":8140,"ordning":8141,"Sande":8142,"upp":8143,"##skaps":8144,"oppføl":8145,"færre":8146,"mik":8147,"IL":8148,"utfordringer":8149,"gutter":8150,"ringe":8151,"Klo":8152,"benytte":8153,"samarbeidet":8154,"##gelige":8155,"avslut":8156,"ogsaa":8157,"opplevelse":8158,"meiner":8159,"174":8160,"nogen":8161,"##UT":8162,"##spolit":8163,"spare":8164,"oppfyl":8165,"anses":8166,"rapporten":8167,"##ktivt":8168,"##inst":8169,"negative":8170,"##orier":8171,"regner":8172,"tilta":8173,"varmt":8174,"berør":8175,"##cu":8176,"dame":8177,"##byen":8178,"##skip":8179,"##ENT":8180,"##bør":8181,"Terje":8182,"elektron":8183,"klubben":8184,"##uden":8185,"Inger":8186,"forhånd":8187,"frie":8188,"Show":8189,"Trans":8190,"##amling":8191,"slu":8192,"lod":8193,"fange":8194,"##ded":8195,"AL":8196,"lens":8197,"hemme":8198,"økende":8199,"##eters":8200,"Geir":8201,"UT":8202,"håpet":8203,"posisjon":8204,"samtale":8205,"fremover":8206,"##rence":8207,"Distrikt":8208,"##stolen":8209,"##ope":8210,"bonde":8211,"##famil":8212,"Dø":8213,"##SL":8214,"plast":8215,"##gden":8216,"lam":8217,"strukt":8218,"bygda":8219,"##inns":8220,"##smøte":8221,"##osten":8222,"spilt":8223,"opplevd":8224,"##selskapet":8225,"betalt":8226,"handle":8227,"##arden":8228,"##oene":8229,"oppmerksom":8230,"jen":8231,"kona":8232,"##VER":8233,"dukket":8234,"##astro":8235,"dru":8236,"##nerne":8237,"høyeste":8238,"##beve":8239,"fanget":8240,"##DER":8241,"lab":8242,"##britann":8243,"franske":8244,"ov":8245,"##omer":8246,"arter":8247,"##cted":8248,"##stant":8249,"innlegg":8250,"gifte":8251,"##IF":8252,"Elis":8253,"klima":8254,"##JON":8255,"1971":8256,"europeiske":8257,"Vir":8258,"##ila":8259,"##ØS":8260,"Hjel":8261,"sesong":8262,"ettersom":8263,"pasient":8264,"Cor":8265,"ulik":8266,"laste":8267,"virkning":8268,"Fle":8269,"Willi":8270,"tømmer":8271,"bank":8272,"Rich":8273,"##ista":8274,"Norwegian":8275,"##ump":8276,"##settelse":8277,"beregnet":8278,"##lan":8279,"mulige":8280,"åpenbart":8281,"##ros":8282,"Storbritann":8283,"##kri":8284,"Island":8285,"korre":8286,"some":8287,"forklaring":8288,"uhel":8289,"##avgift":8290,"##mag":8291,"##ness":8292,"##ikere":8293,"sæ":8294,"gjelde":8295,"##komst":8296,"Troms":8297,"skre":8298,"##pes":8299,"let":8300,"##ktøy":8301,"Anton":8302,"Sund":8303,"##havet":8304,"tilrette":8305,"##ivert":8306,"krefter":8307,"sens":8308,"mørket":8309,"gjenopp":8310,"Brø":8311,"nest":8312,"lokalt":8313,"Pres":8314,"aktuelt":8315,"Ør":8316,"drevet":8317,"indi":8318,"##aka":8319,"##benhavn":8320,"##lagte":8321,"pul":8322,"##lyst":8323,"##ield":8324,"ild":8325,"deltok":8326,"##partementets":8327,"klokka":8328,"forske":8329,"rekru":8330,"Kla":8331,"##tegi":8332,"frig":8333,"FR":8334,"##nert":8335,"valget":8336,"Ås":8337,"voksen":8338,"Go":8339,"##rog":8340,"bran":8341,"administrasjon":8342,"grønne":8343,"endte":8344,"##ISK":8345,"fli":8346,"stortings":8347,"Bon":8348,"##11":8349,"professor":8350,"ansvarlig":8351,"bind":8352,"motiv":8353,"##bon":8354,"##inal":8355,"orig":8356,"annon":8357,"act":8358,"Afrika":8359,"respon":8360,"##hr":8361,"skriv":8362,"Føl":8363,"komedie":8364,"tyng":8365,"##mal":8366,"##komme":8367,"oftest":8368,"##dele":8369,"##OK":8370,"kjører":8371,"Kal":8372,"trett":8373,"##øe":8374,"ånde":8375,"tradisjon":8376,"##virke":8377,"Sommer":8378,"Lørdag":8379,"Dr":8380,"##strekning":8381,"korn":8382,"døden":8383,"##knet":8384,"##øpet":8385,"os":8386,"ettersp":8387,"militær":8388,"basis":8389,"kravet":8390,"slutte":8391,"1965":8392,"veier":8393,"##litet":8394,"fel":8395,"leste":8396,"##bakk":8397,"Grunn":8398,"Frp":8399,"Indust":8400,"Ev":8401,"forstand":8402,"##llet":8403,"høve":8404,"##ined":8405,"intel":8406,"##genen":8407,"inntekter":8408,"its":8409,"innflytelse":8410,"##yt":8411,"bestemmer":8412,"bringe":8413,"grunnlaget":8414,"Finans":8415,"emb":8416,"inde":8417,"rygg":8418,"ent":8419,"tankene":8420,"##flaten":8421,"##seg":8422,"Italia":8423,"manglende":8424,"##øn":8425,"##uring":8426,"kontrolle":8427,"foto":8428,"snill":8429,"develop":8430,"##nevnte":8431,"ER":8432,"##ANG":8433,"Noreg":8434,"kommen":8435,"velferd":8436,"super":8437,"##strid":8438,"##penger":8439,"##vekt":8440,"fastsatt":8441,"konflikt":8442,"hom":8443,"##brand":8444,"fylket":8445,"##temat":8446,"Simon":8447,"1968":8448,"##ordin":8449,"nylig":8450,"butikk":8451,"##ato":8452,"svaret":8453,"##forskning":8454,"fremtiden":8455,"kontoret":8456,"##ries":8457,"gjens":8458,"Kristus":8459,"1967":8460,"øl":8461,"##natt":8462,"##hammer":8463,"vog":8464,"Ark":8465,"filmen":8466,"normal":8467,"Nes":8468,"##ppel":8469,"nøy":8470,"##ålene":8471,"skifte":8472,"##talte":8473,"##gjø":8474,"Ring":8475,"Kommun":8476,"dets":8477,"Ger":8478,"eige":8479,"1930":8480,"##ndinger":8481,"kjer":8482,"kome":8483,"rart":8484,"##rafikk":8485,"##merke":8486,"sjo":8487,"godkjent":8488,"Fjell":8489,"Prem":8490,"lest":8491,"Mell":8492,"##senteret":8493,"Kina":8494,"##handlingen":8495,"forsøke":8496,"bes":8497,"##ival":8498,"Ak":8499,"Eiendom":8500,"##slig":8501,"##smål":8502,"faglig":8503,"samling":8504,"krø":8505,"Jose":8506,"1920":8507,"misten":8508,"skru":8509,"Helt":8510,"Od":8511,"Miljø":8512,"sch":8513,"##II":8514,"Rød":8515,"stoppe":8516,"##kkede":8517,"##gruppen":8518,"genera":8519,"Frå":8520,"subje":8521,"NM":8522,"dollar":8523,"pap":8524,"##af":8525,"flag":8526,"##arm":8527,"innholdet":8528,"mønster":8529,"##inke":8530,"konvens":8531,"Dagbladet":8532,"jorda":8533,"Øster":8534,"##kjennelse":8535,"##innen":8536,"##løsning":8537,"##arn":8538,"Gjer":8539,"forsto":8540,"Sara":8541,"fødsel":8542,"##pan":8543,"paralle":8544,"##serne":8545,"##unda":8546,"kvalif":8547,"##wood":8548,"##lement":8549,"##mos":8550,"Sof":8551,"Sett":8552,"tilfellet":8553,"##ligens":8554,"inkludert":8555,"ekteskap":8556,"stabil":8557,"Sunn":8558,"strand":8559,"##ikler":8560,"berg":8561,"##atret":8562,"##ilet":8563,"Sigur":8564,"##vanlig":8565,"totale":8566,"aksjon":8567,"work":8568,"besøke":8569,"##lad":8570,"Utvalget":8571,"bit":8572,"##ndet":8573,"mellem":8574,"glob":8575,"rente":8576,"##ums":8577,"hust":8578,"dyp":8579,"Niel":8580,"tolv":8581,"##onene":8582,"enhet":8583,"legen":8584,"##rape":8585,"kaldt":8586,"Søndag":8587,"situasjoner":8588,"optim":8589,"##amb":8590,"##pres":8591,"sykkel":8592,"sendes":8593,"##irer":8594,"søknad":8595,"beslutning":8596,"new":8597,"kalle":8598,"veks":8599,"løpe":8600,"Nasjon":8601,"frykt":8602,"##minal":8603,"mangel":8604,"kreves":8605,"bon":8606,"##person":8607,"##ologien":8608,"Dahl":8609,"##ENS":8610,"##ligvis":8611,"who":8612,"Rob":8613,"if":8614,"miste":8615,"fordelt":8616,"Fordi":8617,"merk":8618,"henholdsvis":8619,"##sesser":8620,"##æg":8621,"##IR":8622,"700":8623,"danse":8624,"##rich":8625,"##formasjon":8626,"foreslått":8627,"fordeling":8628,"##IM":8629,"##zen":8630,"Fal":8631,"##alderen":8632,"selskaper":8633,"institusjon":8634,"Kristin":8635,"utvid":8636,"sikt":8637,"kritikk":8638,"vedlikehold":8639,"maten":8640,"Ot":8641,"Rolf":8642,"tradisjonelle":8643,"Eit":8644,"Bank":8645,"hug":8646,"brun":8647,"##pix":8648,"##press":8649,"Side":8650,"forbed":8651,"##no":8652,"166":8653,"representant":8654,"Ande":8655,"dans":8656,"Kje":8657,"dr":8658,"tver":8659,"Natur":8660,"human":8661,"##velig":8662,"##likevel":8663,"##høy":8664,"greie":8665,"##identen":8666,"Lok":8667,"leverand":8668,"kyrkje":8669,"vurdert":8670,"representanter":8671,"##ré":8672,"##gers":8673,"bekymret":8674,"##leie":8675,"Bolig":8676,"Lou":8677,"Plan":8678,"nåværende":8679,"##ituasjonen":8680,"##stere":8681,"snu":8682,"aktive":8683,"##bytte":8684,"nevnes":8685,"kring":8686,"Result":8687,"plasse":8688,"Sten":8689,"car":8690,"bin":8691,"ug":8692,"årlig":8693,"suksess":8694,"into":8695,"##åp":8696,"170":8697,"##blemer":8698,"##politikk":8699,"##skinen":8700,"samlede":8701,"##ynam":8702,"Verdens":8703,"Kommune":8704,"fysiske":8705,"Vet":8706,"kunder":8707,"planlagt":8708,"##posisjon":8709,"stål":8710,"172":8711,"bein":8712,"foreløpig":8713,"plante":8714,"advokat":8715,"##åt":8716,"takt":8717,"sjanse":8718,"mekan":8719,"##ney":8720,"hud":8721,"TR":8722,"##add":8723,"Ange":8724,"##gir":8725,"##kamp":8726,"Legg":8727,"##fiske":8728,"Nu":8729,"Neste":8730,"Ned":8731,"hovedsak":8732,"gave":8733,"forsøker":8734,"Wal":8735,"Bjer":8736,"##OD":8737,"Hagen":8738,"##ution":8739,"##bot":8740,"World":8741,"##ips":8742,"forel":8743,"nar":8744,"Port":8745,"##byr":8746,"Storbritannia":8747,"900":8748,"holdes":8749,"Pol":8750,"##ustad":8751,"##stiltak":8752,"##alis":8753,"Pat":8754,"##akse":8755,"anvendelse":8756,"levert":8757,"rekla":8758,"husket":8759,"selvstendig":8760,"teknologi":8761,"##riluft":8762,"two":8763,"##hu":8764,"hesten":8765,"##ikten":8766,"Universitetet":8767,"##rensen":8768,"avsluttet":8769,"hage":8770,"sed":8771,"Ellers":8772,"##gjorde":8773,"maa":8774,"himmel":8775,"tilby":8776,"forvir":8777,"##cle":8778,"##etting":8779,"vendte":8780,"##ukt":8781,"Solberg":8782,"inngår":8783,"kjenn":8784,"##smo":8785,"konfe":8786,"Ofte":8787,"##lefon":8788,"Ze":8789,"landene":8790,"partene":8791,"Ib":8792,"studier":8793,"##ssam":8794,"myndighetene":8795,"Telemark":8796,"Kri":8797,"such":8798,"jenta":8799,"forlen":8800,"heime":8801,"##lever":8802,"søster":8803,"##sentra":8804,"treng":8805,"stikk":8806,"smak":8807,"Drammen":8808,"overgang":8809,"bruken":8810,"##18":8811,"hvisket":8812,"##løpet":8813,"eventyr":8814,"these":8815,"##sløs":8816,"##gjørelse":8817,"Gå":8818,"##makt":8819,"motsetning":8820,"##ped":8821,"forst":8822,"Tidligere":8823,"innk":8824,"##modig":8825,"Sar":8826,"hverdag":8827,"priser":8828,"sosialt":8829,"sektor":8830,"Sigurd":8831,"elsket":8832,"skjul":8833,"tilhører":8834,"Molde":8835,"Rasmus":8836,"Tar":8837,"starten":8838,"eksisterende":8839,"teori":8840,"##hers":8841,"organisasjonen":8842,"likt":8843,"1964":8844,"myndighet":8845,"etablere":8846,"butikken":8847,"forholdsvis":8848,"gleder":8849,"Hvilke":8850,"Fag":8851,"forfer":8852,"overord":8853,"Sogn":8854,"bærer":8855,"##ssen":8856,"1966":8857,"lykkes":8858,"##ittet":8859,"skrå":8860,"utstrekning":8861,"avd":8862,"about":8863,"Comm":8864,"alb":8865,"utform":8866,"begrepet":8867,"##bygd":8868,"##ira":8869,"##jå":8870,"tyde":8871,"melder":8872,"ordningen":8873,"minutt":8874,"låne":8875,"num":8876,"fellesskap":8877,"##undersøke":8878,"brevet":8879,"enden":8880,"##cis":8881,"##anpix":8882,"##bank":8883,"##aking":8884,"planlegging":8885,"Va":8886,"Sov":8887,"ledelsen":8888,"jentene":8889,"sivil":8890,"beskrevet":8891,"##vernet":8892,"hurtig":8893,"morgenen":8894,"blad":8895,"Hil":8896,"senter":8897,"kjøret":8898,"ødel":8899,"Bok":8900,"eventuelle":8901,"Jar":8902,"offis":8903,"Gun":8904,"overtok":8905,"Kv":8906,"gjere":8907,"yrke":8908,"arbei":8909,"##oven":8910,"Stockholm":8911,"Års":8912,"britiske":8913,"Rune":8914,"##runder":8915,"Hei":8916,"København":8917,"grensen":8918,"##systemet":8919,"##xt":8920,"hytte":8921,"nordmenn":8922,"##handler":8923,"hund":8924,"##hald":8925,"brystet":8926,"kjønns":8927,"observ":8928,"##allfall":8929,"Finland":8930,"Tenk":8931,"hjul":8932,"kysten":8933,"spesiali":8934,"##omme":8935,"utenriks":8936,"NH":8937,"##cebook":8938,"hast":8939,"Dagsnytt":8940,"glemt":8941,"historisk":8942,"KrF":8943,"Arbeiderpartiet":8944,"filosof":8945,"telefonen":8946,"##ya":8947,"##ndens":8948,"##dommer":8949,"lyse":8950,"##OG":8951,"Soc":8952,"påvirke":8953,"feltet":8954,"tabel":8955,"egenskaper":8956,"militære":8957,"nødvendigvis":8958,"Ende":8959,"bestemmelse":8960,"##dte":8961,"syv":8962,"pekte":8963,"aktivt":8964,"staden":8965,"##ulent":8966,"komment":8967,"##boka":8968,"##aer":8969,"mul":8970,"tørr":8971,"talt":8972,"just":8973,"kjo":8974,"AR":8975,"##conom":8976,"##ierne":8977,"hverken":8978,"dessverre":8979,"ledere":8980,"dialog":8981,"nevne":8982,"handlinger":8983,"sprang":8984,"Rand":8985,"##bestemme":8986,"##hagen":8987,"Nic":8988,"liste":8989,"liggende":8990,"##været":8991,"historiske":8992,"Bæ":8993,"##itten":8994,"##handel":8995,"##ated":8996,"##tenes":8997,"##staden":8998,"spel":8999,"Press":9000,"Form":9001,"##stall":9002,"elske":9003,"gaten":9004,"##srett":9005,"Komiteen":9006,"##fallet":9007,"##lier":9008,"enor":9009,"produksjonen":9010,"Øog":9011,"Sverre":9012,"##etning":9013,"Akers":9014,"kjønn":9015,"1961":9016,"vegne":9017,"Harry":9018,"University":9019,"studenter":9020,"særskilt":9021,"##su":9022,"util":9023,"vokste":9024,"Nar":9025,"sittende":9026,"Ob":9027,"##spille":9028,"##umet":9029,"temmelig":9030,"seinare":9031,"landbruks":9032,"Tryg":9033,"bevilg":9034,"radi":9035,"##lish":9036,"forskrift":9037,"forta":9038,"##forsam":9039,"##ærende":9040,"##struktur":9041,"beskriver":9042,"balanse":9043,"##ktøren":9044,"##ferdsel":9045,"##lesund":9046,"Fjord":9047,"prinsippet":9048,"forutsetning":9049,"psykisk":9050,"Europe":9051,"Gri":9052,"alvorlige":9053,"##resp":9054,"sint":9055,"overta":9056,"respe":9057,"komiteen":9058,"Heg":9059,"Enkel":9060,"173":9061,"banen":9062,"betaling":9063,"allmenn":9064,"##urnal":9065,"cor":9066,"overrasket":9067,"pusten":9068,"tomme":9069,"behandlingen":9070,"klassen":9071,"spø":9072,"fløy":9073,"##90":9074,"tomt":9075,"jam":9076,"show":9077,"internasjonal":9078,"dannet":9079,"live":9080,"byens":9081,"Hamar":9082,"vende":9083,"##mas":9084,"Råd":9085,"##atsen":9086,"medfører":9087,"##16":9088,"Senere":9089,"omtalt":9090,"Mellom":9091,"mørk":9092,"Ingeborg":9093,"use":9094,"forurens":9095,"Jonas":9096,"##unden":9097,"##vede":9098,"ses":9099,"verdenskri":9100,"##pend":9101,"Utvik":9102,"##sdtr":9103,"##nge":9104,"##oten":9105,"Kapit":9106,"Fredag":9107,"sekund":9108,"Hit":9109,"##fang":9110,"velkommen":9111,"herre":9112,"mass":9113,"metode":9114,"1963":9115,"jevn":9116,"overdra":9117,"##terier":9118,"verdt":9119,"innført":9120,"1946":9121,"holdning":9122,"Rogaland":9123,"##ason":9124,"opphe":9125,"net":9126,"uri":9127,"kunstner":9128,"wo":9129,"##byrå":9130,"skyte":9131,"mottatt":9132,"Ris":9133,"frivillig":9134,"teoret":9135,"##kster":9136,"snare":9137,"##liste":9138,"Elisabeth":9139,"vanskelige":9140,"undersøkelsen":9141,"svensk":9142,"##redskap":9143,"James":9144,"tapt":9145,"Holm":9146,"grader":9147,"fik":9148,"Ingrid":9149,"##igen":9150,"løfte":9151,"engasjer":9152,"Art":9153,"1962":9154,"skiller":9155,"kok":9156,"grundig":9157,"##ged":9158,"##bjør":9159,"##tain":9160,"mengde":9161,"##ior":9162,"Hvilken":9163,"##givning":9164,"kvad":9165,"##bin":9166,"West":9167,"innvand":9168,"spa":9169,"ordent":9170,"Høye":9171,"##sch":9172,"nom":9173,"##asen":9174,"sykehuset":9175,"ånd":9176,"##UM":9177,"##inav":9178,"umiddelbart":9179,"##rul":9180,"##inerte":9181,"pil":9182,"##ruppa":9183,"Hard":9184,"##verte":9185,"Aud":9186,"Høg":9187,"##15":9188,"øk":9189,"sho":9190,"Eva":9191,"##ivalen":9192,"fantas":9193,"nordiske":9194,"##slam":9195,"##års":9196,"##ison":9197,"bestand":9198,"betin":9199,"##unge":9200,"Karen":9201,"felle":9202,"vitenskape":9203,"boliger":9204,"musik":9205,"bortsett":9206,"##cher":9207,"##iteens":9208,"verdien":9209,"sekunder":9210,"hevdet":9211,"konkl":9212,"områdene":9213,"##rinn":9214,"##lom":9215,"hemmelig":9216,"##feltet":9217,"synlig":9218,"only":9219,"fylte":9220,"##jerte":9221,"engelske":9222,"Bestemme":9223,"egnet":9224,"skam":9225,"nådde":9226,"##UD":9227,"##LER":9228,"Arn":9229,"##skab":9230,"kjørt":9231,"Torsdag":9232,"døgn":9233,"avisen":9234,"enk":9235,"mikro":9236,"brudd":9237,"nyttig":9238,"##mmene":9239,"##smidler":9240,"##ørsmål":9241,"Mari":9242,"punktum":9243,"tilfeldig":9244,"glemme":9245,"konsesjon":9246,"##ungen":9247,"dokumen":9248,"##pla":9249,"trur":9250,"næringslivet":9251,"kamper":9252,"kommunestyret":9253,"trygt":9254,"tjener":9255,"skapte":9256,"Gift":9257,"fö":9258,"eksport":9259,"Felles":9260,"slipper":9261,"infl":9262,"##tal":9263,"##nske":9264,"##uter":9265,"##ural":9266,"bade":9267,"##illed":9268,"##blikk":9269,"##burg":9270,"Fy":9271,"##kkens":9272,"diagn":9273,"##imen":9274,"NC":9275,"boksta":9276,"##bal":9277,"magen":9278,"any":9279,"##ORT":9280,"Svar":9281,"Ungdom":9282,"institusjoner":9283,"kald":9284,"miljøet":9285,"operasjon":9286,"hjalp":9287,"##ligt":9288,"ball":9289,"##igere":9290,"frykte":9291,"110":9292,"tel":9293,"##æs":9294,"tilsk":9295,"##sarbeid":9296,"utfordring":9297,"##hard":9298,"eiendommen":9299,"vokser":9300,"besl":9301,"##19":9302,"utenlandske":9303,"forsøkt":9304,"proble":9305,"Fru":9306,"tingene":9307,"##akk":9308,"##sterett":9309,"rollene":9310,"styring":9311,"##aksjon":9312,"resultatene":9313,"Person":9314,"##itive":9315,"alternative":9316,"begra":9317,"Johanne":9318,"##rdet":9319,"unntatt":9320,"russiske":9321,"##fast":9322,"Romsdal":9323,"##ordet":9324,"Bal":9325,"Arti":9326,"godkjen":9327,"bakover":9328,"øyeblikket":9329,"hvile":9330,"tone":9331,"##lend":9332,"søkte":9333,"##asker":9334,"matemat":9335,"1948":9336,"Erling":9337,"##stasjon":9338,"fylle":9339,"##lekt":9340,"##film":9341,"##renn":9342,"##out":9343,"##ini":9344,"##visst":9345,"Not":9346,"Tur":9347,"ita":9348,"pause":9349,"divisjon":9350,"##stikk":9351,"karrie":9352,"##aksen":9353,"##byggingen":9354,"debatten":9355,"handels":9356,"underholdning":9357,"##gede":9358,"forutsetter":9359,"##skiftet":9360,"LO":9361,"##tine":9362,"danner":9363,"dik":9364,"Mac":9365,"sakene":9366,"opps":9367,"##splikt":9368,"melde":9369,"##hi":9370,"SSSS":9371,"Teg":9372,"Meg":9373,"amerikansk":9374,"##ogen":9375,"spec":9376,"skilt":9377,"beholde":9378,"##onger":9379,"vaske":9380,"statens":9381,"Ali":9382,"##fé":9383,"##snyheter":9384,"##bus":9385,"terror":9386,"skjeb":9387,"##gaver":9388,"møtes":9389,"forstyr":9390,"Særlig":9391,"opplevde":9392,"berø":9393,"opprinnelig":9394,"iallfall":9395,"##sningene":9396,"irri":9397,"slen":9398,"##snivå":9399,"leke":9400,"##off":9401,"arbeidsgiver":9402,"reaksjon":9403,"hon":9404,"##ynet":9405,"##pit":9406,"veiledning":9407,"forplikte":9408,"Juli":9409,"Bill":9410,"##nningen":9411,"kjæ":9412,"stiv":9413,"##kommer":9414,"Ir":9415,"##idd":9416,"##andinav":9417,"Dis":9418,"Vold":9419,"##nna":9420,"solgte":9421,"##foreningen":9422,"flotte":9423,"innbyggere":9424,"##ilig":9425,"leilighet":9426,"iverks":9427,"aktører":9428,"tunne":9429,"ressurs":9430,"villig":9431,"##sedy":9432,"dårlige":9433,"kritisk":9434,"Pub":9435,"medlemmene":9436,"##ligheter":9437,"ulov":9438,"stolen":9439,"metoder":9440,"bokstav":9441,"vitne":9442,"when":9443,"kontin":9444,"Gust":9445,"selger":9446,"betraktet":9447,"varierer":9448,"##kontoret":9449,"konsert":9450,"Brann":9451,"##repet":9452,"lek":9453,"faglige":9454,"understreker":9455,"Home":9456,"bane":9457,"##taket":9458,"Små":9459,"lyder":9460,"sorg":9461,"fat":9462,"Hand":9463,"##BER":9464,"dømt":9465,"entre":9466,"Richard":9467,"##fisert":9468,"##mis":9469,"##EC":9470,"smiler":9471,"Eksemp":9472,"antar":9473,"Iver":9474,"##ksus":9475,"##12":9476,"##skva":9477,"est":9478,"Mol":9479,"Østfold":9480,"Master":9481,"cir":9482,"shall":9483,"##anerne":9484,"ing":9485,"##seende":9486,"##lund":9487,"Få":9488,"1947":9489,"kalde":9490,"betre":9491,"Sandnes":9492,"Kun":9493,"Fu":9494,"##IC":9495,"glade":9496,"stillinger":9497,"Ålesund":9498,"1956":9499,"Eriksen":9500,"omstendig":9501,"Ton":9502,"##kets":9503,"dokumentarserie":9504,"Johnsen":9505,"retningslinjer":9506,"Prin":9507,"different":9508,"##skoler":9509,"Jack":9510,"##uta":9511,"støv":9512,"tillatelse":9513,"formue":9514,"mørkt":9515,"øya":9516,"##vang":9517,"##nst":9518,"lurte":9519,"samtykke":9520,"trinn":9521,"##mun":9522,"solen":9523,"elva":9524,"Nik":9525,"lede":9526,"hittil":9527,"##oph":9528,"daglige":9529,"count":9530,"jurid":9531,"toget":9532,"##yldig":9533,"Ang":9534,"##iseringen":9535,"Leif":9536,"rammet":9537,"hjemmet":9538,"##banken":9539,"Jap":9540,"Berlin":9541,"behandles":9542,"##fs":9543,"##haugen":9544,"utarbeidet":9545,"##VE":9546,"Rosen":9547,"##iar":9548,"##bler":9549,"jernbane":9550,"forskrifter":9551,"kalte":9552,"##eta":9553,"harde":9554,"mangfold":9555,"kommunens":9556,"vinden":9557,"kret":9558,"##syke":9559,"##smøtet":9560,"Gjø":9561,"Møre":9562,"##stig":9563,"oppgitt":9564,"avtaler":9565,"vinner":9566,"##sleder":9567,"##ynt":9568,"fingrene":9569,"EØS":9570,"Spørsmålet":9571,"bryst":9572,"merkelig":9573,"vurderes":9574,"Hør":9575,"Flo":9576,"##landsk":9577,"metall":9578,"##myndig":9579,"##unnskap":9580,"##sprosessen":9581,"Che":9582,"temperatur":9583,"bjør":9584,"##reen":9585,"kast":9586,"hellige":9587,"religion":9588,"bytte":9589,"fett":9590,"detalj":9591,"##hengige":9592,"Lie":9593,"fersk":9594,"Fi":9595,"behøver":9596,"befinner":9597,"##jæ":9598,"##tekn":9599,"##40":9600,"##moen":9601,"##fir":9602,"##planen":9603,"bri":9604,"Hi":9605,"##slige":9606,"gram":9607,"##blant":9608,"anty":9609,"scenen":9610,"rec":9611,"##anden":9612,"160":9613,"Hold":9614,"line":9615,"Off":9616,"##IKK":9617,"bistand":9618,"utvidet":9619,"skipet":9620,"uen":9621,"merker":9622,"nerv":9623,"hog":9624,"##MS":9625,"##speri":9626,"##lagene":9627,"tilskudd":9628,"mengder":9629,"where":9630,"pet":9631,"utføres":9632,"##aret":9633,"##siktige":9634,"Lud":9635,"##mmede":9636,"dete":9637,"IS":9638,"##mental":9639,"pens":9640,"##agram":9641,"Antall":9642,"innle":9643,"##kampen":9644,"1959":9645,"GR":9646,"gn":9647,"passet":9648,"riktige":9649,"presten":9650,"utenom":9651,"guttene":9652,"fremmede":9653,"Champ":9654,"allikevel":9655,"##nas":9656,"##stilte":9657,"aksjer":9658,"giftet":9659,"1957":9660,"spurt":9661,"##remt":9662,"takket":9663,"Theory":9664,"innsp":9665,"Tri":9666,"##jorte":9667,"spillere":9668,"reisen":9669,"##bøker":9670,"Storting":9671,"utslipp":9672,"svake":9673,"##ighets":9674,"##ants":9675,"1952":9676,"Sjå":9677,"inngå":9678,"August":9679,"samband":9680,"samisk":9681,"real":9682,"##mand":9683,"##iret":9684,"##ality":9685,"##strå":9686,"klasser":9687,"Stø":9688,"oppfølging":9689,"##jern":9690,"##boks":9691,"Trump":9692,"##stal":9693,"##LA":9694,"Akershus":9695,"favor":9696,"skiftet":9697,"Moss":9698,"Kåre":9699,"forebyg":9700,"dekker":9701,"##strukt":9702,"hæ":9703,"midlertidig":9704,"##ordninger":9705,"International":9706,"Mennes":9707,"trykket":9708,"Lange":9709,"tallene":9710,"##høg":9711,"betaler":9712,"gjennem":9713,"Top":9714,"##nson":9715,"andres":9716,"festet":9717,"rammer":9718,"htt":9719,"faktorer":9720,"Kristoffer":9721,"etterspør":9722,"døy":9723,"Cl":9724,"1939":9725,"Sin":9726,"Aas":9727,"##system":9728,"1958":9729,"tegne":9730,"laga":9731,"##sborg":9732,"##ady":9733,"Rt":9734,"klin":9735,"Knud":9736,"beskytte":9737,"last":9738,"forlot":9739,"toll":9740,"misjon":9741,"##IST":9742,"1955":9743,"domine":9744,"erver":9745,"##revis":9746,"forretning":9747,"Lillehammer":9748,"Lå":9749,"bygges":9750,"deltar":9751,"dekning":9752,"medan":9753,"Ener":9754,"frivillige":9755,"snur":9756,"##inter":9757,"##giften":9758,"Spania":9759,"seie":9760,"mal":9761,"##kking":9762,"skum":9763,"##17":9764,"gjera":9765,"internasjonalt":9766,"##behov":9767,"##letter":9768,"autor":9769,"##jefen":9770,"støy":9771,"peke":9772,"svin":9773,"Øvre":9774,"kjerne":9775,"spiser":9776,"##lings":9777,"søvn":9778,"forklarte":9779,"ille":9780,"tab":9781,"jur":9782,"parkering":9783,"ulykke":9784,"fal":9785,"turist":9786,"##klager":9787,"antas":9788,"tegnet":9789,"bis":9790,"##kler":9791,"##ago":9792,"henvende":9793,"lige":9794,"delte":9795,"##ningens":9796,"Skole":9797,"stasjon":9798,"Hauges":9799,"århundre":9800,"kommunal":9801,"##amet":9802,"##skerne":9803,"##markedet":9804,"hyp":9805,"##utstyr":9806,"1949":9807,"Nav":9808,"verdif":9809,"tilfredsstillende":9810,"War":9811,"Akkurat":9812,"##isene":9813,"##habil":9814,"klassi":9815,"AB":9816,"samtlige":9817,"##ffel":9818,"cont":9819,"romant":9820,"##foss":9821,"hull":9822,"helgen":9823,"mumlet":9824,"utg":9825,"eine":9826,"huden":9827,"pent":9828,"antallet":9829,"lyden":9830,"##avdelingen":9831,"gråt":9832,"Hotel":9833,"Prø":9834,"flø":9835,"skriftlig":9836,"symbol":9837,"ukjent":9838,"##ugge":9839,"språket":9840,"typisk":9841,"betrakt":9842,"##rapp":9843,"bøyde":9844,"fungere":9845,"##idig":9846,"Hammer":9847,"Wa":9848,"##ÆR":9849,"##sektoren":9850,"##iva":9851,"undert":9852,"##meter":9853,"Været":9854,"minnet":9855,"##fort":9856,"stilles":9857,"dimens":9858,"diskusjon":9859,"politikere":9860,"sida":9861,"Kort":9862,"##dann":9863,"sympt":9864,"barndom":9865,"lykkelig":9866,"engasjement":9867,"##angeli":9868,"organisert":9869,"bens":9870,"gry":9871,"##itar":9872,"##gard":9873,"1953":9874,"partic":9875,"modellen":9876,"##forn":9877,"##ctions":9878,"##litte":9879,"##OMM":9880,"uh":9881,"Tøns":9882,"brenne":9883,"introdu":9884,"naturlige":9885,"Dagens":9886,"EF":9887,"non":9888,"Grøn":9889,"bryte":9890,"oblig":9891,"##sting":9892,"Bjar":9893,"##tlige":9894,"byer":9895,"kvi":9896,"Enkelte":9897,"konsta":9898,"kommand":9899,"pannen":9900,"innan":9901,"##nneteg":9902,"Amund":9903,"Georg":9904,"Kont":9905,"Tiden":9906,"mur":9907,"gjenstand":9908,"##klo":9909,"medføre":9910,"Hum":9911,"bildene":9912,"los":9913,"US":9914,"##cr":9915,"anlegget":9916,"Grim":9917,"reality":9918,"synet":9919,"##ETT":9920,"trappen":9921,"hove":9922,"##biler":9923,"relevant":9924,"trist":9925,"##ENE":9926,"jev":9927,"opprør":9928,"##bers":9929,"119":9930,"konklu":9931,"##omet":9932,"incre":9933,"asyl":9934,"medier":9935,"##appar":9936,"Fredrikstad":9937,"##chn":9938,"verdenskrig":9939,"MAR":9940,"forny":9941,"hushold":9942,"dekk":9943,"identitet":9944,"Onsdag":9945,"##båt":9946,"forandret":9947,"arbeidsmiljø":9948,"musikken":9949,"##delinger":9950,"Los":9951,"##bed":9952,"Foren":9953,"Kim":9954,"video":9955,"Ask":9956,"MED":9957,"belast":9958,"Musikk":9959,"##ituasjon":9960,"##spillet":9961,"##hodet":9962,"dus":9963,"##fle":9964,"forskjeller":9965,"##GE":9966,"gjennomføres":9967,"Foss":9968,"følelsen":9969,"Distriktsnyheter":9970,"##vika":9971,"KR":9972,"faktum":9973,"acc":9974,"stengt":9975,"regionen":9976,"truffet":9977,"friluft":9978,"forba":9979,"Max":9980,"kommende":9981,"kreft":9982,"##13":9983,"Herre":9984,"##ool":9985,"firma":9986,"element":9987,"##føreren":9988,"There":9989,"rome":9990,"betydningen":9991,"##punktet":9992,"##dret":9993,"herunder":9994,"bakgrunnen":9995,"##oline":9996,"Brand":9997,"##spar":9998,"William":9999,"øverste":10000,"avgjørelse":10001,"alminnelig":10002,"Siv":10003,"##veig":10004,"CO":10005,"overalt":10006,"religiøse":10007,"ins":10008,"personen":10009,"familier":10010,"##TT":10011,"##øyer":10012,"most":10013,"Hord":10014,"struktur":10015,"##bak":10016,"##AB":10017,"##norsk":10018,"design":10019,"rulle":10020,"##litt":10021,"gammelt":10022,"##fik":10023,"##ylt":10024,"kreditt":10025,"##datter":10026,"Gamle":10027,"jus":10028,"oppgjør":10029,"168":10030,"lengde":10031,"demokrati":10032,"##skuddet":10033,"House":10034,"perfekt":10035,"##ship":10036,"##bedri":10037,"uka":10038,"pur":10039,"konsekvens":10040,"Industri":10041,"Grun":10042,"soldater":10043,"##kunst":10044,"##bund":10045,"##ives":10046,"opprinnelige":10047,"prat":10048,"ødelagt":10049,"lengst":10050,"##sport":10051,"Austra":10052,"hagen":10053,"##go":10054,"koster":10055,"vanleg":10056,"skinn":10057,"datteren":10058,"liter":10059,"lande":10060,"Smith":10061,"idag":10062,"Bur":10063,"##blå":10064,"retur":10065,"forutsetninger":10066,"##somhet":10067,"Nok":10068,"vilt":10069,"bestemmelsene":10070,"##marks":10071,"grønns":10072,"##gin":10073,"##villig":10074,"herr":10075,"levere":10076,"strek":10077,"##perioden":10078,"Pas":10079,"kortere":10080,"reklame":10081,"##vakt":10082,"##urdering":10083,"##ynte":10084,"sort":10085,"##ORD":10086,"brøt":10087,"Ble":10088,"tilbyr":10089,"ie":10090,"Jesu":10091,"hvitt":10092,"Stad":10093,"##fabri":10094,"bestemmelsen":10095,"avfall":10096,"##felle":10097,"Ove":10098,"stress":10099,"Facebook":10100,"beskrivelse":10101,"##løy":10102,"##holt":10103,"##skogen":10104,"stillingen":10105,"##illa":10106,"rase":10107,"kilde":10108,"reguler":10109,"##smyndig":10110,"1954":10111,"arbeidsgi":10112,"Frie":10113,"tidlegare":10114,"ordentlig":10115,"pkt":10116,"##SDAG":10117,"##ude":10118,"##annet":10119,"130":10120,"broren":10121,"uttrykket":10122,"hvorvidt":10123,"bruks":10124,"Brit":10125,"##støtte":10126,"##star":10127,"alminnelige":10128,"nark":10129,"oppgaven":10130,"samtalen":10131,"fattige":10132,"årsak":10133,"Skatte":10134,"hr":10135,"behandle":10136,"Lof":10137,"##onert":10138,"##sve":10139,"Egil":10140,"fisker":10141,"##nytt":10142,"bunn":10143,"sor":10144,"anden":10145,"##HET":10146,"Fer":10147,"Sog":10148,"##krig":10149,"stam":10150,"Ni":10151,"##henger":10152,"group":10153,"##md":10154,"farger":10155,"##skritt":10156,"##skjær":10157,"kolleg":10158,"##vilkår":10159,"him":10160,"##bene":10161,"##øl":10162,"##gata":10163,"oks":10164,"hovedsa":10165,"høres":10166,"##ressen":10167,"eventuell":10168,"Syke":10169,"fordeler":10170,"##bod":10171,"problemene":10172,"proje":10173,"skin":10174,"##inntekt":10175,"lærte":10176,"skjær":10177,"glø":10178,"kunnet":10179,"kapasitet":10180,"atom":10181,"nektet":10182,"Jim":10183,"##itz":10184,"geograf":10185,"tilstede":10186,"slit":10187,"United":10188,"næringsliv":10189,"##els":10190,"kryss":10191,"ss":10192,"lovens":10193,"##stasjonen":10194,"generell":10195,"##hørte":10196,"##hor":10197,"##jing":10198,"##regler":10199,"hur":10200,"bab":10201,"##forstå":10202,"##ivind":10203,"##latende":10204,"##urene":10205,"##ople":10206,"report":10207,"spiste":10208,"##SP":10209,"##ruer":10210,"##irekte":10211,"##ELL":10212,"gunst":10213,"she":10214,"##ledningen":10215,"Kongs":10216,"Gull":10217,"##ntil":10218,"mulighetene":10219,"NAT":10220,"femte":10221,"Lau":10222,"##mennes":10223,"ordre":10224,"Neder":10225,"Målet":10226,"skulderen":10227,"kull":10228,"sviger":10229,"løper":10230,"Even":10231,"vara":10232,"Aftenposten":10233,"##assa":10234,"Borg":10235,"omsetning":10236,"##ross":10237,"##pensjon":10238,"##oes":10239,"billig":10240,"smel":10241,"##oo":10242,"##sons":10243,"Din":10244,"##uering":10245,"III":10246,"preg":10247,"verktøy":10248,"would":10249,"barnehagen":10250,"##sdatter":10251,"null":10252,"Kristen":10253,"halde":10254,"##kapital":10255,"befolkning":10256,"##register":10257,"appro":10258,"opprette":10259,"helg":10260,"##redet":10261,"statlige":10262,"skudd":10263,"Ban":10264,"Eirik":10265,"manns":10266,"Sky":10267,"high":10268,"krise":10269,"stykker":10270,"skrek":10271,"##ått":10272,"dype":10273,"orienter":10274,"##unget":10275,"gjester":10276,"##sgjer":10277,"Pål":10278,"noens":10279,"Ass":10280,"##nu":10281,"##skra":10282,"beskyttelse":10283,"##forbundet":10284,"hunden":10285,"vesle":10286,"pleide":10287,"##prisen":10288,"sikret":10289,"skøy":10290,"##flate":10291,"sannheten":10292,"atter":10293,"##ndre":10294,"##skott":10295,"Allerede":10296,"bisk":10297,"mister":10298,"##ridge":10299,"##uts":10300,"tendens":10301,"Haugesund":10302,"tilbudet":10303,"##kring":10304,"1951":10305,"George":10306,"##kset":10307,"forekommer":10308,"bryll":10309,"Ki":10310,"kve":10311,"enklere":10312,"##ialer":10313,"klubb":10314,"##historie":10315,"faa":10316,"sidene":10317,"tette":10318,"nært":10319,"Nærings":10320,"akk":10321,"well":10322,"##faring":10323,"##helm":10324,"humor":10325,"dansk":10326,"mome":10327,"##kontor":10328,"##brev":10329,"##itor":10330,"retter":10331,"##utdanning":10332,"Plutselig":10333,"##inering":10334,"##åsen":10335,"gjennomføring":10336,"Lise":10337,"##role":10338,"##abler":10339,"##uene":10340,"##rygd":10341,"forbundet":10342,"dommer":10343,"Sven":10344,"1500":10345,"demokrat":10346,"##verdige":10347,"thro":10348,"Jern":10349,"##14":10350,"argument":10351,"##rena":10352,"##æk":10353,"Pi":10354,"##ano":10355,"prom":10356,"saka":10357,"##cri":10358,"kant":10359,"fler":10360,"Arbeids":10361,"smitte":10362,"##søkt":10363,"202":10364,"UK":10365,"##kelen":10366,"rute":10367,"##alys":10368,"##god":10369,"uttalelse":10370,"utk":10371,"forsy":10372,"helset":10373,"##olje":10374,"fyrste":10375,"Sovjet":10376,"##nsp":10377,"Mye":10378,"slutter":10379,"påvirker":10380,"##akon":10381,"Roy":10382,"##ansker":10383,"kolon":10384,"Real":10385,"##PS":10386,"1700":10387,"Fire":10388,"##teret":10389,"##istan":10390,"##ssystemet":10391,"blø":10392,"Hor":10393,"##ep":10394,"Skjø":10395,"##mert":10396,"bedriftene":10397,"prøvd":10398,"tynne":10399,"##vante":10400,"lurt":10401,"reduksjon":10402,"##dagens":10403,"##kling":10404,"##ji":10405,"Asb":10406,"Henry":10407,"bredt":10408,"beina":10409,"sigar":10410,"##faren":10411,"Lig":10412,"serien":10413,"grunne":10414,"friske":10415,"drepe":10416,"##bard":10417,"opprettholde":10418,"sok":10419,"uttalte":10420,"City":10421,"støttet":10422,"prop":10423,"innsikt":10424,"forbru":10425,"betydelige":10426,"##nevnt":10427,"rat":10428,"##andidat":10429,"opphav":10430,"Innen":10431,"Line":10432,"IT":10433,"##blemet":10434,"spørsmålene":10435,"cup":10436,"utnytte":10437,"studere":10438,"Gruppe":10439,"##etta":10440,"level":10441,"foten":10442,"##ux":10443,"##værelse":10444,"##FF":10445,"##nø":10446,"melk":10447,"##mmen":10448,"kanten":10449,"##uset":10450,"annan":10451,"sjansen":10452,"damer":10453,"evig":10454,"How":10455,"##cks":10456,"strategi":10457,"Tønsberg":10458,"##jøring":10459,"bemer":10460,"leiligheten":10461,"sånt":10462,"##geist":10463,"drap":10464,"Mary":10465,"Vig":10466,"brukere":10467,"##rica":10468,"dl":10469,"##ktighet":10470,"SC":10471,"kjennskap":10472,"1938":10473,"elektrisk":10474,"Magne":10475,"beboe":10476,"målt":10477,"should":10478,"##ypt":10479,"Berit":10480,"kostnadene":10481,"institutt":10482,"vo":10483,"right":10484,"##rol":10485,"##splassen":10486,"##unktene":10487,"gøy":10488,"barns":10489,"##sma":10490,"Pors":10491,"##sby":10492,"kvadrat":10493,"bena":10494,"##verdien":10495,"grønn":10496,"lete":10497,"skadet":10498,"sakte":10499,"##ki":10500,"But":10501,"leir":10502,"urett":10503,"Nyg":10504,"antagelig":10505,"kjempet":10506,"strengt":10507,"##snyhetene":10508,"sper":10509,"##ico":10510,"Unn":10511,"Stre":10512,"##jellene":10513,"##mede":10514,"tilpasset":10515,"hensiktsmessig":10516,"que":10517,"##komne":10518,"##ALL":10519,"major":10520,"##cl":10521,"##ili":10522,"##stiller":10523,"regionale":10524,"Rundt":10525,"vurderer":10526,"sammenhengen":10527,"tilsyne":10528,"iso":10529,"##SI":10530,"##grø":10531,"Pan":10532,"##andelen":10533,"##venes":10534,"formen":10535,"##ads":10536,"##ksen":10537,"##knings":10538,"inner":10539,"##lla":10540,"katastro":10541,"Sosial":10542,"påpeker":10543,"automatisk":10544,"Bærum":10545,"Gjør":10546,"##uere":10547,"##ilder":10548,"##smu":10549,"framfor":10550,"India":10551,"ligget":10552,"forresten":10553,"skjøt":10554,"##jal":10555,"##fru":10556,"elles":10557,"sees":10558,"##iget":10559,"forskjellen":10560,"Premier":10561,"banken":10562,"Dagen":10563,"Vestfold":10564,"avde":10565,"vedrørende":10566,"##olen":10567,"kalla":10568,"Samme":10569,"##lane":10570,"stry":10571,"##HE":10572,"minimum":10573,"demonst":10574,"Fir":10575,"plikter":10576,"medie":10577,"##ssystem":10578,"Brun":10579,"onkel":10580,"##udsjettet":10581,"fangst":10582,"##kja":10583,"rab":10584,"##asat":10585,"##sikring":10586,"##bur":10587,"planter":10588,"##illes":10589,"åpning":10590,"##jev":10591,"sav":10592,"Victor":10593,"equ":10594,"vaks":10595,"lød":10596,"kravene":10597,"eitt":10598,"love":10599,"henge":10600,"kjenneteg":10601,"jordbruks":10602,"Try":10603,"##rup":10604,"kilder":10605,"##rale":10606,"Sha":10607,"##bygget":10608,"nettverk":10609,"##ÅR":10610,"##kkar":10611,"brutt":10612,"Ope":10613,"##EB":10614,"spillet":10615,"140":10616,"AP":10617,"##ddet":10618,"##irken":10619,"overvå":10620,"foredrag":10621,"##IA":10622,"##øvrig":10623,"125":10624,"aa":10625,"arkiv":10626,"##ota":10627,"Hilde":10628,"DET":10629,"Sus":10630,"##leve":10631,"musk":10632,"løst":10633,"avgrens":10634,"Skriv":10635,"opptre":10636,"innov":10637,"Otto":10638,"##kko":10639,"unød":10640,"##kårene":10641,"vedte":10642,"vennlig":10643,"spenning":10644,"1936":10645,"##isser":10646,"overført":10647,"##idrett":10648,"hevet":10649,"selskapets":10650,"eigen":10651,"Ron":10652,"Tekn":10653,"##to":10654,"arbeidslivet":10655,"seige":10656,"havne":10657,"brått":10658,"latt":10659,"ph":10660,"##rican":10661,"NCIS":10662,"forstått":10663,"##lot":10664,"drog":10665,"##ience":10666,"arv":10667,"såkalt":10668,"##passe":10669,"##stekn":10670,"##avtale":10671,"perioder":10672,"elven":10673,"fotograf":10674,"Norden":10675,"sb":10676,"fisken":10677,"multi":10678,"112":10679,"period":10680,"##mpel":10681,"hoppet":10682,"##pensasjon":10683,"##ager":10684,"##givende":10685,"priorite":10686,"Uansett":10687,"Edvard":10688,"Alexander":10689,"bosatt":10690,"sjuke":10691,"She":10692,"##itiv":10693,"Tror":10694,"sammenlignet":10695,"syd":10696,"tilsyn":10697,"journalist":10698,"ballen":10699,"tante":10700,"held":10701,"forlate":10702,"takke":10703,"særlige":10704,"ringer":10705,"change":10706,"ivrig":10707,"##lyn":10708,"##porten":10709,"169":10710,"støtter":10711,"Christen":10712,"KL":10713,"##følelse":10714,"plate":10715,"helvete":10716,"Radio":10717,"desto":10718,"##odden":10719,"Nr":10720,"begrense":10721,"separ":10722,"##ittelen":10723,"svakt":10724,"front":10725,"##ington":10726,"sof":10727,"hotellet":10728,"nysgjer":10729,"##sevne":10730,"frist":10731,"gevin":10732,"##kkert":10733,"vunnet":10734,"maksim":10735,"sim":10736,"##vog":10737,"##lset":10738,"komple":10739,"Rik":10740,"pin":10741,"##skifte":10742,"##iten":10743,"resul":10744,"##viste":10745,"utdannings":10746,"##gaven":10747,"materialet":10748,"gradvis":10749,"##ulture":10750,"varsel":10751,"Aut":10752,"Endelig":10753,"statsminister":10754,"røyk":10755,"lovet":10756,"Ros":10757,"muligens":10758,"##umin":10759,"trær":10760,"Elekt":10761,"##gri":10762,"Jer":10763,"Hånd":10764,"##sæ":10765,"Espen":10766,"danne":10767,"ombord":10768,"dal":10769,"iste":10770,"årsaken":10771,"main":10772,"##idet":10773,"storm":10774,"effektivt":10775,"##ørs":10776,"Stand":10777,"investeringer":10778,"Holly":10779,"pike":10780,"Sval":10781,"kapitlet":10782,"##skade":10783,"##splanen":10784,"stig":10785,"Tal":10786,"##undes":10787,"Half":10788,"bundet":10789,"##smet":10790,"##stor":10791,"##sych":10792,"##uet":10793,"takknem":10794,"first":10795,"parter":10796,"##sbyg":10797,"velly":10798,"##æv":10799,"Øystein":10800,"skjønne":10801,"bag":10802,"bøkene":10803,"drifts":10804,"##stin":10805,"tips":10806,"Alta":10807,"foster":10808,"##lav":10809,"##anna":10810,"inkl":10811,"benytter":10812,"##amping":10813,"##vanns":10814,"Mitt":10815,"##ied":10816,"holdninger":10817,"seinere":10818,"##ANN":10819,"gled":10820,"them":10821,"beund":10822,"##asken":10823,"søkt":10824,"gym":10825,"##gle":10826,"vor":10827,"media":10828,"##organisasjon":10829,"##fellen":10830,"angår":10831,"##aksjonen":10832,"##elig":10833,"Siste":10834,"oppført":10835,"gas":10836,"°C":10837,"besv":10838,"diskutere":10839,"rekrutter":10840,"mit":10841,"Que":10842,"kå":10843,"utvide":10844,"##kontroll":10845,"deltakelse":10846,"finst":10847,"disip":10848,"skutt":10849,"##stemm":10850,"taushet":10851,"kilo":10852,"Kors":10853,"lenker":10854,"kulturelle":10855,"feste":10856,"##pat":10857,"##ØY":10858,"operat":10859,"Polit":10860,"##fritt":10861,"bygninger":10862,"##ØN":10863,"Mandag":10864,"overfl":10865,"løpende":10866,"nettet":10867,"innrøm":10868,"##nam":10869,"parad":10870,"ender":10871,"##prest":10872,"buss":10873,"Dal":10874,"Nam":10875,"Lis":10876,"kru":10877,"tydeligvis":10878,"forbry":10879,"##ffic":10880,"Bol":10881,"hat":10882,"##politikken":10883,"1942":10884,"negativ":10885,"tål":10886,"vegg":10887,"Super":10888,"##spel":10889,"##skrav":10890,"styrer":10891,"tolk":10892,"##retninger":10893,"naar":10894,"trygge":10895,"##kap":10896,"nyhet":10897,"foreslo":10898,"Går":10899,"Blir":10900,"artikkelen":10901,"##direktoratet":10902,"nære":10903,"tvi":10904,"##rae":10905,"sørget":10906,"lytte":10907,"##ritt":10908,"Svend":10909,"realit":10910,"Nø":10911,"Nyhetene":10912,"drakk":10913,"Bern":10914,"koord":10915,"krevende":10916,"troe":10917,"Nytt":10918,"arbeidsplasser":10919,"skjen":10920,"hester":10921,"Sportsnyhetene":10922,"##mmel":10923,"Ragnhild":10924,"blodet":10925,"##legen":10926,"gnr":10927,"opplevelser":10928,"1944":10929,"##etil":10930,"##klubb":10931,"im":10932,"##bit":10933,"oppfattet":10934,"onde":10935,"vesentlige":10936,"##bbe":10937,"##boken":10938,"Lunde":10939,"sing":10940,"samarbeide":10941,"##rur":10942,"mog":10943,"epis":10944,"dron":10945,"porn":10946,"eksperi":10947,"##holdes":10948,"blomst":10949,"noensinne":10950,"vurderinger":10951,"Dess":10952,"Marian":10953,"heste":10954,"motsatt":10955,"kniv":10956,"Id":10957,"fleks":10958,"##personer":10959,"##una":10960,"særleg":10961,"bunnen":10962,"begeist":10963,"trygde":10964,"utdannelse":10965,"Astrid":10966,"167":10967,"##represent":10968,"årsaker":10969,"peng":10970,"Sen":10971,"##selskaper":10972,"BR":10973,"aviser":10974,"##rick":10975,"Gustav":10976,"Hill":10977,"##KS":10978,"generasjon":10979,"hjernen":10980,"Bernt":10981,"Kraft":10982,"Tour":10983,"Two":10984,"våknet":10985,"##språk":10986,"bron":10987,"dynam":10988,"##stemt":10989,"strakte":10990,"stram":10991,"##industrien":10992,"Luft":10993,"Hordaland":10994,"##see":10995,"##mellom":10996,"dokumenter":10997,"##medlemmer":10998,"##avisen":10999,"faktor":11000,"hellig":11001,"##uste":11002,"Pr":11003,"ferdige":11004,"Spare":11005,"##klare":11006,"##stjenesten":11007,"##hallen":11008,"seksjon":11009,"betrakte":11010,"##idi":11011,"fremfor":11012,"forventet":11013,"##smessige":11014,"##send":11015,"##anere":11016,"modern":11017,"farten":11018,"kvinnelige":11019,"angst":11020,"yn":11021,"1937":11022,"##rethe":11023,"populære":11024,"vanskeligere":11025,"##vannet":11026,"riktignok":11027,"1941":11028,"moro":11029,"opptil":11030,"kaptein":11031,"##stykke":11032,"Japan":11033,"##kjøring":11034,"sver":11035,"rødt":11036,"anska":11037,"##plos":11038,"Kjer":11039,"tjue":11040,"##ubben":11041,"Haugen":11042,"sukket":11043,"Stu":11044,"Øyvind":11045,"overraskende":11046,"fokuse":11047,"##skjø":11048,"EL":11049,"Aur":11050,"##cation":11051,"164":11052,"livsstil":11053,"Arendal":11054,"ivareta":11055,"bønn":11056,"oppbe":11057,"tverr":11058,"Kristiania":11059,"Berge":11060,"sme":11061,"årlige":11062,"systematisk":11063,"##vide":11064,"Olaf":11065,"Tim":11066,"##gjøring":11067,"##assende":11068,"##viron":11069,"##sområde":11070,"handlet":11071,"##cker":11072,"Canada":11073,"##lovens":11074,"skild":11075,"inni":11076,"pleier":11077,"##leggingen":11078,"##nnis":11079,"Lyng":11080,"Museum":11081,"Asker":11082,"after":11083,"hypp":11084,"libe":11085,"foretas":11086,"skikke":11087,"profil":11088,"hær":11089,"anstren":11090,"beskrive":11091,"universitet":11092,"sank":11093,"Mør":11094,"Tirsdag":11095,"dun":11096,"passasje":11097,"funksjonshe":11098,"##uller":11099,"pust":11100,"Kommunen":11101,"http":11102,"inngått":11103,"tapte":11104,"##fakt":11105,"##ils":11106,"virkelige":11107,"105":11108,"underveis":11109,"viktigere":11110,"Tob":11111,"ideer":11112,"realityserie":11113,"koma":11114,"Ulle":11115,"##områdene":11116,"trang":11117,"##skader":11118,"inten":11119,"innrømme":11120,"##rafikken":11121,"ald":11122,"Ren":11123,"Sw":11124,"innover":11125,"Resultatet":11126,"meas":11127,"koste":11128,"budde":11129,"øvre":11130,"North":11131,"stoffer":11132,"utstilling":11133,"##følgende":11134,"presentert":11135,"165":11136,"FA":11137,"##ighetene":11138,"##feste":11139,"seil":11140,"Arild":11141,"Os":11142,"expe":11143,"utsikt":11144,"##cept":11145,"##kurs":11146,"Wer":11147,"##aken":11148,"hovedsakelig":11149,"enheter":11150,"Skulle":11151,"##miljøet":11152,"appar":11153,"fins":11154,"##personell":11155,"vokse":11156,"vedtaket":11157,"skjønt":11158,"døg":11159,"heldig":11160,"##JE":11161,"Egen":11162,"##derlig":11163,"Fest":11164,"forvaltnings":11165,"partier":11166,"##jener":11167,"NS":11168,"##skre":11169,"##chester":11170,"May":11171,"underlig":11172,"##iest":11173,"##nekker":11174,"bygningen":11175,"velsig":11176,"hustru":11177,"Kli":11178,"dir":11179,"##mmun":11180,"Ud":11181,"term":11182,"lønnsom":11183,"yngste":11184,"fjern":11185,"spy":11186,"pluss":11187,"beite":11188,"raske":11189,"Sarp":11190,"##lisering":11191,"##riller":11192,"anmel":11193,"fjernet":11194,"##odell":11195,"bekreftet":11196,"Frø":11197,"lea":11198,"tykke":11199,"##lått":11200,"##ielt":11201,"samla":11202,"barnets":11203,"##kadem":11204,"Skien":11205,"##NT":11206,"nedgang":11207,"##fting":11208,"Fos":11209,"adresse":11210,"##sdire":11211,"rust":11212,"gule":11213,"##æringen":11214,"##randen":11215,"hytta":11216,"past":11217,"fisket":11218,"##idens":11219,"påvirket":11220,"kollektiv":11221,"diam":11222,"Kjær":11223,"spred":11224,"Vide":11225,"talte":11226,"case":11227,"poteter":11228,"sjeld":11229,"påske":11230,"byene":11231,"humør":11232,"PC":11233,"Rol":11234,"Stol":11235,"signal":11236,"Bedri":11237,"Gabri":11238,"Blom":11239,"revet":11240,"##kr":11241,"##ani":11242,"##GEN":11243,"mak":11244,"salgs":11245,"##trykk":11246,"indirekte":11247,"rettferdig":11248,"minor":11249,"##bid":11250,"##ksjonene":11251,"administrative":11252,"kø":11253,"what":11254,"##eltet":11255,"kall":11256,"##arter":11257,"vakkert":11258,"fordø":11259,"##ubb":11260,"bruket":11261,"arbeidskraft":11262,"tyve":11263,"KJ":11264,"##onent":11265,"forferdelig":11266,"offer":11267,"##vunnet":11268,"Roger":11269,"dårligere":11270,"RE":11271,"py":11272,"overve":11273,"##kva":11274,"General":11275,"##seringen":11276,"##smar":11277,"##sjekter":11278,"##leik":11279,"utgitt":11280,"##pping":11281,"fjø":11282,"##dellen":11283,"andelen":11284,"##ological":11285,"betydde":11286,"stoffet":11287,"##deb":11288,"trodd":11289,"funksjoner":11290,"##rate":11291,"1918":11292,"læreren":11293,"##basert":11294,"nådd":11295,"##rap":11296,"##ism":11297,"##dahl":11298,"dommen":11299,"smale":11300,"reduseres":11301,"##sforhold":11302,"##serien":11303,"##leggelse":11304,"hendelser":11305,"vedlegg":11306,"oppstå":11307,"Kilde":11308,"forsvare":11309,"fremgår":11310,"igang":11311,"follow":11312,"forsikring":11313,"dam":11314,"halve":11315,"tabellen":11316,"vatn":11317,"Aker":11318,"American":11319,"Skar":11320,"dato":11321,"both":11322,"hendte":11323,"attra":11324,"##time":11325,"pant":11326,"kombinasjon":11327,"Jacobsen":11328,"stjerne":11329,"##xe":11330,"Wik":11331,"##ierte":11332,"radik":11333,"##gåver":11334,"Sentral":11335,"rektor":11336,"foretak":11337,"truet":11338,"##brig":11339,"Heller":11340,"Lære":11341,"begrep":11342,"oppgaver":11343,"##likop":11344,"besluttet":11345,"make":11346,"Arbeidet":11347,"##berget":11348,"##ssing":11349,"aspe":11350,"1935":11351,"Velkommen":11352,"skolene":11353,"stif":11354,"Eide":11355,"study":11356,"kysset":11357,"sem":11358,"Stats":11359,"102":11360,"punkter":11361,"tilsynelatende":11362,"Ald":11363,"##betaling":11364,"satse":11365,"##liten":11366,"Pla":11367,"føttene":11368,"##virksomheten":11369,"bibliotek":11370,"##result":11371,"##usten":11372,"skuespiller":11373,"forhandlinger":11374,"leger":11375,"##smiljø":11376,"Lev":11377,"##sser":11378,"befant":11379,"##rening":11380,"##ylde":11381,"OM":11382,"flink":11383,"brede":11384,"stanse":11385,"forsvinner":11386,"derved":11387,"##scar":11388,"##ops":11389,"##splass":11390,"rd":11391,"##cip":11392,"1914":11393,"##fond":11394,"##illing":11395,"usikkerhet":11396,"##kal":11397,"Stortingets":11398,"tår":11399,"kines":11400,"Deri":11401,"Cent":11402,"hvorav":11403,"overens":11404,"Journal":11405,"Nasjonal":11406,"ryn":11407,"lomme":11408,"Bud":11409,"gruppene":11410,"revisjon":11411,"funda":11412,"psykiske":11413,"##utviklingen":11414,"Funn":11415,"engasjert":11416,"##regn":11417,"narkot":11418,"løsningen":11419,"ordinære":11420,"ungene":11421,"beveget":11422,"Cat":11423,"Bygg":11424,"##bilde":11425,"lente":11426,"simp":11427,"fos":11428,"forholde":11429,"OPP":11430,"greier":11431,"##tales":11432,"kommentar":11433,"involvert":11434,"rettferd":11435,"##alth":11436,"pal":11437,"1943":11438,"utgjorde":11439,"##iff":11440,"##agement":11441,"virkelighet":11442,"enighet":11443,"individuelle":11444,"social":11445,"##stens":11446,"Dat":11447,"know":11448,"representert":11449,"meldt":11450,"såpass":11451,"Faren":11452,"##kningene":11453,"##aene":11454,"bygging":11455,"organer":11456,"Kristiansen":11457,"Forf":11458,"##reres":11459,"##ét":11460,"Mob":11461,"##slø":11462,"brem":11463,"##sområdet":11464,"lim":11465,"eksisterer":11466,"skjult":11467,"menneskelige":11468,"Fakt":11469,"Sur":11470,"##raksis":11471,"##retningen":11472,"dømme":11473,"##veggen":11474,"ere":11475,"eta":11476,"politikerne":11477,"##bildet":11478,"Gunder":11479,"Lat":11480,"personell":11481,"Helene":11482,"Fem":11483,"konkurransen":11484,"118":11485,"##revyen":11486,"##nast":11487,"havnet":11488,"##ious":11489,"meldte":11490,"Adam":11491,"es":11492,"utvikler":11493,"styrker":11494,"pleie":11495,"##ILL":11496,"lyttet":11497,"Lær":11498,"funn":11499,"nøkkel":11500,"hjørnet":11501,"sammenlik":11502,"1917":11503,"##vinne":11504,"varmen":11505,"##cs":11506,"uni":11507,"##liserte":11508,"utgave":11509,"Vann":11510,"aust":11511,"fase":11512,"Jfr":11513,"definert":11514,"##ialet":11515,"veget":11516,"Kristine":11517,"##smiddel":11518,"studentene":11519,"##pren":11520,"##iska":11521,"kors":11522,"uende":11523,"betal":11524,"sjølve":11525,"##ærene":11526,"føde":11527,"utbytte":11528,"vedtok":11529,"##alisert":11530,"kontrollere":11531,"prinsipp":11532,"rekker":11533,"##ibil":11534,"rest":11535,"##uri":11536,"##lymp":11537,"Viking":11538,"##skjema":11539,"##mak":11540,"tjenesten":11541,"##forsvar":11542,"redaktør":11543,"NAV":11544,"ledende":11545,"##nset":11546,"##ummen":11547,"##oget":11548,"Svalbard":11549,"Programleder":11550,"You":11551,"115":11552,"##stuen":11553,"col":11554,"##istent":11555,"driften":11556,"Asbjørn":11557,"##rapport":11558,"##tn":11559,"Sarpsborg":11560,"utgiftene":11561,"##yns":11562,"Ske":11563,"##skiner":11564,"##ån":11565,"arbeidsmar":11566,"TOR":11567,"##oter":11568,"uden":11569,"##uli":11570,"kontant":11571,"Efter":11572,"kontinuer":11573,"eksamen":11574,"Steinar":11575,"buk":11576,"Australia":11577,"samtaler":11578,"stk":11579,"1600":11580,"såret":11581,"ulem":11582,"##veksten":11583,"mjøl":11584,"Hauge":11585,"bidratt":11586,"##psjon":11587,"komité":11588,"activ":11589,"##ykker":11590,"Bot":11591,"gik":11592,"##båten":11593,"ond":11594,"fjorden":11595,"rasende":11596,"##usjonene":11597,"##uv":11598,"##musikk":11599,"##ume":11600,"dip":11601,"alderen":11602,"drømme":11603,"##komiteen":11604,"dukker":11605,"##givelser":11606,"##ventyr":11607,"sykehjem":11608,"deles":11609,"##kenes":11610,"politikken":11611,"1933":11612,"blanding":11613,"Kjel":11614,"unnskyld":11615,"trenings":11616,"finger":11617,"gripe":11618,"rime":11619,"##hjul":11620,"foregikk":11621,"sammenhenger":11622,"##andel":11623,"hydro":11624,"elementer":11625,"organisering":11626,"MA":11627,"tele":11628,"trafikken":11629,"##ygen":11630,"##reise":11631,"##nelser":11632,"tidspunktet":11633,"##mate":11634,"cel":11635,"sjekke":11636,"##yes":11637,"##fat":11638,"grønt":11639,"plant":11640,"flat":11641,"standpunkt":11642,"##rong":11643,"leppene":11644,"overt":11645,"##maskin":11646,"nåde":11647,"##stue":11648,"atten":11649,"historier":11650,"tiår":11651,"hopp":11652,"Sir":11653,"spesif":11654,"##rapi":11655,"through":11656,"raskere":11657,"framleis":11658,"##dering":11659,"##sdepartementet":11660,"aar":11661,"Fylkesmannen":11662,"glas":11663,"##ée":11664,"Kvi":11665,"dagar":11666,"protok":11667,"1910":11668,"##undervisning":11669,"kundene":11670,"trom":11671,"sykdommer":11672,"overskudd":11673,"forsikrings":11674,"dramaserie":11675,"##sling":11676,"arrangert":11677,"forberedt":11678,"undervisnings":11679,"kalk":11680,"##anes":11681,"106":11682,"##gler":11683,"pakke":11684,"Kapittel":11685,"##isky":11686,"samvitt":11687,"tøy":11688,"lit":11689,"##lederen":11690,"Nielsen":11691,"##kester":11692,"eksped":11693,"skjule":11694,"seri":11695,"lør":11696,"deilig":11697,"lurer":11698,"##anny":11699,"Roma":11700,"sinn":11701,"Øde":11702,"eksper":11703,"Tys":11704,"vern":11705,"Sun":11706,"bly":11707,"162":11708,"1905":11709,"##odd":11710,"tenkes":11711,"forsvarlig":11712,"Moe":11713,"##rerende":11714,"verb":11715,"datama":11716,"DAG":11717,"Ett":11718,"hjemmel":11719,"bær":11720,"koke":11721,"Kontakt":11722,"##velt":11723,"sog":11724,"##righet":11725,"fotogra":11726,"fornuftig":11727,"Lys":11728,"##99":11729,"damp":11730,"forbruker":11731,"betalte":11732,"##sendt":11733,"uttalt":11734,"lederen":11735,"tykk":11736,"krimin":11737,"##fødte":11738,"##ktivitet":11739,"Miss":11740,"##slått":11741,"##stilles":11742,"##fare":11743,"Godt":11744,"##jetil":11745,"bekrefter":11746,"##amper":11747,"trygghet":11748,"Pettersen":11749,"good":11750,"testa":11751,"Black":11752,"forbruk":11753,"Bibelen":11754,"##råden":11755,"##feil":11756,"Jean":11757,"liden":11758,"Røy":11759,"Hollywood":11760,"##ullt":11761,"dum":11762,"treffer":11763,"Mrs":11764,"från":11765,"Kristi":11766,"scene":11767,"myr":11768,"Stord":11769,"nasjonalt":11770,"##oto":11771,"##veksling":11772,"resept":11773,"Blo":11774,"##inalen":11775,"eide":11776,"##menne":11777,"104":11778,"Sandefjord":11779,"labor":11780,"King":11781,"flyet":11782,"truleg":11783,"Spesielt":11784,"flyktninger":11785,"Bob":11786,"medisinsk":11787,"##jan":11788,"arve":11789,"dokumentasjon":11790,"Blå":11791,"nytta":11792,"fien":11793,"##haver":11794,"køy":11795,"tyskerne":11796,"##agerer":11797,"utarbeide":11798,"Myr":11799,"##mør":11800,"forventninger":11801,"##klin":11802,"lufta":11803,"angrepet":11804,"##mming":11805,"nærmet":11806,"tørket":11807,"bryter":11808,"cal":11809,"##istens":11810,"ordnet":11811,"dekar":11812,"##bibliote":11813,"##avtalen":11814,"HV":11815,"stikke":11816,"listen":11817,"Karin":11818,"##ativer":11819,"ønskelig":11820,"omfatte":11821,"begjær":11822,"malt":11823,"opplysning":11824,"##bolig":11825,"islam":11826,"linjer":11827,"tilsier":11828,"##ettelse":11829,"tynn":11830,"deltakerne":11831,"##bjørg":11832,"##asis":11833,"Joe":11834,"gol":11835,"true":11836,"##fet":11837,"øverst":11838,"##verse":11839,"overføring":11840,"kjæreste":11841,"##BE":11842,"##gangsmå":11843,"##tekst":11844,"##aktig":11845,"##roll":11846,"etablerte":11847,"angri":11848,"Chris":11849,"##forvalt":11850,"heldt":11851,"klat":11852,"App":11853,"##ttar":11854,"anvendes":11855,"dags":11856,"platt":11857,"Økonom":11858,"menneskerett":11859,"dry":11860,"klærne":11861,"##anlegget":11862,"Die":11863,"gut":11864,"cell":11865,"ull":11866,"Helle":11867,"vender":11868,"Adresse":11869,"##utgifter":11870,"##vandre":11871,"virksomheter":11872,"##lysninger":11873,"##nete":11874,"##få":11875,"P4":11876,"Star":11877,"##øen":11878,"Syd":11879,"Luc":11880,"arkitekt":11881,"##barhet":11882,"Fast":11883,"##øve":11884,"Imp":11885,"##ialis":11886,"Sco":11887,"etn":11888,"very":11889,"##orium":11890,"oppos":11891,"Pal":11892,"##resjon":11893,"Ting":11894,"engste":11895,"##stua":11896,"arbeidsopp":11897,"drives":11898,"##ilsynet":11899,"##irs":11900,"Avis":11901,"##gd":11902,"##sbet":11903,"##spers":11904,"Bjarne":11905,"bibel":11906,"##rinsippet":11907,"oppfylt":11908,"flytter":11909,"kaster":11910,"##bun":11911,"planene":11912,"uheldig":11913,"##frem":11914,"evangeli":11915,"pepper":11916,"rykket":11917,"##brød":11918,"konstit":11919,"##liga":11920,"klokke":11921,"##GG":11922,"Sex":11923,"add":11924,"angi":11925,"##iger":11926,"sanger":11927,"Styret":11928,"##merat":11929,"mæ":11930,"jød":11931,"103":11932,"Ur":11933,"Hanna":11934,"##ussen":11935,"development":11936,"##iness":11937,"##mord":11938,"uskyld":11939,"##brans":11940,"trekkes":11941,"##60":11942,"uvanlig":11943,"mnd":11944,"##spolitikk":11945,"define":11946,"formiddag":11947,"politid":11948,"termin":11949,"##strø":11950,"Snart":11951,"Jud":11952,"forandring":11953,"##lender":11954,"utlø":11955,"##liggen":11956,"Ku":11957,"begiven":11958,"Imidlertid":11959,"Eksterne":11960,"resol":11961,"##blom":11962,"##flo":11963,"##OP":11964,"process":11965,"Bakke":11966,"Rapport":11967,"kjend":11968,"Gratulerer":11969,"lokalsam":11970,"aff":11971,"##lut":11972,"vanskeleg":11973,"fysi":11974,"107":11975,"interessante":11976,"vanskeligheter":11977,"##denen":11978,"##akne":11979,"108":11980,"krem":11981,"lokaler":11982,"forutsatt":11983,"base":11984,"##radi":11985,"forhandling":11986,"stav":11987,"bely":11988,"vri":11989,"##posisjonen":11990,"entrepren":11991,"overbevist":11992,"##mesteren":11993,"varslet":11994,"##uther":11995,"Halvorsen":11996,"Sigrid":11997,"inngang":11998,"regul":11999,"systemer":12000,"1919":12001,"##mosf":12002,"##sliv":12003,"Grand":12004,"##skrevet":12005,"skygge":12006,"ran":12007,"1927":12008,"dømes":12009,"Medlem":12010,"sådan":12011,"strålende":12012,"##itions":12013,"gjestene":12014,"svømme":12015,"utmerket":12016,"FRA":12017,"Jos":12018,"##inntekter":12019,"Røde":12020,"##mse":12021,"Tør":12022,"tilt":12023,"Voss":12024,"##INN":12025,"beredskap":12026,"##vester":12027,"landskap":12028,"Organis":12029,"registrering":12030,"Friends":12031,"Rud":12032,"ærlig":12033,"Profe":12034,"##gon":12035,"##geland":12036,"Vidar":12037,"Nedre":12038,"Frode":12039,"##rekke":12040,"detaljer":12041,"poss":12042,"enorme":12043,"##klasse":12044,"##useet":12045,"1890":12046,"##nnelse":12047,"Høyesterett":12048,"ET":12049,"rig":12050,"Rese":12051,"sec":12052,"endelige":12053,"##alem":12054,"##UND":12055,"Hennes":12056,"Bergens":12057,"Fjordane":12058,"scanpix":12059,"NOU":12060,"Bonde":12061,"reddet":12062,"##kede":12063,"##row":12064,"prinsipper":12065,"350":12066,"motsatte":12067,"permane":12068,"finansiering":12069,"endel":12070,"dalen":12071,"rakk":12072,"ledig":12073,"Ida":12074,"bevare":12075,"museum":12076,"made":12077,"##ansert":12078,"rollen":12079,"##senten":12080,"utslag":12081,"vesen":12082,"Gjøvik":12083,"##lager":12084,"hete":12085,"Selskapet":12086,"enstemm":12087,"forsin":12088,"personal":12089,"gres":12090,"tildelt":12091,"##pset":12092,"##ami":12093,"##ere":12094,"verket":12095,"kunnskaper":12096,"##skilde":12097,"statistikk":12098,"##utvalg":12099,"Kart":12100,"Engel":12101,"old":12102,"##ministeren":12103,"##tur":12104,"stole":12105,"Charles":12106,"Vo":12107,"døds":12108,"bortover":12109,"dec":12110,"Siri":12111,"##post":12112,"innslag":12113,"##jorde":12114,"ødelegge":12115,"##vt":12116,"jap":12117,"deltakere":12118,"isen":12119,"legit":12120,"##otek":12121,"ok":12122,"number":12123,"##veier":12124,"Trygve":12125,"##medal":12126,"##ntlig":12127,"modeller":12128,"imellom":12129,"Husk":12130,"agen":12131,"Olje":12132,"medis":12133,"Angeles":12134,"##iserie":12135,"##iety":12136,"nivået":12137,"kunng":12138,"ort":12139,"pred":12140,"vassdrag":12141,"strenge":12142,"flå":12143,"Solveig":12144,"##alde":12145,"fylkeskommune":12146,"Hitler":12147,"##én":12148,"drømmer":12149,"trengs":12150,"opph":12151,"femti":12152,"che":12153,"##isken":12154,"Mod":12155,"kledd":12156,"ts":12157,"trene":12158,"kvaliteten":12159,"##IE":12160,"kjende":12161,"##iset":12162,"BL":12163,"Funniest":12164,"1925":12165,"menings":12166,"trenge":12167,"tekster":12168,"Asia":12169,"utred":12170,"psykiat":12171,"bevege":12172,"Hens":12173,"produsert":12174,"##sministeren":12175,"Ludvig":12176,"Telefon":12177,"økonomien":12178,"vestlige":12179,"##nnar":12180,"late":12181,"lyste":12182,"1929":12183,"Institutt":12184,"##festet":12185,"kraftige":12186,"Gjen":12187,"##latt":12188,"##idde":12189,"frokost":12190,"styrings":12191,"salen":12192,"slaget":12193,"Familien":12194,"infe":12195,"##yp":12196,"overgrep":12197,"##otiske":12198,"signa":12199,"bestefar":12200,"child":12201,"hendt":12202,"Kre":12203,"tørre":12204,"lærerne":12205,"forne":12206,"nordover":12207,"reform":12208,"snøe":12209,"rakte":12210,"NATO":12211,"##The":12212,"##odde":12213,"Sag":12214,"arrangement":12215,"Start":12216,"lunsj":12217,"pist":12218,"Dig":12219,"Has":12220,"Park":12221,"Senterpartiet":12222,"omtale":12223,"skif":12224,"##istikken":12225,"1934":12226,"blandet":12227,"spissen":12228,"løfter":12229,"hoppe":12230,"##blo":12231,"troen":12232,"snøen":12233,"mottar":12234,"##rykt":12235,"##ttere":12236,"sjefen":12237,"##vatn":12238,"Ama":12239,"underteg":12240,"##ringa":12241,"Wash":12242,"utgangen":12243,"Ret":12244,"Justis":12245,"nevner":12246,"faget":12247,"synge":12248,"Totalt":12249,"inneholde":12250,"##itetene":12251,"foreslås":12252,"##ding":12253,"Helen":12254,"Bull":12255,"##overn":12256,"Privat":12257,"Nina":12258,"##ledninger":12259,"knytte":12260,"distriktet":12261,"##gate":12262,"Saken":12263,"1928":12264,"utfører":12265,"endres":12266,"rådet":12267,"garan":12268,"1932":12269,"##yre":12270,"bodd":12271,"##innas":12272,"##plikt":12273,"sivile":12274,"jubile":12275,"our":12276,"dyb":12277,"temaet":12278,"reagerer":12279,"could":12280,"Karlsen":12281,"##uert":12282,"klie":12283,"stolte":12284,"rehabil":12285,"Pen":12286,"blog":12287,"##OB":12288,"##industri":12289,"SE":12290,"forma":12291,"sått":12292,"elektriske":12293,"mv":12294,"KON":12295,"##spor":12296,"Kjetil":12297,"##spunktet":12298,"##asa":12299,"Marianne":12300,"##veres":12301,"beslutninger":12302,"State":12303,"##politiske":12304,"karriere":12305,"jevnt":12306,"##seren":12307,"##ione":12308,"bevissthet":12309,"Dre":12310,"Refe":12311,"##sigelse":12312,"triv":12313,"##vokaten":12314,"natta":12315,"##befa":12316,"nedbør":12317,"Sofie":12318,"##wer":12319,"##stendige":12320,"greide":12321,"univer":12322,"Handel":12323,"##ffelse":12324,"melke":12325,"##DR":12326,"##srevyen":12327,"##regning":12328,"informasjonen":12329,"plassering":12330,"must":12331,"born":12332,"anim":12333,"apen":12334,"##lære":12335,"Øver":12336,"Bab":12337,"##klubben":12338,"tju":12339,"##fjellet":12340,"opplær":12341,"betong":12342,"glatt":12343,"Marius":12344,"namn":12345,"åtferd":12346,"opplyst":12347,"##iken":12348,"lærar":12349,"sittet":12350,"yd":12351,"tittelen":12352,"nyte":12353,"nit":12354,"information":12355,"spra":12356,"pårørende":12357,"Dar":12358,"etablering":12359,"Prosjekt":12360,"##rente":12361,"jer":12362,"contr":12363,"spent":12364,"skå":12365,"Indre":12366,"Genere":12367,"##ganger":12368,"1924":12369,"Idrett":12370,"##okument":12371,"flaske":12372,"sjuk":12373,"bønder":12374,"##mæ":12375,"inf":12376,"##aktige":12377,"skulen":12378,"etable":12379,"during":12380,"##lek":12381,"turn":12382,"tax":12383,"##alysis":12384,"difor":12385,"sliter":12386,"##marka":12387,"roman":12388,"harmon":12389,"menneskelig":12390,"##nett":12391,"investering":12392,"##skets":12393,"eleven":12394,"ryt":12395,"##danningen":12396,"kjærligheten":12397,"##bøl":12398,"faktiske":12399,"svik":12400,"Hje":12401,"##UNN":12402,"##lyd":12403,"selges":12404,"years":12405,"forfatteren":12406,"Hedmark":12407,"##strakt":12408,"svø":12409,"##shistor":12410,"anse":12411,"avgjort":12412,"117":12413,"113":12414,"##ards":12415,"Landbruks":12416,"sinns":12417,"forbudt":12418,"klager":12419,"oppfat":12420,"risikoen":12421,"sunn":12422,"industrien":12423,"Salt":12424,"Kveld":12425,"Skjer":12426,"gjenta":12427,"skolens":12428,"mogleg":12429,"Manchester":12430,"fasc":12431,"##riene":12432,"##otisk":12433,"kommentarer":12434,"##cht":12435,"oli":12436,"billed":12437,"kommersi":12438,"1923":12439,"kombinert":12440,"##osen":12441,"innføre":12442,"Leon":12443,"Sivert":12444,"deira":12445,"Albert":12446,"1921":12447,"Flor":12448,"partner":12449,"##foret":12450,"##lev":12451,"konstant":12452,"banket":12453,"##sgrunn":12454,"Næ":12455,"##ikon":12456,"veggene":12457,"##bror":12458,"teik":12459,"Gol":12460,"##svik":12461,"##demok":12462,"Ville":12463,"infra":12464,"Oscar":12465,"punktet":12466,"##sell":12467,"##skjel":12468,"##geir":12469,"netto":12470,"##stoffer":12471,"pasientene":12472,"##befaler":12473,"##ily":12474,"##UG":12475,"revolusjon":12476,"prinsipi":12477,"forlatt":12478,"aften":12479,"gjennomgang":12480,"Jor":12481,"Jerus":12482,"##risen":12483,"gress":12484,"pum":12485,"Forsvaret":12486,"prosesser":12487,"skit":12488,"stuen":12489,"innkjøp":12490,"##unene":12491,"##agraf":12492,"ros":12493,"##teringer":12494,"##uminium":12495,"##arly":12496,"Eivind":12497,"##linga":12498,"##styrer":12499,"omgivelse":12500,"varte":12501,"relasjon":12502,"##ograph":12503,"regelen":12504,"##ART":12505,"##okol":12506,"##umen":12507,"overføres":12508,"forøvrig":12509,"team":12510,"##skillig":12511,"##afor":12512,"avslør":12513,"nedre":12514,"##less":12515,"##ption":12516,"##alls":12517,"restaurant":12518,"døgnet":12519,"eleg":12520,"syne":12521,"virkemidler":12522,"gruppa":12523,"##forslag":12524,"##møre":12525,"laks":12526,"##ligen":12527,"##røt":12528,"effekten":12529,"Wilhelm":12530,"##agne":12531,"Luk":12532,"cur":12533,"metoden":12534,"##ksh":12535,"##nummer":12536,"##produkter":12537,"Stato":12538,"##øyene":12539,"framtida":12540,"evner":12541,"Valg":12542,"Larvik":12543,"##holmen":12544,"parla":12545,"##rømte":12546,"pø":12547,"ordne":12548,"påk":12549,"trer":12550,"##lette":12551,"Film":12552,"rive":12553,"innhe":12554,"fremste":12555,"medhold":12556,"##raham":12557,"##setnings":12558,"##sida":12559,"Kristiansund":12560,"109":12561,"##leggene":12562,"##DAL":12563,"Harstad":12564,"##FOR":12565,"konfir":12566,"Tw":12567,"water":12568,"ulovlig":12569,"dyktig":12570,"1912":12571,"gyl":12572,"##peren":12573,"Bort":12574,"##gro":12575,"163":12576,"forskere":12577,"relevante":12578,"domsto":12579,"##zy":12580,"vitner":12581,"tilbe":12582,"each":12583,"##kerud":12584,"##skostnader":12585,"##ids":12586,"101":12587,"innføring":12588,"##rust":12589,"##stell":12590,"regional":12591,"Emma":12592,"##settingen":12593,"strekker":12594,"dep":12595,"utforming":12596,"nakken":12597,"meth":12598,"##fondet":12599,"ettermiddagen":12600,"##krigen":12601,"drepte":12602,"##opplæring":12603,"Mamma":12604,"Syl":12605,"tilsvarer":12606,"##alinger":12607,"sym":12608,"##produksjonen":12609,"understreke":12610,"progra":12611,"tvin":12612,"##oda":12613,"træ":12614,"Blad":12615,"##hengighet":12616,"behandler":12617,"Derimot":12618,"Vårt":12619,"##very":12620,"bøndene":12621,"satser":12622,"likestilling":12623,"korrekt":12624,"##OV":12625,"undervisningen":12626,"bero":12627,"##gruppa":12628,"##innasnekker":12629,"##come":12630,"pian":12631,"##rel":12632,"##illett":12633,"svel":12634,"stemte":12635,"##Gene":12636,"Mis":12637,"##alie":12638,"Julie":12639,"fornær":12640,"##stinget":12641,"Barna":12642,"Sist":12643,"fremhe":12644,"utelukkende":12645,"Lib":12646,"##fli":12647,"Rev":12648,"skarp":12649,"##oma":12650,"bekje":12651,"1915":12652,"##IDE":12653,"##bilen":12654,"Cecil":12655,"nesen":12656,"kvartal":12657,"research":12658,"sinne":12659,"romantisk":12660,"avdelingen":12661,"##omi":12662,"gjev":12663,"sannhet":12664,"desig":12665,"fiskeri":12666,"##interes":12667,"maskiner":12668,"Utdan":12669,"Rose":12670,"##cing":12671,"Mjø":12672,"medarbeidere":12673,"flate":12674,"note":12675,"1911":12676,"Akt":12677,"intervjuet":12678,"fon":12679,"oppdra":12680,"Herman":12681,"Middel":12682,"høyst":12683,"Kongsberg":12684,"Kjære":12685,"##utan":12686,"Elver":12687,"kjøpes":12688,"argumen":12689,"avvi":12690,"Administ":12691,"Nederland":12692,"utlå":12693,"Halden":12694,"long":12695,"tilpasse":12696,"bredde":12697,"reaksjoner":12698,"##ulerte":12699,"frøken":12700,"Klem":12701,"batter":12702,"Vestlandet":12703,"tenner":12704,"##saken":12705,"Forslag":12706,"havn":12707,"inntekts":12708,"Ins":12709,"mistanke":12710,"sauer":12711,"konse":12712,"meninger":12713,"##ubli":12714,"##arte":12715,"bekrefte":12716,"Air":12717,"##asj":12718,"Reidar":12719,"Reise":12720,"##etet":12721,"frede":12722,"##OLD":12723,"fortid":12724,"hjerne":12725,"vokst":12726,"stopper":12727,"##SM":12728,"snitt":12729,"kule":12730,"territ":12731,"utredning":12732,"##sidig":12733,"spi":12734,"veder":12735,"##målet":12736,"stiger":12737,"Birke":12738,"Tone":12739,"revi":12740,"##hes":12741,"System":12742,"##vnen":12743,"advar":12744,"Rein":12745,"oppvar":12746,"##ional":12747,"skred":12748,"##prin":12749,"Lofoten":12750,"##vandrere":12751,"auka":12752,"garanti":12753,"inse":12754,"Lav":12755,"Sid":12756,"teke":12757,"trives":12758,"morsomt":12759,"kvarandre":12760,"##visningen":12761,"betraktning":12762,"##Generes":12763,"##AC":12764,"Wi":12765,"##vendte":12766,"flertallet":12767,"ÅR":12768,"Paulus":12769,"vek":12770,"1926":12771,"anbefaler":12772,"##oppgjør":12773,"##ikter":12774,"cons":12775,"yte":12776,"hørtes":12777,"register":12778,"##meldinger":12779,"DE":12780,"kasse":12781,"artikler":12782,"Hug":12783,"nyere":12784,"##vask":12785,"passende":12786,"lure":12787,"##rde":12788,"svingte":12789,"1922":12790,"rekord":12791,"referanse":12792,"Drift":12793,"##merker":12794,"bake":12795,"Statistisk":12796,"Hjer":12797,"arbeidstid":12798,"glasset":12799,"Moren":12800,"melod":12801,"distrib":12802,"back":12803,"rob":12804,"##lærer":12805,"##føren":12806,"elektro":12807,"snarere":12808,"måneden":12809,"utvil":12810,"##ardi":12811,"Send":12812,"kval":12813,"##jakt":12814,"arbeidstakere":12815,"bryllup":12816,"##YR":12817,"spredt":12818,"##bred":12819,"relasjoner":12820,"opptrer":12821,"##park":12822,"offisielle":12823,"antatt":12824,"boks":12825,"fae":12826,"##sjøen":12827,"##ssø":12828,"Rome":12829,"##prosjekt":12830,"##brigt":12831,"kritiske":12832,"forvand":12833,"Stee":12834,"Lærer":12835,"##lister":12836,"Kontr":12837,"Mann":12838,"latin":12839,"helga":12840,"##varing":12841,"##folket":12842,"Washington":12843,"besøkte":12844,"gjennomsnittlig":12845,"##ITT":12846,"sola":12847,"1931":12848,"Gjel":12849,"Brå":12850,"bestemor":12851,"PL":12852,"1880":12853,"##skomiteen":12854,"heil":12855,"##rdal":12856,"Nyhet":12857,"##førings":12858,"Bos":12859,"akutt":12860,"##skilte":12861,"anti":12862,"eksplos":12863,"diale":12864,"Vid":12865,"##rygden":12866,"posten":12867,"DeGeneres":12868,"##bens":12869,"sus":12870,"##sforen":12871,"verda":12872,"##vilje":12873,"partiene":12874,"##odene":12875,"Len":12876,"fryktelig":12877,"forandre":12878,"##vedtak":12879,"America":12880,"##ksa":12881,"heldigvis":12882,"##talene":12883,"##munt":12884,"##iskap":12885,"##vares":12886,"variere":12887,"kontrol":12888,"Åp":12889,"##any":12890,"point":12891,"trærne":12892,"selge":12893,"1865":12894,"produsere":12895,"##nemnda":12896,"gjest":12897,"håpe":12898,"Des":12899,"komiserie":12900,"Kost":12901,"##søkelser":12902,"Narvik":12903,"budsjettet":12904,"disposisjon":12905,"namnet":12906,"##stu":12907,"wor":12908,"hul":12909,"Skje":12910,"Mik":12911,"##ivene":12912,"##varig":12913,"Gal":12914,"Polen":12915,"tøffe":12916,"fm":12917,"Hanne":12918,"rov":12919,"antakelig":12920,"##vindu":12921,"##user":12922,"don":12923,"cond":12924,"binde":12925,"kostet":12926,"116":12927,"effektive":12928,"Abraham":12929,"landskapet":12930,"las":12931,"##strekk":12932,"##avdeling":12933,"Sak":12934,"atmosf":12935,"##rm":12936,"kren":12937,"Fug":12938,"bestandig":12939,"found":12940,"Jenny":12941,"skjema":12942,"Will":12943,"##forholdene":12944,"fact":12945,"føles":12946,"##attere":12947,"bærekraft":12948,"##slov":12949,"##spillere":12950,"røre":12951,"invitert":12952,"vegvesen":12953,"Bygge":12954,"##uge":12955,"did":12956,"ferdigheter":12957,"##ygger":12958,"sekretær":12959,"114":12960,"##ksusfellen":12961,"Fød":12962,"urolig":12963,"sans":12964,"##spartiet":12965,"##indre":12966,"litter":12967,"fæ":12968,"##jande":12969,"sosiali":12970,"petrole":12971,"cap":12972,"lyde":12973,"##ruset":12974,"Gode":12975,"##svalg":12976,"opplysningene":12977,"båter":12978,"Juni":12979,"Vinter":12980,"beveger":12981,"forberede":12982,"##kirke":12983,"Hare":12984,"Frede":12985,"##anken":12986,"versjon":12987,"fastsettes":12988,"omfattet":12989,"KV":12990,"##cture":12991,"Egypt":12992,"Best":12993,"sovjet":12994,"##ahl":12995,"kjøle":12996,"##skatt":12997,"important":12998,"##ising":12999,"stammer":13000,"tilhørende":13001,"##frie":13002,"based":13003,"##ksene":13004,"savnet":13005,"oppnådd":13006,"ast":13007,"skuffet":13008,"Cont":13009,"leverer":13010,"Internett":13011,"forbund":13012,"##sbeg":13013,"Transport":13014,"##bej":13015,"lev":13016,"Loven":13017,"stue":13018,"konflikter":13019,"##Te":13020,"skalv":13021,"Aks":13022,"people":13023,"studerte":13024,"##fallende":13025,"hevde":13026,"##okolade":13027,"##lass":13028,"dæ":13029,"baks":13030,"##ikar":13031,"Job":13032,"stater":13033,"våt":13034,"forlag":13035,"135":13036,"1916":13037,"Inne":13038,"ydmy":13039,"##smater":13040,"##iring":13041,"angitt":13042,"gjentok":13043,"isk":13044,"##ér":13045,"italie":13046,"esti":13047,"dypere":13048,"medal":13049,"##jus":13050,"sofaen":13051,"##boli":13052,"bussen":13053,"cirka":13054,"Stig":13055,"OSL":13056,"##rapeut":13057,"##KKE":13058,"Ala":13059,"1875":13060,"hvorledes":13061,"tempo":13062,"##JER":13063,"##70":13064,"##irene":13065,"tiltre":13066,"badet":13067,"ledige":13068,"kvitt":13069,"##malt":13070,"##skor":13071,"inspe":13072,"utstyrt":13073,"Ac":13074,"Kvinner":13075,"sei":13076,"bul":13077,"##listen":13078,"##analyse":13079,"nov":13080,"Kin":13081,"uttalelser":13082,"oppgåvene":13083,"##kommet":13084,"##gelsene":13085,"Ek":13086,"Bras":13087,"##finn":13088,"##kelsen":13089,"spist":13090,"Mur":13091,"##SER":13092,"fakta":13093,"##ared":13094,"manglet":13095,"##chel":13096,"diplom":13097,"oppvekst":13098,"##husene":13099,"##hs":13100,"##tids":13101,"statlig":13102,"123":13103,"song":13104,"Time":13105,"piken":13106,"##rater":13107,"Kore":13108,"##rettes":13109,"Tyrk":13110,"Cast":13111,"Selvfølgelig":13112,"filmer":13113,"naken":13114,"##lyset":13115,"##kasse":13116,"dug":13117,"##nnes":13118,"Jerusalem":13119,"opptak":13120,"Forlag":13121,"livets":13122,"styres":13123,"plukket":13124,"##pel":13125,"glimt":13126,"##våpen":13127,"dramatisk":13128,"spillerne":13129,"##ressur":13130,"##sprodu":13131,"1913":13132,"analyser":13133,"##delene":13134,"forval":13135,"##cter":13136,"If":13137,"Hvad":13138,"estet":13139,"Full":13140,"kontinuerlig":13141,"##sikre":13142,"meningen":13143,"uttaler":13144,"arbeidstaker":13145,"ideen":13146,"##givningen":13147,"frek":13148,"##right":13149,"##ådet":13150,"##tidens":13151,"vitenskap":13152,"André":13153,"semin":13154,"##meldt":13155,"infor":13156,"##familien":13157,"##eterin":13158,"AF":13159,"HA":13160,"Eidsv":13161,"generalforsam":13162,"kår":13163,"install":13164,"krevde":13165,"grave":13166,"opplegg":13167,"arbeidere":13168,"Moen":13169,"skjebne":13170,"##tidige":13171,"Fun":13172,"begrunnelse":13173,"streng":13174,"armer":13175,"stiftet":13176,"potet":13177,"public":13178,"internett":13179,"gy":13180,"##atorer":13181,"Randi":13182,"påta":13183,"##24":13184,"send":13185,"##problemer":13186,"bene":13187,"Coun":13188,"##ettes":13189,"##ktere":13190,"eiende":13191,"DU":13192,"Fylkes":13193,"##anns":13194,"klassisk":13195,"##usive":13196,"Får":13197,"Simp":13198,"Else":13199,"large":13200,"forsvunnet":13201,"naz":13202,"hennar":13203,"AT":13204,"flinke":13205,"bestå":13206,"maatte":13207,"mas":13208,"##OC":13209,"hemmelighet":13210,"fenome":13211,"relative":13212,"##hre":13213,"måler":13214,"enstemmig":13215,"spren":13216,"##unket":13217,"søsken":13218,"språ":13219,"Bildet":13220,"populær":13221,"##ird":13222,"normale":13223,"Dale":13224,"Josef":13225,"anser":13226,"søknaden":13227,"National":13228,"skjøv":13229,"Jø":13230,"##tekt":13231,"fylkeskommunen":13232,"##rator":13233,"tårer":13234,"##vogn":13235,"skjulte":13236,"##skriftene":13237,"verke":13238,"##ication":13239,"veksten":13240,"##mers":13241,"Mang":13242,"##ek":13243,"søppel":13244,"##feranse":13245,"Kommunal":13246,"nabo":13247,"Folket":13248,"døydde":13249,"studiet":13250,"CH":13251,"faen":13252,"##ningsserie":13253,"##angel":13254,"##skur":13255,"erstattet":13256,"##fon":13257,"datab":13258,"grepet":13259,"nedsatt":13260,"SN":13261,"følges":13262,"##paret":13263,"omgivelsene":13264,"bryr":13265,"##itering":13266,"rettss":13267,"##meldingen":13268,"##areal":13269,"abs":13270,"way":13271,"flytta":13272,"##ku":13273,"##ygt":13274,"motiver":13275,"##parken":13276,"foregående":13277,"conta":13278,"LE":13279,"##roe":13280,"oppdage":13281,"##do":13282,"dominerende":13283,"siktet":13284,"innspill":13285,"primær":13286,"Tit":13287,"ISB":13288,"Pass":13289,"Svenske":13290,"kulturmin":13291,"##kastet":13292,"nærmer":13293,"blin":13294,"##forlaget":13295,"Innst":13296,"beregning":13297,"avsk":13298,"Livet":13299,"utvilsomt":13300,"fjord":13301,"##stider":13302,"##itivt":13303,"##navn":13304,"##skop":13305,"Rana":13306,"##bere":13307,"tiltakene":13308,"##NES":13309,"Motor":13310,"fenomen":13311,"doktor":13312,"##ifik":13313,"hverdagen":13314,"avgjørelsen":13315,"fastsette":13316,"##staten":13317,"forbere":13318,"##conomic":13319,"Ax":13320,"##skren":13321,"Oppland":13322,"hem":13323,"variasjon":13324,"Atl":13325,"##ropp":13326,"fje":13327,"Bent":13328,"hinder":13329,"ii":13330,"jag":13331,"overflaten":13332,"knytter":13333,"forsøks":13334,"kontrollen":13335,"##ndalen":13336,"samferdsel":13337,"tilhørte":13338,"Kunne":13339,"senket":13340,"interne":13341,"russisk":13342,"##handlinger":13343,"##olin":13344,"Hydro":13345,"bronse":13346,"##fab":13347,"within":13348,"##pr":13349,"##iko":13350,"stige":13351,"Rapp":13352,"pedagogisk":13353,"statsbudsjettet":13354,"##rande":13355,"byttet":13356,"blind":13357,"insp":13358,"##gree":13359,"##rollen":13360,"krone":13361,"Syria":13362,"vurderingen":13363,"Cup":13364,"##lok":13365,"Bestemmelsen":13366,"##prosjektet":13367,"konsekvensene":13368,"##stykket":13369,"##vilg":13370,"vellykket":13371,"por":13372,"meldingen":13373,"Fager":13374,"##80":13375,"jorde":13376,"##ERE":13377,"godkjenning":13378,"oksygen":13379,"##stilbud":13380,"##klet":13381,"aktiviteten":13382,"##atal":13383,"Linda":13384,"flukt":13385,"Elevene":13386,"tilnærming":13387,"hovedt":13388,"lettet":13389,"Gil":13390,"##pool":13391,"politiker":13392,"Styr":13393,"Alfred":13394,"smal":13395,"brune":13396,"ml":13397,"##22":13398,"##åd":13399,"bol":13400,"Nordre":13401,"wa":13402,"##baserte":13403,"maler":13404,"negativt":13405,"skaffet":13406,"##ony":13407,"skarpe":13408,"how":13409,"Pra":13410,"beca":13411,"Universitets":13412,"##raren":13413,"synger":13414,"Research":13415,"overhodet":13416,"##KE":13417,"Halv":13418,"ungdommer":13419,"Eksempel":13420,"sære":13421,"##råder":13422,"Lab":13423,"##000":13424,"Nesten":13425,"##mengden":13426,"størrelsen":13427,"Luksusfellen":13428,"later":13429,"##valet":13430,"AM":13431,"produktet":13432,"ff":13433,"tvunget":13434,"Oli":13435,"##kå":13436,"Ill":13437,"##ffene":13438,"Huset":13439,"bif":13440,"##ands":13441,"oppdrett":13442,"berømte":13443,"requ":13444,"00M":13445,"##ix":13446,"sykdommen":13447,"tariff":13448,"ukene":13449,"##nning":13450,"programmer":13451,"ISBN":13452,"SM":13453,"##utta":13454,"dobbel":13455,"Herrens":13456,"flom":13457,"Stemmen":13458,"bensin":13459,"evnen":13460,"Død":13461,"husene":13462,"Torbjørn":13463,"fantastiske":13464,"avisa":13465,"##ducation":13466,"##neprest":13467,"Kur":13468,"landslag":13469,"##PI":13470,"toal":13471,"temperaturen":13472,"kopp":13473,"##alens":13474,"figuren":13475,"##administ":13476,"##ledge":13477,"##gne":13478,"Førde":13479,"Sørensen":13480,"departementets":13481,"##bevegelsen":13482,"##ading":13483,"1907":13484,"avskje":13485,"gjenstander":13486,"##dals":13487,"voldsomt":13488,"##kli":13489,"måltid":13490,"Tomm":13491,"CD":13492,"eieren":13493,"gonger":13494,"##prøve":13495,"elektronisk":13496,"##kj":13497,"##dome":13498,"HEL":13499,"besto":13500,"timen":13501,"##Se":13502,"gods":13503,"Aldri":13504,"avkast":13505,"nyttår":13506,"##bla":13507,"hygge":13508,"1870":13509,"gråte":13510,"Ringe":13511,"sørger":13512,"##ches":13513,"Gir":13514,"##SV":13515,"stemning":13516,"celle":13517,"krysset":13518,"mindret":13519,"dratt":13520,"Street":13521,"##BL":13522,"##denes":13523,"date":13524,"ulykken":13525,"##asjonens":13526,"tvert":13527,"##klassen":13528,"inngrep":13529,"##sløse":13530,"interesserte":13531,"##nivået":13532,"Ingenting":13533,"erob":13534,"##ftes":13535,"tennene":13536,"forandringer":13537,"Net":13538,"Bjørg":13539,"prisene":13540,"1860":13541,"##reglene":13542,"materiell":13543,"Åse":13544,"Data":13545,"Gang":13546,"Bert":13547,"impul":13548,"##OST":13549,"vennene":13550,"##aledes":13551,"formelle":13552,"helikop":13553,"vorte":13554,"ane":13555,"sikkerhets":13556,"being":13557,"øvelse":13558,"Love":13559,"Scott":13560,"kake":13561,"heiter":13562,"despe":13563,"arab":13564,"##aliteten":13565,"##forskningen":13566,"##ville":13567,"millionar":13568,"##urch":13569,"##riket":13570,"presentere":13571,"Mette":13572,"menighet":13573,"Nort":13574,"##vey":13575,"bevegelser":13576,"##måte":13577,"##aden":13578,"speil":13579,"##gjøres":13580,"behol":13581,"##tti":13582,"##helse":13583,"kino":13584,"give":13585,"Gru":13586,"rasjon":13587,"metod":13588,"turer":13589,"konsentrasjon":13590,"digitale":13591,"undersøkt":13592,"##lian":13593,"flagg":13594,"##genes":13595,"sikrer":13596,"Staten":13597,"premie":13598,"##rensa":13599,"##OH":13600,"oppfattes":13601,"##atorisk":13602,"forpliktelser":13603,"pp":13604,"##kenen":13605,"Ikkje":13606,"Mind":13607,"##holdning":13608,"skarpt":13609,"repar":13610,"1906":13611,"betales":13612,"##ury":13613,"temperat":13614,"etterhvert":13615,"sele":13616,"##berst":13617,"##elser":13618,"Maren":13619,"minnes":13620,"Elverum":13621,"##krav":13622,"jordbruket":13623,"administrasjonen":13624,"utkast":13625,"##ught":13626,"ørene":13627,"122":13628,"Våre":13629,"orientering":13630,"153":13631,"forstod":13632,"gale":13633,"##aard":13634,"bransje":13635,"folks":13636,"klassiske":13637,"##JØR":13638,"##remø":13639,"##ventet":13640,"##kassen":13641,"Pensjon":13642,"rapporter":13643,"Ibsen":13644,"rutiner":13645,"Chic":13646,"høf":13647,"life":13648,"øret":13649,"normer":13650,"stykket":13651,"need":13652,"personlighet":13653,"Tilbake":13654,"forund":13655,"pig":13656,"makten":13657,"##atta":13658,"Ingebrigt":13659,"Grav":13660,"##hørt":13661,"##trans":13662,"Cri":13663,"##urk":13664,"##bransjen":13665,"primært":13666,"målene":13667,"puste":13668,"brukerne":13669,"##alist":13670,"due":13671,"##oth":13672,"##ronten":13673,"marine":13674,"Røros":13675,"bidro":13676,"##fugl":13677,"dødsf":13678,"registrerte":13679,"soc":13680,"kvant":13681,"1908":13682,"134":13683,"##rage":13684,"kos":13685,"ligner":13686,"leiar":13687,"fann":13688,"drøfte":13689,"elve":13690,"mg":13691,"roper":13692,"følt":13693,"ethvert":13694,"Resulta":13695,"##nsker":13696,"farlige":13697,"bånd":13698,"samler":13699,"etterfor":13700,"paragra":13701,"garn":13702,"##ARD":13703,"ambul":13704,"Marte":13705,"stikker":13706,"avtalt":13707,"commun":13708,"omgivelser":13709,"betingelser":13710,"tapet":13711,"##renser":13712,"##bes":13713,"virkninger":13714,"##nering":13715,"samvittighet":13716,"inspirasjon":13717,"tilgjengelige":13718,"blive":13719,"varian":13720,"magnet":13721,"avdelinger":13722,"rum":13723,"yt":13724,"talen":13725,"anten":13726,"##stokk":13727,"omsider":13728,"teleg":13729,"1902":13730,"AD":13731,"##ryd":13732,"gm":13733,"Mex":13734,"Christensen":13735,"##aton":13736,"elleve":13737,"##ssaker":13738,"søt":13739,"##standene":13740,"svet":13741,"havner":13742,"silke":13743,"levd":13744,"mellomrom":13745,"wc":13746,"forsker":13747,"Au":13748,"firmaet":13749,"##regud":13750,"utvidelse":13751,"samboe":13752,"124":13753,"##fylt":13754,"regnskaps":13755,"svo":13756,"aga":13757,"selskapene":13758,"pensjons":13759,"inviterer":13760,"attende":13761,"markert":13762,"biblioteket":13763,"sult":13764,"gjennomgå":13765,"treet":13766,"mottok":13767,"arbeidsplass":13768,"year":13769,"Service":13770,"Moskva":13771,"1850":13772,"Born":13773,"budsj":13774,"soverom":13775,"##formål":13776,"Grimstad":13777,"bygnings":13778,"ukjente":13779,"DEN":13780,"Hvert":13781,"medisinske":13782,"øyeblikkelig":13783,"dyrene":13784,"##ulf":13785,"##asinet":13786,"Håvard":13787,"hilse":13788,"##stilsynet":13789,"moment":13790,"##verer":13791,"ED":13792,"forp":13793,"klø":13794,"##zer":13795,"##bygning":13796,"##middag":13797,"pålegg":13798,"##rativ":13799,"##alla":13800,"Jess":13801,"Jørgensen":13802,"derfrå":13803,"European":13804,"frelse":13805,"##etre":13806,"##sfull":13807,"rydde":13808,"sagde":13809,"##hos":13810,"nabol":13811,"elite":13812,"fond":13813,"1909":13814,"Jane":13815,"oppmunt":13816,"för":13817,"Presidenten":13818,"##møtet":13819,"Louis":13820,"Verden":13821,"avstanden":13822,"okk":13823,"væske":13824,"Dor":13825,"banker":13826,"frykter":13827,"##ader":13828,"##chef":13829,"reelle":13830,"idi":13831,"many":13832,"##andida":13833,"Effe":13834,"rørte":13835,"investerings":13836,"fortjener":13837,"bebyg":13838,"Fla":13839,"##kol":13840,"intervj":13841,"skifter":13842,"husdyr":13843,"Hardanger":13844,"Champions":13845,"Aa":13846,"bandet":13847,"bam":13848,"##kommun":13849,"Christiania":13850,"##garden":13851,"summen":13852,"##ydning":13853,"##De":13854,"##dar":13855,"pga":13856,"ante":13857,"oppmerksomheten":13858,"##budsjett":13859,"Robin":13860,"##sfar":13861,"then":13862,"kyrkja":13863,"NB":13864,"One":13865,"##angs":13866,"hell":13867,"istedenfor":13868,"Iversen":13869,"overflate":13870,"##ksem":13871,"instrument":13872,"Retten":13873,"##PR":13874,"budskap":13875,"127":13876,"oppleves":13877,"prosedy":13878,"Problemet":13879,"Volda":13880,"occ":13881,"katol":13882,"omstendigheter":13883,"Green":13884,"bransjen":13885,"sekret":13886,"##nninger":13887,"impro":13888,"brukar":13889,"##undersøkelse":13890,"akseptere":13891,"rullet":13892,"månedene":13893,"forestilling":13894,"##uleres":13895,"Sum":13896,"Sola":13897,"endå":13898,"##back":13899,"##denhet":13900,"Ox":13901,"tenden":13902,"politidistrikt":13903,"FL":13904,"Statoil":13905,"korrid":13906,"159":13907,"132":13908,"leker":13909,"ost":13910,"##teinen":13911,"porten":13912,"##fordeling":13913,"order":13914,"##ATT":13915,"innve":13916,"protester":13917,"##hage":13918,"##lunde":13919,"##bol":13920,"Las":13921,"##feller":13922,"##miks":13923,"skjermen":13924,"gongen":13925,"ekteskapet":13926,"##yret":13927,"kontakten":13928,"##FO":13929,"garder":13930,"interessen":13931,"##bein":13932,"forsvinne":13933,"##renget":13934,"camping":13935,"registrer":13936,"##ikeren":13937,"landsbyen":13938,"Sinnasnekker":13939,"glemte":13940,"forstås":13941,"##seng":13942,"Kongsv":13943,"fartøy":13944,"terreng":13945,"##stod":13946,"opt":13947,"ansett":13948,"##ION":13949,"nakne":13950,"innstillingen":13951,"Kval":13952,"plag":13953,"Heldigvis":13954,"aw":13955,"128":13956,"##grad":13957,"133":13958,"##større":13959,"materialer":13960,"##alisme":13961,"usyn":13962,"forvirret":13963,"hovedstaden":13964,"møttes":13965,"##ordnet":13966,"tørke":13967,"tittel":13968,"Sovjetun":13969,"Klasse":13970,"butikker":13971,"##konstru":13972,"avisene":13973,"synspunkter":13974,"Prosjektet":13975,"##iro":13976,"nervøs":13977,"##lion":13978,"flytende":13979,"##ftig":13980,"Johnny":13981,"##laus":13982,"skatter":13983,"##renes":13984,"mote":13985,"senior":13986,"##stande":13987,"gum":13988,"##fund":13989,"muskel":13990,"##ikkene":13991,"overordnede":13992,"Mine":13993,"##delta":13994,"##bergs":13995,"matematikk":13996,"##regist":13997,"##klaring":13998,"kontrakten":13999,"dekkes":14000,"begrensninger":14001,"##lerne":14002,"##annon":14003,"egentlige":14004,"##rix":14005,"##politi":14006,"##syre":14007,"cost":14008,"##com":14009,"stakkars":14010,"stasjonen":14011,"kvit":14012,"three":14013,"Utt":14014,"diskrim":14015,"bruka":14016,"cri":14017,"ettertid":14018,"beslag":14019,"##bland":14020,"Henriksen":14021,"BAR":14022,"##rukket":14023,"levering":14024,"Desse":14025,"ekstraordin":14026,"kartet":14027,"126":14028,"What":14029,"Of":14030,"Liver":14031,"450":14032,"##slovens":14033,"underholdningsprogram":14034,"##ital":14035,"##behandlingen":14036,"##instru":14037,"overdratt":14038,"Holmen":14039,"vinduene":14040,"utseende":14041,"gatene":14042,"vekke":14043,"##usi":14044,"##kons":14045,"fortvil":14046,"Tha":14047,"endnu":14048,"sakk":14049,"arres":14050,"grønnsaker":14051,"##fikke":14052,"avgifter":14053,"##LAND":14054,"##stillingene":14055,"ure":14056,"misly":14057,"Ide":14058,"foruten":14059,"##bygningen":14060,"fremtidige":14061,"kvalitets":14062,"Riktig":14063,"Offe":14064,"##åg":14065,"kontine":14066,"##vakten":14067,"##rare":14068,"impone":14069,"innbyggerne":14070,"##sprosess":14071,"Salg":14072,"Øynene":14073,"##skriver":14074,"smile":14075,"##osi":14076,"Arth":14077,"ien":14078,"129":14079,"##organisasjonen":14080,"given":14081,"##papir":14082,"Heidi":14083,"##ots":14084,"Buskerud":14085,"oppfylle":14086,"##ords":14087,"Log":14088,"fam":14089,"##mente":14090,"Resten":14091,"##ternativ":14092,"forbli":14093,"Mater":14094,"Steen":14095,"akter":14096,"##alent":14097,"Henning":14098,"##finans":14099,"control":14100,"påvirkning":14101,"hensynet":14102,"##smuligheter":14103,"erstatnings":14104,"kjøretøy":14105,"##atikk":14106,"gjensidig":14107,"##bing":14108,"##forbin":14109,"##regnet":14110,"##sjø":14111,"origin":14112,"Gry":14113,"sonen":14114,"menneskets":14115,"##RIST":14116,"##problem":14117,"##skontor":14118,"##rogen":14119,"##cup":14120,"søsteren":14121,"rammen":14122,"##St":14123,"##amilla":14124,"dørene":14125,"avgjørelser":14126,"Klokken":14127,"Inform":14128,"Torstein":14129,"##agen":14130,"##onering":14131,"##stes":14132,"##selet":14133,"##unet":14134,"SAM":14135,"Søknad":14136,"vennskap":14137,"overleve":14138,"Dam":14139,"begreper":14140,"Konge":14141,"##gy":14142,"konsulent":14143,"halvdel":14144,"leverte":14145,"##verden":14146,"place":14147,"riket":14148,"Kas":14149,"hjørne":14150,"relation":14151,"saad":14152,"##revne":14153,"##ansene":14154,"Sveits":14155,"##hagelig":14156,"##vatnet":14157,"##bruken":14158,"155":14159,"environ":14160,"Fisk":14161,"fradrag":14162,"konkurs":14163,"komplisert":14164,"1200":14165,"##uens":14166,"##atoren":14167,"seia":14168,"Hjemme":14169,"##gjeld":14170,"teknikk":14171,"leiren":14172,"USAs":14173,"##inspe":14174,"##drivende":14175,"##ability":14176,"Knudsen":14177,"beskrives":14178,"senga":14179,"Vester":14180,"strømmen":14181,"##setningene":14182,"Aleks":14183,"Yng":14184,"Mæ":14185,"##ilbud":14186,"##rane":14187,"oftere":14188,"hed":14189,"sprøy":14190,"elevane":14191,"##strukturen":14192,"friste":14193,"rak":14194,"colle":14195,"##salen":14196,"##nerte":14197,"Hotell":14198,"Fremskritt":14199,"formålet":14200,"##skapelig":14201,"hjå":14202,"Ner":14203,"øyet":14204,"Stian":14205,"Ragnar":14206,"salget":14207,"##UST":14208,"leid":14209,"erstatte":14210,"pålagt":14211,"Cali":14212,"##forf":14213,"##illene":14214,"forhandlingene":14215,"Tol":14216,"Lam":14217,"levet":14218,"descri":14219,"varig":14220,"Law":14221,"Stjør":14222,"seksuelle":14223,"Ster":14224,"Elin":14225,"FNs":14226,"trykke":14227,"##IEN":14228,"Barnet":14229,"kunstnere":14230,"156":14231,"##alleri":14232,"##ruen":14233,"##hag":14234,"pengar":14235,"Elias":14236,"Arbeiderparti":14237,"bob":14238,"BER":14239,"##sey":14240,"betraktes":14241,"##sil":14242,"myke":14243,"innsatsen":14244,"særdeles":14245,"avdø":14246,"times":14247,"##iltak":14248,"Hellas":14249,"knytt":14250,"motoren":14251,"##grunns":14252,"gjerning":14253,"sykepleier":14254,"smi":14255,"gaa":14256,"Hon":14257,"tente":14258,"uttrykker":14259,"##imet":14260,"mengden":14261,"variert":14262,"Mont":14263,"teoretisk":14264,"Analy":14265,"##fruer":14266,"forhå":14267,"andet":14268,"Eld":14269,"##ines":14270,"##kna":14271,"Årets":14272,"##sområder":14273,"##juk":14274,"##plant":14275,"vindue":14276,"##sdotter":14277,"00N":14278,"inneholdt":14279,"1904":14280,"Rådet":14281,"Gundersen":14282,"Dyr":14283,"Bis":14284,"mage":14285,"##ype":14286,"145":14287,"run":14288,"fabrikk":14289,"ulykker":14290,"sone":14291,"Leder":14292,"gata":14293,"##okus":14294,"gravid":14295,"barnehager":14296,"permanent":14297,"produserer":14298,"jun":14299,"bekymring":14300,"ytterst":14301,"overtatt":14302,"##lapp":14303,"Elling":14304,"Sok":14305,"Gudbrand":14306,"1903":14307,"##ization":14308,"krimserie":14309,"cer":14310,"rid":14311,"##ørsmålet":14312,"##fyr":14313,"vilkårene":14314,"formidle":14315,"##amlingen":14316,"##win":14317,"##løk":14318,"stranden":14319,"karak":14320,"##lysning":14321,"Gylde":14322,"Deb":14323,"Long":14324,"bede":14325,"##sem":14326,"##AF":14327,"sysselsetting":14328,"våken":14329,"##rød":14330,"Wen":14331,"fanger":14332,"vogn":14333,"##virket":14334,"Gabriel":14335,"Kyr":14336,"Andel":14337,"##cul":14338,"##23":14339,"CSI":14340,"##ologer":14341,"##sammen":14342,"Energi":14343,"##spli":14344,"opplyste":14345,"skjør":14346,"vedta":14347,"skry":14348,"drikker":14349,"aluminium":14350,"brakt":14351,"slut":14352,"##giske":14353,"SL":14354,"dyktige":14355,"rekna":14356,"presidenten":14357,"144":14358,"gående":14359,"Sing":14360,"definisjon":14361,"##stemning":14362,"##gaten":14363,"agent":14364,"Special":14365,"##ERS":14366,"Bart":14367,"dører":14368,"avhenger":14369,"emne":14370,"Gerd":14371,"Chr":14372,"vas":14373,"Nordisk":14374,"bestående":14375,"pressen":14376,"dukke":14377,"ekskl":14378,"intera":14379,"krets":14380,"forsør":14381,"##mh":14382,"##ado":14383,"indik":14384,"##førar":14385,"knust":14386,"utvikles":14387,"Yo":14388,"fungerte":14389,"brannen":14390,"morsom":14391,"smart":14392,"juridisk":14393,"Rosenborg":14394,"intellekt":14395,"mr":14396,"Kyst":14397,"pale":14398,"##klær":14399,"statsråd":14400,"renter":14401,"Cas":14402,"##bruddet":14403,"understreket":14404,"akadem":14405,"##ologen":14406,"tørt":14407,"forbedre":14408,"feire":14409,"##pelig":14410,"gitar":14411,"149":14412,"##bilder":14413,"##atoriske":14414,"skulder":14415,"markedsføring":14416,"alp":14417,"##bete":14418,"Eier":14419,"diverse":14420,"bringer":14421,"kulturen":14422,"jordbruk":14423,"arrang":14424,"SSB":14425,"patient":14426,"##sskatt":14427,"Arnt":14428,"##remål":14429,"##lenes":14430,"##ldrene":14431,"##seks":14432,"hunder":14433,"inngangen":14434,"kriterier":14435,"provi":14436,"##serings":14437,"##orent":14438,"Kjøp":14439,"##uner":14440,"##rerne":14441,"haug":14442,"frust":14443,"sjokk":14444,"##asiteten":14445,"Sna":14446,"hemmelige":14447,"Ordet":14448,"##issel":14449,"##umme":14450,"kode":14451,"lita":14452,"##petansen":14453,"behø":14454,"nordisk":14455,"nydelig":14456,"##dam":14457,"##ksjons":14458,"take":14459,"universitetet":14460,"femten":14461,"Donald":14462,"høgt":14463,"Sat":14464,"Poli":14465,"fullmakt":14466,"sistnevnte":14467,"##fos":14468,"##uch":14469,"fiende":14470,"hei":14471,"Foreldre":14472,"aldeles":14473,"beten":14474,"Vat":14475,"enorm":14476,"Nap":14477,"provis":14478,"middels":14479,"##FK":14480,"Ah":14481,"beregnes":14482,"##heden":14483,"##heit":14484,"##ffa":14485,"linjen":14486,"##quen":14487,"results":14488,"kanter":14489,"omfanget":14490,"innstilt":14491,"endringene":14492,"erklær":14493,"##institusjoner":14494,"Steinkjer":14495,"dreide":14496,"##poeng":14497,"Stå":14498,"krigs":14499,"##direktør":14500,"cle":14501,"profesjonelle":14502,"paragraf":14503,"##ansvarlig":14504,"Vedlegg":14505,"herfrå":14506,"isol":14507,"Topp":14508,"Munch":14509,"velges":14510,"Etterpå":14511,"Teater":14512,"krimine":14513,"tiltaket":14514,"##sking":14515,"##hall":14516,"##cen":14517,"varene":14518,"provin":14519,"Psyk":14520,"kunden":14521,"Lee":14522,"kas":14523,"innvandrere":14524,"quest":14525,"nekte":14526,"forurensning":14527,"##kamera":14528,"atferd":14529,"Mona":14530,"1814":14531,"##domen":14532,"Tommy":14533,"oppg":14534,"##anta":14535,"åpningen":14536,"Svart":14537,"gulv":14538,"utbygg":14539,"overgangen":14540,"##departementets":14541,"ungdommen":14542,"Svendsen":14543,"##75":14544,"iron":14545,"uttrykke":14546,"##sformer":14547,"vinduer":14548,"samiske":14549,"##obby":14550,"##melige":14551,"ingeniør":14552,"styrket":14553,"sjokolade":14554,"##itée":14555,"rednings":14556,"regelmessig":14557,"styrt":14558,"handa":14559,"##asing":14560,"asf":14561,"##ledere":14562,"Liverpool":14563,"hendelsen":14564,"Int":14565,"##konkur":14566,"eiere":14567,"cre":14568,"##kser":14569,"oppfatter":14570,"##heder":14571,"Camp":14572,"##isterte":14573,"Cha":14574,"ton":14575,"##nstre":14576,"angir":14577,"Rock":14578,"usikkert":14579,"motivasjon":14580,"stoler":14581,"##settelsen":14582,"INN":14583,"passerte":14584,"Sånn":14585,"skyndte":14586,"Kommer":14587,"Hur":14588,"##ail":14589,"##itch":14590,"tillate":14591,"Kate":14592,"Life":14593,"kolleger":14594,"Kron":14595,"Stri":14596,"Hvilket":14597,"boligen":14598,"fortake":14599,"mos":14600,"løses":14601,"soldat":14602,"åring":14603,"Tyrkia":14604,"hunde":14605,"einaste":14606,"Løs":14607,"konto":14608,"musikkmiks":14609,"kloster":14610,"tillatt":14611,"High":14612,"Jul":14613,"##fene":14614,"Brasil":14615,"lakse":14616,"Ross":14617,"Cath":14618,"etterspørsel":14619,"##apet":14620,"kriter":14621,"rettes":14622,"føltes":14623,"139":14624,"##folkningen":14625,"##spa":14626,"##angene":14627,"##kelige":14628,"tet":14629,"drin":14630,"inkluderer":14631,"deltatt":14632,"Kil":14633,"diskusjonen":14634,"favoritt":14635,"sovnet":14636,"utvalgte":14637,"hall":14638,"P1":14639,"##EFA":14640,"berørte":14641,"Finansdepartementet":14642,"Sec":14643,"Ran":14644,"##ktorat":14645,"samles":14646,"Mikkel":14647,"##sat":14648,"volum":14649,"forening":14650,"hers":14651,"kunnskapen":14652,"##stemmelse":14653,"troll":14654,"##handlet":14655,"keiser":14656,"heve":14657,"##lassi":14658,"skrekk":14659,"Rep":14660,"##ova":14661,"Krog":14662,"analysen":14663,"Grin":14664,"ektefelle":14665,"Ute":14666,"statsbor":14667,"136":14668,"liknende":14669,"##skontoret":14670,"kvarter":14671,"Birg":14672,"##bånd":14673,"##medisin":14674,"henter":14675,"formelt":14676,"forestillinger":14677,"##JØ":14678,"##light":14679,"kampan":14680,"Enge":14681,"vitenskapelige":14682,"top":14683,"skept":14684,"##kas":14685,"medlems":14686,"scoret":14687,"Johannessen":14688,"utstyret":14689,"##DEL":14690,"Gli":14691,"forelsket":14692,"##organisasjoner":14693,"Simen":14694,"forventer":14695,"##ygget":14696,"allier":14697,"hørings":14698,"Hom":14699,"##skinn":14700,"##vennlig":14701,"innebære":14702,"utbrøt":14703,"finalen":14704,"##ktorer":14705,"##irektoratet":14706,"katt":14707,"lidelse":14708,"154":14709,"vul":14710,"##kveld":14711,"kinnet":14712,"tåle":14713,"##vidde":14714,"menigheten":14715,"##ough":14716,"##bekk":14717,"##ires":14718,"##mperatur":14719,"Howe":14720,"Sje":14721,"især":14722,"Kongsvinger":14723,"Nora":14724,"herlig":14725,"tillater":14726,"omfattes":14727,"elektris":14728,"##fee":14729,"Delta":14730,"Nikola":14731,"##teller":14732,"143":14733,"##ransport":14734,"sønner":14735,"##data":14736,"##periode":14737,"tæn":14738,"Tanken":14739,"Arthur":14740,"##strene":14741,"innd":14742,"##bia":14743,"Radi":14744,"drå":14745,"herred":14746,"britisk":14747,"##jos":14748,"passasjer":14749,"##vnte":14750,"##day":14751,"##jup":14752,"##sspørsmål":14753,"utro":14754,"##iseren":14755,"FRED":14756,"Hipp":14757,"vinkel":14758,"mektig":14759,"FO":14760,"##materiale":14761,"Ytre":14762,"seter":14763,"gunstig":14764,"gjennomføringen":14765,"halvtime":14766,"Forbruker":14767,"##gruppene":14768,"##self":14769,"##ugar":14770,"Enda":14771,"##handelen":14772,"##forholdet":14773,"utfordrende":14774,"##skj":14775,"##vises":14776,"Family":14777,"##imot":14778,"##zon":14779,"##omt":14780,"Navn":14781,"##årige":14782,"tala":14783,"stj":14784,"beskjeden":14785,"##media":14786,"Sub":14787,"skoleg":14788,"##registeret":14789,"##lius":14790,"##fram":14791,"underlagt":14792,"rosa":14793,"Hart":14794,"##imeter":14795,"politik":14796,"even":14797,"foregå":14798,"##stjenester":14799,"those":14800,"sporet":14801,"brødrene":14802,"##skule":14803,"##otet":14804,"tenk":14805,"##fred":14806,"Møte":14807,"NTN":14808,"##hjelpen":14809,"##hetenes":14810,"##ert":14811,"innst":14812,"aktuell":14813,"Ål":14814,"diskutert":14815,"plak":14816,"påstand":14817,"nøytra":14818,"lova":14819,"kampene":14820,"##armen":14821,"ansvarlige":14822,"conside":14823,"stader":14824,"oppå":14825,"##skipet":14826,"reell":14827,"belastning":14828,"##tic":14829,"selvmord":14830,"##kin":14831,"##leddet":14832,"##hyl":14833,"##varen":14834,"spli":14835,"gjengjeld":14836,"transpor":14837,"meldinger":14838,"##vention":14839,"tilsette":14840,"ofre":14841,"lidelser":14842,"##ws":14843,"Charlie":14844,"##sbo":14845,"aldrig":14846,"drag":14847,"##rium":14848,"dreie":14849,"Aksel":14850,"nerve":14851,"##ytt":14852,
[...]
