{
  "version": "1.0",
  "truncation": null,
  "padding": null,
  "added_tokens": [
    {
      "id": 0,
      "special": true,
      "content": "[PAD]",
      "single_word": false,
      "lstrip": false,
      "rstrip": false,
      "normalized": false
    },
    {
      "id": 1,
      "special": true,
      "content": "[UNK]",
      "single_word": false,
      "lstrip": false,
      "rstrip": false,
      "normalized": false
    },
    {
      "id": 2,
      "special": true,
      "content": "[CLS]",
      "single_word": false,
      "lstrip": false,
      "rstrip": false,
      "normalized": false
    },
    {
      "id": 3,
      "special": true,
      "content": "[SEP]",
      "single_word": false,
      "lstrip": false,
      "rstrip": false,
      "normalized": false
    },
    {
      "id": 4,
      "special": true,
      "content": "[MASK]",
      "single_word": false,
      "lstrip": false,
      "rstrip": false,
      "normalized": false
    }
  ],
  "normalizer": null,
  "pre_tokenizer": {
    "type": "Whitespace"
  },
  "post_processor": null,
  "decoder": null,
  "model": {
    "unk_token": "[UNK]",
    "continuing_subword_prefix": "##",
    "max_input_chars_per_word": 100,
    "vocab": {
      "[PAD]": 0,
      "[UNK]": 1,
      "[CLS]": 2,
      "[SEP]": 3,
      "[MASK]": 4,
      "!": 5,
      "\"": 6,
      "#": 7,
      "$": 8,
      "%": 9,
      "&": 10,
      "'": 11,
      "(": 12,
      ")": 13,
      "*": 14,
      "+": 15,
      ",": 16,
      "-": 17,
      ".": 18,
      "/": 19,
      "0": 20,
      "1": 21,
      "2": 22,
      "3": 23,
      "4": 24,
      "5": 25,
      "6": 26,
      "7": 27,
      "8": 28,
      "9": 29,
      ":": 30,
      ";": 31,
      "<": 32,
      "=": 33,
      ">": 34,
      "?": 35,
      "@": 36,
      "A": 37,
      "B": 38,
      "C": 39,
      "D": 40,
      "E": 41,
      "F": 42,
      "G": 43,
      "H": 44,
      "I": 45,
      "J": 46,
      "K": 47,
      "L": 48,
      "M": 49,
      "N": 50,
      "O": 51,
      "P": 52,
      "Q": 53,
      "R": 54,
      "S": 55,
      "T": 56,
      "U": 57,
      "V": 58,
      "W": 59,
      "X": 60,
      "Y": 61,
      "Z": 62,
      "[": 63,
      "\\": 64,
      "]": 65,
      "^": 66,
      "_": 67,
      "`": 68,
      "a": 69,
      "b": 70,
      "c": 71,
      "d": 72,
      "e": 73,
      "f": 74,
      "g": 75,
      "h": 76,
      "i": 77,
      "j": 78,
      "k": 79,
      "l": 80,
      "m": 81,
      "n": 82,
      "o": 83,
      "p": 84,
      "q": 85,
      "r": 86,
      "s": 87,
      "t": 88,
      "u": 89,
      "v": 90,
      "w": 91,
      "x": 92,
      "y": 93,
      "z": 94,
      "{": 95,
      "|": 96,
      "}": 97,
      "~": 98,
      "": 99,
      "¡": 100,
      "£": 101,
      "¤": 102,
      "¥": 103,
      "§": 104,
      "¨": 105,
      "©": 106,
      "«": 107,
      "­": 108,
      "®": 109,
      "¯": 110,
      "°": 111,
      "±": 112,
      "²": 113,
      "³": 114,
      "´": 115,
      "µ": 116,
      "·": 117,
      "¸": 118,
      "¹": 119,
      "º": 120,
      "»": 121,
      "¼": 122,
      "½": 123,
      "¿": 124,
      "À": 125,
      "Á": 126,
      "Â": 127,
      "Ã": 128,
      "Ä": 129,
      "Å": 130,
      "Æ": 131,
      "Ç": 132,
      "È": 133,
      "É": 134,
      "Í": 135,
      "Î": 136,
      "Ò": 137,
      "Ó": 138,
      "Ô": 139,
      "Ö": 140,
      "×": 141,
      "Ø": 142,
      "Ú": 143,
      "Ü": 144,
      "Þ": 145,
      "ß": 146,
      "à": 147,
      "á": 148,
      "â": 149,
      "ã": 150,
      "ä": 151,
      "å": 152,
      "æ": 153,
      "ç": 154,
      "è": 155,
      "é": 156,
      "ê": 157,
      "ë": 158,
      "ì": 159,
      "í": 160,
      "î": 161,
      "ï": 162,
      "ð": 163,
      "ñ": 164,
      "ò": 165,
      "ó": 166,
      "ô": 167,
      "õ": 168,
      "ö": 169,
      "ø": 170,
      "ù": 171,
      "ú": 172,
      "û": 173,
      "ü": 174,
      "ý": 175,
      "þ": 176,
      "ÿ": 177,
      "Ā": 178,
      "ā": 179,
      "ă": 180,
      "ą": 181,
      "ć": 182,
      "Č": 183,
      "č": 184,
      "Đ": 185,
      "đ": 186,
      "ē": 187,
      "ė": 188,
      "ę": 189,
      "ě": 190,
      "ğ": 191,
      "ħ": 192,
      "ĩ": 193,
      "Ī": 194,
      "ī": 195,
      "ĭ": 196,
      "İ": 197,
      "ı": 198,
      "ļ": 199,
      "ľ": 200,
      "Ł": 201,
      "ł": 202,
      "ń": 203,
      "ņ": 204,
      "ň": 205,
      "ŋ": 206,
      "Ō": 207,
      "ō": 208,
      "ŏ": 209,
      "ő": 210,
      "Œ": 211,
      "œ": 212,
      "ř": 213,
      "Ś": 214,
      "ś": 215,
      "Ş": 216,
      "ş": 217,
      "Š": 218,
      "š": 219,
      "Ţ": 220,
      "ţ": 221,
      "ť": 222,
      "ū": 223,
      "ŭ": 224,
      "ů": 225,
      "ų": 226,
      "ź": 227,
      "Ż": 228,
      "ż": 229,
      "Ž": 230,
      "ž": 231,
      "Ə": 232,
      "ơ": 233,
      "ư": 234,
      "ǎ": 235,
      "ǐ": 236,
      "ǔ": 237,
      "ǫ": 238,
      "Ș": 239,
      "ș": 240,
      "ț": 241,
      "ɐ": 242,
      "ɑ": 243,
      "ɔ": 244,
      "ə": 245,
      "ɛ": 246,
      "ɡ": 247,
      "ɪ": 248,
      "ɲ": 249,
      "ɾ": 250,
      "ʃ": 251,
      "ʉ": 252,
      "ʊ": 253,
      "ʒ": 254,
      "ʰ": 255,
      "ʻ": 256,
      "ʾ": 257,
      "ʿ": 258,
      "ˇ": 259,
      "ˈ": 260,
      "ː": 261,
      "̀": 262,
      "́": 263,
      "̄": 264,
      "̧": 265,
      "̯": 266,
      "̲": 267,
      "Ά": 268,
      "Α": 269,
      "Β": 270,
      "Γ": 271,
      "Δ": 272,
      "Ε": 273,
      "Η": 274,
      "Θ": 275,
      "Ι": 276,
      "Κ": 277,
      "Λ": 278,
      "Μ": 279,
      "Ν": 280,
      "Ο": 281,
      "Π": 282,
      "Σ": 283,
      "Τ": 284,
      "Φ": 285,
      "Χ": 286,
      "Ω": 287,
      "ά": 288,
      "έ": 289,
      "ή": 290,
      "ί": 291,
      "α": 292,
      "β": 293,
      "γ": 294,
      "δ": 295,
      "ε": 296,
      "ζ": 297,
      "η": 298,
      "θ": 299,
      "ι": 300,
      "κ": 301,
      "λ": 302,
      "μ": 303,
      "ν": 304,
      "ξ": 305,
      "ο": 306,
      "π": 307,
      "ρ": 308,
      "ς": 309,
      "σ": 310,
      "τ": 311,
      "υ": 312,
      "φ": 313,
      "χ": 314,
      "ψ": 315,
      "ω": 316,
      "ό": 317,
      "ύ": 318,
      "ώ": 319,
      "ϕ": 320,
      "А": 321,
      "Б": 322,
      "В": 323,
      "Г": 324,
      "Д": 325,
      "Е": 326,
      "Ж": 327,
      "З": 328,
      "И": 329,
      "К": 330,
      "Л": 331,
      "М": 332,
      "Н": 333,
      "О": 334,
      "П": 335,
      "Р": 336,
      "С": 337,
      "Т": 338,
      "У": 339,
      "Ф": 340,
      "Х": 341,
      "Ц": 342,
      "Ч": 343,
      "Ш": 344,
      "Э": 345,
      "Ю": 346,
      "Я": 347,
      "а": 348,
      "б": 349,
      "в": 350,
      "г": 351,
      "д": 352,
      "е": 353,
      "ж": 354,
      "з": 355,
      "и": 356,
      "й": 357,
      "к": 358,
      "л": 359,
      "м": 360,
      "н": 361,
      "о": 362,
      "п": 363,
      "р": 364,
      "с": 365,
      "т": 366,
      "у": 367,
      "ф": 368,
      "х": 369,
      "ц": 370,
      "ч": 371,
      "ш": 372,
      "щ": 373,
      "ъ": 374,
      "ы": 375,
      "ь": 376,
      "э": 377,
      "ю": 378,
      "я": 379,
      "ё": 380,
      "і": 381,
      "ї": 382,
      "ј": 383,
      "ә": 384,
      "Ա": 385,
      "Հ": 386,
      "ա": 387,
      "դ": 388,
      "ե": 389,
      "թ": 390,
      "ի": 391,
      "լ": 392,
      "կ": 393,
      "հ": 394,
      "մ": 395,
      "յ": 396,
      "ն": 397,
      "ո": 398,
      "ս": 399,
      "վ": 400,
      "տ": 401,
      "ր": 402,
      "ւ": 403,
      "ְ": 404,
      "ֲ": 405,
      "ִ": 406,
      "ֵ": 407,
      "ֶ": 408,
      "ַ": 409,
      "ָ": 410,
      "ֹ": 411,
      "ּ": 412,
      "ׁ": 413,
      "א": 414,
      "ב": 415,
      "ג": 416,
      "ד": 417,
      "ה": 418,
      "ו": 419,
      "ז": 420,
      "ח": 421,
      "ט": 422,
      "י": 423,
      "כ": 424,
      "ל": 425,
      "ם": 426,
      "מ": 427,
      "ן": 428,
      "נ": 429,
      "ס": 430,
      "ע": 431,
      "פ": 432,
      "צ": 433,
      "ק": 434,
      "ר": 435,
      "ש": 436,
      "ת": 437,
      "ء": 438,
      "آ": 439,
      "أ": 440,
      "إ": 441,
      "ئ": 442,
      "ا": 443,
      "ب": 444,
      "ة": 445,
      "ت": 446,
      "ث": 447,
      "ج": 448,
      "ح": 449,
      "خ": 450,
      "د": 451,
      "ر": 452,
      "ز": 453,
      "س": 454,
      "ش": 455,
      "ص": 456,
      "ض": 457,
      "ط": 458,
      "ظ": 459,
      "ع": 460,
      "غ": 461,
      "ف": 462,
      "ق": 463,
      "ك": 464,
      "ل": 465,
      "م": 466,
      "ن": 467,
      "ه": 468,
      "و": 469,
      "ى": 470,
      "ي": 471,
      "َ": 472,
      "ُ": 473,
      "ِ": 474,
      "ّ": 475,
      "ْ": 476,
      "ٔ": 477,
      "پ": 478,
      "چ": 479,
      "ک": 480,
      "گ": 481,
      "ی": 482,
      "ܐ": 483,
      "ܝ": 484,
      "ं": 485,
      "अ": 486,
      "क": 487,
      "ग": 488,
      "ज": 489,
      "त": 490,
      "द": 491,
      "न": 492,
      "प": 493,
      "ब": 494,
      "भ": 495,
      "म": 496,
      "य": 497,
      "र": 498,
      "ल": 499,
      "व": 500,
      "स": 501,
      "ह": 502,
      "ा": 503,
      "ि": 504,
      "ी": 505,
      "ु": 506,
      "े": 507,
      "ो": 508,
      "्": 509,
      "ব": 510,
      "র": 511,
      "া": 512,
      "্": 513,
      "்": 514,
      "ం": 515,
      "న": 516,
      "ర": 517,
      "ల": 518,
      "ా": 519,
      "ి": 520,
      "ు": 521,
      "్": 522,
      "ง": 523,
      "น": 524,
      "ม": 525,
      "ย": 526,
      "ร": 527,
      "า": 528,
      "ิ": 529,
      "เ": 530,
      "་": 531,
      "ག": 532,
      "ང": 533,
      "ད": 534,
      "ན": 535,
      "པ": 536,
      "བ": 537,
      "མ": 538,
      "ར": 539,
      "ས": 540,
      "ི": 541,
      "ེ": 542,
      "ོ": 543,
      "ა": 544,
      "ბ": 545,
      "ე": 546,
      "ი": 547,
      "ლ": 548,
      "ნ": 549,
      "ო": 550,
      "რ": 551,
      "ს": 552,
      "្": 553,
      "ḍ": 554,
      "ḏ": 555,
      "ḑ": 556,
      "Ḥ": 557,
      "ḥ": 558,
      "Ḩ": 559,
      "ḩ": 560,
      "ṃ": 561,
      "ṇ": 562,
      "ṟ": 563,
      "ṣ": 564,
      "ṭ": 565,
      "ṯ": 566,
      "ẕ": 567,
      "ạ": 568,
      "ả": 569,
      "ấ": 570,
      "ầ": 571,
      "ẩ": 572,
      "ậ": 573,
      "ế": 574,
      "ề": 575,
      "ể": 576,
      "ễ": 577,
      "ệ": 578,
      "ỉ": 579,
      "ị": 580,
      "ọ": 581,
      "ố": 582,
      "ồ": 583,
      "ổ": 584,
      "ộ": 585,
      "ớ": 586,
      "ờ": 587,
      "ở": 588,
      "ợ": 589,
      "ụ": 590,
      "ủ": 591,
      "ứ": 592,
      "ữ": 593,
      "ự": 594,
      "ỹ": 595,
      "ἀ": 596,
      "Ἀ": 597,
      "​": 598,
      "‌": 599,
      "‍": 600,
      "‎": 601,
      "‐": 602,
      "‑": 603,
      "–": 604,
      "—": 605,
      "’": 606,
      "“": 607,
      "”": 608,
      "†": 609,
      "•": 610,
      "…": 611,
      "′": 612,
      "″": 613,
      "›": 614,
      "‼": 615,
      "⁄": 616,
      "⁉": 617,
      "⁡": 618,
      "€": 619,
      "⃣": 620,
      "™": 621,
      "ℹ": 622,
      "←": 623,
      "↑": 624,
      "→": 625,
      "↔": 626,
      "↕": 627,
      "↖": 628,
      "↗": 629,
      "↘": 630,
      "↙": 631,
      "↩": 632,
      "↪": 633,
      "∂": 634,
      "∇": 635,
      "∈": 636,
      "∑": 637,
      "−": 638,
      "∗": 639,
      "∞": 640,
      "∫": 641,
      "≈": 642,
      "≤": 643,
      "≥": 644,
      "⋅": 645,
      "⌨": 646,
      "⏏": 647,
      "⏭": 648,
      "⏮": 649,
      "⏯": 650,
      "⏰": 651,
      "⏱": 652,
      "⏲": 653,
      "⏸": 654,
      "⏹": 655,
      "⏺": 656,
      "Ⓜ": 657,
      "─": 658,
      "█": 659,
      "■": 660,
      "▪": 661,
      "▫": 662,
      "▶": 663,
      "►": 664,
      "◀": 665,
      "◄": 666,
      "●": 667,
      "◻": 668,
      "◼": 669,
      "◾": 670,
      "☀": 671,
      "☁": 672,
      "☂": 673,
      "☃": 674,
      "☄": 675,
      "★": 676,
      "☎": 677,
      "☑": 678,
      "☔": 679,
      "☕": 680,
      "☘": 681,
      "☝": 682,
      "☠": 683,
      "☢": 684,
      "☣": 685,
      "☦": 686,
      "☪": 687,
      "☮": 688,
      "☯": 689,
      "☸": 690,
      "☹": 691,
      "☺": 692,
      "♀": 693,
      "♂": 694,
      "♈": 695,
      "♉": 696,
      "♊": 697,
      "♌": 698,
      "♐": 699,
      "♑": 700,
      "♓": 701,
      "♟": 702,
      "♠": 703,
      "♣": 704,
      "♥": 705,
      "♦": 706,
      "♨": 707,
      "♪": 708,
      "♭": 709,
      "♻": 710,
      "♾": 711,
      "♿": 712,
      "⚒": 713,
      "⚔": 714,
      "⚕": 715,
      "⚖": 716,
      "⚗": 717,
      "⚙": 718,
      "⚛": 719,
      "⚜": 720,
      "⚠": 721,
      "⚡": 722,
      "⚧": 723,
      "⚰": 724,
      "⚱": 725,
      "⚽": 726,
      "⛄": 727,
      "⛈": 728,
      "⛏": 729,
      "⛑": 730,
      "⛓": 731,
      "⛔": 732,
      "⛩": 733,
      "⛪": 734,
      "⛰": 735,
      "⛱": 736,
      "⛳": 737,
      "⛴": 738,
      "⛷": 739,
      "⛸": 740,
      "⛹": 741,
      "✂": 742,
      "✅": 743,
      "✈": 744,
      "✉": 745,
      "✊": 746,
      "✋": 747,
      "✌": 748,
      "✍": 749,
      "✏": 750,
      "✒": 751,
      "✓": 752,
      "✔": 753,
      "✖": 754,
      "✝": 755,
      "✡": 756,
      "✨": 757,
      "✳": 758,
      "✴": 759,
      "❄": 760,
      "❇": 761,
      "❌": 762,
      "❓": 763,
      "❔": 764,
      "❗": 765,
      "❣": 766,
      "❤": 767,
      "➕": 768,
      "➖": 769,
      "➗": 770,
      "➡": 771,
      "⟩": 772,
      "⤴": 773,
      "⤵": 774,
      "⬅": 775,
      "⬆": 776,
      "⬇": 777,
      "⬛": 778,
      "⭐": 779,
      "⭕": 780,
      "《": 781,
      "》": 782,
      "〰": 783,
      "〽": 784,
      "い": 785,
      "た": 786,
      "の": 787,
      "ア": 788,
      "イ": 789,
      "ク": 790,
      "ジ": 791,
      "ス": 792,
      "タ": 793,
      "ッ": 794,
      "ト": 795,
      "ド": 796,
      "マ": 797,
      "ラ": 798,
      "リ": 799,
      "ル": 800,
      "ロ": 801,
      "ン": 802,
      "・": 803,
      "ー": 804,
      "㊗": 805,
      "㊙": 806,
      "一": 807,
      "三": 808,
      "上": 809,
      "东": 810,
      "中": 811,
      "乡": 812,
      "京": 813,
      "人": 814,
      "会": 815,
      "八": 816,
      "公": 817,
      "北": 818,
      "区": 819,
      "十": 820,
      "南": 821,
      "县": 822,
      "国": 823,
      "國": 824,
      "地": 825,
      "城": 826,
      "大": 827,
      "天": 828,
      "子": 829,
      "安": 830,
      "宝": 831,
      "家": 832,
      "尔": 833,
      "山": 834,
      "州": 835,
      "巴": 836,
      "市": 837,
      "平": 838,
      "年": 839,
      "库": 840,
      "德": 841,
      "心": 842,
      "拉": 843,
      "文": 844,
      "新": 845,
      "族": 846,
      "日": 847,
      "明": 848,
      "木": 849,
      "本": 850,
      "林": 851,
      "桥": 852,
      "武": 853,
      "水": 854,
      "江": 855,
      "河": 856,
      "治": 857,
      "海": 858,
      "王": 859,
      "田": 860,
      "白": 861,
      "石": 862,
      "經": 863,
      "自": 864,
      "苏": 865,
      "行": 866,
      "街": 867,
      "西": 868,
      "道": 869,
      "里": 870,
      "金": 871,
      "镇": 872,
      "长": 873,
      "阳": 874,
      "阿": 875,
      "陈": 876,
      "音": 877,
      "高": 878,
      "동": 879,
      "️": 880,
      "�": 881,
      "🅰": 882,
      "🅱": 883,
      "🅾": 884,
      "🅿": 885,
      "🆚": 886,
      "🇦": 887,
      "🇧": 888,
      "🇨": 889,
      "🇩": 890,
      "🇪": 891,
      "🇫": 892,
      "🇬": 893,
      "🇭": 894,
      "🇮": 895,
      "🇯": 896,
      "🇰": 897,
      "🇱": 898,
      "🇲": 899,
      "🇳": 900,
      "🇴": 901,
      "🇵": 902,
      "🇶": 903,
      "🇷": 904,
      "🇸": 905,
      "🇹": 906,
      "🇺": 907,
      "🇻": 908,
      "🇼": 909,
      "🇽": 910,
      "🇾": 911,
      "🇿": 912,
      "🈂": 913,
      "🈴": 914,
      "🈷": 915,
      "🈹": 916,
      "🉑": 917,
      "🌅": 918,
      "🌇": 919,
      "🌈": 920,
      "🌉": 921,
      "🌊": 922,
      "🌋": 923,
      "🌑": 924,
      "🌔": 925,
      "🌕": 926,
      "🌖": 927,
      "🌘": 928,
      "🌞": 929,
      "🌟": 930,
      "🌡": 931,
      "🌤": 932,
      "🌥": 933,
      "🌦": 934,
      "🌧": 935,
      "🌨": 936,
      "🌩": 937,
      "🌪": 938,
      "🌫": 939,
      "🌬": 940,
      "🌭": 941,
      "🌲": 942,
      "🌴": 943,
      "🌶": 944,
      "🌷": 945,
      "🌸": 946,
      "🌺": 947,
      "🌾": 948,
      "🍀": 949,
      "🍁": 950,
      "🍂": 951,
      "🍆": 952,
      "🍇": 953,
      "🍉": 954,
      "🍊": 955,
      "🍌": 956,
      "🍍": 957,
      "🍎": 958,
      "🍏": 959,
      "🍐": 960,
      "🍒": 961,
      "🍖": 962,
      "🍜": 963,
      "🍟": 964,
      "🍠": 965,
      "🍡": 966,
      "🍤": 967,
      "🍥": 968,
      "🍦": 969,
      "🍨": 970,
      "🍫": 971,
      "🍬": 972,
      "🍭": 973,
      "🍯": 974,
      "🍱": 975,
      "🍳": 976,
      "🍷": 977,
      "🍹": 978,
      "🍺": 979,
      "🍻": 980,
      "🍼": 981,
      "🍽": 982,
      "🍾": 983,
      "🍿": 984,
      "🎀": 985,
      "🎁": 986,
      "🎂": 987,
      "🎃": 988,
      "🎄": 989,
      "🎅": 990,
      "🎆": 991,
      "🎈": 992,
      "🎉": 993,
      "🎊": 994,
      "🎋": 995,
      "🎐": 996,
      "🎒": 997,
      "🎓": 998,
      "🎖": 999,
      "🎗": 1000,
      "🎙": 1001,
      "🎚": 1002,
      "🎛": 1003,
      "🎞": 1004,
      "🎟": 1005,
      "🎣": 1006,
      "🎤": 1007,
      "🎥": 1008,
      "🎨": 1009,
      "🎬": 1010,
      "🎭": 1011,
      "🎲": 1012,
      "🎳": 1013,
      "🎶": 1014,
      "🎸": 1015,
      "🏂": 1016,
      "🏃": 1017,
      "🏄": 1018,
      "🏅": 1019,
      "🏆": 1020,
      "🏇": 1021,
      "🏈": 1022,
      "🏊": 1023,
      "🏋": 1024,
      "🏌": 1025,
      "🏍": 1026,
      "🏎": 1027,
      "🏒": 1028,
      "🏔": 1029,
      "🏕": 1030,
      "🏖": 1031,
      "🏗": 1032,
      "🏘": 1033,
      "🏙": 1034,
      "🏚": 1035,
      "🏛": 1036,
      "🏜": 1037,
      "🏝": 1038,
      "🏞": 1039,
      "🏟": 1040,
      "🏠": 1041,
      "🏢": 1042,
      "🏤": 1043,
      "🏥": 1044,
      "🏫": 1045,
      "🏭": 1046,
      "🏯": 1047,
      "🏳": 1048,
      "🏴": 1049,
      "🏵": 1050,
      "🏷": 1051,
      "🏸": 1052,
      "🏹": 1053,
      "🏻": 1054,
      "🏼": 1055,
      "🏽": 1056,
      "🏾": 1057,
      "🏿": 1058,
      "🐈": 1059,
      "🐎": 1060,
      "🐑": 1061,
      "🐓": 1062,
      "🐕": 1063,
      "🐜": 1064,
      "🐞": 1065,
      "🐠": 1066,
      "🐣": 1067,
      "🐥": 1068,
      "🐦": 1069,
      "🐧": 1070,
      "🐪": 1071,
      "🐭": 1072,
      "🐮": 1073,
      "🐰": 1074,
      "🐳": 1075,
      "🐶": 1076,
      "🐸": 1077,
      "🐺": 1078,
      "🐻": 1079,
      "🐽": 1080,
      "🐾": 1081,
      "🐿": 1082,
      "👀": 1083,
      "👁": 1084,
      "👂": 1085,
      "👃": 1086,
      "👆": 1087,
      "👇": 1088,
      "👈": 1089,
      "👉": 1090,
      "👊": 1091,
      "👋": 1092,
      "👌": 1093,
      "👍": 1094,
      "👎": 1095,
      "👏": 1096,
      "👐": 1097,
      "👑": 1098,
      "👕": 1099,
      "👗": 1100,
      "👙": 1101,
      "👜": 1102,
      "👝": 1103,
      "👠": 1104,
      "👢": 1105,
      "👣": 1106,
      "👦": 1107,
      "👧": 1108,
      "👨": 1109,
      "👩": 1110,
      "👪": 1111,
      "👫": 1112,
      "👬": 1113,
      "👭": 1114,
      "👮": 1115,
      "👯": 1116,
      "👰": 1117,
      "👱": 1118,
      "👲": 1119,
      "👳": 1120,
      "👴": 1121,
      "👵": 1122,
      "👶": 1123,
      "👷": 1124,
      "👸": 1125,
      "👹": 1126,
      "👼": 1127,
      "👾": 1128,
      "💀": 1129,
      "💁": 1130,
      "💂": 1131,
      "💃": 1132,
      "💅": 1133,
      "💆": 1134,
      "💇": 1135,
      "💊": 1136,
      "💋": 1137,
      "💌": 1138,
      "💍": 1139,
      "💎": 1140,
      "💏": 1141,
      "💐": 1142,
      "💑": 1143,
      "💒": 1144,
      "💓": 1145,
      "💔": 1146,
      "💕": 1147,
      "💖": 1148,
      "💗": 1149,
      "💙": 1150,
      "💚": 1151,
      "💛": 1152,
      "💜": 1153,
      "💝": 1154,
      "💞": 1155,
      "💟": 1156,
      "💡": 1157,
      "💢": 1158,
      "💣": 1159,
      "💤": 1160,
      "💥": 1161,
      "💦": 1162,
      "💨": 1163,
      "💩": 1164,
      "💪": 1165,
      "💫": 1166,
      "💮": 1167,
      "💰": 1168,
      "💴": 1169,
      "💵": 1170,
      "💶": 1171,
      "💹": 1172,
      "💺": 1173,
      "💻": 1174,
      "💼": 1175,
      "💾": 1176,
      "📀": 1177,
      "📂": 1178,
      "📃": 1179,
      "📅": 1180,
      "📇": 1181,
      "📋": 1182,
      "📏": 1183,
      "📖": 1184,
      "📘": 1185,
      "📙": 1186,
      "📚": 1187,
      "📣": 1188,
      "📥": 1189,
      "📧": 1190,
      "📬": 1191,
      "📱": 1192,
      "📲": 1193,
      "📷": 1194,
      "📸": 1195,
      "📹": 1196,
      "📺": 1197,
      "📽": 1198,
      "🔈": 1199,
      "🔉": 1200,
      "🔊": 1201,
      "🔌": 1202,
      "🔍": 1203,
      "🔎": 1204,
      "🔐": 1205,
      "🔒": 1206,
      "🔔": 1207,
      "🔖": 1208,
      "🔙": 1209,
      "🔝": 1210,
      "🔞": 1211,
      "🔥": 1212,
      "🔧": 1213,
      "🔩": 1214,
      "🔬": 1215,
      "🔭": 1216,
      "🔰": 1217,
      "🔲": 1218,
      "🔴": 1219,
      "🔺": 1220,
      "🕉": 1221,
      "🕊": 1222,
      "🕚": 1223,
      "🕛": 1224,
      "🕜": 1225,
      "🕥": 1226,
      "🕯": 1227,
      "🕰": 1228,
      "🕳": 1229,
      "🕴": 1230,
      "🕵": 1231,
      "🕶": 1232,
      "🕷": 1233,
      "🕸": 1234,
      "🕹": 1235,
      "🕺": 1236,
      "🖇": 1237,
      "🖊": 1238,
      "🖋": 1239,
      "🖌": 1240,
      "🖍": 1241,
      "🖐": 1242,
      "🖕": 1243,
      "🖖": 1244,
      "🖤": 1245,
      "🖥": 1246,
      "🖨": 1247,
      "🖱": 1248,
      "🖲": 1249,
      "🖼": 1250,
      "🗂": 1251,
      "🗃": 1252,
      "🗄": 1253,
      "🗑": 1254,
      "🗒": 1255,
      "🗓": 1256,
      "🗜": 1257,
      "🗝": 1258,
      "🗞": 1259,
      "🗡": 1260,
      "🗣": 1261,
      "🗨": 1262,
      "🗯": 1263,
      "🗳": 1264,
      "🗺": 1265,
      "🗻": 1266,
      "🗿": 1267,
      "😀": 1268,
      "😁": 1269,
      "😂": 1270,
      "😃": 1271,
      "😄": 1272,
      "😅": 1273,
      "😆": 1274,
      "😇": 1275,
      "😈": 1276,
      "😉": 1277,
      "😊": 1278,
      "😋": 1279,
      "😌": 1280,
      "😍": 1281,
      "😎": 1282,
      "😏": 1283,
      "😐": 1284,
      "😑": 1285,
      "😒": 1286,
      "😔": 1287,
      "😕": 1288,
      "😘": 1289,
      "😙": 1290,
      "😛": 1291,
      "😜": 1292,
      "😝": 1293,
      "😞": 1294,
      "😟": 1295,
      "😡": 1296,
      "😢": 1297,
      "😣": 1298,
      "😥": 1299,
      "😦": 1300,
      "😩": 1301,
      "😪": 1302,
      "😫": 1303,
      "😬": 1304,
      "😭": 1305,
      "😮": 1306,
      "😯": 1307,
      "😱": 1308,
      "😲": 1309,
      "😳": 1310,
      "😴": 1311,
      "😵": 1312,
      "😶": 1313,
      "😹": 1314,
      "😻": 1315,
      "🙀": 1316,
      "🙁": 1317,
      "🙂": 1318,
      "🙄": 1319,
      "🙅": 1320,
      "🙆": 1321,
      "🙇": 1322,
      "🙈": 1323,
      "🙊": 1324,
      "🙋": 1325,
      "🙌": 1326,
      "🙍": 1327,
      "🙎": 1328,
      "🙏": 1329,
      "🚀": 1330,
      "🚂": 1331,
      "🚆": 1332,
      "🚈": 1333,
      "🚋": 1334,
      "🚌": 1335,
      "🚏": 1336,
      "🚑": 1337,
      "🚒": 1338,
      "🚕": 1339,
      "🚙": 1340,
      "🚛": 1341,
      "🚜": 1342,
      "🚣": 1343,
      "🚥": 1344,
      "🚦": 1345,
      "🚲": 1346,
      "🚴": 1347,
      "🚵": 1348,
      "🚶": 1349,
      "🚸": 1350,
      "🚽": 1351,
      "🚾": 1352,
      "🛀": 1353,
      "🛁": 1354,
      "🛂": 1355,
      "🛄": 1356,
      "🛅": 1357,
      "🛋": 1358,
      "🛌": 1359,
      "🛍": 1360,
      "🛎": 1361,
      "🛏": 1362,
      "🛒": 1363,
      "🛠": 1364,
      "🛡": 1365,
      "🛢": 1366,
      "🛣": 1367,
      "🛤": 1368,
      "🛥": 1369,
      "🛩": 1370,
      "🛰": 1371,
      "🛳": 1372,
      "🟢": 1373,
      "🟥": 1374,
      "🟨": 1375,
      "🤌": 1376,
      "🤏": 1377,
      "🤒": 1378,
      "🤓": 1379,
      "🤔": 1380,
      "🤕": 1381,
      "🤗": 1382,
      "🤘": 1383,
      "🤙": 1384,
      "🤚": 1385,
      "🤛": 1386,
      "🤜": 1387,
      "🤝": 1388,
      "🤞": 1389,
      "🤟": 1390,
      "🤠": 1391,
      "🤡": 1392,
      "🤢": 1393,
      "🤣": 1394,
      "🤦": 1395,
      "🤩": 1396,
      "🤪": 1397,
      "🤰": 1398,
      "🤱": 1399,
      "🤲": 1400,
      "🤳": 1401,
      "🤴": 1402,
      "🤵": 1403,
      "🤶": 1404,
      "🤷": 1405,
      "🤸": 1406,
      "🤹": 1407,
      "🤺": 1408,
      "🤼": 1409,
      "🤽": 1410,
      "🤾": 1411,
      "🥂": 1412,
      "🥃": 1413,
      "🥇": 1414,
      "🥈": 1415,
      "🥯": 1416,
      "🥰": 1417,
      "🥷": 1418,
      "🥸": 1419,
      "🦀": 1420,
      "🦄": 1421,
      "🦆": 1422,
      "🦇": 1423,
      "🦈": 1424,
      "🦋": 1425,
      "🦌": 1426,
      "🦎": 1427,
      "🦑": 1428,
      "🦕": 1429,
      "🦖": 1430,
      "🦙": 1431,
      "🦛": 1432,
      "🦜": 1433,
      "🦥": 1434,
      "🦩": 1435,
      "🦭": 1436,
      "🦯": 1437,
      "🦰": 1438,
      "🦱": 1439,
      "🦲": 1440,
      "🦳": 1441,
      "🦵": 1442,
      "🦶": 1443,
      "🦸": 1444,
      "🦹": 1445,
      "🦺": 1446,
      "🦻": 1447,
      "🦼": 1448,
      "🦽": 1449,
      "🦿": 1450,
      "🧀": 1451,
      "🧅": 1452,
      "🧊": 1453,
      "🧍": 1454,
      "🧎": 1455,
      "🧏": 1456,
      "🧑": 1457,
      "🧒": 1458,
      "🧓": 1459,
      "🧔": 1460,
      "🧕": 1461,
      "🧖": 1462,
      "🧗": 1463,
      "🧘": 1464,
      "🧙": 1465,
      "🧚": 1466,
      "🧛": 1467,
      "🧜": 1468,
      "🧝": 1469,
      "🧞": 1470,
      "🧟": 1471,
      "🧡": 1472,
      "🧤": 1473,
      "🧦": 1474,
      "🧶": 1475,
      "🧷": 1476,
      "🧻": 1477,
      "🧼": 1478,
      "🧽": 1479,
      "🧿": 1480,
      "🩸": 1481,
      "🩹": 1482,
      "🪁": 1483,
      "🪂": 1484,
      "🪄": 1485,
      "🪑": 1486,
      "🪓": 1487,
      "🪕": 1488,
      "🪜": 1489,
      "🪝": 1490,
      "🪞": 1491,
      "🪟": 1492,
      "🪤": 1493,
      "🪧": 1494,
      "🪨": 1495,
      "🪲": 1496,
      "🫁": 1497,
      "🫕": 1498,
      "󠁢": 1499,
      "󠁣": 1500,
      "󠁧": 1501,
      "󠁮": 1502,
      "󠁳": 1503,
      "󠁿": 1504,
      "##r": 1505,
      "##v": 1506,
      "##i": 1507,
      "##n": 1508,
      "##g": 1509,
      "##a": 1510,
      "##y": 1511,
      "##l": 1512,
      "##k": 1513,
      "##e": 1514,
      "##s": 1515,
      "##p": 1516,
      "##o": 1517,
      "##j": 1518,
      "##t": 1519,
      "##u": 1520,
      "##ø": 1521,
      "##d": 1522,
      "##æ": 1523,
      "##m": 1524,
      "##1": 1525,
      "##7": 1526,
      "##h": 1527,
      "##b": 1528,
      "##z": 1529,
      "##c": 1530,
      "##å": 1531,
      "##A": 1532,
      "##M": 1533,
      "##H": 1534,
      "##N": 1535,
      "##C": 1536,
      "##O": 1537,
      "##L": 1538,
      "##S": 1539,
      "##f": 1540,
      "##x": 1541,
      "##ö": 1542,
      "##D": 1543,
      "##U": 1544,
      "##ä": 1545,
      "##0": 1546,
      "##3": 1547,
      "##w": 1548,
      "##í": 1549,
      "##8": 1550,
      "##ß": 1551,
      "##о": 1552,
      "##л": 1553,
      "##е": 1554,
      "##т": 1555,
      "##а": 1556,
      "##F": 1557,
      "##家": 1558,
      "##č": 1559,
      "##ô": 1560,
      "##q": 1561,
      "##W": 1562,
      "##4": 1563,
      "##T": 1564,
      "##B": 1565,
      "##I": 1566,
      "##G": 1567,
      "##德": 1568,
      "##十": 1569,
      "##行": 1570,
      "##ā": 1571,
      "##R": 1572,
      "##K": 1573,
      "##J": 1574,
      "##E": 1575,
      "##2": 1576,
      "##X": 1577,
      "##_": 1578,
      "##é": 1579,
      "##ó": 1580,
      "##6": 1581,
      "##ī": 1582,
      "##.": 1583,
      "##á": 1584,
      "##5": 1585,
      "##V": 1586,
      "##🇦": 1587,
      "##х": 1588,
      "##́": 1589,
      "##д": 1590,
      "##н": 1591,
      "##і": 1592,
      "##Y": 1593,
      "##P": 1594,
      "##ḥ": 1595,
      "##9": 1596,
      "##у": 1597,
      "##б": 1598,
      "##и": 1599,
      "##ш": 1600,
      "##й": 1601,
      "##ë": 1602,
      "##ð": 1603,
      "##ü": 1604,
      "##族": 1605,
      "##乡": 1606,
      "##â": 1607,
      "##*": 1608,
      "##š": 1609,
      "##ē": 1610,
      "##Ö": 1611,
      "##ل": 1612,
      "##è": 1613,
      "##Ä": 1614,
      "##с": 1615,
      "##я": 1616,
      "##Å": 1617,
      "##ū": 1618,
      "##ن": 1619,
      "##ا": 1620,
      "##ه": 1621,
      "##к": 1622,
      "##ж": 1623,
      "##ц": 1624,
      "##Р": 1625,
      "##К": 1626,
      "##,": 1627,
      "##海": 1628,
      "##ب": 1629,
      "##ء": 1630,
      "##🏽": 1631,
      "##!": 1632,
      "##ე": 1633,
      "##ნ": 1634,
      "##ა": 1635,
      "##ს": 1636,
      "##ი": 1637,
      "##в": 1638,
      "##ы": 1639,
      "##Q": 1640,
      "##ı": 1641,
      "##🏾": 1642,
      "##水": 1643,
      "##ç": 1644,
      "##ž": 1645,
      "##(": 1646,
      "##^": 1647,
      "##Ø": 1648,
      "##ی": 1649,
      "##م": 1650,
      "##р": 1651,
      "##ế": 1652,
      "##ש": 1653,
      "##פ": 1654,
      "##ל": 1655,
      "##ה": 1656,
      "##ğ": 1657,
      "##м": 1658,
      "##の": 1659,
      "##ã": 1660,
      "##­": 1661,
      "##?": 1662,
      "##)": 1663,
      "##õ": 1664,
      "##ַ": 1665,
      "##ע": 1666,
      "##ְ": 1667,
      "##י": 1668,
      "##ן": 1669,
      "##子": 1670,
      "##ō": 1671,
      "##φ": 1672,
      "##à": 1673,
      "##ṃ": 1674,
      "##ә": 1675,
      "##ú": 1676,
      "##ό": 1677,
      "##ρ": 1678,
      "##ν": 1679,
      "##ο": 1680,
      "##ς": 1681,
      "##ъ": 1682,
      "##ч": 1683,
      "##'": 1684,
      "##«": 1685,
      "##ŏ": 1686,
      "##ε": 1687,
      "##τ": 1688,
      "##ù": 1689,
      "##ح": 1690,
      "##و": 1691,
      "##ي": 1692,
      "##ت": 1693,
      "##ə": 1694,
      "##ʊ": 1695,
      "##َ": 1696,
      "##ă": 1697,
      "##ț": 1698,
      "##☺": 1699,
      "##λ": 1700,
      "##ά": 1701,
      "##ι": 1702,
      "##ː": 1703,
      "##ь": 1704,
      "##ṭ": 1705,
      "##ş": 1706,
      "##œ": 1707,
      "##ś": 1708,
      "##κ": 1709,
      "##μ": 1710,
      "##α": 1711,
      "##ί": 1712,
      "##ω": 1713,
      "##ţ": 1714,
      "##º": 1715,
      "##з": 1716,
      "##ф": 1717,
      "##п": 1718,
      "##ю": 1719,
      "##щ": 1720,
      "##ė": 1721,
      "##镇": 1722,
      "##}": 1723,
      "##\\": 1724,
      "##Ā": 1725,
      "##リ": 1726,
      "##ー": 1727,
      "##ɔ": 1728,
      "##ɛ": 1729,
      "##ر": 1730,
      "##گ": 1731,
      "##Z": 1732,
      "##/": 1733,
      "##Æ": 1734,
      "##î": 1735,
      "##{": 1736,
      "##国": 1737,
      "##ņ": 1738,
      "##ָ": 1739,
      "##ֵ": 1740,
      "##מ": 1741,
      "##ֶ": 1742,
      "##ק": 1743,
      "##ḏ": 1744,
      "##ł": 1745,
      "##ń": 1746,
      "##ン": 1747,
      "##ル": 1748,
      "##文": 1749,
      "##ę": 1750,
      "##ス": 1751,
      "##ʃ": 1752,
      "##:": 1753,
      "##;": 1754,
      "##-": 1755,
      "##ו": 1756,
      "##ֹ": 1757,
      "##נ": 1758,
      "##غ": 1759,
      "##ُ": 1760,
      "##ّ": 1761,
      "##]": 1762,
      "##û": 1763,
      "##Á": 1764,
      "##ف": 1765,
      "##ك": 1766,
      "##ْ": 1767,
      "##ِ": 1768,
      "##ج": 1769,
      "##ŭ": 1770,
      "##ć": 1771,
      "##г": 1772,
      "##ύ": 1773,
      "##σ": 1774,
      "##η": 1775,
      "##ق": 1776,
      "##ˈ": 1777,
      "##β": 1778,
      "##音": 1779,
      "##ח": 1780,
      "##ֲ": 1781,
      "##ד": 1782,
      "##ׁ": 1783,
      "##ع": 1784,
      "##’": 1785,
      "##😍": 1786,
      "##🍇": 1787,
      "##ɐ": 1788,
      "##ɾ": 1789,
      "##ɑ": 1790,
      "##ɡ": 1791,
      "##ì": 1792,
      "##ش": 1793,
      "##ک": 1794,
      "##د": 1795,
      "##%": 1796,
      "##\"": 1797,
      "##ĩ": 1798,
      "##–": 1799,
      "##ș": 1800,
      "##ת": 1801,
      "##¨": 1802,
      "##ź": 1803,
      "##¿": 1804,
      "##ร": 1805,
      "##ง": 1806,
      "##ï": 1807,
      "##ז": 1808,
      "##ּ": 1809,
      "##ם": 1810,
      "##ò": 1811,
      "##س": 1812,
      "##&": 1813,
      "##э": 1814,
      "##京": 1815,
      "##ր": 1816,
      "##մ": 1817,
      "##=": 1818,
      "##金": 1819,
      "##ñ": 1820,
      "##🏼": 1821,
      "##ý": 1822,
      "##ǫ": 1823,
      "##西": 1824,
      "##ロ": 1825,
      "##山": 1826,
      "##♦": 1827,
      "##π": 1828,
      "##δ": 1829,
      "##υ": 1830,
      "##đ": 1831,
      "##ą": 1832,
      "##拉": 1833,
      "##ả": 1834,
      "##🏻": 1835,
      "##❤": 1836,
      "##چ": 1837,
      "##ǎ": 1838,
      "##ώ": 1839,
      "##县": 1840,
      "##ấ": 1841,
      "##ग": 1842,
      "##व": 1843,
      "##द": 1844,
      "##्": 1845,
      "##ी": 1846,
      "##त": 1847,
      "##ा": 1848,
      "##🇴": 1849,
      "##ê": 1850,
      "##ợ": 1851,
      "##े": 1852,
      "##ة": 1853,
      "##ő": 1854,
      "##ེ": 1855,
      "##ར": 1856,
      "##ů": 1857,
      "##כ": 1858,
      "##ִ": 1859,
      "##ר": 1860,
      "##街": 1861,
      "##道": 1862,
      "##♥": 1863,
      "##ט": 1864,
      "##ξ": 1865,
      "##城": 1866,
      "##大": 1867,
      "##̧": 1868,
      "##γ": 1869,
      "##ě": 1870,
      "##里": 1871,
      "##Í": 1872,
      "##ÿ": 1873,
      "##巴": 1874,
      "##王": 1875,
      "##ز": 1876,
      "##ב": 1877,
      "##人": 1878,
      "##🇨": 1879,
      "##ż": 1880,
      "##ř": 1881,
      "##ή": 1882,
      "##…": 1883,
      "##É": 1884,
      "##έ": 1885,
      "##ộ": 1886,
      "##江": 1887,
      "##Д": 1888,
      "##В": 1889,
      "##θ": 1890,
      "##א": 1891,
      "##Ф": 1892,
      "##О": 1893,
      "##🇵": 1894,
      "##χ": 1895,
      "##ạ": 1896,
      "##ṣ": 1897,
      "##동": 1898,
      "##ụ": 1899,
      "##أ": 1900,
      "##ζ": 1901,
      "##+": 1902,
      "##>": 1903,
      "##ǔ": 1904,
      "##|": 1905,
      "##þ": 1906,
      "##ј": 1907,
      "##И": 1908,
      "##Л": 1909,
      "##Я": 1910,
      "##Н": 1911,
      "##կ": 1912,
      "##ս": 1913,
      "##ե": 1914,
      "##լ": 1915,
      "##Ç": 1916,
      "##Ã": 1917,
      "##צ": 1918,
      "##阳": 1919,
      "##区": 1920,
      "##ǐ": 1921,
      "##公": 1922,
      "##ང": 1923,
      "##河": 1924,
      "##林": 1925,
      "##会": 1926,
      "##प": 1927,
      "##ल": 1928,
      "##ص": 1929,
      "##ض": 1930,
      "##[": 1931,
      "##⋅": 1932,
      "##М": 1933,
      "##म": 1934,
      "##ų": 1935,
      "##ư": 1936,
      "##ờ": 1937,
      "##Σ": 1938,
      "##Ι": 1939,
      "##Μ": 1940,
      "##Α": 1941,
      "##Χ": 1942,
      "##Ο": 1943,
      "##Ш": 1944,
      "##ṟ": 1945,
      "##日": 1946,
      "##ि": 1947,
      "##य": 1948,
      "##்": 1949,
      "##→": 1950,
      "##‎": 1951,
      "##տ": 1952,
      "##ա": 1953,
      "##ո": 1954,
      "##年": 1955,
      "##£": 1956,
      "###": 1957,
      "##ド": 1958,
      "##ბ": 1959,
      "##ო": 1960,
      "##明": 1961,
      "##Δ": 1962,
      "##Ε": 1963,
      "##Λ": 1964,
      "##Φ": 1965,
      "##Ω": 1966,
      "##Ν": 1967,
      "##յ": 1968,
      "##ն": 1969,
      "##Ó": 1970,
      "##ơ": 1971,
      "##»": 1972,
      "##安": 1973,
      "##न": 1974,
      "##ọ": 1975,
      "##桥": 1976,
      "##ļ": 1977,
      "##र": 1978,
      "##ज": 1979,
      "##🏿": 1980,
      "##خ": 1981,
      "##ى": 1982,
      "##´": 1983,
      "##ლ": 1984,
      "##ܝ": 1985,
      "##ܐ": 1986,
      "##¡": 1987,
      "##ё": 1988,
      "##ط": 1989,
      "##@": 1990,
      "##🇬": 1991,
      "##ラ": 1992,
      "##苏": 1993,
      "##ా": 1994,
      "##ర": 1995,
      "##్": 1996,
      "##‌": 1997,
      "##ల": 1998,
      "##న": 1999,
      "##ु": 2000,
      "##新": 2001,
      "##市": 2002,
      "##ŋ": 2003,
      "##ի": 2004,
      "##ḩ": 2005,
      "##♪": 2006,
      "##ह": 2007,
      "##ḑ": 2008,
      "##ئ": 2009,
      "##ث": 2010,
      "##ậ": 2011,
      "##~": 2012,
      "##た": 2013,
      "##ג": 2014,
      "##ོ": 2015,
      "##ག": 2016,
      "##া": 2017,
      "##ĭ": 2018,
      "##क": 2019,
      "##ो": 2020,
      "##ň": 2021,
      "##ʒ": 2022,
      "##̀": 2023,
      "##─": 2024,
      "##心": 2025,
      "##白": 2026,
      "##ं": 2027,
      "##$": 2028,
      "##地": 2029,
      "##木": 2030,
      "##្": 2031,
      "##平": 2032,
      "##Ú": 2033,
      "##库": 2034,
      "##國": 2035,
      "##ἀ": 2036,
      "##إ": 2037,
      "##中": 2038,
      "##一": 2039,
      "##ッ": 2040,
      "##ト": 2041,
      "##ố": 2042,
      "##ظ": 2043,
      "##Œ": 2044,
      "##ɲ": 2045,
      "##州": 2046,
      "##İ": 2047,
      "##​": 2048,
      "##¹": 2049,
      "##Þ": 2050,
      "##ʻ": 2051,
      "##高": 2052,
      "##З": 2053,
      "##П": 2054,
      "##У": 2055,
      "##Ա": 2056,
      "##Հ": 2057,
      "##北": 2058,
      "##ి": 2059,
      "##ʿ": 2060,
      "##³": 2061,
      "##ం": 2062,
      "##ན": 2063,
      "##Х": 2064,
      "##🇪": 2065,
      "##本": 2066,
      "##ʉ": 2067,
      "##ề": 2068,
      "##ị": 2069,
      "##°": 2070,
      "##ア": 2071,
      "##•": 2072,
      "##`": 2073,
      "##田": 2074,
      "##რ": 2075,
      "##È": 2076,
      "##ク": 2077,
      "##ٔ": 2078,
      "##ɪ": 2079,
      "##̯": 2080,
      "##—": 2081,
      "##經": 2082,
      "##Ž": 2083,
      "##§": 2084,
      "##⛳": 2085,
      "##ї": 2086,
      "##尔": 2087,
      "##👍": 2088,
      "##🎉": 2089,
      "##∞": 2090,
      "##宝": 2091,
      "##ť": 2092,
      "##Š": 2093,
      "##东": 2094,
      "##ు": 2095,
      "##ḍ": 2096,
      "##स": 2097,
      "##ւ": 2098,
      "##イ": 2099,
      "##😉": 2100,
      "##Π": 2101,
      "##Γ": 2102,
      "##ứ": 2103,
      "##А": 2104,
      "##Б": 2105,
      "##南": 2106,
      "##դ": 2107,
      "##À": 2108,
      "##石": 2109,
      "##½": 2110,
      "##·": 2111,
      "##ủ": 2112,
      "##€": 2113,
      "##♠": 2114,
      "##Θ": 2115,
      "##Η": 2116,
      "##ầ": 2117,
      "##ʰ": 2118,
      "##վ": 2119,
      "##թ": 2120,
      "##“": 2121,
      "##”": 2122,
      "##🇹": 2123,
      "##ľ": 2124,
      "##ớ": 2125,
      "##্": 2126,
      "##հ": 2127,
      "##±": 2128,
      "##−": 2129,
      "##ψ": 2130,
      "##Г": 2131,
      "##ס": 2132,
      "##ジ": 2133,
      "##ṇ": 2134,
      "##ự": 2135,
      "##八": 2136,
      "##Â": 2137,
      "##র": 2138,
      "##武": 2139,
      "##Ī": 2140,
      "##ʾ": 2141,
      "##С": 2142,
      "##Е": 2143,
      "##天": 2144,
      "##🇩": 2145,
      "##ỉ": 2146,
      "##ब": 2147,
      "##🤗": 2148,
      "##≈": 2149,
      "##µ": 2150,
      "##×": 2151,
      "##マ": 2152,
      "##ิ": 2153,
      "##ม": 2154,
      "##Ô": 2155,
      "##ব": 2156,
      "##า": 2157,
      "##น": 2158,
      "##い": 2159,
      "##ệ": 2160,
      "##ổ": 2161,
      "##💖": 2162,
      "##🇫": 2163,
      "##🇻": 2164,
      "##آ": 2165,
      "##پ": 2166,
      "##<": 2167,
      "##เ": 2168,
      "##《": 2169,
      "##ở": 2170,
      "##😊": 2171,
      "##タ": 2172,
      "##Κ": 2173,
      "##¤": 2174,
      "##🎅": 2175,
      "##上": 2176,
      "##Ś": 2177,
      "##三": 2178,
      "##←": 2179,
      "##Т": 2180,
      "##↑": 2181,
      "##ས": 2182,
      "##ย": 2183,
      "##̲": 2184,
      "##🇱": 2185,
      "##མ": 2186,
      "##ི": 2187,
      "##阿": 2188,
      "##ễ": 2189,
      "##Ü": 2190,
      "##😋": 2191,
      "##Β": 2192,
      "##Τ": 2193,
      "##Ч": 2194,
      "##": 2195,
      "##ẕ": 2196,
      "##¯": 2197,
      "##自": 2198,
      "##治": 2199,
      "##ể": 2200,
      "##Э": 2201,
      "##🇺": 2202,
      "##‐": 2203,
      "##🇷": 2204,
      "##长": 2205,
      "##ħ": 2206,
      "##🤘": 2207,
      "##🖤": 2208,
      "##💀": 2209,
      "##∫": 2210,
      "##›": 2211,
      "##ồ": 2212,
      "##👌": 2213,
      "##ṯ": 2214,
      "##🙁": 2215,
      "##®": 2216,
      "##・": 2217,
      "##🇰": 2218,
      "##�": 2219,
      "##👏": 2220,
      "##̄": 2221,
      "##👶": 2222,
      "##²": 2223,
      "##∇": 2224,
      "##🇸": 2225,
      "##🍀": 2226,
      "##བ": 2227,
      "##🇲": 2228,
      "##█": 2229,
      "##🌸": 2230,
      "##©": 2231,
      "##😂": 2232,
      "##Ж": 2233,
      "##😀": 2234,
      "##😈": 2235,
      "##⟩": 2236,
      "##★": 2237,
      "##🎶": 2238,
      "##†": 2239,
      "##भ": 2240,
      "##™": 2241,
      "##👋": 2242,
      "##‍": 2243,
      "##️": 2244,
      "##Ḥ": 2245,
      "##🇼": 2246,
      "##ỹ": 2247,
      "##Ю": 2248,
      "##🔍": 2249,
      "##🇯": 2250,
      "##Č": 2251,
      "##🤒": 2252,
      "##😘": 2253,
      "##🎄": 2254,
      "##🇿": 2255,
      "##Ц": 2256,
      "##🇾": 2257,
      "##अ": 2258,
      "##●": 2259,
      "##🇮": 2260,
      "##😁": 2261,
      "##💫": 2262,
      "##🙀": 2263,
      "##◀": 2264,
      "##♭": 2265,
      "##Đ": 2266,
      "##🇭": 2267,
      "##🐰": 2268,
      "##⭕": 2269,
      "##ữ": 2270,
      "##ད": 2271,
      "##ẩ": 2272,
      "##Ş": 2273,
      "##▪": 2274,
      "##‑": 2275,
      "##♀": 2276,
      "##✨": 2277,
      "##🇳": 2278,
      "##ϕ": 2279,
      "##′": 2280,
      "##🍂": 2281,
      "##པ": 2282,
      "##♣": 2283,
      "##Î": 2284,
      "##😃": 2285,
      "##🙏": 2286,
      "##😄": 2287,
      "##¸": 2288,
      "##😎": 2289,
      "##🙂": 2290,
      "##Ł": 2291,
      "##🙈": 2292,
      "##Ò": 2293,
      "##陈": 2294,
      "##👪": 2295,
      "##💕": 2296,
      "##💙": 2297,
      "##🏃": 2298,
      "##🇶": 2299,
      "##🇧": 2300,
      "##″": 2301,
      "##✔": 2302,
      "##ˇ": 2303,
      "##🙌": 2304,
      "##⛄": 2305,
      "##Ș": 2306,
      "##🇽": 2307,
      "##🌟": 2308,
      "##■": 2309,
      "##✅": 2310,
      "##🍉": 2311,
      "##🍐": 2312,
      "##🍌": 2313,
      "##🍊": 2314,
      "##💗": 2315,
      "##་": 2316,
      "##≥": 2317,
      "##≤": 2318,
      "##😳": 2319,
      "##󠁧": 2320,
      "##󠁢": 2321,
      "##󠁮": 2322,
      "##󠁿": 2323,
      "##🌴": 2324,
      "##😌": 2325,
      "##🔎": 2326,
      "##❣": 2327,
      "##💋": 2328,
      "##💨": 2329,
      "##🎈": 2330,
      "##》": 2331,
      "##💆": 2332,
      "##💃": 2333,
      "##🤞": 2334,
      "##¥": 2335,
      "##∂": 2336,
      "##🦄": 2337,
      "##Ż": 2338,
      "##🙋": 2339,
      "##💪": 2340,
      "##🥂": 2341,
      "##☀": 2342,
      "##↔": 2343,
      "##Ō": 2344,
      "##󠁳": 2345,
      "##🤪": 2346,
      "##📚": 2347,
      "##🎊": 2348,
      "##🦈": 2349,
      "##Ə": 2350,
      "##🌕": 2351,
      "##✓": 2352,
      "##✊": 2353,
      "##∑": 2354,
      "##💍": 2355,
      "##🔝": 2356,
      "##🍾": 2357,
      "##🤣": 2358,
      "##⭐": 2359,
      "##💓": 2360,
      "##😞": 2361,
      "##🧀": 2362,
      "##🍷": 2363,
      "##🌞": 2364,
      "##Ţ": 2365,
      "##🌺": 2366,
      "##😻": 2367,
      "##😱": 2368,
      "##⚽": 2369,
      "##💛": 2370,
      "##👊": 2371,
      "##😢": 2372,
      "##►": 2373,
      "##✝": 2374,
      "##✌": 2375,
      "##⏏": 2376,
      "##☕": 2377,
      "##❄": 2378,
      "##🙄": 2379,
      "##🤚": 2380,
      "##😛": 2381,
      "##🗨": 2382,
      "##♂": 2383,
      "##¼": 2384,
      "##✂": 2385,
      "##◄": 2386,
      "##💚": 2387,
      "##🕺": 2388,
      "##🐈": 2389,
      "##󠁣": 2390,
      "##🚌": 2391,
      "##🎥": 2392,
      "##⃣": 2393,
      "##😆": 2394,
      "##er": 2395,
      "##en": 2396,
      "##an": 2397,
      "##ar": 2398,
      "##et": 2399,
      "##in": 2400,
      "##or": 2401,
      "##st": 2402,
      "##il": 2403,
      "##el": 2404,
      "##ed": 2405,
      "##om": 2406,
      "##on": 2407,
      "##sk": 2408,
      "##al": 2409,
      "og": 2410,
      "##at": 2411,
      "##ig": 2412,
      "##de": 2413,
      "''": 2414,
      "##le": 2415,
      "##re": 2416,
      "##ing": 2417,
      "##nd": 2418,
      "##ra": 2419,
      "##tt": 2420,
      "##es": 2421,
      "##ik": 2422,
      "en": 2423,
      "til": 2424,
      "##am": 2425,
      "##ol": 2426,
      "for": 2427,
      "##te": 2428,
      "som": 2429,
      "av": 2430,
      "på": 2431,
      "##is": 2432,
      "##ch": 2433,
      "##id": 2434,
      "19": 2435,
      "##ag": 2436,
      "##it": 2437,
      "er": 2438,
      "##and": 2439,
      "med": 2440,
      "##un": 2441,
      "##ter": 2442,
      "st": 2443,
      "##ver": 2444,
      "##as": 2445,
      "##ne": 2446,
      "##kt": 2447,
      "##eg": 2448,
      "in": 2449,
      "##ad": 2450,
      "den": 2451,
      "var": 2452,
      "det": 2453,
      "##us": 2454,
      "##ro": 2455,
      "20": 2456,
      "##ist": 2457,
      "##pp": 2458,
      "##ør": 2459,
      "##ur": 2460,
      "##ler": 2461,
      "och": 2462,
      "'''": 2463,
      "de": 2464,
      "##isk": 2465,
      "##ör": 2466,
      "##kk": 2467,
      "##ul": 2468,
      "sk": 2469,
      "##em": 2470,
      "om": 2471,
      "at": 2472,
      "##iv": 2473,
      "##ning": 2474,
      "##og": 2475,
      "##ru": 2476,
      "##rå": 2477,
      "##av": 2478,
      "##ent": 2479,
      "är": 2480,
      "af": 2481,
      "##est": 2482,
      "##ion": 2483,
      "##år": 2484,
      "##se": 2485,
      "har": 2486,
      "##lig": 2487,
      "##ng": 2488,
      "##ens": 2489,
      "##ic": 2490,
      "##ang": 2491,
      "##od": 2492,
      "##ot": 2493,
      "han": 2494,
      "##nder": 2495,
      "##ir": 2496,
      "##ia": 2497,
      "##art": 2498,
      "ut": 2499,
      "##ber": 2500,
      "ble": 2501,
      "##ak": 2502,
      "##der": 2503,
      "##ær": 2504,
      "##um": 2505,
      "##ri": 2506,
      "##na": 2507,
      "##ste": 2508,
      "##je": 2509,
      "##ok": 2510,
      "##sen": 2511,
      "##ord": 2512,
      "##la": 2513,
      "18": 2514,
      "##ck": 2515,
      "der": 2516,
      "##omm": 2517,
      "##os": 2518,
      "för": 2519,
      "fra": 2520,
      "##ud": 2521,
      "##ere": 2522,
      "##är": 2523,
      "201": 2524,
      "frå": 2525,
      "al": 2526,
      "##ade": 2527,
      "##ene": 2528,
      "200": 2529,
      "##ns": 2530,
      "sp": 2531,
      "##ov": 2532,
      "##''": 2533,
      "##are": 2534,
      "sam": 2535,
      "bl": 2536,
      "Den": 2537,
      "Det": 2538,
      "##ut": 2539,
      "##im": 2540,
      "##ger": 2541,
      "St": 2542,
      "of": 2543,
      "##ell": 2544,
      "##if": 2545,
      "##ansk": 2546,
      "##jen": 2547,
      "under": 2548,
      "##he": 2549,
      "et": 2550,
      "##itt": 2551,
      "##ap": 2552,
      "men": 2553,
      "el": 2554,
      "##ort": 2555,
      "##sp": 2556,
      "ar": 2557,
      "sl": 2558,
      "##jon": 2559,
      "ikk": 2560,
      "##yg": 2561,
      "##ede": 2562,
      "##yr": 2563,
      "att": 2564,
      "##ge": 2565,
      "##ende": 2566,
      "##ill": 2567,
      "kan": 2568,
      "be": 2569,
      "##ett": 2570,
      "##land": 2571,
      "ein": 2572,
      "##ks": 2573,
      "an": 2574,
      "##ikk": 2575,
      "##ab": 2576,
      "år": 2577,
      "till": 2578,
      "##mer": 2579,
      "##for": 2580,
      "del": 2581,
      "##ser": 2582,
      "##op": 2583,
      "ett": 2584,
      "##eter": 2585,
      "##all": 2586,
      "##att": 2587,
      "##ant": 2588,
      "##00": 2589,
      "fin": 2590,
      "##ss": 2591,
      "##ust": 2592,
      "Al": 2593,
      "Han": 2594,
      "##und": 2595,
      "##be": 2596,
      "'''''": 2597,
      "##iske": 2598,
      "eller": 2599,
      "så": 2600,
      "pro": 2601,
      "and": 2602,
      "##del": 2603,
      "ved": 2604,
      "##gen": 2605,
      "##ie": 2606,
      "##ien": 2607,
      "over": 2608,
      "##ation": 2609,
      "blev": 2610,
      "##ann": 2611,
      "kon": 2612,
      "opp": 2613,
      "##ster": 2614,
      "Ar": 2615,
      "må": 2616,
      "##ød": 2617,
      "##ek": 2618,
      "##ug": 2619,
      "##så": 2620,
      ").": 2621,
      "ud": 2622,
      "199": 2623,
      "##ert": 2624,
      "før": 2625,
      "komm": 2626,
      "hv": 2627,
      "##rev": 2628,
      "##ige": 2629,
      "##fter": 2630,
      "##sl": 2631,
      "##ers": 2632,
      "An": 2633,
      "sin": 2634,
      "##ske": 2635,
      "##ande": 2636,
      "##ft": 2637,
      "tid": 2638,
      "##ep": 2639,
      "##jer": 2640,
      "##äl": 2641,
      "##ven": 2642,
      "##ark": 2643,
      "##old": 2644,
      "Ch": 2645,
      "##ane": 2646,
      "op": 2647,
      "ikke": 2648,
      "##ly": 2649,
      "##net": 2650,
      "##red": 2651,
      "##ry": 2652,
      "##amil": 2653,
      "##ve": 2654,
      "ny": 2655,
      "##var": 2656,
      "##ff": 2657,
      "##ner": 2658,
      "##ip": 2659,
      "##ier": 2660,
      "##men": 2661,
      "##den": 2662,
      "##ass": 2663,
      "##ling": 2664,
      "lig": 2665,
      "##ke": 2666,
      "##ast": 2667,
      "du": 2668,
      "sy": 2669,
      "kl": 2670,
      "inn": 2671,
      "##ob": 2672,
      "##rig": 2673,
      "De": 2674,
      "##ub": 2675,
      "##øl": 2676,
      "##leg": 2677,
      "ind": 2678,
      "##sm": 2679,
      "##rik": 2680,
      "land": 2681,
      "##ind": 2682,
      "198": 2683,
      "##eder": 2684,
      "##elt": 2685,
      "##else": 2686,
      "også": 2687,
      "##ran": 2688,
      "17": 2689,
      "hav": 2690,
      "kun": 2691,
      "##yl": 2692,
      "vart": 2693,
      "##ard": 2694,
      "##ue": 2695,
      "##ide": 2696,
      "vil": 2697,
      "##lem": 2698,
      "famil": 2699,
      "##ker": 2700,
      "##ron": 2701,
      "pl": 2702,
      "##går": 2703,
      "##het": 2704,
      "kom": 2705,
      "to": 2706,
      "##ring": 2707,
      "##iver": 2708,
      "##øy": 2709,
      "##eb": 2710,
      "##ac": 2711,
      "sig": 2712,
      "kv": 2713,
      "197": 2714,
      "##end": 2715,
      "##ale": 2716,
      "##ræ": 2717,
      "besk": 2718,
      "reg": 2719,
      "##asjon": 2720,
      "##me": 2721,
      "or": 2722,
      "eit": 2723,
      "##ta": 2724,
      "##rä": 2725,
      "##ktet": 2726,
      "##org": 2727,
      "##ire": 2728,
      "stor": 2729,
      "ver": 2730,
      "##per": 2731,
      "##ma": 2732,
      "efter": 2733,
      "sj": 2734,
      "seg": 2735,
      "se": 2736,
      "##olk": 2737,
      "##lag": 2738,
      "),": 2739,
      "##vis": 2740,
      "man": 2741,
      "nor": 2742,
      "##ian": 2743,
      "finns": 2744,
      "The": 2745,
      "bru": 2746,
      "##skap": 2747,
      "##nes": 2748,
      "dag": 2749,
      "##alt": 2750,
      "vi": 2751,
      "mot": 2752,
      "##rat": 2753,
      "In": 2754,
      "##tem": 2755,
      "196": 2756,
      "re": 2757,
      "etter": 2758,
      "ty": 2759,
      "##nga": 2760,
      "dei": 2761,
      "slä": 2762,
      "##gel": 2763,
      "##igt": 2764,
      "##lige": 2765,
      "##ange": 2766,
      "##ets": 2767,
      "##eld": 2768,
      "##io": 2769,
      "ingår": 2770,
      "gen": 2771,
      "##aden": 2772,
      "##rist": 2773,
      "##ay": 2774,
      "##ikt": 2775,
      "##oh": 2776,
      "##ære": 2777,
      "##ost": 2778,
      "ikkje": 2779,
      "##vä": 2780,
      "##ib": 2781,
      "##ess": 2782,
      "##ål": 2783,
      "##ine": 2784,
      "##rit": 2785,
      "familjen": 2786,
      "beskrev": 2787,
      "##rem": 2788,
      "##ive": 2789,
      "##res": 2790,
      "16": 2791,
      "km": 2792,
      "byg": 2793,
      "list": 2794,
      "by": 2795,
      "##sb": 2796,
      "kommun": 2797,
      "##det": 2798,
      "##arter": 2799,
      "##anske": 2800,
      "##run": 2801,
      "##kl": 2802,
      "vid": 2803,
      "10": 2804,
      "15": 2805,
      "släktet": 2806,
      "##ong": 2807,
      "gj": 2808,
      "##des": 2809,
      "##ock": 2810,
      "##ans": 2811,
      "##unt": 2812,
      "beskrevs": 2813,
      "##ember": 2814,
      "##tal": 2815,
      "andre": 2816,
      "Nor": 2817,
      "##ren": 2818,
      "##iser": 2819,
      "##tter": 2820,
      "##ult": 2821,
      "##ater": 2822,
      "ligger": 2823,
      "##än": 2824,
      "En": 2825,
      "##ten": 2826,
      "For": 2827,
      "min": 2828,
      "##yn": 2829,
      "hj": 2830,
      "få": 2831,
      "##atal": 2832,
      "##ife": 2833,
      "##pe": 2834,
      "##atur": 2835,
      "kj": 2836,
      "Sk": 2837,
      "hvor": 2838,
      "##ars": 2839,
      "##uv": 2840,
      "##les": 2841,
      "ma": 2842,
      "ei": 2843,
      "sid": 2844,
      "le": 2845,
      "##ningen": 2846,
      "nord": 2847,
      "##ret": 2848,
      "skal": 2849,
      "##rø": 2850,
      "##elen": 2851,
      "194": 2852,
      "##ph": 2853,
      "første": 2854,
      "best": 2855,
      "##vå": 2856,
      "Life": 2857,
      "Inga": 2858,
      "##olog": 2859,
      "the": 2860,
      "##sta": 2861,
      "underarter": 2862,
      "Ber": 2863,
      "listade": 2864,
      "##ow": 2865,
      "upp": 2866,
      "mod": 2867,
      "##adde": 2868,
      "##iet": 2869,
      "##get": 2870,
      "##erne": 2871,
      "195": 2872,
      "över": 2873,
      "##ina": 2874,
      "art": 2875,
      "##ald": 2876,
      "no": 2877,
      "##tte": 2878,
      "hadde": 2879,
      "##tid": 2880,
      "##igh": 2881,
      "##istor": 2882,
      "##els": 2883,
      "##atalog": 2884,
      "per": 2885,
      "*(": 2886,
      "##ick": 2887,
      "bet": 2888,
      "##oll": 2889,
      "12": 2890,
      "##olit": 2891,
      "##da": 2892,
      "##amp": 2893,
      "##riv": 2894,
      "##dag": 2895,
      "mell": 2896,
      "##ce": 2897,
      "##ris": 2898,
      "##sh": 2899,
      "gru": 2900,
      "lag": 2901,
      "##ket": 2902,
      "hel": 2903,
      "Catalog": 2904,
      "##pl": 2905,
      "Catalogue": 2906,
      "##kten": 2907,
      "##oc": 2908,
      "##opp": 2909,
      "##iller": 2910,
      "##eng": 2911,
      "ha": 2912,
      "##æl": 2913,
      "##ram": 2914,
      "bar": 2915,
      "##yd": 2916,
      "193": 2917,
      "##ingen": 2918,
      "Mar": 2919,
      "fød": 2920,
      "##öd": 2921,
      "##alen": 2922,
      "##ts": 2923,
      "Am": 2924,
      "##ska": 2925,
      "##itet": 2926,
      "Sp": 2927,
      "##för": 2928,
      "sel": 2929,
      "hans": 2930,
      "##th": 2931,
      "##ite": 2932,
      "11": 2933,
      "end": 2934,
      "##rin": 2935,
      "eg": 2936,
      "tre": 2937,
      "##vik": 2938,
      "fram": 2939,
      "##akt": 2940,
      "då": 2941,
      "meter": 2942,
      "##uvud": 2943,
      "##ae": 2944,
      "inte": 2945,
      "##før": 2946,
      "191": 2947,
      "».": 2948,
      "##anu": 2949,
      "beg": 2950,
      "ber": 2951,
      "från": 2952,
      "14": 2953,
      "##..": 2954,
      "##arl": 2955,
      "##ister": 2956,
      "192": 2957,
      "hø": 2958,
      "##raf": 2959,
      "fl": 2960,
      "##elig": 2961,
      "Le": 2962,
      "##ott": 2963,
      "skul": 2964,
      "##ga": 2965,
      "des": 2966,
      "##yst": 2967,
      "##edia": 2968,
      "##ys": 2969,
      "##kke": 2970,
      "##form": 2971,
      "##au": 2972,
      "##ore": 2973,
      "##iska": 2974,
      "##vin": 2975,
      "jeg": 2976,
      "fil": 2977,
      "##ober": 2978,
      "##ken": 2979,
      "##ka": 2980,
      "##merik": 2981,
      "##du": 2982,
      "Joh": 2983,
      "da": 2984,
      "god": 2985,
      "nå": 2986,
      "##ja": 2987,
      "13": 2988,
      "##elsen": 2989,
      "##hold": 2990,
      "her": 2991,
      "##ou": 2992,
      "bil": 2993,
      "sen": 2994,
      "Re": 2995,
      "Dan": 2996,
      "ser": 2997,
      "##lik": 2998,
      "huvud": 2999,
      "fler": 3000,
      "Th": 3001,
      "##øb": 3002,
      "##åde": 3003,
      "##erson": 3004,
      "my": 3005,
      "Be": 3006,
      "##ull": 3007,
      "dette": 3008,
      "##rag": 3009,
      "alle": 3010,
      "##ich": 3011,
      "##son": 3012,
      "##anuar": 3013,
      "##age": 3014,
      "Ne": 3015,
      "sø": 3016,
      "##hol": 3017,
      "##hav": 3018,
      "##ugust": 3019,
      "hos": 3020,
      "denne": 3021,
      "sv": 3022,
      "sm": 3023,
      "##aren": 3024,
      "##uro": 3025,
      "januar": 3026,
      "arbe": 3027,
      "mus": 3028,
      "##man": 3029,
      "##ial": 3030,
      "##ah": 3031,
      "##ille": 3032,
      "##ester": 3033,
      "he": 3034,
      "jag": 3035,
      "##ätt": 3036,
      "ned": 3037,
      "mange": 3038,
      "mellom": 3039,
      "tal": 3040,
      "##utt": 3041,
      "engel": 3042,
      "##our": 3043,
      "##ligt": 3044,
      "##sn": 3045,
      "##ct": 3046,
      "blir": 3047,
      "##byg": 3048,
      "jul": 3049,
      "lå": 3050,
      "##elle": 3051,
      "Denne": 3052,
      "vær": 3053,
      "##berg": 3054,
      "Wik": 3055,
      "gjen": 3056,
      "fly": 3057,
      "##ats": 3058,
      "##iss": 3059,
      "##este": 3060,
      "lang": 3061,
      "El": 3062,
      "frem": 3063,
      "være": 3064,
      "skulle": 3065,
      "##min": 3066,
      "amerik": 3067,
      "Ge": 3068,
      "##ral": 3069,
      "Her": 3070,
      "polit": 3071,
      "hov": 3072,
      "##äll": 3073,
      "##ometer": 3074,
      "##ionen": 3075,
      "And": 3076,
      "Fran": 3077,
      "##ift": 3078,
      "født": 3079,
      "##rad": 3080,
      "##va": 3081,
      "kal": 3082,
      "190": 3083,
      "##amm": 3084,
      "fr": 3085,
      "##bet": 3086,
      "##kon": 3087,
      "##uni": 3088,
      "##gt": 3089,
      "##yrk": 3090,
      "Bar": 3091,
      "##ilometer": 3092,
      "##up": 3093,
      "##hus": 3094,
      "Un": 3095,
      "nok": 3096,
      "##nen": 3097,
      "##mark": 3098,
      "##ings": 3099,
      "##nom": 3100,
      "##rett": 3101,
      "##arna": 3102,
      "##iker": 3103,
      "vä": 3104,
      "##hed": 3105,
      "##ond": 3106,
      "##pr": 3107,
      "all": 3108,
      "landet": 3109,
      "Men": 3110,
      "inter": 3111,
      "##bum": 3112,
      "##atter": 3113,
      "sven": 3114,
      "form": 3115,
      "##ld": 3116,
      "Fil": 3117,
      "går": 3118,
      "##iste": 3119,
      "dem": 3120,
      "sitt": 3121,
      "##ivers": 3122,
      "##øre": 3123,
      "##ata": 3124,
      "juli": 3125,
      "fj": 3126,
      "US": 3127,
      "hun": 3128,
      "sep": 3129,
      "##by": 3130,
      "##ton": 3131,
      "områ": 3132,
      "stør": 3133,
      "##uss": 3134,
      "##mp": 3135,
      "##of": 3136,
      "##ebru": 3137,
      "...": 3138,
      "##orn": 3139,
      "selv": 3140,
      "bes": 3141,
      "juni": 3142,
      "##ebruar": 3143,
      "Ad": 3144,
      "person": 3145,
      "okt": 3146,
      "fle": 3147,
      "##off": 3148,
      "##inn": 3149,
      "gå": 3150,
      "På": 3151,
      "mer": 3152,
      "##ack": 3153,
      "##sten": 3154,
      "kunne": 3155,
      "august": 3156,
      "Nord": 3157,
      "##ole": 3158,
      "havde": 3159,
      "##enter": 3160,
      "Se": 3161,
      "meg": 3162,
      "##over": 3163,
      "'',": 3164,
      "februar": 3165,
      "##fil": 3166,
      "hen": 3167,
      "res": 3168,
      "samt": 3169,
      "189": 3170,
      "oktober": 3171,
      "engelsk": 3172,
      "##tember": 3173,
      "lä": 3174,
      "Christ": 3175,
      "nov": 3176,
      "Bl": 3177,
      "Der": 3178,
      "forsk": 3179,
      "##ninger": 3180,
      "Ac": 3181,
      "när": 3182,
      "sammen": 3183,
      "##ikkelen": 3184,
      "delen": 3185,
      "nam": 3186,
      "##ppen": 3187,
      "##stad": 3188,
      "ve": 3189,
      "##ach": 3190,
      "te": 3191,
      "##aget": 3192,
      "##,,": 3193,
      "##ipedia": 3194,
      "##kte": 3195,
      "##mar": 3196,
      "##val": 3197,
      "havet": 3198,
      "tilb": 3199,
      "##rav": 3200,
      "september": 3201,
      "##pril": 3202,
      "##rid": 3203,
      "##kel": 3204,
      "Vi": 3205,
      "##ium": 3206,
      "Sch": 3207,
      "Wikipedia": 3208,
      "fe": 3209,
      "ad": 3210,
      "##ild": 3211,
      "##af": 3212,
      "gjennom": 3213,
      "##hand": 3214,
      "##nings": 3215,
      "off": 3216,
      "len": 3217,
      "hand": 3218,
      "000": 3219,
      "##nad": 3220,
      "liv": 3221,
      "##inga": 3222,
      "##cer": 3223,
      "tr": 3224,
      "##giv": 3225,
      "spel": 3226,
      "##ity": 3227,
      "30": 3228,
      "både": 3229,
      "##staden": 3230,
      "runt": 3231,
      "ans": 3232,
      "Med": 3233,
      "2012": 3234,
      "##jø": 3235,
      "Sver": 3236,
      "25": 3237,
      "folk": 3238,
      "flere": 3239,
      "##ras": 3240,
      "lik": 3241,
      "##pt": 3242,
      "får": 3243,
      "nog": 3244,
      "##nem": 3245,
      "Ag": 3246,
      "##bru": 3247,
      "april": 3248,
      "##runn": 3249,
      "fors": 3250,
      "He": 3251,
      "syd": 3252,
      "store": 3253,
      "##ius": 3254,
      "##led": 3255,
      "hö": 3256,
      "##folk": 3257,
      "nu": 3258,
      "##stru": 3259,
      "norsk": 3260,
      "me": 3261,
      "##iner": 3262,
      "USA": 3263,
      "##fatt": 3264,
      "##ate": 3265,
      "##nt": 3266,
      "##xt": 3267,
      "##fer": 3268,
      "november": 3269,
      "mest": 3270,
      "kont": 3271,
      "histor": 3272,
      "Har": 3273,
      "medlem": 3274,
      "##ades": 3275,
      "Pro": 3276,
      "188": 3277,
      "##gang": 3278,
      "##gj": 3279,
      "##inger": 3280,
      "##ograf": 3281,
      "##ont": 3282,
      "vis": 3283,
      "##rer": 3284,
      "mil": 3285,
      "##fl": 3286,
      "##øm": 3287,
      "##stra": 3288,
      "##ons": 3289,
      "där": 3290,
      "rep": 3291,
      "nær": 3292,
      "tek": 3293,
      "##lar": 3294,
      "##anger": 3295,
      "Om": 3296,
      "mars": 3297,
      "##lad": 3298,
      "##ress": 3299,
      "artikkelen": 3300,
      "##skab": 3301,
      "delt": 3302,
      "##sak": 3303,
      "##heten": 3304,
      "##med": 3305,
      "##ern": 3306,
      "når": 3307,
      "2011": 3308,
      "##orde": 3309,
      "##ktiv": 3310,
      "##ha": 3311,
      "##elser": 3312,
      "##arar": 3313,
      "##rand": 3314,
      "##let": 3315,
      "21": 3316,
      "lø": 3317,
      "un": 3318,
      "##rift": 3319,
      "2010": 3320,
      "død": 3321,
      "led": 3322,
      "val": 3323,
      "eks": 3324,
      "sine": 3325,
      "##iga": 3326,
      "##ny": 3327,
      "nav": 3328,
      "Sam": 3329,
      "##isjon": 3330,
      "##ligere": 3331,
      "##lin": 3332,
      "New": 3333,
      "##ånd": 3334,
      "kor": 3335,
      "2008": 3336,
      "##sart": 3337,
      "red": 3338,
      "##ung": 3339,
      "Dette": 3340,
      "ord": 3341,
      "##jel": 3342,
      "##sker": 3343,
      "##ies": 3344,
      "fö": 3345,
      "bland": 3346,
      "mind": 3347,
      "forb": 3348,
      "##nare": 3349,
      "##emp": 3350,
      "##dom": 3351,
      "##ile": 3352,
      "##nar": 3353,
      "##app": 3354,
      "22": 3355,
      "alt": 3356,
      "##gå": 3357,
      "Du": 3358,
      "Ma": 3359,
      "Sh": 3360,
      "##ode": 3361,
      "##met": 3362,
      "##ele": 3363,
      "2007": 3364,
      "##vær": 3365,
      "føl": 3366,
      "grund": 3367,
      "nye": 3368,
      "fot": 3369,
      "2009": 3370,
      "Ek": 3371,
      "##kker": 3372,
      "All": 3373,
      "##ager": 3374,
      "##lev": 3375,
      "##atte": 3376,
      "##ds": 3377,
      "##ala": 3378,
      "stat": 3379,
      "amerikansk": 3380,
      "##æng": 3381,
      "ung": 3382,
      "Or": 3383,
      "##enta": 3384,
      "##æg": 3385,
      "Ab": 3386,
      "##use": 3387,
      "##iz": 3388,
      "##ølv": 3389,
      "Euro": 3390,
      "dansk": 3391,
      "186": 3392,
      "##uk": 3393,
      "##irk": 3394,
      "Under": 3395,
      "##ator": 3396,
      "##arbe": 3397,
      "##isse": 3398,
      "far": 3399,
      "bok": 3400,
      "##ake": 3401,
      "Is": 3402,
      "Fred": 3403,
      "24": 3404,
      "kommer": 3405,
      "tur": 3406,
      "##iden": 3407,
      "stad": 3408,
      "##pa": 3409,
      "##ommer": 3410,
      "##raft": 3411,
      "2014": 3412,
      "Eg": 3413,
      "##ilt": 3414,
      "Me": 3415,
      "vin": 3416,
      "187": 3417,
      "mel": 3418,
      "##liga": 3419,
      "##ben": 3420,
      "ek": 3421,
      "##borg": 3422,
      "*«": 3423,
      "##tet": 3424,
      "Ro": 3425,
      "par": 3426,
      "##ultur": 3427,
      "##ath": 3428,
      "hoved": 3429,
      "##ida": 3430,
      "##ngen": 3431,
      "##som": 3432,
      "br": 3433,
      "invå": 3434,
      "23": 3435,
      "hal": 3436,
      "##verk": 3437,
      "2006": 3438,
      "##rog": 3439,
      "2013": 3440,
      "inne": 3441,
      "invånare": 3442,
      "2015": 3443,
      "bed": 3444,
      "två": 3445,
      "##sf": 3446,
      "##ioner": 3447,
      "Ant": 3448,
      "##bar": 3449,
      "##slo": 3450,
      "##gan": 3451,
      "##orden": 3452,
      "enn": 3453,
      "##aler": 3454,
      "##sterne": 3455,
      "ligg": 3456,
      "##entet": 3457,
      "##ette": 3458,
      "##ommun": 3459,
      "##ella": 3460,
      "ta": 3461,
      "Mo": 3462,
      "Hen": 3463,
      "2016": 3464,
      "rom": 3465,
      "##øde": 3466,
      "##änd": 3467,
      "produ": 3468,
      "''.": 3469,
      "Stor": 3470,
      "##øg": 3471,
      "krig": 3472,
      "ca": 3473,
      "##ider": 3474,
      "At": 3475,
      "##ana": 3476,
      "Ale": 3477,
      "##örd": 3478,
      "##unkt": 3479,
      "mid": 3480,
      "##ingar": 3481,
      "ant": 3482,
      "hon": 3483,
      "ham": 3484,
      "grunn": 3485,
      "##rom": 3486,
      "##ningar": 3487,
      "plan": 3488,
      "ann": 3489,
      "la": 3490,
      "genom": 3491,
      "##ipp": 3492,
      "##holm": 3493,
      "gang": 3494,
      "##sted": 3495,
      "svensk": 3496,
      "Ty": 3497,
      "##iod": 3498,
      "omk": 3499,
      "Bo": 3500,
      "kommune": 3501,
      "##etter": 3502,
      "Eng": 3503,
      "mån": 3504,
      "2005": 3505,
      "##ym": 3506,
      "hver": 3507,
      "##ica": 3508,
      "##äm": 3509,
      "Er": 3510,
      "##ystem": 3511,
      "fort": 3512,
      "van": 3513,
      "siden": 3514,
      "Ut": 3515,
      "##az": 3516,
      "##lekt": 3517,
      "##enn": 3518,
      "talet": 3519,
      "Hol": 3520,
      "först": 3521,
      "28": 3522,
      "sør": 3523,
      "År": 3524,
      "##uder": 3525,
      "Sverige": 3526,
      "dig": 3527,
      "Ind": 3528,
      "##legg": 3529,
      "bas": 3530,
      "sn": 3531,
      "rund": 3532,
      "Bes": 3533,
      "Ap": 3534,
      "##rakten": 3535,
      "mindre": 3536,
      "##kter": 3537,
      "##itter": 3538,
      "Oslo": 3539,
      "deres": 3540,
      "mål": 3541,
      "##ave": 3542,
      "Hans": 3543,
      "Co": 3544,
      "Frank": 3545,
      "##økt": 3546,
      "start": 3547,
      "Aust": 3548,
      "##int": 3549,
      "##bo": 3550,
      "Danmark": 3551,
      "byen": 3552,
      "lenker": 3553,
      "##idae": 3554,
      "26": 3555,
      "gje": 3556,
      "##sam": 3557,
      "##era": 3558,
      "Eksterne": 3559,
      "27": 3560,
      "##sson": 3561,
      "##urg": 3562,
      "##ksjon": 3563,
      "##qu": 3564,
      "Ste": 3565,
      "##allet": 3566,
      "òg": 3567,
      "##olen": 3568,
      "IS": 3569,
      "vest": 3570,
      "##ativ": 3571,
      "Par": 3572,
      "helt": 3573,
      "kalla": 3574,
      "##rakt": 3575,
      "någ": 3576,
      "Norge": 3577,
      "huvudstaden": 3578,
      "album": 3579,
      "##reg": 3580,
      "neder": 3581,
      "##åd": 3582,
      "La": 3583,
      "gl": 3584,
      "##stand": 3585,
      "185": 3586,
      "##ors": 3587,
      "samme": 3588,
      "tro": 3589,
      "bli": 3590,
      "##spel": 3591,
      "##rar": 3592,
      "##kar": 3593,
      "lu": 3594,
      "vikt": 3595,
      "komp": 3596,
      "##lø": 3597,
      "##börd": 3598,
      "##unn": 3599,
      "Man": 3600,
      "100": 3601,
      "vert": 3602,
      "fem": 3603,
      "part": 3604,
      "##føl": 3605,
      "##lege": 3606,
      "stud": 3607,
      "##slag": 3608,
      "kort": 3609,
      "mill": 3610,
      "##ball": 3611,
      "föd": 3612,
      "kar": 3613,
      "##rö": 3614,
      "tidligere": 3615,
      "##aten": 3616,
      "natur": 3617,
      "su": 3618,
      "ofte": 3619,
      "John": 3620,
      "##områ": 3621,
      "Kr": 3622,
      "##jør": 3623,
      "utan": 3624,
      "hade": 3625,
      "im": 3626,
      "styr": 3627,
      "##pen": 3628,
      "ly": 3629,
      "kvad": 3630,
      "##rum": 3631,
      "##di": 3632,
      "Af": 3633,
      "även": 3634,
      "##delse": 3635,
      "##dal": 3636,
      "\".": 3637,
      "nytt": 3638,
      "ville": 3639,
      "##one": 3640,
      "##par": 3641,
      "##snitt": 3642,
      "##ith": 3643,
      "arbeid": 3644,
      "senere": 3645,
      "29": 3646,
      "godt": 3647,
      "##ban": 3648,
      "2000": 3649,
      "film": 3650,
      "2004": 3651,
      "kvadrat": 3652,
      "##pro": 3653,
      "ang": 3654,
      "**": 3655,
      "##ins": 3656,
      "gam": 3657,
      "mul": 3658,
      "''',": 3659,
      "maj": 3660,
      "gener": 3661,
      "##edan": 3662,
      "Ed": 3663,
      "bygger": 3664,
      "hög": 3665,
      "Efter": 3666,
      "2017": 3667,
      "Ol": 3668,
      "##ational": 3669,
      "Univers": 3670,
      "kilometer": 3671,
      "##oph": 3672,
      "stör": 3673,
      "Sc": 3674,
      "com": 3675,
      "II": 3676,
      "fekk": 3677,
      "##sv": 3678,
      "##øn": 3679,
      "##anska": 3680,
      "gjorde": 3681,
      "##ice": 3682,
      "##andet": 3683,
      "norske": 3684,
      "tysk": 3685,
      "2018": 3686,
      "sit": 3687,
      "Fl": 3688,
      "##esp": 3689,
      "ingen": 3690,
      "Andre": 3691,
      "##kom": 3692,
      "menne": 3693,
      "fik": 3694,
      "Hun": 3695,
      "grupp": 3696,
      "Ter": 3697,
      "mm": 3698,
      "Kon": 3699,
      "Gen": 3700,
      "##ev": 3701,
      "##skland": 3702,
      "##ført": 3703,
      "##ikken": 3704,
      "Ander": 3705,
      "lok": 3706,
      "Som": 3707,
      "##peratur": 3708,
      "meget": 3709,
      "nett": 3710,
      "Og": 3711,
      "##ames": 3712,
      "»,": 3713,
      "##ish": 3714,
      "##ps": 3715,
      "Ho": 3716,
      "##BN": 3717,
      "##mann": 3718,
      "omkring": 3719,
      "fri": 3720,
      "##eller": 3721,
      "född": 3722,
      "fyl": 3723,
      "slik": 3724,
      "ska": 3725,
      "sær": 3726,
      "##ola": 3727,
      "##kket": 3728,
      "rundt": 3729,
      "##gar": 3730,
      "Jeg": 3731,
      "##kilometer": 3732,
      "##len": 3733,
      "kvadratkilometer": 3734,
      "184": 3735,
      "ISBN": 3736,
      "mark": 3737,
      "##under": 3738,
      "##ori": 3739,
      "utg": 3740,
      "##asser": 3741,
      "din": 3742,
      "ex": 3743,
      "##gru": 3744,
      "bak": 3745,
      "##eret": 3746,
      "kvin": 3747,
      "vir": 3748,
      "##senter": 3749,
      "##ya": 3750,
      "Da": 3751,
      "andra": 3752,
      "arbej": 3753,
      "##endt": 3754,
      "hus": 3755,
      "As": 3756,
      "##enhav": 3757,
      "kjen": 3758,
      "Etter": 3759,
      "mig": 3760,
      "Besøkt": 3761,
      "mellem": 3762,
      "dec": 3763,
      "##sel": 3764,
      "##konom": 3765,
      "##che": 3766,
      "##øbenhav": 3767,
      "##ligen": 3768,
      "##lan": 3769,
      "jord": 3770,
      "##fj": 3771,
      "hjem": 3772,
      "sted": 3773,
      "Jo": 3774,
      "##entral": 3775,
      "##oss": 3776,
      "kyrk": 3777,
      "Til": 3778,
      "am": 3779,
      "##ham": 3780,
      "##ork": 3781,
      "##fatter": 3782,
      "forts": 3783,
      "ven": 3784,
      "Henta": 3785,
      "mai": 3786,
      "##ært": 3787,
      "skrev": 3788,
      "##agt": 3789,
      "'')": 3790,
      "vår": 3791,
      "sä": 3792,
      "mat": 3793,
      "Dei": 3794,
      "##råk": 3795,
      "##dig": 3796,
      "##yk": 3797,
      "is": 3798,
      "pre": 3799,
      "##still": 3800,
      "Bak": 3801,
      "Te": 3802,
      "Christian": 3803,
      "##uld": 3804,
      "hele": 3805,
      "##skapet": 3806,
      "tv": 3807,
      "Av": 3808,
      "Krist": 3809,
      "Ha": 3810,
      "##its": 3811,
      "##lagt": 3812,
      "Car": 3813,
      "##ighed": 3814,
      "##tern": 3815,
      "int": 3816,
      "För": 3817,
      "Rom": 3818,
      "Kl": 3819,
      "##gjen": 3820,
      "##øj": 3821,
      "##gende": 3822,
      "mere": 3823,
      "##pet": 3824,
      "dat": 3825,
      "små": 3826,
      "fast": 3827,
      "rett": 3828,
      "##rike": 3829,
      "##empel": 3830,
      "##ensen": 3831,
      "##esten": 3832,
      "provin": 3833,
      "mor": 3834,
      "##ise": 3835,
      "først": 3836,
      "##bygg": 3837,
      "sol": 3838,
      "OL": 3839,
      "Gu": 3840,
      "##formation": 3841,
      "fire": 3842,
      "ho": 3843,
      "vok": 3844,
      "Con": 3845,
      "##ec": 3846,
      "Pa": 3847,
      "50": 3848,
      "hjel": 3849,
      "##ubl": 3850,
      "##bu": 3851,
      "##ekt": 3852,
      "organ": 3853,
      "fun": 3854,
      "leg": 3855,
      "##ba": 3856,
      "2003": 3857,
      "##agen": 3858,
      "Sj": 3859,
      "31": 3860,
      "består": 3861,
      "stort": 3862,
      "##vent": 3863,
      "rik": 3864,
      "##assen": 3865,
      "vel": 3866,
      "barn": 3867,
      "Københav": 3868,
      "##set": 3869,
      "##iam": 3870,
      "Kommun": 3871,
      "mens": 3872,
      "on": 3873,
      "##rol": 3874,
      "fikk": 3875,
      "Carl": 3876,
      "##kes": 3877,
      "verd": 3878,
      "Per": 3879,
      "##rim": 3880,
      "##stit": 3881,
      "Ved": 3882,
      "største": 3883,
      "##ering": 3884,
      "kultur": 3885,
      "##råd": 3886,
      "##ænd": 3887,
      "##ll": 3888,
      "ock": 3889,
      "##stem": 3890,
      "ch": 3891,
      "Stock": 3892,
      "oss": 3893,
      "området": 3894,
      "##ley": 3895,
      "ob": 3896,
      "Col": 3897,
      "##æv": 3898,
      "##ongen": 3899,
      "##gte": 3900,
      "rek": 3901,
      "kamp": 3902,
      "bare": 3903,
      "##ford": 3904,
      "2001": 3905,
      "##nas": 3906,
      "disse": 3907,
      "##erik": 3908,
      "vå": 3909,
      "##ix": 3910,
      "##styr": 3911,
      "##sa": 3912,
      "##fin": 3913,
      "\",": 3914,
      "här": 3915,
      "(''": 3916,
      "Bro": 3917,
      "side": 3918,
      "namn": 3919,
      "pun": 3920,
      "dess": 3921,
      "första": 3922,
      "Peter": 3923,
      "##rek": 3924,
      "##ition": 3925,
      "##ummer": 3926,
      "po": 3927,
      "Et": 3928,
      "##ank": 3929,
      "än": 3930,
      "ge": 3931,
      ".)": 3932,
      "Lond": 3933,
      "##cket": 3934,
      "tok": 3935,
      "##kur": 3936,
      "##ytt": 3937,
      "##rab": 3938,
      "åt": 3939,
      "december": 3940,
      "høy": 3941,
      "halv": 3942,
      "ste": 3943,
      "fick": 3944,
      "183": 3945,
      "kunst": 3946,
      "##urt": 3947,
      "offent": 3948,
      "Gl": 3949,
      "##gram": 3950,
      "2002": 3951,
      "också": 3952,
      "##befolk": 3953,
      "Stockholm": 3954,
      "bör": 3955,
      "##idt": 3956,
      "Fin": 3957,
      "##20": 3958,
      "lever": 3959,
      "vand": 3960,
      "##ident": 3961,
      "Stat": 3962,
      "slutt": 3963,
      "intern": 3964,
      "Ph": 3965,
      "##irke": 3966,
      "##itar": 3967,
      "Histor": 3968,
      "Ba": 3969,
      "##ynd": 3970,
      "Tyskland": 3971,
      "London": 3972,
      "profil": 3973,
      "blei": 3974,
      "##asse": 3975,
      "noen": 3976,
      "##undet": 3977,
      "##ander": 3978,
      "##lands": 3979,
      "##far": 3980,
      "bra": 3981,
      "sedan": 3982,
      "##stå": 3983,
      "##fly": 3984,
      "lite": 3985,
      "##talien": 3986,
      "##ule": 3987,
      "##kken": 3988,
      "Land": 3989,
      "bør": 3990,
      "##ologi": 3991,
      "dire": 3992,
      "gav": 3993,
      "##jet": 3994,
      "mø": 3995,
      "Dav": 3996,
      "##ara": 3997,
      "sö": 3998,
      "høj": 3999,
      "##ical": 4000,
      "##handling": 4001,
      "Jag": 4002,
      "##sø": 4003,
      "have": 4004,
      "anvä": 4005,
      "Ver": 4006,
      "##maste": 4007,
      "##erna": 4008,
      "##ada": 4009,
      "##yt": 4010,
      "ter": 4011,
      "nä": 4012,
      "##ikker": 4013,
      "desember": 4014,
      "##van": 4015,
      "dog": 4016,
      "hold": 4017,
      "##ete": 4018,
      "egen": 4019,
      "##serv": 4020,
      "##peraturen": 4021,
      "##agn": 4022,
      "ret": 4023,
      "##yen": 4024,
      "tog": 4025,
      "igen": 4026,
      "##co": 4027,
      "1999": 4028,
      "kat": 4029,
      "bliver": 4030,
      "period": 4031,
      "Ein": 4032,
      "lov": 4033,
      "musik": 4034,
      "gennem": 4035,
      "Cl": 4036,
      "slut": 4037,
      "##stre": 4038,
      "vär": 4039,
      "Min": 4040,
      "##,,,": 4041,
      "spiller": 4042,
      "Ark": 4043,
      "prof": 4044,
      "Ben": 4045,
      "Sør": 4046,
      "pop": 4047,
      "hvil": 4048,
      "##ood": 4049,
      "sett": 4050,
      "##her": 4051,
      "40": 4052,
      "id": 4053,
      "verden": 4054,
      "##dde": 4055,
      "##ure": 4056,
      "danske": 4057,
      "inv": 4058,
      "##iten": 4059,
      "noe": 4060,
      "##bl": 4061,
      "##eleg": 4062,
      "##vikling": 4063,
      "sjølv": 4064,
      "result": 4065,
      "Ang": 4066,
      "brit": 4067,
      "von": 4068,
      "##ej": 4069,
      "##veg": 4070,
      "##ask": 4071,
      "##ase": 4072,
      "##ogn": 4073,
      "##jerne": 4074,
      "##ön": 4075,
      "flytt": 4076,
      "hvis": 4077,
      "##ora": 4078,
      "Så": 4079,
      "##ensis": 4080,
      "##iskt": 4081,
      "##iel": 4082,
      "vatt": 4083,
      "Lu": 4084,
      "##olf": 4085,
      "vara": 4086,
      "##ksom": 4087,
      "##xter": 4088,
      "navn": 4089,
      "månaden": 4090,
      "##heim": 4091,
      "181": 4092,
      "stø": 4093,
      "tallet": 4094,
      "står": 4095,
      "året": 4096,
      "beh": 4097,
      "1990": 4098,
      "##åt": 4099,
      "kap": 4100,
      "veg": 4101,
      "##rich": 4102,
      "##vid": 4103,
      "##dan": 4104,
      "januari": 4105,
      "kol": 4106,
      "Will": 4107,
      "##ører": 4108,
      "hem": 4109,
      "sak": 4110,
      "##ighet": 4111,
      "fleire": 4112,
      "job": 4113,
      "dist": 4114,
      "1998": 4115,
      "bor": 4116,
      "bygg": 4117,
      "spill": 4118,
      "##dt": 4119,
      "##äng": 4120,
      "været": 4121,
      "##nal": 4122,
      "När": 4123,
      "em": 4124,
      "gamle": 4125,
      "tred": 4126,
      "##xtart": 4127,
      "regionen": 4128,
      "##bert": 4129,
      ".,": 4130,
      "##svar": 4131,
      "Mus": 4132,
      "blant": 4133,
      "ben": 4134,
      "##arts": 4135,
      "##alm": 4136,
      "Sm": 4137,
      "gift": 4138,
      "nederbörd": 4139,
      "Sel": 4140,
      "##elige": 4141,
      "fer": 4142,
      "rad": 4143,
      "##lj": 4144,
      "##äg": 4145,
      "forhold": 4146,
      "##jär": 4147,
      "Ser": 4148,
      "met": 4149,
      "##ace": 4150,
      "##rängen": 4151,
      "siste": 4152,
      "sc": 4153,
      "desse": 4154,
      "##asjonen": 4155,
      "vann": 4156,
      "mycket": 4157,
      "##ash": 4158,
      "##iar": 4159,
      "større": 4160,
      "00": 4161,
      "th": 4162,
      "huvudsak": 4163,
      "ark": 4164,
      "kraft": 4165,
      "##temperaturen": 4166,
      "Alex": 4167,
      "##ces": 4168,
      "##aste": 4169,
      "180": 4170,
      "##vet": 4171,
      "##like": 4172,
      "##ställ": 4173,
      "Reg": 4174,
      "vide": 4175,
      "##uper": 4176,
      "närheten": 4177,
      "##ros": 4178,
      "##rop": 4179,
      "do": 4180,
      "klub": 4181,
      "gr": 4182,
      "vers": 4183,
      "provinsen": 4184,
      "So": 4185,
      "##illa": 4186,
      "dom": 4187,
      "##yre": 4188,
      "##tek": 4189,
      "##skrig": 4190,
      "##eltemperaturen": 4191,
      "##ader": 4192,
      "ald": 4193,
      "):": 4194,
      "##vest": 4195,
      "uden": 4196,
      "aust": 4197,
      "vært": 4198,
      "##ww": 4199,
      "##ict": 4200,
      "kjem": 4201,
      "..": 4202,
      "aktiv": 4203,
      "död": 4204,
      "pres": 4205,
      "Kn": 4206,
      "##røn": 4207,
      "København": 4208,
      "und": 4209,
      "Bel": 4210,
      "##sj": 4211,
      "øn": 4212,
      "arbet": 4213,
      "blitt": 4214,
      "kval": 4215,
      "##ving": 4216,
      "##sc": 4217,
      "Sa": 4218,
      "##ritann": 4219,
      "program": 4220,
      "fransk": 4221,
      "##atet": 4222,
      "##stoff": 4223,
      "##ges": 4224,
      "www": 4225,
      "##ias": 4226,
      "##kje": 4227,
      "Karl": 4228,
      "fyr": 4229,
      "##ight": 4230,
      "gjort": 4231,
      "fått": 4232,
      "Sl": 4233,
      "Br": 4234,
      "træ": 4235,
      "##edes": 4236,
      "ur": 4237,
      "##endes": 4238,
      "##ordan": 4239,
      "No": 4240,
      "1997": 4241,
      "högsta": 4242,
      "##ment": 4243,
      "##iter": 4244,
      "søn": 4245,
      "berre": 4246,
      "Can": 4247,
      "Com": 4248,
      "litt": 4249,
      "gre": 4250,
      "vore": 4251,
      "##ij": 4252,
      "##äril": 4253,
      "##ielt": 4254,
      "alla": 4255,
      "Johan": 4256,
      "Comm": 4257,
      "full": 4258,
      "skriv": 4259,
      "##mål": 4260,
      "Fra": 4261,
      "##itteratur": 4262,
      "uten": 4263,
      "lær": 4264,
      "1970": 4265,
      "hol": 4266,
      "##elm": 4267,
      "##väst": 4268,
      "##amb": 4269,
      "fordi": 4270,
      "##grun": 4271,
      "Mart": 4272,
      "##lade": 4273,
      "##ät": 4274,
      "noko": 4275,
      "eksp": 4276,
      "TV": 4277,
      "##aks": 4278,
      "Noreg": 4279,
      "Hv": 4280,
      "börj": 4281,
      "enk": 4282,
      "Europa": 4283,
      "Ny": 4284,
      "1993": 4285,
      "kjø": 4286,
      "##ink": 4287,
      "fjell": 4288,
      "nr": 4289,
      "præ": 4290,
      "hovud": 4291,
      "høg": 4292,
      "##til": 4293,
      "##osa": 4294,
      "samh": 4295,
      "bruk": 4296,
      "1980": 4297,
      "Bu": 4298,
      "viktig": 4299,
      "##ationer": 4300,
      "berg": 4301,
      "##ca": 4302,
      "##mel": 4303,
      "pros": 4304,
      "kron": 4305,
      "måtte": 4306,
      "##orter": 4307,
      "igjen": 4308,
      "##ygg": 4309,
      "sæ": 4310,
      "1996": 4311,
      "Kar": 4312,
      "##gav": 4313,
      "##we": 4314,
      "Wh": 4315,
      "derfor": 4316,
      "tru": 4317,
      "##aller": 4318,
      "##ura": 4319,
      "##ammer": 4320,
      "##ii": 4321,
      "##ografi": 4322,
      "1994": 4323,
      "##rede": 4324,
      "##rang": 4325,
      "Sven": 4326,
      "##eth": 4327,
      "ak": 4328,
      "##raph": 4329,
      "Runt": 4330,
      "##klar": 4331,
      "svar": 4332,
      "prob": 4333,
      "Berg": 4334,
      "bort": 4335,
      "Storb": 4336,
      "saman": 4337,
      "##ER": 4338,
      "Vest": 4339,
      "##cy": 4340,
      "blevet": 4341,
      "1995": 4342,
      "##50": 4343,
      "Ak": 4344,
      "kvar": 4345,
      "England": 4346,
      "luft": 4347,
      "milit": 4348,
      "##ime": 4349,
      "ses": 4350,
      "Po": 4351,
      "Hon": 4352,
      "##river": 4353,
      "##ibl": 4354,
      "1992": 4355,
      "##arbeid": 4356,
      "si": 4357,
      "gu": 4358,
      "Ast": 4359,
      "politiker": 4360,
      "##cent": 4361,
      "##jekt": 4362,
      "plass": 4363,
      "##minist": 4364,
      "Storbritann": 4365,
      "Terrängen": 4366,
      "##ita": 4367,
      "##dus": 4368,
      "popul": 4369,
      "##iger": 4370,
      "##ffe": 4371,
      "182": 4372,
      "tyske": 4373,
      "Em": 4374,
      "mellan": 4375,
      "##ationen": 4376,
      "fred": 4377,
      "ten": 4378,
      "amerikanske": 4379,
      "lyd": 4380,
      "aller": 4381,
      "##rigin": 4382,
      "##befolkat": 4383,
      "##erg": 4384,
      "Thom": 4385,
      "Paul": 4386,
      "väl": 4387,
      "Mad": 4388,
      "Mich": 4389,
      "skap": 4390,
      "VM": 4391,
      "ban": 4392,
      "##uth": 4393,
      "##alis": 4394,
      "tem": 4395,
      "##bin": 4396,
      "univers": 4397,
      "##iat": 4398,
      "##öj": 4399,
      "David": 4400,
      "##ena": 4401,
      "##okrat": 4402,
      "inneh": 4403,
      "fakt": 4404,
      "delst": 4405,
      "akt": 4406,
      "mar": 4407,
      "sidan": 4408,
      "Mon": 4409,
      "Kat": 4410,
      "##isp": 4411,
      "##stero": 4412,
      "##rep": 4413,
      "samtid": 4414,
      "sku": 4415,
      "##ivet": 4416,
      "##entar": 4417,
      "Pl": 4418,
      "Gru": 4419,
      "##ove": 4420,
      "pol": 4421,
      "punkten": 4422,
      "##røm": 4423,
      "tiden": 4424,
      "kjent": 4425,
      "##ssk": 4426,
      "##inister": 4427,
      "##mus": 4428,
      "Austral": 4429,
      "##äst": 4430,
      "##dd": 4431,
      "##uter": 4432,
      "deg": 4433,
      "större": 4434,
      "##alder": 4435,
      "tidleg": 4436,
      "##smed": 4437,
      "Gre": 4438,
      "##læg": 4439,
      "##cker": 4440,
      "pris": 4441,
      "##arane": 4442,
      "inns": 4443,
      "tredje": 4444,
      "Før": 4445,
      "##rins": 4446,
      "##ppe": 4447,
      "1991": 4448,
      "Bergen": 4449,
      "##chen": 4450,
      "##abler": 4451,
      "##vig": 4452,
      "regn": 4453,
      ":/": 4454,
      "gjekk": 4455,
      "Tid": 4456,
      "##laget": 4457,
      "Frankrike": 4458,
      "##uler": 4459,
      "bilder": 4460,
      "##roll": 4461,
      "##ening": 4462,
      "##usk": 4463,
      "Port": 4464,
      "htt": 4465,
      "vor": 4466,
      "://": 4467,
      "Val": 4468,
      "bi": 4469,
      "forskel": 4470,
      "##arbej": 4471,
      "vill": 4472,
      "tilf": 4473,
      "tillegg": 4474,
      "##part": 4475,
      "##fon": 4476,
      "##ilde": 4477,
      "mykje": 4478,
      "øst": 4479,
      "tekn": 4480,
      "klar": 4481,
      "##nu": 4482,
      "instru": 4483,
      "viser": 4484,
      "bety": 4485,
      "profess": 4486,
      "##ningarna": 4487,
      "kro": 4488,
      "forfatter": 4489,
      "fjäril": 4490,
      "##umb": 4491,
      "Fri": 4492,
      "##usjon": 4493,
      "Frederik": 4494,
      "##omen": 4495,
      "##ame": 4496,
      "##ino": 4497,
      "bel": 4498,
      "Erik": 4499,
      "##smål": 4500,
      "Bru": 4501,
      "Tor": 4502,
      "dy": 4503,
      "kommunen": 4504,
      "næ": 4505,
      "##adem": 4506,
      "italien": 4507,
      "fjer": 4508,
      "##esse": 4509,
      "Gud": 4510,
      "##iale": 4511,
      "meir": 4512,
      "själ": 4513,
      "##hund": 4514,
      "##ograph": 4515,
      "sa": 4516,
      "##öra": 4517,
      "##bok": 4518,
      "namnet": 4519,
      "elekt": 4520,
      "sing": 4521,
      "fleste": 4522,
      "##komm": 4523,
      "annet": 4524,
      "års": 4525,
      "##rive": 4526,
      "##ått": 4527,
      "##ines": 4528,
      "Trakten": 4529,
      "York": 4530,
      "trad": 4531,
      "detta": 4532,
      "##sæ": 4533,
      "##dann": 4534,
      "Wil": 4535,
      "##grunns": 4536,
      "andet": 4537,
      "1960": 4538,
      "verk": 4539,
      "langt": 4540,
      "Mc": 4541,
      "##pper": 4542,
      "##ions": 4543,
      "tilbage": 4544,
      "##anter": 4545,
      "tilbake": 4546,
      "økonom": 4547,
      "##stein": 4548,
      "San": 4549,
      "Ni": 4550,
      "System": 4551,
      "mand": 4552,
      "##ustri": 4553,
      "Air": 4554,
      "råd": 4555,
      "begyn": 4556,
      "læ": 4557,
      "system": 4558,
      "Wor": 4559,
      "##blad": 4560,
      "kong": 4561,
      "##igaste": 4562,
      "To": 4563,
      "##ktur": 4564,
      "tor": 4565,
      "organis": 4566,
      "##bro": 4567,
      "We": 4568,
      "trakten": 4569,
      "ry": 4570,
      "tran": 4571,
      "##burg": 4572,
      "fjärilsart": 4573,
      "##ublik": 4574,
      "##cher": 4575,
      "##ward": 4576,
      "##pg": 4577,
      "##lymp": 4578,
      "Folk": 4579,
      "Ta": 4580,
      "anna": 4581,
      "anden": 4582,
      "##okum": 4583,
      "1989": 4584,
      "rol": 4585,
      "##ign": 4586,
      "##jem": 4587,
      "##ista": 4588,
      "##als": 4589,
      "Information": 4590,
      "bo": 4591,
      "My": 4592,
      "Art": 4593,
      "##uden": 4594,
      "Dag": 4595,
      "ab": 4596,
      "##utom": 4597,
      "##samling": 4598,
      "##landet": 4599,
      "annat": 4600,
      "Paris": 4601,
      "##erer": 4602,
      "pr": 4603,
      "stem": 4604,
      "##bol": 4605,
      "##famil": 4606,
      "syn": 4607,
      "ast": 4608,
      "sek": 4609,
      "konkur": 4610,
      "euro": 4611,
      "post": 4612,
      "##orts": 4613,
      "sex": 4614,
      "60": 4615,
      "Mel": 4616,
      "Sur": 4617,
      "augusti": 4618,
      "##ula": 4619,
      "##ktor": 4620,
      "sent": 4621,
      "##jur": 4622,
      "##året": 4623,
      "Je": 4624,
      "russ": 4625,
      "##ona": 4626,
      "krit": 4627,
      "gamm": 4628,
      "##ovjet": 4629,
      "ulike": 4630,
      "##spiller": 4631,
      "##ivert": 4632,
      "origin": 4633,
      "Span": 4634,
      "innan": 4635,
      "Jon": 4636,
      "inom": 4637,
      "##yp": 4638,
      "##sd": 4639,
      "bid": 4640,
      "##ho": 4641,
      "##ournal": 4642,
      "William": 4643,
      "##ktør": 4644,
      "spes": 4645,
      "studer": 4646,
      "opt": 4647,
      "pass": 4648,
      "##kta": 4649,
      "##elses": 4650,
      "jpg": 4651,
      "##espiller": 4652,
      "via": 4653,
      "inkl": 4654,
      "inden": 4655,
      "mon": 4656,
      "##ital": 4657,
      "Bill": 4658,
      "Frå": 4659,
      "priv": 4660,
      "etabler": 4661,
      "stand": 4662,
      "Pe": 4663,
      "##ini": 4664,
      "##øk": 4665,
      "använd": 4666,
      "##hal": 4667,
      "##vär": 4668,
      "væ": 4669,
      "Over": 4670,
      "rel": 4671,
      "slag": 4672,
      "Alf": 4673,
      "område": 4674,
      "Bakgrunns": 4675,
      "teg": 4676,
      "video": 4677,
      "##aw": 4678,
      "##sminister": 4679,
      "fotball": 4680,
      "1988": 4681,
      "co": 4682,
      "##esta": 4683,
      "Bakgrunnsstoff": 4684,
      "##78": 4685,
      "pla": 4686,
      "##igen": 4687,
      "hånd": 4688,
      "tar": 4689,
      "åter": 4690,
      "Rober": 4691,
      "språk": 4692,
      "Wal": 4693,
      "Hel": 4694,
      "same": 4695,
      "personer": 4696,
      "##itz": 4697,
      "lav": 4698,
      "##ited": 4699,
      "bek": 4700,
      "Fj": 4701,
      "beste": 4702,
      "##sert": 4703,
      "##ök": 4704,
      "##orsk": 4705,
      "##växtart": 4706,
      "Når": 4707,
      "1986": 4708,
      "##röm": 4709,
      "nasjon": 4710,
      "##vel": 4711,
      "forbin": 4712,
      "Kan": 4713,
      "natt": 4714,
      "##ike": 4715,
      "døde": 4716,
      "##sett": 4717,
      "##nytt": 4718,
      "##okk": 4719,
      "##erte": 4720,
      "##cl": 4721,
      "##akter": 4722,
      "##ric": 4723,
      "tren": 4724,
      "Tur": 4725,
      "lin": 4726,
      "45": 4727,
      "Mer": 4728,
      "konst": 4729,
      "##isc": 4730,
      "️‍": 4731,
      "##unst": 4732,
      "Norsk": 4733,
      "##ey": 4734,
      "nogle": 4735,
      "##iens": 4736,
      "##ira": 4737,
      "Char": 4738,
      "gode": 4739,
      "klass": 4740,
      "stil": 4741,
      "##ikon": 4742,
      "bara": 4743,
      "Ing": 4744,
      "blive": 4745,
      "##åll": 4746,
      "vilket": 4747,
      "##iken": 4748,
      "##ringer": 4749,
      "albumet": 4750,
      "central": 4751,
      "##ocial": 4752,
      "rå": 4753,
      "vere": 4754,
      "omfatt": 4755,
      "prø": 4756,
      "##bil": 4757,
      "Gar": 4758,
      "nem": 4759,
      "##isten": 4760,
      "##och": 4761,
      "fisk": 4762,
      "##växter": 4763,
      "##idler": 4764,
      "kam": 4765,
      "lat": 4766,
      "seks": 4767,
      "Bre": 4768,
      "##ese": 4769,
      "##inare": 4770,
      "##unde": 4771,
      "kr": 4772,
      "Bal": 4773,
      "distrik": 4774,
      "##heter": 4775,
      "brukt": 4776,
      "øy": 4777,
      "ræ": 4778,
      "mang": 4779,
      "University": 4780,
      "blandt": 4781,
      "##älle": 4782,
      "noget": 4783,
      "kall": 4784,
      "tim": 4785,
      "##ved": 4786,
      "35": 4787,
      "##ritt": 4788,
      "##ogen": 4789,
      "##oto": 4790,
      "Arg": 4791,
      "##lever": 4792,
      "##lys": 4793,
      "medan": 4794,
      "utt": 4795,
      "Del": 4796,
      "öster": 4797,
      "##lighet": 4798,
      "Opp": 4799,
      "son": 4800,
      "##ksam": 4801,
      "##anden": 4802,
      "##gje": 4803,
      "1987": 4804,
      "##sfor": 4805,
      "You": 4806,
      "##delig": 4807,
      "##eren": 4808,
      "##atus": 4809,
      "forskellige": 4810,
      "##ads": 4811,
      "song": 4812,
      "##igur": 4813,
      "antal": 4814,
      "##way": 4815,
      "##ika": 4816,
      "Johann": 4817,
      "Don": 4818,
      "hund": 4819,
      "Anna": 4820,
      "söder": 4821,
      "Sol": 4822,
      "August": 4823,
      "hot": 4824,
      "##upp": 4825,
      "##spelare": 4826,
      "##lika": 4827,
      "historie": 4828,
      "##inde": 4829,
      "unge": 4830,
      "dann": 4831,
      "Sand": 4832,
      "ne": 4833,
      "tit": 4834,
      "Qu": 4835,
      "bill": 4836,
      "##imeter": 4837,
      "##bold": 4838,
      "sal": 4839,
      "Ex": 4840,
      "##but": 4841,
      "Mor": 4842,
      "##sek": 4843,
      "ster": 4844,
      "sna": 4845,
      "navnet": 4846,
      "februari": 4847,
      "1985": 4848,
      "Anth": 4849,
      "allt": 4850,
      "Mil": 4851,
      "musikk": 4852,
      "Pal": 4853,
      "Cal": 4854,
      "##rykk": 4855,
      "videre": 4856,
      "179": 4857,
      "ansvar": 4858,
      "##EN": 4859,
      "*''": 4860,
      "##aka": 4861,
      "##öp": 4862,
      "pos": 4863,
      "Var": 4864,
      "##vol": 4865,
      "sang": 4866,
      "Anders": 4867,
      "mann": 4868,
      "trä": 4869,
      "##bel": 4870,
      "Antar": 4871,
      "rikt": 4872,
      "ting": 4873,
      "are": 4874,
      "##10": 4875,
      "like": 4876,
      "hur": 4877,
      "stod": 4878,
      "fant": 4879,
      "##orge": 4880,
      "##oret": 4881,
      "administ": 4882,
      "##IN": 4883,
      "Arkivert": 4884,
      "svært": 4885,
      "arkite": 4886,
      "jo": 4887,
      "World": 4888,
      "##rond": 4889,
      "##cc": 4890,
      "1984": 4891,
      "##aland": 4892,
      "langs": 4893,
      "##æld": 4894,
      "bro": 4895,
      "begge": 4896,
      "enkelt": 4897,
      "Hal": 4898,
      "begynd": 4899,
      "##ielle": 4900,
      "verdens": 4901,
      "500": 4902,
      "Ul": 4903,
      "1981": 4904,
      "spec": 4905,
      "##sch": 4906,
      "grav": 4907,
      "vattend": 4908,
      "##tes": 4909,
      "tilh": 4910,
      "##icer": 4911,
      "Asp": 4912,
      "Bay": 4913,
      "##endte": 4914,
      "spør": 4915,
      "samf": 4916,
      "mag": 4917,
      "##vey": 4918,
      "krist": 4919,
      "sina": 4920,
      "grad": 4921,
      "Lar": 4922,
      "øv": 4923,
      "##tning": 4924,
      "32": 4925,
      "##istisk": 4926,
      "##jar": 4927,
      "##leis": 4928,
      "##sport": 4929,
      "##oth": 4930,
      "##band": 4931,
      "##orges": 4932,
      "##ima": 4933,
      "1982": 4934,
      "skj": 4935,
      "http": 4936,
      "Off": 4937,
      "sjå": 4938,
      "##ose": 4939,
      "olika": 4940,
      "##ations": 4941,
      "gikk": 4942,
      "##ze": 4943,
      "##rika": 4944,
      "livet": 4945,
      "##anen": 4946,
      "nummer": 4947,
      "##rodu": 4948,
      "##eldig": 4949,
      "tj": 4950,
      "##ence": 4951,
      "##oster": 4952,
      "hvilket": 4953,
      "Kong": 4954,
      "grä": 4955,
      "stra": 4956,
      "perioden": 4957,
      "##orm": 4958,
      "Henrik": 4959,
      "Bla": 4960,
      "lång": 4961,
      "80": 4962,
      "Genom": 4963,
      "leder": 4964,
      "Island": 4965,
      "ganska": 4966,
      "##øya": 4967,
      "Go": 4968,
      "##äv": 4969,
      "1979": 4970,
      "män": 4971,
      "följ": 4972,
      "hvordan": 4973,
      "århund": 4974,
      "plat": 4975,
      "heller": 4976,
      "många": 4977,
      "vattendrag": 4978,
      "Mal": 4979,
      "##äk": 4980,
      "##omb": 4981,
      "Intern": 4982,
      "bø": 4983,
      "##useum": 4984,
      "33": 4985,
      "##orth": 4986,
      "##pris": 4987,
      "bestem": 4988,
      "##bund": 4989,
      "##oden": 4990,
      "energ": 4991,
      "Rich": 4992,
      "Bor": 4993,
      "##histor": 4994,
      "vet": 4995,
      "band": 4996,
      "fødd": 4997,
      "Bjør": 4998,
      "##han": 4999,
      "90": 5000,
      "fag": 5001,
      "Kristian": 5002,
      "utv": 5003,
      "mennesker": 5004,
      "sik": 5005,
      "eld": 5006,
      "skuespiller": 5007,
      "bu": 5008,
      "förs": 5009,
      "mye": 5010,
      "##oen": 5011,
      "Bir": 5012,
      "dyr": 5013,
      "##partem": 5014,
      "##istan": 5015,
      "1972": 5016,
      "Gro": 5017,
      "Sen": 5018,
      "Berlin": 5019,
      "filmen": 5020,
      "omgiv": 5021,
      "kry": 5022,
      "sh": 5023,
      "kring": 5024,
      "1900": 5025,
      "1973": 5026,
      "##rasjon": 5027,
      "eksempel": 5028,
      "##iell": 5029,
      "norm": 5030,
      "web": 5031,
      "##atisk": 5032,
      "##iddel": 5033,
      "fys": 5034,
      "##sby": 5035,
      "själv": 5036,
      "##äck": 5037,
      "United": 5038,
      "##ico": 5039,
      "uppt": 5040,
      "##delt": 5041,
      "##øst": 5042,
      "##isert": 5043,
      "82": 5044,
      "##ves": 5045,
      "##bred": 5046,
      "1978": 5047,
      "##takt": 5048,
      "##ktion": 5049,
      "tjen": 5050,
      "##anth": 5051,
      "##gs": 5052,
      "##ivis": 5053,
      "sommer": 5054,
      "erne": 5055,
      "##cis": 5056,
      "##AN": 5057,
      "##lut": 5058,
      "general": 5059,
      "1983": 5060,
      "##ai": 5061,
      "##ror": 5062,
      "kur": 5063,
      "1977": 5064,
      "##skriv": 5065,
      "kvinn": 5066,
      "36": 5067,
      "##ård": 5068,
      "Robert": 5069,
      "liten": 5070,
      "##egori": 5071,
      "##veck": 5072,
      "bry": 5073,
      "insp": 5074,
      "Vin": 5075,
      "Names": 5076,
      "1968": 5077,
      "Bra": 5078,
      "dokum": 5079,
      "inf": 5080,
      "Hov": 5081,
      "70": 5082,
      "Sal": 5083,
      "Russ": 5084,
      "dermed": 5085,
      "bred": 5086,
      "betyd": 5087,
      "Då": 5088,
      "##igheter": 5089,
      "##igare": 5090,
      "sty": 5091,
      "problem": 5092,
      "##ama": 5093,
      "##oder": 5094,
      "forl": 5095,
      "astero": 5096,
      "1976": 5097,
      "Thomas": 5098,
      "1945": 5099,
      "blog": 5100,
      "læng": 5101,
      "flyg": 5102,
      "##ratis": 5103,
      "före": 5104,
      "række": 5105,
      "##ivå": 5106,
      "##ugh": 5107,
      "astron": 5108,
      "##inget": 5109,
      "##que": 5110,
      "##ides": 5111,
      "Ra": 5112,
      "tra": 5113,
      "hvad": 5114,
      "##isering": 5115,
      "kart": 5116,
      "1974": 5117,
      "##II": 5118,
      "sidste": 5119,
      "##syn": 5120,
      "##resenter": 5121,
      "##ael": 5122,
      "Cla": 5123,
      "Jul": 5124,
      "Mag": 5125,
      "##iblio": 5126,
      "##rør": 5127,
      "kn": 5128,
      "Nav": 5129,
      "Pol": 5130,
      "delstaten": 5131,
      "##ås": 5132,
      "ev": 5133,
      "##formasjon": 5134,
      "##ova": 5135,
      "##ila": 5136,
      "lige": 5137,
      "##raste": 5138,
      "tidlegare": 5139,
      "platt": 5140,
      "##organ": 5141,
      "##ua": 5142,
      "##sy": 5143,
      "1975": 5144,
      "Jan": 5145,
      "spil": 5146,
      "1971": 5147,
      "##istiske": 5148,
      "Rec": 5149,
      "dagen": 5150,
      "virksom": 5151,
      "Amer": 5152,
      "Gö": 5153,
      "mass": 5154,
      "##sg": 5155,
      "##bre": 5156,
      "##tak": 5157,
      "denna": 5158,
      "Bur": 5159,
      "port": 5160,
      "kompon": 5161,
      "franske": 5162,
      ".\"": 5163,
      "still": 5164,
      "dan": 5165,
      "produs": 5166,
      "##usen": 5167,
      "1950": 5168,
      "stadig": 5169,
      "##igheder": 5170,
      "komme": 5171,
      "##heden": 5172,
      "fel": 5173,
      "marts": 5174,
      "##bag": 5175,
      "Band": 5176,
      "Kjel": 5177,
      "##kj": 5178,
      "ungdom": 5179,
      "väster": 5180,
      "vad": 5181,
      "lille": 5182,
      "##væ": 5183,
      "##iges": 5184,
      "millimeter": 5185,
      "samhälle": 5186,
      "##hver": 5187,
      "Syd": 5188,
      "##heng": 5189,
      "bag": 5190,
      "##én": 5191,
      "##ledes": 5192,
      "innbyg": 5193,
      "##orer": 5194,
      "##öv": 5195,
      "arter": 5196,
      "##opter": 5197,
      "representer": 5198,
      "##helm": 5199,
      "178": 5200,
      "lev": 5201,
      "lys": 5202,
      "##mes": 5203,
      "seinare": 5204,
      "##aga": 5205,
      "1969": 5206,
      "##sdag": 5207,
      "Do": 5208,
      "##AR": 5209,
      "##ående": 5210,
      "##arn": 5211,
      "tills": 5212,
      "britiske": 5213,
      "ju": 5214,
      "##ips": 5215,
      "##own": 5216,
      "tot": 5217,
      "stedet": 5218,
      "relig": 5219,
      "utvik": 5220,
      "01": 5221,
      "hjelp": 5222,
      "##isen": 5223,
      "##album": 5224,
      "##rådet": 5225,
      "##las": 5226,
      "##inen": 5227,
      "läng": 5228,
      "Survey": 5229,
      "bud": 5230,
      "Martin": 5231,
      "##vens": 5232,
      "inde": 5233,
      "##holder": 5234,
      "##sst": 5235,
      "befolk": 5236,
      "svenska": 5237,
      "##OR": 5238,
      "Gra": 5239,
      "set": 5240,
      "president": 5241,
      "##fär": 5242,
      "kuper": 5243,
      "##vir": 5244,
      "##hald": 5245,
      "enkel": 5246,
      "flera": 5247,
      "##skog": 5248,
      "Vid": 5249,
      "##drag": 5250,
      "mis": 5251,
      "fall": 5252,
      "##vej": 5253,
      "disk": 5254,
      "##vist": 5255,
      "staden": 5256,
      "Hot": 5257,
      "##stan": 5258,
      "serien": 5259,
      "laget": 5260,
      "oppdag": 5261,
      "##området": 5262,
      "##ological": 5263,
      "##ifter": 5264,
      "samma": 5265,
      "##ney": 5266,
      "datter": 5267,
      "tæ": 5268,
      "##ikar": 5269,
      "vinter": 5270,
      "##isme": 5271,
      "Alle": 5272,
      "Aph": 5273,
      "##nene": 5274,
      "Cor": 5275,
      "kir": 5276,
      "##vand": 5277,
      "Jac": 5278,
      "1940": 5279,
      "dra": 5280,
      "græ": 5281,
      "##lekten": 5282,
      "Sø": 5283,
      "##huset": 5284,
      "nød": 5285,
      "ep": 5286,
      "mater": 5287,
      "Ann": 5288,
      "Lou": 5289,
      "fod": 5290,
      "findes": 5291,
      "fest": 5292,
      "alltid": 5293,
      "sat": 5294,
      "##heder": 5295,
      "pa": 5296,
      "George": 5297,
      "##yra": 5298,
      "##rätt": 5299,
      "##ninga": 5300,
      "Cap": 5301,
      "##kka": 5302,
      "Sim": 5303,
      "##30": 5304,
      "##rasil": 5305,
      "hennes": 5306,
      "kuperad": 5307,
      "##oven": 5308,
      "##sikt": 5309,
      "Lind": 5310,
      "inse": 5311,
      "34": 5312,
      "##iber": 5313,
      "Tr": 5314,
      "Georg": 5315,
      "folket": 5316,
      "innen": 5317,
      "##nast": 5318,
      "fø": 5319,
      "##havet": 5320,
      "Stud": 5321,
      "Bab": 5322,
      "##ulle": 5323,
      "universitet": 5324,
      "gjer": 5325,
      "##oren": 5326,
      "##uer": 5327,
      "##rael": 5328,
      "Anne": 5329,
      "##entlig": 5330,
      "##ops": 5331,
      "##lo": 5332,
      "Närmaste": 5333,
      "##ckt": 5334,
      "##21": 5335,
      "ol": 5336,
      "ni": 5337,
      "City": 5338,
      "Bon": 5339,
      "Mot": 5340,
      "Ung": 5341,
      "Aï": 5342,
      "##delige": 5343,
      "##ilder": 5344,
      "krav": 5345,
      "skrevet": 5346,
      "gik": 5347,
      "nya": 5348,
      "##gång": 5349,
      "##ios": 5350,
      "37": 5351,
      "##ellen": 5352,
      "Rad": 5353,
      "1920": 5354,
      "dock": 5355,
      "Inter": 5356,
      "bol": 5357,
      "heile": 5358,
      "ti": 5359,
      "##'''": 5360,
      "krigen": 5361,
      "##aldt": 5362,
      "National": 5363,
      "familien": 5364,
      "##eles": 5365,
      "##orten": 5366,
      "gör": 5367,
      "1967": 5368,
      "##osof": 5369,
      "##imat": 5370,
      "2019": 5371,
      "di": 5372,
      "##syk": 5373,
      "vit": 5374,
      "##IS": 5375,
      "##uts": 5376,
      "leng": 5377,
      "åra": 5378,
      "By": 5379,
      "genomsnitt": 5380,
      "##urder": 5381,
      "norr": 5382,
      "Res": 5383,
      "artik": 5384,
      "##nade": 5385,
      "hjelpe": 5386,
      "Kina": 5387,
      "Nu": 5388,
      "omt": 5389,
      "bandet": 5390,
      "skole": 5391,
      "##familien": 5392,
      "forbindelse": 5393,
      "fru": 5394,
      "aldrig": 5395,
      "karri": 5396,
      "väx": 5397,
      "Ly": 5398,
      "vant": 5399,
      "sub": 5400,
      "##nisk": 5401,
      "##lingen": 5402,
      "##førte": 5403,
      "##sida": 5404,
      "##vers": 5405,
      "##vok": 5406,
      "##ato": 5407,
      "##ony": 5408,
      "rätt": 5409,
      "Inn": 5410,
      "medlemmer": 5411,
      "##okus": 5412,
      "prakt": 5413,
      "Count": 5414,
      "Ger": 5415,
      "##lere": 5416,
      "##følge": 5417,
      "Press": 5418,
      "Sogn": 5419,
      "##ism": 5420,
      "##ux": 5421,
      "##film": 5422,
      "##iode": 5423,
      "låg": 5424,
      "stoff": 5425,
      "centrala": 5426,
      "##onen": 5427,
      "##skole": 5428,
      "##resent": 5429,
      "39": 5430,
      "Vil": 5431,
      "##ics": 5432,
      "##snittlig": 5433,
      "Ass": 5434,
      "kendt": 5435,
      "professor": 5436,
      "Tom": 5437,
      "Øst": 5438,
      "##sat": 5439,
      "Ath": 5440,
      "gitar": 5441,
      "Anton": 5442,
      "Att": 5443,
      "Norges": 5444,
      "Vol": 5445,
      "##dem": 5446,
      "Des": 5447,
      "Gust": 5448,
      "døm": 5449,
      "skol": 5450,
      "1964": 5451,
      "##ägg": 5452,
      "Ud": 5453,
      "mulig": 5454,
      "något": 5455,
      "##lede": 5456,
      "##ysten": 5457,
      "Hvis": 5458,
      "ren": 5459,
      "##amer": 5460,
      "##anten": 5461,
      "##isa": 5462,
      "177": 5463,
      "allerede": 5464,
      "Lin": 5465,
      "skåde": 5466,
      "Jes": 5467,
      "Ital": 5468,
      "Fre": 5469,
      "##egn": 5470,
      "lidt": 5471,
      "funger": 5472,
      "inkluder": 5473,
      "38": 5474,
      "##oppen": 5475,
      "gra": 5476,
      "##rene": 5477,
      "##ammans": 5478,
      "udg": 5479,
      "##bild": 5480,
      "##rens": 5481,
      "Arbe": 5482,
      "##vinge": 5483,
      "##kor": 5484,
      "senare": 5485,
      "henne": 5486,
      "vandt": 5487,
      "##rikk": 5488,
      "bygget": 5489,
      "Alt": 5490,
      "1965": 5491,
      "##60": 5492,
      "rej": 5493,
      "Fr": 5494,
      "##ative": 5495,
      "War": 5496,
      "##bruks": 5497,
      "##asjoner": 5498,
      "Hall": 5499,
      "##naden": 5500,
      "oper": 5501,
      "lokal": 5502,
      "##sar": 5503,
      "cent": 5504,
      "førte": 5505,
      "Mark": 5506,
      "gång": 5507,
      "##mand": 5508,
      "Jose": 5509,
      "bedre": 5510,
      "Nil": 5511,
      "Bern": 5512,
      "lagt": 5513,
      "Ott": 5514,
      "Fa": 5515,
      "hjæl": 5516,
      "Store": 5517,
      "Tre": 5518,
      "kø": 5519,
      "Aïn": 5520,
      "On": 5521,
      "##hör": 5522,
      "hvert": 5523,
      "##isjonen": 5524,
      "dre": 5525,
      "Lund": 5526,
      "Byen": 5527,
      "gruppe": 5528,
      "##anskje": 5529,
      "##za": 5530,
      "årsn": 5531,
      "##område": 5532,
      "konge": 5533,
      "1930": 5534,
      "största": 5535,
      "forsvar": 5536,
      "##oner": 5537,
      "1966": 5538,
      "bus": 5539,
      "Kjelder": 5540,
      "##uc": 5541,
      "##partementet": 5542,
      "##uf": 5543,
      "gjør": 5544,
      "##vor": 5545,
      "Phil": 5546,
      "mitt": 5547,
      "##eland": 5548,
      "##deling": 5549,
      "##aly": 5550,
      "romer": 5551,
      "##spunkt": 5552,
      "##skabet": 5553,
      "pat": 5554,
      "##iteter": 5555,
      "##ords": 5556,
      "innbyggj": 5557,
      "##idlertid": 5558,
      "publ": 5559,
      "##itte": 5560,
      "300": 5561,
      "##gård": 5562,
      "Kategori": 5563,
      "overt": 5564,
      "##ement": 5565,
      "vidare": 5566,
      "##hl": 5567,
      "bron": 5568,
      "##vs": 5569,
      "Liv": 5570,
      "tät": 5571,
      "tan": 5572,
      "##fyl": 5573,
      "årsneder": 5574,
      "torraste": 5575,
      "Genomsnittlig": 5576,
      "##stitut": 5577,
      "årsnederbörd": 5578,
      "nokre": 5579,
      "regnigaste": 5580,
      "##nader": 5581,
      "##40": 5582,
      "Michael": 5583,
      "avsl": 5584,
      "James": 5585,
      "gir": 5586,
      "Mod": 5587,
      "ro": 5588,
      "Nam": 5589,
      "##insk": 5590,
      "##åg": 5591,
      "##mester": 5592,
      "bild": 5593,
      "tidigare": 5594,
      "pen": 5595,
      "##fall": 5596,
      "##holdt": 5597,
      "##line": 5598,
      "41": 5599,
      "Arch": 5600,
      "##ient": 5601,
      "##test": 5602,
      "Commons": 5603,
      "heilt": 5604,
      "Jer": 5605,
      "##nam": 5606,
      "##imedia": 5607,
      "internasjon": 5608,
      "42": 5609,
      "1800": 5610,
      "føre": 5611,
      "varmaste": 5612,
      "olymp": 5613,
      "##sket": 5614,
      "##ago": 5615,
      "imp": 5616,
      "##marks": 5617,
      "##satt": 5618,
      "fær": 5619,
      "typ": 5620,
      "Fo": 5621,
      "##ksikon": 5622,
      "##plass": 5623,
      "Amerik": 5624,
      "regjer": 5625,
      "deltok": 5626,
      "##omme": 5627,
      "##iskop": 5628,
      "##jt": 5629,
      "vores": 5630,
      "##iro": 5631,
      "Fac": 5632,
      "##amen": 5633,
      "nytta": 5634,
      "kvart": 5635,
      "dikt": 5636,
      "##plan": 5637,
      "Kir": 5638,
      "##fug": 5639,
      "##ield": 5640,
      "sand": 5641,
      "topp": 5642,
      "##skar": 5643,
      "##ærer": 5644,
      "##ellet": 5645,
      "lj": 5646,
      "Sy": 5647,
      "Album": 5648,
      "Universitet": 5649,
      "nära": 5650,
      "kallaste": 5651,
      "Far": 5652,
      "##ET": 5653,
      "Charles": 5654,
      "kirke": 5655,
      "sym": 5656,
      "rum": 5657,
      "medeltemperaturen": 5658,
      "Ke": 5659,
      "##alk": 5660,
      "##smedeltemperaturen": 5661,
      "tida": 5662,
      "Årsmedeltemperaturen": 5663,
      "gong": 5664,
      "##rettet": 5665,
      "Hand": 5666,
      "vän": 5667,
      "##jör": 5668,
      "tekst": 5669,
      "Bol": 5670,
      "##alet": 5671,
      "varit": 5672,
      "Lars": 5673,
      "Ban": 5674,
      "Ir": 5675,
      "gratis": 5676,
      "Richard": 5677,
      "familie": 5678,
      "kjeld": 5679,
      "God": 5680,
      "##äs": 5681,
      "##vern": 5682,
      "rapp": 5683,
      "55": 5684,
      "oppgav": 5685,
      "hurt": 5686,
      "Alexander": 5687,
      "kunde": 5688,
      "Geological": 5689,
      "hitt": 5690,
      "hår": 5691,
      "48": 5692,
      "III": 5693,
      "hær": 5694,
      "Geograph": 5695,
      "Bas": 5696,
      "fol": 5697,
      "bedste": 5698,
      "Fer": 5699,
      "##iteten": 5700,
      "inneheld": 5701,
      "##anns": 5702,
      "nordväst": 5703,
      "arrang": 5704,
      "traf": 5705,
      "Lake": 5706,
      "kän": 5707,
      "##stid": 5708,
      "asteroid": 5709,
      "##pel": 5710,
      "sem": 5711,
      "##angen": 5712,
      "Beg": 5713,
      "Hus": 5714,
      "##kning": 5715,
      "Maria": 5716,
      "175": 5717,
      "##klub": 5718,
      "moderne": 5719,
      "##uel": 5720,
      "udgiv": 5721,
      "Black": 5722,
      "arab": 5723,
      "##rans": 5724,
      "skip": 5725,
      "Part": 5726,
      "Ven": 5727,
      "##edet": 5728,
      "gjøre": 5729,
      "##vingeart": 5730,
      "tvåvingeart": 5731,
      "try": 5732,
      "kost": 5733,
      "finnes": 5734,
      "##oni": 5735,
      "##ativt": 5736,
      "kons": 5737,
      "##fe": 5738,
      "sju": 5739,
      "jur": 5740,
      "AB": 5741,
      "jap": 5742,
      "Finland": 5743,
      "Pla": 5744,
      "byr": 5745,
      "virk": 5746,
      "##orna": 5747,
      "Trond": 5748,
      "##rige": 5749,
      "##på": 5750,
      "Ze": 5751,
      "direkte": 5752,
      "West": 5753,
      "47": 5754,
      "Tra": 5755,
      "hela": 5756,
      "##pan": 5757,
      "skrive": 5758,
      "eneste": 5759,
      "##obb": 5760,
      "Dansk": 5761,
      "Rock": 5762,
      "##jö": 5763,
      "##avn": 5764,
      "##evel": 5765,
      "stora": 5766,
      "Lib": 5767,
      "Park": 5768,
      "någon": 5769,
      "##ström": 5770,
      "##oe": 5771,
      "##tre": 5772,
      "dår": 5773,
      "##aker": 5774,
      "några": 5775,
      "Love": 5776,
      "##føre": 5777,
      "75": 5778,
      "journal": 5779,
      "litteratur": 5780,
      "ger": 5781,
      "08": 5782,
      "##valg": 5783,
      "Ett": 5784,
      "én": 5785,
      "Aar": 5786,
      "##skol": 5787,
      "Fv": 5788,
      "##po": 5789,
      "##igtig": 5790,
      "årene": 5791,
      "ort": 5792,
      "##skl": 5793,
      "barne": 5794,
      "Arm": 5795,
      "mott": 5796,
      "eget": 5797,
      "minst": 5798,
      "##uten": 5799,
      "Fredrik": 5800,
      "sjö": 5801,
      "italiensk": 5802,
      "##reb": 5803,
      "Hels": 5804,
      "eng": 5805,
      "jern": 5806,
      "1962": 5807,
      "##stilling": 5808,
      "44": 5809,
      "informasjon": 5810,
      "Hansen": 5811,
      "##stånd": 5812,
      "bygd": 5813,
      "versjon": 5814,
      "Im": 5815,
      "Gr": 5816,
      "Song": 5817,
      "##bart": 5818,
      "##cia": 5819,
      "02": 5820,
      "##slaget": 5821,
      "1956": 5822,
      "klubben": 5823,
      "1963": 5824,
      "Wikimedia": 5825,
      "vansk": 5826,
      "##fta": 5827,
      "resultater": 5828,
      "##ano": 5829,
      "##rifter": 5830,
      "Ham": 5831,
      "eig": 5832,
      "##ept": 5833,
      "##ommen": 5834,
      "dk": 5835,
      "##emb": 5836,
      "samtidig": 5837,
      "org": 5838,
      "yng": 5839,
      "##ologisk": 5840,
      "nordost": 5841,
      "region": 5842,
      "hatt": 5843,
      "##estaur": 5844,
      "kjeldene": 5845,
      "kontakt": 5846,
      "Albert": 5847,
      "hjäl": 5848,
      "gar": 5849,
      "##rogram": 5850,
      "Ax": 5851,
      "Op": 5852,
      "400": 5853,
      "fokus": 5854,
      "Mex": 5855,
      "1948": 5856,
      "##servator": 5857,
      "ass": 5858,
      "Ja": 5859,
      "Tim": 5860,
      "##yer": 5861,
      "blod": 5862,
      ".-": 5863,
      "föret": 5864,
      "Plan": 5865,
      "støtte": 5866,
      "Till": 5867,
      "##rinn": 5868,
      "tab": 5869,
      "##ollen": 5870,
      "EU": 5871,
      "43": 5872,
      "##smann": 5873,
      "Ana": 5874,
      "##li": 5875,
      "##östra": 5876,
      "hert": 5877,
      "##iana": 5878,
      "AS": 5879,
      "tatt": 5880,
      "Brit": 5881,
      "Jap": 5882,
      "cir": 5883,
      "cm": 5884,
      "##äckt": 5885,
      "Bi": 5886,
      "09": 5887,
      "muse": 5888,
      "##sätt": 5889,
      "1961": 5890,
      "##ski": 5891,
      "inspir": 5892,
      "##ary": 5893,
      "##ome": 5894,
      "##bud": 5895,
      "dere": 5896,
      "roman": 5897,
      "utveck": 5898,
      "gruppen": 5899,
      "##ht": 5900,
      "##eldt": 5901,
      "##ference": 5902,
      "Lud": 5903,
      "ide": 5904,
      "03": 5905,
      "Bat": 5906,
      "bokmål": 5907,
      "##frå": 5908,
      "kjend": 5909,
      "Upp": 5910,
      "##jerg": 5911,
      "Mac": 5912,
      "vej": 5913,
      "tillsammans": 5914,
      "##skrift": 5915,
      "##delser": 5916,
      "gull": 5917,
      "arm": 5918,
      "göra": 5919,
      "Lo": 5920,
      "øya": 5921,
      "Sveriges": 5922,
      "##itets": 5923,
      "##eln": 5924,
      "brug": 5925,
      "##ari": 5926,
      "psyk": 5927,
      "Mange": 5928,
      "##ahl": 5929,
      "skog": 5930,
      "ner": 5931,
      "fodbold": 5932,
      "lange": 5933,
      "Storbritannia": 5934,
      "regist": 5935,
      "annan": 5936,
      "##ndel": 5937,
      "File": 5938,
      "Su": 5939,
      "Sve": 5940,
      "##AT": 5941,
      "enda": 5942,
      "##kjen": 5943,
      "värld": 5944,
      "##iftet": 5945,
      "Må": 5946,
      "utvikling": 5947,
      "05": 5948,
      "Kal": 5949,
      "FC": 5950,
      "författ": 5951,
      "Famil": 5952,
      "sos": 5953,
      "forskjel": 5954,
      "seier": 5955,
      "##anta": 5956,
      "''')": 5957,
      "skil": 5958,
      "finst": 5959,
      "kines": 5960,
      "vind": 5961,
      "##bb": 5962,
      "##emat": 5963,
      "filosof": 5964,
      "event": 5965,
      "skådespelare": 5966,
      "Geographic": 5967,
      "##jektet": 5968,
      "sjuk": 5969,
      "sydost": 5970,
      "tätbefolkat": 5971,
      "delar": 5972,
      "Johannes": 5973,
      "samling": 5974,
      "##anser": 5975,
      "##mod": 5976,
      "Spe": 5977,
      "Met": 5978,
      "Ry": 5979,
      "sølv": 5980,
      "viss": 5981,
      "##hæng": 5982,
      "Lang": 5983,
      "##må": 5984,
      "##øv": 5985,
      "os": 5986,
      "##fører": 5987,
      "sold": 5988,
      "industri": 5989,
      "imidlertid": 5990,
      "tap": 5991,
      "##udd": 5992,
      "Red": 5993,
      "stats": 5994,
      "##ute": 5995,
      "##kan": 5996,
      "sikker": 5997,
      "##nande": 5998,
      "##ues": 5999,
      "sydväst": 6000,
      "Pre": 6001,
      "lett": 6002,
      "##itiv": 6003,
      "eige": 6004,
      "##try": 6005,
      "løpet": 6006,
      "gles": 6007,
      "døy": 6008,
      "løb": 6009,
      "satt": 6010,
      "1958": 6011,
      "motor": 6012,
      "middel": 6013,
      "Kom": 6014,
      "46": 6015,
      "##spl": 6016,
      "titt": 6017,
      "##sning": 6018,
      "##back": 6019,
      "skalbag": 6020,
      "følge": 6021,
      "##landske": 6022,
      "gjerne": 6023,
      "##visning": 6024,
      "prim": 6025,
      "49": 6026,
      "##skil": 6027,
      "##ican": 6028,
      "hva": 6029,
      "snart": 6030,
      "##orte": 6031,
      "##elefon": 6032,
      "##otball": 6033,
      "hendes": 6034,
      "##bruk": 6035,
      "##medal": 6036,
      "978": 6037,
      "##lö": 6038,
      "1957": 6039,
      "børn": 6040,
      "##øver": 6041,
      "##yo": 6042,
      "1938": 6043,
      "öpp": 6044,
      "176": 6045,
      "##uelle": 6046,
      "##ival": 6047,
      "##une": 6048,
      "rekke": 6049,
      "##teborg": 6050,
      "##idd": 6051,
      "##anse": 6052,
      "miljø": 6053,
      "Rep": 6054,
      "##tere": 6055,
      "##inge": 6056,
      "##fjorden": 6057,
      "ba": 6058,
      "##ction": 6059,
      "behandling": 6060,
      "##arm": 6061,
      "##fte": 6062,
      "##ödra": 6063,
      "51": 6064,
      "Kj": 6065,
      "##port": 6066,
      "52": 6067,
      "##allen": 6068,
      "Amb": 6069,
      "kanskje": 6070,
      "##ury": 6071,
      "##edal": 6072,
      "##står": 6073,
      "brev": 6074,
      "##ifte": 6075,
      "Jør": 6076,
      "##delen": 6077,
      "as": 6078,
      "gange": 6079,
      "lokale": 6080,
      "Hav": 6081,
      "tror": 6082,
      "Marie": 6083,
      "##ory": 6084,
      "skyl": 6085,
      "Dem": 6086,
      "##hen": 6087,
      "glesbefolkat": 6088,
      "deltog": 6089,
      "##fra": 6090,
      "EM": 6091,
      "##verket": 6092,
      "mask": 6093,
      "spillet": 6094,
      "Disse": 6095,
      "Way": 6096,
      "Music": 6097,
      "ful": 6098,
      "Brasil": 6099,
      "Italia": 6100,
      "lande": 6101,
      "vek": 6102,
      "ärt": 6103,
      "dø": 6104,
      "ænd": 6105,
      "åp": 6106,
      "Bod": 6107,
      "Ju": 6108,
      "##ses": 6109,
      "##tag": 6110,
      "##eningen": 6111,
      "##fors": 6112,
      "##ledning": 6113,
      "åb": 6114,
      "Danmarks": 6115,
      "Cro": 6116,
      "##byggere": 6117,
      "vari": 6118,
      "1944": 6119,
      "Neder": 6120,
      "vanlig": 6121,
      "serie": 6122,
      "katol": 6123,
      "##rak": 6124,
      "bur": 6125,
      "upptäckt": 6126,
      "insekt": 6127,
      "karakter": 6128,
      "\"''": 6129,
      "følgende": 6130,
      "kyrkje": 6131,
      "1939": 6132,
      "indtil": 6133,
      "spelte": 6134,
      "##ldre": 6135,
      "Cer": 6136,
      "##eta": 6137,
      "utvide": 6138,
      "##kal": 6139,
      "började": 6140,
      "##bor": 6141,
      "blå": 6142,
      "voks": 6143,
      "##ologiske": 6144,
      "arbejde": 6145,
      "sätt": 6146,
      "social": 6147,
      "##utter": 6148,
      "Kor": 6149,
      "altså": 6150,
      "kre": 6151,
      "erst": 6152,
      "so": 6153,
      "grens": 6154,
      "ka": 6155,
      "1947": 6156,
      "##azz": 6157,
      "stå": 6158,
      "##gsart": 6159,
      "##stil": 6160,
      "che": 6161,
      "##iew": 6162,
      "Amph": 6163,
      "Mü": 6164,
      "skalbaggsart": 6165,
      "vist": 6166,
      "kva": 6167,
      "1959": 6168,
      "##act": 6169,
      "##ktis": 6170,
      "##kont": 6171,
      "##fri": 6172,
      "således": 6173,
      "grev": 6174,
      "##inar": 6175,
      "##gelig": 6176,
      "##fjord": 6177,
      "aut": 6178,
      "spor": 6179,
      "##hov": 6180,
      "innbyggjarar": 6181,
      "tak": 6182,
      "songen": 6183,
      "1946": 6184,
      "mester": 6185,
      "dagar": 6186,
      "originalen": 6187,
      "##eligt": 6188,
      "rolle": 6189,
      "russisk": 6190,
      "##kort": 6191,
      "Sjå": 6192,
      "bå": 6193,
      "Selv": 6194,
      "1914": 6195,
      "Nyn": 6196,
      "##AS": 6197,
      "just": 6198,
      "Bil": 6199,
      "##lov": 6200,
      "##arbet": 6201,
      "Sovjet": 6202,
      "svenske": 6203,
      "millioner": 6204,
      "stopp": 6205,
      "Sil": 6206,
      "driv": 6207,
      "##jøen": 6208,
      "States": 6209,
      "##ærk": 6210,
      "resten": 6211,
      "menn": 6212,
      "##11": 6213,
      "04": 6214,
      "Tro": 6215,
      "57": 6216,
      "ganske": 6217,
      "Hell": 6218,
      "1936": 6219,
      "##iven": 6220,
      "Sid": 6221,
      "les": 6222,
      "bog": 6223,
      "dessa": 6224,
      "huvudsakligen": 6225,
      "Lat": 6226,
      "behov": 6227,
      "ønsker": 6228,
      "Vä": 6229,
      "periode": 6230,
      "##skaber": 6231,
      "##jef": 6232,
      "##kast": 6233,
      "07": 6234,
      "dagens": 6235,
      "gro": 6236,
      "65": 6237,
      "Kommunen": 6238,
      "veldig": 6239,
      "International": 6240,
      "06": 6241,
      "app": 6242,
      "ute": 6243,
      "##rent": 6244,
      "Sommer": 6245,
      "haft": 6246,
      "##ful": 6247,
      "##atten": 6248,
      "##atab": 6249,
      "1952": 6250,
      "but": 6251,
      "##øres": 6252,
      "avg": 6253,
      "spillede": 6254,
      "måste": 6255,
      "##eral": 6256,
      "heim": 6257,
      "##ørte": 6258,
      "Dom": 6259,
      "##aling": 6260,
      "End": 6261,
      "##tar": 6262,
      "sag": 6263,
      "hopp": 6264,
      "##rib": 6265,
      "særlig": 6266,
      "midt": 6267,
      "änd": 6268,
      "##vo": 6269,
      "Nynorsk": 6270,
      "Jack": 6271,
      "um": 6272,
      "##ansen": 6273,
      "Roy": 6274,
      "Jacob": 6275,
      "##risk": 6276,
      "net": 6277,
      "##sut": 6278,
      "vurder": 6279,
      "thumb": 6280,
      "Spanien": 6281,
      "Andreas": 6282,
      "##rip": 6283,
      "slutten": 6284,
      "oprin": 6285,
      "##gor": 6286,
      "##yll": 6287,
      "alder": 6288,
      "fyrste": 6289,
      "fug": 6290,
      "##ür": 6291,
      "drift": 6292,
      "turner": 6293,
      "Sw": 6294,
      "resultat": 6295,
      "Sing": 6296,
      "finne": 6297,
      "##krig": 6298,
      "##rian": 6299,
      "klart": 6300,
      "##onia": 6301,
      "##digt": 6302,
      "dit": 6303,
      "honom": 6304,
      "politiske": 6305,
      "ja": 6306,
      "##ance": 6307,
      "prem": 6308,
      "idag": 6309,
      "Afrika": 6310,
      "bruker": 6311,
      "##rale": 6312,
      "##gaard": 6313,
      "58": 6314,
      "Pri": 6315,
      "Daniel": 6316,
      "##ften": 6317,
      "Göteborg": 6318,
      "Japan": 6319,
      "##oks": 6320,
      "##över": 6321,
      "##uren": 6322,
      "guld": 6323,
      "##ré": 6324,
      "##hi": 6325,
      "Ob": 6326,
      "##cel": 6327,
      "##lav": 6328,
      "##iment": 6329,
      "Film": 6330,
      "verdenskrig": 6331,
      "hum": 6332,
      "##nede": 6333,
      "It": 6334,
      "arbejd": 6335,
      "au": 6336,
      "##lund": 6337,
      "##ypt": 6338,
      "slekt": 6339,
      "##ota": 6340,
      "##ams": 6341,
      "enkelte": 6342,
      "rock": 6343,
      "Polit": 6344,
      "mør": 6345,
      "bror": 6346,
      "App": 6347,
      "ir": 6348,
      "aldri": 6349,
      "Are": 6350,
      "##ific": 6351,
      "borg": 6352,
      "##obal": 6353,
      "##ismen": 6354,
      "##arlam": 6355,
      "Jean": 6356,
      "placer": 6357,
      "##ES": 6358,
      "Kommune": 6359,
      "##ju": 6360,
      "##bane": 6361,
      "Dess": 6362,
      "''\"": 6363,
      "##ript": 6364,
      "##iserte": 6365,
      "##last": 6366,
      "tradisjon": 6367,
      "##wn": 6368,
      "##asen": 6369,
      "följande": 6370,
      "1955": 6371,
      "##punkt": 6372,
      "Stort": 6373,
      "##nde": 6374,
      "##ior": 6375,
      "##RK": 6376,
      "##).": 6377,
      "1912": 6378,
      "tett": 6379,
      "99": 6380,
      "skab": 6381,
      "fir": 6382,
      "Ka": 6383,
      "##rup": 6384,
      "1949": 6385,
      "möj": 6386,
      "County": 6387,
      "##ington": 6388,
      "##una": 6389,
      "sendt": 6390,
      "Historie": 6391,
      "privat": 6392,
      "##grund": 6393,
      "##fekt": 6394,
      "1918": 6395,
      "Rog": 6396,
      "areal": 6397,
      "Id": 6398,
      "##asc": 6399,
      "##ctic": 6400,
      "valg": 6401,
      "svart": 6402,
      "Arne": 6403,
      "54": 6404,
      "Cy": 6405,
      "##öm": 6406,
      "##lek": 6407,
      "Bert": 6408,
      "exempel": 6409,
      "gør": 6410,
      "engelske": 6411,
      "Tek": 6412,
      "nom": 6413,
      "menneske": 6414,
      "Ga": 6415,
      "spille": 6416,
      "##18": 6417,
      "arbeidet": 6418,
      "##ndag": 6419,
      "##lor": 6420,
      "##räm": 6421,
      "indiv": 6422,
      "56": 6423,
      "prins": 6424,
      "hy": 6425,
      "Mont": 6426,
      "##clop": 6427,
      "##älla": 6428,
      "##ty": 6429,
      "Charl": 6430,
      "Arro": 6431,
      "benytt": 6432,
      "gick": 6433,
      "53": 6434,
      "politisk": 6435,
      "valgt": 6436,
      "nesten": 6437,
      "##iti": 6438,
      "fortsatte": 6439,
      "tag": 6440,
      "giver": 6441,
      "sådan": 6442,
      "##ivision": 6443,
      "1942": 6444,
      "gi": 6445,
      "##vart": 6446,
      "begyndte": 6447,
      "tør": 6448,
      "offentlig": 6449,
      "1910": 6450,
      "län": 6451,
      "Cast": 6452,
      "gøre": 6453,
      "##arken": 6454,
      "test": 6455,
      "##post": 6456,
      "laga": 6457,
      "Az": 6458,
      "##eten": 6459,
      "Sn": 6460,
      "Grand": 6461,
      "1941": 6462,
      "skrift": 6463,
      "##wa": 6464,
      "fär": 6465,
      "Russland": 6466,
      "plasser": 6467,
      "situ": 6468,
      "Sports": 6469,
      "Cre": 6470,
      "Belg": 6471,
      "detal": 6472,
      "##wood": 6473,
      "1954": 6474,
      "demokrat": 6475,
      "venstre": 6476,
      "Henry": 6477,
      "##ærende": 6478,
      "elva": 6479,
      "##ørs": 6480,
      "##vil": 6481,
      "meste": 6482,
      "cirka": 6483,
      "##ästa": 6484,
      "restaur": 6485,
      "Detta": 6486,
      "Records": 6487,
      "##egor": 6488,
      "Pat": 6489,
      "blom": 6490,
      "ident": 6491,
      "##dere": 6492,
      "##cyclop": 6493,
      "kontroll": 6494,
      "##llust": 6495,
      "Byg": 6496,
      "##tale": 6497,
      "##iks": 6498,
      "dating": 6499,
      "Helsing": 6500,
      "##ältet": 6501,
      "##sberg": 6502,
      "##ani": 6503,
      "##ón": 6504,
      "1943": 6505,
      "Gun": 6506,
      "##vard": 6507,
      "##kkje": 6508,
      "##hard": 6509,
      "Magn": 6510,
      "internation": 6511,
      "##järn": 6512,
      "##æk": 6513,
      "##ela": 6514,
      "Kunst": 6515,
      "log": 6516,
      "Ole": 6517,
      "britisk": 6518,
      "vera": 6519,
      "North": 6520,
      "nærm": 6521,
      "Storbritannien": 6522,
      "Arth": 6523,
      "ag": 6524,
      "norra": 6525,
      "foret": 6526,
      "hå": 6527,
      "59": 6528,
      "##forsk": 6529,
      "viste": 6530,
      "with": 6531,
      "Veg": 6532,
      "##andre": 6533,
      "##uta": 6534,
      "jordbruks": 6535,
      "Fe": 6536,
      "finalen": 6537,
      "upptäcktes": 6538,
      "arkitekt": 6539,
      "Hill": 6540,
      "##lägg": 6541,
      "strid": 6542,
      "Smith": 6543,
      "##yrer": 6544,
      "varier": 6545,
      "ork": 6546,
      "holdt": 6547,
      "Museum": 6548,
      "stre": 6549,
      "##lim": 6550,
      "##eden": 6551,
      "Israel": 6552,
      "1928": 6553,
      "##sol": 6554,
      "##oma": 6555,
      "undersø": 6556,
      "1953": 6557,
      "##ema": 6558,
      "King": 6559,
      "nogen": 6560,
      "offic": 6561,
      "1919": 6562,
      "prest": 6563,
      "##vert": 6564,
      "uddann": 6565,
      "Europ": 6566,
      "Ras": 6567,
      "1935": 6568,
      ")»": 6569,
      "offentleg": 6570,
      "1917": 6571,
      "dine": 6572,
      "##andid": 6573,
      "Van": 6574,
      "##ygt": 6575,
      "knytt": 6576,
      "##nå": 6577,
      "##æst": 6578,
      "varm": 6579,
      "64": 6580,
      "Encyclop": 6581,
      "Hå": 6582,
      "##iff": 6583,
      "lære": 6584,
      "##lighed": 6585,
      "køb": 6586,
      "bruke": 6587,
      "Hj": 6588,
      "##ringen": 6589,
      "insektsart": 6590,
      "from": 6591,
      "##øs": 6592,
      "##revet": 6593,
      "##pass": 6594,
      "Ca": 6595,
      "bom": 6596,
      "hende": 6597,
      "Wilhelm": 6598,
      "modt": 6599,
      "Best": 6600,
      "##nev": 6601,
      "##ifor": 6602,
      "parti": 6603,
      "##gør": 6604,
      "##sborg": 6605,
      "vanleg": 6606,
      "ytter": 6607,
      "skild": 6608,
      "basert": 6609,
      "amb": 6610,
      "1937": 6611,
      "Fyl": 6612,
      "begynte": 6613,
      "blad": 6614,
      "disp": 6615,
      "Bok": 6616,
      "##atn": 6617,
      "opphav": 6618,
      "##12": 6619,
      "na": 6620,
      "##dige": 6621,
      "mun": 6622,
      "europe": 6623,
      "##æs": 6624,
      "distriktet": 6625,
      "borger": 6626,
      "##ära": 6627,
      "##arch": 6628,
      "gäll": 6629,
      "##19": 6630,
      "Gruppen": 6631,
      "poeng": 6632,
      "##orf": 6633,
      "sæson": 6634,
      "##lemer": 6635,
      "kunna": 6636,
      "Grøn": 6637,
      "##flug": 6638,
      "kvinner": 6639,
      "plats": 6640,
      "##rateg": 6641,
      "forskjellige": 6642,
      "##håll": 6643,
      "slaget": 6644,
      "Bad": 6645,
      "##rott": 6646,
      "slå": 6647,
      "##fest": 6648,
      "likevel": 6649,
      "##sku": 6650,
      "känd": 6651,
      "##yle": 6652,
      "150": 6653,
      "1924": 6654,
      "Arn": 6655,
      "altern": 6656,
      "Mach": 6657,
      "1913": 6658,
      "vokal": 6659,
      "holde": 6660,
      "Canada": 6661,
      "##inae": 6662,
      "eff": 6663,
      "finans": 6664,
      "##menter": 6665,
      "Louis": 6666,
      "siger": 6667,
      "##lement": 6668,
      "fart": 6669,
      "170": 6670,
      "samarbeid": 6671,
      "information": 6672,
      "IF": 6673,
      "sagt": 6674,
      "bind": 6675,
      "##stend": 6676,
      "##dra": 6677,
      "døydde": 6678,
      "ke": 6679,
      "Les": 6680,
      "##fær": 6681,
      "##ING": 6682,
      "##ifik": 6683,
      "##iano": 6684,
      "Olav": 6685,
      "teater": 6686,
      "##gren": 6687,
      "forfatt": 6688,
      "Sovjetun": 6689,
      "områder": 6690,
      "ekstra": 6691,
      "bos": 6692,
      "beslut": 6693,
      "##rot": 6694,
      "Tour": 6695,
      "1932": 6696,
      "dele": 6697,
      "människ": 6698,
      "södra": 6699,
      "##bas": 6700,
      "##iva": 6701,
      "##rus": 6702,
      "##abil": 6703,
      "##ersom": 6704,
      "##edag": 6705,
      "Vis": 6706,
      "Nic": 6707,
      "effe": 6708,
      "dä": 6709,
      "nordvest": 6710,
      "mob": 6711,
      "Finn": 6712,
      "##æss": 6713,
      "Litteratur": 6714,
      "##ogle": 6715,
      "##idrett": 6716,
      "sej": 6717,
      "nødven": 6718,
      "##ipl": 6719,
      "##ria": 6720,
      "tilk": 6721,
      "gul": 6722,
      "kontrol": 6723,
      "gud": 6724,
      "##kra": 6725,
      "toppen": 6726,
      "##tta": 6727,
      "gått": 6728,
      "1908": 6729,
      "##boll": 6730,
      "finde": 6731,
      "Bet": 6732,
      "##vi": 6733,
      "##rut": 6734,
      "journalist": 6735,
      "##fab": 6736,
      "såg": 6737,
      "data": 6738,
      "lö": 6739,
      "##inne": 6740,
      "##dagen": 6741,
      "##grunn": 6742,
      "CD": 6743,
      "##ON": 6744,
      "bass": 6745,
      "udvik": 6746,
      "spire": 6747,
      "##æring": 6748,
      "tillhör": 6749,
      "växer": 6750,
      "##hop": 6751,
      "deler": 6752,
      "revol": 6753,
      "sida": 6754,
      "Mol": 6755,
      "ditt": 6756,
      "reger": 6757,
      "1951": 6758,
      "##alderen": 6759,
      "ga": 6760,
      "174": 6761,
      "maler": 6762,
      "##out": 6763,
      "Fly": 6764,
      "Vict": 6765,
      "South": 6766,
      "##bø": 6767,
      "veck": 6768,
      "betyder": 6769,
      "sider": 6770,
      "fuld": 6771,
      "Amerika": 6772,
      "##organis": 6773,
      "##talet": 6774,
      "fylke": 6775,
      "##otte": 6776,
      "##landsk": 6777,
      "##elsk": 6778,
      "##ration": 6779,
      "forstå": 6780,
      "rö": 6781,
      "##lagd": 6782,
      "##aria": 6783,
      "##essen": 6784,
      "##ente": 6785,
      "##ridge": 6786,
      "##erat": 6787,
      "##16": 6788,
      "##ague": 6789,
      "##ming": 6790,
      "anven": 6791,
      "##fal": 6792,
      "lek": 6793,
      "1934": 6794,
      "##enes": 6795,
      "##inske": 6796,
      "Bah": 6797,
      "kö": 6798,
      "Ah": 6799,
      "beskriv": 6800,
      "##fart": 6801,
      "grupper": 6802,
      "Stad": 6803,
      "##bry": 6804,
      "American": 6805,
      "Och": 6806,
      "peng": 6807,
      "##jan": 6808,
      "gammel": 6809,
      "brun": 6810,
      "1933": 6811,
      "##etten": 6812,
      "87": 6813,
      "produkt": 6814,
      "dels": 6815,
      "sovjet": 6816,
      "##arp": 6817,
      "Bry": 6818,
      "Malm": 6819,
      "con": 6820,
      "Mell": 6821,
      "styre": 6822,
      "##arte": 6823,
      "1905": 6824,
      "skriver": 6825,
      "##nat": 6826,
      "##länd": 6827,
      "##ikke": 6828,
      "##0000": 6829,
      "##80": 6830,
      ":)": 6831,
      "krä": 6832,
      "skjer": 6833,
      "##nn": 6834,
      "super": 6835,
      "##iforn": 6836,
      "måte": 6837,
      ".''": 6838,
      "fatt": 6839,
      "inst": 6840,
      "##atan": 6841,
      "##deligt": 6842,
      "endnu": 6843,
      "##eds": 6844,
      "1929": 6845,
      "mynd": 6846,
      "1911": 6847,
      "Alfred": 6848,
      "rask": 6849,
      "##IL": 6850,
      "##mat": 6851,
      "bre": 6852,
      "Pet": 6853,
      "##ois": 6854,
      "##ronning": 6855,
      "producer": 6856,
      "midten": 6857,
      "steder": 6858,
      "stekel": 6859,
      "##oria": 6860,
      "##ids": 6861,
      "##mon": 6862,
      "produksjon": 6863,
      "85": 6864,
      "##illet": 6865,
      "Jens": 6866,
      "##joner": 6867,
      "grøn": 6868,
      "##andt": 6869,
      "##andra": 6870,
      "Jensen": 6871,
      "sten": 6872,
      "##oci": 6873,
      "kroner": 6874,
      "##djur": 6875,
      "Toppen": 6876,
      "##bältet": 6877,
      "Filmen": 6878,
      "##edel": 6879,
      "stekelart": 6880,
      "##ppa": 6881,
      "energi": 6882,
      "national": 6883,
      "bon": 6884,
      "##rest": 6885,
      "Norske": 6886,
      "egne": 6887,
      "##osp": 6888,
      "##anda": 6889,
      "startet": 6890,
      "##17": 6891,
      "##vision": 6892,
      "nettsted": 6893,
      "##produ": 6894,
      "##jekk": 6895,
      "1921": 6896,
      "neste": 6897,
      "##vare": 6898,
      "##deles": 6899,
      "især": 6900,
      "gällande": 6901,
      "udgivet": 6902,
      "Fal": 6903,
      "##sent": 6904,
      "finn": 6905,
      "##14": 6906,
      "1922": 6907,
      "##board": 6908,
      "Joseph": 6909,
      "moh": 6910,
      "verksam": 6911,
      "Fried": 6912,
      "Arten": 6913,
      "sång": 6914,
      "forsø": 6915,
      "##smark": 6916,
      "Bob": 6917,
      "##ystemet": 6918,
      "##15": 6919,
      "👨🏽": 6920,
      "👨🏾": 6921,
      "👨🏼": 6922,
      "👨🏻": 6923,
      "👨🏿": 6924,
      "👩🏽": 6925,
      "👩🏾": 6926,
      "👩🏼": 6927,
      "👩🏻": 6928,
      "👩🏿": 6929,
      "##ville": 6930,
      "regering": 6931,
      "##ockey": 6932,
      "Foto": 6933,
      "Reference": 6934,
      "##trä": 6935,
      "medal": 6936,
      "militær": 6937,
      "erob": 6938,
      "##siden": 6939,
      "##ones": 6940,
      "samband": 6941,
      "Italien": 6942,
      "behand": 6943,
      "##25": 6944,
      "Kh": 6945,
      "##valt": 6946,
      "1925": 6947,
      "Dar": 6948,
      "##edd": 6949,
      "1931": 6950,
      "##alender": 6951,
      "##ivil": 6952,
      "publik": 6953,
      "##aceae": 6954,
      "##EL": 6955,
      "kop": 6956,
      "Sig": 6957,
      "Stav": 6958,
      "Bus": 6959,
      "orden": 6960,
      "Center": 6961,
      "huset": 6962,
      "bad": 6963,
      "inför": 6964,
      "Di": 6965,
      "Nik": 6966,
      "##illing": 6967,
      "Statens": 6968,
      "ofta": 6969,
      "Mat": 6970,
      "faktisk": 6971,
      "Mu": 6972,
      "britt": 6973,
      "##otten": 6974,
      "NRK": 6975,
      "stru": 6976,
      "66": 6977,
      "huvudbältet": 6978,
      "Slekten": 6979,
      "Peder": 6980,
      "##virk": 6981,
      "##ælles": 6982,
      "Eit": 6983,
      "Trondheim": 6984,
      "deltag": 6985,
      "foran": 6986,
      "67": 6987,
      "##ukt": 6988,
      "May": 6989,
      "nådde": 6990,
      "##13": 6991,
      "Super": 6992,
      "##uell": 6993,
      "vol": 6994,
      "Thor": 6995,
      "Kirke": 6996,
      "Andersen": 6997,
      "##uttet": 6998,
      "regel": 6999,
      "gitt": 7000,
      "1906": 7001,
      "##åller": 7002,
      "##zz": 7003,
      "fantast": 7004,
      "##ibliote": 7005,
      "Hoved": 7006,
      "Max": 7007,
      "63": 7008,
      "##vice": 7009,
      "gjere": 7010,
      "kolon": 7011,
      "##aven": 7012,
      "##hj": 7013,
      "eftersom": 7014,
      "##imm": 7015,
      "innhald": 7016,
      "##æn": 7017,
      "##tiden": 7018,
      "nivå": 7019,
      "rød": 7020,
      "##ox": 7021,
      "Gold": 7022,
      "Brand": 7023,
      "##bi": 7024,
      "1916": 7025,
      "kampen": 7026,
      "long": 7027,
      "fotograf": 7028,
      "1923": 7029,
      "spilte": 7030,
      "##ower": 7031,
      "främ": 7032,
      "##sty": 7033,
      "##ission": 7034,
      "##iko": 7035,
      "Ball": 7036,
      "lär": 7037,
      "Sund": 7038,
      "##nte": 7039,
      "##seende": 7040,
      "skad": 7041,
      "Fort": 7042,
      "läm": 7043,
      "##gelige": 7044,
      "##isielt": 7045,
      "##abeth": 7046,
      "altid": 7047,
      "##stod": 7048,
      "##inal": 7049,
      "kna": 7050,
      "arg": 7051,
      "##),": 7052,
      "Frankrig": 7053,
      "Ele": 7054,
      "##teret": 7055,
      "kul": 7056,
      "1927": 7057,
      "særleg": 7058,
      "astronomen": 7059,
      "Award": 7060,
      "fab": 7061,
      "Oper": 7062,
      "kung": 7063,
      "##ärn": 7064,
      "##olin": 7065,
      "kategor": 7066,
      "bruger": 7067,
      "##kraft": 7068,
      "omgivningarna": 7069,
      "kjøp": 7070,
      "##äder": 7071,
      "arten": 7072,
      "1904": 7073,
      "Bag": 7074,
      "League": 7075,
      "Nielsen": 7076,
      "Ur": 7077,
      "##esser": 7078,
      "måde": 7079,
      "pal": 7080,
      "Gal": 7081,
      "forskning": 7082,
      "spin": 7083,
      "##ordet": 7084,
      "##hånd": 7085,
      "1915": 7086,
      "##män": 7087,
      "##skilt": 7088,
      "Bjørn": 7089,
      "##reng": 7090,
      "##iør": 7091,
      "##jev": 7092,
      "##føring": 7093,
      "samhäll": 7094,
      "almin": 7095,
      "##ammen": 7096,
      "##buter": 7097,
      "1926": 7098,
      "hin": 7099,
      "lenge": 7100,
      "##ye": 7101,
      "##kall": 7102,
      "Kultur": 7103,
      "Publ": 7104,
      "##AL": 7105,
      "kræ": 7106,
      "##skapen": 7107,
      "Mount": 7108,
      "grun": 7109,
      "Edward": 7110,
      "173": 7111,
      "Kro": 7112,
      "Svenska": 7113,
      "Jak": 7114,
      "landsby": 7115,
      "##24": 7116,
      "##banen": 7117,
      "Kvin": 7118,
      "##øte": 7119,
      "Vir": 7120,
      "##23": 7121,
      "##cha": 7122,
      "Lille": 7123,
      "##ih": 7124,
      "ko": 7125,
      "##steklar": 7126,
      "radio": 7127,
      "hust": 7128,
      "spelar": 7129,
      "##ía": 7130,
      "##icus": 7131,
      "##arbejde": 7132,
      "landets": 7133,
      "##partiet": 7134,
      "##nere": 7135,
      "##amerik": 7136,
      "alvor": 7137,
      "##ikkel": 7138,
      "##teg": 7139,
      "##oli": 7140,
      "Dre": 7141,
      "Gustav": 7142,
      "kommentar": 7143,
      "##brug": 7144,
      "##bladet": 7145,
      "ganger": 7146,
      "ej": 7147,
      "##mor": 7148,
      "1907": 7149,
      "syfta": 7150,
      "##ög": 7151,
      "##resse": 7152,
      "74": 7153,
      "utgitt": 7154,
      "sier": 7155,
      "tän": 7156,
      "Madrid": 7157,
      "##uelt": 7158,
      "Kol": 7159,
      "debut": 7160,
      "enligt": 7161,
      "##gjør": 7162,
      "tillb": 7163,
      "##ikkert": 7164,
      "folke": 7165,
      "ra": 7166,
      "Leg": 7167,
      "handel": 7168,
      "Ve": 7169,
      "##forening": 7170,
      "##ther": 7171,
      "kongen": 7172,
      "sjø": 7173,
      "Brun": 7174,
      "Sovjetunionen": 7175,
      "##unnet": 7176,
      "refer": 7177,
      "udvikling": 7178,
      "##laver": 7179,
      "##retning": 7180,
      "jobb": 7181,
      "dens": 7182,
      "Hit": 7183,
      "##lysninger": 7184,
      "78": 7185,
      "##ån": 7186,
      "##BC": 7187,
      "Ox": 7188,
      "##ammar": 7189,
      "##ikere": 7190,
      "Ala": 7191,
      "##cht": 7192,
      "erfar": 7193,
      "Polen": 7194,
      "Radio": 7195,
      "##cus": 7196,
      "tron": 7197,
      "##iop": 7198,
      "leksikon": 7199,
      "Knut": 7200,
      "Trom": 7201,
      "##omer": 7202,
      "##ittel": 7203,
      "syg": 7204,
      "##alus": 7205,
      "Live": 7206,
      "funkt": 7207,
      "Harald": 7208,
      "Bell": 7209,
      "##bland": 7210,
      "##ology": 7211,
      "##værk": 7212,
      "dr": 7213,
      "Global": 7214,
      "passer": 7215,
      "Encyclopedia": 7216,
      "##cen": 7217,
      "kvinder": 7218,
      "ed": 7219,
      "##gjort": 7220,
      "##gjorde": 7221,
      "##slam": 7222,
      "fyra": 7223,
      "##tain": 7224,
      "Fir": 7225,
      "##ttet": 7226,
      "Tru": 7227,
      "kej": 7228,
      "inng": 7229,
      "Namnet": 7230,
      "tidlig": 7231,
      "kg": 7232,
      "##rikt": 7233,
      "Yo": 7234,
      "cy": 7235,
      "ph": 7236,
      "Gi": 7237,
      "##inus": 7238,
      "##atar": 7239,
      "internasjonale": 7240,
      "##amin": 7241,
      "##flugor": 7242,
      "sur": 7243,
      "1901": 7244,
      "##äller": 7245,
      "##ægt": 7246,
      "Mål": 7247,
      "väg": 7248,
      "##øse": 7249,
      "dage": 7250,
      "Matt": 7251,
      "##ED": 7252,
      "symbol": 7253,
      "Est": 7254,
      "##splan": 7255,
      "elektron": 7256,
      "##uck": 7257,
      "##urs": 7258,
      "##kesveg": 7259,
      "antalet": 7260,
      "##elder": 7261,
      "##refter": 7262,
      "##ude": 7263,
      "Stra": 7264,
      "nasjonal": 7265,
      "Tel": 7266,
      "##edøm": 7267,
      "##næv": 7268,
      "##br": 7269,
      "vårt": 7270,
      "Cent": 7271,
      "dotter": 7272,
      "mö": 7273,
      "tage": 7274,
      "69": 7275,
      "##skolen": 7276,
      "Omgiv": 7277,
      "##MS": 7278,
      "##ekan": 7279,
      "religi": 7280,
      "sprog": 7281,
      "redakt": 7282,
      "##nsp": 7283,
      "##änder": 7284,
      "##former": 7285,
      "fortsatt": 7286,
      "opprinn": 7287,
      "gjeld": 7288,
      "2020": 7289,
      "##rost": 7290,
      "##ual": 7291,
      "##sid": 7292,
      "mine": 7293,
      "betydning": 7294,
      "##minister": 7295,
      "totalt": 7296,
      "##språk": 7297,
      "spesielt": 7298,
      "synes": 7299,
      "Dra": 7300,
      "deras": 7301,
      "sesongen": 7302,
      "##view": 7303,
      "##ekter": 7304,
      "##full": 7305,
      "Rosen": 7306,
      "Rol": 7307,
      "Australia": 7308,
      "Los": 7309,
      "##rimin": 7310,
      "fal": 7311,
      "##sbyen": 7312,
      "Adolf": 7313,
      "dømes": 7314,
      "ton": 7315,
      "fordel": 7316,
      "##rinc": 7317,
      "sch": 7318,
      "chef": 7319,
      "jød": 7320,
      "mener": 7321,
      "Fjord": 7322,
      "##angel": 7323,
      "skall": 7324,
      "Dal": 7325,
      "##ogne": 7326,
      "Gyl": 7327,
      "bal": 7328,
      "##ante": 7329,
      "deretter": 7330,
      "yder": 7331,
      "1909": 7332,
      "biskop": 7333,
      "##ront": 7334,
      "Omgivningarna": 7335,
      "##gsmål": 7336,
      "##jup": 7337,
      "råder": 7338,
      "elev": 7339,
      "ele": 7340,
      "Die": 7341,
      "ekonom": 7342,
      "represent": 7343,
      "Nov": 7344,
      "Nederland": 7345,
      "hed": 7346,
      "sock": 7347,
      "##valget": 7348,
      "##arab": 7349,
      "Magnus": 7350,
      "Just": 7351,
      "##hr": 7352,
      "russiske": 7353,
      "matemat": 7354,
      "##ison": 7355,
      "##svis": 7356,
      "##mo": 7357,
      "skre": 7358,
      "73": 7359,
      "##ko": 7360,
      "##sident": 7361,
      "møte": 7362,
      "ställ": 7363,
      "##ubb": 7364,
      "reser": 7365,
      "##atabase": 7366,
      "##DF": 7367,
      "bruges": 7368,
      "##eltet": 7369,
      "direktør": 7370,
      "##sund": 7371,
      "sist": 7372,
      "defin": 7373,
      "##con": 7374,
      "lenger": 7375,
      "##unge": 7376,
      "annen": 7377,
      "nyt": 7378,
      "europ": 7379,
      "mennesk": 7380,
      "partiet": 7381,
      "friidrett": 7382,
      "##idea": 7383,
      "felles": 7384,
      "!!": 7385,
      "Cup": 7386,
      "##ssel": 7387,
      "##ni": 7388,
      "eksped": 7389,
      "ris": 7390,
      "jordbruksmark": 7391,
      "Side": 7392,
      "##sför": 7393,
      "våre": 7394,
      "Bang": 7395,
      "helst": 7396,
      "kalt": 7397,
      "ford": 7398,
      "million": 7399,
      "författare": 7400,
      "ferdig": 7401,
      "Hor": 7402,
      "Soc": 7403,
      "lærer": 7404,
      "88": 7405,
      "##awa": 7406,
      "##bj": 7407,
      "##oga": 7408,
      "ordet": 7409,
      "starten": 7410,
      "kyrkja": 7411,
      "ene": 7412,
      "Kv": 7413,
      "##komst": 7414,
      "##øren": 7415,
      "##cke": 7416,
      "kvalitet": 7417,
      "Jesus": 7418,
      "vise": 7419,
      "Fram": 7420,
      "Camp": 7421,
      "låt": 7422,
      "tjän": 7423,
      "eldre": 7424,
      "##ID": 7425,
      "##skj": 7426,
      "figur": 7427,
      "##stænd": 7428,
      "handling": 7429,
      "sette": 7430,
      "säger": 7431,
      "##person": 7432,
      "Holm": 7433,
      "brukes": 7434,
      "Antarktis": 7435,
      "##ution": 7436,
      "Ken": 7437,
      "bygge": 7438,
      "##obel": 7439,
      "Acanth": 7440,
      "dans": 7441,
      "starta": 7442,
      "##kn": 7443,
      "##do": 7444,
      "Hard": 7445,
      "äg": 7446,
      "Ev": 7447,
      "##meld": 7448,
      "##eres": 7449,
      "SK": 7450,
      "Siden": 7451,
      "##ulen": 7452,
      "800": 7453,
      "##mos": 7454,
      "##bundet": 7455,
      "Hur": 7456,
      "##ringar": 7457,
      "århundre": 7458,
      "afsl": 7459,
      "##nende": 7460,
      "parlam": 7461,
      "bef": 7462,
      "##deleg": 7463,
      "platser": 7464,
      "Mexico": 7465,
      "Ingen": 7466,
      "##oy": 7467,
      "Ash": 7468,
      "bestod": 7469,
      "Bør": 7470,
      "kroppen": 7471,
      "##vere": 7472,
      "foreg": 7473,
      "##fold": 7474,
      "169": 7475,
      "Friedrich": 7476,
      "Machine": 7477,
      "standard": 7478,
      "Här": 7479,
      "karriere": 7480,
      "##ump": 7481,
      "Mass": 7482,
      "Act": 7483,
      "##skaper": 7484,
      "##øyt": 7485,
      "tale": 7486,
      "scen": 7487,
      "Li": 7488,
      "##empl": 7489,
      "aner": 7490,
      "rig": 7491,
      "vatten": 7492,
      "##dens": 7493,
      "punkt": 7494,
      "Bland": 7495,
      "##raks": 7496,
      "68": 7497,
      "slags": 7498,
      "individ": 7499,
      "sikre": 7500,
      "Day": 7501,
      "tol": 7502,
      "sommar": 7503,
      "debuter": 7504,
      "##artikkelen": 7505,
      "##ales": 7506,
      "##field": 7507,
      "Pr": 7508,
      "yngre": 7509,
      "##kkede": 7510,
      "kast": 7511,
      "Rob": 7512,
      "Ans": 7513,
      "##pha": 7514,
      "ram": 7515,
      "give": 7516,
      "Europe": 7517,
      "1903": 7518,
      "fjerde": 7519,
      "can": 7520,
      "1890": 7521,
      "Dist": 7522,
      "##iets": 7523,
      "riket": 7524,
      "fortæl": 7525,
      "konstru": 7526,
      "grå": 7527,
      "us": 7528,
      "samman": 7529,
      "##IK": 7530,
      "Disc": 7531,
      "##22": 7532,
      "inga": 7533,
      "History": 7534,
      "hev": 7535,
      "Aut": 7536,
      "##tidig": 7537,
      "samlet": 7538,
      "tema": 7539,
      "##rade": 7540,
      "Vå": 7541,
      "##atnet": 7542,
      "##ple": 7543,
      "press": 7544,
      "##iler": 7545,
      "tom": 7546,
      "läg": 7547,
      "div": 7548,
      "##varande": 7549,
      "##rert": 7550,
      "retning": 7551,
      "bästa": 7552,
      "hjælp": 7553,
      "rekna": 7554,
      "student": 7555,
      "Aud": 7556,
      "##profil": 7557,
      "flag": 7558,
      "##vrig": 7559,
      "Pan": 7560,
      "utdan": 7561,
      "##æm": 7562,
      "eksister": 7563,
      "##iem": 7564,
      "samm": 7565,
      "##gaver": 7566,
      "##din": 7567,
      "Post": 7568,
      "89": 7569,
      "##ressen": 7570,
      "redan": 7571,
      "vak": 7572,
      "fint": 7573,
      "Dam": 7574,
      "næsten": 7575,
      "84": 7576,
      "Kap": 7577,
      "76": 7578,
      "akk": 7579,
      "Francis": 7580,
      "##inet": 7581,
      "##ierne": 7582,
      "Star": 7583,
      "Che": 7584,
      "##reds": 7585,
      "##iere": 7586,
      "næv": 7587,
      "1700": 7588,
      "##stant": 7589,
      "Alp": 7590,
      "##ørt": 7591,
      "Fle": 7592,
      "deb": 7593,
      "##ook": 7594,
      "##ettet": 7595,
      "vold": 7596,
      "##nant": 7597,
      "##gående": 7598,
      "##liste": 7599,
      "belig": 7600,
      "Osc": 7601,
      "Carol": 7602,
      "kombin": 7603,
      "Öster": 7604,
      "opprett": 7605,
      "##urner": 7606,
      "##gu": 7607,
      "##lden": 7608,
      "Stortinget": 7609,
      "600": 7610,
      "Antarctic": 7611,
      "sim": 7612,
      "Ach": 7613,
      "NC": 7614,
      "##oper": 7615,
      "effektiv": 7616,
      "neg": 7617,
      "brugt": 7618,
      "Natur": 7619,
      "IV": 7620,
      "kropp": 7621,
      "Rh": 7622,
      "nation": 7623,
      "##ania": 7624,
      "Beng": 7625,
      "spelt": 7626,
      "repræ": 7627,
      "##spro": 7628,
      "##yret": 7629,
      "længere": 7630,
      "transport": 7631,
      "##ivit": 7632,
      "henhold": 7633,
      "##jor": 7634,
      "tradition": 7635,
      "##optera": 7636,
      "##sskrift": 7637,
      "##70": 7638,
      "##mär": 7639,
      "normalt": 7640,
      "##unktet": 7641,
      ");": 7642,
      "##win": 7643,
      "##gin": 7644,
      "Ros": 7645,
      "##ytter": 7646,
      "##odes": 7647,
      "fået": 7648,
      "##vesen": 7649,
      "Københavns": 7650,
      "material": 7651,
      "Nr": 7652,
      "##stø": 7653,
      "##icka": 7654,
      "Harry": 7655,
      "Mars": 7656,
      "naturlig": 7657,
      "Laur": 7658,
      "##ampen": 7659,
      "Lov": 7660,
      "Vad": 7661,
      "början": 7662,
      "-,": 7663,
      "staten": 7664,
      "Hu": 7665,
      "lyck": 7666,
      "pens": 7667,
      "nordlige": 7668,
      "Spania": 7669,
      "JP": 7670,
      "væl": 7671,
      "Hau": 7672,
      "hertug": 7673,
      "Axel": 7674,
      "Adel": 7675,
      "Nett": 7676,
      "1902": 7677,
      "ing": 7678,
      "taget": 7679,
      "hit": 7680,
      "Cir": 7681,
      "Mov": 7682,
      "elever": 7683,
      "let": 7684,
      "slått": 7685,
      "tyder": 7686,
      "virkelig": 7687,
      "##aen": 7688,
      "##ibliotek": 7689,
      "plads": 7690,
      "##uch": 7691,
      "hustru": 7692,
      "måneder": 7693,
      "Olymp": 7694,
      "1500": 7695,
      "Emil": 7696,
      "kanton": 7697,
      "Adam": 7698,
      "pap": 7699,
      "företag": 7700,
      "##edde": 7701,
      "hind": 7702,
      "täv": 7703,
      "Vik": 7704,
      "79": 7705,
      "##ranger": 7706,
      "....": 7707,
      "Stre": 7708,
      "##nst": 7709,
      "administrat": 7710,
      "verda": 7711,
      "komponist": 7712,
      "##gade": 7713,
      "Na": 7714,
      "One": 7715,
      "desuden": 7716,
      "##holde": 7717,
      "##öt": 7718,
      "illust": 7719,
      "168": 7720,
      "viden": 7721,
      "Champ": 7722,
      "Ari": 7723,
      "sydöstra": 7724,
      "##bed": 7725,
      "klasse": 7726,
      "Mur": 7727,
      "Arthur": 7728,
      "park": 7729,
      "95": 7730,
      "##ukk": 7731,
      "registrer": 7732,
      "deira": 7733,
      "Leon": 7734,
      "##arten": 7735,
      "Bø": 7736,
      "##sper": 7737,
      "Pen": 7738,
      "Green": 7739,
      "##isch": 7740,
      "IT": 7741,
      "Gam": 7742,
      "##ument": 7743,
      "prosent": 7744,
      "Danske": 7745,
      "ul": 7746,
      "enten": 7747,
      "##okal": 7748,
      "sanger": 7749,
      "Vill": 7750,
      "Øster": 7751,
      "effekt": 7752,
      "Også": 7753,
      "republik": 7754,
      "hjälp": 7755,
      "mulighed": 7756,
      "Scott": 7757,
      "online": 7758,
      "namng": 7759,
      "mal": 7760,
      "tri": 7761,
      "derim": 7762,
      "##satte": 7763,
      "brød": 7764,
      "Aleks": 7765,
      "pil": 7766,
      "##ding": 7767,
      "##oz": 7768,
      "##ular": 7769,
      "##gifter": 7770,
      "Hed": 7771,
      "##gra": 7772,
      "regler": 7773,
      "Provin": 7774,
      "strand": 7775,
      "telefon": 7776,
      "Anom": 7777,
      "varje": 7778,
      "vorte": 7779,
      "kontin": 7780,
      "##västra": 7781,
      "glad": 7782,
      "text": 7783,
      "fører": 7784,
      "##ool": 7785,
      "##følgende": 7786,
      "relativt": 7787,
      "##oft": 7788,
      "gresk": 7789,
      "##gruppen": 7790,
      "konf": 7791,
      "##derne": 7792,
      "oppt": 7793,
      "hjemmes": 7794,
      "##skan": 7795,
      "##gangen": 7796,
      "unders": 7797,
      "Gh": 7798,
      "##fö": 7799,
      "##dater": 7800,
      "##demokrat": 7801,
      "Royal": 7802,
      "##urer": 7803,
      "Flor": 7804,
      "##chef": 7805,
      "begrav": 7806,
      "sentrum": 7807,
      "##risen": 7808,
      "version": 7809,
      "ring": 7810,
      "160": 7811,
      "Mos": 7812,
      "nokon": 7813,
      "##servatoriet": 7814,
      "High": 7815,
      "pot": 7816,
      "type": 7817,
      "(\"": 7818,
      "kirk": 7819,
      "##án": 7820,
      "produkter": 7821,
      "Que": 7822,
      "bevis": 7823,
      "kommand": 7824,
      "Sant": 7825,
      "Stavanger": 7826,
      "##OM": 7827,
      "Il": 7828,
      "Simon": 7829,
      "musiker": 7830,
      "Californ": 7831,
      "##aner": 7832,
      "##etta": 7833,
      "Atl": 7834,
      "Rasmus": 7835,
      "Argent": 7836,
      "Aur": 7837,
      "hens": 7838,
      "Pop": 7839,
      "##rung": 7840,
      "straff": 7841,
      "satte": 7842,
      "acc": 7843,
      "##skip": 7844,
      "##skrigen": 7845,
      "studier": 7846,
      "kraftig": 7847,
      "##asjonar": 7848,
      "Alla": 7849,
      "##AM": 7850,
      "##åten": 7851,
      "dram": 7852,
      "representerte": 7853,
      "runde": 7854,
      "inneb": 7855,
      "slott": 7856,
      "programmet": 7857,
      "#\"": 7858,
      "##useet": 7859,
      "skreiv": 7860,
      "##ité": 7861,
      "##iy": 7862,
      "##ceae": 7863,
      "McC": 7864,
      "##skuere": 7865,
      "##weiz": 7866,
      "##oj": 7867,
      "1000": 7868,
      "distrikt": 7869,
      "How": 7870,
      "86": 7871,
      "Gull": 7872,
      "tilsvar": 7873,
      "##terne": 7874,
      "indre": 7875,
      "ljus": 7876,
      "##aser": 7877,
      "Top": 7878,
      "struktur": 7879,
      "##28": 7880,
      "funksjon": 7881,
      "Universitetet": 7882,
      "bod": 7883,
      "Hein": 7884,
      "sønn": 7885,
      "##retær": 7886,
      "Bart": 7887,
      "Ram": 7888,
      "Larsen": 7889,
      "problemer": 7890,
      "##formen": 7891,
      "Aarhus": 7892,
      "1898": 7893,
      "følger": 7894,
      "flyttet": 7895,
      "##jonen": 7896,
      "77": 7897,
      "frit": 7898,
      "##27": 7899,
      "syv": 7900,
      "Saint": 7901,
      "##rivil": 7902,
      "##onst": 7903,
      "Big": 7904,
      "Kilder": 7905,
      "boka": 7906,
      "handels": 7907,
      "makt": 7908,
      "165": 7909,
      "spansk": 7910,
      "vigtig": 7911,
      "##ifer": 7912,
      "##zen": 7913,
      "(«": 7914,
      "Ei": 7915,
      "Hø": 7916,
      "hører": 7917,
      "Win": 7918,
      "##ång": 7919,
      "##rys": 7920,
      "Mosk": 7921,
      "##træ": 7922,
      "flytta": 7923,
      "Ron": 7924,
      ".»": 7925,
      "Son": 7926,
      "Int": 7927,
      "Cas": 7928,
      "stille": 7929,
      "##ates": 7930,
      "sär": 7931,
      "##abel": 7932,
      "##omy": 7933,
      "India": 7934,
      "##amot": 7935,
      "##istar": 7936,
      "##songen": 7937,
      "##akk": 7938,
      "Litt": 7939,
      "kyst": 7940,
      "sentral": 7941,
      "erstatt": 7942,
      "bevar": 7943,
      "##gift": 7944,
      "sista": 7945,
      "fotboll": 7946,
      "Vel": 7947,
      "##flikt": 7948,
      "statsminister": 7949,
      "##usten": 7950,
      "skot": 7951,
      "##rinnings": 7952,
      "ønsk": 7953,
      "muslim": 7954,
      "qu": 7955,
      "##ility": 7956,
      "Ain": 7957,
      "##elin": 7958,
      "Derfor": 7959,
      "##ages": 7960,
      "##ulgar": 7961,
      "1897": 7962,
      "mænd": 7963,
      "Social": 7964,
      "försö": 7965,
      "CS": 7966,
      "##stående": 7967,
      "direkt": 7968,
      "spørsmål": 7969,
      "san": 7970,
      "##orp": 7971,
      "departementet": 7972,
      "1899": 7973,
      "Trø": 7974,
      "83": 7975,
      "##æd": 7976,
      "##ografisk": 7977,
      "##tein": 7978,
      "##pekt": 7979,
      "Cra": 7980,
      "##obbelt": 7981,
      "##ætt": 7982,
      "##plat": 7983,
      "##uen": 7984,
      "kompl": 7985,
      "Fest": 7986,
      "##delsen": 7987,
      "Back": 7988,
      "Ludvig": 7989,
      "Abra": 7990,
      "formål": 7991,
      "##wer": 7992,
      ")''": 7993,
      "vare": 7994,
      "Bow": 7995,
      "Ren": 7996,
      "##hor": 7997,
      "Tran": 7998,
      "##odi": 7999,
      "tråd": 8000,
      "vik": 8001,
      "positiv": 8002,
      "Bib": 8003,
      "num": 8004,
      "Rab": 8005,
      "Sv": 8006,
      "linje": 8007,
      "Mün": 8008,
      "##29": 8009,
      "bygning": 8010,
      "##neb": 8011,
      "kalender": 8012,
      "##roducer": 8013,
      "gard": 8014,
      "strateg": 8015,
      "1880": 8016,
      "##skom": 8017,
      "byrja": 8018,
      "##OS": 8019,
      "fanns": 8020,
      "fang": 8021,
      "nab": 8022,
      "sky": 8023,
      "##antar": 8024,
      "##när": 8025,
      "medic": 8026,
      "rör": 8027,
      "Tw": 8028,
      "##iteen": 8029,
      "sil": 8030,
      "Irland": 8031,
      "est": 8032,
      "SS": 8033,
      "##avor": 8034,
      "##talen": 8035,
      "bidrag": 8036,
      "##asje": 8037,
      "Ask": 8038,
      "Vår": 8039,
      "kysten": 8040,
      "ent": 8041,
      "##urn": 8042,
      "Oscar": 8043,
      "##unk": 8044,
      "blot": 8045,
      "brukte": 8046,
      "##cken": 8047,
      "##amma": 8048,
      "##ume": 8049,
      "166": 8050,
      "gammal": 8051,
      "latin": 8052,
      "klassen": 8053,
      "utgå": 8054,
      "Person": 8055,
      "PDF": 8056,
      "##iella": 8057,
      "##jekter": 8058,
      "##ain": 8059,
      "##bon": 8060,
      "##råket": 8061,
      "tidspunkt": 8062,
      "##26": 8063,
      "##irt": 8064,
      "##spolit": 8065,
      "Otto": 8066,
      "kjente": 8067,
      "Portal": 8068,
      "##ér": 8069,
      "nev": 8070,
      "förek": 8071,
      "##ows": 8072,
      "Dig": 8073,
      "spela": 8074,
      "##mund": 8075,
      "Wayback": 8076,
      "Beat": 8077,
      "##äd": 8078,
      "##ws": 8079,
      "sikkert": 8080,
      "soldater": 8081,
      "Sav": 8082,
      "konsert": 8083,
      "##snit": 8084,
      "##fang": 8085,
      "former": 8086,
      "1600": 8087,
      "typisk": 8088,
      "{\\": 8089,
      "##äns": 8090,
      "Rus": 8091,
      "Nap": 8092,
      "sende": 8093,
      "feil": 8094,
      "museum": 8095,
      "alk": 8096,
      "##ohol": 8097,
      "korleis": 8098,
      "##fort": 8099,
      "##jing": 8100,
      "Wien": 8101,
      "pe": 8102,
      "bruge": 8103,
      "##spelar": 8104,
      "British": 8105,
      "Tri": 8106,
      "##dam": 8107,
      "økonomiske": 8108,
      "løbet": 8109,
      "mog": 8110,
      "Time": 8111,
      "Orden": 8112,
      "sørvest": 8113,
      "##bus": 8114,
      "##väg": 8115,
      "##leik": 8116,
      "församling": 8117,
      "Ara": 8118,
      "IL": 8119,
      "UK": 8120,
      "kjende": 8121,
      "opplev": 8122,
      "historia": 8123,
      "##iplom": 8124,
      "Folket": 8125,
      "1895": 8126,
      "##lingar": 8127,
      "framleis": 8128,
      "rec": 8129,
      "tillbaka": 8130,
      "##raksis": 8131,
      "mist": 8132,
      "svamp": 8133,
      "omfatter": 8134,
      "Flere": 8135,
      "lave": 8136,
      "besl": 8137,
      "Australien": 8138,
      "design": 8139,
      "##jord": 8140,
      "bestemt": 8141,
      "gem": 8142,
      "spelade": 8143,
      "1896": 8144,
      "klubb": 8145,
      "##ail": 8146,
      "ens": 8147,
      "##ubben": 8148,
      "Hvor": 8149,
      "164": 8150,
      "Gab": 8151,
      "##menn": 8152,
      "blogg": 8153,
      "him": 8154,
      "##jert": 8155,
      "120": 8156,
      "##ivt": 8157,
      "##ymnas": 8158,
      "glob": 8159,
      "Elis": 8160,
      "##gerne": 8161,
      "##spe": 8162,
      "Fol": 8163,
      "##inav": 8164,
      "endast": 8165,
      "##byggelse": 8166,
      "Cam": 8167,
      "##ape": 8168,
      "erkl": 8169,
      "##nest": 8170,
      "Bred": 8171,
      "##gruppe": 8172,
      "profession": 8173,
      "historiske": 8174,
      "She": 8175,
      "Lø": 8176,
      "Nils": 8177,
      "Ring": 8178,
      "størr": 8179,
      "muligt": 8180,
      "eigen": 8181,
      "##lades": 8182,
      "93": 8183,
      "River": 8184,
      "##lende": 8185,
      "presenter": 8186,
      "##gelsen": 8187,
      "kontrakt": 8188,
      "Arab": 8189,
      "stilling": 8190,
      "Malmö": 8191,
      "##iseret": 8192,
      "kandid": 8193,
      "##fot": 8194,
      "styrk": 8195,
      "oppdaga": 8196,
      "tilgjen": 8197,
      "##strup": 8198,
      "##plassen": 8199,
      "væk": 8200,
      "valgte": 8201,
      "interesse": 8202,
      "##ylland": 8203,
      "ön": 8204,
      "hjer": 8205,
      "procent": 8206,
      "Lad": 8207,
      "fortel": 8208,
      "vilken": 8209,
      "konser": 8210,
      "##ci": 8211,
      "kanske": 8212,
      "real": 8213,
      "romerske": 8214,
      "##sky": 8215,
      "Ep": 8216,
      "Pier": 8217,
      "holder": 8218,
      "##itch": 8219,
      "astronom": 8220,
      "handlar": 8221,
      "Sun": 8222,
      "##stället": 8223,
      "stift": 8224,
      "##uda": 8225,
      "befolkning": 8226,
      "lykk": 8227,
      "kunstner": 8228,
      "östra": 8229,
      "##mask": 8230,
      "autom": 8231,
      "##jd": 8232,
      "Jakob": 8233,
      "##ibet": 8234,
      "kampe": 8235,
      "anv": 8236,
      "Arroyo": 8237,
      "dokument": 8238,
      "stein": 8239,
      "nattfly": 8240,
      "BBC": 8241,
      "Result": 8242,
      "\")": 8243,
      "1892": 8244,
      "##ience": 8245,
      "IN": 8246,
      "##repet": 8247,
      "##dy": 8248,
      "##ea": 8249,
      "Første": 8250,
      "##kr": 8251,
      "##sbe": 8252,
      "##lene": 8253,
      "delvis": 8254,
      "Kort": 8255,
      "##ique": 8256,
      "Anis": 8257,
      "tildelt": 8258,
      "Svensk": 8259,
      "bem": 8260,
      "##upen": 8261,
      "sok": 8262,
      "Ola": 8263,
      "##ftet": 8264,
      "derefter": 8265,
      "uk": 8266,
      "sterk": 8267,
      "handler": 8268,
      "##sbyg": 8269,
      "1886": 8270,
      "herunder": 8271,
      "Moun": 8272,
      "96": 8273,
      "##dalen": 8274,
      "løy": 8275,
      "epis": 8276,
      "Rand": 8277,
      "ref": 8278,
      "fandt": 8279,
      "prøv": 8280,
      "forsøg": 8281,
      "arbejder": 8282,
      "##förande": 8283,
      "styrke": 8284,
      "ank": 8285,
      "kantonen": 8286,
      "Høg": 8287,
      "Kle": 8288,
      "##aust": 8289,
      "##inder": 8290,
      "##ote": 8291,
      "»)": 8292,
      "klipp": 8293,
      "endte": 8294,
      "##unden": 8295,
      "##sburg": 8296,
      "##prisen": 8297,
      "Fab": 8298,
      "forbed": 8299,
      "##onger": 8300,
      "økonomisk": 8301,
      "##nda": 8302,
      "såsom": 8303,
      "Ford": 8304,
      "##arer": 8305,
      "Borg": 8306,
      "lyst": 8307,
      "##cert": 8308,
      "General": 8309,
      "arranger": 8310,
      "besø": 8311,
      "##zon": 8312,
      "berätt": 8313,
      "gren": 8314,
      "växt": 8315,
      "Gir": 8316,
      "##enden": 8317,
      "Antalet": 8318,
      "jazz": 8319,
      "1893": 8320,
      "anbe": 8321,
      "🧑🏽": 8322,
      "🧑🏾": 8323,
      "🧑🏼": 8324,
      "🧑🏻": 8325,
      "🧑🏿": 8326,
      "##anna": 8327,
      "##kjent": 8328,
      "##standen": 8329,
      "austral": 8330,
      "forklar": 8331,
      "##mot": 8332,
      "Aal": 8333,
      "##well": 8334,
      "fej": 8335,
      "styrker": 8336,
      "Dr": 8337,
      "pas": 8338,
      "måned": 8339,
      "##fisk": 8340,
      "##FA": 8341,
      "##jørn": 8342,
      "annon": 8343,
      "##undes": 8344,
      "kvalif": 8345,
      "timer": 8346,
      "bidra": 8347,
      "nattflyn": 8348,
      "##rere": 8349,
      "Bank": 8350,
      "##ublikken": 8351,
      "hurtigt": 8352,
      "finder": 8353,
      "kommunik": 8354,
      "##ralt": 8355,
      "somm": 8356,
      "finner": 8357,
      "##andinav": 8358,
      "##eri": 8359,
      "##hengig": 8360,
      "ende": 8361,
      "Hum": 8362,
      "##stav": 8363,
      "##park": 8364,
      "##ancer": 8365,
      "Christoph": 8366,
      "korre": 8367,
      "1894": 8368,
      "masse": 8369,
      "Rod": 8370,
      "Olsen": 8371,
      "Kung": 8372,
      "betyr": 8373,
      "Bed": 8374,
      "##iversity": 8375,
      "människor": 8376,
      "##öl": 8377,
      "##skaps": 8378,
      "århundrede": 8379,
      "olympiske": 8380,
      "##ghan": 8381,
      "opnå": 8382,
      "Gil": 8383,
      "komma": 8384,
      "##mene": 8385,
      "idet": 8386,
      "##oter": 8387,
      "gånger": 8388,
      "prisen": 8389,
      "Wind": 8390,
      "##aken": 8391,
      "1860": 8392,
      "Strand": 8393,
      "live": 8394,
      "Ts": 8395,
      "dep": 8396,
      "Had": 8397,
      "måske": 8398,
      "##annen": 8399,
      "Camb": 8400,
      "kristne": 8401,
      "myr": 8402,
      "Komm": 8403,
      "BM": 8404,
      "lätt": 8405,
      "fælles": 8406,
      "kommet": 8407,
      "årets": 8408,
      "Upps": 8409,
      "##fen": 8410,
      "Produ": 8411,
      "venner": 8412,
      "stjärn": 8413,
      "##ogs": 8414,
      "helse": 8415,
      "##tok": 8416,
      "gerne": 8417,
      "jäm": 8418,
      "Lee": 8419,
      "mød": 8420,
      "FN": 8421,
      "Både": 8422,
      "##anc": 8423,
      "##ømmer": 8424,
      "##talte": 8425,
      "##best": 8426,
      "##enten": 8427,
      "hotell": 8428,
      "mad": 8429,
      "##gave": 8430,
      "lista": 8431,
      "##por": 8432,
      "ifrå": 8433,
      "##shold": 8434,
      "penge": 8435,
      "##djursart": 8436,
      "##öder": 8437,
      "Hvad": 8438,
      "normal": 8439,
      "omtrent": 8440,
      "Kyrk": 8441,
      "##leve": 8442,
      "tilbud": 8443,
      "italienske": 8444,
      "##sende": 8445,
      "Chris": 8446,
      "Rid": 8447,
      "ifølge": 8448,
      "Senere": 8449,
      "##ælde": 8450,
      "ekte": 8451,
      "avl": 8452,
      "##norsk": 8453,
      "##anon": 8454,
      "stund": 8455,
      "leve": 8456,
      "Barn": 8457,
      "sosial": 8458,
      "Cop": 8459,
      "##sman": 8460,
      "veit": 8461,
      "bord": 8462,
      "Møl": 8463,
      "dvs": 8464,
      "gjeve": 8465,
      "blivit": 8466,
      "1870": 8467,
      "##ligare": 8468,
      "##kommen": 8469,
      "Middel": 8470,
      "stig": 8471,
      "##rön": 8472,
      "##skraft": 8473,
      "##ivalen": 8474,
      "spørgsmål": 8475,
      "##erede": 8476,
      "Ye": 8477,
      "alternativ": 8478,
      "gången": 8479,
      "##ytte": 8480,
      "##jän": 8481,
      "stjer": 8482,
      "##ous": 8483,
      "##industri": 8484,
      "##esl": 8485,
      "Ikke": 8486,
      "##fald": 8487,
      "##bara": 8488,
      "##räck": 8489,
      "##dis": 8490,
      "Young": 8491,
      "##dyr": 8492,
      "trafikk": 8493,
      "båda": 8494,
      "skolen": 8495,
      "##styret": 8496,
      "præsident": 8497,
      "Long": 8498,
      "Hem": 8499,
      "fiske": 8500,
      "Zealand": 8501,
      "Sveits": 8502,
      "1887": 8503,
      "Bog": 8504,
      "Compan": 8505,
      "Database": 8506,
      "##ieg": 8507,
      "Rud": 8508,
      "##amet": 8509,
      "stav": 8510,
      "mik": 8511,
      "populære": 8512,
      "##dene": 8513,
      "##AF": 8514,
      "liges": 8515,
      "##idar": 8516,
      "##bered": 8517,
      "##esen": 8518,
      "##chn": 8519,
      "tager": 8520,
      "songar": 8521,
      "##ättre": 8522,
      "Miss": 8523,
      "forh": 8524,
      "Eric": 8525,
      "##ito": 8526,
      "sker": 8527,
      "##giver": 8528,
      "##erefter": 8529,
      "spillerprofil": 8530,
      "fre": 8531,
      "Sammen": 8532,
      "politik": 8533,
      "Wash": 8534,
      "socken": 8535,
      "Biod": 8536,
      "Niels": 8537,
      "Mak": 8538,
      "##ordenen": 8539,
      "glas": 8540,
      "fjellet": 8541,
      "båt": 8542,
      "uav": 8543,
      "White": 8544,
      "##fag": 8545,
      "Night": 8546,
      "ext": 8547,
      "##aldte": 8548,
      "dannet": 8549,
      "1889": 8550,
      "98": 8551,
      "utbild": 8552,
      "Ør": 8553,
      "planer": 8554,
      "eldste": 8555,
      "##rie": 8556,
      "morgen": 8557,
      "sund": 8558,
      "bot": 8559,
      "##holdet": 8560,
      "studie": 8561,
      "Facility": 8562,
      "##kän": 8563,
      "##sens": 8564,
      "Skott": 8565,
      "stol": 8566,
      "##ado": 8567,
      "Grund": 8568,
      "Exp": 8569,
      "##elege": 8570,
      "dominer": 8571,
      "##byen": 8572,
      "anal": 8573,
      "Chic": 8574,
      "##iljø": 8575,
      "Gunnar": 8576,
      "##arat": 8577,
      "DN": 8578,
      "egentlig": 8579,
      "##igheten": 8580,
      "stöd": 8581,
      "##stitusjon": 8582,
      "eitt": 8583,
      "jorden": 8584,
      "##befolkad": 8585,
      "månad": 8586,
      "##lers": 8587,
      "##ienter": 8588,
      "Uppsala": 8589,
      "##sætt": 8590,
      "suks": 8591,
      "används": 8592,
      "##ennis": 8593,
      "slo": 8594,
      "formand": 8595,
      "militære": 8596,
      "va": 8597,
      "Moskva": 8598,
      "hjemme": 8599,
      "meld": 8600,
      "Lag": 8601,
      "##hu": 8602,
      "Blue": 8603,
      "held": 8604,
      "##ental": 8605,
      "arke": 8606,
      "hjå": 8607,
      "##kant": 8608,
      "uppkall": 8609,
      "priser": 8610,
      "offentlige": 8611,
      "Mid": 8612,
      "not": 8613,
      "##ating": 8614,
      "1885": 8615,
      "Great": 8616,
      "spanske": 8617,
      "Ten": 8618,
      "##mid": 8619,
      "djup": 8620,
      "up": 8621,
      "##iction": 8622,
      "DS": 8623,
      "##side": 8624,
      "Biodiversity": 8625,
      "meddel": 8626,
      "##orea": 8627,
      "saker": 8628,
      "',": 8629,
      "tider": 8630,
      "##sprung": 8631,
      "fotballspiller": 8632,
      "tjeneste": 8633,
      "##spart": 8634,
      "våra": 8635,
      "Ama": 8636,
      "dæ": 8637,
      "##jo": 8638,
      "temperatur": 8639,
      "62": 8640,
      "Gjen": 8641,
      "##oke": 8642,
      "erhver": 8643,
      "##isere": 8644,
      "Portug": 8645,
      "##ellt": 8646,
      "Johns": 8647,
      "riksdag": 8648,
      "ødel": 8649,
      "##bare": 8650,
      "##iot": 8651,
      "slike": 8652,
      "såk": 8653,
      "##sättning": 8654,
      "syk": 8655,
      "bebyggelse": 8656,
      "gjev": 8657,
      "Ru": 8658,
      "##ST": 8659,
      "sport": 8660,
      "åtte": 8661,
      "##bets": 8662,
      "##OL": 8663,
      "##ynam": 8664,
      "##ndelag": 8665,
      "spindel": 8666,
      "samle": 8667,
      "##gjer": 8668,
      "forfattar": 8669,
      "Luc": 8670,
      "dobbelt": 8671,
      "brukar": 8672,
      "framför": 8673,
      "##kkjer": 8674,
      "tilby": 8675,
      "##col": 8676,
      "Fire": 8677,
      "Bos": 8678,
      "dager": 8679,
      "Bent": 8680,
      "##UC": 8681,
      "##etet": 8682,
      "167": 8683,
      "rapporter": 8684,
      "bøker": 8685,
      "1891": 8686,
      "hurtig": 8687,
      "il": 8688,
      "##kyrk": 8689,
      "Ifølge": 8690,
      "##urus": 8691,
      "tår": 8692,
      "Nok": 8693,
      "##omet": 8694,
      "fann": 8695,
      "##blem": 8696,
      "Roma": 8697,
      "².": 8698,
      "##ungen": 8699,
      "egent": 8700,
      "Kanada": 8701,
      "nemlig": 8702,
      "Høy": 8703,
      "mit": 8704,
      "##egnet": 8705,
      "Haug": 8706,
      "tæn": 8707,
      "Not": 8708,
      "strå": 8709,
      "kvinnor": 8710,
      "##ärt": 8711,
      "svår": 8712,
      "##rick": 8713,
      "Ray": 8714,
      "##lesvig": 8715,
      "kred": 8716,
      "betal": 8717,
      "##mi": 8718,
      "stammer": 8719,
      "##liv": 8720,
      "##bra": 8721,
      "##kår": 8722,
      "Ord": 8723,
      "Kirk": 8724,
      "ellers": 8725,
      "Marg": 8726,
      "Oxford": 8727,
      "250": 8728,
      "##beg": 8729,
      "##vit": 8730,
      "kunn": 8731,
      "##asjer": 8732,
      "inkludert": 8733,
      "status": 8734,
      "bättre": 8735,
      "befin": 8736,
      "##legget": 8737,
      "løs": 8738,
      "1864": 8739,
      "##oides": 8740,
      "integ": 8741,
      "Club": 8742,
      "slutningen": 8743,
      "foreld": 8744,
      "Trøndelag": 8745,
      "private": 8746,
      "utbred": 8747,
      "Washington": 8748,
      "røy": 8749,
      "allier": 8750,
      "dal": 8751,
      "##løb": 8752,
      "##departementet": 8753,
      "varme": 8754,
      "respekt": 8755,
      "Math": 8756,
      "##sdal": 8757,
      "Gylden": 8758,
      "Afghan": 8759,
      "aks": 8760,
      "sterkt": 8761,
      "hundre": 8762,
      "94": 8763,
      "##ibe": 8764,
      "Your": 8765,
      "Fjordane": 8766,
      "##avä": 8767,
      "Coll": 8768,
      "count": 8769,
      "##stat": 8770,
      "Midt": 8771,
      "##leder": 8772,
      "##bes": 8773,
      "##shus": 8774,
      "fi": 8775,
      "spilt": 8776,
      "##ärna": 8777,
      "Journal": 8778,
      "ryg": 8779,
      "oversikt": 8780,
      "##spil": 8781,
      "uppkallad": 8782,
      "beliggende": 8783,
      "top": 8784,
      "idé": 8785,
      "Oden": 8786,
      "##reille": 8787,
      "72": 8788,
      "heter": 8789,
      "släpp": 8790,
      "Helsingfors": 8791,
      "Sir": 8792,
      "##linger": 8793,
      "lej": 8794,
      "##iene": 8795,
      "##hem": 8796,
      "cook": 8797,
      "konflikt": 8798,
      "ärtväxter": 8799,
      "##rel": 8800,
      "praksis": 8801,
      "analy": 8802,
      "##plats": 8803,
      "Nå": 8804,
      "##jinga": 8805,
      "ansatte": 8806,
      "truleg": 8807,
      "##olis": 8808,
      "700": 8809,
      "##dte": 8810,
      "Gott": 8811,
      "porn": 8812,
      "##oo": 8813,
      "Billboard": 8814,
      "Bach": 8815,
      "##arta": 8816,
      ".;": 8817,
      "Sten": 8818,
      "ac": 8819,
      "##ementet": 8820,
      "##ommet": 8821,
      "##gelser": 8822,
      "##opsis": 8823,
      "##hjem": 8824,
      "Latreille": 8825,
      "##ulus": 8826,
      "Mary": 8827,
      "kaldes": 8828,
      "kirken": 8829,
      "femte": 8830,
      "kem": 8831,
      "suc": 8832,
      "##tekn": 8833,
      "##inte": 8834,
      "##polit": 8835,
      "##alleri": 8836,
      "hör": 8837,
      "##sliv": 8838,
      "Internet": 8839,
      "forn": 8840,
      "##vek": 8841,
      "##ffa": 8842,
      "##iserer": 8843,
      "Egypt": 8844,
      "Offisielt": 8845,
      "Rik": 8846,
      "##fru": 8847,
      "##ærke": 8848,
      "dersom": 8849,
      "mult": 8850,
      "##dar": 8851,
      "##arth": 8852,
      "diplom": 8853,
      "minutter": 8854,
      "##bergs": 8855,
      "Gran": 8856,
      "col": 8857,
      "udgave": 8858,
      ".).": 8859,
      "Pra": 8860,
      "##atum": 8861,
      "verds": 8862,
      "##öping": 8863,
      "##bt": 8864,
      "97": 8865,
      "##riske": 8866,
      "utenfor": 8867,
      "manusk": 8868,
      "Vilhelm": 8869,
      "publikum": 8870,
      "berøm": 8871,
      "Jos": 8872,
      "Station": 8873,
      "uttry": 8874,
      "##idel": 8875,
      "prøve": 8876,
      "felt": 8877,
      "Frem": 8878,
      "obefolkad": 8879,
      "##sey": 8880,
      "##älj": 8881,
      "##gården": 8882,
      "vigt": 8883,
      "##kre": 8884,
      "##ots": 8885,
      "##uværende": 8886,
      "##ques": 8887,
      "skjø": 8888,
      "øver": 8889,
      "##asa": 8890,
      "##ynt": 8891,
      "##mannen": 8892,
      "ført": 8893,
      "##imal": 8894,
      "viktigaste": 8895,
      "stemmer": 8896,
      "skift": 8897,
      "ledet": 8898,
      "##ålla": 8899,
      "##medalje": 8900,
      "einaste": 8901,
      "ST": 8902,
      "bøl": 8903,
      "lad": 8904,
      "Angeles": 8905,
      "Denna": 8906,
      "Pres": 8907,
      "##...": 8908,
      "##ji": 8909,
      "##keb": 8910,
      "Ku": 8911,
      "##rien": 8912,
      "ärtväxtart": 8913,
      "forlag": 8914,
      "solgt": 8915,
      "tæt": 8916,
      "frig": 8917,
      "##atiske": 8918,
      "Øy": 8919,
      "idrett": 8920,
      "##onien": 8921,
      "Jones": 8922,
      "##ston": 8923,
      "systemet": 8924,
      "##bach": 8925,
      "Ned": 8926,
      "Instit": 8927,
      "1888": 8928,
      "gäller": 8929,
      ".:": 8930,
      "invol": 8931,
      "Anc": 8932,
      "##draget": 8933,
      "##ingane": 8934,
      "1802": 8935,
      "innenfor": 8936,
      "Tak": 8937,
      "Out": 8938,
      "succes": 8939,
      "##gi": 8940,
      "##fød": 8941,
      "##stol": 8942,
      "månader": 8943,
      "allmän": 8944,
      "redus": 8945,
      "roll": 8946,
      "##oms": 8947,
      "hvem": 8948,
      "barnet": 8949,
      "1884": 8950,
      "kompos": 8951,
      "##ittee": 8952,
      "##tert": 8953,
      "Angel": 8954,
      "##vokat": 8955,
      "##vernem": 8956,
      "guvern": 8957,
      "Jørgen": 8958,
      "Dep": 8959,
      "utgiv": 8960,
      "##ält": 8961,
      "fredag": 8962,
      "mail": 8963,
      "teik": 8964,
      "amerikanska": 8965,
      "virksomhed": 8966,
      "##nor": 8967,
      "Eurovision": 8968,
      "Kun": 8969,
      "mente": 8970,
      "##rater": 8971,
      "##lerne": 8972,
      "metal": 8973,
      "##ays": 8974,
      "##tast": 8975,
      "bank": 8976,
      "betegn": 8977,
      "Akadem": 8978,
      "##stendig": 8979,
      "##roc": 8980,
      "Indien": 8981,
      "Stockholms": 8982,
      "##verka": 8983,
      "byer": 8984,
      "historien": 8985,
      "voksne": 8986,
      "##sigt": 8987,
      "##okken": 8988,
      "##apt": 8989,
      "Barra": 8990,
      "supp": 8991,
      "ejer": 8992,
      "akadem": 8993,
      "##ænder": 8994,
      "flott": 8995,
      "bygde": 8996,
      "##sken": 8997,
      "studio": 8998,
      "Familien": 8999,
      "lavet": 9000,
      "singel": 9001,
      "##IV": 9002,
      "##olia": 9003,
      "skriven": 9004,
      "##nis": 9005,
      "Knud": 9006,
      "Sar": 9007,
      "Ever": 9008,
      "læg": 9009,
      "Wood": 9010,
      "##ason": 9011,
      "Fru": 9012,
      "vissa": 9013,
      "projekt": 9014,
      "##ness": 9015,
      "##skilde": 9016,
      "##igg": 9017,
      "##posten": 9018,
      "divisjon": 9019,
      "nuværende": 9020,
      "##rast": 9021,
      "ori": 9022,
      "##innare": 9023,
      "istället": 9024,
      "sentrale": 9025,
      "befolkningen": 9026,
      "kunder": 9027,
      "vestlige": 9028,
      "romersk": 9029,
      "##avnet": 9030,
      "Skottland": 9031,
      "##IG": 9032,
      "##rint": 9033,
      "lage": 9034,
      "venn": 9035,
      "minne": 9036,
      "##räns": 9037,
      "André": 9038,
      "gamla": 9039,
      "##90": 9040,
      "##ikter": 9041,
      "stasjon": 9042,
      "##ifta": 9043,
      "vegen": 9044,
      "##eda": 9045,
      "förekommer": 9046,
      "historisk": 9047,
      "sommeren": 9048,
      "Argentina": 9049,
      "innbyggere": 9050,
      "##hamn": 9051,
      "kome": 9052,
      "Region": 9053,
      "Committee": 9054,
      "##strøm": 9055,
      "sats": 9056,
      "indeholder": 9057,
      "selskapet": 9058,
      "frivil": 9059,
      "##etus": 9060,
      "boken": 9061,
      "Sjølv": 9062,
      "##alem": 9063,
      "aktivitet": 9064,
      "##gaste": 9065,
      "bö": 9066,
      "##amn": 9067,
      "bolig": 9068,
      "##kret": 9069,
      "ægte": 9070,
      "landsbyen": 9071,
      "raskt": 9072,
      "næste": 9073,
      "hovudsak": 9074,
      "häl": 9075,
      "##-)": 9076,
      "vekt": 9077,
      "Från": 9078,
      "##kkar": 9079,
      "Tan": 9080,
      "##RA": 9081,
      "därför": 9082,
      "ish": 9083,
      "##ender": 9084,
      "##ores": 9085,
      "spesial": 9086,
      "islam": 9087,
      "##agne": 9088,
      "kloster": 9089,
      "öppet": 9090,
      "oplev": 9091,
      "##IT": 9092,
      "Kron": 9093,
      "special": 9094,
      "forslag": 9095,
      "konsek": 9096,
      "Odense": 9097,
      "etablert": 9098,
      "##kkel": 9099,
      "desig": 9100,
      "##sene": 9101,
      "typer": 9102,
      "Odd": 9103,
      "ligesom": 9104,
      "##puter": 9105,
      "##bog": 9106,
      "ske": 9107,
      "mur": 9108,
      "reiste": 9109,
      "München": 9110,
      "alene": 9111,
      "Ernst": 9112,
      "Dy": 9113,
      "regjering": 9114,
      "Alan": 9115,
      "##chester": 9116,
      "Petter": 9117,
      "##fat": 9118,
      "##uther": 9119,
      "åren": 9120,
      "##løp": 9121,
      "Fær": 9122,
      "##yth": 9123,
      "##bord": 9124,
      "arabisk": 9125,
      "##tm": 9126,
      "Teater": 9127,
      "adel": 9128,
      "Brian": 9129,
      "igennem": 9130,
      "##strand": 9131,
      "Chile": 9132,
      "Organ": 9133,
      "rette": 9134,
      "Corn": 9135,
      "indbyggere": 9136,
      "kaldet": 9137,
      "använda": 9138,
      "##slin": 9139,
      "##øret": 9140,
      "strøm": 9141,
      "##ope": 9142,
      "Columb": 9143,
      "fundet": 9144,
      "pul": 9145,
      "Kim": 9146,
      "California": 9147,
      "favor": 9148,
      "søk": 9149,
      "längre": 9150,
      "europeiske": 9151,
      "##iety": 9152,
      "kör": 9153,
      "Där": 9154,
      "Log": 9155,
      "61": 9156,
      "1881": 9157,
      "##==": 9158,
      "Wolf": 9159,
      "##cks": 9160,
      "interesser": 9161,
      "Albumet": 9162,
      "behöver": 9163,
      "solen": 9164,
      "Aalborg": 9165,
      "absol": 9166,
      "##ämp": 9167,
      "Brown": 9168,
      "##estad": 9169,
      "##uba": 9170,
      "kontroller": 9171,
      "namngje": 9172,
      "##dommen": 9173,
      "Company": 9174,
      "##nsen": 9175,
      "##ksjonen": 9176,
      "titel": 9177,
      "tunn": 9178,
      "Mellom": 9179,
      "##skolan": 9180,
      "##cu": 9181,
      "tilhører": 9182,
      "##instru": 9183,
      "##kap": 9184,
      "äldre": 9185,
      "##36": 9186,
      "##35": 9187,
      "##acia": 9188,
      "##tra": 9189,
      "lei": 9190,
      "bræ": 9191,
      "yr": 9192,
      "elv": 9193,
      "##itenskap": 9194,
      "fantastisk": 9195,
      "tids": 9196,
      "Ambly": 9197,
      "trommer": 9198,
      "Sedan": 9199,
      "undervis": 9200,
      "rev": 9201,
      "kinesisk": 9202,
      "##oidea": 9203,
      "vilka": 9204,
      "lit": 9205,
      "midler": 9206,
      "näm": 9207,
      "pers": 9208,
      "##ax": 9209,
      "Mand": 9210,
      "renn": 9211,
      "byens": 9212,
      "Sønder": 9213,
      "Good": 9214,
      "basen": 9215,
      "##ebook": 9216,
      "##opper": 9217,
      "dö": 9218,
      "katolske": 9219,
      "gifte": 9220,
      "##esjon": 9221,
      "##ario": 9222,
      "overfl": 9223,
      "bilen": 9224,
      "Au": 9225,
      "delstat": 9226,
      "Området": 9227,
      "instrument": 9228,
      "##urch": 9229,
      "udnæv": 9230,
      "brittisk": 9231,
      "bestyr": 9232,
      "møtte": 9233,
      "därefter": 9234,
      "fjorden": 9235,
      "##emark": 9236,
      "artene": 9237,
      "bergig": 9238,
      "fulgte": 9239,
      "displa": 9240,
      "##eck": 9241,
      "Asia": 9242,
      "nødvendig": 9243,
      "Program": 9244,
      "Tal": 9245,
      "Björ": 9246,
      "dræ": 9247,
      "skade": 9248,
      "Chicago": 9249,
      "##äster": 9250,
      "##zy": 9251,
      "##odet": 9252,
      "##våg": 9253,
      "myt": 9254,
      "Sec": 9255,
      "besøg": 9256,
      "it": 9257,
      "sige": 9258,
      "##breen": 9259,
      "motstand": 9260,
      "graf": 9261,
      "##aket": 9262,
      "kurs": 9263,
      "##ati": 9264,
      "Central": 9265,
      "Web": 9266,
      "sve": 9267,
      "##mir": 9268,
      "##CC": 9269,
      "lar": 9270,
      "lod": 9271,
      "##farande": 9272,
      "1865": 9273,
      "##xas": 9274,
      "territ": 9275,
      "Got": 9276,
      "övrig": 9277,
      "trol": 9278,
      "1850": 9279,
      "ög": 9280,
      "##ege": 9281,
      "Enligt": 9282,
      "opført": 9283,
      "heil": 9284,
      "sesong": 9285,
      "hast": 9286,
      "begyndelsen": 9287,
      "##ordning": 9288,
      "viktige": 9289,
      "mobil": 9290,
      "##ls": 9291,
      "minutt": 9292,
      "France": 9293,
      "##wig": 9294,
      "skule": 9295,
      "##ollar": 9296,
      "vatn": 9297,
      "1878": 9298,
      "knyttet": 9299,
      "##ikal": 9300,
      "liknande": 9301,
      "konstnär": 9302,
      "Barcel": 9303,
      "lager": 9304,
      "##historie": 9305,
      "##ipper": 9306,
      "##BI": 9307,
      "nest": 9308,
      "##forbund": 9309,
      "##skov": 9310,
      "funktion": 9311,
      "##vind": 9312,
      "yt": 9313,
      "Amt": 9314,
      "##æiske": 9315,
      "Dor": 9316,
      "musikal": 9317,
      "Point": 9318,
      "##bal": 9319,
      "##skud": 9320,
      "Engelsk": 9321,
      "Mun": 9322,
      "##com": 9323,
      "71": 9324,
      "##erade": 9325,
      "regeringen": 9326,
      "Samtidig": 9327,
      "Minor": 9328,
      "##umen": 9329,
      "miss": 9330,
      "##uller": 9331,
      "säsongen": 9332,
      "utviklet": 9333,
      "hinanden": 9334,
      "alkohol": 9335,
      "dina": 9336,
      "Sof": 9337,
      "##iaceae": 9338,
      "##føres": 9339,
      "snabb": 9340,
      "Prix": 9341,
      "derimot": 9342,
      "klarte": 9343,
      "Nasjon": 9344,
      "Slekt": 9345,
      "##hn": 9346,
      "##havn": 9347,
      "grader": 9348,
      "Libanon": 9349,
      "##maet": 9350,
      "##høj": 9351,
      "##skon": 9352,
      "##varer": 9353,
      "1882": 9354,
      "stemme": 9355,
      "armé": 9356,
      "Dub": 9357,
      "##offer": 9358,
      "##sled": 9359,
      "##elli": 9360,
      "##smand": 9361,
      "tun": 9362,
      "##yrka": 9363,
      "gruppa": 9364,
      "Norr": 9365,
      "Sankt": 9366,
      "Of": 9367,
      "forek": 9368,
      "våpen": 9369,
      "Afghanistan": 9370,
      "House": 9371,
      "##ommar": 9372,
      "konkurran": 9373,
      "kulle": 9374,
      "Pap": 9375,
      "leiar": 9376,
      "East": 9377,
      "modstand": 9378,
      "1883": 9379,
      "stadion": 9380,
      "1879": 9381,
      "##oser": 9382,
      "klimat": 9383,
      "##oer": 9384,
      "##äss": 9385,
      "okk": 9386,
      "##ét": 9387,
      "tolk": 9388,
      "hvilke": 9389,
      "bilete": 9390,
      "##ræns": 9391,
      "ras": 9392,
      "Tyrk": 9393,
      "##gl": 9394,
      "##øp": 9395,
      "Heinrich": 9396,
      "øvrige": 9397,
      "hvilken": 9398,
      "ursprung": 9399,
      "Wat": 9400,
      "rekkje": 9401,
      "rekord": 9402,
      "##områder": 9403,
      "såkal": 9404,
      "utanför": 9405,
      "sommaren": 9406,
      "ru": 9407,
      "rest": 9408,
      "##lapp": 9409,
      "##værende": 9410,
      "semif": 9411,
      "Aften": 9412,
      "DR": 9413,
      "billeder": 9414,
      "Bea": 9415,
      "##rof": 9416,
      "##rod": 9417,
      "funnet": 9418,
      "världen": 9419,
      "visar": 9420,
      "nærheden": 9421,
      "Hotel": 9422,
      "##sem": 9423,
      "##enskap": 9424,
      "##elv": 9425,
      "##sels": 9426,
      "sammenlig": 9427,
      "Dahl": 9428,
      "##onym": 9429,
      "ledelse": 9430,
      "kendte": 9431,
      "##itel": 9432,
      "##ården": 9433,
      "##ksem": 9434,
      "produsert": 9435,
      "väldigt": 9436,
      "##inert": 9437,
      "forest": 9438,
      "hjemmeside": 9439,
      "1848": 9440,
      "arv": 9441,
      "slutet": 9442,
      "AC": 9443,
      "IUC": 9444,
      "Väster": 9445,
      "meng": 9446,
      "Schweiz": 9447,
      "Elisabeth": 9448,
      "division": 9449,
      "##ephal": 9450,
      "fac": 9451,
      "digit": 9452,
      "91": 9453,
      "##zer": 9454,
      "##usalem": 9455,
      "##veks": 9456,
      "Steph": 9457,
      "datab": 9458,
      "NM": 9459,
      "##ourg": 9460,
      "Vinter": 9461,
      "lengre": 9462,
      "Call": 9463,
      "Dis": 9464,
      "Ross": 9465,
      "IUCN": 9466,
      "Prins": 9467,
      "AT": 9468,
      "Little": 9469,
      "Kra": 9470,
      "Moh": 9471,
      "populær": 9472,
      "reise": 9473,
      "tycker": 9474,
      "##rust": 9475,
      "##overy": 9476,
      "EP": 9477,
      "Bou": 9478,
      "##eger": 9479,
      "Arist": 9480,
      "lika": 9481,
      "##igheden": 9482,
      "drog": 9483,
      "håll": 9484,
      "religion": 9485,
      "Hellas": 9486,
      "løp": 9487,
      "säga": 9488,
      "kvinne": 9489,
      "def": 9490,
      "##taler": 9491,
      "##amling": 9492,
      "samarbejde": 9493,
      "'.": 9494,
      "##ffer": 9495,
      "Sex": 9496,
      "ovan": 9497,
      "Bengt": 9498,
      "Tar": 9499,
      "offis": 9500,
      "guvernem": 9501,
      "##AD": 9502,
      "Cont": 9503,
      "halde": 9504,
      "##sler": 9505,
      "##iveau": 9506,
      "gran": 9507,
      "##istene": 9508,
      "dejt": 9509,
      "Songen": 9510,
      "Astrag": 9511,
      "äm": 9512,
      "dets": 9513,
      "samtidigt": 9514,
      "##itu": 9515,
      "Bath": 9516,
      "##vald": 9517,
      "##sagt": 9518,
      "besøkt": 9519,
      "Freder": 9520,
      "Astragalus": 9521,
      "rollen": 9522,
      "salt": 9523,
      "Esp": 9524,
      "##ygge": 9525,
      "miniat": 9526,
      "rekl": 9527,
      "dokumenter": 9528,
      "##kvar": 9529,
      "yderligere": 9530,
      "##lia": 9531,
      "##sav": 9532,
      "Old": 9533,
      "##mær": 9534,
      "##ände": 9535,
      "vanskelig": 9536,
      "orkester": 9537,
      "Luft": 9538,
      "UN": 9539,
      "##deren": 9540,
      "1814": 9541,
      "piano": 9542,
      "adgang": 9543,
      "##oten": 9544,
      "suksess": 9545,
      "hyl": 9546,
      "Leng": 9547,
      "VI": 9548,
      "link": 9549,
      "interv": 9550,
      "tillf": 9551,
      "Fød": 9552,
      "##bygget": 9553,
      "##utte": 9554,
      "1866": 9555,
      "##raust": 9556,
      "fx": 9557,
      "VII": 9558,
      "##skont": 9559,
      "kveld": 9560,
      "1875": 9561,
      "##felt": 9562,
      "gård": 9563,
      "##lemmer": 9564,
      "Jord": 9565,
      "spred": 9566,
      "overfor": 9567,
      "anvendes": 9568,
      "Hert": 9569,
      "##sle": 9570,
      "##ifrå": 9571,
      "opprør": 9572,
      "morg": 9573,
      "kontor": 9574,
      "Times": 9575,
      "Nikola": 9576,
      "##ube": 9577,
      "##rud": 9578,
      "Gustaf": 9579,
      "cookies": 9580,
      "observatoriet": 9581,
      "Krig": 9582,
      "##urat": 9583,
      "##serien": 9584,
      "omfattende": 9585,
      "gal": 9586,
      "##melse": 9587,
      "Mens": 9588,
      "korte": 9589,
      "Desse": 9590,
      "Rio": 9591,
      "bane": 9592,
      "givet": 9593,
      "omd": 9594,
      "Jerusalem": 9595,
      "Rem": 9596,
      "ober": 9597,
      "sjøl": 9598,
      "sidst": 9599,
      "Fel": 9600,
      "##ernes": 9601,
      "School": 9602,
      "##veien": 9603,
      "engelska": 9604,
      "dronning": 9605,
      "stiftet": 9606,
      "Turner": 9607,
      "redaktør": 9608,
      "opk": 9609,
      "##ydd": 9610,
      "sangen": 9611,
      "slekten": 9612,
      "time": 9613,
      "##iget": 9614,
      "nh": 9615,
      "tall": 9616,
      "##rey": 9617,
      "Cambridge": 9618,
      "##nelsen": 9619,
      "brann": 9620,
      "Hart": 9621,
      "modell": 9622,
      "Årets": 9623,
      "##isar": 9624,
      "##struktur": 9625,
      "##usa": 9626,
      "dro": 9627,
      "krev": 9628,
      "##sti": 9629,
      "Bud": 9630,
      "Akers": 9631,
      "nordöstra": 9632,
      "selskap": 9633,
      "manuskript": 9634,
      "Gram": 9635,
      "Spec": 9636,
      "SM": 9637,
      "prote": 9638,
      "arbeider": 9639,
      "arbete": 9640,
      "nasjonale": 9641,
      "Ker": 9642,
      "##ross": 9643,
      "%.": 9644,
      "riks": 9645,
      "##rette": 9646,
      "##ibel": 9647,
      "Hy": 9648,
      "Lab": 9649,
      "##vann": 9650,
      "##ierna": 9651,
      "modern": 9652,
      "følgje": 9653,
      "Palest": 9654,
      "Gul": 9655,
      "##ös": 9656,
      "##æder": 9657,
      "##stud": 9658,
      "fald": 9659,
      "##iform": 9660,
      "overra": 9661,
      "81": 9662,
      "ældre": 9663,
      "##orsdag": 9664,
      "kanal": 9665,
      "imod": 9666,
      "Lam": 9667,
      "##stræ": 9668,
      "pengar": 9669,
      "utford": 9670,
      "samla": 9671,
      "tillverk": 9672,
      "forel": 9673,
      "Cat": 9674,
      "##ständ": 9675,
      "tusen": 9676,
      "nordøst": 9677,
      "##vänd": 9678,
      "##eslag": 9679,
      "centrum": 9680,
      "##ugg": 9681,
      "vinteren": 9682,
      "utanfor": 9683,
      "kvinde": 9684,
      "Lim": 9685,
      "utgang": 9686,
      "Dommer": 9687,
      "beskytt": 9688,
      "sort": 9689,
      "Stan": 9690,
      "tyd": 9691,
      "generelt": 9692,
      "prosjekt": 9693,
      "brand": 9694,
      "Sta": 9695,
      "opera": 9696,
      "lån": 9697,
      "##æde": 9698,
      "1871": 9699,
      "Up": 9700,
      "feng": 9701,
      "klima": 9702,
      "minister": 9703,
      "bestäm": 9704,
      "riktning": 9705,
      "hennar": 9706,
      "##39": 9707,
      "##aret": 9708,
      "##seud": 9709,
      "Kur": 9710,
      "udtry": 9711,
      "Henri": 9712,
      "salg": 9713,
      "landsk": 9714,
      "Open": 9715,
      "##gers": 9716,
      "søster": 9717,
      "fry": 9718,
      "sum": 9719,
      "sekund": 9720,
      "initi": 9721,
      "sav": 9722,
      "##ussen": 9723,
      "##ystyle": 9724,
      "1877": 9725,
      "Iran": 9726,
      "belg": 9727,
      "##spunktet": 9728,
      "##brud": 9729,
      "Din": 9730,
      "1863": 9731,
      "##iserar": 9732,
      "##ebra": 9733,
      "tolv": 9734,
      "##øder": 9735,
      "Planet": 9736,
      "Sunn": 9737,
      "##grupper": 9738,
      "jakt": 9739,
      "##34": 9740,
      "##ites": 9741,
      "Dec": 9742,
      "##vad": 9743,
      "ejen": 9744,
      "##able": 9745,
      "##ather": 9746,
      "sammens": 9747,
      "varer": 9748,
      "##steder": 9749,
      "##egen": 9750,
      "innebär": 9751,
      "produktion": 9752,
      "##mun": 9753,
      "##sats": 9754,
      "##istiska": 9755,
      "##program": 9756,
      "##iblioteket": 9757,
      "Nør": 9758,
      "##zo": 9759,
      "diam": 9760,
      "henta": 9761,
      "mär": 9762,
      "utstyr": 9763,
      "sign": 9764,
      "##äkt": 9765,
      "mindst": 9766,
      "Først": 9767,
      "Vej": 9768,
      "selve": 9769,
      "##rapp": 9770,
      "Noen": 9771,
      "Pedersen": 9772,
      "##kost": 9773,
      "displaystyle": 9774,
      "foræld": 9775,
      "Nobel": 9776,
      "##namn": 9777,
      "Edvard": 9778,
      "Wer": 9779,
      "syng": 9780,
      "https": 9781,
      "hvorfor": 9782,
      "lese": 9783,
      "##etts": 9784,
      "Alger": 9785,
      "##appa": 9786,
      "visse": 9787,
      "##tida": 9788,
      "1862": 9789,
      "damer": 9790,
      "opdag": 9791,
      "invester": 9792,
      "##atør": 9793,
      "storm": 9794,
      "fran": 9795,
      "förl": 9796,
      "nordaust": 9797,
      "##ische": 9798,
      "##odor": 9799,
      "instrueret": 9800,
      "##anus": 9801,
      "##tering": 9802,
      "##løst": 9803,
      "##ough": 9804,
      "Alb": 9805,
      "liste": 9806,
      "''),": 9807,
      "Vær": 9808,
      "##kysten": 9809,
      "##sag": 9810,
      "eksper": 9811,
      "##AG": 9812,
      "nåede": 9813,
      "##skij": 9814,
      "kommuner": 9815,
      "främst": 9816,
      "blomster": 9817,
      "miniatyr": 9818,
      "##sætning": 9819,
      "Få": 9820,
      "##pos": 9821,
      "Barcelona": 9822,
      "##ikring": 9823,
      "Street": 9824,
      "1869": 9825,
      "Kont": 9826,
      "##ilus": 9827,
      "nästan": 9828,
      "samfund": 9829,
      "arrangert": 9830,
      "##row": 9831,
      "##ippe": 9832,
      "arkitektur": 9833,
      "lade": 9834,
      "miljoner": 9835,
      "instruktør": 9836,
      "##istent": 9837,
      "Aqu": 9838,
      "##asp": 9839,
      "Guds": 9840,
      "##hagen": 9841,
      "delta": 9842,
      "kjær": 9843,
      "fremst": 9844,
      "turist": 9845,
      "våren": 9846,
      "Od": 9847,
      "heldt": 9848,
      "##achsen": 9849,
      "Maur": 9850,
      "oplysninger": 9851,
      "stykke": 9852,
      "oms": 9853,
      "terror": 9854,
      "ball": 9855,
      "##ining": 9856,
      "##jes": 9857,
      "Christopher": 9858,
      "alb": 9859,
      "##utan": 9860,
      "service": 9861,
      "##aea": 9862,
      "virke": 9863,
      "aktiviteter": 9864,
      "Bull": 9865,
      "900": 9866,
      "Hay": 9867,
      "steg": 9868,
      "##trykk": 9869,
      "växtlighet": 9870,
      "##ives": 9871,
      "110": 9872,
      "##alp": 9873,
      "alp": 9874,
      "Alm": 9875,
      "ungefär": 9876,
      "##unns": 9877,
      "Net": 9878,
      "##flyt": 9879,
      "Kristiania": 9880,
      "universitetet": 9881,
      "krimin": 9882,
      "Forlag": 9883,
      "anses": 9884,
      "börjar": 9885,
      "Jane": 9886,
      "Eid": 9887,
      "##lat": 9888,
[...]
