{
  "version": "1.0",
  "truncation": null,
  "padding": null,
  "added_tokens": [
    {
      "id": 0,
      "special": true,
      "content": "[PAD]",
      "single_word": false,
      "lstrip": false,
      "rstrip": false,
      "normalized": false
    },
    {
      "id": 1,
      "special": true,
      "content": "[UNK]",
      "single_word": false,
      "lstrip": false,
      "rstrip": false,
      "normalized": false
    },
    {
      "id": 2,
      "special": true,
      "content": "[CLS]",
      "single_word": false,
      "lstrip": false,
      "rstrip": false,
      "normalized": false
    },
    {
      "id": 3,
      "special": true,
      "content": "[SEP]",
      "single_word": false,
      "lstrip": false,
      "rstrip": false,
      "normalized": false
    },
    {
      "id": 4,
      "special": true,
      "content": "[MASK]",
      "single_word": false,
      "lstrip": false,
      "rstrip": false,
      "normalized": false
    }
  ],
  "normalizer": {
    "type": "Sequence",
    "normalizers": [
      {
        "type": "Lowercase"
      }
    ]
  },
  "pre_tokenizer": {
    "type": "Whitespace"
  },
  "post_processor": null,
  "decoder": null,
  "model": {
    "unk_token": "[UNK]",
    "continuing_subword_prefix": "##",
    "max_input_chars_per_word": 100,
    "vocab": {
      "[PAD]": 0,
      "[UNK]": 1,
      "[CLS]": 2,
      "[SEP]": 3,
      "[MASK]": 4,
      "!": 5,
      "\"": 6,
      "#": 7,
      "$": 8,
      "%": 9,
      "&": 10,
      "'": 11,
      "(": 12,
      ")": 13,
      "*": 14,
      "+": 15,
      ",": 16,
      "-": 17,
      ".": 18,
      "/": 19,
      "0": 20,
      "1": 21,
      "2": 22,
      "3": 23,
      "4": 24,
      "5": 25,
      "6": 26,
      "7": 27,
      "8": 28,
      "9": 29,
      ":": 30,
      ";": 31,
      "<": 32,
      "=": 33,
      ">": 34,
      "?": 35,
      "@": 36,
      "[": 37,
      "\\": 38,
      "]": 39,
      "^": 40,
      "_": 41,
      "`": 42,
      "a": 43,
      "b": 44,
      "c": 45,
      "d": 46,
      "e": 47,
      "f": 48,
      "g": 49,
      "h": 50,
      "i": 51,
      "j": 52,
      "k": 53,
      "l": 54,
      "m": 55,
      "n": 56,
      "o": 57,
      "p": 58,
      "q": 59,
      "r": 60,
      "s": 61,
      "t": 62,
      "u": 63,
      "v": 64,
      "w": 65,
      "x": 66,
      "y": 67,
      "z": 68,
      "{": 69,
      "|": 70,
      "}": 71,
      "~": 72,
      "": 73,
      "¡": 74,
      "£": 75,
      "¤": 76,
      "¥": 77,
      "§": 78,
      "¨": 79,
      "©": 80,
      "«": 81,
      "­": 82,
      "®": 83,
      "¯": 84,
      "°": 85,
      "±": 86,
      "²": 87,
      "³": 88,
      "´": 89,
      "µ": 90,
      "·": 91,
      "¸": 92,
      "¹": 93,
      "º": 94,
      "»": 95,
      "¼": 96,
      "½": 97,
      "¿": 98,
      "×": 99,
      "ß": 100,
      "à": 101,
      "á": 102,
      "â": 103,
      "ã": 104,
      "ä": 105,
      "å": 106,
      "æ": 107,
      "ç": 108,
      "è": 109,
      "é": 110,
      "ê": 111,
      "ë": 112,
      "ì": 113,
      "í": 114,
      "î": 115,
      "ï": 116,
      "ð": 117,
      "ñ": 118,
      "ò": 119,
      "ó": 120,
      "ô": 121,
      "õ": 122,
      "ö": 123,
      "ø": 124,
      "ù": 125,
      "ú": 126,
      "û": 127,
      "ü": 128,
      "ý": 129,
      "þ": 130,
      "ÿ": 131,
      "ā": 132,
      "ă": 133,
      "ą": 134,
      "ć": 135,
      "č": 136,
      "đ": 137,
      "ē": 138,
      "ė": 139,
      "ę": 140,
      "ě": 141,
      "ğ": 142,
      "ġ": 143,
      "ħ": 144,
      "ĩ": 145,
      "ī": 146,
      "ĭ": 147,
      "ı": 148,
      "ļ": 149,
      "ľ": 150,
      "ł": 151,
      "ń": 152,
      "ņ": 153,
      "ň": 154,
      "ŋ": 155,
      "ō": 156,
      "ŏ": 157,
      "ő": 158,
      "œ": 159,
      "ř": 160,
      "ś": 161,
      "ş": 162,
      "š": 163,
      "ţ": 164,
      "ť": 165,
      "ū": 166,
      "ŭ": 167,
      "ů": 168,
      "ų": 169,
      "ź": 170,
      "ż": 171,
      "ž": 172,
      "ơ": 173,
      "ư": 174,
      "ǎ": 175,
      "ǐ": 176,
      "ǔ": 177,
      "ǫ": 178,
      "ș": 179,
      "ț": 180,
      "ɐ": 181,
      "ɑ": 182,
      "ɔ": 183,
      "ə": 184,
      "ɛ": 185,
      "ɡ": 186,
      "ɪ": 187,
      "ɲ": 188,
      "ɾ": 189,
      "ʃ": 190,
      "ʉ": 191,
      "ʊ": 192,
      "ʒ": 193,
      "ʰ": 194,
      "ʻ": 195,
      "ʾ": 196,
      "ʿ": 197,
      "ˇ": 198,
      "ˈ": 199,
      "ː": 200,
      "̀": 201,
      "́": 202,
      "̄": 203,
      "̇": 204,
      "̧": 205,
      "̯": 206,
      "̲": 207,
      "ά": 208,
      "έ": 209,
      "ή": 210,
      "ί": 211,
      "α": 212,
      "β": 213,
      "γ": 214,
      "δ": 215,
      "ε": 216,
      "ζ": 217,
      "η": 218,
      "θ": 219,
      "ι": 220,
      "κ": 221,
      "λ": 222,
      "μ": 223,
      "ν": 224,
      "ξ": 225,
      "ο": 226,
      "π": 227,
      "ρ": 228,
      "ς": 229,
      "σ": 230,
      "τ": 231,
      "υ": 232,
      "φ": 233,
      "χ": 234,
      "ψ": 235,
      "ω": 236,
      "ό": 237,
      "ύ": 238,
      "ώ": 239,
      "ϕ": 240,
      "а": 241,
      "б": 242,
      "в": 243,
      "г": 244,
      "д": 245,
      "е": 246,
      "ж": 247,
      "з": 248,
      "и": 249,
      "й": 250,
      "к": 251,
      "л": 252,
      "м": 253,
      "н": 254,
      "о": 255,
      "п": 256,
      "р": 257,
      "с": 258,
      "т": 259,
      "у": 260,
      "ф": 261,
      "х": 262,
      "ц": 263,
      "ч": 264,
      "ш": 265,
      "щ": 266,
      "ъ": 267,
      "ы": 268,
      "ь": 269,
      "э": 270,
      "ю": 271,
      "я": 272,
      "ё": 273,
      "і": 274,
      "ї": 275,
      "ј": 276,
      "ә": 277,
      "ա": 278,
      "բ": 279,
      "գ": 280,
      "դ": 281,
      "ե": 282,
      "թ": 283,
      "ի": 284,
      "լ": 285,
      "կ": 286,
      "հ": 287,
      "մ": 288,
      "յ": 289,
      "ն": 290,
      "ո": 291,
      "ս": 292,
      "վ": 293,
      "տ": 294,
      "ր": 295,
      "ւ": 296,
      "ք": 297,
      "ְ": 298,
      "ֲ": 299,
      "ִ": 300,
      "ֵ": 301,
      "ֶ": 302,
      "ַ": 303,
      "ָ": 304,
      "ֹ": 305,
      "ּ": 306,
      "ׁ": 307,
      "א": 308,
      "ב": 309,
      "ג": 310,
      "ד": 311,
      "ה": 312,
      "ו": 313,
      "ז": 314,
      "ח": 315,
      "ט": 316,
      "י": 317,
      "כ": 318,
      "ל": 319,
      "ם": 320,
      "מ": 321,
      "ן": 322,
      "נ": 323,
      "ס": 324,
      "ע": 325,
      "פ": 326,
      "צ": 327,
      "ק": 328,
      "ר": 329,
      "ש": 330,
      "ת": 331,
      "ء": 332,
      "آ": 333,
      "أ": 334,
      "إ": 335,
      "ئ": 336,
      "ا": 337,
      "ب": 338,
      "ة": 339,
      "ت": 340,
      "ث": 341,
      "ج": 342,
      "ح": 343,
      "خ": 344,
      "د": 345,
      "ر": 346,
      "ز": 347,
      "س": 348,
      "ش": 349,
      "ص": 350,
      "ض": 351,
      "ط": 352,
      "ظ": 353,
      "ع": 354,
      "غ": 355,
      "ف": 356,
      "ق": 357,
      "ك": 358,
      "ل": 359,
      "م": 360,
      "ن": 361,
      "ه": 362,
      "و": 363,
      "ى": 364,
      "ي": 365,
      "َ": 366,
      "ُ": 367,
      "ِ": 368,
      "ّ": 369,
      "ْ": 370,
      "ٔ": 371,
      "پ": 372,
      "چ": 373,
      "ک": 374,
      "گ": 375,
      "ی": 376,
      "ܐ": 377,
      "ܝ": 378,
      "ं": 379,
      "अ": 380,
      "क": 381,
      "ग": 382,
      "ज": 383,
      "त": 384,
      "द": 385,
      "न": 386,
      "प": 387,
      "ब": 388,
      "भ": 389,
      "म": 390,
      "य": 391,
      "र": 392,
      "ल": 393,
      "व": 394,
      "स": 395,
      "ह": 396,
      "ा": 397,
      "ि": 398,
      "ी": 399,
      "ु": 400,
      "े": 401,
      "ो": 402,
      "्": 403,
      "র": 404,
      "া": 405,
      "্": 406,
      "்": 407,
      "ం": 408,
      "న": 409,
      "ర": 410,
      "ల": 411,
      "ా": 412,
      "ి": 413,
      "ు": 414,
      "్": 415,
      "ง": 416,
      "น": 417,
      "ม": 418,
      "ย": 419,
      "ร": 420,
      "า": 421,
      "ิ": 422,
      "เ": 423,
      "་": 424,
      "ག": 425,
      "ང": 426,
      "ད": 427,
      "ན": 428,
      "པ": 429,
      "བ": 430,
      "མ": 431,
      "ར": 432,
      "ས": 433,
      "ི": 434,
      "ེ": 435,
      "ོ": 436,
      "ა": 437,
      "ბ": 438,
      "ე": 439,
      "ი": 440,
      "ლ": 441,
      "ნ": 442,
      "ო": 443,
      "რ": 444,
      "ს": 445,
      "្": 446,
      "ḍ": 447,
      "ḏ": 448,
      "ḑ": 449,
      "ḥ": 450,
      "ḩ": 451,
      "ḫ": 452,
      "ṃ": 453,
      "ṇ": 454,
      "ṟ": 455,
      "ṣ": 456,
      "ṭ": 457,
      "ṯ": 458,
      "ẕ": 459,
      "ạ": 460,
      "ả": 461,
      "ấ": 462,
      "ầ": 463,
      "ẩ": 464,
      "ậ": 465,
      "ế": 466,
      "ề": 467,
      "ể": 468,
      "ễ": 469,
      "ệ": 470,
      "ỉ": 471,
      "ị": 472,
      "ọ": 473,
      "ố": 474,
      "ồ": 475,
      "ổ": 476,
      "ộ": 477,
      "ớ": 478,
      "ờ": 479,
      "ở": 480,
      "ợ": 481,
      "ụ": 482,
      "ủ": 483,
      "ứ": 484,
      "ữ": 485,
      "ự": 486,
      "ỹ": 487,
      "ἀ": 488,
      "ἄ": 489,
      "ἐ": 490,
      "ἰ": 491,
      "​": 492,
      "‌": 493,
      "‍": 494,
      "‎": 495,
      "‐": 496,
      "‑": 497,
      "–": 498,
      "—": 499,
      "’": 500,
      "“": 501,
      "”": 502,
      "†": 503,
      "•": 504,
      "…": 505,
      "′": 506,
      "″": 507,
      "›": 508,
      "‼": 509,
      "⁄": 510,
      "⁉": 511,
      "⁡": 512,
      "€": 513,
      "⃣": 514,
      "™": 515,
      "ℹ": 516,
      "←": 517,
      "↑": 518,
      "→": 519,
      "↔": 520,
      "↕": 521,
      "↖": 522,
      "↗": 523,
      "↘": 524,
      "↙": 525,
      "↩": 526,
      "↪": 527,
      "∂": 528,
      "∇": 529,
      "∈": 530,
      "∑": 531,
      "−": 532,
      "∗": 533,
      "∞": 534,
      "∫": 535,
      "≈": 536,
      "≤": 537,
      "≥": 538,
      "⋅": 539,
      "⌚": 540,
      "⌛": 541,
      "⌨": 542,
      "⏏": 543,
      "⏬": 544,
      "⏭": 545,
      "⏮": 546,
      "⏯": 547,
      "⏰": 548,
      "⏱": 549,
      "⏲": 550,
      "⏸": 551,
      "⏹": 552,
      "⏺": 553,
      "ⓜ": 554,
      "─": 555,
      "█": 556,
      "■": 557,
      "▪": 558,
      "▫": 559,
      "▶": 560,
      "►": 561,
      "◀": 562,
      "◄": 563,
      "●": 564,
      "◻": 565,
      "◼": 566,
      "◽": 567,
      "◾": 568,
      "☀": 569,
      "☁": 570,
      "☂": 571,
      "☃": 572,
      "☄": 573,
      "★": 574,
      "☎": 575,
      "☑": 576,
      "☔": 577,
      "☕": 578,
      "☘": 579,
      "☝": 580,
      "☠": 581,
      "☢": 582,
      "☣": 583,
      "☦": 584,
      "☪": 585,
      "☮": 586,
      "☯": 587,
      "☸": 588,
      "☹": 589,
      "☺": 590,
      "♀": 591,
      "♂": 592,
      "♈": 593,
      "♋": 594,
      "♌": 595,
      "♍": 596,
      "♎": 597,
      "♏": 598,
      "♑": 599,
      "♓": 600,
      "♟": 601,
      "♠": 602,
      "♣": 603,
      "♥": 604,
      "♦": 605,
      "♨": 606,
      "♪": 607,
      "♭": 608,
      "♻": 609,
      "♾": 610,
      "♿": 611,
      "⚒": 612,
      "⚔": 613,
      "⚕": 614,
      "⚖": 615,
      "⚗": 616,
      "⚙": 617,
      "⚛": 618,
      "⚜": 619,
      "⚠": 620,
      "⚡": 621,
      "⚧": 622,
      "⚰": 623,
      "⚱": 624,
      "⚽": 625,
      "⛄": 626,
      "⛈": 627,
      "⛎": 628,
      "⛏": 629,
      "⛑": 630,
      "⛓": 631,
      "⛩": 632,
      "⛪": 633,
      "⛰": 634,
      "⛱": 635,
      "⛲": 636,
      "⛳": 637,
      "⛴": 638,
      "⛵": 639,
      "⛷": 640,
      "⛸": 641,
      "⛹": 642,
      "✂": 643,
      "✅": 644,
      "✈": 645,
      "✉": 646,
      "✊": 647,
      "✋": 648,
      "✌": 649,
      "✍": 650,
      "✏": 651,
      "✒": 652,
      "✓": 653,
      "✔": 654,
      "✖": 655,
      "✝": 656,
      "✡": 657,
      "✨": 658,
      "✳": 659,
      "✴": 660,
      "❄": 661,
      "❇": 662,
      "❌": 663,
      "❓": 664,
      "❗": 665,
      "❣": 666,
      "❤": 667,
      "➕": 668,
      "➖": 669,
      "➡": 670,
      "➿": 671,
      "⟩": 672,
      "⤴": 673,
      "⤵": 674,
      "⬅": 675,
      "⬆": 676,
      "⬇": 677,
      "⬛": 678,
      "⬜": 679,
      "⭐": 680,
      "⭕": 681,
      "《": 682,
      "》": 683,
      "〰": 684,
      "〽": 685,
      "い": 686,
      "た": 687,
      "の": 688,
      "ア": 689,
      "イ": 690,
      "キ": 691,
      "ク": 692,
      "ジ": 693,
      "ス": 694,
      "タ": 695,
      "ッ": 696,
      "ト": 697,
      "ド": 698,
      "マ": 699,
      "ラ": 700,
      "リ": 701,
      "ル": 702,
      "ロ": 703,
      "ン": 704,
      "・": 705,
      "ー": 706,
      "㊗": 707,
      "㊙": 708,
      "一": 709,
      "三": 710,
      "上": 711,
      "东": 712,
      "中": 713,
      "乡": 714,
      "京": 715,
      "人": 716,
      "会": 717,
      "八": 718,
      "公": 719,
      "北": 720,
      "区": 721,
      "十": 722,
      "南": 723,
      "县": 724,
      "国": 725,
      "國": 726,
      "地": 727,
      "城": 728,
      "大": 729,
      "天": 730,
      "子": 731,
      "安": 732,
      "宝": 733,
      "家": 734,
      "尔": 735,
      "山": 736,
      "州": 737,
      "巴": 738,
      "市": 739,
      "平": 740,
      "年": 741,
      "库": 742,
      "德": 743,
      "心": 744,
      "拉": 745,
      "文": 746,
      "新": 747,
      "族": 748,
      "日": 749,
      "明": 750,
      "木": 751,
      "本": 752,
      "林": 753,
      "桥": 754,
      "武": 755,
      "水": 756,
      "江": 757,
      "河": 758,
      "治": 759,
      "海": 760,
      "王": 761,
      "田": 762,
      "白": 763,
      "石": 764,
      "經": 765,
      "自": 766,
      "苏": 767,
      "行": 768,
      "街": 769,
      "西": 770,
      "道": 771,
      "里": 772,
      "金": 773,
      "镇": 774,
      "长": 775,
      "阳": 776,
      "阿": 777,
      "陈": 778,
      "音": 779,
      "高": 780,
      "동": 781,
      "️": 782,
      "�": 783,
      "🀄": 784,
      "🅰": 785,
      "🅱": 786,
      "🅾": 787,
      "🅿": 788,
      "🆘": 789,
      "🆚": 790,
      "🇦": 791,
      "🇧": 792,
      "🇨": 793,
      "🇩": 794,
      "🇪": 795,
      "🇫": 796,
      "🇬": 797,
      "🇭": 798,
      "🇮": 799,
      "🇯": 800,
      "🇰": 801,
      "🇱": 802,
      "🇲": 803,
      "🇳": 804,
      "🇴": 805,
      "🇵": 806,
      "🇶": 807,
      "🇷": 808,
      "🇸": 809,
      "🇹": 810,
      "🇺": 811,
      "🇻": 812,
      "🇼": 813,
      "🇽": 814,
      "🇾": 815,
      "🇿": 816,
      "🈁": 817,
      "🈂": 818,
      "🈳": 819,
      "🈵": 820,
      "🈷": 821,
      "🌁": 822,
      "🌃": 823,
      "🌅": 824,
      "🌇": 825,
      "🌈": 826,
      "🌊": 827,
      "🌋": 828,
      "🌍": 829,
      "🌏": 830,
      "🌐": 831,
      "🌑": 832,
      "🌕": 833,
      "🌚": 834,
      "🌛": 835,
      "🌜": 836,
      "🌞": 837,
      "🌟": 838,
      "🌡": 839,
      "🌤": 840,
      "🌥": 841,
      "🌦": 842,
      "🌧": 843,
      "🌨": 844,
      "🌩": 845,
      "🌪": 846,
      "🌫": 847,
      "🌬": 848,
      "🌭": 849,
      "🌮": 850,
      "🌯": 851,
      "🌲": 852,
      "🌴": 853,
      "🌶": 854,
      "🌸": 855,
      "🌺": 856,
      "🌽": 857,
      "🌾": 858,
      "🍀": 859,
      "🍁": 860,
      "🍂": 861,
      "🍃": 862,
      "🍆": 863,
      "🍇": 864,
      "🍈": 865,
      "🍉": 866,
      "🍊": 867,
      "🍌": 868,
      "🍍": 869,
      "🍏": 870,
      "🍐": 871,
      "🍒": 872,
      "🍔": 873,
      "🍙": 874,
      "🍚": 875,
      "🍜": 876,
      "🍝": 877,
      "🍢": 878,
      "🍣": 879,
      "🍤": 880,
      "🍥": 881,
      "🍦": 882,
      "🍧": 883,
      "🍨": 884,
      "🍩": 885,
      "🍪": 886,
      "🍰": 887,
      "🍱": 888,
      "🍳": 889,
      "🍷": 890,
      "🍹": 891,
      "🍺": 892,
      "🍻": 893,
      "🍼": 894,
      "🍽": 895,
      "🍾": 896,
      "🍿": 897,
      "🎀": 898,
      "🎁": 899,
      "🎂": 900,
      "🎃": 901,
      "🎄": 902,
      "🎅": 903,
      "🎈": 904,
      "🎉": 905,
      "🎊": 906,
      "🎐": 907,
      "🎑": 908,
      "🎓": 909,
      "🎖": 910,
      "🎗": 911,
      "🎙": 912,
      "🎚": 913,
      "🎛": 914,
      "🎞": 915,
      "🎟": 916,
      "🎡": 917,
      "🎣": 918,
      "🎤": 919,
      "🎥": 920,
      "🎧": 921,
      "🎨": 922,
      "🎩": 923,
      "🎪": 924,
      "🎫": 925,
      "🎬": 926,
      "🎭": 927,
      "🎮": 928,
      "🎯": 929,
      "🎳": 930,
      "🎴": 931,
      "🎶": 932,
      "🎷": 933,
      "🎹": 934,
      "🎺": 935,
      "🎼": 936,
      "🎽": 937,
      "🎾": 938,
      "🏀": 939,
      "🏂": 940,
      "🏃": 941,
      "🏄": 942,
      "🏆": 943,
      "🏇": 944,
      "🏈": 945,
      "🏉": 946,
      "🏊": 947,
      "🏋": 948,
      "🏌": 949,
      "🏍": 950,
      "🏎": 951,
      "🏔": 952,
      "🏕": 953,
      "🏖": 954,
      "🏗": 955,
      "🏘": 956,
      "🏙": 957,
      "🏚": 958,
      "🏛": 959,
      "🏜": 960,
      "🏝": 961,
      "🏞": 962,
      "🏟": 963,
      "🏠": 964,
      "🏢": 965,
      "🏤": 966,
      "🏥": 967,
      "🏧": 968,
      "🏪": 969,
      "🏫": 970,
      "🏭": 971,
      "🏳": 972,
      "🏴": 973,
      "🏵": 974,
      "🏷": 975,
      "🏻": 976,
      "🏼": 977,
      "🏽": 978,
      "🏾": 979,
      "🏿": 980,
      "🐈": 981,
      "🐉": 982,
      "🐑": 983,
      "🐒": 984,
      "🐕": 985,
      "🐖": 986,
      "🐙": 987,
      "🐚": 988,
      "🐜": 989,
      "🐞": 990,
      "🐡": 991,
      "🐣": 992,
      "🐤": 993,
      "🐥": 994,
      "🐧": 995,
      "🐨": 996,
      "🐮": 997,
      "🐰": 998,
      "🐳": 999,
      "🐶": 1000,
      "🐸": 1001,
      "🐹": 1002,
      "🐺": 1003,
      "🐻": 1004,
      "🐼": 1005,
      "🐽": 1006,
      "🐿": 1007,
      "👀": 1008,
      "👁": 1009,
      "👂": 1010,
      "👃": 1011,
      "👅": 1012,
      "👆": 1013,
      "👇": 1014,
      "👈": 1015,
      "👉": 1016,
      "👊": 1017,
      "👋": 1018,
      "👌": 1019,
      "👍": 1020,
      "👎": 1021,
      "👏": 1022,
      "👐": 1023,
      "👒": 1024,
      "👕": 1025,
      "👖": 1026,
      "👗": 1027,
      "👙": 1028,
      "👛": 1029,
      "👜": 1030,
      "👦": 1031,
      "👧": 1032,
      "👨": 1033,
      "👩": 1034,
      "👪": 1035,
      "👫": 1036,
      "👬": 1037,
      "👭": 1038,
      "👮": 1039,
      "👯": 1040,
      "👰": 1041,
      "👱": 1042,
      "👲": 1043,
      "👳": 1044,
      "👴": 1045,
      "👵": 1046,
      "👶": 1047,
      "👷": 1048,
      "👸": 1049,
      "👹": 1050,
      "👻": 1051,
      "👼": 1052,
      "👽": 1053,
      "👾": 1054,
      "💀": 1055,
      "💁": 1056,
      "💂": 1057,
      "💃": 1058,
      "💄": 1059,
      "💅": 1060,
      "💆": 1061,
      "💇": 1062,
      "💊": 1063,
      "💋": 1064,
      "💍": 1065,
      "💏": 1066,
      "💐": 1067,
      "💑": 1068,
      "💓": 1069,
      "💔": 1070,
      "💕": 1071,
      "💖": 1072,
      "💗": 1073,
      "💘": 1074,
      "💙": 1075,
      "💚": 1076,
      "💛": 1077,
      "💜": 1078,
      "💝": 1079,
      "💞": 1080,
      "💡": 1081,
      "💣": 1082,
      "💤": 1083,
      "💦": 1084,
      "💧": 1085,
      "💨": 1086,
      "💩": 1087,
      "💪": 1088,
      "💫": 1089,
      "💰": 1090,
      "💱": 1091,
      "💲": 1092,
      "💴": 1093,
      "💵": 1094,
      "💸": 1095,
      "💺": 1096,
      "💻": 1097,
      "💼": 1098,
      "💾": 1099,
      "📃": 1100,
      "📅": 1101,
      "📇": 1102,
      "📈": 1103,
      "📐": 1104,
      "📑": 1105,
      "📕": 1106,
      "📖": 1107,
      "📘": 1108,
      "📚": 1109,
      "📝": 1110,
      "📧": 1111,
      "📨": 1112,
      "📩": 1113,
      "📪": 1114,
      "📭": 1115,
      "📮": 1116,
      "📰": 1117,
      "📱": 1118,
      "📵": 1119,
      "📶": 1120,
      "📷": 1121,
      "📸": 1122,
      "📺": 1123,
      "📻": 1124,
      "📽": 1125,
      "🔆": 1126,
      "🔇": 1127,
      "🔈": 1128,
      "🔊": 1129,
      "🔍": 1130,
      "🔎": 1131,
      "🔓": 1132,
      "🔕": 1133,
      "🔙": 1134,
      "🔛": 1135,
      "🔝": 1136,
      "🔞": 1137,
      "🔟": 1138,
      "🔡": 1139,
      "🔤": 1140,
      "🔥": 1141,
      "🔧": 1142,
      "🔩": 1143,
      "🔬": 1144,
      "🔭": 1145,
      "🔮": 1146,
      "🔯": 1147,
      "🔰": 1148,
      "🔶": 1149,
      "🔹": 1150,
      "🔺": 1151,
      "🕉": 1152,
      "🕊": 1153,
      "🕎": 1154,
      "🕒": 1155,
      "🕔": 1156,
      "🕘": 1157,
      "🕙": 1158,
      "🕛": 1159,
      "🕢": 1160,
      "🕣": 1161,
      "🕥": 1162,
      "🕧": 1163,
      "🕯": 1164,
      "🕰": 1165,
      "🕳": 1166,
      "🕴": 1167,
      "🕵": 1168,
      "🕶": 1169,
      "🕷": 1170,
      "🕸": 1171,
      "🕹": 1172,
      "🕺": 1173,
      "🖇": 1174,
      "🖊": 1175,
      "🖋": 1176,
      "🖌": 1177,
      "🖍": 1178,
      "🖐": 1179,
      "🖕": 1180,
      "🖖": 1181,
      "🖤": 1182,
      "🖥": 1183,
      "🖨": 1184,
      "🖱": 1185,
      "🖲": 1186,
      "🖼": 1187,
      "🗂": 1188,
      "🗃": 1189,
      "🗄": 1190,
      "🗑": 1191,
      "🗒": 1192,
      "🗓": 1193,
      "🗜": 1194,
      "🗝": 1195,
      "🗞": 1196,
      "🗡": 1197,
      "🗣": 1198,
      "🗨": 1199,
      "🗯": 1200,
      "🗳": 1201,
      "🗺": 1202,
      "🗿": 1203,
      "😀": 1204,
      "😁": 1205,
      "😂": 1206,
      "😃": 1207,
      "😄": 1208,
      "😅": 1209,
      "😆": 1210,
      "😇": 1211,
      "😈": 1212,
      "😉": 1213,
      "😊": 1214,
      "😋": 1215,
      "😌": 1216,
      "😍": 1217,
      "😎": 1218,
      "😏": 1219,
      "😐": 1220,
      "😑": 1221,
      "😒": 1222,
      "😔": 1223,
      "😕": 1224,
      "😗": 1225,
      "😘": 1226,
      "😛": 1227,
      "😜": 1228,
      "😝": 1229,
      "😞": 1230,
      "😟": 1231,
      "😠": 1232,
      "😡": 1233,
      "😢": 1234,
      "😣": 1235,
      "😤": 1236,
      "😥": 1237,
      "😦": 1238,
      "😧": 1239,
      "😩": 1240,
      "😪": 1241,
      "😫": 1242,
      "😬": 1243,
      "😭": 1244,
      "😮": 1245,
      "😯": 1246,
      "😱": 1247,
      "😲": 1248,
      "😳": 1249,
      "😴": 1250,
      "😶": 1251,
      "😻": 1252,
      "😼": 1253,
      "😽": 1254,
      "🙀": 1255,
      "🙁": 1256,
      "🙂": 1257,
      "🙄": 1258,
      "🙅": 1259,
      "🙆": 1260,
      "🙇": 1261,
      "🙈": 1262,
      "🙊": 1263,
      "🙋": 1264,
      "🙌": 1265,
      "🙍": 1266,
      "🙎": 1267,
      "🙏": 1268,
      "🚀": 1269,
      "🚁": 1270,
      "🚂": 1271,
      "🚅": 1272,
      "🚇": 1273,
      "🚈": 1274,
      "🚊": 1275,
      "🚋": 1276,
      "🚌": 1277,
      "🚎": 1278,
      "🚒": 1279,
      "🚔": 1280,
      "🚙": 1281,
      "🚜": 1282,
      "🚝": 1283,
      "🚟": 1284,
      "🚠": 1285,
      "🚡": 1286,
      "🚣": 1287,
      "🚤": 1288,
      "🚥": 1289,
      "🚫": 1290,
      "🚭": 1291,
      "🚯": 1292,
      "🚱": 1293,
      "🚲": 1294,
      "🚴": 1295,
      "🚵": 1296,
      "🚶": 1297,
      "🚸": 1298,
      "🚻": 1299,
      "🚼": 1300,
      "🚽": 1301,
      "🛀": 1302,
      "🛅": 1303,
      "🛋": 1304,
      "🛌": 1305,
      "🛍": 1306,
      "🛎": 1307,
      "🛏": 1308,
      "🛒": 1309,
      "🛕": 1310,
      "🛖": 1311,
      "🛠": 1312,
      "🛡": 1313,
      "🛢": 1314,
      "🛣": 1315,
      "🛤": 1316,
      "🛥": 1317,
      "🛩": 1318,
      "🛰": 1319,
      "🛳": 1320,
      "🛶": 1321,
      "🛸": 1322,
      "🛹": 1323,
      "🟡": 1324,
      "🟥": 1325,
      "🟧": 1326,
      "🟨": 1327,
      "🟫": 1328,
      "🤌": 1329,
      "🤏": 1330,
      "🤐": 1331,
      "🤒": 1332,
      "🤓": 1333,
      "🤔": 1334,
      "🤗": 1335,
      "🤘": 1336,
      "🤙": 1337,
      "🤚": 1338,
      "🤛": 1339,
      "🤜": 1340,
      "🤝": 1341,
      "🤞": 1342,
      "🤟": 1343,
      "🤠": 1344,
      "🤢": 1345,
      "🤣": 1346,
      "🤤": 1347,
      "🤦": 1348,
      "🤨": 1349,
      "🤩": 1350,
      "🤪": 1351,
      "🤯": 1352,
      "🤰": 1353,
      "🤱": 1354,
      "🤲": 1355,
      "🤳": 1356,
      "🤴": 1357,
      "🤵": 1358,
      "🤶": 1359,
      "🤷": 1360,
      "🤸": 1361,
      "🤹": 1362,
      "🤼": 1363,
      "🤽": 1364,
      "🤾": 1365,
      "🥀": 1366,
      "🥁": 1367,
      "🥂": 1368,
      "🥃": 1369,
      "🥅": 1370,
      "🥈": 1371,
      "🥉": 1372,
      "🥌": 1373,
      "🥏": 1374,
      "🥕": 1375,
      "🥖": 1376,
      "🥗": 1377,
      "🥚": 1378,
      "🥛": 1379,
      "🥟": 1380,
      "🥠": 1381,
      "🥡": 1382,
      "🥥": 1383,
      "🥦": 1384,
      "🥧": 1385,
      "🥨": 1386,
      "🥪": 1387,
      "🥭": 1388,
      "🥯": 1389,
      "🥰": 1390,
      "🥷": 1391,
      "🥸": 1392,
      "🥾": 1393,
      "🦄": 1394,
      "🦅": 1395,
      "🦇": 1396,
      "🦈": 1397,
      "🦉": 1398,
      "🦋": 1399,
      "🦌": 1400,
      "🦍": 1401,
      "🦎": 1402,
      "🦏": 1403,
      "🦑": 1404,
      "🦒": 1405,
      "🦔": 1406,
      "🦖": 1407,
      "🦚": 1408,
      "🦤": 1409,
      "🦧": 1410,
      "🦩": 1411,
      "🦪": 1412,
      "🦫": 1413,
      "🦬": 1414,
      "🦭": 1415,
      "🦯": 1416,
      "🦰": 1417,
      "🦱": 1418,
      "🦲": 1419,
      "🦳": 1420,
      "🦴": 1421,
      "🦵": 1422,
      "🦶": 1423,
      "🦷": 1424,
      "🦸": 1425,
      "🦹": 1426,
      "🦺": 1427,
      "🦻": 1428,
      "🦼": 1429,
      "🦽": 1430,
      "🧀": 1431,
      "🧄": 1432,
      "🧆": 1433,
      "🧋": 1434,
      "🧍": 1435,
      "🧎": 1436,
      "🧏": 1437,
      "🧑": 1438,
      "🧒": 1439,
      "🧓": 1440,
      "🧔": 1441,
      "🧕": 1442,
      "🧖": 1443,
      "🧗": 1444,
      "🧘": 1445,
      "🧙": 1446,
      "🧚": 1447,
      "🧛": 1448,
      "🧜": 1449,
      "🧝": 1450,
      "🧞": 1451,
      "🧟": 1452,
      "🧡": 1453,
      "🧢": 1454,
      "🧤": 1455,
      "🧫": 1456,
      "🧬": 1457,
      "🧮": 1458,
      "🧯": 1459,
      "🧰": 1460,
      "🧱": 1461,
      "🧶": 1462,
      "🧷": 1463,
      "🧸": 1464,
      "🧻": 1465,
      "🧽": 1466,
      "🧿": 1467,
      "🩲": 1468,
      "🩸": 1469,
      "🩹": 1470,
      "🩺": 1471,
      "🪀": 1472,
      "🪂": 1473,
      "🪃": 1474,
      "🪐": 1475,
      "🪔": 1476,
      "🪕": 1477,
      "🪖": 1478,
      "🪗": 1479,
      "🪚": 1480,
      "🪞": 1481,
      "🪟": 1482,
      "🪠": 1483,
      "🪡": 1484,
      "🪣": 1485,
      "🪥": 1486,
      "🪧": 1487,
      "🪨": 1488,
      "🪱": 1489,
      "🪲": 1490,
      "🪳": 1491,
      "🪵": 1492,
      "🪶": 1493,
      "🫐": 1494,
      "🫒": 1495,
      "🫓": 1496,
      "🫖": 1497,
      "󠁢": 1498,
      "󠁣": 1499,
      "󠁥": 1500,
      "󠁧": 1501,
      "󠁮": 1502,
      "󠁳": 1503,
      "󠁿": 1504,
      "##i": 1505,
      "##n": 1506,
      "##c": 1507,
      "##e": 1508,
      "##r": 1509,
      "##t": 1510,
      "##à": 1511,
      "##d": 1512,
      "##a": 1513,
      "##o": 1514,
      "##s": 1515,
      "##m": 1516,
      "##f": 1517,
      "##k": 1518,
      "##y": 1519,
      "##l": 1520,
      "##p": 1521,
      "##v": 1522,
      "##u": 1523,
      "##b": 1524,
      "##0": 1525,
      "##3": 1526,
      "##h": 1527,
      "##ä": 1528,
      "##j": 1529,
      "##x": 1530,
      "##z": 1531,
      "##4": 1532,
      "##1": 1533,
      "##7": 1534,
      "##6": 1535,
      "##2": 1536,
      "##w": 1537,
      "##g": 1538,
      "##å": 1539,
      "##л": 1540,
      "##а": 1541,
      "##в": 1542,
      "##ю": 1543,
      "##щ": 1544,
      "##и": 1545,
      "##й": 1546,
      "##é": 1547,
      "##ö": 1548,
      "##ø": 1549,
      "##8": 1550,
      "##5": 1551,
      "##9": 1552,
      "##è": 1553,
      "##ī": 1554,
      "##æ": 1555,
      "##ḏ": 1556,
      "##ê": 1557,
      "##ā": 1558,
      "##á": 1559,
      "##г": 1560,
      "##о": 1561,
      "##р": 1562,
      "##д": 1563,
      "##н": 1564,
      "##к": 1565,
      "##q": 1566,
      "##ó": 1567,
      "##ğ": 1568,
      "##ı": 1569,
      "##ć": 1570,
      "##ü": 1571,
      "##ш": 1572,
      "##м": 1573,
      "##я": 1574,
      "##с": 1575,
      "##і": 1576,
      "##е": 1577,
      "##-": 1578,
      "##(": 1579,
      "##_": 1580,
      "##í": 1581,
      "##κ": 1582,
      "##α": 1583,
      "##ν": 1584,
      "##θ": 1585,
      "##ώ": 1586,
      "##ρ": 1587,
      "##ù": 1588,
      "##و": 1589,
      "##ی": 1590,
      "##ą": 1591,
      "##ç": 1592,
      "##č": 1593,
      "##ế": 1594,
      "##η": 1595,
      "##ί": 1596,
      "##δ": 1597,
      "##ε": 1598,
      "##ς": 1599,
      "##τ": 1600,
      "##ό": 1601,
      "##σ": 1602,
      "##ι": 1603,
      "##ο": 1604,
      "##́": 1605,
      "##з": 1606,
      "##т": 1607,
      "##ь": 1608,
      "##λ": 1609,
      "##ή": 1610,
      "##ω": 1611,
      "##.": 1612,
      "##)": 1613,
      "##ž": 1614,
      "##â": 1615,
      "##ð": 1616,
      "##ñ": 1617,
      "##ý": 1618,
      "##ł": 1619,
      "##ń": 1620,
      "##ض": 1621,
      "##ر": 1622,
      "##م": 1623,
      "##ت": 1624,
      "##ǎ": 1625,
      "##ř": 1626,
      "##ṯ": 1627,
      "##ş": 1628,
      "##ా": 1629,
      "##ర": 1630,
      "##ి": 1631,
      "##ï": 1632,
      "##ș": 1633,
      "##د": 1634,
      "##ک": 1635,
      "##ا": 1636,
      "##ن": 1637,
      "##ļ": 1638,
      "##î": 1639,
      "##û": 1640,
      "##国": 1641,
      "##公": 1642,
      "##ś": 1643,
      "##ă": 1644,
      "##:": 1645,
      "##ч": 1646,
      "##ū": 1647,
      "##ú": 1648,
      "##у": 1649,
      "##б": 1650,
      "##ы": 1651,
      "##خ": 1652,
      "##ي": 1653,
      "##ب": 1654,
      "##š": 1655,
      "##心": 1656,
      "##經": 1657,
      "##三": 1658,
      "##ë": 1659,
      "##ż": 1660,
      "##ã": 1661,
      "##🏼": 1662,
      "##õ": 1663,
      "##…": 1664,
      "##;": 1665,
      "##ʿ": 1666,
      "##海": 1667,
      "##宝": 1668,
      "##п": 1669,
      "##ֶ": 1670,
      "##ר": 1671,
      "##ְ": 1672,
      "##ח": 1673,
      "##ַ": 1674,
      "##ב": 1675,
      "##י": 1676,
      "##ָ": 1677,
      "##ה": 1678,
      "##ò": 1679,
      "##ß": 1680,
      "##ē": 1681,
      "##'": 1682,
      "##ả": 1683,
      "##​": 1684,
      "##ė": 1685,
      "##?": 1686,
      "##\\": 1687,
      "##َ": 1688,
      "##=": 1689,
      "##{": 1690,
      "##ː": 1691,
      "##ά": 1692,
      "##μ": 1693,
      "##ё": 1694,
      "##♥": 1695,
      "##»": 1696,
      "##乡": 1697,
      "##•": 1698,
      "##х": 1699,
      "##ा": 1700,
      "##र": 1701,
      "##्": 1702,
      "##व": 1703,
      "##ō": 1704,
      "##ţ": 1705,
      "##ز": 1706,
      "##υ": 1707,
      "##,": 1708,
      "##đ": 1709,
      "##*": 1710,
      "##ˈ": 1711,
      "##ǔ": 1712,
      "##ل": 1713,
      "##ح": 1714,
      "##מ": 1715,
      "##ד": 1716,
      "##χ": 1717,
      "##ŋ": 1718,
      "##一": 1719,
      "##&": 1720,
      "##ĩ": 1721,
      "##া": 1722,
      "##ه": 1723,
      "##ô": 1724,
      "##ל": 1725,
      "##כ": 1726,
      "##ס": 1727,
      "##ц": 1728,
      "##\"": 1729,
      "##ạ": 1730,
      "##镇": 1731,
      "##🏻": 1732,
      "##!": 1733,
      "##«": 1734,
      "##]": 1735,
      "##γ": 1736,
      "##π": 1737,
      "##平": 1738,
      "##县": 1739,
      "##ę": 1740,
      "##@": 1741,
      "##ж": 1742,
      "##ֲ": 1743,
      "##ִ": 1744,
      "##ם": 1745,
      "##ů": 1746,
      "##ɐ": 1747,
      "##ї": 1748,
      "##🏽": 1749,
      "##ة": 1750,
      "##ラ": 1751,
      "##マ": 1752,
      "##ン": 1753,
      "##ج": 1754,
      "##ش": 1755,
      "##ể": 1756,
      "##ו": 1757,
      "##ּ": 1758,
      "##ן": 1759,
      "##💗": 1760,
      "##ك": 1761,
      "##ق": 1762,
      "##本": 1763,
      "##年": 1764,
      "##ظ": 1765,
      "##🇶": 1766,
      "##江": 1767,
      "##}": 1768,
      "##ψ": 1769,
      "##ת": 1770,
      "##|": 1771,
      "##ع": 1772,
      "##ә": 1773,
      "##ф": 1774,
      "##э": 1775,
      "##ḑ": 1776,
      "##̀": 1777,
      "##中": 1778,
      "##文": 1779,
      "##ě": 1780,
      "##い": 1781,
      "##ξ": 1782,
      "##ג": 1783,
      "##ֹ": 1784,
      "##נ": 1785,
      "##城": 1786,
      "##区": 1787,
      "##ల": 1788,
      "##్": 1789,
      "##ు": 1790,
      "##拉": 1791,
      "##里": 1792,
      "##œ": 1793,
      "##ง": 1794,
      "##า": 1795,
      "##ร": 1796,
      "##^": 1797,
      "##东": 1798,
      "##大": 1799,
      "##동": 1800,
      "##山": 1801,
      "##子": 1802,
      "##ク": 1803,
      "##ロ": 1804,
      "##の": 1805,
      "##þ": 1806,
      "##ấ": 1807,
      "##ṣ": 1808,
      "##ṇ": 1809,
      "##ֵ": 1810,
      "##ف": 1811,
      "##安": 1812,
      "##🇵": 1813,
      "##­": 1814,
      "##🇺": 1815,
      "##έ": 1816,
      "##%": 1817,
      "##ր": 1818,
      "##ء": 1819,
      "##–": 1820,
      "##街": 1821,
      "##道": 1822,
      "##ิ": 1823,
      "##β": 1824,
      "##ậ": 1825,
      "##ɛ": 1826,
      "##天": 1827,
      "##ʒ": 1828,
      "##🏿": 1829,
      "##ǫ": 1830,
      "##ე": 1831,
      "##ი": 1832,
      "##ა": 1833,
      "##ნ": 1834,
      "##ْ": 1835,
      "##ُ": 1836,
      "##ط": 1837,
      "##水": 1838,
      "##ِ": 1839,
      "##ն": 1840,
      "##դ": 1841,
      "##ե": 1842,
      "##ւ": 1843,
      "##վ": 1844,
      "##ո": 1845,
      "##ա": 1846,
      "##կ": 1847,
      "##田": 1848,
      "##ə": 1849,
      "##[": 1850,
      "##/": 1851,
      "##ύ": 1852,
      "##ḩ": 1853,
      "##ի": 1854,
      "##ј": 1855,
      "##̇": 1856,
      "##մ": 1857,
      "##イ": 1858,
      "##ル": 1859,
      "##タ": 1860,
      "##ע": 1861,
      "##南": 1862,
      "##地": 1863,
      "##ս": 1864,
      "##尔": 1865,
      "##ʰ": 1866,
      "##ő": 1867,
      "##چ": 1868,
      "##گ": 1869,
      "##十": 1870,
      "##八": 1871,
      "##س": 1872,
      "##ק": 1873,
      "##ジ": 1874,
      "##ज": 1875,
      "##🏾": 1876,
      "##>": 1877,
      "##ص": 1878,
      "##": 1879,
      "##ི": 1880,
      "##ས": 1881,
      "##ų": 1882,
      "##ŏ": 1883,
      "##~": 1884,
      "##<": 1885,
      "##φ": 1886,
      "##《": 1887,
      "##ी": 1888,
      "##库": 1889,
      "##տ": 1890,
      "##յ": 1891,
      "##ש": 1892,
      "##غ": 1893,
      "##°": 1894,
      "##州": 1895,
      "##ო": 1896,
      "##ბ": 1897,
      "##ს": 1898,
      "##צ": 1899,
      "##ׁ": 1900,
      "##ǐ": 1901,
      "##日": 1902,
      "##家": 1903,
      "##म": 1904,
      "##რ": 1905,
      "##巴": 1906,
      "##ŭ": 1907,
      "##ḥ": 1908,
      "##ÿ": 1909,
      "##े": 1910,
      "##ग": 1911,
      "##た": 1912,
      "##ّ": 1913,
      "##ʃ": 1914,
      "##🇲": 1915,
      "##ो": 1916,
      "##त": 1917,
      "##ि": 1918,
      "##द": 1919,
      "##य": 1920,
      "##ṭ": 1921,
      "##ད": 1922,
      "##−": 1923,
      "##ư": 1924,
      "##ờ": 1925,
      "##स": 1926,
      "##∞": 1927,
      "##河": 1928,
      "##ề": 1929,
      "##̄": 1930,
      "##ồ": 1931,
      "##+": 1932,
      "##ụ": 1933,
      "##प": 1934,
      "##ु": 1935,
      "##キ": 1936,
      "##ĭ": 1937,
      "##武": 1938,
      "##்": 1939,
      "##أ": 1940,
      "##¹": 1941,
      "##`": 1942,
      "##ى": 1943,
      "##ం": 1944,
      "##ì": 1945,
      "##ț": 1946,
      "##ɪ": 1947,
      "##國": 1948,
      "##リ": 1949,
      "##ー": 1950,
      "##ス": 1951,
      "##ť": 1952,
      "##թ": 1953,
      "##น": 1954,
      "##ย": 1955,
      "##เ": 1956,
      "##ม": 1957,
      "##भ": 1958,
      "##ल": 1959,
      "##क": 1960,
      "##न": 1961,
      "##ʻ": 1962,
      "##京": 1963,
      "##գ": 1964,
      "##ʾ": 1965,
      "##º": 1966,
      "##🇪": 1967,
      "##上": 1968,
      "##‐": 1969,
      "##ἰ": 1970,
      "##—": 1971,
      "##×": 1972,
      "##ט": 1973,
      "##$": 1974,
      "##§": 1975,
      "##🇬": 1976,
      "##ố": 1977,
      "##🔍": 1978,
      "##ئ": 1979,
      "##📚": 1980,
      "###": 1981,
      "##音": 1982,
      "##🇯": 1983,
      "##林": 1984,
      "##ं": 1985,
      "##市": 1986,
      "##א": 1987,
      "##ζ": 1988,
      "##®": 1989,
      "##্": 1990,
      "##র": 1991,
      "##ъ": 1992,
      "##ġ": 1993,
      "##ʊ": 1994,
      "##ッ": 1995,
      "##ň": 1996,
      "##ʉ": 1997,
      "##פ": 1998,
      "##ɑ": 1999,
      "##²": 2000,
      "##ེ": 2001,
      "##ན": 2002,
      "##金": 2003,
      "##人": 2004,
      "##ლ": 2005,
      "##ɾ": 2006,
      "##石": 2007,
      "##ɔ": 2008,
      "##̯": 2009,
      "##ọ": 2010,
      "##ṃ": 2011,
      "##木": 2012,
      "##ộ": 2013,
      "##ト": 2014,
      "##阳": 2015,
      "##½": 2016,
      "##会": 2017,
      "##آ": 2018,
      "##🇸": 2019,
      "##¿": 2020,
      "##苏": 2021,
      "##ɲ": 2022,
      "##ņ": 2023,
      "##‍": 2024,
      "##پ": 2025,
      "##ོ": 2026,
      "##王": 2027,
      "##¤": 2028,
      "##མ": 2029,
      "##ḫ": 2030,
      "##̲": 2031,
      "##明": 2032,
      "##·": 2033,
      "##ź": 2034,
      "##族": 2035,
      "##→": 2036,
      "##󠁧": 2037,
      "##󠁢": 2038,
      "##󠁥": 2039,
      "##󠁮": 2040,
      "##󠁿": 2041,
      "##±": 2042,
      "##ħ": 2043,
      "##❤": 2044,
      "##ド": 2045,
      "##‌": 2046,
      "##న": 2047,
      "##ớ": 2048,
      "##ơ": 2049,
      "##ག": 2050,
      "##ア": 2051,
      "##ɡ": 2052,
      "##´": 2053,
      "##🇷": 2054,
      "##♭": 2055,
      "##†": 2056,
      "##լ": 2057,
      "##ք": 2058,
      "##️": 2059,
      "##ब": 2060,
      "##新": 2061,
      "##🇽": 2062,
      "##ܝ": 2063,
      "##ܐ": 2064,
      "##្": 2065,
      "##ṟ": 2066,
      "##🇭": 2067,
      "##ث": 2068,
      "##‎": 2069,
      "##🙏": 2070,
      "##ổ": 2071,
      "##⟩": 2072,
      "##›": 2073,
      "##✨": 2074,
      "##ợ": 2075,
      "##³": 2076,
      "##ḍ": 2077,
      "##治": 2078,
      "##հ": 2079,
      "##ז": 2080,
      "##ầ": 2081,
      "##ữ": 2082,
      "##↑": 2083,
      "##✌": 2084,
      "##ह": 2085,
      "##行": 2086,
      "##ệ": 2087,
      "##🇿": 2088,
      "##�": 2089,
      "##自": 2090,
      "##ị": 2091,
      "##😌": 2092,
      "##白": 2093,
      "##桥": 2094,
      "##德": 2095,
      "##🇳": 2096,
      "##“": 2097,
      "##”": 2098,
      "##西": 2099,
      "##󠁳": 2100,
      "##北": 2101,
      "##长": 2102,
      "##¡": 2103,
      "##£": 2104,
      "##🍇": 2105,
      "##🍉": 2106,
      "##🍐": 2107,
      "##🍌": 2108,
      "##🍊": 2109,
      "##🐈": 2110,
      "##अ": 2111,
      "##ľ": 2112,
      "##ར": 2113,
      "##’": 2114,
      "##ٔ": 2115,
      "##µ": 2116,
      "##ẕ": 2117,
      "##☺": 2118,
      "##©": 2119,
      "##🇨": 2120,
      "##‑": 2121,
      "##إ": 2122,
      "##̧": 2123,
      "##高": 2124,
      "##🤘": 2125,
      "##🖤": 2126,
      "##💀": 2127,
      "##⛄": 2128,
      "##🇱": 2129,
      "##🇾": 2130,
      "##€": 2131,
      "##←": 2132,
      "##♣": 2133,
      "##😄": 2134,
      "##🇫": 2135,
      "##♠": 2136,
      "##🇹": 2137,
      "##─": 2138,
      "##≈": 2139,
      "##👌": 2140,
      "##★": 2141,
      "##😊": 2142,
      "##բ": 2143,
      "##🎅": 2144,
      "##☕": 2145,
      "##¨": 2146,
      "##ứ": 2147,
      "##阿": 2148,
      "##ỉ": 2149,
      "##😀": 2150,
      "##ང": 2151,
      "##❣": 2152,
      "##ˇ": 2153,
      "##😂": 2154,
      "##▪": 2155,
      "##⋅": 2156,
      "##⛳": 2157,
      "##󠁣": 2158,
      "##🇴": 2159,
      "##ỹ": 2160,
      "##👍": 2161,
      "##🇦": 2162,
      "##🦈": 2163,
      "##😱": 2164,
      "##ở": 2165,
      "##ễ": 2166,
      "##ự": 2167,
      "##🌟": 2168,
      "##¯": 2169,
      "##🇩": 2170,
      "##🔝": 2171,
      "##🍾": 2172,
      "##≤": 2173,
      "##ủ": 2174,
      "##🇧": 2175,
      "##པ": 2176,
      "##∂": 2177,
      "##🇻": 2178,
      "##🇮": 2179,
      "##བ": 2180,
      "##🌴": 2181,
      "##🤒": 2182,
      "##😛": 2183,
      "##″": 2184,
      "##█": 2185,
      "##ἀ": 2186,
      "##∇": 2187,
      "##😘": 2188,
      "##🙂": 2189,
      "##👏": 2190,
      "##👋": 2191,
      "##❄": 2192,
      "##💕": 2193,
      "##🙄": 2194,
      "##ẩ": 2195,
      "##・": 2196,
      "##✊": 2197,
      "##😁": 2198,
      "##🇰": 2199,
      "##¸": 2200,
      "##陈": 2201,
      "##™": 2202,
      "##🗨": 2203,
      "##🇼": 2204,
      "##■": 2205,
      "##💪": 2206,
      "##∑": 2207,
      "##●": 2208,
      "##💛": 2209,
      "##🦄": 2210,
      "##✝": 2211,
      "##♪": 2212,
      "##💃": 2213,
      "##🙌": 2214,
      "##😋": 2215,
      "##💖": 2216,
      "##🎄": 2217,
      "##🥂": 2218,
      "##😉": 2219,
      "##🌺": 2220,
      "##😎": 2221,
      "##🌞": 2222,
      "##⃣": 2223,
      "##👪": 2224,
      "##😞": 2225,
      "##🤞": 2226,
      "##↔": 2227,
      "##💋": 2228,
      "##😍": 2229,
      "##🧀": 2230,
      "##🍷": 2231,
      "##🙁": 2232,
      "##′": 2233,
      "##🙈": 2234,
      "##🤗": 2235,
      "##🏃": 2236,
      "##♀": 2237,
      "##😻": 2238,
      "##⏏": 2239,
      "##◄": 2240,
      "##》": 2241,
      "##🎶": 2242,
      "##♦": 2243,
      "##🌸": 2244,
      "##🤣": 2245,
      "##¼": 2246,
      "##😃": 2247,
      "##ϕ": 2248,
      "##🎉": 2249,
      "##ἄ": 2250,
      "##⚽": 2251,
      "##👊": 2252,
      "##◀": 2253,
      "##💙": 2254,
      "##་": 2255,
      "##🌕": 2256,
      "##⭐": 2257,
      "##≥": 2258,
      "##✂": 2259,
      "##♂": 2260,
      "##🍀": 2261,
      "##✅": 2262,
      "##🔎": 2263,
      "##✓": 2264,
      "##👶": 2265,
      "##☀": 2266,
      "##🐰": 2267,
      "##⭕": 2268,
      "##😈": 2269,
      "##∫": 2270,
      "##💨": 2271,
      "##🎊": 2272,
      "##💫": 2273,
      "##🕺": 2274,
      "##💓": 2275,
      "##😆": 2276,
      "##😢": 2277,
      "##►": 2278,
      "##🎥": 2279,
      "##🤚": 2280,
      "##💆": 2281,
      "##🙀": 2282,
      "##🙋": 2283,
      "##🤪": 2284,
      "##🍂": 2285,
      "##💚": 2286,
      "##¥": 2287,
      "##💍": 2288,
      "##😳": 2289,
      "##🎈": 2290,
      "##🚌": 2291,
      "##✔": 2292,
      "##er": 2293,
      "##en": 2294,
      "##an": 2295,
      "##ar": 2296,
      "##et": 2297,
      "##in": 2298,
      "##or": 2299,
      "##st": 2300,
      "##il": 2301,
      "##el": 2302,
      "##ed": 2303,
      "##om": 2304,
      "##on": 2305,
      "##sk": 2306,
      "##al": 2307,
      "og": 2308,
      "##at": 2309,
      "##ig": 2310,
      "##de": 2311,
      "''": 2312,
      "##le": 2313,
      "##re": 2314,
      "##ing": 2315,
      "en": 2316,
      "##ra": 2317,
      "##tt": 2318,
      "##nd": 2319,
      "##es": 2320,
      "til": 2321,
      "##ik": 2322,
      "for": 2323,
      "st": 2324,
      "##am": 2325,
      "som": 2326,
      "##ol": 2327,
      "av": 2328,
      "på": 2329,
      "##is": 2330,
      "##it": 2331,
      "##ch": 2332,
      "##id": 2333,
      "den": 2334,
      "er": 2335,
      "det": 2336,
      "##ag": 2337,
      "19": 2338,
      "##te": 2339,
      "med": 2340,
      "in": 2341,
      "##and": 2342,
      "##un": 2343,
      "##ter": 2344,
      "##as": 2345,
      "##ver": 2346,
      "##kt": 2347,
      "##ne": 2348,
      "de": 2349,
      "var": 2350,
      "##ad": 2351,
      "##eg": 2352,
      "##us": 2353,
      "##ro": 2354,
      "20": 2355,
      "sk": 2356,
      "##ist": 2357,
      "##pp": 2358,
      "##ør": 2359,
      "##ur": 2360,
      "och": 2361,
      "##ler": 2362,
      "'''": 2363,
      "han": 2364,
      "fr": 2365,
      "##isk": 2366,
      "##ör": 2367,
      "##kk": 2368,
      "at": 2369,
      "om": 2370,
      "##ul": 2371,
      "##em": 2372,
      "af": 2373,
      "##iv": 2374,
      "##ning": 2375,
      "al": 2376,
      "##og": 2377,
      "##av": 2378,
      "##ent": 2379,
      "an": 2380,
      "är": 2381,
      "har": 2382,
      "##ru": 2383,
      "##est": 2384,
      "##ion": 2385,
      "##år": 2386,
      "##se": 2387,
      "ar": 2388,
      "##lig": 2389,
      "##ic": 2390,
      "##ens": 2391,
      "##od": 2392,
      "##ot": 2393,
      "##ang": 2394,
      "ut": 2395,
      "##ir": 2396,
      "##nder": 2397,
      "##ia": 2398,
      "der": 2399,
      "sp": 2400,
      "##art": 2401,
      "ble": 2402,
      "##ber": 2403,
      "##der": 2404,
      "##ak": 2405,
      "##ær": 2406,
      "##um": 2407,
      "bl": 2408,
      "för": 2409,
      "##ok": 2410,
      "##ste": 2411,
      "##je": 2412,
      "fra": 2413,
      "##sen": 2414,
      "##na": 2415,
      "nor": 2416,
      "##ck": 2417,
      "##os": 2418,
      "##ade": 2419,
      "18": 2420,
      "kom": 2421,
      "##if": 2422,
      "sam": 2423,
      "frå": 2424,
      "##ud": 2425,
      "##mer": 2426,
      "##är": 2427,
      "##ger": 2428,
      "el": 2429,
      "201": 2430,
      "men": 2431,
      "##ell": 2432,
      "be": 2433,
      "##ene": 2434,
      "200": 2435,
      "under": 2436,
      "##ov": 2437,
      "##''": 2438,
      "##im": 2439,
      "et": 2440,
      "of": 2441,
      "sl": 2442,
      "##are": 2443,
      "##ere": 2444,
      "##ut": 2445,
      "##itt": 2446,
      "##ge": 2447,
      "kan": 2448,
      "##sp": 2449,
      "##ap": 2450,
      "th": 2451,
      "##jen": 2452,
      "##gen": 2453,
      "år": 2454,
      "ikk": 2455,
      "##ske": 2456,
      "##yr": 2457,
      "att": 2458,
      "##ill": 2459,
      "##all": 2460,
      "and": 2461,
      "ein": 2462,
      "##jon": 2463,
      "##for": 2464,
      "##ede": 2465,
      "ett": 2466,
      "##yg": 2467,
      "pro": 2468,
      "##ett": 2469,
      "fin": 2470,
      "##ns": 2471,
      "##ort": 2472,
      "re": 2473,
      "del": 2474,
      "till": 2475,
      "##ab": 2476,
      "##ks": 2477,
      "kon": 2478,
      "##land": 2479,
      "##ikk": 2480,
      "så": 2481,
      "tr": 2482,
      "se": 2483,
      "ved": 2484,
      "##ss": 2485,
      "##den": 2486,
      "##op": 2487,
      "kr": 2488,
      "##eter": 2489,
      "##ser": 2490,
      "##att": 2491,
      "br": 2492,
      "##del": 2493,
      "##ant": 2494,
      "##ien": 2495,
      "##00": 2496,
      "over": 2497,
      "##ust": 2498,
      "eller": 2499,
      "##ie": 2500,
      "##be": 2501,
      "##und": 2502,
      "'''''": 2503,
      "##iske": 2504,
      "hv": 2505,
      "##ende": 2506,
      "ing": 2507,
      "opp": 2508,
      "ch": 2509,
      "##ation": 2510,
      "blev": 2511,
      "må": 2512,
      "##ann": 2513,
      "før": 2514,
      "##ng": 2515,
      "the": 2516,
      "sy": 2517,
      "ver": 2518,
      "ny": 2519,
      "du": 2520,
      "tid": 2521,
      "##ster": 2522,
      "##la": 2523,
      "##så": 2524,
      "##ug": 2525,
      "op": 2526,
      "gr": 2527,
      "vi": 2528,
      "sv": 2529,
      "or": 2530,
      ").": 2531,
      "##ød": 2532,
      "##sl": 2533,
      "199": 2534,
      "sin": 2535,
      "##jer": 2536,
      "##rev": 2537,
      "##ige": 2538,
      "kl": 2539,
      "ud": 2540,
      "##ip": 2541,
      "##ansk": 2542,
      "##ande": 2543,
      "mar": 2544,
      "fl": 2545,
      "ind": 2546,
      "##rå": 2547,
      "##äl": 2548,
      "komm": 2549,
      "ikke": 2550,
      "to": 2551,
      "kv": 2552,
      "le": 2553,
      "##fter": 2554,
      "##ane": 2555,
      "##ier": 2556,
      "per": 2557,
      "##men": 2558,
      "##ke": 2559,
      "inn": 2560,
      "stor": 2561,
      "##old": 2562,
      "ber": 2563,
      "land": 2564,
      "min": 2565,
      "##eder": 2566,
      "##net": 2567,
      "hel": 2568,
      "ma": 2569,
      "pl": 2570,
      "##ker": 2571,
      "pr": 2572,
      "##ord": 2573,
      "lig": 2574,
      "##amil": 2575,
      "##ner": 2576,
      "##ast": 2577,
      "##ass": 2578,
      "kun": 2579,
      "##ve": 2580,
      "##ling": 2581,
      "man": 2582,
      "##iver": 2583,
      "hav": 2584,
      "jo": 2585,
      "efter": 2586,
      "##me": 2587,
      "reg": 2588,
      "vil": 2589,
      "##son": 2590,
      "ty": 2591,
      "sj": 2592,
      "##øl": 2593,
      "også": 2594,
      "##leg": 2595,
      "##end": 2596,
      "##ff": 2597,
      "##sm": 2598,
      "##ub": 2599,
      "famil": 2600,
      "etter": 2601,
      "sig": 2602,
      "bar": 2603,
      "198": 2604,
      "##ta": 2605,
      "##gel": 2606,
      "##yl": 2607,
      "her": 2608,
      "17": 2609,
      "##ue": 2610,
      "##än": 2611,
      "vart": 2612,
      "nord": 2613,
      "dei": 2614,
      "##ard": 2615,
      "gen": 2616,
      "##sb": 2617,
      "##lem": 2618,
      "##ale": 2619,
      "##het": 2620,
      "##øy": 2621,
      "besk": 2622,
      "bru": 2623,
      "eit": 2624,
      "##sv": 2625,
      "197": 2626,
      "dag": 2627,
      "##mar": 2628,
      "##ian": 2629,
      "##ikt": 2630,
      "##per": 2631,
      "te": 2632,
      "##ma": 2633,
      "kommun": 2634,
      "##asjon": 2635,
      "andre": 2636,
      "denne": 2637,
      "##ob": 2638,
      "##ac": 2639,
      "fil": 2640,
      "mot": 2641,
      "art": 2642,
      "eg": 2643,
      "by": 2644,
      "##else": 2645,
      "##ktet": 2646,
      "##ft": 2647,
      "##ire": 2648,
      "seg": 2649,
      "ant": 2650,
      "ha": 2651,
      "un": 2652,
      "##eb": 2653,
      "##ri": 2654,
      "kj": 2655,
      "des": 2656,
      "),": 2657,
      "##kl": 2658,
      "##iser": 2659,
      "finns": 2660,
      "##ring": 2661,
      "##sa": 2662,
      "##ide": 2663,
      "##igt": 2664,
      "dan": 2665,
      "##olk": 2666,
      "##skap": 2667,
      "vid": 2668,
      "byg": 2669,
      "##alt": 2670,
      "##nes": 2671,
      "##io": 2672,
      "he": 2673,
      "da": 2674,
      "##ater": 2675,
      "slä": 2676,
      "196": 2677,
      "no": 2678,
      "##ange": 2679,
      "##lige": 2680,
      "hans": 2681,
      "list": 2682,
      "ingår": 2683,
      "##org": 2684,
      "ikkje": 2685,
      "##ib": 2686,
      "ap": 2687,
      "##ets": 2688,
      "##aden": 2689,
      "sid": 2690,
      "dette": 2691,
      "##arter": 2692,
      "##ære": 2693,
      "##ry": 2694,
      "am": 2695,
      "hj": 2696,
      "pol": 2697,
      "ol": 2698,
      "gj": 2699,
      "##ost": 2700,
      "##da": 2701,
      "##det": 2702,
      "familjen": 2703,
      "##rik": 2704,
      "##ive": 2705,
      "km": 2706,
      "##elt": 2707,
      "beskrev": 2708,
      "ad": 2709,
      "##rem": 2710,
      "16": 2711,
      "##ans": 2712,
      "##ift": 2713,
      "sel": 2714,
      "##sh": 2715,
      "##unt": 2716,
      "släktet": 2717,
      "10": 2718,
      "15": 2719,
      "best": 2720,
      "mod": 2721,
      "gru": 2722,
      "##ock": 2723,
      "##lag": 2724,
      "hvor": 2725,
      "ei": 2726,
      "beskrevs": 2727,
      "jeg": 2728,
      "få": 2729,
      "upp": 2730,
      "##ember": 2731,
      "##uv": 2732,
      "##ce": 2733,
      "all": 2734,
      "##ål": 2735,
      "##ine": 2736,
      "mus": 2737,
      "tra": 2738,
      "par": 2739,
      "##res": 2740,
      "##ult": 2741,
      "ligger": 2742,
      "inga": 2743,
      "##tem": 2744,
      "første": 2745,
      "bet": 2746,
      "skal": 2747,
      "##yn": 2748,
      "##atal": 2749,
      "##eld": 2750,
      "##atur": 2751,
      "##ife": 2752,
      "##ys": 2753,
      "##eng": 2754,
      "had": 2755,
      "ne": 2756,
      "##ott": 2757,
      "##unn": 2758,
      "##ind": 2759,
      "##vis": 2760,
      "##ningen": 2761,
      "##amp": 2762,
      "life": 2763,
      "##des": 2764,
      "ser": 2765,
      "lag": 2766,
      "194": 2767,
      "ek": 2768,
      "##ert": 2769,
      "sm": 2770,
      "tv": 2771,
      "me": 2772,
      "##olog": 2773,
      "##sta": 2774,
      "##oll": 2775,
      "mell": 2776,
      "underarter": 2777,
      "##ytt": 2778,
      "bil": 2779,
      "över": 2780,
      "listade": 2781,
      "my": 2782,
      "hø": 2783,
      "##pl": 2784,
      "bes": 2785,
      "##tid": 2786,
      "##igh": 2787,
      "tre": 2788,
      "##vä": 2789,
      "då": 2790,
      "##les": 2791,
      "jag": 2792,
      "hen": 2793,
      "195": 2794,
      "##elen": 2795,
      "hadde": 2796,
      "##ong": 2797,
      "##istor": 2798,
      "##iet": 2799,
      "##ken": 2800,
      "##øn": 2801,
      "##ph": 2802,
      "ge": 2803,
      "##erne": 2804,
      "##atalog": 2805,
      "##ket": 2806,
      "##ina": 2807,
      "*(": 2808,
      "ho": 2809,
      "##ka": 2810,
      "beg": 2811,
      "##alen": 2812,
      "hun": 2813,
      "##ätt": 2814,
      "sen": 2815,
      "12": 2816,
      "amer": 2817,
      "##dag": 2818,
      "##ven": 2819,
      "fød": 2820,
      "##ald": 2821,
      "fram": 2822,
      "catalog": 2823,
      "jan": 2824,
      "catalogue": 2825,
      "##ret": 2826,
      "##æl": 2827,
      "god": 2828,
      "##kten": 2829,
      "##itet": 2830,
      "la": 2831,
      "inter": 2832,
      "##ingen": 2833,
      "##pe": 2834,
      "193": 2835,
      "##ite": 2836,
      "alle": 2837,
      "##utt": 2838,
      "##öd": 2839,
      "##rat": 2840,
      "##ska": 2841,
      "från": 2842,
      "stat": 2843,
      "##för": 2844,
      "ba": 2845,
      "inte": 2846,
      "nå": 2847,
      "##oc": 2848,
      "11": 2849,
      "##ten": 2850,
      "##ick": 2851,
      "##ister": 2852,
      "##iller": 2853,
      "skul": 2854,
      "fler": 2855,
      "jul": 2856,
      "arbe": 2857,
      "meter": 2858,
      "##ow": 2859,
      "##uvud": 2860,
      "##før": 2861,
      "dr": 2862,
      "191": 2863,
      "##yd": 2864,
      "##fl": 2865,
      "##tr": 2866,
      "».": 2867,
      "nam": 2868,
      "##ae": 2869,
      "14": 2870,
      "##..": 2871,
      "kar": 2872,
      "fran": 2873,
      "192": 2874,
      "##hol": 2875,
      "##str": 2876,
      "mange": 2877,
      "##uar": 2878,
      "##skr": 2879,
      "ac": 2880,
      "##tal": 2881,
      "##ram": 2882,
      "bå": 2883,
      "com": 2884,
      "##akt": 2885,
      "hov": 2886,
      "##ts": 2887,
      "aug": 2888,
      "##vik": 2889,
      "##du": 2890,
      "eu": 2891,
      "##get": 2892,
      "när": 2893,
      "fj": 2894,
      "##br": 2895,
      "##iska": 2896,
      "ve": 2897,
      "##ja": 2898,
      "joh": 2899,
      "sven": 2900,
      "hos": 2901,
      "##ober": 2902,
      "engel": 2903,
      "##kom": 2904,
      "tal": 2905,
      "##form": 2906,
      "gl": 2907,
      "huvud": 2908,
      "amerik": 2909,
      "lang": 2910,
      "13": 2911,
      "res": 2912,
      "##ond": 2913,
      "##elsen": 2914,
      "##øb": 2915,
      "ned": 2916,
      "##edia": 2917,
      "##he": 2918,
      "##ich": 2919,
      "is": 2920,
      "##elig": 2921,
      "##hold": 2922,
      "histor": 2923,
      "mer": 2924,
      "vä": 2925,
      "##ga": 2926,
      "##ull": 2927,
      "mellom": 2928,
      "polit": 2929,
      "##age": 2930,
      "lå": 2931,
      "##kke": 2932,
      "##man": 2933,
      "januar": 2934,
      "ab": 2935,
      "##hav": 2936,
      "##ike": 2937,
      "vær": 2938,
      "gjen": 2939,
      "##gr": 2940,
      "august": 2941,
      "runt": 2942,
      "co": 2943,
      "rom": 2944,
      "##ester": 2945,
      "vis": 2946,
      "end": 2947,
      "frem": 2948,
      "##inn": 2949,
      "##sn": 2950,
      "##ess": 2951,
      "##ial": 2952,
      "inv": 2953,
      "dem": 2954,
      "ta": 2955,
      "bo": 2956,
      "##øm": 2957,
      "jun": 2958,
      "blir": 2959,
      "##els": 2960,
      "wik": 2961,
      "form": 2962,
      "##ligt": 2963,
      "##sten": 2964,
      "##byg": 2965,
      "##kn": 2966,
      "##rop": 2967,
      "kor": 2968,
      "##raf": 2969,
      "##ille": 2970,
      "##berg": 2971,
      "##ay": 2972,
      "nok": 2973,
      "selv": 2974,
      "##rag": 2975,
      "##este": 2976,
      "skulle": 2977,
      "off": 2978,
      "dat": 2979,
      "##ån": 2980,
      "##dre": 2981,
      "##ppen": 2982,
      "sø": 2983,
      "val": 2984,
      "være": 2985,
      "##elle": 2986,
      "mil": 2987,
      "alb": 2988,
      "##stem": 2989,
      "liv": 2990,
      "norsk": 2991,
      "skr": 2992,
      "chr": 2993,
      "##äll": 2994,
      "##ionen": 2995,
      "født": 2996,
      "##ometer": 2997,
      "##up": 2998,
      "##som": 2999,
      "fle": 3000,
      "dis": 3001,
      "##bet": 3002,
      "##var": 3003,
      "folk": 3004,
      "juli": 3005,
      "gam": 3006,
      "##tte": 3007,
      "områ": 3008,
      "nov": 3009,
      "hand": 3010,
      "##ou": 3011,
      "190": 3012,
      "syd": 3013,
      "sh": 3014,
      "sep": 3015,
      "person": 3016,
      "når": 3017,
      "mo": 3018,
      "##ilometer": 3019,
      "går": 3020,
      "##onom": 3021,
      "##yrk": 3022,
      "fe": 3023,
      "landet": 3024,
      "##hed": 3025,
      "##hus": 3026,
      "##iker": 3027,
      "car": 3028,
      "lu": 3029,
      "far": 3030,
      "##ral": 3031,
      "##nom": 3032,
      "store": 3033,
      "juni": 3034,
      "str": 3035,
      "##opp": 3036,
      "len": 3037,
      "lä": 3038,
      "sør": 3039,
      "sitt": 3040,
      "stør": 3041,
      "tilb": 3042,
      "##ore": 3043,
      "ham": 3044,
      "##ivers": 3045,
      "##dom": 3046,
      "pre": 3047,
      "im": 3048,
      "bak": 3049,
      "sch": 3050,
      "meg": 3051,
      "##gt": 3052,
      "##vin": 3053,
      "sammen": 3054,
      "tysk": 3055,
      "##bl": 3056,
      "engelsk": 3057,
      "nav": 3058,
      "##øre": 3059,
      "mel": 3060,
      "gra": 3061,
      "nu": 3062,
      "ann": 3063,
      "bra": 3064,
      "##arna": 3065,
      "feb": 3066,
      "##iste": 3067,
      "okt": 3068,
      "##va": 3069,
      "tur": 3070,
      "##fil": 3071,
      "vin": 3072,
      "forsk": 3073,
      "aust": 3074,
      "...": 3075,
      "##mark": 3076,
      "##ruar": 3077,
      "##ct": 3078,
      "ag": 3079,
      "februar": 3080,
      "samt": 3081,
      "##ont": 3082,
      "fot": 3083,
      "##aget": 3084,
      "kunne": 3085,
      "ter": 3086,
      "sc": 3087,
      "oktober": 3088,
      "både": 3089,
      "alt": 3090,
      "havde": 3091,
      "ca": 3092,
      "hal": 3093,
      "utg": 3094,
      "flere": 3095,
      "gjennom": 3096,
      "su": 3097,
      "##ym": 3098,
      "##aren": 3099,
      "##uss": 3100,
      "vest": 3101,
      "mid": 3102,
      "'',": 3103,
      "ro": 3104,
      "nog": 3105,
      "##min": 3106,
      "##ril": 3107,
      "red": 3108,
      "spel": 3109,
      "##ium": 3110,
      "septem": 3111,
      "189": 3112,
      "hö": 3113,
      "september": 3114,
      "##ninger": 3115,
      "havet": 3116,
      "##ings": 3117,
      "hol": 3118,
      "##stad": 3119,
      "##anske": 3120,
      "ste": 3121,
      "rep": 3122,
      "christ": 3123,
      "sa": 3124,
      "##rett": 3125,
      "##ades": 3126,
      "em": 3127,
      "delen": 3128,
      "##ikkelen": 3129,
      "##her": 3130,
      "##ats": 3131,
      "sver": 3132,
      "##orn": 3133,
      "##,,": 3134,
      "##ipedia": 3135,
      "##pt": 3136,
      "##svar": 3137,
      "##ons": 3138,
      "där": 3139,
      "##kel": 3140,
      "ra": 3141,
      "ex": 3142,
      "wikipedia": 3143,
      "dansk": 3144,
      "april": 3145,
      "##hand": 3146,
      "##cer": 3147,
      "##ha": 3148,
      "##inga": 3149,
      "gre": 3150,
      "kir": 3151,
      "genom": 3152,
      "kall": 3153,
      "medlem": 3154,
      "000": 3155,
      "##aste": 3156,
      "får": 3157,
      "##iss": 3158,
      "##ity": 3159,
      "##off": 3160,
      "##sam": 3161,
      "##fer": 3162,
      "##ata": 3163,
      "30": 3164,
      "mån": 3165,
      "##staden": 3166,
      "forb": 3167,
      "##enter": 3168,
      "##kr": 3169,
      "sol": 3170,
      "##over": 3171,
      "univers": 3172,
      "##ins": 3173,
      "nær": 3174,
      "november": 3175,
      "2012": 3176,
      "##kte": 3177,
      "pa": 3178,
      "gu": 3179,
      "25": 3180,
      "bland": 3181,
      "mars": 3182,
      "##sø": 3183,
      "##äm": 3184,
      "bas": 3185,
      "bok": 3186,
      "##inger": 3187,
      "##stru": 3188,
      "##stra": 3189,
      "sn": 3190,
      "##nem": 3191,
      "led": 3192,
      "stad": 3193,
      "##iner": 3194,
      "mest": 3195,
      "##folk": 3196,
      "mål": 3197,
      "ly": 3198,
      "gå": 3199,
      "##giv": 3200,
      "lø": 3201,
      "hon": 3202,
      "ul": 3203,
      "##fatt": 3204,
      "delt": 3205,
      "eks": 3206,
      "new": 3207,
      "##ack": 3208,
      "ben": 3209,
      "##anger": 3210,
      "##met": 3211,
      "##yt": 3212,
      "plan": 3213,
      "vir": 3214,
      "kat": 3215,
      "litt": 3216,
      "kn": 3217,
      "##led": 3218,
      "ele": 3219,
      "188": 3220,
      "grund": 3221,
      "##ograf": 3222,
      "##par": 3223,
      "hoved": 3224,
      "##med": 3225,
      "##of": 3226,
      "##ole": 3227,
      "##ktiv": 3228,
      "kra": 3229,
      "besø": 3230,
      "mor": 3231,
      "fö": 3232,
      "ord": 3233,
      "mat": 3234,
      "kommune": 3235,
      "##by": 3236,
      "artikkelen": 3237,
      "as": 3238,
      "byen": 3239,
      "##ius": 3240,
      "##skab": 3241,
      "usa": 3242,
      "ark": 3243,
      "##heten": 3244,
      "død": 3245,
      "2011": 3246,
      "##sak": 3247,
      "stud": 3248,
      "##orde": 3249,
      "##ild": 3250,
      "##elser": 3251,
      "##arar": 3252,
      "##ala": 3253,
      "##ubl": 3254,
      "21": 3255,
      "føl": 3256,
      "nye": 3257,
      "##atter": 3258,
      "album": 3259,
      "van": 3260,
      "##ies": 3261,
      "kommer": 3262,
      "##iz": 3263,
      "##red": 3264,
      "sine": 3265,
      "arbeid": 3266,
      "po": 3267,
      "2010": 3268,
      "##int": 3269,
      "ven": 3270,
      "##lar": 3271,
      "bed": 3272,
      "##ds": 3273,
      "##kter": 3274,
      "##ligere": 3275,
      "##bru": 3276,
      "##isjon": 3277,
      "part": 3278,
      "##sart": 3279,
      "2008": 3280,
      "##borg": 3281,
      "##sker": 3282,
      "mag": 3283,
      "amerikansk": 3284,
      "neder": 3285,
      "##ate": 3286,
      "produ": 3287,
      "##ella": 3288,
      "hus": 3289,
      "##ile": 3290,
      "##emp": 3291,
      "##ager": 3292,
      "##ris": 3293,
      "##istr": 3294,
      "22": 3295,
      "siden": 3296,
      "##xt": 3297,
      "##kker": 3298,
      "##gj": 3299,
      "##bo": 3300,
      "org": 3301,
      "##au": 3302,
      "bel": 3303,
      "2007": 3304,
      "svensk": 3305,
      "krist": 3306,
      "2009": 3307,
      "on": 3308,
      "##gang": 3309,
      "læ": 3310,
      "film": 3311,
      "dig": 3312,
      "dom": 3313,
      "krig": 3314,
      "##enta": 3315,
      "inne": 3316,
      "band": 3317,
      "##ølv": 3318,
      "tor": 3319,
      "##kar": 3320,
      "grunn": 3321,
      "##pro": 3322,
      "186": 3323,
      "fort": 3324,
      "##ake": 3325,
      "##arbe": 3326,
      "bro": 3327,
      "##ånd": 3328,
      "lov": 3329,
      "##ben": 3330,
      "24": 3331,
      "två": 3332,
      "2014": 3333,
      "##ilt": 3334,
      "##sf": 3335,
      "187": 3336,
      "hver": 3337,
      "tro": 3338,
      "##atte": 3339,
      "gener": 3340,
      "##urg": 3341,
      "##val": 3342,
      "##ren": 3343,
      "bor": 3344,
      "##ern": 3345,
      "*«": 3346,
      "##set": 3347,
      "##let": 3348,
      "##ika": 3349,
      "##ultur": 3350,
      "##ppe": 3351,
      "##ld": 3352,
      "intern": 3353,
      "berg": 3354,
      "##ida": 3355,
      "ed": 3356,
      "##sy": 3357,
      "invån": 3358,
      "##ator": 3359,
      "ale": 3360,
      "gang": 3361,
      "osl": 3362,
      "23": 3363,
      "##af": 3364,
      "fun": 3365,
      "2006": 3366,
      "go": 3367,
      "natur": 3368,
      "rå": 3369,
      "##ioner": 3370,
      "2013": 3371,
      "enn": 3372,
      "##ii": 3373,
      "invånare": 3374,
      "rund": 3375,
      "##liga": 3376,
      "2015": 3377,
      "##bar": 3378,
      "##øde": 3379,
      "##änd": 3380,
      "eng": 3381,
      "norske": 3382,
      "bu": 3383,
      "##ton": 3384,
      "fyl": 3385,
      "##entet": 3386,
      "start": 3387,
      "kal": 3388,
      "##spel": 3389,
      "deres": 3390,
      "##sterne": 3391,
      "ban": 3392,
      "inform": 3393,
      "kort": 3394,
      "##ges": 3395,
      "2016": 3396,
      "##ah": 3397,
      "fly": 3398,
      "fred": 3399,
      "##sted": 3400,
      "køb": 3401,
      "''.": 3402,
      "##aler": 3403,
      "lin": 3404,
      "con": 3405,
      "##ingar": 3406,
      "##orden": 3407,
      "##ung": 3408,
      "##ningar": 3409,
      "komp": 3410,
      "##ader": 3411,
      "##ele": 3412,
      "ligg": 3413,
      "##holm": 3414,
      "##jø": 3415,
      "##dr": 3416,
      "met": 3417,
      "cent": 3418,
      "först": 3419,
      "##örd": 3420,
      "någ": 3421,
      "ingen": 3422,
      "##iod": 3423,
      "oslo": 3424,
      "fem": 3425,
      "senere": 3426,
      "ev": 3427,
      "##ica": 3428,
      "vikt": 3429,
      "mindre": 3430,
      "##one": 3431,
      "ung": 3432,
      "##kring": 3433,
      "##indel": 3434,
      "talet": 3435,
      "mill": 3436,
      "2005": 3437,
      "sverige": 3438,
      "maj": 3439,
      "##sjon": 3440,
      "ital": 3441,
      "##ark": 3442,
      "jord": 3443,
      "nett": 3444,
      "##era": 3445,
      "##nt": 3446,
      "28": 3447,
      "samme": 3448,
      "stort": 3449,
      "##pper": 3450,
      "ob": 3451,
      "även": 3452,
      "##ham": 3453,
      "kamp": 3454,
      "danmark": 3455,
      "##gende": 3456,
      "bli": 3457,
      "##nen": 3458,
      "eksterne": 3459,
      "styr": 3460,
      "tidligere": 3461,
      "##vær": 3462,
      "##ana": 3463,
      "##æg": 3464,
      "##idae": 3465,
      "##gram": 3466,
      "son": 3467,
      "gje": 3468,
      "terr": 3469,
      "disse": 3470,
      "##lin": 3471,
      "norge": 3472,
      "lenker": 3473,
      "##sson": 3474,
      "europ": 3475,
      "helt": 3476,
      "26": 3477,
      "##uk": 3478,
      "##di": 3479,
      "brit": 3480,
      "mart": 3481,
      "ak": 3482,
      "27": 3483,
      "##ksjon": 3484,
      "mon": 3485,
      "òg": 3486,
      "##lev": 3487,
      "##allet": 3488,
      "din": 3489,
      "fri": 3490,
      "ofte": 3491,
      "lok": 3492,
      "int": 3493,
      "##uder": 3494,
      "mul": 3495,
      "vår": 3496,
      "leg": 3497,
      "##verk": 3498,
      "##etter": 3499,
      "utan": 3500,
      "hvis": 3501,
      "##qu": 3502,
      "##ativ": 3503,
      "so": 3504,
      "##ave": 3505,
      "##nings": 3506,
      "##ice": 3507,
      "kont": 3508,
      "huvudstaden": 3509,
      "pun": 3510,
      "trakten": 3511,
      "fer": 3512,
      "##endt": 3513,
      "system": 3514,
      "##gå": 3515,
      "##rum": 3516,
      "hög": 3517,
      "##slag": 3518,
      "nytt": 3519,
      "##stand": 3520,
      "185": 3521,
      "nr": 3522,
      "##legg": 3523,
      "dec": 3524,
      "föd": 3525,
      "vå": 3526,
      "##ba": 3527,
      "provin": 3528,
      "kultur": 3529,
      "isb": 3530,
      "kyrk": 3531,
      "##börd": 3532,
      "kunst": 3533,
      "godt": 3534,
      "##ball": 3535,
      "rad": 3536,
      "100": 3537,
      "ph": 3538,
      "##ers": 3539,
      "besøkt": 3540,
      "##lege": 3541,
      "ville": 3542,
      "øy": 3543,
      "vel": 3544,
      "##føl": 3545,
      "hade": 3546,
      "sed": 3547,
      "spe": 3548,
      "sit": 3549,
      "##ette": 3550,
      "##iden": 3551,
      "##gar": 3552,
      "##fj": 3553,
      "menne": 3554,
      "här": 3555,
      "andra": 3556,
      "john": 3557,
      "##dal": 3558,
      "di": 3559,
      "barn": 3560,
      "sle": 3561,
      "##ars": 3562,
      "hur": 3563,
      "ur": 3564,
      "kvad": 3565,
      "henta": 3566,
      "side": 3567,
      "##enn": 3568,
      "##mel": 3569,
      "vert": 3570,
      "arbej": 3571,
      "ska": 3572,
      "##ise": 3573,
      "##snitt": 3574,
      "fire": 3575,
      "omkring": 3576,
      "\".": 3577,
      "##ith": 3578,
      "sær": 3579,
      "##ider": 3580,
      "hjem": 3581,
      "ander": 3582,
      "bj": 3583,
      "29": 3584,
      "bygger": 3585,
      "mig": 3586,
      "2000": 3587,
      "2004": 3588,
      "col": 3589,
      "kvadrat": 3590,
      "organ": 3591,
      "stör": 3592,
      "**": 3593,
      "##che": 3594,
      "rundt": 3595,
      "kjen": 3596,
      "anna": 3597,
      "''',": 3598,
      "mm": 3599,
      "2017": 3600,
      "små": 3601,
      "først": 3602,
      "bør": 3603,
      "meget": 3604,
      "kilometer": 3605,
      "rik": 3606,
      "mellem": 3607,
      "fekk": 3608,
      "sted": 3609,
      "##sel": 3610,
      "##ational": 3611,
      "##æn": 3612,
      "mens": 3613,
      "gjorde": 3614,
      "fast": 3615,
      "sal": 3616,
      "ke": 3617,
      "bill": 3618,
      "fik": 3619,
      "##gre": 3620,
      "cl": 3621,
      "##az": 3622,
      "2018": 3623,
      "port": 3624,
      "##lø": 3625,
      "id": 3626,
      "mø": 3627,
      "veg": 3628,
      "området": 3629,
      "##ænd": 3630,
      "##aten": 3631,
      "kvin": 3632,
      "bi": 3633,
      "sä": 3634,
      "##ikken": 3635,
      "##ført": 3636,
      "##kes": 3637,
      "##anska": 3638,
      "född": 3639,
      "##peratur": 3640,
      "##ix": 3641,
      "sö": 3642,
      "høy": 3643,
      "»,": 3644,
      "##th": 3645,
      "##gru": 3646,
      "verd": 3647,
      "mai": 3648,
      "mere": 3649,
      "rett": 3650,
      "hele": 3651,
      "##ron": 3652,
      "##kket": 3653,
      "isbn": 3654,
      "forts": 3655,
      "##kilometer": 3656,
      "vand": 3657,
      "kvadratkilometer": 3658,
      "184": 3659,
      "##iga": 3660,
      "##ffe": 3661,
      "russ": 3662,
      "##asser": 3663,
      "pop": 3664,
      "##æv": 3665,
      "##senter": 3666,
      "##enhav": 3667,
      "do": 3668,
      "danske": 3669,
      "##rakt": 3670,
      "ni": 3671,
      "hjel": 3672,
      "##mann": 3673,
      "vok": 3674,
      "##gte": 3675,
      "halv": 3676,
      "frank": 3677,
      "##ligen": 3678,
      "##ært": 3679,
      "skrev": 3680,
      "##co": 3681,
      "##esp": 3682,
      "##len": 3683,
      "sedan": 3684,
      "kap": 3685,
      "##use": 3686,
      "il": 3687,
      "##fatter": 3688,
      "##still": 3689,
      "kong": 3690,
      "tok": 3691,
      "##under": 3692,
      "noen": 3693,
      "##pen": 3694,
      "'')": 3695,
      "bare": 3696,
      "christian": 3697,
      "result": 3698,
      "lit": 3699,
      "ju": 3700,
      "vill": 3701,
      "tim": 3702,
      "ret": 3703,
      "##ighed": 3704,
      "##ön": 3705,
      "københav": 3706,
      "##skapet": 3707,
      "kol": 3708,
      "##empel": 3709,
      "høj": 3710,
      "##eret": 3711,
      "slutt": 3712,
      "##lagt": 3713,
      "##gjen": 3714,
      "##eller": 3715,
      "flytt": 3716,
      "##its": 3717,
      "##itar": 3718,
      "gar": 3719,
      "##pet": 3720,
      "musik": 3721,
      "dire": 3722,
      "san": 3723,
      "##ish": 3724,
      "##uld": 3725,
      "##nar": 3726,
      "##ensen": 3727,
      "slik": 3728,
      "vär": 3729,
      "mal": 3730,
      "dog": 3731,
      "dy": 3732,
      "oss": 3733,
      "##ban": 3734,
      "##vel": 3735,
      "stock": 3736,
      "dav": 3737,
      "hem": 3738,
      "sjølv": 3739,
      "##rog": 3740,
      "##tter": 3741,
      "##kst": 3742,
      "##rike": 3743,
      "##gere": 3744,
      "50": 3745,
      "första": 3746,
      "##ori": 3747,
      "største": 3748,
      "hold": 3749,
      "består": 3750,
      "carl": 3751,
      "2003": 3752,
      "##går": 3753,
      "can": 3754,
      "31": 3755,
      "klub": 3756,
      "fikk": 3757,
      "soc": 3758,
      "##ath": 3759,
      "gud": 3760,
      "##igen": 3761,
      "hot": 3762,
      "##tet": 3763,
      "like": 3764,
      "ock": 3765,
      "##assen": 3766,
      "##esten": 3767,
      "sak": 3768,
      "##ipp": 3769,
      "pres": 3770,
      "namn": 3771,
      "december": 3772,
      "##ork": 3773,
      "##stit": 3774,
      "profil": 3775,
      "prof": 3776,
      "##oph": 3777,
      "sand": 3778,
      "##ræ": 3779,
      "lever": 3780,
      "nä": 3781,
      "##til": 3782,
      "##oss": 3783,
      "øst": 3784,
      "bör": 3785,
      "##lands": 3786,
      "have": 3787,
      "publ": 3788,
      "##ola": 3789,
      "än": 3790,
      "offent": 3791,
      "##kon": 3792,
      "åt": 3793,
      "##fin": 3794,
      "ry": 3795,
      "kommunen": 3796,
      "beh": 3797,
      "##ps": 3798,
      "ka": 3799,
      "##ley": 3800,
      "2001": 3801,
      "alla": 3802,
      "##kur": 3803,
      "##ition": 3804,
      "##jet": 3805,
      "##styr": 3806,
      "##vet": 3807,
      "pe": 3808,
      "sent": 3809,
      "##ummer": 3810,
      "året": 3811,
      "##bu": 3812,
      "stockholm": 3813,
      "char": 3814,
      "\",": 3815,
      "(''": 3816,
      "##ran": 3817,
      "rol": 3818,
      "##rer": 3819,
      "peter": 3820,
      "desse": 3821,
      "lond": 3822,
      "##råk": 3823,
      "##cket": 3824,
      "lite": 3825,
      "##far": 3826,
      "fick": 3827,
      "sing": 3828,
      "##rar": 3829,
      "tog": 3830,
      ".)": 3831,
      "##yst": 3832,
      "##fe": 3833,
      "##dig": 3834,
      "gennem": 3835,
      "också": 3836,
      "pla": 3837,
      "##urn": 3838,
      "gav": 3839,
      "detta": 3840,
      "##ident": 3841,
      "sag": 3842,
      "##dan": 3843,
      "aut": 3844,
      "183": 3845,
      "kro": 3846,
      "verden": 3847,
      "lik": 3848,
      "##vid": 3849,
      "2002": 3850,
      "##befolk": 3851,
      "##ada": 3852,
      "program": 3853,
      "gamle": 3854,
      "ans": 3855,
      "##ering": 3856,
      "si": 3857,
      "##reg": 3858,
      "##20": 3859,
      "slut": 3860,
      "derfor": 3861,
      "london": 3862,
      "period": 3863,
      "song": 3864,
      "blant": 3865,
      "##äng": 3866,
      "##alet": 3867,
      "gö": 3868,
      "blei": 3869,
      "##handling": 3870,
      "##cc": 3871,
      "viktig": 3872,
      "##stå": 3873,
      "job": 3874,
      "egen": 3875,
      "ara": 3876,
      "##undet": 3877,
      "fleire": 3878,
      "stø": 3879,
      "sett": 3880,
      "##asse": 3881,
      "hvil": 3882,
      "spiller": 3883,
      "wh": 3884,
      "##kken": 3885,
      "##ksom": 3886,
      "information": 3887,
      "italien": 3888,
      "##ologi": 3889,
      "igen": 3890,
      "##ynd": 3891,
      "desember": 3892,
      "##ical": 3893,
      "spill": 3894,
      "øk": 3895,
      "navn": 3896,
      "sku": 3897,
      "samtid": 3898,
      "gjer": 3899,
      "von": 3900,
      "skj": 3901,
      "##dde": 3902,
      "bygg": 3903,
      "mark": 3904,
      "##maste": 3905,
      "lat": 3906,
      "##ikker": 3907,
      "pal": 3908,
      "vide": 3909,
      "comm": 3910,
      "tru": 3911,
      "##ress": 3912,
      "fjell": 3913,
      "##ktion": 3914,
      "noe": 3915,
      "fyr": 3916,
      "bliver": 3917,
      "##ander": 3918,
      "##öm": 3919,
      "ku": 3920,
      "bakgr": 3921,
      "##peraturen": 3922,
      "vatt": 3923,
      "tred": 3924,
      "namnet": 3925,
      "gro": 3926,
      "1999": 3927,
      "mad": 3928,
      "##oner": 3929,
      "will": 3930,
      "lær": 3931,
      "##serv": 3932,
      "kval": 3933,
      "uden": 3934,
      "ten": 3935,
      "##ach": 3936,
      "aktiv": 3937,
      "kraft": 3938,
      "##,,,": 3939,
      "gift": 3940,
      "##kv": 3941,
      "universitet": 3942,
      "dra": 3943,
      "utvik": 3944,
      "bø": 3945,
      "arbet": 3946,
      "sty": 3947,
      "40": 3948,
      "bol": 3949,
      "bal": 3950,
      "austral": 3951,
      "##dt": 3952,
      "are": 3953,
      "##ara": 3954,
      "siste": 3955,
      "##ellige": 3956,
      "##stre": 3957,
      "vara": 3958,
      "sur": 3959,
      "vann": 3960,
      "euro": 3961,
      "historie": 3962,
      "##ogn": 3963,
      "aller": 3964,
      "regionen": 3965,
      "står": 3966,
      "hovud": 3967,
      "##ängen": 3968,
      "pris": 3969,
      "forhold": 3970,
      "und": 3971,
      "sjå": 3972,
      "##ensis": 3973,
      "tyskland": 3974,
      "januari": 3975,
      "##iskt": 3976,
      "##ører": 3977,
      "##ace": 3978,
      "tallet": 3979,
      "os": 3980,
      "genomsnitt": 3981,
      "månaden": 3982,
      "##spl": 3983,
      "##ighet": 3984,
      "bre": 3985,
      "##nas": 3986,
      "mycket": 3987,
      "ger": 3988,
      "##iel": 3989,
      "##inge": 3990,
      "tom": 3991,
      "##ase": 3992,
      "181": 3993,
      "##veg": 3994,
      "post": 3995,
      "sæ": 3996,
      "ass": 3997,
      "1990": 3998,
      "##xter": 3999,
      "##unkt": 4000,
      "##part": 4001,
      "##ford": 4002,
      "##ete": 4003,
      "##olen": 4004,
      "været": 4005,
      "fransk": 4006,
      "sommer": 4007,
      "1998": 4008,
      "##ifter": 4009,
      "fjer": 4010,
      "bib": 4011,
      "kjem": 4012,
      "sov": 4013,
      "##bert": 4014,
      "skriv": 4015,
      "vor": 4016,
      "pros": 4017,
      "##agen": 4018,
      "provinsen": 4019,
      "søn": 4020,
      "sidan": 4021,
      "full": 4022,
      "##xtart": 4023,
      "##æng": 4024,
      ".,": 4025,
      "større": 4026,
      "##øj": 4027,
      "tekn": 4028,
      "københavn": 4029,
      "arg": 4030,
      "##nor": 4031,
      "nederbörd": 4032,
      "##äck": 4033,
      "tem": 4034,
      "##ure": 4035,
      "##kje": 4036,
      "alex": 4037,
      "##van": 4038,
      "ww": 4039,
      "dess": 4040,
      "##sj": 4041,
      "berre": 4042,
      "øn": 4043,
      "arr": 4044,
      "kam": 4045,
      "freder": 4046,
      "##asjonen": 4047,
      "huvudsak": 4048,
      "##nad": 4049,
      "##ca": 4050,
      "mand": 4051,
      "00": 4052,
      "wor": 4053,
      "##områ": 4054,
      "uten": 4055,
      "kjø": 4056,
      "terrängen": 4057,
      "bruk": 4058,
      "##temperaturen": 4059,
      "je": 4060,
      "##hl": 4061,
      "##our": 4062,
      "död": 4063,
      "180": 4064,
      "väl": 4065,
      "närheten": 4066,
      "prob": 4067,
      "anvä": 4068,
      "##äg": 4069,
      "litter": 4070,
      "##ight": 4071,
      "vit": 4072,
      "luft": 4073,
      "præ": 4074,
      "##eltemperaturen": 4075,
      "##iam": 4076,
      "fordi": 4077,
      "popul": 4078,
      "dam": 4079,
      "):": 4080,
      "vært": 4081,
      "##ationer": 4082,
      "bur": 4083,
      "##ment": 4084,
      "##unns": 4085,
      "les": 4086,
      "ir": 4087,
      "##ash": 4088,
      "enk": 4089,
      "##ora": 4090,
      "stra": 4091,
      "##ict": 4092,
      "##ura": 4093,
      "..": 4094,
      "##erg": 4095,
      "næ": 4096,
      "##cy": 4097,
      "fakt": 4098,
      "##vir": 4099,
      "##ställ": 4100,
      "karl": 4101,
      "öster": 4102,
      "högsta": 4103,
      "bort": 4104,
      "syn": 4105,
      "blitt": 4106,
      "##kning": 4107,
      "www": 4108,
      "us": 4109,
      "we": 4110,
      "arm": 4111,
      "##stoff": 4112,
      "##iter": 4113,
      "ep": 4114,
      "##we": 4115,
      "filmen": 4116,
      "##atet": 4117,
      "##anter": 4118,
      "noko": 4119,
      "##jär": 4120,
      "ses": 4121,
      "noreg": 4122,
      "##iar": 4123,
      "qu": 4124,
      "saman": 4125,
      "gjort": 4126,
      "##lj": 4127,
      "mellan": 4128,
      "fått": 4129,
      "konst": 4130,
      "##rad": 4131,
      "muse": 4132,
      "##äril": 4133,
      "tar": 4134,
      "tidleg": 4135,
      "##eleg": 4136,
      "johan": 4137,
      "##ias": 4138,
      "vore": 4139,
      "milit": 4140,
      "inneh": 4141,
      "1997": 4142,
      "rev": 4143,
      "bag": 4144,
      "ii": 4145,
      "##idt": 4146,
      "lyd": 4147,
      "##ona": 4148,
      "##cent": 4149,
      "ti": 4150,
      "akt": 4151,
      "##mus": 4152,
      "samh": 4153,
      "##alist": 4154,
      "råd": 4155,
      "sex": 4156,
      "##ielt": 4157,
      "##endes": 4158,
      "börj": 4159,
      "kur": 4160,
      "kateg": 4161,
      "##kj": 4162,
      "jap": 4163,
      "europa": 4164,
      "sport": 4165,
      "1970": 4166,
      "##vest": 4167,
      "##kta": 4168,
      "##väst": 4169,
      "ko": 4170,
      "##heim": 4171,
      "ja": 4172,
      "##ening": 4173,
      "omgiv": 4174,
      "##ät": 4175,
      "orig": 4176,
      "høg": 4177,
      "igjen": 4178,
      "##kan": 4179,
      "lo": 4180,
      "1993": 4181,
      "træ": 4182,
      "måtte": 4183,
      "##ors": 4184,
      "fol": 4185,
      "pass": 4186,
      "##osa": 4187,
      "au": 4188,
      "##pa": 4189,
      "##gav": 4190,
      "##edes": 4191,
      "skap": 4192,
      "##lingen": 4193,
      "1980": 4194,
      "elekt": 4195,
      "instru": 4196,
      "dre": 4197,
      "fal": 4198,
      "##sby": 4199,
      "nasjon": 4200,
      "svar": 4201,
      "profess": 4202,
      "astr": 4203,
      "forfatter": 4204,
      "##klar": 4205,
      "##ationen": 4206,
      "tyske": 4207,
      "##ads": 4208,
      "##alb": 4209,
      "tiden": 4210,
      "jp": 4211,
      "##äv": 4212,
      "##ktur": 4213,
      "1996": 4214,
      "##nga": 4215,
      "##olf": 4216,
      "##orter": 4217,
      "##iger": 4218,
      "stand": 4219,
      "års": 4220,
      "lille": 4221,
      "##hel": 4222,
      "albumet": 4223,
      "##rom": 4224,
      "trad": 4225,
      "fre": 4226,
      "##ografi": 4227,
      "central": 4228,
      "före": 4229,
      "##burg": 4230,
      "1994": 4231,
      "sim": 4232,
      "bilder": 4233,
      "##istrikt": 4234,
      "tredje": 4235,
      "##ij": 4236,
      "##rich": 4237,
      "fotball": 4238,
      "amerikanske": 4239,
      "##dus": 4240,
      "tan": 4241,
      "##entar": 4242,
      "lar": 4243,
      "svenska": 4244,
      "politiker": 4245,
      "thom": 4246,
      "jam": 4247,
      "##ktor": 4248,
      "pat": 4249,
      "eksp": 4250,
      "##öj": 4251,
      "bon": 4252,
      "##ena": 4253,
      "storbr": 4254,
      "england": 4255,
      "plass": 4256,
      "mich": 4257,
      "##ward": 4258,
      "##rid": 4259,
      "blevet": 4260,
      "mass": 4261,
      "1995": 4262,
      "##50": 4263,
      "##itann": 4264,
      "norr": 4265,
      "bergen": 4266,
      "kalla": 4267,
      "ram": 4268,
      "##raph": 4269,
      "paul": 4270,
      "1992": 4271,
      "regn": 4272,
      "##arbeid": 4273,
      "storbritann": 4274,
      "##ira": 4275,
      "##omm": 4276,
      "tilf": 4277,
      "bud": 4278,
      "##ly": 4279,
      "182": 4280,
      "vad": 4281,
      "national": 4282,
      "roman": 4283,
      "vol": 4284,
      "##iat": 4285,
      "økonom": 4286,
      "david": 4287,
      "div": 4288,
      "rock": 4289,
      "själ": 4290,
      "delst": 4291,
      "bir": 4292,
      "nogle": 4293,
      "alf": 4294,
      "##befolkat": 4295,
      "##bro": 4296,
      "origin": 4297,
      "klar": 4298,
      "vm": 4299,
      "it": 4300,
      "general": 4301,
      "mann": 4302,
      "##uter": 4303,
      "lav": 4304,
      "aster": 4305,
      "rel": 4306,
      "jpg": 4307,
      "##inister": 4308,
      "söder": 4309,
      "span": 4310,
      "tit": 4311,
      "ang": 4312,
      "beste": 4313,
      "##mål": 4314,
      "##æt": 4315,
      "kirke": 4316,
      "##sd": 4317,
      "mykje": 4318,
      "cir": 4319,
      "spec": 4320,
      "sym": 4321,
      "##ho": 4322,
      "anden": 4323,
      "##sch": 4324,
      "större": 4325,
      "teg": 4326,
      "deg": 4327,
      "priv": 4328,
      "kjent": 4329,
      "##anden": 4330,
      "rek": 4331,
      "##elige": 4332,
      "##ino": 4333,
      "##smed": 4334,
      "##ymp": 4335,
      "##wa": 4336,
      "punkten": 4337,
      "innbyg": 4338,
      "air": 4339,
      "##elder": 4340,
      "bus": 4341,
      "annet": 4342,
      "video": 4343,
      "##læg": 4344,
      "fest": 4345,
      "fo": 4346,
      "sang": 4347,
      "navnet": 4348,
      "kö": 4349,
      "##yp": 4350,
      "##bok": 4351,
      "bred": 4352,
      "øv": 4353,
      "hvad": 4354,
      "fisk": 4355,
      "##äd": 4356,
      "press": 4357,
      "organis": 4358,
      "meir": 4359,
      "viser": 4360,
      "##smål": 4361,
      "##jekt": 4362,
      "##iken": 4363,
      "bety": 4364,
      "tilbage": 4365,
      "##råd": 4366,
      "##cl": 4367,
      "1991": 4368,
      "hånd": 4369,
      "gjekk": 4370,
      "##dann": 4371,
      "##abler": 4372,
      "overs": 4373,
      "antar": 4374,
      "htt": 4375,
      "##han": 4376,
      ":/": 4377,
      "kvar": 4378,
      "innan": 4379,
      "tillegg": 4380,
      "##arane": 4381,
      "uk": 4382,
      "fjäril": 4383,
      "wil": 4384,
      "inden": 4385,
      "##arbej": 4386,
      "://": 4387,
      "litteratur": 4388,
      "##illa": 4389,
      "web": 4390,
      "slag": 4391,
      "bog": 4392,
      "tilbake": 4393,
      "bid": 4394,
      "##itz": 4395,
      "##ktør": 4396,
      "##ått": 4397,
      "begge": 4398,
      "admin": 4399,
      "konkur": 4400,
      "blandt": 4401,
      "frederik": 4402,
      "tj": 4403,
      "använd": 4404,
      "frankrike": 4405,
      "spes": 4406,
      "##usjon": 4407,
      "ungdom": 4408,
      "døde": 4409,
      "verk": 4410,
      "arkite": 4411,
      "gruppen": 4412,
      "langt": 4413,
      "mang": 4414,
      "andet": 4415,
      "##ivet": 4416,
      "lev": 4417,
      "##adem": 4418,
      "##delse": 4419,
      "##erna": 4420,
      "##hund": 4421,
      "musikk": 4422,
      "##ordan": 4423,
      "ga": 4424,
      "oper": 4425,
      "fa": 4426,
      "asp": 4427,
      "##ign": 4428,
      "sein": 4429,
      "via": 4430,
      "inom": 4431,
      "app": 4432,
      "denna": 4433,
      "forl": 4434,
      "kart": 4435,
      "##ningarna": 4436,
      "##ograph": 4437,
      "folket": 4438,
      "fant": 4439,
      "york": 4440,
      "fleste": 4441,
      "##ek": 4442,
      "erik": 4443,
      "kil": 4444,
      "##delig": 4445,
      "kontr": 4446,
      "skå": 4447,
      "vinter": 4448,
      "##sdag": 4449,
      "##unde": 4450,
      "begyn": 4451,
      "##uler": 4452,
      "1960": 4453,
      "don": 4454,
      "nem": 4455,
      "ren": 4456,
      "##band": 4457,
      "natt": 4458,
      "same": 4459,
      "##rede": 4460,
      "##ppa": 4461,
      "##isert": 4462,
      "allt": 4463,
      "verdens": 4464,
      "##chen": 4465,
      "cal": 4466,
      "##ces": 4467,
      "dann": 4468,
      "energ": 4469,
      "bara": 4470,
      "hund": 4471,
      "væ": 4472,
      "stem": 4473,
      "##stein": 4474,
      "jon": 4475,
      "forsø": 4476,
      "paris": 4477,
      "plat": 4478,
      "fel": 4479,
      "tran": 4480,
      "kin": 4481,
      "kvinn": 4482,
      "grøn": 4483,
      "ulike": 4484,
      "wal": 4485,
      "##okum": 4486,
      "väster": 4487,
      "fjärilsart": 4488,
      "##nu": 4489,
      "##atis": 4490,
      "tot": 4491,
      "stil": 4492,
      "utt": 4493,
      "dj": 4494,
      "fall": 4495,
      "1989": 4496,
      "klass": 4497,
      "olymp": 4498,
      "annat": 4499,
      "augusti": 4500,
      "##bol": 4501,
      "byr": 4502,
      "dø": 4503,
      "hvordan": 4504,
      "medan": 4505,
      "refer": 4506,
      "##äst": 4507,
      "norm": 4508,
      "##famil": 4509,
      "##ya": 4510,
      "vet": 4511,
      "##landet": 4512,
      "pen": 4513,
      "##ood": 4514,
      "if": 4515,
      "studer": 4516,
      "deb": 4517,
      "dermed": 4518,
      "krit": 4519,
      "etabler": 4520,
      "60": 4521,
      "inkl": 4522,
      "##eth": 4523,
      "##fon": 4524,
      "åter": 4525,
      "prø": 4526,
      "##året": 4527,
      "fag": 4528,
      "språk": 4529,
      "##ini": 4530,
      "##blad": 4531,
      "bakgrunns": 4532,
      "personer": 4533,
      "##umb": 4534,
      "unge": 4535,
      "sat": 4536,
      "effe": 4537,
      "william": 4538,
      "gir": 4539,
      "count": 4540,
      "##spiller": 4541,
      "##bil": 4542,
      "gode": 4543,
      "##ista": 4544,
      "##ivert": 4545,
      "familien": 4546,
      "sovjet": 4547,
      "seks": 4548,
      "##ula": 4549,
      "fir": 4550,
      "område": 4551,
      "distrikt": 4552,
      "ting": 4553,
      "instit": 4554,
      "spør": 4555,
      "##sfor": 4556,
      "skuesp": 4557,
      "gal": 4558,
      "##åt": 4559,
      "##ygg": 4560,
      "sna": 4561,
      "island": 4562,
      "##elses": 4563,
      "##cher": 4564,
      "##icer": 4565,
      "##ække": 4566,
      "##skrift": 4567,
      "ast": 4568,
      "pos": 4569,
      "rec": 4570,
      "you": 4571,
      "##ksam": 4572,
      "samf": 4573,
      "ru": 4574,
      "gi": 4575,
      "##sminister": 4576,
      "##endte": 4577,
      "videre": 4578,
      "fac": 4579,
      "##istan": 4580,
      "##ros": 4581,
      "rober": 4582,
      "motor": 4583,
      "1988": 4584,
      "##sert": 4585,
      "hu": 4586,
      "bakgrunnsstoff": 4587,
      "vilket": 4588,
      "cy": 4589,
      "##li": 4590,
      "##78": 4591,
      "leng": 4592,
      "stre": 4593,
      "många": 4594,
      "disk": 4595,
      "stam": 4596,
      "vere": 4597,
      "hå": 4598,
      "##ited": 4599,
      "world": 4600,
      "bjør": 4601,
      "arab": 4602,
      "##iens": 4603,
      "ansvar": 4604,
      "##agt": 4605,
      "noget": 4606,
      "1986": 4607,
      "sek": 4608,
      "gull": 4609,
      "##åll": 4610,
      "##akter": 4611,
      "##ode": 4612,
      "heller": 4613,
      "##deren": 4614,
      "##okrat": 4615,
      "astero": 4616,
      "try": 4617,
      "##olit": 4618,
      "följ": 4619,
      "omfatt": 4620,
      "##skrig": 4621,
      "bod": 4622,
      "##uden": 4623,
      "##ital": 4624,
      "##tes": 4625,
      "45": 4626,
      "##hen": 4627,
      "indust": 4628,
      "dyr": 4629,
      "️‍": 4630,
      "cam": 4631,
      "##ikon": 4632,
      "cor": 4633,
      "rikt": 4634,
      "just": 4635,
      "inns": 4636,
      "na": 4637,
      "blive": 4638,
      "konta": 4639,
      "livet": 4640,
      "hennes": 4641,
      "still": 4642,
      "##cker": 4643,
      "super": 4644,
      "##raft": 4645,
      "##rin": 4646,
      "leder": 4647,
      "erne": 4648,
      "##heter": 4649,
      "##kka": 4650,
      "##mans": 4651,
      "brukt": 4652,
      "fær": 4653,
      "rest": 4654,
      "forskellige": 4655,
      "journ": 4656,
      "university": 4657,
      "##hj": 4658,
      "##ima": 4659,
      "udvik": 4660,
      "mis": 4661,
      "##mes": 4662,
      "##älle": 4663,
      "region": 4664,
      "##ze": 4665,
      "dokum": 4666,
      "bab": 4667,
      "##bel": 4668,
      "35": 4669,
      "sil": 4670,
      "##lighet": 4671,
      "##uc": 4672,
      "johann": 4673,
      "dagen": 4674,
      "inde": 4675,
      "seinare": 4676,
      "##uth": 4677,
      "mennesker": 4678,
      "##lio": 4679,
      "sina": 4680,
      "problem": 4681,
      "##isen": 4682,
      "##idler": 4683,
      "1987": 4684,
      "lång": 4685,
      "bad": 4686,
      "che": 4687,
      "män": 4688,
      "##atus": 4689,
      "enkelt": 4690,
      "##sområ": 4691,
      "finn": 4692,
      "hall": 4693,
      "februari": 4694,
      "toppen": 4695,
      "ster": 4696,
      "nya": 4697,
      "lys": 4698,
      "##indelse": 4699,
      "sem": 4700,
      "arkivert": 4701,
      "##samling": 4702,
      "##spelare": 4703,
      "virksom": 4704,
      "svært": 4705,
      "langs": 4706,
      "befolk": 4707,
      "##agg": 4708,
      "blog": 4709,
      "serien": 4710,
      "##sport": 4711,
      "insp": 4712,
      "fys": 4713,
      "staden": 4714,
      "##imeter": 4715,
      "skole": 4716,
      "jer": 4717,
      "lj": 4718,
      "skog": 4719,
      "set": 4720,
      "tek": 4721,
      "eksempel": 4722,
      "social": 4723,
      "##erte": 4724,
      "##ny": 4725,
      "utv": 4726,
      "gör": 4727,
      "##ko": 4728,
      "##isme": 4729,
      "##kor": 4730,
      "##iale": 4731,
      "1985": 4732,
      "perioden": 4733,
      "grad": 4734,
      "##bold": 4735,
      "nummer": 4736,
      "stod": 4737,
      "sik": 4738,
      "fod": 4739,
      "179": 4740,
      "relig": 4741,
      "själv": 4742,
      "*''": 4743,
      "anders": 4744,
      "##skog": 4745,
      "flyg": 4746,
      "besl": 4747,
      "begynd": 4748,
      "##ras": 4749,
      "##ringer": 4750,
      "##ions": 4751,
      "forsvar": 4752,
      "tidlegare": 4753,
      "##10": 4754,
      "geolog": 4755,
      "##partem": 4756,
      "cap": 4757,
      "##aland": 4758,
      "vattend": 4759,
      "robert": 4760,
      "##ico": 4761,
      "kring": 4762,
      "georg": 4763,
      "middel": 4764,
      "##lys": 4765,
      "klo": 4766,
      "1984": 4767,
      "tjen": 4768,
      "##aka": 4769,
      "trom": 4770,
      "sve": 4771,
      "mitt": 4772,
      "##pris": 4773,
      "olika": 4774,
      "##ielle": 4775,
      "mye": 4776,
      "hår": 4777,
      "opt": 4778,
      "skuespiller": 4779,
      "##ations": 4780,
      "bandet": 4781,
      "hvilket": 4782,
      "500": 4783,
      "bestem": 4784,
      "bay": 4785,
      "1981": 4786,
      "samtidig": 4787,
      "##isten": 4788,
      "##inde": 4789,
      "##skil": 4790,
      "##try": 4791,
      "bras": 4792,
      "president": 4793,
      "glob": 4794,
      "inf": 4795,
      "förs": 4796,
      "li": 4797,
      "fø": 4798,
      "ras": 4799,
      "http": 4800,
      "kron": 4801,
      "lige": 4802,
      "##ita": 4803,
      "europe": 4804,
      "blå": 4805,
      "##vey": 4806,
      "astronom": 4807,
      "gikk": 4808,
      "32": 4809,
      "##histor": 4810,
      "##gs": 4811,
      "sub": 4812,
      "rich": 4813,
      "1982": 4814,
      "anv": 4815,
      "arten": 4816,
      "##sett": 4817,
      "afrik": 4818,
      "##bin": 4819,
      "ganska": 4820,
      "enkel": 4821,
      "århund": 4822,
      "grav": 4823,
      "henrik": 4824,
      "##ence": 4825,
      "names": 4826,
      "kristian": 4827,
      "midt": 4828,
      "spil": 4829,
      "hum": 4830,
      "tak": 4831,
      "lö": 4832,
      "oppdag": 4833,
      "80": 4834,
      "##ledes": 4835,
      "##dd": 4836,
      "lokal": 4837,
      "##tak": 4838,
      "##øya": 4839,
      "##za": 4840,
      "allerede": 4841,
      "1979": 4842,
      "vej": 4843,
      "bild": 4844,
      "beskr": 4845,
      "anne": 4846,
      "rum": 4847,
      "vattendrag": 4848,
      "mater": 4849,
      "##ollen": 4850,
      "skip": 4851,
      "mu": 4852,
      "comp": 4853,
      "star": 4854,
      "##vär": 4855,
      "laget": 4856,
      "33": 4857,
      "fødd": 4858,
      "nokre": 4859,
      "##norsk": 4860,
      "sidste": 4861,
      "##oret": 4862,
      "##uer": 4863,
      "liten": 4864,
      "90": 4865,
      "##ient": 4866,
      "##växtart": 4867,
      "##yll": 4868,
      "##gelse": 4869,
      "##cis": 4870,
      "##leis": 4871,
      "jern": 4872,
      "heim": 4873,
      "##væ": 4874,
      "1972": 4875,
      "artik": 4876,
      "tilh": 4877,
      "titt": 4878,
      "##uel": 4879,
      "##atisk": 4880,
      "united": 4881,
      "##sing": 4882,
      "1900": 4883,
      "produs": 4884,
      "##iell": 4885,
      "1973": 4886,
      "##ved": 4887,
      "##laget": 4888,
      "tab": 4889,
      "samma": 4890,
      "flera": 4891,
      "##gor": 4892,
      "82": 4893,
      "betyd": 4894,
      "##veck": 4895,
      "1978": 4896,
      "##plan": 4897,
      "række": 4898,
      "##que": 4899,
      "stedet": 4900,
      "radio": 4901,
      "1983": 4902,
      "platt": 4903,
      "skol": 4904,
      "##fr": 4905,
      "1977": 4906,
      "##yttet": 4907,
      "##otter": 4908,
      "##komm": 4909,
      "sogn": 4910,
      "36": 4911,
      "romer": 4912,
      "dock": 4913,
      "jes": 4914,
      "##sket": 4915,
      "##bred": 4916,
      "##igare": 4917,
      "##orge": 4918,
      "##igheter": 4919,
      "##sc": 4920,
      "1968": 4921,
      "arter": 4922,
      "##vent": 4923,
      "##aks": 4924,
      "museum": 4925,
      "##växter": 4926,
      "thomas": 4927,
      "franske": 4928,
      "##ves": 4929,
      "70": 4930,
      "##ink": 4931,
      "psy": 4932,
      "klubben": 4933,
      "ball": 4934,
      "bom": 4935,
      "omgivningarna": 4936,
      "##skar": 4937,
      "##isering": 4938,
      "professor": 4939,
      "kre": 4940,
      "##delt": 4941,
      "##way": 4942,
      "delstaten": 4943,
      "1976": 4944,
      "1945": 4945,
      "marts": 4946,
      "republ": 4947,
      "ton": 4948,
      "folke": 4949,
      "##gje": 4950,
      "##inget": 4951,
      "närmaste": 4952,
      "britiske": 4953,
      "lib": 4954,
      "##øst": 4955,
      "##oide": 4956,
      "##als": 4957,
      "##krig": 4958,
      "##port": 4959,
      "1974": 4960,
      "kul": 4961,
      "##ivil": 4962,
      "arch": 4963,
      "anth": 4964,
      "stadig": 4965,
      "##une": 4966,
      "kø": 4967,
      "barne": 4968,
      "kategori": 4969,
      "##organ": 4970,
      "phil": 4971,
      "war": 4972,
      "##itter": 4973,
      "songen": 4974,
      "hed": 4975,
      "##heden": 4976,
      "vers": 4977,
      "##liote": 4978,
      "teater": 4979,
      "##dende": 4980,
      "1975": 4981,
      "1971": 4982,
      "##raste": 4983,
      "sommar": 4984,
      "##igheder": 4985,
      "##ongen": 4986,
      "angel": 4987,
      "##hver": 4988,
      "konge": 4989,
      "landsby": 4990,
      "komme": 4991,
      "gratis": 4992,
      "krigen": 4993,
      "medlemmer": 4994,
      "turner": 4995,
      "##ugh": 4996,
      ".\"": 4997,
      "##rør": 4998,
      "innen": 4999,
      "net": 5000,
      "alter": 5001,
      "rätt": 5002,
      "##spro": 5003,
      "##resenter": 5004,
      "1950": 5005,
      "hit": 5006,
      "##rig": 5007,
      "##sätt": 5008,
      "samhälle": 5009,
      "regjer": 5010,
      "##lo": 5011,
      "berlin": 5012,
      "blom": 5013,
      "stift": 5014,
      "pan": 5015,
      "##opter": 5016,
      "millimeter": 5017,
      "##én": 5018,
      "##urt": 5019,
      "city": 5020,
      "##fär": 5021,
      "datter": 5022,
      "aldr": 5023,
      "nød": 5024,
      "##oden": 5025,
      "representer": 5026,
      "bos": 5027,
      "##ael": 5028,
      "##ivå": 5029,
      "##usen": 5030,
      "##huset": 5031,
      "heile": 5032,
      "##pr": 5033,
      "kuper": 5034,
      "familie": 5035,
      "##skole": 5036,
      "##åd": 5037,
      "alltid": 5038,
      "hjelp": 5039,
      "offis": 5040,
      "178": 5041,
      "isra": 5042,
      "inse": 5043,
      "rapp": 5044,
      "##helm": 5045,
      "1969": 5046,
      "survey": 5047,
      "##stan": 5048,
      "martin": 5049,
      "prakt": 5050,
      "##sst": 5051,
      "log": 5052,
      "sjö": 5053,
      "##fly": 5054,
      "##erer": 5055,
      "##tre": 5056,
      "##bi": 5057,
      "##album": 5058,
      "rej": 5059,
      "jac": 5060,
      "##ism": 5061,
      "kvart": 5062,
      "##oth": 5063,
      "topp": 5064,
      "01": 5065,
      "interes": 5066,
      "väx": 5067,
      "##ifor": 5068,
      "vidare": 5069,
      "uppt": 5070,
      "län": 5071,
      "##syn": 5072,
      "senare": 5073,
      "##bygg": 5074,
      "kjelder": 5075,
      "gitar": 5076,
      "hær": 5077,
      "mur": 5078,
      "##ua": 5079,
      "##vs": 5080,
      "tekst": 5081,
      "orden": 5082,
      "tele": 5083,
      "nynorsk": 5084,
      "##inen": 5085,
      "gruppe": 5086,
      "##las": 5087,
      "##sar": 5088,
      "hert": 5089,
      "sølv": 5090,
      "gul": 5091,
      "##ikar": 5092,
      "##enskap": 5093,
      "prins": 5094,
      "##ngre": 5095,
      "##aljer": 5096,
      "##lad": 5097,
      "##heng": 5098,
      "##onen": 5099,
      "##heder": 5100,
      "jur": 5101,
      "##rav": 5102,
      "hy": 5103,
      "##kommer": 5104,
      "love": 5105,
      "spor": 5106,
      "##tar": 5107,
      "findes": 5108,
      "##igaste": 5109,
      "hvert": 5110,
      "ib": 5111,
      "fv": 5112,
      "but": 5113,
      "typ": 5114,
      "lou": 5115,
      "stora": 5116,
      "traf": 5117,
      "##ætt": 5118,
      "norges": 5119,
      "##film": 5120,
      "##ios": 5121,
      "##oen": 5122,
      "1940": 5123,
      "##hald": 5124,
      "##aga": 5125,
      "aldrig": 5126,
      "stoff": 5127,
      "skrevet": 5128,
      "åra": 5129,
      "anal": 5130,
      "##vej": 5131,
      "##holder": 5132,
      "##ila": 5133,
      "forskj": 5134,
      "george": 5135,
      "##ama": 5136,
      "vores": 5137,
      "##ey": 5138,
      "stav": 5139,
      "dikt": 5140,
      "fab": 5141,
      "##skje": 5142,
      "vant": 5143,
      "ner": 5144,
      "ott": 5145,
      "internasjon": 5146,
      "##iges": 5147,
      "##30": 5148,
      "hva": 5149,
      "hjelpe": 5150,
      "kuperad": 5151,
      "##havet": 5152,
      "34": 5153,
      "ful": 5154,
      "dessa": 5155,
      "gik": 5156,
      "lagt": 5157,
      "lan": 5158,
      "något": 5159,
      "black": 5160,
      "##ystem": 5161,
      "##hal": 5162,
      "##øg": 5163,
      "belg": 5164,
      "kost": 5165,
      "brasil": 5166,
      "prim": 5167,
      "##ckt": 5168,
      "##deling": 5169,
      "##21": 5170,
      "prem": 5171,
      "##skriv": 5172,
      "några": 5173,
      "lidt": 5174,
      "tidigare": 5175,
      "dk": 5176,
      "##ney": 5177,
      "##ips": 5178,
      "##bund": 5179,
      "fylkes": 5180,
      "##ior": 5181,
      "aï": 5182,
      "øya": 5183,
      "bek": 5184,
      "##igur": 5185,
      "##jør": 5186,
      "borg": 5187,
      "stå": 5188,
      "bygget": 5189,
      "##nam": 5190,
      "37": 5191,
      "##vand": 5192,
      "cla": 5193,
      "ky": 5194,
      "1920": 5195,
      "##rätt": 5196,
      "dere": 5197,
      "long": 5198,
      "##istisk": 5199,
      "##'''": 5200,
      "børn": 5201,
      "##aldt": 5202,
      "##ellen": 5203,
      "udg": 5204,
      "adel": 5205,
      "avsl": 5206,
      "##spunkt": 5207,
      "kina": 5208,
      "forbindelse": 5209,
      "##ukt": 5210,
      "sund": 5211,
      "1967": 5212,
      "##isa": 5213,
      "sten": 5214,
      "2019": 5215,
      "mac": 5216,
      "live": 5217,
      "låg": 5218,
      "venstre": 5219,
      "hjæl": 5220,
      "##ics": 5221,
      "kompon": 5222,
      "##oder": 5223,
      "##ose": 5224,
      "##bb": 5225,
      "vän": 5226,
      "##sida": 5227,
      "bedste": 5228,
      "##imat": 5229,
      "mulig": 5230,
      "hurt": 5231,
      "##nade": 5232,
      "##partementet": 5233,
      "dagens": 5234,
      "##familien": 5235,
      "centrala": 5236,
      "##førte": 5237,
      "##dem": 5238,
      "kontakt": 5239,
      "##vok": 5240,
      "##drag": 5241,
      "##ement": 5242,
      "##okus": 5243,
      "sw": 5244,
      "bedre": 5245,
      "grev": 5246,
      "##tale": 5247,
      "##fta": 5248,
      "##ås": 5249,
      "##ikke": 5250,
      "##vig": 5251,
      "henne": 5252,
      "##følge": 5253,
      "antalet": 5254,
      "##äns": 5255,
      "gjør": 5256,
      "innbyggj": 5257,
      "##och": 5258,
      "um": 5259,
      "##bild": 5260,
      "gust": 5261,
      "kendt": 5262,
      "vandt": 5263,
      "lange": 5264,
      "inkluder": 5265,
      "israel": 5266,
      "hitt": 5267,
      "föret": 5268,
      "##iode": 5269,
      "moderne": 5270,
      "lund": 5271,
      "ax": 5272,
      "est": 5273,
      "døm": 5274,
      "39": 5275,
      "skåde": 5276,
      "funger": 5277,
      "##sg": 5278,
      "ze": 5279,
      "##mester": 5280,
      "nil": 5281,
      "hom": 5282,
      "sos": 5283,
      "##skol": 5284,
      "anton": 5285,
      "jordbru": 5286,
      "ide": 5287,
      "##iro": 5288,
      "##hr": 5289,
      "##osof": 5290,
      "##oven": 5291,
      "##entlig": 5292,
      "##upp": 5293,
      "lande": 5294,
      "mott": 5295,
      "record": 5296,
      "krav": 5297,
      "nederland": 5298,
      "administ": 5299,
      "1964": 5300,
      "skil": 5301,
      "fug": 5302,
      "ill": 5303,
      "amb": 5304,
      "kons": 5305,
      "177": 5306,
      "##klub": 5307,
      "miss": 5308,
      "##ops": 5309,
      "test": 5310,
      "observ": 5311,
      "heilt": 5312,
      "mex": 5313,
      "##asjoner": 5314,
      "brev": 5315,
      "blod": 5316,
      "event": 5317,
      "idag": 5318,
      "fan": 5319,
      "##inal": 5320,
      "slekt": 5321,
      "38": 5322,
      "undersø": 5323,
      "va": 5324,
      "hendes": 5325,
      "bern": 5326,
      "eig": 5327,
      "##anten": 5328,
      "##lede": 5329,
      "arrang": 5330,
      "informasjon": 5331,
      "##bre": 5332,
      "##plass": 5333,
      "dal": 5334,
      "1965": 5335,
      "##60": 5336,
      "føre": 5337,
      "##wn": 5338,
      "största": 5339,
      "##anth": 5340,
      "sju": 5341,
      "jose": 5342,
      "nom": 5343,
      "udgiv": 5344,
      "##ative": 5345,
      "tillsam": 5346,
      "vik": 5347,
      "guld": 5348,
      "ort": 5349,
      "førte": 5350,
      "bass": 5351,
      "genomsnittlig": 5352,
      "pra": 5353,
      "##vinge": 5354,
      "samling": 5355,
      "afg": 5356,
      "tät": 5357,
      "##uten": 5358,
      "tillsammans": 5359,
      "##eland": 5360,
      "tap": 5361,
      "kung": 5362,
      "##ric": 5363,
      "magn": 5364,
      "årsn": 5365,
      "rö": 5366,
      "##ytte": 5367,
      "aïn": 5368,
      "##ec": 5369,
      "hatt": 5370,
      "lind": 5371,
      "kän": 5372,
      "hela": 5373,
      "##aur": 5374,
      "brun": 5375,
      "resultater": 5376,
      "kanskje": 5377,
      "##line": 5378,
      "##hör": 5379,
      "aar": 5380,
      "1930": 5381,
      "##iteter": 5382,
      "fors": 5383,
      "##mon": 5384,
      "##isjonen": 5385,
      "tida": 5386,
      "1966": 5387,
      "michael": 5388,
      "##urder": 5389,
      "##skabet": 5390,
      "##istiske": 5391,
      "300": 5392,
      "with": 5393,
      "james": 5394,
      "cer": 5395,
      "##ski": 5396,
      "hjäl": 5397,
      "cm": 5398,
      "årsneder": 5399,
      "mc": 5400,
      "slekten": 5401,
      "asteroid": 5402,
      "sant": 5403,
      "angre": 5404,
      "torraste": 5405,
      "him": 5406,
      "årsnederbörd": 5407,
      "from": 5408,
      "regnigaste": 5409,
      "##olut": 5410,
      "##läg": 5411,
      "##40": 5412,
      "##agn": 5413,
      "ring": 5414,
      "sports": 5415,
      "imidler": 5416,
      "##ninga": 5417,
      "kva": 5418,
      "imidlertid": 5419,
      "##eldig": 5420,
      "gong": 5421,
      "commons": 5422,
      "##holdt": 5423,
      "##yra": 5424,
      "41": 5425,
      "enligt": 5426,
      "nära": 5427,
      "##vist": 5428,
      "finland": 5429,
      "cro": 5430,
      "mask": 5431,
      "kunde": 5432,
      "græ": 5433,
      "någon": 5434,
      "##imedia": 5435,
      "slaget": 5436,
      "##iven": 5437,
      "##ato": 5438,
      "deltok": 5439,
      "bron": 5440,
      "42": 5441,
      "dit": 5442,
      "1800": 5443,
      "varmaste": 5444,
      "serie": 5445,
      "##amer": 5446,
      "##ame": 5447,
      "##jar": 5448,
      "##fug": 5449,
      "ald": 5450,
      "blad": 5451,
      "bygd": 5452,
      "##ksikon": 5453,
      "##iskop": 5454,
      "bror": 5455,
      "divis": 5456,
      "##egn": 5457,
      "nytta": 5458,
      "skrive": 5459,
      "##ström": 5460,
      "delar": 5461,
      "##itte": 5462,
      "geograph": 5463,
      "international": 5464,
      "##car": 5465,
      "oppgav": 5466,
      "##skj": 5467,
      "##gång": 5468,
      "én": 5469,
      "richard": 5470,
      "årsmed": 5471,
      "sold": 5472,
      "minst": 5473,
      "imp": 5474,
      "charles": 5475,
      "kallaste": 5476,
      "##fall": 5477,
      "fokus": 5478,
      "miljø": 5479,
      "##vern": 5480,
      "sveriges": 5481,
      "mester": 5482,
      "##ield": 5483,
      "##marks": 5484,
      "kjeld": 5485,
      "medeltemperaturen": 5486,
      "dår": 5487,
      "tids": 5488,
      "varit": 5489,
      "alexander": 5490,
      "versjon": 5491,
      "mob": 5492,
      "lake": 5493,
      "årsmedeltemperaturen": 5494,
      "svart": 5495,
      "finnes": 5496,
      "støtte": 5497,
      "##sku": 5498,
      "italiensk": 5499,
      "##test": 5500,
      "trond": 5501,
      "vind": 5502,
      "lett": 5503,
      "nordväst": 5504,
      "direkte": 5505,
      "bat": 5506,
      "##mal": 5507,
      "maria": 5508,
      "##kall": 5509,
      "##ux": 5510,
      "hjer": 5511,
      "##iteten": 5512,
      "west": 5513,
      "##gård": 5514,
      "##vå": 5515,
      "##iva": 5516,
      "##eren": 5517,
      "inspir": 5518,
      "##rol": 5519,
      "55": 5520,
      "inneheld": 5521,
      "geological": 5522,
      "##på": 5523,
      "bry": 5524,
      "##iana": 5525,
      "menn": 5526,
      "48": 5527,
      "##bane": 5528,
      "##ova": 5529,
      "hor": 5530,
      "##æm": 5531,
      "serv": 5532,
      "music": 5533,
      "fredrik": 5534,
      "##ema": 5535,
      "cup": 5536,
      "##tog": 5537,
      "sikker": 5538,
      "behandling": 5539,
      "##yo": 5540,
      "fodbold": 5541,
      "brug": 5542,
      "eneste": 5543,
      "##stid": 5544,
      "vigt": 5545,
      "##skl": 5546,
      "gjøre": 5547,
      "##ård": 5548,
      "iii": 5549,
      "175": 5550,
      "registr": 5551,
      "elva": 5552,
      "##æk": 5553,
      "spillet": 5554,
      "##sat": 5555,
      "##vingeart": 5556,
      "tvåvingeart": 5557,
      "##rodu": 5558,
      "indtil": 5559,
      "utveck": 5560,
      "mør": 5561,
      "##eta": 5562,
      "eget": 5563,
      "##yer": 5564,
      "sätt": 5565,
      "##ativt": 5566,
      "##endig": 5567,
      "rid": 5568,
      "snart": 5569,
      "top": 5570,
      "##hi": 5571,
      "årene": 5572,
      "kines": 5573,
      "47": 5574,
      "författ": 5575,
      "##stilling": 5576,
      "løb": 5577,
      "handel": 5578,
      "pap": 5579,
      "seier": 5580,
      "vanlig": 5581,
      "hansen": 5582,
      "lars": 5583,
      "änd": 5584,
      "vansk": 5585,
      "##rettet": 5586,
      "grand": 5587,
      "opr": 5588,
      "##ök": 5589,
      "karri": 5590,
      "annan": 5591,
      "sådan": 5592,
      "##kort": 5593,
      "75": 5594,
      "##utter": 5595,
      "##øver": 5596,
      "08": 5597,
      "##føre": 5598,
      "##eds": 5599,
      "##jt": 5600,
      "bokmål": 5601,
      "tatt": 5602,
      "således": 5603,
      "hell": 5604,
      "##bart": 5605,
      "##slaget": 5606,
      "internation": 5607,
      "resultat": 5608,
      "##äckt": 5609,
      "##lam": 5610,
      "##stånd": 5611,
      "rob": 5612,
      "1962": 5613,
      "albert": 5614,
      "44": 5615,
      "lud": 5616,
      "tror": 5617,
      "##insk": 5618,
      "resten": 5619,
      "öpp": 5620,
      "##cia": 5621,
      "##resent": 5622,
      "psyk": 5623,
      "wikimedia": 5624,
      "##sty": 5625,
      "02": 5626,
      "##ht": 5627,
      "1956": 5628,
      "##ledning": 5629,
      "1963": 5630,
      "mun": 5631,
      "nordost": 5632,
      "følgende": 5633,
      "ork": 5634,
      "kjeldene": 5635,
      "##jur": 5636,
      "##orer": 5637,
      "tag": 5638,
      "##ærer": 5639,
      "##sning": 5640,
      "gån": 5641,
      "åb": 5642,
      "##nisk": 5643,
      "enda": 5644,
      "##öl": 5645,
      "##edet": 5646,
      "sav": 5647,
      "ros": 5648,
      "##aller": 5649,
      "norra": 5650,
      "400": 5651,
      "##rit": 5652,
      "1948": 5653,
      "##smann": 5654,
      "filosof": 5655,
      ".-": 5656,
      "kyrkje": 5657,
      "##ses": 5658,
      "foto": 5659,
      "møte": 5660,
      "43": 5661,
      "lad": 5662,
      "##östra": 5663,
      "##aker": 5664,
      "kjend": 5665,
      "##satt": 5666,
      "sjuk": 5667,
      "stjer": 5668,
      "restaur": 5669,
      "##ypt": 5670,
      "09": 5671,
      "britt": 5672,
      "1961": 5673,
      "yo": 5674,
      "äl": 5675,
      "##inar": 5676,
      "##rige": 5677,
      "##ago": 5678,
      "göra": 5679,
      "trä": 5680,
      "bis": 5681,
      "mont": 5682,
      "let": 5683,
      "##nast": 5684,
      "data": 5685,
      "hard": 5686,
      "not": 5687,
      "03": 5688,
      "##vor": 5689,
      "åp": 5690,
      "file": 5691,
      "antal": 5692,
      "antarkt": 5693,
      "##ismen": 5694,
      "##har": 5695,
      "##bud": 5696,
      "##nå": 5697,
      "enkelte": 5698,
      "##rasjon": 5699,
      "##orten": 5700,
      "skyl": 5701,
      "##lek": 5702,
      "##ival": 5703,
      "rekke": 5704,
      "##ful": 5705,
      "cre": 5706,
      "johannes": 5707,
      "##ano": 5708,
      "kolon": 5709,
      "##jerg": 5710,
      "finst": 5711,
      "altså": 5712,
      "az": 5713,
      "##own": 5714,
      "pet": 5715,
      "tren": 5716,
      "arbejd": 5717,
      "sydost": 5718,
      "valg": 5719,
      "karakter": 5720,
      "prest": 5721,
      "privat": 5722,
      "##lö": 5723,
      "05": 5724,
      "ifølge": 5725,
      "prin": 5726,
      "læn": 5727,
      "ris": 5728,
      "satt": 5729,
      "bind": 5730,
      "lokale": 5731,
      "##spe": 5732,
      "løpet": 5733,
      "##tag": 5734,
      "''')": 5735,
      "geographic": 5736,
      "##ående": 5737,
      "storbritannia": 5738,
      "eige": 5739,
      "skådespelare": 5740,
      "##jektet": 5741,
      "danmarks": 5742,
      "borger": 5743,
      "##ndel": 5744,
      "døy": 5745,
      "##vers": 5746,
      "rød": 5747,
      "##ues": 5748,
      "tätbefolkat": 5749,
      "katol": 5750,
      "##fot": 5751,
      "##visning": 5752,
      "syr": 5753,
      "ænd": 5754,
      "##alus": 5755,
      "journalist": 5756,
      "grens": 5757,
      "park": 5758,
      "##ms": 5759,
      "japan": 5760,
      "time": 5761,
      "##spill": 5762,
      "stru": 5763,
      "altern": 5764,
      "sjø": 5765,
      "##cel": 5766,
      "sydväst": 5767,
      "##ifte": 5768,
      "fjord": 5769,
      "##fører": 5770,
      "##back": 5771,
      "huset": 5772,
      "dram": 5773,
      "demokrat": 5774,
      "camp": 5775,
      "universitetet": 5776,
      "gles": 5777,
      "gjerne": 5778,
      "##valg": 5779,
      "følge": 5780,
      "rolle": 5781,
      "##fjord": 5782,
      "tett": 5783,
      "way": 5784,
      "##amen": 5785,
      "likevel": 5786,
      "skalb": 5787,
      "cast": 5788,
      "##uelle": 5789,
      "1958": 5790,
      "russisk": 5791,
      "atl": 5792,
      "##andet": 5793,
      "svenske": 5794,
      "sog": 5795,
      "46": 5796,
      "##ican": 5797,
      "dob": 5798,
      "ønsker": 5799,
      "##andt": 5800,
      "fär": 5801,
      "bruker": 5802,
      "##eln": 5803,
      "særlig": 5804,
      "arkitekt": 5805,
      "##teborg": 5806,
      "följande": 5807,
      "49": 5808,
      "##fjorden": 5809,
      "tun": 5810,
      "meste": 5811,
      "##eningen": 5812,
      "978": 5813,
      "gange": 5814,
      "stats": 5815,
      "1957": 5816,
      "1938": 5817,
      "176": 5818,
      "fc": 5819,
      "##jev": 5820,
      "##avn": 5821,
      "ute": 5822,
      "##ologisk": 5823,
      "deltog": 5824,
      "offic": 5825,
      "roy": 5826,
      "vurder": 5827,
      "jack": 5828,
      "inst": 5829,
      "pas": 5830,
      "kast": 5831,
      "tør": 5832,
      "erst": 5833,
      "finans": 5834,
      "arbejde": 5835,
      "indiv": 5836,
      "jør": 5837,
      "vist": 5838,
      "##mod": 5839,
      "ole": 5840,
      "marie": 5841,
      "datab": 5842,
      "voks": 5843,
      "##verket": 5844,
      "##orna": 5845,
      "##omen": 5846,
      "behov": 5847,
      "##ödra": 5848,
      "exempel": 5849,
      "stopp": 5850,
      "politisk": 5851,
      "##po": 5852,
      "51": 5853,
      "52": 5854,
      "gør": 5855,
      "gyl": 5856,
      "mind": 5857,
      "veldig": 5858,
      "##ellet": 5859,
      "insekt": 5860,
      "ganske": 5861,
      "ordet": 5862,
      "##emat": 5863,
      "utvide": 5864,
      "nation": 5865,
      "amph": 5866,
      "tradisjon": 5867,
      "glesbefolkat": 5868,
      "##okk": 5869,
      "##oe": 5870,
      "ärt": 5871,
      "bot": 5872,
      "verdenskrig": 5873,
      "act": 5874,
      "desuden": 5875,
      "fyrste": 5876,
      "alp": 5877,
      "dating": 5878,
      "##kast": 5879,
      "finne": 5880,
      "##lade": 5881,
      "parti": 5882,
      "max": 5883,
      "måste": 5884,
      "dar": 5885,
      "abs": 5886,
      "fas": 5887,
      "##tra": 5888,
      "county": 5889,
      "##står": 5890,
      "##orte": 5891,
      "upptäckt": 5892,
      "började": 5893,
      "##fal": 5894,
      "britisk": 5895,
      "##ytter": 5896,
      "##my": 5897,
      "##ani": 5898,
      "1944": 5899,
      "mü": 5900,
      "##ep": 5901,
      "rig": 5902,
      "södra": 5903,
      "virk": 5904,
      "disc": 5905,
      "innbyggjarar": 5906,
      "distriktet": 5907,
      "die": 5908,
      "\"''": 5909,
      "menneske": 5910,
      "spelte": 5911,
      "mik": 5912,
      "italia": 5913,
      "1939": 5914,
      "##iew": 5915,
      "arbeidet": 5916,
      "##ærk": 5917,
      "ency": 5918,
      "##arbet": 5919,
      "dagar": 5920,
      "originalen": 5921,
      "states": 5922,
      "1947": 5923,
      "##øres": 5924,
      "kvinner": 5925,
      "posit": 5926,
      "mak": 5927,
      "##sut": 5928,
      "##oller": 5929,
      "skalbagg": 5930,
      "real": 5931,
      "##nande": 5932,
      "##bø": 5933,
      "periode": 5934,
      "skjer": 5935,
      "skalbaggsart": 5936,
      "årets": 5937,
      "uddann": 5938,
      "1959": 5939,
      "regel": 5940,
      "spr": 5941,
      "göteborg": 5942,
      "##dra": 5943,
      "vari": 5944,
      "##ivt": 5945,
      "##gelig": 5946,
      "millioner": 5947,
      "klart": 5948,
      "pil": 5949,
      "##anse": 5950,
      "varier": 5951,
      "##tere": 5952,
      "ytter": 5953,
      "##ipt": 5954,
      "afrika": 5955,
      "1946": 5956,
      "trans": 5957,
      "ident": 5958,
      "peng": 5959,
      "drift": 5960,
      "strand": 5961,
      "##ute": 5962,
      "1914": 5963,
      "areal": 5964,
      "##fra": 5965,
      "ej": 5966,
      "##mere": 5967,
      "kop": 5968,
      "##jef": 5969,
      "eftersom": 5970,
      "##stil": 5971,
      "akadem": 5972,
      "värld": 5973,
      "fart": 5974,
      "reger": 5975,
      "politiske": 5976,
      "haft": 5977,
      "##ped": 5978,
      "##11": 5979,
      "04": 5980,
      "nesten": 5981,
      "vera": 5982,
      "huvudsakligen": 5983,
      "##ury": 5984,
      "industri": 5985,
      "57": 5986,
      "jacob": 5987,
      "##skaber": 5988,
      "1936": 5989,
      "gammel": 5990,
      "##una": 5991,
      "plasser": 5992,
      "aldri": 5993,
      "##svis": 5994,
      "slutten": 5995,
      "skrift": 5996,
      "iv": 5997,
      "bob": 5998,
      "skab": 5999,
      "##ørte": 6000,
      "maler": 6001,
      "07": 6002,
      "deretter": 6003,
      "spillede": 6004,
      "jar": 6005,
      "thumb": 6006,
      "65": 6007,
      "tol": 6008,
      "##spr": 6009,
      "06": 6010,
      "placer": 6011,
      "situ": 6012,
      "1952": 6013,
      "up": 6014,
      "mol": 6015,
      "los": 6016,
      "poeng": 6017,
      "latin": 6018,
      "##vd": 6019,
      "kvalif": 6020,
      "möj": 6021,
      "spanien": 6022,
      "##hov": 6023,
      "rog": 6024,
      "bank": 6025,
      "##alje": 6026,
      "daniel": 6027,
      "andreas": 6028,
      "honom": 6029,
      "ekstra": 6030,
      "##jøen": 6031,
      "##över": 6032,
      "ken": 6033,
      "spille": 6034,
      "cr": 6035,
      "##ty": 6036,
      "##ür": 6037,
      "offentlig": 6038,
      "##fors": 6039,
      "krim": 6040,
      "betal": 6041,
      "bibliote": 6042,
      "lære": 6043,
      "hin": 6044,
      "##gaard": 6045,
      "##ndag": 6046,
      "sky": 6047,
      "tour": 6048,
      "##uts": 6049,
      "finalen": 6050,
      "##hn": 6051,
      "##df": 6052,
      "engelske": 6053,
      "##ese": 6054,
      "##ipl": 6055,
      "helsing": 6056,
      "##delen": 6057,
      "##iment": 6058,
      "##mand": 6059,
      "cas": 6060,
      "tel": 6061,
      "##ude": 6062,
      "58": 6063,
      "nasjonal": 6064,
      "opphav": 6065,
      "back": 6066,
      "##fest": 6067,
      "alder": 6068,
      "dron": 6069,
      "ford": 6070,
      "jean": 6071,
      "bem": 6072,
      "##rup": 6073,
      "##iserte": 6074,
      "##ienter": 6075,
      "center": 6076,
      "##fyl": 6077,
      "##grund": 6078,
      "sendt": 6079,
      "cirka": 6080,
      "##lever": 6081,
      "##otte": 6082,
      "stab": 6083,
      "vat": 6084,
      "##tok": 6085,
      "säson": 6086,
      "forskning": 6087,
      "lam": 6088,
      "##sund": 6089,
      "oprindel": 6090,
      "kilder": 6091,
      "##omat": 6092,
      "mit": 6093,
      "pot": 6094,
      "sæson": 6095,
      "sej": 6096,
      "''\"": 6097,
      "utvikling": 6098,
      "##itets": 6099,
      "##sek": 6100,
      "##produ": 6101,
      "eld": 6102,
      "##ote": 6103,
      "1955": 6104,
      "beskriv": 6105,
      "dine": 6106,
      "##iff": 6107,
      "##træ": 6108,
      "statens": 6109,
      "arne": 6110,
      "produksjon": 6111,
      "gran": 6112,
      "sida": 6113,
      "laga": 6114,
      "ditt": 6115,
      "##).": 6116,
      "1912": 6117,
      "nordvest": 6118,
      "99": 6119,
      "giver": 6120,
      "##azz": 6121,
      "##iddel": 6122,
      "##gren": 6123,
      "kongen": 6124,
      "1949": 6125,
      "gick": 6126,
      "records": 6127,
      "##ary": 6128,
      "dä": 6129,
      "kampen": 6130,
      "##vi": 6131,
      "1918": 6132,
      "##ank": 6133,
      "beslut": 6134,
      "nogen": 6135,
      "foret": 6136,
      "totalt": 6137,
      "skar": 6138,
      "##jö": 6139,
      "##anen": 6140,
      "vold": 6141,
      "uttry": 6142,
      "##ønn": 6143,
      "arro": 6144,
      "54": 6145,
      "läm": 6146,
      "##ctic": 6147,
      "##eligt": 6148,
      "stein": 6149,
      "disp": 6150,
      "grupp": 6151,
      "forlag": 6152,
      "valgt": 6153,
      "##18": 6154,
      "forfatt": 6155,
      "dersom": 6156,
      "##ory": 6157,
      "samarbeid": 6158,
      "stjär": 6159,
      "grä": 6160,
      "fortsatte": 6161,
      "##onia": 6162,
      "henry": 6163,
      "##fart": 6164,
      "king": 6165,
      "bul": 6166,
      "mach": 6167,
      "##clop": 6168,
      "##dere": 6169,
      "56": 6170,
      "gøre": 6171,
      "rus": 6172,
      "##älla": 6173,
      "online": 6174,
      "energi": 6175,
      "reser": 6176,
      "53": 6177,
      "smith": 6178,
      "##ington": 6179,
      "begyndte": 6180,
      "hill": 6181,
      "##wood": 6182,
      "laur": 6183,
      "skild": 6184,
      "1942": 6185,
      "grupper": 6186,
      "stille": 6187,
      "##iti": 6188,
      "1910": 6189,
      "##ømme": 6190,
      "hopp": 6191,
      "mog": 6192,
      "##ällande": 6193,
      "##erat": 6194,
      "russland": 6195,
      "##shus": 6196,
      "vanleg": 6197,
      "##sborg": 6198,
      "##kir": 6199,
      "adam": 6200,
      "1941": 6201,
      "portug": 6202,
      "##ota": 6203,
      "##fte": 6204,
      "bä": 6205,
      "global": 6206,
      "mine": 6207,
      "illust": 6208,
      "1954": 6209,
      "##enes": 6210,
      "##cus": 6211,
      "reference": 6212,
      "dele": 6213,
      "##må": 6214,
      "##rep": 6215,
      "##rale": 6216,
      "##ærende": 6217,
      "##nskap": 6218,
      "##ón": 6219,
      "##hard": 6220,
      "ox": 6221,
      "människ": 6222,
      "num": 6223,
      "##gn": 6224,
      "pian": 6225,
      "##ologiske": 6226,
      "veck": 6227,
      "ør": 6228,
      "nic": 6229,
      "##ältet": 6230,
      "1943": 6231,
      "##uta": 6232,
      "neste": 6233,
      "slå": 6234,
      "##äder": 6235,
      "hjemme": 6236,
      "storbritannien": 6237,
      "viste": 6238,
      "gard": 6239,
      "fantast": 6240,
      "transport": 6241,
      "basert": 6242,
      "holdt": 6243,
      "encyclop": 6244,
      "##bor": 6245,
      "##bas": 6246,
      "##angen": 6247,
      "plats": 6248,
      "##lägg": 6249,
      "charl": 6250,
      "##lor": 6251,
      "##alis": 6252,
      "station": 6253,
      "##mest": 6254,
      "##punkt": 6255,
      "59": 6256,
      "samband": 6257,
      "malm": 6258,
      "##fri": 6259,
      "kommentar": 6260,
      "upptäcktes": 6261,
      "##kjen": 6262,
      "kna": 6263,
      "kh": 6264,
      "offentleg": 6265,
      "siger": 6266,
      "##andid": 6267,
      "##rinn": 6268,
      "cd": 6269,
      "standard": 6270,
      "##andre": 6271,
      "forskjellige": 6272,
      "1928": 6273,
      "strat": 6274,
      "bruke": 6275,
      "1953": 6276,
      "argent": 6277,
      "rh": 6278,
      "rigt": 6279,
      "##lund": 6280,
      "jordbruks": 6281,
      "od": 6282,
      "student": 6283,
      "hende": 6284,
      "nob": 6285,
      "1919": 6286,
      "figur": 6287,
      "kyrkja": 6288,
      "lär": 6289,
      "inför": 6290,
      "1935": 6291,
      ")»": 6292,
      "dro": 6293,
      "sier": 6294,
      "driv": 6295,
      "endnu": 6296,
      "##ci": 6297,
      "1917": 6298,
      "publik": 6299,
      "känd": 6300,
      "arth": 6301,
      "vict": 6302,
      "verksam": 6303,
      "##ea": 6304,
      "##risk": 6305,
      "##øv": 6306,
      "matt": 6307,
      "##lighed": 6308,
      "sir": 6309,
      "##ygt": 6310,
      "fuld": 6311,
      "tän": 6312,
      "64": 6313,
      "isl": 6314,
      "##ance": 6315,
      "mynd": 6316,
      "##delige": 6317,
      "##andra": 6318,
      "friid": 6319,
      "kirk": 6320,
      "##meld": 6321,
      "fæl": 6322,
      "##mens": 6323,
      "såg": 6324,
      "især": 6325,
      "deler": 6326,
      "insektsart": 6327,
      "wilhelm": 6328,
      "akk": 6329,
      "fatt": 6330,
      "dist": 6331,
      "##øs": 6332,
      "##ente": 6333,
      "partiet": 6334,
      "##ming": 6335,
      "produkt": 6336,
      "aud": 6337,
      "##lav": 6338,
      "ski": 6339,
      "dels": 6340,
      "neg": 6341,
      "nyt": 6342,
      "kej": 6343,
      "nuv": 6344,
      "##unnet": 6345,
      "peder": 6346,
      "handling": 6347,
      "begynte": 6348,
      "holde": 6349,
      "kla": 6350,
      "canada": 6351,
      "book": 6352,
      "sagt": 6353,
      "områder": 6354,
      "##språk": 6355,
      "fylke": 6356,
      "##menn": 6357,
      "kunna": 6358,
      "1937": 6359,
      "mos": 6360,
      "rab": 6361,
      "louis": 6362,
      "spar": 6363,
      "tw": 6364,
      "militær": 6365,
      "##12": 6366,
      "sider": 6367,
      "tyrk": 6368,
      "##oren": 6369,
      "##gift": 6370,
      "##ansen": 6371,
      "team": 6372,
      "##flug": 6373,
      "gram": 6374,
      "##lemer": 6375,
      "##19": 6376,
      "fro": 6377,
      "##yrer": 6378,
      "##sberg": 6379,
      "##område": 6380,
      "udgivet": 6381,
      "kg": 6382,
      "faktisk": 6383,
      "sar": 6384,
      "mö": 6385,
      "fotograf": 6386,
      "styre": 6387,
      "bord": 6388,
      "##menter": 6389,
      "150": 6390,
      "1924": 6391,
      "##fær": 6392,
      "ske": 6393,
      "regering": 6394,
      "aften": 6395,
      "1913": 6396,
      "arn": 6397,
      "##etten": 6398,
      "betydning": 6399,
      "##anda": 6400,
      "##kamp": 6401,
      "sentral": 6402,
      "hust": 6403,
      "nødv": 6404,
      "roll": 6405,
      "##inne": 6406,
      "##ørs": 6407,
      "indre": 6408,
      "olav": 6409,
      "manu": 6410,
      "170": 6411,
      "skad": 6412,
      "døydde": 6413,
      "##mat": 6414,
      "##utom": 6415,
      "##dy": 6416,
      "##vo": 6417,
      "##pass": 6418,
      "aph": 6419,
      "american": 6420,
      "##atten": 6421,
      "leksikon": 6422,
      "ober": 6423,
      "producer": 6424,
      "øster": 6425,
      "##mo": 6426,
      "finde": 6427,
      "innhald": 6428,
      "sovjetun": 6429,
      "interv": 6430,
      "vegen": 6431,
      "foran": 6432,
      "tidlig": 6433,
      "rask": 6434,
      "##lement": 6435,
      "1932": 6436,
      "jazz": 6437,
      "vårt": 6438,
      "##deleg": 6439,
      "hertug": 6440,
      "##inae": 6441,
      "##arch": 6442,
      "##idge": 6443,
      "##boll": 6444,
      "kvinder": 6445,
      "cook": 6446,
      "deltag": 6447,
      "aks": 6448,
      "##sid": 6449,
      "spire": 6450,
      "##ple": 6451,
      "gått": 6452,
      "forstå": 6453,
      "##ime": 6454,
      "##omb": 6455,
      "dens": 6456,
      "utgitt": 6457,
      "thor": 6458,
      "gren": 6459,
      "allm": 6460,
      "elev": 6461,
      "våre": 6462,
      "1908": 6463,
      "##orf": 6464,
      "særleg": 6465,
      "tillhör": 6466,
      "amerika": 6467,
      "skriver": 6468,
      "##kö": 6469,
      "##ides": 6470,
      "betyder": 6471,
      "##ari": 6472,
      "växer": 6473,
      "##imer": 6474,
      "cra": 6475,
      "nettsted": 6476,
      "##zz": 6477,
      "erob": 6478,
      "##uch": 6479,
      "##vn": 6480,
      "gym": 6481,
      "##oma": 6482,
      "1951": 6483,
      "##lov": 6484,
      "##rib": 6485,
      "utbred": 6486,
      "174": 6487,
      "##ague": 6488,
      "ene": 6489,
      "##fö": 6490,
      "plant": 6491,
      "moh": 6492,
      "##fa": 6493,
      "##kraft": 6494,
      "nik": 6495,
      "##organis": 6496,
      "steder": 6497,
      "bruger": 6498,
      "##rut": 6499,
      "sist": 6500,
      "##jo": 6501,
      "ofta": 6502,
      "bakgrunn": 6503,
      "bjørn": 6504,
      "parlam": 6505,
      "##engt": 6506,
      "##system": 6507,
      "nrk": 6508,
      "jak": 6509,
      "##mor": 6510,
      "karriere": 6511,
      "##dater": 6512,
      "kroner": 6513,
      "egypt": 6514,
      "##ific": 6515,
      "kirken": 6516,
      "##16": 6517,
      "1934": 6518,
      "redakt": 6519,
      "##lagd": 6520,
      "history": 6521,
      "hål": 6522,
      "##rak": 6523,
      "##vard": 6524,
      "##forsk": 6525,
      "fried": 6526,
      "bane": 6527,
      "marker": 6528,
      "1933": 6529,
      "##öv": 6530,
      "##ér": 6531,
      "87": 6532,
      "viden": 6533,
      "gott": 6534,
      "##digt": 6535,
      "##ringen": 6536,
      "biskop": 6537,
      "kjøp": 6538,
      "defin": 6539,
      "politik": 6540,
      "amt": 6541,
      "gem": 6542,
      "samman": 6543,
      "bell": 6544,
      "brann": 6545,
      "opprinn": 6546,
      "##ther": 6547,
      "##länd": 6548,
      "tillb": 6549,
      "midten": 6550,
      "1905": 6551,
      "tu": 6552,
      "sign": 6553,
      "låt": 6554,
      "egne": 6555,
      "sprog": 6556,
      "##0000": 6557,
      "##ju": 6558,
      "boka": 6559,
      "##80": 6560,
      "alfred": 6561,
      ":)": 6562,
      "sum": 6563,
      "måte": 6564,
      "##iforn": 6565,
      ".''": 6566,
      "version": 6567,
      "jensen": 6568,
      "fore": 6569,
      "##jan": 6570,
      "1929": 6571,
      "##knad": 6572,
      "jens": 6573,
      "##valt": 6574,
      "##revet": 6575,
      "1911": 6576,
      "ah": 6577,
      "award": 6578,
      "startet": 6579,
      "stekel": 6580,
      "##delser": 6581,
      "85": 6582,
      "elektron": 6583,
      "medic": 6584,
      "deras": 6585,
      "behand": 6586,
      "gällande": 6587,
      "##alderen": 6588,
      "melod": 6589,
      "passer": 6590,
      "almin": 6591,
      "utdan": 6592,
      "##gra": 6593,
      "lab": 6594,
      "ts": 6595,
      "yder": 6596,
      "ok": 6597,
      "kategor": 6598,
      "trondheim": 6599,
      "slott": 6600,
      "##skolen": 6601,
      "främ": 6602,
      "##angel": 6603,
      "##any": 6604,
      "##ømmer": 6605,
      "##vision": 6606,
      "##ones": 6607,
      "idrett": 6608,
      "samhäll": 6609,
      "##djur": 6610,
      "rem": 6611,
      "klasse": 6612,
      "##ände": 6613,
      "##bältet": 6614,
      "planet": 6615,
      "nab": 6616,
      "##nede": 6617,
      "stekelart": 6618,
      "skot": 6619,
      "##ära": 6620,
      "gitt": 6621,
      "pens": 6622,
      "symbol": 6623,
      "##ving": 6624,
      "spesielt": 6625,
      "##hæng": 6626,
      "##skomm": 6627,
      "joseph": 6628,
      "##kont": 6629,
      "kontroll": 6630,
      "##17": 6631,
      "##ikkel": 6632,
      "1921": 6633,
      "tema": 6634,
      "aur": 6635,
      "##14": 6636,
      "##ockey": 6637,
      "1922": 6638,
      "landets": 6639,
      "##retning": 6640,
      "one": 6641,
      "##kvens": 6642,
      "##eden": 6643,
      "glad": 6644,
      "design": 6645,
      "##15": 6646,
      "brød": 6647,
      "væl": 6648,
      "##ois": 6649,
      "##hop": 6650,
      "👨🏼": 6651,
      "👨🏻": 6652,
      "👨🏽": 6653,
      "👨🏿": 6654,
      "👨🏾": 6655,
      "👩🏼": 6656,
      "👩🏻": 6657,
      "👩🏽": 6658,
      "👩🏿": 6659,
      "👩🏾": 6660,
      "erfar": 6661,
      "division": 6662,
      "mov": 6663,
      "##området": 6664,
      "##bj": 6665,
      "##deles": 6666,
      "chef": 6667,
      "##øk": 6668,
      "##oria": 6669,
      "##board": 6670,
      "##edel": 6671,
      "represent": 6672,
      "##tiden": 6673,
      "fyra": 6674,
      "##unst": 6675,
      "observator": 6676,
      "##aen": 6677,
      "redan": 6678,
      "##25": 6679,
      "hind": 6680,
      "1925": 6681,
      "##ony": 6682,
      "##ids": 6683,
      "tage": 6684,
      "myr": 6685,
      "1931": 6686,
      "altid": 6687,
      "##vil": 6688,
      "##ction": 6689,
      "knut": 6690,
      "kroppen": 6691,
      "ash": 6692,
      "##yle": 6693,
      "##cha": 6694,
      "bac": 6695,
      "##sent": 6696,
      "tale": 6697,
      "rand": 6698,
      "##jekk": 6699,
      "##rene": 6700,
      "flor": 6701,
      "spelar": 6702,
      "rosen": 6703,
      "##atar": 6704,
      "andersen": 6705,
      "##yss": 6706,
      "##olin": 6707,
      "##partiet": 6708,
      "felles": 6709,
      "66": 6710,
      "huvudbältet": 6711,
      "støtt": 6712,
      "glas": 6713,
      "arbeider": 6714,
      "##last": 6715,
      "sesongen": 6716,
      "##änder": 6717,
      "##aceae": 6718,
      "nådde": 6719,
      "pdf": 6720,
      "##ville": 6721,
      "67": 6722,
      "lærer": 6723,
      "stig": 6724,
      "##iko": 6725,
      "brand": 6726,
      "##13": 6727,
      "vokal": 6728,
      "##hor": 6729,
      "lenge": 6730,
      "bästa": 6731,
      "ye": 6732,
      "##por": 6733,
      "##uttet": 6734,
      "##sper": 6735,
      "1906": 6736,
      "forsv": 6737,
      "gjere": 6738,
      "tall": 6739,
      "##rest": 6740,
      "##aria": 6741,
      "##dagen": 6742,
      "synes": 6743,
      "internasjonale": 6744,
      "skall": 6745,
      "programmet": 6746,
      "formål": 6747,
      "league": 6748,
      "religi": 6749,
      "high": 6750,
      "nivå": 6751,
      "##stod": 6752,
      "63": 6753,
      "##sikt": 6754,
      "scen": 6755,
      "russiske": 6756,
      "fortæl": 6757,
      "bebyg": 6758,
      "spilte": 6759,
      "sun": 6760,
      "give": 6761,
      "alvor": 6762,
      "dronning": 6763,
      "##æss": 6764,
      "##gående": 6765,
      "staten": 6766,
      "institut": 6767,
      "##out": 6768,
      "##sområdet": 6769,
      "1916": 6770,
      "##gelige": 6771,
      "north": 6772,
      "##aster": 6773,
      "##seende": 6774,
      "1923": 6775,
      "sock": 6776,
      "edward": 6777,
      "astronomen": 6778,
      "jobb": 6779,
      "eksped": 6780,
      "##öt": 6781,
      "##ante": 6782,
      "administrat": 6783,
      "frankrig": 6784,
      "ekonom": 6785,
      "varje": 6786,
      "##rot": 6787,
      "bygge": 6788,
      "kvalitet": 6789,
      "skre": 6790,
      "##oni": 6791,
      "nielsen": 6792,
      "##lik": 6793,
      "##),": 6794,
      "##skilt": 6795,
      "##banen": 6796,
      "landbru": 6797,
      "kab": 6798,
      "1927": 6799,
      "##abeth": 6800,
      "jäm": 6801,
      "##bry": 6802,
      "individ": 6803,
      "##ye": 6804,
      "eta": 6805,
      "felt": 6806,
      "matemat": 6807,
      "måde": 6808,
      "salt": 6809,
      "##føring": 6810,
      "varm": 6811,
      "out": 6812,
      "mount": 6813,
      "##tain": 6814,
      "eldre": 6815,
      "##ox": 6816,
      "1904": 6817,
      "##komst": 6818,
      "gol": 6819,
      "##hånd": 6820,
      "million": 6821,
      "material": 6822,
      "##gg": 6823,
      "björ": 6824,
      "fordel": 6825,
      "gustav": 6826,
      "##bc": 6827,
      "plads": 6828,
      "##former": 6829,
      "kle": 6830,
      "##buter": 6831,
      "1915": 6832,
      "kommand": 6833,
      "##ule": 6834,
      "tradition": 6835,
      "##kam": 6836,
      "##sky": 6837,
      "jød": 6838,
      "1926": 6839,
      "##bladet": 6840,
      "##kal": 6841,
      "kyst": 6842,
      "##æst": 6843,
      "vise": 6844,
      "polen": 6845,
      "lyck": 6846,
      "##arn": 6847,
      "leve": 6848,
      "##aner": 6849,
      "##iør": 6850,
      "dage": 6851,
      "derim": 6852,
      "173": 6853,
      "vatten": 6854,
      "##sle": 6855,
      "fortsatt": 6856,
      "##24": 6857,
      "friidrett": 6858,
      "vas": 6859,
      "##23": 6860,
      "##arbejde": 6861,
      "offisielt": 6862,
      "direktør": 6863,
      "skott": 6864,
      "epis": 6865,
      "champ": 6866,
      "internet": 6867,
      "öv": 6868,
      "##steklar": 6869,
      "##kommen": 6870,
      "helse": 6871,
      "ganger": 6872,
      "skift": 6873,
      "tjän": 6874,
      "##cen": 6875,
      "show": 6876,
      "strøm": 6877,
      "encyclopedia": 6878,
      "##ikkert": 6879,
      "fi": 6880,
      "##ual": 6881,
      "##icus": 6882,
      "hens": 6883,
      "madrid": 6884,
      "ställ": 6885,
      "1907": 6886,
      "syfta": 6887,
      "##wer": 6888,
      "bang": 6889,
      "74": 6890,
      "type": 6891,
      "annen": 6892,
      "service": 6893,
      "##ía": 6894,
      "##uell": 6895,
      "##vat": 6896,
      "konstru": 6897,
      "##lysninger": 6898,
      "text": 6899,
      "##person": 6900,
      "##mene": 6901,
      "debut": 6902,
      "sovjetunionen": 6903,
      "big": 6904,
      "##ørt": 6905,
      "##naden": 6906,
      "studier": 6907,
      "78": 6908,
      "derefter": 6909,
      "##essen": 6910,
      "old": 6911,
      "point": 6912,
      "stol": 6913,
      "prote": 6914,
      "bart": 6915,
      "##ifta": 6916,
      "harald": 6917,
      "islam": 6918,
      "trø": 6919,
      "ple": 6920,
      "##aven": 6921,
      "måneder": 6922,
      "afsl": 6923,
      "starta": 6924,
      "grå": 6925,
      "meld": 6926,
      "fjerde": 6927,
      "##án": 6928,
      "normalt": 6929,
      "##äller": 6930,
      "que": 6931,
      "##inus": 6932,
      "rod": 6933,
      "##bus": 6934,
      "statist": 6935,
      "hjælp": 6936,
      "bö": 6937,
      "sveits": 6938,
      "riks": 6939,
      "skolen": 6940,
      "klubb": 6941,
      "##mos": 6942,
      "##bog": 6943,
      "samlet": 6944,
      "##omer": 6945,
      "bygning": 6946,
      "##edag": 6947,
      "författare": 6948,
      "företag": 6949,
      "lenger": 6950,
      "##inder": 6951,
      "##belt": 6952,
      "##ky": 6953,
      "skov": 6954,
      "yngre": 6955,
      "##flugor": 6956,
      "1901": 6957,
      "rø": 6958,
      "prisen": 6959,
      "nat": 6960,
      "##unnar": 6961,
      "selskapet": 6962,
      "stan": 6963,
      "ljus": 6964,
      "##ægt": 6965,
      "språ": 6966,
      "ferd": 6967,
      "##næv": 6968,
      "aner": 6969,
      "starten": 6970,
      "tilkn": 6971,
      "kalt": 6972,
      "##æld": 6973,
      "konfl": 6974,
      "hjemmes": 6975,
      "kombin": 6976,
      "ach": 6977,
      "##kant": 6978,
      "##øse": 6979,
      "mas": 6980,
      "marg": 6981,
      "mener": 6982,
      "fylkesveg": 6983,
      "##refter": 6984,
      "ish": 6985,
      "vak": 6986,
      "helst": 6987,
      "69": 6988,
      "historia": 6989,
      "##gjer": 6990,
      "regler": 6991,
      "##feld": 6992,
      "kropp": 6993,
      "##ørende": 6994,
      "hjälp": 6995,
      "kunstner": 6996,
      "##forening": 6997,
      "mosk": 6998,
      "##urs": 6999,
      "##eles": 7000,
      "strateg": 7001,
      "2020": 7002,
      "inng": 7003,
      "##aw": 7004,
      "frit": 7005,
      "##gjort": 7006,
      "fang": 7007,
      "magnus": 7008,
      "##hu": 7009,
      "##gu": 7010,
      "telefon": 7011,
      "bruges": 7012,
      "adolf": 7013,
      "##cke": 7014,
      "##muse": 7015,
      "##alder": 7016,
      "##nis": 7017,
      "##cept": 7018,
      "ende": 7019,
      "##gsmål": 7020,
      "##iop": 7021,
      "##esse": 7022,
      "næsten": 7023,
      "retning": 7024,
      "##sident": 7025,
      "dømes": 7026,
      "##allen": 7027,
      "fint": 7028,
      "##ärn": 7029,
      "##atan": 7030,
      "##änt": 7031,
      "verds": 7032,
      "##rier": 7033,
      "detaljer": 7034,
      "modern": 7035,
      "dir": 7036,
      "##full": 7037,
      "##itor": 7038,
      "løy": 7039,
      "1909": 7040,
      "repræ": 7041,
      "råder": 7042,
      "south": 7043,
      "australia": 7044,
      "pers": 7045,
      "riket": 7046,
      "historisk": 7047,
      "jesus": 7048,
      "minor": 7049,
      "##vert": 7050,
      "hvem": 7051,
      "brukes": 7052,
      "##vere": 7053,
      "ref": 7054,
      "dommer": 7055,
      "##ology": 7056,
      "ferdig": 7057,
      "stadion": 7058,
      "syv": 7059,
      "##post": 7060,
      "antarktis": 7061,
      "73": 7062,
      "gon": 7063,
      "täv": 7064,
      "##kkede": 7065,
      "belig": 7066,
      "hotel": 7067,
      "liste": 7068,
      "##oli": 7069,
      "studio": 7070,
      "konsert": 7071,
      "##cht": 7072,
      "indbyg": 7073,
      "jorden": 7074,
      "machine": 7075,
      "sette": 7076,
      "respe": 7077,
      "säger": 7078,
      "!!": 7079,
      "##trä": 7080,
      "##siden": 7081,
      "axel": 7082,
      "special": 7083,
      "steg": 7084,
      "##liste": 7085,
      "francis": 7086,
      "slått": 7087,
      "##esl": 7088,
      "porn": 7089,
      "morgen": 7090,
      "schwe": 7091,
      "ask": 7092,
      "##øren": 7093,
      "88": 7094,
      "##ela": 7095,
      "##cken": 7096,
      "jordbruksmark": 7097,
      "effektiv": 7098,
      "bost": 7099,
      "sok": 7100,
      "armen": 7101,
      "punkt": 7102,
      "##skip": 7103,
      "##edd": 7104,
      "stortinget": 7105,
      "sikre": 7106,
      "##stænd": 7107,
      "priser": 7108,
      "platser": 7109,
      "konse": 7110,
      "##resse": 7111,
      "opera": 7112,
      "kanske": 7113,
      "struktur": 7114,
      "##köp": 7115,
      "elever": 7116,
      "skib": 7117,
      "foreg": 7118,
      "##äs": 7119,
      "##ettet": 7120,
      "##to": 7121,
      "sanger": 7122,
      "slags": 7123,
      "århundre": 7124,
      "mexico": 7125,
      "##kene": 7126,
      "opprett": 7127,
      "ker": 7128,
      "##ls": 7129,
      "begre": 7130,
      "møl": 7131,
      "enten": 7132,
      "800": 7133,
      "tilsvar": 7134,
      "debuter": 7135,
      "perfe": 7136,
      "bestod": 7137,
      "friedrich": 7138,
      "statsminister": 7139,
      "##profil": 7140,
      "dokument": 7141,
      "gång": 7142,
      "fjellet": 7143,
      "næv": 7144,
      "##fold": 7145,
      "169": 7146,
      "##otten": 7147,
      "ön": 7148,
      "##håll": 7149,
      "green": 7150,
      "##sæt": 7151,
      "##landske": 7152,
      "acanth": 7153,
      "##indust": 7154,
      "värl": 7155,
      "##dam": 7156,
      "sär": 7157,
      "##uen": 7158,
      "mult": 7159,
      "kommunik": 7160,
      "naturlig": 7161,
      "##minister": 7162,
      "##urner": 7163,
      "68": 7164,
      "##amin": 7165,
      "kontin": 7166,
      "##orm": 7167,
      "bliv": 7168,
      "eksister": 7169,
      "last": 7170,
      "succ": 7171,
      "got": 7172,
      "##edal": 7173,
      "tha": 7174,
      "##ikter": 7175,
      "##illing": 7176,
      "1903": 7177,
      "##æring": 7178,
      "1890": 7179,
      "californ": 7180,
      "##kare": 7181,
      "anom": 7182,
      "kloster": 7183,
      "længere": 7184,
      "sentrum": 7185,
      "kanton": 7186,
      "##ssel": 7187,
      "selskap": 7188,
      "kjende": 7189,
      "##22": 7190,
      "nev": 7191,
      "##artikkelen": 7192,
      "bef": 7193,
      "ens": 7194,
      "hustru": 7195,
      "carol": 7196,
      "rekna": 7197,
      "##iere": 7198,
      "mænd": 7199,
      "##skud": 7200,
      "brugt": 7201,
      "virkelig": 7202,
      "##gaver": 7203,
      "bow": 7204,
      "spelt": 7205,
      "dur": 7206,
      "hotell": 7207,
      "produkter": 7208,
      "mist": 7209,
      "vilken": 7210,
      "departementet": 7211,
      "antarctic": 7212,
      "utgå": 7213,
      "diam": 7214,
      "korleis": 7215,
      "funksjon": 7216,
      "##inet": 7217,
      "kjente": 7218,
      "rör": 7219,
      "89": 7220,
      "cat": 7221,
      "mennesk": 7222,
      "##icka": 7223,
      "nordlige": 7224,
      "##gifter": 7225,
      "84": 7226,
      "##fen": 7227,
      "arbejder": 7228,
      "##ax": 7229,
      "poly": 7230,
      "76": 7231,
      "bedr": 7232,
      "taget": 7233,
      "##uther": 7234,
      "spørsmål": 7235,
      "##asen": 7236,
      "##uren": 7237,
      "timer": 7238,
      "komponist": 7239,
      "dep": 7240,
      "runde": 7241,
      "may": 7242,
      "1700": 7243,
      "##arts": 7244,
      "effekt": 7245,
      "aker": 7246,
      "##edde": 7247,
      "harry": 7248,
      "ves": 7249,
      "befolkning": 7250,
      "##nende": 7251,
      "##fab": 7252,
      "nokon": 7253,
      "københavns": 7254,
      "600": 7255,
      "måske": 7256,
      "##pel": 7257,
      "ron": 7258,
      "fotboll": 7259,
      "supp": 7260,
      "she": 7261,
      "##nat": 7262,
      "##felt": 7263,
      "##stø": 7264,
      "##leri": 7265,
      "storm": 7266,
      "sangen": 7267,
      "##æft": 7268,
      "leon": 7269,
      "sønn": 7270,
      "hug": 7271,
      "spansk": 7272,
      "sosial": 7273,
      "##taget": 7274,
      "##nant": 7275,
      "##mi": 7276,
      "henhold": 7277,
      "början": 7278,
      "strid": 7279,
      "nc": 7280,
      "ath": 7281,
      "östra": 7282,
      "mulighed": 7283,
      "prosent": 7284,
      "deira": 7285,
      "##asjer": 7286,
      "boken": 7287,
      "fået": 7288,
      "##70": 7289,
      "##optera": 7290,
      "administr": 7291,
      "stavanger": 7292,
      "overfl": 7293,
      "gresk": 7294,
      "linje": 7295,
      ");": 7296,
      "##skom": 7297,
      "fører": 7298,
      "erhver": 7299,
      "cit": 7300,
      "historien": 7301,
      "väst": 7302,
      "emil": 7303,
      "blues": 7304,
      "##uro": 7305,
      "-,": 7306,
      "verda": 7307,
      "nap": 7308,
      "kompl": 7309,
      "portal": 7310,
      "straff": 7311,
      "mi": 7312,
      "feil": 7313,
      "løbet": 7314,
      "kunnskap": 7315,
      "beat": 7316,
      "kem": 7317,
      "digital": 7318,
      "##unktet": 7319,
      "musiker": 7320,
      "1902": 7321,
      "##ringar": 7322,
      "fav": 7323,
      "royal": 7324,
      "##mid": 7325,
      "##ressen": 7326,
      "##amot": 7327,
      "sista": 7328,
      "kas": 7329,
      "tyder": 7330,
      "kos": 7331,
      "gab": 7332,
      "##lim": 7333,
      "profession": 7334,
      "fælles": 7335,
      "##mot": 7336,
      "varme": 7337,
      "bidrag": 7338,
      "##pha": 7339,
      "##ility": 7340,
      "##skrigen": 7341,
      "1500": 7342,
      "scott": 7343,
      "##holde": 7344,
      "sydöstra": 7345,
      "venner": 7346,
      "arthur": 7347,
      "pu": 7348,
      "tillbaka": 7349,
      "##oper": 7350,
      "##bundet": 7351,
      "svamp": 7352,
      "jud": 7353,
      "bevar": 7354,
      "79": 7355,
      "##hem": 7356,
      "makt": 7357,
      "....": 7358,
      "##gruppen": 7359,
      "tår": 7360,
      "typisk": 7361,
      "##ierne": 7362,
      "##field": 7363,
      "##ument": 7364,
      "rot": 7365,
      "##iler": 7366,
      "168": 7367,
      "viss": 7368,
      "##mär": 7369,
      "ec": 7370,
      "vorte": 7371,
      "pul": 7372,
      "aleks": 7373,
      "liber": 7374,
      "95": 7375,
      "##etta": 7376,
      "cop": 7377,
      "relativt": 7378,
      "arke": 7379,
      "clar": 7380,
      "efterføl": 7381,
      "direkt": 7382,
      "win": 7383,
      "vare": 7384,
      "horn": 7385,
      "##olution": 7386,
      "holl": 7387,
      "nes": 7388,
      "##yse": 7389,
      "gil": 7390,
      "namng": 7391,
      "ukra": 7392,
      "kraftig": 7393,
      "##empl": 7394,
      "slike": 7395,
      "##gade": 7396,
      "es": 7397,
      "lim": 7398,
      "spørgsmål": 7399,
      "lod": 7400,
      "jim": 7401,
      "hend": 7402,
      "##iets": 7403,
      "emb": 7404,
      "##ænder": 7405,
      "sta": 7406,
      "##dis": 7407,
      "##västra": 7408,
      "graf": 7409,
      "endast": 7410,
      "häl": 7411,
      "##com": 7412,
      "##asjonar": 7413,
      "drag": 7414,
      "problemer": 7415,
      "kalen": 7416,
      "##vesen": 7417,
      "gjeld": 7418,
      "fiske": 7419,
      "database": 7420,
      "ellers": 7421,
      "aarhus": 7422,
      "røy": 7423,
      "gammal": 7424,
      "open": 7425,
      "simon": 7426,
      "hud": 7427,
      "##meister": 7428,
      "##nader": 7429,
      "##ré": 7430,
      "union": 7431,
      "160": 7432,
      "satte": 7433,
      "hein": 7434,
      "(\"": 7435,
      "konser": 7436,
      "rasmus": 7437,
      "media": 7438,
      "forest": 7439,
      "bøker": 7440,
      "##mund": 7441,
      "befolkningen": 7442,
      "##bon": 7443,
      "meddel": 7444,
      "spania": 7445,
      "dipl": 7446,
      "introdu": 7447,
      "##ni": 7448,
      "##skon": 7449,
      "historiske": 7450,
      "mcc": 7451,
      "danne": 7452,
      "saint": 7453,
      "ain": 7454,
      "heil": 7455,
      "spring": 7456,
      "inneb": 7457,
      "alternativ": 7458,
      "aal": 7459,
      "begr": 7460,
      "tidspunkt": 7461,
      "därefter": 7462,
      "##ifik": 7463,
      "studie": 7464,
      "##skan": 7465,
      "følger": 7466,
      "bolig": 7467,
      "vigtig": 7468,
      "##aris": 7469,
      "medvir": 7470,
      "##zen": 7471,
      "lej": 7472,
      "##ceae": 7473,
      "##odes": 7474,
      "udvikling": 7475,
      "coll": 7476,
      "försö": 7477,
      "atom": 7478,
      "skreiv": 7479,
      "##vare": 7480,
      "##ej": 7481,
      "representerte": 7482,
      "##uelt": 7483,
      "därför": 7484,
      "fredag": 7485,
      "fjorden": 7486,
      "vo": 7487,
      "#\"": 7488,
      "berätt": 7489,
      "sort": 7490,
      "dotter": 7491,
      "flyttet": 7492,
      "gæl": 7493,
      "##elin": 7494,
      "påvir": 7495,
      "##værk": 7496,
      "larsen": 7497,
      "born": 7498,
      "størr": 7499,
      "1000": 7500,
      "##derne": 7501,
      "flytta": 7502,
      "86": 7503,
      "upps": 7504,
      "##skuere": 7505,
      "##æd": 7506,
      "liges": 7507,
      "soldater": 7508,
      "##28": 7509,
      "ekte": 7510,
      "oscar": 7511,
      "hører": 7512,
      "blogg": 7513,
      "##nsyn": 7514,
      "kandid": 7515,
      "your": 7516,
      "kysten": 7517,
      "ri": 7518,
      "allier": 7519,
      "line": 7520,
      "##retær": 7521,
      "mem": 7522,
      "##ifer": 7523,
      "dato": 7524,
      "klassen": 7525,
      "india": 7526,
      "ern": 7527,
      "sørvest": 7528,
      "spela": 7529,
      "schweiz": 7530,
      "##ain": 7531,
      "kontroller": 7532,
      "minne": 7533,
      "pier": 7534,
      "handels": 7535,
      "1898": 7536,
      "##plat": 7537,
      "##kkje": 7538,
      "abra": 7539,
      "77": 7540,
      "##27": 7541,
      "##ower": 7542,
      "las": 7543,
      "##åg": 7544,
      "##gerne": 7545,
      "sec": 7546,
      "omtr": 7547,
      "##joner": 7548,
      "##formen": 7549,
      "##ool": 7550,
      "165": 7551,
      "sång": 7552,
      "##rådet": 7553,
      "river": 7554,
      "##kkes": 7555,
      "blot": 7556,
      "mj": 7557,
      "nobel": 7558,
      "utbild": 7559,
      "bun": 7560,
      "mam": 7561,
      "erstatt": 7562,
      "(«": 7563,
      "##ingane": 7564,
      "former": 7565,
      "landsbyen": 7566,
      "rub": 7567,
      "lista": 7568,
      "##egr": 7569,
      "##ité": 7570,
      "##olusjon": 7571,
      "metal": 7572,
      ".»": 7573,
      "##dige": 7574,
      "ess": 7575,
      "##ebo": 7576,
      "wien": 7577,
      "palest": 7578,
      "artist": 7579,
      "##sför": 7580,
      "hvorfor": 7581,
      "##park": 7582,
      "##talt": 7583,
      "##ktioner": 7584,
      "alm": 7585,
      "##smar": 7586,
      "dyn": 7587,
      "økonomiske": 7588,
      "gh": 7589,
      "##yre": 7590,
      "##rinning": 7591,
      "##rade": 7592,
      "fej": 7593,
      "säker": 7594,
      "eigen": 7595,
      "##inske": 7596,
      "##strup": 7597,
      "grek": 7598,
      "##erade": 7599,
      "gård": 7600,
      "mic": 7601,
      "ins": 7602,
      "##fisk": 7603,
      "samtidigt": 7604,
      "mün": 7605,
      "1897": 7606,
      "bidra": 7607,
      "##usten": 7608,
      "fu": 7609,
      "annon": 7610,
      "##ages": 7611,
      "moun": 7612,
      "##spelar": 7613,
      "olympiske": 7614,
      "øver": 7615,
      "barnet": 7616,
      "båda": 7617,
      "##fo": 7618,
      "1899": 7619,
      "sende": 7620,
      "sikkert": 7621,
      "bach": 7622,
      "83": 7623,
      "masse": 7624,
      "våra": 7625,
      "##spolit": 7626,
      "opplev": 7627,
      "kjær": 7628,
      "here": 7629,
      "ludvig": 7630,
      "erkl": 7631,
      "väg": 7632,
      "turist": 7633,
      "##sler": 7634,
      "tilbud": 7635,
      "forn": 7636,
      "hurtig": 7637,
      "##sbe": 7638,
      ")''": 7639,
      "fanns": 7640,
      "rud": 7641,
      "herunder": 7642,
      "lave": 7643,
      "fortel": 7644,
      "ama": 7645,
      "bam": 7646,
      "mød": 7647,
      "brukte": 7648,
      "ryg": 7649,
      "##ografisk": 7650,
      "##stående": 7651,
      "riksdag": 7652,
      "byrja": 7653,
      "##29": 7654,
      "økonomisk": 7655,
      "sof": 7656,
      "##ärt": 7657,
      "scien": 7658,
      "##ania": 7659,
      "anbe": 7660,
      "status": 7661,
      "presenter": 7662,
      "1880": 7663,
      "växt": 7664,
      "tjeneste": 7665,
      "framleis": 7666,
      "irland": 7667,
      "vissa": 7668,
      "##sens": 7669,
      "##oo": 7670,
      "##dat": 7671,
      "##iteen": 7672,
      "anis": 7673,
      "dim": 7674,
      "##när": 7675,
      "stilling": 7676,
      "##satte": 7677,
      "##snit": 7678,
      "tilfæl": 7679,
      "webb": 7680,
      "forklar": 7681,
      "elis": 7682,
      "styrke": 7683,
      "heter": 7684,
      "##asje": 7685,
      "normal": 7686,
      "##skapen": 7687,
      "##jekter": 7688,
      "otto": 7689,
      "eid": 7690,
      "tilgjen": 7691,
      "tråd": 7692,
      "läng": 7693,
      "kontrakt": 7694,
      "holm": 7695,
      "lyst": 7696,
      "jakob": 7697,
      "sunn": 7698,
      "166": 7699,
      "veit": 7700,
      "##otball": 7701,
      "ønsk": 7702,
      "malmö": 7703,
      "omtrent": 7704,
      "egent": 7705,
      "private": 7706,
      "holder": 7707,
      "##eres": 7708,
      "handlar": 7709,
      "minister": 7710,
      "romerske": 7711,
      "gamla": 7712,
      "##ylland": 7713,
      "oversikt": 7714,
      "##26": 7715,
      "that": 7716,
      "wayback": 7717,
      "##nere": 7718,
      "##isch": 7719,
      "hör": 7720,
      "wind": 7721,
      "bah": 7722,
      "lager": 7723,
      "##lan": 7724,
      "bruge": 7725,
      "##sene": 7726,
      "haug": 7727,
      "præsident": 7728,
      "liban": 7729,
      "tack": 7730,
      "australien": 7731,
      "bevis": 7732,
      "biod": 7733,
      "fur": 7734,
      "##kjent": 7735,
      "kred": 7736,
      "##well": 7737,
      "røde": 7738,
      "bbc": 7739,
      "##leik": 7740,
      "kyr": 7741,
      "##fang": 7742,
      "forbed": 7743,
      "sla": 7744,
      "british": 7745,
      "klima": 7746,
      "##gruppe": 7747,
      "bestemt": 7748,
      "##iella": 7749,
      "##plassen": 7750,
      "wall": 7751,
      "##dalen": 7752,
      "1600": 7753,
      "hil": 7754,
      "{\\": 7755,
      "gall": 7756,
      "delvis": 7757,
      "##sättning": 7758,
      "spelade": 7759,
      "djup": 7760,
      "##andr": 7761,
      "yr": 7762,
      "##win": 7763,
      "esc": 7764,
      "styrk": 7765,
      "anc": 7766,
      "tyd": 7767,
      "hev": 7768,
      "dvs": 7769,
      "systemet": 7770,
      "omfatter": 7771,
      "##prisen": 7772,
      "nest": 7773,
      "naz": 7774,
      "##ksis": 7775,
      "rac": 7776,
      "bøl": 7777,
      "forslag": 7778,
      "interesse": 7779,
      "formand": 7780,
      "regeringen": 7781,
      "##iem": 7782,
      "fru": 7783,
      "lätt": 7784,
      "1895": 7785,
      "##skland": 7786,
      "foreld": 7787,
      "kongelige": 7788,
      "sån": 7789,
      "korre": 7790,
      "sab": 7791,
      "stund": 7792,
      "##enten": 7793,
      "major": 7794,
      "fann": 7795,
      "rut": 7796,
      "##utning": 7797,
      "procent": 7798,
      "rä": 7799,
      "ål": 7800,
      "##iseret": 7801,
      "1896": 7802,
      "flå": 7803,
      "##oides": 7804,
      "164": 7805,
      "handler": 7806,
      "call": 7807,
      "##sbyg": 7808,
      "tex": 7809,
      "##omy": 7810,
      "120": 7811,
      "night": 7812,
      "##gangen": 7813,
      "##inav": 7814,
      "##sman": 7815,
      "dor": 7816,
      "math": 7817,
      "penge": 7818,
      "åtte": 7819,
      "muligt": 7820,
      "finder": 7821,
      "äg": 7822,
      "kampe": 7823,
      "hyd": 7824,
      "tildelt": 7825,
      "valgte": 7826,
      "chic": 7827,
      "människor": 7828,
      "lei": 7829,
      "##bord": 7830,
      "slo": 7831,
      "tæn": 7832,
      "frig": 7833,
      "mail": 7834,
      "kantonen": 7835,
      "##ump": 7836,
      "93": 7837,
      "åren": 7838,
      "oppdaga": 7839,
      "##øret": 7840,
      "armé": 7841,
      "trafikk": 7842,
      "great": 7843,
      "trol": 7844,
      "##dyr": 7845,
      "##gress": 7846,
      "hast": 7847,
      "styrker": 7848,
      "journal": 7849,
      "møn": 7850,
      "white": 7851,
      "nils": 7852,
      "##polit": 7853,
      "##rån": 7854,
      "sus": 7855,
      "##act": 7856,
      "dobbelt": 7857,
      "næring": 7858,
      "kristne": 7859,
      "konstant": 7860,
      "idet": 7861,
      "dans": 7862,
      "strå": 7863,
      "##inte": 7864,
      "finner": 7865,
      "##stället": 7866,
      "projekt": 7867,
      "##ukk": 7868,
      "def": 7869,
      "skand": 7870,
      "religion": 7871,
      "arroyo": 7872,
      "blue": 7873,
      "såsom": 7874,
      "lyn": 7875,
      "vul": 7876,
      "fandt": 7877,
      "ever": 7878,
      "ola": 7879,
      "tunn": 7880,
      "bilde": 7881,
      "young": 7882,
      "##förande": 7883,
      "bilen": 7884,
      "arranger": 7885,
      "forfattar": 7886,
      "\")": 7887,
      "##lene": 7888,
      "1892": 7889,
      "##sburg": 7890,
      "##äft": 7891,
      "##mask": 7892,
      "fon": 7893,
      "##gan": 7894,
      "morg": 7895,
      "västra": 7896,
      "##elv": 7897,
      "bevæ": 7898,
      "fen": 7899,
      "byens": 7900,
      "##jendom": 7901,
      "1886": 7902,
      "ub": 7903,
      "96": 7904,
      "##ssystem": 7905,
      "endte": 7906,
      "alko": 7907,
      "tje": 7908,
      "##iene": 7909,
      "komma": 7910,
      "tidsskrift": 7911,
      "##aust": 7912,
      "hurtigt": 7913,
      "##ppar": 7914,
      "lee": 7915,
      "valde": 7916,
      "kanal": 7917,
      "arist": 7918,
      "luc": 7919,
      "kapit": 7920,
      "bit": 7921,
      "»)": 7922,
      "kompet": 7923,
      "republik": 7924,
      "uav": 7925,
      "##æde": 7926,
      "stöd": 7927,
      "italienske": 7928,
      "civil": 7929,
      "day": 7930,
      "##skamp": 7931,
      "konflikt": 7932,
      "garden": 7933,
      "assoc": 7934,
      "##kre": 7935,
      "eitt": 7936,
      "##talen": 7937,
      "##jerne": 7938,
      "foss": 7939,
      "gånger": 7940,
      "elv": 7941,
      "sker": 7942,
      "doll": 7943,
      "##svä": 7944,
      "##gelsen": 7945,
      "kontra": 7946,
      "manuskr": 7947,
      "1893": 7948,
      "🧑🏼": 7949,
      "🧑🏻": 7950,
      "🧑🏽": 7951,
      "🧑🏿": 7952,
      "🧑🏾": 7953,
      "##jord": 7954,
      "##standen": 7955,
      "integr": 7956,
      "kvinnor": 7957,
      "##stav": 7958,
      "singel": 7959,
      "idé": 7960,
      "herr": 7961,
      "songar": 7962,
      "##ieg": 7963,
      "bent": 7964,
      "kund": 7965,
      "yng": 7966,
      "synt": 7967,
      "europæ": 7968,
      "##sr": 7969,
      "betyr": 7970,
      "##lingar": 7971,
      "vig": 7972,
      "##flyn": 7973,
      "##urer": 7974,
      "olsen": 7975,
      "demon": 7976,
      "forh": 7977,
      "flag": 7978,
      "saker": 7979,
      "temperatur": 7980,
      "populære": 7981,
      "ligesom": 7982,
      "esp": 7983,
      "##eda": 7984,
      "nattflyn": 7985,
      "##ftet": 7986,
      "bulgar": 7987,
      "##isere": 7988,
      "pin": 7989,
      "##valget": 7990,
      "solen": 7991,
      "##hopp": 7992,
      "##onym": 7993,
      "samle": 7994,
      "opnå": 7995,
      "læg": 7996,
      "pak": 7997,
      "##bs": 7998,
      "forel": 7999,
      "läs": 8000,
      "århundrede": 8001,
      "##ison": 8002,
      "månader": 8003,
      "egentlig": 8004,
      "gerne": 8005,
      "arb": 8006,
      "vilka": 8007,
      "1894": 8008,
      "princ": 8009,
      "##gave": 8010,
      "##terne": 8011,
      "##ove": 8012,
      "istället": 8013,
      "club": 8014,
      "betegn": 8015,
      "hjå": 8016,
      "##iversity": 8017,
      "rapporter": 8018,
      "##shold": 8019,
      "##chef": 8020,
      "nej": 8021,
      "ges": 8022,
      "##con": 8023,
      "##ffer": 8024,
      "resultatet": 8025,
      "##svig": 8026,
      "##vit": 8027,
      "suks": 8028,
      "bätt": 8029,
      "##rien": 8030,
      "1860": 8031,
      "instrument": 8032,
      "kommet": 8033,
      "spanske": 8034,
      "truleg": 8035,
      "militære": 8036,
      "æl": 8037,
      "##ulen": 8038,
      "gylden": 8039,
      "##talte": 8040,
      "spillerprofil": 8041,
      "sommaren": 8042,
      "##hengig": 8043,
      "firma": 8044,
      "tager": 8045,
      "framför": 8046,
      "##yen": 8047,
      "damp": 8048,
      "solgt": 8049,
      "brukar": 8050,
      "orkester": 8051,
      "lån": 8052,
      "nar": 8053,
      "kyrkj": 8054,
      "mr": 8055,
      "link": 8056,
      "cur": 8057,
      "selve": 8058,
      "domin": 8059,
      "dö": 8060,
      "##iy": 8061,
      "eric": 8062,
      "offentlige": 8063,
      "##styret": 8064,
      "##leve": 8065,
      "lun": 8066,
      "uppkall": 8067,
      "cand": 8068,
      "##parten": 8069,
      "sommeren": 8070,
      "säsongen": 8071,
      "wa": 8072,
      "wash": 8073,
      "arkitektur": 8074,
      "ray": 8075,
      "##ique": 8076,
      "##lere": 8077,
      "gjeve": 8078,
      "##skolan": 8079,
      "##kkjer": 8080,
      "##ivalen": 8081,
      "bygde": 8082,
      "zealand": 8083,
      "##edom": 8084,
      "##ates": 8085,
      "gäller": 8086,
      "##erede": 8087,
      "##sprung": 8088,
      "##zo": 8089,
      "##bruk": 8090,
      "tider": 8091,
      "folkem": 8092,
      "##kkel": 8093,
      "##djursart": 8094,
      "##kyrk": 8095,
      "næste": 8096,
      "##kår": 8097,
      "församling": 8098,
      "atlant": 8099,
      "blivit": 8100,
      "##ikere": 8101,
      "##ble": 8102,
      "gången": 8103,
      "##pter": 8104,
      "tolk": 8105,
      "tusen": 8106,
      "##ape": 8107,
      "##bara": 8108,
      "prøve": 8109,
      "1870": 8110,
      "##yder": 8111,
      "maur": 8112,
      "##inia": 8113,
      "nøy": 8114,
      "exp": 8115,
      "##rek": 8116,
      "##go": 8117,
      "delta": 8118,
      "master": 8119,
      "lands": 8120,
      "eldste": 8121,
      "##ume": 8122,
      "flott": 8123,
      "bert": 8124,
      "utn": 8125,
      "fis": 8126,
      "##king": 8127,
      "##zon": 8128,
      "kim": 8129,
      "##fort": 8130,
      "forbru": 8131,
      "uppsala": 8132,
      "bättre": 8133,
      "svår": 8134,
      "socken": 8135,
      "##ligare": 8136,
      "##byr": 8137,
      "1887": 8138,
      "afghan": 8139,
      "gunnar": 8140,
      "teik": 8141,
      "desig": 8142,
      "används": 8143,
      "temp": 8144,
      "##omet": 8145,
      "femte": 8146,
      "amerikanska": 8147,
      "gruppa": 8148,
      "##tm": 8149,
      "##stat": 8150,
      "amar": 8151,
      "chris": 8152,
      "trommer": 8153,
      "##cert": 8154,
      "målet": 8155,
      "vent": 8156,
      "bestyr": 8157,
      "høgre": 8158,
      "produktion": 8159,
      "ent": 8160,
      "##skrifter": 8161,
      "##anser": 8162,
      "læs": 8163,
      "##emplar": 8164,
      "dannet": 8165,
      "##liv": 8166,
      "sønder": 8167,
      "publikum": 8168,
      "lid": 8169,
      "ægte": 8170,
      "våren": 8171,
      "gas": 8172,
      "kör": 8173,
      "##aldte": 8174,
      "##kkar": 8175,
      "##nda": 8176,
      "dominer": 8177,
      "tam": 8178,
      "##sende": 8179,
      "miner": 8180,
      "##jing": 8181,
      "advok": 8182,
      "down": 8183,
      "##ji": 8184,
      "facility": 8185,
      "times": 8186,
      "##antar": 8187,
      "1889": 8188,
      "98": 8189,
      "syg": 8190,
      "##ordenen": 8191,
      "fla": 8192,
      "oden": 8193,
      "##ado": 8194,
      "ødel": 8195,
      "##iljø": 8196,
      "piano": 8197,
      "ejer": 8198,
      "roma": 8199,
      "tø": 8200,
      "bronse": 8201,
      "arkiv": 8202,
      "titel": 8203,
      "mobil": 8204,
      "dager": 8205,
      "##unnen": 8206,
      "##dar": 8207,
      "##skraft": 8208,
      "frivil": 8209,
      "cont": 8210,
      "senter": 8211,
      "søndag": 8212,
      "lis": 8213,
      "sto": 8214,
      "good": 8215,
      "sterk": 8216,
      "##byen": 8217,
      "##äster": 8218,
      "spindel": 8219,
      "##splan": 8220,
      "bull": 8221,
      "bilete": 8222,
      "fjordane": 8223,
      "single": 8224,
      "##kap": 8225,
      "johns": 8226,
      "moskva": 8227,
      "mes": 8228,
      "gjev": 8229,
      "hab": 8230,
      "##befolkad": 8231,
      "##ws": 8232,
      "##bridge": 8233,
      "alger": 8234,
      "hundre": 8235,
      "tæt": 8236,
      "parker": 8237,
      "##ppet": 8238,
      "fantastisk": 8239,
      "bebyggelse": 8240,
      "niels": 8241,
      "##col": 8242,
      "oh": 8243,
      "##sområde": 8244,
      "##fag": 8245,
      "##skift": 8246,
      "##ralt": 8247,
      "turn": 8248,
      "dina": 8249,
      "##ennis": 8250,
      "##ateret": 8251,
      "kompos": 8252,
      "romersk": 8253,
      "##ementet": 8254,
      "nemlig": 8255,
      "##bare": 8256,
      "guvern": 8257,
      "hann": 8258,
      "##nev": 8259,
      "biodiversity": 8260,
      "corn": 8261,
      "fader": 8262,
      "1885": 8263,
      "##rä": 8264,
      "stasjon": 8265,
      "såk": 8266,
      "moder": 8267,
      "heb": 8268,
      "semif": 8269,
      "##iction": 8270,
      "gent": 8271,
      "fotballspiller": 8272,
      "bjer": 8273,
      "frågor": 8274,
      "hyl": 8275,
      "##rott": 8276,
      "##ows": 8277,
      "dessutom": 8278,
      "favor": 8279,
      "',": 8280,
      "##xx": 8281,
      "62": 8282,
      "udtry": 8283,
      "##alj": 8284,
      "politiet": 8285,
      "respekt": 8286,
      "utenfor": 8287,
      "##igheten": 8288,
      "##tatt": 8289,
      "##stol": 8290,
      "prosjekt": 8291,
      "koll": 8292,
      "billeder": 8293,
      "allmän": 8294,
      "sesong": 8295,
      "stemmer": 8296,
      "regjering": 8297,
      "kurs": 8298,
      "kryd": 8299,
      "##program": 8300,
      "human": 8301,
      "vinn": 8302,
      "byer": 8303,
      "##ndelag": 8304,
      "rein": 8305,
      "##mas": 8306,
      "høyre": 8307,
      "musikal": 8308,
      "aktivitet": 8309,
      "innenfor": 8310,
      "infl": 8311,
      "##dene": 8312,
      "stammer": 8313,
      "løs": 8314,
      "funktion": 8315,
      "ansatte": 8316,
      "canad": 8317,
      "##grens": 8318,
      "generelt": 8319,
      "öst": 8320,
      "praksis": 8321,
      "wood": 8322,
      "avl": 8323,
      "##yth": 8324,
      "anti": 8325,
      "skule": 8326,
      "167": 8327,
      "prøv": 8328,
      "snabb": 8329,
      "inkludert": 8330,
      "1891": 8331,
      "spilt": 8332,
      "kanada": 8333,
      "##esen": 8334,
      "båt": 8335,
      "##ianske": 8336,
      "våpen": 8337,
      "divisjon": 8338,
      "centrum": 8339,
      "slutningen": 8340,
      "##aksjon": 8341,
      "##spil": 8342,
      "behöver": 8343,
      "gold": 8344,
      "kob": 8345,
      "hvilke": 8346,
      "trøndelag": 8347,
      "².": 8348,
      "befin": 8349,
      "##gjorde": 8350,
      "ivar": 8351,
      "nh": 8352,
      "artene": 8353,
      "school": 8354,
      "bm": 8355,
      "fleir": 8356,
      "##sdal": 8357,
      "sjøl": 8358,
      "udgave": 8359,
      "##spart": 8360,
      "virksomhed": 8361,
      "##iation": 8362,
      "##kul": 8363,
      "rapport": 8364,
      "beliggende": 8365,
      "##kende": 8366,
      "vekt": 8367,
      "sterkt": 8368,
      "övr": 8369,
      "forening": 8370,
      "ambl": 8371,
      "house": 8372,
      "ungdoms": 8373,
      "news": 8374,
      "billboard": 8375,
      "##arm": 8376,
      "släpp": 8377,
      "autom": 8378,
      "trots": 8379,
      "##leder": 8380,
      "##plats": 8381,
      "viktige": 8382,
      "##rika": 8383,
      "derimot": 8384,
      "mär": 8385,
      "kvinne": 8386,
      "##yck": 8387,
      "treng": 8388,
      "##sal": 8389,
      "##bered": 8390,
      "##emed": 8391,
      "250": 8392,
      "muslim": 8393,
      "medel": 8394,
      "##legget": 8395,
      "alkohol": 8396,
      "kant": 8397,
      "1864": 8398,
      "teksten": 8399,
      "##bod": 8400,
      "##uf": 8401,
      "ursprung": 8402,
      "his": 8403,
      "tittel": 8404,
      "midler": 8405,
      "stjärn": 8406,
      "aer": 8407,
      "front": 8408,
      "spesial": 8409,
      "øvrige": 8410,
      "##side": 8411,
      "##egnet": 8412,
      "##etet": 8413,
      "##ugen": 8414,
      "oplev": 8415,
      "berøm": 8416,
      "##eck": 8417,
      "faren": 8418,
      "##avä": 8419,
      "94": 8420,
      "##løb": 8421,
      "##war": 8422,
      "##rus": 8423,
      "##orp": 8424,
      "rese": 8425,
      "kinesisk": 8426,
      "sentrale": 8427,
      "##æb": 8428,
      "hop": 8429,
      "forf": 8430,
      "##osp": 8431,
      "hjør": 8432,
      "hjemmeside": 8433,
      "ått": 8434,
      "voksne": 8435,
      "uppkallad": 8436,
      "##sto": 8437,
      "nm": 8438,
      "##ärna": 8439,
      "sidst": 8440,
      "##hjem": 8441,
      "balt": 8442,
      "mary": 8443,
      "circ": 8444,
      "herre": 8445,
      "håll": 8446,
      "##reille": 8447,
      "helsingfors": 8448,
      "72": 8449,
      "kommunal": 8450,
      "##ito": 8451,
      "oxford": 8452,
      "samfund": 8453,
      "##san": 8454,
      "##olis": 8455,
      "kaldes": 8456,
      "kejser": 8457,
      "##instit": 8458,
      "##departementet": 8459,
      "premier": 8460,
      "ärtväxter": 8461,
      "kunder": 8462,
      "latreille": 8463,
      "washington": 8464,
      "kommuner": 8465,
      "reise": 8466,
      "##sey": 8467,
      "##jinga": 8468,
      "økonomi": 8469,
      "hvilken": 8470,
      "vald": 8471,
      "alene": 8472,
      "700": 8473,
      "benytt": 8474,
      "knud": 8475,
      "vass": 8476,
      "##sliv": 8477,
      "arabisk": 8478,
      "##iserer": 8479,
      "eurovision": 8480,
      "##gelser": 8481,
      ".;": 8482,
      "jos": 8483,
      "rekord": 8484,
      "planer": 8485,
      "äldre": 8486,
      "##ellt": 8487,
      "##opsis": 8488,
      "redus": 8489,
      "kopp": 8490,
      "minutter": 8491,
      "viktigaste": 8492,
      "##ång": 8493,
      "einaste": 8494,
      "##draget": 8495,
      "##ffet": 8496,
      "nordisk": 8497,
      "svarte": 8498,
      "ledet": 8499,
      "styret": 8500,
      "bea": 8501,
      "lage": 8502,
      "igennem": 8503,
      "ældre": 8504,
      "formann": 8505,
      "##strøm": 8506,
      "##edon": 8507,
      "##ærke": 8508,
      "jones": 8509,
      "odense": 8510,
      "ført": 8511,
      "syk": 8512,
      "endelig": 8513,
      "fine": 8514,
      "##tast": 8515,
      "vilhelm": 8516,
      "terror": 8517,
      "måned": 8518,
      "gla": 8519,
      "konserv": 8520,
      "##bergs": 8521,
      "##giver": 8522,
      "digit": 8523,
      ".).": 8524,
      "##ous": 8525,
      "columb": 8526,
      "konstnär": 8527,
      "kvinde": 8528,
      "dej": 8529,
      "läg": 8530,
      "yderligere": 8531,
      "dun": 8532,
      "bonde": 8533,
      "##kret": 8534,
      "97": 8535,
      "##sken": 8536,
      "angeles": 8537,
      "cru": 8538,
      "##lende": 8539,
      "##ques": 8540,
      "kontor": 8541,
      "##ømmet": 8542,
      "obefolkad": 8543,
      "blan": 8544,
      "utfor": 8545,
      "nuværende": 8546,
      "holland": 8547,
      "stemme": 8548,
      "##väg": 8549,
      "##tekn": 8550,
      "class": 8551,
      "barra": 8552,
      "##zy": 8553,
      "fn": 8554,
      "##cup": 8555,
      "brig": 8556,
      "äm": 8557,
      "##ebook": 8558,
      "invol": 8559,
      "##fru": 8560,
      "billed": 8561,
      "run": 8562,
      "vestlige": 8563,
      "ordenen": 8564,
      "##aea": 8565,
      "gymnas": 8566,
      "water": 8567,
      "avis": 8568,
      "sad": 8569,
      "##chn": 8570,
      "##...": 8571,
      "indeholder": 8572,
      "ärtväxtart": 8573,
      "stockholms": 8574,
      "skriven": 8575,
      "##bal": 8576,
      "##krigen": 8577,
      "flyt": 8578,
      "rekl": 8579,
      "sammenlig": 8580,
      "öppet": 8581,
      "##do": 8582,
      "por": 8583,
      "heid": 8584,
      "##stendig": 8585,
      "renn": 8586,
      "##ogen": 8587,
      "mente": 8588,
      "indien": 8589,
      "skade": 8590,
      "blomster": 8591,
      "1888": 8592,
      "##medalje": 8593,
      "hk": 8594,
      "lavet": 8595,
      "##mad": 8596,
      "brown": 8597,
      "ovan": 8598,
      ".:": 8599,
      "mina": 8600,
      "sankt": 8601,
      "1802": 8602,
      "##fir": 8603,
      "modell": 8604,
      "lade": 8605,
      "alan": 8606,
      "redaktør": 8607,
      "myt": 8608,
      "cha": 8609,
      "jørgen": 8610,
      "##ætte": 8611,
      "##mun": 8612,
      "##fød": 8613,
      "inge": 8614,
      "rim": 8615,
      "##vernem": 8616,
      "anmel": 8617,
      "typer": 8618,
      "##but": 8619,
      "separ": 8620,
      "##olia": 8621,
      "##dern": 8622,
      "##ittee": 8623,
      "avrinning": 8624,
      "geografi": 8625,
      "1884": 8626,
      "klimat": 8627,
      "föl": 8628,
      "fx": 8629,
      "meng": 8630,
      "fisker": 8631,
      "ibland": 8632,
      "##jän": 8633,
      "##posten": 8634,
      "sjukdom": 8635,
      "brø": 8636,
      "salg": 8637,
      "använda": 8638,
      "##jørn": 8639,
      "##skaper": 8640,
      "##mannen": 8641,
      "##skov": 8642,
      "europeiske": 8643,
      "leiar": 8644,
      "company": 8645,
      "administrasjon": 8646,
      "näm": 8647,
      "forbund": 8648,
      "##viser": 8649,
      "##verka": 8650,
      "##elege": 8651,
      "løn": 8652,
      "ög": 8653,
      "##öst": 8654,
      "dets": 8655,
      "tycker": 8656,
      "basen": 8657,
      "##ness": 8658,
      "displa": 8659,
      "aalborg": 8660,
      "argentina": 8661,
      "innbyggere": 8662,
      "odd": 8663,
      "##esjon": 8664,
      "konger": 8665,
      "hovudsak": 8666,
      "##ält": 8667,
      "committee": 8668,
      "undervisning": 8669,
      "yt": 8670,
      "##skilde": 8671,
      "mannen": 8672,
      "##deligt": 8673,
      "uh": 8674,
      "förekommer": 8675,
      "fund": 8676,
      "skottland": 8677,
      "junior": 8678,
      "cookies": 8679,
      "fundet": 8680,
      "##holdet": 8681,
      "vatn": 8682,
      "##ome": 8683,
      "andré": 8684,
      "kome": 8685,
      "framtid": 8686,
      "fed": 8687,
      "##mond": 8688,
      "dæ": 8689,
      "brian": 8690,
      "aktiviteter": 8691,
      "##90": 8692,
      "medverk": 8693,
      "delstat": 8694,
      "damer": 8695,
      "raskt": 8696,
      "##pat": 8697,
      "motstand": 8698,
      "köp": 8699,
      "ug": 8700,
      "societ": 8701,
      "norden": 8702,
      "hæren": 8703,
      "rit": 8704,
      "sound": 8705,
      "kæm": 8706,
      "##ceph": 8707,
      "##løp": 8708,
      "##oidea": 8709,
      "etablert": 8710,
      "læng": 8711,
      "##agne": 8712,
      "längre": 8713,
      "goog": 8714,
      "klim": 8715,
      "##hamn": 8716,
      "liknande": 8717,
      "##ives": 8718,
      "banen": 8719,
      "opprør": 8720,
      "##vikling": 8721,
      "fyrst": 8722,
      "past": 8723,
      "parall": 8724,
      "vinteren": 8725,
      "rele": 8726,
      "##-)": 8727,
      "nomin": 8728,
      "interesser": 8729,
      "##etus": 8730,
      "##chester": 8731,
      "##ulus": 8732,
      "uans": 8733,
      "utseende": 8734,
      "prov": 8735,
      "##ipe": 8736,
      "rette": 8737,
      "reiste": 8738,
      "##gaste": 8739,
      "dum": 8740,
      "chile": 8741,
      "indbyggere": 8742,
      "##usal": 8743,
      "hitler": 8744,
      "visse": 8745,
      "football": 8746,
      "succes": 8747,
      "##inner": 8748,
      "scar": 8749,
      "##æs": 8750,
      "facebook": 8751,
      "katolske": 8752,
      "ernst": 8753,
      "petter": 8754,
      "oplysninger": 8755,
      "selvom": 8756,
      "##äkt": 8757,
      "gill": 8758,
      "søra": 8759,
      "ejendom": 8760,
      "##ønt": 8761,
      "mekan": 8762,
      "christop": 8763,
      "münchen": 8764,
      "bygninger": 8765,
      "##apt": 8766,
      "##fald": 8767,
      "##betal": 8768,
      "california": 8769,
      "okk": 8770,
      "dejt": 8771,
      "tå": 8772,
      "little": 8773,
      "kaldet": 8774,
      "jakt": 8775,
      "synd": 8776,
      "ment": 8777,
      "slog": 8778,
      "oppl": 8779,
      "foren": 8780,
      "##acia": 8781,
      "college": 8782,
      "##orth": 8783,
      "rent": 8784,
      "##erad": 8785,
      "##uba": 8786,
      "kryss": 8787,
      "prix": 8788,
      "ons": 8789,
      "utanför": 8790,
      "helg": 8791,
      "hest": 8792,
      "##instru": 8793,
      "##ordning": 8794,
      "modstand": 8795,
      "initi": 8796,
      "ledelse": 8797,
      "väldigt": 8798,
      "##rim": 8799,
      "engelska": 8800,
      "fus": 8801,
      "##yret": 8802,
      "doc": 8803,
      "udnæv": 8804,
      "efterfølgende": 8805,
      "dia": 8806,
      "gifte": 8807,
      "##lerne": 8808,
      "tilhører": 8809,
      "världen": 8810,
      "##ibliote": 8811,
      "##ften": 8812,
      "feng": 8813,
      "61": 8814,
      "drog": 8815,
      "1881": 8816,
      "##==": 8817,
      "guvernem": 8818,
      "lika": 8819,
      "sammens": 8820,
      "wer": 8821,
      "adgang": 8822,
      "museet": 8823,
      "##ege": 8824,
      "anat": 8825,
      "asia": 8826,
      "kolle": 8827,
      "hart": 8828,
      "original": 8829,
      "##uda": 8830,
      "##havn": 8831,
      "møtte": 8832,
      "begyndelsen": 8833,
      "inc": 8834,
      "turen": 8835,
      "brittisk": 8836,
      "sige": 8837,
      "avdeling": 8838,
      "discover": 8839,
      "bryg": 8840,
      "halde": 8841,
      "##36": 8842,
      "##35": 8843,
      "nø": 8844,
      "has": 8845,
      "kok": 8846,
      "##adsen": 8847,
      "arena": 8848,
      "grader": 8849,
      "chicago": 8850,
      "##rys": 8851,
      "east": 8852,
      "deltak": 8853,
      "klarte": 8854,
      "wolf": 8855,
      "artikel": 8856,
      "rollen": 8857,
      "##ét": 8858,
      "produsert": 8859,
      "tolv": 8860,
      "##ippe": 8861,
      "nasjonale": 8862,
      "fulgte": 8863,
      "ss": 8864,
      "esk": 8865,
      "namngje": 8866,
      "##rost": 8867,
      "france": 8868,
      "bygningen": 8869,
      "ambass": 8870,
      "bergig": 8871,
      "internationale": 8872,
      "artikkel": 8873,
      "group": 8874,
      "medis": 8875,
      "opført": 8876,
      "kveld": 8877,
      "solo": 8878,
      "lykk": 8879,
      "kendte": 8880,
      "##grupper": 8881,
      "minutt": 8882,
      "##historie": 8883,
      "invester": 8884,
      "konkurran": 8885,
      "dahl": 8886,
      "konkurr": 8887,
      "##cks": 8888,
      "##farande": 8889,
      "øvre": 8890,
      "##ydd": 8891,
      "barcel": 8892,
      "##iten": 8893,
      "samarbejde": 8894,
      "##keb": 8895,
      "amat": 8896,
      "##riske": 8897,
      "kard": 8898,
      "fry": 8899,
      "hag": 8900,
      "##idd": 8901,
      "utdanning": 8902,
      "kulle": 8903,
      "1865": 8904,
      "festival": 8905,
      "##ætter": 8906,
      "dynast": 8907,
      "socialdem": 8908,
      "abd": 8909,
      "ross": 8910,
      "funnet": 8911,
      "1850": 8912,
      "lil": 8913,
      "##øder": 8914,
      "metall": 8915,
      "nødvendig": 8916,
      "miniat": 8917,
      "##breen": 8918,
      "selskab": 8919,
      "irak": 8920,
      "##cess": 8921,
      "##wig": 8922,
      "##ellig": 8923,
      "##isse": 8924,
      "flam": 8925,
      "bydel": 8926,
      "knyttet": 8927,
      "match": 8928,
      "tang": 8929,
      "##iaceae": 8930,
      "iuc": 8931,
      "visar": 8932,
      "utviklet": 8933,
      "afghanistan": 8934,
      "##veien": 8935,
      "##slin": 8936,
      "arv": 8937,
      "1878": 8938,
      "science": 8939,
      "nak": 8940,
      "##kin": 8941,
      "korte": 8942,
      "##kost": 8943,
      "syl": 8944,
      "##kysten": 8945,
      "tittelen": 8946,
      "##hål": 8947,
      "givet": 8948,
      "søster": 8949,
      "græn": 8950,
      "steph": 8951,
      "djur": 8952,
      "ler": 8953,
      "##gl": 8954,
      "dokumenter": 8955,
      "##ilis": 8956,
      "populær": 8957,
      "##arth": 8958,
      "allian": 8959,
      "hinanden": 8960,
      "bestäm": 8961,
      "kammer": 8962,
      "spred": 8963,
      "skulpt": 8964,
      "nordøst": 8965,
      "bengt": 8966,
      "lengre": 8967,
      "##emark": 8968,
      "71": 8969,
      "##nene": 8970,
      "slutet": 8971,
      "bath": 8972,
      "trafik": 8973,
      "bibliotek": 8974,
      "orgel": 8975,
      "##zer": 8976,
      "sko": 8977,
      "baby": 8978,
      "försvar": 8979,
      "##smand": 8980,
      "libanon": 8981,
      "trods": 8982,
      "##anna": 8983,
      "iucn": 8984,
      "instruktør": 8985,
      "##no": 8986,
      "lie": 8987,
      "##eten": 8988,
      "samla": 8989,
      "prop": 8990,
      "street": 8991,
      "beveg": 8992,
      "##føres": 8993,
      "1882": 8994,
      "reform": 8995,
      "utgang": 8996,
      "##eus": 8997,
      "##sled": 8998,
      "torsdag": 8999,
      "##offer": 9000,
      "elisabeth": 9001,
      "##værende": 9002,
      "rigtig": 9003,
      "##nav": 9004,
      "månad": 9005,
      "##isar": 9006,
      "1883": 9007,
      "1879": 9008,
      "funn": 9009,
      "##iral": 9010,
      "nordaust": 9011,
      "nästan": 9012,
      "heinrich": 9013,
      "ay": 9014,
      "tips": 9015,
      "##ev": 9016,
      "eksper": 9017,
      "tillf": 9018,
      "nør": 9019,
      "snø": 9020,
      "iran": 9021,
      "dyb": 9022,
      "overfor": 9023,
      "rejse": 9024,
      "##kas": 9025,
      "nærheden": 9026,
      "arbete": 9027,
      "##pid": 9028,
      "anven": 9029,
      "##taler": 9030,
      "personlig": 9031,
      "bin": 9032,
      "##sagt": 9033,
      "##aph": 9034,
      "##stam": 9035,
      "omfattende": 9036,
      "observatoriet": 9037,
      "##melse": 9038,
      "rekkje": 9039,
      "utanfor": 9040,
      "##ktar": 9041,
      "medlemmar": 9042,
      "vanskelig": 9043,
      "cs": 9044,
      "sekund": 9045,
      "guide": 9046,
      "videnskab": 9047,
      "##usalem": 9048,
      "##lia": 9049,
      "fat": 9050,
      "##umen": 9051,
      "overra": 9052,
      "plate": 9053,
      "musikken": 9054,
      "elektrisk": 9055,
      "##forbund": 9056,
      "publicer": 9057,
      "##arta": 9058,
      "virke": 9059,
      "letter": 9060,
      "trop": 9061,
      "##ssk": 9062,
      "slot": 9063,
      "østr": 9064,
      "dru": 9065,
      "herred": 9066,
      "##knaden": 9067,
      "regi": 9068,
      "innehål": 9069,
      "##ulter": 9070,
      "##rater": 9071,
      "1848": 9072,
      "säga": 9073,
      "elles": 9074,
      "##gården": 9075,
      "pse": 9076,
      "japansk": 9077,
      "##veks": 9078,
      "astrag": 9079,
      "91": 9080,
      "anvendes": 9081,
      "##gers": 9082,
      "løp": 9083,
      "ude": 9084,
      "edvard": 9085,
      "staf": 9086,
      "rio": 9087,
      "baseret": 9088,
      "klassisk": 9089,
      "hellas": 9090,
      "lese": 9091,
      "værd": 9092,
      "##øp": 9093,
      "##ierna": 9094,
      "held": 9095,
      "ungefär": 9096,
      "biller": 9097,
      "##anus": 9098,
      "suksess": 9099,
      "##iveau": 9100,
      "##awa": 9101,
      "##mede": 9102,
      "studenter": 9103,
      "'.": 9104,
      "pengar": 9105,
      "##öll": 9106,
      "stiftet": 9107,
      "##urus": 9108,
      "viet": 9109,
      "##sav": 9110,
      "##arten": 9111,
      "##stud": 9112,
      "##tro": 9113,
      "osv": 9114,
      "brook": 9115,
      "##ög": 9116,
      "filmer": 9117,
      "hennar": 9118,
      "##sons": 9119,
      "mindst": 9120,
      "føde": 9121,
      "##tein": 9122,
      "finansier": 9123,
      "ånd": 9124,
      "astragalus": 9125,
      "björn": 9126,
      "##ffa": 9127,
      "tyska": 9128,
      "fos": 9129,
      "gate": 9130,
      "utstyr": 9131,
      "foræl": 9132,
      "frukt": 9133,
      "batter": 9134,
      "##igheden": 9135,
      "guds": 9136,
      "1814": 9137,
      "##ament": 9138,
      "nikola": 9139,
      "pav": 9140,
      "ære": 9141,
      "sjæl": 9142,
      "grønland": 9143,
      "krev": 9144,
      "public": 9145,
      "sats": 9146,
      "fortsätt": 9147,
      "1866": 9148,
      "##gør": 9149,
      "jerusalem": 9150,
      "gustaf": 9151,
      "underfamilien": 9152,
      "##rud": 9153,
      "nordöstra": 9154,
      "bloggen": 9155,
      "1875": 9156,
      "##bach": 9157,
      "bast": 9158,
      "##køb": 9159,
      "##ordet": 9160,
      "##fs": 9161,
      "##spunktet": 9162,
      "##ynt": 9163,
      "##uds": 9164,
      "##ki": 9165,
      "imod": 9166,
      "##brud": 9167,
      "cambridge": 9168,
      "##sti": 9169,
      "ansl": 9170,
      "spelet": 9171,
      "trur": 9172,
      "##urat": 9173,
      "förl": 9174,
      "hod": 9175,
      "varer": 9176,
      "opdag": 9177,
      "turneringen": 9178,
      "ær": 9179,
      "##namn": 9180,
      "##ensjon": 9181,
      "##æder": 9182,
      "jurid": 9183,
      "ishockey": 9184,
      "##skij": 9185,
      "##beg": 9186,
      "villa": 9187,
      "##varer": 9188,
      "##ador": 9189,
      "fabr": 9190,
      "##älj": 9191,
      "##struktur": 9192,
      "omset": 9193,
      "country": 9194,
      "maskin": 9195,
      "##oft": 9196,
      "computer": 9197,
      "##ksem": 9198,
      "vinner": 9199,
      "omd": 9200,
      "følgje": 9201,
      "oven": 9202,
      "oms": 9203,
      "undervis": 9204,
      "diver": 9205,
      "skö": 9206,
      "visa": 9207,
      "%.": 9208,
      "reguler": 9209,
      "##innare": 9210,
      "kjenner": 9211,
      "protest": 9212,
      "##shol": 9213,
      "avsnitt": 9214,
      "##strand": 9215,
      "81": 9216,
      "##ylla": 9217,
      "##ahl": 9218,
      "##chsen": 9219,
      "hjul": 9220,
      "##ission": 9221,
      "søraust": 9222,
      "stål": 9223,
      "##ständ": 9224,
      "##iot": 9225,
      "begiven": 9226,
      "floden": 9227,
      "ännu": 9228,
      "##jd": 9229,
      "##urch": 9230,
      "lignende": 9231,
      "tir": 9232,
      "ali": 9233,
      "främst": 9234,
      "##vald": 9235,
      "olje": 9236,
      "spillere": 9237,
      "varför": 9238,
      "riktning": 9239,
      "##ården": 9240,
      "henri": 9241,
      "##ragt": 9242,
      "1871": 9243,
      "fantas": 9244,
      "##39": 9245,
      "fald": 9246,
      "##inna": 9247,
      "##asa": 9248,
      "sjön": 9249,
      "godk": 9250,
      "bogen": 9251,
      "vei": 9252,
      "innebär": 9253,
      "##estad": 9254,
      "golf": 9255,
      "grunnleg": 9256,
      "fortfarande": 9257,
      "##sels": 9258,
      "barb": 9259,
      "fodboldspiller": 9260,
      "klat": 9261,
      "christopher": 9262,
      "viking": 9263,
      "1877": 9264,
      "##ystyle": 9265,
      "miniatyr": 9266,
      "##jor": 9267,
      "##iserar": 9268,
      "1863": 9269,
      "dårlig": 9270,
      "##foto": 9271,
      "stry": 9272,
      "##etts": 9273,
      "dramat": 9274,
      "språket": 9275,
      "##rey": 9276,
      "inndel": 9277,
      "##tering": 9278,
      "##34": 9279,
      "##eslag": 9280,
      "kræ": 9281,
      "uaf": 9282,
      "ås": 9283,
      "##rof": 9284,
      "imper": 9285,
      "https": 9286,
      "papir": 9287,
      "google": 9288,
      "##øte": 9289,
      "visst": 9290,
      "anim": 9291,
      "total": 9292,
      "pedersen": 9293,
      "erhverv": 9294,
      "free": 9295,
      "ryss": 9296,
      "##linger": 9297,
      "kär": 9298,
      "dyre": 9299,
      "##ös": 9300,
      "bund": 9301,
      "miljö": 9302,
      "##ussen": 9303,
      "##odor": 9304,
      "##sætning": 9305,
      "instrueret": 9306,
      "##høj": 9307,
      "teknisk": 9308,
      "##ales": 9309,
      "jule": 9310,
      "lengd": 9311,
      "kær": 9312,
      "##idens": 9313,
      "##shire": 9314,
      "displaystyle": 9315,
      "stykke": 9316,
      "hyg": 9317,
      "barcelona": 9318,
      "börjar": 9319,
      "##amn": 9320,
      "road": 9321,
      "##ston": 9322,
      "##ksjonen": 9323,
      "##ungen": 9324,
      "ce": 9325,
      "antall": 9326,
      "##hagen": 9327,
      "##istent": 9328,
      "law": 9329,
      "arrangert": 9330,
      "ost": 9331,
      "nåede": 9332,
      "keiser": 9333,
      "1862": 9334,
      "##ønne": 9335,
      "discovery": 9336,
      "society": 9337,
      "miljoner": 9338,
      "manus": 9339,
      "##amet": 9340,
      "batt": 9341,
      "##rod": 9342,
      "##spor": 9343,
      "##lat": 9344,
      "''),": 9345,
      "materiale": 9346,
      "##iper": 9347,
      "budd": 9348,
      "tilskuere": 9349,
      "williams": 9350,
      "jane": 9351,
      "1869": 9352,
      "##chi": 9353,
      "franska": 9354,
      "heldt": 9355,
      "##äss": 9356,
      "trygg": 9357,
      "##esc": 9358,
      "fremst": 9359,
      "pierre": 9360,
      "##rapp": 9361,
      "bjerg": 9362,
      "skandinav": 9363,
      "##ining": 9364,
      "diale": 9365,
      "##bur": 9366,
      "##atning": 9367,
      "angreb": 9368,
      "jernban": 9369,
      "andersson": 9370,
      "##fred": 9371,
      "indian": 9372,
      "anses": 9373,
      "dør": 9374,
      "##mær": 9375,
      "##ube": 9376,
      "tillverk": 9377,
      "prosjektet": 9378,
      "benyttet": 9379,
      "900": 9380,
      "##ugt": 9381,
      "sydlige": 9382,
      "ot": 9383,
      "skatte": 9384,
      "växtlighet": 9385,
      "110": 9386,
      "møter": 9387,
      "##delingen": 9388,
      "##samlingen": 9389,
      "kristiania": 9390,
      "##sag": 9391,
      "##adser": 9392,
      "##kunst": 9393,
      "##gi": 9394,
      "##best": 9395,
      "grunnlagt": 9396,
      "##sko": 9397,
      "brons": 9398,
      "##elli": 9399,
      "slesvig": 9400,
      "børne": 9401,
      "##alp": 9402,
      "dyl": 9403,
      "##egård": 9404,
      "##ören": 9405,
      "använder": 9406,
      "portugal": 9407,
      "harris": 9408,
      "##ernes": 9409,
      "##parti": 9410,
      "forretning": 9411,
      "syke": 9412,
      "himmel": 9413,
      "källa": 9414,
      "mørk": 9415,
      "sor": 9416,
      "växtart": 9417,
      "##dommer": 9418,
      "virg": 9419,
      "##ikring": 9420,
      "lege": 9421,
      "mix": 9422,
      "ettersom": 9423,
      "brasilien": 9424,
      "kommentarer": 9425,
      "høgaste": 9426,
      "ress": 9427,
      "##vind": 9428,
      "jr": 9429,
      "##biner": 9430,
      "stjerne": 9431,
      "##eliste": 9432,
      "udgav": 9433,
      "systematisk": 9434,
      "ran": 9435,
      "##løst": 9436,
      "feder": 9437,
      "kors": 9438,
      "aqu": 9439,
      "##fugl": 9440,
      "pseud": 9441,
      "research": 9442,
      "##mare": 9443,
      "spl": 9444,
      "##sprogram": 9445,
      "kone": 9446,
      "utvikla": 9447,
      "##köping": 9448,
      "difor": 9449,
      "1874": 9450,
      "##fan": 9451,
      "ala": 9452,
      "virksomheder": 9453,
      "knytt": 9454,
      "server": 9455,
      "parad": 9456,
      "130": 9457,
      "innehåll": 9458,
      "oftast": 9459,
      "##stillet": 9460,
      "hvid": 9461,
      "##edr": 9462,
      "##bygning": 9463,
      "agr": 9464,
      "nordland": 9465,
      "serb": 9466,
      "bibli": 9467,
      "storting": 9468,
      "millionar": 9469,
      "contest": 9470,
      "samlede": 9471,
      "forvent": 9472,
      "gjelder": 9473,
      "##rence": 9474,
      "##ello": 9475,
      "artikler": 9476,
      "takt": 9477,
      "indenfor": 9478,
      "medier": 9479,
      "utgiv": 9480,
      "tilfælde": 9481,
      "===": 9482,
      "##albumet": 9483,
      "auster": 9484,
      "bedst": 9485,
      "##sla": 9486,
      "vendte": 9487,
      "##akk": 9488,
      "hammer": 9489,
      "sagde": 9490,
      "gabri": 9491,
      "guitar": 9492,
      "##leiken": 9493,
      "155": 9494,
      "##ået": 9495,
      "advokat": 9496,
      "1861": 9497,
      "liksom": 9498,
      "trum": 9499,
      "attende": 9500,
      "planter": 9501,
      "satell": 9502,
      "victoria": 9503,
      "færø": 9504,
      "wilson": 9505,
      "drive": 9506,
      "jub": 9507,
      "dekor": 9508,
      "vegvesen": 9509,
      "burde": 9510,
      "##rette": 9511,
      "##ancer": 9512,
      "erbj": 9513,
      "förb": 9514,
      "this": 9515,
      "gärna": 9516,
      "tus": 9517,
      "##38": 9518,
      "##emann": 9519,
      "##elly": 9520,
      "sovjetiske": 9521,
      "1876": 9522,
      "christensen": 9523,
      "partner": 9524,
      "legge": 9525,
      "buset": 9526,
      "##senteret": 9527,
      "konfer": 9528,
      "tas": 9529,
      "luther": 9530,
      "isol": 9531,
      "teor": 9532,
      "länder": 9533,
      "cost": 9534,
      "##iget": 9535,
      "veks": 9536,
      "spen": 9537,
      "såd": 9538,
      "konsekvens": 9539,
      "##ndal": 9540,
      "andrew": 9541,
      "intress": 9542,
      "hord": 9543,
      "personlige": 9544,
      "1872": 9545,
      "utval": 9546,
      "tross": 9547,
      "sår": 9548,
      "##cr": 9549,
      "##ogon": 9550,
      "biografi": 9551,
      "lew": 9552,
      "riktigt": 9553,
      "cole": 9554,
      "johnson": 9555,
      "##ulle": 9556,
      "##elde": 9557,
      "peak": 9558,
      "1868": 9559,
      "##endige": 9560,
      "betale": 9561,
      "##ykke": 9562,
      "regiss": 9563,
      "1867": 9564,
      "gyldendal": 9565,
      "##olo": 9566,
      "erfaring": 9567,
      "##iär": 9568,
      "långt": 9569,
      "##ische": 9570,
      "##ættelse": 9571,
      "diskuter": 9572,
      "##lagde": 9573,
      "santa": 9574,
      "159": 9575,
      "fremtid": 9576,
      "##uck": 9577,
      "##usive": 9578,
      "tilsvarende": 9579,
      "lor": 9580,
      "##rund": 9581,
      "rak": 9582,
      "beck": 9583,
      "øje": 9584,
      "##delsen": 9585,
      "##kvarter": 9586,
      "##liggende": 9587,
      "därmed": 9588,
      "key": 9589,
      "paa": 9590,
      "##ytning": 9591,
      "danna": 9592,
      "##center": 9593,
      "territor": 9594,
      "samarbet": 9595,
      "##handler": 9596,
      "##stedt": 9597,
      "betydelig": 9598,
      "##ulata": 9599,
      "##iers": 9600,
      "landskapet": 9601,
      "hentet": 9602,
      "##elden": 9603,
      "klipp": 9604,
      "opprinnelig": 9605,
      "##atum": 9606,
      "anledning": 9607,
      "##xa": 9608,
      "skud": 9609,
      "sitter": 9610,
      "edu": 9611,
      "hob": 9612,
      "särskilt": 9613,
      "##frå": 9614,
      "meister": 9615,
      "kongens": 9616,
      "nig": 9617,
      "##iber": 9618,
      "##klass": 9619,
      "heg": 9620,
      "grun": 9621,
      "spre": 9622,
      "østrig": 9623,
      "creek": 9624,
      "officer": 9625,
      "156": 9626,
      "rasmussen": 9627,
      "tanke": 9628,
      "faste": 9629,
      "flo": 9630,
      "##see": 9631,
      "vejen": 9632,
      "medal": 9633,
      "utvid": 9634,
      "first": 9635,
      "##trykk": 9636,
      "fabrik": 9637,
      "gun": 9638,
      "interess": 9639,
      "musk": 9640,
      "naturen": 9641,
      "ridder": 9642,
      "##nde": 9643,
      "smak": 9644,
      "barna": 9645,
      "tromsø": 9646,
      "##endet": 9647,
      "arts": 9648,
      "obser": 9649,
      "movie": 9650,
      "das": 9651,
      "fungerer": 9652,
      "##ines": 9653,
      "nedre": 9654,
      "ving": 9655,
      "flest": 9656,
      "kirker": 9657,
      "##».": 9658,
      "##skib": 9659,
      "scor": 9660,
      "nominer": 9661,
      "opphavleg": 9662,
      "##klimat": 9663,
      "sæl": 9664,
      "##ylor": 9665,
      "##utan": 9666,
      "artiller": 9667,
      "revolusjon": 9668,
      "zo": 9669,
      "##ires": 9670,
      "dokumentar": 9671,
      "##gjande": 9672,
      "element": 9673,
      "##ilia": 9674,
      "islands": 9675,
      "lilla": 9676,
      "##like": 9677,
      "##::": 9678,
      "##serien": 9679,
      "vetenskap": 9680,
      "roger": 9681,
      "za": 9682,
      "##förs": 9683,
      "mening": 9684,
      "##äcker": 9685,
      "1873": 9686,
      "porno": 9687,
      "overlev": 9688,
      "bev": 9689,
      "##asj": 9690,
      "ip": 9691,
      "##ria": 9692,
      "##kh": 9693,
      "##uge": 9694,
      "trin": 9695,
      "wales": 9696,
      "##skriget": 9697,
      "savann": 9698,
      "albummet": 9699,
      "1857": 9700,
      "acro": 9701,
      "ordförande": 9702,
      "dekk": 9703,
      "play": 9704,
      "æld": 9705,
      "##zi": 9706,
      "mikro": 9707,
      "wester": 9708,
      "##ländsk": 9709,
      "gonger": 9710,
      "manuskript": 9711,
      "asc": 9712,
      "forum": 9713,
      "##trol": 9714,
      "ryska": 9715,
      "prom": 9716,
      "størrelse": 9717,
      "##rådte": 9718,
      "refle": 9719,
      "1859": 9720,
      "europæiske": 9721,
      "årsak": 9722,
      "get": 9723,
      "omfattar": 9724,
      "franç": 9725,
      "hosp": 9726,
      "vg": 9727,
      "##round": 9728,
      "flytte": 9729,
      "##nelsen": 9730,
      "akkurat": 9731,
      "betre": 9732,
      "##ror": 9733,
      "##eledes": 9734,
      "atmos": 9735,
      "##rust": 9736,
      "næst": 9737,
      "fritt": 9738,
      "'').": 9739,
      "sikkerhed": 9740,
      "##museum": 9741,
      "svend": 9742,
      "##amerik": 9743,
      "magt": 9744,
      "landskap": 9745,
      "who": 9746,
      "kå": 9747,
      "##ão": 9748,
      "hovedstad": 9749,
      "rabat": 9750,
      "##spinnare": 9751,
      "järn": 9752,
      "##px": 9753,
      "sjølve": 9754,
      "skiv": 9755,
      "present": 9756,
      "##**": 9757,
      "##row": 9758,
      "pi": 9759,
      "##klubb": 9760,
      "poul": 9761,
      "klaver": 9762,
      "german": 9763,
      "##rian": 9764,
      "initiativ": 9765,
      "##egen": 9766,
      "romanen": 9767,
      "##jylland": 9768,
      "##vejen": 9769,
      "franz": 9770,
      "elsker": 9771,
      "##øyt": 9772,
      "arabiske": 9773,
      "organisation": 9774,
      "##inand": 9775,
      "eventyr": 9776,
      "##nte": 9777,
      "silver": 9778,
      "jobbet": 9779,
      "bestående": 9780,
      "buskland": 9781,
      "##ely": 9782,
      "##ktionen": 9783,
      "amal": 9784,
      "levde": 9785,
      "##ænger": 9786,
      "drev": 9787,
      "framgång": 9788,
      "##ship": 9789,
      "bøger": 9790,
      "ytterligare": 9791,
      "busklandskap": 9792,
      "proces": 9793,
      "##ason": 9794,
      "verket": 9795,
      "heart": 9796,
      "##uster": 9797,
      "fysisk": 9798,
      "##eler": 9799,
      "##skola": 9800,
      "stone": 9801,
      "finsk": 9802,
      "begrav": 9803,
      "92": 9804,
      "foresl": 9805,
      "##aktig": 9806,
      "mör": 9807,
      "hovedsak": 9808,
      "fien": 9809,
      "##bør": 9810,
      "ankl": 9811,
      "##kins": 9812,
      "##nummer": 9813,
      "skick": 9814,
      "##urd": 9815,
      "jenter": 9816,
      "sygdom": 9817,
      "bæ": 9818,
      "senaste": 9819,
      "grensa": 9820,
      "##oy": 9821,
      "dream": 9822,
      "skill": 9823,
      "head": 9824,
      "starter": 9825,
      "verksamhet": 9826,
      "##gas": 9827,
      "ändå": 9828,
      "forår": 9829,
[...]
