{
  "version": "1.0",
  "truncation": null,
  "padding": null,
  "added_tokens": [
    {
      "id": 0,
      "special": true,
      "content": "[PAD]",
      "single_word": false,
      "lstrip": false,
      "rstrip": false,
      "normalized": false
    },
    {
      "id": 1,
      "special": true,
      "content": "[UNK]",
      "single_word": false,
      "lstrip": false,
      "rstrip": false,
      "normalized": false
    },
    {
      "id": 2,
      "special": true,
      "content": "[CLS]",
      "single_word": false,
      "lstrip": false,
      "rstrip": false,
      "normalized": false
    },
    {
      "id": 3,
      "special": true,
      "content": "[SEP]",
      "single_word": false,
      "lstrip": false,
      "rstrip": false,
      "normalized": false
    },
    {
      "id": 4,
      "special": true,
      "content": "[MASK]",
      "single_word": false,
      "lstrip": false,
      "rstrip": false,
      "normalized": false
    }
  ],
  "normalizer": null,
  "pre_tokenizer": {
    "type": "Whitespace"
  },
  "post_processor": null,
  "decoder": null,
  "model": {
    "unk_token": "[UNK]",
    "continuing_subword_prefix": "##",
    "max_input_chars_per_word": 100,
    "vocab": {
      "[PAD]": 0,
      "[UNK]": 1,
      "[CLS]": 2,
      "[SEP]": 3,
      "[MASK]": 4,
      "!": 5,
      "\"": 6,
      "#": 7,
      "$": 8,
      "%": 9,
      "&": 10,
      "'": 11,
      "(": 12,
      ")": 13,
      "*": 14,
      "+": 15,
      ",": 16,
      "-": 17,
      ".": 18,
      "/": 19,
      "0": 20,
      "1": 21,
      "2": 22,
      "3": 23,
      "4": 24,
      "5": 25,
      "6": 26,
      "7": 27,
      "8": 28,
      "9": 29,
      ":": 30,
      ";": 31,
      "<": 32,
      "=": 33,
      ">": 34,
      "?": 35,
      "@": 36,
      "A": 37,
      "B": 38,
      "C": 39,
      "D": 40,
      "E": 41,
      "F": 42,
      "G": 43,
      "H": 44,
      "I": 45,
      "J": 46,
      "K": 47,
      "L": 48,
      "M": 49,
      "N": 50,
      "O": 51,
      "P": 52,
      "Q": 53,
      "R": 54,
      "S": 55,
      "T": 56,
      "U": 57,
      "V": 58,
      "W": 59,
      "X": 60,
      "Y": 61,
      "Z": 62,
      "[": 63,
      "\\": 64,
      "]": 65,
      "^": 66,
      "_": 67,
      "`": 68,
      "a": 69,
      "b": 70,
      "c": 71,
      "d": 72,
      "e": 73,
      "f": 74,
      "g": 75,
      "h": 76,
      "i": 77,
      "j": 78,
      "k": 79,
      "l": 80,
      "m": 81,
      "n": 82,
      "o": 83,
      "p": 84,
      "q": 85,
      "r": 86,
      "s": 87,
      "t": 88,
      "u": 89,
      "v": 90,
      "w": 91,
      "x": 92,
      "y": 93,
      "z": 94,
      "{": 95,
      "|": 96,
      "}": 97,
      "~": 98,
      "£": 99,
      "¤": 100,
      "¥": 101,
      "¦": 102,
      "¨": 103,
      "©": 104,
      "ª": 105,
      "¬": 106,
      "®": 107,
      "°": 108,
      "±": 109,
      "²": 110,
      "³": 111,
      "µ": 112,
      "¸": 113,
      "¹": 114,
      "º": 115,
      "¼": 116,
      "½": 117,
      "¾": 118,
      "À": 119,
      "Á": 120,
      "Â": 121,
      "Ã": 122,
      "Ä": 123,
      "Å": 124,
      "Æ": 125,
      "Ç": 126,
      "È": 127,
      "É": 128,
      "Ê": 129,
      "Ë": 130,
      "Í": 131,
      "Î": 132,
      "Ð": 133,
      "Ò": 134,
      "Ó": 135,
      "Ô": 136,
      "Ö": 137,
      "×": 138,
      "Ø": 139,
      "Ü": 140,
      "Þ": 141,
      "ß": 142,
      "à": 143,
      "á": 144,
      "â": 145,
      "ã": 146,
      "ä": 147,
      "å": 148,
      "æ": 149,
      "ç": 150,
      "è": 151,
      "é": 152,
      "ê": 153,
      "ë": 154,
      "ì": 155,
      "í": 156,
      "î": 157,
      "ï": 158,
      "ð": 159,
      "ñ": 160,
      "ò": 161,
      "ó": 162,
      "ô": 163,
      "õ": 164,
      "ö": 165,
      "÷": 166,
      "ø": 167,
      "ù": 168,
      "ú": 169,
      "û": 170,
      "ü": 171,
      "ý": 172,
      "þ": 173,
      "ÿ": 174,
      "ā": 175,
      "ă": 176,
      "ą": 177,
      "ć": 178,
      "Č": 179,
      "č": 180,
      "Ď": 181,
      "Đ": 182,
      "đ": 183,
      "ē": 184,
      "ė": 185,
      "ę": 186,
      "ě": 187,
      "ğ": 188,
      "ī": 189,
      "İ": 190,
      "ı": 191,
      "ł": 192,
      "ń": 193,
      "ň": 194,
      "Ŋ": 195,
      "ŋ": 196,
      "ō": 197,
      "ő": 198,
      "Œ": 199,
      "œ": 200,
      "ř": 201,
      "Ś": 202,
      "ś": 203,
      "Ş": 204,
      "ş": 205,
      "Š": 206,
      "š": 207,
      "ţ": 208,
      "ť": 209,
      "ŧ": 210,
      "ū": 211,
      "Ż": 212,
      "ż": 213,
      "Ž": 214,
      "ž": 215,
      "ſ": 216,
      "ƭ": 217,
      "ư": 218,
      "ǎ": 219,
      "ǫ": 220,
      "ș": 221,
      "ț": 222,
      "Ʌ": 223,
      "ə": 224,
      "ʿ": 225,
      "ˇ": 226,
      "ˈ": 227,
      "˚": 228,
      "́": 229,
      "̋": 230,
      "Α": 231,
      "Δ": 232,
      "Ε": 233,
      "Ι": 234,
      "Κ": 235,
      "Ο": 236,
      "Π": 237,
      "Ρ": 238,
      "Σ": 239,
      "Τ": 240,
      "Ω": 241,
      "ά": 242,
      "έ": 243,
      "ή": 244,
      "ί": 245,
      "α": 246,
      "β": 247,
      "γ": 248,
      "δ": 249,
      "ε": 250,
      "η": 251,
      "θ": 252,
      "ι": 253,
      "κ": 254,
      "λ": 255,
      "μ": 256,
      "ν": 257,
      "ο": 258,
      "π": 259,
      "ρ": 260,
      "ς": 261,
      "σ": 262,
      "τ": 263,
      "υ": 264,
      "φ": 265,
      "χ": 266,
      "ω": 267,
      "ό": 268,
      "ύ": 269,
      "А": 270,
      "Б": 271,
      "В": 272,
      "Г": 273,
      "Д": 274,
      "Е": 275,
      "З": 276,
      "И": 277,
      "К": 278,
      "Л": 279,
      "М": 280,
      "Н": 281,
      "О": 282,
      "П": 283,
      "Р": 284,
      "С": 285,
      "Т": 286,
      "У": 287,
      "Ф": 288,
      "Ч": 289,
      "Э": 290,
      "а": 291,
      "б": 292,
      "в": 293,
      "г": 294,
      "д": 295,
      "е": 296,
      "ж": 297,
      "з": 298,
      "и": 299,
      "й": 300,
      "к": 301,
      "л": 302,
      "м": 303,
      "н": 304,
      "о": 305,
      "п": 306,
      "р": 307,
      "с": 308,
      "т": 309,
      "у": 310,
      "ф": 311,
      "х": 312,
      "ц": 313,
      "ч": 314,
      "ш": 315,
      "щ": 316,
      "ы": 317,
      "ь": 318,
      "э": 319,
      "ю": 320,
      "я": 321,
      "і": 322,
      "ї": 323,
      "Թ": 324,
      "Վ": 325,
      "ָ": 326,
      "ב": 327,
      "ה": 328,
      "ו": 329,
      "י": 330,
      "ע": 331,
      "ר": 332,
      "ש": 333,
      "أ": 334,
      "ا": 335,
      "ب": 336,
      "ة": 337,
      "ت": 338,
      "ج": 339,
      "ح": 340,
      "خ": 341,
      "د": 342,
      "ر": 343,
      "ز": 344,
      "س": 345,
      "ش": 346,
      "ص": 347,
      "ط": 348,
      "ع": 349,
      "ف": 350,
      "ق": 351,
      "ك": 352,
      "ل": 353,
      "م": 354,
      "ن": 355,
      "ه": 356,
      "و": 357,
      "ى": 358,
      "ي": 359,
      "ی": 360,
      "ḥ": 361,
      "ạ": 362,
      "ầ": 363,
      "⁄": 364,
      "₂": 365,
      "€": 366,
      "™": 367,
      "←": 368,
      "↑": 369,
      "→": 370,
      "↓": 371,
      "∂": 372,
      "∃": 373,
      "∈": 374,
      "−": 375,
      "∙": 376,
      "√": 377,
      "∞": 378,
      "≤": 379,
      "⊨": 380,
      "█": 381,
      "■": 382,
      "□": 383,
      "▪": 384,
      "▫": 385,
      "▲": 386,
      "▶": 387,
      "►": 388,
      "▼": 389,
      "◀": 390,
      "◄": 391,
      "◆": 392,
      "○": 393,
      "●": 394,
      "◗": 395,
      "★": 396,
      "☆": 397,
      "☺": 398,
      "♠": 399,
      "♣": 400,
      "♥": 401,
      "♦": 402,
      "♭": 403,
      "♯": 404,
      "⚫": 405,
      "✆": 406,
      "✍": 407,
      "✑": 408,
      "✓": 409,
      "✔": 410,
      "✶": 411,
      "✸": 412,
      "❖": 413,
      "❚": 414,
      "❞": 415,
      "❤": 416,
      "❥": 417,
      "➤": 418,
      "⠀": 419,
      "い": 420,
      "う": 421,
      "お": 422,
      "か": 423,
      "が": 424,
      "き": 425,
      "く": 426,
      "こ": 427,
      "し": 428,
      "す": 429,
      "た": 430,
      "だ": 431,
      "っ": 432,
      "て": 433,
      "で": 434,
      "と": 435,
      "な": 436,
      "に": 437,
      "の": 438,
      "は": 439,
      "ま": 440,
      "も": 441,
      "や": 442,
      "よ": 443,
      "ら": 444,
      "り": 445,
      "る": 446,
      "れ": 447,
      "を": 448,
      "ん": 449,
      "ア": 450,
      "イ": 451,
      "ク": 452,
      "シ": 453,
      "ス": 454,
      "ッ": 455,
      "ト": 456,
      "パ": 457,
      "プ": 458,
      "マ": 459,
      "リ": 460,
      "ル": 461,
      "ン": 462,
      "ー": 463,
      "䔀": 464,
      "一": 465,
      "中": 466,
      "乡": 467,
      "区": 468,
      "县": 469,
      "吀": 470,
      "城": 471,
      "大": 472,
      "好": 473,
      "子": 474,
      "安": 475,
      "山": 476,
      "市": 477,
      "年": 478,
      "康": 479,
      "愀": 480,
      "攀": 481,
      "最": 482,
      "本": 483,
      "椀": 484,
      "氀": 485,
      "法": 486,
      "海": 487,
      "渀": 488,
      "漀": 489,
      "爀": 490,
      "猀": 491,
      "琀": 492,
      "的": 493,
      "街": 494,
      "道": 495,
      "镇": 496,
      "院": 497,
      "️": 498,
      "�": 499,
      "👍": 500,
      "😀": 501,
      "😉": 502,
      "😊": 503,
      "🙂": 504,
      "##O": 505,
      "##R": 506,
      "##T": 507,
      "##U": 508,
      "##G": 509,
      "##I": 510,
      "##S": 511,
      "##K": 512,
      "##E": 513,
      "##k": 514,
      "##s": 515,
      "##e": 516,
      "##d": 517,
      "##m": 518,
      "##o": 519,
      "##n": 520,
      "##a": 521,
      "##c": 522,
      "##i": 523,
      "##g": 524,
      "##j": 525,
      "##D": 526,
      "##r": 527,
      "##t": 528,
      "##u": 529,
      "##l": 530,
      "##h": 531,
      "##y": 532,
      "##æ": 533,
      "##b": 534,
      "##v": 535,
      "##p": 536,
      "##ø": 537,
      "##f": 538,
      "##q": 539,
      "##8": 540,
      "##5": 541,
      "##2": 542,
      "##w": 543,
      "##A": 544,
      "##J": 545,
      "##Ø": 546,
      "##å": 547,
      "##L": 548,
      "##0": 549,
      "##4": 550,
      "##6": 551,
      "##7": 552,
      "##е": 553,
      "##н": 554,
      "##M": 555,
      "##N": 556,
      "##\"": 557,
      "##>": 558,
      "##.": 559,
      "##B": 560,
      "##Å": 561,
      "##á": 562,
      "##F": 563,
      "##V": 564,
      "##1": 565,
      "##x": 566,
      "##H": 567,
      "##é": 568,
      "##z": 569,
      "##P": 570,
      "##9": 571,
      "##Y": 572,
      "##C": 573,
      "##3": 574,
      "##đ": 575,
      "##Q": 576,
      "##~": 577,
      "##_": 578,
      "##ä": 579,
      "##Z": 580,
      "##ß": 581,
      "##W": 582,
      "##Ë": 583,
      "##X": 584,
      "##-": 585,
      "##$": 586,
      "###": 587,
      "##&": 588,
      "##š": 589,
      "##č": 590,
      "##Á": 591,
      "##Š": 592,
      "##Æ": 593,
      "##区": 594,
      "##ö": 595,
      "##;": 596,
      "##/": 597,
      "##<": 598,
      "##ð": 599,
      "##ă": 600,
      "##*": 601,
      "##:": 602,
      "##)": 603,
      "##!": 604,
      "##'": 605,
      "##?": 606,
      "##Â": 607,
      "##■": 608,
      "##ê": 609,
      "##É": 610,
      "##ī": 611,
      "##à": 612,
      "##★": 613,
      "##ı": 614,
      "##(": 615,
      "##|": 616,
      "##è": 617,
      "##本": 618,
      "##£": 619,
      "##È": 620,
      "##ë": 621,
      "##ü": 622,
      "##ñ": 623,
      "##ş": 624,
      "##ó": 625,
      "##♦": 626,
      "##,": 627,
      "##а": 628,
      "##т": 629,
      "##ц": 630,
      "##ы": 631,
      "##А": 632,
      "##и": 633,
      "##г": 634,
      "##о": 635,
      "##с": 636,
      "##к": 637,
      "##%": 638,
      "##р": 639,
      "##д": 640,
      "##ь": 641,
      "##ý": 642,
      "##в": 643,
      "##й": 644,
      "##ł": 645,
      "##ą": 646,
      "##^": 647,
      "##π": 648,
      "##ε": 649,
      "##ρ": 650,
      "##ŋ": 651,
      "##=": 652,
      "##ã": 653,
      "##Ö": 654,
      "##Ä": 655,
      "##●": 656,
      "##\\": 657,
      "##{": 658,
      "##ш": 659,
      "##ю": 660,
      "##í": 661,
      "##攀": 662,
      "##最": 663,
      "##椀": 664,
      "##猀": 665,
      "##爀": 666,
      "##ô": 667,
      "##[": 668,
      "##ï": 669,
      "##一": 670,
      "##法": 671,
      "##院": 672,
      "##的": 673,
      "##у": 674,
      "##â": 675,
      "##县": 676,
      "##ž": 677,
      "##б": 678,
      "##я": 679,
      "##œ": 680,
      "##л": 681,
      "##́": 682,
      "##]": 683,
      "##Ď": 684,
      "##þ": 685,
      "##з": 686,
      "##Ð": 687,
      "##п": 688,
      "##@": 689,
      "##ま": 690,
      "##で": 691,
      "##き": 692,
      "##ら": 693,
      "##か": 694,
      "##っ": 695,
      "##た": 696,
      "##が": 697,
      "##よ": 698,
      "##く": 699,
      "##こ": 700,
      "##る": 701,
      "##う": 702,
      "##に": 703,
      "##な": 704,
      "##り": 705,
      "##し": 706,
      "##ÿ": 707,
      "##Е": 708,
      "##Л": 709,
      "##К": 710,
      "##О": 711,
      "##М": 712,
      "##ν": 713,
      "##ē": 714,
      "##+": 715,
      "##ě": 716,
      "##海": 717,
      "##€": 718,
      "##ā": 719,
      "##ú": 720,
      "##Ü": 721,
      "##ò": 722,
      "##ί": 723,
      "##α": 724,
      "##ι": 725,
      "##õ": 726,
      "##Ã": 727,
      "##ل": 728,
      "##ق": 729,
      "##د": 730,
      "##س": 731,
      "##れ": 732,
      "##い": 733,
      "##の": 734,
      "##ж": 735,
      "##ح": 736,
      "##و": 737,
      "##η": 738,
      "##σ": 739,
      "##τ": 740,
      "##έ": 741,
      "##ς": 742,
      "##ū": 743,
      "##ō": 744,
      "##乡": 745,
      "##ç": 746,
      "##ο": 747,
      "##υ": 748,
      "##ţ": 749,
      "##ə": 750,
      "##ˈ": 751,
      "##ḥ": 752,
      "##Т": 753,
      "##ì": 754,
      "##μ": 755,
      "##}": 756,
      "##ف": 757,
      "##ص": 758,
      "##ń": 759,
      "##м": 760,
      "##子": 761,
      "##ア": 762,
      "##ン": 763,
      "##パ": 764,
      "##マ": 765,
      "##大": 766,
      "##好": 767,
      "##シ": 768,
      "##リ": 769,
      "##ー": 770,
      "##を": 771,
      "##て": 772,
      "##す": 773,
      "##ć": 774,
      "##中": 775,
      "##▲": 776,
      "##λ": 777,
      "##ŧ": 778,
      "##ч": 779,
      "##°": 780,
      "##م": 781,
      "##ا": 782,
      "##ي": 783,
      "##ة": 784,
      "##ス": 785,
      "##♥": 786,
      "##щ": 787,
      "##х": 788,
      "##ル": 789,
      "##ト": 790,
      "##ッ": 791,
      "##®": 792,
      "##ά": 793,
      "##™": 794,
      "##镇": 795,
      "##і": 796,
      "##ė": 797,
      "##ت": 798,
      "##ع": 799,
      "##ن": 800,
      "##خ": 801,
      "##♯": 802,
      "##ǫ": 803,
      "##愀": 804,
      "##渀": 805,
      "##琀": 806,
      "##ω": 807,
      "##κ": 808,
      "##ύ": 809,
      "##Đ": 810,
      "##ƭ": 811,
      "##ż": 812,
      "##ه": 813,
      "##ی": 814,
      "##º": 815,
      "##ו": 816,
      "##¥": 817,
      "##̋": 818,
      "##θ": 819,
      "##ư": 820,
      "##ř": 821,
      "##と": 822,
      "##ん": 823,
      "##ה": 824,
      "##ї": 825,
      "##ر": 826,
      "##Ο": 827,
      "##ğ": 828,
      "##±": 829,
      "##イ": 830,
      "##街": 831,
      "##道": 832,
      "##ę": 833,
      "##ز": 834,
      "##Ê": 835,
      "##φ": 836,
      "##城": 837,
      "##ط": 838,
      "##▼": 839,
      "##أ": 840,
      "##►": 841,
      "##䔀": 842,
      "##吀": 843,
      "##δ": 844,
      "##ή": 845,
      "##ό": 846,
      "##î": 847,
      "##😊": 848,
      "##ț": 849,
      "##も": 850,
      "##安": 851,
      "##Ô": 852,
      "##γ": 853,
      "##✶": 854,
      "##や": 855,
      "##ù": 856,
      "##ك": 857,
      "##年": 858,
      "##ạ": 859,
      "##û": 860,
      "##市": 861,
      "##お": 862,
      "##は": 863,
      "##だ": 864,
      "##康": 865,
      "##İ": 866,
      "##µ": 867,
      "##ő": 868,
      "##ب": 869,
      "##❤": 870,
      "##¼": 871,
      "##Н": 872,
      "##□": 873,
      "##Í": 874,
      "##ج": 875,
      "##◄": 876,
      "##ǎ": 877,
      "##ś": 878,
      "##À": 879,
      "##ф": 880,
      "##Č": 881,
      "##Г": 882,
      "##З": 883,
      "##Δ": 884,
      "##ť": 885,
      "##Ρ": 886,
      "##Ε": 887,
      "##Α": 888,
      "##©": 889,
      "##Œ": 890,
      "##ầ": 891,
      "##χ": 892,
      "##Ž": 893,
      "##☆": 894,
      "##ى": 895,
      "##ש": 896,
      "##∂": 897,
      "##½": 898,
      "##漀": 899,
      "##氀": 900,
      "##プ": 901,
      "##Σ": 902,
      "##Ι": 903,
      "##Ф": 904,
      "##ș": 905,
      "##ش": 906,
      "##П": 907,
      "##Р": 908,
      "##С": 909,
      "##ª": 910,
      "##ָ": 911,
      "##В": 912,
      "##ク": 913,
      "##י": 914,
      "##ר": 915,
      "##ſ": 916,
      "##−": 917,
      "##У": 918,
      "##ב": 919,
      "##`": 920,
      "##β": 921,
      "##¤": 922,
      "##山": 923,
      "##Π": 924,
      "##�": 925,
      "##⁄": 926,
      "##Ч": 927,
      "##Ó": 928,
      "##Д": 929,
      "##И": 930,
      "##✓": 931,
      "##Τ": 932,
      "##Ŋ": 933,
      "##👍": 934,
      "##😀": 935,
      "##Ω": 936,
      "##ň": 937,
      "##ʿ": 938,
      "##Б": 939,
      "##ע": 940,
      "##Ò": 941,
      "##♠": 942,
      "##Ç": 943,
      "##♭": 944,
      "##¬": 945,
      "##Ş": 946,
      "##◀": 947,
      "##↑": 948,
      "##♣": 949,
      "##э": 950,
      "##○": 951,
      "##️": 952,
      "##Ś": 953,
      "##Թ": 954,
      "##³": 955,
      "##◆": 956,
      "##→": 957,
      "##Κ": 958,
      "##²": 959,
      "##¨": 960,
      "##✔": 961,
      "##Վ": 962,
      "##🙂": 963,
      "##÷": 964,
      "##😉": 965,
      "##█": 966,
      "##⠀": 967,
      "##en": 968,
      "##er": 969,
      "##et": 970,
      "##or": 971,
      "##an": 972,
      "##in": 973,
      "##ar": 974,
      "##el": 975,
      "##il": 976,
      "##st": 977,
      "og": 978,
      "##om": 979,
      "##ed": 980,
      "##eg": 981,
      "for": 982,
      "##ing": 983,
      "##re": 984,
      "##te": 985,
      "##ig": 986,
      "##al": 987,
      "##ke": 988,
      "##on": 989,
      "##tt": 990,
      "til": 991,
      "##de": 992,
      "##is": 993,
      "##le": 994,
      "det": 995,
      "en": 996,
      "##un": 997,
      "av": 998,
      "##ra": 999,
      "er": 1000,
      "##es": 1001,
      "##ik": 1002,
      "som": 1003,
      "på": 1004,
      "##id": 1005,
      "st": 1006,
      "##ol": 1007,
      "##ene": 1008,
      "##ør": 1009,
      "med": 1010,
      "##ne": 1011,
      "##sk": 1012,
      "##am": 1013,
      "##at": 1014,
      "##ver": 1015,
      "sk": 1016,
      "##pp": 1017,
      "at": 1018,
      "##ag": 1019,
      "in": 1020,
      "de": 1021,
      "##as": 1022,
      "##it": 1023,
      "##ler": 1024,
      "##kt": 1025,
      "##kke": 1026,
      "var": 1027,
      "##ent": 1028,
      "den": 1029,
      "##nd": 1030,
      "##se": 1031,
      "om": 1032,
      "##and": 1033,
      "ut": 1034,
      "##ad": 1035,
      "har": 1036,
      "##ste": 1037,
      "##ning": 1038,
      "ikke": 1039,
      "##iv": 1040,
      "##ul": 1041,
      "##år": 1042,
      "##ro": 1043,
      "##ang": 1044,
      "##kk": 1045,
      "han": 1046,
      "##ær": 1047,
      "##li": 1048,
      "##ens": 1049,
      "##ur": 1050,
      "##jon": 1051,
      "##ere": 1052,
      "Det": 1053,
      "##lig": 1054,
      "##ett": 1055,
      "fra": 1056,
      "##ri": 1057,
      "##us": 1058,
      "opp": 1059,
      "et": 1060,
      "##je": 1061,
      "al": 1062,
      "##ru": 1063,
      "##\"\"": 1064,
      "##ot": 1065,
      "gj": 1066,
      "##ak": 1067,
      "##tter": 1068,
      "vi": 1069,
      "##ikk": 1070,
      "##for": 1071,
      "an": 1072,
      "##ende": 1073,
      "##omm": 1074,
      "men": 1075,
      "19": 1076,
      "kan": 1077,
      "seg": 1078,
      "<<": 1079,
      "inn": 1080,
      "##sen": 1081,
      "##ok": 1082,
      "##od": 1083,
      "##ter": 1084,
      "##het": 1085,
      "sam": 1086,
      ">>": 1087,
      "så": 1088,
      "##ge": 1089,
      "be": 1090,
      "vil": 1091,
      "jeg": 1092,
      "##ap": 1093,
      "sp": 1094,
      "##der": 1095,
      "el": 1096,
      "##ks": 1097,
      "##be": 1098,
      "hv": 1099,
      "##ist": 1100,
      "##elig": 1101,
      "##att": 1102,
      "##he": 1103,
      "over": 1104,
      "##adde": 1105,
      "må": 1106,
      "##ell": 1107,
      "si": 1108,
      "hadde": 1109,
      "##av": 1110,
      "no": 1111,
      "##enn": 1112,
      "##ord": 1113,
      "##mm": 1114,
      "##ss": 1115,
      "##ir": 1116,
      "##ort": 1117,
      "##est": 1118,
      "##ann": 1119,
      "bli": 1120,
      "##isk": 1121,
      "##ut": 1122,
      "##ft": 1123,
      "##gen": 1124,
      "ved": 1125,
      "der": 1126,
      "se": 1127,
      "ble": 1128,
      "sl": 1129,
      "##ser": 1130,
      "##art": 1131,
      "eller": 1132,
      "##yn": 1133,
      "20": 1134,
      "##så": 1135,
      "##øy": 1136,
      "and": 1137,
      "##sl": 1138,
      "##unn": 1139,
      "du": 1140,
      "##eng": 1141,
      "##ov": 1142,
      "##ære": 1143,
      "##ud": 1144,
      "##asjon": 1145,
      "##rå": 1146,
      "##ling": 1147,
      "før": 1148,
      "##sp": 1149,
      "år": 1150,
      "##jø": 1151,
      "hun": 1152,
      "ar": 1153,
      "hel": 1154,
      "komm": 1155,
      "##ert": 1156,
      "re": 1157,
      "##ikt": 1158,
      "##old": 1159,
      "etter": 1160,
      "skal": 1161,
      "bar": 1162,
      "##all": 1163,
      "##inn": 1164,
      "##yg": 1165,
      "##og": 1166,
      "##itt": 1167,
      "##end": 1168,
      "##nder": 1169,
      "kon": 1170,
      "##yr": 1171,
      "##ff": 1172,
      "##ant": 1173,
      "pro": 1174,
      "tr": 1175,
      "##beid": 1176,
      "##else": 1177,
      "##ve": 1178,
      "##im": 1179,
      "##os": 1180,
      "##ker": 1181,
      "Han": 1182,
      "også": 1183,
      "00": 1184,
      "St": 1185,
      "##var": 1186,
      "Jeg": 1187,
      "##und": 1188,
      "kl": 1189,
      "##em": 1190,
      "##um": 1191,
      "##iske": 1192,
      "to": 1193,
      "##sm": 1194,
      "sin": 1195,
      "##net": 1196,
      "kun": 1197,
      "ny": 1198,
      "##rø": 1199,
      "##ion": 1200,
      "være": 1201,
      "tid": 1202,
      "De": 1203,
      "the": 1204,
      "##eld": 1205,
      "mot": 1206,
      "##nn": 1207,
      "##jer": 1208,
      "##elt": 1209,
      "under": 1210,
      "##ger": 1211,
      "min": 1212,
      "samm": 1213,
      "##leg": 1214,
      "##ie": 1215,
      "##akt": 1216,
      "##skap": 1217,
      "##ers": 1218,
      "##ast": 1219,
      "meg": 1220,
      "##ic": 1221,
      "##øl": 1222,
      "dette": 1223,
      "da": 1224,
      "##ly": 1225,
      "kom": 1226,
      "##ab": 1227,
      "of": 1228,
      "##vis": 1229,
      "få": 1230,
      "18": 1231,
      "##ige": 1232,
      "##ier": 1233,
      "##erd": 1234,
      "pl": 1235,
      "##jen": 1236,
      "##yl": 1237,
      "##øre": 1238,
      "kr": 1239,
      "or": 1240,
      "##ans": 1241,
      "sa": 1242,
      "##tte": 1243,
      "bl": 1244,
      "andre": 1245,
      "##..": 1246,
      "##ale": 1247,
      "bru": 1248,
      "##ede": 1249,
      "Men": 1250,
      "##mer": 1251,
      "ha": 1252,
      "--": 1253,
      "##ket": 1254,
      "\"\"\"": 1255,
      "dag": 1256,
      "For": 1257,
      "##ært": 1258,
      "blir": 1259,
      "##hold": 1260,
      "gr": 1261,
      "##rem": 1262,
      "##ber": 1263,
      "##ring": 1264,
      "stor": 1265,
      "Den": 1266,
      "##ød": 1267,
      ").": 1268,
      "##alt": 1269,
      "fort": 1270,
      "Nor": 1271,
      "##ass": 1272,
      "10": 1273,
      "kunne": 1274,
      "##ange": 1275,
      "mer": 1276,
      "##ret": 1277,
      "noe": 1278,
      "kv": 1279,
      "##elle": 1280,
      "reg": 1281,
      "##ry": 1282,
      "##nes": 1283,
      "##del": 1284,
      "le": 1285,
      "##tid": 1286,
      "##ighet": 1287,
      "##ch": 1288,
      "##iser": 1289,
      "arbeid": 1290,
      "##lige": 1291,
      "enn": 1292,
      "##ingen": 1293,
      "alle": 1294,
      "denne": 1295,
      "Vi": 1296,
      "##per": 1297,
      "##ob": 1298,
      "god": 1299,
      "##res": 1300,
      "##jel": 1301,
      "##let": 1302,
      "En": 1303,
      "##kte": 1304,
      "\"\"\"\"": 1305,
      "##pe": 1306,
      "man": 1307,
      "skul": 1308,
      "##ennom": 1309,
      "hen": 1310,
      "li": 1311,
      "##red": 1312,
      "bet": 1313,
      "##ien": 1314,
      "##jør": 1315,
      "dem": 1316,
      "nå": 1317,
      "beg": 1318,
      "her": 1319,
      "##ind": 1320,
      "##ess": 1321,
      "ham": 1322,
      "##na": 1323,
      "##vik": 1324,
      "bare": 1325,
      "når": 1326,
      "noen": 1327,
      "##els": 1328,
      "ve": 1329,
      "sy": 1330,
      "ned": 1331,
      "##ost": 1332,
      "sel": 1333,
      "##itet": 1334,
      "30": 1335,
      "##ken": 1336,
      "##get": 1337,
      "##ust": 1338,
      "lø": 1339,
      "gjennom": 1340,
      "##kl": 1341,
      "sm": 1342,
      "##utt": 1343,
      "##ellom": 1344,
      "hvor": 1345,
      "##før": 1346,
      "##ningen": 1347,
      "pr": 1348,
      "15": 1349,
      "##yd": 1350,
      "Og": 1351,
      "del": 1352,
      "##iden": 1353,
      "##ia": 1354,
      "##eder": 1355,
      "##det": 1356,
      "##mp": 1357,
      "##la": 1358,
      "##dag": 1359,
      "##land": 1360,
      "ta": 1361,
      "##ske": 1362,
      "##opp": 1363,
      "##set": 1364,
      "sammen": 1365,
      "##lere": 1366,
      "skulle": 1367,
      "Hun": 1368,
      "mellom": 1369,
      "##ire": 1370,
      "gang": 1371,
      "##ug": 1372,
      "sier": 1373,
      "hver": 1374,
      "##ult": 1375,
      "sv": 1376,
      "vært": 1377,
      "tre": 1378,
      ".\"\"": 1379,
      "##ner": 1380,
      "Sk": 1381,
      "my": 1382,
      "slik": 1383,
      "##olit": 1384,
      "mange": 1385,
      "alt": 1386,
      "land": 1387,
      "frem": 1388,
      "##ev": 1389,
      "17": 1390,
      "##ark": 1391,
      "##ull": 1392,
      "ville": 1393,
      "##ive": 1394,
      "##if": 1395,
      "##legg": 1396,
      "201": 1397,
      "##are": 1398,
      "##op": 1399,
      "##enter": 1400,
      "##elsen": 1401,
      "Hv": 1402,
      ">>.": 1403,
      "##ill": 1404,
      "##isse": 1405,
      "##ek": 1406,
      "##den": 1407,
      "uten": 1408,
      "##ål": 1409,
      "##ninger": 1410,
      "ein": 1411,
      "##rist": 1412,
      "##00": 1413,
      "lag": 1414,
      "rett": 1415,
      "##lag": 1416,
      "##sø": 1417,
      "tilb": 1418,
      "kommun": 1419,
      "##dre": 1420,
      "##erne": 1421,
      "##ane": 1422,
      "In": 1423,
      "12": 1424,
      "lang": 1425,
      "##tes": 1426,
      "Al": 1427,
      "grunn": 1428,
      "nor": 1429,
      "##ub": 1430,
      "##ille": 1431,
      "##rev": 1432,
      "sø": 1433,
      "11": 1434,
      "##iktig": 1435,
      "oss": 1436,
      "un": 1437,
      "##ten": 1438,
      "##gang": 1439,
      "##kket": 1440,
      "deg": 1441,
      "##lem": 1442,
      "kj": 1443,
      "##ater": 1444,
      "vir": 1445,
      "##oner": 1446,
      "ser": 1447,
      "går": 1448,
      "hans": 1449,
      "##pet": 1450,
      "bå": 1451,
      "##este": 1452,
      "føl": 1453,
      "fram": 1454,
      "##ake": 1455,
      "##ksjon": 1456,
      "ig": 1457,
      "høy": 1458,
      "nær": 1459,
      "henne": 1460,
      "første": 1461,
      "##amm": 1462,
      "##ings": 1463,
      "##ster": 1464,
      "gå": 1465,
      "nok": 1466,
      "##olk": 1467,
      "##ets": 1468,
      "bes": 1469,
      "Dette": 1470,
      "fin": 1471,
      "verd": 1472,
      "byg": 1473,
      "##ct": 1474,
      "199": 1475,
      "##pl": 1476,
      "kont": 1477,
      "##rat": 1478,
      "16": 1479,
      "##jem": 1480,
      "fikk": 1481,
      "vis": 1482,
      "##oll": 1483,
      "form": 1484,
      "la": 1485,
      "dei": 1486,
      "##form": 1487,
      "##atte": 1488,
      "##kker": 1489,
      "##bru": 1490,
      "##rift": 1491,
      "får": 1492,
      "eg": 1493,
      "end": 1494,
      "kjø": 1495,
      "vel": 1496,
      "##ansk": 1497,
      "Ar": 1498,
      "##over": 1499,
      "br": 1500,
      "##hand": 1501,
      "ly": 1502,
      "inter": 1503,
      "beste": 1504,
      "igjen": 1505,
      "##ard": 1506,
      "##elser": 1507,
      "##enger": 1508,
      "hva": 1509,
      "Jo": 1510,
      "##kon": 1511,
      "##rik": 1512,
      "##rett": 1513,
      "##svar": 1514,
      "liv": 1515,
      "like": 1516,
      "leg": 1517,
      "bil": 1518,
      "200": 1519,
      "##inger": 1520,
      "##stil": 1521,
      "##org": 1522,
      "##arbeid": 1523,
      "by": 1524,
      "##ER": 1525,
      "##ide": 1526,
      "gjøre": 1527,
      "forsk": 1528,
      "##like": 1529,
      "##alg": 1530,
      "##sten": 1531,
      "##tem": 1532,
      "##iet": 1533,
      "##sb": 1534,
      "##som": 1535,
      "ten": 1536,
      "fr": 1537,
      "pros": 1538,
      "Da": 1539,
      "##ial": 1540,
      "##ine": 1541,
      "kommer": 1542,
      "stør": 1543,
      "mil": 1544,
      "13": 1545,
      "mul": 1546,
      "##atur": 1547,
      "flere": 1548,
      "lig": 1549,
      "##ation": 1550,
      "##mmer": 1551,
      "tra": 1552,
      "ord": 1553,
      "14": 1554,
      "hele": 1555,
      "ei": 1556,
      "bed": 1557,
      "mor": 1558,
      "##nen": 1559,
      "syn": 1560,
      "sn": 1561,
      "godt": 1562,
      "samme": 1563,
      "seiv": 1564,
      "##pen": 1565,
      "gikk": 1566,
      "polit": 1567,
      "##isjon": 1568,
      "##ekt": 1569,
      "all": 1570,
      "),": 1571,
      "disse": 1572,
      "##tak": 1573,
      "sine": 1574,
      "store": 1575,
      "##elige": 1576,
      "##ip": 1577,
      "##mme": 1578,
      "ver": 1579,
      "##ode": 1580,
      "gl": 1581,
      "##alen": 1582,
      "##entet": 1583,
      "##ce": 1584,
      "litt": 1585,
      "pers": 1586,
      "selv": 1587,
      "far": 1588,
      "ma": 1589,
      "##pt": 1590,
      "både": 1591,
      "##etter": 1592,
      "mø": 1593,
      "sak": 1594,
      "vid": 1595,
      "forb": 1596,
      "##slag": 1597,
      "nye": 1598,
      "##ygg": 1599,
      "##ift": 1600,
      "##iver": 1601,
      "th": 1602,
      "##sv": 1603,
      "##kkje": 1604,
      "##rav": 1605,
      "ty": 1606,
      "##ny": 1607,
      "##par": 1608,
      "##unkt": 1609,
      "Norge": 1610,
      "siden": 1611,
      "res": 1612,
      "helt": 1613,
      "##du": 1614,
      "ber": 1615,
      "fl": 1616,
      "##elen": 1617,
      "##app": 1618,
      "he": 1619,
      "red": 1620,
      "mye": 1621,
      "An": 1622,
      "##ordan": 1623,
      "##>>": 1624,
      "##inner": 1625,
      "SS": 1626,
      "##eter": 1627,
      "The": 1628,
      "fe": 1629,
      "ek": 1630,
      "##di": 1631,
      "##ole": 1632,
      "\"\"": 1633,
      "lov": 1634,
      "tilbake": 1635,
      "##rer": 1636,
      "##kken": 1637,
      "ad": 1638,
      "##rupp": 1639,
      "ikkje": 1640,
      "ingen": 1641,
      "##stand": 1642,
      "sitt": 1643,
      "Mar": 1644,
      "198": 1645,
      "Her": 1646,
      "mennes": 1647,
      "hå": 1648,
      "21": 1649,
      "##sf": 1650,
      "enk": 1651,
      "rund": 1652,
      "##ener": 1653,
      "##EN": 1654,
      "##sker": 1655,
      "##jene": 1656,
      "stat": 1657,
      "##ette": 1658,
      "per": 1659,
      "vår": 1660,
      "##ram": 1661,
      "hand": 1662,
      "annet": 1663,
      "På": 1664,
      "mann": 1665,
      "sj": 1666,
      "forhold": 1667,
      "##stad": 1668,
      "##hus": 1669,
      "##ib": 1670,
      "eks": 1671,
      "hus": 1672,
      "##vel": 1673,
      "frå": 1674,
      "##ow": 1675,
      "spør": 1676,
      "blitt": 1677,
      "Du": 1678,
      "##ond": 1679,
      "Der": 1680,
      "##ennes": 1681,
      "##ran": 1682,
      "##mid": 1683,
      "000": 1684,
      "##olog": 1685,
      "Ber": 1686,
      "25": 1687,
      "tro": 1688,
      "viktig": 1689,
      "##kes": 1690,
      "##vend": 1691,
      "##ald": 1692,
      "##hol": 1693,
      "måtte": 1694,
      "begyn": 1695,
      "led": 1696,
      "##lev": 1697,
      "Ch": 1698,
      "##sel": 1699,
      "øn": 1700,
      "rundt": 1701,
      "bak": 1702,
      "akt": 1703,
      "par": 1704,
      "##eren": 1705,
      "fly": 1706,
      "##eb": 1707,
      ",>>": 1708,
      "##ont": 1709,
      "##fter": 1710,
      "##ttet": 1711,
      "utvik": 1712,
      "tok": 1713,
      "##jekt": 1714,
      "22": 1715,
      "Tr": 1716,
      "hjel": 1717,
      "svar": 1718,
      "##sjon": 1719,
      "##stem": 1720,
      "##satt": 1721,
      "##nad": 1722,
      "Så": 1723,
      "##ian": 1724,
      "lå": 1725,
      "##heten": 1726,
      "jo": 1727,
      "##me": 1728,
      "Sp": 1729,
      "##slo": 1730,
      "Joh": 1731,
      "Se": 1732,
      "siste": 1733,
      "mens": 1734,
      "El": 1735,
      "ste": 1736,
      "##stå": 1737,
      "...": 1738,
      "##aa": 1739,
      "##ligere": 1740,
      "mid": 1741,
      "##rakt": 1742,
      "197": 1743,
      "##lø": 1744,
      "##ys": 1745,
      "##riv": 1746,
      "##iten": 1747,
      "fyl": 1748,
      "gjør": 1749,
      "##stre": 1750,
      "plan": 1751,
      "##nings": 1752,
      "##olig": 1753,
      "sen": 1754,
      "##amil": 1755,
      "##esten": 1756,
      "##jell": 1757,
      "ev": 1758,
      "##raft": 1759,
      "is": 1760,
      "ind": 1761,
      "23": 1762,
      "##les": 1763,
      "##gan": 1764,
      "##ikker": 1765,
      "##ott": 1766,
      "barn": 1767,
      "##ges": 1768,
      "##ite": 1769,
      "inne": 1770,
      "##ren": 1771,
      "##gå": 1772,
      "te": 1773,
      "##oved": 1774,
      "##ister": 1775,
      "##ars": 1776,
      "##ym": 1777,
      "##eller": 1778,
      "##ong": 1779,
      "Til": 1780,
      "##aler": 1781,
      "Oslo": 1782,
      "##istor": 1783,
      "##olen": 1784,
      "gi": 1785,
      "##lingen": 1786,
      "##rag": 1787,
      "##au": 1788,
      "##ck": 1789,
      "vå": 1790,
      "komme": 1791,
      "ant": 1792,
      "##elder": 1793,
      "##orde": 1794,
      "sted": 1795,
      "dø": 1796,
      "tilf": 1797,
      "##min": 1798,
      "Når": 1799,
      "hvordan": 1800,
      "person": 1801,
      "##ise": 1802,
      "hal": 1803,
      "50": 1804,
      "##asser": 1805,
      "##men": 1806,
      "##asjonen": 1807,
      "bør": 1808,
      "hav": 1809,
      "##anske": 1810,
      "##led": 1811,
      "me": 1812,
      "sna": 1813,
      "##kj": 1814,
      "folk": 1815,
      "sett": 1816,
      "mest": 1817,
      "##obb": 1818,
      "lu": 1819,
      "##nt": 1820,
      "##ven": 1821,
      "gir": 1822,
      "eit": 1823,
      "##føl": 1824,
      "full": 1825,
      "annen": 1826,
      "sær": 1827,
      "sig": 1828,
      "bort": 1829,
      "##sg": 1830,
      "##....": 1831,
      "lik": 1832,
      "spes": 1833,
      "su": 1834,
      "Ja": 1835,
      "##mann": 1836,
      "nr": 1837,
      "fast": 1838,
      "##syn": 1839,
      "gra": 1840,
      "fle": 1841,
      "##reg": 1842,
      "##ande": 1843,
      "##sikt": 1844,
      "fått": 1845,
      "##dri": 1846,
      "utt": 1847,
      "##sy": 1848,
      "Nord": 1849,
      "kor": 1850,
      "Etter": 1851,
      "hos": 1852,
      "Ne": 1853,
      "##ksom": 1854,
      "hol": 1855,
      "egen": 1856,
      "øy": 1857,
      "##entlig": 1858,
      "##ultur": 1859,
      "Ut": 1860,
      "stil": 1861,
      "Med": 1862,
      "##ate": 1863,
      "##dd": 1864,
      "on": 1865,
      "Th": 1866,
      "##agt": 1867,
      "ster": 1868,
      "hennes": 1869,
      "fordi": 1870,
      "##ain": 1871,
      "sit": 1872,
      "dom": 1873,
      "tek": 1874,
      "styr": 1875,
      "hø": 1876,
      "gjelder": 1877,
      "områ": 1878,
      "##mt": 1879,
      "organ": 1880,
      "##vil": 1881,
      "Re": 1882,
      "tar": 1883,
      "vet": 1884,
      "##far": 1885,
      "##amp": 1886,
      "skj": 1887,
      "står": 1888,
      "##rig": 1889,
      "##usjon": 1890,
      "natur": 1891,
      "##berg": 1892,
      "sto": 1893,
      "?.": 1894,
      "hvis": 1895,
      "bruk": 1896,
      "##amle": 1897,
      "off": 1898,
      "Er": 1899,
      "##sd": 1900,
      "##ress": 1901,
      "hør": 1902,
      "##rep": 1903,
      "kap": 1904,
      "mål": 1905,
      "##styr": 1906,
      "van": 1907,
      "lær": 1908,
      "##iner": 1909,
      "derfor": 1910,
      "spørsm": 1911,
      "bor": 1912,
      "##pro": 1913,
      "##vir": 1914,
      "viser": 1915,
      "##semp": 1916,
      "Hva": 1917,
      "Et": 1918,
      "com": 1919,
      "Krist": 1920,
      "##her": 1921,
      "avg": 1922,
      "stø": 1923,
      "##ativ": 1924,
      "gjort": 1925,
      "Har": 1926,
      "##lik": 1927,
      "##konom": 1928,
      "part": 1929,
      "##ank": 1930,
      "aldri": 1931,
      "Ol": 1932,
      "hold": 1933,
      "##ikken": 1934,
      "196": 1935,
      "nett": 1936,
      "##runn": 1937,
      "nød": 1938,
      "tatt": 1939,
      "videre": 1940,
      "##funn": 1941,
      "ofte": 1942,
      "##oen": 1943,
      "##val": 1944,
      "sent": 1945,
      "langt": 1946,
      "mod": 1947,
      "blant": 1948,
      "##ask": 1949,
      "prob": 1950,
      "##skje": 1951,
      "vann": 1952,
      "mulig": 1953,
      "##sdag": 1954,
      "side": 1955,
      "hoved": 1956,
      "##anse": 1957,
      "##kning": 1958,
      "gjorde": 1959,
      "mindre": 1960,
      "des": 1961,
      "klar": 1962,
      ">>,": 1963,
      "##enge": 1964,
      "##ore": 1965,
      "##ins": 1966,
      "lok": 1967,
      "slutt": 1968,
      "##dom": 1969,
      "##ue": 1970,
      "unn": 1971,
      "40": 1972,
      "større": 1973,
      "##atter": 1974,
      "##partem": 1975,
      "innen": 1976,
      "##ele": 1977,
      "kanskje": 1978,
      "Gud": 1979,
      "##allet": 1980,
      "##pr": 1981,
      "først": 1982,
      "##skapet": 1983,
      "norske": 1984,
      "hvil": 1985,
      "##fl": 1986,
      "##des": 1987,
      "rå": 1988,
      "samt": 1989,
      "##komm": 1990,
      "prø": 1991,
      "Om": 1992,
      "45": 1993,
      "Br": 1994,
      "##tr": 1995,
      "##heng": 1996,
      "ting": 1997,
      "åp": 1998,
      "Le": 1999,
      "##vet": 2000,
      "Nå": 2001,
      "gamle": 2002,
      "##asjoner": 2003,
      "##handling": 2004,
      "famil": 2005,
      "mener": 2006,
      "beh": 2007,
      "sjø": 2008,
      "##inne": 2009,
      "##IN": 2010,
      "eksemp": 2011,
      "##OR": 2012,
      "tim": 2013,
      "##avn": 2014,
      "lett": 2015,
      "vansk": 2016,
      "##akk": 2017,
      "##iller": 2018,
      "betyd": 2019,
      "##assen": 2020,
      "##søk": 2021,
      "små": 2022,
      "##lekt": 2023,
      "##enner": 2024,
      "##alte": 2025,
      "##sn": 2026,
      "ung": 2027,
      "satt": 2028,
      "##raf": 2029,
      "nytt": 2030,
      "##ay": 2031,
      "pres": 2032,
      "24": 2033,
      "##sj": 2034,
      "tidligere": 2035,
      "bok": 2036,
      "##ild": 2037,
      "##elte": 2038,
      "aller": 2039,
      "##asse": 2040,
      "##of": 2041,
      "##kelig": 2042,
      "dy": 2043,
      "##ester": 2044,
      "##enes": 2045,
      "af": 2046,
      "veg": 2047,
      "##eldig": 2048,
      "##med": 2049,
      "##midler": 2050,
      "jord": 2051,
      "int": 2052,
      "##sak": 2053,
      "produ": 2054,
      "##veg": 2055,
      "##rid": 2056,
      "Sam": 2057,
      "Ved": 2058,
      "##ha": 2059,
      "##uler": 2060,
      "##føre": 2061,
      "05": 2062,
      "##iter": 2063,
      ".)": 2064,
      "hånd": 2065,
      "##AN": 2066,
      "stud": 2067,
      "tur": 2068,
      "delt": 2069,
      "ne": 2070,
      "##ous": 2071,
      "##tidig": 2072,
      "di": 2073,
      "kroner": 2074,
      "##anger": 2075,
      "ulike": 2076,
      "##ilt": 2077,
      "##ade": 2078,
      "måte": 2079,
      "##age": 2080,
      "03": 2081,
      "nord": 2082,
      "bedre": 2083,
      "##ith": 2084,
      "##sfor": 2085,
      "##jord": 2086,
      "ligger": 2087,
      "alltid": 2088,
      "##bl": 2089,
      "##yld": 2090,
      "sol": 2091,
      "##rene": 2092,
      "tillegg": 2093,
      "Reg": 2094,
      "##igheter": 2095,
      "##oc": 2096,
      "##heter": 2097,
      "utg": 2098,
      "##spl": 2099,
      "Am": 2100,
      "stort": 2101,
      "And": 2102,
      "##ons": 2103,
      "deres": 2104,
      "##rykk": 2105,
      "195": 2106,
      "194": 2107,
      "##gende": 2108,
      "vur": 2109,
      "dat": 2110,
      "hatt": 2111,
      "Av": 2112,
      "histor": 2113,
      "heller": 2114,
      "nærm": 2115,
      "Kar": 2116,
      "finne": 2117,
      "fol": 2118,
      "##ina": 2119,
      "rep": 2120,
      "stra": 2121,
      "##sett": 2122,
      "fag": 2123,
      "inst": 2124,
      "hvert": 2125,
      "##ile": 2126,
      "Pro": 2127,
      "fun": 2128,
      "##isen": 2129,
      "##ensjon": 2130,
      "kn": 2131,
      "##ike": 2132,
      "grupp": 2133,
      "##sket": 2134,
      "Tor": 2135,
      "besk": 2136,
      "##ført": 2137,
      "##satte": 2138,
      "##aff": 2139,
      "fri": 2140,
      "tror": 2141,
      "##aten": 2142,
      "best": 2143,
      "finn": 2144,
      "gener": 2145,
      "gode": 2146,
      "##ente": 2147,
      "Som": 2148,
      "##sted": 2149,
      "kar": 2150,
      "##uro": 2151,
      "økonom": 2152,
      "##ity": 2153,
      "skap": 2154,
      "##råd": 2155,
      "##stilling": 2156,
      "06": 2157,
      "##ferd": 2158,
      "##dal": 2159,
      "kir": 2160,
      "##ringer": 2161,
      "##va": 2162,
      "##spunkt": 2163,
      "##ies": 2164,
      "##ppen": 2165,
      "fot": 2166,
      "dere": 2167,
      "norsk": 2168,
      "bra": 2169,
      "stad": 2170,
      "##ider": 2171,
      "spesi": 2172,
      "sos": 2173,
      "halv": 2174,
      "##by": 2175,
      "##tekt": 2176,
      "##midlertid": 2177,
      "##partementet": 2178,
      "35": 2179,
      "skjø": 2180,
      "prosent": 2181,
      "##ja": 2182,
      "Norsk": 2183,
      "nev": 2184,
      "kort": 2185,
      "##odet": 2186,
      "eng": 2187,
      "rel": 2188,
      "valg": 2189,
      "##river": 2190,
      "##sh": 2191,
      "fem": 2192,
      "kultur": 2193,
      "##AR": 2194,
      "milli": 2195,
      "hjem": 2196,
      "Hvis": 2197,
      "Denne": 2198,
      "55": 2199,
      "verden": 2200,
      "Un": 2201,
      "liten": 2202,
      "ca": 2203,
      "##bar": 2204,
      "fakt": 2205,
      "##part": 2206,
      "kal": 2207,
      "##iste": 2208,
      "nødvend": 2209,
      "kraft": 2210,
      "##vær": 2211,
      "lite": 2212,
      "##~~": 2213,
      "din": 2214,
      "vart": 2215,
      "mus": 2216,
      "##verk": 2217,
      "##gt": 2218,
      "gjen": 2219,
      "svært": 2220,
      "død": 2221,
      "sik": 2222,
      "##ST": 2223,
      "hjelp": 2224,
      "##under": 2225,
      "##kur": 2226,
      "Ny": 2227,
      "lever": 2228,
      "Hvor": 2229,
      "tiden": 2230,
      "dire": 2231,
      "##okk": 2232,
      "skole": 2233,
      "mark": 2234,
      "ferd": 2235,
      "##alitet": 2236,
      "hje": 2237,
      "ho": 2238,
      "samfunn": 2239,
      "inform": 2240,
      ":.": 2241,
      "##io": 2242,
      "plass": 2243,
      "##heim": 2244,
      "inv": 2245,
      "##ager": 2246,
      "vok": 2247,
      "fil": 2248,
      "##ipp": 2249,
      "##ålet": 2250,
      "rom": 2251,
      "##up": 2252,
      "##inga": 2253,
      "##oren": 2254,
      "vanskelig": 2255,
      "ang": 2256,
      "##øren": 2257,
      "##mark": 2258,
      "eksempel": 2259,
      ".,": 2260,
      "vin": 2261,
      "krav": 2262,
      "##andre": 2263,
      "imidlertid": 2264,
      "##lene": 2265,
      "jobb": 2266,
      "les": 2267,
      "ret": 2268,
      "forskjel": 2269,
      "##ka": 2270,
      "spørsmål": 2271,
      "fant": 2272,
      "dr": 2273,
      "kveld": 2274,
      "senere": 2275,
      "stå": 2276,
      "tjene": 2277,
      "##ET": 2278,
      "mat": 2279,
      "##bo": 2280,
      "grad": 2281,
      "##rens": 2282,
      "##bet": 2283,
      "id": 2284,
      "ben": 2285,
      "ansvar": 2286,
      "##lys": 2287,
      "##atet": 2288,
      "##mmet": 2289,
      "##bygg": 2290,
      "mennesker": 2291,
      "##fer": 2292,
      "##oss": 2293,
      "art": 2294,
      "##istr": 2295,
      "##ma": 2296,
      "Bl": 2297,
      "lenge": 2298,
      "nesten": 2299,
      "ute": 2300,
      "omf": 2301,
      "fire": 2302,
      "##kv": 2303,
      "##jente": 2304,
      "##revet": 2305,
      "slag": 2306,
      "193": 2307,
      "##int": 2308,
      "ter": 2309,
      "##da": 2310,
      "##iss": 2311,
      "fa": 2312,
      "organis": 2313,
      "##agen": 2314,
      "Bar": 2315,
      "prosjekt": 2316,
      "##utter": 2317,
      "##øk": 2318,
      "##rukt": 2319,
      "##br": 2320,
      "ett": 2321,
      "holdt": 2322,
      "##off": 2323,
      "##ave": 2324,
      "Ste": 2325,
      "##dan": 2326,
      "result": 2327,
      "##uss": 2328,
      "oppg": 2329,
      "are": 2330,
      "gitt": 2331,
      "##use": 2332,
      "##elles": 2333,
      "arbeidet": 2334,
      "fors": 2335,
      "ønsker": 2336,
      "##ivitet": 2337,
      "##ikket": 2338,
      "Be": 2339,
      "spur": 2340,
      "Opp": 2341,
      "meget": 2342,
      "særlig": 2343,
      "avt": 2344,
      "##jef": 2345,
      "##ommer": 2346,
      "##spro": 2347,
      "##vor": 2348,
      "op": 2349,
      "##ford": 2350,
      "as": 2351,
      "##eleg": 2352,
      "Inn": 2353,
      "att": 2354,
      "Eg": 2355,
      "##tet": 2356,
      "hens": 2357,
      "veldig": 2358,
      "gje": 2359,
      "syke": 2360,
      "##ment": 2361,
      "##elø": 2362,
      "problem": 2363,
      "met": 2364,
      "mang": 2365,
      "interes": 2366,
      "vurder": 2367,
      "##elses": 2368,
      "##ses": 2369,
      "##ument": 2370,
      "gre": 2371,
      "##ffekt": 2372,
      "##onym": 2373,
      "Før": 2374,
      "##oven": 2375,
      "##udd": 2376,
      "##uten": 2377,
      "likevel": 2378,
      "situ": 2379,
      "fre": 2380,
      "im": 2381,
      "fø": 2382,
      "bid": 2383,
      "##egn": 2384,
      "innt": 2385,
      "barne": 2386,
      "kre": 2387,
      "enkelte": 2388,
      "allerede": 2389,
      "##stra": 2390,
      "##ansen": 2391,
      "kost": 2392,
      "Man": 2393,
      "##ht": 2394,
      "tan": 2395,
      "behov": 2396,
      "##EL": 2397,
      "finnes": 2398,
      "pre": 2399,
      "##gj": 2400,
      "årene": 2401,
      "utvikling": 2402,
      "Ha": 2403,
      "##erg": 2404,
      "##uts": 2405,
      "kommune": 2406,
      "sør": 2407,
      "##ern": 2408,
      "26": 2409,
      "forstå": 2410,
      "##lipp": 2411,
      "##ats": 2412,
      "tak": 2413,
      "wh": 2414,
      "##SA": 2415,
      "menn": 2416,
      "slike": 2417,
      "27": 2418,
      "livet": 2419,
      "Or": 2420,
      "anonym": 2421,
      "samarbeid": 2422,
      "##rim": 2423,
      "La": 2424,
      "begynte": 2425,
      "##ksomhet": 2426,
      "##iene": 2427,
      "stand": 2428,
      "28": 2429,
      "##kom": 2430,
      "##ensen": 2431,
      "repres": 2432,
      "krig": 2433,
      "##ommun": 2434,
      "with": 2435,
      "bruke": 2436,
      "##dde": 2437,
      "##ule": 2438,
      "##unnet": 2439,
      "sty": 2440,
      "##ron": 2441,
      "##klar": 2442,
      "skjer": 2443,
      "##bruk": 2444,
      "kro": 2445,
      "##ivå": 2446,
      "oppf": 2447,
      "lenger": 2448,
      "##mmen": 2449,
      "##agn": 2450,
      "Ikke": 2451,
      "kommet": 2452,
      "holde": 2453,
      "01": 2454,
      "bas": 2455,
      "He": 2456,
      "ga": 2457,
      "bruker": 2458,
      "##vid": 2459,
      "landet": 2460,
      "fisk": 2461,
      "rekke": 2462,
      "domain": 2463,
      "##orten": 2464,
      "##roll": 2465,
      "pos": 2466,
      "våre": 2467,
      "leder": 2468,
      "Ma": 2469,
      "##isering": 2470,
      "##ball": 2471,
      "virkelig": 2472,
      "192": 2473,
      "fleste": 2474,
      "##ral": 2475,
      "##jørn": 2476,
      "##akter": 2477,
      "##ote": 2478,
      "gjerne": 2479,
      "##tern": 2480,
      "jul": 2481,
      "anonymous": 2482,
      "Sel": 2483,
      "##erte": 2484,
      "##ærer": 2485,
      "ledd": 2486,
      "##ga": 2487,
      "Fra": 2488,
      "sikker": 2489,
      "##our": 2490,
      "##asi": 2491,
      "altså": 2492,
      "begge": 2493,
      "paa": 2494,
      "##oden": 2495,
      "##ått": 2496,
      "##nr": 2497,
      "råd": 2498,
      "neste": 2499,
      "øv": 2500,
      "Sol": 2501,
      "synes": 2502,
      "foret": 2503,
      "Dag": 2504,
      "##tatt": 2505,
      "##ivet": 2506,
      "kam": 2507,
      "forv": 2508,
      "that": 2509,
      "ganger": 2510,
      "ti": 2511,
      "dra": 2512,
      "##anen": 2513,
      "##one": 2514,
      "##året": 2515,
      "##ilte": 2516,
      "ex": 2517,
      "till": 2518,
      "##sst": 2519,
      "mån": 2520,
      "eneste": 2521,
      "Alle": 2522,
      "tem": 2523,
      "##uni": 2524,
      "##igheten": 2525,
      "vind": 2526,
      "dagen": 2527,
      "bur": 2528,
      "##ivers": 2529,
      "løs": 2530,
      "pe": 2531,
      "##ivt": 2532,
      "##kst": 2533,
      "visste": 2534,
      "29": 2535,
      "fred": 2536,
      "peri": 2537,
      "##igur": 2538,
      "##ction": 2539,
      "##ktor": 2540,
      "##lever": 2541,
      "forslag": 2542,
      "##isert": 2543,
      "Fot": 2544,
      "ol": 2545,
      "##annen": 2546,
      "kny": 2547,
      "191": 2548,
      "Hans": 2549,
      "hverandre": 2550,
      "miljø": 2551,
      "nødvendig": 2552,
      "lagt": 2553,
      "##ustri": 2554,
      "forsø": 2555,
      "##ningene": 2556,
      "Kl": 2557,
      "##råk": 2558,
      "fød": 2559,
      "føre": 2560,
      "##pa": 2561,
      "fjer": 2562,
      "hend": 2563,
      "bef": 2564,
      "hj": 2565,
      "ob": 2566,
      "At": 2567,
      "##af": 2568,
      "##aker": 2569,
      "dyr": 2570,
      "##aren": 2571,
      "##drag": 2572,
      "start": 2573,
      "##ich": 2574,
      "##unnskap": 2575,
      "natt": 2576,
      "##lagt": 2577,
      "tiltak": 2578,
      "fortsatt": 2579,
      "gått": 2580,
      "ja": 2581,
      "##IL": 2582,
      "##syk": 2583,
      "##elsene": 2584,
      "vei": 2585,
      "sc": 2586,
      "dår": 2587,
      "##uer": 2588,
      "bek": 2589,
      "##ben": 2590,
      "stille": 2591,
      "fall": 2592,
      "##ris": 2593,
      "vanlig": 2594,
      "##vem": 2595,
      "##rasjon": 2596,
      "##gram": 2597,
      "saken": 2598,
      "##æring": 2599,
      "##øn": 2600,
      "##ator": 2601,
      "it": 2602,
      "klart": 2603,
      "##lighet": 2604,
      "##ves": 2605,
      "tru": 2606,
      "##ose": 2607,
      "##ommet": 2608,
      "sagt": 2609,
      "Kon": 2610,
      "mar": 2611,
      "##ører": 2612,
      "Nei": 2613,
      "dre": 2614,
      "foran": 2615,
      "Arbeid": 2616,
      "priv": 2617,
      "imp": 2618,
      "##ssk": 2619,
      "##ll": 2620,
      "kjør": 2621,
      "100": 2622,
      "intern": 2623,
      "##mb": 2624,
      "system": 2625,
      "spurte": 2626,
      "Hol": 2627,
      "gamm": 2628,
      "##ah": 2629,
      "##vert": 2630,
      "Andre": 2631,
      "dok": 2632,
      "##fall": 2633,
      "##rang": 2634,
      "utenfor": 2635,
      "leng": 2636,
      "nu": 2637,
      "##grunn": 2638,
      "##merik": 2639,
      "Stat": 2640,
      "31": 2641,
      "minst": 2642,
      "##rand": 2643,
      "post": 2644,
      "sette": 2645,
      "##........": 2646,
      "bud": 2647,
      "##ening": 2648,
      "##unt": 2649,
      "kjem": 2650,
      "kjent": 2651,
      "##røm": 2652,
      "Kv": 2653,
      "hy": 2654,
      "us": 2655,
      "##ure": 2656,
      "##byg": 2657,
      "kunst": 2658,
      "ene": 2659,
      "pris": 2660,
      "enkelt": 2661,
      "ful": 2662,
      "bø": 2663,
      "hodet": 2664,
      "##ommen": 2665,
      "##ou": 2666,
      "##oret": 2667,
      "svarte": 2668,
      "mør": 2669,
      "##fon": 2670,
      "foreld": 2671,
      "følge": 2672,
      "tekn": 2673,
      "##sam": 2674,
      "##iale": 2675,
      "##urat": 2676,
      "forteller": 2677,
      "finner": 2678,
      "Kn": 2679,
      "møte": 2680,
      "drift": 2681,
      "set": 2682,
      "##ink": 2683,
      "##ung": 2684,
      "##man": 2685,
      "Christ": 2686,
      "Fr": 2687,
      "vær": 2688,
      "helse": 2689,
      "forskjellige": 2690,
      "not": 2691,
      "##len": 2692,
      "##gra": 2693,
      "ba": 2694,
      "effekt": 2695,
      "unge": 2696,
      "sh": 2697,
      "felles": 2698,
      "##fører": 2699,
      "##jor": 2700,
      "bry": 2701,
      "kontakt": 2702,
      "tv": 2703,
      "dager": 2704,
      "##anser": 2705,
      "##urs": 2706,
      "##aks": 2707,
      "hev": 2708,
      "##ilde": 2709,
      "##AL": 2710,
      "elev": 2711,
      "##kter": 2712,
      "send": 2713,
      "sann": 2714,
      "enda": 2715,
      "feil": 2716,
      "luft": 2717,
      "kvinn": 2718,
      "##alet": 2719,
      "##på": 2720,
      "##enten": 2721,
      "dersom": 2722,
      "##eland": 2723,
      "##ium": 2724,
      "konkur": 2725,
      "juni": 2726,
      "mater": 2727,
      "samtidig": 2728,
      "Sør": 2729,
      "mitt": 2730,
      "brukt": 2731,
      "event": 2732,
      "ab": 2733,
      "Sver": 2734,
      "disk": 2735,
      "##ON": 2736,
      "ganske": 2737,
      "ansikt": 2738,
      "##qu": 2739,
      "##bud": 2740,
      "Under": 2741,
      "##dt": 2742,
      "##følge": 2743,
      "##yt": 2744,
      "nem": 2745,
      "største": 2746,
      "##erer": 2747,
      "ro": 2748,
      "02": 2749,
      "gar": 2750,
      "prof": 2751,
      "ch": 2752,
      "##indelse": 2753,
      "Fred": 2754,
      "informasjon": 2755,
      "Stor": 2756,
      "##rive": 2757,
      "ves": 2758,
      "dis": 2759,
      "##kret": 2760,
      "navn": 2761,
      "##esl": 2762,
      "##rum": 2763,
      "Ander": 2764,
      "##stend": 2765,
      "##ynene": 2766,
      "##inget": 2767,
      "##ng": 2768,
      "##deling": 2769,
      "trenger": 2770,
      "Per": 2771,
      "Hal": 2772,
      "tred": 2773,
      "tenkte": 2774,
      "Norges": 2775,
      "stedet": 2776,
      "venn": 2777,
      "Hel": 2778,
      "tap": 2779,
      "syk": 2780,
      "##lert": 2781,
      "ven": 2782,
      "##entene": 2783,
      "##kje": 2784,
      "##kkurat": 2785,
      "po": 2786,
      "året": 2787,
      "08": 2788,
      "09": 2789,
      "##uelle": 2790,
      "##reng": 2791,
      "##ach": 2792,
      "##ritt": 2793,
      "##olle": 2794,
      "hu": 2795,
      "##ograf": 2796,
      "sommer": 2797,
      "##IS": 2798,
      "##fe": 2799,
      "skjed": 2800,
      "bu": 2801,
      "##son": 2802,
      "kvinner": 2803,
      "tallet": 2804,
      "nasjon": 2805,
      "##linger": 2806,
      "##ju": 2807,
      "##tre": 2808,
      "##deles": 2809,
      "pra": 2810,
      "Euro": 2811,
      "##kene": 2812,
      "60": 2813,
      "Stort": 2814,
      "én": 2815,
      "##ta": 2816,
      "rø": 2817,
      "løpet": 2818,
      "bord": 2819,
      "##ative": 2820,
      "opplev": 2821,
      "mine": 2822,
      "##bok": 2823,
      "forf": 2824,
      "seks": 2825,
      "Pl": 2826,
      "då": 2827,
      "##ynd": 2828,
      "##beide": 2829,
      "##ital": 2830,
      "gjeld": 2831,
      "##ikkert": 2832,
      "morgen": 2833,
      "Ro": 2834,
      "##atene": 2835,
      "##ase": 2836,
      "##lemmer": 2837,
      "riktig": 2838,
      "Dan": 2839,
      "tør": 2840,
      "regjer": 2841,
      "alvor": 2842,
      "##føring": 2843,
      "betydning": 2844,
      "skje": 2845,
      "##nal": 2846,
      "avsl": 2847,
      "pass": 2848,
      "forbindelse": 2849,
      "##ING": 2850,
      "behand": 2851,
      "inntekt": 2852,
      "jf": 2853,
      "##ved": 2854,
      "##anter": 2855,
      "bolig": 2856,
      "##urt": 2857,
      "##minist": 2858,
      "legge": 2859,
      "##huset": 2860,
      "Vest": 2861,
      "):": 2862,
      "##disjon": 2863,
      "##ånd": 2864,
      "forn": 2865,
      "lære": 2866,
      "##nte": 2867,
      "##står": 2868,
      "støtte": 2869,
      "Fran": 2870,
      "##snitt": 2871,
      "##aller": 2872,
      "kjente": 2873,
      "erfar": 2874,
      "##rådet": 2875,
      "##verd": 2876,
      "Fl": 2877,
      "egne": 2878,
      "området": 2879,
      "##ffer": 2880,
      "##uder": 2881,
      "utgang": 2882,
      "##ac": 2883,
      "spesielt": 2884,
      "##rige": 2885,
      "hjemme": 2886,
      "USA": 2887,
      "##orn": 2888,
      "byen": 2889,
      "##ete": 2890,
      "##nem": 2891,
      "omk": 2892,
      "Høy": 2893,
      "represent": 2894,
      "##stein": 2895,
      "bestemm": 2896,
      "marked": 2897,
      "##istrikt": 2898,
      "##ifter": 2899,
      "lo": 2900,
      "mannen": 2901,
      "laget": 2902,
      "##organ": 2903,
      "##sport": 2904,
      "grø": 2905,
      "Ho": 2906,
      "##sland": 2907,
      "##iktige": 2908,
      "##går": 2909,
      "kunnskap": 2910,
      "##sette": 2911,
      "##iz": 2912,
      "direkte": 2913,
      "hensyn": 2914,
      "eiend": 2915,
      "##entlige": 2916,
      "Var": 2917,
      "##ple": 2918,
      "Bergen": 2919,
      "mai": 2920,
      "##øv": 2921,
      "##valg": 2922,
      "##oler": 2923,
      "##ader": 2924,
      "Sand": 2925,
      "tyd": 2926,
      "grunnlag": 2927,
      "meld": 2928,
      "Ann": 2929,
      "punkt": 2930,
      "33": 2931,
      "etab": 2932,
      "Jon": 2933,
      "veien": 2934,
      "07": 2935,
      "selskap": 2936,
      "##ppe": 2937,
      "##ammer": 2938,
      "190": 2939,
      "sterk": 2940,
      "Mart": 2941,
      "##rifter": 2942,
      "Ge": 2943,
      "nærmere": 2944,
      "##ebl": 2945,
      "betyr": 2946,
      "kjøp": 2947,
      "Hen": 2948,
      "##ata": 2949,
      "##adet": 2950,
      "lys": 2951,
      "32": 2952,
      "høre": 2953,
      "seier": 2954,
      "##dus": 2955,
      "##bu": 2956,
      "##ftet": 2957,
      "personer": 2958,
      "##omme": 2959,
      "fylke": 2960,
      "##valget": 2961,
      "millioner": 2962,
      "sub": 2963,
      "lav": 2964,
      "forl": 2965,
      "##lf": 2966,
      "##AT": 2967,
      "##fra": 2968,
      "Sy": 2969,
      "##fin": 2970,
      "ekte": 2971,
      "anal": 2972,
      "fjell": 2973,
      "##ork": 2974,
      "posit": 2975,
      "snart": 2976,
      "##stit": 2977,
      "Sv": 2978,
      "beny": 2979,
      "##AG": 2980,
      "Noen": 2981,
      "##orter": 2982,
      "##rom": 2983,
      "Ad": 2984,
      "##ogen": 2985,
      "Nil": 2986,
      "sjøl": 2987,
      "pasi": 2988,
      "stadig": 2989,
      "eget": 2990,
      "beveg": 2991,
      "##vern": 2992,
      "John": 2993,
      "lev": 2994,
      "redus": 2995,
      "##lemer": 2996,
      "##essig": 2997,
      "##iljø": 2998,
      "kontroll": 2999,
      "##sert": 3000,
      "kommunen": 3001,
      "deler": 3002,
      "##holder": 3003,
      "brukes": 3004,
      "Ty": 3005,
      "##menn": 3006,
      ",.": 3007,
      "fer": 3008,
      "lønn": 3009,
      "psyk": 3010,
      "vårt": 3011,
      "##usen": 3012,
      "##ingene": 3013,
      "kons": 3014,
      "efter": 3015,
      "##aksjon": 3016,
      "brø": 3017,
      "##følg": 3018,
      "Car": 3019,
      "##ammen": 3020,
      "funksjon": 3021,
      "opplys": 3022,
      "snakke": 3023,
      "tot": 3024,
      "ungdom": 3025,
      "rapp": 3026,
      "##esk": 3027,
      "Erik": 3028,
      "tenke": 3029,
      "gutt": 3030,
      "##gent": 3031,
      "##uar": 3032,
      "dermed": 3033,
      "langs": 3034,
      "kol": 3035,
      "##somt": 3036,
      "Over": 3037,
      "burde": 3038,
      "pub": 3039,
      "##sjett": 3040,
      "vekt": 3041,
      "##ES": 3042,
      "innenfor": 3043,
      "sønn": 3044,
      "Sh": 3045,
      "skolen": 3046,
      "forklar": 3047,
      "bevis": 3048,
      "do": 3049,
      "mist": 3050,
      "##ori": 3051,
      "huset": 3052,
      ",-": 3053,
      "mott": 3054,
      "døde": 3055,
      "##landet": 3056,
      "bedrift": 3057,
      "rad": 3058,
      "Finn": 3059,
      "produksjon": 3060,
      "##ellen": 3061,
      "akkurat": 3062,
      "Foto": 3063,
      "val": 3064,
      "189": 3065,
      "forut": 3066,
      "rask": 3067,
      "fry": 3068,
      "##avnet": 3069,
      "overfor": 3070,
      "vise": 3071,
      "skriver": 3072,
      "but": 3073,
      "con": 3074,
      "øynene": 3075,
      "Disse": 3076,
      "tor": 3077,
      "Gj": 3078,
      "Trond": 3079,
      "##aget": 3080,
      "jan": 3081,
      "Par": 3082,
      "##ps": 3083,
      "rette": 3084,
      "Sch": 3085,
      "Ind": 3086,
      "Dei": 3087,
      "Lu": 3088,
      "##uelt": 3089,
      "90": 3090,
      "##øs": 3091,
      "mars": 3092,
      "lin": 3093,
      "pa": 3094,
      "Kom": 3095,
      "lokal": 3096,
      "##ledes": 3097,
      "instit": 3098,
      "aktivitet": 3099,
      "alder": 3100,
      "##elefon": 3101,
      "dro": 3102,
      "##imm": 3103,
      "foresl": 3104,
      "uttrykk": 3105,
      "##nev": 3106,
      "und": 3107,
      "oper": 3108,
      "hjelpe": 3109,
      "ak": 3110,
      "Ein": 3111,
      "try": 3112,
      "##essuten": 3113,
      "øyebl": 3114,
      "Bru": 3115,
      "norm": 3116,
      "aks": 3117,
      "70": 3118,
      "##ndag": 3119,
      "##ice": 3120,
      "gro": 3121,
      "Mo": 3122,
      "##ås": 3123,
      "time": 3124,
      "vite": 3125,
      "No": 3126,
      "##20": 3127,
      "Alt": 3128,
      "bo": 3129,
      "##ologi": 3130,
      "fest": 3131,
      "skog": 3132,
      "##meld": 3133,
      "stre": 3134,
      "##kel": 3135,
      "slags": 3136,
      "mel": 3137,
      "##bil": 3138,
      "##danning": 3139,
      "funnet": 3140,
      "##iker": 3141,
      "Ole": 3142,
      "ring": 3143,
      "##fjord": 3144,
      "stod": 3145,
      "Land": 3146,
      "##ath": 3147,
      "##RK": 3148,
      "##anten": 3149,
      "Mange": 3150,
      "hvem": 3151,
      "eldre": 3152,
      "gift": 3153,
      "##ogn": 3154,
      "New": 3155,
      "dokument": 3156,
      "##sut": 3157,
      "kast": 3158,
      "##dene": 3159,
      "Sm": 3160,
      "undersøk": 3161,
      "måten": 3162,
      "ferdig": 3163,
      "##stat": 3164,
      "energ": 3165,
      "##ED": 3166,
      "skyld": 3167,
      "##arbeidet": 3168,
      "vari": 3169,
      "hjer": 3170,
      "legger": 3171,
      "Me": 3172,
      "følgende": 3173,
      "##ksis": 3174,
      "##ighetene": 3175,
      "##erson": 3176,
      "drø": 3177,
      "prakt": 3178,
      "bygge": 3179,
      "behandling": 3180,
      "imot": 3181,
      "Ant": 3182,
      "##giv": 3183,
      "##ften": 3184,
      "forsvar": 3185,
      "NT": 3186,
      "Pa": 3187,
      "sov": 3188,
      "um": 3189,
      "app": 3190,
      "##gte": 3191,
      "80": 3192,
      "Ingen": 3193,
      "##rol": 3194,
      "##ida": 3195,
      "job": 3196,
      "##hør": 3197,
      "borte": 3198,
      "##ulle": 3199,
      "##skudd": 3200,
      "barna": 3201,
      "internasjon": 3202,
      "04": 3203,
      "##sson": 3204,
      "ris": 3205,
      "##ittel": 3206,
      "viste": 3207,
      "##OT": 3208,
      "Sø": 3209,
      "##isere": 3210,
      "Jes": 3211,
      "vert": 3212,
      "##inen": 3213,
      "barnet": 3214,
      "gammel": 3215,
      "##ugust": 3216,
      "Berg": 3217,
      "##visning": 3218,
      "Hvordan": 3219,
      "avgjør": 3220,
      "penger": 3221,
      ".\"\"\"": 3222,
      "mis": 3223,
      "##kast": 3224,
      "sikkert": 3225,
      "##ors": 3226,
      "rik": 3227,
      "##vere": 3228,
      "verdens": 3229,
      "bestemt": 3230,
      "region": 3231,
      "##unde": 3232,
      "hørte": 3233,
      "##ood": 3234,
      "musikk": 3235,
      "mynd": 3236,
      "grå": 3237,
      "\"\"\"\".": 3238,
      "##mar": 3239,
      "##gift": 3240,
      "##usk": 3241,
      "elekt": 3242,
      "tran": 3243,
      "34": 3244,
      "makt": 3245,
      "2018": 3246,
      "##hed": 3247,
      "##ersom": 3248,
      "aut": 3249,
      "naturlig": 3250,
      "Øst": 3251,
      "Rom": 3252,
      "slo": 3253,
      "kjenner": 3254,
      "ide": 3255,
      "##punkt": 3256,
      "Eng": 3257,
      "##ering": 3258,
      "##yst": 3259,
      "##tal": 3260,
      "glad": 3261,
      "so": 3262,
      "nøy": 3263,
      "##spekt": 3264,
      "##lin": 3265,
      "from": 3266,
      "lyd": 3267,
      "2016": 3268,
      "omkring": 3269,
      "##che": 3270,
      "fart": 3271,
      "straff": 3272,
      "##ld": 3273,
      "sky": 3274,
      "188": 3275,
      "##gjør": 3276,
      "vest": 3277,
      "Tid": 3278,
      "tun": 3279,
      "##rit": 3280,
      "##atisk": 3281,
      "knyttet": 3282,
      "lille": 3283,
      "Dersom": 3284,
      "tradisjon": 3285,
      "##ruktur": 3286,
      "født": 3287,
      "##pper": 3288,
      "tydelig": 3289,
      "##pril": 3290,
      "tall": 3291,
      "##orer": 3292,
      "##oder": 3293,
      "vinter": 3294,
      "alene": 3295,
      "##ørdag": 3296,
      "tvil": 3297,
      "spiller": 3298,
      "vit": 3299,
      "##enser": 3300,
      "tø": 3301,
      "##holde": 3302,
      "sterkt": 3303,
      "dram": 3304,
      "##rør": 3305,
      "36": 3306,
      "##departementet": 3307,
      "fyr": 3308,
      "meter": 3309,
      "##affe": 3310,
      "krit": 3311,
      "##iversitet": 3312,
      "tom": 3313,
      "tredje": 3314,
      "kamp": 3315,
      "egentlig": 3316,
      "##ions": 3317,
      "##kn": 3318,
      "To": 3319,
      "##stru": 3320,
      "menneske": 3321,
      "Te": 3322,
      "antall": 3323,
      "Kir": 3324,
      "retning": 3325,
      "sosial": 3326,
      "##undet": 3327,
      "##nader": 3328,
      "Lars": 3329,
      "##stene": 3330,
      "prøv": 3331,
      "ford": 3332,
      "fordel": 3333,
      "skrive": 3334,
      "##mte": 3335,
      "##fte": 3336,
      "eksp": 3337,
      "-.": 3338,
      "kat": 3339,
      "inns": 3340,
      "komp": 3341,
      "##rinn": 3342,
      "ko": 3343,
      "Kan": 3344,
      "gjer": 3345,
      "regel": 3346,
      "faktisk": 3347,
      "##ember": 3348,
      "januar": 3349,
      "##kkes": 3350,
      "ses": 3351,
      "##setning": 3352,
      "utgangspunkt": 3353,
      "##kjø": 3354,
      "have": 3355,
      "##sjekt": 3356,
      "##isjonen": 3357,
      "holder": 3358,
      "tilsvar": 3359,
      "prins": 3360,
      "##ph": 3361,
      "helst": 3362,
      "kirke": 3363,
      "##th": 3364,
      "kil": 3365,
      "##ttes": 3366,
      "##send": 3367,
      "##ign": 3368,
      "##kar": 3369,
      "##anskje": 3370,
      "##istisk": 3371,
      "##verket": 3372,
      "##ese": 3373,
      "folke": 3374,
      "##grupp": 3375,
      "Kanskje": 3376,
      "tal": 3377,
      "midt": 3378,
      "##ical": 3379,
      "##anne": 3380,
      "##onn": 3381,
      "sku": 3382,
      "ge": 3383,
      "sal": 3384,
      "##apir": 3385,
      "fekk": 3386,
      "##ativt": 3387,
      "utford": 3388,
      "blå": 3389,
      "plasser": 3390,
      "##ygge": 3391,
      "##eth": 3392,
      "treng": 3393,
      "##veien": 3394,
      "Sverige": 3395,
      "hvorfor": 3396,
      "##bef": 3397,
      "##aken": 3398,
      "spe": 3399,
      "hånden": 3400,
      "eier": 3401,
      "års": 3402,
      "kvinne": 3403,
      "vold": 3404,
      "##okken": 3405,
      "Også": 3406,
      "186": 3407,
      "kjær": 3408,
      "nettopp": 3409,
      "TV": 3410,
      "lange": 3411,
      "##itte": 3412,
      "##hav": 3413,
      "stilling": 3414,
      "##øst": 3415,
      "em": 3416,
      "medlem": 3417,
      "##rende": 3418,
      "AS": 3419,
      "familie": 3420,
      "ansatte": 3421,
      "was": 3422,
      "reise": 3423,
      "slikt": 3424,
      "Sl": 3425,
      "##ame": 3426,
      "dårlig": 3427,
      "##asje": 3428,
      "tidlig": 3429,
      "187": 3430,
      "##met": 3431,
      "fatt": 3432,
      "II": 3433,
      "ban": 3434,
      "snakket": 3435,
      "krist": 3436,
      "Mid": 3437,
      "bygg": 3438,
      "skip": 3439,
      "##til": 3440,
      "næring": 3441,
      "na": 3442,
      "Kj": 3443,
      "##mod": 3444,
      "##\"\"\"\"": 3445,
      "##ivil": 3446,
      "april": 3447,
      "hvilke": 3448,
      "##øte": 3449,
      "##ime": 3450,
      "ønsket": 3451,
      "##lege": 3452,
      "##vok": 3453,
      "konse": 3454,
      "noko": 3455,
      "sentr": 3456,
      "##utselig": 3457,
      "Anne": 3458,
      "!.": 3459,
      "Mer": 3460,
      "##kår": 3461,
      "industri": 3462,
      "real": 3463,
      "##late": 3464,
      "juli": 3465,
      "2017": 3466,
      "##stid": 3467,
      "ekstra": 3468,
      "##aste": 3469,
      "37": 3470,
      "fi": 3471,
      "lærer": 3472,
      "##sty": 3473,
      "##cc": 3474,
      "##hengig": 3475,
      "okt": 3476,
      "Co": 3477,
      "##øg": 3478,
      "kli": 3479,
      "politiet": 3480,
      "gangen": 3481,
      "##vå": 3482,
      "regn": 3483,
      "##bart": 3484,
      "2015": 3485,
      "fiske": 3486,
      "høyere": 3487,
      "##mor": 3488,
      "Fin": 3489,
      "løp": 3490,
      "Bjørn": 3491,
      "ennå": 3492,
      "stopp": 3493,
      "##vs": 3494,
      "minutter": 3495,
      "forsv": 3496,
      "##unst": 3497,
      "##SS": 3498,
      "tilfelle": 3499,
      "gul": 3500,
      "Min": 3501,
      "##forsk": 3502,
      "lyst": 3503,
      "familien": 3504,
      "mig": 3505,
      "##lar": 3506,
      "##ivid": 3507,
      "strø": 3508,
      "satte": 3509,
      "skatt": 3510,
      "##ytt": 3511,
      "##kkelig": 3512,
      "tilbud": 3513,
      "Sc": 3514,
      "co": 3515,
      "åpen": 3516,
      "##elsk": 3517,
      "lot": 3518,
      "kompet": 3519,
      "stund": 3520,
      "kvalitet": 3521,
      "##gangen": 3522,
      "tett": 3523,
      "##aen": 3524,
      "yr": 3525,
      "bred": 3526,
      "##ai": 3527,
      "praksis": 3528,
      "høyt": 3529,
      "opprett": 3530,
      "sammenheng": 3531,
      "virksomhet": 3532,
      "##etten": 3533,
      "offentlig": 3534,
      "ellers": 3535,
      "##eløp": 3536,
      "arbeider": 3537,
      "##pos": 3538,
      "##angen": 3539,
      "sjå": 3540,
      "##annet": 3541,
      "##OL": 3542,
      "38": 3543,
      "teg": 3544,
      "slå": 3545,
      "lokale": 3546,
      "amerik": 3547,
      "Derfor": 3548,
      "administ": 3549,
      "Jan": 3550,
      "##æl": 3551,
      "forh": 3552,
      "##esp": 3553,
      "ren": 3554,
      "vist": 3555,
      "##entar": 3556,
      "##bruks": 3557,
      "foreg": 3558,
      "blod": 3559,
      "##holdet": 3560,
      "øyeblikk": 3561,
      "problemer": 3562,
      "fys": 3563,
      "##genting": 3564,
      "sep": 3565,
      "grav": 3566,
      "##rike": 3567,
      "Olav": 3568,
      "følger": 3569,
      "bi": 3570,
      "hvilken": 3571,
      "ul": 3572,
      "##aling": 3573,
      "##uter": 3574,
      "##ban": 3575,
      "rev": 3576,
      "##abil": 3577,
      "ytter": 3578,
      "timer": 3579,
      "##sbe": 3580,
      "Kr": 3581,
      "kje": 3582,
      "##ifte": 3583,
      "bereg": 3584,
      "nevnt": 3585,
      "##åt": 3586,
      "vore": 3587,
      "41": 3588,
      "##isme": 3589,
      "besl": 3590,
      "##IK": 3591,
      "påvir": 3592,
      "##iteen": 3593,
      "##annes": 3594,
      "##unnen": 3595,
      "##OM": 3596,
      "salg": 3597,
      "fører": 3598,
      "press": 3599,
      "saa": 3600,
      "bidra": 3601,
      "##abell": 3602,
      "##føres": 3603,
      "##lende": 3604,
      "rød": 3605,
      "klare": 3606,
      "##uld": 3607,
      "##aldt": 3608,
      "fjor": 3609,
      "språk": 3610,
      "##ringen": 3611,
      "##als": 3612,
      "Slik": 3613,
      "lar": 3614,
      "måned": 3615,
      "##iserte": 3616,
      "bakgrunn": 3617,
      "ST": 3618,
      "bel": 3619,
      "ud": 3620,
      "bod": 3621,
      "##tember": 3622,
      "pot": 3623,
      "##kjent": 3624,
      "Ola": 3625,
      "Hvorfor": 3626,
      "oms": 3627,
      "Trom": 3628,
      "samlet": 3629,
      "fremdeles": 3630,
      "##yss": 3631,
      "##ante": 3632,
      "karakter": 3633,
      "rek": 3634,
      "ress": 3635,
      "spørsmålet": 3636,
      "risik": 3637,
      "##rateg": 3638,
      "##fly": 3639,
      "500": 3640,
      "39": 3641,
      "ventet": 3642,
      "økonomiske": 3643,
      "och": 3644,
      "nemlig": 3645,
      "Stortinget": 3646,
      "Hå": 3647,
      "##kommende": 3648,
      "leve": 3649,
      "##eltet": 3650,
      "sikre": 3651,
      "##borg": 3652,
      "økt": 3653,
      "prøve": 3654,
      "##stet": 3655,
      "75": 3656,
      "##une": 3657,
      "merke": 3658,
      "##ffe": 3659,
      "##bin": 3660,
      "##laget": 3661,
      "##yggen": 3662,
      "sikkerhet": 3663,
      "meir": 3664,
      "##edag": 3665,
      "ramm": 3666,
      "Hus": 3667,
      "hum": 3668,
      "neg": 3669,
      "sat": 3670,
      "##alle": 3671,
      "##ober": 3672,
      "##okus": 3673,
      "##nytt": 3674,
      "ansiktet": 3675,
      "End": 3676,
      "##ba": 3677,
      "tross": 3678,
      "vere": 3679,
      "##repet": 3680,
      "##legget": 3681,
      "##ellet": 3682,
      "oppdag": 3683,
      "berre": 3684,
      "##ius": 3685,
      "Peder": 3686,
      "##fold": 3687,
      "reiste": 3688,
      "uts": 3689,
      "Mor": 3690,
      "##elag": 3691,
      "nivå": 3692,
      "steder": 3693,
      "same": 3694,
      "sende": 3695,
      "185": 3696,
      "brev": 3697,
      "fir": 3698,
      "##ID": 3699,
      "historie": 3700,
      "altern": 3701,
      "mask": 3702,
      "##sa": 3703,
      "##uttet": 3704,
      "##deren": 3705,
      "##ations": 3706,
      "##yen": 3707,
      "##ukt": 3708,
      "##duksjon": 3709,
      "##isten": 3710,
      "sid": 3711,
      "##itu": 3712,
      "Knut": 3713,
      "blev": 3714,
      "##vikling": 3715,
      "mente": 3716,
      "##løs": 3717,
      "Kristian": 3718,
      "virke": 3719,
      "##full": 3720,
      "##hver": 3721,
      "Eller": 3722,
      "##imot": 3723,
      "Seiv": 3724,
      "Lar": 3725,
      "barneh": 3726,
      "Dem": 3727,
      "2000": 3728,
      "ditt": 3729,
      "##RE": 3730,
      "##leis": 3731,
      "##ias": 3732,
      "medlemmer": 3733,
      "##ongen": 3734,
      "##nne": 3735,
      "##stendig": 3736,
      "inntil": 3737,
      "rest": 3738,
      "Odd": 3739,
      "##enta": 3740,
      "##ikasjon": 3741,
      "##synlig": 3742,
      "Beg": 3743,
      "Polit": 3744,
      "folket": 3745,
      "##rar": 3746,
      "kart": 3747,
      "tyn": 3748,
      "følte": 3749,
      "dig": 3750,
      "ref": 3751,
      "ur": 3752,
      "traf": 3753,
      "viktigste": 3754,
      "##able": 3755,
      "desember": 3756,
      "august": 3757,
      "##tok": 3758,
      "My": 3759,
      "Ed": 3760,
      "Vel": 3761,
      "42": 3762,
      "spille": 3763,
      "##smin": 3764,
      "september": 3765,
      "politiske": 3766,
      "åpnet": 3767,
      "begrens": 3768,
      "venstre": 3769,
      "kunde": 3770,
      "skjønn": 3771,
      "Vid": 3772,
      "NTB": 3773,
      "ras": 3774,
      "stol": 3775,
      "##ko": 3776,
      "skyl": 3777,
      "Bra": 3778,
      "##sto": 3779,
      "fortelle": 3780,
      "ry": 3781,
      "oppn": 3782,
      "##batt": 3783,
      "##ansett": 3784,
      "God": 3785,
      "##bø": 3786,
      "Ser": 3787,
      "km": 3788,
      "NRK": 3789,
      "eig": 3790,
      "##uft": 3791,
      "##rest": 3792,
      "vedtak": 3793,
      "Ta": 3794,
      "##pass": 3795,
      "møter": 3796,
      "48": 3797,
      "##ish": 3798,
      "Kommun": 3799,
      "setter": 3800,
      "produs": 3801,
      "heter": 3802,
      "arbeids": 3803,
      "ident": 3804,
      "##attet": 3805,
      "Frank": 3806,
      "Ag": 3807,
      "topp": 3808,
      "##mmelig": 3809,
      "pri": 3810,
      "data": 3811,
      "kroppen": 3812,
      "##serv": 3813,
      "ag": 3814,
      "Lang": 3815,
      "##skaper": 3816,
      "##post": 3817,
      "##we": 3818,
      "##kont": 3819,
      "bilen": 3820,
      "skre": 3821,
      "ass": 3822,
      "##ww": 3823,
      "44": 3824,
      "##allen": 3825,
      "mand": 3826,
      "Vær": 3827,
      "Is": 3828,
      "##bruar": 3829,
      "gis": 3830,
      "bnr": 3831,
      "##standen": 3832,
      "##ård": 3833,
      "uke": 3834,
      "##eres": 3835,
      "mill": 3836,
      "##inter": 3837,
      "##utning": 3838,
      "##øyd": 3839,
      "Like": 3840,
      "##områ": 3841,
      "utstyr": 3842,
      "Gl": 3843,
      "Europa": 3844,
      "##~~~~": 3845,
      "verk": 3846,
      "lage": 3847,
      "##iler": 3848,
      "interesse": 3849,
      "rolle": 3850,
      "Sn": 3851,
      "##ån": 3852,
      "kvar": 3853,
      "konsekv": 3854,
      "offentlige": 3855,
      "døren": 3856,
      "krev": 3857,
      "sitter": 3858,
      "trakk": 3859,
      "midler": 3860,
      "pensjon": 3861,
      "visst": 3862,
      "Vil": 3863,
      "jern": 3864,
      "Regi": 3865,
      "Pr": 3866,
      "fremst": 3867,
      "##enfor": 3868,
      "##bord": 3869,
      "privat": 3870,
      "##enske": 3871,
      "gav": 3872,
      "alm": 3873,
      "this": 3874,
      "fullt": 3875,
      "##dere": 3876,
      "Kong": 3877,
      "skol": 3878,
      "oppmer": 3879,
      "##RA": 3880,
      "viss": 3881,
      "##egg": 3882,
      "Wil": 3883,
      "##ørsm": 3884,
      "##ikkel": 3885,
      "saman": 3886,
      "Trondheim": 3887,
      "regler": 3888,
      "46": 3889,
      "oktober": 3890,
      "søk": 3891,
      "##its": 3892,
      "Johan": 3893,
      "ann": 3894,
      "preg": 3895,
      "##mannen": 3896,
      "interv": 3897,
      "pop": 3898,
      "individ": 3899,
      "viktige": 3900,
      "reguler": 3901,
      "##ight": 3902,
      "##ystem": 3903,
      "##itenskap": 3904,
      "##ubb": 3905,
      "www": 3906,
      "##ham": 3907,
      "##IT": 3908,
      "##plan": 3909,
      "inkl": 3910,
      "43": 3911,
      "##mmene": 3912,
      "##læring": 3913,
      "oppe": 3914,
      "##tale": 3915,
      "##ielle": 3916,
      "finans": 3917,
      "lese": 3918,
      "##gar": 3919,
      "##van": 3920,
      "Gr": 3921,
      "##utte": 3922,
      "##uell": 3923,
      "fang": 3924,
      "ingenting": 3925,
      "##ated": 3926,
      "Fol": 3927,
      "##hen": 3928,
      "2019": 3929,
      "Far": 3930,
      "saker": 3931,
      "områder": 3932,
      "blom": 3933,
      "##polit": 3934,
      "hører": 3935,
      "tenkt": 3936,
      "begynner": 3937,
      "##amma": 3938,
      "##olf": 3939,
      "##plass": 3940,
      "star": 3941,
      "produkt": 3942,
      "Ver": 3943,
      "##ending": 3944,
      "vant": 3945,
      "47": 3946,
      "relig": 3947,
      "##ibli": 3948,
      "inneb": 3949,
      "voks": 3950,
      "##vin": 3951,
      "sju": 3952,
      "februar": 3953,
      "Paul": 3954,
      "Dire": 3955,
      "sterke": 3956,
      "hundre": 3957,
      "Bare": 3958,
      "tenker": 3959,
      "rop": 3960,
      "enten": 3961,
      "datter": 3962,
      "trodde": 3963,
      "Olsen": 3964,
      "##arar": 3965,
      "kur": 3966,
      "selve": 3967,
      "##iger": 3968,
      "endring": 3969,
      "sosiale": 3970,
      "##ents": 3971,
      "##uen": 3972,
      "##hetene": 3973,
      "##urnal": 3974,
      "Bo": 3975,
      "kong": 3976,
      "##svis": 3977,
      "##dra": 3978,
      "Martin": 3979,
      "sist": 3980,
      "##istiske": 3981,
      "hind": 3982,
      "Ham": 3983,
      "##skole": 3984,
      "forskning": 3985,
      "##way": 3986,
      "##rimin": 3987,
      "##SK": 3988,
      "##ita": 3989,
      "novem": 3990,
      "arrang": 3991,
      "ark": 3992,
      "arm": 3993,
      "##ledning": 3994,
      "##orte": 3995,
      "##jøre": 3996,
      "##ace": 3997,
      "skape": 3998,
      "pol": 3999,
      "telefon": 4000,
      "##iere": 4001,
      "skjedde": 4002,
      "cm": 4003,
      "##retning": 4004,
      "november": 4005,
      "skrev": 4006,
      "##kost": 4007,
      "konkurran": 4008,
      "raskt": 4009,
      "mon": 4010,
      "##mål": 4011,
      "plutselig": 4012,
      "Arne": 4013,
      "##UN": 4014,
      "##ående": 4015,
      "##ologisk": 4016,
      "Bil": 4017,
      "vak": 4018,
      "##kkel": 4019,
      "institusjon": 4020,
      "au": 4021,
      "##jær": 4022,
      "organisasjon": 4023,
      "\"\"\"\",": 4024,
      "##sken": 4025,
      "Natt": 4026,
      "##ffet": 4027,
      "Sal": 4028,
      "##kraft": 4029,
      "##LE": 4030,
      "faren": 4031,
      "##gjeng": 4032,
      "spesial": 4033,
      "dagens": 4034,
      "tå": 4035,
      "Jesus": 4036,
      "Stav": 4037,
      "årsak": 4038,
      "dør": 4039,
      "Guds": 4040,
      "fotball": 4041,
      "##setter": 4042,
      "slutten": 4043,
      "##ologiske": 4044,
      "##ational": 4045,
      "Tom": 4046,
      "film": 4047,
      "Lille": 4048,
      "##ollen": 4049,
      "område": 4050,
      "fokus": 4051,
      "bilde": 4052,
      "brukte": 4053,
      "1990": 4054,
      "mening": 4055,
      "##king": 4056,
      "##eri": 4057,
      "##bare": 4058,
      "Sve": 4059,
      "##po": 4060,
      "##middel": 4061,
      "dine": 4062,
      "økonomisk": 4063,
      "184": 4064,
      "situasjonen": 4065,
      "Verd": 4066,
      "hendene": 4067,
      "fortsatte": 4068,
      "51": 4069,
      "##ident": 4070,
      "##iven": 4071,
      "mulighet": 4072,
      "skade": 4073,
      "passer": 4074,
      "##isin": 4075,
      "utdanning": 4076,
      "##legging": 4077,
      "Ab": 4078,
      "##stemm": 4079,
      "##skrift": 4080,
      "rommet": 4081,
      "milit": 4082,
      "##srett": 4083,
      "redd": 4084,
      "##folk": 4085,
      "arbeide": 4086,
      "##holdt": 4087,
      "Inge": 4088,
      "unna": 4089,
      "##rib": 4090,
      "Karl": 4091,
      "##ktør": 4092,
      "situasjon": 4093,
      "stemme": 4094,
      "##ally": 4095,
      "skrevet": 4096,
      "tilsvarende": 4097,
      "##innet": 4098,
      "søndag": 4099,
      "##fest": 4100,
      "##slaget": 4101,
      "brann": 4102,
      "##øse": 4103,
      "mag": 4104,
      "Fredrik": 4105,
      "forand": 4106,
      "analy": 4107,
      "Tysk": 4108,
      "takk": 4109,
      "fru": 4110,
      "##nende": 4111,
      "vedkommende": 4112,
      "OG": 4113,
      "Anders": 4114,
      "ifølge": 4115,
      "##ix": 4116,
      "skriv": 4117,
      "##ikring": 4118,
      "Su": 4119,
      "skikk": 4120,
      "sve": 4121,
      ".:": 4122,
      "stir": 4123,
      "opptatt": 4124,
      "Ph": 4125,
      "skatte": 4126,
      "ført": 4127,
      "##ettet": 4128,
      "Kor": 4129,
      "vekk": 4130,
      "##aland": 4131,
      "##ance": 4132,
      "klass": 4133,
      "håper": 4134,
      "Lov": 4135,
      "interess": 4136,
      "ple": 4137,
      "himm": 4138,
      "endringer": 4139,
      "##vist": 4140,
      "##vand": 4141,
      "sendt": 4142,
      "høyre": 4143,
      "##tteratur": 4144,
      "vare": 4145,
      "##edet": 4146,
      "##asjer": 4147,
      "anlegg": 4148,
      "lørdag": 4149,
      "slipp": 4150,
      "##ksomheten": 4151,
      "formid": 4152,
      "prosjektet": 4153,
      "##istrer": 4154,
      "##ick": 4155,
      "##serie": 4156,
      "transport": 4157,
      "høg": 4158,
      "sentrum": 4159,
      "måneder": 4160,
      "##pekt": 4161,
      "##ual": 4162,
      "Mon": 4163,
      "Mot": 4164,
      "ønske": 4165,
      "tale": 4166,
      "startet": 4167,
      "venner": 4168,
      "feng": 4169,
      "##aven": 4170,
      "nei": 4171,
      "virket": 4172,
      "##sta": 4173,
      "foreldre": 4174,
      "bro": 4175,
      "EU": 4176,
      "Kap": 4177,
      "kjøpe": 4178,
      "##??": 4179,
      "stein": 4180,
      "Bå": 4181,
      "idrett": 4182,
      "##stø": 4183,
      "navnet": 4184,
      "gruppe": 4185,
      "Lø": 4186,
      "Øy": 4187,
      "snø": 4188,
      ".-": 4189,
      "##sav": 4190,
      "poeng": 4191,
      "skar": 4192,
      "va": 4193,
      "sek": 4194,
      "gjøres": 4195,
      "politisk": 4196,
      "fortalte": 4197,
      "95": 4198,
      "##hjel": 4199,
      "mykje": 4200,
      "avtale": 4201,
      "nø": 4202,
      "rør": 4203,
      "cont": 4204,
      "##amer": 4205,
      "smilte": 4206,
      "prest": 4207,
      "overra": 4208,
      "Ing": 4209,
      "##IG": 4210,
      "olje": 4211,
      "Samtidig": 4212,
      "##tiden": 4213,
      "besøk": 4214,
      "forest": 4215,
      "49": 4216,
      "##parten": 4217,
      "##enet": 4218,
      "moderne": 4219,
      "grat": 4220,
      "befolk": 4221,
      "Ul": 4222,
      "oppgå": 4223,
      "Johannes": 4224,
      "uttry": 4225,
      "##jenne": 4226,
      "muligheter": 4227,
      "##yret": 4228,
      "##kende": 4229,
      "kompetanse": 4230,
      "kampen": 4231,
      "førte": 4232,
      "utover": 4233,
      "##sc": 4234,
      "tilk": 4235,
      "tjeneste": 4236,
      "ånd": 4237,
      "52": 4238,
      "kvelden": 4239,
      "varme": 4240,
      "åpne": 4241,
      "##gene": 4242,
      "selskapet": 4243,
      "##ute": 4244,
      "gull": 4245,
      "##ians": 4246,
      "elevene": 4247,
      "budsjett": 4248,
      "##ibliote": 4249,
      "Ve": 4250,
      "##essige": 4251,
      "vera": 4252,
      "syntes": 4253,
      "kjære": 4254,
      "##iel": 4255,
      "##aus": 4256,
      "##fil": 4257,
      "bland": 4258,
      "Christian": 4259,
      "uh": 4260,
      "hot": 4261,
      "Af": 4262,
      "##leder": 4263,
      "##lo": 4264,
      "Sig": 4265,
      "Selv": 4266,
      "##bygging": 4267,
      "rim": 4268,
      "##udde": 4269,
      "Sim": 4270,
      "resten": 4271,
      "##skont": 4272,
      "##dig": 4273,
      "##vann": 4274,
      "meng": 4275,
      "tanke": 4276,
      "##kant": 4277,
      "kjøkken": 4278,
      "sentral": 4279,
      "53": 4280,
      "##OTO": 4281,
      "røy": 4282,
      "uker": 4283,
      "Ba": 4284,
      "Tlf": 4285,
      "##forb": 4286,
      "##ikke": 4287,
      "perioden": 4288,
      "fulgte": 4289,
      "dist": 4290,
      "opply": 4291,
      "distrikt": 4292,
      "peng": 4293,
      "bygget": 4294,
      "As": 4295,
      "føler": 4296,
      "##mo": 4297,
      "##mon": 4298,
      "nab": 4299,
      "forvalt": 4300,
      "betydelig": 4301,
      "tilfred": 4302,
      "##dagen": 4303,
      "##stoff": 4304,
      "##urg": 4305,
      "##sliv": 4306,
      "test": 4307,
      "virker": 4308,
      "99": 4309,
      "Tre": 4310,
      "frykt": 4311,
      "Gunn": 4312,
      "vurdering": 4313,
      "##okrat": 4314,
      "krigen": 4315,
      "##stjene": 4316,
      "Jul": 4317,
      "##ikere": 4318,
      "##løp": 4319,
      "##atning": 4320,
      "##ces": 4321,
      "..": 4322,
      "opplysninger": 4323,
      "omsorg": 4324,
      "størr": 4325,
      "##plikt": 4326,
      "popul": 4327,
      "##smessig": 4328,
      "##ika": 4329,
      "Vå": 4330,
      "##ome": 4331,
      "##iken": 4332,
      "Jør": 4333,
      "##spolit": 4334,
      "##rere": 4335,
      "løy": 4336,
      "År": 4337,
      "deretter": 4338,
      "##tta": 4339,
      "bildet": 4340,
      "såk": 4341,
      "##illet": 4342,
      "##jet": 4343,
      "sjeld": 4344,
      "ødel": 4345,
      "##iell": 4346,
      "tol": 4347,
      "Ei": 4348,
      "Hoved": 4349,
      "figur": 4350,
      "183": 4351,
      "has": 4352,
      "defin": 4353,
      "##sol": 4354,
      "##ana": 4355,
      "##følgelig": 4356,
      "##jert": 4357,
      "består": 4358,
      "Lond": 4359,
      "reis": 4360,
      "progra": 4361,
      "prinsipp": 4362,
      "present": 4363,
      "sånn": 4364,
      "sant": 4365,
      "##gående": 4366,
      "Hansen": 4367,
      "eiendom": 4368,
      "daglig": 4369,
      "Nils": 4370,
      "tryg": 4371,
      "detal": 4372,
      "##ary": 4373,
      "##ingar": 4374,
      "##skommun": 4375,
      "##ubben": 4376,
      "slett": 4377,
      "øst": 4378,
      "Hvil": 4379,
      "##akten": 4380,
      "hørt": 4381,
      "##iks": 4382,
      "resultat": 4383,
      "##ement": 4384,
      "uly": 4385,
      "##lede": 4386,
      "Sj": 4387,
      "hardt": 4388,
      "deltak": 4389,
      "private": 4390,
      "kastet": 4391,
      "##apt": 4392,
      "Res": 4393,
      "skrift": 4394,
      "forskjell": 4395,
      "besø": 4396,
      "65": 4397,
      "kapittel": 4398,
      "Vår": 4399,
      "idet": 4400,
      "##edes": 4401,
      "styrke": 4402,
      "##iftet": 4403,
      "##sending": 4404,
      "samfunnet": 4405,
      "kva": 4406,
      "fremm": 4407,
      "Thom": 4408,
      "hopp": 4409,
      "##peratur": 4410,
      "oppnå": 4411,
      "forbi": 4412,
      "##AS": 4413,
      "utan": 4414,
      "liker": 4415,
      "91": 4416,
      "tema": 4417,
      "leil": 4418,
      "##AND": 4419,
      "##ØR": 4420,
      "54": 4421,
      "##kjed": 4422,
      "##................": 4423,
      "snudde": 4424,
      "-,": 4425,
      "engang": 4426,
      "sannsynlig": 4427,
      "svart": 4428,
      "kval": 4429,
      "handling": 4430,
      "Kont": 4431,
      "##enk": 4432,
      "Tyskland": 4433,
      "56": 4434,
      "Bjør": 4435,
      "##arane": 4436,
      "Statens": 4437,
      "bekym": 4438,
      "vente": 4439,
      "Dav": 4440,
      "##iat": 4441,
      "##aktig": 4442,
      "##ua": 4443,
      "##skolen": 4444,
      "##ica": 4445,
      "søker": 4446,
      "##ric": 4447,
      "##appa": 4448,
      "##æren": 4449,
      "klarte": 4450,
      "##ennende": 4451,
      "henhold": 4452,
      "##æn": 4453,
      "##yll": 4454,
      "Ale": 4455,
      "Rob": 4456,
      "utviklingen": 4457,
      "London": 4458,
      "strateg": 4459,
      "##uet": 4460,
      "omtr": 4461,
      "middel": 4462,
      "##hl": 4463,
      "vidt": 4464,
      "program": 4465,
      "##førte": 4466,
      "##uren": 4467,
      "Ter": 4468,
      "##essen": 4469,
      "##sloven": 4470,
      "publik": 4471,
      "##so": 4472,
      "##mus": 4473,
      "which": 4474,
      "Bro": 4475,
      "gard": 4476,
      "minste": 4477,
      "fint": 4478,
      "alvorlig": 4479,
      "##enterer": 4480,
      "##leve": 4481,
      "basert": 4482,
      "prior": 4483,
      "bom": 4484,
      "##værende": 4485,
      "general": 4486,
      "type": 4487,
      "##kap": 4488,
      "glede": 4489,
      "retten": 4490,
      "kg": 4491,
      "handler": 4492,
      "##anlegg": 4493,
      "nærings": 4494,
      "##organis": 4495,
      "yng": 4496,
      "1992": 4497,
      "sykehus": 4498,
      "driv": 4499,
      "##KT": 4500,
      "papir": 4501,
      "enhver": 4502,
      "betrakt": 4503,
      "Ap": 4504,
      "Ev": 4505,
      "Stavanger": 4506,
      "##kelige": 4507,
      "1995": 4508,
      "staten": 4509,
      "##haug": 4510,
      "mob": 4511,
      "endelig": 4512,
      "forsøk": 4513,
      "##ppet": 4514,
      "meste": 4515,
      "valgt": 4516,
      "##yre": 4517,
      "invester": 4518,
      "understre": 4519,
      "avis": 4520,
      "Kjø": 4521,
      "bilder": 4522,
      "ill": 4523,
      "glass": 4524,
      "betale": 4525,
      "##irsdag": 4526,
      "##gn": 4527,
      "2014": 4528,
      "Peter": 4529,
      "##ales": 4530,
      "181": 4531,
      "On": 4532,
      "euro": 4533,
      "innebærer": 4534,
      "åtte": 4535,
      "Gjennom": 4536,
      "##ensk": 4537,
      "inc": 4538,
      "material": 4539,
      "##anset": 4540,
      "fredag": 4541,
      "Hvem": 4542,
      "oppt": 4543,
      "dessuten": 4544,
      "2001": 4545,
      "bygd": 4546,
      "Amerik": 4547,
      "fleire": 4548,
      "##vers": 4549,
      "kvart": 4550,
      "loven": 4551,
      "solgt": 4552,
      "FOTO": 4553,
      "flyttet": 4554,
      "rus": 4555,
      "legges": 4556,
      "snakker": 4557,
      "varer": 4558,
      "verdi": 4559,
      "FOR": 4560,
      "blikk": 4561,
      "##kningen": 4562,
      "##kka": 4563,
      "kyr": 4564,
      "grupper": 4565,
      "##vene": 4566,
      "Regjer": 4567,
      "konkret": 4568,
      "##str": 4569,
      "Petter": 4570,
      "departementet": 4571,
      "##abr": 4572,
      "Haug": 4573,
      "1980": 4574,
      "1993": 4575,
      "vannet": 4576,
      "##aster": 4577,
      "##rud": 4578,
      "##aske": 4579,
      "ski": 4580,
      "##ition": 4581,
      "omtrent": 4582,
      "lei": 4583,
      "##ummer": 4584,
      "##varet": 4585,
      "sjølv": 4586,
      "##aur": 4587,
      "gud": 4588,
      "anbef": 4589,
      "##bruket": 4590,
      "il": 4591,
      "##sid": 4592,
      "##fart": 4593,
      "tilfeller": 4594,
      "Aust": 4595,
      "elever": 4596,
      "##delingen": 4597,
      "##AM": 4598,
      "sider": 4599,
      "desse": 4600,
      "Hau": 4601,
      "sur": 4602,
      "1999": 4603,
      "straks": 4604,
      "##edal": 4605,
      "##mat": 4606,
      "gjekk": 4607,
      "##fag": 4608,
      "Mag": 4609,
      "1997": 4610,
      "Mens": 4611,
      "##ikter": 4612,
      "##ino": 4613,
      "unngå": 4614,
      "kjærlighet": 4615,
      "forholdet": 4616,
      "57": 4617,
      "gjennomsnitt": 4618,
      "prote": 4619,
      "skjedd": 4620,
      "##vende": 4621,
      "tas": 4622,
      "prøver": 4623,
      "blei": 4624,
      "1994": 4625,
      "##partiet": 4626,
      "##øya": 4627,
      "hvite": 4628,
      "##elighet": 4629,
      "##smann": 4630,
      "##sord": 4631,
      "##ander": 4632,
      "slekt": 4633,
      "dikt": 4634,
      "uav": 4635,
      "tysk": 4636,
      "##iserer": 4637,
      "oversikt": 4638,
      "bal": 4639,
      "##stillingen": 4640,
      "kropp": 4641,
      "##onen": 4642,
      "Thor": 4643,
      "tidspunkt": 4644,
      "jobber": 4645,
      "Mal": 4646,
      "tusen": 4647,
      "Mad": 4648,
      "##åten": 4649,
      "##vei": 4650,
      "##settes": 4651,
      "##AD": 4652,
      "bevisst": 4653,
      "avsk": 4654,
      "klasse": 4655,
      "bordet": 4656,
      "omfatt": 4657,
      "vesentlig": 4658,
      "gjeng": 4659,
      "jobben": 4660,
      "##stander": 4661,
      "Først": 4662,
      "refer": 4663,
      "Grø": 4664,
      "1996": 4665,
      "krever": 4666,
      "180": 4667,
      "tog": 4668,
      "##unne": 4669,
      "kjøre": 4670,
      "sang": 4671,
      "opprinn": 4672,
      "##sreg": 4673,
      "##splan": 4674,
      "##itter": 4675,
      "##illing": 4676,
      "visse": 4677,
      "ent": 4678,
      "##øver": 4679,
      "arbeidsg": 4680,
      "kostnad": 4681,
      "Jac": 4682,
      "##onde": 4683,
      "##cy": 4684,
      "jev": 4685,
      "tilgjeng": 4686,
      "##sagt": 4687,
      "##styret": 4688,
      "##spill": 4689,
      "2005": 4690,
      "ropte": 4691,
      "oven": 4692,
      "Marie": 4693,
      "relativt": 4694,
      "Henrik": 4695,
      "##eler": 4696,
      "##TE": 4697,
      "##ampen": 4698,
      "ke": 4699,
      "stem": 4700,
      "øyne": 4701,
      "tekst": 4702,
      "##arbeide": 4703,
      "arg": 4704,
      "##rad": 4705,
      "etabler": 4706,
      "1991": 4707,
      "Flere": 4708,
      "##ely": 4709,
      "styre": 4710,
      "spor": 4711,
      "##IV": 4712,
      "Anna": 4713,
      "##ving": 4714,
      "##iteten": 4715,
      "##pon": 4716,
      "nede": 4717,
      "sign": 4718,
      "1998": 4719,
      "hit": 4720,
      "##ærne": 4721,
      "Fyl": 4722,
      "##bruker": 4723,
      "Bor": 4724,
      "##abel": 4725,
      "skulde": 4726,
      "Trø": 4727,
      "##vare": 4728,
      "##arder": 4729,
      "erfaring": 4730,
      "##ugh": 4731,
      "heim": 4732,
      "##forhold": 4733,
      "##inde": 4734,
      "båt": 4735,
      "Både": 4736,
      "arbeidst": 4737,
      "##ulig": 4738,
      "##blem": 4739,
      "uansett": 4740,
      "59": 4741,
      "ra": 4742,
      "##co": 4743,
      "varm": 4744,
      "interesser": 4745,
      "VM": 4746,
      "dit": 4747,
      "fas": 4748,
      "inneholder": 4749,
      "voksne": 4750,
      "utb": 4751,
      "indre": 4752,
      "kraftig": 4753,
      "Skal": 4754,
      "Fil": 4755,
      "utd": 4756,
      "internasjonale": 4757,
      "tilstre": 4758,
      "85": 4759,
      "undersø": 4760,
      "masse": 4761,
      "Rå": 4762,
      "prøvde": 4763,
      "Fort": 4764,
      "Figur": 4765,
      "Bre": 4766,
      "omt": 4767,
      "Rø": 4768,
      "##rikke": 4769,
      "beskjed": 4770,
      "Con": 4771,
      "vekst": 4772,
      "Danmark": 4773,
      "2002": 4774,
      "##sminister": 4775,
      "##ira": 4776,
      "ordet": 4777,
      "##jerne": 4778,
      "kontrakt": 4779,
      "utvalg": 4780,
      "bekre": 4781,
      "97": 4782,
      "Ford": 4783,
      "bestemte": 4784,
      "hjemm": 4785,
      "Fri": 4786,
      "All": 4787,
      "Uten": 4788,
      "mm": 4789,
      "##iti": 4790,
      "##edd": 4791,
      "##slivet": 4792,
      "utvikle": 4793,
      "2003": 4794,
      "sammenlig": 4795,
      "begynn": 4796,
      "ir": 4797,
      "pat": 4798,
      "##fri": 4799,
      "ryggen": 4800,
      "tida": 4801,
      "tegn": 4802,
      "oppdrag": 4803,
      "stakk": 4804,
      "debatt": 4805,
      "Bu": 4806,
      "nasjonal": 4807,
      "##lic": 4808,
      "tank": 4809,
      "fug": 4810,
      "##skyld": 4811,
      "slått": 4812,
      "##ict": 4813,
      "engelsk": 4814,
      "eld": 4815,
      "##urer": 4816,
      "ep": 4817,
      "##entral": 4818,
      "tilsyn": 4819,
      "##bered": 4820,
      "Siden": 4821,
      "##sels": 4822,
      "Jens": 4823,
      "kjønn": 4824,
      "dels": 4825,
      "registrer": 4826,
      "##sberg": 4827,
      "2004": 4828,
      "##orgens": 4829,
      "stats": 4830,
      "forelig": 4831,
      "delen": 4832,
      "trekke": 4833,
      "Bir": 4834,
      "##own": 4835,
      "##varer": 4836,
      "##edagog": 4837,
      "Barn": 4838,
      "adj": 4839,
      "begynne": 4840,
      "Rus": 4841,
      "trekk": 4842,
      "AN": 4843,
      "bodde": 4844,
      "##inder": 4845,
      "smil": 4846,
      "konsent": 4847,
      "Stein": 4848,
      "##holdning": 4849,
      "gen": 4850,
      "gli": 4851,
      "regjering": 4852,
      "##fisk": 4853,
      "arbeidsm": 4854,
      "##øyde": 4855,
      "Sar": 4856,
      "##hild": 4857,
      "hvit": 4858,
      "##iled": 4859,
      "##fyl": 4860,
      "##klare": 4861,
      "##ory": 4862,
      "##jern": 4863,
      "Sport": 4864,
      "funger": 4865,
      "energi": 4866,
      "Mel": 4867,
      "velge": 4868,
      "Harald": 4869,
      "Magn": 4870,
      "stemmer": 4871,
      "##kjør": 4872,
      "fortsette": 4873,
      "##agelig": 4874,
      "Char": 4875,
      "øke": 4876,
      "forstår": 4877,
      "sport": 4878,
      "lavere": 4879,
      "Gre": 4880,
      "jfr": 4881,
      "##jes": 4882,
      "##kommen": 4883,
      "kurs": 4884,
      "sentrale": 4885,
      "##oster": 4886,
      "hensikt": 4887,
      "58": 4888,
      "kne": 4889,
      "nedover": 4890,
      "By": 4891,
      "NO": 4892,
      "61": 4893,
      "##ther": 4894,
      "ressur": 4895,
      "sein": 4896,
      "spesielle": 4897,
      "steg": 4898,
      ".).": 4899,
      "avhengig": 4900,
      "reiser": 4901,
      "flert": 4902,
      "kommuner": 4903,
      "##ielt": 4904,
      "dog": 4905,
      "kjenn": 4906,
      "Rog": 4907,
      "anledning": 4908,
      "Stud": 4909,
      "##holm": 4910,
      "ner": 4911,
      "##KK": 4912,
      "trygg": 4913,
      "Tromsø": 4914,
      "derimot": 4915,
      "##engt": 4916,
      "sex": 4917,
      "hende": 4918,
      "##anke": 4919,
      "band": 4920,
      "motor": 4921,
      "##omen": 4922,
      "omfatter": 4923,
      "akse": 4924,
      "400": 4925,
      "##stående": 4926,
      "Arbeider": 4927,
      "##ines": 4928,
      "felt": 4929,
      "Ra": 4930,
      "300": 4931,
      "##naden": 4932,
      "??": 4933,
      "vilkår": 4934,
      "heile": 4935,
      "spørre": 4936,
      "1970": 4937,
      "drive": 4938,
      "eventuelt": 4939,
      "Sjø": 4940,
      "##nær": 4941,
      "##ock": 4942,
      "##åp": 4943,
      "Dra": 4944,
      "moren": 4945,
      "##person": 4946,
      "##rede": 4947,
      "sammens": 4948,
      "##erie": 4949,
      "##ause": 4950,
      "##ølv": 4951,
      "serv": 4952,
      "hår": 4953,
      "##vard": 4954,
      "bære": 4955,
      "##iets": 4956,
      "Norske": 4957,
      "hov": 4958,
      "sand": 4959,
      "##ips": 4960,
      "fan": 4961,
      "amb": 4962,
      "##skl": 4963,
      "##orm": 4964,
      "bus": 4965,
      "Sa": 4966,
      "##jeld": 4967,
      "##stedet": 4968,
      "anna": 4969,
      "skyldes": 4970,
      "##smannen": 4971,
      "ufor": 4972,
      "eksister": 4973,
      "lengre": 4974,
      "Sen": 4975,
      "nikket": 4976,
      "mamma": 4977,
      "hjert": 4978,
      "##kninger": 4979,
      "erstat": 4980,
      "##aden": 4981,
      "inkluder": 4982,
      "frivil": 4983,
      "##useum": 4984,
      "Intern": 4985,
      "##akte": 4986,
      "frit": 4987,
      "stirret": 4988,
      "##hov": 4989,
      "flykt": 4990,
      "##hund": 4991,
      "hest": 4992,
      "Ang": 4993,
      "##otte": 4994,
      "##histor": 4995,
      "sikt": 4996,
      "dobb": 4997,
      "utvid": 4998,
      "Dessuten": 4999,
      "67": 5000,
      "lager": 5001,
      "Eli": 5002,
      "Kro": 5003,
      "Ben": 5004,
      "Veg": 5005,
      "##amb": 5006,
      "frist": 5007,
      "sold": 5008,
      "salt": 5009,
      "##TER": 5010,
      "forfatter": 5011,
      "62": 5012,
      "##tning": 5013,
      "oppgave": 5014,
      "nummer": 5015,
      "dvs": 5016,
      "##ismen": 5017,
      "Liv": 5018,
      "Post": 5019,
      "ligge": 5020,
      "Ly": 5021,
      "prim": 5022,
      "via": 5023,
      "mørke": 5024,
      "##ksjonen": 5025,
      "##eningen": 5026,
      "opplæring": 5027,
      "##anna": 5028,
      "fare": 5029,
      "slapp": 5030,
      "kommunene": 5031,
      "tyske": 5032,
      "vide": 5033,
      "##sal": 5034,
      "kontor": 5035,
      "##amen": 5036,
      "elem": 5037,
      "Ifølge": 5038,
      "trafikk": 5039,
      "møtte": 5040,
      "Em": 5041,
      "Lind": 5042,
      "##smid": 5043,
      "ment": 5044,
      "engas": 5045,
      "Videre": 5046,
      "##frå": 5047,
      "##istene": 5048,
      "hjerte": 5049,
      "Bø": 5050,
      "sjef": 5051,
      "alminn": 5052,
      "dens": 5053,
      "høye": 5054,
      "##resse": 5055,
      "periode": 5056,
      "vilde": 5057,
      "##ash": 5058,
      "standard": 5059,
      "munnen": 5060,
      "We": 5061,
      "##inntekt": 5062,
      "lettere": 5063,
      "altfor": 5064,
      "Folk": 5065,
      "struktur": 5066,
      "Mus": 5067,
      "Art": 5068,
      ".\"": 5069,
      "2010": 5070,
      ".\"\"\"\"": 5071,
      "Dermed": 5072,
      "Vik": 5073,
      "log": 5074,
      "##out": 5075,
      "Wh": 5076,
      "sje": 5077,
      "##spe": 5078,
      "##bladet": 5079,
      "##kort": 5080,
      "England": 5081,
      "##esjon": 5082,
      "Mark": 5083,
      "opt": 5084,
      "Deres": 5085,
      "2013": 5086,
      "utviklet": 5087,
      "##pris": 5088,
      "bevil": 5089,
      "71": 5090,
      "natten": 5091,
      "Ven": 5092,
      "ni": 5093,
      "##attes": 5094,
      "vurdere": 5095,
      "##ton": 5096,
      "##vn": 5097,
      "64": 5098,
      "63": 5099,
      "##port": 5100,
      "strid": 5101,
      "##yp": 5102,
      "torsdag": 5103,
      "##amme": 5104,
      "##edre": 5105,
      "selvfølgelig": 5106,
      "##esse": 5107,
      "2008": 5108,
      "##drene": 5109,
      "tilh": 5110,
      "##edie": 5111,
      "##dyr": 5112,
      "registr": 5113,
      "##igh": 5114,
      "svarer": 5115,
      "mistet": 5116,
      "amerikanske": 5117,
      "2006": 5118,
      "##kkende": 5119,
      "##jar": 5120,
      "spen": 5121,
      "tilkny": 5122,
      "forrige": 5123,
      "orden": 5124,
      "##yggelig": 5125,
      "Hand": 5126,
      "hud": 5127,
      "were": 5128,
      "1989": 5129,
      "fro": 5130,
      "vanlige": 5131,
      "strå": 5132,
      "##stav": 5133,
      "velger": 5134,
      "##sopp": 5135,
      "alternativ": 5136,
      "##wo": 5137,
      "kalt": 5138,
      "##kor": 5139,
      "bedrifter": 5140,
      "##orgensending": 5141,
      "søke": 5142,
      "66": 5143,
      "forek": 5144,
      "2007": 5145,
      "##rab": 5146,
      "øvrig": 5147,
      "##angel": 5148,
      "Mol": 5149,
      "driver": 5150,
      "York": 5151,
      "grep": 5152,
      "##olusjon": 5153,
      "##forening": 5154,
      "gjennomført": 5155,
      "##PP": 5156,
      "integ": 5157,
      "regjeringen": 5158,
      "presse": 5159,
      "het": 5160,
      "David": 5161,
      "##okka": 5162,
      "pust": 5163,
      "##ena": 5164,
      "rent": 5165,
      "respekt": 5166,
      "##ley": 5167,
      "konkurranse": 5168,
      "jur": 5169,
      "IN": 5170,
      "såtte": 5171,
      "2009": 5172,
      "Di": 5173,
      "svak": 5174,
      "Universitet": 5175,
      "Thomas": 5176,
      "##EG": 5177,
      "aktuelle": 5178,
      "klarer": 5179,
      "##ometer": 5180,
      "##uk": 5181,
      "##ikal": 5182,
      "Hø": 5183,
      "tjenester": 5184,
      "synd": 5185,
      "92": 5186,
      "Je": 5187,
      "merket": 5188,
      "93": 5189,
      "##ksjoner": 5190,
      "unntak": 5191,
      "just": 5192,
      "81": 5193,
      "sitte": 5194,
      "sår": 5195,
      "kombin": 5196,
      "##umenter": 5197,
      "##slin": 5198,
      "##ues": 5199,
      "##ives": 5200,
      "tråd": 5201,
      "##siden": 5202,
      "##stilt": 5203,
      "##ktoratet": 5204,
      "typ": 5205,
      "formål": 5206,
      "##vest": 5207,
      "##enen": 5208,
      "##asen": 5209,
      "anvend": 5210,
      "kop": 5211,
      "##oter": 5212,
      "Si": 5213,
      "beskriv": 5214,
      "##EM": 5215,
      "selvsagt": 5216,
      "fullstendig": 5217,
      "77": 5218,
      "##nere": 5219,
      "##urder": 5220,
      "kapital": 5221,
      "Ex": 5222,
      "##inst": 5223,
      "Bod": 5224,
      "medisin": 5225,
      "82": 5226,
      "can": 5227,
      "##verks": 5228,
      "Direkte": 5229,
      "##SEN": 5230,
      "rolig": 5231,
      ");": 5232,
      "prem": 5233,
      "str": 5234,
      "kul": 5235,
      "kontrol": 5236,
      "tvang": 5237,
      "sendte": 5238,
      "publikum": 5239,
      "2011": 5240,
      "supp": 5241,
      "vers": 5242,
      "samsvar": 5243,
      "politikk": 5244,
      "utgjør": 5245,
      "2012": 5246,
      "former": 5247,
      "Ord": 5248,
      "sir": 5249,
      "faste": 5250,
      "mennesket": 5251,
      "sommeren": 5252,
      "72": 5253,
      "bad": 5254,
      "Gar": 5255,
      "skaffe": 5256,
      "væ": 5257,
      "we": 5258,
      "##stol": 5259,
      "182": 5260,
      "##instit": 5261,
      "Gnr": 5262,
      "gu": 5263,
      "blikket": 5264,
      "avgift": 5265,
      "onsdag": 5266,
      "##flikt": 5267,
      "sjel": 5268,
      "69": 5269,
      "##selen": 5270,
      "Mand": 5271,
      "trans": 5272,
      "utform": 5273,
      "spilte": 5274,
      "sykdom": 5275,
      "##elem": 5276,
      "omfattende": 5277,
      "universitet": 5278,
      "##slig": 5279,
      "##antene": 5280,
      "åra": 5281,
      "##risk": 5282,
      "##plassen": 5283,
      "##tert": 5284,
      "##legge": 5285,
      "##jema": 5286,
      "##ism": 5287,
      "##brudd": 5288,
      "tilstrekkelig": 5289,
      "##strøm": 5290,
      "##gje": 5291,
      "osv": 5292,
      "Hver": 5293,
      "formann": 5294,
      "bank": 5295,
      "##oten": 5296,
      "absol": 5297,
      "vakt": 5298,
      "SV": 5299,
      "Kristians": 5300,
      "reaksjon": 5301,
      "innb": 5302,
      "##vokat": 5303,
      "frukt": 5304,
      "##etning": 5305,
      "1988": 5306,
      "##skilt": 5307,
      "Då": 5308,
      "delvis": 5309,
      "middag": 5310,
      "settes": 5311,
      "VI": 5312,
      "journal": 5313,
      "##produksjon": 5314,
      "##må": 5315,
      "##band": 5316,
      "##verdi": 5317,
      "Val": 5318,
      "konf": 5319,
      "øvrige": 5320,
      "hovedsak": 5321,
      "bill": 5322,
      "Gro": 5323,
      "Kultur": 5324,
      "personlig": 5325,
      "Cl": 5326,
      "ka": 5327,
      "##barn": 5328,
      "tri": 5329,
      "gjaldt": 5330,
      "74": 5331,
      "am": 5332,
      "SK": 5333,
      "##ska": 5334,
      "##iseres": 5335,
      "##havn": 5336,
      "lid": 5337,
      "##øtet": 5338,
      "trening": 5339,
      "litteratur": 5340,
      "bestemmelser": 5341,
      "bøker": 5342,
      "pappa": 5343,
      "Ek": 5344,
      "Gu": 5345,
      "foreldrene": 5346,
      "spar": 5347,
      "fylkeskommun": 5348,
      "##atn": 5349,
      "##former": 5350,
      "våpen": 5351,
      "kalles": 5352,
      "##skog": 5353,
      "150": 5354,
      "falt": 5355,
      "##istet": 5356,
      "##dommer": 5357,
      "høsten": 5358,
      "##området": 5359,
      "##ho": 5360,
      "Jak": 5361,
      "kirken": 5362,
      "umulig": 5363,
      "ettermid": 5364,
      "innhold": 5365,
      "forsøkte": 5366,
      "qu": 5367,
      "stiller": 5368,
      "##DE": 5369,
      "##avgift": 5370,
      "oppd": 5371,
      "vitenskap": 5372,
      "##messig": 5373,
      "Inter": 5374,
      "dokumentar": 5375,
      "##aner": 5376,
      "løftet": 5377,
      "##bane": 5378,
      "spill": 5379,
      "nam": 5380,
      "spis": 5381,
      "Kol": 5382,
      "sag": 5383,
      "undervisning": 5384,
      "##essor": 5385,
      "klo": 5386,
      "Andreas": 5387,
      "vend": 5388,
      "##spart": 5389,
      "forsiktig": 5390,
      "##ryt": 5391,
      "Fro": 5392,
      "fortsetter": 5393,
      "##ité": 5394,
      "nyheter": 5395,
      "rimelig": 5396,
      "##grep": 5397,
      "##AV": 5398,
      "Andersen": 5399,
      "alko": 5400,
      "##asjonene": 5401,
      "grund": 5402,
      "praktisk": 5403,
      "klokken": 5404,
      "typer": 5405,
      "Lund": 5406,
      "Del": 5407,
      "husker": 5408,
      "håret": 5409,
      "flytte": 5410,
      "Carl": 5411,
      "##ionen": 5412,
      "jakt": 5413,
      "##ala": 5414,
      "sko": 5415,
      "halvt": 5416,
      "prp": 5417,
      "konkl": 5418,
      "##gi": 5419,
      "europe": 5420,
      "konser": 5421,
      "Larsen": 5422,
      "Mr": 5423,
      "##sny": 5424,
      "gården": 5425,
      "##ep": 5426,
      "up": 5427,
      "Gra": 5428,
      "kjørte": 5429,
      "konst": 5430,
      "arbeidspl": 5431,
      "gjeldende": 5432,
      "Jord": 5433,
      "tider": 5434,
      "instru": 5435,
      "##ellene": 5436,
      "##kjenn": 5437,
      "begynnelsen": 5438,
      "##ringe": 5439,
      "##ssp": 5440,
      "utr": 5441,
      "bre": 5442,
      "kjenne": 5443,
      "##partement": 5444,
      "##US": 5445,
      "forhandling": 5446,
      "oppdaget": 5447,
      "##andid": 5448,
      "##ear": 5449,
      "tils": 5450,
      "Bet": 5451,
      "##asin": 5452,
      "OL": 5453,
      "73": 5454,
      "##za": 5455,
      "##jøen": 5456,
      "trolig": 5457,
      "spise": 5458,
      "stoff": 5459,
      "##igen": 5460,
      "##visjon": 5461,
      "##jener": 5462,
      "Departementet": 5463,
      "##UR": 5464,
      "Po": 5465,
      "Gunnar": 5466,
      "Hall": 5467,
      "Gener": 5468,
      "avdeling": 5469,
      "fantast": 5470,
      "kjøpte": 5471,
      "##rapp": 5472,
      "tillit": 5473,
      "##etil": 5474,
      "##skriv": 5475,
      "regnskap": 5476,
      "##UL": 5477,
      "motstand": 5478,
      "omgang": 5479,
      "##ingsm": 5480,
      "ekst": 5481,
      "trykk": 5482,
      "faller": 5483,
      "Red": 5484,
      "hil": 5485,
      "Fig": 5486,
      "##beg": 5487,
      "##litt": 5488,
      "##sr": 5489,
      "mere": 5490,
      "bakken": 5491,
      "It": 5492,
      "ansvaret": 5493,
      "##arbeider": 5494,
      "avgjørende": 5495,
      "##fort": 5496,
      "##ikkerhet": 5497,
      "skritt": 5498,
      "76": 5499,
      "Tur": 5500,
      "1987": 5501,
      "stående": 5502,
      "rapport": 5503,
      "##oks": 5504,
      "nærmest": 5505,
      "trengte": 5506,
      "bot": 5507,
      "strøm": 5508,
      "subst": 5509,
      "således": 5510,
      "bos": 5511,
      "løsning": 5512,
      "##cts": 5513,
      "intervju": 5514,
      "Bak": 5515,
      ")\"\"": 5516,
      "vond": 5517,
      "styret": 5518,
      "##innen": 5519,
      "glem": 5520,
      "rettet": 5521,
      "tab": 5522,
      "##ific": 5523,
      "98": 5524,
      "gård": 5525,
      "Famil": 5526,
      "##atiske": 5527,
      "##lie": 5528,
      "94": 5529,
      "Hell": 5530,
      "kryss": 5531,
      "##resent": 5532,
      "levende": 5533,
      "68": 5534,
      "ed": 5535,
      "one": 5536,
      "Les": 5537,
      "gren": 5538,
      "##melding": 5539,
      "78": 5540,
      "##ysten": 5541,
      "seng": 5542,
      "##isa": 5543,
      "jobbe": 5544,
      "dess": 5545,
      "oppgåver": 5546,
      "##vent": 5547,
      "AV": 5548,
      "##kers": 5549,
      "gratis": 5550,
      "ru": 5551,
      "##dommen": 5552,
      "aktiv": 5553,
      "Nattsending": 5554,
      "##ninga": 5555,
      "86": 5556,
      "regnet": 5557,
      "##gifter": 5558,
      "sving": 5559,
      "ytterligere": 5560,
      "Likevel": 5561,
      "hender": 5562,
      "slår": 5563,
      "Folke": 5564,
      "venter": 5565,
      "spennende": 5566,
      "##iør": 5567,
      "##ii": 5568,
      "ryd": 5569,
      "hvilket": 5570,
      "elsker": 5571,
      "##fjell": 5572,
      "rut": 5573,
      "forståelse": 5574,
      "redusert": 5575,
      "Ga": 5576,
      "##tene": 5577,
      "uttal": 5578,
      "varier": 5579,
      "fritt": 5580,
      "utsatt": 5581,
      "været": 5582,
      "opplever": 5583,
      "##sleder": 5584,
      "1985": 5585,
      "gruppen": 5586,
      "##ennene": 5587,
      "framtid": 5588,
      "Midt": 5589,
      "nytte": 5590,
      "fornøyd": 5591,
      "##skraft": 5592,
      "tanken": 5593,
      "insp": 5594,
      "utenland": 5595,
      "##olum": 5596,
      "##ndelag": 5597,
      "brit": 5598,
      "port": 5599,
      "##ksten": 5600,
      "##ssjef": 5601,
      "ori": 5602,
      "##synet": 5603,
      "kommunikasjon": 5604,
      "NOR": 5605,
      "##elskap": 5606,
      "Mod": 5607,
      "kaller": 5608,
      "lover": 5609,
      "##sent": 5610,
      "##gere": 5611,
      "##igt": 5612,
      "##<<": 5613,
      "skil": 5614,
      "2020": 5615,
      "##hel": 5616,
      "Forsk": 5617,
      "diskusjon": 5618,
      "kapit": 5619,
      "##rop": 5620,
      "delta": 5621,
      "russ": 5622,
      "Jacob": 5623,
      "1986": 5624,
      "##esen": 5625,
      "88": 5626,
      "spred": 5627,
      "historien": 5628,
      "kvinnen": 5629,
      "tilhør": 5630,
      "Tabell": 5631,
      "##egen": 5632,
      "grønn": 5633,
      "undert": 5634,
      "##ppene": 5635,
      "##con": 5636,
      "Maria": 5637,
      "tanker": 5638,
      "##ague": 5639,
      "dekket": 5640,
      "normalt": 5641,
      "##utvikling": 5642,
      "ær": 5643,
      "##ams": 5644,
      "Ni": 5645,
      "##ames": 5646,
      "vanligvis": 5647,
      "##årene": 5648,
      "høst": 5649,
      "Kva": 5650,
      "enkel": 5651,
      "##lær": 5652,
      "##rette": 5653,
      "fig": 5654,
      "Frankrike": 5655,
      "##veis": 5656,
      "Kongen": 5657,
      "##vise": 5658,
      "##ove": 5659,
      "relev": 5660,
      "Rad": 5661,
      "##ould": 5662,
      "Mat": 5663,
      "##arm": 5664,
      "##hjem": 5665,
      "nødvendige": 5666,
      "skaper": 5667,
      "84": 5668,
      "Do": 5669,
      "##sem": 5670,
      "Mic": 5671,
      "generelt": 5672,
      "Kjell": 5673,
      "Pet": 5674,
      "kjøpt": 5675,
      "##sdtr": 5676,
      "##æg": 5677,
      "øker": 5678,
      "79": 5679,
      "fær": 5680,
      "##skom": 5681,
      "kamer": 5682,
      "##jent": 5683,
      "##RI": 5684,
      "havet": 5685,
      "havde": 5686,
      "dyp": 5687,
      "##yng": 5688,
      "heilt": 5689,
      "møn": 5690,
      "##ora": 5691,
      "Phil": 5692,
      "Alex": 5693,
      "skogen": 5694,
      "demokrat": 5695,
      "president": 5696,
      "Øv": 5697,
      "kjemp": 5698,
      "løse": 5699,
      "sjelden": 5700,
      "Beste": 5701,
      "byr": 5702,
      "##NE": 5703,
      "##egående": 5704,
      "div": 5705,
      "yt": 5706,
      "Byg": 5707,
      "administrasjon": 5708,
      "øver": 5709,
      "inntrykk": 5710,
      "##elske": 5711,
      "total": 5712,
      "gled": 5713,
      "gru": 5714,
      "##osof": 5715,
      "1960": 5716,
      "økonomi": 5717,
      "##nok": 5718,
      "lån": 5719,
      "##ykke": 5720,
      "innsats": 5721,
      "##itz": 5722,
      "Grunn": 5723,
      "Ka": 5724,
      "anner": 5725,
      "perspekt": 5726,
      "Pedersen": 5727,
      "symb": 5728,
      "bidrag": 5729,
      "##vensjon": 5730,
      "##industri": 5731,
      "##prø": 5732,
      "##ssystem": 5733,
      "Mos": 5734,
      "##enteret": 5735,
      "Mil": 5736,
      "Johansen": 5737,
      "Part": 5738,
      "toppen": 5739,
      "Trøndelag": 5740,
      "##sler": 5741,
      "##mund": 5742,
      "alkohol": 5743,
      "lun": 5744,
      "kone": 5745,
      "fortalt": 5746,
      "fal": 5747,
      "##sle": 5748,
      "aner": 5749,
      "nasjonale": 5750,
      "vent": 5751,
      "##lov": 5752,
      "linje": 5753,
      "Fly": 5754,
      "##aket": 5755,
      "##aver": 5756,
      "##ij": 5757,
      "##iens": 5758,
      "##område": 5759,
      "##ekan": 5760,
      "enig": 5761,
      "##saa": 5762,
      "Jakob": 5763,
      "ligg": 5764,
      "##lir": 5765,
      "drikke": 5766,
      "##emid": 5767,
      "streng": 5768,
      "inngå": 5769,
      "TIL": 5770,
      "##aly": 5771,
      "utført": 5772,
      "bygger": 5773,
      "Noe": 5774,
      "jenter": 5775,
      "##ommene": 5776,
      "tilt": 5777,
      "kommunest": 5778,
      "##anner": 5779,
      "Morgensending": 5780,
      "million": 5781,
      "rot": 5782,
      "planer": 5783,
      "89": 5784,
      "årets": 5785,
      "##kle": 5786,
      "83": 5787,
      "##ras": 5788,
      "##fi": 5789,
      "##blad": 5790,
      "andel": 5791,
      "vilje": 5792,
      "Må": 5793,
      "##zz": 5794,
      "annerledes": 5795,
      "bibliote": 5796,
      "smer": 5797,
      "svenske": 5798,
      "##endom": 5799,
      "been": 5800,
      "positive": 5801,
      "out": 5802,
      "##samling": 5803,
      "hente": 5804,
      "borger": 5805,
      "##sdal": 5806,
      "Høyre": 5807,
      "Tru": 5808,
      "more": 5809,
      "Kari": 5810,
      "87": 5811,
      "##loven": 5812,
      "differ": 5813,
      "179": 5814,
      "##vind": 5815,
      "lat": 5816,
      "hentet": 5817,
      "##istikk": 5818,
      "fortel": 5819,
      "Histor": 5820,
      "##atelse": 5821,
      "##ics": 5822,
      "oppfyl": 5823,
      "##itekt": 5824,
      "avtalen": 5825,
      "forbud": 5826,
      "##wn": 5827,
      "##bjørn": 5828,
      "snakk": 5829,
      "hard": 5830,
      "##).": 5831,
      "legg": 5832,
      "Fisk": 5833,
      "est": 5834,
      "sosi": 5835,
      "interessert": 5836,
      "jobbet": 5837,
      "##ival": 5838,
      "##alla": 5839,
      "forskrift": 5840,
      "##vig": 5841,
      "##vi": 5842,
      "import": 5843,
      "gulvet": 5844,
      "strand": 5845,
      "fing": 5846,
      "møtet": 5847,
      "Alf": 5848,
      "dypt": 5849,
      "øye": 5850,
      "rike": 5851,
      "regne": 5852,
      "##vne": 5853,
      "kron": 5854,
      "Paris": 5855,
      "plikt": 5856,
      "invol": 5857,
      "##felt": 5858,
      "stykke": 5859,
      "96": 5860,
      "##iar": 5861,
      "bygde": 5862,
      "##jennom": 5863,
      "neppe": 5864,
      "restaur": 5865,
      "avstand": 5866,
      "konflikt": 5867,
      "##RO": 5868,
      "boken": 5869,
      "##resten": 5870,
      "tirsdag": 5871,
      "##orld": 5872,
      "helhet": 5873,
      "##atten": 5874,
      "##vidt": 5875,
      "111": 5876,
      "##ørsmål": 5877,
      "ende": 5878,
      "##sprogram": 5879,
      "registrert": 5880,
      "vill": 5881,
      "##slov": 5882,
      "søster": 5883,
      "artikkel": 5884,
      "##ktet": 5885,
      "vider": 5886,
      "##offer": 5887,
      "kund": 5888,
      "their": 5889,
      "other": 5890,
      "adgang": 5891,
      "##ament": 5892,
      "ug": 5893,
      "kjøtt": 5894,
      "mandag": 5895,
      "##verre": 5896,
      "leie": 5897,
      "forvent": 5898,
      "lette": 5899,
      "kred": 5900,
      "stab": 5901,
      "endret": 5902,
      "livs": 5903,
      "fengsel": 5904,
      "Forsvar": 5905,
      "##øye": 5906,
      "totalt": 5907,
      "1984": 5908,
      "still": 5909,
      "##ania": 5910,
      "gutten": 5911,
      "temperatur": 5912,
      "Ivar": 5913,
      "##ordning": 5914,
      "arbeidsgiver": 5915,
      "kjel": 5916,
      "Svein": 5917,
      "Bør": 5918,
      "Amerika": 5919,
      "nevnte": 5920,
      "Vis": 5921,
      "lege": 5922,
      "##egor": 5923,
      "Eid": 5924,
      "svare": 5925,
      "posisjon": 5926,
      "utel": 5927,
      "farge": 5928,
      "Russland": 5929,
      "Tek": 5930,
      "##ution": 5931,
      "##ryg": 5932,
      "Result": 5933,
      "bind": 5934,
      "skjønner": 5935,
      "Finnmark": 5936,
      "Nyheter": 5937,
      "kommunale": 5938,
      "##amin": 5939,
      "hyl": 5940,
      "bygning": 5941,
      "##slige": 5942,
      "nødt": 5943,
      "armen": 5944,
      "##øyer": 5945,
      "minne": 5946,
      "##lade": 5947,
      "åt": 5948,
      "##hjelp": 5949,
      "##somme": 5950,
      "##vekt": 5951,
      "overbe": 5952,
      "##DAG": 5953,
      "Id": 5954,
      "boka": 5955,
      "prosess": 5956,
      "##...": 5957,
      "##ities": 5958,
      "valgte": 5959,
      "etablert": 5960,
      "##mma": 5961,
      "Tra": 5962,
      "##legger": 5963,
      "resultatet": 5964,
      "tonn": 5965,
      "veit": 5966,
      "##illere": 5967,
      "behandlet": 5968,
      "##hal": 5969,
      "utvalget": 5970,
      "fotograf": 5971,
      "##ape": 5972,
      "##formen": 5973,
      "lukket": 5974,
      "will": 5975,
      "ør": 5976,
      "Marit": 5977,
      "ønsk": 5978,
      "vand": 5979,
      "Nes": 5980,
      "bist": 5981,
      "blomster": 5982,
      "vedtatt": 5983,
      "vedlike": 5984,
      "##enden": 5985,
      "##enterte": 5986,
      "utred": 5987,
      "DN": 5988,
      "Nær": 5989,
      "religi": 5990,
      "##odd": 5991,
      "dobbelt": 5992,
      "##bel": 5993,
      "##ada": 5994,
      "Holm": 5995,
      "Dr": 5996,
      "lyset": 5997,
      "uk": 5998,
      "vinduet": 5999,
      "Pol": 6000,
      "likte": 6001,
      "comp": 6002,
      "##vo": 6003,
      "##rense": 6004,
      "sil": 6005,
      "League": 6006,
      "pengene": 6007,
      "Frem": 6008,
      "Dags": 6009,
      "Van": 6010,
      "reglene": 6011,
      "Regjeringen": 6012,
      "##tten": 6013,
      "##innene": 6014,
      "muligheten": 6015,
      "mangler": 6016,
      "dating": 6017,
      "fisker": 6018,
      "bror": 6019,
      "latter": 6020,
      "våren": 6021,
      "Hadde": 6022,
      "##lim": 6023,
      "gn": 6024,
      "##EST": 6025,
      "##handler": 6026,
      "##øyet": 6027,
      "##råket": 6028,
      "konge": 6029,
      "Fre": 6030,
      "##oper": 6031,
      "##ikerne": 6032,
      "initi": 6033,
      "Mc": 6034,
      "Blant": 6035,
      "drept": 6036,
      "drev": 6037,
      "##inene": 6038,
      "##jort": 6039,
      "resultater": 6040,
      "interessant": 6041,
      "kjøper": 6042,
      "##ulere": 6043,
      "175": 6044,
      "mobil": 6045,
      "##she": 6046,
      "sørge": 6047,
      "mangel": 6048,
      "fine": 6049,
      "grunnlegg": 6050,
      "evne": 6051,
      "1981": 6052,
      "hjelper": 6053,
      "opps": 6054,
      "nærheten": 6055,
      "stemmen": 6056,
      "##aard": 6057,
      "avd": 6058,
      "##jenesten": 6059,
      "Sammen": 6060,
      "Tro": 6061,
      "gjent": 6062,
      "innvand": 6063,
      "##ansvar": 6064,
      "stede": 6065,
      "sølv": 6066,
      "utgangspunktet": 6067,
      "sterkere": 6068,
      "økte": 6069,
      "Fo": 6070,
      "##ørene": 6071,
      "ovenfor": 6072,
      "go": 6073,
      "##endal": 6074,
      "##krig": 6075,
      "Hot": 6076,
      "utv": 6077,
      "##kkene": 6078,
      "besky": 6079,
      "kongen": 6080,
      "##saker": 6081,
      "handel": 6082,
      "Bruk": 6083,
      "grunnen": 6084,
      "Isra": 6085,
      "This": 6086,
      "begrenset": 6087,
      "Robert": 6088,
      "røde": 6089,
      "##strid": 6090,
      "yrke": 6091,
      "merk": 6092,
      "##bro": 6093,
      "objekt": 6094,
      "skille": 6095,
      "Can": 6096,
      "##merket": 6097,
      "forel": 6098,
      "##elset": 6099,
      "##ular": 6100,
      "##SB": 6101,
      "lavt": 6102,
      "##rip": 6103,
      "tilgang": 6104,
      "hemmelig": 6105,
      "##bed": 6106,
      "armene": 6107,
      "##ullet": 6108,
      "##sarbeid": 6109,
      "systemet": 6110,
      "vondt": 6111,
      "Jer": 6112,
      "preget": 6113,
      "landets": 6114,
      "fysisk": 6115,
      "##jed": 6116,
      "Gi": 6117,
      "##stillinger": 6118,
      "##30": 6119,
      "redusere": 6120,
      "kristne": 6121,
      "##rettet": 6122,
      "verdier": 6123,
      "såkalte": 6124,
      "##ellem": 6125,
      "##vesen": 6126,
      "##annelse": 6127,
      "##ns": 6128,
      "absolutt": 6129,
      "midten": 6130,
      "##orene": 6131,
      "skjel": 6132,
      "angrep": 6133,
      "neder": 6134,
      "statsb": 6135,
      "begrunn": 6136,
      "##yk": 6137,
      "utl": 6138,
      "enkle": 6139,
      "Hed": 6140,
      "tilsk": 6141,
      "spre": 6142,
      "##fr": 6143,
      "##undersøk": 6144,
      "Magnus": 6145,
      "hode": 6146,
      "videregående": 6147,
      "##ited": 6148,
      "sluttet": 6149,
      "##adem": 6150,
      "sle": 6151,
      "markedet": 6152,
      "##alder": 6153,
      "##øyt": 6154,
      "##iering": 6155,
      "##egnet": 6156,
      "dreier": 6157,
      "Deretter": 6158,
      "##inal": 6159,
      "##ola": 6160,
      "målet": 6161,
      "illust": 6162,
      "utny": 6163,
      "redu": 6164,
      "##prosjekt": 6165,
      "sikte": 6166,
      "garden": 6167,
      "trener": 6168,
      "##mester": 6169,
      "##ona": 6170,
      "foreligger": 6171,
      "Pe": 6172,
      "##ege": 6173,
      "Ragn": 6174,
      "##uf": 6175,
      "##urens": 6176,
      "berg": 6177,
      "skad": 6178,
      "def": 6179,
      "##iff": 6180,
      "may": 6181,
      "600": 6182,
      "##velop": 6183,
      "autom": 6184,
      "Na": 6185,
      "begynt": 6186,
      "Begge": 6187,
      "##sgrupp": 6188,
      "fantes": 6189,
      "##ating": 6190,
      "størrelse": 6191,
      "galt": 6192,
      "##verdig": 6193,
      "##talen": 6194,
      "##ømme": 6195,
      "##ordin": 6196,
      "etterpå": 6197,
      "ivaret": 6198,
      "kob": 6199,
      "##hvert": 6200,
      "Syn": 6201,
      "trekker": 6202,
      "Hov": 6203,
      "1950": 6204,
      "FN": 6205,
      "rene": 6206,
      "bøl": 6207,
      "fjerde": 6208,
      "smør": 6209,
      "yrkes": 6210,
      "avsnitt": 6211,
      "kilometer": 6212,
      "flertall": 6213,
      "##kjøp": 6214,
      "##ween": 6215,
      "pst": 6216,
      "##giver": 6217,
      "forslaget": 6218,
      "Li": 6219,
      "##vekst": 6220,
      "-\"\"": 6221,
      "ristet": 6222,
      "sykeple": 6223,
      "Halvor": 6224,
      "oppover": 6225,
      "##elde": 6226,
      "hovud": 6227,
      "##ror": 6228,
      "also": 6229,
      "##yer": 6230,
      "Hele": 6231,
      "sjøen": 6232,
      "nekt": 6233,
      "ressurser": 6234,
      "##liv": 6235,
      "Ør": 6236,
      "gjennomføre": 6237,
      "Fe": 6238,
      "Kat": 6239,
      "##lass": 6240,
      "##elling": 6241,
      "kontin": 6242,
      "gal": 6243,
      "SP": 6244,
      "Pris": 6245,
      "pasient": 6246,
      "##ama": 6247,
      "disp": 6248,
      "Mål": 6249,
      "ler": 6250,
      "båten": 6251,
      "kvalif": 6252,
      "action": 6253,
      "huske": 6254,
      "landsb": 6255,
      "cons": 6256,
      "overfl": 6257,
      "oppfatning": 6258,
      "1000": 6259,
      "Natur": 6260,
      "##banen": 6261,
      "Jensen": 6262,
      "##ulen": 6263,
      "sats": 6264,
      "dep": 6265,
      "parker": 6266,
      "##ønn": 6267,
      "1979": 6268,
      "1982": 6269,
      "vakre": 6270,
      "Matt": 6271,
      "fremme": 6272,
      "Einar": 6273,
      "1977": 6274,
      "mass": 6275,
      "##bygger": 6276,
      "direktør": 6277,
      "##udsjett": 6278,
      "1978": 6279,
      "utgifter": 6280,
      "virkning": 6281,
      "acc": 6282,
      "pedagog": 6283,
      "hvad": 6284,
      "##ella": 6285,
      "plassen": 6286,
      "fattig": 6287,
      "Ital": 6288,
      "##områder": 6289,
      "##vold": 6290,
      "halvparten": 6291,
      "##gjer": 6292,
      "##esser": 6293,
      "##asjonal": 6294,
      "eldste": 6295,
      "vik": 6296,
      "1983": 6297,
      "Sæ": 6298,
      "kolleg": 6299,
      "sinn": 6300,
      "musk": 6301,
      "Nilsen": 6302,
      "eval": 6303,
      "##ktoren": 6304,
      "##dalen": 6305,
      "kna": 6306,
      "runde": 6307,
      "##setninger": 6308,
      "Gran": 6309,
      "naturen": 6310,
      "verken": 6311,
      "Tore": 6312,
      "fjern": 6313,
      "##skol": 6314,
      "forplikt": 6315,
      "fremtid": 6316,
      "leir": 6317,
      "VG": 6318,
      "samle": 6319,
      "foruts": 6320,
      "forsvant": 6321,
      "##oms": 6322,
      "##urtig": 6323,
      "krimin": 6324,
      "innfly": 6325,
      "##lemmene": 6326,
      "kompl": 6327,
      "##gjort": 6328,
      "ytre": 6329,
      "forvaltning": 6330,
      "taler": 6331,
      "##bank": 6332,
      "overt": 6333,
      "##veks": 6334,
      "##chen": 6335,
      "##ferdig": 6336,
      "felle": 6337,
      "bokstav": 6338,
      "flott": 6339,
      "1975": 6340,
      "tilfredsst": 6341,
      "dele": 6342,
      "jorden": 6343,
      "tungt": 6344,
      "##ukket": 6345,
      "Fylke": 6346,
      "rapporter": 6347,
      "gong": 6348,
      "starter": 6349,
      "Sil": 6350,
      "identif": 6351,
      "Føl": 6352,
      "forklare": 6353,
      "##ktes": 6354,
      "føle": 6355,
      "##idar": 6356,
      "påpe": 6357,
      "##kan": 6358,
      "##delen": 6359,
      "kaffe": 6360,
      "forbered": 6361,
      "Ras": 6362,
      "forskjellig": 6363,
      "##ulerer": 6364,
      "##cess": 6365,
      "yngre": 6366,
      "frø": 6367,
      "##sled": 6368,
      "178": 6369,
      "vinteren": 6370,
      "taket": 6371,
      "innrø": 6372,
      "ordene": 6373,
      "1976": 6374,
      "Sos": 6375,
      "##erske": 6376,
      "nærmeste": 6377,
      "positiv": 6378,
      "sukker": 6379,
      "leser": 6380,
      "##ynt": 6381,
      "Tot": 6382,
      "hvisk": 6383,
      "##tein": 6384,
      "turen": 6385,
      "enige": 6386,
      "kjempe": 6387,
      "##han": 6388,
      "##nede": 6389,
      "håp": 6390,
      "erfaringer": 6391,
      "177": 6392,
      "Stra": 6393,
      "##ages": 6394,
      "åringen": 6395,
      "##hn": 6396,
      "##stemer": 6397,
      "veiled": 6398,
      "munn": 6399,
      "skjønte": 6400,
      "Strand": 6401,
      "kommentar": 6402,
      "sesong": 6403,
      "heng": 6404,
      "uv": 6405,
      "176": 6406,
      "frisk": 6407,
      "ordin": 6408,
      "forretning": 6409,
      "kok": 6410,
      "hor": 6411,
      "##NING": 6412,
      "lignende": 6413,
      "innlegg": 6414,
      "profesjon": 6415,
      "##asitet": 6416,
      "##yrk": 6417,
      "nedenfor": 6418,
      "fla": 6419,
      "Lo": 6420,
      "veggen": 6421,
      "##rørende": 6422,
      "tilgjengelig": 6423,
      "##spen": 6424,
      "Vir": 6425,
      "between": 6426,
      "len": 6427,
      "Ung": 6428,
      "bidrar": 6429,
      "drama": 6430,
      "behovet": 6431,
      "overrask": 6432,
      "Aften": 6433,
      "##jul": 6434,
      "representerer": 6435,
      "##nevnte": 6436,
      "##spr": 6437,
      "størst": 6438,
      "Just": 6439,
      "##skil": 6440,
      "fjerne": 6441,
      "menneskene": 6442,
      "Nordland": 6443,
      "##kre": 6444,
      "stått": 6445,
      "stanset": 6446,
      "prisen": 6447,
      "IV": 6448,
      "hang": 6449,
      "langsomt": 6450,
      "##føringen": 6451,
      "avvik": 6452,
      "veks": 6453,
      "verre": 6454,
      "##irektoratet": 6455,
      "##bert": 6456,
      "##æs": 6457,
      "##bær": 6458,
      "##EF": 6459,
      "##iseringen": 6460,
      "fungerer": 6461,
      "lands": 6462,
      "handels": 6463,
      "umiddel": 6464,
      "son": 6465,
      "##orgen": 6466,
      "milliarder": 6467,
      "utlandet": 6468,
      "vass": 6469,
      "##imensjon": 6470,
      "##seth": 6471,
      "benyttes": 6472,
      "Ned": 6473,
      "måter": 6474,
      "there": 6475,
      "##posten": 6476,
      "##system": 6477,
      "erkl": 6478,
      "dru": 6479,
      "myndighet": 6480,
      "tend": 6481,
      "##ali": 6482,
      "##ransport": 6483,
      "hjertet": 6484,
      "Off": 6485,
      "fyller": 6486,
      "benyttet": 6487,
      "##aksim": 6488,
      "##mot": 6489,
      "risiko": 6490,
      "##ced": 6491,
      "areal": 6492,
      "800": 6493,
      "##rika": 6494,
      "Lag": 6495,
      "sengen": 6496,
      "himmelen": 6497,
      "Hav": 6498,
      "Norw": 6499,
      "observ": 6500,
      "spesiell": 6501,
      "##ænd": 6502,
      "##ible": 6503,
      "##10": 6504,
      "forholdene": 6505,
      "opphold": 6506,
      "##smessige": 6507,
      "##ttene": 6508,
      "biler": 6509,
      "Rik": 6510,
      "nokre": 6511,
      "måle": 6512,
      "Ger": 6513,
      "##ømm": 6514,
      "Norway": 6515,
      "ledelse": 6516,
      "##ieren": 6517,
      "they": 6518,
      "konsekvens": 6519,
      "problemet": 6520,
      "##ology": 6521,
      "##riske": 6522,
      "##struktur": 6523,
      "minutt": 6524,
      "butikk": 6525,
      "tilpass": 6526,
      "skikkelig": 6527,
      "skoler": 6528,
      "symp": 6529,
      "Col": 6530,
      "##fol": 6531,
      "Amer": 6532,
      "jub": 6533,
      "århund": 6534,
      "##anken": 6535,
      "##sessen": 6536,
      "Litt": 6537,
      "løsninger": 6538,
      "Form": 6539,
      "slippe": 6540,
      "##settelse": 6541,
      "hindre": 6542,
      "##plasser": 6543,
      "åpner": 6544,
      "effektiv": 6545,
      "##ørsmålet": 6546,
      "plast": 6547,
      "virksomheten": 6548,
      "emp": 6549,
      "produkter": 6550,
      "mennene": 6551,
      "##undt": 6552,
      "økning": 6553,
      "Op": 6554,
      "##ty": 6555,
      "soc": 6556,
      "##voll": 6557,
      "snar": 6558,
      "sektor": 6559,
      "Gjer": 6560,
      "PÅ": 6561,
      "administrat": 6562,
      "jente": 6563,
      "grense": 6564,
      "underholdning": 6565,
      "Rett": 6566,
      "##ca": 6567,
      "innstilling": 6568,
      "dial": 6569,
      "utrolig": 6570,
      "##sund": 6571,
      "omfang": 6572,
      "høyde": 6573,
      "##jorden": 6574,
      "korte": 6575,
      "##ittil": 6576,
      "egg": 6577,
      "oppmerksomhet": 6578,
      "you": 6579,
      "redde": 6580,
      "##cer": 6581,
      "reist": 6582,
      "klær": 6583,
      "svensk": 6584,
      "##ulering": 6585,
      "moral": 6586,
      "invest": 6587,
      "Takk": 6588,
      "##budet": 6589,
      "øre": 6590,
      "##arden": 6591,
      "##slet": 6592,
      "Marg": 6593,
      "1973": 6594,
      "##abeth": 6595,
      "##OS": 6596,
      "befolkningen": 6597,
      "##otter": 6598,
      "EM": 6599,
      "##nar": 6600,
      "##åte": 6601,
      "grunnleggende": 6602,
      "##kretær": 6603,
      "kle": 6604,
      "tlf": 6605,
      "Sær": 6606,
      "symbol": 6607,
      "1972": 6608,
      "undervis": 6609,
      "tilp": 6610,
      "myndigheter": 6611,
      "Mannen": 6612,
      "##skrig": 6613,
      "##fru": 6614,
      "planen": 6615,
      "Bok": 6616,
      "1974": 6617,
      "##onse": 6618,
      "rettigheter": 6619,
      "##behandling": 6620,
      "selger": 6621,
      "##løst": 6622,
      "gate": 6623,
      "##jøl": 6624,
      "reser": 6625,
      "##draget": 6626,
      "studer": 6627,
      "tabell": 6628,
      "##kir": 6629,
      "Instit": 6630,
      "##ollar": 6631,
      "modell": 6632,
      "act": 6633,
      "kunstner": 6634,
      "##rel": 6635,
      "fork": 6636,
      "lært": 6637,
      "##etting": 6638,
      "Dere": 6639,
      "Noreg": 6640,
      "kreve": 6641,
      "##eløpig": 6642,
      "hjør": 6643,
      "last": 6644,
      "endre": 6645,
      "stim": 6646,
      "grunner": 6647,
      "potens": 6648,
      "knapt": 6649,
      "##atnet": 6650,
      "tyder": 6651,
      "stilte": 6652,
      "organisasjoner": 6653,
      "Morten": 6654,
      "nøye": 6655,
      "sentralt": 6656,
      "##nivå": 6657,
      "##ahl": 6658,
      "##ior": 6659,
      "forsikring": 6660,
      "##start": 6661,
      "ske": 6662,
      "fylkes": 6663,
      "undersøkelse": 6664,
      "##IF": 6665,
      "nokså": 6666,
      "tunge": 6667,
      "eksempler": 6668,
      "frihet": 6669,
      "##rød": 6670,
      "pasienter": 6671,
      "initiativ": 6672,
      "etc": 6673,
      "intet": 6674,
      "foregår": 6675,
      "##ården": 6676,
      "dekke": 6677,
      "stolt": 6678,
      "##forbund": 6679,
      "spec": 6680,
      "Skog": 6681,
      "Met": 6682,
      "bedt": 6683,
      "##posisjon": 6684,
      "sies": 6685,
      "##splikt": 6686,
      "##fot": 6687,
      "##virkning": 6688,
      "##nor": 6689,
      "tann": 6690,
      "##50": 6691,
      "Helge": 6692,
      "##delt": 6693,
      "heldig": 6694,
      "erst": 6695,
      "firma": 6696,
      "pil": 6697,
      "brans": 6698,
      "dans": 6699,
      "taus": 6700,
      "Første": 6701,
      "##telse": 6702,
      "utfordring": 6703,
      "konsekvenser": 6704,
      "typen": 6705,
      "demon": 6706,
      "maskin": 6707,
      "talet": 6708,
      "##øde": 6709,
      "kyst": 6710,
      "##ject": 6711,
      "flest": 6712,
      "##ripe": 6713,
      "plassert": 6714,
      "Bes": 6715,
      "farlig": 6716,
      "Fotball": 6717,
      "melding": 6718,
      "foreta": 6719,
      "##appar": 6720,
      "Bodø": 6721,
      "korre": 6722,
      "åpent": 6723,
      "##orth": 6724,
      "##funnet": 6725,
      "brå": 6726,
      "status": 6727,
      "Aar": 6728,
      "Math": 6729,
      "Ring": 6730,
      "##ela": 6731,
      "##ipl": 6732,
      "korleis": 6733,
      "##liggende": 6734,
      "##sforhold": 6735,
      "Ju": 6736,
      "##bas": 6737,
      "brød": 6738,
      "blad": 6739,
      "trø": 6740,
      "studie": 6741,
      "##ivert": 6742,
      "##oller": 6743,
      "mørk": 6744,
      "Spes": 6745,
      "##ward": 6746,
      "##iment": 6747,
      "hyggelig": 6748,
      "##isp": 6749,
      "##aktør": 6750,
      "##fød": 6751,
      "##uste": 6752,
      "lur": 6753,
      "tilknytning": 6754,
      "sønnen": 6755,
      "Bon": 6756,
      "skapt": 6757,
      "presset": 6758,
      "tung": 6759,
      "tids": 6760,
      "tekniske": 6761,
      "1945": 6762,
      "Bill": 6763,
      "1800": 6764,
      "strøk": 6765,
      "had": 6766,
      "beløp": 6767,
      "hund": 6768,
      "normal": 6769,
      "passe": 6770,
      "forret": 6771,
      "##ningar": 6772,
      "fylt": 6773,
      "##askin": 6774,
      "Qu": 6775,
      "120": 6776,
      "iv": 6777,
      "skinn": 6778,
      "So": 6779,
      "##ze": 6780,
      "stilt": 6781,
      "hotell": 6782,
      "##klart": 6783,
      "prosjekter": 6784,
      "fen": 6785,
      "##rert": 6786,
      "##henger": 6787,
      "politi": 6788,
      "Ellen": 6789,
      "##jeneste": 6790,
      "##ming": 6791,
      "##but": 6792,
      "henger": 6793,
      "resp": 6794,
      "kjøkkenet": 6795,
      "bestemme": 6796,
      "##ower": 6797,
      "stoppet": 6798,
      "noget": 6799,
      "1940": 6800,
      "Nic": 6801,
      "##nda": 6802,
      "##ures": 6803,
      "##lands": 6804,
      "dyre": 6805,
      "Vin": 6806,
      "fornuft": 6807,
      "sesongen": 6808,
      "##ara": 6809,
      "prosessen": 6810,
      "starte": 6811,
      "##yrer": 6812,
      "##kjen": 6813,
      "##valt": 6814,
      "overv": 6815,
      "##stått": 6816,
      "skuesp": 6817,
      "oppford": 6818,
      "##ydro": 6819,
      "##utvalget": 6820,
      "verne": 6821,
      "##nene": 6822,
      "likhet": 6823,
      "##ista": 6824,
      "beslut": 6825,
      "sover": 6826,
      "Micha": 6827,
      "##sområ": 6828,
      "tolk": 6829,
      "##mes": 6830,
      "Inger": 6831,
      "Don": 6832,
      "server": 6833,
      "markeds": 6834,
      "san": 6835,
      "uken": 6836,
      "kollekt": 6837,
      "igjennom": 6838,
      "##skar": 6839,
      "##løse": 6840,
      "tilnær": 6841,
      "mi": 6842,
      "suks": 6843,
      "##oppen": 6844,
      "##vendig": 6845,
      "ringte": 6846,
      "nordmenn": 6847,
      "opplyser": 6848,
      "##omer": 6849,
      "Son": 6850,
      "aktiviteter": 6851,
      "trukket": 6852,
      "konstru": 6853,
      "Univers": 6854,
      "Venstre": 6855,
      "UN": 6856,
      "##ctor": 6857,
      "##indel": 6858,
      "programmet": 6859,
      "##RU": 6860,
      "innbygg": 6861,
      "positivt": 6862,
      "foretatt": 6863,
      "bønn": 6864,
      "Emil": 6865,
      "EN": 6866,
      "grenser": 6867,
      "bedriften": 6868,
      "trå": 6869,
      "falle": 6870,
      "innom": 6871,
      "##dem": 6872,
      "##kenes": 6873,
      "EF": 6874,
      "virkeligheten": 6875,
      "liksom": 6876,
      "How": 6877,
      "ressurs": 6878,
      "##uth": 6879,
      "teksten": 6880,
      "diskuter": 6881,
      "##taket": 6882,
      "tår": 6883,
      "##vart": 6884,
      "spesif": 6885,
      "##osa": 6886,
      "låg": 6887,
      "ramme": 6888,
      "sender": 6889,
      "skader": 6890,
      "minner": 6891,
      "##oer": 6892,
      "1900": 6893,
      "Grat": 6894,
      "##fulle": 6895,
      "uavhengig": 6896,
      "motiv": 6897,
      "##økene": 6898,
      "Herren": 6899,
      "fulgt": 6900,
      "Slike": 6901,
      "syss": 6902,
      "##asjons": 6903,
      "##riften": 6904,
      "fulle": 6905,
      "sidan": 6906,
      "##cil": 6907,
      "naturligvis": 6908,
      "ettermiddag": 6909,
      "174": 6910,
      "luften": 6911,
      "##speri": 6912,
      "##SE": 6913,
      "San": 6914,
      "Distrikt": 6915,
      "materiale": 6916,
      "analyse": 6917,
      "##makt": 6918,
      "##stud": 6919,
      "##lå": 6920,
      "##beveg": 6921,
      "sne": 6922,
      "fjellet": 6923,
      "vinne": 6924,
      "##atikk": 6925,
      "greit": 6926,
      "optim": 6927,
      "##AP": 6928,
      "##alene": 6929,
      "kikket": 6930,
      "personlige": 6931,
      "Bang": 6932,
      "##tende": 6933,
      "gev": 6934,
      "døra": 6935,
      "##akere": 6936,
      "Lev": 6937,
      "##rak": 6938,
      "##jev": 6939,
      "Rør": 6940,
      "##rykket": 6941,
      "praktiske": 6942,
      "følelser": 6943,
      "##gjøre": 6944,
      "ph": 6945,
      "##tto": 6946,
      "##asjen": 6947,
      "Organ": 6948,
      "halsen": 6949,
      "undersøkelser": 6950,
      "fav": 6951,
      "tilstand": 6952,
      "Com": 6953,
      "than": 6954,
      "250": 6955,
      "dagene": 6956,
      "filosof": 6957,
      "Nett": 6958,
      "ledet": 6959,
      "idé": 6960,
      "##æv": 6961,
      "##remt": 6962,
      "Big": 6963,
      "##AK": 6964,
      "grov": 6965,
      "##fug": 6966,
      "rygg": 6967,
      "##book": 6968,
      "fantastisk": 6969,
      "vises": 6970,
      "##rekk": 6971,
      "kostnader": 6972,
      "ansatt": 6973,
      "signal": 6974,
      "lærere": 6975,
      "Kle": 6976,
      "erstatning": 6977,
      "Spe": 6978,
      "##side": 6979,
      "levde": 6980,
      "##cent": 6981,
      "Politiet": 6982,
      "fik": 6983,
      "Store": 6984,
      "fransk": 6985,
      "Agder": 6986,
      "spr": 6987,
      "grens": 6988,
      "Norweg": 6989,
      "##fekt": 6990,
      "oppleve": 6991,
      "ekspl": 6992,
      "fremmed": 6993,
      "klubb": 6994,
      "1969": 6995,
      "##byr": 6996,
      "elektron": 6997,
      "Komm": 6998,
      "##ining": 6999,
      "skuldrene": 7000,
      "##miljø": 7001,
      "tidleg": 7002,
      "fait": 7003,
      "konkrete": 7004,
      "pasienten": 7005,
      "Høg": 7006,
      "danske": 7007,
      "smak": 7008,
      "##setting": 7009,
      "used": 7010,
      "ap": 7011,
      "Stock": 7012,
      "dir": 7013,
      "retningslin": 7014,
      "NY": 7015,
      "våk": 7016,
      "tvers": 7017,
      "##eloven": 7018,
      "Mennes": 7019,
      "1971": 7020,
      "##peri": 7021,
      "Kø": 7022,
      "vidare": 7023,
      "gutter": 7024,
      "Fram": 7025,
      "##edrag": 7026,
      "##innes": 7027,
      "lab": 7028,
      "~~": 7029,
      "parti": 7030,
      "berør": 7031,
      "anses": 7032,
      "gle": 7033,
      "##iem": 7034,
      "ordning": 7035,
      "oppstår": 7036,
      "teknisk": 7037,
      "framover": 7038,
      "##indre": 7039,
      "mal": 7040,
      "korn": 7041,
      "Prosjekt": 7042,
      "##ato": 7043,
      "##itann": 7044,
      "generelle": 7045,
      "Pres": 7046,
      "regnes": 7047,
      "Elis": 7048,
      "##rans": 7049,
      "drar": 7050,
      "meiner": 7051,
      "sing": 7052,
      "sannsynligvis": 7053,
      "kvinnene": 7054,
      "minim": 7055,
      "##ollene": 7056,
      "forst": 7057,
      "##aga": 7058,
      "øl": 7059,
      "partiet": 7060,
      "dykt": 7061,
      "søknad": 7062,
      "Telem": 7063,
      "##orge": 7064,
      "utbet": 7065,
      "Bolig": 7066,
      "gass": 7067,
      "stål": 7068,
      "##ski": 7069,
      "såg": 7070,
      "omgiv": 7071,
      "##cept": 7072,
      "verste": 7073,
      "mester": 7074,
      "forklarer": 7075,
      "##osjon": 7076,
      "samarbeidet": 7077,
      "Rapp": 7078,
      "##utten": 7079,
      "opprettet": 7080,
      "##fatt": 7081,
      "##benhavn": 7082,
      "##sens": 7083,
      "super": 7084,
      "nest": 7085,
      "obser": 7086,
      "studier": 7087,
      "peker": 7088,
      "upp": 7089,
      "##ient": 7090,
      "##elet": 7091,
      "håpet": 7092,
      "##kse": 7093,
      "ferie": 7094,
      "arr": 7095,
      "##artet": 7096,
      "##veit": 7097,
      "##åre": 7098,
      "opplevd": 7099,
      "utfordringer": 7100,
      "klima": 7101,
      "##anden": 7102,
      "mum": 7103,
      "hast": 7104,
      "forster": 7105,
      "von": 7106,
      "##somhet": 7107,
      "##produ": 7108,
      "##øve": 7109,
      "skilt": 7110,
      "##rådene": 7111,
      "lens": 7112,
      "samling": 7113,
      "hjul": 7114,
      "Willi": 7115,
      "regner": 7116,
      "##fjorden": 7117,
      "fritid": 7118,
      "Pat": 7119,
      "jule": 7120,
      "kreft": 7121,
      "##ump": 7122,
      "bon": 7123,
      "ekteskap": 7124,
      "isol": 7125,
      "Kristiansand": 7126,
      "##cl": 7127,
      "publ": 7128,
      "##bred": 7129,
      "hevder": 7130,
      "forhånd": 7131,
      "klipp": 7132,
      "handle": 7133,
      "##sgrunn": 7134,
      "##EK": 7135,
      "Kunst": 7136,
      "##alk": 7137,
      "regulering": 7138,
      "dukket": 7139,
      "mo": 7140,
      "ogsaa": 7141,
      "vegen": 7142,
      "fanget": 7143,
      "ball": 7144,
      "nokon": 7145,
      "Show": 7146,
      "møtt": 7147,
      "voksen": 7148,
      "enhet": 7149,
      "work": 7150,
      "##ied": 7151,
      "hverdag": 7152,
      "rekl": 7153,
      "læring": 7154,
      "velferd": 7155,
      "stig": 7156,
      "utslipp": 7157,
      "Island": 7158,
      "orig": 7159,
      "traff": 7160,
      "følelse": 7161,
      "##lement": 7162,
      "##itert": 7163,
      "##ENT": 7164,
      "##UT": 7165,
      "trett": 7166,
      "økende": 7167,
      "gjens": 7168,
      "##resjon": 7169,
      "##snivå": 7170,
      "##leie": 7171,
      "analys": 7172,
      "smerte": 7173,
      "##atret": 7174,
      "##aterial": 7175,
      "oversk": 7176,
      "færre": 7177,
      "ordfører": 7178,
      "skule": 7179,
      "##aktivitet": 7180,
      "##sil": 7181,
      "Leg": 7182,
      "ære": 7183,
      "religion": 7184,
      "belast": 7185,
      "##skost": 7186,
      "mik": 7187,
      "##11": 7188,
      "nogen": 7189,
      "mørket": 7190,
      "Lørdag": 7191,
      "kjører": 7192,
      "Sund": 7193,
      "europeiske": 7194,
      "klubben": 7195,
      "##oph": 7196,
      "radio": 7197,
      "##astro": 7198,
      "Geir": 7199,
      "##eles": 7200,
      "##uene": 7201,
      "Fle": 7202,
      "Eks": 7203,
      "negative": 7204,
      "betalt": 7205,
      "spilt": 7206,
      "rapporten": 7207,
      "Ke": 7208,
      "##spør": 7209,
      "Jar": 7210,
      "##SL": 7211,
      "##alp": 7212,
      "Michael": 7213,
      "##kontr": 7214,
      "ov": 7215,
      "professor": 7216,
      "##hald": 7217,
      "##ura": 7218,
      "##hard": 7219,
      "Helse": 7220,
      "foreslår": 7221,
      "##vitt": 7222,
      "tren": 7223,
      "##øt": 7224,
      "##rot": 7225,
      "##bakken": 7226,
      "Ry": 7227,
      "##partementets": 7228,
      "##ktøy": 7229,
      "##agraf": 7230,
      "stikk": 7231,
      "let": 7232,
      "##bes": 7233,
      "nøyaktig": 7234,
      "Go": 7235,
      "Storbr": 7236,
      "Anton": 7237,
      "##sjef": 7238,
      "sens": 7239,
      "forstand": 7240,
      "Håkon": 7241,
      "frig": 7242,
      "Barne": 7243,
      "##JON": 7244,
      "##sfull": 7245,
      "##hr": 7246,
      "Rich": 7247,
      "forferd": 7248,
      "dyn": 7249,
      "Ib": 7250,
      "Sunn": 7251,
      "##sesjon": 7252,
      "##bout": 7253,
      "høyeste": 7254,
      "AL": 7255,
      "gjelde": 7256,
      "argument": 7257,
      "##gitt": 7258,
      "Rand": 7259,
      "ansvarlig": 7260,
      "##stolen": 7261,
      "hurtig": 7262,
      "franske": 7263,
      "##illende": 7264,
      "##insipp": 7265,
      "##II": 7266,
      "bygda": 7267,
      "Norwegian": 7268,
      "basis": 7269,
      "##ari": 7270,
      "##jeg": 7271,
      "overord": 7272,
      "Bla": 7273,
      "dam": 7274,
      "eventyr": 7275,
      "stru": 7276,
      "##bordet": 7277,
      "Press": 7278,
      "fremover": 7279,
      "varmt": 7280,
      "ac": 7281,
      "##våg": 7282,
      "ulik": 7283,
      "Fjell": 7284,
      "prioriter": 7285,
      "Helt": 7286,
      "aksjon": 7287,
      "kyss": 7288,
      "mulige": 7289,
      "##uls": 7290,
      "##stiden": 7291,
      "krefter": 7292,
      "utbygging": 7293,
      "##abrikk": 7294,
      "pen": 7295,
      "valget": 7296,
      "##onger": 7297,
      "bestemmer": 7298,
      "lokalt": 7299,
      "##bør": 7300,
      "held": 7301,
      "samtale": 7302,
      "##elsens": 7303,
      "Nye": 7304,
      "Bank": 7305,
      "utdan": 7306,
      "inntekter": 7307,
      "aktuelt": 7308,
      "lest": 7309,
      "kald": 7310,
      "##VER": 7311,
      "UT": 7312,
      "##ræ": 7313,
      "##ØS": 7314,
      "deltok": 7315,
      "Jørgen": 7316,
      "##fang": 7317,
      "oppfølg": 7318,
      "fo": 7319,
      "Terje": 7320,
      "hom": 7321,
      "mun": 7322,
      "tilst": 7323,
      "overgang": 7324,
      "##kser": 7325,
      "1965": 7326,
      "##byen": 7327,
      "Storbritann": 7328,
      "##idd": 7329,
      "fellesskap": 7330,
      "forsknings": 7331,
      "##jorde": 7332,
      "døden": 7333,
      "drevet": 7334,
      "cent": 7335,
      "##famil": 7336,
      "##elly": 7337,
      "##handel": 7338,
      "arter": 7339,
      "##ail": 7340,
      "##hammer": 7341,
      "Best": 7342,
      "Sande": 7343,
      "beregnet": 7344,
      "##opper": 7345,
      "Prem": 7346,
      "bety": 7347,
      "##iskop": 7348,
      "##førsel": 7349,
      "prop": 7350,
      "Frp": 7351,
      "##endt": 7352,
      "kona": 7353,
      "Lær": 7354,
      "##bakk": 7355,
      "##fen": 7356,
      "##que": 7357,
      "ettersom": 7358,
      "1967": 7359,
      "utgift": 7360,
      "##kanten": 7361,
      "##fullt": 7362,
      "Pal": 7363,
      "ild": 7364,
      "##cted": 7365,
      "Person": 7366,
      "inf": 7367,
      "Hu": 7368,
      "##havet": 7369,
      "rekru": 7370,
      "oftest": 7371,
      "##har": 7372,
      "Afrika": 7373,
      "militær": 7374,
      "filmen": 7375,
      "flag": 7376,
      "##DER": 7377,
      "##oritet": 7378,
      "Sof": 7379,
      "veier": 7380,
      "##ms": 7381,
      "krø": 7382,
      "Ark": 7383,
      "##anda": 7384,
      "##arbeidere": 7385,
      "student": 7386,
      "leste": 7387,
      "new": 7388,
      "åpenbart": 7389,
      "##stiltak": 7390,
      "##mmende": 7391,
      "##vegen": 7392,
      "##tra": 7393,
      "parall": 7394,
      "Eir": 7395,
      "Program": 7396,
      "Søndag": 7397,
      "##ISK": 7398,
      "##ör": 7399,
      "teater": 7400,
      "Rød": 7401,
      "##strekning": 7402,
      "##ti": 7403,
      "benytte": 7404,
      "IL": 7405,
      "##entering": 7406,
      "its": 7407,
      "Miljø": 7408,
      "##inte": 7409,
      "Cla": 7410,
      "##rafikk": 7411,
      "profil": 7412,
      "beting": 7413,
      "##utdanning": 7414,
      "Enk": 7415,
      "##elegg": 7416,
      "dansk": 7417,
      "develop": 7418,
      "barnehage": 7419,
      "kjer": 7420,
      "maksim": 7421,
      "inde": 7422,
      "utenrik": 7423,
      "pal": 7424,
      "Bur": 7425,
      "##viklingen": 7426,
      "##strø": 7427,
      "godkjent": 7428,
      "endte": 7429,
      "forklaring": 7430,
      "treffe": 7431,
      "arkitekt": 7432,
      "grønne": 7433,
      "titt": 7434,
      "farger": 7435,
      "bevegelse": 7436,
      "##lad": 7437,
      "ele": 7438,
      "begrep": 7439,
      "sch": 7440,
      "kunder": 7441,
      "fastsatt": 7442,
      "##jo": 7443,
      "dominer": 7444,
      "Simon": 7445,
      "innholdet": 7446,
      "etasje": 7447,
      "##steder": 7448,
      "##ends": 7449,
      "1930": 7450,
      "##ova": 7451,
      "1968": 7452,
      "sæ": 7453,
      "Italia": 7454,
      "svaret": 7455,
      "kaste": 7456,
      "syssels": 7457,
      "sta": 7458,
      "##smøte": 7459,
      "##handlingen": 7460,
      "##ful": 7461,
      "##ANG": 7462,
      "##rich": 7463,
      "##bon": 7464,
      "##forskning": 7465,
      "Tem": 7466,
      "##vald": 7467,
      "skru": 7468,
      "Arn": 7469,
      "bunn": 7470,
      "stabil": 7471,
      "konvensjon": 7472,
      "jød": 7473,
      "Sigur": 7474,
      "spare": 7475,
      "sed": 7476,
      "##formasjon": 7477,
      "inkludert": 7478,
      "Vict": 7479,
      "organisasjonen": 7480,
      "sove": 7481,
      "##kul": 7482,
      "Des": 7483,
      "##OK": 7484,
      "rart": 7485,
      "Plan": 7486,
      "os": 7487,
      ".),": 7488,
      "Israel": 7489,
      "##unden": 7490,
      "kontoret": 7491,
      "1920": 7492,
      "tilskudd": 7493,
      "forny": 7494,
      "grus": 7495,
      "mønster": 7496,
      "##ros": 7497,
      "his": 7498,
      "##orp": 7499,
      "fremtiden": 7500,
      "##smenn": 7501,
      "kolon": 7502,
      "##vesenet": 7503,
      "##anp": 7504,
      "manglende": 7505,
      "snill": 7506,
      "##legges": 7507,
      "Gul": 7508,
      "##ndal": 7509,
      "hust": 7510,
      "samlede": 7511,
      "NM": 7512,
      "##leren": 7513,
      "bein": 7514,
      "##cher": 7515,
      "landene": 7516,
      "kravet": 7517,
      "advokat": 7518,
      "##amet": 7519,
      "kreves": 7520,
      "mellem": 7521,
      "gjenopp": 7522,
      "tankene": 7523,
      "serie": 7524,
      "grader": 7525,
      "dollar": 7526,
      "internasjonal": 7527,
      "Råd": 7528,
      "tradisjonelle": 7529,
      "##rete": 7530,
      "Tar": 7531,
      "tømmer": 7532,
      "##rin": 7533,
      "##wood": 7534,
      "dets": 7535,
      "representant": 7536,
      ">>\"\"": 7537,
      "årlig": 7538,
      "Verdens": 7539,
      "forsøke": 7540,
      "##iest": 7541,
      "##språk": 7542,
      "Lok": 7543,
      "faglig": 7544,
      "Unn": 7545,
      "læ": 7546,
      "pan": 7547,
      "tilfellet": 7548,
      "maten": 7549,
      "##stjeneste": 7550,
      "skifte": 7551,
      "##skab": 7552,
      "##ømte": 7553,
      "Fordi": 7554,
      "Bjer": 7555,
      "##isteren": 7556,
      "Kristus": 7557,
      "##hånd": 7558,
      "##kten": 7559,
      "##identen": 7560,
      "Port": 7561,
      "some": 7562,
      "Eit": 7563,
      "utfor": 7564,
      "##svir": 7565,
      "triv": 7566,
      "husket": 7567,
      "Senter": 7568,
      "beslutning": 7569,
      "grunnlaget": 7570,
      "Mun": 7571,
      "sendes": 7572,
      "fylket": 7573,
      "gifte": 7574,
      "kategor": 7575,
      "komedie": 7576,
      "##ikler": 7577,
      "##fa": 7578,
      "aksje": 7579,
      "Dom": 7580,
      "Sogn": 7581,
      "FR": 7582,
      "sosialt": 7583,
      "##chn": 7584,
      "170": 7585,
      "human": 7586,
      "Fag": 7587,
      "##verr": 7588,
      "##løsning": 7589,
      "Legg": 7590,
      "##cr": 7591,
      "klokka": 7592,
      "nylig": 7593,
      "foto": 7594,
      "mult": 7595,
      "gjere": 7596,
      "Kina": 7597,
      "vurdert": 7598,
      "##skrav": 7599,
      "mur": 7600,
      "##iluft": 7601,
      "laste": 7602,
      "planlagt": 7603,
      "situasjoner": 7604,
      "##natt": 7605,
      "Sigurd": 7606,
      "henholdsvis": 7607,
      "##rast": 7608,
      "##augen": 7609,
      "##\"\"\"": 7610,
      "exp": 7611,
      "perspektiv": 7612,
      "##useet": 7613,
      "Side": 7614,
      "stri": 7615,
      "##komst": 7616,
      "ER": 7617,
      "##ila": 7618,
      "slutte": 7619,
      "tyng": 7620,
      "##vanlig": 7621,
      "Jose": 7622,
      "172": 7623,
      "Dahl": 7624,
      "mu": 7625,
      "##snes": 7626,
      "##igg": 7627,
      "teori": 7628,
      "##messige": 7629,
      "##ilet": 7630,
      "forsto": 7631,
      "bekl": 7632,
      "jorda": 7633,
      "ringe": 7634,
      "##sløs": 7635,
      "##gård": 7636,
      "takt": 7637,
      "##setningen": 7638,
      "engasjem": 7639,
      "tilrett": 7640,
      "skaff": 7641,
      "##virksomhet": 7642,
      "Bib": 7643,
      "foreb": 7644,
      "##skon": 7645,
      "Kristin": 7646,
      "Sosial": 7647,
      "grundig": 7648,
      "##kamp": 7649,
      "##ustad": 7650,
      "Ask": 7651,
      "Troms": 7652,
      "innd": 7653,
      "##ligheten": 7654,
      "##ENS": 7655,
      "selskaper": 7656,
      "Sommer": 7657,
      "teknologi": 7658,
      "Rosen": 7659,
      "skipet": 7660,
      "Finans": 7661,
      "tolv": 7662,
      "forsøker": 7663,
      "København": 7664,
      "fysiske": 7665,
      "marker": 7666,
      "foreslått": 7667,
      "kritikk": 7668,
      "Dy": 7669,
      "##ituasjonen": 7670,
      "##stille": 7671,
      "##ologien": 7672,
      "Journal": 7673,
      "glob": 7674,
      "forvir": 7675,
      "konsesjon": 7676,
      "World": 7677,
      "dialog": 7678,
      "##likevel": 7679,
      "Sett": 7680,
      "##ience": 7681,
      "Akt": 7682,
      "Rev": 7683,
      "Stockholm": 7684,
      "PR": 7685,
      "##irektør": 7686,
      "inngår": 7687,
      "##ya": 7688,
      "##ifik": 7689,
      "nevnes": 7690,
      "700": 7691,
      "utføre": 7692,
      "##ikkelen": 7693,
      "ska": 7694,
      "holdes": 7695,
      "##ison": 7696,
      "Str": 7697,
      "Solberg": 7698,
      "Dagbladet": 7699,
      "uro": 7700,
      "passasjer": 7701,
      "Aks": 7702,
      "mekan": 7703,
      "tørr": 7704,
      "##ides": 7705,
      "1966": 7706,
      "##ørr": 7707,
      "lim": 7708,
      "166": 7709,
      "lyse": 7710,
      "maa": 7711,
      "kjøret": 7712,
      "##atal": 7713,
      "##smål": 7714,
      "##smed": 7715,
      "##båt": 7716,
      "##brand": 7717,
      "offis": 7718,
      "Lou": 7719,
      "##xt": 7720,
      "kunn": 7721,
      "if": 7722,
      "toll": 7723,
      "garant": 7724,
      "fordelt": 7725,
      "avsluttet": 7726,
      "##enny": 7727,
      "Brann": 7728,
      "bygges": 7729,
      "levert": 7730,
      "Hagen": 7731,
      "Vet": 7732,
      "Aller": 7733,
      "termin": 7734,
      "##spar": 7735,
      "forbed": 7736,
      "Ellers": 7737,
      "##institusjon": 7738,
      "##sprosjekt": 7739,
      "kalle": 7740,
      "miste": 7741,
      "Tidligere": 7742,
      "##hengen": 7743,
      "kaldt": 7744,
      "butikken": 7745,
      "##eleder": 7746,
      "refle": 7747,
      "myndighetene": 7748,
      "##inke": 7749,
      "hesten": 7750,
      "forholdsvis": 7751,
      "##jøres": 7752,
      "sli": 7753,
      "forsik": 7754,
      "forurens": 7755,
      "service": 7756,
      "##anpix": 7757,
      "foreløpig": 7758,
      "aksept": 7759,
      "representanter": 7760,
      "vakker": 7761,
      "Neste": 7762,
      "totale": 7763,
      "Rolf": 7764,
      "##sikring": 7765,
      "##engde": 7766,
      "West": 7767,
      "vinner": 7768,
      "beskytt": 7769,
      "eksisterende": 7770,
      "##slutning": 7771,
      "tomt": 7772,
      "two": 7773,
      "##blemer": 7774,
      "jenta": 7775,
      "##ersoner": 7776,
      "##retten": 7777,
      "hug": 7778,
      "##esund": 7779,
      "Dagsnytt": 7780,
      "nåværende": 7781,
      "kandid": 7782,
      "##strand": 7783,
      "Utvalget": 7784,
      "misten": 7785,
      "begrepet": 7786,
      "grensen": 7787,
      "Hjel": 7788,
      "trus": 7789,
      "##appe": 7790,
      "Daniel": 7791,
      "##burg": 7792,
      "sekund": 7793,
      "##bygd": 7794,
      "teor": 7795,
      "##IM": 7796,
      "ond": 7797,
      "motsetning": 7798,
      "helg": 7799,
      "Universitetet": 7800,
      "vendte": 7801,
      "ødeleg": 7802,
      "Ot": 7803,
      "nyhet": 7804,
      "gjem": 7805,
      "tilfeldig": 7806,
      "##kr": 7807,
      "utelu": 7808,
      "##ubl": 7809,
      "##itim": 7810,
      "tj": 7811,
      "##IR": 7812,
      "Tenk": 7813,
      "ku": 7814,
      "sykkel": 7815,
      "##ingsf": 7816,
      "bekymret": 7817,
      "##ierne": 7818,
      "greie": 7819,
      "priser": 7820,
      "Storbritannia": 7821,
      "hvisket": 7822,
      "melder": 7823,
      "jentene": 7824,
      "##agra": 7825,
      "Sven": 7826,
      "Sandnes": 7827,
      "stasjon": 7828,
      "##okument": 7829,
      "vedlikehold": 7830,
      "kring": 7831,
      "about": 7832,
      "Sov": 7833,
      "opprør": 7834,
      "historiske": 7835,
      "Telemark": 7836,
      "##ssy": 7837,
      "design": 7838,
      "##stall": 7839,
      "bruken": 7840,
      "##åter": 7841,
      "##omet": 7842,
      "Ob": 7843,
      "##rup": 7844,
      "penge": 7845,
      "bærer": 7846,
      "partene": 7847,
      "dessverre": 7848,
      "ledelsen": 7849,
      "##ungen": 7850,
      "tilfreds": 7851,
      "##dtr": 7852,
      "Nar": 7853,
      "stiv": 7854,
      "Ir": 7855,
      "##eliv": 7856,
      "sprang": 7857,
      "mak": 7858,
      "suksess": 7859,
      "##punkter": 7860,
      "##nest": 7861,
      "jevn": 7862,
      "##uddet": 7863,
      "173": 7864,
      "Tim": 7865,
      "starten": 7866,
      "lykkes": 7867,
      "##ålmod": 7868,
      "##edskap": 7869,
      "1964": 7870,
      "kompon": 7871,
      "identitet": 7872,
      "Kirke": 7873,
      "car": 7874,
      "alli": 7875,
      "gleder": 7876,
      "##grammet": 7877,
      "Brø": 7878,
      "##18": 7879,
      "forbruker": 7880,
      "døgn": 7881,
      "##veren": 7882,
      "liter": 7883,
      "##foss": 7884,
      "kra": 7885,
      "##wa": 7886,
      "landbruks": 7887,
      "vegne": 7888,
      "Frå": 7889,
      "##ason": 7890,
      "##kens": 7891,
      "ans": 7892,
      "sint": 7893,
      "##vete": 7894,
      "##lyst": 7895,
      "num": 7896,
      "##sla": 7897,
      "overtok": 7898,
      "##beh": 7899,
      "leverand": 7900,
      "eksport": 7901,
      "kysten": 7902,
      "hverken": 7903,
      "these": 7904,
      "planlegging": 7905,
      "likt": 7906,
      "##UM": 7907,
      "##????": 7908,
      "bevilg": 7909,
      "radi": 7910,
      "##ordet": 7911,
      "klem": 7912,
      "talt": 7913,
      "##kja": 7914,
      "##isser": 7915,
      "##atsen": 7916,
      "pekte": 7917,
      "##ografi": 7918,
      "maler": 7919,
      "##vernet": 7920,
      "##parti": 7921,
      "Fa": 7922,
      "elsket": 7923,
      "Finland": 7924,
      "innk": 7925,
      "glemt": 7926,
      "##økonom": 7927,
      "##allfall": 7928,
      "such": 7929,
      "##rent": 7930,
      "reager": 7931,
      "##valitet": 7932,
      "feltet": 7933,
      "##elin": 7934,
      "sivil": 7935,
      "fløy": 7936,
      "utstrekning": 7937,
      "studenter": 7938,
      "brystet": 7939,
      "skrå": 7940,
      "##lagte": 7941,
      "divisjon": 7942,
      "belø": 7943,
      "forutsetning": 7944,
      "##grupper": 7945,
      "revolusjon": 7946,
      "føres": 7947,
      "##bum": 7948,
      "##15": 7949,
      "brudd": 7950,
      "##uring": 7951,
      "nordiske": 7952,
      "gjenstand": 7953,
      "##egrupp": 7954,
      "##sdatter": 7955,
      "##nep": 7956,
      "dec": 7957,
      "aktivt": 7958,
      "##mos": 7959,
      "##mi": 7960,
      "##kjennelse": 7961,
      "##gave": 7962,
      "karri": 7963,
      "sorg": 7964,
      "%.": 7965,
      "skjul": 7966,
      "fukt": 7967,
      "##skj": 7968,
      "komiteen": 7969,
      "himmel": 7970,
      "metall": 7971,
      "900": 7972,
      "enden": 7973,
      "Hard": 7974,
      "eventuelle": 7975,
      "staden": 7976,
      "Soc": 7977,
      "historisk": 7978,
      "beskrevet": 7979,
      "##abler": 7980,
      "kommand": 7981,
      "dimensjon": 7982,
      "betaling": 7983,
      "egenskaper": 7984,
      "##ree": 7985,
      "syv": 7986,
      "bestand": 7987,
      "oppmerksom": 7988,
      "opph": 7989,
      "omstend": 7990,
      "##add": 7991,
      "morgenen": 7992,
      "##renge": 7993,
      "telefonen": 7994,
      "Fjord": 7995,
      "særskilt": 7996,
      "Hvilke": 7997,
      "Sverre": 7998,
      "innflytelse": 7999,
      "kaff": 8000,
      "##cial": 8001,
      "temmelig": 8002,
      "omtalt": 8003,
      "Not": 8004,
      "period": 8005,
      "arranger": 8006,
      "NH": 8007,
      "ordningen": 8008,
      "##ini": 8009,
      "##16": 8010,
      "##alderen": 8011,
      "liggende": 8012,
      "##venn": 8013,
      "Kal": 8014,
      "militære": 8015,
      "report": 8016,
      "Vold": 8017,
      "enor": 8018,
      "##skip": 8019,
      "brevet": 8020,
      "##ressen": 8021,
      "vokste": 8022,
      "nevne": 8023,
      "Hvilken": 8024,
      "banen": 8025,
      "##ters": 8026,
      "Strøm": 8027,
      "intens": 8028,
      "psykisk": 8029,
      "velkommen": 8030,
      "britiske": 8031,
      "anvende": 8032,
      "....": 8033,
      "James": 8034,
      "plant": 8035,
      "Ru": 8036,
      "##19": 8037,
      "utsikt": 8038,
      "konsert": 8039,
      "##staden": 8040,
      "Aas": 8041,
      "##åg": 8042,
      "kant": 8043,
      "into": 8044,
      "##olt": 8045,
      "romant": 8046,
      "Gull": 8047,
      "##sti": 8048,
      "dannet": 8049,
      "medfører": 8050,
      "trinn": 8051,
      "endel": 8052,
      "klassen": 8053,
      "util": 8054,
      "seinare": 8055,
      "henvend": 8056,
      "Senere": 8057,
      "Molde": 8058,
      "1961": 8059,
      "konfer": 8060,
      "Ton": 8061,
      "frivillig": 8062,
      "##sje": 8063,
      "beskriver": 8064,
      "allmenn": 8065,
      "tide": 8066,
      "støv": 8067,
      "Hit": 8068,
      "die": 8069,
      "##agasin": 8070,
      "Ass": 8071,
      "Gift": 8072,
      "kvad": 8073,
      "synspunkt": 8074,
      "handlinger": 8075,
      "gaten": 8076,
      "spenning": 8077,
      "Mi": 8078,
      "sittende": 8079,
      "LO": 8080,
      "øk": 8081,
      "TR": 8082,
      "retur": 8083,
      "bringe": 8084,
      "byens": 8085,
      "Arbeiderpartiet": 8086,
      "##repren": 8087,
      "etablere": 8088,
      "verdenskrig": 8089,
      "##orden": 8090,
      "tilby": 8091,
      "##arn": 8092,
      "nødvendigvis": 8093,
      "pusten": 8094,
      "##elege": 8095,
      "##itten": 8096,
      "##bre": 8097,
      "##apan": 8098,
      "holdning": 8099,
      "##bytte": 8100,
      "mengde": 8101,
      "Tryg": 8102,
      "dame": 8103,
      "##rine": 8104,
      "##penger": 8105,
      "infl": 8106,
      "Ingeborg": 8107,
      "Komiteen": 8108,
      "show": 8109,
      "egnet": 8110,
      "Moss": 8111,
      "University": 8112,
      "##LER": 8113,
      "Europe": 8114,
      "Georg": 8115,
      "##fun": 8116,
      "mottatt": 8117,
      "bag": 8118,
      "count": 8119,
      "##rul": 8120,
      "teoret": 8121,
      "vog": 8122,
      "##nadene": 8123,
      "##sdagen": 8124,
      "Rogaland": 8125,
      "Sw": 8126,
      "alvorlige": 8127,
      "overrasket": 8128,
      "arv": 8129,
      "veiledning": 8130,
      "prinsippet": 8131,
      "##aliteten": 8132,
      "AR": 8133,
      "##givning": 8134,
      "##smidler": 8135,
      "ens": 8136,
      "rente": 8137,
      "Bel": 8138,
      "bit": 8139,
      "ju": 8140,
      "##gruppe": 8141,
      "slu": 8142,
      "synlig": 8143,
      "shall": 8144,
      "##slå": 8145,
      "feir": 8146,
      "eksper": 8147,
      "Elev": 8148,
      "eiendommen": 8149,
      "KrF": 8150,
      "produksjonen": 8151,
      "fj": 8152,
      "påvirke": 8153,
      "Eva": 8154,
      "Nik": 8155,
      "nom": 8156,
      "##itor": 8157,
      "##ndene": 8158,
      "terror": 8159,
      "Mellom": 8160,
      "Hamar": 8161,
      "gress": 8162,
      "##sess": 8163,
      "betra": 8164,
      "sort": 8165,
      "fange": 8166,
      "##conom": 8167,
      "Rune": 8168,
      "sykehuset": 8169,
      "##lund": 8170,
      "##uel": 8171,
      "eksist": 8172,
      "opphe": 8173,
      "undersøkelsen": 8174,
      "##lesund": 8175,
      "##ORT": 8176,
      "Ca": 8177,
      "##renn": 8178,
      "høve": 8179,
      "##//": 8180,
      "##12": 8181,
      "innført": 8182,
      "tapt": 8183,
      "##ypt": 8184,
      "verdien": 8185,
      "funn": 8186,
      "rec": 8187,
      "Ingeb": 8188,
      "behandlingen": 8189,
      "##fallet": 8190,
      "Ingrid": 8191,
      "Bed": 8192,
      "je": 8193,
      "only": 8194,
      "umiddelbart": 8195,
      ",\"\"\"\"": 8196,
      "tunn": 8197,
      "Akers": 8198,
      "##okker": 8199,
      "Torsdag": 8200,
      "##røt": 8201,
      "tilhører": 8202,
      "##ssam": 8203,
      "##kjente": 8204,
      "##inc": 8205,
      "##iva": 8206,
      "##uta": 8207,
      "Industri": 8208,
      "##eme": 8209,
      "verdt": 8210,
      "bær": 8211,
      "bren": 8212,
      "engelske": 8213,
      "NC": 8214,
      "fund": 8215,
      "##slått": 8216,
      "skiller": 8217,
      "menighet": 8218,
      "Jonas": 8219,
      "##gress": 8220,
      "##inert": 8221,
      "##ygger": 8222,
      "##analy": 8223,
      "##elat": 8224,
      "områdene": 8225,
      "avisen": 8226,
      "pause": 8227,
      "hevdet": 8228,
      "1962": 8229,
      "1946": 8230,
      "diagn": 8231,
      "Ås": 8232,
      "kjørt": 8233,
      "Vol": 8234,
      "samisk": 8235,
      "##løpet": 8236,
      "dokumenter": 8237,
      "ledere": 8238,
      "skyte": 8239,
      "Elisabeth": 8240,
      "boliger": 8241,
      "Lil": 8242,
      "##terte": 8243,
      "##film": 8244,
      "##ih": 8245,
      "Drammen": 8246,
      "##viser": 8247,
      "##ektig": 8248,
      "næ": 8249,
      "##kkelen": 8250,
      "Fredag": 8251,
      "faglige": 8252,
      "hyp": 8253,
      "gave": 8254,
      "##ross": 8255,
      "trygt": 8256,
      "##UD": 8257,
      "støy": 8258,
      "fortell": 8259,
      "Gå": 8260,
      "Hold": 8261,
      "begrav": 8262,
      "skapte": 8263,
      "møtes": 8264,
      "inviter": 8265,
      "##ivalen": 8266,
      "##egner": 8267,
      "##egang": 8268,
      "##ondet": 8269,
      "iverks": 8270,
      "kapasitet": 8271,
      "Mac": 8272,
      "bortsett": 8273,
      "indust": 8274,
      "##tering": 8275,
      "Bestemm": 8276,
      "gjennomgå": 8277,
      "forstyr": 8278,
      "Gun": 8279,
      "rollene": 8280,
      "misjon": 8281,
      "nyttig": 8282,
      "stillinger": 8283,
      "kamper": 8284,
      "##kastet": 8285,
      "fylte": 8286,
      "søvn": 8287,
      "opplevelse": 8288,
      "##akse": 8289,
      "trur": 8290,
      "nådde": 8291,
      "skudd": 8292,
      "live": 8293,
      "##ibil": 8294,
      "bakover": 8295,
      "dårlige": 8296,
      "Rasmus": 8297,
      "110": 8298,
      "anvendelse": 8299,
      "##iteens": 8300,
      "ektef": 8301,
      "inspir": 8302,
      "'.": 8303,
      "Bi": 8304,
      "##ulent": 8305,
      "mog": 8306,
      "stolen": 8307,
      "repar": 8308,
      "##kets": 8309,
      "magen": 8310,
      "Ak": 8311,
      "vanskelige": 8312,
      "##inav": 8313,
      "opplevde": 8314,
      "pet": 8315,
      "avb": 8316,
      "Nu": 8317,
      "mom": 8318,
      "pur": 8319,
      "##kne": 8320,
      "miljøet": 8321,
      "diff": 8322,
      "finger": 8323,
      "klage": 8324,
      "tjener": 8325,
      "##EC": 8326,
      "sakene": 8327,
      "##ype": 8328,
      "##IC": 8329,
      "##uset": 8330,
      "Aud": 8331,
      "rein": 8332,
      "sekunder": 8333,
      "hon": 8334,
      "##fatter": 8335,
      "##bi": 8336,
      "##foreningen": 8337,
      "punktum": 8338,
      "myr": 8339,
      "SSSS": 8340,
      "Lud": 8341,
      "Svar": 8342,
      "prat": 8343,
      "institusjoner": 8344,
      "sum": 8345,
      "amerikansk": 8346,
      "lave": 8347,
      "bemer": 8348,
      "søkte": 8349,
      "##iget": 8350,
      "jam": 8351,
      "vende": 8352,
      "##skjer": 8353,
      "slipper": 8354,
      "tingene": 8355,
      "skjeb": 8356,
      "##itar": 8357,
      "##eldige": 8358,
      "offer": 8359,
      "1963": 8360,
      "##ulert": 8361,
      "Iver": 8362,
      "mikro": 8363,
      "dekk": 8364,
      "##selskap": 8365,
      "1948": 8366,
      "vask": 8367,
      "Mari": 8368,
      "##ever": 8369,
      "Bert": 8370,
      "resultatene": 8371,
      "metode": 8372,
      "usikker": 8373,
      "Eiendom": 8374,
      "##entert": 8375,
      "forsøkt": 8376,
      "##ansert": 8377,
      "##90": 8378,
      "unntatt": 8379,
      "hjalp": 8380,
      "nar": 8381,
      "flotte": 8382,
      "##fore": 8383,
      "matem": 8384,
      "##my": 8385,
      "Bær": 8386,
      "##sre": 8387,
      "giftet": 8388,
      "betraktet": 8389,
      "##seende": 8390,
      "dekning": 8391,
      "##idig": 8392,
      "terreng": 8393,
      "iallfall": 8394,
      "Særlig": 8395,
      "melde": 8396,
      "Grøn": 8397,
      "medlemmene": 8398,
      "Karen": 8399,
      "opprinnelig": 8400,
      "forutsetter": 8401,
      "##erten": 8402,
      "låne": 8403,
      "Erling": 8404,
      "],": 8405,
      "asyl": 8406,
      "Harry": 8407,
      "##kultur": 8408,
      "##ico": 8409,
      "Øog": 8410,
      "##ilig": 8411,
      "##rog": 8412,
      "lyder": 8413,
      "bistand": 8414,
      "Ur": 8415,
      "fett": 8416,
      "forskrifter": 8417,
      "avgrens": 8418,
      "debatten": 8419,
      "aug": 8420,
      "effe": 8421,
      "helgen": 8422,
      "løpe": 8423,
      "innh": 8424,
      "russiske": 8425,
      "konklusjon": 8426,
      "leilighet": 8427,
      "mr": 8428,
      "Fem": 8429,
      "Eksemp": 8430,
      "##snyheter": 8431,
      "ulov": 8432,
      "##TA": 8433,
      "##pan": 8434,
      "##keg": 8435,
      "etterspør": 8436,
      "when": 8437,
      "Int": 8438,
      "##~~~~~~~~": 8439,
      "sof": 8440,
      "utenlandske": 8441,
      "operasjon": 8442,
      "fingrene": 8443,
      "August": 8444,
      "##appet": 8445,
      "aksep": 8446,
      "##bevis": 8447,
      "toget": 8448,
      "Ko": 8449,
      "##ogg": 8450,
      "Borg": 8451,
      "##oth": 8452,
      "aktive": 8453,
      "hytte": 8454,
      "##bund": 8455,
      "liste": 8456,
      "imm": 8457,
      "Hos": 8458,
      "ins": 8459,
      "evaluer": 8460,
      "perm": 8461,
      "varierer": 8462,
      "intro": 8463,
      "Meg": 8464,
      "Ålesund": 8465,
      "statens": 8466,
      "understreker": 8467,
      "##ods": 8468,
      "Eriksen": 8469,
      "danner": 8470,
      "behandles": 8471,
      "##blikk": 8472,
      "##yting": 8473,
      "fylle": 8474,
      "##eten": 8475,
      "Storting": 8476,
      "cir": 8477,
      "##BER": 8478,
      "vokser": 8479,
      "harde": 8480,
      "Hels": 8481,
      "Møre": 8482,
      "kalte": 8483,
      "Ull": 8484,
      "##aser": 8485,
      "gjennem": 8486,
      "stoppe": 8487,
      "glemme": 8488,
      "Richard": 8489,
      "##ksus": 8490,
      "beholde": 8491,
      "##eldre": 8492,
      "Fru": 8493,
      "øyeblikket": 8494,
      "Face": 8495,
      "##sene": 8496,
      "##høy": 8497,
      "hull": 8498,
      "##stiller": 8499,
      "##iew": 8500,
      "merkelig": 8501,
      "solgte": 8502,
      "innbyggere": 8503,
      "ing": 8504,
      "##sretten": 8505,
      "avtaler": 8506,
      "versjon": 8507,
      "##kkede": 8508,
      "##LA": 8509,
      "##agelse": 8510,
      "snu": 8511,
      "##ringene": 8512,
      "aksjer": 8513,
      "betegn": 8514,
      "##yldig": 8515,
      "behøver": 8516,
      "##enhet": 8517,
      "kjed": 8518,
      "##result": 8519,
      "utbred": 8520,
      "##ates": 8521,
      "##nnet": 8522,
      "stress": 8523,
      "Tøn": 8524,
      "##åd": 8525,
      "utarbeidet": 8526,
      "villig": 8527,
      "befinner": 8528,
      "##rasjonen": 8529,
      "seil": 8530,
      "kritisk": 8531,
      "laga": 8532,
      "fersk": 8533,
      "faa": 8534,
      "mangfold": 8535,
      "Hei": 8536,
      "##bor": 8537,
      "##mmes": 8538,
      "nes": 8539,
      "##iert": 8540,
      "solen": 8541,
      "mengder": 8542,
      "merker": 8543,
      "tillatelse": 8544,
      "##omst": 8545,
      "##andinav": 8546,
      "##åsen": 8547,
      "hittil": 8548,
      "Real": 8549,
      "##spunktet": 8550,
      "Ofte": 8551,
      "smiler": 8552,
      "##tting": 8553,
      "1947": 8554,
      "Gust": 8555,
      "##ikeren": 8556,
      "metoder": 8557,
      "vurderes": 8558,
      "fler": 8559,
      "kome": 8560,
      "Hånd": 8561,
      "##--": 8562,
      "##hengige": 8563,
      "##verden": 8564,
      "##mmede": 8565,
      "Eirik": 8566,
      "##gikk": 8567,
      "presten": 8568,
      "bøyde": 8569,
      "Skriv": 8570,
      "different": 8571,
      "##itive": 8572,
      "lykkelig": 8573,
      "daglige": 8574,
      "oppgitt": 8575,
      "##politikk": 8576,
      "pap": 8577,
      "##vang": 8578,
      "1956": 8579,
      "Wal": 8580,
      "160": 8581,
      "fortvil": 8582,
      "Sjå": 8583,
      "samtykke": 8584,
      "glade": 8585,
      "Leif": 8586,
      "jurid": 8587,
      "løfte": 8588,
      "##bur": 8589,
      "utbygg": 8590,
      "tykk": 8591,
      "Fir": 8592,
      "##ders": 8593,
      "retningslinjer": 8594,
      "##unget": 8595,
      "antar": 8596,
      "##bestemm": 8597,
      "næringsliv": 8598,
      "Fur": 8599,
      "kull": 8600,
      "Kort": 8601,
      "snur": 8602,
      "Jack": 8603,
      "oft": 8604,
      "##isjoner": 8605,
      "foretak": 8606,
      "bryst": 8607,
      "null": 8608,
      "takket": 8609,
      "Akershus": 8610,
      "kaf": 8611,
      "##agene": 8612,
      "1957": 8613,
      "May": 8614,
      "mørkt": 8615,
      "assist": 8616,
      "uen": 8617,
      "nark": 8618,
      "skiftet": 8619,
      "spiser": 8620,
      "styring": 8621,
      "##reis": 8622,
      "utføres": 8623,
      "herr": 8624,
      "lurte": 8625,
      "tilfredsstillende": 8626,
      "kriter": 8627,
      "detaljer": 8628,
      "vilt": 8629,
      "Berlin": 8630,
      "detalj": 8631,
      "fordeling": 8632,
      "##issen": 8633,
      "##splassen": 8634,
      "Ski": 8635,
      "##IKK": 8636,
      "regi": 8637,
      "undersøke": 8638,
      "##ts": 8639,
      "forhand": 8640,
      "##regn": 8641,
      "løper": 8642,
      "dømt": 8643,
      "kos": 8644,
      "##rets": 8645,
      "##gl": 8646,
      "Spørsmålet": 8647,
      "##bak": 8648,
      "##MS": 8649,
      "##abl": 8650,
      "##ria": 8651,
      "spurt": 8652,
      "guttene": 8653,
      "Ram": 8654,
      "##sdepartementet": 8655,
      "##ration": 8656,
      "##sborg": 8657,
      "utenom": 8658,
      "Hør": 8659,
      "Riks": 8660,
      "1939": 8661,
      "William": 8662,
      "##vd": 8663,
      "kalde": 8664,
      "Gjø": 8665,
      "øya": 8666,
      "lyden": 8667,
      "oppfølging": 8668,
      "passet": 8669,
      "Grupp": 8670,
      "betre": 8671,
      "gransk": 8672,
      "dokumentarserie": 8673,
      "##OD": 8674,
      "kommunens": 8675,
      "aktører": 8676,
      "trykket": 8677,
      "##mest": 8678,
      "Østfold": 8679,
      "##banken": 8680,
      "##rerer": 8681,
      "Grim": 8682,
      "Ris": 8683,
      "##saken": 8684,
      "##illa": 8685,
      "EØS": 8686,
      "samband": 8687,
      "internasjonalt": 8688,
      "Johnsen": 8689,
      "App": 8690,
      "tverr": 8691,
      "##tere": 8692,
      "##esterett": 8693,
      "fremmede": 8694,
      "Trump": 8695,
      "##GE": 8696,
      "erver": 8697,
      "##ksp": 8698,
      "1949": 8699,
      "##17": 8700,
      "##uleg": 8701,
      "##slam": 8702,
      "vinden": 8703,
      "##trykk": 8704,
      "##rerte": 8705,
      "bib": 8706,
      "Prø": 8707,
      "any": 8708,
      "turist": 8709,
      "befolkning": 8710,
      "allikevel": 8711,
      "##smøtet": 8712,
      "volum": 8713,
      "##ants": 8714,
      "##hagen": 8715,
      "##arer": 8716,
      "Amund": 8717,
      "##lend": 8718,
      "oblig": 8719,
      "festet": 8720,
      "antas": 8721,
      "huden": 8722,
      "Søk": 8723,
      "##brev": 8724,
      "Austral": 8725,
      "##jå": 8726,
      "tu": 8727,
      "##smynd": 8728,
      "hr": 8729,
      "##kjenning": 8730,
      "foreslå": 8731,
      "video": 8732,
      "##itere": 8733,
      "bec": 8734,
      "##ré": 8735,
      "elva": 8736,
      "Været": 8737,
      "##splass": 8738,
      "barnd": 8739,
      "samtlige": 8740,
      "Champ": 8741,
      "faktorer": 8742,
      "ordentlig": 8743,
      "Antall": 8744,
      "##nner": 8745,
      "utvidet": 8746,
      "steng": 8747,
      "dekker": 8748,
      "##unge": 8749,
      "atom": 8750,
      "Od": 8751,
      "saksbe": 8752,
      "Kristoffer": 8753,
      "deltar": 8754,
      "bonde": 8755,
      "##taler": 8756,
      "##fred": 8757,
      "scenen": 8758,
      "##**": 8759,
      "##ads": 8760,
      "Home": 8761,
      "##ness": 8762,
      "delte": 8763,
      "Top": 8764,
      "org": 8765,
      "##ula": 8766,
      "innled": 8767,
      "nerv": 8768,
      "##utstyr": 8769,
      "Kåre": 8770,
      "##agere": 8771,
      "typisk": 8772,
      "./": 8773,
      "##zen": 8774,
      "Spania": 8775,
      "institutt": 8776,
      "Akkurat": 8777,
      "sjanse": 8778,
      "frivillige": 8779,
      "Avis": 8780,
      "ordfør": 8781,
      "##VE": 8782,
      "##odde": 8783,
      "musikken": 8784,
      "how": 8785,
      "krim": 8786,
      "##sinn": 8787,
      "##sgjer": 8788,
      "##boka": 8789,
      "##planen": 8790,
      "språket": 8791,
      "Brand": 8792,
      "forlot": 8793,
      "skriftlig": 8794,
      "where": 8795,
      "omsetning": 8796,
      "bade": 8797,
      "##ordningen": 8798,
      "forbindel": 8799,
      "trist": 8800,
      "##pensjon": 8801,
      "spillere": 8802,
      "##behov": 8803,
      "##ci": 8804,
      "parkering": 8805,
      "##ksen": 8806,
      "Vind": 8807,
      "comm": 8808,
      "##høg": 8809,
      "kommunestyret": 8810,
      "familier": 8811,
      "uend": 8812,
      "tallene": 8813,
      "utsk": 8814,
      "Brit": 8815,
      "betaler": 8816,
      "1959": 8817,
      "##hodet": 8818,
      "Onsdag": 8819,
      "Ekst": 8820,
      "oppm": 8821,
      "syd": 8822,
      "##sform": 8823,
      "##ctive": 8824,
      "organisert": 8825,
      "##industrien": 8826,
      "Nok": 8827,
      "##................................": 8828,
      "##IST": 8829,
      "næringslivet": 8830,
      "War": 8831,
      "##fir": 8832,
      "line": 8833,
      "verdif": 8834,
      "##virke": 8835,
      "svake": 8836,
      "synet": 8837,
      "Foss": 8838,
      "##ati": 8839,
      "##forn": 8840,
      "arbeidsmiljø": 8841,
      "##ool": 8842,
      "##fast": 8843,
      "Musikk": 8844,
      "##spiller": 8845,
      "##abet": 8846,
      "##13": 8847,
      "##oline": 8848,
      "AB": 8849,
      "##14": 8850,
      "GR": 8851,
      "arrangem": 8852,
      "Pri": 8853,
      "Prof": 8854,
      "##illinger": 8855,
      "gam": 8856,
      "klasser": 8857,
      "sida": 8858,
      "##ature": 8859,
      "nav": 8860,
      "##skapen": 8861,
      "forbruk": 8862,
      "##akon": 8863,
      "1958": 8864,
      "hustru": 8865,
      "anst": 8866,
      "##jenester": 8867,
      "solid": 8868,
      "hjemmet": 8869,
      "##sing": 8870,
      "##represent": 8871,
      "##besk": 8872,
      "friluft": 8873,
      "antallet": 8874,
      "].": 8875,
      "Romsdal": 8876,
      "##sse": 8877,
      "##arch": 8878,
      "åpning": 8879,
      "rammet": 8880,
      "Priv": 8881,
      "##hor": 8882,
      "forklarte": 8883,
      "##uligheter": 8884,
      "separ": 8885,
      "naturlige": 8886,
      "IT": 8887,
      "##ilen": 8888,
      "Los": 8889,
      "##slø": 8890,
      "minnet": 8891,
      "vaske": 8892,
      "##skritt": 8893,
      "tel": 8894,
      "mottak": 8895,
      "mumlet": 8896,
      "Ren": 8897,
      "motiver": 8898,
      "oppgjør": 8899,
      "Max": 8900,
      "alminnelig": 8901,
      "ukjent": 8902,
      "medan": 8903,
      "hjemmel": 8904,
      "##),": 8905,
      "##OG": 8906,
      "kret": 8907,
      "politim": 8908,
      "bestemmelse": 8909,
      "bjør": 8910,
      "kines": 8911,
      "##vika": 8912,
      "Hum": 8913,
      "##nesk": 8914,
      "##ting": 8915,
      "##ønster": 8916,
      "midlertidig": 8917,
      "Theory": 8918,
      "disc": 8919,
      "NAT": 8920,
      "##kehus": 8921,
      "nabo": 8922,
      "klin": 8923,
      "peke": 8924,
      "(<<": 8925,
      "døy": 8926,
      "drøm": 8927,
      "##øyte": 8928,
      "##kunst": 8929,
      "byer": 8930,
      "tone": 8931,
      "##ykt": 8932,
      "temp": 8933,
      "IS": 8934,
      "siv": 8935,
      "##atert": 8936,
      "lengst": 8937,
      "leke": 8938,
      "MED": 8939,
      "rammer": 8940,
      "stengt": 8941,
      "Enkelte": 8942,
      "##habil": 8943,
      "Lau": 8944,
      "forandret": 8945,
      "##ady": 8946,
      "faktum": 8947,
      "plante": 8948,
      "1952": 8949,
      "##elskapet": 8950,
      "##sforsk": 8951,
      "##meter": 8952,
      "partic": 8953,
      "General": 8954,
      "drap": 8955,
      "##gjøring": 8956,
      "koster": 8957,
      "##etningen": 8958,
      "fungere": 8959,
      "Smith": 8960,
      "Jern": 8961,
      "',": 8962,
      "##bra": 8963,
      "##samlingen": 8964,
      "##kampen": 8965,
      "##ney": 8966,
      "andres": 8967,
      "Gamle": 8968,
      "United": 8969,
      "bildene": 8970,
      "skrik": 8971,
      "trappen": 8972,
      "bestemmelsene": 8973,
      "kreditt": 8974,
      "III": 8975,
      "##veig": 8976,
      "119": 8977,
      "##ELL": 8978,
      "bryte": 8979,
      "##bøker": 8980,
      "##marks": 8981,
      "stav": 8982,
      "Will": 8983,
      "engasjement": 8984,
      "cor": 8985,
      "gran": 8986,
      "Knud": 8987,
      "pent": 8988,
      "oks": 8989,
      "##kvens": 8990,
      "Lillehammer": 8991,
      "opprinnelige": 8992,
      "stift": 8993,
      "##HET": 8994,
      "1953": 8995,
      "helset": 8996,
      "flink": 8997,
      "##kapital": 8998,
      "##ather": 8999,
      "Dal": 9000,
      "Hil": 9001,
      "most": 9002,
      "uka": 9003,
      "innan": 9004,
      "hellige": 9005,
      "revisjon": 9006,
      "##ryss": 9007,
      "gråt": 9008,
      "front": 9009,
      "##eling": 9010,
      "House": 9011,
      "htt": 9012,
      "##lam": 9013,
      "##leik": 9014,
      "Pre": 9015,
      "kontroller": 9016,
      "##ago": 9017,
      "stortings": 9018,
      "##ctions": 9019,
      "US": 9020,
      "##gruppen": 9021,
      "samtalen": 9022,
      "relevant": 9023,
      "##moen": 9024,
      "gjera": 9025,
      "sene": 9026,
      "tit": 9027,
      "medføre": 9028,
      "##ittet": 9029,
      "Hord": 9030,
      "ansk": 9031,
      "rem": 9032,
      "ss": 9033,
      "Stad": 9034,
      "##ENE": 9035,
      "stillingen": 9036,
      "politikere": 9037,
      "##ocke": 9038,
      "gammelt": 9039,
      "tele": 9040,
      "Kim": 9041,
      "verb": 9042,
      "##ogra": 9043,
      "perfekt": 9044,
      "##otten": 9045,
      "##tekn": 9046,
      "##duc": 9047,
      "##ript": 9048,
      "truffet": 9049,
      "##spolitikk": 9050,
      "##ymn": 9051,
      "brøt": 9052,
      "Facebook": 9053,
      "##last": 9054,
      "innsikt": 9055,
      "tegnet": 9056,
      "mind": 9057,
      "beredskap": 9058,
      "1955": 9059,
      "reality": 9060,
      "Pål": 9061,
      "anlegget": 9062,
      "analyser": 9063,
      "gjennomføres": 9064,
      "##sministeren": 9065,
      "måler": 9066,
      "virksom": 9067,
      "øverste": 9068,
      "pannen": 9069,
      "##ÆR": 9070,
      "##orator": 9071,
      "Dagens": 9072,
      "Øvre": 9073,
      "##orsk": 9074,
      "pant": 9075,
      "MAR": 9076,
      "Heg": 9077,
      "##user": 9078,
      "##ETT": 9079,
      "##eds": 9080,
      "herunder": 9081,
      "seie": 9082,
      "frie": 9083,
      "fordeler": 9084,
      "distrib": 9085,
      "skulderen": 9086,
      "1951": 9087,
      "non": 9088,
      "personen": 9089,
      "Problem": 9090,
      "høres": 9091,
      "##40": 9092,
      "oppgaven": 9093,
      "##udsjettet": 9094,
      "domm": 9095,
      "##ykker": 9096,
      "sympt": 9097,
      "skuff": 9098,
      "tilstede": 9099,
      "Morgen": 9100,
      "use": 9101,
      "Få": 9102,
      "kommende": 9103,
      "gjennomføring": 9104,
      "group": 9105,
      "Bjar": 9106,
      "rust": 9107,
      "herre": 9108,
      "tendens": 9109,
      "##yggende": 9110,
      "forleng": 9111,
      "Fredrikstad": 9112,
      "168": 9113,
      "##byrå": 9114,
      "##gaver": 9115,
      "pus": 9116,
      "religiøse": 9117,
      "uttrykket": 9118,
      "bens": 9119,
      "Ungdom": 9120,
      "##faring": 9121,
      "ødelagt": 9122,
      "##line": 9123,
      "gjester": 9124,
      "##OMM": 9125,
      "Distriktsnyheter": 9126,
      "gas": 9127,
      "tomme": 9128,
      "innbygger": 9129,
      "modellen": 9130,
      "verktøy": 9131,
      "##holt": 9132,
      "forskjeller": 9133,
      "selvstendig": 9134,
      "##onser": 9135,
      "##ivind": 9136,
      "stilles": 9137,
      "soldater": 9138,
      "International": 9139,
      "##ORD": 9140,
      "hagen": 9141,
      "dus": 9142,
      "atter": 9143,
      "Stre": 9144,
      "brun": 9145,
      "Rep": 9146,
      "sver": 9147,
      "kortere": 9148,
      "##nummer": 9149,
      "datteren": 9150,
      "##etak": 9151,
      "##ye": 9152,
      "Åp": 9153,
      "medier": 9154,
      "spiste": 9155,
      "statsminister": 9156,
      "##sskrift": 9157,
      "betydningen": 9158,
      "##organisasjon": 9159,
      "##ømt": 9160,
      "direkt": 9161,
      "avfall": 9162,
      "##neren": 9163,
      "##sprosessen": 9164,
      "rulle": 9165,
      "##vsagt": 9166,
      "##urdering": 9167,
      "##ALL": 9168,
      "hvorvidt": 9169,
      "mulighetene": 9170,
      "nettverk": 9171,
      "overf": 9172,
      "130": 9173,
      "lovens": 9174,
      "uttalelse": 9175,
      "##sbjørn": 9176,
      "generell": 9177,
      "anden": 9178,
      "paragraf": 9179,
      "ordre": 9180,
      "##arter": 9181,
      "##rough": 9182,
      "##kommun": 9183,
      "Nav": 9184,
      "innov": 9185,
      "pleide": 9186,
      "Master": 9187,
      "følelsen": 9188,
      "broren": 9189,
      "Lie": 9190,
      "##ilder": 9191,
      "arkiv": 9192,
      "CO": 9193,
      "##sæ": 9194,
      "lærte": 9195,
      "1500": 9196,
      "bytte": 9197,
      "Ti": 9198,
      "hvitt": 9199,
      "##erence": 9200,
      "##ano": 9201,
      "##lete": 9202,
      "##riter": 9203,
      "overalt": 9204,
      "bredt": 9205,
      "Sak": 9206,
      "bryll": 9207,
      "bakgrunnen": 9208,
      "Nr": 9209,
      "Laur": 9210,
      "Tour": 9211,
      "opphav": 9212,
      "ille": 9213,
      "1700": 9214,
      "##sve": 9215,
      "##cel": 9216,
      "##asat": 9217,
      "1954": 9218,
      "Gab": 9219,
      "City": 9220,
      "beina": 9221,
      "slit": 9222,
      "##holdes": 9223,
      "skild": 9224,
      "kjøpes": 9225,
      "forutsetninger": 9226,
      "##gr": 9227,
      "humor": 9228,
      "##riper": 9229,
      "##SI": 9230,
      "skjær": 9231,
      "datam": 9232,
      "Bal": 9233,
      "##aksjonen": 9234,
      "Lin": 9235,
      "##krav": 9236,
      "Egil": 9237,
      "geograf": 9238,
      "would": 9239,
      "anm": 9240,
      "##snyhetene": 9241,
      "kvadrat": 9242,
      "kunnet": 9243,
      "##bard": 9244,
      "Lof": 9245,
      "storm": 9246,
      "Målet": 9247,
      "riktige": 9248,
      "##SDAG": 9249,
      "##kommer": 9250,
      "akk": 9251,
      "tilbyr": 9252,
      "##klubb": 9253,
      "vegg": 9254,
      "##FF": 9255,
      "sigar": 9256,
      "Aftenposten": 9257,
      "århundre": 9258,
      "##dr": 9259,
      "##vit": 9260,
      "billig": 9261,
      "sidene": 9262,
      "##deler": 9263,
      "Bus": 9264,
      "forbe": 9265,
      "bruks": 9266,
      "Allerede": 9267,
      "gunst": 9268,
      "##ammet": 9269,
      "##ople": 9270,
      "bebo": 9271,
      "##ugge": 9272,
      "vanleg": 9273,
      "eventuell": 9274,
      "##sserie": 9275,
      "##livet": 9276,
      "problemene": 9277,
      "element": 9278,
      "Mich": 9279,
      "eli": 9280,
      "##æk": 9281,
      "morg": 9282,
      "##ituasjon": 9283,
      "rekrutter": 9284,
      "Henry": 9285,
      "UK": 9286,
      "pkt": 9287,
      "sikret": 9288,
      "forven": 9289,
      "##odene": 9290,
      "://": 9291,
      "Miss": 9292,
      "lengde": 9293,
      "Bern": 9294,
      "behandle": 9295,
      "beskytte": 9296,
      "statlige": 9297,
      "nært": 9298,
      "nektet": 9299,
      "levere": 9300,
      "##tar": 9301,
      "##istan": 9302,
      "##ppa": 9303,
      "forekommer": 9304,
      "202": 9305,
      "utnytt": 9306,
      "trav": 9307,
      "alminnelige": 9308,
      "##pene": 9309,
      "##avdelingen": 9310,
      "...>>": 9311,
      "pul": 9312,
      "##erst": 9313,
      "nov": 9314,
      "Atl": 9315,
      "Helg": 9316,
      "##deg": 9317,
      "lek": 9318,
      "bestemmelsen": 9319,
      "Salt": 9320,
      "##SP": 9321,
      "##ington": 9322,
      "treff": 9323,
      "Aur": 9324,
      "onkel": 9325,
      "##illingen": 9326,
      "lykke": 9327,
      "##idrett": 9328,
      "drepe": 9329,
      "##kurran": 9330,
      "##rygd": 9331,
      "rektor": 9332,
      "##ican": 9333,
      "sper": 9334,
      "skjema": 9335,
      "##sko": 9336,
      "tilbudet": 9337,
      "Rt": 9338,
      "Herre": 9339,
      "##AB": 9340,
      "##yren": 9341,
      "forbundet": 9342,
      "barnehagen": 9343,
      "fangst": 9344,
      "##role": 9345,
      "Hag": 9346,
      "sb": 9347,
      "##umentet": 9348,
      "kilde": 9349,
      "##etta": 9350,
      "gøy": 9351,
      "serien": 9352,
      "Hj": 9353,
      "right": 9354,
      "1938": 9355,
      "avdel": 9356,
      "vesle": 9357,
      "påvirker": 9358,
      "Comm": 9359,
      "lurt": 9360,
      "stu": 9361,
      "reduksjon": 9362,
      "##ums": 9363,
      "prøvd": 9364,
      "tidlegare": 9365,
      "appar": 9366,
      "Haugesund": 9367,
      "##lu": 9368,
      "buss": 9369,
      "George": 9370,
      "Sent": 9371,
      "redeg": 9372,
      "indik": 9373,
      "##inge": 9374,
      "skrek": 9375,
      "Nyg": 9376,
      "##arkedet": 9377,
      "annan": 9378,
      "##vannet": 9379,
      "cup": 9380,
      "los": 9381,
      "rettss": 9382,
      "legen": 9383,
      "##styre": 9384,
      "Bygg": 9385,
      "fur": 9386,
      "equ": 9387,
      "halde": 9388,
      "1936": 9389,
      "##kontoret": 9390,
      "Premier": 9391,
      "Dis": 9392,
      "##egne": 9393,
      "elsk": 9394,
      "moder": 9395,
      "kristen": 9396,
      "melk": 9397,
      "##verdige": 9398,
      "lød": 9399,
      "##lingene": 9400,
      "idag": 9401,
      "Øster": 9402,
      "##produs": 9403,
      "stykker": 9404,
      "Super": 9405,
      "##engden": 9406,
      "spørsmålene": 9407,
      "styrem": 9408,
      "Aut": 9409,
      "##irekte": 9410,
      "etterl": 9411,
      "kilder": 9412,
      "Kra": 9413,
      "##siktige": 9414,
      "##helm": 9415,
      "Japan": 9416,
      "##terer": 9417,
      "Jesu": 9418,
      "Tekn": 9419,
      "retter": 9420,
      "støttet": 9421,
      "AP": 9422,
      "danse": 9423,
      "regionen": 9424,
      "sans": 9425,
      "kaptein": 9426,
      "Små": 9427,
      "major": 9428,
      "Sog": 9429,
      "##TT": 9430,
      "##mennene": 9431,
      "bab": 9432,
      "hær": 9433,
      "##elov": 9434,
      "Sval": 9435,
      "noens": 9436,
      "enklere": 9437,
      "dl": 9438,
      "skift": 9439,
      "foredrag": 9440,
      "Plutselig": 9441,
      "##mand": 9442,
      "##forstå": 9443,
      "Sovjet": 9444,
      "fattige": 9445,
      "##emidler": 9446,
      "ringer": 9447,
      "##olje": 9448,
      "saka": 9449,
      "brutt": 9450,
      "avgjørelse": 9451,
      "hellig": 9452,
      "protest": 9453,
      "##amper": 9454,
      "##vakt": 9455,
      "arrest": 9456,
      "Telefon": 9457,
      "KL": 9458,
      "ankl": 9459,
      "##rykt": 9460,
      "røyk": 9461,
      "##skv": 9462,
      "##problem": 9463,
      "##sats": 9464,
      "##odt": 9465,
      "169": 9466,
      "ansett": 9467,
      "kommunal": 9468,
      "Mann": 9469,
      "forbaus": 9470,
      "elektrisk": 9471,
      "##ensasjon": 9472,
      "herred": 9473,
      "irrit": 9474,
      "##urra": 9475,
      "##oker": 9476,
      "tene": 9477,
      "tenk": 9478,
      "cell": 9479,
      "reflekt": 9480,
      "Bas": 9481,
      "kanten": 9482,
      "kjennskap": 9483,
      "Din": 9484,
      "##iverse": 9485,
      "lede": 9486,
      "Roy": 9487,
      "Hor": 9488,
      "sakte": 9489,
      "##øvrig": 9490,
      "##ned": 9491,
      "##ife": 9492,
      "Svend": 9493,
      "anled": 9494,
      "Bry": 9495,
      "well": 9496,
      "skadet": 9497,
      "fisken": 9498,
      "##verdien": 9499,
      "##FT": 9500,
      "##program": 9501,
      "1944": 9502,
      "SC": 9503,
      "eitt": 9504,
      "antagelig": 9505,
      "betydelige": 9506,
      "tilpasset": 9507,
      "ess": 9508,
      "landskap": 9509,
      "Skjø": 9510,
      "følg": 9511,
      "KR": 9512,
      "##sar": 9513,
[...]
