{"version":"1.0","truncation":null,"padding":null,"added_tokens":[{"id":0,"special":true,"content":"[PAD]","single_word":false,"lstrip":false,"rstrip":false,"normalized":false},{"id":1,"special":true,"content":"[UNK]","single_word":false,"lstrip":false,"rstrip":false,"normalized":false},{"id":2,"special":true,"content":"[CLS]","single_word":false,"lstrip":false,"rstrip":false,"normalized":false},{"id":3,"special":true,"content":"[SEP]","single_word":false,"lstrip":false,"rstrip":false,"normalized":false},{"id":4,"special":true,"content":"[MASK]","single_word":false,"lstrip":false,"rstrip":false,"normalized":false}],"normalizer":{"type":"BertNormalizer","clean_text":true,"handle_chinese_chars":true,"strip_accents":false,"lowercase":false},"pre_tokenizer":{"type":"BertPreTokenizer"},"post_processor":null,"decoder":{"type":"WordPiece","prefix":"##","cleanup":true},"model":{"unk_token":"[UNK]","continuing_subword_prefix":"##","max_input_chars_per_word":100,"vocab":{"[PAD]":0,"[UNK]":1,"[CLS]":2,"[SEP]":3,"[MASK]":4,"!":5,"\"":6,"#":7,"$":8,"%":9,"&":10,"'":11,"(":12,")":13,"*":14,"+":15,",":16,"-":17,".":18,"/":19,"0":20,"1":21,"2":22,"3":23,"4":24,"5":25,"6":26,"7":27,"8":28,"9":29,":":30,";":31,"<":32,"=":33,">":34,"?":35,"@":36,"A":37,"B":38,"C":39,"D":40,"E":41,"F":42,"G":43,"H":44,"I":45,"J":46,"K":47,"L":48,"M":49,"N":50,"O":51,"P":52,"Q":53,"R":54,"S":55,"T":56,"U":57,"V":58,"W":59,"X":60,"Y":61,"Z":62,"[":63,"\\":64,"]":65,"^":66,"_":67,"`":68,"a":69,"b":70,"c":71,"d":72,"e":73,"f":74,"g":75,"h":76,"i":77,"j":78,"k":79,"l":80,"m":81,"n":82,"o":83,"p":84,"q":85,"r":86,"s":87,"t":88,"u":89,"v":90,"w":91,"x":92,"y":93,"z":94,"{":95,"|":96,"}":97,"~":98,"¢":99,"£":100,"¤":101,"¥":102,"¦":103,"¨":104,"©":105,"ª":106,"¬":107,"®":108,"¯":109,"°":110,"±":111,"²":112,"³":113,"µ":114,"¸":115,"¹":116,"º":117,"¼":118,"½":119,"¾":120,"À":121,"Á":122,"Â":123,"Ã":124,"Ä":125,"Å":126,"Æ":127,"Ç":128,"È":129,"É":130,"Ê":131,"Ë":132,"Ì":133,"Í":134,"Î":135,"Ï":136,"Ð":137,"Ñ":138,"Ò":139,"Ó":140,"Ô":141,"Õ":142,"Ö":143,"×":144,"Ø":145,"Ú":146,"Ü":147,"Þ":148,"ß":149,"à":150,"á":151,"â":152,"ã":153,"ä":154,"å":155,"æ":156,"ç":157,"è":158,"é":159,"ê":160,"ë":161,"ì":162,"í":163,"î":164,"ï":165,"ð":166,"ñ":167,"ò":168,"ó":169,"ô":170,"õ":171,"ö":172,"÷":173,"ø":174,"ù":175,"ú":176,"û":177,"ü":178,"ý":179,"þ":180,"ÿ":181,"Ā":182,"ā":183,"ă":184,"ą":185,"Ć":186,"ć":187,"Č":188,"č":189,"Ď":190,"Đ":191,"đ":192,"ē":193,"ė":194,"ę":195,"ě":196,"ğ":197,"ī":198,"ĭ":199,"İ":200,"ı":201,"ĺ":202,"ļ":203,"ľ":204,"Ł":205,"ł":206,"ń":207,"ņ":208,"ň":209,"Ŋ":210,"ŋ":211,"Ō":212,"ō":213,"ŏ":214,"ő":215,"Œ":216,"œ":217,"Ř":218,"ř":219,"Ś":220,"ś":221,"Ş":222,"ş":223,"Š":224,"š":225,"ţ":226,"ť":227,"ŧ":228,"ũ":229,"ū":230,"ŭ":231,"ů":232,"ų":233,"Ÿ":234,"ź":235,"Ż":236,"ż":237,"Ž":238,"ž":239,"ſ":240,"ƒ":241,"ơ":242,"ƭ":243,"ư":244,"ǎ":245,"ǐ":246,"ǒ":247,"ǔ":248,"ǫ":249,"ș":250,"ț":251,"Ʌ":252,"ɑ":253,"ɔ":254,"ə":255,"ɛ":256,"ɪ":257,"ʁ":258,"ʃ":259,"ʰ":260,"ʹ":261,"ʻ":262,"ʿ":263,"ˆ":264,"ˇ":265,"ˈ":266,"ː":267,"˚":268,"˜":269,"́":270,"̊":271,"Α":272,"Β":273,"Γ":274,"Δ":275,"Ε":276,"Η":277,"Θ":278,"Ι":279,"Κ":280,"Λ":281,"Μ":282,"Ν":283,"Ο":284,"Π":285,"Ρ":286,"Σ":287,"Τ":288,"Υ":289,"Φ":290,"Χ":291,"Ω":292,"ά":293,"έ":294,"ή":295,"ί":296,"α":297,"β":298,"γ":299,"δ":300,"ε":301,"ζ":302,"η":303,"θ":304,"ι":305,"κ":306,"λ":307,"μ":308,"ν":309,"ξ":310,"ο":311,"π":312,"ρ":313,"ς":314,"σ":315,"τ":316,"υ":317,"φ":318,"χ":319,"ψ":320,"ω":321,"ό":322,"ύ":323,"ώ":324,"ϕ":325,"Ѕ":326,"І":327,"А":328,"Б":329,"В":330,"Г":331,"Д":332,"Е":333,"Ж":334,"З":335,"И":336,"К":337,"Л":338,"М":339,"Н":340,"О":341,"П":342,"Р":343,"С":344,"Т":345,"У":346,"Ф":347,"Х":348,"Ц":349,"Ч":350,"Ш":351,"Э":352,"Ю":353,"Я":354,"а":355,"б":356,"в":357,"г":358,"д":359,"е":360,"ж":361,"з":362,"и":363,"й":364,"к":365,"л":366,"м":367,"н":368,"о":369,"п":370,"р":371,"с":372,"т":373,"у":374,"ф":375,"х":376,"ц":377,"ч":378,"ш":379,"щ":380,"ъ":381,"ы":382,"ь":383,"э":384,"ю":385,"я":386,"ё":387,"і":388,"ї":389,"ј":390,"њ":391,"Ґ":392,"Թ":393,"Ռ":394,"Վ":395,"ա":396,"ե":397,"ի":398,"յ":399,"ն":400,"ո":401,"ր":402,"ְ":403,"ִ":404,"ֵ":405,"ֶ":406,"ַ":407,"ָ":408,"ֹ":409,"ּ":410,"ׁ":411,"א":412,"ב":413,"ג":414,"ד":415,"ה":416,"ו":417,"ז":418,"ח":419,"ט":420,"י":421,"כ":422,"ל":423,"ם":424,"מ":425,"ן":426,"נ":427,"ס":428,"ע":429,"פ":430,"צ":431,"ק":432,"ר":433,"ש":434,"ת":435,"ء":436,"آ":437,"أ":438,"إ":439,"ئ":440,"ا":441,"ب":442,"ة":443,"ت":444,"ث":445,"ج":446,"ح":447,"خ":448,"د":449,"ذ":450,"ر":451,"ز":452,"س":453,"ش":454,"ص":455,"ض":456,"ط":457,"ع":458,"غ":459,"ـ":460,"ف":461,"ق":462,"ك":463,"ل":464,"م":465,"ن":466,"ه":467,"و":468,"ى":469,"ي":470,"َ":471,"پ":472,"ک":473,"گ":474,"ی":475,"क":476,"ज":477,"त":478,"द":479,"न":480,"प":481,"म":482,"य":483,"र":484,"ल":485,"व":486,"स":487,"ह":488,"ा":489,"ि":490,"ी":491,"े":492,"्":493,"া":494,"ਾ":495,"ਿ":496,"்":497,"ก":498,"ง":499,"ท":500,"น":501,"ม":502,"ย":503,"ร":504,"ล":505,"ว":506,"อ":507,"ั":508,"า":509,"฿":510,"เ":511,"่":512,"ག":513,"ད":514,"པ":515,"བ":516,"ར":517,"ས":518,"ི":519,"ེ":520,"ོ":521,"ა":522,"ე":523,"ი":524,"ღ":525,"Ḥ":526,"ḥ":527,"ṃ":528,"ṇ":529,"ṣ":530,"ṭ":531,"ạ":532,"ả":533,"ấ":534,"ầ":535,"ẩ":536,"ậ":537,"ế":538,"ề":539,"ể":540,"ễ":541,"ệ":542,"ị":543,"ọ":544,"ố":545,"ồ":546,"ộ":547,"ớ":548,"ờ":549,"ở":550,"ủ":551,"ự":552,"⁄":553,"₂":554,"₨":555,"€":556,"℃":557,"℉":558,"™":559,"←":560,"↑":561,"→":562,"↓":563,"↗":564,"∂":565,"∆":566,"∇":567,"∈":568,"∏":569,"−":570,"∙":571,"√":572,"∞":573,"∫":574,"≈":575,"≤":576,"≥":577,"⋅":578,"─":579,"│":580,"█":581,"■":582,"□":583,"▪":584,"▫":585,"▲":586,"▶":587,"▸":588,"►":589,"▼":590,"◀":591,"◄":592,"◆":593,"◉":594,"○":595,"●":596,"◗":597,"☀":598,"★":599,"☆":600,"☎":601,"☺":602,"♀":603,"♂":604,"♠":605,"♡":606,"♣":607,"♥":608,"♦":609,"♫":610,"⚫":611,"✂":612,"✆":613,"✍":614,"✑":615,"✓":616,"✔":617,"✚":618,"✨":619,"✪":620,"✶":621,"✸":622,"❄":623,"❆":624,"❑":625,"❖":626,"❚":627,"❞":628,"❤":629,"❥":630,"➊":631,"➋":632,"➌":633,"➍":634,"➔":635,"➜":636,"➤":637,"➥":638,"➦":639,"⠀":640,"あ":641,"い":642,"う":643,"え":644,"お":645,"か":646,"が":647,"き":648,"く":649,"け":650,"こ":651,"さ":652,"し":653,"す":654,"そ":655,"た":656,"だ":657,"ち":658,"っ":659,"つ":660,"て":661,"で":662,"と":663,"ど":664,"な":665,"に":666,"の":667,"は":668,"ま":669,"み":670,"め":671,"も":672,"や":673,"よ":674,"ら":675,"り":676,"る":677,"れ":678,"を":679,"ん":680,"ア":681,"ィ":682,"イ":683,"ウ":684,"エ":685,"オ":686,"カ":687,"キ":688,"ク":689,"グ":690,"コ":691,"サ":692,"シ":693,"ジ":694,"ス":695,"ズ":696,"タ":697,"ダ":698,"チ":699,"ッ":700,"ツ":701,"テ":702,"デ":703,"ト":704,"ド":705,"ナ":706,"ニ":707,"バ":708,"パ":709,"ビ":710,"ピ":711,"フ":712,"ブ":713,"プ":714,"マ":715,"ミ":716,"ム":717,"メ":718,"ャ":719,"ュ":720,"ラ":721,"リ":722,"ル":723,"レ":724,"ロ":725,"ン":726,"ー":727,"㈀":728,"㘀":729,"㤀":730,"㨀":731,"䄀":732,"䈀":733,"䐀":734,"䔀":735,"䘀":736,"䜀":737,"䤀":738,"䬀":739,"䰀":740,"䴀":741,"一":742,"丁":743,"万":744,"三":745,"上":746,"下":747,"不":748,"世":749,"业":750,"东":751,"中":752,"为":753,"主":754,"之":755,"九":756,"乡":757,"了":758,"事":759,"二":760,"五":761,"京":762,"人":763,"今":764,"代":765,"以":766,"伀":767,"会":768,"作":769,"元":770,"光":771,"全":772,"八":773,"公":774,"六":775,"内":776,"准":777,"出":778,"刀":779,"分":780,"利":781,"前":782,"力":783,"匀":784,"化":785,"北":786,"区":787,"十":788,"华":789,"单":790,"南":791,"原":792,"县":793,"双":794,"发":795,"口":796,"古":797,"台":798,"司":799,"吀":800,"合":801,"同":802,"名":803,"和":804,"品":805,"嘀":806,"四":807,"国":808,"图":809,"國":810,"在":811,"地":812,"场":813,"址":814,"坛":815,"城":816,"多":817,"大":818,"天":819,"太":820,"奖":821,"女":822,"好":823,"姐":824,"子":825,"学":826,"安":827,"宗":828,"定":829,"宝":830,"家":831,"富":832,"小":833,"山":834,"川":835,"州":836,"工":837,"己":838,"市":839,"帝":840,"平":841,"年":842,"库":843,"建":844,"开":845,"式":846,"彩":847,"德":848,"心":849,"愀":850,"戀":851,"成":852,"我":853,"手":854,"报":855,"挂":856,"搀":857,"攀":858,"教":859,"数":860,"文":861,"料":862,"新":863,"方":864,"族":865,"日":866,"昀":867,"明":868,"是":869,"時":870,"最":871,"月":872,"有":873,"期":874,"未":875,"本":876,"机":877,"李":878,"村":879,"来":880,"東":881,"林":882,"果":883,"栀":884,"椀":885,"樀":886,"欀":887,"正":888,"武":889,"氀":890,"民":891,"氓":892,"水":893,"江":894,"河":895,"治":896,"法":897,"波":898,"洀":899,"海":900,"渀":901,"港":902,"漀":903,"瀀":904,"爀":905,"版":906,"牌":907,"物":908,"特":909,"狗":910,"猀":911,"玄":912,"王":913,"琀":914,"理":915,"甀":916,"生":917,"用":918,"田":919,"甲":920,"瘀":921,"白":922,"的":923,"皇":924,"真":925,"石":926,"码":927,"礀":928,"社":929,"神":930,"福":931,"空":932,"站":933,"算":934,"管":935,"精":936,"經":937,"红":938,"经":939,"网":940,"美":941,"老":942,"者":943,"肖":944,"能":945,"自":946,"色":947,"花":948,"藏":949,"行":950,"街":951,"西":952,"要":953,"解":954,"论":955,"财":956,"资":957,"跑":958,"路":959,"辛":960,"通":961,"道":962,"部":963,"都":964,"里":965,"金":966,"镇":967,"长":968,"门":969,"阳":970,"集":971,"香":972,"马":973,"高":974,"黄":975,"龙":976,"기":977,"다":978,"대":979,"리":980,"사":981,"산":982,"의":983,"이":984,"한":985,"️":986,"🏻":987,"🏼":988,"👍":989,"👏":990,"😀":991,"😁":992,"😂":993,"😃":994,"😄":995,"😅":996,"😉":997,"😊":998,"😍":999,"😛":1000,"🙁":1001,"🙂":1002,"🙌":1003,"🙏":1004,"##a":1005,"##v":1006,"##g":1007,"##j":1008,"##u":1009,"##r":1010,"##e":1011,"##t":1012,"##i":1013,"##l":1014,"##k":1015,"##ø":1016,"##b":1017,"##m":1018,"##æ":1019,"##n":1020,"##d":1021,"##s":1022,"##h":1023,"##o":1024,"##O":1025,"##N":1026,"##S":1027,"##E":1028,"##C":1029,"##R":1030,"##A":1031,"##T":1032,"##y":1033,"##p":1034,"##f":1035,"##c":1036,"##4":1037,"##B":1038,"##7":1039,"##6":1040,"##3":1041,"##0":1042,"##å":1043,"##Q":1044,"##F":1045,"##U":1046,"##w":1047,"##W":1048,"##K":1049,"##M":1050,"##I":1051,"##L":1052,"##Z":1053,"##G":1054,"##é":1055,"##9":1056,"##Å":1057,"##É":1058,"##1":1059,"##q":1060,"##H":1061,"##x":1062,"##£":1063,"##ö":1064,"##D":1065,"##8":1066,"##2":1067,"##°":1068,"##□":1069,"##Ø":1070,"##²":1071,"##Ã":1072,"##³":1073,"##J":1074,"##z":1075,"##V":1076,"##5":1077,"##á":1078,"##ل":1079,"##ق":1080,"##م":1081,"##ر":1082,"##ي":1083,"##ة":1084,"##P":1085,"##ा":1086,"##म":1087,"##व":1088,"##े":1089,"##द":1090,"##Y":1091,"##™":1092,"##Æ":1093,"##о":1094,"##т":1095,"##г":1096,"##а":1097,"##л":1098,"##е":1099,"##р":1100,"##й":1101,"##í":1102,"##ô":1103,"##ß":1104,"##ä":1105,"##イ":1106,"##メ":1107,"##ー":1108,"##ジ":1109,"##で":1110,"##ū":1111,"##ñ":1112,"##®":1113,"##X":1114,"##ó":1115,"##±":1116,"##ý":1117,"##ð":1118,"##š":1119,"##ă":1120,"##đ":1121,"##è":1122,"##♥":1123,"##ç":1124,"##à":1125,"##리":1126,"##к":1127,"##в":1128,"##■":1129,"##п":1130,"##ь":1131,"##с":1132,"##خ":1133,"##ć":1134,"##☺":1135,"##ŋ":1136,"##у":1137,"##ч":1138,"##€":1139,"##ü":1140,"##ě":1141,"##ā":1142,"##ș":1143,"##れ":1144,"##そ":1145,"##и":1146,"##н":1147,"##Ê":1148,"##ε":1149,"##ž":1150,"##ο":1151,"##λ":1152,"##¥":1153,"##ナ":1154,"##ル":1155,"##ャ":1156,"##リ":1157,"##ッ":1158,"##ク":1159,"##キ":1160,"##ン":1161,"##ś":1162,"##Á":1163,"##Š":1164,"##ɛ":1165,"##ф":1166,"##м":1167,"##ò":1168,"##ί":1169,"##γ":1170,"##α":1171,"##ρ":1172,"##ê":1173,"##क":1174,"##र":1175,"##ी":1176,"##Ö":1177,"##д":1178,"##х":1179,"##ц":1180,"##ɪ":1181,"##ë":1182,"##©":1183,"##♦":1184,"##ŧ":1185,"##ē":1186,"##˜":1187,"##¸":1188,"##ż":1189,"##د":1190,"##ك":1191,"##ى":1192,"##́":1193,"##з":1194,"##я":1195,"##ж":1196,"##ό":1197,"##π":1198,"##ι":1199,"##ς":1200,"##ج":1201,"##ح":1202,"##ה":1203,"##מ":1204,"##ס":1205,"##ו":1206,"##ר":1207,"##ı":1208,"##Â":1209,"##ت":1210,"##س":1211,"##∂":1212,"##ú":1213,"##ė":1214,"##フ":1215,"##ラ":1216,"##た":1217,"##ོ":1218,"##ύ":1219,"##μ":1220,"##¼":1221,"##ю":1222,"##ы":1223,"##Ï":1224,"##إ":1225,"##ب":1226,"##ا":1227,"##ه":1228,"##►":1229,"##č":1230,"##ù":1231,"##ą":1232,"##Đ":1233,"##る":1234,"##よ":1235,"##う":1236,"##に":1237,"##щ":1238,"##ָ":1239,"##ׁ":1240,"##פ":1241,"##ִ":1242,"##י":1243,"##È":1244,"##ə":1245,"##ş":1246,"##ν":1247,"##τ":1248,"##ά":1249,"##χ":1250,"##і":1251,"##ī":1252,"##و":1253,"##¨":1254,"##б":1255,"##ή":1256,"##º":1257,"##ũ":1258,"##Π":1259,"##φ":1260,"##κ":1261,"##Ä":1262,"##÷":1263,"##˚":1264,"##ψ":1265,"##â":1266,"##ń":1267,"##ζ":1268,"##ن":1269,"##δ":1270,"##√":1271,"##−":1272,"##ˇ":1273,"##Ο":1274,"##Ρ":1275,"##Γ":1276,"##Α":1277,"##Β":1278,"##Κ":1279,"##ì":1280,"##ف":1281,"##ی":1282,"##し":1283,"##っ":1284,"##∈":1285,"##ź":1286,"##ֵ":1287,"##ֶ":1288,"##ř":1289,"##ώ":1290,"##ニ":1291,"##Í":1292,"##ł":1293,"##ш":1294,"##█":1295,"##⋅":1296,"##Ü":1297,"##θ":1298,"##œ":1299,"##ã":1300,"##ŏ":1301,"##έ":1302,"##η":1303,"##❤":1304,"##ث":1305,"##ա":1306,"##ո":1307,"##ր":1308,"##ի":1309,"##ն":1310,"##シ":1311,"##ミ":1312,"##¹":1313,"##ե":1314,"##¬":1315,"##Œ":1316,"##さ":1317,"##С":1318,"##А":1319,"##Е":1320,"##П":1321,"##М":1322,"##Х":1323,"##И":1324,"##া":1325,"##ï":1326,"##ː":1327,"##ʁ":1328,"##ğ":1329,"##ų":1330,"##þ":1331,"##カ":1332,"##ё":1333,"##ĺ":1334,"##Ď":1335,"##ō":1336,"##ǎ":1337,"##σ":1338,"##한":1339,"##¤":1340,"##Ò":1341,"##Д":1342,"##ľ":1343,"##ط":1344,"##→":1345,"##َ":1346,"##ω":1347,"##ら":1348,"##Ŋ":1349,"##З":1350,"##Р":1351,"##У":1352,"##ビ":1353,"##サ":1354,"##ロ":1355,"##す":1356,"##ט":1357,"##ם":1358,"##ǔ":1359,"##î":1360,"##ț":1361,"##ʰ":1362,"##な":1363,"##い":1364,"##ÿ":1365,"##️":1366,"##🏻":1367,"##♂":1368,"##ъ":1369,"##ṣ":1370,"##ṭ":1371,"##ל":1372,"##נ":1373,"##ک":1374,"##😄":1375,"##ど":1376,"##を":1377,"##×":1378,"##ュ":1379,"##Ф":1380,"##Л":1381,"##्":1382,"##प":1383,"##レ":1384,"##パ":1385,"##ň":1386,"##ص":1387,"##ز":1388,"##ő":1389,"##Ν":1390,"##υ":1391,"##ع":1392,"##─":1393,"##か":1394,"##Ÿ":1395,"##¦":1396,"##ṃ":1397,"##●":1398,"##Ω":1399,"##א":1400,"##ן":1401,"##گ":1402,"##כ":1403,"##Ž":1404,"##こ":1405,"##と":1406,"##õ":1407,"##も":1408,"##グ":1409,"##プ":1410,"##ش":1411,"##ξ":1412,"##Ó":1413,"##Ж":1414,"##К":1415,"##غ":1416,"##ე":1417,"##ი":1418,"##ა":1419,"##Ì":1420,"##산":1421,"##ि":1422,"##¾":1423,"##ד":1424,"##Č":1425,"##が":1426,"##あ":1427,"##の":1428,"##ʿ":1429,"##り":1430,"##ま":1431,"##ę":1432,"##ƒ":1433,"##В":1434,"##Г":1435,"##ض":1436,"##ɔ":1437,"##¯":1438,"##ǫ":1439,"##ª":1440,"##À":1441,"##ņ":1442,"##▼":1443,"##♡":1444,"##タ":1445,"##Ë":1446,"##О":1447,"##ร":1448,"##ง":1449,"##ม":1450,"##ֹ":1451,"##ע":1452,"##ス":1453,"##テ":1454,"##オ":1455,"##ल":1456,"##😊":1457,"##ਿ":1458,"##이":1459,"##ǐ":1460,"##ア":1461,"##😁":1462,"##コ":1463,"##ˈ":1464,"##다":1465,"##ŭ":1466,"##ậ":1467,"##き":1468,"##え":1469,"##ピ":1470,"##つ":1471,"##😅":1472,"##ת":1473,"##य":1474,"##チ":1475,"##ї":1476,"##Ѕ":1477,"##ィ":1478,"##ド":1479,"##は":1480,"##ǒ":1481,"##Т":1482,"##Я":1483,"##β":1484,"##ְ":1485,"##ּ":1486,"##أ":1487,"##Υ":1488,"##Ε":1489,"##Τ":1490,"##Η":1491,"##Ι":1492,"##Σ":1493,"##ɑ":1494,"##ạ":1495,"##پ":1496,"##э":1497,"##½":1498,"##▪":1499,"##ʃ":1500,"##ト":1501,"##ĭ":1502,"##Õ":1503,"##ấ":1504,"##て":1505,"##み":1506,"##く":1507,"##★":1508,"##त":1509,"##🏼":1510,"##न":1511,"##स":1512,"##➦":1513,"##ַ":1514,"##ţ":1515,"##û":1516,"##ů":1517,"##ズ":1518,"##ウ":1519,"##だ":1520,"##け":1521,"##њ":1522,"##∫":1523,"##ブ":1524,"##ั":1525,"##ท":1526,"##ย":1527,"##ש":1528,"##ב":1529,"##ג":1530,"##ſ":1531,"##め":1532,"##า":1533,"##ก":1534,"##น":1535,"##▶":1536,"##Þ":1537,"##ק":1538,"##¢":1539,"##ḥ":1540,"##Н":1541,"##ˆ":1542,"##ʻ":1543,"##ʹ":1544,"##ļ":1545,"##ế":1546,"##기":1547,"##ར":1548,"##😍":1549,"##✔":1550,"##ི":1551,"##ག":1552,"##ء":1553,"##ム":1554,"##ח":1555,"##ƭ":1556,"##エ":1557,"##⁄":1558,"##ਾ":1559,"##↓":1560,"##Ч":1561,"##や":1562,"##்":1563,"##յ":1564,"##İ":1565,"##₂":1566,"##Λ":1567,"##̊":1568,"##│":1569,"##♠":1570,"##ད":1571,"##Б":1572,"##😀":1573,"##バ":1574,"##Ґ":1575,"##ז":1576,"##≤":1577,"##ह":1578,"##○":1579,"##ダ":1580,"##ذ":1581,"##ئ":1582,"##Ñ":1583,"##ồ":1584,"##ệ":1585,"##😃":1586,"##ـ":1587,"##℃":1588,"##✶":1589,"##∞":1590,"##Ç":1591,"##❄":1592,"##♣":1593,"##ว":1594,"##Θ":1595,"##Μ":1596,"##ờ":1597,"##ť":1598,"##Ð":1599,"##お":1600,"##∏":1601,"##マ":1602,"##🙌":1603,"##Χ":1604,"##ầ":1605,"##≥":1606,"##Δ":1607,"##Ô":1608,"##◄":1609,"##ち":1610,"##ん":1611,"##㈀":1612,"##ล":1613,"##ј":1614,"##่":1615,"##의":1616,"##ả":1617,"##Ś":1618,"##🙂":1619,"##Φ":1620,"##ツ":1621,"##Ř":1622,"##Ş":1623,"##👏":1624,"##Ć":1625,"##😂":1626,"##อ":1627,"##ṇ":1628,"##▲":1629,"##デ":1630,"##ư":1631,"##Ц":1632,"##Ш":1633,"##ེ":1634,"##대":1635,"##❞":1636,"##צ":1637,"##✨":1638,"##☀":1639,"##ས":1640,"##ố":1641,"##Э":1642,"##사":1643,"##ọ":1644,"##◆":1645,"##🙏":1646,"##ớ":1647,"##Թ":1648,"##👍":1649,"##ơ":1650,"##ủ":1651,"##😉":1652,"##➜":1653,"##ज":1654,"##Î":1655,"##♀":1656,"##ẩ":1657,"##Ú":1658,"##↑":1659,"##เ":1660,"##❆":1661,"##◀":1662,"##µ":1663,"##آ":1664,"##✓":1665,"##Ł":1666,"##🙁":1667,"##ề":1668,"##ị":1669,"##ღ":1670,"##Ā":1671,"##Ż":1672,"##ở":1673,"##ộ":1674,"##☆":1675,"##І":1676,"##≈":1677,"##Ḥ":1678,"##←":1679,"##❖":1680,"##◗":1681,"##Ю":1682,"##ϕ":1683,"##ể":1684,"##པ":1685,"##✍":1686,"##ễ":1687,"##∙":1688,"##➔":1689,"##✸":1690,"##∆":1691,"##Վ":1692,"##Ō":1693,"##ự":1694,"##⠀":1695,"##✆":1696,"##😛":1697,"##✂":1698,"##∇":1699,"##བ":1700,"##❥":1701,"##♫":1702,"##➤":1703,"##⚫":1704,"##↗":1705,"##✪":1706,"##☎":1707,"##❚":1708,"##▫":1709,"##➋":1710,"##➌":1711,"##➍":1712,"##➥":1713,"##❑":1714,"##◉":1715,"##฿":1716,"##Ʌ":1717,"##✑":1718,"##Ռ":1719,"##➊":1720,"##et":1721,"##te":1722,"##re":1723,"##an":1724,"##or":1725,"##ne":1726,"##de":1727,"##le":1728,"##in":1729,"##ar":1730,"##ke":1731,"##il":1732,"##ge":1733,"##om":1734,"og":1735,"##se":1736,"de":1737,"##li":1738,"me":1739,"##st":1740,"for":1741,"##ve":1742,"til":1743,"##ra":1744,"##me":1745,"det":1746,"##je":1747,"##is":1748,"##ing":1749,"##al":1750,"##on":1751,"en":1752,"av":1753,"er":1754,"##eg":1755,"som":1756,"##ter":1757,"##un":1758,"på":1759,"##at":1760,"##ri":1761,"##kke":1762,"med":1763,"st":1764,"##el":1765,"at":1766,"sk":1767,"##sk":1768,"##pp":1769,"##am":1770,"##ør":1771,"in":1772,"##kt":1773,"##ver":1774,"##ol":1775,"##gen":1776,"##it":1777,"##as":1778,"##ten":1779,"##id":1780,"##der":1781,"##ler":1782,"et":1783,"var":1784,"##ig":1785,"den":1786,"##lig":1787,"##ed":1788,"om":1789,"##nt":1790,"##ag":1791,"har":1792,"##ns":1793,"##ro":1794,"##kk":1795,"##ie":1796,"ikke":1797,"ut":1798,"##and":1799,"##ste":1800,"##ad":1801,"##nd":1802,"##ger":1803,"vi":1804,"##pe":1805,"##år":1806,"##ren":1807,"han":1808,"##be":1809,"be":1810,"Det":1811,"##sen":1812,"##ru":1813,"he":1814,"##ner":1815,"fra":1816,"opp":1817,"se":1818,"##ul":1819,"##tt":1820,"##he":1821,"##den":1822,"##ær":1823,"al":1824,"##ser":1825,"##ks":1826,"##us":1827,"##ur":1828,"##ning":1829,"##ot":1830,"De":1831,"ve":1832,"kan":1833,"19":1834,"seg":1835,"re":1836,"kom":1837,"##nn":1838,"no":1839,"##for":1840,"##nen":1841,"##iv":1842,"##ett":1843,"##ss":1844,"##het":1845,"så":1846,"##rer":1847,"sam":1848,"##ker":1849,"vil":1850,"men":1851,"jeg":1852,"##jø":1853,"el":1854,"##jon":1855,"##ik":1856,"##ang":1857,"##adde":1858,"må":1859,"hv":1860,"##nes":1861,"over":1862,"##len":1863,"hadde":1864,"bli":1865,"##ak":1866,"le":1867,"##mer":1868,"inn":1869,"##od":1870,"##ut":1871,"##ingen":1872,"##men":1873,"##att":1874,"si":1875,"##la":1876,"##res":1877,"##ord":1878,"##ok":1879,"gje":1880,"man":1881,"##ære":1882,"un":1883,"ble":1884,"ved":1885,"##ir":1886,"##ap":1887,"##ye":1888,"eller":1889,"##fe":1890,"##isk":1891,"20":1892,"##ort":1893,"sp":1894,"##så":1895,"du":1896,"##ikk":1897,"##lige":1898,"noe":1899,"##rå":1900,"##itt":1901,"##ll":1902,"##lse":1903,"and":1904,"hun":1905,"##are":1906,"##os":1907,"##art":1908,"ar":1909,"an":1910,"te":1911,"skal":1912,"##av":1913,"etter":1914,"##ret":1915,"##jo":1916,"##ier":1917,"før":1918,"##yg":1919,"der":1920,"##ans":1921,"pro":1922,"da":1923,"##old":1924,"##net":1925,"##ta":1926,"##ud":1927,"##ist":1928,"##ore":1929,"##sl":1930,"kon":1931,"##rø":1932,"sa":1933,"også":1934,"kun":1935,"##nde":1936,"##inger":1937,"##og":1938,"##ft":1939,"00":1940,"##iske":1941,"of":1942,"to":1943,"Jeg":1944,"##øy":1945,"Han":1946,"Me":1947,"##leg":1948,"år":1949,"##all":1950,"##nne":1951,"the":1952,"##ti":1953,"pe":1954,"være":1955,"##rd":1956,"##sp":1957,"##ly":1958,"##ling":1959,"##jer":1960,"li":1961,"##ry":1962,"sy":1963,"under":1964,"##und":1965,"##ant":1966,"##na":1967,"##beid":1968,"##um":1969,"hel":1970,"mot":1971,"##tte":1972,"ha":1973,"##si":1974,"St":1975,"##ppe":1976,"##va":1977,"##ken":1978,"##lt":1979,"##jen":1980,"ne":1981,"meg":1982,"dette":1983,"min":1984,"##ng":1985,"få":1986,"fe":1987,"##hete":1988,"18":1989,"##yr":1990,"##rem":1991,"fø":1992,"##ane":1993,"##var":1994,"kl":1995,"##kte":1996,"bru":1997,"##ld":1998,"##asjon":1999,"alle":2000,"sli":2001,"##vis":2002,"Men":2003,"##ete":2004,"##sm":2005,"andre":2006,"##ale":2007,"Vi":2008,"##rs":2009,"tid":2010,"##ært":2011,"##run":2012,"blir":2013,"##ab":2014,"##ch":2015,"##ket":2016,"sl":2017,"##jør":2018,"##mme":2019,"For":2020,"##red":2021,"##ov":2022,"##kker":2023,"kunne":2024,"10":2025,"mer":2026,"Nor":2027,"##let":2028,"##ber":2029,"##set":2030,"##skap":2031,"##del":2032,"##det":2033,"##jel":2034,"sin":2035,"##hold":2036,"##ige":2037,"pl":2038,"##oli":2039,"##ce":2040,"##ment":2041,"bl":2042,"denne":2043,"enn":2044,"ste":2045,"ny":2046,"##ien":2047,"##ion":2048,"god":2049,"##alt":2050,"He":2051,"fin":2052,"##ann":2053,"##nnom":2054,"##ven":2055,"##get":2056,"reg":2057,"skul":2058,"nå":2059,"##ast":2060,"komm":2061,"bet":2062,"bar":2063,"dem":2064,"ham":2065,"Be":2066,"##land":2067,"##ob":2068,"##iste":2069,"beg":2070,"bare":2071,"##les":2072,"ta":2073,"##ske":2074,"##fø":2075,"##per":2076,"når":2077,"noen":2078,"arbeid":2079,"##gene":2080,"##ma":2081,"Den":2082,"##ine":2083,"##du":2084,"her":2085,"lø":2086,"sel":2087,"##vik":2088,"frem":2089,"tre":2090,"ver":2091,"30":2092,"##sø":2093,"ma":2094,"fle":2095,"##mp":2096,"vel":2097,"gjennom":2098,"En":2099,"##sten":2100,"##dre":2101,"##tene":2102,"hvor":2103,"##ire":2104,"Og":2105,"##ue":2106,"##llom":2107,"##ktig":2108,"##ass":2109,"##da":2110,"##vin":2111,"15":2112,"mange":2113,"##lag":2114,"##yn":2115,"ti":2116,"##ningen":2117,"##atte":2118,"ned":2119,"##ran":2120,"la":2121,"##ffe":2122,"mellom":2123,"skulle":2124,"Hun":2125,"##im":2126,"sammen":2127,"##ings":2128,"##ia":2129,"sier":2130,"##lene":2131,"##jonen":2132,"vært":2133,"alt":2134,"hver":2135,"##isse":2136,"##lem":2137,"Sk":2138,"##ba":2139,"slik":2140,"##stil":2141,"##pen":2142,"##ød":2143,"##runn":2144,"##yl":2145,"ville":2146,"##tid":2147,"tr":2148,"201":2149,"##kket":2150,"17":2151,"sm":2152,"##ic":2153,"ho":2154,"##ug":2155,"##ster":2156,"dag":2157,"fort":2158,"uten":2159,"del":2160,"land":2161,"##gi":2162,"##jøre":2163,"##vi":2164,"sø":2165,"##vel":2166,"##00":2167,"ly":2168,"##oe":2169,"hø":2170,"##kken":2171,"##rende":2172,"##nene":2173,"hen":2174,"##gjen":2175,"ein":2176,"Se":2177,"##met":2178,"lang":2179,"##op":2180,"##ninger":2181,"gj":2182,"12":2183,"##ff":2184,"ty":2185,"##tel":2186,"nor":2187,"##tter":2188,"##dere":2189,"##sent":2190,"oss":2191,"##rie":2192,"##legg":2193,"##ring":2194,"11":2195,"or":2196,"##dene":2197,"deg":2198,"##sel":2199,"##ille":2200,"bå":2201,"##ost":2202,"mu":2203,"hans":2204,"første":2205,"##rat":2206,"vir":2207,"går":2208,"##vet":2209,"fram":2210,"##ult":2211,"##ub":2212,"henne":2213,"gå":2214,"Dette":2215,"##dag":2216,"##tes":2217,"nær":2218,"##kon":2219,"##ise":2220,"##utt":2221,"byg":2222,"##elt":2223,"##ets":2224,"Norge":2225,"199":2226,"##ny":2227,"##anske":2228,"In":2229,"16":2230,"stor":2231,"##rene":2232,"##bru":2233,"rett":2234,"fikk":2235,"dei":2236,"##ål":2237,"kje":2238,"##pet":2239,"##før":2240,"like":2241,"mil":2242,"fore":2243,"Da":2244,"##gan":2245,"får":2246,"##lo":2247,"fol":2248,"##akt":2249,"##rik":2250,"ans":2251,"Re":2252,"beste":2253,"##dt":2254,"grunn":2255,"##rist":2256,"##ull":2257,"##joner":2258,"hva":2259,"samme":2260,"igjen":2261,"Jo":2262,"##skje":2263,"##ust":2264,"##dig":2265,"##lsen":2266,"ser":2267,"##opp":2268,"nok":2269,"##over":2270,"200":2271,"sv":2272,"kjø":2273,"ann":2274,"##som":2275,"liv":2276,"##rin":2277,"##di":2278,"ten":2279,"##gang":2280,"##ktet":2281,"##kl":2282,"gi":2283,"##heten":2284,"##ER":2285,"##des":2286,"Ar":2287,"##ali":2288,"kommer":2289,"##sert":2290,"lag":2291,"##mid":2292,"poli":2293,"Ve":2294,"##ette":2295,"##ram":2296,"beh":2297,"##par":2298,"##ode":2299,"##elle":2300,"pers":2301,"ord":2302,"##nings":2303,"stør":2304,"##alg":2305,"kommu":2306,"##kom":2307,"flere":2308,"ingen":2309,"13":2310,"bed":2311,"tra":2312,"hele":2313,"##fter":2314,"##eter":2315,"føl":2316,"sko":2317,"##lø":2318,"seiv":2319,"14":2320,"gikk":2321,"ge":2322,"##ard":2323,"lig":2324,"godt":2325,"spe":2326,"disse":2327,"nye":2328,"mø":2329,"The":2330,"sn":2331,"gang":2332,"##ive":2333,"Ne":2334,"Le":2335,"store":2336,"##kse":2337,"##skri":2338,"##ris":2339,"dø":2340,"sine":2341,"##ill":2342,"##ell":2343,"##ksjon":2344,"##ide":2345,"##ga":2346,"##ska":2347,"litt":2348,"##dom":2349,"Al":2350,"selv":2351,"både":2352,"##bake":2353,"##heter":2354,"##ha":2355,"Mar":2356,"##sy":2357,"##kkje":2358,"##ation":2359,"##kter":2360,"siden":2361,"gjøre":2362,"mar":2363,"helt":2364,"mye":2365,"tilbake":2366,"eg":2367,"##ordan":2368,"##sb":2369,"mulig":2370,"tro":2371,"kont":2372,"forb":2373,"kra":2374,"hus":2375,"##slo":2376,"SS":2377,"##nere":2378,"##dd":2379,"##rett":2380,"##kes":2381,"##ron":2382,"##tet":2383,"vis":2384,"##ktiv":2385,"##ses":2386,"vin":2387,"ikkje":2388,"hå":2389,"##hol":2390,"red":2391,"##kel":2392,"gam":2393,"##EN":2394,"kro":2395,"eks":2396,"høy":2397,"bil":2398,"##form":2399,"par":2400,"21":2401,"mor":2402,"##min":2403,"198":2404,"##gå":2405,"ad":2406,"skri":2407,"På":2408,"egen":2409,"annet":2410,"Her":2411,"##undt":2412,"frå":2413,"##reg":2414,"pa":2415,"##slag":2416,"len":2417,"mo":2418,"##stad":2419,"##rig":2420,"##stre":2421,"##hus":2422,"##nder":2423,"##vil":2424,"hje":2425,"##oner":2426,"spør":2427,"##arbeid":2428,"blitt":2429,"##sa":2430,"Du":2431,"sitt":2432,"ei":2433,"##ved":2434,"##ip":2435,"##ligere":2436,"000":2437,"##ange":2438,"25":2439,"##rom":2440,"gra":2441,"##ite":2442,"sto":2443,"leg":2444,"##ndig":2445,"far":2446,"##vor":2447,"form":2448,"fly":2449,"måtte":2450,"ele":2451,"Te":2452,"sit":2453,"viktig":2454,"##kene":2455,"##med":2456,"forsk":2457,"pre":2458,"dri":2459,"##stå":2460,"##byg":2461,"##gende":2462,"forhold":2463,"##ruppe":2464,"vår":2465,"rundt":2466,"##dri":2467,"Je":2468,"ba":2469,"vå":2470,"##ingene":2471,"th":2472,"Pe":2473,"##asse":2474,"##ande":2475,"ra":2476,"##ttet":2477,"utvik":2478,"##anger":2479,"di":2480,"##olog":2481,"mennes":2482,"lå":2483,"Så":2484,"##inn":2485,"##mar":2486,"Ber":2487,"##sje":2488,"tok":2489,"jo":2490,"##ka":2491,"ska":2492,"hjel":2493,"22":2494,"gjel":2495,"##rede":2496,"kvin":2497,"Ch":2498,"##ras":2499,"##neste":2500,"##pl":2501,"##itet":2502,"##if":2503,"siste":2504,"mens":2505,"##orde":2506,"##ges":2507,"nat":2508,"pri":2509,"Joh":2510,"fun":2511,"mid":2512,"##gel":2513,"fors":2514,"van":2515,"by":2516,"##oren":2517,"is":2518,"Ja":2519,"bak":2520,"hal":2521,"##kn":2522,"##oll":2523,"ri":2524,"##sta":2525,"##yd":2526,"##ksom":2527,"gjør":2528,"##ct":2529,"##like":2530,"dom":2531,"##amil":2532,"inne":2533,"197":2534,"Til":2535,"##kje":2536,"ant":2537,"##kst":2538,"##satt":2539,"##pt":2540,"23":2541,"##iser":2542,"##tak":2543,"end":2544,"##ow":2545,"##use":2546,"Oslo":2547,"##ile":2548,"##rev":2549,"##istor":2550,"komme":2551,"##delig":2552,"inte":2553,"lu":2554,"##mt":2555,"hand":2556,"##val":2557,"kor":2558,"større":2559,"hvordan":2560,"##unn":2561,"Når":2562,"res":2563,"##ende":2564,"bør":2565,"##sf":2566,"Sp":2567,"sj":2568,"produ":2569,"##tern":2570,"##lik":2571,"sna":2572,"50":2573,"stat":2574,"kr":2575,"##ck":2576,"tren":2577,"com":2578,"hos":2579,"je":2580,"##ian":2581,"sett":2582,"##man":2583,"eit":2584,"gir":2585,"##atter":2586,"##nte":2587,"barn":2588,"fl":2589,"ga":2590,"tilf":2591,"annen":2592,"lov":2593,"##kelig":2594,"##rens":2595,"##ule":2596,"videre":2597,"##org":2598,"spesi":2599,"bort":2600,"fri":2601,"fått":2602,"##ym":2603,"##vir":2604,"nr":2605,"hol":2606,"sær":2607,"##asjonen":2608,"skje":2609,"fast":2610,"fyl":2611,"Der":2612,"Etter":2613,"ka":2614,"##ib":2615,"##io":2616,"Med":2617,"##vent":2618,"##dra":2619,"##anse":2620,"sig":2621,"Ha":2622,"dy":2623,"fa":2624,"kri":2625,"##lingen":2626,"ster":2627,"##ften":2628,"##dal":2629,"##bei":2630,"Ut":2631,"Sam":2632,"##gt":2633,"fordi":2634,"job":2635,"##sko":2636,"##føl":2637,"hennes":2638,"my":2639,"Kon":2640,"kal":2641,"su":2642,"##berg":2643,"hvis":2644,"##iver":2645,"##ys":2646,"##kning":2647,"områ":2648,"sta":2649,"##pro":2650,"gjelder":2651,"stø":2652,"##mentet":2653,"##sket":2654,"tar":2655,"står":2656,"folk":2657,"##kere":2658,"Nord":2659,"##tert":2660,"bor":2661,"vet":2662,"plan":2663,"lo":2664,"ofte":2665,"##pre":2666,"##ksemp":2667,"derfor":2668,"##konom":2669,"verd":2670,"rom":2671,"Hva":2672,"##iet":2673,"kap":2674,"stra":2675,"##dde":2676,"gjort":2677,"person":2678,"so":2679,"viser":2680,"bo":2681,"Har":2682,"##hand":2683,"gl":2684,"spørsm":2685,"aldri":2686,"mest":2687,"##oen":2688,"196":2689,"##tens":2690,"##sto":2691,"Er":2692,"øns":2693,"##delse":2694,"hold":2695,"ret":2696,"##ja":2697,"##iner":2698,"##agt":2699,"##ind":2700,"Ma":2701,"nett":2702,"tatt":2703,"blant":2704,"side":2705,"nød":2706,"##vende":2707,"organ":2708,"langt":2709,"##midler":2710,"mindre":2711,"sent":2712,"gre":2713,"prob":2714,"gjorde":2715,"svar":2716,"kommune":2717,"##ial":2718,"##stand":2719,"##far":2720,"##iller":2721,"lok":2722,"##assen":2723,"Gud":2724,"Et":2725,"40":2726,"led":2727,"##skapet":2728,"##allet":2729,"##her":2730,"##røm":2731,"##unkt":2732,"kanskje":2733,"##parte":2734,"Som":2735,"##ltid":2736,"innen":2737,"##yen":2738,"##amp":2739,"norske":2740,"##lle":2741,"prø":2742,"##sn":2743,"sikker":2744,"fortel":2745,"##ppen":2746,"##lser":2747,"Nå":2748,"rå":2749,"Ho":2750,"##ral":2751,"##ærer":2752,"eksemp":2753,"Ge":2754,"##vem":2755,"##son":2756,"45":2757,"##tre":2758,"##ister":2759,"sjø":2760,"gamle":2761,"Om":2762,"små":2763,"mener":2764,"politi":2765,"##OR":2766,"##tion":2767,"##IN":2768,"famil":2769,"mann":2770,"##ativ":2771,"sty":2772,"satt":2773,"af":2774,"bruk":2775,"##rykk":2776,"##sty":2777,"tidligere":2778,"24":2779,"##ina":2780,"først":2781,"Krist":2782,"##gelig":2783,"##rakt":2784,"nytt":2785,"part":2786,"##rige":2787,"begyn":2788,"Th":2789,"##stem":2790,"##asser":2791,"##by":2792,"ca":2793,"##ben":2794,"##isjon":2795,"Ved":2796,"##dan":2797,"##jor":2798,"##tale":2799,"##tere":2800,"vanske":2801,"kjen":2802,"##one":2803,"El":2804,"##AN":2805,"##tende":2806,"##sj":2807,"mål":2808,"tje":2809,"##ilt":2810,"##gens":2811,"##tidig":2812,"##ighet":2813,"tan":2814,"##asjoner":2815,"##dens":2816,"hoved":2817,"05":2818,"##rne":2819,"kroner":2820,"måte":2821,"ulike":2822,"##sh":2823,"##vene":2824,"full":2825,"##omm":2826,"##vens":2827,"bedre":2828,"##heng":2829,"all":2830,"kla":2831,"ting":2832,"alltid":2833,"##lå":2834,"##alte":2835,"##bo":2836,"ligger":2837,"natur":2838,"##olle":2839,"##gram":2840,"ber":2841,"La":2842,"##ds":2843,"##avn":2844,"195":2845,"deres":2846,"stort":2847,"nord":2848,"øy":2849,"##ith":2850,"ung":2851,"ro":2852,"con":2853,"##mel":2854,"##stit":2855,"##uren":2856,"##jell":2857,"##bet":2858,"vur":2859,"ven":2860,"tillegg":2861,"behand":2862,"dra":2863,"skole":2864,"##fun":2865,"03":2866,"##nsyn":2867,"finne":2868,"hvil":2869,"194":2870,"##ome":2871,"heller":2872,"histor":2873,"kre":2874,"hjem":2875,"##stru":2876,"åp":2877,"sky":2878,"ful":2879,"##mene":2880,"hvert":2881,"##pper":2882,"Pro":2883,"##ors":2884,"utt":2885,"##iden":2886,"syn":2887,"##går":2888,"Ro":2889,"op":2890,"##rid":2891,"##ure":2892,"bra":2893,"forskjel":2894,"gode":2895,"##hen":2896,"økonom":2897,"##ført":2898,"polit":2899,"##rit":2900,"tror":2901,"bø":2902,"on":2903,"##uro":2904,"enkel":2905,"##bud":2906,"##ringer":2907,"arbeids":2908,"##jær":2909,"Av":2910,"Reg":2911,"hatt":2912,"tru":2913,"dere":2914,"Ste":2915,"##gre":2916,"##etter":2917,"fag":2918,"Man":2919,"fo":2920,"##sv":2921,"##føre":2922,"06":2923,"kult":2924,"Hel":2925,"offe":2926,"##irke":2927,"mus":2928,"dat":2929,"##led":2930,"klar":2931,"##mot":2932,"sos":2933,"prosent":2934,"##resse":2935,"kn":2936,"hav":2937,"##raf":2938,"##midlertid":2939,"avg":2940,"forsø":2941,"hør":2942,"##ktige":2943,"##ater":2944,"##andre":2945,"skjø":2946,"##ous":2947,"##ies":2948,"norsk":2949,"##bar":2950,"lite":2951,"##beider":2952,"##ftet":2953,"##aste":2954,"veg":2955,"sik":2956,"kar":2957,"35":2958,"##lighet":2959,"Norsk":2960,"##partementet":2961,"Am":2962,"halv":2963,"dre":2964,"bi":2965,"Denne":2966,"milli":2967,"##stan":2968,"as":2969,"##odet":2970,"Hvis":2971,"##AR":2972,"styr":2973,"##lie":2974,"valg":2975,"per":2976,"br":2977,"liten":2978,"jord":2979,"din":2980,"nødve":2981,"##olk":2982,"Johan":2983,"verden":2984,"vart":2985,"And":2986,"ind":2987,"##pa":2988,"va":2989,"55":2990,"##ST":2991,"svært":2992,"##ves":2993,"pen":2994,"gruppe":2995,"##kur":2996,"fakt":2997,"##ild":2998,"nærme":2999,"dire":3000,"inns":3001,"kva":3002,"nev":3003,"stå":3004,"Hvor":3005,"eksempel":3006,"tiden":3007,"##ilte":3008,"Kar":3009,"opple":3010,"##ain":3011,"ute":3012,"##sene":3013,"fem":3014,"##anen":3015,"##up":3016,"##ålet":3017,"imidlertid":3018,"##jone":3019,"mat":3020,"slutt":3021,"barne":3022,"vann":3023,"ferd":3024,"bok":3025,"lik":3026,"fot":3027,"ansvar":3028,"grad":3029,"##ald":3030,"lett":3031,"##lende":3032,"##ET":3033,"##stilling":3034,"senere":3035,"##ars":3036,"lenge":3037,"##kla":3038,"kraft":3039,"fire":3040,"##ike":3041,"pr":3042,"##sky":3043,"best":3044,"mennesker":3045,"omf":3046,"##lert":3047,"##gelse":3048,"nesten":3049,"sol":3050,"innt":3051,"##ong":3052,"##mann":3053,"Tor":3054,"Kan":3055,"##atet":3056,"##elles":3057,"Sve":3058,"samt":3059,"fil":3060,"kv":3061,"pos":3062,"An":3063,"ski":3064,"##dende":3065,"are":3066,"##itte":3067,"##inga":3068,"##oku":3069,"Bar":3070,"##ferd":3071,"##mess":3072,"prosje":3073,"gitt":3074,"holdt":3075,"akt":3076,"##spro":3077,"##styr":3078,"ønsker":3079,"##ich":3080,"unn":3081,"inform":3082,"Sø":3083,"ett":3084,"syke":3085,"193":3086,"særlig":3087,"##heim":3088,"meget":3089,"##ndt":3090,"slag":3091,"sted":3092,"##gte":3093,"gjen":3094,"arbeidet":3095,"høye":3096,"##utter":3097,"##ond":3098,"plass":3099,"##port":3100,"##uten":3101,"veldig":3102,"bruke":3103,"spur":3104,"kort":3105,"##rand":3106,"bry":3107,"lære":3108,"##vert":3109,"##verk":3110,"##hetene":3111,"Alle":3112,"##ted":3113,"Opp":3114,"enkelte":3115,"offent":3116,"vanskelig":3117,"##ae":3118,"ko":3119,"øye":3120,"ide":3121,"likevel":3122,"situ":3123,"##sg":3124,"Ny":3125,"##gere":3126,"##mb":3127,"##ikken":3128,"##ford":3129,"stad":3130,"##ho":3131,"hjemme":3132,"##teg":3133,"##fte":3134,"allerede":3135,"##sse":3136,"san":3137,"ja":3138,"spørsmål":3139,"aktiv":3140,"##under":3141,"bid":3142,"anon":3143,"##mber":3144,"##pte":3145,"##EL":3146,"forstå":3147,"opply":3148,"##spl":3149,"##sfor":3150,"Før":3151,"##eten":3152,"Mor":3153,"utvikling":3154,"Mo":3155,"sør":3156,"medlem":3157,"##velse":3158,"finnes":3159,"livet":3160,"årene":3161,"slike":3162,"26":3163,"tur":3164,"hjelp":3165,"##ndom":3166,"##nr":3167,"##jord":3168,"with":3169,"kommun":3170,"begynte":3171,"##lagt":3172,"28":3173,"27":3174,"##veld":3175,"året":3176,"behov":3177,"Un":3178,"anonym":3179,"repre":3180,"##ivå":3181,"##SA":3182,"met":3183,"holde":3184,"stand":3185,"betyd":3186,"Ola":3187,"rekke":3188,"##ppet":3189,"oppf":3190,"ene":3191,"##asje":3192,"##ote":3193,"kommet":3194,"##bl":3195,"ju":3196,"stu":3197,"##ity":3198,"##rasjon":3199,"skjer":3200,"Ikke":3201,"lenger":3202,"bedri":3203,"effe":3204,"Eg":3205,"våre":3206,"peri":3207,"##nter":3208,"##lv":3209,"nødvendig":3210,"landet":3211,"ter":3212,"foran":3213,"##ntet":3214,"domain":3215,"##ktor":3216,"01":3217,"tak":3218,"fleste":3219,"192":3220,"gjerne":3221,"##lit":3222,"##søke":3223,"Sel":3224,"rø":3225,"##ont":3226,"altså":3227,"##iene":3228,"ex":3229,"anonymous":3230,"pas":3231,"virkelig":3232,"paa":3233,"Fra":3234,"måne":3235,"that":3236,"helse":3237,"tils":3238,"kontr":3239,"##vat":3240,"##ay":3241,"##mpe":3242,"hende":3243,"##ark":3244,"stil":3245,"neste":3246,"##lede":3247,"død":3248,"##idt":3249,"##ps":3250,"begge":3251,"##syk":3252,"##kkel":3253,"synes":3254,"##ril":3255,"Hans":3256,"rel":3257,"enke":3258,"##ksomhet":3259,"ev":3260,"##ats":3261,"bef":3262,"##revet":3263,"eneste":3264,"ganger":3265,"foret":3266,"samarbeid":3267,"eie":3268,"##mmer":3269,"##vde":3270,"##mende":3271,"organis":3272,"##of":3273,"dagen":3274,"##istri":3275,"##else":3276,"##agn":3277,"visste":3278,"##uni":3279,"hjer":3280,"problem":3281,"Fe":3282,"bur":3283,"##lere":3284,"191":3285,"##vere":3286,"ledd":3287,"bruker":3288,"##late":3289,"##nende":3290,"##deling":3291,"forbin":3292,"29":3293,"sak":3294,"kny":3295,"##uk":3296,"At":3297,"Fot":3298,"hy":3299,"##ht":3300,"##dust":3301,"##angen":3302,"##året":3303,"##bli":3304,"##bygg":3305,"vei":3306,"hverandre":3307,"inter":3308,"mel":3309,"##lef":3310,"pres":3311,"##drag":3312,"##råk":3313,"lagt":3314,"##mark":3315,"gått":3316,"fjer":3317,"ungdom":3318,"Sol":3319,"fortsatt":3320,"##IL":3321,"ob":3322,"##alen":3323,"##rum":3324,"##merik":3325,"##alle":3326,"Sta":3327,"##takt":3328,"##ction":3329,"kost":3330,"kultur":3331,"miljø":3332,"##aly":3333,"##nskap":3334,"Pa":3335,"tun":3336,"løs":3337,"##pene":3338,"saken":3339,"felles":3340,"Sy":3341,"begy":3342,"##råd":3343,"dager":3344,"imp":3345,"bud":3346,"hånd":3347,"dår":3348,"vanlig":3349,"##sette":3350,"sje":3351,"klart":3352,"##æring":3353,"##stet":3354,"##van":3355,"To":3356,"bestemme":3357,"##leder":3358,"fant":3359,"sagt":3360,"##kret":3361,"##slut":3362,"forslag":3363,"att":3364,"Hol":3365,"Nei":3366,"##aner":3367,"##tta":3368,"samfun":3369,"##sett":3370,"leder":3371,"mine":3372,"po":3373,"##usjon":3374,"fiske":3375,"##ikt":3376,"krav":3377,"31":3378,"100":3379,"Andre":3380,"sette":3381,"bek":3382,"Bjør":3383,"stud":3384,"We":3385,"##oden":3386,"##ball":3387,"##iel":3388,"##uler":3389,"utenfor":3390,"intern":3391,"##alet":3392,"##sam":3393,"##linger":3394,"spurte":3395,"møte":3396,"svarte":3397,"##på":3398,"##kkelig":3399,"##ilde":3400,"##laget":3401,"slå":3402,"##nding":3403,"kjent":3404,"forut":3405,"fall":3406,"gar":3407,"##bruk":3408,"##hø":3409,"##lin":3410,"følge":3411,"##isen":3412,"mis":3413,"##spe":3414,"minst":3415,"Sa":3416,"enkelt":3417,"##fører":3418,"##ori":3419,"##ress":3420,"hodet":3421,"leng":3422,"tekn":3423,"##oret":3424,"teg":3425,"finner":3426,"##che":3427,"##kku":3428,"mør":3429,"##ivers":3430,"##ting":3431,"enda":3432,"##iale":3433,"##følge":3434,"kapit":3435,"forskjellige":3436,"marke":3437,"##ygg":3438,"##tatt":3439,"foreld":3440,"føle":3441,"Under":3442,"råd":3443,"trans":3444,"Kn":3445,"kunst":3446,"##udd":3447,"##utten":3448,"dersom":3449,"unge":3450,"bel":3451,"dis":3452,"forteller":3453,"Dag":3454,"event":3455,"##part":3456,"##mes":3457,"konkur":3458,"##rn":3459,"##akter":3460,"doku":3461,"dan":3462,"samtidig":3463,"##liv":3464,"brukt":3465,"års":3466,"vok":3467,"ban":3468,"Ta":3469,"kvinner":3470,"menn":3471,"Bl":3472,"##AL":3473,"Bo":3474,"nem":3475,"##ons":3476,"Ra":3477,"største":3478,"mitt":3479,"##områ":3480,"fred":3481,"##nns":3482,"Kom":3483,"##ndte":3484,"vurder":3485,"juni":3486,"##ffer":3487,"##we":3488,"##rert":3489,"##ON":3490,"tilfel":3491,"##kerne":3492,"seks":3493,"komp":3494,"mater":3495,"##menn":3496,"ganske":3497,"føre":3498,"##fra":3499,"Inn":3500,"hjelpe":3501,"##urs":3502,"02":3503,"##varer":3504,"pra":3505,"##lf":3506,"stedet":3507,"trenger":3508,"kvinne":3509,"informasjon":3510,"##uss":3511,"reise":3512,"kam":3513,"tenkte":3514,"09":3515,"Ka":3516,"Dan":3517,"##onen":3518,"##lege":3519,"set":3520,"na":3521,"ap":3522,"##kkurat":3523,"##uelle":3524,"Hv":3525,"##IS":3526,"Ander":3527,"ram":3528,"stille":3529,"syk":3530,"##gje":3531,"08":3532,"##terte":3533,"øv":3534,"sen":3535,"Ba":3536,"##ksjonen":3537,"nø":3538,"##ski":3539,"klo":3540,"##kka":3541,"##serie":3542,"disk":3543,"##kten":3544,"mang":3545,"tu":3546,"##tell":3547,"##urt":3548,"tiltak":3549,"forf":3550,"då":3551,"forbindelse":3552,"##uer":3553,"##beide":3554,"##satte":3555,"##terer":3556,"##deles":3557,"##sted":3558,"##ledes":3559,"Hø":3560,"lever":3561,"Hen":3562,"##retter":3563,"tallet":3564,"ab":3565,"fr":3566,"##inget":3567,"delta":3568,"it":3569,"##co":3570,"##ppa":3571,"tom":3572,"Fran":3573,"##int":3574,"##fl":3575,"60":3576,"forn":3577,"fores":3578,"Euro":3579,"én":3580,"ol":3581,"pris":3582,"##mo":3583,"løpet":3584,"##vær":3585,"##mat":3586,"##raft":3587,"innte":3588,"Stort":3589,"egne":3590,"Norges":3591,"menneske":3592,"tør":3593,"støtte":3594,"tred":3595,"##klar":3596,"alvor":3597,"riktig":3598,"##står":3599,"##jonene":3600,"##fa":3601,"Bergen":3602,"legge":3603,"##ING":3604,"##gjør":3605,"nasjon":3606,"grun":3607,"##inne":3608,"##serte":3609,"##ktene":3610,"omk":3611,"utdan":3612,"##bø":3613,"##deren":3614,"regjer":3615,"##minist":3616,"##sed":3617,"##huset":3618,"Fa":3619,"##pos":3620,"spesielt":3621,"start":3622,"##meld":3623,"feil":3624,"kirke":3625,"området":3626,"kjente":3627,"Sør":3628,"Bru":3629,"jf":3630,"kveld":3631,"##vol":3632,"##skaper":3633,"##likt":3634,"bidra":3635,"Stor":3636,"##sd":3637,"mannen":3638,"ch":3639,"Hal":3640,"190":3641,"##bu":3642,"we":3643,"ferdig":3644,"result":3645,"##føring":3646,"direkte":3647,"mai":3648,"##valg":3649,"bord":3650,"##rav":3651,"byen":3652,"##iler":3653,"##ative":3654,"laget":3655,"##valget":3656,"##nsjon":3657,"veien":3658,"##kan":3659,"Fred":3660,"07":3661,"eng":3662,"##ju":3663,"etab":3664,"sub":3665,"drift":3666,"Ty":3667,"Tron":3668,"##ningene":3669,"Per":3670,"dyr":3671,"grø":3672,"betyr":3673,"personer":3674,"##oc":3675,"USA":3676,"##ata":3677,"##yer":3678,"nærmere":3679,"##igur":3680,"##tlig":3681,"##menter":3682,"ekst":3683,"Pl":3684,"##lis":3685,"leve":3686,"##ou":3687,"gene":3688,"bety":3689,"millioner":3690,"Christ":3691,"##gift":3692,"ekte":3693,"meld":3694,"kontakt":3695,"##fer":3696,"Mart":3697,"##adet":3698,"familie":3699,"33":3700,"##uar":3701,"##orten":3702,"post":3703,"Car":3704,"gren":3705,"betydning":3706,"not":3707,"##svar":3708,"##snitt":3709,"##fall":3710,"brø":3711,"##messig":3712,"tenke":3713,"erfar":3714,"rette":3715,"lin":3716,"Ingen":3717,"##bel":3718,"##oliti":3719,"vise":3720,"Par":3721,"beve":3722,"snart":3723,"##AG":3724,"##stene":3725,"navn":3726,"slo":3727,"posit":3728,"Ad":3729,"##gående":3730,"stadig":3731,"##landet":3732,"kli":3733,"32":3734,"##nelse":3735,"Lø":3736,"##sland":3737,"deler":3738,"Noen":3739,"id":3740,"kommunen":3741,"##lemer":3742,"brukes":3743,"##nta":3744,"beny":3745,"art":3746,"eget":3747,"##ham":3748,"##ummer":3749,"##sere":3750,"##vå":3751,"snakke":3752,"bygge":3753,"ope":3754,"Ann":3755,"##sti":3756,"##nden":3757,"vær":3758,"Tr":3759,"vårt":3760,"##orer":3761,"##olit":3762,"fru":3763,"##rek":3764,"##nad":3765,"dermed":3766,"fry":3767,"##AT":3768,"prin":3769,"##iljø":3770,"##itee":3771,"døde":3772,"##rar":3773,"tot":3774,"psyk":3775,"##ygge":3776,"time":3777,"kjør":3778,"sh":3779,"##oks":3780,"seier":3781,"##ca":3782,"189":3783,"##apt":3784,"huset":3785,"folke":3786,"##gruppe":3787,"indust":3788,"overfor":3789,"innenfor":3790,"##mø":3791,"Var":3792,"Dei":3793,"##sek":3794,"but":3795,"akkurat":3796,"##ork":3797,"burde":3798,"dro":3799,"ener":3800,"tv":3801,"Disse":3802,"##rien":3803,"jan":3804,"##ES":3805,"##une":3806,"tredje":3807,"Nil":3808,"##selig":3809,"Jon":3810,"efter":3811,"Foto":3812,"skolen":3813,"kjem":3814,"øynene":3815,"##skole":3816,"##avnet":3817,"##unktet":3818,"##kle":3819,"Vest":3820,"Mange":3821,"##ida":3822,"ry":3823,"instit":3824,"Trond":3825,"fylke":3826,"øyebli":3827,"Ein":3828,"rad":3829,"##grunn":3830,"fan":3831,"gro":3832,"rapp":3833,"##uelt":3834,"##somt":3835,"regist":3836,"##ffet":3837,"90":3838,"pla":3839,"tø":3840,"fjor":3841,"##ssuten":3842,"##mte":3843,"Co":3844,"##dis":3845,"Sand":3846,"70":3847,"##aler":3848,"øn":3849,"Over":3850,"##gangsp":3851,"val":3852,"sti":3853,"venn":3854,"##sle":3855,"##tr":3856,"skriver":3857,"Br":3858,"program":3859,"##ple":3860,"##rike":3861,"##ndag":3862,"##20":3863,"##sset":3864,"##talen":3865,"lys":3866,"Ole":3867,"##derne":3868,"##ED":3869,"Ind":3870,"##hel":3871,"vite":3872,"interes":3873,"pub":3874,"##stein":3875,"Fin":3876,"funnet":3877,"delt":3878,"Hå":3879,"##ulle":3880,"Alt":3881,"##gangen":3882,"##ograf":3883,"##vd":3884,"Sch":3885,"##ksis":3886,"følgende":3887,"måten":3888,"blå":3889,"##stendig":3890,"##ologi":3891,"Kl":3892,"hvem":3893,"stod":3894,"skyld":3895,"##RK":3896,"prakt":3897,"eldre":3898,"legger":3899,"slags":3900,"wh":3901,"##sjett":3902,"##departementet":3903,"vekt":3904,"do":3905,"kry":3906,"Min":3907,"New":3908,"##ban":3909,"Land":3910,"Gje":3911,"##arbeidet":3912,"##mens":3913,"borte":3914,"ris":3915,"##kjø":3916,"tri":3917,"80":3918,"hu":3919,"nærings":3920,"fjell":3921,"begynne":3922,"imot":3923,"gr":3924,"viste":3925,"co":3926,"##ty":3927,"##fen":3928,"04":3929,"eiendom":3930,"skrive":3931,"grå":3932,"skj":3933,"##uen":3934,"morgen":3935,"system":3936,"##stø":3937,"##rette":3938,"kj":3939,"internasjon":3940,"##sending":3941,"##nner":3942,"Or":3943,"##orn":3944,"ky":3945,"##age":3946,"from":3947,"##stat":3948,"Erik":3949,"##gs":3950,"barna":3951,"##OT":3952,"bu":3953,"penger":3954,"Hvordan":3955,"barnet":3956,"2016":3957,"##søk":3958,"##ranse":3959,"virke":3960,"hensyn":3961,"star":3962,"##ksjoner":3963,"##kar":3964,"sikkert":3965,"##øs":3966,"##anter":3967,"vare":3968,"lav":3969,"behandling":3970,"bestemt":3971,"spille":3972,"##mor":3973,"##ene":3974,"Jes":3975,"##handling":3976,"aug":3977,"gammel":3978,"##kkes":3979,"##øren":3980,"Ant":3981,"mars":3982,"kjenner":3983,"elekt":3984,"sentra":3985,"##ko":3986,"hørte":3987,"##styret":3988,"##setter":3989,"##ze":3990,"verdens":3991,"##tering":3992,"34":3993,"tjeneste":3994,"##dagen":3995,"##risten":3996,"2018":3997,"fy":3998,"Ver":3999,"omkring":4000,"##veien":4001,"Lu":4002,"Jan":4003,"##pers":4004,"naturlig":4005,"musikk":4006,"Ham":4007,"##rsom":4008,"188":4009,"##aller":4010,"##ftene":4011,"mun":4012,"##holder":4013,"##må":4014,"ang":4015,"natt":4016,"##kende":4017,"##ath":4018,"Dersom":4019,"John":4020,"sterkt":4021,"##produ":4022,"ansatte":4023,"##bok":4024,"##til":4025,"uttrykk":4026,"des":4027,"##dent":4028,"knyttet":4029,"oppga":4030,"myndig":4031,"Finn":4032,"36":4033,"##bil":4034,"##visning":4035,"##organ":4036,"##ime":4037,"##ium":4038,"hev":4039,"##qu":4040,"kjær":4041,"kontroll":4042,"vit":4043,"##nader":4044,"kjøpe":4045,"##fin":4046,"glad":4047,"##nå":4048,"##fi":4049,"##kkene":4050,"merke":4051,"##undet":4052,"alene":4053,"##ator":4054,"##stemet":4055,"have":4056,"egentlig":4057,"tå":4058,"##livet":4059,"##væ":4060,"langs":4061,"##iktet":4062,"regel":4063,"lette":4064,"nu":4065,"bevis":4066,"høre":4067,"##gn":4068,"Komm":4069,"utgangsp":4070,"arbeider":4071,"drø":4072,"app":4073,"##astet":4074,"##mu":4075,"##sson":4076,"hj":4077,"Si":4078,"analy":4079,"skatte":4080,"antall":4081,"faktisk":4082,"genere":4083,"##ogn":4084,"rask":4085,"##lsene":4086,"##verket":4087,"Høy":4088,"Sh":4089,"##unde":4090,"januar":4091,"##atten":4092,"holder":4093,"##sikt":4094,"norm":4095,"##senter":4096,"##ikket":4097,"skog":4098,"##isten":4099,"Ke":4100,"##isering":4101,"meter":4102,"kil":4103,"NT":4104,"født":4105,"##gj":4106,"midt":4107,"aks":4108,"##sker":4109,"lille":4110,"represent":4111,"helst":4112,"lærer":4113,"##setning":4114,"sle":4115,"retning":4116,"lokale":4117,"Vel":4118,"aut":4119,"sla":4120,"Kanskje":4121,"fekk":4122,"##mi":4123,"alder":4124,"##valt":4125,"gjø":4126,"##annen":4127,"##vok":4128,"kunnskap":4129,"##ttes":4130,"##vern":4131,"was":4132,"grunnlag":4133,"nettopp":4134,"##sende":4135,"##varende":4136,"##istet":4137,"klare":4138,"Arbeid":4139,"##vid":4140,"TV":4141,"timer":4142,"Også":4143,"##jenes":4144,"utford":4145,"lange":4146,"tidlig":4147,"viktige":4148,"Peder":4149,"hvorfor":4150,"vest":4151,"opplys":4152,"##pi":4153,"lege":4154,"reali":4155,"Lars":4156,"fatt":4157,"tale":4158,"##po":4159,"2017":4160,"ekstra":4161,"##ringen":4162,"##vs":4163,"Sverige":4164,"dårlig":4165,"kvali":4166,"slikt":4167,"hånden":4168,"##løp":4169,"hvilke":4170,"tydelig":4171,"inve":4172,"##hengig":4173,"##hl":4174,"##skudd":4175,"høyere":4176,"gul":4177,"##mod":4178,"186":4179,"april":4180,"187":4181,"lær":4182,"##ces":4183,"administ":4184,"ønsket":4185,"undersøke":4186,"mig":4187,"##king":4188,"Ol":4189,"noko":4190,"##gifter":4191,"##unt":4192,"bereg":4193,"##føres":4194,"##ala":4195,"##utselig":4196,"##rud":4197,"snakket":4198,"##lia":4199,"II":4200,"lot":4201,"##SS":4202,"Rom":4203,"tilfelle":4204,"##ativt":4205,"##isjonen":4206,"Anne":4207,"distri":4208,"##foren":4209,"37":4210,"##ansen":4211,"##rad":4212,"politiet":4213,"satte":4214,"okt":4215,"##petanse":4216,"lese":4217,"bro":4218,"##ollen":4219,"redu":4220,"##ate":4221,"##bart":4222,"spiller":4223,"yr":4224,"Ly":4225,"AS":4226,"olje":4227,"prøve":4228,"juli":4229,"sommer":4230,"##utvik":4231,"gangen":4232,"vert":4233,"##ører":4234,"##sering":4235,"luft":4236,"##mentar":4237,"2015":4238,"##ørdag":4239,"åpen":4240,"pasien":4241,"beskri":4242,"##delige":4243,"##OL":4244,"##hå":4245,"sikre":4246,"##nev":4247,"##gar":4248,"ru":4249,"##hav":4250,"Øst":4251,"familien":4252,"##ratur":4253,"høyt":4254,"minutter":4255,"lyst":4256,"Derfor":4257,"##range":4258,"##vare":4259,"amerik":4260,"ellers":4261,"ennå":4262,"##fil":4263,"fører":4264,"##fly":4265,"stre":4266,"Kr":4267,"praksis":4268,"##sens":4269,"saa":4270,"##ving":4271,"sjå":4272,"Ju":4273,"##legget":4274,"##ksten":4275,"vore":4276,"krig":4277,"gru":4278,"Hus":4279,"same":4280,"Is":4281,"lokal":4282,"##oss":4283,"produksjon":4284,"spen":4285,"interesse":4286,"følger":4287,"rek":4288,"38":4289,"vist":4290,"##tiden":4291,"stilling":4292,"##kjen":4293,"##IK":4294,"##bruks":4295,"##holdet":4296,"uke":4297,"bolig":4298,"skip":4299,"##fri":4300,"##OM":4301,"blod":4302,"ke":4303,"ren":4304,"##atisk":4305,"##pli":4306,"konf":4307,"No":4308,"indiv":4309,"##unst":4310,"problemer":4311,"jobb":4312,"historie":4313,"##iere":4314,"##gjøre":4315,"vid":4316,"påvir":4317,"##funn":4318,"##als":4319,"Fol":4320,"Knut":4321,"##ree":4322,"tilbud":4323,"##iss":4324,"skape":4325,"stund":4326,"41":4327,"och":4328,"hvilken":4329,"sterk":4330,"##iteen":4331,"##leis":4332,"Trom":4333,"stemme":4334,"ytter":4335,"nevnt":4336,"##lar":4337,"ventet":4338,"Eng":4339,"##ivt":4340,"##løs":4341,"##mannen":4342,"##aling":4343,"nemlig":4344,"##ulta":4345,"økonomiske":4346,"##kjent":4347,"spørsmålet":4348,"##verd":4349,"vold":4350,"Stat":4351,"hi":4352,"##jem":4353,"ress":4354,"salg":4355,"39":4356,"Hvorfor":4357,"##gu":4358,"lar":4359,"tap":4360,"kamp":4361,"##oeng":4362,"Lar":4363,"Tid":4364,"##ions":4365,"##aster":4366,"##skin":4367,"meir":4368,"finans":4369,"##abel":4370,"##eth":4371,"Ga":4372,"bod":4373,"Slik":4374,"500":4375,"ST":4376,"##taler":4377,"sende":4378,"fremdeles":4379,"##kommende":4380,"språk":4381,"##klu":4382,"##sdag":4383,"rød":4384,"Rø":4385,"##aske":4386,"sc":4387,"punkt":4388,"Stortinget":4389,"##ober":4390,"nivå":4391,"##øya":4392,"##ktør":4393,"kunde":4394,"75":4395,"hum":4396,"økt":4397,"berre":4398,"skade":4399,"varme":4400,"##tra":4401,"vere":4402,"##my":4403,"bnr":4404,"kir":4405,"samlet":4406,"sikkerhet":4407,"##ade":4408,"altern":4409,"##urer":4410,"telef":4411,"##ph":4412,"##ptember":4413,"##rådet":4414,"hens":4415,"Like":4416,"##dert":4417,"steder":4418,"ansiktet":4419,"fyr":4420,"still":4421,"##es":4422,"##nda":4423,"rea":4424,"engel":4425,"2000":4426,"mente":4427,"sal":4428,"##uttet":4429,"##yggen":4430,"Wil":4431,"##tok":4432,"##fjord":4433,"ditt":4434,"##borg":4435,"fart":4436,"##onn":4437,"sosial":4438,"eier":4439,"##legging":4440,"reiste":4441,"##uld":4442,"##skrift":4443,"##hver":4444,"##cti":4445,"blev":4446,"##rim":4447,"makt":4448,"##ins":4449,"Mø":4450,"##bå":4451,"##delsen":4452,"oms":4453,"politiske":4454,"##ID":4455,"##attet":4456,"Seiv":4457,"Bare":4458,"venstre":4459,"medlemmer":4460,"inntekt":4461,"folket":4462,"##oder":4463,"Eller":4464,"##sbe":4465,"##aget":4466,"##middel":4467,"offentlig":4468,"##ppene":4469,"inntil":4470,"##abri":4471,"##mål":4472,"tross":4473,"##inge":4474,"kol":4475,"##legge":4476,"bal":4477,"##sember":4478,"tett":4479,"##bert":4480,"##fel":4481,"##teren":4482,"##jet":4483,"Kristian":4484,"virksomhet":4485,"uts":4486,"##aen":4487,"viktigste":4488,"##dø":4489,"bygg":4490,"##stid":4491,"##ara":4492,"##ood":4493,"##ssel":4494,"fortelle":4495,"km":4496,"42":4497,"God":4498,"flo":4499,"følte":4500,"vesent":4501,"august":4502,"##rere":4503,"prinsi":4504,"##rettet":4505,"neg":4506,"Vil":4507,"Bå":4508,"##RE":4509,"##iz":4510,"åpnet":4511,"##akten":4512,"desember":4513,"##rati":4514,"rolle":4515,"tvil":4516,"em":4517,"##fold":4518,"##pri":4519,"##ledning":4520,"##itu":4521,"offentlige":4522,"##itter":4523,"##sny":4524,"karakter":4525,"##reds":4526,"##bord":4527,"48":4528,"sten":4529,"##th":4530,"185":4531,"Univers":4532,"##stisk":4533,"kvel":4534,"bilen":4535,"sannsyn":4536,"Ei":4537,"sat":4538,"styre":4539,"oppe":4540,"setter":4541,"##rent":4542,"NRK":4543,"##ander":4544,"gjeld":4545,"foreldre":4546,"Frank":4547,"Arne":4548,"september":4549,"uttry":4550,"samfunns":4551,"##skolen":4552,"Europa":4553,"selskap":4554,"##ww":4555,"fir":4556,"konsek":4557,"##skomm":4558,"kroppen":4559,"traf":4560,"tol":4561,"##abil":4562,"##ita":4563,"lage":4564,"hundre":4565,"##riks":4566,"##melig":4567,"stru":4568,"sykdom":4569,"##holde":4570,"##ansett":4571,"avsl":4572,"gift":4573,"##dalen":4574,"fullt":4575,"tall":4576,"Lo":4577,"##cy":4578,"ident":4579,"bred":4580,"funksjon":4581,"møter":4582,"Beg":4583,"44":4584,"##bruar":4585,"##standen":4586,"##ikasjon":4587,"Ing":4588,"##gra":4589,"forsvar":4590,"deb":4591,"##isere":4592,"privat":4593,"My":4594,"this":4595,"kart":4596,"##ric":4597,"Ed":4598,"##so":4599,"visst":4600,"døren":4601,"Fr":4602,"aller":4603,"Berg":4604,"sitter":4605,"måneder":4606,"trakk":4607,"kvar":4608,"ring":4609,"##hed":4610,"##smø":4611,"##ssy":4612,"##abell":4613,"deri":4614,"mon":4615,"tanke":4616,"Regi":4617,"stol":4618,"##stemme":4619,"midler":4620,"##dels":4621,"##ung":4622,"##delingen":4623,"##stra":4624,"oppmer":4625,"tilb":4626,"sammenheng":4627,"##sikker":4628,"##vember":4629,"Fl":4630,"strøm":4631,"##ient":4632,"lei":4633,"##delen":4634,"barneha":4635,"prosjekt":4636,"von":4637,"##ansk":4638,"oktober":4639,"www":4640,"snø":4641,"stem":4642,"ple":4643,"##iteten":4644,"Vær":4645,"##ations":4646,"gis":4647,"Hau":4648,"Olav":4649,"##delt":4650,"fest":4651,"##ika":4652,"regler":4653,"##oster":4654,"##forb":4655,"##øyd":4656,"fisk":4657,"##lys":4658,"43":4659,"2019":4660,"##RA":4661,"##ørsm":4662,"gli":4663,"##loven":4664,"represen":4665,"##bygging":4666,"industri":4667,"forklar":4668,"dig":4669,"Trondheim":4670,"Dem":4671,"##folk":4672,"##igheter":4673,"try":4674,"hører":4675,"vak":4676,"profe":4677,"Bjørn":4678,"ud":4679,"tenkt":4680,"##peri":4681,"sve":4682,"##mm":4683,"46":4684,"skyl":4685,"vindu":4686,"data":4687,"områder":4688,"saker":4689,"##IT":4690,"brev":4691,"##vist":4692,"##lemme":4693,"mill":4694,"pop":4695,"##meren":4696,"sterke":4697,"tenker":4698,"##itets":4699,"forkla":4700,"Olsen":4701,"vedtak":4702,"viss":4703,"##amma":4704,"Guds":4705,"blom":4706,"Tom":4707,"ingenting":4708,"topp":4709,"begynner":4710,"Ri":4711,"Jesus":4712,"##jeneste":4713,"inneb":4714,"##apir":4715,"sosiale":4716,"##vesen":4717,"##ndige":4718,"enten":4719,"arti":4720,"februar":4721,"Odd":4722,"relig":4723,"selve":4724,"##ias":4725,"faren":4726,"##siktig":4727,"##br":4728,"##ose":4729,"forbe":4730,"Martin":4731,"##forsk":4732,"trodde":4733,"fre":4734,"##ibli":4735,"betale":4736,"vant":4737,"raskt":4738,"##plan":4739,"saman":4740,"øyeblikk":4741,"47":4742,"Mer":4743,"individ":4744,"Inge":4745,"##orden":4746,"##isert":4747,"mand":4748,"##stillingen":4749,"##SK":4750,"bilde":4751,"avtale":4752,"##arar":4753,"skjedde":4754,"Vå":4755,"Dire":4756,"##olf":4757,"##orsdag":4758,"Mel":4759,"##bare":4760,"##LE":4761,"ark":4762,"heter":4763,"##læring":4764,"##øse":4765,"##UN":4766,"felt":4767,"Mon":4768,"pass":4769,"##ign":4770,"plutselig":4771,"off":4772,"økonomisk":4773,"situasjonen":4774,"##retning":4775,"gjer":4776,"##kår":4777,"ref":4778,"cm":4779,"mott":4780,"stri":4781,"##hy":4782,"##way":4783,"##vant":4784,"Kor":4785,"november":4786,"dine":4787,"fys":4788,"rop":4789,"##utte":4790,"##ank":4791,"##ms":4792,"samfunnet":4793,"##pas":4794,"fer":4795,"skrev":4796,"dagens":4797,"##apit":4798,"tradis":4799,"##inen":4800,"##plass":4801,"sjølv":4802,"##velser":4803,"unna":4804,"Far":4805,"Stav":4806,"mob":4807,"kompetanse":4808,"klub":4809,"##ologisk":4810,"brukte":4811,"besky":4812,"milit":4813,"slutten":4814,"mulighet":4815,"jern":4816,"Vin":4817,"seson":4818,"##uft":4819,"rommet":4820,"##sessen":4821,"##æren":4822,"##teres":4823,"##mus":4824,"##uell":4825,"område":4826,"tal":4827,"##vne":4828,"mening":4829,"##ight":4830,"##jonelle":4831,"hendene":4832,"1990":4833,"##holdt":4834,"fortsatte":4835,"##grep":4836,"##han":4837,"##vn":4838,"OG":4839,"NTB":4840,"skil":4841,"##ologiske":4842,"vente":4843,"Spe":4844,"##igheten":4845,"##ach":4846,"##sess":4847,"sist":4848,"##nelig":4849,"ifølge":4850,"redd":4851,"mod":4852,"##veg":4853,"##sut":4854,"Ap":4855,"Anders":4856,"opptatt":4857,"##bane":4858,"skrevet":4859,"tilsvarende":4860,"Tre":4861,"##sagt":4862,"hin":4863,"##hør":4864,"oppnå":4865,"region":4866,"Sn":4867,"presen":4868,"##sik":4869,"184":4870,"ass":4871,"Øy":4872,"##telse":4873,"høyre":4874,"##vate":4875,"sku":4876,"##aland":4877,"virket":4878,"##IG":4879,"nei":4880,"fi":4881,"bren":4882,"Fri":4883,"##able":4884,"##skape":4885,"sek":4886,"##kast":4887,"int":4888,"##maet":4889,"gav":4890,"##sol":4891,"himme":4892,"51":4893,"Paul":4894,"endringer":4895,"stein":4896,"pensjon":4897,"prosjektet":4898,"feng":4899,"##ance":4900,"mykje":4901,"##ksomheten":4902,"begre":4903,"forand":4904,"ønske":4905,"##isin":4906,"vari":4907,"au":4908,"foren":4909,"voks":4910,"stir":4911,"venner":4912,"gjøres":4913,"Bil":4914,"sendt":4915,"##ræ":4916,"utdanning":4917,"fortalte":4918,"Su":4919,"EU":4920,"##kost":4921,"fig":4922,"##hjel":4923,"Eli":4924,"vera":4925,"##nem":4926,"situasjon":4927,"håper":4928,"risik":4929,"sentrum":4930,"sjel":4931,"bom":4932,"tjenes":4933,"tryg":4934,"##retten":4935,"arbeide":4936,"##ibliote":4937,"interv":4938,"Lang":4939,"##pent":4940,"forl":4941,"politisk":4942,"##gitt":4943,"Samtidig":4944,"smilte":4945,"navnet":4946,"startet":4947,"skar":4948,"has":4949,"kur":4950,"selskapet":4951,"##ational":4952,"elevene":4953,"##parten":4954,"ac":4955,"oppgå":4956,"type":4957,"95":4958,"##nali":4959,"##fta":4960,"Christian":4961,"##mon":4962,"##udde":4963,"vedkommende":4964,"unnt":4965,"##gde":4966,"##pekt":4967,"##rang":4968,"åpne":4969,"##messige":4970,"kampen":4971,"##rings":4972,"klasse":4973,"ni":4974,"##vand":4975,"##ole":4976,"reduse":4977,"muligheter":4978,"fork":4979,"Mot":4980,"49":4981,"betra":4982,"Sc":4983,"syntes":4984,"##hal":4985,"søndag":4986,"utover":4987,"energi":4988,"Stein":4989,"løy":4990,"moderne":4991,"Selv":4992,"resten":4993,"##røy":4994,"takk":4995,"ce":4996,"52":4997,"##slutning":4998,"krit":4999,"røy":5000,"perioden":5001,"betydelig":5002,"##ical":5003,"utstyr":5004,"##OTO":5005,"beskje":5006,"##æl":5007,"førte":5008,"uker":5009,"fremst":5010,"fulgte":5011,"Natt":5012,"##jørn":5013,"##vers":5014,"overra":5015,"##ssa":5016,"##inert":5017,"##riet":5018,"Sal":5019,"##verre":5020,"Bø":5021,"avgjøre":5022,"nab":5023,"##dtr":5024,"rus":5025,"##strøm":5026,"##kont":5027,"##kelse":5028,"53":5029,"undersø":5030,"##isme":5031,"Tlf":5032,"tilk":5033,"##ndal":5034,"##iti":5035,"forskning":5036,"##ana":5037,"virker":5038,"meste":5039,"effektiv":5040,"##ally":5041,"##gelser":5042,"føler":5043,"##lands":5044,"grat":5045,"##fag":5046,"krigen":5047,"fotball":5048,"##nnen":5049,"tids":5050,"##dy":5051,"kvelden":5052,"##knad":5053,"##siden":5054,"##gerne":5055,"løp":5056,"Tysk":5057,"deretter":5058,"såk":5059,"Ele":5060,"##manns":5061,"##atning":5062,"Sig":5063,"##bi":5064,"##nsdag":5065,"Thom":5066,"eksp":5067,"##ulering":5068,"transport":5069,"fare":5070,"sva":5071,"Hansen":5072,"styrke":5073,"##slaget":5074,"##ionen":5075,"vurdering":5076,"detal":5077,"omsorg":5078,"Rus":5079,"uly":5080,"foreslå":5081,"Lond":5082,"slett":5083,"opplysninger":5084,"bygget":5085,"##ians":5086,"almin":5087,"gull":5088,"##iteter":5089,"poeng":5090,"vekk":5091,"instru":5092,"spise":5093,"daglig":5094,"hardt":5095,"##ante":5096,"Ser":5097,"##gder":5098,"##arbeider":5099,"##dige":5100,"sant":5101,"Ph":5102,"obser":5103,"bus":5104,"hørt":5105,"99":5106,"Em":5107,"##side":5108,"##stående":5109,"private":5110,"##jerne":5111,"##aket":5112,"65":5113,"anlegg":5114,"##rolig":5115,"##aten":5116,"ufor":5117,"består":5118,"glede":5119,"sånn":5120,"##værende":5121,"Lille":5122,"##følgelig":5123,"##jef":5124,"snudde":5125,"bildet":5126,"##svis":5127,"sannsynlig":5128,"forvalt":5129,"und":5130,"Nils":5131,"bekym":5132,"Con":5133,"##bef":5134,"Gar":5135,"183":5136,"kastet":5137,"##ØR":5138,"idet":5139,"begrens":5140,"minste":5141,"Ale":5142,"Bro":5143,"##smin":5144,"sov":5145,"##ultur":5146,"##punkt":5147,"resultat":5148,"Jør":5149,"##nede":5150,"fang":5151,"stren":5152,"##haug":5153,"##AS":5154,"Hvil":5155,"utan":5156,"Må":5157,"resulta":5158,"Ce":5159,"##felt":5160,"Sm":5161,"So":5162,"ove":5163,"56":5164,"forbi":5165,"Liv":5166,"##skont":5167,"dob":5168,"Ord":5169,"##otte":5170,"##unkter":5171,"rør":5172,"##ktur":5173,"##its":5174,"Gi":5175,"Gunn":5176,"##AND":5177,"##kraft":5178,"##ura":5179,"masse":5180,"which":5181,"Stavanger":5182,"budsjett":5183,"##gent":5184,"##anten":5185,"Kjø":5186,"London":5187,"staten":5188,"Sto":5189,"kg":5190,"liker":5191,"Nat":5192,"hjerte":5193,"ressur":5194,"##fest":5195,"##derer":5196,"fok":5197,"engang":5198,"solgt":5199,"akse":5200,"Bor":5201,"##vice":5202,"verdi":5203,"##førte":5204,"##syn":5205,"pi":5206,"henhold":5207,"stats":5208,"kjøre":5209,"##telsen":5210,"##ident":5211,"invester":5212,"Ca":5213,"##arane":5214,"klarte":5215,"Bra":5216,"##varet":5217,"mag":5218,"54":5219,"##gelsen":5220,"popul":5221,"skap":5222,"øst":5223,"utviklingen":5224,"##arbeide":5225,"tilhø":5226,"##giver":5227,"formid":5228,"##yene":5229,"##asjer":5230,"Li":5231,"vidt":5232,"basert":5233,"##denfor":5234,"åtte":5235,"komb":5236,"Peter":5237,"##orene":5238,"handler":5239,"forsik":5240,"bilder":5241,"prote":5242,"##trent":5243,"fleire":5244,"endelig":5245,"Petter":5246,"enhver":5247,"kvart":5248,"Fredrik":5249,"kne":5250,"91":5251,"publik":5252,"dessuten":5253,"##KT":5254,"Politi":5255,"varer":5256,"valgt":5257,"vinter":5258,"##usjoner":5259,"konkret":5260,"søke":5261,"2001":5262,"##pende":5263,"alvorlig":5264,"lørdag":5265,"visse":5266,"FOR":5267,"1995":5268,"svart":5269,"##istisk":5270,"Statens":5271,"##ola":5272,"Johannes":5273,"2014":5274,"innebærer":5275,"1992":5276,"Dav":5277,"fint":5278,"##stille":5279,"Sv":5280,"euro":5281,"##akte":5282,"understre":5283,"##ful":5284,"omtrent":5285,"##anset":5286,"tilfreds":5287,"##mmelig":5288,"##grun":5289,"##ble":5290,"##lov":5291,"lønns":5292,"##ama":5293,"legges":5294,"retten":5295,"##øp":5296,"FOTO":5297,"##ryg":5298,"##boe":5299,"tas":5300,"ført":5301,"##sin":5302,"regjeringen":5303,"fremme":5304,"##kelser":5305,"##inere":5306,"blei":5307,"anvende":5308,"kyr":5309,"##bruket":5310,"sønn":5311,"Amerik":5312,"##olde":5313,"San":5314,"vannet":5315,"anta":5316,"konser":5317,"sider":5318,"Hvem":5319,"##our":5320,"Bre":5321,"sce":5322,"tilfeller":5323,"bakgrunn":5324,"gjekk":5325,"utgangspunkt":5326,"##organis":5327,"Gjennom":5328,"##aldt":5329,"kons":5330,"loven":5331,"1997":5332,"unngå":5333,"Regjer":5334,"bland":5335,"kat":5336,"straks":5337,"gud":5338,"Ab":5339,"organisasjon":5340,"181":5341,"tidsp":5342,"model":5343,"##kjenne":5344,"leil":5345,"##geren":5346,"lyd":5347,"##rør":5348,"1994":5349,"refe":5350,"utb":5351,"departementet":5352,"Morgen":5353,"flyttet":5354,"Mag":5355,"forholdet":5356,"Mens":5357,"##onde":5358,"##partiet":5359,"Ter":5360,"##sloven":5361,"##fore":5362,"ill":5363,"saks":5364,"1993":5365,"snakker":5366,"dør":5367,"##øst":5368,"desse":5369,"Pri":5370,"film":5371,"tekst":5372,"##AM":5373,"uav":5374,"##ick":5375,"##ute":5376,"Af":5377,"hvite":5378,"skjedd":5379,"verk":5380,"vesentlig":5381,"gjennomsnitt":5382,"##kkende":5383,"##ettet":5384,"##mulig":5385,"krever":5386,"sur":5387,"##isa":5388,"##sav":5389,"57":5390,"bre":5391,"Gu":5392,"besk":5393,"ki":5394,"##ton":5395,"##ifte":5396,"##kta":5397,"forhand":5398,"##arbei":5399,"bordet":5400,"1999":5401,"180":5402,"prøver":5403,"gri":5404,"lønn":5405,"tusen":5406,"till":5407,"Vår":5408,"univers":5409,"vekst":5410,"bevisst":5411,"1980":5412,"##alitet":5413,"##frå":5414,"jobben":5415,"yng":5416,"Grø":5417,"inc":5418,"kapittel":5419,"##mera":5420,"jobber":5421,"1996":5422,"Del":5423,"sju":5424,"grupper":5425,"##ned":5426,"kvalitet":5427,"idrett":5428,"##illet":5429,"skrift":5430,"erfaring":5431,"##naden":5432,"##lu":5433,"fredag":5434,"##ærne":5435,"tilgjen":5436,"Di":5437,"nede":5438,"opprin":5439,"vind":5440,"##skom":5441,"Kva":5442,"skulde":5443,"endring":5444,"##kers":5445,"Fø":5446,"##kommen":5447,"2005":5448,"##sla":5449,"Fore":5450,"utny":5451,"def":5452,"tyske":5453,"elever":5454,"dit":5455,"Skal":5456,"Po":5457,"##IV":5458,"##kkelen":5459,"ropte":5460,"smer":5461,"59":5462,"##drene":5463,"uansett":5464,"##venske":5465,"strø":5466,"Tyskland":5467,"Kro":5468,"Trø":5469,"##urnali":5470,"Både":5471,"Flere":5472,"##rue":5473,"Mi":5474,"##rasjonen":5475,"oppda":5476,"bygd":5477,"##AD":5478,"##edag":5479,"mode":5480,"samfunn":5481,"##ider":5482,"inklu":5483,"handling":5484,"relativt":5485,"blikk":5486,"væ":5487,"##orte":5488,"tilstre":5489,"forvent":5490,"indre":5491,"1998":5492,"fortsette":5493,"Hoved":5494,"Aust":5495,"85":5496,"ep":5497,"mi":5498,"Først":5499,"hit":5500,"##utvikling":5501,"##edre":5502,"##sc":5503,"kjærlighet":5504,"skatt":5505,"Rå":5506,"##TE":5507,"##holdene":5508,"gjeng":5509,"presse":5510,"sentral":5511,"menne":5512,"##polit":5513,"##keren":5514,"##melt":5515,"##rerte":5516,"internasjonale":5517,"VM":5518,"sykehus":5519,"##ordning":5520,"##las":5521,"sammenlig":5522,"Jac":5523,"##jene":5524,"##melding":5525,"##lic":5526,"##jenesten":5527,"##irsdag":5528,"uttale":5529,"##nær":5530,"interess":5531,"##stillinger":5532,"##vise":5533,"syns":5534,"##otter":5535,"øyne":5536,"prøvde":5537,"bestemte":5538,"##stander":5539,"mm":5540,"##ora":5541,"høg":5542,"##ming":5543,"##være":5544,"Uten":5545,"Bi":5546,"##anke":5547,"Marie":5548,"arrange":5549,"##ino":5550,"##stedet":5551,"##full":5552,"2002":5553,"##settes":5554,"Sj":5555,"##skyld":5556,"Na":5557,"##usjonen":5558,"1991":5559,"tog":5560,"##ctor":5561,"straffe":5562,"##histor":5563,"utvikle":5564,"inneholder":5565,"2003":5566,"##dyr":5567,"Anna":5568,"bekre":5569,"##etten":5570,"velge":5571,"konge":5572,"passer":5573,"##hånd":5574,"utvalg":5575,"Arbeider":5576,"Kvin":5577,"voksne":5578,"ras":5579,"ryggen":5580,"##belt":5581,"læ":5582,"##øyde":5583,"gard":5584,"##anlegg":5585,"##ampen":5586,"farge":5587,"97":5588,"øke":5589,"tempe":5590,"##attende":5591,"##sprogram":5592,"Danmark":5593,"##anne":5594,"##giv":5595,"##selen":5596,"pus":5597,"##ments":5598,"hvit":5599,"AN":5600,"tida":5601,"##dem":5602,"kommuner":5603,"forsøk":5604,"##deler":5605,"Siden":5606,"lavere":5607,"##ish":5608,"avhengig":5609,"trekke":5610,"##atteren":5611,"konsent":5612,"kommunene":5613,"sign":5614,"##ius":5615,"bodde":5616,"glem":5617,"sentrale":5618,"##edri":5619,"58":5620,"##veren":5621,"brann":5622,"##vedt":5623,"Karl":5624,"kaffe":5625,"hår":5626,"2004":5627,"forelig":5628,"##talt":5629,"stemmer":5630,"ordet":5631,"kjenne":5632,"derimot":5633,"delen":5634,"kjære":5635,"dog":5636,"##hjem":5637,"##que":5638,"engelsk":5639,"All":5640,"##mere":5641,"##ition":5642,"##ther":5643,"passe":5644,"vide":5645,"##ada":5646,"##små":5647,"tor":5648,"ner":5649,"##delser":5650,"avgjø":5651,"##ua":5652,"drive":5653,"omfatter":5654,"Lin":5655,"mørke":5656,"sex":5657,"##iat":5658,"forstår":5659,"lager":5660,"61":5661,"##ssk":5662,"Fil":5663,"eventuelt":5664,"flert":5665,"##ary":5666,"viten":5667,"argu":5668,"overle":5669,"##later":5670,"moren":5671,"Tru":5672,"jul":5673,"##tensi":5674,"Magn":5675,"heile":5676,"##owe":5677,"NO":5678,"amb":5679,"anna":5680,"were":5681,"Jens":5682,"##fart":5683,"Henrik":5684,"300":5685,"##velsen":5686,"mamma":5687,"spørre":5688,"konsekven":5689,"##former":5690,"400":5691,"Veg":5692,"##mester":5693,"rik":5694,"trø":5695,"sammens":5696,"Sjø":5697,"dels":5698,"eld":5699,"lengre":5700,"##jar":5701,"##aren":5702,"Ul":5703,"spesielle":5704,"##smid":5705,"##ration":5706,"anledning":5707,"Gnr":5708,"skyldes":5709,"Mus":5710,"##hild":5711,"adj":5712,"bære":5713,"tilkny":5714,"stakk":5715,"sann":5716,"ak":5717,"##kningen":5718,"besøk":5719,"usikker":5720,"nedover":5721,"periode":5722,"Harald":5723,"Videre":5724,"Char":5725,"nikket":5726,"##ugh":5727,"trafikk":5728,"##nnene":5729,"Mich":5730,"Norske":5731,"slått":5732,"kurs":5733,"søker":5734,"##stilt":5735,"fu":5736,"##KK":5737,"##resten":5738,"ligge":5739,"##nster":5740,"kraftig":5741,"dens":5742,"##asjonene":5743,"62":5744,"##tten":5745,"ment":5746,"1970":5747,"##bladet":5748,"##vei":5749,"##ingar":5750,"aktivitet":5751,"##orter":5752,"Helge":5753,"møtte":5754,"gu":5755,"oversikt":5756,"bas":5757,"frivil":5758,"up":5759,"Tromsø":5760,"oppgave":5761,"##stiske":5762,"fug":5763,"svare":5764,"Ifølge":5765,"kle":5766,"##elsen":5767,"By":5768,"##vit":5769,"dvs":5770,"##yld":5771,"stirret":5772,"Fyl":5773,"reiser":5774,"67":5775,"handel":5776,"##ammer":5777,"studen":5778,"sport":5779,"effekt":5780,"##own":5781,"kropp":5782,"Intern":5783,"##ammen":5784,"skaffe":5785,"ir":5786,"##urn":5787,"##redt":5788,"##gert":5789,"sold":5790,"Tø":5791,"##line":5792,"jfr":5793,"trekk":5794,"log":5795,"utfor":5796,"Då":5797,"Dy":5798,"##au":5799,"konkurranse":5800,"##TER":5801,"vurdere":5802,"2008":5803,"##ging":5804,"##ringe":5805,"more":5806,"yrkes":5807,"via":5808,"øvrig":5809,"årsa":5810,"lettere":5811,"##smannen":5812,"Dermed":5813,"sid":5814,"2010":5815,"natten":5816,"2013":5817,"Dessuten":5818,"##forhold":5819,"jobbe":5820,"publikum":5821,"##nelige":5822,"vilde":5823,"bedrifter":5824,"##SEN":5825,"##sak":5826,"##istrikt":5827,"gjennomført":5828,"71":5829,"oven":5830,"kontor":5831,"##orien":5832,"##wo":5833,"64":5834,"diffe":5835,"strå":5836,"kontra":5837,"hotell":5838,"utviklet":5839,"øde":5840,"##ters":5841,"Sport":5842,"styret":5843,"drama":5844,"Fig":5845,"altfor":5846,"ansikt":5847,"kolle":5848,"Mid":5849,"Hall":5850,"sum":5851,"66":5852,"##kor":5853,"forrige":5854,"2006":5855,"##nnet":5856,"tider":5857,"Ex":5858,"Figur":5859,"band":5860,"##ked":5861,"##kant":5862,"##edagog":5863,"##vard":5864,"opplæring":5865,"munnen":5866,"##fol":5867,"rep":5868,"oppdag":5869,"2007":5870,"##skapene":5871,"##vann":5872,"amerikanske":5873,"gen":5874,"IN":5875,"##skog":5876,"mistet":5877,"York":5878,"##serer":5879,"##inner":5880,"aktuelle":5881,"##rus":5882,"drøm":5883,"##holm":5884,"##øver":5885,"63":5886,"tjenester":5887,"##hov":5888,"Ven":5889,"motor":5890,"##tning":5891,"Ti":5892,"forsiktig":5893,"kalt":5894,"svarer":5895,"Deres":5896,"##innte":5897,"selvfølgelig":5898,"straff":5899,"spor":5900,"##band":5901,"Thor":5902,"vanlige":5903,"sang":5904,"rede":5905,"##hund":5906,"fro":5907,"2009":5908,"ben":5909,"##spill":5910,"##rense":5911,"##kninger":5912,"fullstendig":5913,"siv":5914,"##stri":5915,"##bry":5916,"1989":5917,"disku":5918,"Thomas":5919,"##PP":5920,"prem":5921,"##yggelig":5922,"##ash":5923,"##inene":5924,"tek":5925,"##ory":5926,"End":5927,"bevil":5928,"trygg":5929,"##tar":5930,"hov":5931,"##gård":5932,"##iker":5933,"##con":5934,"##jøe":5935,"##EG":5936,"ende":5937,"##ktoratet":5938,"##sid":5939,"##oller":5940,"82":5941,"2011":5942,"93":5943,"bedrift":5944,"fylkeskomm":5945,"sitte":5946,"##EM":5947,"dram":5948,"can":5949,"##rep":5950,"##rine":5951,"såtte":5952,"tegn":5953,"##telser":5954,"merket":5955,"##slin":5956,"##risk":5957,"##rier":5958,"datter":5959,"lan":5960,"tema":5961,"salt":5962,"grep":5963,"Barn":5964,"Hu":5965,"##synet":5966,"##somme":5967,"faste":5968,"kjøp":5969,"182":5970,"nasjonal":5971,"##ttelse":5972,"ek":5973,"klarer":5974,"åra":5975,"nummer":5976,"utvi":5977,"##skapen":5978,"SK":5979,"høsten":5980,"lun":5981,"##plassen":5982,"sammenhen":5983,"##ås":5984,"sendte":5985,"##iserte":5986,"Lov":5987,"77":5988,"Regjeringen":5989,"David":5990,"svi":5991,"##ransen":5992,"2012":5993,"spilte":5994,"utgjør":5995,"kjempe":5996,"81":5997,"tillit":5998,"Kirke":5999,"Kristians":6000,"livs":6001,"stopp":6002,"obje":6003,"##fy":6004,"selvsagt":6005,"69":6006,"middel":6007,"##ase":6008,"div":6009,"osv":6010,"flytte":6011,"##aker":6012,"regn":6013,"tilstrekkelig":6014,"rent":6015,"Kir":6016,"##ktoren":6017,"besø":6018,"kop":6019,"##skl":6020,"formål":6021,"nytte":6022,"omfattende":6023,"##pektiv":6024,"##lingene":6025,"Gl":6026,"##pport":6027,"92":6028,"##jorden":6029,"innbyg":6030,"blikket":6031,"Nær":6032,"##usen":6033,"fine":6034,"Bod":6035,"driver":6036,"##bro":6037,"##rag":6038,"eksiste":6039,"medisin":6040,"##kjør":6041,"##cial":6042,"gutt":6043,"delvis":6044,"vol":6045,"##skjell":6046,"##ice":6047,"sjøl":6048,"72":6049,"erstat":6050,"politikk":6051,"Jen":6052,"sommeren":6053,"veile":6054,"##istiske":6055,"VI":6056,"##urg":6057,"former":6058,"settes":6059,"##AV":6060,"##skilt":6061,"##ongen":6062,"gran":6063,"personlig":6064,"papir":6065,"##terne":6066,"plasser":6067,"##ica":6068,"##arder":6069,"sir":6070,"Mad":6071,"Res":6072,"absol":6073,"##urens":6074,"##edie":6075,"##lipp":6076,"##nadene":6077,"Gro":6078,"##cess":6079,"##verks":6080,"##inde":6081,"Red":6082,"sikte":6083,"pat":6084,"torsdag":6085,"Hver":6086,"fanta":6087,"Gunnar":6088,"##ley":6089,"##lei":6090,"kjørte":6091,"As":6092,"##rt":6093,"gjaldt":6094,"England":6095,"##kre":6096,"sag":6097,"formann":6098,"kalles":6099,"##reng":6100,"##DE":6101,"forekom":6102,"Direkte":6103,"rele":6104,"##unne":6105,"øvrige":6106,"refle":6107,"litte":6108,"##alder":6109,"tvang":6110,"##za":6111,"stiller":6112,"Sti":6113,"##but":6114,"innhold":6115,"##anene":6116,"##pens":6117,"##gått":6118,"##olo":6119,"SV":6120,"am":6121,"##skrifter":6122,"Gra":6123,"##vegen":6124,"Do":6125,"forret":6126,"foreldrene":6127,"befolk":6128,"ettermid":6129,"Jak":6130,"forsøkte":6131,"Folke":6132,"one":6133,"mere":6134,"##cal":6135,"bestemmelser":6136,"##dire":6137,"##stoff":6138,"dokumentar":6139,"##ikker":6140,"opprett":6141,"bakken":6142,"Post":6143,"oppdrag":6144,"umulig":6145,"falt":6146,"out":6147,"##ringene":6148,"praktisk":6149,"1988":6150,"##nar":6151,"middag":6152,"##nds":6153,"bun":6154,"##rael":6155,"båt":6156,"It":6157,"rettet":6158,"Pers":6159,"150":6160,"arbeidspl":6161,"beteg":6162,"bot":6163,"elev":6164,"##cts":6165,"Bli":6166,"lom":6167,"##gave":6168,"74":6169,"##brudd":6170,"anbef":6171,"see":6172,"hensikt":6173,"##ité":6174,"pappa":6175,"markeds":6176,"##verdig":6177,"##skar":6178,"##derte":6179,"linje":6180,"##ometer":6181,"jakt":6182,"Andersen":6183,"##eller":6184,"avdeling":6185,"Folk":6186,"løftet":6187,"Fro":6188,"##ssor":6189,"Mal":6190,"retts":6191,"hil":6192,"sand":6193,"Vik":6194,"##iter":6195,"##vo":6196,"inst":6197,"##blem":6198,"næring":6199,"##lens":6200,"orden":6201,"fortsetter":6202,"##sken":6203,"alternativ":6204,"foreta":6205,"##sler":6206,"oppdaget":6207,"nyheter":6208,"##sing":6209,"##ielle":6210,"##beg":6211,"##US":6212,"##isket":6213,"##styre":6214,"##alp":6215,"arbeidsm":6216,"##spi":6217,"##mund":6218,"Gre":6219,"kul":6220,"krist":6221,"##ls":6222,"typer":6223,"utle":6224,"Bet":6225,"##vig":6226,"gjeldende":6227,"bøker":6228,"europe":6229,"##nor":6230,"##saa":6231,"Van":6232,"Eks":6233,"##ieren":6234,"regnet":6235,"Larsen":6236,"##alsk":6237,"Ung":6238,"invi":6239,"fylkes":6240,"##gelen":6241,"##anser":6242,"aksje":6243,"begynnelsen":6244,"fordel":6245,"##smessig":6246,"bos":6247,"ansvaret":6248,"gården":6249,"##ott":6250,"OL":6251,"dating":6252,"qu":6253,"håp":6254,"##vokat":6255,"hender":6256,"76":6257,"##nest":6258,"##she":6259,"soli":6260,"Tra":6261,"stående":6262,"ur":6263,"##neren":6264,"##allen":6265,"kvalit":6266,"##smann":6267,"andel":6268,"##last":6269,"husker":6270,"forståelse":6271,"nærmest":6272,"prp":6273,"således":6274,"##omen":6275,"dele":6276,"telefon":6277,"##verdi":6278,"levende":6279,"68":6280,"kirken":6281,"##vest":6282,"Famil":6283,"vakker":6284,"åt":6285,"##instit":6286,"ku":6287,"avgjørende":6288,"klokken":6289,"måned":6290,"general":6291,"Sl":6292,"oppgåver":6293,"##igh":6294,"rimelig":6295,"gratis":6296,"##ink":6297,"##området":6298,"venter":6299,"velger":6300,"Stra":6301,"faller":6302,"##ømme":6303,"vakt":6304,"98":6305,"Midt":6306,"slår":6307,"##partement":6308,"kjøpte":6309,"trykk":6310,"følelse":6311,"##prø":6312,"ytterligere":6313,"Bu":6314,"2020":6315,"fengsel":6316,"##ogra":6317,"trolig":6318,"hvilket":6319,"redusert":6320,"##UR":6321,"Andreas":6322,"Departementet":6323,"kommunikasjon":6324,"skaper":6325,"løsning":6326,"##nens":6327,"##lade":6328,"pol":6329,"opplever":6330,"##rete":6331,"73":6332,"trengte":6333,"glass":6334,"##slå":6335,"Likevel":6336,"##gg":6337,"94":6338,"Frem":6339,"måle":6340,"##lling":6341,"lover":6342,"##jøen":6343,"78":6344,"##alog":6345,"##asin":6346,"##legger":6347,"tanken":6348,"Mat":6349,"##hets":6350,"spennende":6351,"##havn":6352,"regnskap":6353,"fokus":6354,"##asjons":6355,"##behandling":6356,"##ndelag":6357,"##wa":6358,"smil":6359,"Maria":6360,"alko":6361,"rolig":6362,"demok":6363,"##UL":6364,"kaller":6365,"##amme":6366,"historien":6367,"vilje":6368,"været":6369,"##legges":6370,"Dom":6371,"##kens":6372,"innb":6373,"prest":6374,"prim":6375,"##rets":6376,"håret":6377,"##skil":6378,"bee":6379,"##selskap":6380,"ramme":6381,"innsats":6382,"##fjell":6383,"onsdag":6384,"##sund":6385,"##landske":6386,"rese":6387,"AV":6388,"fornøyd":6389,"##virksomhet":6390,"arbeidsta":6391,"tanker":6392,"samsvar":6393,"Frankrike":6394,"Skri":6395,"fas":6396,"##ttene":6397,"tilpas":6398,"vers":6399,"nam":6400,"##dsel":6401,"kvinnen":6402,"serie":6403,"Pre":6404,"86":6405,"utsatt":6406,"1987":6407,"##ugen":6408,"løse":6409,"elsker":6410,"##komm":6411,"1985":6412,"oppt":6413,"##miljø":6414,"##ulerer":6415,"##iende":6416,"Byg":6417,"nødvendige":6418,"Fo":6419,"havde":6420,"trening":6421,"pot":6422,"Mand":6423,"undervisning":6424,"plas":6425,"Bak":6426,"normalt":6427,"gruppen":6428,"##unnet":6429,"underhold":6430,"vanligvis":6431,"begrun":6432,"Pedersen":6433,"##jonell":6434,"omgang":6435,"##redning":6436,"skogen":6437,"Alex":6438,"##jonens":6439,"##nerledes":6440,"##nelsen":6441,"bad":6442,"tråd":6443,"leie":6444,"grund":6445,"bedriften":6446,"studie":6447,"##rske":6448,"##rekk":6449,"##øv":6450,"kone":6451,"drikke":6452,"79":6453,"NOR":6454,"fritt":6455,"Jørgen":6456,"88":6457,"##uttene":6458,"84":6459,"##cc":6460,"##veis":6461,"het":6462,"havet":6463,"Rad":6464,"øver":6465,"generelt":6466,"dekket":6467,"regjering":6468,"comp":6469,"TIL":6470,"##fla":6471,"##ague":6472,"##orm":6473,"jenter":6474,"rike":6475,"etabler":6476,"##nivå":6477,"bibliote":6478,"Nattsending":6479,"##RI":6480,"##NE":6481,"kjøpt":6482,"##sdal":6483,"framtid":6484,"##strand":6485,"##oer":6486,"øker":6487,"fær":6488,"Trøndelag":6489,"størrelse":6490,"##kså":6491,"journali":6492,"83":6493,"Tabell":6494,"##kort":6495,"Jacob":6496,"heilt":6497,"fortalt":6498,"resta":6499,"parti":6500,"##rerer":6501,"motta":6502,"Sim":6503,"ledelse":6504,"Leg":6505,"1986":6506,"slekt":6507,"##løse":6508,"##attes":6509,"sår":6510,"##arer":6511,"##nok":6512,"våpen":6513,"Fly":6514,"##drett":6515,"sjelden":6516,"Kultur":6517,"enig":6518,"fjerde":6519,"standard":6520,"Gam":6521,"Lund":6522,"been":6523,"årets":6524,"Ans":6525,"##forening":6526,"Kjell":6527,"Op":6528,"##unen":6529,"##løst":6530,"Noe":6531,"nasjonale":6532,"##iendom":6533,"toppen":6534,"lands":6535,"Paris":6536,"annerledes":6537,"##ård":6538,"Kong":6539,"179":6540,"Johansen":6541,"##ninga":6542,"Jakob":6543,"bygger":6544,"svenske":6545,"Phil":6546,"invol":6547,"Tro":6548,"eig":6549,"##tein":6550,"typ":6551,"##rering":6552,"utført":6553,"avtalen":6554,"##sider":6555,"kristen":6556,"regne":6557,"##ts":6558,"vilkår":6559,"Kap":6560,"planer":6561,"1960":6562,"ligg":6563,"inntrykk":6564,"positive":6565,"bygde":6566,"##sjekt":6567,"##spart":6568,"Mil":6569,"##merket":6570,"spar":6571,"##pass":6572,"Kari":6573,"##bruker":6574,"funge":6575,"##ssp":6576,"økonomi":6577,"steg":6578,"Ame":6579,"Ten":6580,"skritt":6581,"jobbet":6582,"##splan":6583,"port":6584,"muse":6585,"grav":6586,"##iserer":6587,"##iven":6588,"parker":6589,"##gjer":6590,"Store":6591,"Kongen":6592,"##ii":6593,"##idar":6594,"interessert":6595,"strateg":6596,"hente":6597,"beskjed":6598,"Histor":6599,"##ykke":6600,"frukt":6601,"##latelse":6602,"boken":6603,"Fort":6604,"engasje":6605,"aner":6606,"##liggende":6607,"Are":6608,"go":6609,"søk":6610,"##grunnen":6611,"##ror":6612,"møtet":6613,"##anti":6614,"religi":6615,"##riske":6616,"adgang":6617,"pu":6618,"systemet":6619,"kjøtt":6620,"Kol":6621,"Tot":6622,"bevegelse":6623,"tilgjengelig":6624,"##vidt":6625,"dikt":6626,"##ppar":6627,"heim":6628,"dist":6629,"##kra":6630,"dokument":6631,"evne":6632,"gulvet":6633,"##atiske":6634,"96":6635,"89":6636,"neppe":6637,"artikkel":6638,"##orgen":6639,"nav":6640,"##draget":6641,"##ansvar":6642,"russ":6643,"##low":6644,"bla":6645,"Ford":6646,"87":6647,"hard":6648,"dess":6649,"sørge":6650,"vedlike":6651,"gutten":6652,"registrert":6653,"forme":6654,"##tto":6655,"treffe":6656,"sma":6657,"Bør":6658,"##leggende":6659,"lat":6660,"konstru":6661,"##lelse":6662,"##barn":6663,"Ben":6664,"##DAG":6665,"hentet":6666,"##uth":6667,"##område":6668,"their":6669,"Amerika":6670,"endret":6671,"snakk":6672,"##istene":6673,"Nore":6674,"##lien":6675,"stoff":6676,"rene":6677,"##orld":6678,"##lte":6679,"##itetet":6680,"Høyre":6681,"##årene":6682,"ryd":6683,"rev":6684,"Russland":6685,"dypt":6686,"erst":6687,"##lær":6688,"overbe":6689,"other":6690,"sjøe":6691,"Sæ":6692,"Morgensending":6693,"stykke":6694,"Tore":6695,"resp":6696,"fran":6697,"subst":6698,"spill":6699,"##spiller":6700,"PR":6701,"avstand":6702,"forbud":6703,"##klub":6704,"##jeld":6705,"##ffen":6706,"##setting":6707,"minne":6708,"veit":6709,"Eid":6710,"##gikk":6711,"dyre":6712,"Hadde":6713,"will":6714,"##OS":6715,"boka":6716,"Bir":6717,"##ni":6718,"##sig":6719,"blomster":6720,"svak":6721,"energ":6722,"skjønner":6723,"Alf":6724,"1984":6725,"##sar":6726,"brit":6727,"##sme":6728,"Marit":6729,"Svein":6730,"##ky":6731,"##seth":6732,"kommunale":6733,"distrikt":6734,"leser":6735,"##har":6736,"marked":6737,"nevnte":6738,"produkt":6739,"##medlem":6740,"Magnus":6741,"etablert":6742,"##assi":6743,"##mennene":6744,"Ivar":6745,"totalt":6746,"valgte":6747,"##pere":6748,"Vis":6749,"figur":6750,"utvalget":6751,"prof":6752,"##vold":6753,"kob":6754,"kin":6755,"interesser":6756,"##ania":6757,"Øv":6758,"garden":6759,"##wee":6760,"Blant":6761,"høst":6762,"gjent":6763,"##øyet":6764,"sil":6765,"likte":6766,"##urder":6767,"##gjort":6768,"mangler":6769,"million":6770,"lukket":6771,"##æn":6772,"markedet":6773,"rot":6774,"reglene":6775,"Forsvar":6776,"##iell":6777,"behandlet":6778,"seng":6779,"president":6780,"nødt":6781,"##iør":6782,"##kedet":6783,"##ulere":6784,"ue":6785,"sne":6786,"stede":6787,"111":6788,"##ac":6789,"##50":6790,"legg":6791,"helhet":6792,"tidspunkt":6793,"##leren":6794,"Sammen":6795,"##mentene":6796,"##gjennom":6797,"##iert":6798,"Mc":6799,"##vart":6800,"##alit":6801,"redusere":6802,"vinduet":6803,"avgift":6804,"kna":6805,"##punkter":6806,"kred":6807,"##rut":6808,"vedtatt":6809,"Morten":6810,"hode":6811,"trad":6812,"##tim":6813,"##skon":6814,"##alisering":6815,"##bjørn":6816,"##sminister":6817,"revol":6818,"rut":6819,"##ah":6820,"neder":6821,"drept":6822,"muligheten":6823,"material":6824,"trå":6825,"##etene":6826,"##EST":6827,"##cent":6828,"mandag":6829,"##dning":6830,"##aga":6831,"slippe":6832,"økte":6833,"sosi":6834,"lyset":6835,"##rasjoner":6836,"resultatet":6837,"pst":6838,"##onne":6839,"##indust":6840,"dobbelt":6841,"verdier":6842,"armen":6843,"##skraft":6844,"Can":6845,"respekt":6846,"stemmen":6847,"enkle":6848,"slapp":6849,"tilgang":6850,"våren":6851,"##iering":6852,"##parti":6853,"resultater":6854,"næ":6855,"unntak":6856,"nærheten":6857,"såkalte":6858,"undersøkelse":6859,"##ørene":6860,"##isjoner":6861,"##nny":6862,"##steder":6863,"##ual":6864,"begrenset":6865,"##veks":6866,"##likter":6867,"røde":6868,"skjel":6869,"Finnmark":6870,"Einar":6871,"perm":6872,"import":6873,"utgangspunktet":6874,"sølv":6875,"##zz":6876,"pengene":6877,"kapital":6878,"grense":6879,"bidrag":6880,"lavt":6881,"armene":6882,"##skud":6883,"This":6884,"Sent":6885,"##rans":6886,"sterkere":6887,"Nyheter":6888,"byr":6889,"midten":6890,"Val":6891,"may":6892,"##pert":6893,"##mpet":6894,"die":6895,"##ular":6896,"interessant":6897,"kristne":6898,"##ced":6899,"synd":6900,"##hvert":6901,"##steren":6902,"Gran":6903,"skrem":6904,"##onell":6905,"Bruk":6906,"ressurser":6907,"landets":6908,"##skjer":6909,"Ru":6910,"illust":6911,"naturen":6912,"jule":6913,"DN":6914,"endre":6915,"##gerte":6916,"begynt":6917,"vidare":6918,"##SB":6919,"ovenfor":6920,"Stud":6921,"600":6922,"huske":6923,"gal":6924,"videregående":6925,"also":6926,"vondt":6927,"intervju":6928,"Bri":6929,"gjennomføre":6930,"boli":6931,"revis":6932,"##jert":6933,"##velop":6934,"##yndig":6935,"borger":6936,"sjøen":6937,"sving":6938,"total":6939,"League":6940,"fantes":6941,"1981":6942,"galt":6943,"Ragn":6944,"bøl":6945,"ed":6946,"ler":6947,"##bakken":6948,"integ":6949,"##setninger":6950,"absolutt":6951,"Israel":6952,"oppfatning":6953,"samle":6954,"grunnen":6955,"strid":6956,"tonn":6957,"Deretter":6958,"temp":6959,"##jære":6960,"forslaget":6961,"preget":6962,"##råket":6963,"tirsdag":6964,"autom":6965,"##lisert":6966,"##ining":6967,"##ula":6968,"##vekst":6969,"målet":6970,"foreligger":6971,"##ndene":6972,"##kjente":6973,"##skriv":6974,"Tu":6975,"taler":6976,"flertall":6977,"identif":6978,"##ues":6979,"1950":6980,"etterpå":6981,"Hele":6982,"trekker":6983,"##ona":6984,"eldste":6985,"mennesket":6986,"kjøkke":6987,"utgifter":6988,"##blad":6989,"initi":6990,"beslut":6991,"##kretær":6992,"##ismen":6993,"bist":6994,"oppover":6995,"Ko":6996,"Robert":6997,"##hetens":6998,"prosess":6999,"flykt":7000,"vakre":7001,"fysisk":7002,"åringen":7003,"##ferdig":7004,"##assene":7005,"##aks":7006,"Sty":7007,"ivaret":7008,"ens":7009,"##ktes":7010,"innfly":7011,"##fyl":7012,"##øyaktig":7013,"hjelper":7014,"gate":7015,"1982":7016,"##ulen":7017,"ford":7018,"##banen":7019,"forpli":7020,"analyse":7021,"landsb":7022,"skue":7023,"dreier":7024,"1000":7025,"ristet":7026,"sluttet":7027,"befolkningen":7028,"tungt":7029,"##ams":7030,"##ween":7031,"##rak":7032,"##NING":7033,"defin":7034,"verken":7035,"Begge":7036,"##ondet":7037,"Halvor":7038,"Matt":7039,"drev":7040,"hovud":7041,"178":7042,"intens":7043,"kongen":7044,"jente":7045,"1983":7046,"##isteren":7047,"##rørende":7048,"erfaringer":7049,"##pris":7050,"Haug":7051,"ferie":7052,"##30":7053,"Bry":7054,"##ligheten":7055,"##rika":7056,"Spørsm":7057,"Fre":7058,"positiv":7059,"##ipp":7060,"vent":7061,"Tan":7062,"##osa":7063,"##raturen":7064,"påpe":7065,"Bus":7066,"forskjellig":7067,"kilometer":7068,"båten":7069,"vand":7070,"##funnet":7071,"supp":7072,"overraske":7073,"hvad":7074,"sykeple":7075,"utføre":7076,"##ales":7077,"Riks":7078,"##present":7079,"frø":7080,"there":7081,"jorden":7082,"turen":7083,"avsnitt":7084,"##slet":7085,"forklare":7086,"##fo":7087,"forsvant":7088,"enige":7089,"eval":7090,"##områder":7091,"kateg":7092,"1975":7093,"##lår":7094,"starter":7095,"kron":7096,"plassen":7097,"##stav":7098,"Part":7099,"sove":7100,"##sre":7101,"##stemer":7102,"ordene":7103,"SP":7104,"1979":7105,"##snytt":7106,"Jensen":7107,"varm":7108,"Carl":7109,"smør":7110,"Sil":7111,"##rop":7112,"##arch":7113,"nøye":7114,"fungerer":7115,"profes":7116,"Sos":7117,"ær":7118,"##voll":7119,"1977":7120,"mist":7121,"forskjell":7122,"##iali":7123,"forven":7124,"##stiden":7125,"Ski":7126,"VG":7127,"Bel":7128,"forsknings":7129,"forsvin":7130,"##øre":7131,"Ita":7132,"bror":7133,"hjør":7134,"##issen":7135,"aksep":7136,"##møte":7137,"halvparten":7138,"spre":7139,"Col":7140,"um":7141,"skoler":7142,"øre":7143,"representerer":7144,"direktør":7145,"menneskene":7146,"1978":7147,"ytre":7148,"##stol":7149,"##lid":7150,"lignende":7151,"hjertet":7152,"##nnem":7153,"vinteren":7154,"##lemmene":7155,"Daniel":7156,"##ria":7157,"you":7158,"Nilsen":7159,"177":7160,"runde":7161,"Mu":7162,"Hed":7163,"##belen":7164,"regi":7165,"Wh":7166,"verre":7167,"FN":7168,"høyde":7169,"##våg":7170,"ske":7171,"##alske":7172,"##rab":7173,"##fulle":7174,"flott":7175,"rapport":7176,"undervis":7177,"bygning":7178,"yngre":7179,"statsb":7180,"##ivet":7181,"riks":7182,"veggen":7183,"kostnad":7184,"gong":7185,"##gaard":7186,"symp":7187,"taket":7188,"##uel":7189,"umiddel":7190,"Dri":7191,"##ommet":7192,"nærmeste":7193,"litteratur":7194,"rein":7195,"##ctive":7196,"utø":7197,"##ullet":7198,"skjønte":7199,"##ront":7200,"##deres":7201,"##istikk":7202,"abo":7203,"bidrar":7204,"##føringen":7205,"##tent":7206,"##hjelp":7207,"##ldre":7208,"800":7209,"tysk":7210,"stått":7211,"måter":7212,"service":7213,"langsomt":7214,"maskin":7215,"fla":7216,"##brø":7217,"##kapit":7218,"Kle":7219,"kong":7220,"Lil":7221,"##posten":7222,"fen":7223,"between":7224,"Ras":7225,"Program":7226,"##EF":7227,"##ating":7228,"århund":7229,"fing":7230,"fyller":7231,"il":7232,"##drift":7233,"##grupper":7234,"##utdan":7235,"test":7236,"stanset":7237,"##oms":7238,"##ael":7239,"nedenfor":7240,"org":7241,"læring":7242,"reist":7243,"PÅ":7244,"Hav":7245,"milliarder":7246,"nokre":7247,"Met":7248,"skikkelig":7249,"##digvis":7250,"##sområ":7251,"Com":7252,"##osof":7253,"forholdene":7254,"##kjer":7255,"lån":7256,"behovet":7257,"##fisk":7258,"Les":7259,"##usene":7260,"fattig":7261,"1976":7262,"##fot":7263,"mark":7264,"utel":7265,"cent":7266,"Lind":7267,"##budet":7268,"pan":7269,"Første":7270,"##inte":7271,"omfang":7272,"kriti":7273,"ungdoms":7274,"klem":7275,"størst":7276,"prosjekter":7277,"##bra":7278,"##jort":7279,"produkter":7280,"virksomheten":7281,"hor":7282,"erkl":7283,"##rast":7284,"maks":7285,"rettigheter":7286,"##økonom":7287,"##10":7288,"emp":7289,"##mater":7290,"##offer":7291,"##ittil":7292,"plikt":7293,"Aften":7294,"ag":7295,"symb":7296,"##ralt":7297,"##abeth":7298,"##atene":7299,"vass":7300,"alkohol":7301,"##igt":7302,"##ollar":7303,"176":7304,"barnehage":7305,"##tting":7306,"hest":7307,"benyttet":7308,"Litt":7309,"##inasjon":7310,"Ry":7311,"##forbund":7312,"økning":7313,"utrolig":7314,"Forsk":7315,"utlandet":7316,"Hov":7317,"##ilen":7318,"##formen":7319,"tunge":7320,"##ollene":7321,"grunner":7322,"Fiske":7323,"himmelen":7324,"##likten":7325,"Rog":7326,"korte":7327,"us":7328,"##ci":7329,"planen":7330,"lært":7331,"åpner":7332,"they":7333,"stjer":7334,"tyder":7335,"##rømme":7336,"##kul":7337,"##dager":7338,"klass":7339,"spesial":7340,"problemet":7341,"organisasjoner":7342,"benyttes":7343,"biler":7344,"redde":7345,"##ific":7346,"##redelse":7347,"##here":7348,"##rative":7349,"reser":7350,"übe":7351,"hindre":7352,"prisen":7353,"##ller":7354,"dekke":7355,"##sjektet":7356,"klær":7357,"brå":7358,"motstand":7359,"nokså":7360,"latter":7361,"stilte":7362,"lave":7363,"vill":7364,"fjerne":7365,"##hn":7366,"varie":7367,"spesiell":7368,"##cel":7369,"materiale":7370,"##sal":7371,"grunnleggende":7372,"##løpig":7373,"knapt":7374,"Mannen":7375,"Norway":7376,"##giftene":7377,"##weg":7378,"eksempler":7379,"sengen":7380,"Strand":7381,"##anda":7382,"programmet":7383,"##wn":7384,"##yrk":7385,"Bla":7386,"Kat":7387,"Instit":7388,"pasienter":7389,"pedagog":7390,"skjønn":7391,"##rammen":7392,"Mos":7393,"kjøkken":7394,"Takk":7395,"##sreg":7396,"##gl":7397,"jub":7398,"mennene":7399,"angrep":7400,"myndigheter":7401,"##ders":7402,"sein":7403,"orie":7404,"løsninger":7405,"##grepet":7406,"Ram":7407,"intet":7408,"farlig":7409,"sentralt":7410,"Cla":7411,"##ities":7412,"hyl":7413,"ør":7414,"##ulert":7415,"talet":7416,"##rodu":7417,"oppmerksomhet":7418,"hind":7419,"press":7420,"IV":7421,"skapt":7422,"demon":7423,"Mark":7424,"finn":7425,"##bor":7426,"Sær":7427,"Sko":7428,"frisk":7429,"stolt":7430,"fulle":7431,"kreve":7432,"risiko":7433,"sies":7434,"##givelse":7435,"##gren":7436,"##dommen":7437,"##ited":7438,"Helse":7439,"##skriften":7440,"Jord":7441,"opphold":7442,"konsekvenser":7443,"driv":7444,"##vendig":7445,"##vering":7446,"plassert":7447,"EN":7448,"sukker":7449,"innstilling":7450,"1974":7451,"##yens":7452,"presset":7453,"son":7454,"ordin":7455,"åpent":7456,"##vind":7457,"##asset":7458,"##dighet":7459,"penge":7460,"brans":7461,"perspektiv":7462,"##EK":7463,"##stått":7464,"bedt":7465,"sukse":7466,"##ktive":7467,"##jenester":7468,"##produksjon":7469,"Ky":7470,"perfe":7471,"##utvalget":7472,"##ordningen":7473,"ube":7474,"foregår":7475,"nøyaktig":7476,"##klart":7477,"##andid":7478,"##kne":7479,"areal":7480,"Fylke":7481,"etc":7482,"fav":7483,"typen":7484,"modell":7485,"plu":7486,"korleis":7487,"forh":7488,"Hy":7489,"Inter":7490,"status":7491,"Marg":7492,"##spen":7493,"##oni":7494,"##imum":7495,"ul":7496,"Mun":7497,"Nordland":7498,"fylt":7499,"utbet":7500,"sønnen":7501,"##vensk":7502,"stim":7503,"##por":7504,"vinne":7505,"tekniske":7506,"##ssjef":7507,"kulture":7508,"##kontr":7509,"1900":7510,"##alene":7511,"Kø":7512,"1973":7513,"krim":7514,"##cil":7515,"##jent":7516,"##stede":7517,"forfatter":7518,"1940":7519,"##vete":7520,"##jente":7521,"175":7522,"##program":7523,"Dere":7524,"##udsjett":7525,"##stjeneste":7526,"##antene":7527,"##aktiv":7528,"##bb":7529,"uro":7530,"sats":7531,"virksom":7532,"lykke":7533,"##amin":7534,"Aar":7535,"stilt":7536,"prior":7537,"flest":7538,"syssel":7539,"##chen":7540,"##bre":7541,"tlf":7542,"##virkning":7543,"##viser":7544,"jø":7545,"Bodø":7546,"Spesi":7547,"##ens":7548,"Barne":7549,"skule":7550,"##urtig":7551,"##ydro":7552,"verne":7553,"taus":7554,"##rest":7555,"stab":7556,"trukket":7557,"noget":7558,"##seres":7559,"beløp":7560,"##saker":7561,"##FT":7562,"ære":7563,"uavhengig":7564,"Jf":7565,"##agra":7566,"Nye":7567,"##gården":7568,"starte":7569,"1800":7570,"tjene":7571,"Pris":7572,"##lite":7573,"##ørre":7574,"Herren":7575,"fremtid":7576,"##ingens":7577,"trener":7578,"1945":7579,"arran":7580,"strøk":7581,"luften":7582,"tit":7583,"låg":7584,"hyggelig":7585,"Verd":7586,"1972":7587,"digit":7588,"halvt":7589,"prosessen":7590,"smerte":7591,"melding":7592,"##vesenet":7593,"##stren":7594,"action":7595,"##sopp":7596,"initiativ":7597,"##orge":7598,"danske":7599,"sesongen":7600,"##ningar":7601,"##dern":7602,"##useum":7603,"##vendt":7604,"120":7605,"aktiviteter":7606,"##kjøp":7607,"Ag":7608,"fulgt":7609,"##venn":7610,"##rommet":7611,"kunn":7612,"Rett":7613,"krev":7614,"##ures":7615,"fjellet":7616,"##iseres":7617,"positivt":7618,"ringte":7619,"##start":7620,"##jue":7621,"idee":7622,"Don":7623,"arkite":7624,"##fjorden":7625,"skille":7626,"##ners":7627,"gle":7628,"mask":7629,"##ibel":7630,"Skog":7631,"##ics":7632,"Gene":7633,"Gul":7634,"rappor":7635,"##jonelt":7636,"##bordet":7637,"than":7638,"had":7639,"##olitikken":7640,"##asitet":7641,"kostnader":7642,"teater":7643,"Ska":7644,"heng":7645,"liksom":7646,"opplyser":7647,"kjøkkenet":7648,"ye":7649,"undersøkelser":7650,"innom":7651,"stoppet":7652,"likhet":7653,"tilknytning":7654,"Produ":7655,"##sion":7656,"##setningen":7657,"##tede":7658,"##AP":7659,"Lag":7660,"Fotball":7661,"Emil":7662,"tilnær":7663,"sidan":7664,"falle":7665,"teksten":7666,"##iew":7667,"sjef":7668,"##sjef":7669,"pasienten":7670,"kjel":7671,"konkrete":7672,"Ellen":7673,"Strøm":7674,"##aktør":7675,"On":7676,"såg":7677,"greit":7678,"##arbeidere":7679,"kontrakt":7680,"iv":7681,"##plasser":7682,"solid":7683,"les":7684,"tidleg":7685,"##brit":7686,"EM":7687,"fremmed":7688,"rund":7689,"##arene":7690,"brød":7691,"##iens":7692,"##mmet":7693,"gård":7694,"##RU":7695,"uken":7696,"tilsy":7697,"potensi":7698,"virkeligheten":7699,"Grat":7700,"følelser":7701,"fris":7702,"naturligvis":7703,"skader":7704,"student":7705,"egg":7706,"##cke":7707,"##isker":7708,"##skost":7709,"##AK":7710,"##uf":7711,"igjennom":7712,"##ari":7713,"Dra":7714,"##ati":7715,"fabri":7716,"##gress":7717,"##ology":7718,"##vald":7719,"##urte":7720,"Vol":7721,"kamera":7722,"##cer":7723,"personlige":7724,"Stock":7725,"Venstre":7726,"Gr":7727,"halsen":7728,"##jul":7729,"Math":7730,"##cus":7731,"UN":7732,"grov":7733,"##minister":7734,"1969":7735,"preste":7736,"ansatt":7737,"gass":7738,"oppleve":7739,"Just":7740,"hang":7741,"##fug":7742,"fornuft":7743,"henger":7744,"grenser":7745,"##analy":7746,"dagene":7747,"idé":7748,"Son":7749,"generelle":7750,"lærere":7751,"tabell":7752,"his":7753,"praktiske":7754,"avis":7755,"Hell":7756,"##rinsi":7757,"kikket":7758,"disp":7759,"kaste":7760,"Agder":7761,"blo":7762,"fortell":7763,"sover":7764,"kvinnene":7765,"vises":7766,"##jøl":7767,"døra":7768,"radio":7769,"avvik":7770,"Slike":7771,"Big":7772,"År":7773,"##orth":7774,"##fullt":7775,"##vitt":7776,"##stud":7777,"##ward":7778,"##lim":7779,"Kristiansand":7780,"250":7781,"##rykket":7782,"Aug":7783,"mester":7784,"Politiet":7785,"used":7786,"fantastisk":7787,"Telem":7788,"Bang":7789,"regulering":7790,"tilstand":7791,"Norweg":7792,"regnes":7793,"##atur":7794,"kyst":7795,"minner":7796,"hevder":7797,"ledet":7798,"tilfredsstil":7799,"Kå":7800,"oppford":7801,"partiet":7802,"teknisk":7803,"##ible":7804,"møtt":7805,"##book":7806,"mum":7807,"Kunst":7808,"priori":7809,"Nett":7810,"ordfører":7811,"##ografi":7812,"utbygging":7813,"forretnings":7814,"##artet":7815,"levde":7816,"forklarer":7817,"tvers":7818,"oppstår":7819,"##SE":7820,"klage":7821,"foretatt":7822,"drar":7823,"tann":7824,"##sia":7825,"føres":7826,"sannsynligvis":7827,"##sesjon":7828,"Håkon":7829,"##kkelse":7830,"##asjen":7831,"restaur":7832,"NY":7833,"fait":7834,"Rør":7835,"Michael":7836,"##ods":7837,"##olet":7838,"marker":7839,"tide":7840,"forvaltning":7841,"Mål":7842,"erstatning":7843,"Qu":7844,"vegen":7845,"##viten":7846,"fransk":7847,"Pet":7848,"##kro":7849,"##ranser":7850,"##fal":7851,"fritid":7852,"sender":7853,"##kanten":7854,"forster":7855,"arm":7856,"opprettet":7857,"utelu":7858,"##amen":7859,"##veit":7860,"verste":7861,"framover":7862,"Mr":7863,"##ower":7864,"##førsel":7865,"nokon":7866,"peker":7867,"Fram":7868,"skuldrene":7869,"etasje":7870,"##olkning":7871,"Kra":7872,"present":7873,"ettermiddag":7874,"munn":7875,"retningslin":7876,"##sgruppe":7877,"vat":7878,"tung":7879,"Senter":7880,"##bær":7881,"Hos":7882,"Organ":7883,"inspi":7884,"frihet":7885,"kjøper":7886,"male":7887,"debatt":7888,"##rot":7889,"mobil":7890,"foreslår":7891,"traff":7892,"ordning":7893,"Sande":7894,"upp":7895,"##skaps":7896,"oppføl":7897,"færre":7898,"mik":7899,"IL":7900,"utfordringer":7901,"gutter":7902,"ringe":7903,"Klo":7904,"benytte":7905,"samarbeidet":7906,"##gelige":7907,"avslut":7908,"ogsaa":7909,"opplevelse":7910,"meiner":7911,"174":7912,"nogen":7913,"##UT":7914,"##spolit":7915,"spare":7916,"oppfyl":7917,"anses":7918,"rapporten":7919,"##ktivt":7920,"##inst":7921,"negative":7922,"##orier":7923,"regner":7924,"tilta":7925,"varmt":7926,"berør":7927,"##cu":7928,"dame":7929,"##byen":7930,"##skip":7931,"##ENT":7932,"##bør":7933,"Terje":7934,"elektron":7935,"klubben":7936,"##uden":7937,"Inger":7938,"forhånd":7939,"frie":7940,"Show":7941,"Trans":7942,"##amling":7943,"slu":7944,"lod":7945,"fange":7946,"##ded":7947,"AL":7948,"lens":7949,"hemme":7950,"økende":7951,"##eters":7952,"Geir":7953,"UT":7954,"håpet":7955,"posisjon":7956,"samtale":7957,"fremover":7958,"##rence":7959,"Distrikt":7960,"##stolen":7961,"##ope":7962,"bonde":7963,"##famil":7964,"Dø":7965,"plast":7966,"##SL":7967,"##gden":7968,"lam":7969,"strukt":7970,"bygda":7971,"##inns":7972,"##smøte":7973,"##osten":7974,"spilt":7975,"opplevd":7976,"##selskapet":7977,"betalt":7978,"handle":7979,"##arden":7980,"##oene":7981,"oppmerksom":7982,"jen":7983,"kona":7984,"##VER":7985,"dukket":7986,"##astro":7987,"dru":7988,"##nerne":7989,"høyeste":7990,"##beve":7991,"fanget":7992,"##DER":7993,"lab":7994,"##britann":7995,"franske":7996,"ov":7997,"##omer":7998,"arter":7999,"##cted":8000,"##stant":8001,"innlegg":8002,"gifte":8003,"##IF":8004,"Elis":8005,"klima":8006,"##JON":8007,"1971":8008,"europeiske":8009,"Vir":8010,"##ila":8011,"##ØS":8012,"Hjel":8013,"sesong":8014,"ettersom":8015,"pasient":8016,"Cor":8017,"ulik":8018,"laste":8019,"virkning":8020,"Fle":8021,"Willi":8022,"tømmer":8023,"bank":8024,"Rich":8025,"##ista":8026,"Norwegian":8027,"##ump":8028,"##settelse":8029,"beregnet":8030,"##lan":8031,"mulige":8032,"åpenbart":8033,"##ros":8034,"Storbritann":8035,"##kri":8036,"Island":8037,"korre":8038,"some":8039,"forklaring":8040,"uhel":8041,"##avgift":8042,"##mag":8043,"##ness":8044,"##ikere":8045,"sæ":8046,"gjelde":8047,"##komst":8048,"Troms":8049,"skre":8050,"##pes":8051,"let":8052,"##ktøy":8053,"Anton":8054,"Sund":8055,"##havet":8056,"tilrette":8057,"##ivert":8058,"krefter":8059,"sens":8060,"mørket":8061,"gjenopp":8062,"Brø":8063,"nest":8064,"lokalt":8065,"Pres":8066,"aktuelt":8067,"Ør":8068,"drevet":8069,"indi":8070,"##aka":8071,"##benhavn":8072,"##lagte":8073,"pul":8074,"##lyst":8075,"##ield":8076,"ild":8077,"deltok":8078,"##partementets":8079,"klokka":8080,"forske":8081,"rekru":8082,"Kla":8083,"##tegi":8084,"frig":8085,"FR":8086,"##nert":8087,"valget":8088,"Ås":8089,"voksen":8090,"Go":8091,"##rog":8092,"bran":8093,"administrasjon":8094,"grønne":8095,"endte":8096,"##ISK":8097,"fli":8098,"stortings":8099,"Bon":8100,"professor":8101,"##11":8102,"ansvarlig":8103,"bind":8104,"motiv":8105,"##bon":8106,"##inal":8107,"orig":8108,"annon":8109,"act":8110,"Afrika":8111,"respon":8112,"##hr":8113,"skriv":8114,"Føl":8115,"komedie":8116,"tyng":8117,"##mal":8118,"##komme":8119,"oftest":8120,"##dele":8121,"##OK":8122,"kjører":8123,"Kal":8124,"trett":8125,"##øe":8126,"ånde":8127,"tradisjon":8128,"##virke":8129,"Sommer":8130,"Lørdag":8131,"Dr":8132,"##strekning":8133,"korn":8134,"døden":8135,"##knet":8136,"##øpet":8137,"os":8138,"ettersp":8139,"militær":8140,"basis":8141,"kravet":8142,"slutte":8143,"1965":8144,"veier":8145,"##litet":8146,"fel":8147,"leste":8148,"##bakk":8149,"Grunn":8150,"Frp":8151,"Indust":8152,"Ev":8153,"forstand":8154,"##llet":8155,"høve":8156,"##ined":8157,"intel":8158,"##genen":8159,"inntekter":8160,"its":8161,"innflytelse":8162,"##yt":8163,"bestemmer":8164,"bringe":8165,"grunnlaget":8166,"Finans":8167,"emb":8168,"inde":8169,"rygg":8170,"ent":8171,"tankene":8172,"##flaten":8173,"##seg":8174,"Italia":8175,"manglende":8176,"##øn":8177,"##uring":8178,"kontrolle":8179,"foto":8180,"snill":8181,"develop":8182,"##nevnte":8183,"ER":8184,"##ANG":8185,"Noreg":8186,"kommen":8187,"velferd":8188,"super":8189,"##strid":8190,"##penger":8191,"##vekt":8192,"fastsatt":8193,"konflikt":8194,"hom":8195,"##brand":8196,"fylket":8197,"##temat":8198,"Simon":8199,"1968":8200,"##ordin":8201,"nylig":8202,"butikk":8203,"##ato":8204,"svaret":8205,"##forskning":8206,"fremtiden":8207,"kontoret":8208,"##ries":8209,"gjens":8210,"Kristus":8211,"1967":8212,"øl":8213,"##natt":8214,"##hammer":8215,"vog":8216,"Ark":8217,"filmen":8218,"normal":8219,"Nes":8220,"##ppel":8221,"nøy":8222,"##ålene":8223,"skifte":8224,"##talte":8225,"##gjø":8226,"Ring":8227,"Kommun":8228,"dets":8229,"Ger":8230,"eige":8231,"1930":8232,"##ndinger":8233,"kjer":8234,"kome":8235,"rart":8236,"##rafikk":8237,"##merke":8238,"sjo":8239,"godkjent":8240,"Fjell":8241,"Prem":8242,"lest":8243,"Mell":8244,"##senteret":8245,"Kina":8246,"##handlingen":8247,"forsøke":8248,"bes":8249,"##ival":8250,"Ak":8251,"Eiendom":8252,"##slig":8253,"##smål":8254,"faglig":8255,"samling":8256,"krø":8257,"Jose":8258,"1920":8259,"misten":8260,"skru":8261,"Helt":8262,"Od":8263,"Miljø":8264,"sch":8265,"##II":8266,"Rød":8267,"stoppe":8268,"##kkede":8269,"##gruppen":8270,"genera":8271,"Frå":8272,"subje":8273,"NM":8274,"dollar":8275,"pap":8276,"##af":8277,"flag":8278,"##arm":8279,"innholdet":8280,"mønster":8281,"##inke":8282,"konvens":8283,"Dagbladet":8284,"jorda":8285,"Øster":8286,"##kjennelse":8287,"##innen":8288,"##løsning":8289,"##arn":8290,"Gjer":8291,"forsto":8292,"Sara":8293,"fødsel":8294,"##pan":8295,"paralle":8296,"##serne":8297,"##unda":8298,"kvalif":8299,"##wood":8300,"##lement":8301,"##mos":8302,"Sof":8303,"Sett":8304,"tilfellet":8305,"##ligens":8306,"inkludert":8307,"ekteskap":8308,"stabil":8309,"Sunn":8310,"strand":8311,"##ikler":8312,"berg":8313,"##atret":8314,"##ilet":8315,"Sigur":8316,"##vanlig":8317,"totale":8318,"aksjon":8319,"work":8320,"besøke":8321,"##lad":8322,"Utvalget":8323,"bit":8324,"##ndet":8325,"mellem":8326,"glob":8327,"rente":8328,"##ums":8329,"hust":8330,"dyp":8331,"Niel":8332,"tolv":8333,"##onene":8334,"enhet":8335,"legen":8336,"##rape":8337,"kaldt":8338,"Søndag":8339,"situasjoner":8340,"optim":8341,"##amb":8342,"##pres":8343,"sykkel":8344,"sendes":8345,"##irer":8346,"søknad":8347,"beslutning":8348,"new":8349,"kalle":8350,"veks":8351,"løpe":8352,"Nasjon":8353,"frykt":8354,"##minal":8355,"mangel":8356,"kreves":8357,"bon":8358,"##person":8359,"##ologien":8360,"Dahl":8361,"##ENS":8362,"##ligvis":8363,"who":8364,"Rob":8365,"if":8366,"miste":8367,"fordelt":8368,"Fordi":8369,"merk":8370,"henholdsvis":8371,"##sesser":8372,"##æg":8373,"##IR":8374,"700":8375,"danse":8376,"##rich":8377,"##formasjon":8378,"foreslått":8379,"fordeling":8380,"##IM":8381,"##zen":8382,"Fal":8383,"##alderen":8384,"selskaper":8385,"institusjon":8386,"Kristin":8387,"utvid":8388,"sikt":8389,"kritikk":8390,"vedlikehold":8391,"maten":8392,"Ot":8393,"Rolf":8394,"tradisjonelle":8395,"Eit":8396,"Bank":8397,"hug":8398,"brun":8399,"##pix":8400,"##press":8401,"Side":8402,"forbed":8403,"##no":8404,"166":8405,"representant":8406,"Ande":8407,"dans":8408,"Kje":8409,"dr":8410,"tver":8411,"Natur":8412,"human":8413,"##velig":8414,"##likevel":8415,"##høy":8416,"greie":8417,"##identen":8418,"Lok":8419,"leverand":8420,"kyrkje":8421,"vurdert":8422,"representanter":8423,"##ré":8424,"##gers":8425,"bekymret":8426,"##leie":8427,"Bolig":8428,"Lou":8429,"Plan":8430,"nåværende":8431,"##ituasjonen":8432,"##stere":8433,"snu":8434,"aktive":8435,"##bytte":8436,"nevnes":8437,"kring":8438,"Result":8439,"plasse":8440,"Sten":8441,"car":8442,"bin":8443,"ug":8444,"årlig":8445,"suksess":8446,"into":8447,"##åp":8448,"170":8449,"##blemer":8450,"##politikk":8451,"##skinen":8452,"samlede":8453,"##ynam":8454,"Verdens":8455,"Kommune":8456,"fysiske":8457,"Vet":8458,"kunder":8459,"planlagt":8460,"##posisjon":8461,"stål":8462,"172":8463,"bein":8464,"foreløpig":8465,"plante":8466,"advokat":8467,"##åt":8468,"takt":8469,"sjanse":8470,"mekan":8471,"##ney":8472,"hud":8473,"TR":8474,"##add":8475,"Ange":8476,"##gir":8477,"##kamp":8478,"Legg":8479,"##fiske":8480,"Nu":8481,"Neste":8482,"Ned":8483,"hovedsak":8484,"gave":8485,"forsøker":8486,"Wal":8487,"Bjer":8488,"##OD":8489,"Hagen":8490,"##ution":8491,"##bot":8492,"World":8493,"##ips":8494,"forel":8495,"nar":8496,"Port":8497,"##byr":8498,"Storbritannia":8499,"900":8500,"holdes":8501,"Pol":8502,"##ustad":8503,"##stiltak":8504,"##alis":8505,"Pat":8506,"##akse":8507,"anvendelse":8508,"levert":8509,"rekla":8510,"husket":8511,"selvstendig":8512,"teknologi":8513,"##riluft":8514,"two":8515,"##hu":8516,"hesten":8517,"##ikten":8518,"Universitetet":8519,"##rensen":8520,"avsluttet":8521,"hage":8522,"sed":8523,"Ellers":8524,"##gjorde":8525,"maa":8526,"himmel":8527,"tilby":8528,"forvir":8529,"##cle":8530,"##etting":8531,"vendte":8532,"##ukt":8533,"Solberg":8534,"inngår":8535,"kjenn":8536,"##smo":8537,"konfe":8538,"Ofte":8539,"##lefon":8540,"Ze":8541,"landene":8542,"partene":8543,"Ib":8544,"studier":8545,"##ssam":8546,"myndighetene":8547,"Telemark":8548,"Kri":8549,"such":8550,"jenta":8551,"forlen":8552,"heime":8553,"##lever":8554,"søster":8555,"##sentra":8556,"treng":8557,"stikk":8558,"smak":8559,"Drammen":8560,"overgang":8561,"bruken":8562,"hvisket":8563,"##18":8564,"##løpet":8565,"eventyr":8566,"these":8567,"##sløs":8568,"##gjørelse":8569,"Gå":8570,"##makt":8571,"motsetning":8572,"##ped":8573,"forst":8574,"Tidligere":8575,"innk":8576,"##modig":8577,"Sar":8578,"hverdag":8579,"priser":8580,"sosialt":8581,"sektor":8582,"Sigurd":8583,"elsket":8584,"skjul":8585,"tilhører":8586,"Molde":8587,"Rasmus":8588,"Tar":8589,"starten":8590,"eksisterende":8591,"teori":8592,"##hers":8593,"organisasjonen":8594,"likt":8595,"1964":8596,"myndighet":8597,"etablere":8598,"butikken":8599,"forholdsvis":8600,"gleder":8601,"Hvilke":8602,"Fag":8603,"forfer":8604,"overord":8605,"Sogn":8606,"bærer":8607,"##ssen":8608,"1966":8609,"lykkes":8610,"##ittet":8611,"skrå":8612,"utstrekning":8613,"avd":8614,"about":8615,"Comm":8616,"alb":8617,"utform":8618,"begrepet":8619,"##bygd":8620,"##ira":8621,"##jå":8622,"tyde":8623,"melder":8624,"ordningen":8625,"minutt":8626,"låne":8627,"num":8628,"fellesskap":8629,"##undersøke":8630,"brevet":8631,"enden":8632,"##cis":8633,"##anpix":8634,"##bank":8635,"##aking":8636,"planlegging":8637,"Va":8638,"Sov":8639,"ledelsen":8640,"jentene":8641,"sivil":8642,"beskrevet":8643,"##vernet":8644,"hurtig":8645,"morgenen":8646,"blad":8647,"Hil":8648,"senter":8649,"kjøret":8650,"ødel":8651,"Bok":8652,"eventuelle":8653,"Jar":8654,"offis":8655,"Gun":8656,"overtok":8657,"Kv":8658,"gjere":8659,"yrke":8660,"arbei":8661,"##oven":8662,"Stockholm":8663,"Års":8664,"britiske":8665,"Rune":8666,"##runder":8667,"Hei":8668,"København":8669,"grensen":8670,"##systemet":8671,"##xt":8672,"hytte":8673,"nordmenn":8674,"##handler":8675,"hund":8676,"##hald":8677,"brystet":8678,"kjønns":8679,"observ":8680,"##allfall":8681,"Finland":8682,"Tenk":8683,"hjul":8684,"kysten":8685,"spesiali":8686,"##omme":8687,"utenriks":8688,"NH":8689,"##cebook":8690,"hast":8691,"Dagsnytt":8692,"glemt":8693,"historisk":8694,"KrF":8695,"Arbeiderpartiet":8696,"filosof":8697,"telefonen":8698,"##ya":8699,"##ndens":8700,"##dommer":8701,"lyse":8702,"##OG":8703,"Soc":8704,"påvirke":8705,"feltet":8706,"tabel":8707,"egenskaper":8708,"militære":8709,"nødvendigvis":8710,"Ende":8711,"bestemmelse":8712,"##dte":8713,"syv":8714,"pekte":8715,"aktivt":8716,"staden":8717,"##ulent":8718,"komment":8719,"##boka":8720,"##aer":8721,"mul":8722,"tørr":8723,"talt":8724,"just":8725,"kjo":8726,"AR":8727,"##conom":8728,"##ierne":8729,"hverken":8730,"dessverre":8731,"ledere":8732,"dialog":8733,"nevne":8734,"handlinger":8735,"sprang":8736,"Rand":8737,"##bestemme":8738,"##hagen":8739,"Nic":8740,"liste":8741,"liggende":8742,"##været":8743,"historiske":8744,"Bæ":8745,"##itten":8746,"##handel":8747,"##ated":8748,"##tenes":8749,"##staden":8750,"spel":8751,"Press":8752,"Form":8753,"##stall":8754,"elske":8755,"gaten":8756,"##srett":8757,"Komiteen":8758,"##fallet":8759,"##lier":8760,"enor":8761,"produksjonen":8762,"Øog":8763,"Sverre":8764,"##etning":8765,"Akers":8766,"kjønn":8767,"1961":8768,"vegne":8769,"Harry":8770,"University":8771,"studenter":8772,"særskilt":8773,"##su":8774,"util":8775,"vokste":8776,"Nar":8777,"sittende":8778,"Ob":8779,"##spille":8780,"##umet":8781,"temmelig":8782,"seinare":8783,"landbruks":8784,"Tryg":8785,"bevilg":8786,"radi":8787,"##lish":8788,"forskrift":8789,"forta":8790,"##forsam":8791,"##ærende":8792,"##struktur":8793,"beskriver":8794,"balanse":8795,"##ktøren":8796,"##ferdsel":8797,"##lesund":8798,"Fjord":8799,"prinsippet":8800,"forutsetning":8801,"psykisk":8802,"Europe":8803,"Gri":8804,"alvorlige":8805,"##resp":8806,"sint":8807,"overta":8808,"respe":8809,"komiteen":8810,"Heg":8811,"Enkel":8812,"173":8813,"banen":8814,"betaling":8815,"allmenn":8816,"##urnal":8817,"cor":8818,"overrasket":8819,"pusten":8820,"tomme":8821,"behandlingen":8822,"klassen":8823,"spø":8824,"fløy":8825,"##90":8826,"tomt":8827,"jam":8828,"show":8829,"internasjonal":8830,"dannet":8831,"live":8832,"byens":8833,"Hamar":8834,"vende":8835,"##mas":8836,"Råd":8837,"##atsen":8838,"medfører":8839,"##16":8840,"Senere":8841,"omtalt":8842,"Mellom":8843,"mørk":8844,"Ingeborg":8845,"use":8846,"forurens":8847,"Jonas":8848,"##unden":8849,"##vede":8850,"ses":8851,"verdenskri":8852,"##pend":8853,"Utvik":8854,"##sdtr":8855,"##nge":8856,"##oten":8857,"Kapit":8858,"Fredag":8859,"sekund":8860,"Hit":8861,"##fang":8862,"velkommen":8863,"herre":8864,"mass":8865,"metode":8866,"1963":8867,"jevn":8868,"overdra":8869,"##terier":8870,"verdt":8871,"innført":8872,"1946":8873,"holdning":8874,"Rogaland":8875,"##ason":8876,"opphe":8877,"net":8878,"uri":8879,"kunstner":8880,"wo":8881,"##byrå":8882,"skyte":8883,"mottatt":8884,"Ris":8885,"frivillig":8886,"teoret":8887,"##kster":8888,"snare":8889,"##liste":8890,"Elisabeth":8891,"vanskelige":8892,"undersøkelsen":8893,"svensk":8894,"##redskap":8895,"James":8896,"tapt":8897,"Holm":8898,"grader":8899,"fik":8900,"Ingrid":8901,"##igen":8902,"løfte":8903,"engasjer":8904,"Art":8905,"1962":8906,"skiller":8907,"kok":8908,"grundig":8909,"##ged":8910,"##bjør":8911,"##tain":8912,"mengde":8913,"##ior":8914,"Hvilken":8915,"##givning":8916,"kvad":8917,"##bin":8918,"West":8919,"innvand":8920,"spa":8921,"ordent":8922,"Høye":8923,"##sch":8924,"nom":8925,"##asen":8926,"sykehuset":8927,"ånd":8928,"##UM":8929,"##inav":8930,"umiddelbart":8931,"##rul":8932,"##inerte":8933,"pil":8934,"##ruppa":8935,"Hard":8936,"##verte":8937,"Aud":8938,"Høg":8939,"##15":8940,"øk":8941,"sho":8942,"Eva":8943,"##ivalen":8944,"fantas":8945,"nordiske":8946,"##slam":8947,"##års":8948,"##ison":8949,"bestand":8950,"betin":8951,"##unge":8952,"Karen":8953,"felle":8954,"vitenskape":8955,"boliger":8956,"musik":8957,"bortsett":8958,"##cher":8959,"##iteens":8960,"verdien":8961,"sekunder":8962,"hevdet":8963,"konkl":8964,"områdene":8965,"##rinn":8966,"##lom":8967,"hemmelig":8968,"##feltet":8969,"synlig":8970,"only":8971,"fylte":8972,"##jerte":8973,"engelske":8974,"Bestemme":8975,"egnet":8976,"skam":8977,"nådde":8978,"##UD":8979,"##LER":8980,"Arn":8981,"##skab":8982,"kjørt":8983,"Torsdag":8984,"døgn":8985,"avisen":8986,"enk":8987,"mikro":8988,"brudd":8989,"nyttig":8990,"##mmene":8991,"##smidler":8992,"##ørsmål":8993,"Mari":8994,"punktum":8995,"tilfeldig":8996,"glemme":8997,"konsesjon":8998,"##ungen":8999,"dokumen":9000,"##pla":9001,"trur":9002,"næringslivet":9003,"kamper":9004,"kommunestyret":9005,"trygt":9006,"tjener":9007,"skapte":9008,"Gift":9009,"fö":9010,"eksport":9011,"Felles":9012,"slipper":9013,"infl":9014,"##tal":9015,"##nske":9016,"##uter":9017,"##ural":9018,"bade":9019,"##illed":9020,"##blikk":9021,"##burg":9022,"Fy":9023,"##kkens":9024,"diagn":9025,"##imen":9026,"NC":9027,"boksta":9028,"##bal":9029,"magen":9030,"any":9031,"##ORT":9032,"Svar":9033,"Ungdom":9034,"institusjoner":9035,"kald":9036,"miljøet":9037,"operasjon":9038,"hjalp":9039,"##ligt":9040,"ball":9041,"##igere":9042,"frykte":9043,"110":9044,"tel":9045,"##æs":9046,"tilsk":9047,"##sarbeid":9048,"utfordring":9049,"##hard":9050,"eiendommen":9051,"vokser":9052,"besl":9053,"##19":9054,"utenlandske":9055,"forsøkt":9056,"proble":9057,"Fru":9058,"tingene":9059,"##akk":9060,"##sterett":9061,"rollene":9062,"styring":9063,"##aksjon":9064,"resultatene":9065,"Person":9066,"##itive":9067,"alternative":9068,"begra":9069,"Johanne":9070,"##rdet":9071,"unntatt":9072,"russiske":9073,"##fast":9074,"Romsdal":9075,"##ordet":9076,"Bal":9077,"Arti":9078,"godkjen":9079,"bakover":9080,"øyeblikket":9081,"hvile":9082,"tone":9083,"##lend":9084,"søkte":9085,"##asker":9086,"matemat":9087,"1948":9088,"Erling":9089,"##stasjon":9090,"fylle":9091,"##lekt":9092,"##film":9093,"##renn":9094,"##out":9095,"##ini":9096,"##visst":9097,"Not":9098,"Tur":9099,"ita":9100,"pause":9101,"divisjon":9102,"##stikk":9103,"karrie":9104,"##aksen":9105,"##byggingen":9106,"debatten":9107,"handels":9108,"underholdning":9109,"##gede":9110,"forutsetter":9111,"##skiftet":9112,"LO":9113,"##tine":9114,"danner":9115,"dik":9116,"Mac":9117,"sakene":9118,"opps":9119,"##splikt":9120,"melde":9121,"##hi":9122,"SSSS":9123,"Teg":9124,"Meg":9125,"amerikansk":9126,"##ogen":9127,"spec":9128,"skilt":9129,"beholde":9130,"##onger":9131,"vaske":9132,"statens":9133,"Ali":9134,"##fé":9135,"##snyheter":9136,"##bus":9137,"terror":9138,"skjeb":9139,"##gaver":9140,"møtes":9141,"forstyr":9142,"Særlig":9143,"opplevde":9144,"berø":9145,"opprinnelig":9146,"iallfall":9147,"##sningene":9148,"irri":9149,"slen":9150,"##snivå":9151,"leke":9152,"##off":9153,"arbeidsgiver":9154,"reaksjon":9155,"hon":9156,"##ynet":9157,"##pit":9158,"veiledning":9159,"forplikte":9160,"Juli":9161,"Bill":9162,"##nningen":9163,"kjæ":9164,"stiv":9165,"##kommer":9166,"Ir":9167,"##idd":9168,"##andinav":9169,"Dis":9170,"Vold":9171,"##nna":9172,"solgte":9173,"##foreningen":9174,"flotte":9175,"innbyggere":9176,"##ilig":9177,"leilighet":9178,"iverks":9179,"aktører":9180,"tunne":9181,"ressurs":9182,"villig":9183,"##sedy":9184,"dårlige":9185,"kritisk":9186,"Pub":9187,"medlemmene":9188,"##ligheter":9189,"ulov":9190,"stolen":9191,"metoder":9192,"bokstav":9193,"vitne":9194,"when":9195,"kontin":9196,"Gust":9197,"selger":9198,"betraktet":9199,"varierer":9200,"##kontoret":9201,"konsert":9202,"Brann":9203,"##repet":9204,"lek":9205,"faglige":9206,"understreker":9207,"Home":9208,"bane":9209,"##taket":9210,"Små":9211,"lyder":9212,"sorg":9213,"fat":9214,"Hand":9215,"##BER":9216,"dømt":9217,"entre":9218,"Richard":9219,"##fisert":9220,"##mis":9221,"##EC":9222,"smiler":9223,"Eksemp":9224,"antar":9225,"Iver":9226,"##ksus":9227,"##skva":9228,"est":9229,"##12":9230,"Mol":9231,"Østfold":9232,"Master":9233,"cir":9234,"shall":9235,"##anerne":9236,"ing":9237,"##seende":9238,"##lund":9239,"Få":9240,"1947":9241,"kalde":9242,"betre":9243,"Sandnes":9244,"Kun":9245,"Fu":9246,"##IC":9247,"glade":9248,"stillinger":9249,"Ålesund":9250,"1956":9251,"Eriksen":9252,"omstendig":9253,"Ton":9254,"##kets":9255,"dokumentarserie":9256,"Johnsen":9257,"retningslinjer":9258,"Prin":9259,"different":9260,"##skoler":9261,"Jack":9262,"##uta":9263,"støv":9264,"tillatelse":9265,"formue":9266,"mørkt":9267,"øya":9268,"##vang":9269,"##nst":9270,"lurte":9271,"samtykke":9272,"trinn":9273,"##mun":9274,"solen":9275,"elva":9276,"Nik":9277,"lede":9278,"hittil":9279,"##oph":9280,"daglige":9281,"count":9282,"jurid":9283,"toget":9284,"##yldig":9285,"Ang":9286,"##iseringen":9287,"Leif":9288,"rammet":9289,"hjemmet":9290,"##banken":9291,"Jap":9292,"Berlin":9293,"behandles":9294,"##fs":9295,"##haugen":9296,"utarbeidet":9297,"##VE":9298,"Rosen":9299,"##iar":9300,"##bler":9301,"jernbane":9302,"forskrifter":9303,"kalte":9304,"##eta":9305,"harde":9306,"mangfold":9307,"kommunens":9308,"vinden":9309,"kret":9310,"##syke":9311,"##smøtet":9312,"Gjø":9313,"Møre":9314,"##stig":9315,"oppgitt":9316,"avtaler":9317,"vinner":9318,"##sleder":9319,"##ynt":9320,"fingrene":9321,"EØS":9322,"Spørsmålet":9323,"bryst":9324,"merkelig":9325,"vurderes":9326,"Hør":9327,"Flo":9328,"##landsk":9329,"metall":9330,"##myndig":9331,"##unnskap":9332,"##sprosessen":9333,"Che":9334,"temperatur":9335,"bjør":9336,"##reen":9337,"kast":9338,"hellige":9339,"religion":9340,"bytte":9341,"fett":9342,"detalj":9343,"##hengige":9344,"Lie":9345,"fersk":9346,"Fi":9347,"behøver":9348,"befinner":9349,"##jæ":9350,"##tekn":9351,"##40":9352,"##moen":9353,"##fir":9354,"##planen":9355,"bri":9356,"Hi":9357,"##slige":9358,"gram":9359,"##blant":9360,"anty":9361,"scenen":9362,"rec":9363,"##anden":9364,"160":9365,"Hold":9366,"line":9367,"Off":9368,"##IKK":9369,"bistand":9370,"utvidet":9371,"skipet":9372,"uen":9373,"merker":9374,"nerv":9375,"hog":9376,"##MS":9377,"##speri":9378,"##lagene":9379,"tilskudd":9380,"mengder":9381,"where":9382,"pet":9383,"utføres":9384,"##aret":9385,"##siktige":9386,"Lud":9387,"##mmede":9388,"dete":9389,"IS":9390,"##mental":9391,"pens":9392,"##agram":9393,"Antall":9394,"innle":9395,"##kampen":9396,"1959":9397,"GR":9398,"gn":9399,"passet":9400,"riktige":9401,"presten":9402,"utenom":9403,"guttene":9404,"fremmede":9405,"Champ":9406,"allikevel":9407,"##nas":9408,"##stilte":9409,"aksjer":9410,"giftet":9411,"1957":9412,"spurt":9413,"##remt":9414,"takket":9415,"Theory":9416,"innsp":9417,"Tri":9418,"##jorte":9419,"spillere":9420,"reisen":9421,"##bøker":9422,"Storting":9423,"utslipp":9424,"svake":9425,"##ighets":9426,"##ants":9427,"1952":9428,"Sjå":9429,"inngå":9430,"August":9431,"samband":9432,"samisk":9433,"real":9434,"##mand":9435,"##iret":9436,"##ality":9437,"##strå":9438,"klasser":9439,"Stø":9440,"oppfølging":9441,"##jern":9442,"##boks":9443,"Trump":9444,"##stal":9445,"##LA":9446,"Akershus":9447,"favor":9448,"skiftet":9449,"Moss":9450,"Kåre":9451,"forebyg":9452,"dekker":9453,"##strukt":9454,"hæ":9455,"midlertidig":9456,"##ordninger":9457,"International":9458,"Mennes":9459,"trykket":9460,"Lange":9461,"tallene":9462,"##høg":9463,"betaler":9464,"gjennem":9465,"Top":9466,"##nson":9467,"andres":9468,"festet":9469,"rammer":9470,"htt":9471,"faktorer":9472,"Kristoffer":9473,"etterspør":9474,"døy":9475,"Cl":9476,"1939":9477,"Sin":9478,"Aas":9479,"##system":9480,"1958":9481,"tegne":9482,"laga":9483,"##sborg":9484,"##ady":9485,"Rt":9486,"klin":9487,"Knud":9488,"beskytte":9489,"last":9490,"forlot":9491,"toll":9492,"misjon":9493,"##IST":9494,"1955":9495,"domine":9496,"erver":9497,"##revis":9498,"forretning":9499,"Lillehammer":9500,"Lå":9501,"bygges":9502,"deltar":9503,"dekning":9504,"medan":9505,"Ener":9506,"frivillige":9507,"snur":9508,"##inter":9509,"##giften":9510,"Spania":9511,"seie":9512,"mal":9513,"##kking":9514,"skum":9515,"##17":9516,"gjera":9517,"internasjonalt":9518,"##behov":9519,"##letter":9520,"autor":9521,"##jefen":9522,"støy":9523,"peke":9524,"svin":9525,"Øvre":9526,"kjerne":9527,"spiser":9528,"##lings":9529,"søvn":9530,"forklarte":9531,"ille":9532,"tab":9533,"jur":9534,"parkering":9535,"ulykke":9536,"fal":9537,"turist":9538,"##klager":9539,"antas":9540,"tegnet":9541,"bis":9542,"##kler":9543,"##ago":9544,"henvende":9545,"lige":9546,"delte":9547,"##ningens":9548,"Skole":9549,"stasjon":9550,"Hauges":9551,"århundre":9552,"kommunal":9553,"##amet":9554,"##skerne":9555,"##markedet":9556,"hyp":9557,"##utstyr":9558,"1949":9559,"Nav":9560,"verdif":9561,"tilfredsstillende":9562,"War":9563,"Akkurat":9564,"##isene":9565,"##habil":9566,"klassi":9567,"AB":9568,"samtlige":9569,"##ffel":9570,"cont":9571,"romant":9572,"##foss":9573,"hull":9574,"helgen":9575,"mumlet":9576,"utg":9577,"eine":9578,"huden":9579,"pent":9580,"antallet":9581,"lyden":9582,"##avdelingen":9583,"gråt":9584,"Hotel":9585,"Prø":9586,"flø":9587,"skriftlig":9588,"symbol":9589,"ukjent":9590,"##ugge":9591,"språket":9592,"typisk":9593,"betrakt":9594,"##rapp":9595,"bøyde":9596,"fungere":9597,"##idig":9598,"Hammer":9599,"Wa":9600,"##ÆR":9601,"##sektoren":9602,"##iva":9603,"undert":9604,"##meter":9605,"Været":9606,"minnet":9607,"##fort":9608,"stilles":9609,"dimens":9610,"diskusjon":9611,"politikere":9612,"sida":9613,"Kort":9614,"##dann":9615,"sympt":9616,"barndom":9617,"lykkelig":9618,"engasjement":9619,"##angeli":9620,"organisert":9621,"bens":9622,"gry":9623,"##itar":9624,"##gard":9625,"1953":9626,"partic":9627,"modellen":9628,"##forn":9629,"##ctions":9630,"##litte":9631,"##OMM":9632,"uh":9633,"Tøns":9634,"brenne":9635,"introdu":9636,"naturlige":9637,"Dagens":9638,"EF":9639,"non":9640,"Grøn":9641,"bryte":9642,"oblig":9643,"##sting":9644,"Bjar":9645,"##tlige":9646,"byer":9647,"kvi":9648,"Enkelte":9649,"konsta":9650,"kommand":9651,"pannen":9652,"innan":9653,"##nneteg":9654,"Amund":9655,"Georg":9656,"Kont":9657,"Tiden":9658,"mur":9659,"gjenstand":9660,"##klo":9661,"medføre":9662,"Hum":9663,"bildene":9664,"los":9665,"US":9666,"##cr":9667,"anlegget":9668,"Grim":9669,"reality":9670,"synet":9671,"##ETT":9672,"trappen":9673,"hove":9674,"##biler":9675,"relevant":9676,"trist":9677,"##ENE":9678,"jev":9679,"opprør":9680,"##bers":9681,"119":9682,"konklu":9683,"##omet":9684,"incre":9685,"asyl":9686,"medier":9687,"##appar":9688,"Fredrikstad":9689,"##chn":9690,"verdenskrig":9691,"MAR":9692,"forny":9693,"hushold":9694,"dekk":9695,"identitet":9696,"Onsdag":9697,"##båt":9698,"forandret":9699,"arbeidsmiljø":9700,"musikken":9701,"##delinger":9702,"Los":9703,"##bed":9704,"Foren":9705,"Kim":9706,"video":9707,"Ask":9708,"MED":9709,"belast":9710,"Musikk":9711,"##ituasjon":9712,"##spillet":9713,"##hodet":9714,"dus":9715,"##fle":9716,"forskjeller":9717,"##GE":9718,"gjennomføres":9719,"Foss":9720,"følelsen":9721,"Distriktsnyheter":9722,"##vika":9723,"KR":9724,"faktum":9725,"acc":9726,"stengt":9727,"regionen":9728,"truffet":9729,"friluft":9730,"forba":9731,"Max":9732,"kommende":9733,"kreft":9734,"Herre":9735,"##13":9736,"##ool":9737,"firma":9738,"element":9739,"##føreren":9740,"There":9741,"rome":9742,"betydningen":9743,"##punktet":9744,"##dret":9745,"herunder":9746,"bakgrunnen":9747,"##oline":9748,"Brand":9749,"##spar":9750,"William":9751,"øverste":9752,"avgjørelse":9753,"alminnelig":9754,"Siv":9755,"##veig":9756,"CO":9757,"overalt":9758,"religiøse":9759,"ins":9760,"personen":9761,"familier":9762,"##TT":9763,"##øyer":9764,"most":9765,"Hord":9766,"struktur":9767,"##bak":9768,"##AB":9769,"##norsk":9770,"design":9771,"rulle":9772,"##litt":9773,"gammelt":9774,"##fik":9775,"##ylt":9776,"kreditt":9777,"##datter":9778,"Gamle":9779,"jus":9780,"oppgjør":9781,"168":9782,"lengde":9783,"demokrati":9784,"##skuddet":9785,"House":9786,"perfekt":9787,"##ship":9788,"##bedri":9789,"uka":9790,"pur":9791,"konsekvens":9792,"Industri":9793,"Grun":9794,"soldater":9795,"##kunst":9796,"##bund":9797,"##ives":9798,"opprinnelige":9799,"prat":9800,"ødelagt":9801,"lengst":9802,"##sport":9803,"Austra":9804,"hagen":9805,"##go":9806,"koster":9807,"vanleg":9808,"skinn":9809,"datteren":9810,"liter":9811,"lande":9812,"Smith":9813,"idag":9814,"Bur":9815,"##blå":9816,"retur":9817,"forutsetninger":9818,"##somhet":9819,"Nok":9820,"vilt":9821,"bestemmelsene":9822,"##marks":9823,"grønns":9824,"##gin":9825,"##villig":9826,"herr":9827,"levere":9828,"strek":9829,"##perioden":9830,"Pas":9831,"kortere":9832,"reklame":9833,"##vakt":9834,"##urdering":9835,"##ynte":9836,"sort":9837,"##ORD":9838,"brøt":9839,"Ble":9840,"tilbyr":9841,"ie":9842,"Jesu":9843,"hvitt":9844,"Stad":9845,"##fabri":9846,"bestemmelsen":9847,"avfall":9848,"##felle":9849,"Ove":9850,"stress":9851,"Facebook":9852,"beskrivelse":9853,"##løy":9854,"##holt":9855,"##skogen":9856,"stillingen":9857,"##illa":9858,"rase":9859,"kilde":9860,"reguler":9861,"##smyndig":9862,"1954":9863,"arbeidsgi":9864,"Frie":9865,"tidlegare":9866,"ordentlig":9867,"pkt":9868,"##SDAG":9869,"##ude":9870,"##annet":9871,"130":9872,"broren":9873,"uttrykket":9874,"hvorvidt":9875,"bruks":9876,"Brit":9877,"##støtte":9878,"##star":9879,"alminnelige":9880,"nark":9881,"oppgaven":9882,"samtalen":9883,"fattige":9884,"årsak":9885,"Skatte":9886,"hr":9887,"behandle":9888,"Lof":9889,"##onert":9890,"##sve":9891,"Egil":9892,"fisker":9893,"##nytt":9894,"bunn":9895,"sor":9896,"anden":9897,"##HET":9898,"Fer":9899,"Sog":9900,"##krig":9901,"stam":9902,"Ni":9903,"##henger":9904,"group":9905,"##md":9906,"farger":9907,"##skritt":9908,"##skjær":9909,"kolleg":9910,"##vilkår":9911,"him":9912,"##bene":9913,"##øl":9914,"##gata":9915,"oks":9916,"hovedsa":9917,"høres":9918,"##ressen":9919,"eventuell":9920,"Syke":9921,"fordeler":9922,"##bod":9923,"problemene":9924,"proje":9925,"skin":9926,"##inntekt":9927,"lærte":9928,"skjær":9929,"glø":9930,"kunnet":9931,"kapasitet":9932,"atom":9933,"nektet":9934,"Jim":9935,"##itz":9936,"geograf":9937,"tilstede":9938,"slit":9939,"United":9940,"næringsliv":9941,"##els":9942,"kryss":9943,"ss":9944,"lovens":9945,"##stasjonen":9946,"generell":9947,"##hørte":9948,"##hor":9949,"##jing":9950,"##regler":9951,"hur":9952,"bab":9953,"##forstå":9954,"##ivind":9955,"##latende":9956,"##urene":9957,"##ople":9958,"report":9959,"spiste":9960,"##SP":9961,"##ruer":9962,"##irekte":9963,"##ELL":9964,"gunst":9965,"she":9966,"##ledningen":9967,"Kongs":9968,"Gull":9969,"##ntil":9970,"mulighetene":9971,"NAT":9972,"femte":9973,"Lau":9974,"##mennes":9975,"ordre":9976,"Neder":9977,"Målet":9978,"skulderen":9979,"kull":9980,"sviger":9981,"løper":9982,"Even":9983,"vara":9984,"Aftenposten":9985,"##assa":9986,"Borg":9987,"omsetning":9988,"##ross":9989,"##pensjon":9990,"##oes":9991,"billig":9992,"smel":9993,"##oo":9994,"##sons":9995,"Din":9996,"##uering":9997,"III":9998,"preg":9999,"verktøy":10000,"would":10001,"barnehagen":10002,"##sdatter":10003,"null":10004,"Kristen":10005,"halde":10006,"##kapital":10007,"befolkning":10008,"##register":10009,"appro":10010,"opprette":10011,"helg":10012,"##redet":10013,"statlige":10014,"skudd":10015,"Ban":10016,"Eirik":10017,"manns":10018,"Sky":10019,"high":10020,"krise":10021,"stykker":10022,"skrek":10023,"##ått":10024,"dype":10025,"orienter":10026,"##unget":10027,"gjester":10028,"##sgjer":10029,"Pål":10030,"noens":10031,"Ass":10032,"##nu":10033,"##skra":10034,"beskyttelse":10035,"##forbundet":10036,"hunden":10037,"vesle":10038,"pleide":10039,"##prisen":10040,"sikret":10041,"skøy":10042,"##flate":10043,"sannheten":10044,"atter":10045,"##ndre":10046,"##skott":10047,"Allerede":10048,"bisk":10049,"mister":10050,"##ridge":10051,"##uts":10052,"tendens":10053,"Haugesund":10054,"tilbudet":10055,"##kring":10056,"1951":10057,"George":10058,"##kset":10059,"forekommer":10060,"bryll":10061,"Ki":10062,"kve":10063,"enklere":10064,"##ialer":10065,"klubb":10066,"##historie":10067,"faa":10068,"sidene":10069,"tette":10070,"nært":10071,"Nærings":10072,"akk":10073,"well":10074,"##faring":10075,"##helm":10076,"humor":10077,"dansk":10078,"mome":10079,"##kontor":10080,"##brev":10081,"##itor":10082,"retter":10083,"##utdanning":10084,"Plutselig":10085,"##inering":10086,"##åsen":10087,"gjennomføring":10088,"Lise":10089,"##role":10090,"##abler":10091,"##uene":10092,"##rygd":10093,"forbundet":10094,"dommer":10095,"Sven":10096,"1500":10097,"demokrat":10098,"##verdige":10099,"thro":10100,"Jern":10101,"##14":10102,"argument":10103,"##rena":10104,"##æk":10105,"Pi":10106,"##ano":10107,"prom":10108,"saka":10109,"##cri":10110,"kant":10111,"fler":10112,"Arbeids":10113,"smitte":10114,"##søkt":10115,"202":10116,"UK":10117,"##kelen":10118,"rute":10119,"##alys":10120,"uttalelse":10121,"##god":10122,"utk":10123,"forsy":10124,"helset":10125,"##olje":10126,"fyrste":10127,"Sovjet":10128,"##nsp":10129,"Mye":10130,"slutter":10131,"påvirker":10132,"##akon":10133,"Roy":10134,"##ansker":10135,"kolon":10136,"Real":10137,"##PS":10138,"1700":10139,"Fire":10140,"##teret":10141,"##istan":10142,"##ssystemet":10143,"blø":10144,"Hor":10145,"##ep":10146,"Skjø":10147,"##mert":10148,"bedriftene":10149,"prøvd":10150,"tynne":10151,"##vante":10152,"lurt":10153,"reduksjon":10154,"##dagens":10155,"##kling":10156,"##ji":10157,"Asb":10158,"Henry":10159,"bredt":10160,"beina":10161,"sigar":10162,"##faren":10163,"Lig":10164,"serien":10165,"grunne":10166,"friske":10167,"drepe":10168,"##bard":10169,"opprettholde":10170,"sok":10171,"uttalte":10172,"City":10173,"støttet":10174,"prop":10175,"innsikt":10176,"forbru":10177,"betydelige":10178,"##nevnt":10179,"rat":10180,"##andidat":10181,"opphav":10182,"Innen":10183,"Line":10184,"IT":10185,"##blemet":10186,"spørsmålene":10187,"cup":10188,"utnytte":10189,"studere":10190,"Gruppe":10191,"##etta":10192,"level":10193,"foten":10194,"##ux":10195,"##værelse":10196,"##FF":10197,"##nø":10198,"melk":10199,"##mmen":10200,"kanten":10201,"##uset":10202,"annan":10203,"sjansen":10204,"damer":10205,"evig":10206,"How":10207,"##cks":10208,"strategi":10209,"Tønsberg":10210,"##jøring":10211,"bemer":10212,"leiligheten":10213,"sånt":10214,"##geist":10215,"drap":10216,"Mary":10217,"Vig":10218,"brukere":10219,"##rica":10220,"dl":10221,"##ktighet":10222,"SC":10223,"kjennskap":10224,"1938":10225,"elektrisk":10226,"Magne":10227,"beboe":10228,"målt":10229,"should":10230,"##ypt":10231,"Berit":10232,"kostnadene":10233,"institutt":10234,"vo":10235,"right":10236,"##rol":10237,"##splassen":10238,"##unktene":10239,"gøy":10240,"barns":10241,"##sma":10242,"Pors":10243,"##sby":10244,"kvadrat":10245,"bena":10246,"##verdien":10247,"grønn":10248,"lete":10249,"skadet":10250,"sakte":10251,"##ki":10252,"But":10253,"leir":10254,"urett":10255,"Nyg":10256,"antagelig":10257,"kjempet":10258,"strengt":10259,"##snyhetene":10260,"sper":10261,"##ico":10262,"Unn":10263,"Stre":10264,"##jellene":10265,"##mede":10266,"tilpasset":10267,"hensiktsmessig":10268,"que":10269,"##komne":10270,"##ALL":10271,"major":10272,"##cl":10273,"##ili":10274,"##stiller":10275,"regionale":10276,"Rundt":10277,"vurderer":10278,"sammenhengen":10279,"tilsyne":10280,"iso":10281,"##SI":10282,"##grø":10283,"Pan":10284,"##andelen":10285,"##venes":10286,"formen":10287,"##ads":10288,"##ksen":10289,"##knings":10290,"inner":10291,"##lla":10292,"katastro":10293,"Sosial":10294,"påpeker":10295,"automatisk":10296,"Bærum":10297,"Gjør":10298,"##uere":10299,"##ilder":10300,"##smu":10301,"framfor":10302,"India":10303,"ligget":10304,"forresten":10305,"skjøt":10306,"##jal":10307,"##fru":10308,"elles":10309,"sees":10310,"##iget":10311,"forskjellen":10312,"Premier":10313,"banken":10314,"Dagen":10315,"Vestfold":10316,"avde":10317,"vedrørende":10318,"##olen":10319,"kalla":10320,"Samme":10321,"##lane":10322,"stry":10323,"##HE":10324,"minimum":10325,"demonst":10326,"Fir":10327,"plikter":10328,"medie":10329,"##ssystem":10330,"Brun":10331,"onkel":10332,"##udsjettet":10333,"fangst":10334,"##kja":10335,"rab":10336,"##asat":10337,"##sikring":10338,"##bur":10339,"planter":10340,"##illes":10341,"åpning":10342,"##jev":10343,"sav":10344,"Victor":10345,"equ":10346,"vaks":10347,"lød":10348,"kravene":10349,"eitt":10350,"love":10351,"henge":10352,"kjenneteg":10353,"jordbruks":10354,"Try":10355,"##rup":10356,"kilder":10357,"##rale":10358,"Sha":10359,"##bygget":10360,"nettverk":10361,"##ÅR":10362,"##kkar":10363,"brutt":10364,"Ope":10365,"##EB":10366,"spillet":10367,"140":10368,"AP":10369,"##ddet":10370,"##irken":10371,"overvå":10372,"foredrag":10373,"##IA":10374,"##øvrig":10375,"125":10376,"aa":10377,"arkiv":10378,"##ota":10379,"Hilde":10380,"DET":10381,"Sus":10382,"##leve":10383,"musk":10384,"løst":10385,"avgrens":10386,"Skriv":10387,"opptre":10388,"innov":10389,"Otto":10390,"##kko":10391,"unød":10392,"##kårene":10393,"vedte":10394,"vennlig":10395,"spenning":10396,"1936":10397,"##isser":10398,"overført":10399,"##idrett":10400,"hevet":10401,"selskapets":10402,"eigen":10403,"Ron":10404,"Tekn":10405,"##to":10406,"arbeidslivet":10407,"seige":10408,"havne":10409,"brått":10410,"latt":10411,"ph":10412,"##rican":10413,"NCIS":10414,"forstått":10415,"##lot":10416,"drog":10417,"##ience":10418,"arv":10419,"såkalt":10420,"##passe":10421,"##stekn":10422,"##avtale":10423,"perioder":10424,"elven":10425,"fotograf":10426,"Norden":10427,"sb":10428,"fisken":10429,"multi":10430,"112":10431,"period":10432,"##mpel":10433,"hoppet":10434,"##pensasjon":10435,"##ager":10436,"##givende":10437,"priorite":10438,"Uansett":10439,"Edvard":10440,"Alexander":10441,"bosatt":10442,"sjuke":10443,"She":10444,"##itiv":10445,"Tror":10446,"sammenlignet":10447,"syd":10448,"tilsyn":10449,"journalist":10450,"ballen":10451,"tante":10452,"held":10453,"forlate":10454,"takke":10455,"særlige":10456,"ringer":10457,"change":10458,"ivrig":10459,"##lyn":10460,"##porten":10461,"169":10462,"støtter":10463,"Christen":10464,"KL":10465,"##følelse":10466,"plate":10467,"helvete":10468,"Radio":10469,"desto":10470,"##odden":10471,"Nr":10472,"begrense":10473,"separ":10474,"##ittelen":10475,"svakt":10476,"front":10477,"##ington":10478,"sof":10479,"hotellet":10480,"nysgjer":10481,"##sevne":10482,"frist":10483,"gevin":10484,"##kkert":10485,"vunnet":10486,"maksim":10487,"sim":10488,"##vog":10489,"##lset":10490,"komple":10491,"Rik":10492,"pin":10493,"##skifte":10494,"##iten":10495,"resul":10496,"##viste":10497,"utdannings":10498,"##gaven":10499,"materialet":10500,"gradvis":10501,"##ulture":10502,"varsel":10503,"Aut":10504,"Endelig":10505,"statsminister":10506,"røyk":10507,"lovet":10508,"Ros":10509,"muligens":10510,"##umin":10511,"trær":10512,"Elekt":10513,"##gri":10514,"Jer":10515,"Hånd":10516,"##sæ":10517,"Espen":10518,"danne":10519,"ombord":10520,"dal":10521,"iste":10522,"årsaken":10523,"main":10524,"##idet":10525,"storm":10526,"effektivt":10527,"##ørs":10528,"Stand":10529,"investeringer":10530,"Holly":10531,"pike":10532,"Sval":10533,"kapitlet":10534,"##skade":10535,"##splanen":10536,"stig":10537,"Tal":10538,"##undes":10539,"Half":10540,"bundet":10541,"##smet":10542,"##stor":10543,"##sych":10544,"##uet":10545,"takknem":10546,"first":10547,"parter":10548,"##sbyg":10549,"velly":10550,"##æv":10551,"Øystein":10552,"skjønne":10553,"bag":10554,"bøkene":10555,"drifts":10556,"##stin":10557,"tips":10558,"Alta":10559,"foster":10560,"##lav":10561,"##anna":10562,"inkl":10563,"benytter":10564,"##amping":10565,"##vanns":10566,"Mitt":10567,"##ied":10568,"holdninger":10569,"seinere":10570,"##ANN":10571,"gled":10572,"them":10573,"beund":10574,"##asken":10575,"søkt":10576,"gym":10577,"##gle":10578,"vor":10579,"media":10580,"##organisasjon":10581,"##fellen":10582,"angår":10583,"##aksjonen":10584,"##elig":10585,"Siste":10586,"oppført":10587,"gas":10588,"°C":10589,"besv":10590,"diskutere":10591,"rekrutter":10592,"mit":10593,"Que":10594,"kå":10595,"utvide":10596,"##kontroll":10597,"deltakelse":10598,"finst":10599,"disip":10600,"skutt":10601,"##stemm":10602,"taushet":10603,"kilo":10604,"Kors":10605,"lenker":10606,"kulturelle":10607,"feste":10608,"##pat":10609,"##ØY":10610,"operat":10611,"Polit":10612,"##fritt":10613,"bygninger":10614,"##ØN":10615,"Mandag":10616,"overfl":10617,"løpende":10618,"nettet":10619,"innrøm":10620,"##nam":10621,"parad":10622,"ender":10623,"##prest":10624,"buss":10625,"Dal":10626,"Nam":10627,"Lis":10628,"kru":10629,"tydeligvis":10630,"forbry":10631,"##ffic":10632,"Bol":10633,"hat":10634,"##politikken":10635,"1942":10636,"negativ":10637,"tål":10638,"vegg":10639,"Super":10640,"##spel":10641,"##skrav":10642,"styrer":10643,"tolk":10644,"##retninger":10645,"naar":10646,"trygge":10647,"##kap":10648,"nyhet":10649,"foreslo":10650,"Går":10651,"Blir":10652,"artikkelen":10653,"##direktoratet":10654,"nære":10655,"tvi":10656,"##rae":10657,"sørget":10658,"lytte":10659,"##ritt":10660,"Svend":10661,"realit":10662,"Nø":10663,"Nyhetene":10664,"drakk":10665,"Bern":10666,"koord":10667,"krevende":10668,"troe":10669,"Nytt":10670,"arbeidsplasser":10671,"skjen":10672,"hester":10673,"Sportsnyhetene":10674,"##mmel":10675,"Ragnhild":10676,"blodet":10677,"##legen":10678,"gnr":10679,"opplevelser":10680,"1944":10681,"##etil":10682,"##klubb":10683,"im":10684,"##bit":10685,"oppfattet":10686,"onde":10687,"vesentlige":10688,"##bbe":10689,"##boken":10690,"Lunde":10691,"sing":10692,"samarbeide":10693,"##rur":10694,"mog":10695,"epis":10696,"dron":10697,"porn":10698,"eksperi":10699,"##holdes":10700,"blomst":10701,"noensinne":10702,"vurderinger":10703,"Dess":10704,"Marian":10705,"heste":10706,"motsatt":10707,"kniv":10708,"Id":10709,"fleks":10710,"##personer":10711,"##una":10712,"særleg":10713,"bunnen":10714,"begeist":10715,"trygde":10716,"utdannelse":10717,"Astrid":10718,"167":10719,"##represent":10720,"årsaker":10721,"peng":10722,"Sen":10723,"##selskaper":10724,"BR":10725,"aviser":10726,"##rick":10727,"Gustav":10728,"Hill":10729,"##KS":10730,"generasjon":10731,"hjernen":10732,"Bernt":10733,"Kraft":10734,"Tour":10735,"Two":10736,"våknet":10737,"##språk":10738,"bron":10739,"dynam":10740,"##stemt":10741,"strakte":10742,"stram":10743,"##industrien":10744,"Luft":10745,"Hordaland":10746,"##see":10747,"##mellom":10748,"dokumenter":10749,"##medlemmer":10750,"##avisen":10751,"faktor":10752,"hellig":10753,"##uste":10754,"Pr":10755,"ferdige":10756,"Spare":10757,"##klare":10758,"##stjenesten":10759,"##hallen":10760,"seksjon":10761,"betrakte":10762,"##idi":10763,"fremfor":10764,"forventet":10765,"##smessige":10766,"##send":10767,"##anere":10768,"modern":10769,"farten":10770,"kvinnelige":10771,"angst":10772,"yn":10773,"1937":10774,"##rethe":10775,"populære":10776,"vanskeligere":10777,"##vannet":10778,"riktignok":10779,"1941":10780,"moro":10781,"opptil":10782,"kaptein":10783,"##stykke":10784,"Japan":10785,"##kjøring":10786,"sver":10787,"rødt":10788,"anska":10789,"##plos":10790,"Kjer":10791,"tjue":10792,"##ubben":10793,"Haugen":10794,"sukket":10795,"Stu":10796,"Øyvind":10797,"overraskende":10798,"fokuse":10799,"##skjø":10800,"EL":10801,"Aur":10802,"##cation":10803,"164":10804,"livsstil":10805,"Arendal":10806,"ivareta":10807,"bønn":10808,"oppbe":10809,"tverr":10810,"Kristiania":10811,"Berge":10812,"sme":10813,"årlige":10814,"systematisk":10815,"##vide":10816,"Olaf":10817,"Tim":10818,"##gjøring":10819,"##assende":10820,"##viron":10821,"##sområde":10822,"handlet":10823,"##cker":10824,"Canada":10825,"##lovens":10826,"skild":10827,"inni":10828,"pleier":10829,"##leggingen":10830,"##nnis":10831,"Lyng":10832,"Museum":10833,"Asker":10834,"after":10835,"hypp":10836,"libe":10837,"foretas":10838,"skikke":10839,"profil":10840,"hær":10841,"anstren":10842,"beskrive":10843,"universitet":10844,"sank":10845,"Mør":10846,"Tirsdag":10847,"dun":10848,"passasje":10849,"funksjonshe":10850,"##uller":10851,"pust":10852,"Kommunen":10853,"http":10854,"inngått":10855,"tapte":10856,"##fakt":10857,"##ils":10858,"virkelige":10859,"105":10860,"underveis":10861,"viktigere":10862,"Tob":10863,"ideer":10864,"realityserie":10865,"koma":10866,"Ulle":10867,"##områdene":10868,"trang":10869,"##skader":10870,"inten":10871,"innrømme":10872,"##rafikken":10873,"ald":10874,"Ren":10875,"Sw":10876,"innover":10877,"Resultatet":10878,"meas":10879,"koste":10880,"budde":10881,"øvre":10882,"North":10883,"stoffer":10884,"utstilling":10885,"##følgende":10886,"presentert":10887,"165":10888,"FA":10889,"##ighetene":10890,"##feste":10891,"seil":10892,"Arild":10893,"Os":10894,"expe":10895,"utsikt":10896,"##cept":10897,"##kurs":10898,"Wer":10899,"##aken":10900,"hovedsakelig":10901,"enheter":10902,"Skulle":10903,"##miljøet":10904,"appar":10905,"fins":10906,"##personell":10907,"vokse":10908,"vedtaket":10909,"skjønt":10910,"døg":10911,"heldig":10912,"##JE":10913,"Egen":10914,"##derlig":10915,"Fest":10916,"forvaltnings":10917,"partier":10918,"##jener":10919,"NS":10920,"##skre":10921,"##chester":10922,"May":10923,"underlig":10924,"##iest":10925,"##nekker":10926,"bygningen":10927,"velsig":10928,"hustru":10929,"Kli":10930,"dir":10931,"##mmun":10932,"Ud":10933,"term":10934,"lønnsom":10935,"yngste":10936,"fjern":10937,"spy":10938,"pluss":10939,"beite":10940,"raske":10941,"Sarp":10942,"##lisering":10943,"##riller":10944,"anmel":10945,"fjernet":10946,"##odell":10947,"bekreftet":10948,"Frø":10949,"lea":10950,"tykke":10951,"##lått":10952,"##ielt":10953,"samla":10954,"barnets":10955,"##kadem":10956,"Skien":10957,"##NT":10958,"nedgang":10959,"##fting":10960,"Fos":10961,"adresse":10962,"##sdire":10963,"rust":10964,"gule":10965,"##æringen":10966,"##randen":10967,"hytta":10968,"past":10969,"fisket":10970,"##idens":10971,"påvirket":10972,"kollektiv":10973,"diam":10974,"Kjær":10975,"spred":10976,"Vide":10977,"talte":10978,"case":10979,"poteter":10980,"sjeld":10981,"påske":10982,"byene":10983,"humør":10984,"PC":10985,"Rol":10986,"Stol":10987,"signal":10988,"Bedri":10989,"Gabri":10990,"Blom":10991,"revet":10992,"##kr":10993,"##ani":10994,"##GEN":10995,"mak":10996,"salgs":10997,"##trykk":10998,"indirekte":10999,"rettferdig":11000,"minor":11001,"##bid":11002,"##ksjonene":11003,"administrative":11004,"kø":11005,"what":11006,"##eltet":11007,"kall":11008,"##arter":11009,"vakkert":11010,"fordø":11011,"##ubb":11012,"bruket":11013,"arbeidskraft":11014,"tyve":11015,"KJ":11016,"##onent":11017,"forferdelig":11018,"offer":11019,"##vunnet":11020,"Roger":11021,"dårligere":11022,"RE":11023,"py":11024,"overve":11025,"##kva":11026,"General":11027,"##seringen":11028,"##smar":11029,"##sjekter":11030,"##leik":11031,"utgitt":11032,"##pping":11033,"fjø":11034,"##dellen":11035,"andelen":11036,"##ological":11037,"betydde":11038,"stoffet":11039,"##deb":11040,"trodd":11041,"funksjoner":11042,"##rate":11043,"1918":11044,"læreren":11045,"##basert":11046,"nådd":11047,"##rap":11048,"##ism":11049,"##dahl":11050,"dommen":11051,"smale":11052,"reduseres":11053,"##sforhold":11054,"##serien":11055,"##leggelse":11056,"hendelser":11057,"vedlegg":11058,"oppstå":11059,"Kilde":11060,"forsvare":11061,"fremgår":11062,"igang":11063,"follow":11064,"forsikring":11065,"dam":11066,"halve":11067,"tabellen":11068,"vatn":11069,"Aker":11070,"American":11071,"Skar":11072,"dato":11073,"both":11074,"hendte":11075,"attra":11076,"##time":11077,"pant":11078,"kombinasjon":11079,"Jacobsen":11080,"stjerne":11081,"##xe":11082,"Wik":11083,"##ierte":11084,"radik":11085,"##gåver":11086,"Sentral":11087,"rektor":11088,"foretak":11089,"truet":11090,"##brig":11091,"Heller":11092,"Lære":11093,"begrep":11094,"oppgaver":11095,"##likop":11096,"besluttet":11097,"make":11098,"Arbeidet":11099,"##berget":11100,"##ssing":11101,"aspe":11102,"1935":11103,"Velkommen":11104,"skolene":11105,"stif":11106,"Eide":11107,"study":11108,"kysset":11109,"sem":11110,"Stats":11111,"102":11112,"punkter":11113,"tilsynelatende":11114,"Ald":11115,"##betaling":11116,"satse":11117,"##liten":11118,"Pla":11119,"føttene":11120,"##virksomheten":11121,"bibliotek":11122,"##result":11123,"##usten":11124,"skuespiller":11125,"forhandlinger":11126,"leger":11127,"##smiljø":11128,"Lev":11129,"##sser":11130,"befant":11131,"##rening":11132,"##ylde":11133,"OM":11134,"flink":11135,"brede":11136,"stanse":11137,"forsvinner":11138,"derved":11139,"##scar":11140,"##ops":11141,"##splass":11142,"rd":11143,"##cip":11144,"1914":11145,"##fond":11146,"##illing":11147,"usikkerhet":11148,"##kal":11149,"Stortingets":11150,"tår":11151,"kines":11152,"Deri":11153,"Cent":11154,"hvorav":11155,"overens":11156,"Journal":11157,"Nasjonal":11158,"ryn":11159,"lomme":11160,"Bud":11161,"gruppene":11162,"revisjon":11163,"funda":11164,"psykiske":11165,"##utviklingen":11166,"Funn":11167,"engasjert":11168,"##regn":11169,"narkot":11170,"løsningen":11171,"ordinære":11172,"ungene":11173,"beveget":11174,"Cat":11175,"Bygg":11176,"##bilde":11177,"lente":11178,"simp":11179,"fos":11180,"forholde":11181,"OPP":11182,"greier":11183,"##tales":11184,"kommentar":11185,"involvert":11186,"rettferd":11187,"##alth":11188,"pal":11189,"1943":11190,"utgjorde":11191,"##iff":11192,"##agement":11193,"virkelighet":11194,"enighet":11195,"individuelle":11196,"social":11197,"##stens":11198,"Dat":11199,"know":11200,"representert":11201,"meldt":11202,"såpass":11203,"Faren":11204,"##kningene":11205,"##aene":11206,"bygging":11207,"organer":11208,"Kristiansen":11209,"Forf":11210,"##reres":11211,"##ét":11212,"Mob":11213,"##slø":11214,"brem":11215,"##sområdet":11216,"lim":11217,"eksisterer":11218,"skjult":11219,"menneskelige":11220,"Fakt":11221,"Sur":11222,"##raksis":11223,"##retningen":11224,"dømme":11225,"##veggen":11226,"ere":11227,"eta":11228,"politikerne":11229,"##bildet":11230,"Gunder":11231,"Lat":11232,"personell":11233,"Helene":11234,"Fem":11235,"118":11236,"konkurransen":11237,"##revyen":11238,"##nast":11239,"havnet":11240,"##ious":11241,"meldte":11242,"Adam":11243,"es":11244,"utvikler":11245,"styrker":11246,"pleie":11247,"##ILL":11248,"lyttet":11249,"Lær":11250,"funn":11251,"nøkkel":11252,"hjørnet":11253,"sammenlik":11254,"1917":11255,"##vinne":11256,"varmen":11257,"##cs":11258,"uni":11259,"##liserte":11260,"utgave":11261,"Vann":11262,"aust":11263,"fase":11264,"Jfr":11265,"definert":11266,"##ialet":11267,"veget":11268,"Kristine":11269,"##smiddel":11270,"studentene":11271,"##pren":11272,"##iska":11273,"kors":11274,"uende":11275,"betal":11276,"sjølve":11277,"##ærene":11278,"føde":11279,"utbytte":11280,"vedtok":11281,"##alisert":11282,"kontrollere":11283,"prinsipp":11284,"rekker":11285,"##ibil":11286,"rest":11287,"##uri":11288,"##lymp":11289,"Viking":11290,"##skjema":11291,"##mak":11292,"tjenesten":11293,"##forsvar":11294,"redaktør":11295,"NAV":11296,"ledende":11297,"##nset":11298,"##ummen":11299,"##oget":11300,"Svalbard":11301,"Programleder":11302,"You":11303,"115":11304,"##stuen":11305,"col":11306,"##istent":11307,"driften":11308,"Asbjørn":11309,"##rapport":11310,"##tn":11311,"Sarpsborg":11312,"utgiftene":11313,"##yns":11314,"Ske":11315,"##skiner":11316,"##ån":11317,"arbeidsmar":11318,"TOR":11319,"##oter":11320,"uden":11321,"##uli":11322,"kontant":11323,"Efter":11324,"kontinuer":11325,"eksamen":11326,"Steinar":11327,"buk":11328,"Australia":11329,"samtaler":11330,"stk":11331,"1600":11332,"såret":11333,"ulem":11334,"##veksten":11335,"mjøl":11336,"Hauge":11337,"bidratt":11338,"##psjon":11339,"komité":11340,"activ":11341,"##ykker":11342,"Bot":11343,"gik":11344,"##båten":11345,"ond":11346,"fjorden":11347,"rasende":11348,"##usjonene":11349,"##uv":11350,"##musikk":11351,"##ume":11352,"dip":11353,"alderen":11354,"drømme":11355,"##komiteen":11356,"dukker":11357,"##givelser":11358,"##ventyr":11359,"sykehjem":11360,"deles":11361,"##kenes":11362,"politikken":11363,"1933":11364,"blanding":11365,"Kjel":11366,"unnskyld":11367,"trenings":11368,"finger":11369,"gripe":11370,"rime":11371,"##hjul":11372,"foregikk":11373,"sammenhenger":11374,"##andel":11375,"hydro":11376,"elementer":11377,"organisering":11378,"MA":11379,"tele":11380,"trafikken":11381,"##ygen":11382,"##reise":11383,"##nelser":11384,"tidspunktet":11385,"##mate":11386,"cel":11387,"sjekke":11388,"##yes":11389,"##fat":11390,"grønt":11391,"plant":11392,"flat":11393,"standpunkt":11394,"##rong":11395,"leppene":11396,"overt":11397,"##maskin":11398,"nåde":11399,"##stue":11400,"atten":11401,"historier":11402,"tiår":11403,"hopp":11404,"Sir":11405,"spesif":11406,"##rapi":11407,"through":11408,"raskere":11409,"framleis":11410,"##dering":11411,"##sdepartementet":11412,"aar":11413,"Fylkesmannen":11414,"glas":11415,"##ée":11416,"Kvi":11417,"dagar":11418,"protok":11419,"1910":11420,"##undervisning":11421,"kundene":11422,"trom":11423,"sykdommer":11424,"overskudd":11425,"forsikrings":11426,"dramaserie":11427,"##sling":11428,"arrangert":11429,"forberedt":11430,"undervisnings":11431,"kalk":11432,"##anes":11433,"106":11434,"##gler":11435,"pakke":11436,"Kapittel":11437,"##isky":11438,"samvitt":11439,"tøy":11440,"lit":11441,"##lederen":11442,"Nielsen":11443,"##kester":11444,"eksped":11445,"skjule":11446,"seri":11447,"lør":11448,"deilig":11449,"lurer":11450,"##anny":11451,"Roma":11452,"sinn":11453,"Øde":11454,"eksper":11455,"Tys":11456,"vern":11457,"Sun":11458,"bly":11459,"162":11460,"1905":11461,"##odd":11462,"tenkes":11463,"forsvarlig":11464,"Moe":11465,"##rerende":11466,"verb":11467,"datama":11468,"DAG":11469,"Ett":11470,"hjemmel":11471,"bær":11472,"koke":11473,"Kontakt":11474,"##velt":11475,"sog":11476,"##righet":11477,"fotogra":11478,"fornuftig":11479,"Lys":11480,"##99":11481,"damp":11482,"forbruker":11483,"betalte":11484,"##sendt":11485,"uttalt":11486,"lederen":11487,"tykk":11488,"krimin":11489,"##fødte":11490,"##ktivitet":11491,"Miss":11492,"##slått":11493,"##stilles":11494,"##fare":11495,"Godt":11496,"##jetil":11497,"bekrefter":11498,"##amper":11499,"trygghet":11500,"Pettersen":11501,"good":11502,"testa":11503,"Black":11504,"forbruk":11505,"Bibelen":11506,"##råden":11507,"##feil":11508,"Jean":11509,"liden":11510,"Røy":11511,"Hollywood":11512,"##ullt":11513,"dum":11514,"treffer":11515,"Mrs":11516,"från":11517,"Kristi":11518,"scene":11519,"myr":11520,"Stord":11521,"nasjonalt":11522,"##oto":11523,"##veksling":11524,"resept":11525,"Blo":11526,"##inalen":11527,"eide":11528,"##menne":11529,"104":11530,"Sandefjord":11531,"labor":11532,"King":11533,"flyet":11534,"truleg":11535,"Spesielt":11536,"flyktninger":11537,"Bob":11538,"medisinsk":11539,"##jan":11540,"arve":11541,"dokumentasjon":11542,"Blå":11543,"nytta":11544,"fien":11545,"##haver":11546,"køy":11547,"tyskerne":11548,"##agerer":11549,"utarbeide":11550,"Myr":11551,"##mør":11552,"forventninger":11553,"##klin":11554,"lufta":11555,"angrepet":11556,"##mming":11557,"nærmet":11558,"tørket":11559,"bryter":11560,"cal":11561,"##istens":11562,"ordnet":11563,"dekar":11564,"##bibliote":11565,"##avtalen":11566,"HV":11567,"stikke":11568,"listen":11569,"Karin":11570,"##ativer":11571,"ønskelig":11572,"omfatte":11573,"begjær":11574,"malt":11575,"opplysning":11576,"##bolig":11577,"islam":11578,"linjer":11579,"tilsier":11580,"##ettelse":11581,"tynn":11582,"deltakerne":11583,"##bjørg":11584,"##asis":11585,"Joe":11586,"gol":11587,"true":11588,"##fet":11589,"øverst":11590,"##verse":11591,"overføring":11592,"kjæreste":11593,"##BE":11594,"##gangsmå":11595,"##tekst":11596,"##aktig":11597,"##roll":11598,"etablerte":11599,"angri":11600,"Chris":11601,"##forvalt":11602,"heldt":11603,"klat":11604,"App":11605,"##ttar":11606,"anvendes":11607,"dags":11608,"platt":11609,"Økonom":11610,"menneskerett":11611,"dry":11612,"klærne":11613,"##anlegget":11614,"Die":11615,"gut":11616,"cell":11617,"ull":11618,"Helle":11619,"vender":11620,"Adresse":11621,"##utgifter":11622,"##vandre":11623,"virksomheter":11624,"##lysninger":11625,"##nete":11626,"##få":11627,"P4":11628,"Star":11629,"##øen":11630,"Syd":11631,"Luc":11632,"arkitekt":11633,"##barhet":11634,"Fast":11635,"##øve":11636,"Imp":11637,"##ialis":11638,"Sco":11639,"etn":11640,"very":11641,"##orium":11642,"oppos":11643,"Pal":11644,"##resjon":11645,"Ting":11646,"engste":11647,"##stua":11648,"arbeidsopp":11649,"drives":11650,"##ilsynet":11651,"##irs":11652,"Avis":11653,"##gd":11654,"##sbet":11655,"##spers":11656,"Bjarne":11657,"bibel":11658,"##rinsippet":11659,"oppfylt":11660,"flytter":11661,"kaster":11662,"##bun":11663,"planene":11664,"uheldig":11665,"##frem":11666,"evangeli":11667,"pepper":11668,"rykket":11669,"##brød":11670,"konstit":11671,"##liga":11672,"klokke":11673,"##GG":11674,"Sex":11675,"add":11676,"angi":11677,"##iger":11678,"sanger":11679,"Styret":11680,"##merat":11681,"mæ":11682,"jød":11683,"103":11684,"Ur":11685,"Hanna":11686,"##ussen":11687,"development":11688,"##iness":11689,"##mord":11690,"uskyld":11691,"##brans":11692,"trekkes":11693,"uvanlig":11694,"##60":11695,"mnd":11696,"##spolitikk":11697,"define":11698,"formiddag":11699,"politid":11700,"termin":11701,"##strø":11702,"Snart":11703,"Jud":11704,"forandring":11705,"##lender":11706,"utlø":11707,"##liggen":11708,"Ku":11709,"begiven":11710,"Imidlertid":11711,"Eksterne":11712,"resol":11713,"##blom":11714,"##flo":11715,"##OP":11716,"process":11717,"Bakke":11718,"Rapport":11719,"kjend":11720,"Gratulerer":11721,"lokalsam":11722,"aff":11723,"##lut":11724,"vanskeleg":11725,"fysi":11726,"107":11727,"interessante":11728,"vanskeligheter":11729,"##denen":11730,"##akne":11731,"108":11732,"krem":11733,"lokaler":11734,"forutsatt":11735,"base":11736,"##radi":11737,"forhandling":11738,"stav":11739,"bely":11740,"vri":11741,"##posisjonen":11742,"entrepren":11743,"overbevist":11744,"##mesteren":11745,"varslet":11746,"##uther":11747,"Halvorsen":11748,"Sigrid":11749,"inngang":11750,"regul":11751,"systemer":11752,"1919":11753,"##mosf":11754,"##sliv":11755,"Grand":11756,"##skrevet":11757,"skygge":11758,"ran":11759,"1927":11760,"dømes":11761,"Medlem":11762,"sådan":11763,"strålende":11764,"##itions":11765,"gjestene":11766,"svømme":11767,"utmerket":11768,"FRA":11769,"Jos":11770,"##inntekter":11771,"Røde":11772,"##mse":11773,"Tør":11774,"tilt":11775,"Voss":11776,"##INN":11777,"beredskap":11778,"##vester":11779,"landskap":11780,"Organis":11781,"registrering":11782,"Friends":11783,"Rud":11784,"ærlig":11785,"Profe":11786,"##gon":11787,"##geland":11788,"Vidar":11789,"Nedre":11790,"Frode":11791,"##rekke":11792,"detaljer":11793,"poss":11794,"enorme":11795,"##klasse":11796,"##useet":11797,"1890":11798,"##nnelse":11799,"Høyesterett":11800,"ET":11801,"rig":11802,"Rese":11803,"sec":11804,"endelige":11805,"##alem":11806,"##UND":11807,"Hennes":11808,"Bergens":11809,"Fjordane":11810,"scanpix":11811,"NOU":11812,"Bonde":11813,"reddet":11814,"##kede":11815,"##row":11816,"prinsipper":11817,"350":11818,"motsatte":11819,"permane":11820,"finansiering":11821,"endel":11822,"dalen":11823,"rakk":11824,"ledig":11825,"Ida":11826,"bevare":11827,"museum":11828,"made":11829,"##ansert":11830,"rollen":11831,"##senten":11832,"utslag":11833,"vesen":11834,"Gjøvik":11835,"##lager":11836,"hete":11837,"Selskapet":11838,"enstemm":11839,"forsin":11840,"personal":11841,"gres":11842,"tildelt":11843,"##pset":11844,"##ami":11845,"##ere":11846,"verket":11847,"kunnskaper":11848,"##skilde":11849,"statistikk":11850,"##utvalg":11851,"Kart":11852,"Engel":11853,"old":11854,"##ministeren":11855,"##tur":11856,"stole":11857,"Charles":11858,"Vo":11859,"døds":11860,"bortover":11861,"dec":11862,"Siri":11863,"##post":11864,"innslag":11865,"##jorde":11866,"ødelegge":11867,"##vt":11868,"jap":11869,"deltakere":11870,"isen":11871,"legit":11872,"##otek":11873,"ok":11874,"number":11875,"##veier":11876,"Trygve":11877,"##medal":11878,"##ntlig":11879,"modeller":11880,"imellom":11881,"Husk":11882,"agen":11883,"Olje":11884,"medis":11885,"Angeles":11886,"##iserie":11887,"##iety":11888,"nivået":11889,"kunng":11890,"ort":11891,"pred":11892,"vassdrag":11893,"strenge":11894,"flå":11895,"Solveig":11896,"##alde":11897,"fylkeskommune":11898,"Hitler":11899,"##én":11900,"drømmer":11901,"trengs":11902,"opph":11903,"femti":11904,"che":11905,"##isken":11906,"Mod":11907,"kledd":11908,"ts":11909,"trene":11910,"kvaliteten":11911,"##IE":11912,"kjende":11913,"##iset":11914,"BL":11915,"Funniest":11916,"1925":11917,"menings":11918,"trenge":11919,"tekster":11920,"Asia":11921,"utred":11922,"psykiat":11923,"bevege":11924,"Hens":11925,"produsert":11926,"##sministeren":11927,"Ludvig":11928,"Telefon":11929,"økonomien":11930,"vestlige":11931,"##nnar":11932,"late":11933,"lyste":11934,"1929":11935,"Institutt":11936,"##festet":11937,"kraftige":11938,"Gjen":11939,"##latt":11940,"##idde":11941,"frokost":11942,"styrings":11943,"salen":11944,"slaget":11945,"Familien":11946,"infe":11947,"##yp":11948,"overgrep":11949,"##otiske":11950,"signa":11951,"bestefar":11952,"child":11953,"hendt":11954,"Kre":11955,"tørre":11956,"lærerne":11957,"forne":11958,"nordover":11959,"reform":11960,"snøe":11961,"rakte":11962,"NATO":11963,"##The":11964,"##odde":11965,"Sag":11966,"arrangement":11967,"Start":11968,"lunsj":11969,"pist":11970,"Dig":11971,"Has":11972,"Park":11973,"Senterpartiet":11974,"omtale":11975,"skif":11976,"##istikken":11977,"1934":11978,"blandet":11979,"spissen":11980,"løfter":11981,"hoppe":11982,"##blo":11983,"troen":11984,"snøen":11985,"mottar":11986,"##rykt":11987,"##ttere":11988,"sjefen":11989,"##vatn":11990,"Ama":11991,"underteg":11992,"##ringa":11993,"Wash":11994,"utgangen":11995,"Ret":11996,"Justis":11997,"nevner":11998,"faget":11999,"synge":12000,"Totalt":12001,"inneholde":12002,"##itetene":12003,"foreslås":12004,"##ding":12005,"Helen":12006,"Bull":12007,"##overn":12008,"Privat":12009,"Nina":12010,"##ledninger":12011,"knytte":12012,"distriktet":12013,"##gate":12014,"Saken":12015,"1928":12016,"utfører":12017,"endres":12018,"rådet":12019,"garan":12020,"1932":12021,"##yre":12022,"bodd":12023,"##innas":12024,"##plikt":12025,"sivile":12026,"jubile":12027,"our":12028,"dyb":12029,"temaet":12030,"reagerer":12031,"could":12032,"Karlsen":12033,"##uert":12034,"klie":12035,"stolte":12036,"rehabil":12037,"Pen":12038,"blog":12039,"##OB":12040,"##industri":12041,"SE":12042,"forma":12043,"sått":12044,"elektriske":12045,"mv":12046,"KON":12047,"##spor":12048,"Kjetil":12049,"##spunktet":12050,"##asa":12051,"Marianne":12052,"##veres":12053,"beslutninger":12054,"State":12055,"##politiske":12056,"karriere":12057,"jevnt":12058,"##seren":12059,"##ione":12060,"bevissthet":12061,"Dre":12062,"Refe":12063,"##sigelse":12064,"triv":12065,"##vokaten":12066,"natta":12067,"##befa":12068,"nedbør":12069,"Sofie":12070,"##wer":12071,"##stendige":12072,"greide":12073,"univer":12074,"Handel":12075,"##ffelse":12076,"melke":12077,"##DR":12078,"##srevyen":12079,"##regning":12080,"informasjonen":12081,"plassering":12082,"must":12083,"born":12084,"anim":12085,"apen":12086,"##lære":12087,"Øver":12088,"Bab":12089,"##klubben":12090,"tju":12091,"##fjellet":12092,"opplær":12093,"betong":12094,"glatt":12095,"Marius":12096,"namn":12097,"åtferd":12098,"opplyst":12099,"##iken":12100,"lærar":12101,"sittet":12102,"yd":12103,"tittelen":12104,"nyte":12105,"nit":12106,"information":12107,"spra":12108,"pårørende":12109,"Dar":12110,"etablering":12111,"Prosjekt":12112,"##rente":12113,"jer":12114,"contr":12115,"spent":12116,"skå":12117,"Indre":12118,"Genere":12119,"##ganger":12120,"1924":12121,"Idrett":12122,"##okument":12123,"flaske":12124,"sjuk":12125,"bønder":12126,"##mæ":12127,"inf":12128,"##aktige":12129,"skulen":12130,"etable":12131,"during":12132,"##lek":12133,"turn":12134,"tax":12135,"##alysis":12136,"difor":12137,"sliter":12138,"##marka":12139,"roman":12140,"harmon":12141,"menneskelig":12142,"##nett":12143,"investering":12144,"##skets":12145,"eleven":12146,"ryt":12147,"##danningen":12148,"kjærligheten":12149,"##bøl":12150,"faktiske":12151,"svik":12152,"Hje":12153,"##UNN":12154,"##lyd":12155,"selges":12156,"years":12157,"forfatteren":12158,"Hedmark":12159,"##strakt":12160,"svø":12161,"##shistor":12162,"anse":12163,"avgjort":12164,"117":12165,"113":12166,"##ards":12167,"Landbruks":12168,"sinns":12169,"forbudt":12170,"klager":12171,"oppfat":12172,"risikoen":12173,"sunn":12174,"industrien":12175,"Salt":12176,"Kveld":12177,"Skjer":12178,"gjenta":12179,"skolens":12180,"mogleg":12181,"Manchester":12182,"fasc":12183,"##riene":12184,"##otisk":12185,"kommentarer":12186,"##cht":12187,"oli":12188,"billed":12189,"kommersi":12190,"1923":12191,"kombinert":12192,"##osen":12193,"innføre":12194,"Leon":12195,"Sivert":12196,"deira":12197,"Albert":12198,"1921":12199,"Flor":12200,"partner":12201,"##foret":12202,"##lev":12203,"konstant":12204,"banket":12205,"##sgrunn":12206,"Næ":12207,"##ikon":12208,"veggene":12209,"##bror":12210,"teik":12211,"Gol":12212,"##svik":12213,"##demok":12214,"Ville":12215,"infra":12216,"Oscar":12217,"punktet":12218,"##sell":12219,"##skjel":12220,"##geir":12221,"netto":12222,"##stoffer":12223,"pasientene":12224,"##befaler":12225,"##ily":12226,"##UG":12227,"revolusjon":12228,"prinsipi":12229,"forlatt":12230,"aften":12231,"gjennomgang":12232,"Jor":12233,"Jerus":12234,"##risen":12235,"gress":12236,"pum":12237,"Forsvaret":12238,"prosesser":12239,"skit":12240,"stuen":12241,"innkjøp":12242,"##unene":12243,"##agraf":12244,"ros":12245,"##teringer":12246,"##uminium":12247,"##arly":12248,"Eivind":12249,"##linga":12250,"##styrer":12251,"omgivelse":12252,"varte":12253,"relasjon":12254,"##ograph":12255,"regelen":12256,"##ART":12257,"##okol":12258,"##umen":12259,"overføres":12260,"forøvrig":12261,"team":12262,"##skillig":12263,"##afor":12264,"avslør":12265,"nedre":12266,"##less":12267,"##ption":12268,"##alls":12269,"restaurant":12270,"døgnet":12271,"eleg":12272,"syne":12273,"virkemidler":12274,"gruppa":12275,"##forslag":12276,"##møre":12277,"laks":12278,"##ligen":12279,"##røt":12280,"effekten":12281,"Wilhelm":12282,"##agne":12283,"Luk":12284,"cur":12285,"metoden":12286,"##ksh":12287,"##nummer":12288,"##produkter":12289,"Stato":12290,"##øyene":12291,"framtida":12292,"evner":12293,"Valg":12294,"Larvik":12295,"##holmen":12296,"parla":12297,"##rømte":12298,"pø":12299,"ordne":12300,"påk":12301,"trer":12302,"##lette":12303,"Film":12304,"rive":12305,"innhe":12306,"fremste":12307,"medhold":12308,"##raham":12309,"##setnings":12310,"##sida":12311,"109":12312,"Kristiansund":12313,"##leggene":12314,"##DAL":12315,"Harstad":12316,"##FOR":12317,"konfir":12318,"Tw":12319,"water":12320,"ulovlig":12321,"dyktig":12322,"1912":12323,"gyl":12324,"##peren":12325,"Bort":12326,"##gro":12327,"163":12328,"forskere":12329,"relevante":12330,"domsto":12331,"##zy":12332,"vitner":12333,"tilbe":12334,"each":12335,"##kerud":12336,"##skostnader":12337,"##ids":12338,"101":12339,"innføring":12340,"##rust":12341,"##stell":12342,"regional":12343,"Emma":12344,"##settingen":12345,"strekker":12346,"dep":12347,"utforming":12348,"nakken":12349,"meth":12350,"##fondet":12351,"ettermiddagen":12352,"##krigen":12353,"drepte":12354,"##opplæring":12355,"Mamma":12356,"Syl":12357,"tilsvarer":12358,"##alinger":12359,"sym":12360,"##produksjonen":12361,"understreke":12362,"progra":12363,"##oda":12364,"tvin":12365,"træ":12366,"Blad":12367,"##hengighet":12368,"behandler":12369,"Derimot":12370,"Vårt":12371,"##very":12372,"bøndene":12373,"satser":12374,"likestilling":12375,"korrekt":12376,"##OV":12377,"undervisningen":12378,"bero":12379,"##gruppa":12380,"##innasnekker":12381,"##come":12382,"pian":12383,"##rel":12384,"##illett":12385,"svel":12386,"stemte":12387,"##Gene":12388,"Mis":12389,"##alie":12390,"Julie":12391,"fornær":12392,"##stinget":12393,"Barna":12394,"Sist":12395,"fremhe":12396,"utelukkende":12397,"Lib":12398,"##fli":12399,"Rev":12400,"skarp":12401,"##oma":12402,"bekje":12403,"1915":12404,"##IDE":12405,"##bilen":12406,"Cecil":12407,"nesen":12408,"kvartal":12409,"research":12410,"sinne":12411,"romantisk":12412,"avdelingen":12413,"##omi":12414,"gjev":12415,"sannhet":12416,"desig":12417,"fiskeri":12418,"##interes":12419,"maskiner":12420,"Utdan":12421,"Rose":12422,"##cing":12423,"Mjø":12424,"medarbeidere":12425,"flate":12426,"note":12427,"1911":12428,"Akt":12429,"intervjuet":12430,"fon":12431,"oppdra":12432,"Herman":12433,"Middel":12434,"høyst":12435,"Kongsberg":12436,"Kjære":12437,"##utan":12438,"Elver":12439,"kjøpes":12440,"argumen":12441,"avvi":12442,"Administ":12443,"Nederland":12444,"utlå":12445,"Halden":12446,"long":12447,"tilpasse":12448,"bredde":12449,"reaksjoner":12450,"##ulerte":12451,"frøken":12452,"Klem":12453,"batter":12454,"Vestlandet":12455,"tenner":12456,"##saken":12457,"Forslag":12458,"havn":12459,"inntekts":12460,"Ins":12461,"mistanke":12462,"sauer":12463,"konse":12464,"meninger":12465,"##ubli":12466,"##arte":12467,"bekrefte":12468,"Air":12469,"##asj":12470,"Reidar":12471,"Reise":12472,"##etet":12473,"frede":12474,"##OLD":12475,"fortid":12476,"hjerne":12477,"vokst":12478,"stopper":12479,"##SM":12480,"snitt":12481,"kule":12482,"territ":12483,"utredning":12484,"##sidig":12485,"spi":12486,"veder":12487,"##målet":12488,"stiger":12489,"Birke":12490,"Tone":12491,"revi":12492,"##hes":12493,"System":12494,"##vnen":12495,"advar":12496,"Rein":12497,"oppvar":12498,"##ional":12499,"skred":12500,"##prin":12501,"Lofoten":12502,"##vandrere":12503,"auka":12504,"garanti":12505,"inse":12506,"Lav":12507,"Sid":12508,"teke":12509,"trives":12510,"morsomt":12511,"kvarandre":12512,"##visningen":12513,"betraktning":12514,"##Generes":12515,"##AC":12516,"Wi":12517,"##vendte":12518,"flertallet":12519,"ÅR":12520,"Paulus":12521,"vek":12522,"1926":12523,"anbefaler":12524,"##oppgjør":12525,"##ikter":12526,"cons":12527,"yte":12528,"hørtes":12529,"register":12530,"##meldinger":12531,"DE":12532,"kasse":12533,"artikler":12534,"Hug":12535,"nyere":12536,"##vask":12537,"passende":12538,"lure":12539,"##rde":12540,"svingte":12541,"1922":12542,"rekord":12543,"referanse":12544,"Drift":12545,"##merker":12546,"bake":12547,"Statistisk":12548,"Hjer":12549,"arbeidstid":12550,"glasset":12551,"Moren":12552,"melod":12553,"distrib":12554,"back":12555,"rob":12556,"##lærer":12557,"##føren":12558,"elektro":12559,"snarere":12560,"måneden":12561,"utvil":12562,"##ardi":12563,"Send":12564,"kval":12565,"##jakt":12566,"arbeidstakere":12567,"bryllup":12568,"##YR":12569,"spredt":12570,"##bred":12571,"relasjoner":12572,"opptrer":12573,"##park":12574,"offisielle":12575,"antatt":12576,"boks":12577,"fae":12578,"##sjøen":12579,"##ssø":12580,"Rome":12581,"##prosjekt":12582,"##brigt":12583,"kritiske":12584,"forvand":12585,"Stee":12586,"Lærer":12587,"##lister":12588,"Kontr":12589,"Mann":12590,"latin":12591,"helga":12592,"##varing":12593,"##folket":12594,"Washington":12595,"besøkte":12596,"gjennomsnittlig":12597,"##ITT":12598,"sola":12599,"1931":12600,"Gjel":12601,"Brå":12602,"bestemor":12603,"PL":12604,"1880":12605,"##skomiteen":12606,"heil":12607,"##rdal":12608,"Nyhet":12609,"##førings":12610,"Bos":12611,"akutt":12612,"##skilte":12613,"anti":12614,"eksplos":12615,"diale":12616,"Vid":12617,"##rygden":12618,"posten":12619,"DeGeneres":12620,"##bens":12621,"sus":12622,"##sforen":12623,"verda":12624,"##vilje":12625,"partiene":12626,"##odene":12627,"Len":12628,"fryktelig":12629,"forandre":12630,"##vedtak":12631,"America":12632,"##ksa":12633,"heldigvis":12634,"##talene":12635,"##munt":12636,"##iskap":12637,"##vares":12638,"variere":12639,"kontrol":12640,"Åp":12641,"##any":12642,"point":12643,"trærne":12644,"selge":12645,"1865":12646,"produsere":12647,"##nemnda":12648,"gjest":12649,"håpe":12650,"Des":12651,"komiserie":12652,"Kost":12653,"##søkelser":12654,"Narvik":12655,"budsjettet":12656,"disposisjon":12657,"namnet":12658,"##stu":12659,"wor":12660,"hul":12661,"Skje":12662,"Mik":12663,"##ivene":12664,"##varig":12665,"Gal":12666,"Polen":12667,"tøffe":12668,"fm":12669,"Hanne":12670,"rov":12671,"antakelig":12672,"##vindu":12673,"##user":12674,"don":12675,"cond":12676,"binde":12677,"kostet":12678,"116":12679,"effektive":12680,"Abraham":12681,"landskapet":12682,"las":12683,"##strekk":12684,"##avdeling":12685,"Sak":12686,"atmosf":12687,"##rm":12688,"kren":12689,"Fug":12690,"bestandig":12691,"found":12692,"Jenny":12693,"skjema":12694,"Will":12695,"##forholdene":12696,"fact":12697,"føles":12698,"##attere":12699,"bærekraft":12700,"##slov":12701,"##spillere":12702,"røre":12703,"invitert":12704,"vegvesen":12705,"Bygge":12706,"##uge":12707,"did":12708,"ferdigheter":12709,"##ygger":12710,"sekretær":12711,"114":12712,"##ksusfellen":12713,"Fød":12714,"urolig":12715,"sans":12716,"##spartiet":12717,"##indre":12718,"litter":12719,"fæ":12720,"##jande":12721,"sosiali":12722,"petrole":12723,"cap":12724,"lyde":12725,"##ruset":12726,"Gode":12727,"##svalg":12728,"opplysningene":12729,"båter":12730,"Juni":12731,"Vinter":12732,"beveger":12733,"forberede":12734,"##kirke":12735,"Hare":12736,"Frede":12737,"##anken":12738,"versjon":12739,"fastsettes":12740,"omfattet":12741,"KV":12742,"##cture":12743,"Egypt":12744,"Best":12745,"sovjet":12746,"##ahl":12747,"kjøle":12748,"##skatt":12749,"important":12750,"##ising":12751,"stammer":12752,"tilhørende":12753,"##frie":12754,"based":12755,"##ksene":12756,"savnet":12757,"oppnådd":12758,"ast":12759,"skuffet":12760,"Cont":12761,"leverer":12762,"Internett":12763,"forbund":12764,"##sbeg":12765,"Transport":12766,"##bej":12767,"lev":12768,"Loven":12769,"stue":12770,"konflikter":12771,"##Te":12772,"skalv":12773,"Aks":12774,"people":12775,"studerte":12776,"##fallende":12777,"hevde":12778,"##okolade":12779,"##lass":12780,"dæ":12781,"baks":12782,"##ikar":12783,"Job":12784,"stater":12785,"våt":12786,"forlag":12787,"135":12788,"1916":12789,"Inne":12790,"ydmy":12791,"##smater":12792,"##iring":12793,"angitt":12794,"gjentok":12795,"isk":12796,"##ér":12797,"italie":12798,"esti":12799,"dypere":12800,"medal":12801,"##jus":12802,"sofaen":12803,"##boli":12804,"bussen":12805,"cirka":12806,"Stig":12807,"OSL":12808,"##rapeut":12809,"##KKE":12810,"Ala":12811,"1875":12812,"hvorledes":12813,"tempo":12814,"##JER":12815,"##70":12816,"##irene":12817,"tiltre":12818,"badet":12819,"ledige":12820,"kvitt":12821,"##malt":12822,"##skor":12823,"inspe":12824,"utstyrt":12825,"Ac":12826,"Kvinner":12827,"sei":12828,"bul":12829,"##listen":12830,"##analyse":12831,"nov":12832,"Kin":12833,"uttalelser":12834,"oppgåvene":12835,"##kommet":12836,"##gelsene":12837,"Ek":12838,"Bras":12839,"##finn":12840,"##kelsen":12841,"spist":12842,"Mur":12843,"##SER":12844,"fakta":12845,"##ared":12846,"manglet":12847,"##chel":12848,"diplom":12849,"oppvekst":12850,"##husene":12851,"##hs":12852,"##tids":12853,"statlig":12854,"123":12855,"song":12856,"Time":12857,"piken":12858,"##rater":12859,"Kore":12860,"##rettes":12861,"Tyrk":12862,"Cast":12863,"Selvfølgelig":12864,"filmer":12865,"naken":12866,"##lyset":12867,"##kasse":12868,"dug":12869,"##nnes":12870,"Jerusalem":12871,"opptak":12872,"Forlag":12873,"livets":12874,"styres":12875,"plukket":12876,"##pel":12877,"glimt":12878,"##våpen":12879,"dramatisk":12880,"spillerne":12881,"##ressur":12882,"##sprodu":12883,"1913":12884,"analyser":12885,"##delene":12886,"forval":12887,"##cter":12888,"If":12889,"Hvad":12890,"estet":12891,"Full":12892,"kontinuerlig":12893,"##sikre":12894,"meningen":12895,"uttaler":12896,"arbeidstaker":12897,"ideen":12898,"##givningen":12899,"frek":12900,"##right":12901,"##ådet":12902,"##tidens":12903,"vitenskap":12904,"André":12905,"semin":12906,"##meldt":12907,"infor":12908,"##familien":12909,"##eterin":12910,"AF":12911,"HA":12912,"Eidsv":12913,"generalforsam":12914,"kår":12915,"install":12916,"krevde":12917,"grave":12918,"opplegg":12919,"arbeidere":12920,"Moen":12921,"skjebne":12922,"##tidige":12923,"Fun":12924,"begrunnelse":12925,"streng":12926,"armer":12927,"stiftet":12928,"potet":12929,"public":12930,"internett":12931,"gy":12932,"##atorer":12933,"Randi":12934,"påta":12935,"send":12936,"##24":12937,"##problemer":12938,"bene":12939,"Coun":12940,"##ettes":12941,"##ktere":12942,"eiende":12943,"DU":12944,"Fylkes":12945,"##anns":12946,"klassisk":12947,"##usive":12948,"Får":12949,"Simp":12950,"Else":12951,"large":12952,"forsvunnet":12953,"naz":12954,"hennar":12955,"AT":12956,"flinke":12957,"bestå":12958,"maatte":12959,"mas":12960,"##OC":12961,"hemmelighet":12962,"fenome":12963,"relative":12964,"##hre":12965,"måler":12966,"enstemmig":12967,"spren":12968,"##unket":12969,"søsken":12970,"språ":12971,"Bildet":12972,"populær":12973,"##ird":12974,"normale":12975,"Dale":12976,"Josef":12977,"anser":12978,"søknaden":12979,"National":12980,"skjøv":12981,"Jø":12982,"##tekt":12983,"fylkeskommunen":12984,"##rator":12985,"tårer":12986,"##vogn":12987,"skjulte":12988,"##skriftene":12989,"verke":12990,"##ication":12991,"veksten":12992,"##mers":12993,"Mang":12994,"##ek":12995,"søppel":12996,"##feranse":12997,"Kommunal":12998,"nabo":12999,"Folket":13000,"døydde":13001,"studiet":13002,"CH":13003,"faen":13004,"##ningsserie":13005,"##angel":13006,"##skur":13007,"erstattet":13008,"##fon":13009,"datab":13010,"grepet":13011,"nedsatt":13012,"SN":13013,"følges":13014,"##paret":13015,"omgivelsene":13016,"bryr":13017,"##itering":13018,"rettss":13019,"##meldingen":13020,"##areal":13021,"abs":13022,"way":13023,"flytta":13024,"##ku":13025,"##ygt":13026,"motiver":13027,"##parken":13028,"foregående":13029,"conta":13030,"LE":13031,"##roe":13032,"oppdage":13033,"##do":13034,"dominerende":13035,"siktet":13036,"innspill":13037,"primær":13038,"Tit":13039,"ISB":13040,"Pass":13041,"Svenske":13042,"kulturmin":13043,"##kastet":13044,"nærmer":13045,"blin":13046,"##forlaget":13047,"Innst":13048,"beregning":13049,"avsk":13050,"Livet":13051,"utvilsomt":13052,"fjord":13053,"##stider":13054,"##itivt":13055,"##navn":13056,"##skop":13057,"Rana":13058,"##bere":13059,"tiltakene":13060,"##NES":13061,"Motor":13062,"fenomen":13063,"doktor":13064,"##ifik":13065,"hverdagen":13066,"avgjørelsen":13067,"fastsette":13068,"##staten":13069,"forbere":13070,"##conomic":13071,"Ax":13072,"##skren":13073,"Oppland":13074,"hem":13075,"variasjon":13076,"Atl":13077,"##ropp":13078,"fje":13079,"Bent":13080,"hinder":13081,"ii":13082,"jag":13083,"overflaten":13084,"knytter":13085,"forsøks":13086,"kontrollen":13087,"##ndalen":13088,"samferdsel":13089,"tilhørte":13090,"Kunne":13091,"senket":13092,"interne":13093,"russisk":13094,"##handlinger":13095,"##olin":13096,"Hydro":13097,"bronse":13098,"##fab":13099,"within":13100,"##pr":13101,"##iko":13102,"stige":13103,"Rapp":13104,"pedagogisk":13105,"statsbudsjettet":13106,"##rande":13107,"byttet":13108,"blind":13109,"insp":13110,"##gree":13111,"##rollen":13112,"krone":13113,"Syria":13114,"vurderingen":13115,"Cup":13116,"##lok":13117,"Bestemmelsen":13118,"##prosjektet":13119,"konsekvensene":13120,"##stykket":13121,"##vilg":13122,"vellykket":13123,"por":13124,"meldingen":13125,"Fager":13126,"##80":13127,"jorde":13128,"##ERE":13129,"godkjenning":13130,"oksygen":13131,"##stilbud":13132,"##klet":13133,"aktiviteten":13134,"##atal":13135,"Linda":13136,"flukt":13137,"Elevene":13138,"tilnærming":13139,"hovedt":13140,"lettet":13141,"Gil":13142,"##pool":13143,"politiker":13144,"Styr":13145,"Alfred":13146,"smal":13147,"brune":13148,"ml":13149,"##22":13150,"##åd":13151,"bol":13152,"Nordre":13153,"wa":13154,"##baserte":13155,"maler":13156,"negativt":13157,"skaffet":13158,"##ony":13159,"skarpe":13160,"how":13161,"Pra":13162,"beca":13163,"Universitets":13164,"##raren":13165,"synger":13166,"Research":13167,"overhodet":13168,"##KE":13169,"Halv":13170,"ungdommer":13171,"Eksempel":13172,"sære":13173,"##råder":13174,"Lab":13175,"Nesten":13176,"##000":13177,"##mengden":13178,"størrelsen":13179,"Luksusfellen":13180,"later":13181,"##valet":13182,"AM":13183,"produktet":13184,"ff":13185,"tvunget":13186,"Oli":13187,"##kå":13188,"Ill":13189,"##ffene":13190,"Huset":13191,"bif":13192,"##ands":13193,"oppdrett":13194,"berømte":13195,"requ":13196,"00M":13197,"##ix":13198,"sykdommen":13199,"tariff":13200,"ukene":13201,"##nning":13202,"programmer":13203,"ISBN":13204,"SM":13205,"##utta":13206,"dobbel":13207,"Herrens":13208,"flom":13209,"Stemmen":13210,"bensin":13211,"evnen":13212,"Død":13213,"husene":13214,"Torbjørn":13215,"fantastiske":13216,"avisa":13217,"##ducation":13218,"##neprest":13219,"Kur":13220,"landslag":13221,"##PI":13222,"toal":13223,"temperaturen":13224,"kopp":13225,"##alens":13226,"figuren":13227,"##administ":13228,"##ledge":13229,"##gne":13230,"Førde":13231,"Sørensen":13232,"departementets":13233,"##bevegelsen":13234,"##ading":13235,"1907":13236,"avskje":13237,"gjenstander":13238,"##dals":13239,"voldsomt":13240,"##kli":13241,"måltid":13242,"Tomm":13243,"CD":13244,"eieren":13245,"gonger":13246,"##prøve":13247,"elektronisk":13248,"##kj":13249,"##dome":13250,"HEL":13251,"besto":13252,"timen":13253,"##Se":13254,"gods":13255,"Aldri":13256,"avkast":13257,"nyttår":13258,"##bla":13259,"hygge":13260,"1870":13261,"gråte":13262,"Ringe":13263,"sørger":13264,"##ches":13265,"Gir":13266,"stemning":13267,"##SV":13268,"celle":13269,"krysset":13270,"mindret":13271,"dratt":13272,"Street":13273,"##BL":13274,"##denes":13275,"date":13276,"ulykken":13277,"##asjonens":13278,"tvert":13279,"##klassen":13280,"inngrep":13281,"##sløse":13282,"interesserte":13283,"##nivået":13284,"Ingenting":13285,"erob":13286,"##ftes":13287,"tennene":13288,"forandringer":13289,"Net":13290,"Bjørg":13291,"prisene":13292,"1860":13293,"##reglene":13294,"materiell":13295,"Åse":13296,"Data":13297,"Gang":13298,"Bert":13299,"impul":13300,"##OST":13301,"vennene":13302,"##aledes":13303,"formelle":13304,"helikop":13305,"vorte":13306,"ane":13307,"sikkerhets":13308,"being":13309,"øvelse":13310,"Love":13311,"Scott":13312,"kake":13313,"heiter":13314,"despe":13315,"arab":13316,"##aliteten":13317,"##forskningen":13318,"##ville":13319,"millionar":13320,"##urch":13321,"##riket":13322,"presentere":13323,"Mette":13324,"menighet":13325,"Nort":13326,"##vey":13327,"bevegelser":13328,"##måte":13329,"##aden":13330,"speil":13331,"##gjøres":13332,"behol":13333,"##tti":13334,"##helse":13335,"kino":13336,"give":13337,"Gru":13338,"rasjon":13339,"metod":13340,"turer":13341,"konsentrasjon":13342,"digitale":13343,"undersøkt":13344,"##lian":13345,"flagg":13346,"##genes":13347,"sikrer":13348,"Staten":13349,"premie":13350,"##rensa":13351,"##OH":13352,"oppfattes":13353,"##atorisk":13354,"forpliktelser":13355,"pp":13356,"##kenen":13357,"Ikkje":13358,"Mind":13359,"##holdning":13360,"skarpt":13361,"repar":13362,"1906":13363,"betales":13364,"##ury":13365,"temperat":13366,"etterhvert":13367,"sele":13368,"##berst":13369,"##elser":13370,"Maren":13371,"minnes":13372,"Elverum":13373,"##krav":13374,"jordbruket":13375,"administrasjonen":13376,"utkast":13377,"##ught":13378,"ørene":13379,"122":13380,"Våre":13381,"orientering":13382,"153":13383,"forstod":13384,"gale":13385,"##aard":13386,"bransje":13387,"folks":13388,"klassiske":13389,"##JØR":13390,"##remø":13391,"##ventet":13392,"##kassen":13393,"Pensjon":13394,"rapporter":13395,"Ibsen":13396,"rutiner":13397,"Chic":13398,"høf":13399,"life":13400,"øret":13401,"normer":13402,"stykket":13403,"need":13404,"personlighet":13405,"Tilbake":13406,"forund":13407,"pig":13408,"makten":13409,"##atta":13410,"Ingebrigt":13411,"Grav":13412,"##hørt":13413,"##trans":13414,"Cri":13415,"##urk":13416,"##bransjen":13417,"primært":13418,"målene":13419,"puste":13420,"brukerne":13421,"##alist":13422,"due":13423,"##oth":13424,"##ronten":13425,"marine":13426,"Røros":13427,"bidro":13428,"##fugl":13429,"dødsf":13430,"registrerte":13431,"soc":13432,"kvant":13433,"1908":13434,"134":13435,"##rage":13436,"kos":13437,"ligner":13438,"leiar":13439,"fann":13440,"drøfte":13441,"elve":13442,"mg":13443,"roper":13444,"følt":13445,"ethvert":13446,"Resulta":13447,"##nsker":13448,"farlige":13449,"bånd":13450,"samler":13451,"etterfor":13452,"paragra":13453,"garn":13454,"##ARD":13455,"ambul":13456,"Marte":13457,"stikker":13458,"avtalt":13459,"commun":13460,"omgivelser":13461,"betingelser":13462,"tapet":13463,"##renser":13464,"##bes":13465,"virkninger":13466,"##nering":13467,"samvittighet":13468,"inspirasjon":13469,"tilgjengelige":13470,"blive":13471,"magnet":13472,"varian":13473,"avdelinger":13474,"rum":13475,"yt":13476,"talen":13477,"anten":13478,"##stokk":13479,"omsider":13480,"teleg":13481,"1902":13482,"AD":13483,"##ryd":13484,"gm":13485,"Mex":13486,"Christensen":13487,"##aton":13488,"elleve":13489,"##ssaker":13490,"søt":13491,"##standene":13492,"svet":13493,"havner":13494,"silke":13495,"levd":13496,"mellomrom":13497,"wc":13498,"forsker":13499,"Au":13500,"firmaet":13501,"##regud":13502,"utvidelse":13503,"samboe":13504,"124":13505,"##fylt":13506,"regnskaps":13507,"svo":13508,"aga":13509,"selskapene":13510,"pensjons":13511,"inviterer":13512,"attende":13513,"markert":13514,"biblioteket":13515,"sult":13516,"gjennomgå":13517,"treet":13518,"mottok":13519,"arbeidsplass":13520,"year":13521,"Service":13522,"Moskva":13523,"1850":13524,"Born":13525,"budsj":13526,"soverom":13527,"##formål":13528,"Grimstad":13529,"bygnings":13530,"ukjente":13531,"DEN":13532,"Hvert":13533,"medisinske":13534,"øyeblikkelig":13535,"dyrene":13536,"##ulf":13537,"##asinet":13538,"Håvard":13539,"hilse":13540,"##stilsynet":13541,"moment":13542,"##verer":13543,"ED":13544,"forp":13545,"klø":13546,"##zer":13547,"##bygning":13548,"##middag":13549,"pålegg":13550,"##rativ":13551,"##alla":13552,"Jess":13553,"Jørgensen":13554,"derfrå":13555,"European":13556,"frelse":13557,"##etre":13558,"##sfull":13559,"rydde":13560,"sagde":13561,"##hos":13562,"nabol":13563,"elite":13564,"fond":13565,"1909":13566,"Jane":13567,"oppmunt":13568,"för":13569,"Presidenten":13570,"##møtet":13571,"Louis":13572,"Verden":13573,"avstanden":13574,"okk":13575,"væske":13576,"Dor":13577,"banker":13578,"frykter":13579,"##ader":13580,"##chef":13581,"reelle":13582,"idi":13583,"many":13584,"##andida":13585,"Effe":13586,"rørte":13587,"investerings":13588,"fortjener":13589,"bebyg":13590,"Fla":13591,"##kol":13592,"intervj":13593,"skifter":13594,"husdyr":13595,"Hardanger":13596,"Champions":13597,"Aa":13598,"bandet":13599,"bam":13600,"##kommun":13601,"Christiania":13602,"##garden":13603,"summen":13604,"##ydning":13605,"##De":13606,"##dar":13607,"pga":13608,"ante":13609,"oppmerksomheten":13610,"##budsjett":13611,"Robin":13612,"##sfar":13613,"then":13614,"kyrkja":13615,"NB":13616,"One":13617,"##angs":13618,"hell":13619,"istedenfor":13620,"Iversen":13621,"overflate":13622,"##ksem":13623,"instrument":13624,"Retten":13625,"budskap":13626,"##PR":13627,"127":13628,"oppleves":13629,"prosedy":13630,"Problemet":13631,"Volda":13632,"occ":13633,"katol":13634,"omstendigheter":13635,"Green":13636,"bransjen":13637,"sekret":13638,"##nninger":13639,"impro":13640,"brukar":13641,"##undersøkelse":13642,"akseptere":13643,"rullet":13644,"månedene":13645,"forestilling":13646,"##uleres":13647,"Sum":13648,"Sola":13649,"endå":13650,"##back":13651,"##denhet":13652,"Ox":13653,"tenden":13654,"politidistrikt":13655,"FL":13656,"Statoil":13657,"korrid":13658,"159":13659,"132":13660,"leker":13661,"ost":13662,"##teinen":13663,"porten":13664,"##fordeling":13665,"order":13666,"##ATT":13667,"innve":13668,"protester":13669,"##hage":13670,"##lunde":13671,"##bol":13672,"Las":13673,"##feller":13674,"##miks":13675,"skjermen":13676,"gongen":13677,"ekteskapet":13678,"##yret":13679,"kontakten":13680,"##FO":13681,"garder":13682,"interessen":13683,"##bein":13684,"forsvinne":13685,"##renget":13686,"camping":13687,"registrer":13688,"##ikeren":13689,"landsbyen":13690,"Sinnasnekker":13691,"glemte":13692,"forstås":13693,"##seng":13694,"Kongsv":13695,"fartøy":13696,"terreng":13697,"##stod":13698,"opt":13699,"ansett":13700,"##ION":13701,"nakne":13702,"innstillingen":13703,"Kval":13704,"plag":13705,"Heldigvis":13706,"aw":13707,"128":13708,"##grad":13709,"133":13710,"##større":13711,"materialer":13712,"##alisme":13713,"usyn":13714,"forvirret":13715,"hovedstaden":13716,"møttes":13717,"##ordnet":13718,"tørke":13719,"tittel":13720,"Sovjetun":13721,"Klasse":13722,"butikker":13723,"##konstru":13724,"avisene":13725,"synspunkter":13726,"Prosjektet":13727,"##iro":13728,"nervøs":13729,"##lion":13730,"flytende":13731,"##ftig":13732,"Johnny":13733,"##laus":13734,"skatter":13735,"##renes":13736,"mote":13737,"senior":13738,"##stande":13739,"gum":13740,"##fund":13741,"muskel":13742,"##ikkene":13743,"overordnede":13744,"Mine":13745,"##delta":13746,"##bergs":13747,"matematikk":13748,"##regist":13749,"##klaring":13750,"kontrakten":13751,"dekkes":13752,"begrensninger":13753,"##lerne":13754,"##annon":13755,"egentlige":13756,"##rix":13757,"##politi":13758,"##syre":13759,"cost":13760,"##com":13761,"stakkars":13762,"stasjonen":13763,"kvit":13764,"three":13765,"Utt":13766,"diskrim":13767,"bruka":13768,"cri":13769,"ettertid":13770,"beslag":13771,"##bland":13772,"Henriksen":13773,"BAR":13774,"##rukket":13775,"levering":13776,"Desse":13777,"ekstraordin":13778,"kartet":13779,"126":13780,"What":13781,"Of":13782,"Liver":13783,"450":13784,"##slovens":13785,"underholdningsprogram":13786,"##ital":13787,"##behandlingen":13788,"##instru":13789,"overdratt":13790,"Holmen":13791,"vinduene":13792,"utseende":13793,"gatene":13794,"vekke":13795,"##usi":13796,"##kons":13797,"fortvil":13798,"Tha":13799,"endnu":13800,"sakk":13801,"arres":13802,"grønnsaker":13803,"##fikke":13804,"avgifter":13805,"##LAND":13806,"##stillingene":13807,"ure":13808,"misly":13809,"Ide":13810,"foruten":13811,"##bygningen":13812,"fremtidige":13813,"kvalitets":13814,"Riktig":13815,"Offe":13816,"##åg":13817,"kontine":13818,"##vakten":13819,"##rare":13820,"impone":13821,"innbyggerne":13822,"##sprosess":13823,"Salg":13824,"Øynene":13825,"##skriver":13826,"smile":13827,"##osi":13828,"Arth":13829,"ien":13830,"129":13831,"##organisasjonen":13832,"given":13833,"##papir":13834,"Heidi":13835,"##ots":13836,"Buskerud":13837,"oppfylle":13838,"##ords":13839,"Log":13840,"fam":13841,"##mente":13842,"Resten":13843,"##ternativ":13844,"forbli":13845,"Mater":13846,"Steen":13847,"akter":13848,"##alent":13849,"Henning":13850,"##finans":13851,"control":13852,"påvirkning":13853,"hensynet":13854,"##smuligheter":13855,"erstatnings":13856,"kjøretøy":13857,"##atikk":13858,"gjensidig":13859,"##bing":13860,"##forbin":13861,"##regnet":13862,"##sjø":13863,"origin":13864,"Gry":13865,"sonen":13866,"menneskets":13867,"##RIST":13868,"##problem":13869,"##skontor":13870,"##rogen":13871,"##cup":13872,"søsteren":13873,"rammen":13874,"##St":13875,"##amilla":13876,"dørene":13877,"avgjørelser":13878,"Klokken":13879,"Inform":13880,"Torstein":13881,"##agen":13882,"##onering":13883,"##stes":13884,"##selet":13885,"##unet":13886,"SAM":13887,"Søknad":13888,"vennskap":13889,"overleve":13890,"Dam":13891,"begreper":13892,"Konge":13893,"##gy":13894,"konsulent":13895,"halvdel":13896,"leverte":13897,"##verden":13898,"place":13899,"riket":13900,"Kas":13901,"hjørne":13902,"relation":13903,"saad":13904,"##revne":13905,"##ansene":13906,"Sveits":13907,"##hagelig":13908,"##vatnet":13909,"##bruken":13910,"155":13911,"environ":13912,"Fisk":13913,"fradrag":13914,"konkurs":13915,"komplisert":13916,"1200":13917,"##uens":13918,"##atoren":13919,"seia":13920,"Hjemme":13921,"teknikk":13922,"##gjeld":13923,"leiren":13924,"USAs":13925,"##inspe":13926,"##drivende":13927,"##ability":13928,"Knudsen":13929,"beskrives":13930,"senga":13931,"Vester":13932,"strømmen":13933,"##setningene":13934,"Aleks":13935,"Yng":13936,"Mæ":13937,"##ilbud":13938,"##rane":13939,"oftere":13940,"hed":13941,"sprøy":13942,"elevane":13943,"##strukturen":13944,"friste":13945,"rak":13946,"colle":13947,"##salen":13948,"##nerte":13949,"Hotell":13950,"Fremskritt":13951,"formålet":13952,"##skapelig":13953,"hjå":13954,"Ner":13955,"øyet":13956,"Stian":13957,"Ragnar":13958,"salget":13959,"##UST":13960,"leid":13961,"erstatte":13962,"pålagt":13963,"Cali":13964,"##forf":13965,"##illene":13966,"forhandlingene":13967,"Tol":13968,"Lam":13969,"levet":13970,"descri":13971,"varig":13972,"Law":13973,"Stjør":13974,"seksuelle":13975,"Ster":13976,"Elin":13977,"FNs":13978,"trykke":13979,"##IEN":13980,"Barnet":13981,"kunstnere":13982,"156":13983,"##alleri":13984,"##ruen":13985,"##hag":13986,"pengar":13987,"Elias":13988,"Arbeiderparti":13989,"bob":13990,"BER":13991,"##sey":13992,"betraktes":13993,"##sil":13994,"myke":13995,"innsatsen":13996,"særdeles":13997,"avdø":13998,"times":13999,"##iltak":14000,"Hellas":14001,"knytt":14002,"motoren":14003,"##grunns":14004,"gjerning":14005,"sykepleier":14006,"smi":14007,"gaa":14008,"Hon":14009,"tente":14010,"uttrykker":14011,"##imet":14012,"mengden":14013,"variert":14014,"Mont":14015,"teoretisk":14016,"Analy":14017,"##fruer":14018,"forhå":14019,"andet":14020,"Eld":14021,"##ines":14022,"##kna":14023,"Årets":14024,"##sområder":14025,"##juk":14026,"##plant":14027,"vindue":14028,"##sdotter":14029,"00N":14030,"inneholdt":14031,"1904":14032,"Rådet":14033,"Gundersen":14034,"Dyr":14035,"Bis":14036,"mage":14037,"##ype":14038,"145":14039,"run":14040,"fabrikk":14041,"ulykker":14042,"sone":14043,"Leder":14044,"gata":14045,"##okus":14046,"gravid":14047,"barnehager":14048,"permanent":14049,"produserer":14050,"jun":14051,"bekymring":14052,"ytterst":14053,"overtatt":14054,"##lapp":14055,"Elling":14056,"Sok":14057,"Gudbrand":14058,"1903":14059,"##ization":14060,"krimserie":14061,"cer":14062,"rid":14063,"##ørsmålet":14064,"##fyr":14065,"vilkårene":14066,"formidle":14067,"##amlingen":14068,"##win":14069,"##løk":14070,"stranden":14071,"karak":14072,"##lysning":14073,"Gylde":14074,"Deb":14075,"Long":14076,"bede":14077,"##sem":14078,"##AF":14079,"sysselsetting":14080,"våken":14081,"##rød":14082,"Wen":14083,"fanger":14084,"vogn":14085,"##virket":14086,"Gabriel":14087,"Kyr":14088,"Andel":14089,"##cul":14090,"##23":14091,"CSI":14092,"##ologer":14093,"##sammen":14094,"Energi":14095,"##spli":14096,"opplyste":14097,"skjør":14098,"vedta":14099,"skry":14100,"drikker":14101,"aluminium":14102,"brakt":14103,"slut":14104,"##giske":14105,"SL":14106,"dyktige":14107,"rekna":14108,"presidenten":14109,"144":14110,"gående":14111,"Sing":14112,"definisjon":14113,"##stemning":14114,"##gaten":14115,"agent":14116,"Special":14117,"##ERS":14118,"Bart":14119,"dører":14120,"avhenger":14121,"emne":14122,"Gerd":14123,"Chr":14124,"vas":14125,"Nordisk":14126,"bestående":14127,"pressen":14128,"dukke":14129,"ekskl":14130,"intera":14131,"krets":14132,"forsør":14133,"##mh":14134,"##ado":14135,"indik":14136,"##førar":14137,"knust":14138,"utvikles":14139,"Yo":14140,"fungerte":14141,"brannen":14142,"morsom":14143,"smart":14144,"juridisk":14145,"Rosenborg":14146,"intellekt":14147,"mr":14148,"Kyst":14149,"pale":14150,"##klær":14151,"statsråd":14152,"renter":14153,"Cas":14154,"##bruddet":14155,"understreket":14156,"akadem":14157,"##ologen":14158,"tørt":14159,"forbedre":14160,"feire":14161,"##pelig":14162,"gitar":14163,"149":14164,"##bilder":14165,"##atoriske":14166,"skulder":14167,"markedsføring":14168,"alp":14169,"##bete":14170,"Eier":14171,"diverse":14172,"bringer":14173,"kulturen":14174,"jordbruk":14175,"arrang":14176,"SSB":14177,"patient":14178,"##sskatt":14179,"Arnt":14180,"##remål":14181,"##lenes":14182,"##ldrene":14183,"##seks":14184,"hunder":14185,"inngangen":14186,"kriterier":14187,"provi":14188,"##serings":14189,"##orent":14190,"Kjøp":14191,"##uner":14192,"##rerne":14193,"haug":14194,"frust":14195,"sjokk":14196,"##asiteten":14197,"Sna":14198,"hemmelige":14199,"Ordet":14200,"##issel":14201,"##umme":14202,"kode":14203,"lita":14204,"##petansen":14205,"behø":14206,"nordisk":14207,"nydelig":14208,"##dam":14209,"##ksjons":14210,"take":14211,"universitetet":14212,"femten":14213,"Donald":14214,"høgt":14215,"Sat":14216,"Poli":14217,"fullmakt":14218,"sistnevnte":14219,"##fos":14220,"##uch":14221,"fiende":14222,"hei":14223,"Foreldre":14224,"aldeles":14225,"beten":14226,"Vat":14227,"enorm":14228,"Nap":14229,"provis":14230,"middels":14231,"##FK":14232,"Ah":14233,"beregnes":14234,"##heden":14235,"##heit":14236,"##ffa":14237,"linjen":14238,"##quen":14239,"results":14240,"kanter":14241,"omfanget":14242,"innstilt":14243,"endringene":14244,"erklær":14245,"##institusjoner":14246,"Steinkjer":14247,"dreide":14248,"##poeng":14249,"Stå":14250,"krigs":14251,"##direktør":14252,"cle":14253,"profesjonelle":14254,"paragraf":14255,"##ansvarlig":14256,"Vedlegg":14257,"herfrå":14258,"isol":14259,"Topp":14260,"Munch":14261,"velges":14262,"Etterpå":14263,"Teater":14264,"krimine":14265,"tiltaket":14266,"##sking":14267,"##hall":14268,"##cen":14269,"varene":14270,"provin":14271,"Psyk":14272,"kunden":14273,"Lee":14274,"kas":14275,"innvandrere":14276,"quest":14277,"nekte":14278,"forurensning":14279,"##kamera":14280,"atferd":14281,"Mona":14282,"1814":14283,"##domen":14284,"Tommy":14285,"oppg":14286,"##anta":14287,"åpningen":14288,"Svart":14289,"gulv":14290,"utbygg":14291,"overgangen":14292,"##departementets":14293,"ungdommen":14294,"Svendsen":14295,"iron":14296,"##75":14297,"uttrykke":14298,"##sformer":14299,"vinduer":14300,"samiske":14301,"##obby":14302,"##melige":14303,"ingeniør":14304,"styrket":14305,"sjokolade":14306,"##itée":14307,"rednings":14308,"regelmessig":14309,"styrt":14310,"handa":14311,"##asing":14312,"asf":14313,"##ledere":14314,"Liverpool":14315,"hendelsen":14316,"Int":14317,"##konkur":14318,"eiere":14319,"cre":14320,"##kser":14321,"oppfatter":14322,"##heder":14323,"Camp":14324,"##isterte":14325,"Cha":14326,"ton":14327,"##nstre":14328,"angir":14329,"Rock":14330,"usikkert":14331,"motivasjon":14332,"stoler":14333,"##settelsen":14334,"INN":14335,"passerte":14336,"Sånn":14337,"skyndte":14338,"Kommer":14339,"Hur":14340,"##ail":14341,"##itch":14342,"tillate":14343,"Kate":14344,"Life":14345,"kolleger":14346,"Kron":14347,"Stri":14348,"Hvilket":14349,"boligen":14350,"fortake":14351,"mos":14352,"løses":14353,"soldat":14354,"åring":14355,"Tyrkia":14356,"hunde":14357,"einaste":14358,"Løs":14359,"konto":14360,"musikkmiks":14361,"kloster":14362,"tillatt":14363,"High":14364,"Jul":14365,"##fene":14366,"Brasil":14367,"lakse":14368,"Ross":14369,"Cath":14370,"etterspørsel":14371,"##apet":14372,"kriter":14373,"rettes":14374,"føltes":14375,"139":14376,"##folkningen":14377,"##spa":14378,"##angene":14379,"##kelige":14380,"tet":14381,"drin":14382,"inkluderer":14383,"deltatt":14384,"Kil":14385,"diskusjonen":14386,"favoritt":14387,"sovnet":14388,"utvalgte":14389,"hall":14390,"P1":14391,"##EFA":14392,"berørte":14393,"Finansdepartementet":14394,"Sec":14395,"Ran":14396,"##ktorat":14397,"samles":14398,"Mikkel":14399,"##sat":14400,"volum":14401,"forening":14402,"hers":14403,"kunnskapen":14404,"##stemmelse":14405,"troll":14406,"##handlet":14407,"keiser":14408,"heve":14409,"##lassi":14410,"skrekk":14411,"Rep":14412,"##ova":14413,"Krog":14414,"analysen":14415,"Grin":14416,"ektefelle":14417,"Ute":14418,"statsbor":14419,"136":14420,"liknende":14421,"##skontoret":14422,"kvarter":14423,"Birg":14424,"##bånd":14425,"##medisin":14426,"henter":14427,"formelt":14428,"forestillinger":14429,"##JØ":14430,"##light":14431,"kampan":14432,"Enge":14433,"vitenskapelige":14434,"top":14435,"skept":14436,"##kas":14437,"medlems":14438,"scoret":14439,"Johannessen":14440,"utstyret":14441,"##DEL":14442,"Gli":14443,"forelsket":14444,"##organisasjoner":14445,"Simen":14446,"forventer":14447,"##ygget":14448,"allier":14449,"hørings":14450,"Hom":14451,"##skinn":14452,"##vennlig":14453,"innebære":14454,"utbrøt":14455,"finalen":14456,"##ktorer":14457,"##irektoratet":14458,"katt":14459,"lidelse":14460,"154":14461,"vul":14462,"##kveld":14463,"kinnet":14464,"tåle":14465,"##vidde":14466,"menigheten":14467,"##ough":14468,"##bekk":14469,"##ires":14470,"##mperatur":14471,"Howe":14472,"Sje":14473,"især":14474,"Kongsvinger":14475,"Nora":14476,"herlig":14477,"tillater":14478,"omfattes":14479,"elektris":14480,"##fee":14481,"Delta":14482,"Nikola":14483,"##teller":14484,"143":14485,"##ransport":14486,"sønner":14487,"##data":14488,"##periode":14489,"tæn":14490,"Tanken":14491,"Arthur":14492,"##strene":14493,"innd":14494,"##bia":14495,"Radi":14496,"drå":14497,"herred":14498,"britisk":14499,"##jos":14500,"passasjer":14501,"##vnte":14502,"##day":14503,"##jup":14504,"##sspørsmål":14505,"utro":14506,"##iseren":14507,"FRED":14508,"Hipp":14509,"vinkel":14510,"mektig":14511,"FO":14512,"##materiale":14513,"Ytre":14514,"seter":14515,"gunstig":14516,"gjennomføringen":14517,"halvtime":14518,"Forbruker":14519,"##gruppene":14520,"##self":14521,"##ugar":14522,"Enda":14523,"##handelen":14524,"##forholdet":14525,"utfordrende":14526,"##skj":14527,"##vises":14528,"Family":14529,"##imot":14530,"##zon":14531,"##omt":14532,"Navn":14533,"##årige":14534,"tala":14535,"stj":14536,"beskjeden":14537,"##media":14538,"Sub":14539,"skoleg":14540,"##registeret":14541,"##lius":14542,"##fram":14543,"underlagt":14544,"rosa":14545,"Hart":14546,"##imeter":14547,"politik":14548,"even":14549,"foregå":14550,"##stjenester":14551,"those":14552,"sporet":14553,"brødrene":14554,"##skule":14555,"##otet":14556,"tenk":14557,"##fred":14558,"Møte":14559,"NTN":14560,"##hjelpen":14561,"##hetenes":14562,"##ert":14563,"innst":14564,"aktuell":14565,"Ål":14566,"diskutert":14567,"plak":14568,"påstand":14569,"nøytra":14570,"lova":14571,"kampene":14572,"##armen":14573,"ansvarlige":14574,"conside":14575,"stader":14576,"oppå":14577,"##skipet":14578,"reell":14579,"belastning":14580,"##tic":14581,"selvmord":14582,"##kin":14583,"##leddet":14584,"##hyl":14585,"##varen":14586,"spli":14587,"gjengjeld":14588,"transpor":14589,"meldinger":14590,"##vention":14591,"tilsette":14592,"ofre":14593,"lidelser":14594,"##ws":14595,"Charlie":14596,"##sbo":14597,"aldrig":14598,"drag":14599,"##rium":14600,"dreie":14601,"Aksel":14602,"nerve":14603,"##ytt":14604,"glim":14605,"##lista":14606,"Navnet":14607,"sønda":14608,"##odt":14609,"Porsgrunn":14610,"##kommu":14611,"formannskapet":14612,"regjeringens":14613,"utbredt":14614,"##reisen":14615,"Bom":14616,"riv":14617,"restri":14618,"personar":14619,"##aktivitet":14620,"##ssituasjon":14621,"##fisering":14622,"##LIG":14623,"##lelsen":14624,"Led":14625,"nese":14626,"tilsyns":14627,"##andet":14628,"ligning":14629,"tape":14630,"subsid":14631,"cho":14632,"evaluering":14633,"##skolene":14634,"##mengde":14635,"1898":14636,"152":14637,"lignet":14638,"leveres":14639,"##sentralen":14640,"##gul":14641,"furu":14642,"Lyn":14643,"konkurran":14644,"Chicago":14645,"Charl":14646,"nedlagt":14647,"220":14648,"såleis":14649,"##srud":14650,"teorien":14651,"open":14652,"hjulpet":14653,"verdig":14654,"##kner":14655,"##Wh":14656,"lensmann":14657,"kunsten":14658,"angående":14659,"HAR":14660,"somme":14661,"Anita":14662,"lade":14663,"##alin":14664,"kjemiske":14665,"publisert":14666,"analysis":14667,"##øye":14668,"Vald":14669,"##wards":14670,"klippe":14671,"imøte":14672,"regulert":14673,"Igjen":14674,"starta":14675,"##orsjon":14676,"tradisjonen":14677,"##ussing":14678,"##eteor":14679,"nynorsk":14680,"##sfjord":14681,"grove":14682,"effekter":14683,"Erna":14684,"utsette":14685,"taller":14686,"##selskapene":14687,"##sprogrammet":14688,"oppri":14689,"forutsettes":14690,"Marta":14691,"baker":14692,"bd":14693,"Bente":14694,"manu":14695,"1901":14696,"saaledes":14697,"##avis":14698,"Heim":14699,"fremstilling":14700,"Krig":14701,"tenår":14702,"inclu":14703,"##grunnlaget":14704,"##STAD":14705,"tobakk":14706,"Ep":14707,"##sentral":14708,"##stoffet":14709,"Bren":14710,"mors":14711,"##ården":14712,"svanger":14713,"Cu":14714,"##well":14715,"##verdier":14716,"##andidater":14717,"##hvi":14718,"##ledd":14719,"redskap":14720,"utsagn":14721,"OK":14722,"##store":14723,"Fry":14724,"Live":14725,"tilla":14726,"Helgeland":14727,"##skrivelse":14728,"tyngde":14729,"##IAN":14730,"AND":14731,"trussel":14732,"utgang":14733,"skremmende":14734,"oppi":14735,"##kultur":14736,"saksbehandling":14737,"##marken":14738,"##fasen":14739,"##sjekk":14740,"##ptet":14741,"synder":14742,"Gren":14743,"europeisk":14744,"skreiv":14745,"Amundsen":14746,"148":14747,"trådte":14748,"realiteten":14749,"##fens":14750,"berett":14751,"137":14752,"##rell":14753,"##priser":14754,"isolert":14755,"unnta":14756,"Ulla":14757,"area":14758,"skrivebordet":14759,"mild":14760,"Christop":14761,"tilknyttet":14762,"foreningen":14763,"SY":14764,"Saud":14765,"single":14766,"##oga":14767,"nederst":14768,"kjens":14769,"##itéen":14770,"bursdag":14771,"##botn":14772,"barnas":14773,"Cal":14774,"adv":14775,"info":14776,"dreiv":14777,"lagmanns":14778,"##isont":14779,"##ansvaret":14780,"Francis":14781,"Mexico":14782,"greske":14783,"##kjenner":14784,"##cha":14785,"vitenskapelig":14786,"##skrivning":14787,"138":14788,"##brukere":14789,"tradisjonelt":14790,"identifisere":14791,"Horn":14792,"iblant":14793,"##faglig":14794,"Amerikansk":14795,
[...]
