{"version":"1.0","truncation":null,"padding":null,"added_tokens":[{"id":0,"special":true,"content":"[PAD]","single_word":false,"lstrip":false,"rstrip":false,"normalized":false},{"id":1,"special":true,"content":"[UNK]","single_word":false,"lstrip":false,"rstrip":false,"normalized":false},{"id":2,"special":true,"content":"[CLS]","single_word":false,"lstrip":false,"rstrip":false,"normalized":false},{"id":3,"special":true,"content":"[SEP]","single_word":false,"lstrip":false,"rstrip":false,"normalized":false},{"id":4,"special":true,"content":"[MASK]","single_word":false,"lstrip":false,"rstrip":false,"normalized":false}],"normalizer":null,"pre_tokenizer":{"type":"Whitespace"},"post_processor":null,"decoder":null,"model":{"unk_token":"[UNK]","continuing_subword_prefix":"##","max_input_chars_per_word":100,"vocab":{"[PAD]":0,"[UNK]":1,"[CLS]":2,"[SEP]":3,"[MASK]":4,"!":5,"\"":6,"#":7,"$":8,"%":9,"&":10,"'":11,"(":12,")":13,"*":14,"+":15,",":16,"-":17,".":18,"/":19,"0":20,"1":21,"2":22,"3":23,"4":24,"5":25,"6":26,"7":27,"8":28,"9":29,":":30,";":31,"<":32,"=":33,">":34,"?":35,"@":36,"A":37,"B":38,"C":39,"D":40,"E":41,"F":42,"G":43,"H":44,"I":45,"J":46,"K":47,"L":48,"M":49,"N":50,"O":51,"P":52,"Q":53,"R":54,"S":55,"T":56,"U":57,"V":58,"W":59,"X":60,"Y":61,"Z":62,"[":63,"\\":64,"]":65,"^":66,"_":67,"`":68,"a":69,"b":70,"c":71,"d":72,"e":73,"f":74,"g":75,"h":76,"i":77,"j":78,"k":79,"l":80,"m":81,"n":82,"o":83,"p":84,"q":85,"r":86,"s":87,"t":88,"u":89,"v":90,"w":91,"x":92,"y":93,"z":94,"{":95,"|":96,"}":97,"~":98,"¢":99,"£":100,"¤":101,"¥":102,"¦":103,"¨":104,"©":105,"ª":106,"¬":107,"®":108,"¯":109,"°":110,"±":111,"²":112,"³":113,"µ":114,"¸":115,"¹":116,"º":117,"¼":118,"½":119,"¾":120,"À":121,"Á":122,"Â":123,"Ã":124,"Ä":125,"Å":126,"Æ":127,"Ç":128,"È":129,"É":130,"Ê":131,"Ë":132,"Ì":133,"Í":134,"Î":135,"Ï":136,"Ð":137,"Ñ":138,"Ò":139,"Ó":140,"Ô":141,"Õ":142,"Ö":143,"×":144,"Ø":145,"Ú":146,"Ü":147,"Þ":148,"ß":149,"à":150,"á":151,"â":152,"ã":153,"ä":154,"å":155,"æ":156,"ç":157,"è":158,"é":159,"ê":160,"ë":161,"ì":162,"í":163,"î":164,"ï":165,"ð":166,"ñ":167,"ò":168,"ó":169,"ô":170,"õ":171,"ö":172,"÷":173,"ø":174,"ù":175,"ú":176,"û":177,"ü":178,"ý":179,"þ":180,"ÿ":181,"Ā":182,"ā":183,"ă":184,"ą":185,"Ć":186,"ć":187,"Č":188,"č":189,"Ď":190,"Đ":191,"đ":192,"ē":193,"ė":194,"ę":195,"ě":196,"ğ":197,"ī":198,"ĭ":199,"İ":200,"ı":201,"ĺ":202,"ļ":203,"ľ":204,"Ł":205,"ł":206,"ń":207,"ņ":208,"ň":209,"Ŋ":210,"ŋ":211,"Ō":212,"ō":213,"ŏ":214,"ő":215,"Œ":216,"œ":217,"Ř":218,"ř":219,"Ś":220,"ś":221,"Ş":222,"ş":223,"Š":224,"š":225,"ţ":226,"ť":227,"ŧ":228,"ũ":229,"ū":230,"ŭ":231,"ů":232,"ų":233,"Ÿ":234,"ź":235,"Ż":236,"ż":237,"Ž":238,"ž":239,"ſ":240,"ƒ":241,"ơ":242,"ƭ":243,"ư":244,"ǎ":245,"ǐ":246,"ǒ":247,"ǔ":248,"ǫ":249,"ș":250,"ț":251,"Ʌ":252,"ɑ":253,"ɔ":254,"ə":255,"ɛ":256,"ɪ":257,"ʁ":258,"ʃ":259,"ʰ":260,"ʹ":261,"ʻ":262,"ʿ":263,"ˆ":264,"ˇ":265,"ˈ":266,"ː":267,"˚":268,"˜":269,"́":270,"̊":271,"Α":272,"Β":273,"Γ":274,"Δ":275,"Ε":276,"Η":277,"Θ":278,"Ι":279,"Κ":280,"Λ":281,"Μ":282,"Ν":283,"Ο":284,"Π":285,"Ρ":286,"Σ":287,"Τ":288,"Υ":289,"Φ":290,"Χ":291,"Ω":292,"ά":293,"έ":294,"ή":295,"ί":296,"α":297,"β":298,"γ":299,"δ":300,"ε":301,"ζ":302,"η":303,"θ":304,"ι":305,"κ":306,"λ":307,"μ":308,"ν":309,"ξ":310,"ο":311,"π":312,"ρ":313,"ς":314,"σ":315,"τ":316,"υ":317,"φ":318,"χ":319,"ψ":320,"ω":321,"ό":322,"ύ":323,"ώ":324,"ϕ":325,"Ѕ":326,"І":327,"А":328,"Б":329,"В":330,"Г":331,"Д":332,"Е":333,"Ж":334,"З":335,"И":336,"К":337,"Л":338,"М":339,"Н":340,"О":341,"П":342,"Р":343,"С":344,"Т":345,"У":346,"Ф":347,"Х":348,"Ц":349,"Ч":350,"Ш":351,"Э":352,"Ю":353,"Я":354,"а":355,"б":356,"в":357,"г":358,"д":359,"е":360,"ж":361,"з":362,"и":363,"й":364,"к":365,"л":366,"м":367,"н":368,"о":369,"п":370,"р":371,"с":372,"т":373,"у":374,"ф":375,"х":376,"ц":377,"ч":378,"ш":379,"щ":380,"ъ":381,"ы":382,"ь":383,"э":384,"ю":385,"я":386,"ё":387,"і":388,"ї":389,"ј":390,"њ":391,"Ґ":392,"Թ":393,"Ռ":394,"Վ":395,"ա":396,"ե":397,"ի":398,"յ":399,"ն":400,"ո":401,"ր":402,"ְ":403,"ִ":404,"ֵ":405,"ֶ":406,"ַ":407,"ָ":408,"ֹ":409,"ּ":410,"ׁ":411,"א":412,"ב":413,"ג":414,"ד":415,"ה":416,"ו":417,"ז":418,"ח":419,"ט":420,"י":421,"כ":422,"ל":423,"ם":424,"מ":425,"ן":426,"נ":427,"ס":428,"ע":429,"פ":430,"צ":431,"ק":432,"ר":433,"ש":434,"ת":435,"ء":436,"آ":437,"أ":438,"إ":439,"ئ":440,"ا":441,"ب":442,"ة":443,"ت":444,"ث":445,"ج":446,"ح":447,"خ":448,"د":449,"ذ":450,"ر":451,"ز":452,"س":453,"ش":454,"ص":455,"ض":456,"ط":457,"ع":458,"غ":459,"ـ":460,"ف":461,"ق":462,"ك":463,"ل":464,"م":465,"ن":466,"ه":467,"و":468,"ى":469,"ي":470,"َ":471,"پ":472,"ک":473,"گ":474,"ی":475,"क":476,"ज":477,"त":478,"द":479,"न":480,"प":481,"म":482,"य":483,"र":484,"ल":485,"व":486,"स":487,"ह":488,"ा":489,"ि":490,"ी":491,"े":492,"्":493,"া":494,"ਾ":495,"ਿ":496,"்":497,"ก":498,"ง":499,"ท":500,"น":501,"ม":502,"ย":503,"ร":504,"ล":505,"ว":506,"อ":507,"ั":508,"า":509,"฿":510,"เ":511,"่":512,"ག":513,"ད":514,"པ":515,"བ":516,"ར":517,"ས":518,"ི":519,"ེ":520,"ོ":521,"ა":522,"ე":523,"ი":524,"ღ":525,"Ḥ":526,"ḥ":527,"ṃ":528,"ṇ":529,"ṣ":530,"ṭ":531,"ạ":532,"ả":533,"ấ":534,"ầ":535,"ẩ":536,"ậ":537,"ế":538,"ề":539,"ể":540,"ễ":541,"ệ":542,"ị":543,"ọ":544,"ố":545,"ồ":546,"ộ":547,"ớ":548,"ờ":549,"ở":550,"ủ":551,"ự":552,"⁄":553,"₂":554,"₨":555,"€":556,"℃":557,"℉":558,"™":559,"←":560,"↑":561,"→":562,"↓":563,"↗":564,"∂":565,"∆":566,"∇":567,"∈":568,"∏":569,"−":570,"∙":571,"√":572,"∞":573,"∫":574,"≈":575,"≤":576,"≥":577,"⋅":578,"─":579,"│":580,"█":581,"■":582,"□":583,"▪":584,"▫":585,"▲":586,"▶":587,"▸":588,"►":589,"▼":590,"◀":591,"◄":592,"◆":593,"◉":594,"○":595,"●":596,"◗":597,"☀":598,"★":599,"☆":600,"☎":601,"☺":602,"♀":603,"♂":604,"♠":605,"♡":606,"♣":607,"♥":608,"♦":609,"♫":610,"⚫":611,"✂":612,"✆":613,"✍":614,"✑":615,"✓":616,"✔":617,"✚":618,"✨":619,"✪":620,"✶":621,"✸":622,"❄":623,"❆":624,"❑":625,"❖":626,"❚":627,"❞":628,"❤":629,"❥":630,"➊":631,"➋":632,"➌":633,"➍":634,"➔":635,"➜":636,"➤":637,"➥":638,"➦":639,"⠀":640,"あ":641,"い":642,"う":643,"え":644,"お":645,"か":646,"が":647,"き":648,"く":649,"け":650,"こ":651,"さ":652,"し":653,"す":654,"そ":655,"た":656,"だ":657,"ち":658,"っ":659,"つ":660,"て":661,"で":662,"と":663,"ど":664,"な":665,"に":666,"の":667,"は":668,"ま":669,"み":670,"め":671,"も":672,"や":673,"よ":674,"ら":675,"り":676,"る":677,"れ":678,"を":679,"ん":680,"ア":681,"ィ":682,"イ":683,"ウ":684,"エ":685,"オ":686,"カ":687,"キ":688,"ク":689,"グ":690,"コ":691,"サ":692,"シ":693,"ジ":694,"ス":695,"ズ":696,"タ":697,"ダ":698,"チ":699,"ッ":700,"ツ":701,"テ":702,"デ":703,"ト":704,"ド":705,"ナ":706,"ニ":707,"バ":708,"パ":709,"ビ":710,"ピ":711,"フ":712,"ブ":713,"プ":714,"マ":715,"ミ":716,"ム":717,"メ":718,"ャ":719,"ュ":720,"ラ":721,"リ":722,"ル":723,"レ":724,"ロ":725,"ン":726,"ー":727,"㈀":728,"㘀":729,"㤀":730,"㨀":731,"䄀":732,"䈀":733,"䐀":734,"䔀":735,"䘀":736,"䜀":737,"䤀":738,"䬀":739,"䰀":740,"䴀":741,"一":742,"丁":743,"万":744,"三":745,"上":746,"下":747,"不":748,"世":749,"业":750,"东":751,"中":752,"为":753,"主":754,"之":755,"九":756,"乡":757,"了":758,"事":759,"二":760,"五":761,"京":762,"人":763,"今":764,"代":765,"以":766,"伀":767,"会":768,"作":769,"元":770,"光":771,"全":772,"八":773,"公":774,"六":775,"内":776,"准":777,"出":778,"刀":779,"分":780,"利":781,"前":782,"力":783,"匀":784,"化":785,"北":786,"区":787,"十":788,"华":789,"单":790,"南":791,"原":792,"县":793,"双":794,"发":795,"口":796,"古":797,"台":798,"司":799,"吀":800,"合":801,"同":802,"名":803,"和":804,"品":805,"嘀":806,"四":807,"国":808,"图":809,"國":810,"在":811,"地":812,"场":813,"址":814,"坛":815,"城":816,"多":817,"大":818,"天":819,"太":820,"奖":821,"女":822,"好":823,"姐":824,"子":825,"学":826,"安":827,"宗":828,"定":829,"宝":830,"家":831,"富":832,"小":833,"山":834,"川":835,"州":836,"工":837,"己":838,"市":839,"帝":840,"平":841,"年":842,"库":843,"建":844,"开":845,"式":846,"彩":847,"德":848,"心":849,"愀":850,"戀":851,"成":852,"我":853,"手":854,"报":855,"挂":856,"搀":857,"攀":858,"教":859,"数":860,"文":861,"料":862,"新":863,"方":864,"族":865,"日":866,"昀":867,"明":868,"是":869,"最":870,"月":871,"有":872,"期":873,"未":874,"本":875,"机":876,"李":877,"村":878,"来":879,"東":880,"林":881,"果":882,"栀":883,"椀":884,"樀":885,"欀":886,"正":887,"武":888,"氀":889,"民":890,"氓":891,"水":892,"江":893,"河":894,"治":895,"法":896,"波":897,"洀":898,"海":899,"渀":900,"港":901,"漀":902,"瀀":903,"爀":904,"版":905,"牌":906,"物":907,"特":908,"狗":909,"猀":910,"玄":911,"王":912,"琀":913,"理":914,"甀":915,"生":916,"用":917,"田":918,"甲":919,"瘀":920,"白":921,"的":922,"皇":923,"真":924,"石":925,"码":926,"礀":927,"社":928,"神":929,"福":930,"空":931,"站":932,"算":933,"管":934,"精":935,"經":936,"红":937,"经":938,"网":939,"美":940,"老":941,"者":942,"肖":943,"能":944,"自":945,"色":946,"花":947,"藏":948,"行":949,"街":950,"西":951,"要":952,"解":953,"论":954,"财":955,"资":956,"跑":957,"路":958,"辛":959,"通":960,"道":961,"部":962,"都":963,"里":964,"金":965,"镇":966,"长":967,"门":968,"阳":969,"集":970,"香":971,"马":972,"高":973,"黄":974,"龙":975,"기":976,"다":977,"대":978,"리":979,"사":980,"산":981,"의":982,"이":983,"한":984,"️":985,"�":986,"🏻":987,"🏼":988,"👍":989,"👏":990,"😀":991,"😁":992,"😂":993,"😃":994,"😄":995,"😅":996,"😉":997,"😊":998,"😍":999,"😛":1000,"🙁":1001,"🙂":1002,"🙌":1003,"🙏":1004,"##e":1005,"##l":1006,"##b":1007,"##s":1008,"##t":1009,"##m":1010,"##ö":1011,"##r":1012,"##d":1013,"##i":1014,"##c":1015,"##h":1016,"##n":1017,"##a":1018,"##v":1019,"##o":1020,"##ø":1021,"##g":1022,"##u":1023,"##p":1024,"##k":1025,"##6":1026,"##f":1027,"##j":1028,"##T":1029,"##F":1030,"##K":1031,"##æ":1032,"##y":1033,"##2":1034,"##9":1035,"##3":1036,"##7":1037,"##ß":1038,"##q":1039,"##å":1040,"##W":1041,"##E":1042,"##D":1043,"##O":1044,"##M":1045,"##z":1046,"##0":1047,"##I":1048,"##é":1049,"##\\":1050,"##S":1051,"##J":1052,"##Ø":1053,"##A":1054,"##G":1055,"##R":1056,"##É":1057,"##á":1058,"##w":1059,"##4":1060,"##V":1061,"##L":1062,"##1":1063,"##N":1064,"##_":1065,"##U":1066,"##P":1067,"##-":1068,"##\"":1069,"##x":1070,"##C":1071,"##H":1072,"##8":1073,"##ſ":1074,"##5":1075,"##Y":1076,"##X":1077,"##ä":1078,"##B":1079,"##*":1080,"##.":1081,"##/":1082,"##Æ":1083,"##Å":1084,"##子":1085,"##ü":1086,"##ã":1087,"##Q":1088,"##Z":1089,"##{":1090,"##<":1091,"##ï":1092,"##:":1093,"##;":1094,"##?":1095,"##°":1096,"##>":1097,"##ó":1098,"##у":1099,"##т":1100,"##к":1101,"##е":1102,"##н":1103,"##д":1104,"##а":1105,"##р":1106,"##о":1107,"##с":1108,"##п":1109,"##и":1110,"##ы":1111,"##в":1112,"##č":1113,"##í":1114,"##ç":1115,"##(":1116,"##Ö":1117,"##ą":1118,"##ê":1119,"##з":1120,"##è":1121,"##Á":1122,"##,":1123,"##л":1124,"##和":1125,"##县":1126,"##đ":1127,"##β":1128,"##η":1129,"##̊":1130,"##も":1131,"##м":1132,"##г":1133,"##ф":1134,"##ч":1135,"##马":1136,"##镇":1137,"##)":1138,"##ò":1139,"##ì":1140,"##ā":1141,"##â":1142,"##ă":1143,"##ț":1144,"##š":1145,"##教":1146,"##的":1147,"##ŋ":1148,"##^":1149,"##=":1150,"##ι":1151,"##χ":1152,"##α":1153,"##ή":1154,"##λ":1155,"##ú":1156,"###":1157,"##+":1158,"##出":1159,"##し":1160,"##フ":1161,"##ミ":1162,"##通":1163,"##ô":1164,"##म":1165,"##क":1166,"##ा":1167,"##山":1168,"##华":1169,"##日":1170,"##报":1171,"##是":1172,"##最":1173,"##能":1174,"##解":1175,"##Ô":1176,"##ř":1177,"##た":1178,"##そ":1179,"##の":1180,"##э":1181,"##}":1182,"##'":1183,"##■":1184,"##¥":1185,"##™":1186,"##Ä":1187,"##£":1188,"##&":1189,"##!":1190,"##ṣ":1191,"##城":1192,"##址":1193,"##ð":1194,"##й":1195,"##ė":1196,"##ਿ":1197,"##|":1198,"##Š":1199,"##ō":1200,"##ी":1201,"##]":1202,"##ś":1203,"##✓":1204,"##%":1205,"##я":1206,"##ū":1207,"##ğ":1208,"##Ü":1209,"##ف":1210,"##و":1211,"##ك":1212,"##Â":1213,"##$":1214,"##ş":1215,"##ć":1216,"##田":1217,"##ī":1218,"##ק":1219,"##ר":1220,"##ự":1221,"##ύ":1222,"##θ":1223,"##ο":1224,"##ς":1225,"##ц":1226,"##і":1227,"##攀":1228,"##式":1229,"##会":1230,"##社":1231,"##ě":1232,"##ñ":1233,"##龙":1234,"##集":1235,"##肖":1236,"##期":1237,"##公":1238,"##开":1239,"##ŧ":1240,"##Ã":1241,"##ý":1242,"##行":1243,"##业":1244,"##中":1245,"##ل":1246,"##م":1247,"##ت":1248,"##س":1249,"##ط":1250,"##ر":1251,"##ک":1252,"##ا":1253,"##의":1254,"##à":1255,"##本":1256,"##ǎ":1257,"##ص":1258,"##ب":1259,"##ي":1260,"##π":1261,"##ί":1262,"##τ":1263,"##ε":1264,"##道":1265,"##不":1266,"##来":1267,"##[":1268,"##्":1269,"##त":1270,"##स":1271,"##▼":1272,"##®":1273,"##品":1274,"##文":1275,"##网":1276,"##丁":1277,"##で":1278,"##あ":1279,"##る":1280,"##シ":1281,"##ッ":1282,"##プ":1283,"##さ":1284,"##ん":1285,"##だ":1286,"##と":1287,"##ま":1288,"##~":1289,"##נ":1290,"##י":1291,"##ו":1292,"##ן":1293,"##乡":1294,"##א":1295,"##מ":1296,"##正":1297,"##ј":1298,"##琀":1299,"##愀":1300,"##爀":1301,"##ţ":1302,"##花":1303,"##神":1304,"##德":1305,"##里":1306,"##û":1307,"##ḥ":1308,"##港":1309,"##三":1310,"##图":1311,"##ת":1312,"##ン":1313,"##リ":1314,"##ē":1315,"##ш":1316,"##ɪ":1317,"##ə":1318,"##δ":1319,"##ρ":1320,"##έ":1321,"##原":1322,"##か":1323,"##つ":1324,"##み":1325,"##ų":1326,"##经":1327,"##河":1328,"##年":1329,"##新":1330,"##テ":1331,"##ー":1332,"##マ":1333,"##を":1334,"##ь":1335,"##者":1336,"##法":1337,"##र":1338,"##平":1339,"##μ":1340,"##ν":1341,"##õ":1342,"##ž":1343,"##்":1344,"##富":1345,"##江":1346,"##路":1347,"##街":1348,"##家":1349,"##六":1350,"##全":1351,"##彩":1352,"##四":1353,"##х":1354,"##ę":1355,"##Đ":1356,"##ж":1357,"##±":1358,"##ю":1359,"##щ":1360,"##海":1361,"##成":1362,"##发":1363,"##机":1364,"##方":1365,"##υ":1366,"##κ":1367,"##φ":1368,"##ά":1369,"##今":1370,"##天":1371,"##ד":1372,"##ש":1373,"##К":1374,"##С":1375,"##Е":1376,"##€":1377,"##主":1378,"##市":1379,"##礀":1380,"##漀":1381,"##瀀":1382,"##甀":1383,"##猀":1384,"##ど":1385,"##く":1386,"##に":1387,"##い":1388,"##す":1389,"##σ":1390,"##♦":1391,"##ω":1392,"##Ó":1393,"##氓":1394,"##ł":1395,"##ń":1396,"##北":1397,"##😁":1398,"##@":1399,"##ı":1400,"##川":1401,"##地":1402,"##Б":1403,"##þ":1404,"##渀":1405,"##戀":1406,"##椀":1407,"##ї":1408,"##Ѕ":1409,"##ن":1410,"##Ÿ":1411,"##Ò":1412,"##б":1413,"##大":1414,"##我":1415,"Javier":1416,"Kummervold":1417,"Wetjen":1418,"Brygfjeld":1419,"##er":1420,"##en":1421,"##Œ":1422,"##Н":1423,"##А":1424,"##О":1425,"##γ":1426,"##古":1427,"##ĺ":1428,"##ǫ":1429,"##上":1430,"##白":1431,"##要":1432,"##治":1433,"##林":1434,"##南":1435,"##理":1436,"##之":1437,"##台":1438,"##安":1439,"##ť":1440,"##皇":1441,"##Č":1442,"##ż":1443,"##ס":1444,"##כ":1445,"##Δ":1446,"##十":1447,"##ه":1448,"##ی":1449,"##部":1450,"##は":1451,"##え":1452,"##が":1453,"##ɑ":1454,"##人":1455,"##れ":1456,"##て":1457,"##な":1458,"##ア":1459,"##イ":1460,"##デ":1461,"##ィ":1462,"##う":1463,"##́":1464,"##メ":1465,"##ى":1466,"##村":1467,"##ز":1468,"##高":1469,"##手":1470,"##坛":1471,"##っ":1472,"##ち":1473,"##أ":1474,"##خ":1475,"##ź":1476,"##ラ":1477,"##ク":1478,"##ダ":1479,"##前":1480,"##帝":1481,"##Ρ":1482,"##Ε":1483,"##Α":1484,"##Κ":1485,"##Ο":1486,"##Υ":1487,"##ח":1488,"##Ď":1489,"##Í":1490,"##ロ":1491,"##ე":1492,"##ი":1493,"##ა":1494,"##库":1495,"##一":1496,"##族":1497,"##欀":1498,"##ה":1499,"##ː":1500,"##♥":1501,"##小":1502,"##姐":1503,"##站":1504,"##ة":1505,"##د":1506,"##码":1507,"##特":1508,"##ش":1509,"##美":1510,"##œ":1511,"##ह":1512,"##º":1513,"##ָ":1514,"##ּ":1515,"##न":1516,"##य":1517,"##ɔ":1518,"##●":1519,"##▲":1520,"##►":1521,"##ù":1522,"##自":1523,"##ל":1524,"##ב":1525,"##料":1526,"##き":1527,"##ë":1528,"##Ë":1529,"##ט":1530,"##리":1531,"##未":1532,"##ạ":1533,"##ル":1534,"##キ":1535,"##ビ":1536,"##ニ":1537,"##¾":1538,"##阳":1539,"##∇":1540,"##⋅":1541,"##ج":1542,"##ª":1543,"##ό":1544,"##≈":1545,"##䔀":1546,"##ร":1547,"##ง":1548,"##ม":1549,"##ล":1550,"##Þ":1551,"##在":1552,"##数":1553,"##学":1554,"##用":1555,"##ё":1556,"##ľ":1557,"##ق":1558,"##水":1559,"##ǔ":1560,"##ъ":1561,"##ム":1562,"##ス":1563,"##八":1564,"##ấ":1565,"##カ":1566,"##Σ":1567,"##ء":1568,"##Р":1569,"##В":1570,"##М":1571,"##У":1572,"##ع":1573,"##ि":1574,"##व":1575,"##ṇ":1576,"##ș":1577,"##ị":1578,"##ト":1579,"##ブ":1580,"##ウ":1581,"##ג":1582,"##े":1583,"##二":1584,"##ŏ":1585,"##算":1586,"##Π":1587,"##Ï":1588,"##П":1589,"##î":1590,"##ǐ":1591,"##ح":1592,"##פ":1593,"##ם":1594,"##多":1595,"##國":1596,"##ས":1597,"##门":1598,"##Թ":1599,"##ʁ":1600,"##王":1601,"##이":1602,"##波":1603,"##經":1604,"##奖":1605,"##Ω":1606,"##ÿ":1607,"##À":1608,"##ő":1609,"##明":1610,"##氀":1611,"##䜀":1612,"##洀":1613,"##ث":1614,"##チ":1615,"##ʃ":1616,"##化":1617,"##心":1618,"##光":1619,"##↑":1620,"##事":1621,"##ジ":1622,"##ュ":1623,"##レ":1624,"##ド":1625,"##や":1626,"##金":1627,"##空":1628,"##真":1629,"##有":1630,"##物":1631,"##建":1632,"##财":1633,"##Ñ":1634,"##女":1635,"##利":1636,"##五":1637,"##ƒ":1638,"##版":1639,"##元":1640,"##单":1641,"##内":1642,"##り":1643,"##ַ":1644,"##ע":1645,"##香":1646,"##宝":1647,"##©":1648,"##द":1649,"##福":1650,"##䰀":1651,"##伀":1652,"##䴀":1653,"##ầ":1654,"##Μ":1655,"##Τ":1656,"##Ν":1657,"##西":1658,"##定":1659,"##ピ":1660,"##お":1661,"##ャ":1662,"##Ž":1663,"##Ê":1664,"##こ":1665,"##↓":1666,"##国":1667,"##下":1668,"##다":1669,"##ְ":1670,"##ֹ":1671,"##ώ":1672,"##ե":1673,"##ի":1674,"##场":1675,"##Ł":1676,"##パ":1677,"##ツ":1678,"##َ":1679,"##ذ":1680,"##ั":1681,"##宗":1682,"##ら":1683,"##け":1684,"##❤":1685,"##✨":1686,"##民":1687,"##ǒ":1688,"##ʰ":1689,"##论":1690,"##️":1691,"##ζ":1692,"##准":1693,"##色":1694,"##サ":1695,"##대":1696,"##Ч":1697,"##گ":1698,"##Ú":1699,"##ʹ":1700,"##合":1701,"##作":1702,"##Т":1703,"##资":1704,"##ˆ":1705,"##Д":1706,"##И":1707,"##산":1708,"##ɛ":1709,"##È":1710,"##া":1711,"##分":1712,"##ਾ":1713,"##京":1714,"##ξ":1715,"##Л":1716,"##Ш":1717,"##Я":1718,"##Ì":1719,"##ŭ":1720,"##ո":1721,"##工":1722,"##�":1723,"##タ":1724,"##よ":1725,"##石":1726,"##Ś":1727,"##ल":1728,"##代":1729,"##都":1730,"##З":1731,"##Х":1732,"##昀":1733,"##樀":1734,"##搀":1735,"##コ":1736,"##好":1737,"##ض":1738,"##ナ":1739,"##ִ":1740,"##ׁ":1741,"##㤀":1742,"##世":1743,"##👏":1744,"##👍":1745,"##ա":1746,"##ն":1747,"##ˈ":1748,"##צ":1749,"##ơ":1750,"##غ":1751,"##Ю":1752,"##²":1753,"##¨":1754,"##牌":1755,"##Ц":1756,"##己":1757,"##管":1758,"##䬀":1759,"##刀":1760,"##䈀":1761,"##吀":1762,"##µ":1763,"##ད":1764,"##匀":1765,"##Ŋ":1766,"##玄":1767,"##Ç":1768,"##名":1769,"##ֶ":1770,"##ז":1771,"##ր":1772,"##่":1773,"##อ":1774,"##ย":1775,"##า":1776,"##น":1777,"##เ":1778,"##ก":1779,"##ว":1780,"##狗":1781,"##挂":1782,"##Ż":1783,"##🏼":1784,"##−":1785,"##为":1786,"##🏻":1787,"##ề":1788,"##إ":1789,"##ོ":1790,"##䄀":1791,"##䐀":1792,"##万":1793,"##յ":1794,"##グ":1795,"##バ":1796,"##ň":1797,"##口":1798,"##ֵ":1799,"##东":1800,"##州":1801,"##Ι":1802,"##ʿ":1803,"##ả":1804,"##Ř":1805,"##䘀":1806,"##䤀":1807,"##기":1808,"##瘀":1809,"##사":1810,"##□":1811,"##双":1812,"##ئ":1813,"##Ð":1814,"##甲":1815,"##エ":1816,"##Ş":1817,"##Г":1818,"##Ґ":1819,"##オ":1820,"##同":1821,"##ṭ":1822,"##◆":1823,"##█":1824,"##پ":1825,"##以":1826,"##한":1827,"##ท":1828,"##Χ":1829,"##➔":1830,"##跑":1831,"##ེ":1832,"##力":1833,"##ņ":1834,"##精":1835,"##Ʌ":1836,"##○":1837,"##`":1838,"##Θ":1839,"##Э":1840,"##黄":1841,"##⁄":1842,"##ズ":1843,"##辛":1844,"##★":1845,"##栀":1846,"##ố":1847,"##司":1848,"##红":1849,"##ů":1850,"##¬":1851,"##¸":1852,"##ـ":1853,"##Β":1854,"##ṃ":1855,"##њ":1856,"##果":1857,"##Ж":1858,"##प":1859,"##×":1860,"##九":1861,"##♀":1862,"##ở":1863,"##東":1864,"##😊":1865,"##㨀":1866,"##藏":1867,"##ღ":1868,"##Ḥ":1869,"##ậ":1870,"##Î":1871,"##⠀":1872,"##ĭ":1873,"##老":1874,"##ʻ":1875,"##İ":1876,"##㘀":1877,"##ˇ":1878,"##÷":1879,"##😃":1880,"##√":1881,"##ི":1882,"##Φ":1883,"##³":1884,"##ļ":1885,"##♂":1886,"##آ":1887,"##武":1888,"##ệ":1889,"##Ā":1890,"##Ф":1891,"##ủ":1892,"##ũ":1893,"##ư":1894,"##¤":1895,"##🙌":1896,"##❖":1897,"##😂":1898,"##─":1899,"##½":1900,"##太":1901,"##Η":1902,"##ớ":1903,"##长":1904,"##嘀":1905,"##¯":1906,"##ế":1907,"##˚":1908,"##☺":1909,"##ọ":1910,"##😀":1911,"##😄":1912,"##ƭ":1913,"##ồ":1914,"##😍":1915,"##ể":1916,"##∙":1917,"##❄":1918,"##Λ":1919,"##¹":1920,"##∂":1921,"##☀":1922,"##ज":1923,"##ϕ":1924,"##ộ":1925,"##པ":1926,"##ờ":1927,"##Ć":1928,"##😅":1929,"##བ":1930,"##Γ":1931,"##←":1932,"##→":1933,"##ར":1934,"##🙏":1935,"##◀":1936,"##♫":1937,"##ễ":1938,"##◄":1939,"##₂":1940,"##Õ":1941,"##☆":1942,"##∞":1943,"##♣":1944,"##♡":1945,"##ག":1946,"##¢":1947,"##˜":1948,"##І":1949,"##▪":1950,"##Ō":1951,"##♠":1952,"##▶":1953,"##¦":1954,"##✶":1955,"##🙂":1956,"##😉":1957,"##✸":1958,"##✂":1959,"##∆":1960,"##✪":1961,"##ẩ":1962,"##㈀":1963,"##❆":1964,"##⚫":1965,"##✍":1966,"##🙁":1967,"##✆":1968,"##✔":1969,"##↗":1970,"##◗":1971,"##▸":1972,"##℃":1973,"##李":1974,"##➤":1975,"##😛":1976,"##➍":1977,"##∏":1978,"##☎":1979,"##≤":1980,"##≥":1981,"##➊":1982,"##➌":1983,"##∫":1984,"##¼":1985,"##◉":1986,"##฿":1987,"##❚":1988,"##Ռ":1989,"##➋":1990,"##Վ":1991,"##➜":1992,"##▫":1993,"##➦":1994,"##❥":1995,"##₨":1996,"##∈":1997,"##✑":1998,"##➥":1999,"##et":2000,"##te":2001,"##re":2002,"##an":2003,"##or":2004,"##ne":2005,"##de":2006,"##le":2007,"##in":2008,"##ar":2009,"##ke":2010,"##il":2011,"##ge":2012,"##om":2013,"og":2014,"##se":2015,"de":2016,"##li":2017,"me":2018,"##st":2019,"for":2020,"##ve":2021,"til":2022,"##ra":2023,"##me":2024,"det":2025,"##je":2026,"##is":2027,"##ing":2028,"##al":2029,"##on":2030,"en":2031,"av":2032,"er":2033,"##eg":2034,"som":2035,"##ter":2036,"##un":2037,"på":2038,"##at":2039,"##ri":2040,"##kke":2041,"med":2042,"st":2043,"##el":2044,"at":2045,"sk":2046,"##sk":2047,"##pp":2048,"##am":2049,"##ør":2050,"in":2051,"##kt":2052,"##ver":2053,"##ol":2054,"##gen":2055,"##it":2056,"##as":2057,"##ten":2058,"##id":2059,"##der":2060,"##ler":2061,"et":2062,"var":2063,"##ig":2064,"den":2065,"##lig":2066,"##ed":2067,"om":2068,"##nt":2069,"##ag":2070,"har":2071,"##ns":2072,"##ro":2073,"##kk":2074,"##ie":2075,"ikke":2076,"ut":2077,"##and":2078,"##ste":2079,"##ad":2080,"##nd":2081,"##ger":2082,"vi":2083,"##pe":2084,"##år":2085,"##ren":2086,"han":2087,"##be":2088,"be":2089,"Det":2090,"##sen":2091,"##ru":2092,"he":2093,"##ner":2094,"fra":2095,"opp":2096,"se":2097,"##ul":2098,"##tt":2099,"##he":2100,"##den":2101,"##ær":2102,"al":2103,"##\"\"":2104,"##ser":2105,"##ks":2106,"##us":2107,"##ur":2108,"##ning":2109,"##ot":2110,"De":2111,"ve":2112,"kan":2113,"19":2114,"seg":2115,"re":2116,"kom":2117,"##nn":2118,"<<":2119,"no":2120,"##for":2121,"##nen":2122,"##iv":2123,"##ett":2124,"##ss":2125,"##het":2126,">>":2127,"så":2128,"##rer":2129,"sam":2130,"##ker":2131,"vil":2132,"men":2133,"jeg":2134,"##jø":2135,"el":2136,"##jon":2137,"##ik":2138,"##ang":2139,"##adde":2140,"må":2141,"hv":2142,"##nes":2143,"over":2144,"##len":2145,"hadde":2146,"bli":2147,"##ak":2148,"le":2149,"##mer":2150,"inn":2151,"##od":2152,"##ut":2153,"##ingen":2154,"##men":2155,"##att":2156,"si":2157,"##la":2158,"##res":2159,"##ord":2160,"##ok":2161,"gje":2162,"man":2163,"##ære":2164,"un":2165,"ble":2166,"ved":2167,"##ir":2168,"##ap":2169,"##ye":2170,"eller":2171,"##fe":2172,"##isk":2173,"20":2174,"##ort":2175,"sp":2176,"##så":2177,"du":2178,"##ikk":2179,"##lige":2180,"noe":2181,"##rå":2182,"##itt":2183,"##ll":2184,"##lse":2185,"and":2186,"hun":2187,"##are":2188,"##os":2189,"##art":2190,"ar":2191,"an":2192,"te":2193,"skal":2194,"##av":2195,"etter":2196,"##ret":2197,"##jo":2198,"##ier":2199,"før":2200,"##yg":2201,"der":2202,"##ans":2203,"pro":2204,"da":2205,"##old":2206,"##net":2207,"##ta":2208,"##ud":2209,"##ist":2210,"##ore":2211,"##sl":2212,"kon":2213,"##rø":2214,"sa":2215,"også":2216,"kun":2217,"##nde":2218,"##inger":2219,"##og":2220,"##ft":2221,"00":2222,"##iske":2223,"of":2224,"to":2225,"Jeg":2226,"##øy":2227,"Han":2228,"Me":2229,"##leg":2230,"år":2231,"##all":2232,"##nne":2233,"the":2234,"##ti":2235,"pe":2236,"være":2237,"##rd":2238,"##sp":2239,"##ly":2240,"##ling":2241,"##jer":2242,"li":2243,"##ry":2244,"sy":2245,"under":2246,"##und":2247,"##ant":2248,"##na":2249,"##beid":2250,"##um":2251,"hel":2252,"mot":2253,"##tte":2254,"ha":2255,"##si":2256,"St":2257,"##ppe":2258,"##va":2259,"##ken":2260,"##lt":2261,"##jen":2262,"ne":2263,"meg":2264,"dette":2265,"min":2266,"##ng":2267,"fe":2268,"få":2269,"##hete":2270,"18":2271,"##yr":2272,"##rem":2273,"fø":2274,"##ane":2275,"##var":2276,"kl":2277,"##..":2278,"##kte":2279,"bru":2280,"##ld":2281,"##asjon":2282,"alle":2283,"sli":2284,"##vis":2285,"Men":2286,"##ete":2287,"##sm":2288,"andre":2289,"##ale":2290,"--":2291,"Vi":2292,"##rs":2293,"\"\"\"":2294,"tid":2295,"##ært":2296,"##run":2297,"blir":2298,"##ab":2299,"##ch":2300,").":2301,"##ket":2302,"sl":2303,"##jør":2304,"##mme":2305,"For":2306,"##red":2307,"##ov":2308,"##kker":2309,"kunne":2310,"10":2311,"mer":2312,"Nor":2313,"##let":2314,"##ber":2315,"##set":2316,"##skap":2317,"##del":2318,"##det":2319,"##jel":2320,"sin":2321,"##hold":2322,"##ige":2323,"pl":2324,"##oli":2325,"##ce":2326,"##ment":2327,"bl":2328,"denne":2329,"enn":2330,"ste":2331,"ny":2332,"##ien":2333,"##ion":2334,"god":2335,"##alt":2336,"He":2337,"fin":2338,"\"\"\"\"":2339,"##ann":2340,"##nnom":2341,"##ven":2342,"##get":2343,"reg":2344,"skul":2345,"nå":2346,"##ast":2347,"komm":2348,"bet":2349,"bar":2350,"dem":2351,"ham":2352,"Be":2353,"##land":2354,"##ob":2355,"##iste":2356,"beg":2357,"bare":2358,"##les":2359,"ta":2360,"##ske":2361,"##fø":2362,"##per":2363,"når":2364,"noen":2365,"arbeid":2366,"##gene":2367,"##ma":2368,"Den":2369,"##ine":2370,"##du":2371,"her":2372,"lø":2373,"sel":2374,"##vik":2375,"frem":2376,"tre":2377,"ver":2378,"30":2379,"##sø":2380,"ma":2381,"fle":2382,"##mp":2383,"vel":2384,"gjennom":2385,"En":2386,"##sten":2387,"##dre":2388,"##tene":2389,"hvor":2390,"##ire":2391,"Og":2392,"##ue":2393,"##llom":2394,"##ktig":2395,"##ass":2396,"##da":2397,"##vin":2398,"15":2399,"mange":2400,"##lag":2401,"##yn":2402,"ti":2403,"##ningen":2404,"##atte":2405,"ned":2406,"##ran":2407,"la":2408,"##ffe":2409,"mellom":2410,"skulle":2411,"Hun":2412,"##im":2413,"sammen":2414,"##ings":2415,"##ia":2416,"sier":2417,"##lene":2418,"##jonen":2419,"vært":2420,"alt":2421,"hver":2422,"##isse":2423,"##lem":2424,".\"\"":2425,"Sk":2426,"##ba":2427,"slik":2428,"##stil":2429,"##pen":2430,"##ød":2431,"##runn":2432,"##yl":2433,"ville":2434,"##tid":2435,"tr":2436,"201":2437,"##kket":2438,"17":2439,"sm":2440,"##ic":2441,"ho":2442,"##ug":2443,">>.":2444,"##ster":2445,"dag":2446,"fort":2447,"uten":2448,"del":2449,"land":2450,"##gi":2451,"##jøre":2452,"##vi":2453,"sø":2454,"##vel":2455,"##00":2456,"ly":2457,"##oe":2458,"hø":2459,"##kken":2460,"##rende":2461,"##nene":2462,"hen":2463,"##gjen":2464,"ein":2465,"Se":2466,"##met":2467,"lang":2468,"##op":2469,"##ninger":2470,"12":2471,"gj":2472,"##ff":2473,"ty":2474,"##tel":2475,"nor":2476,"##tter":2477,"##dere":2478,"##sent":2479,"oss":2480,"##rie":2481,"##legg":2482,"##ring":2483,"11":2484,"or":2485,"##dene":2486,"deg":2487,"##sel":2488,"##ille":2489,"bå":2490,"##ost":2491,"mu":2492,"hans":2493,"første":2494,"##rat":2495,"vir":2496,"går":2497,"##vet":2498,"fram":2499,"##ult":2500,"##ub":2501,"henne":2502,"gå":2503,"Dette":2504,"##dag":2505,"##tes":2506,"nær":2507,"##kon":2508,"##ise":2509,"##utt":2510,"byg":2511,"##elt":2512,"##ets":2513,"Norge":2514,"199":2515,"##ny":2516,"##anske":2517,"In":2518,"16":2519,"stor":2520,"##rene":2521,"##bru":2522,"rett":2523,"fikk":2524,"dei":2525,"##ål":2526,"kje":2527,"##pet":2528,"##før":2529,"like":2530,"mil":2531,"fore":2532,"Da":2533,"##gan":2534,"får":2535,"##lo":2536,"fol":2537,"##akt":2538,"##rik":2539,"ans":2540,"Re":2541,"beste":2542,"##dt":2543,"grunn":2544,"##rist":2545,"##ull":2546,"##joner":2547,"hva":2548,"samme":2549,"igjen":2550,"Jo":2551,"##skje":2552,"##ust":2553,"##dig":2554,"##lsen":2555,"ser":2556,"##opp":2557,"nok":2558,"##over":2559,"200":2560,"sv":2561,"kjø":2562,"##som":2563,"ann":2564,"liv":2565,"##rin":2566,"##di":2567,"ten":2568,"##gang":2569,"##ktet":2570,"##kl":2571,"gi":2572,"##heten":2573,"##ER":2574,"##des":2575,"Ar":2576,"##ali":2577,"kommer":2578,"##sert":2579,"lag":2580,"##mid":2581,"poli":2582,"Ve":2583,"##ette":2584,"##ram":2585,"beh":2586,"##par":2587,"##ode":2588,"##elle":2589,"pers":2590,"ord":2591,"##nings":2592,"stør":2593,"##alg":2594,"kommu":2595,"##kom":2596,"flere":2597,"ingen":2598,"13":2599,"bed":2600,"tra":2601,"hele":2602,"##fter":2603,"##eter":2604,"føl":2605,"sko":2606,"##lø":2607,"14":2608,"seiv":2609,"gikk":2610,"ge":2611,"##ard":2612,"lig":2613,"godt":2614,"),":2615,"spe":2616,"disse":2617,"nye":2618,"mø":2619,"The":2620,"sn":2621,"gang":2622,"##ive":2623,"Ne":2624,"Le":2625,"store":2626,"##kse":2627,"##skri":2628,"##ris":2629,"dø":2630,"sine":2631,"##ill":2632,"##ell":2633,"##ksjon":2634,"##ide":2635,"##ga":2636,"##ska":2637,"litt":2638,"##dom":2639,"Al":2640,"selv":2641,"både":2642,"##bake":2643,"##heter":2644,"##ha":2645,"Mar":2646,"##sy":2647,"##kkje":2648,"##ation":2649,"##kter":2650,"siden":2651,"gjøre":2652,"mar":2653,"helt":2654,"mye":2655,"tilbake":2656,"eg":2657,"##ordan":2658,"##sb":2659,"mulig":2660,"##>>":2661,"tro":2662,"kont":2663,"forb":2664,"kra":2665,"hus":2666,"##slo":2667,"\"\"":2668,"SS":2669,"##nere":2670,"##dd":2671,"##rett":2672,"##kes":2673,"##ron":2674,"##tet":2675,"vis":2676,"##ktiv":2677,"##ses":2678,"vin":2679,"ikkje":2680,"hå":2681,"##hol":2682,"red":2683,"##kel":2684,"gam":2685,"##EN":2686,"eks":2687,"kro":2688,"høy":2689,"bil":2690,"##form":2691,"par":2692,"21":2693,"mor":2694,"##min":2695,"198":2696,"##gå":2697,"ad":2698,"skri":2699,"På":2700,"egen":2701,"annet":2702,"Her":2703,"##undt":2704,"frå":2705,"##reg":2706,"pa":2707,"##slag":2708,"len":2709,"mo":2710,"##stad":2711,"##rig":2712,"##stre":2713,"##hus":2714,"##nder":2715,"##vil":2716,"hje":2717,"##oner":2718,"spør":2719,"##arbeid":2720,"blitt":2721,"##sa":2722,"Du":2723,"sitt":2724,"ei":2725,"##ved":2726,"##ip":2727,"##ligere":2728,"000":2729,"##ange":2730,"25":2731,"##rom":2732,"gra":2733,"##ite":2734,"sto":2735,"leg":2736,"##ndig":2737,"far":2738,"##vor":2739,"form":2740,"fly":2741,"måtte":2742,"ele":2743,"Te":2744,"sit":2745,"viktig":2746,"##kene":2747,"##med":2748,"forsk":2749,"pre":2750,"dri":2751,"##stå":2752,"##byg":2753,"##gende":2754,"forhold":2755,"##ruppe":2756,"vår":2757,"rundt":2758,"##dri":2759,"Je":2760,"ba":2761,"vå":2762,"##ingene":2763,"th":2764,"Pe":2765,"##asse":2766,"ra":2767,"##ande":2768,"##ttet":2769,",>>":2770,"utvik":2771,"##anger":2772,"di":2773,"##olog":2774,"mennes":2775,"lå":2776,"Så":2777,"##inn":2778,"##mar":2779,"Ber":2780,"##sje":2781,"tok":2782,"jo":2783,"##ka":2784,"ska":2785,"hjel":2786,"22":2787,"gjel":2788,"##rede":2789,"kvin":2790,"Ch":2791,"##ras":2792,"##neste":2793,"##pl":2794,"##itet":2795,"...":2796,"##if":2797,"siste":2798,"mens":2799,"##orde":2800,"##ges":2801,"nat":2802,"pri":2803,"Joh":2804,"fun":2805,"mid":2806,"##gel":2807,"fors":2808,"van":2809,"by":2810,"##oren":2811,"is":2812,"Ja":2813,"bak":2814,"hal":2815,"##kn":2816,"##oll":2817,"ri":2818,"##sta":2819,"##yd":2820,"##ksom":2821,"gjør":2822,"##ct":2823,"##like":2824,"dom":2825,"##amil":2826,"inne":2827,"197":2828,"Til":2829,"##kje":2830,"ant":2831,"##kst":2832,"##satt":2833,"##pt":2834,"23":2835,"##iser":2836,"##tak":2837,"end":2838,"##ow":2839,"##use":2840,"Oslo":2841,"##ile":2842,"##rev":2843,"##istor":2844,"komme":2845,"##delig":2846,"inte":2847,"lu":2848,"##....":2849,"##mt":2850,"hand":2851,"##val":2852,"kor":2853,"større":2854,"hvordan":2855,"##unn":2856,"Når":2857,"res":2858,"##ende":2859,"bør":2860,"##sf":2861,"Sp":2862,"sj":2863,"produ":2864,"##tern":2865,"##lik":2866,"50":2867,"sna":2868,"stat":2869,"kr":2870,"##ck":2871,"tren":2872,"com":2873,"hos":2874,"je":2875,"##ian":2876,"sett":2877,"##man":2878,"eit":2879,"gir":2880,"##atter":2881,"##nte":2882,"barn":2883,"fl":2884,"ga":2885,"tilf":2886,"annen":2887,"lov":2888,"##kelig":2889,"##rens":2890,"##ule":2891,"videre":2892,"##org":2893,"spesi":2894,"bort":2895,"fri":2896,"fått":2897,"##ym":2898,"##vir":2899,"nr":2900,"hol":2901,"sær":2902,"##asjonen":2903,"skje":2904,"fast":2905,"fyl":2906,"Der":2907,"Etter":2908,"ka":2909,"##ib":2910,"##io":2911,"Med":2912,"##vent":2913,"##dra":2914,"##anse":2915,"Ha":2916,"sig":2917,"dy":2918,"fa":2919,"kri":2920,"##lingen":2921,"ster":2922,"##ften":2923,"Ut":2924,"##dal":2925,"##bei":2926,"Sam":2927,"##gt":2928,"fordi":2929,"job":2930,"##sko":2931,"##føl":2932,"hennes":2933,"my":2934,"Kon":2935,"kal":2936,"su":2937,"##berg":2938,"hvis":2939,"##iver":2940,"##ys":2941,"##kning":2942,"områ":2943,"sta":2944,"##pro":2945,"gjelder":2946,"stø":2947,"##mentet":2948,"##sket":2949,"tar":2950,"står":2951,"folk":2952,"##kere":2953,"Nord":2954,"##tert":2955,"bor":2956,"vet":2957,"plan":2958,"lo":2959,"?.":2960,"ofte":2961,"##pre":2962,"##ksemp":2963,"derfor":2964,"##konom":2965,"verd":2966,"rom":2967,"Hva":2968,"##iet":2969,"kap":2970,"stra":2971,"##dde":2972,"gjort":2973,"person":2974,"so":2975,"viser":2976,"bo":2977,"Har":2978,"##hand":2979,"gl":2980,"spørsm":2981,"aldri":2982,"mest":2983,"##oen":2984,"196":2985,"##tens":2986,"##sto":2987,"Er":2988,"øns":2989,"##delse":2990,"hold":2991,"ret":2992,"##ja":2993,"##iner":2994,"##agt":2995,"##ind":2996,"Ma":2997,"nett":2998,"tatt":2999,"blant":3000,"side":3001,"nød":3002,"##vende":3003,"organ":3004,"langt":3005,"##midler":3006,"mindre":3007,"sent":3008,"gre":3009,"prob":3010,"gjorde":3011,">>,":3012,"svar":3013,"kommune":3014,"##ial":3015,"##stand":3016,"##far":3017,"##iller":3018,"lok":3019,"##assen":3020,"40":3021,"Gud":3022,"Et":3023,"led":3024,"##skapet":3025,"##allet":3026,"##her":3027,"##røm":3028,"##unkt":3029,"kanskje":3030,"##parte":3031,"Som":3032,"##ltid":3033,"innen":3034,"##yen":3035,"##amp":3036,"norske":3037,"##lle":3038,"prø":3039,"##sn":3040,"sikker":3041,"fortel":3042,"##ppen":3043,"##lser":3044,"Nå":3045,"rå":3046,"Ho":3047,"##ral":3048,"##ærer":3049,"eksemp":3050,"Ge":3051,"##vem":3052,"##son":3053,"45":3054,"##tre":3055,"##ister":3056,"sjø":3057,"gamle":3058,"Om":3059,"små":3060,"mener":3061,"politi":3062,"##OR":3063,"##tion":3064,"##IN":3065,"famil":3066,"mann":3067,"##ativ":3068,"sty":3069,"satt":3070,"af":3071,"bruk":3072,"##rykk":3073,"##sty":3074,"tidligere":3075,"24":3076,"##ina":3077,"først":3078,"Krist":3079,"##gelig":3080,"##rakt":3081,"nytt":3082,"part":3083,"##rige":3084,"begyn":3085,"Th":3086,"##stem":3087,"##asser":3088,"##by":3089,"ca":3090,"##ben":3091,"##isjon":3092,"Ved":3093,"##dan":3094,".)":3095,"##jor":3096,"##tale":3097,"##tere":3098,"vanske":3099,"kjen":3100,"##one":3101,"El":3102,"##AN":3103,"##tende":3104,"##sj":3105,"mål":3106,"tje":3107,"##ilt":3108,"##gens":3109,"##tidig":3110,"tan":3111,"##ighet":3112,"##asjoner":3113,"##dens":3114,"hoved":3115,"05":3116,"##rne":3117,"kroner":3118,"måte":3119,"ulike":3120,"##sh":3121,"##vene":3122,"full":3123,"##omm":3124,"##vens":3125,"bedre":3126,"##heng":3127,"all":3128,"kla":3129,"ting":3130,"alltid":3131,"##lå":3132,"##alte":3133,"##bo":3134,"ligger":3135,"natur":3136,"##olle":3137,"##gram":3138,"ber":3139,"La":3140,"##ds":3141,"##avn":3142,"195":3143,"deres":3144,"stort":3145,"nord":3146,"øy":3147,"##ith":3148,"ung":3149,"ro":3150,"##mel":3151,"con":3152,"##stit":3153,"##uren":3154,"##jell":3155,"##bet":3156,"vur":3157,"ven":3158,"tillegg":3159,"behand":3160,"dra":3161,"skole":3162,"##fun":3163,"03":3164,"##nsyn":3165,"finne":3166,"hvil":3167,"194":3168,"##ome":3169,"heller":3170,"histor":3171,"kre":3172,"hjem":3173,"##stru":3174,"åp":3175,"sky":3176,"ful":3177,"##mene":3178,"hvert":3179,"##pper":3180,"Pro":3181,"##ors":3182,"##~~":3183,"utt":3184,"##iden":3185,"syn":3186,"##går":3187,"Ro":3188,"op":3189,"##rid":3190,"##ure":3191,"bra":3192,"forskjel":3193,"gode":3194,"##hen":3195,"økonom":3196,"##ført":3197,"polit":3198,"##rit":3199,"tror":3200,"bø":3201,"on":3202,"##uro":3203,"enkel":3204,"##bud":3205,"##ringer":3206,"arbeids":3207,"##jær":3208,"Av":3209,"Reg":3210,"hatt":3211,"tru":3212,"dere":3213,"Ste":3214,"##gre":3215,"##etter":3216,"fag":3217,"Man":3218,"fo":3219,"##sv":3220,"##føre":3221,"06":3222,"kult":3223,"Hel":3224,"offe":3225,"##irke":3226,"mus":3227,"dat":3228,"##led":3229,"klar":3230,"##mot":3231,"sos":3232,"prosent":3233,"##resse":3234,"kn":3235,"hav":3236,"##raf":3237,"##midlertid":3238,"avg":3239,"forsø":3240,"hør":3241,"##ktige":3242,"##ater":3243,"##andre":3244,"skjø":3245,"##ous":3246,"##ies":3247,"norsk":3248,"lite":3249,"##bar":3250,"##beider":3251,"##ftet":3252,"##aste":3253,"veg":3254,"sik":3255,"kar":3256,"35":3257,"Norsk":3258,"##lighet":3259,"##partementet":3260,"Am":3261,"halv":3262,"dre":3263,"bi":3264,"Denne":3265,"milli":3266,"##stan":3267,"as":3268,"##odet":3269,"Hvis":3270,"##AR":3271,"styr":3272,"##lie":3273,"valg":3274,"per":3275,"br":3276,"liten":3277,"jord":3278,"din":3279,"nødve":3280,"##olk":3281,"Johan":3282,"verden":3283,"vart":3284,"And":3285,"ind":3286,"##pa":3287,"va":3288,"55":3289,"##ST":3290,"svært":3291,"##ves":3292,"pen":3293,"gruppe":3294,"##kur":3295,"fakt":3296,"##ild":3297,"nærme":3298,"dire":3299,"inns":3300,"kva":3301,"nev":3302,"stå":3303,"Hvor":3304,":.":3305,"eksempel":3306,"tiden":3307,"##ilte":3308,"Kar":3309,"opple":3310,"##ain":3311,"ute":3312,"##sene":3313,"fem":3314,"##anen":3315,"##up":3316,"##ålet":3317,"imidlertid":3318,"##jone":3319,"mat":3320,"slutt":3321,"barne":3322,"vann":3323,".,":3324,"ferd":3325,"bok":3326,"lik":3327,"fot":3328,"ansvar":3329,"grad":3330,"##ald":3331,"lett":3332,"##lende":3333,"##ET":3334,"##stilling":3335,"senere":3336,"##ars":3337,"lenge":3338,"##kla":3339,"kraft":3340,"fire":3341,"##ike":3342,"pr":3343,"##sky":3344,"best":3345,"mennesker":3346,"omf":3347,"##lert":3348,"##gelse":3349,"nesten":3350,"sol":3351,"innt":3352,"##ong":3353,"##mann":3354,"Tor":3355,"Kan":3356,"##atet":3357,"##elles":3358,"Sve":3359,"samt":3360,"fil":3361,"kv":3362,"An":3363,"pos":3364,"ski":3365,"##dende":3366,"are":3367,"##itte":3368,"##inga":3369,"##oku":3370,"Bar":3371,"##ferd":3372,"##mess":3373,"prosje":3374,"gitt":3375,"holdt":3376,"akt":3377,"##spro":3378,"##styr":3379,"ønsker":3380,"##ich":3381,"unn":3382,"inform":3383,"Sø":3384,"ett":3385,"syke":3386,"193":3387,"særlig":3388,"##heim":3389,"meget":3390,"##ndt":3391,"slag":3392,"sted":3393,"##gte":3394,"gjen":3395,"arbeidet":3396,"høye":3397,"##utter":3398,"##ond":3399,"plass":3400,"##port":3401,"##uten":3402,"veldig":3403,"spur":3404,"bruke":3405,"kort":3406,"##rand":3407,"bry":3408,"lære":3409,"##vert":3410,"##verk":3411,"##hetene":3412,"Alle":3413,"Opp":3414,"##ted":3415,"enkelte":3416,"offent":3417,"vanskelig":3418,"##ae":3419,"ko":3420,"øye":3421,"ide":3422,"likevel":3423,"situ":3424,"##sg":3425,"Ny":3426,"##gere":3427,"##mb":3428,"##ikken":3429,"##ford":3430,"stad":3431,"##ho":3432,"hjemme":3433,"##teg":3434,"##fte":3435,"allerede":3436,"##sse":3437,"san":3438,"ja":3439,"spørsmål":3440,"aktiv":3441,"##under":3442,"bid":3443,"anon":3444,"##mber":3445,"##pte":3446,"##EL":3447,"forstå":3448,"opply":3449,"##spl":3450,"##sfor":3451,"Før":3452,"##eten":3453,"Mor":3454,"utvikling":3455,"Mo":3456,"sør":3457,"medlem":3458,"##velse":3459,"finnes":3460,"livet":3461,"årene":3462,"slike":3463,"26":3464,"tur":3465,"hjelp":3466,"##ndom":3467,"##nr":3468,"kommun":3469,"with":3470,"##jord":3471,"begynte":3472,"##lagt":3473,"28":3474,"27":3475,"##veld":3476,"året":3477,"behov":3478,"Un":3479,"anonym":3480,"repre":3481,"##ivå":3482,"##SA":3483,"met":3484,"holde":3485,"stand":3486,"betyd":3487,"Ola":3488,"rekke":3489,"##ppet":3490,"oppf":3491,"ene":3492,"##asje":3493,"##ote":3494,"kommet":3495,"##bl":3496,"ju":3497,"stu":3498,"##ity":3499,"##rasjon":3500,"skjer":3501,"Ikke":3502,"lenger":3503,"bedri":3504,"effe":3505,"Eg":3506,"våre":3507,"peri":3508,"##nter":3509,"##lv":3510,"nødvendig":3511,"landet":3512,"ter":3513,"foran":3514,"##ntet":3515,"domain":3516,"##ktor":3517,"01":3518,"tak":3519,"fleste":3520,"192":3521,"gjerne":3522,"##lit":3523,"##søke":3524,"Sel":3525,"rø":3526,"##ont":3527,"altså":3528,"##iene":3529,"ex":3530,"anonymous":3531,"pas":3532,"virkelig":3533,"paa":3534,"Fra":3535,"måne":3536,"that":3537,"helse":3538,"tils":3539,"kontr":3540,"##vat":3541,"##ay":3542,"##mpe":3543,"hende":3544,"##ark":3545,"stil":3546,"neste":3547,"død":3548,"##lede":3549,"##idt":3550,"##ps":3551,"begge":3552,"##syk":3553,"##kkel":3554,"synes":3555,"Hans":3556,"##ril":3557,"rel":3558,"enke":3559,"##ksomhet":3560,"ev":3561,"##ats":3562,"bef":3563,"##revet":3564,"eneste":3565,"ganger":3566,"foret":3567,"samarbeid":3568,"eie":3569,"##mmer":3570,"##vde":3571,"##mende":3572,"##of":3573,"organis":3574,"dagen":3575,"##istri":3576,"##else":3577,"##agn":3578,"visste":3579,"##uni":3580,"hjer":3581,"problem":3582,"Fe":3583,"bur":3584,"##lere":3585,"191":3586,"##vere":3587,"ledd":3588,"bruker":3589,"##late":3590,"##nende":3591,"##deling":3592,"29":3593,"forbin":3594,"sak":3595,"kny":3596,"##uk":3597,"At":3598,"Fot":3599,"hy":3600,"##ht":3601,"##dust":3602,"##angen":3603,"##året":3604,"##bli":3605,"##bygg":3606,"vei":3607,"hverandre":3608,"inter":3609,"mel":3610,"##lef":3611,"pres":3612,"##drag":3613,"##råk":3614,"lagt":3615,"##mark":3616,"gått":3617,"fjer":3618,"ungdom":3619,"Sol":3620,"fortsatt":3621,"##IL":3622,"ob":3623,"##alen":3624,"##........":3625,"##rum":3626,"##merik":3627,"##alle":3628,"Sta":3629,"##takt":3630,"##ction":3631,"kost":3632,"kultur":3633,"miljø":3634,"##aly":3635,"Pa":3636,"##nskap":3637,"tun":3638,"løs":3639,"##pene":3640,"saken":3641,"felles":3642,"Sy":3643,"begy":3644,"##råd":3645,"dager":3646,"imp":3647,"bud":3648,"hånd":3649,"dår":3650,"vanlig":3651,"##sette":3652,"sje":3653,"klart":3654,"##æring":3655,"##stet":3656,"To":3657,"##van":3658,"bestemme":3659,"##leder":3660,"fant":3661,"sagt":3662,"##kret":3663,"##slut":3664,"forslag":3665,"att":3666,"Hol":3667,"Nei":3668,"##aner":3669,"##tta":3670,"samfun":3671,"leder":3672,"##sett":3673,"mine":3674,"po":3675,"##usjon":3676,"fiske":3677,"##ikt":3678,"krav":3679,"31":3680,"100":3681,"Andre":3682,"sette":3683,"bek":3684,"Bjør":3685,"stud":3686,"We":3687,"##oden":3688,"##ball":3689,"##iel":3690,"##uler":3691,"utenfor":3692,"intern":3693,"##alet":3694,"##sam":3695,"##linger":3696,"spurte":3697,"møte":3698,"svarte":3699,"##på":3700,"##kkelig":3701,"##ilde":3702,"##laget":3703,"slå":3704,"##nding":3705,"kjent":3706,"forut":3707,"fall":3708,"gar":3709,"##bruk":3710,"##hø":3711,"##lin":3712,"følge":3713,"##isen":3714,"mis":3715,"##spe":3716,"minst":3717,"Sa":3718,"enkelt":3719,"##fører":3720,"##ori":3721,"##ress":3722,"hodet":3723,"tekn":3724,"leng":3725,"##oret":3726,"teg":3727,"finner":3728,"##che":3729,"##kku":3730,"mør":3731,"##ivers":3732,"##ting":3733,"enda":3734,"##iale":3735,"##følge":3736,"kapit":3737,"forskjellige":3738,"marke":3739,"##ygg":3740,"##tatt":3741,"foreld":3742,"føle":3743,"Under":3744,"råd":3745,"trans":3746,"Kn":3747,"kunst":3748,"##udd":3749,"##utten":3750,"dersom":3751,"unge":3752,"bel":3753,"dis":3754,"forteller":3755,"Dag":3756,"event":3757,"##part":3758,"##mes":3759,"konkur":3760,"##rn":3761,"##akter":3762,"doku":3763,"dan":3764,"samtidig":3765,"##liv":3766,"brukt":3767,"års":3768,"vok":3769,"ban":3770,"Ta":3771,"kvinner":3772,"menn":3773,"Bl":3774,"##AL":3775,"Bo":3776,"nem":3777,"Ra":3778,"##ons":3779,"største":3780,"mitt":3781,"##områ":3782,"fred":3783,"##nns":3784,"Kom":3785,"##ndte":3786,"vurder":3787,"juni":3788,"##ffer":3789,"##we":3790,"##ON":3791,"##rert":3792,"tilfel":3793,"##kerne":3794,"komp":3795,"seks":3796,"mater":3797,"##menn":3798,"ganske":3799,"føre":3800,"##fra":3801,"Inn":3802,"hjelpe":3803,"##urs":3804,"02":3805,"##varer":3806,"pra":3807,"##lf":3808,"stedet":3809,"trenger":3810,"kvinne":3811,"informasjon":3812,"##uss":3813,"reise":3814,"kam":3815,"tenkte":3816,"09":3817,"Ka":3818,"Dan":3819,"##onen":3820,"##lege":3821,"ap":3822,"set":3823,"na":3824,"##kkurat":3825,"##uelle":3826,"Hv":3827,"Ander":3828,"##IS":3829,"ram":3830,"stille":3831,"syk":3832,"08":3833,"##gje":3834,"##terte":3835,"øv":3836,"sen":3837,"Ba":3838,"##ksjonen":3839,"nø":3840,"klo":3841,"##ski":3842,"##kka":3843,"##serie":3844,"disk":3845,"mang":3846,"##kten":3847,"tu":3848,"##tell":3849,"##urt":3850,"tiltak":3851,"forf":3852,"då":3853,"forbindelse":3854,"##uer":3855,"##beide":3856,"##satte":3857,"##terer":3858,"##deles":3859,"##sted":3860,"##ledes":3861,"Hø":3862,"lever":3863,"Hen":3864,"##retter":3865,"tallet":3866,"ab":3867,"fr":3868,"##inget":3869,"delta":3870,"it":3871,"##co":3872,"##ppa":3873,"tom":3874,"Fran":3875,"60":3876,"##int":3877,"forn":3878,"##fl":3879,"fores":3880,"Euro":3881,"én":3882,"ol":3883,"pris":3884,"##mo":3885,"løpet":3886,"##vær":3887,"##mat":3888,"##raft":3889,"innte":3890,"Stort":3891,"egne":3892,"Norges":3893,"menneske":3894,"tør":3895,"støtte":3896,"tred":3897,"##klar":3898,"alvor":3899,"riktig":3900,"##står":3901,"):":3902,"##jonene":3903,"##fa":3904,"Bergen":3905,"legge":3906,"##ING":3907,"##gjør":3908,"nasjon":3909,"grun":3910,"##inne":3911,"##serte":3912,"##ktene":3913,"omk":3914,"utdan":3915,"##bø":3916,"##deren":3917,"regjer":3918,"##minist":3919,"##sed":3920,"##huset":3921,"Fa":3922,"##pos":3923,"spesielt":3924,"start":3925,"##meld":3926,"feil":3927,"kirke":3928,"området":3929,"Sør":3930,"kjente":3931,"Bru":3932,"jf":3933,"kveld":3934,"##vol":3935,"##skaper":3936,"##likt":3937,"bidra":3938,"Stor":3939,"##sd":3940,"mannen":3941,"ch":3942,"Hal":3943,"190":3944,"##bu":3945,"we":3946,"ferdig":3947,"result":3948,"##føring":3949,"direkte":3950,"mai":3951,"##valg":3952,"bord":3953,"##rav":3954,"byen":3955,"##iler":3956,"##ative":3957,"laget":3958,"##valget":3959,"##nsjon":3960,"veien":3961,"##kan":3962,"Fred":3963,"07":3964,"eng":3965,"##ju":3966,"etab":3967,"sub":3968,"drift":3969,"Ty":3970,"Tron":3971,"##ningene":3972,"Per":3973,"dyr":3974,"grø":3975,"betyr":3976,"personer":3977,"##oc":3978,"USA":3979,"##ata":3980,"##yer":3981,"nærmere":3982,"##igur":3983,"##tlig":3984,"##menter":3985,"ekst":3986,"Pl":3987,"##lis":3988,"leve":3989,"##ou":3990,"gene":3991,"bety":3992,"millioner":3993,"Christ":3994,"##gift":3995,"ekte":3996,"meld":3997,"kontakt":3998,"##fer":3999,"Mart":4000,"##adet":4001,"33":4002,"familie":4003,"##uar":4004,"##orten":4005,"Car":4006,"post":4007,"gren":4008,"betydning":4009,"not":4010,"##snitt":4011,"##svar":4012,"##fall":4013,"brø":4014,"##messig":4015,"tenke":4016,"erfar":4017,"rette":4018,"lin":4019,"Ingen":4020,"##bel":4021,"##oliti":4022,"vise":4023,"Par":4024,"beve":4025,"snart":4026,"##AG":4027,"##stene":4028,"slo":4029,"navn":4030,"Ad":4031,"posit":4032,"##gående":4033,"stadig":4034,"##landet":4035,"32":4036,"kli":4037,"##nelse":4038,"Lø":4039,"##sland":4040,",-":4041,"deler":4042,"Noen":4043,"kommunen":4044,"##lemer":4045,"brukes":4046,"id":4047,"##nta":4048,"beny":4049,"art":4050,"eget":4051,"##ham":4052,"##ummer":4053,"##sere":4054,"##vå":4055,"snakke":4056,"bygge":4057,"ope":4058,"Ann":4059,"##sti":4060,"##nden":4061,"vær":4062,"Tr":4063,"vårt":4064,"##orer":4065,"##olit":4066,"fru":4067,"##rek":4068,"##nad":4069,"dermed":4070,"fry":4071,"##AT":4072,"##iljø":4073,"prin":4074,"##itee":4075,"døde":4076,"##rar":4077,"tot":4078,"psyk":4079,"##ygge":4080,"time":4081,"kjør":4082,"sh":4083,",.":4084,"##oks":4085,"seier":4086,"##ca":4087,"189":4088,"##apt":4089,"huset":4090,"folke":4091,"##gruppe":4092,"indust":4093,"overfor":4094,"innenfor":4095,"Var":4096,"##mø":4097,"Dei":4098,"##sek":4099,"but":4100,"akkurat":4101,"##ork":4102,"burde":4103,"dro":4104,"ener":4105,"tv":4106,"Disse":4107,"##rien":4108,"jan":4109,"##ES":4110,"tredje":4111,"##une":4112,"Nil":4113,"##selig":4114,"efter":4115,"Jon":4116,"Foto":4117,"skolen":4118,"kjem":4119,"øynene":4120,"##skole":4121,"##avnet":4122,"##unktet":4123,"##kle":4124,"Vest":4125,"Mange":4126,"##ida":4127,"ry":4128,"instit":4129,"Trond":4130,"fylke":4131,"øyebli":4132,"Ein":4133,"rad":4134,"##grunn":4135,"fan":4136,"gro":4137,"rapp":4138,"##uelt":4139,"##somt":4140,"regist":4141,"##ffet":4142,"90":4143,"pla":4144,"tø":4145,"fjor":4146,"##ssuten":4147,"70":4148,"##mte":4149,"Co":4150,"Sand":4151,"##dis":4152,"øn":4153,"##aler":4154,"Over":4155,"##gangsp":4156,"val":4157,"sti":4158,"venn":4159,"##sle":4160,"##tr":4161,"skriver":4162,"Br":4163,"program":4164,"##ple":4165,"##rike":4166,"##ndag":4167,"##sset":4168,"##talen":4169,"lys":4170,"##20":4171,"Ole":4172,"##derne":4173,"##ED":4174,"Ind":4175,"##hel":4176,"vite":4177,"interes":4178,"pub":4179,"##stein":4180,"Fin":4181,"funnet":4182,"delt":4183,"Hå":4184,"Alt":4185,"##ulle":4186,"##gangen":4187,"##ograf":4188,"##vd":4189,"Sch":4190,"##ksis":4191,"følgende":4192,"måten":4193,"blå":4194,"##stendig":4195,"##ologi":4196,"Kl":4197,"hvem":4198,"stod":4199,"skyld":4200,"##RK":4201,"prakt":4202,"eldre":4203,"legger":4204,"slags":4205,"wh":4206,"##sjett":4207,"##departementet":4208,"vekt":4209,"kry":4210,"do":4211,"Min":4212,"New":4213,"##ban":4214,"Land":4215,"Gje":4216,"NT":4217,"##arbeidet":4218,"##mens":4219,"ris":4220,"borte":4221,"##kjø":4222,"tri":4223,"80":4224,"fjell":4225,"hu":4226,"nærings":4227,"begynne":4228,"imot":4229,"gr":4230,"viste":4231,"co":4232,"##ty":4233,"##fen":4234,"04":4235,"eiendom":4236,"skrive":4237,"grå":4238,"skj":4239,"##uen":4240,"morgen":4241,"system":4242,"##stø":4243,"##rette":4244,"kj":4245,"internasjon":4246,"##sending":4247,"##nner":4248,"Or":4249,"##orn":4250,"ky":4251,"##age":4252,"##stat":4253,"from":4254,"Erik":4255,"##gs":4256,"barna":4257,"##OT":4258,"bu":4259,"\"\"\"\".":4260,"penger":4261,"Hvordan":4262,"barnet":4263,"2016":4264,"##søk":4265,"##ranse":4266,"virke":4267,"hensyn":4268,"star":4269,"##ksjoner":4270,"sikkert":4271,"##øs":4272,"##kar":4273,"##anter":4274,"vare":4275,"lav":4276,".\"\"\"":4277,"behandling":4278,"bestemt":4279,"spille":4280,"Jes":4281,"##mor":4282,"##ene":4283,"##handling":4284,"aug":4285,"gammel":4286,"##kkes":4287,"Ant":4288,"##øren":4289,"mars":4290,"elekt":4291,"kjenner":4292,"sentra":4293,"##ko":4294,"hørte":4295,"##styret":4296,"##setter":4297,"##ze":4298,"verdens":4299,"##tering":4300,"34":4301,"tjeneste":4302,"##dagen":4303,"##risten":4304,"2018":4305,"fy":4306,"Ver":4307,"omkring":4308,"##veien":4309,"Lu":4310,"Jan":4311,"naturlig":4312,"##pers":4313,"musikk":4314,"Ham":4315,"##rsom":4316,"188":4317,"##ftene":4318,"##aller":4319,"mun":4320,"##holder":4321,"##må":4322,"ang":4323,"natt":4324,"##kende":4325,"##ath":4326,"John":4327,"Dersom":4328,"sterkt":4329,"##produ":4330,"ansatte":4331,"##til":4332,"##bok":4333,"uttrykk":4334,"des":4335,"##dent":4336,"knyttet":4337,"36":4338,"oppga":4339,"Finn":4340,"myndig":4341,"##bil":4342,"##visning":4343,"##organ":4344,"##ime":4345,"hev":4346,"##ium":4347,"##qu":4348,"vit":4349,"kjær":4350,"kontroll":4351,"##nader":4352,"kjøpe":4353,"##fin":4354,"glad":4355,"##nå":4356,"##fi":4357,"##kkene":4358,"merke":4359,"##undet":4360,"alene":4361,"##ator":4362,"##stemet":4363,"have":4364,"egentlig":4365,"tå":4366,"##livet":4367,"##væ":4368,"langs":4369,"##iktet":4370,"regel":4371,"lette":4372,"-.":4373,"nu":4374,"bevis":4375,"høre":4376,"##gn":4377,"Komm":4378,"utgangsp":4379,"arbeider":4380,"drø":4381,"app":4382,"##astet":4383,"##mu":4384,"##sson":4385,"hj":4386,"Si":4387,"analy":4388,"skatte":4389,"antall":4390,"faktisk":4391,"genere":4392,"##ogn":4393,"rask":4394,"##lsene":4395,"Høy":4396,"##verket":4397,"Sh":4398,"##unde":4399,"januar":4400,"##atten":4401,"holder":4402,"##sikt":4403,"norm":4404,"##senter":4405,"##ikket":4406,"skog":4407,"##isten":4408,"Ke":4409,"##isering":4410,"meter":4411,"kil":4412,"født":4413,"##gj":4414,"midt":4415,"aks":4416,"##sker":4417,"lille":4418,"represent":4419,"helst":4420,"lærer":4421,"##setning":4422,"sle":4423,"retning":4424,"lokale":4425,"aut":4426,"Vel":4427,"sla":4428,"Kanskje":4429,"fekk":4430,"##mi":4431,"alder":4432,"##valt":4433,"gjø":4434,"##annen":4435,"##vok":4436,"kunnskap":4437,"##ttes":4438,"##vern":4439,"was":4440,"grunnlag":4441,"nettopp":4442,"##sende":4443,"##varende":4444,"##istet":4445,"klare":4446,"Arbeid":4447,"##vid":4448,"TV":4449,"timer":4450,"Også":4451,"##jenes":4452,"utford":4453,"lange":4454,"tidlig":4455,"viktige":4456,"Peder":4457,"hvorfor":4458,"vest":4459,"opplys":4460,"##pi":4461,"lege":4462,"reali":4463,"Lars":4464,"fatt":4465,"tale":4466,"##po":4467,"2017":4468,"ekstra":4469,"##ringen":4470,"Sverige":4471,"##vs":4472,"dårlig":4473,"kvali":4474,"slikt":4475,"hånden":4476,"##løp":4477,"hvilke":4478,"tydelig":4479,"inve":4480,"##hengig":4481,"##hl":4482,"##skudd":4483,"høyere":4484,"gul":4485,"##mod":4486,"186":4487,"april":4488,"187":4489,"lær":4490,"##ces":4491,"administ":4492,"ønsket":4493,"undersøke":4494,"mig":4495,"##king":4496,"Ol":4497,"noko":4498,"##gifter":4499,"##unt":4500,"bereg":4501,"##føres":4502,"##ala":4503,"##utselig":4504,"##rud":4505,"snakket":4506,"##lia":4507,"II":4508,"lot":4509,"Rom":4510,"tilfelle":4511,"##ativt":4512,"AS":4513,"##isjonen":4514,"Anne":4515,"distri":4516,"!.":4517,"##foren":4518,"37":4519,"##ansen":4520,"##rad":4521,"politiet":4522,"satte":4523,"okt":4524,"##petanse":4525,"lese":4526,"bro":4527,"##ollen":4528,"redu":4529,"##ate":4530,"##bart":4531,"spiller":4532,"yr":4533,"Ly":4534,"olje":4535,"prøve":4536,"juli":4537,"sommer":4538,"##utvik":4539,"gangen":4540,"vert":4541,"##ører":4542,"##sering":4543,"##SS":4544,"luft":4545,"2015":4546,"##mentar":4547,"##ørdag":4548,"åpen":4549,"pasien":4550,"beskri":4551,"##delige":4552,"##OL":4553,"sikre":4554,"##hå":4555,"##nev":4556,"##gar":4557,"ru":4558,"##\"\"\"\"":4559,"##hav":4560,"Øst":4561,"familien":4562,"høyt":4563,"##ratur":4564,"minutter":4565,"lyst":4566,"Derfor":4567,"##range":4568,"##vare":4569,"amerik":4570,"ellers":4571,"ennå":4572,"##fil":4573,"fører":4574,"##fly":4575,"stre":4576,"Kr":4577,"praksis":4578,"##sens":4579,"saa":4580,"##ving":4581,"sjå":4582,"Ju":4583,"##legget":4584,"##ksten":4585,"vore":4586,"krig":4587,"gru":4588,"Hus":4589,"same":4590,"Is":4591,"lokal":4592,"##oss":4593,"produksjon":4594,"spen":4595,"interesse":4596,"følger":4597,"rek":4598,"38":4599,"vist":4600,"##tiden":4601,"stilling":4602,"##kjen":4603,"##IK":4604,"##bruks":4605,"##holdet":4606,"uke":4607,"skip":4608,"bolig":4609,"##fri":4610,"##OM":4611,"ke":4612,"blod":4613,"ren":4614,"##atisk":4615,"##pli":4616,"konf":4617,"No":4618,"indiv":4619,"##unst":4620,"problemer":4621,"jobb":4622,"historie":4623,"##iere":4624,"##gjøre":4625,"vid":4626,"påvir":4627,"##funn":4628,"Fol":4629,"##als":4630,"Knut":4631,"##ree":4632,"tilbud":4633,"##iss":4634,"skape":4635,"41":4636,"stund":4637,"och":4638,"hvilken":4639,"sterk":4640,"##iteen":4641,"##leis":4642,"Trom":4643,"stemme":4644,"ytter":4645,"nevnt":4646,"##lar":4647,"ventet":4648,"Eng":4649,"##ivt":4650,"##løs":4651,"##mannen":4652,"##aling":4653,"nemlig":4654,"##ulta":4655,"økonomiske":4656,"##kjent":4657,"spørsmålet":4658,"##verd":4659,"vold":4660,"Stat":4661,"hi":4662,"##jem":4663,"ress":4664,"##~~~~":4665,"39":4666,"salg":4667,"Hvorfor":4668,"lar":4669,"##gu":4670,"kamp":4671,"tap":4672,"##oeng":4673,"Lar":4674,"Tid":4675,"##ions":4676,"##aster":4677,"##skin":4678,"meir":4679,"finans":4680,"##abel":4681,"Ga":4682,"##eth":4683,"500":4684,"bod":4685,"Slik":4686,"##taler":4687,"ST":4688,"sende":4689,"fremdeles":4690,"##kommende":4691,"språk":4692,"##klu":4693,"##sdag":4694,"rød":4695,"Rø":4696,"##aske":4697,"sc":4698,"punkt":4699,"Stortinget":4700,"##ober":4701,"nivå":4702,"##øya":4703,"##ktør":4704,"75":4705,"kunde":4706,"hum":4707,"økt":4708,"berre":4709,"skade":4710,"varme":4711,"##tra":4712,"vere":4713,"bnr":4714,"kir":4715,"##my":4716,"samlet":4717,"sikkerhet":4718,"##ade":4719,"altern":4720,"##urer":4721,"telef":4722,"##ph":4723,"##ptember":4724,"##rådet":4725,"hens":4726,"Like":4727,"##dert":4728,"steder":4729,"ansiktet":4730,"fyr":4731,"still":4732,"##es":4733,"##nda":4734,"rea":4735,"engel":4736,"2000":4737,"mente":4738,"sal":4739,"##uttet":4740,"##yggen":4741,"Wil":4742,"##tok":4743,"##fjord":4744,"ditt":4745,"##borg":4746,"fart":4747,"sosial":4748,"##onn":4749,"eier":4750,"##legging":4751,"reiste":4752,"##uld":4753,"##skrift":4754,"##hver":4755,"##cti":4756,"blev":4757,"##rim":4758,"makt":4759,"Mø":4760,"##ins":4761,"##delsen":4762,"##bå":4763,"oms":4764,"politiske":4765,"##ID":4766,"##attet":4767,"Seiv":4768,"Bare":4769,"venstre":4770,"medlemmer":4771,"inntekt":4772,"folket":4773,"##oder":4774,"Eller":4775,"##sbe":4776,"##aget":4777,"##middel":4778,"offentlig":4779,"##ppene":4780,"inntil":4781,"##abri":4782,"##mål":4783,"tross":4784,"##inge":4785,"kol":4786,"bal":4787,"##legge":4788,"##sember":4789,"tett":4790,"##bert":4791,"##fel":4792,"##teren":4793,"##jet":4794,"Kristian":4795,"virksomhet":4796,"uts":4797,"##aen":4798,"viktigste":4799,"bygg":4800,"##dø":4801,"##stid":4802,"##ara":4803,"##ood":4804,"##ssel":4805,"fortelle":4806,"42":4807,"km":4808,"God":4809,"flo":4810,"følte":4811,"vesent":4812,"NTB":4813,"august":4814,"##rere":4815,"prinsi":4816,"##rettet":4817,"Vil":4818,"neg":4819,"Bå":4820,"##RE":4821,"##iz":4822,"åpnet":4823,"##akten":4824,"desember":4825,"##rati":4826,"rolle":4827,"tvil":4828,"em":4829,"##pri":4830,"##fold":4831,"##ledning":4832,"##itu":4833,"offentlige":4834,"##itter":4835,"##sny":4836,"karakter":4837,"##reds":4838,"48":4839,"##bord":4840,"sten":4841,"Univers":4842,"185":4843,"##th":4844,"##stisk":4845,"kvel":4846,"bilen":4847,"sannsyn":4848,"Ei":4849,"sat":4850,"styre":4851,"oppe":4852,"setter":4853,"##rent":4854,"NRK":4855,"##ander":4856,"gjeld":4857,"foreldre":4858,"Frank":4859,"Arne":4860,"september":4861,"uttry":4862,"samfunns":4863,"##skolen":4864,"Europa":4865,"selskap":4866,"##ww":4867,"fir":4868,"konsek":4869,"##skomm":4870,"kroppen":4871,"traf":4872,"tol":4873,"##abil":4874,"##ita":4875,"lage":4876,"hundre":4877,"##riks":4878,"stru":4879,"##melig":4880,"sykdom":4881,"##holde":4882,"##ansett":4883,"avsl":4884,"gift":4885,"##dalen":4886,"fullt":4887,"tall":4888,"Lo":4889,"##cy":4890,"ident":4891,"bred":4892,"funksjon":4893,"møter":4894,"Beg":4895,"44":4896,"##bruar":4897,"##standen":4898,"##ikasjon":4899,"Ing":4900,"##gra":4901,"forsvar":4902,"deb":4903,"##isere":4904,"privat":4905,"My":4906,"this":4907,"Ed":4908,"kart":4909,"##ric":4910,"##so":4911,"Berg":4912,"visst":4913,"døren":4914,"aller":4915,"Fr":4916,"sitter":4917,"måneder":4918,"trakk":4919,"kvar":4920,"ring":4921,"##hed":4922,"##smø":4923,"##ssy":4924,"##abell":4925,"deri":4926,"mon":4927,"tanke":4928,"Regi":4929,"stol":4930,"##stemme":4931,"midler":4932,"##dels":4933,"##ung":4934,"##delingen":4935,"##stra":4936,"oppmer":4937,"tilb":4938,"sammenheng":4939,"##sikker":4940,"##vember":4941,"Fl":4942,"strøm":4943,"##ient":4944,"lei":4945,"##delen":4946,"barneha":4947,"prosjekt":4948,"##ansk":4949,"von":4950,"oktober":4951,"snø":4952,"www":4953,"stem":4954,"ple":4955,"##iteten":4956,"Vær":4957,"##ations":4958,"Hau":4959,"gis":4960,"Olav":4961,"##delt":4962,"fest":4963,"##ika":4964,"regler":4965,"##oster":4966,"##forb":4967,"##øyd":4968,"fisk":4969,"##lys":4970,"43":4971,"##RA":4972,"##ørsm":4973,"2019":4974,"gli":4975,"##loven":4976,"represen":4977,"##bygging":4978,"industri":4979,"forklar":4980,"dig":4981,"Trondheim":4982,"Dem":4983,"##folk":4984,"##igheter":4985,"try":4986,"hører":4987,"vak":4988,"Bjørn":4989,"profe":4990,"ud":4991,"tenkt":4992,"##peri":4993,"sve":4994,"##mm":4995,"46":4996,"skyl":4997,"vindu":4998,"data":4999,"saker":5000,"områder":5001,"##IT":5002,"brev":5003,"##vist":5004,"##lemme":5005,"mill":5006,"pop":5007,"##meren":5008,"sterke":5009,"tenker":5010,"##itets":5011,"forkla":5012,"Olsen":5013,"vedtak":5014,"viss":5015,"##amma":5016,"Guds":5017,"blom":5018,"Tom":5019,"ingenting":5020,"topp":5021,"Ri":5022,"begynner":5023,"Jesus":5024,"##jeneste":5025,"inneb":5026,"pap":5027,"sosiale":5028,"##vesen":5029,"##ndige":5030,"enten":5031,"arti":5032,"februar":5033,"Odd":5034,"relig":5035,"selve":5036,"##ias":5037,"\"\"\"\",":5038,"faren":5039,"##siktig":5040,"##br":5041,"forbe":5042,"##ose":5043,"Martin":5044,"##forsk":5045,"trodde":5046,"fre":5047,"##ibli":5048,"betale":5049,"vant":5050,"raskt":5051,"saman":5052,"##plan":5053,"øyeblikk":5054,"47":5055,"Mer":5056,"individ":5057,"Inge":5058,"##orden":5059,"mand":5060,"##isert":5061,"##stillingen":5062,"##SK":5063,"bilde":5064,"avtale":5065,"##arar":5066,"skjedde":5067,"Vå":5068,"Dire":5069,"##olf":5070,"##orsdag":5071,"Mel":5072,"##bare":5073,"ark":5074,"heter":5075,"##læring":5076,"##LE":5077,"##øse":5078,"##UN":5079,"Mon":5080,"felt":5081,"pass":5082,"##ign":5083,"plutselig":5084,"off":5085,"økonomisk":5086,"situasjonen":5087,"##retning":5088,"gjer":5089,"##kår":5090,"ref":5091,"cm":5092,"mott":5093,"stri":5094,"##way":5095,"##vant":5096,"##hy":5097,"Kor":5098,"november":5099,"dine":5100,"fys":5101,"rop":5102,"##utte":5103,"##ank":5104,"##ms":5105,"samfunnet":5106,"fer":5107,"##pas":5108,"skrev":5109,"dagens":5110,"##apit":5111,"tradis":5112,"##inen":5113,"##plass":5114,"sjølv":5115,"##velser":5116,"unna":5117,"Far":5118,"Stav":5119,"mob":5120,"kompetanse":5121,"klub":5122,"##ologisk":5123,"brukte":5124,"milit":5125,"besky":5126,"slutten":5127,"mulighet":5128,"jern":5129,"Vin":5130,"seson":5131,".:":5132,"##uft":5133,"rommet":5134,"##sessen":5135,"##æren":5136,"##teres":5137,"##uell":5138,"##mus":5139,"område":5140,"tal":5141,"##vne":5142,"mening":5143,"##jonelle":5144,"##ight":5145,"1990":5146,"hendene":5147,"##holdt":5148,"fortsatte":5149,"##grep":5150,"##vn":5151,"##han":5152,"OG":5153,"skil":5154,"##ologiske":5155,"vente":5156,"Spe":5157,"##ach":5158,"##igheten":5159,"##sess":5160,"sist":5161,"##nelig":5162,"ifølge":5163,"redd":5164,"mod":5165,"##veg":5166,"##sut":5167,"Ap":5168,".-":5169,"Anders":5170,"opptatt":5171,"##bane":5172,"skrevet":5173,"tilsvarende":5174,"Tre":5175,"hin":5176,"##sagt":5177,"##hør":5178,"oppnå":5179,"region":5180,"Sn":5181,"presen":5182,"##sik":5183,"ass":5184,"184":5185,"Øy":5186,"##telse":5187,"høyre":5188,"##vate":5189,"sku":5190,"##aland":5191,"virket":5192,"##IG":5193,"nei":5194,"fi":5195,"bren":5196,"Fri":5197,"##able":5198,"##skape":5199,"sek":5200,"##kast":5201,"int":5202,"##maet":5203,"gav":5204,"##sol":5205,"himme":5206,"51":5207,"Paul":5208,"endringer":5209,"stein":5210,"pensjon":5211,"prosjektet":5212,"feng":5213,"##ance":5214,"mykje":5215,"##ksomheten":5216,"begre":5217,"forand":5218,"ønske":5219,"##isin":5220,"vari":5221,"au":5222,"foren":5223,"voks":5224,"stir":5225,"venner":5226,"gjøres":5227,"Bil":5228,"sendt":5229,"##ræ":5230,"fortalte":5231,"utdanning":5232,"Su":5233,"##kost":5234,"EU":5235,"fig":5236,"##hjel":5237,"Eli":5238,"vera":5239,"##nem":5240,"situasjon":5241,"håper":5242,"risik":5243,"sentrum":5244,"sjel":5245,"bom":5246,"tjenes":5247,"tryg":5248,"##retten":5249,"arbeide":5250,"##ibliote":5251,"interv":5252,"Lang":5253,"##pent":5254,"forl":5255,"politisk":5256,"##gitt":5257,"Samtidig":5258,"smilte":5259,"navnet":5260,"startet":5261,"skar":5262,"has":5263,"kur":5264,"selskapet":5265,"##ational":5266,"elevene":5267,"##parten":5268,"ac":5269,"oppgå":5270,"95":5271,"##nali":5272,"##fta":5273,"type":5274,"Christian":5275,"##udde":5276,"vedkommende":5277,"unnt":5278,"##mon":5279,"##pekt":5280,"##gde":5281,"##rang":5282,"åpne":5283,"##messige":5284,"kampen":5285,"##rings":5286,"klasse":5287,"ni":5288,"##vand":5289,"##ole":5290,"reduse":5291,"49":5292,"fork":5293,"muligheter":5294,"Mot":5295,"betra":5296,"Sc":5297,"syntes":5298,"søndag":5299,"##hal":5300,"utover":5301,"energi":5302,"Stein":5303,"løy":5304,"moderne":5305,"Selv":5306,"resten":5307,"##røy":5308,"takk":5309,"ce":5310,"52":5311,"##slutning":5312,"krit":5313,"røy":5314,"perioden":5315,"betydelig":5316,"##ical":5317,"utstyr":5318,"##OTO":5319,"beskje":5320,"##æl":5321,"førte":5322,"uker":5323,"fremst":5324,"fulgte":5325,"Natt":5326,"##jørn":5327,"##vers":5328,"overra":5329,"##................":5330,"##ssa":5331,"##inert":5332,"..":5333,"Sal":5334,"##riet":5335,"##verre":5336,"Bø":5337,"avgjøre":5338,"nab":5339,"##dtr":5340,"rus":5341,"##strøm":5342,"##kont":5343,"53":5344,"##kelse":5345,"undersø":5346,"##isme":5347,"Tlf":5348,"tilk":5349,"##ndal":5350,"##iti":5351,"forskning":5352,"virker":5353,"##ana":5354,"meste":5355,"effektiv":5356,"##ally":5357,"##gelser":5358,"##lands":5359,"føler":5360,"grat":5361,"##fag":5362,"krigen":5363,"fotball":5364,"##nnen":5365,"tids":5366,"##dy":5367,"kvelden":5368,"##knad":5369,"##siden":5370,"Tysk":5371,"##gerne":5372,"løp":5373,"deretter":5374,"såk":5375,"Ele":5376,"##manns":5377,"Sig":5378,"##atning":5379,"##nsdag":5380,"##bi":5381,"Thom":5382,"eksp":5383,"##ulering":5384,"transport":5385,"fare":5386,"sva":5387,"Hansen":5388,"styrke":5389,"##slaget":5390,"##ionen":5391,"vurdering":5392,"detal":5393,"omsorg":5394,"Rus":5395,"uly":5396,"foreslå":5397,"Lond":5398,"slett":5399,"opplysninger":5400,"bygget":5401,"##ians":5402,"gull":5403,"almin":5404,"##iteter":5405,"poeng":5406,"vekk":5407,"instru":5408,"spise":5409,"daglig":5410,"hardt":5411,"Ser":5412,"##ante":5413,"##gder":5414,"##dige":5415,"##arbeider":5416,"sant":5417,"Ph":5418,"obser":5419,"bus":5420,"hørt":5421,"Em":5422,"99":5423,"##side":5424,"##stående":5425,"private":5426,"65":5427,"##aket":5428,"##jerne":5429,"anlegg":5430,"##rolig":5431,"##aten":5432,"ufor":5433,"består":5434,"glede":5435,"sånn":5436,"##værende":5437,"Lille":5438,"##følgelig":5439,"##jef":5440,"snudde":5441,"bildet":5442,"##svis":5443,"sannsynlig":5444,"forvalt":5445,"Nils":5446,"bekym":5447,"und":5448,"Con":5449,"Gar":5450,"##bef":5451,"183":5452,"kastet":5453,"##ØR":5454,"idet":5455,"begrens":5456,"Ale":5457,"minste":5458,"Bro":5459,"##smin":5460,"sov":5461,"##ultur":5462,"##punkt":5463,"Jør":5464,"resultat":5465,"##nede":5466,"fang":5467,"stren":5468,"##haug":5469,"##AS":5470,"Hvil":5471,"??":5472,"utan":5473,"Ce":5474,"Må":5475,"resulta":5476,"##felt":5477,"Sm":5478,"So":5479,"ove":5480,"56":5481,"forbi":5482,"Liv":5483,"##skont":5484,"dob":5485,"Ord":5486,"##otte":5487,"##unkter":5488,"rør":5489,"##ktur":5490,"##its":5491,"Gi":5492,"Gunn":5493,"##AND":5494,"##kraft":5495,"##ura":5496,"masse":5497,"which":5498,"Stavanger":5499,"budsjett":5500,"##gent":5501,"##anten":5502,"Kjø":5503,"London":5504,"staten":5505,"Sto":5506,"kg":5507,"liker":5508,"Nat":5509,"hjerte":5510,"ressur":5511,"##fest":5512,"##derer":5513,"fok":5514,"engang":5515,"solgt":5516,"Bor":5517,"akse":5518,"##vice":5519,"pi":5520,"##førte":5521,"verdi":5522,"henhold":5523,"##syn":5524,"stats":5525,"kjøre":5526,"##telsen":5527,"##ident":5528,"invester":5529,"Ca":5530,"##arane":5531,"klarte":5532,"Bra":5533,"54":5534,"##varet":5535,"mag":5536,"##gelsen":5537,"popul":5538,"skap":5539,"øst":5540,"utviklingen":5541,"-,":5542,"##arbeide":5543,"tilhø":5544,"##giver":5545,"formid":5546,"##yene":5547,"Li":5548,"##asjer":5549,"vidt":5550,"basert":5551,"##denfor":5552,"åtte":5553,"komb":5554,"Peter":5555,"##orene":5556,"handler":5557,"forsik":5558,"bilder":5559,"prote":5560,"##trent":5561,"fleire":5562,"Petter":5563,"endelig":5564,"enhver":5565,"kvart":5566,"Fredrik":5567,"kne":5568,"91":5569,"publik":5570,"dessuten":5571,"Politi":5572,"##KT":5573,"varer":5574,"vinter":5575,"valgt":5576,"##usjoner":5577,"konkret":5578,"søke":5579,"FOR":5580,"2001":5581,"##pende":5582,"alvorlig":5583,"lørdag":5584,"visse":5585,"svart":5586,"1995":5587,"##istisk":5588,"Statens":5589,"Johannes":5590,"##ola":5591,"2014":5592,"innebærer":5593,"1992":5594,"Dav":5595,"fint":5596,"##stille":5597,"euro":5598,"Sv":5599,"##akte":5600,"understre":5601,"##ful":5602,"omtrent":5603,"##anset":5604,"tilfreds":5605,"##mmelig":5606,"##grun":5607,"##ble":5608,"##lov":5609,"lønns":5610,"##ama":5611,"legges":5612,"retten":5613,"##øp":5614,"FOTO":5615,"##ryg":5616,"##boe":5617,"tas":5618,"ført":5619,"##sin":5620,"regjeringen":5621,"fremme":5622,"##kelser":5623,"##inere":5624,"blei":5625,"anvende":5626,"kyr":5627,"##bruket":5628,"sønn":5629,"Amerik":5630,"##olde":5631,"San":5632,"vannet":5633,"anta":5634,"konser":5635,"sider":5636,"Hvem":5637,"##our":5638,"Bre":5639,"sce":5640,"tilfeller":5641,"bakgrunn":5642,"gjekk":5643,"utgangspunkt":5644,"##organis":5645,"Gjennom":5646,"##aldt":5647,"kons":5648,"loven":5649,"1997":5650,"unngå":5651,"Regjer":5652,"kat":5653,"bland":5654,"Ab":5655,"gud":5656,"straks":5657,"organisasjon":5658,"tidsp":5659,"model":5660,"181":5661,"##kjenne":5662,"leil":5663,"lyd":5664,"##geren":5665,"##rør":5666,"1994":5667,"refe":5668,"utb":5669,"departementet":5670,"Morgen":5671,"flyttet":5672,"Mag":5673,"forholdet":5674,"Mens":5675,"##onde":5676,"##partiet":5677,"Ter":5678,"##sloven":5679,"ill":5680,"##fore":5681,"saks":5682,"1993":5683,"snakker":5684,"dør":5685,"desse":5686,"##øst":5687,"Pri":5688,"film":5689,"tekst":5690,"##AM":5691,"uav":5692,"##ick":5693,"##ute":5694,"Af":5695,"hvite":5696,"skjedd":5697,"verk":5698,"gjennomsnitt":5699,"vesentlig":5700,"##kkende":5701,"##ettet":5702,"##mulig":5703,"krever":5704,"sur":5705,"##isa":5706,"57":5707,"bre":5708,"##sav":5709,"Gu":5710,"ki":5711,"besk":5712,"##ton":5713,"##ifte":5714,"##kta":5715,"forhand":5716,"##arbei":5717,"bordet":5718,"1999":5719,"prøver":5720,"gri":5721,"180":5722,"lønn":5723,"tusen":5724,"till":5725,"Vår":5726,"univers":5727,"vekst":5728,"bevisst":5729,"1980":5730,"##alitet":5731,"##frå":5732,"jobben":5733,"Grø":5734,"yng":5735,"inc":5736,"kapittel":5737,"##mera":5738,"jobber":5739,"1996":5740,"Del":5741,"sju":5742,"grupper":5743,"kvalitet":5744,"idrett":5745,"skrift":5746,"##ned":5747,"##illet":5748,"erfaring":5749,"##naden":5750,"##lu":5751,"fredag":5752,"##ærne":5753,"tilgjen":5754,"Di":5755,"nede":5756,"opprin":5757,"vind":5758,"##skom":5759,"Kva":5760,"skulde":5761,"endring":5762,"##kers":5763,"Fø":5764,"##kommen":5765,"##sla":5766,"2005":5767,"Fore":5768,"utny":5769,"def":5770,"tyske":5771,"elever":5772,"dit":5773,"Skal":5774,"Po":5775,"##IV":5776,"##kkelen":5777,"ropte":5778,"smer":5779,"59":5780,"##drene":5781,"uansett":5782,"Tyskland":5783,"##venske":5784,"strø":5785,"Kro":5786,"Trø":5787,"##urnali":5788,"Både":5789,"Flere":5790,"Mi":5791,"##rue":5792,"##rasjonen":5793,"oppda":5794,"bygd":5795,"##AD":5796,"##edag":5797,"samfunn":5798,"mode":5799,"##ider":5800,"inklu":5801,"handling":5802,"relativt":5803,"blikk":5804,"væ":5805,"##orte":5806,"indre":5807,"tilstre":5808,"forvent":5809,"1998":5810,"ep":5811,"fortsette":5812,"Aust":5813,"Hoved":5814,"85":5815,"mi":5816,"Først":5817,"hit":5818,"##utvikling":5819,"##edre":5820,"##sc":5821,"kjærlighet":5822,"skatt":5823,"Rå":5824,"##TE":5825,"gjeng":5826,"##holdene":5827,"presse":5828,"sentral":5829,"menne":5830,"##polit":5831,"##keren":5832,"##melt":5833,"##rerte":5834,"internasjonale":5835,"VM":5836,"sykehus":5837,"##ordning":5838,"##las":5839,"Jac":5840,"sammenlig":5841,"##jene":5842,"##melding":5843,"##lic":5844,"##jenesten":5845,"##irsdag":5846,"uttale":5847,"##nær":5848,"##stillinger":5849,"interess":5850,"##vise":5851,"syns":5852,"øyne":5853,"##otter":5854,"prøvde":5855,"bestemte":5856,"mm":5857,"##stander":5858,"høg":5859,"##ora":5860,"##ming":5861,"##være":5862,"Uten":5863,"Bi":5864,"##anke":5865,"Marie":5866,"arrange":5867,"##ino":5868,"##stedet":5869,"##full":5870,"##settes":5871,"Sj":5872,"2002":5873,"Na":5874,"##skyld":5875,"##usjonen":5876,"1991":5877,"tog":5878,"##ctor":5879,"straffe":5880,"##histor":5881,"utvikle":5882,"inneholder":5883,"##dyr":5884,"2003":5885,"Anna":5886,"bekre":5887,"##etten":5888,"velge":5889,"konge":5890,"passer":5891,"##hånd":5892,"utvalg":5893,"Arbeider":5894,"Kvin":5895,"voksne":5896,"ras":5897,"ryggen":5898,"##belt":5899,"læ":5900,"##øyde":5901,"gard":5902,"farge":5903,"##anlegg":5904,"##ampen":5905,"97":5906,"øke":5907,"tempe":5908,"##attende":5909,"Danmark":5910,"##sprogram":5911,"##anne":5912,"##giv":5913,"##selen":5914,"hvit":5915,"pus":5916,"##ments":5917,"tida":5918,"##dem":5919,"AN":5920,"kommuner":5921,"forsøk":5922,"##deler":5923,"Siden":5924,"lavere":5925,"##ish":5926,"avhengig":5927,"trekke":5928,"##atteren":5929,"konsent":5930,"kommunene":5931,"sign":5932,"##ius":5933,"bodde":5934,"58":5935,"glem":5936,"sentrale":5937,"##edri":5938,"##veren":5939,"brann":5940,"Karl":5941,"##vedt":5942,"kaffe":5943,"hår":5944,"2004":5945,"forelig":5946,"##talt":5947,"stemmer":5948,"ordet":5949,"kjenne":5950,"derimot":5951,"delen":5952,"kjære":5953,"dog":5954,"##hjem":5955,".).":5956,"##que":5957,"engelsk":5958,"All":5959,"##mere":5960,"##ition":5961,"##ther":5962,"passe":5963,"vide":5964,"##ada":5965,"##små":5966,"tor":5967,"ner":5968,"##delser":5969,"avgjø":5970,"##ua":5971,"Lin":5972,"drive":5973,"omfatter":5974,"mørke":5975,"sex":5976,"##iat":5977,"forstår":5978,"lager":5979,"61":5980,"##ssk":5981,"Fil":5982,"eventuelt":5983,"flert":5984,"##ary":5985,"viten":5986,"argu":5987,"overle":5988,"##later":5989,"moren":5990,"Tru":5991,"jul":5992,"##tensi":5993,"Magn":5994,"heile":5995,"##owe":5996,"NO":5997,"amb":5998,"anna":5999,"Jens":6000,"were":6001,"Henrik":6002,"##fart":6003,"300":6004,"##velsen":6005,"mamma":6006,"spørre":6007,"400":6008,"konsekven":6009,"Veg":6010,"##former":6011,"##mester":6012,"rik":6013,"trø":6014,"sammens":6015,"Sjø":6016,"dels":6017,"eld":6018,"lengre":6019,"##jar":6020,"Ul":6021,"##aren":6022,"spesielle":6023,"##smid":6024,"##ration":6025,"Gnr":6026,"anledning":6027,"Mus":6028,"skyldes":6029,"##hild":6030,"adj":6031,"bære":6032,"tilkny":6033,"ak":6034,"stakk":6035,"sann":6036,"##kningen":6037,"besøk":6038,"usikker":6039,"nedover":6040,"periode":6041,"Harald":6042,"Videre":6043,"Char":6044,"nikket":6045,"##ugh":6046,"trafikk":6047,"##nnene":6048,"Mich":6049,"Norske":6050,"slått":6051,"kurs":6052,"søker":6053,"##stilt":6054,"fu":6055,"##KK":6056,"##resten":6057,"ligge":6058,"##nster":6059,"kraftig":6060,"dens":6061,"##asjonene":6062,"62":6063,"##tten":6064,");":6065,"ment":6066,"1970":6067,"##bladet":6068,"##vei":6069,"##ingar":6070,"aktivitet":6071,"##orter":6072,"Helge":6073,"møtte":6074,"gu":6075,"bas":6076,"oversikt":6077,"frivil":6078,"Tromsø":6079,"up":6080,"oppgave":6081,"fug":6082,"##stiske":6083,"kle":6084,"Ifølge":6085,"svare":6086,"##elsen":6087,"By":6088,"dvs":6089,"##vit":6090,"##yld":6091,"stirret":6092,"Fyl":6093,"reiser":6094,"67":6095,"handel":6096,"##ammer":6097,"studen":6098,"sport":6099,"effekt":6100,"##own":6101,"kropp":6102,"Intern":6103,"ir":6104,"skaffe":6105,"##ammen":6106,"##urn":6107,"##redt":6108,"sold":6109,"##gert":6110,"Tø":6111,"##line":6112,"jfr":6113,"trekk":6114,"utfor":6115,"Dy":6116,"Då":6117,"konkurranse":6118,"##TER":6119,"vurdere":6120,"2008":6121,"##au":6122,"log":6123,"##ging":6124,"yrkes":6125,"##ringe":6126,"more":6127,"##??":6128,"via":6129,"øvrig":6130,"årsa":6131,"lettere":6132,"##smannen":6133,"Dermed":6134,"sid":6135,"natten":6136,"2013":6137,"2010":6138,"Dessuten":6139,".\"":6140,"##forhold":6141,"jobbe":6142,"publikum":6143,"##nelige":6144,"vilde":6145,"##SEN":6146,"bedrifter":6147,"##sak":6148,"##istrikt":6149,"gjennomført":6150,"71":6151,"oven":6152,"kontor":6153,"##orien":6154,"##wo":6155,"diffe":6156,"64":6157,"strå":6158,"kontra":6159,"hotell":6160,"utviklet":6161,"øde":6162,"##ters":6163,"Sport":6164,"styret":6165,"drama":6166,"Fig":6167,"altfor":6168,"ansikt":6169,"kolle":6170,"Hall":6171,"Mid":6172,"sum":6173,"66":6174,"forrige":6175,"##kor":6176,"##nnet":6177,"tider":6178,"Ex":6179,"band":6180,"Figur":6181,"2006":6182,"##ked":6183,"##kant":6184,"##edagog":6185,"opplæring":6186,"##vard":6187,"munnen":6188,"rep":6189,"##fol":6190,"oppdag":6191,"##skapene":6192,"2007":6193,"amerikanske":6194,"##vann":6195,"gen":6196,".\"\"\"\"":6197,"IN":6198,"mistet":6199,"##skog":6200,"York":6201,"##serer":6202,"##inner":6203,"aktuelle":6204,"##rus":6205,"drøm":6206,"##holm":6207,"63":6208,"##øver":6209,"tjenester":6210,"##hov":6211,"motor":6212,"Ven":6213,"##tning":6214,"Ti":6215,"forsiktig":6216,"kalt":6217,"svarer":6218,"Deres":6219,"##innte":6220,"selvfølgelig":6221,"straff":6222,"spor":6223,"Thor":6224,"##band":6225,"vanlige":6226,"sang":6227,"rede":6228,"##hund":6229,"ben":6230,"fro":6231,"2009":6232,"##spill":6233,"##kninger":6234,"##rense":6235,"fullstendig":6236,"siv":6237,"##stri":6238,"1989":6239,"##bry":6240,"disku":6241,"Thomas":6242,"prem":6243,"##yggelig":6244,"##ash":6245,"##inene":6246,"tek":6247,"##ory":6248,"End":6249,"bevil":6250,"trygg":6251,"##con":6252,"hov":6253,"##gård":6254,"##tar":6255,"##iker":6256,"ende":6257,"##jøe":6258,"##EG":6259,"##ktoratet":6260,"##sid":6261,"##oller":6262,"82":6263,"2011":6264,"93":6265,"bedrift":6266,"fylkeskomm":6267,"sitte":6268,"##EM":6269,"dram":6270,"can":6271,"##rep":6272,"##rine":6273,"såtte":6274,"tegn":6275,"##PP":6276,"##telser":6277,"merket":6278,"##slin":6279,"##risk":6280,"##rier":6281,"datter":6282,"salt":6283,"lan":6284,"tema":6285,"grep":6286,"Barn":6287,"Hu":6288,"##synet":6289,"##somme":6290,"faste":6291,"kjøp":6292,"182":6293,"nasjonal":6294,"##ttelse":6295,"ek":6296,"klarer":6297,"åra":6298,"nummer":6299,"utvi":6300,"##skapen":6301,"lun":6302,"høsten":6303,"##plassen":6304,"SK":6305,"sammenhen":6306,"##ås":6307,"sendte":6308,"##iserte":6309,"Lov":6310,"77":6311,"Regjeringen":6312,"David":6313,"svi":6314,"##ransen":6315,"2012":6316,"spilte":6317,"utgjør":6318,"kjempe":6319,"81":6320,"tillit":6321,"Kirke":6322,"Kristians":6323,"livs":6324,"stopp":6325,"obje":6326,"selvsagt":6327,"##fy":6328,"69":6329,"middel":6330,"##ase":6331,"div":6332,"osv":6333,"flytte":6334,"##aker":6335,"regn":6336,"tilstrekkelig":6337,"rent":6338,"Kir":6339,"##ktoren":6340,"besø":6341,"kop":6342,"##skl":6343,"formål":6344,"nytte":6345,"omfattende":6346,"##pektiv":6347,"##lingene":6348,"Gl":6349,"##pport":6350,"92":6351,"##jorden":6352,"innbyg":6353,"Nær":6354,"blikket":6355,"##usen":6356,"fine":6357,"Bod":6358,"driver":6359,"##bro":6360,"eksiste":6361,"##rag":6362,"medisin":6363,"##kjør":6364,"##cial":6365,"delvis":6366,"gutt":6367,"vol":6368,"##skjell":6369,"##ice":6370,"sjøl":6371,"erstat":6372,"72":6373,"Jen":6374,"politikk":6375,"sommeren":6376,"##istiske":6377,"veile":6378,"VI":6379,"former":6380,"##urg":6381,"settes":6382,"##AV":6383,"##skilt":6384,"gran":6385,"##ongen":6386,"personlig":6387,"papir":6388,"##terne":6389,"plasser":6390,"##ica":6391,"sir":6392,"##arder":6393,"Mad":6394,"Res":6395,"absol":6396,"##urens":6397,"##edie":6398,"##lipp":6399,"##nadene":6400,"Gro":6401,"##cess":6402,"##inde":6403,"##verks":6404,"Red":6405,"sikte":6406,"pat":6407,"torsdag":6408,"Hver":6409,"fanta":6410,"Gunnar":6411,"##ley":6412,"##lei":6413,"kjørte":6414,"As":6415,"England":6416,"gjaldt":6417,"sag":6418,"formann":6419,"##kre":6420,"kalles":6421,"##reng":6422,"forekom":6423,"Direkte":6424,"rele":6425,"##unne":6426,"øvrige":6427,"##DE":6428,"refle":6429,"litte":6430,"##alder":6431,"##rt":6432,"tvang":6433,"##za":6434,"Sti":6435,"stiller":6436,"##but":6437,"innhold":6438,"##anene":6439,"##pens":6440,"##gått":6441,"##olo":6442,"SV":6443,"am":6444,"Gra":6445,"##skrifter":6446,"##vegen":6447,"Do":6448,"forret":6449,"foreldrene":6450,"Jak":6451,"befolk":6452,"ettermid":6453,"forsøkte":6454,"Folke":6455,"one":6456,"mere":6457,"bestemmelser":6458,"##cal":6459,"dokumentar":6460,"##dire":6461,"##stoff":6462,"##ikker":6463,"opprett":6464,"bakken":6465,"Post":6466,"oppdrag":6467,"umulig":6468,"falt":6469,"##ringene":6470,"praktisk":6471,"out":6472,"1988":6473,"##nar":6474,"middag":6475,"##nds":6476,"båt":6477,"bun":6478,"##rael":6479,"It":6480,"rettet":6481,"150":6482,"Pers":6483,"arbeidspl":6484,"beteg":6485,"bot":6486,"elev":6487,"##cts":6488,"Bli":6489,"lom":6490,"##gave":6491,"74":6492,"##brudd":6493,"anbef":6494,"see":6495,"hensikt":6496,"##ité":6497,"pappa":6498,"markeds":6499,"##verdig":6500,"##derte":6501,"##skar":6502,"linje":6503,"##ometer":6504,"jakt":6505,"Andersen":6506,"##eller":6507,"avdeling":6508,"Folk":6509,"Fro":6510,"løftet":6511,"Mal":6512,"retts":6513,"##ssor":6514,"hil":6515,"sand":6516,"Vik":6517,")\"\"":6518,"##iter":6519,"##vo":6520,"inst":6521,"##blem":6522,"næring":6523,"orden":6524,"##lens":6525,"fortsetter":6526,"##sken":6527,"alternativ":6528,"foreta":6529,"##sler":6530,"oppdaget":6531,"nyheter":6532,"##sing":6533,"##ielle":6534,"##US":6535,"##beg":6536,"##isket":6537,"##styre":6538,"##nor":6539,"arbeidsm":6540,"##alp":6541,"##spi":6542,"Gre":6543,"kul":6544,"##mund":6545,"krist":6546,"typer":6547,"##ls":6548,"utle":6549,"Bet":6550,"##vig":6551,"gjeldende":6552,"europe":6553,"bøker":6554,"##saa":6555,"Van":6556,"Eks":6557,"Larsen":6558,"Ung":6559,"##ieren":6560,"regnet":6561,"##alsk":6562,"invi":6563,"fylkes":6564,"##gelen":6565,"aksje":6566,"##anser":6567,"begynnelsen":6568,"fordel":6569,"##smessig":6570,"bos":6571,"ansvaret":6572,"gården":6573,"##ott":6574,"OL":6575,"qu":6576,"dating":6577,"håp":6578,"##vokat":6579,"hender":6580,"76":6581,"##nest":6582,"##she":6583,"soli":6584,"Tra":6585,"stående":6586,"##neren":6587,"##allen":6588,"kvalit":6589,"##smann":6590,"andel":6591,"##last":6592,"husker":6593,"ur":6594,"forståelse":6595,"nærmest":6596,"prp":6597,"således":6598,"telefon":6599,"##omen":6600,"dele":6601,"##verdi":6602,"68":6603,"levende":6604,"kirken":6605,"åt":6606,"Famil":6607,"vakker":6608,"##vest":6609,"ku":6610,"##instit":6611,"avgjørende":6612,"klokken":6613,"Sl":6614,"måned":6615,"general":6616,"oppgåver":6617,"##igh":6618,"rimelig":6619,"gratis":6620,"##ink":6621,"##området":6622,"venter":6623,"velger":6624,"Stra":6625,"faller":6626,"vakt":6627,"##ømme":6628,"98":6629,"Midt":6630,"slår":6631,"##partement":6632,"trykk":6633,"kjøpte":6634,"følelse":6635,"##prø":6636,"ytterligere":6637,"Bu":6638,"2020":6639,"fengsel":6640,"##ogra":6641,"trolig":6642,"hvilket":6643,"redusert":6644,"##UR":6645,"Andreas":6646,"Departementet":6647,"kommunikasjon":6648,"skaper":6649,"pol":6650,"løsning":6651,"##nens":6652,"##lade":6653,"opplever":6654,"##rete":6655,"73":6656,"glass":6657,"trengte":6658,"##slå":6659,"Likevel":6660,"##gg":6661,"Frem":6662,"94":6663,"måle":6664,"##lling":6665,"lover":6666,"##jøen":6667,"##alog":6668,"##asin":6669,"78":6670,"##legger":6671,"tanken":6672,"Mat":6673,"##hets":6674,"spennende":6675,"##havn":6676,"regnskap":6677,"fokus":6678,"##asjons":6679,"##behandling":6680,"##wa":6681,"Maria":6682,"smil":6683,"##ndelag":6684,"alko":6685,"rolig":6686,"demok":6687,"##UL":6688,"kaller":6689,"##amme":6690,"historien":6691,"vilje":6692,"været":6693,"##legges":6694,"Dom":6695,"##<<":6696,"##kens":6697,"innb":6698,"prest":6699,"prim":6700,"håret":6701,"bee":6702,"##rets":6703,"##skil":6704,"##selskap":6705,"ramme":6706,"innsats":6707,"onsdag":6708,"##sund":6709,"##fjell":6710,"##landske":6711,"rese":6712,"fornøyd":6713,"AV":6714,"##virksomhet":6715,"arbeidsta":6716,"Frankrike":6717,"tanker":6718,"samsvar":6719,"Skri":6720,"fas":6721,"##ttene":6722,"nam":6723,"tilpas":6724,"vers":6725,"##dsel":6726,"kvinnen":6727,"Pre":6728,"serie":6729,"86":6730,"1987":6731,"utsatt":6732,"##ugen":6733,"løse":6734,"elsker":6735,"##komm":6736,"1985":6737,"oppt":6738,"##miljø":6739,"##ulerer":6740,"##iende":6741,"Byg":6742,"nødvendige":6743,"Fo":6744,"pot":6745,"trening":6746,"havde":6747,"Mand":6748,"undervisning":6749,"plas":6750,"Bak":6751,"normalt":6752,"gruppen":6753,"##unnet":6754,"underhold":6755,"vanligvis":6756,"begrun":6757,"Pedersen":6758,"##jonell":6759,"omgang":6760,"##redning":6761,"Alex":6762,"skogen":6763,"##jonens":6764,"##nerledes":6765,"##nelsen":6766,"bad":6767,"tråd":6768,"leie":6769,"grund":6770,"bedriften":6771,"studie":6772,"##rske":6773,"##rekk":6774,"##øv":6775,"NOR":6776,"kone":6777,"79":6778,"drikke":6779,"fritt":6780,"Jørgen":6781,"88":6782,"##uttene":6783,"84":6784,"##cc":6785,"het":6786,"##veis":6787,"havet":6788,"Rad":6789,"øver":6790,"generelt":6791,"dekket":6792,"regjering":6793,"comp":6794,"TIL":6795,"##fla":6796,"##ague":6797,"jenter":6798,"##orm":6799,"rike":6800,"etabler":6801,"##nivå":6802,"bibliote":6803,"Nattsending":6804,"##RI":6805,"##NE":6806,"kjøpt":6807,"##sdal":6808,"framtid":6809,"##oer":6810,"##strand":6811,"øker":6812,"fær":6813,"Trøndelag":6814,"størrelse":6815,"##kså":6816,"journali":6817,"83":6818,"Tabell":6819,"Jacob":6820,"##kort":6821,"heilt":6822,"fortalt":6823,"resta":6824,"parti":6825,"##rerer":6826,"Sim":6827,"motta":6828,"ledelse":6829,"Leg":6830,"1986":6831,"slekt":6832,"##løse":6833,"##attes":6834,"sår":6835,"##arer":6836,"##nok":6837,"våpen":6838,"Fly":6839,"##drett":6840,"sjelden":6841,"Kultur":6842,"enig":6843,"fjerde":6844,"standard":6845,"Gam":6846,"Lund":6847,"been":6848,"årets":6849,"Ans":6850,"##forening":6851,"Kjell":6852,"Op":6853,"##unen":6854,"##løst":6855,"Noe":6856,"nasjonale":6857,"##iendom":6858,"toppen":6859,"lands":6860,"Paris":6861,"annerledes":6862,"##ård":6863,"Kong":6864,"179":6865,"Johansen":6866,"##ninga":6867,"Jakob":6868,"bygger":6869,"svenske":6870,"Phil":6871,"invol":6872,"Tro":6873,"eig":6874,"typ":6875,"##tein":6876,"##rering":6877,"utført":6878,"avtalen":6879,"##sider":6880,"kristen":6881,"regne":6882,"##ts":6883,"vilkår":6884,"Kap":6885,"1960":6886,"planer":6887,"ligg":6888,"bygde":6889,"inntrykk":6890,"positive":6891,"##sjekt":6892,"##spart":6893,"Mil":6894,"##merket":6895,"spar":6896,"##pass":6897,"Kari":6898,"##bruker":6899,"funge":6900,"##ssp":6901,"økonomi":6902,"steg":6903,"Ame":6904,"Ten":6905,"skritt":6906,"jobbet":6907,"##splan":6908,"port":6909,"muse":6910,"grav":6911,"##iserer":6912,"##iven":6913,"parker":6914,"Store":6915,"##gjer":6916,"Kongen":6917,"##idar":6918,"##ii":6919,"interessert":6920,"hente":6921,"strateg":6922,"beskjed":6923,"Histor":6924,"frukt":6925,"##ykke":6926,"##latelse":6927,"Fort":6928,"boken":6929,"engasje":6930,"aner":6931,"##liggende":6932,"Are":6933,"go":6934,"søk":6935,"##grunnen":6936,"##ror":6937,"møtet":6938,"religi":6939,"##riske":6940,"adgang":6941,"pu":6942,"systemet":6943,"##anti":6944,"Kol":6945,"kjøtt":6946,"Tot":6947,"bevegelse":6948,"tilgjengelig":6949,"##vidt":6950,"##ppar":6951,"dikt":6952,"heim":6953,"dist":6954,"dokument":6955,"##kra":6956,"evne":6957,"gulvet":6958,"##atiske":6959,"96":6960,"89":6961,"neppe":6962,"artikkel":6963,"##orgen":6964,"nav":6965,"##draget":6966,"##ansvar":6967,"russ":6968,"##low":6969,"bla":6970,"hard":6971,"Ford":6972,"87":6973,"sørge":6974,"dess":6975,"vedlike":6976,"gutten":6977,"registrert":6978,"forme":6979,"##tto":6980,"sma":6981,"treffe":6982,"Bør":6983,"##leggende":6984,"lat":6985,"konstru":6986,"##lelse":6987,"##barn":6988,"Ben":6989,"##DAG":6990,"hentet":6991,"##uth":6992,"##område":6993,"Amerika":6994,"their":6995,"snakk":6996,"endret":6997,"##istene":6998,"Nore":6999,"##lien":7000,"stoff":7001,"rene":7002,"##orld":7003,"##lte":7004,"##itetet":7005,"##).":7006,"Høyre":7007,"##årene":7008,"ryd":7009,"rev":7010,"Russland":7011,"dypt":7012,"erst":7013,"##lær":7014,"overbe":7015,"other":7016,"sjøe":7017,"Sæ":7018,"Morgensending":7019,"Tore":7020,"stykke":7021,"fran":7022,"subst":7023,"resp":7024,"spill":7025,"##spiller":7026,"avstand":7027,"PR":7028,"forbud":7029,"##klub":7030,"##jeld":7031,"##...":7032,"##ffen":7033,"##setting":7034,"minne":7035,"veit":7036,"Eid":7037,"##gikk":7038,"dyre":7039,"Hadde":7040,"will":7041,"boka":7042,"Bir":7043,"##OS":7044,"##ni":7045,"##sig":7046,"blomster":7047,"svak":7048,"energ":7049,"skjønner":7050,"Alf":7051,"1984":7052,"brit":7053,"##sar":7054,"##sme":7055,"Marit":7056,"Svein":7057,"##seth":7058,"kommunale":7059,"distrikt":7060,"##ky":7061,"leser":7062,"##har":7063,"marked":7064,"nevnte":7065,"produkt":7066,"##medlem":7067,"Magnus":7068,"##mennene":7069,"##assi":7070,"etablert":7071,"Ivar":7072,"totalt":7073,"valgte":7074,"Vis":7075,"##pere":7076,"figur":7077,"utvalget":7078,"kob":7079,"prof":7080,"##vold":7081,"kin":7082,"Øv":7083,"interesser":7084,"##ania":7085,"garden":7086,"##wee":7087,"Blant":7088,"høst":7089,"gjent":7090,"sil":7091,"##øyet":7092,"##urder":7093,"likte":7094,"##gjort":7095,"mangler":7096,"million":7097,"lukket":7098,"##æn":7099,"markedet":7100,"rot":7101,"reglene":7102,"Forsvar":7103,"##iell":7104,"behandlet":7105,"seng":7106,"president":7107,"nødt":7108,"##iør":7109,"##kedet":7110,"##ulere":7111,"ue":7112,"sne":7113,"stede":7114,"111":7115,"##ac":7116,"legg":7117,"helhet":7118,"tidspunkt":7119,"##leren":7120,"Sammen":7121,"##mentene":7122,"Mc":7123,"##iert":7124,"##gjennom":7125,"##vart":7126,"##alit":7127,"redusere":7128,"vinduet":7129,"avgift":7130,"kna":7131,"##punkter":7132,"kred":7133,"##rut":7134,"vedtatt":7135,"Morten":7136,"hode":7137,"trad":7138,"##tim":7139,"##skon":7140,"##alisering":7141,"##bjørn":7142,"##sminister":7143,"revol":7144,"rut":7145,"neder":7146,"##ah":7147,"drept":7148,"muligheten":7149,"material":7150,"trå":7151,"##etene":7152,"##EST":7153,"##cent":7154,"mandag":7155,"##aga":7156,"##dning":7157,"slippe":7158,"økte":7159,"sosi":7160,"lyset":7161,"##rasjoner":7162,"resultatet":7163,"pst":7164,"##onne":7165,"dobbelt":7166,"##indust":7167,"verdier":7168,"armen":7169,"Can":7170,"##skraft":7171,"respekt":7172,"stemmen":7173,"enkle":7174,"slapp":7175,"tilgang":7176,"våren":7177,"##iering":7178,"##parti":7179,"resultater":7180,"næ":7181,"unntak":7182,"nærheten":7183,"såkalte":7184,"undersøkelse":7185,"##ørene":7186,"##isjoner":7187,"##nny":7188,"##steder":7189,"begrenset":7190,"##ual":7191,"##veks":7192,"##likter":7193,"røde":7194,"skjel":7195,"Finnmark":7196,"Einar":7197,"perm":7198,"import":7199,"sølv":7200,"utgangspunktet":7201,"##zz":7202,"pengene":7203,"kapital":7204,"grense":7205,"bidrag":7206,"lavt":7207,"armene":7208,"This":7209,"##skud":7210,"Sent":7211,"##rans":7212,"sterkere":7213,"Nyheter":7214,"byr":7215,"Val":7216,"##50":7217,"midten":7218,"may":7219,"##pert":7220,"##mpet":7221,"die":7222,"##ular":7223,"interessant":7224,"kristne":7225,"##ced":7226,"synd":7227,"Gran":7228,"##hvert":7229,"##steren":7230,"skrem":7231,"##onell":7232,"Bruk":7233,"ressurser":7234,"landets":7235,"##skjer":7236,"Ru":7237,"naturen":7238,"illust":7239,"DN":7240,"jule":7241,"endre":7242,"##gerte":7243,"begynt":7244,"vidare":7245,"##SB":7246,"ovenfor":7247,"-\"\"":7248,"600":7249,"Stud":7250,"gal":7251,"huske":7252,"videregående":7253,"also":7254,"vondt":7255,"intervju":7256,"Bri":7257,"boli":7258,"gjennomføre":7259,"revis":7260,"##jert":7261,"borger":7262,"##velop":7263,"##yndig":7264,"sjøen":7265,"sving":7266,"total":7267,"League":7268,"fantes":7269,"1981":7270,"galt":7271,"ed":7272,"Ragn":7273,"bøl":7274,"ler":7275,"##bakken":7276,"integ":7277,"##setninger":7278,"absolutt":7279,"Israel":7280,"oppfatning":7281,"samle":7282,"grunnen":7283,"strid":7284,"tonn":7285,"Deretter":7286,"temp":7287,"forslaget":7288,"preget":7289,"##jære":7290,"##råket":7291,"tirsdag":7292,"autom":7293,"##lisert":7294,"##ining":7295,"##ula":7296,"##vekst":7297,"målet":7298,"foreligger":7299,"##ndene":7300,"##kjente":7301,"##skriv":7302,"Tu":7303,"flertall":7304,"taler":7305,"identif":7306,"##ues":7307,"1950":7308,"etterpå":7309,"Hele":7310,"trekker":7311,"##ona":7312,"eldste":7313,"mennesket":7314,"kjøkke":7315,"utgifter":7316,"##blad":7317,"initi":7318,"beslut":7319,"##kretær":7320,"##ismen":7321,"bist":7322,"oppover":7323,"Ko":7324,"Robert":7325,"##hetens":7326,"prosess":7327,"flykt":7328,"vakre":7329,"fysisk":7330,"åringen":7331,"##ferdig":7332,"##assene":7333,"Sty":7334,"ivaret":7335,"##aks":7336,"ens":7337,"##ktes":7338,"innfly":7339,"##fyl":7340,"##øyaktig":7341,"hjelper":7342,"1982":7343,"gate":7344,"ford":7345,"##ulen":7346,"##banen":7347,"forpli":7348,"1000":7349,"analyse":7350,"landsb":7351,"skue":7352,"dreier":7353,"ristet":7354,"sluttet":7355,"befolkningen":7356,"tungt":7357,"##ween":7358,"##ams":7359,"##rak":7360,"##NING":7361,"defin":7362,"verken":7363,"Begge":7364,"##ondet":7365,"Halvor":7366,"Matt":7367,"drev":7368,"hovud":7369,"178":7370,"intens":7371,"kongen":7372,"jente":7373,"1983":7374,"##isteren":7375,"##rørende":7376,"erfaringer":7377,"Bry":7378,"Haug":7379,"ferie":7380,"##pris":7381,"##ligheten":7382,"##rika":7383,"Spørsm":7384,"Fre":7385,"positiv":7386,"##ipp":7387,"vent":7388,"Tan":7389,"##osa":7390,"##raturen":7391,"Bus":7392,"påpe":7393,"forskjellig":7394,"kilometer":7395,"båten":7396,"vand":7397,"##funnet":7398,"supp":7399,"overraske":7400,"hvad":7401,"sykeple":7402,"##ales":7403,"utføre":7404,"Riks":7405,"##present":7406,"frø":7407,"there":7408,"jorden":7409,"turen":7410,"avsnitt":7411,"##slet":7412,"forklare":7413,"##fo":7414,"forsvant":7415,"enige":7416,"##områder":7417,"eval":7418,"kateg":7419,"1975":7420,"##lår":7421,"kron":7422,"starter":7423,"plassen":7424,"##stav":7425,"Part":7426,"sove":7427,"##sre":7428,"##stemer":7429,"SP":7430,"ordene":7431,"1979":7432,"Jensen":7433,"##snytt":7434,"Carl":7435,"varm":7436,"smør":7437,"Sil":7438,"##arch":7439,"##rop":7440,"##30":7441,"nøye":7442,"fungerer":7443,"profes":7444,"Sos":7445,"ær":7446,"##voll":7447,"1977":7448,"mist":7449,"forskjell":7450,"##iali":7451,"forven":7452,"##stiden":7453,"Bel":7454,"Ski":7455,"VG":7456,"forsknings":7457,"forsvin":7458,"Ita":7459,"bror":7460,"hjør":7461,"##øre":7462,"##issen":7463,"aksep":7464,"Col":7465,"##møte":7466,"halvparten":7467,"spre":7468,"um":7469,"øre":7470,"skoler":7471,"representerer":7472,"direktør":7473,"menneskene":7474,"1978":7475,"ytre":7476,"##stol":7477,"##lid":7478,"lignende":7479,"hjertet":7480,"##nnem":7481,"vinteren":7482,"##lemmene":7483,"Daniel":7484,"Nilsen":7485,"##ria":7486,"you":7487,"177":7488,"Mu":7489,"Hed":7490,"runde":7491,"##belen":7492,"Wh":7493,"regi":7494,"verre":7495,"FN":7496,"høyde":7497,"ske":7498,"##våg":7499,"##alske":7500,"##rab":7501,"##fulle":7502,"flott":7503,"rapport":7504,"undervis":7505,"bygning":7506,"statsb":7507,"yngre":7508,"##ivet":7509,"riks":7510,"veggen":7511,"kostnad":7512,"gong":7513,"symp":7514,"##gaard":7515,"taket":7516,"##uel":7517,"umiddel":7518,"Dri":7519,"##ommet":7520,"nærmeste":7521,"rein":7522,"litteratur":7523,"##ctive":7524,"utø":7525,"##ullet":7526,"skjønte":7527,"##ront":7528,"##deres":7529,"##istikk":7530,"abo":7531,"bidrar":7532,"##føringen":7533,"##tent":7534,"##hjelp":7535,"800":7536,"##ldre":7537,"tysk":7538,"stått":7539,"måter":7540,"service":7541,"langsomt":7542,"maskin":7543,"fla":7544,"##brø":7545,"Kle":7546,"##kapit":7547,"kong":7548,"Lil":7549,"fen":7550,"##posten":7551,"Ras":7552,"between":7553,"Program":7554,"##ating":7555,"##EF":7556,"århund":7557,"il":7558,"fing":7559,"fyller":7560,"##utdan":7561,"##drift":7562,"##grupper":7563,"stanset":7564,"##oms":7565,"test":7566,"##ael":7567,"nedenfor":7568,"org":7569,"læring":7570,"reist":7571,"Hav":7572,"PÅ":7573,"milliarder":7574,"nokre":7575,"Met":7576,"skikkelig":7577,"##digvis":7578,"Com":7579,"##sområ":7580,"##osof":7581,"forholdene":7582,"lån":7583,"##kjer":7584,"behovet":7585,"Les":7586,"##fisk":7587,"##usene":7588,"fattig":7589,"1976":7590,"mark":7591,"##fot":7592,"Lind":7593,"utel":7594,"cent":7595,"##budet":7596,"pan":7597,"Første":7598,"##inte":7599,"omfang":7600,"kriti":7601,"ungdoms":7602,"klem":7603,"størst":7604,"prosjekter":7605,"##bra":7606,"produkter":7607,"##jort":7608,"hor":7609,"virksomheten":7610,"erkl":7611,"##rast":7612,"maks":7613,"rettigheter":7614,"##økonom":7615,"emp":7616,"##mater":7617,"##offer":7618,"##ittil":7619,"ag":7620,"plikt":7621,"Aften":7622,"##ralt":7623,"##abeth":7624,"##atene":7625,"vass":7626,"alkohol":7627,"176":7628,"##ollar":7629,"##igt":7630,"barnehage":7631,"hest":7632,"##tting":7633,"benyttet":7634,"symb":7635,"Litt":7636,"##inasjon":7637,"Ry":7638,"##forbund":7639,"økning":7640,"utrolig":7641,"Forsk":7642,"utlandet":7643,"Hov":7644,"##ilen":7645,"tunge":7646,"##formen":7647,"##10":7648,"##ollene":7649,"grunner":7650,"Fiske":7651,"Rog":7652,"himmelen":7653,"##likten":7654,"korte":7655,"us":7656,"##ci":7657,"planen":7658,"lært":7659,"åpner":7660,"they":7661,"stjer":7662,"tyder":7663,"##rømme":7664,"##dager":7665,"##kul":7666,"klass":7667,"spesial":7668,"problemet":7669,"organisasjoner":7670,"benyttes":7671,"biler":7672,"redde":7673,"##ific":7674,"##redelse":7675,"##here":7676,"##rative":7677,"reser":7678,"übe":7679,"hindre":7680,"prisen":7681,"dekke":7682,"##ller":7683,"klær":7684,"##sjektet":7685,"brå":7686,"motstand":7687,"nokså":7688,"latter":7689,"stilte":7690,"lave":7691,"vill":7692,"fjerne":7693,"varie":7694,"spesiell":7695,"##hn":7696,"##cel":7697,"materiale":7698,"##sal":7699,"grunnleggende":7700,"##løpig":7701,"knapt":7702,"Mannen":7703,"Norway":7704,"##giftene":7705,"##weg":7706,"eksempler":7707,"sengen":7708,"Strand":7709,"programmet":7710,"##anda":7711,"Bla":7712,"##yrk":7713,"##wn":7714,"Kat":7715,"Instit":7716,"pasienter":7717,"pedagog":7718,"skjønn":7719,"##rammen":7720,"Mos":7721,"kjøkken":7722,"Takk":7723,"##sreg":7724,"jub":7725,"mennene":7726,"angrep":7727,"myndigheter":7728,"##ders":7729,"orie":7730,"##gl":7731,"sein":7732,"løsninger":7733,"Ram":7734,"##grepet":7735,"intet":7736,"Cla":7737,"ør":7738,"farlig":7739,"sentralt":7740,"##ities":7741,"hyl":7742,"##ulert":7743,"talet":7744,"##rodu":7745,"oppmerksomhet":7746,"hind":7747,"press":7748,"IV":7749,"skapt":7750,"demon":7751,"Mark":7752,"finn":7753,"Sko":7754,"Sær":7755,"frisk":7756,"##bor":7757,"stolt":7758,"fulle":7759,"kreve":7760,"risiko":7761,"sies":7762,"##givelse":7763,"##dommen":7764,"##gren":7765,"##ited":7766,"Helse":7767,"##skriften":7768,"Jord":7769,"opphold":7770,"driv":7771,"konsekvenser":7772,"##vendig":7773,"##vering":7774,"plassert":7775,"sukker":7776,"innstilling":7777,"1974":7778,"EN":7779,"##yens":7780,"presset":7781,"son":7782,"ordin":7783,"åpent":7784,"##vind":7785,"##asset":7786,"penge":7787,"##dighet":7788,"perspektiv":7789,"brans":7790,"##stått":7791,"##EK":7792,"sukse":7793,"bedt":7794,"##ktive":7795,"##jenester":7796,"Ky":7797,"##produksjon":7798,"perfe":7799,"##utvalget":7800,"##ordningen":7801,"ube":7802,"foregår":7803,"nøyaktig":7804,"##klart":7805,"##andid":7806,"##kne":7807,"Fylke":7808,"areal":7809,"fav":7810,"etc":7811,"typen":7812,"modell":7813,"plu":7814,"korleis":7815,"forh":7816,"Hy":7817,"Inter":7818,"Marg":7819,"status":7820,"##spen":7821,"##oni":7822,"##imum":7823,"ul":7824,"Mun":7825,"Nordland":7826,"fylt":7827,"utbet":7828,"sønnen":7829,"##vensk":7830,"stim":7831,"##por":7832,"vinne":7833,"tekniske":7834,"##ssjef":7835,"kulture":7836,"##kontr":7837,"1900":7838,"##alene":7839,"Kø":7840,"1973":7841,"krim":7842,"##cil":7843,"##jent":7844,"##stede":7845,"1940":7846,"175":7847,"forfatter":7848,"##program":7849,"##jente":7850,"##vete":7851,"Dere":7852,"##udsjett":7853,"##stjeneste":7854,"##antene":7855,"##aktiv":7856,"##bb":7857,"uro":7858,"sats":7859,"virksom":7860,"lykke":7861,"##amin":7862,"Aar":7863,"stilt":7864,"prior":7865,"syssel":7866,"flest":7867,"##chen":7868,"jø":7869,"tlf":7870,"##bre":7871,"##virkning":7872,"##viser":7873,"Bodø":7874,"Spesi":7875,"Barne":7876,"##ens":7877,"skule":7878,"##urtig":7879,"##ydro":7880,"verne":7881,"stab":7882,"taus":7883,"##rest":7884,"trukket":7885,"noget":7886,"##seres":7887,"##FT":7888,"##saker":7889,"beløp":7890,"ære":7891,"Jf":7892,"uavhengig":7893,"##agra":7894,"Nye":7895,"##gården":7896,"starte":7897,"1800":7898,"tjene":7899,"Pris":7900,"##lite":7901,"Herren":7902,"##ørre":7903,"fremtid":7904,"##ingens":7905,"trener":7906,"1945":7907,"arran":7908,"strøk":7909,"luften":7910,"tit":7911,"låg":7912,"hyggelig":7913,"Verd":7914,"1972":7915,"digit":7916,"halvt":7917,"prosessen":7918,"smerte":7919,"melding":7920,"##vesenet":7921,"##stren":7922,"action":7923,"##sopp":7924,"initiativ":7925,"danske":7926,"sesongen":7927,"##ningar":7928,"##useum":7929,"##dern":7930,"120":7931,"##vendt":7932,"##orge":7933,"aktiviteter":7934,"##kjøp":7935,"Ag":7936,"fulgt":7937,"##venn":7938,"##rommet":7939,"kunn":7940,"Rett":7941,"##start":7942,"krev":7943,"##ures":7944,"fjellet":7945,"##iseres":7946,"positivt":7947,"ringte":7948,"##jue":7949,"Don":7950,"idee":7951,"arkite":7952,"##fjorden":7953,"skille":7954,"##ners":7955,"gle":7956,"mask":7957,"##ibel":7958,"Gene":7959,"Skog":7960,"##ics":7961,"Gul":7962,"rappor":7963,"##jonelt":7964,"##bordet":7965,"than":7966,"had":7967,"##olitikken":7968,"##asitet":7969,"teater":7970,"kostnader":7971,"Ska":7972,"ye":7973,"heng":7974,"liksom":7975,"opplyser":7976,"kjøkkenet":7977,"undersøkelser":7978,"innom":7979,"stoppet":7980,"likhet":7981,"tilknytning":7982,"Produ":7983,"##sion":7984,"##setningen":7985,"##tede":7986,"Lag":7987,"Fotball":7988,"Emil":7989,"##AP":7990,"tilnær":7991,"sidan":7992,"falle":7993,"teksten":7994,"##iew":7995,"##sjef":7996,"sjef":7997,"pasienten":7998,"kjel":7999,"konkrete":8000,"Ellen":8001,"Strøm":8002,"##aktør":8003,"On":8004,"såg":8005,"greit":8006,"iv":8007,"kontrakt":8008,"##arbeidere":8009,"solid":8010,"##plasser":8011,"les":8012,"tidleg":8013,"##brit":8014,"rund":8015,"fremmed":8016,"EM":8017,"##arene":8018,"brød":8019,"##iens":8020,"##mmet":8021,"gård":8022,"##RU":8023,"uken":8024,"tilsy":8025,"potensi":8026,"virkeligheten":8027,"fris":8028,"Grat":8029,"følelser":8030,"naturligvis":8031,"egg":8032,"skader":8033,"student":8034,"##cke":8035,"##isker":8036,"##skost":8037,"##AK":8038,"igjennom":8039,"##uf":8040,"Dra":8041,"##ari":8042,"##ati":8043,"fabri":8044,"##gress":8045,"##ology":8046,"Vol":8047,"##vald":8048,"##urte":8049,"kamera":8050,"##cer":8051,"personlige":8052,"Stock":8053,"Gr":8054,"UN":8055,"Venstre":8056,"halsen":8057,"Math":8058,"##jul":8059,"##cus":8060,"grov":8061,"##minister":8062,"1969":8063,"preste":8064,"gass":8065,"ansatt":8066,"Just":8067,"oppleve":8068,"hang":8069,"fornuft":8070,"henger":8071,"##fug":8072,"##analy":8073,"grenser":8074,"dagene":8075,"idé":8076,"Son":8077,"generelle":8078,"lærere":8079,"Hell":8080,"tabell":8081,"his":8082,"praktiske":8083,"##rinsi":8084,"kikket":8085,"kaste":8086,"disp":8087,"avis":8088,"Agder":8089,"blo":8090,"sover":8091,"fortell":8092,"kvinnene":8093,"radio":8094,"vises":8095,"##jøl":8096,"døra":8097,"avvik":8098,"Slike":8099,"Big":8100,"År":8101,"##orth":8102,"##fullt":8103,"##stud":8104,"##vitt":8105,"##ward":8106,"Kristiansand":8107,"250":8108,"##lim":8109,"##rykket":8110,"Aug":8111,"mester":8112,"Politiet":8113,"used":8114,"fantastisk":8115,"Bang":8116,"Telem":8117,"regulering":8118,"tilstand":8119,"Norweg":8120,"regnes":8121,"##atur":8122,"kyst":8123,"minner":8124,"hevder":8125,"ledet":8126,"tilfredsstil":8127,"Kå":8128,"oppford":8129,"partiet":8130,"teknisk":8131,"##ible":8132,"møtt":8133,"##book":8134,"mum":8135,"Kunst":8136,"priori":8137,"Nett":8138,"ordfører":8139,"##ografi":8140,"utbygging":8141,"forretnings":8142,"##artet":8143,"levde":8144,"forklarer":8145,"tvers":8146,"oppstår":8147,"##SE":8148,"klage":8149,"foretatt":8150,"tann":8151,"drar":8152,"##sia":8153,"føres":8154,"sannsynligvis":8155,"Håkon":8156,"##sesjon":8157,"##kkelse":8158,"NY":8159,"##asjen":8160,"restaur":8161,"Rør":8162,"fait":8163,"Michael":8164,"##ods":8165,"##olet":8166,"marker":8167,"tide":8168,"Qu":8169,"Mål":8170,"forvaltning":8171,"erstatning":8172,"vegen":8173,"##viten":8174,"Pet":8175,"fransk":8176,"##ranser":8177,"##kro":8178,"fritid":8179,"##fal":8180,"sender":8181,"##kanten":8182,"arm":8183,"forster":8184,"opprettet":8185,"utelu":8186,"##amen":8187,"##veit":8188,"verste":8189,"framover":8190,"Mr":8191,"##ower":8192,"##førsel":8193,"nokon":8194,"peker":8195,"Fram":8196,"skuldrene":8197,"etasje":8198,"Kra":8199,"##olkning":8200,"present":8201,"ettermiddag":8202,"munn":8203,"##sgruppe":8204,"retningslin":8205,"vat":8206,"Senter":8207,"tung":8208,"##bær":8209,"Hos":8210,"Organ":8211,"inspi":8212,"frihet":8213,"kjøper":8214,"male":8215,"debatt":8216,"mobil":8217,"foreslår":8218,"traff":8219,"##rot":8220,"Sande":8221,"ordning":8222,"upp":8223,"mik":8224,"##skaps":8225,"oppføl":8226,"færre":8227,"IL":8228,"utfordringer":8229,"gutter":8230,"ringe":8231,"Klo":8232,"benytte":8233,"samarbeidet":8234,"##gelige":8235,"avslut":8236,"ogsaa":8237,"opplevelse":8238,"##UT":8239,"meiner":8240,"174":8241,"nogen":8242,"##spolit":8243,"spare":8244,"oppfyl":8245,"anses":8246,"##inst":8247,"##ktivt":8248,"rapporten":8249,"negative":8250,"##orier":8251,"regner":8252,"tilta":8253,"varmt":8254,"berør":8255,"##cu":8256,"dame":8257,"##byen":8258,"##ENT":8259,"elektron":8260,"Terje":8261,"##bør":8262,"klubben":8263,"##skip":8264,"##uden":8265,"Inger":8266,"forhånd":8267,"frie":8268,"Show":8269,"Trans":8270,"##amling":8271,"lod":8272,"slu":8273,"fange":8274,"##ded":8275,"AL":8276,"lens":8277,"hemme":8278,"økende":8279,"##eters":8280,"håpet":8281,"Geir":8282,"UT":8283,"posisjon":8284,"samtale":8285,"fremover":8286,"##rence":8287,"Distrikt":8288,"##stolen":8289,"##ope":8290,"bonde":8291,"plast":8292,"##famil":8293,"##SL":8294,"Dø":8295,"##gden":8296,"lam":8297,"strukt":8298,"bygda":8299,"##inns":8300,"##smøte":8301,"##osten":8302,"spilt":8303,"opplevd":8304,"##selskapet":8305,"betalt":8306,"handle":8307,"##arden":8308,"##oene":8309,"jen":8310,"oppmerksom":8311,"kona":8312,"dukket":8313,"##astro":8314,"dru":8315,"##VER":8316,"##nerne":8317,"høyeste":8318,"##beve":8319,"fanget":8320,"##DER":8321,"lab":8322,"##britann":8323,"franske":8324,"ov":8325,"arter":8326,"##omer":8327,"##cted":8328,"##stant":8329,"innlegg":8330,"gifte":8331,"##IF":8332,"Elis":8333,"klima":8334,"##JON":8335,"europeiske":8336,"1971":8337,"Vir":8338,"##ila":8339,"Hjel":8340,"##ØS":8341,"Cor":8342,"sesong":8343,"ettersom":8344,"pasient":8345,"ulik":8346,"laste":8347,"virkning":8348,"Fle":8349,"Willi":8350,"Rich":8351,"bank":8352,"tømmer":8353,"##ista":8354,"Norwegian":8355,"##ump":8356,"##settelse":8357,"beregnet":8358,"Storbritann":8359,"mulige":8360,"##lan":8361,"åpenbart":8362,"Island":8363,"##ros":8364,"korre":8365,"some":8366,"forklaring":8367,"##kri":8368,"uhel":8369,"##avgift":8370,"sæ":8371,"##ness":8372,"##ikere":8373,"gjelde":8374,"Troms":8375,"##komst":8376,"skre":8377,"##mag":8378,"let":8379,"##pes":8380,"##ktøy":8381,"Anton":8382,"Sund":8383,"##havet":8384,"tilrette":8385,"##ivert":8386,"krefter":8387,"sens":8388,".),":8389,"mørket":8390,"Brø":8391,"gjenopp":8392,"nest":8393,"Pres":8394,"lokalt":8395,"Ør":8396,"aktuelt":8397,"indi":8398,"drevet":8399,"##aka":8400,"##lagte":8401,"##benhavn":8402,"pul":8403,"##lyst":8404,"##ield":8405,"ild":8406,"deltok":8407,"##partementets":8408,"klokka":8409,"forske":8410,"Kla":8411,"rekru":8412,"##tegi":8413,"frig":8414,"##nert":8415,"Ås":8416,"Go":8417,"FR":8418,"valget":8419,"voksen":8420,"bran":8421,"##rog":8422,"grønne":8423,"administrasjon":8424,"endte":8425,"##ISK":8426,"fli":8427,"Bon":8428,"stortings":8429,"professor":8430,"##11":8431,"ansvarlig":8432,"bind":8433,"motiv":8434,"##inal":8435,"##bon":8436,"orig":8437,"annon":8438,"Afrika":8439,"act":8440,"##hr":8441,"skriv":8442,"Føl":8443,"komedie":8444,"respon":8445,"tyng":8446,"##komme":8447,"oftest":8448,"##mal":8449,"##dele":8450,"##OK":8451,"kjører":8452,"Kal":8453,"trett":8454,"ånde":8455,"##øe":8456,"tradisjon":8457,"##virke":8458,"Lørdag":8459,"Dr":8460,"Sommer":8461,"##strekning":8462,"korn":8463,"døden":8464,"##knet":8465,"##øpet":8466,"os":8467,"ettersp":8468,"militær":8469,"basis":8470,"kravet":8471,"slutte":8472,"1965":8473,"veier":8474,"##litet":8475,"fel":8476,"leste":8477,"##bakk":8478,"Grunn":8479,"Frp":8480,"Ev":8481,"Indust":8482,"forstand":8483,"##llet":8484,"intel":8485,"##ined":8486,"høve":8487,"##genen":8488,"inntekter":8489,"its":8490,"innflytelse":8491,"##yt":8492,"bestemmer":8493,"bringe":8494,"grunnlaget":8495,"Finans":8496,"emb":8497,"rygg":8498,"ent":8499,"inde":8500,"tankene":8501,"##flaten":8502,"##seg":8503,"Italia":8504,"manglende":8505,"##uring":8506,"kontrolle":8507,"##øn":8508,"foto":8509,"snill":8510,"develop":8511,"##nevnte":8512,"##ANG":8513,"kommen":8514,"Noreg":8515,"ER":8516,"velferd":8517,"super":8518,"##strid":8519,"##penger":8520,"##vekt":8521,"fastsatt":8522,"konflikt":8523,"hom":8524,"##brand":8525,"fylket":8526,"Simon":8527,"##temat":8528,"1968":8529,"##ordin":8530,"nylig":8531,"butikk":8532,"##ato":8533,"##forskning":8534,"svaret":8535,"fremtiden":8536,"kontoret":8537,"##ries":8538,"gjens":8539,"Kristus":8540,"1967":8541,"øl":8542,"##natt":8543,"##hammer":8544,"Ark":8545,"vog":8546,"filmen":8547,"Nes":8548,"normal":8549,"nøy":8550,"##ppel":8551,"##ålene":8552,"skifte":8553,"##talte":8554,"##gjø":8555,"Ring":8556,"Kommun":8557,"dets":8558,"Ger":8559,"eige":8560,"1930":8561,"kjer":8562,"##ndinger":8563,"kome":8564,"rart":8565,"##rafikk":8566,"##merke":8567,"sjo":8568,"Fjell":8569,"godkjent":8570,"Kina":8571,"Prem":8572,"Mell":8573,"lest":8574,"##senteret":8575,"##handlingen":8576,"bes":8577,"forsøke":8578,"##\"\"\"":8579,"Ak":8580,"##ival":8581,"Eiendom":8582,"##slig":8583,"##smål":8584,"faglig":8585,"samling":8586,"krø":8587,"Jose":8588,"1920":8589,"misten":8590,"skru":8591,"Od":8592,"Helt":8593,"Miljø":8594,"sch":8595,"Rød":8596,"##II":8597,"stoppe":8598,"##kkede":8599,"##gruppen":8600,"genera":8601,"##apir":8602,"Frå":8603,"subje":8604,"NM":8605,"dollar":8606,"flag":8607,"##af":8608,"##arm":8609,"innholdet":8610,"mønster":8611,"##inke":8612,"konvens":8613,"Dagbladet":8614,"jorda":8615,"Øster":8616,"##kjennelse":8617,"##innen":8618,"##løsning":8619,"Gjer":8620,"##arn":8621,"forsto":8622,"fødsel":8623,"Sara":8624,"paralle":8625,"##pan":8626,"##serne":8627,"##unda":8628,"kvalif":8629,"##lement":8630,"##wood":8631,"##mos":8632,"Sof":8633,"Sett":8634,"ekteskap":8635,"tilfellet":8636,"##ligens":8637,"inkludert":8638,"stabil":8639,"strand":8640,"Sunn":8641,"berg":8642,"Sigur":8643,"##ikler":8644,"##atret":8645,"##ilet":8646,"##vanlig":8647,"totale":8648,"aksjon":8649,"work":8650,"besøke":8651,"##lad":8652,"Utvalget":8653,"bit":8654,"mellem":8655,"##ndet":8656,"glob":8657,"rente":8658,"##ums":8659,"hust":8660,"dyp":8661,"~~":8662,"Niel":8663,"tolv":8664,"##onene":8665,"enhet":8666,"legen":8667,"##rape":8668,"kaldt":8669,"Søndag":8670,"situasjoner":8671,"optim":8672,"sykkel":8673,"##pres":8674,"##amb":8675,"sendes":8676,"##irer":8677,"søknad":8678,">>\"\"":8679,"beslutning":8680,"kalle":8681,"veks":8682,"løpe":8683,"new":8684,"Nasjon":8685,"frykt":8686,"##minal":8687,"mangel":8688,"kreves":8689,"bon":8690,"Dahl":8691,"##ologien":8692,"##person":8693,"##ENS":8694,"##ligvis":8695,"who":8696,"Rob":8697,"if":8698,"miste":8699,"fordelt":8700,"Fordi":8701,"merk":8702,"henholdsvis":8703,"##sesser":8704,"##æg":8705,"##IR":8706,"700":8707,"danse":8708,"##formasjon":8709,"##rich":8710,"foreslått":8711,"fordeling":8712,"##IM":8713,"##zen":8714,"Fal":8715,"##alderen":8716,"selskaper":8717,"Kristin":8718,"institusjon":8719,"utvid":8720,"sikt":8721,"kritikk":8722,"vedlikehold":8723,"Rolf":8724,"Ot":8725,"maten":8726,"tradisjonelle":8727,"##no":8728,"Eit":8729,"brun":8730,"hug":8731,"Bank":8732,"##pix":8733,"##press":8734,"forbed":8735,"Side":8736,"166":8737,"Ande":8738,"representant":8739,"dans":8740,"Kje":8741,"tver":8742,"Natur":8743,"dr":8744,"human":8745,"##velig":8746,"##likevel":8747,"greie":8748,"##høy":8749,"##identen":8750,"Lok":8751,"leverand":8752,"kyrkje":8753,"vurdert":8754,"representanter":8755,"##gers":8756,"##ré":8757,"bekymret":8758,"##leie":8759,"Bolig":8760,"Lou":8761,"Plan":8762,"nåværende":8763,"##ituasjonen":8764,"snu":8765,"aktive":8766,"##stere":8767,"##bytte":8768,"nevnes":8769,"kring":8770,"Result":8771,"plasse":8772,"Sten":8773,"car":8774,"bin":8775,"ug":8776,"årlig":8777,"suksess":8778,"##åp":8779,"into":8780,"170":8781,"##blemer":8782,"##politikk":8783,"##skinen":8784,"samlede":8785,"Verdens":8786,"##ynam":8787,"Kommune":8788,"fysiske":8789,"Vet":8790,"planlagt":8791,"kunder":8792,"##posisjon":8793,"stål":8794,"172":8795,"bein":8796,"plante":8797,"foreløpig":8798,"advokat":8799,"##åt":8800,"takt":8801,"sjanse":8802,"hud":8803,"mekan":8804,"##ney":8805,"TR":8806,"Ange":8807,"##add":8808,"##gir":8809,"Legg":8810,"Nu":8811,"##kamp":8812,"Neste":8813,"Ned":8814,"##fiske":8815,"Wal":8816,"hovedsak":8817,"Bjer":8818,"gave":8819,"forsøker":8820,"Hagen":8821,"##OD":8822,"Storbritannia":8823,"##ution":8824,"World":8825,"##bot":8826,"nar":8827,"##ips":8828,"forel":8829,"Port":8830,"900":8831,"##byr":8832,"holdes":8833,"Pol":8834,"##ustad":8835,"##stiltak":8836,"##alis":8837,"Pat":8838,"anvendelse":8839,"##akse":8840,"levert":8841,"rekla":8842,"husket":8843,"selvstendig":8844,"teknologi":8845,"##riluft":8846,"two":8847,"hesten":8848,"##hu":8849,"##ikten":8850,"Universitetet":8851,"##rensen":8852,"avsluttet":8853,"hage":8854,"sed":8855,"Ellers":8856,"##gjorde":8857,"maa":8858,"himmel":8859,"tilby":8860,"forvir":8861,"##etting":8862,"##cle":8863,"vendte":8864,"##ukt":8865,"Solberg":8866,"inngår":8867,"kjenn":8868,"##smo":8869,"konfe":8870,"Ofte":8871,"Ze":8872,"##lefon":8873,"landene":8874,"partene":8875,"Ib":8876,"studier":8877,"##ssam":8878,"myndighetene":8879,"Telemark":8880,"Kri":8881,"such":8882,"jenta":8883,"forlen":8884,"##18":8885,"heime":8886,"##lever":8887,"søster":8888,"stikk":8889,"##sentra":8890,"treng":8891,"smak":8892,"Drammen":8893,"overgang":8894,"bruken":8895,"hvisket":8896,"##løpet":8897,"eventyr":8898,"these":8899,"##sløs":8900,"Gå":8901,"##gjørelse":8902,"##makt":8903,"##ped":8904,"motsetning":8905,"forst":8906,"Tidligere":8907,"Sar":8908,"innk":8909,"##modig":8910,"hverdag":8911,"priser":8912,"sosialt":8913,"sektor":8914,"Sigurd":8915,"elsket":8916,"skjul":8917,"Molde":8918,"tilhører":8919,"Rasmus":8920,"Tar":8921,"starten":8922,"eksisterende":8923,"teori":8924,"##hers":8925,"organisasjonen":8926,"likt":8927,"1964":8928,"myndighet":8929,"etablere":8930,"butikken":8931,"forholdsvis":8932,"Hvilke":8933,"gleder":8934,"Sogn":8935,"Fag":8936,"forfer":8937,"overord":8938,"bærer":8939,"##ssen":8940,"1966":8941,"lykkes":8942,"##ittet":8943,"skrå":8944,"utstrekning":8945,"Comm":8946,"avd":8947,"alb":8948,"about":8949,"utform":8950,"begrepet":8951,"##bygd":8952,"##jå":8953,"tyde":8954,"##ira":8955,"melder":8956,"ordningen":8957,"minutt":8958,"låne":8959,"fellesskap":8960,"##undersøke":8961,"brevet":8962,"num":8963,"enden":8964,"##cis":8965,"##anpix":8966,"##bank":8967,"##aking":8968,"Va":8969,"planlegging":8970,"Sov":8971,"ledelsen":8972,"sivil":8973,"jentene":8974,"##~~~~~~~~":8975,"beskrevet":8976,"##vernet":8977,"blad":8978,"hurtig":8979,"morgenen":8980,"Hil":8981,"senter":8982,"kjøret":8983,"ødel":8984,"Bok":8985,"Jar":8986,"eventuelle":8987,"offis":8988,"Gun":8989,"overtok":8990,"Kv":8991,"gjere":8992,"yrke":8993,"arbei":8994,"Stockholm":8995,"##oven":8996,"Års":8997,"britiske":8998,"Rune":8999,"Hei":9000,"##runder":9001,"København":9002,"grensen":9003,"##systemet":9004,"##xt":9005,"hytte":9006,"nordmenn":9007,"##handler":9008,"hund":9009,"##hald":9010,"kjønns":9011,"Finland":9012,"brystet":9013,"observ":9014,"##allfall":9015,"Tenk":9016,"hjul":9017,"kysten":9018,"spesiali":9019,"##omme":9020,"utenriks":9021,"NH":9022,"##cebook":9023,"hast":9024,"Dagsnytt":9025,"glemt":9026,"historisk":9027,"KrF":9028,"Arbeiderpartiet":9029,"filosof":9030,"telefonen":9031,"##ndens":9032,"##dommer":9033,"lyse":9034,"%.":9035,"##OG":9036,"##ya":9037,"Soc":9038,"påvirke":9039,"feltet":9040,"tabel":9041,"egenskaper":9042,"militære":9043,"nødvendigvis":9044,"Ende":9045,"bestemmelse":9046,"syv":9047,"##dte":9048,"pekte":9049,"aktivt":9050,"staden":9051,"##ulent":9052,"komment":9053,"mul":9054,"##boka":9055,"##aer":9056,"tørr":9057,"talt":9058,"just":9059,"kjo":9060,"AR":9061,"##conom":9062,"##ierne":9063,"hverken":9064,"dessverre":9065,"ledere":9066,"dialog":9067,"nevne":9068,"handlinger":9069,"sprang":9070,"Nic":9071,"Rand":9072,"##bestemme":9073,"##hagen":9074,"liggende":9075,"liste":9076,"##været":9077,"historiske":9078,"Bæ":9079,"##itten":9080,"##handel":9081,"##ated":9082,"##tenes":9083,"##staden":9084,"spel":9085,"Press":9086,"Form":9087,"##stall":9088,"elske":9089,"gaten":9090,"##srett":9091,"Komiteen":9092,"##fallet":9093,"##lier":9094,"enor":9095,"produksjonen":9096,"Sverre":9097,"Øog":9098,"Akers":9099,"##etning":9100,"kjønn":9101,"1961":9102,"vegne":9103,"Harry":9104,"University":9105,"særskilt":9106,"studenter":9107,"util":9108,"vokste":9109,"....":9110,"##su":9111,"Nar":9112,"sittende":9113,"##//":9114,"##spille":9115,"Ob":9116,"##umet":9117,"temmelig":9118,"seinare":9119,"landbruks":9120,"Tryg":9121,"radi":9122,"bevilg":9123,"##lish":9124,"forta":9125,"forskrift":9126,"##forsam":9127,"##ærende":9128,"##struktur":9129,"balanse":9130,"beskriver":9131,"##ktøren":9132,"##ferdsel":9133,"Gri":9134,"Fjord":9135,"##lesund":9136,"prinsippet":9137,"psykisk":9138,"forutsetning":9139,"##resp":9140,"Europe":9141,"alvorlige":9142,"sint":9143,"overta":9144,"respe":9145,"Heg":9146,"komiteen":9147,"Enkel":9148,"173":9149,"banen":9150,"betaling":9151,"allmenn":9152,"##urnal":9153,"cor":9154,"overrasket":9155,"pusten":9156,"tomme":9157,"behandlingen":9158,"klassen":9159,"fløy":9160,"spø":9161,"##19":9162,"tomt":9163,"jam":9164,"internasjonal":9165,"show":9166,"dannet":9167,"live":9168,"Hamar":9169,"byens":9170,"vende":9171,"Råd":9172,"##mas":9173,"##atsen":9174,"medfører":9175,"Mellom":9176,"Senere":9177,"omtalt":9178,"mørk":9179,"Ingeborg":9180,"use":9181,"forurens":9182,"Jonas":9183,"##unden":9184,"##vede":9185,"ses":9186,"verdenskri":9187,"##pend":9188,"Utvik":9189,"##16":9190,"##sdtr":9191,"##oten":9192,"##nge":9193,"Kapit":9194,"sekund":9195,"Fredag":9196,"Hit":9197,"##fang":9198,"velkommen":9199,"herre":9200,"mass":9201,"1963":9202,"metode":9203,"##terier":9204,"jevn":9205,"overdra":9206,"verdt":9207,"Rogaland":9208,"innført":9209,"1946":9210,"holdning":9211,"##ason":9212,"opphe":9213,"uri":9214,"net":9215,"kunstner":9216,"wo":9217,"##byrå":9218,"skyte":9219,"mottatt":9220,"Ris":9221,"frivillig":9222,"teoret":9223,"snare":9224,"##kster":9225,"##liste":9226,"Elisabeth":9227,"vanskelige":9228,"undersøkelsen":9229,"svensk":9230,"James":9231,"##redskap":9232,"Holm":9233,"tapt":9234,"grader":9235,"fik":9236,"Ingrid":9237,"##igen":9238,"løfte":9239,"engasjer":9240,"Art":9241,"1962":9242,"skiller":9243,"kok":9244,"grundig":9245,"##ged":9246,"##tain":9247,"##bjør":9248,"mengde":9249,"##ior":9250,"Hvilken":9251,"##givning":9252,"kvad":9253,"West":9254,"##bin":9255,"innvand":9256,"ordent":9257,"spa":9258,"Høye":9259,"nom":9260,"##sch":9261,"##asen":9262,"sykehuset":9263,"pil":9264,"ånd":9265,"##UM":9266,"##inav":9267,"umiddelbart":9268,"##rul":9269,"##inerte":9270,"##ruppa":9271,"Hard":9272,"Aud":9273,"##verte":9274,"Høg":9275,"øk":9276,"Eva":9277,"sho":9278,"##ivalen":9279,"fantas":9280,"##slam":9281,"nordiske":9282,"##års":9283,"##ison":9284,"bestand":9285,"betin":9286,"##unge":9287,"Karen":9288,"felle":9289,"vitenskape":9290,"musik":9291,"boliger":9292,"bortsett":9293,"##cher":9294,"##iteens":9295,"verdien":9296,"sekunder":9297,"hevdet":9298,"konkl":9299,"områdene":9300,"##rinn":9301,"##lom":9302,"hemmelig":9303,"##feltet":9304,"synlig":9305,"only":9306,"##15":9307,"fylte":9308,"engelske":9309,"Bestemme":9310,"##jerte":9311,"egnet":9312,"skam":9313,"nådde":9314,"##UD":9315,"##LER":9316,"Arn":9317,"##skab":9318,"kjørt":9319,"mikro":9320,"Torsdag":9321,"døgn":9322,"avisen":9323,"enk":9324,"brudd":9325,"nyttig":9326,"Mari":9327,"##mmene":9328,"##smidler":9329,"##ørsmål":9330,"punktum":9331,"tilfeldig":9332,"glemme":9333,"konsesjon":9334,"##pla":9335,"##ungen":9336,"dokumen":9337,"trur":9338,"næringslivet":9339,"kamper":9340,"kommunestyret":9341,"trygt":9342,"tjener":9343,"skapte":9344,"Gift":9345,"fö":9346,"eksport":9347,"Felles":9348,"infl":9349,"slipper":9350,"##tal":9351,"##uter":9352,"bade":9353,"##illed":9354,"##nske":9355,"##ural":9356,"##blikk":9357,"##burg":9358,"Fy":9359,"##kkens":9360,"diagn":9361,"##imen":9362,"NC":9363,"boksta":9364,"magen":9365,"any":9366,"##bal":9367,"Svar":9368,"Ungdom":9369,"##ORT":9370,"institusjoner":9371,"kald":9372,"miljøet":9373,"operasjon":9374,"ball":9375,"hjalp":9376,"##ligt":9377,"##igere":9378,"tel":9379,"frykte":9380,"110":9381,"##æs":9382,"tilsk":9383,"utfordring":9384,"##sarbeid":9385,"eiendommen":9386,"vokser":9387,"besl":9388,"##hard":9389,"##90":9390,"utenlandske":9391,"forsøkt":9392,"proble":9393,"Fru":9394,"tingene":9395,"##sterett":9396,"styring":9397,"rollene":9398,"##akk":9399,"resultatene":9400,"##aksjon":9401,"Person":9402,"##itive":9403,"alternative":9404,"begra":9405,"Johanne":9406,"unntatt":9407,"##rdet":9408,"russiske":9409,"##fast":9410,"Bal":9411,"Romsdal":9412,"##ordet":9413,"godkjen":9414,"Arti":9415,"øyeblikket":9416,"bakover":9417,"tone":9418,"hvile":9419,"##lend":9420,"søkte":9421,"##asker":9422,"matemat":9423,"Erling":9424,"1948":9425,"##out":9426,"##stasjon":9427,"fylle":9428,"##renn":9429,"##film":9430,"##ini":9431,"Not":9432,"##visst":9433,"Tur":9434,"##................................":9435,"ita":9436,"pause":9437,"divisjon":9438,"karrie":9439,"##aksen":9440,"##byggingen":9441,"##stikk":9442,"##lekt":9443,"debatten":9444,"handels":9445,"underholdning":9446,"##gede":9447,"forutsetter":9448,"##skiftet":9449,"dik":9450,"Mac":9451,"##tine":9452,"LO":9453,"danner":9454,"sakene":9455,"melde":9456,"opps":9457,"##splikt":9458,"SSSS":9459,"##hi":9460,"Teg":9461,"Meg":9462,"amerikansk":9463,"##ogen":9464,"skilt":9465,"spec":9466,"beholde":9467,"],":9468,"vaske":9469,"##onger":9470,"statens":9471,"Ali":9472,"##fé":9473,"##snyheter":9474,"##bus":9475,"terror":9476,"##gaver":9477,"skjeb":9478,"forstyr":9479,"møtes":9480,"Særlig":9481,"opplevde":9482,"berø":9483,"opprinnelig":9484,"iallfall":9485,"irri":9486,"##sningene":9487,"slen":9488,"##snivå":9489,"hon":9490,"##off":9491,"leke":9492,"arbeidsgiver":9493,"reaksjon":9494,"##ynet":9495,"##pit":9496,"veiledning":9497,"Juli":9498,"forplikte":9499,"Bill":9500,"Ir":9501,"##nningen":9502,"kjæ":9503,"stiv":9504,"##kommer":9505,"##idd":9506,"Dis":9507,"##andinav":9508,"Vold":9509,"solgte":9510,"##foreningen":9511,"flotte":9512,"##nna":9513,"innbyggere":9514,"##ilig":9515,"leilighet":9516,"iverks":9517,"aktører":9518,"tunne":9519,"villig":9520,"ressurs":9521,"##sedy":9522,"dårlige":9523,"kritisk":9524,"Pub":9525,"medlemmene":9526,"##ligheter":9527,"ulov":9528,"stolen":9529,"bokstav":9530,"metoder":9531,"vitne":9532,"when":9533,"Gust":9534,"kontin":9535,"selger":9536,"betraktet":9537,"varierer":9538,"##kontoret":9539,"konsert":9540,"Brann":9541,"##repet":9542,"lek":9543,"faglige":9544,"Home":9545,"understreker":9546,"bane":9547,"##taket":9548,"Små":9549,"sorg":9550,"lyder":9551,"fat":9552,"Hand":9553,"dømt":9554,"##BER":9555,"Richard":9556,"entre":9557,"##fisert":9558,"##mis":9559,"smiler":9560,"##EC":9561,"antar":9562,"Eksemp":9563,"Iver":9564,"##ksus":9565,"Mol":9566,"est":9567,"##skva":9568,"Østfold":9569,"Master":9570,"##12":9571,"cir":9572,"shall":9573,"##anerne":9574,"ing":9575,"'.":9576,"##seende":9577,"Få":9578,"##lund":9579,"1947":9580,"kalde":9581,"betre":9582,"Sandnes":9583,"Fu":9584,"Kun":9585,"##IC":9586,"glade":9587,"stillinger":9588,"Ålesund":9589,"1956":9590,"Eriksen":9591,"omstendig":9592,"Ton":9593,"##kets":9594,"Johnsen":9595,"dokumentarserie":9596,"Prin":9597,"retningslinjer":9598,"different":9599,"##skoler":9600,"Jack":9601,"støv":9602,"##uta":9603,"tillatelse":9604,"formue":9605,"mørkt":9606,"øya":9607,"##nst":9608,"##vang":9609,"lurte":9610,"samtykke":9611,"trinn":9612,"solen":9613,"##mun":9614,"Nik":9615,"elva":9616,"lede":9617,"hittil":9618,"##oph":9619,"daglige":9620,"jurid":9621,"toget":9622,"Ang":9623,"##yldig":9624,"count":9625,"Jap":9626,"##iseringen":9627,"Leif":9628,"rammet":9629,"hjemmet":9630,"##banken":9631,"Berlin":9632,"behandles":9633,"##fs":9634,"##haugen":9635,"Rosen":9636,"utarbeidet":9637,"##VE":9638,"##iar":9639,"##bler":9640,"jernbane":9641,"forskrifter":9642,"kalte":9643,"##eta":9644,"harde":9645,"mangfold":9646,"kommunens":9647,"kret":9648,"vinden":9649,"Møre":9650,"##smøtet":9651,"##syke":9652,"Gjø":9653,"##stig":9654,"oppgitt":9655,"avtaler":9656,"vinner":9657,"##sleder":9658,"EØS":9659,"##ynt":9660,"fingrene":9661,"bryst":9662,"Spørsmålet":9663,"merkelig":9664,"vurderes":9665,"Flo":9666,"Hør":9667,"metall":9668,"##landsk":9669,"##unnskap":9670,"##myndig":9671,"Che":9672,"##sprosessen":9673,"bjør":9674,"temperatur":9675,"##reen":9676,"kast":9677,"hellige":9678,"fett":9679,"religion":9680,"bytte":9681,"detalj":9682,"Lie":9683,"##hengige":9684,"fersk":9685,"Fi":9686,"behøver":9687,"befinner":9688,"##tekn":9689,"##jæ":9690,"##moen":9691,"##planen":9692,"Hi":9693,"bri":9694,"gram":9695,"##slige":9696,"##blant":9697,"anty":9698,"scenen":9699,"##fir":9700,"##anden":9701,"rec":9702,"Hold":9703,"160":9704,"Off":9705,"##IKK":9706,"line":9707,"pet":9708,"bistand":9709,"utvidet":9710,"skipet":9711,"uen":9712,"merker":9713,"nerv":9714,"##MS":9715,"hog":9716,"##speri":9717,"##lagene":9718,"mengder":9719,"tilskudd":9720,"where":9721,"utføres":9722,"##aret":9723,"##siktige":9724,"Lud":9725,"IS":9726,"##mmede":9727,"dete":9728,"##mental":9729,"pens":9730,"##agram":9731,"Antall":9732,"innle":9733,"##kampen":9734,"1959":9735,"gn":9736,"GR":9737,"passet":9738,"riktige":9739,"##),":9740,"presten":9741,"utenom":9742,"guttene":9743,"fremmede":9744,"Champ":9745,"allikevel":9746,"##stilte":9747,"##nas":9748,"aksjer":9749,"giftet":9750,"1957":9751,"spurt":9752,"##remt":9753,"takket":9754,"Theory":9755,"Tri":9756,"innsp":9757,"##jorte":9758,"spillere":9759,"reisen":9760,"Storting":9761,"##bøker":9762,"utslipp":9763,"svake":9764,"##ighets":9765,"##ants":9766,"1952":9767,"Sjå":9768,"inngå":9769,"August":9770,"samband":9771,"samisk":9772,"real":9773,"##ality":9774,"##iret":9775,"##mand":9776,"Stø":9777,"klasser":9778,"oppfølging":9779,"Trump":9780,"##strå":9781,"##boks":9782,"##stal":9783,"##LA":9784,"##jern":9785,"Akershus":9786,"favor":9787,"skiftet":9788,"Moss":9789,"Kåre":9790,"forebyg":9791,"dekker":9792,"##strukt":9793,"hæ":9794,"midlertidig":9795,"International":9796,"##ordninger":9797,"Mennes":9798,"./":9799,"Lange":9800,"trykket":9801,"tallene":9802,"##høg":9803,"betaler":9804,"gjennem":9805,"Top":9806,"##nson":9807,"andres":9808,"festet":9809,"rammer":9810,"htt":9811,"Cl":9812,"faktorer":9813,"Kristoffer":9814,"etterspør":9815,"døy":9816,"1939":9817,"Sin":9818,"##system":9819,"tegne":9820,"Aas":9821,"1958":9822,"laga":9823,"##sborg":9824,"##ady":9825,"Knud":9826,"Rt":9827,"klin":9828,"beskytte":9829,"forlot":9830,"toll":9831,"last":9832,"misjon":9833,"##IST":9834,"1955":9835,"domine":9836,"erver":9837,",\"\"\"\"":9838,"##revis":9839,"forretning":9840,"Lillehammer":9841,"Lå":9842,"bygges":9843,"deltar":9844,"dekning":9845,"medan":9846,"Ener":9847,"frivillige":9848,"snur":9849,"Spania":9850,"##inter":9851,"##giften":9852,"mal":9853,"seie":9854,"##kking":9855,"skum":9856,"##behov":9857,"gjera":9858,"internasjonalt":9859,"##letter":9860,"autor":9861,"##jefen":9862,"støy":9863,"kjerne":9864,"peke":9865,"Øvre":9866,"svin":9867,"spiser":9868,"##lings":9869,"søvn":9870,"forklarte":9871,"ille":9872,"jur":9873,"fal":9874,"parkering":9875,"tab":9876,"ulykke":9877,"turist":9878,"##17":9879,"##klager":9880,"antas":9881,"bis":9882,"tegnet":9883,"##kler":9884,"henvende":9885,"##ago":9886,"lige":9887,"delte":9888,"##ningens":9889,"Skole":9890,"Hauges":9891,"stasjon":9892,"århundre":9893,"hyp":9894,"kommunal":9895,"##amet":9896,"##skerne":9897,"##markedet":9898,"##utstyr":9899,"1949":9900,"Nav":9901,"verdif":9902,"tilfredsstillende":9903,"War":9904,"Akkurat":9905,"##isene":9906,"##habil":9907,"klassi":9908,"AB":9909,"samtlige":9910,"##ffel":9911,"cont":9912,"romant":9913,"hull":9914,"helgen":9915,"##foss":9916,"mumlet":9917,"utg":9918,"pent":9919,"huden":9920,"eine":9921,"antallet":9922,"lyden":9923,"gråt":9924,"##avdelingen":9925,"Prø":9926,"Hotel":9927,"flø":9928,"skriftlig":9929,"(<<":9930,"ukjent":9931,"##ugge":9932,"språket":9933,"typisk":9934,"##rapp":9935,"betrakt":9936,"Wa":9937,"fungere":9938,"bøyde":9939,"Hammer":9940,"##idig":9941,"##ÆR":9942,"##sektoren":9943,"##iva":9944,"undert":9945,"##meter":9946,"Været":9947,"minnet":9948,"##fort":9949,"stilles":9950,"diskusjon":9951,"dimens":9952,"politikere":9953,"sida":9954,"Kort":9955,"##dann":9956,"sympt":9957,"barndom":9958,"symbol":9959,"lykkelig":9960,"engasjement":9961,"##angeli":9962,"organisert":9963,"bens":9964,"gry":9965,"##itar":9966,"##gard":9967,"1953":9968,"partic":9969,"modellen":9970,"##ctions":9971,"##forn":9972,"##litte":9973,"##OMM":9974,"uh":9975,"Tøns":9976,"brenne":9977,"naturlige":9978,"introdu":9979,"Dagens":9980,"EF":9981,"Grøn":9982,"non":9983,"bryte":9984,"oblig":9985,"##sting":9986,"Bjar":9987,"##tlige":9988,"byer":9989,"kvi":9990,"Enkelte":9991,"kommand":9992,"konsta":9993,"pannen":9994,"innan":9995,"Georg":9996,"##nneteg":9997,"Amund":9998,"Kont":9999,"mur":10000,"Tiden":10001,"gjenstand":10002,"##klo":10003,"medføre":10004,"Hum":10005,"bildene":10006,"los":10007,"##cr":10008,"anlegget":10009,"Grim":10010,"US":10011,"reality":10012,"synet":10013,"##ETT":10014,"trappen":10015,"hove":10016,"##biler":10017,"relevant":10018,"##ENE":10019,"trist":10020,"jev":10021,"opprør":10022,"##bers":10023,"119":10024,"atom":10025,"konklu":10026,"incre":10027,"].":10028,"asyl":10029,"##appar":10030,"Fredrikstad":10031,"medier":10032,"##chn":10033,"##--":10034,"verdenskrig":10035,"',":10036,"forny":10037,"dekk":10038,"hushold":10039,"MAR":10040,"identitet":10041,"Onsdag":10042,"##40":10043,"##båt":10044,"forandret":10045,"arbeidsmiljø":10046,"musikken":10047,"##delinger":10048,"Los":10049,"Foren":10050,"Kim":10051,"##bed":10052,"Ask":10053,"video":10054,"belast":10055,"Musikk":10056,"MED":10057,"##ituasjon":10058,"##spillet":10059,"##hodet":10060,"dus":10061,"forskjeller":10062,"##GE":10063,"KR":10064,"##fle":10065,"gjennomføres":10066,"Foss":10067,"følelsen":10068,"Distriktsnyheter":10069,"##vika":10070,"faktum":10071,"acc":10072,"stengt":10073,"regionen":10074,"truffet":10075,"friluft":10076,"Max":10077,"forba":10078,"kreft":10079,"kommende":10080,"Herre":10081,"##ool":10082,"firma":10083,"There":10084,"##føreren":10085,"://":10086,"element":10087,"rome":10088,"betydningen":10089,"##punktet":10090,"##dret":10091,"herunder":10092,"Brand":10093,"bakgrunnen":10094,"##oline":10095,"##13":10096,"William":10097,"##spar":10098,"øverste":10099,"avgjørelse":10100,"alminnelig":10101,"Siv":10102,"##veig":10103,"CO":10104,"overalt":10105,"ins":10106,"religiøse":10107,"Hord":10108,"personen":10109,"familier":10110,"##øyer":10111,"struktur":10112,"most":10113,"##bak":10114,"##AB":10115,"##norsk":10116,"##TT":10117,"rulle":10118,"##litt":10119,"design":10120,"gammelt":10121,"##fik":10122,"##ylt":10123,"##datter":10124,"kreditt":10125,"Gamle":10126,"jus":10127,"oppgjør":10128,"168":10129,"lengde":10130,"demokrati":10131,"##skuddet":10132,"House":10133,"perfekt":10134,"##ship":10135,"##bedri":10136,"uka":10137,"pur":10138,"konsekvens":10139,"Industri":10140,"Grun":10141,"soldater":10142,"##bund":10143,"##ives":10144,"opprinnelige":10145,"##kunst":10146,"prat":10147,"ødelagt":10148,"lengst":10149,"##sport":10150,"Austra":10151,"hagen":10152,"##go":10153,"koster":10154,"vanleg":10155,"skinn":10156,"Bur":10157,"Smith":10158,"datteren":10159,"liter":10160,"lande":10161,"idag":10162,"retur":10163,"##somhet":10164,"forutsetninger":10165,"Nok":10166,"vilt":10167,"bestemmelsene":10168,"##marks":10169,"grønns":10170,"##villig":10171,"##blå":10172,"##gin":10173,"herr":10174,"levere":10175,"strek":10176,"Pas":10177,"##perioden":10178,"kortere":10179,"reklame":10180,"##urdering":10181,"##vakt":10182,"##ynte":10183,"sort":10184,"ie":10185,"brøt":10186,"Ble":10187,"Jesu":10188,"tilbyr":10189,"hvitt":10190,"Stad":10191,"##fabri":10192,"bestemmelsen":10193,"##ORD":10194,"avfall":10195,"Ove":10196,"stress":10197,"##felle":10198,"Facebook":10199,"beskrivelse":10200,"##løy":10201,"##holt":10202,"##skogen":10203,"stillingen":10204,"rase":10205,"##illa":10206,"reguler":10207,"##smyndig":10208,"1954":10209,"arbeidsgi":10210,"Frie":10211,"tidlegare":10212,"kilde":10213,"ordentlig":10214,"pkt":10215,"##SDAG":10216,"##annet":10217,"##ude":10218,"130":10219,"broren":10220,"uttrykket":10221,"Brit":10222,"hvorvidt":10223,"bruks":10224,"##støtte":10225,"nark":10226,"##star":10227,"alminnelige":10228,"oppgaven":10229,"samtalen":10230,"fattige":10231,"årsak":10232,"Skatte":10233,"Lof":10234,"behandle":10235,"hr":10236,"##onert":10237,"Egil":10238,"fisker":10239,"##sve":10240,"##nytt":10241,"bunn":10242,"sor":10243,"Fer":10244,"anden":10245,"##HET":10246,"Sog":10247,"stam":10248,"##krig":10249,"...>>":10250,"Ni":10251,"##henger":10252,"##md":10253,"group":10254,"farger":10255,"##skritt":10256,"##skjær":10257,"oks":10258,"kolleg":10259,"##vilkår":10260,"him":10261,"##bene":10262,"##gata":10263,"hovedsa":10264,"høres":10265,"##ressen":10266,"##øl":10267,"eventuell":10268,"Syke":10269,"##bod":10270,"fordeler":10271,"problemene":10272,"##inntekt":10273,"skin":10274,"proje":10275,"lærte":10276,"skjær":10277,"glø":10278,"kunnet":10279,"##omet":10280,"kapasitet":10281,"geograf":10282,"Jim":10283,"nektet":10284,"##itz":10285,"tilstede":10286,"slit":10287,"United":10288,"næringsliv":10289,"kryss":10290,"##els":10291,"ss":10292,"lovens":10293,"##stasjonen":10294,"generell":10295,"##hørte":10296,"##jing":10297,"##regler":10298,"bab":10299,"hur":10300,"##hor":10301,"##forstå":10302,"##ivind":10303,"##latende":10304,"##urene":10305,"##ople":10306,"spiste":10307,"##ruer":10308,"Gull":10309,"##irekte":10310,"##ELL":10311,"gunst":10312,"she":10313,"Kongs":10314,"##ledningen":10315,"NAT":10316,"Neder":10317,"##ntil":10318,"report":10319,"##SP":10320,"mulighetene":10321,"Lau":10322,"femte":10323,"Målet":10324,"##mennes":10325,"kull":10326,"skulderen":10327,"ordre":10328,"sviger":10329,"løper":10330,"Even":10331,"vara":10332,"Borg":10333,"Aftenposten":10334,"##assa":10335,"omsetning":10336,"##ross":10337,"billig":10338,"##oes":10339,"##pensjon":10340,"smel":10341,"##sons":10342,"Din":10343,"##uering":10344,"III":10345,"preg":10346,"verktøy":10347,"would":10348,"##oo":10349,"barnehagen":10350,"##sdatter":10351,"null":10352,"Kristen":10353,"halde":10354,"##kapital":10355,"befolkning":10356,"##register":10357,"appro":10358,"opprette":10359,"Sky":10360,"##redet":10361,"statlige":10362,"skudd":10363,"Ban":10364,"Eirik":10365,"manns":10366,"krise":10367,"high":10368,"stykker":10369,"skrek":10370,"dype":10371,"##ått":10372,"orienter":10373,"helg":10374,"##unget":10375,"Pål":10376,"gjester":10377,"##sgjer":10378,"noens":10379,"Ass":10380,"##skra":10381,"beskyttelse":10382,"##nu":10383,"##forbundet":10384,"hunden":10385,"vesle":10386,"pleide":10387,"##prisen":10388,"skøy":10389,"sikret":10390,"##flate":10391,"sannheten":10392,"atter":10393,"##skott":10394,"Allerede":10395,"bisk":10396,"mister":10397,"##ndre":10398,"##ridge":10399,"##uts":10400,"Haugesund":10401,"tendens":10402,"tilbudet":10403,"##kring":10404,"1951":10405,"George":10406,"##kset":10407,"forekommer":10408,"Ki":10409,"bryll":10410,"kve":10411,"enklere":10412,"##ialer":10413,"##historie":10414,"klubb":10415,"faa":10416,"sidene":10417,"akk":10418,"tette":10419,"Nærings":10420,"nært":10421,"well":10422,"##faring":10423,"humor":10424,"##helm":10425,"dansk":10426,"mome":10427,"##kontor":10428,"##utdanning":10429,"##brev":10430,"##itor":10431,"retter":10432,"Plutselig":10433,"##inering":10434,"##åsen":10435,"gjennomføring":10436,"##role":10437,"Lise":10438,"##abler":10439,"##uene":10440,"##rygd":10441,"forbundet":10442,"dommer":10443,"1500":10444,"Sven":10445,"demokrat":10446,"##verdige":10447,"Jern":10448,"thro":10449,"argument":10450,"Pi":10451,"##æk":10452,"##rena":10453,"prom":10454,"##ano":10455,"saka":10456,"##cri":10457,"kant":10458,"fler":10459,"Arbeids":10460,"##14":10461,"smitte":10462,"##søkt":10463,"UK":10464,"##kelen":10465,"rute":10466,"##alys":10467,"##god":10468,"uttalelse":10469,"utk":10470,"forsy":10471,"helset":10472,"fyrste":10473,"##olje":10474,"Sovjet":10475,"Mye":10476,"##nsp":10477,"slutter":10478,"påvirker":10479,"Roy":10480,"##akon":10481,"##PS":10482,"##ansker":10483,"kolon":10484,"Real":10485,"1700":10486,"Fire":10487,"##teret":10488,"##istan":10489,"blø":10490,"Hor":10491,"##ssystemet":10492,"Skjø":10493,"##mert":10494,"bedriftene":10495,"prøvd":10496,"202":10497,"tynne":10498,"lurt":10499,"reduksjon":10500,"##vante":10501,"##kling":10502,"##dagens":10503,"##ep":10504,"Asb":10505,"##ji":10506,"Henry":10507,"bredt":10508,"beina":10509,"sigar":10510,"##faren":10511,"Lig":10512,"serien":10513,"grunne":10514,"friske":10515,"drepe":10516,"##bard":10517,"opprettholde":10518,"sok":10519,"uttalte":10520,"City":10521,"prop":10522,"støttet":10523,"innsikt":10524,"forbru":10525,"betydelige":10526,"##nevnt":10527,"##andidat":10528,"rat":10529,"opphav":10530,"IT":10531,"Innen":10532,"##blemet":10533,"spørsmålene":10534,"Line":10535,"cup":10536,"utnytte":10537,"studere":10538,"Gruppe":10539,"##etta":10540,"foten":10541,"level":10542,"##værelse":10543,"##FF":10544,"##ux":10545,"##nø":10546,"melk":10547,"kanten":10548,"##uset":10549,"##mmen":10550,"annan":10551,"sjansen":10552,"damer":10553,"evig":10554,"How":10555,"##cks":10556,"strategi":10557,"Tønsberg":10558,"##jøring":10559,"bemer":10560,"leiligheten":10561,"sånt":10562,"##geist":10563,"drap":10564,"Mary":10565,"Vig":10566,"brukere":10567,"elektrisk":10568,"##rica":10569,"dl":10570,"##ktighet":10571,"SC":10572,"kjennskap":10573,"1938":10574,"Magne":10575,"beboe":10576,"målt":10577,"should":10578,"vo":10579,"##ypt":10580,"Berit":10581,"kostnadene":10582,"institutt":10583,"##rol":10584,"##splassen":10585,"right":10586,"##unktene":10587,"gøy":10588,"Pors":10589,"barns":10590,"##sby":10591,"kvadrat":10592,"bena":10593,"grønn":10594,"##verdien":10595,"lete":10596,"skadet":10597,"sakte":10598,"But":10599,"leir":10600,"##sma":10601,"##ki":10602,"Nyg":10603,"urett":10604,"antagelig":10605,"kjempet":10606,"sper":10607,"strengt":10608,"##snyhetene":10609,"Unn":10610,"##ico":10611,"Stre":10612,"##jellene":10613,"##mede":10614,"tilpasset":10615,"hensiktsmessig":10616,"##cl":10617,"##ALL":10618,"##komne":10619,"major":10620,"que":10621,"##stiller":10622,"##ili":10623,"Rundt":10624,"regionale":10625,"vurderer":10626,"sammenhengen":10627,"tilsyne":10628,"##SI":10629,"iso":10630,"Pan":10631,"##andelen":10632,"##venes":10633,"formen":10634,"##ads":10635,"##grø":10636,"##ksen":10637,"##knings":10638,"inner":10639,"##lla":10640,"katastro":10641,"Sosial":10642,"påpeker":10643,"automatisk":10644,"Gjør":10645,"Bærum":10646,"India":10647,"##uere":10648,"##ilder":10649,"##smu":10650,"framfor":10651,"ligget":10652,"forresten":10653,"skjøt":10654,"##jal":10655,"elles":10656,"sees":10657,"##fru":10658,"##iget":10659,"forskjellen":10660,"Premier":10661,"##????":10662,"Dagen":10663,"banken":10664,"Vestfold":10665,"avde":10666,"vedrørende":10667,"##olen":10668,"kalla":10669,"Samme":10670,"stry":10671,"##lane":10672,"minimum":10673,"demonst":10674,"##HE":10675,"Fir":10676,"plikter":10677,"rab":10678,"Brun":10679,"##ssystem":10680,"medie":10681,"onkel":10682,"fangst":10683,"##udsjettet":10684,"##kja":10685,"##asat":10686,"##sikring":10687,"##bur":10688,"planter":10689,"##illes":10690,"åpning":10691,"##jev":10692,"Victor":10693,"sav":10694,"equ":10695,"vaks":10696,"lød":10697,"kravene":10698,"eitt":10699,"henge":10700,"love":10701,"Try":10702,"jordbruks":10703,"kjenneteg":10704,"##rup":10705,"Sha":10706,"kilder":10707,"##rale":10708,"##bygget":10709,"nettverk":10710,"##ÅR":10711,"##kkar":10712,"Ope":10713,"brutt":10714,"##EB":10715,"AP":10716,"spillet":10717,"140":10718,"##ddet":10719,"##irken":10720,"overvå":10721,"foredrag":10722,"aa":10723,"##øvrig":10724,"##IA":10725,"125":10726,"Hilde":10727,"##ota":10728,"arkiv":10729,"DET":10730,"Sus":10731,"musk":10732,"##leve":10733,"løst":10734,"avgrens":10735,"Skriv":10736,"opptre":10737,"Otto":10738,"innov":10739,"##kko":10740,"unød":10741,"##kårene":10742,"vedte":10743,"vennlig":10744,"spenning":10745,"1936":10746,"overført":10747,"##isser":10748,"##idrett":10749,"hevet":10750,"selskapets":10751,"eigen":10752,"Ron":10753,"Tekn":10754,"##to":10755,"arbeidslivet":10756,"seige":10757,"havne":10758,"brått":10759,"latt":10760,"##rican":10761,"NCIS":10762,"forstått":10763,"##lot":10764,"ph":10765,"sb":10766,"drog":10767,"##ience":10768,"arv":10769,"såkalt":10770,"##stekn":10771,"##passe":10772,"##avtale":10773,"elven":10774,"perioder":10775,"fotograf":10776,"Norden":10777,"multi":10778,"fisken":10779,"period":10780,"112":10781,"##mpel":10782,"hoppet":10783,"##pensasjon":10784,"##givende":10785,"priorite":10786,"Edvard":10787,"Uansett":10788,"Alexander":10789,"bosatt":10790,"##ager":10791,"She":10792,"sjuke":10793,"Tror":10794,"##itiv":10795,"sammenlignet":10796,"syd":10797,"tilsyn":10798,"journalist":10799,"ballen":10800,"tante":10801,"held":10802,"forlate":10803,"takke":10804,"særlige":10805,"ringer":10806,"ivrig":10807,"Christen":10808,"change":10809,"##lyn":10810,"##porten":10811,"169":10812,"støtter":10813,"KL":10814,"plate":10815,"helvete":10816,"##følelse":10817,"Radio":10818,"Nr":10819,"desto":10820,"##odden":10821,"begrense":10822,"separ":10823,"##ittelen":10824,"svakt":10825,"front":10826,"##ington":10827,"sof":10828,"hotellet":10829,"nysgjer":10830,"frist":10831,"##sevne":10832,"##kkert":10833,"gevin":10834,"vunnet":10835,"maksim":10836,"sim":10837,"##vog":10838,"##lset":10839,"komple":10840,"Rik":10841,"pin":10842,"##skifte":10843,"resul":10844,"##iten":10845,"##viste":10846,"utdannings":10847,"##gaven":10848,"materialet":10849,"gradvis":10850,"##ulture":10851,"Aut":10852,"varsel":10853,"Endelig":10854,"statsminister":10855,"Ros":10856,"røyk":10857,"lovet":10858,"muligens":10859,"##umin":10860,"Elekt":10861,"trær":10862,"Jer":10863,"Hånd":10864,"##gri":10865,"Espen":10866,"danne":10867,"##sæ":10868,"ombord":10869,"dal":10870,"iste":10871,"årsaken":10872,"main":10873,"##idet":10874,"storm":10875,"Stand":10876,"effektivt":10877,"##ørs":10878,"investeringer":10879,"Holly":10880,"Sval":10881,"pike":10882,"kapitlet":10883,"##splanen":10884,"stig":10885,"##skade":10886,"Tal":10887,"##undes":10888,"Half":10889,"bundet":10890,"##smet":10891,"##sych":10892,"##stor":10893,"##uet":10894,"takknem":10895,"first":10896,"parter":10897,"##sbyg":10898,"velly":10899,"##æv":10900,"bag":10901,"skjønne":10902,"Øystein":10903,"bøkene":10904,"drifts":10905,"##stin":10906,"foster":10907,"tips":10908,"Alta":10909,"##anna":10910,"##lav":10911,"inkl":10912,"benytter":10913,"##amping":10914,"##ANN":10915,"##vanns":10916,"Mitt":10917,"##ied":10918,"holdninger":10919,"seinere":10920,"gled":10921,"them":10922,"beund":10923,"##asken":10924,"gym":10925,"søkt":10926,"##gle":10927,"vor":10928,"##organisasjon":10929,"media":10930,"##fellen":10931,"angår":10932,"##aksjonen":10933,"##elig":10934,"Siste":10935,"gas":10936,"oppført":10937,"besv":10938,"diskutere":10939,"rekrutter":10940,"mit":10941,"Que":10942,"kå":10943,"##kontroll":10944,"utvide":10945,">>-":10946,"deltakelse":10947,"disip":10948,"finst":10949,"skutt":10950,"##stemm":10951,"taushet":10952,"kilo":10953,"Kors":10954,"lenker":10955,"kulturelle":10956,"feste":10957,"##ØY":10958,"Polit":10959,"##pat":10960,"operat":10961,"bygninger":10962,"##ØN":10963,"##fritt":10964,"Mandag":10965,"overfl":10966,"løpende":10967,"nettet":10968,"innrøm":10969,"parad":10970,"ender":10971,"Dal":10972,"Nam":10973,"buss":10974,"##prest":10975,"kru":10976,"Lis":10977,"tydeligvis":10978,"forbry":10979,"Bol":10980,"##ffic":10981,"##nam":10982,"hat":10983,"negativ":10984,"1942":10985,"##politikken":10986,"tål":10987,"vegg":10988,"Super":10989,"##spel":10990,"##skrav":10991,"styrer":10992,"tolk":10993,"##retninger":10994,"naar":10995,"trygge":10996,"Går":10997,"foreslo":10998,"Blir":10999,"nyhet":11000,"##kap":11001,"artikkelen":11002,"##direktoratet":11003,"nære":11004,"tvi":11005,"sørget":11006,"lytte":11007,"##ritt":11008,"##rae":11009,"Nø":11010,"Svend":11011,"Bern":11012,"realit":11013,"Nyhetene":11014,"drakk":11015,"koord":11016,"krevende":11017,"troe":11018,"Nytt":11019,"arbeidsplasser":11020,"hester":11021,"skjen":11022,"Sportsnyhetene":11023,"Ragnhild":11024,"blodet":11025,"##mmel":11026,"##legen":11027,"gnr":11028,"opplevelser":11029,"1944":11030,"##etil":11031,"##klubb":11032,"im":11033,"oppfattet":11034,"##bit":11035,"onde":11036,"vesentlige":11037,"##bbe":11038,"##boken":11039,"Lunde":11040,"sing":11041,"mog":11042,"samarbeide":11043,"epis":11044,"##rur":11045,"dron":11046,"porn":11047,"eksperi":11048,"##holdes":11049,"heste":11050,"blomst":11051,"noensinne":11052,"vurderinger":11053,"Dess":11054,"Marian":11055,"motsatt":11056,"kniv":11057,"Id":11058,"fleks":11059,"##personer":11060,"##una":11061,"særleg":11062,"bunnen":11063,"begeist":11064,"trygde":11065,"utdannelse":11066,"Astrid":11067,"167":11068,"##represent":11069,"Sen":11070,"årsaker":11071,"peng":11072,"##selskaper":11073,"aviser":11074,"BR":11075,"##rick":11076,"Gustav":11077,"Hill":11078,"hjernen":11079,"generasjon":11080,"##KS":11081,"Bernt":11082,"Kraft":11083,"Tour":11084,"bron":11085,"våknet":11086,"Two":11087,"##språk":11088,";.":11089,"dynam":11090,"Hordaland":11091,"##stemt":11092,"strakte":11093,"stram":11094,"##industrien":11095,"Luft":11096,"##see":11097,"dokumenter":11098,"##mellom":11099,"##medlemmer":11100,"##avisen":11101,"faktor":11102,"hellig":11103,"##uste":11104,"Pr":11105,"Spare":11106,"ferdige":11107,"##stjenesten":11108,"##klare":11109,"##hallen":11110,"seksjon":11111,"betrakte":11112,"//":11113,"##idi":11114,"fremfor":11115,"forventet":11116,"##smessige":11117,"##send":11118,"modern":11119,"Japan":11120,"##anere":11121,"angst":11122,"farten":11123,"kvinnelige":11124,"yn":11125,"1937":11126,"##rethe":11127,"populære":11128,"vanskeligere":11129,"riktignok":11130,"##vannet":11131,"1941":11132,"moro":11133,"opptil":11134,"kaptein":11135,"##stykke":11136,"##kjøring":11137,"sver":11138,"rødt":11139,"anska":11140,"##plos":11141,"Kjer":11142,"tjue":11143,"##ubben":11144,"Haugen":11145,"Øyvind":11146,"sukket":11147,"Stu":11148,"overraskende":11149,"fokuse":11150,"Aur":11151,"EL":11152,"##skjø":11153,"##cation":11154,"164":11155,"livsstil":11156,"Arendal":11157,"*(":11158,"ivareta":11159,"bønn":11160,"oppbe":11161,"tverr":11162,"Kristiania":11163,"sme":11164,"Berge":11165,"årlige":11166,"systematisk":11167,"##vide":11168,"Olaf":11169,"Tim":11170,"Canada":11171,"##gjøring":11172,"##assende":11173,"##viron":11174,"##sområde":11175,"handlet":11176,"##cker":11177,"skild":11178,"##lovens":11179,"inni":11180,"pleier":11181,"##leggingen":11182,"##nnis":11183,"Lyng":11184,"Museum":11185,"Asker":11186,"after":11187,"hypp":11188,"libe":11189,"foretas":11190,"skikke":11191,"profil":11192,"hær":11193,"anstren":11194,"beskrive":11195,"universitet":11196,"Mør":11197,"sank":11198,"dun":11199,"Tirsdag":11200,"passasje":11201,"funksjonshe":11202,"##uller":11203,"pust":11204,"Kommunen":11205,"http":11206,"inngått":11207,"tapte":11208,"##fakt":11209,"##ils":11210,"virkelige":11211,"underveis":11212,"105":11213,"viktigere":11214,"Tob":11215,"ideer":11216,"realityserie":11217,"koma":11218,"Ulle":11219,"##områdene":11220,"trang":11221,"##skader":11222,"inten":11223,"innrømme":11224,"ald":11225,"##rafikken":11226,"Ren":11227,"Sw":11228,"Resultatet":11229,"innover":11230,"FA":11231,"koste":11232,"meas":11233,"budde":11234,"North":11235,"øvre":11236,"stoffer":11237,"utstilling":11238,"##følgende":11239,"presentert":11240,"165":11241,"seil":11242,"##ighetene":11243,"##feste":11244,"Arild":11245,"Os":11246,"expe":11247,"Wer":11248,"utsikt":11249,"##cept":11250,"##kurs":11251,"hovedsakelig":11252,"enheter":11253,"##aken":11254,"Skulle":11255,"##miljøet":11256,"appar":11257,"fins":11258,"##personell":11259,"vedtaket":11260,"vokse":11261,"skjønt":11262,"døg":11263,"heldig":11264,"##JE":11265,"Egen":11266,"##derlig":11267,"Fest":11268,"forvaltnings":11269,"NS":11270,"partier":11271,"##jener":11272,"##skre":11273,"May":11274,"##chester":11275,"underlig":11276,"##iest":11277,"##nekker":11278,"bygningen":11279,"velsig":11280,"##mmun":11281,"Kli":11282,"hustru":11283,"Ud":11284,"dir":11285,"term":11286,"lønnsom":11287,"fjern":11288,"yngste":11289,"spy":11290,"beite":11291,"pluss":11292,"raske":11293,"Sarp":11294,"##lisering":11295,"##riller":11296,"anmel":11297,"fjernet":11298,"##odell":11299,"bekreftet":11300,"Frø":11301,"lea":11302,"tykke":11303,"##lått":11304,"##ielt":11305,"samla":11306,"##kadem":11307,"barnets":11308,"Skien":11309,"adresse":11310,"rust":11311,"Fos":11312,"nedgang":11313,"##fting":11314,"##sdire":11315,"gule":11316,"##æringen":11317,"##randen":11318,"hytta":11319,"past":11320,"fisket":11321,"##idens":11322,"diam":11323,"Kjær":11324,"kollektiv":11325,"påvirket":11326,"spred":11327,"Vide":11328,"talte":11329,"poteter":11330,"case":11331,"sjeld":11332,"påske":11333,"byene":11334,"Rol":11335,"humør":11336,"Stol":11337,"PC":11338,"signal":11339,"Bedri":11340,"Blom":11341,"Gabri":11342,"revet":11343,"##ani":11344,"##kr":11345,"mak":11346,"##GEN":11347,"salgs":11348,"indirekte":11349,"rettferdig":11350,"##trykk":11351,"minor":11352,"##bid":11353,"##ksjonene":11354,"administrative":11355,"kø":11356,"what":11357,"##eltet":11358,"kall":11359,"vakkert":11360,"##arter":11361,"fordø":11362,"##ubb":11363,"bruket":11364,"arbeidskraft":11365,"tyve":11366,"KJ":11367,"##onent":11368,"offer":11369,"forferdelig":11370,"##vunnet":11371,"py":11372,"Roger":11373,"dårligere":11374,"overve":11375,"General":11376,"RE":11377,"##kva":11378,"##seringen":11379,"##smar":11380,"##sjekter":11381,"##leik":11382,"utgitt":11383,"##pping":11384,"fjø":11385,"##dellen":11386,"andelen":11387,"##ological":11388,"betydde":11389,"stoffet":11390,"##deb":11391,"trodd":11392,"funksjoner":11393,"##rate":11394,"1918":11395,"læreren":11396,"##basert":11397,"##__":11398,"nådd":11399,"##rap":11400,"##dahl":11401,"##ism":11402,"dommen":11403,"smale":11404,"reduseres":11405,"##sforhold":11406,"##serien":11407,"##leggelse":11408,"hendelser":11409,"oppstå":11410,"Kilde":11411,"vedlegg":11412,"forsvare":11413,"fremgår":11414,"dam":11415,"forsikring":11416,"follow":11417,"halve":11418,"igang":11419,"tabellen":11420,"Aker":11421,"American":11422,"vatn":11423,"Skar":11424,"##time":11425,"dato":11426,"both":11427,"hendte":11428,"attra":11429,"pant":11430,"Jacobsen":11431,"kombinasjon":11432,"stjerne":11433,"##xe":11434,"Wik":11435,"##ierte":11436,"radik":11437,"##gåver":11438,"Sentral":11439,"rektor":11440,"foretak":11441,"truet":11442,"##brig":11443,"Heller":11444,"Lære":11445,"begrep":11446,"oppgaver":11447,"##likop":11448,"make":11449,"besluttet":11450,"Arbeidet":11451,"##ssing":11452,"##berget":11453,"aspe":11454,"1935":11455,"Velkommen":11456,"skolene":11457,"stif":11458,"Eide":11459,"sem":11460,"kysset":11461,"study":11462,"Stats":11463,"punkter":11464,"Ald":11465,"tilsynelatende":11466,"102":11467,"##betaling":11468,"satse":11469,"##result":11470,"##liten":11471,"Pla":11472,"føttene":11473,"##virksomheten":11474,"bibliotek":11475,"##usten":11476,"skuespiller":11477,"forhandlinger":11478,"leger":11479,"##smiljø":11480,"Lev":11481,"##sser":11482,"befant":11483,"##rening":11484,"##ylde":11485,"flink":11486,"brede":11487,"OM":11488,"stanse":11489,"!\"\"":11490,"forsvinner":11491,"~~~":11492,"derved":11493,"##scar":11494,"##ops":11495,"rd":11496,"##splass":11497,"##cip":11498,"1914":11499,"tår":11500,"##illing":11501,"usikkerhet":11502,"##fond":11503,"Stortingets":11504,"kines":11505,"Deri":11506,"Cent":11507,"Nasjonal":11508,"hvorav":11509,"overens":11510,"Journal":11511,"ryn":11512,"##kal":11513,"lomme":11514,"Bud":11515,"gruppene":11516,"funda":11517,"revisjon":11518,"psykiske":11519,"##utviklingen":11520,"Funn":11521,"engasjert":11522,"narkot":11523,"##regn":11524,"løsningen":11525,"ordinære":11526,"ungene":11527,"beveget":11528,"Cat":11529,"fos":11530,"Bygg":11531,"##bilde":11532,"lente":11533,"simp":11534,"forholde":11535,"greier":11536,"OPP":11537,"##tales":11538,"kommentar":11539,"involvert":11540,"pal":11541,"rettferd":11542,"##alth":11543,"1943":11544,"utgjorde":11545,"##agement":11546,"##iff":11547,"virkelighet":11548,"enighet":11549,"individuelle":11550,"##stens":11551,"Dat":11552,"social":11553,"know":11554,"representert":11555,"meldt":11556,"såpass":11557,"Faren":11558,"##kningene":11559,"##aene":11560,"bygging":11561,"Kristiansen":11562,"organer":11563,"Forf":11564,"##reres":11565,"##ét":11566,"Mob":11567,"brem":11568,"##slø":11569,"##sområdet":11570,"lim":11571,"eksisterer":11572,"skjult":11573,"menneskelige":11574,"Fakt":11575,"ere":11576,"Sur":11577,"##raksis":11578,"##retningen":11579,"dømme":11580,"Lat":11581,"##veggen":11582,"eta":11583,"politikerne":11584,"Gunder":11585,"##bildet":11586,"Helene":11587,"personell":11588,"Fem":11589,"118":11590,"konkurransen":11591,"##revyen":11592,"##nast":11593,"es":11594,"?\"\"\"\"":11595,"havnet":11596,"##ious":11597,"Adam":11598,"meldte":11599,"utvikler":11600,"pleie":11601,"styrker":11602,"Lær":11603,"##ILL":11604,"lyttet":11605,"funn":11606,"nøkkel":11607,"hjørnet":11608,"sammenlik":11609,"1917":11610,"##vinne":11611,"varmen":11612,"##cs":11613,"Vann":11614,"aust":11615,"uni":11616,"##liserte":11617,"utgave":11618,"fase":11619,"Jfr":11620,"definert":11621,"##ialet":11622,"veget":11623,"Kristine":11624,"##smiddel":11625,"studentene":11626,"##pren":11627,"kors":11628,"##iska":11629,"uende":11630,"betal":11631,"sjølve":11632,"##ærene":11633,"føde":11634,"utbytte":11635,"vedtok":11636,"##alisert":11637,"kontrollere":11638,"prinsipp":11639,"rekker":11640,"##ibil":11641,"rest":11642,"Viking":11643,"##lymp":11644,"##skjema":11645,"##uri":11646,"tjenesten":11647,"NAV":11648,"redaktør":11649,"##forsvar":11650,"##mak":11651,"ledende":11652,"##nset":11653,"##ummen":11654,"##oget":11655,"Svalbard":11656,"Programleder":11657,"You":11658,"115":11659,"##rapport":11660,"##stuen":11661,"##istent":11662,"col":11663,"driften":11664,"Asbjørn":11665,"Sarpsborg":11666,"##tn":11667,"TOR":11668,"utgiftene":11669,"Ske":11670,"##yns":11671,"##skiner":11672,"##ån":11673,"arbeidsmar":11674,"##oter":11675,"uden":11676,"kontant":11677,"Efter":11678,"##uli":11679,"kontinuer":11680,"buk":11681,"Steinar":11682,"eksamen":11683,"Australia":11684,"stk":11685,"samtaler":11686,"1600":11687,"såret":11688,"ulem":11689,"Hauge":11690,"##veksten":11691,"mjøl":11692,"bidratt":11693,"##psjon":11694,"komité":11695,"Bot":11696,"##ykker":11697,"activ":11698,"gik":11699,"ond":11700,"##båten":11701,"fjorden":11702,"rasende":11703,"##usjonene":11704,"##musikk":11705,"##uv":11706,"##ume":11707,"dip":11708,"(-":11709,"alderen":11710,"drømme":11711,"##komiteen":11712,"dukker":11713,"##givelser":11714,"##ventyr":11715,"sykehjem":11716,"deles":11717,"politikken":11718,"##kenes":11719,"1933":11720,"blanding":11721,"Kjel":11722,"unnskyld":11723,"trenings":11724,"finger":11725,"hydro":11726,"gripe":11727,").\"\"":11728,"rime":11729,"foregikk":11730,"##hjul":11731,"sammenhenger":11732,"tele":11733,"elementer":11734,"organisering":11735,"##andel":11736,"trafikken":11737,"MA":11738,"##reise":11739,"##ygen":11740,"##nelser":11741,"cel":11742,"tidspunktet":11743,"sjekke":11744,"##mate":11745,"##fat":11746,"flat":11747,"grønt":11748,"##yes":11749,"plant":11750,"standpunkt":11751,"##rong":11752,"leppene":11753,"overt":11754,"##maskin":11755,"nåde":11756,"##stue":11757,"atten":11758,"historier":11759,"tiår":11760,"hopp":11761,"Sir":11762,"spesif":11763,"##rapi":11764,"through":11765,"raskere":11766,"framleis":11767,"##dering":11768,"glas":11769,"##sdepartementet":11770,"Fylkesmannen":11771,"Kvi":11772,"aar":11773,"##ée":11774,"trom":11775,"dagar":11776,"protok":11777,"##undervisning":11778,"kundene":11779,"sykdommer":11780,"overskudd":11781,"forsikrings":11782,"1910":11783,"dramaserie":11784,"##sling":11785,"arrangert":11786,"forberedt":11787,"undervisnings":11788,"kalk":11789,"106":11790,"##anes":11791,"##gler":11792,"lit":11793,"pakke":11794,"Kapittel":11795,"samvitt":11796,"##isky":11797,"tøy":11798,"Nielsen":11799,"##lederen":11800,"##kester":11801,"eksped":11802,"skjule":11803,"seri":11804,"lør":11805,"deilig":11806,"lurer":11807,"Roma":11808,"##anny":11809,"sinn":11810,"Øde":11811,"eksper":11812,"Tys":11813,"bly":11814,"vern":11815,"Sun":11816,"162":11817,"1905":11818,"##odd":11819,"tenkes":11820,"forsvarlig":11821,"Moe":11822,"DAG":11823,"##rerende":11824,"verb":11825,"datama":11826,"Ett":11827,"hjemmel":11828,"koke":11829,"bær":11830,"Kontakt":11831,"##velt":11832,"sog":11833,"##righet":11834,"fotogra":11835,"fornuftig":11836,"damp":11837,"Lys":11838,"forbruker":11839,"betalte":11840,"##99":11841,"##sendt":11842,"uttalt":11843,"lederen":11844,"tykk":11845,"krimin":11846,"##fødte":11847,"##ktivitet":11848,"Miss":11849,"##slått":11850,"##stilles":11851,"##fare":11852,"Godt":11853,"bekrefter":11854,"##jetil":11855,"##amper":11856,"trygghet":11857,"Pettersen":11858,"testa":11859,"Black":11860,"good":11861,"Bibelen":11862,"forbruk":11863,"##feil":11864,"##råden":11865,"Jean":11866,"liden":11867,"Røy":11868,"Hollywood":11869,"##ullt":11870,"dum":11871,"myr":11872,"treffer":11873,"Mrs":11874,"från":11875,"Kristi":11876,"scene":11877,"Stord":11878,"nasjonalt":11879,"##veksling":11880,"Blo":11881,"##oto":11882,"resept":11883,"##inalen":11884,"eide":11885,"Sandefjord":11886,"labor":11887,"King":11888,"##menne":11889,"104":11890,"flyet":11891,"truleg":11892,"Spesielt":11893,"medisinsk":11894,"flyktninger":11895,"Bob":11896,"arve":11897,"Blå":11898,"##jan":11899,"dokumentasjon":11900,"nytta":11901,"fien":11902,"##haver":11903,"køy":11904,"tyskerne":11905,"##agerer":11906,"utarbeide":11907,"Myr":11908,"forventninger":11909,"##mør":11910,"##klin":11911,"lufta":11912,"angrepet":11913,"##mming":11914,"nærmet":11915,"tørket":11916,"bryter":11917,"cal":11918,"##istens":11919,"ordnet":11920,"dekar":11921,"##bibliote":11922,"HV":11923,"##avtalen":11924,"stikke":11925,"listen":11926,"Karin":11927,"##ativer":11928,"ønskelig":11929,"islam":11930,"omfatte":11931,"begjær":11932,"malt":11933,"opplysning":11934,"##bolig":11935,"linjer":11936,"##ettelse":11937,"tilsier":11938,"tynn":11939,"deltakerne":11940,"##bjørg":11941,"##asis":11942,"Joe":11943,"gol":11944,"true":11945,"øverst":11946,"##fet":11947,"overføring":11948,"##verse":11949,"kjæreste":11950,"##tekst":11951,"##gangsmå":11952,"##BE":11953,"##aktig":11954,"etablerte":11955,"##roll":11956,"angri":11957,"Chris":11958,"heldt":11959,"klat":11960,"##forvalt":11961,"##ttar":11962,"Adresse":11963,"anvendes":11964,"dags":11965,"Økonom":11966,"menneskerett":11967,"platt":11968,"dry":11969,"klærne":11970,"Die":11971,"cell":11972,"##anlegget":11973,"gut":11974,"ull":11975,"Helle":11976,"vender":11977,"App":11978,"##utgifter":11979,"##vandre":11980,"virksomheter":11981,"##lysninger":11982,"##nete":11983,"P4":11984,"Star":11985,"Syd":11986,"Luc":11987,"##øen":11988,"arkitekt":11989,"##få":11990,"Fast":11991,"Sco":11992,"##barhet":11993,"Imp":11994,"etn":11995,"##ialis":11996,"##øve":11997,"very":11998,"##orium":11999,"Pal":12000,"oppos":12001,"##resjon":12002,"Ting":12003,"engste":12004,"##stua":12005,"drives":12006,"arbeidsopp":12007,"##ilsynet":12008,"Avis":12009,"##irs":12010,"##gd":12011,"##sbet":12012,"##spers":12013,"bibel":12014,"Bjarne":12015,"##rinsippet":12016,"oppfylt":12017,"flytter":12018,"kaster":12019,"planene":12020,"pepper":12021,"?\"\"":12022,"##bun":12023,"evangeli":12024,"uheldig":12025,"rykket":12026,"##frem":12027,"konstit":12028,"##brød":12029,"##liga":12030,"klokke":12031,"Sex":12032,"##GG":12033,"angi":12034,"add":12035,"sanger":12036,"##iger":12037,"Styret":12038,"jød":12039,"##merat":12040,"mæ":12041,"Ur":12042,"Hanna":12043,"103":12044,"##ussen":12045,"development":12046,"##iness":12047,"##mord":12048,"uskyld":12049,"##brans":12050,"trekkes":12051,"define":12052,"uvanlig":12053,"##spolitikk":12054,"formiddag":12055,"termin":12056,"mnd":12057,"politid":12058,"Jud":12059,"Snart":12060,"-/":12061,"##strø":12062,"forandring":12063,"##lender":12064,"utlø":12065,"Ku":12066,"##liggen":12067,"begiven":12068,"Imidlertid":12069,"Eksterne":12070,"##OP":12071,"resol":12072,"##flo":12073,"##blom":12074,"Bakke":12075,"process":12076,"kjend":12077,"##60":12078,"Rapport":12079,"Gratulerer":12080,"lokalsam":12081,"aff":12082,"fysi":12083,"107":12084,"vanskeleg":12085,"##lut":12086,"interessante":12087,"vanskeligheter":12088,"##denen":12089,"108":12090,"##akne":12091,"krem":12092,"lokaler":12093,"forutsatt":12094,"base":12095,"##INN":12096,"forhandling":12097,"stav":12098,"bely":12099,"vri":12100,"##radi":12101,"##posisjonen":12102,"entrepren":12103,"overbevist":12104,"##mesteren":12105,"##uther":12106,"varslet":12107,"Halvorsen":12108,"Sigrid":12109,"inngang":12110,"regul":12111,"systemer":12112,"1919":12113,"##mosf":12114,"Grand":12115,"##sliv":12116,"ran":12117,"##skrevet":12118,"skygge":12119,"1927":12120,"dømes":12121,"Medlem":12122,"sådan":12123,"strålende":12124,"##itions":12125,"svømme":12126,"gjestene":12127,"utmerket":12128,"Jos":12129,"##inntekter":12130,"FRA":12131,"Røde":12132,"Tør":12133,"##mse":12134,"tilt":12135,"Voss":12136,"beredskap":12137,"##vester":12138,"landskap":12139,"Organis":12140,"registrering":12141,"Rud":12142,"Friends":12143,"ærlig":12144,"Profe":12145,"##geland":12146,"Nedre":12147,"Vidar":12148,"##gon":12149,"Frode":12150,"detaljer":12151,"poss":12152,"enorme":12153,"##useet":12154,"##klasse":12155,"Høyesterett":12156,"ET":12157,"1890":12158,"##rekke":12159,"##nnelse":12160,"rig":12161,"Rese":12162,"endelige":12163,"sec":12164,"##alem":12165,"Bergens":12166,"##UND":12167,"Hennes":12168,"Fjordane":12169,"##row":12170,"scanpix":12171,"Bonde":12172,"NOU":12173,"350":12174,"reddet":12175,"##kede":12176,"prinsipper":12177,"motsatte":12178,"permane":12179,"finansiering":12180,"endel":12181,"dalen":12182,"Ida":12183,"rakk":12184,"ledig":12185,"bevare":12186,"made":12187,"##ansert":12188,"rollen":12189,"museum":12190,"##senten":12191,"##lager":12192,"Gjøvik":12193,"utslag":12194,"hete":12195,"vesen":12196,"Selskapet":12197,"enstemm":12198,"forsin":12199,"personal":12200,"gres":12201,"tildelt":12202,"##pset":12203,"##ami":12204,"verket":12205,"kunnskaper":12206,"##skilde":12207,"##utvalg":12208,"Kart":12209,"Engel":12210,"##ere":12211,"statistikk":12212,"døds":12213,"##ministeren":12214,"old":12215,"Vo":12216,"Charles":12217,"stole":12218,"##tur":12219,"bortover":12220,"Siri":12221,"dec":12222,"##post":12223,"innslag":12224,"##jorde":12225,"jap":12226,"ødelegge":12227,"deltakere":12228,"##vt":12229,"isen":12230,"legit":12231,"##otek":12232,"ok":12233,"##veier":12234,"Trygve":12235,"##medal":12236,"##ntlig":12237,"number":12238,"modeller":12239,"imellom":12240,"agen":12241,"Husk":12242,"Olje":12243,"medis":12244,"Angeles":12245,"ort":12246,"##iserie":12247,"##iety":12248,"nivået":12249,"kunng":12250,"pred":12251,"vassdrag":12252,"strenge":12253,"flå":12254,"Solveig":12255,"fylkeskommune":12256,"Hitler":12257,"##alde":12258,"drømmer":12259,"trengs":12260,"##én":12261,"opph":12262,"femti":12263,"che":12264,"Mod":12265,"##isken":12266,"kledd":12267,"trene":12268,"ts":12269,"kvaliteten":12270,"##IE":12271,"kjende":12272,"##iset":12273,"BL":12274,"Funniest":12275,"1925":12276,"menings":12277,"trenge":12278,"psykiat":12279,"tekster":12280,"Asia":12281,"utred":12282,"bevege":12283,"Hens":12284,"Ludvig":12285,"produsert":12286,"Telefon":12287,"##sministeren":12288,"late":12289,"økonomien":12290,"##nnar":12291,"vestlige":12292,"lyste":12293,"Institutt":12294,"1929":12295,"##festet":12296,"kraftige":12297,"Gjen":12298,"##latt":12299,"##idde":12300,"frokost":12301,"styrings":12302,"salen":12303,"slaget":12304,"infe":12305,"Familien":12306,"##yp":12307,"##otiske":12308,"overgrep":12309,"signa":12310,"bestefar":12311,"Kre":12312,"child":12313,"hendt":12314,"tørre":12315,"lærerne":12316,"forne":12317,"nordover":12318,"reform":12319,"NATO":12320,"snøe":12321,"rakte":12322,"Sag":12323,"##odde":12324,"arrangement":12325,"Start":12326,"pist":12327,"Has":12328,"lunsj":12329,"Dig":12330,"Park":12331,"Senterpartiet":12332,"omtale":12333,"skif":12334,"##istikken":12335,"1934":12336,"##The":12337,"blandet":12338,"spissen":12339,"løfter":12340,"hoppe":12341,"troen":12342,"##blo":12343,"snøen":12344,"mottar":12345,"##rykt":12346,"##ttere":12347,"sjefen":12348,"##vatn":12349,"Ama":12350,"underteg":12351,"Wash":12352,"##ringa":12353,"utgangen":12354,"Ret":12355,"Justis":12356,"nevner":12357,"faget":12358,"synge":12359,"Totalt":12360,"inneholde":12361,"Bull":12362,"##itetene":12363,"foreslås":12364,"##ding":12365,"Helen":12366,"##overn":12367,"Privat":12368,"Nina":12369,"##ledninger":12370,"knytte":12371,"distriktet":12372,"##gate":12373,"Saken":12374,"utfører":12375,"1928":12376,"endres":12377,"rådet":12378,"garan":12379,"1932":12380,"bodd":12381,"##innas":12382,"##plikt":12383,"##yre":12384,"sivile":12385,"jubile":12386,"dyb":12387,"our":12388,"temaet":12389,"reagerer":12390,"could":12391,"Karlsen":12392,"##uert":12393,"klie":12394,"Pen":12395,"SE":12396,"##OB":12397,"stolte":12398,"rehabil":12399,"blog":12400,"elektriske":12401,"forma":12402,"sått":12403,"##industri":12404,"mv":12405,"KON":12406,"Kjetil":12407,"##spor":12408,"##spunktet":12409,"Marianne":12410,"##asa":12411,"##veres":12412,"beslutninger":12413,"State":12414,"##politiske":12415,"jevnt":12416,"karriere":12417,"bevissthet":12418,"Dre":12419,"##seren":12420,"##ione":12421,"Refe":12422,"##sigelse":12423,"triv":12424,"##vokaten":12425,"natta":12426,"##befa":12427,"Sofie":12428,"nedbør":12429,"##wer":12430,"##stendige":12431,"Handel":12432,"univer":12433,"greide":12434,"melke":12435,"##ffelse":12436,"##srevyen":12437,"##DR":12438,"##regning":12439,"informasjonen":12440,"anim":12441,"plassering":12442,"must":12443,"born":12444,"apen":12445,"Øver":12446,"Bab":12447,"##lære":12448,"##klubben":12449,"tju":12450,"glatt":12451,"##fjellet":12452,"betong":12453,"opplær":12454,"Marius":12455,"namn":12456,"åtferd":12457,"opplyst":12458,"yd":12459,"##iken":12460,"nit":12461,"lærar":12462,"sittet":12463,"tittelen":12464,"nyte":12465,"spra":12466,"information":12467,"pårørende":12468,"Dar":12469,"##rente":12470,"jer":12471,"etablering":12472,"Prosjekt":12473,"contr":12474,"skå":12475,"spent":12476,"Indre":12477,"Genere":12478,"##ganger":12479,"1924":12480,"Idrett":12481,"##okument":12482,"flaske":12483,"inf":12484,"sjuk":12485,"bønder":12486,"##mæ":12487,"##aktige":12488,"skulen":12489,"etable":12490,"during":12491,"##lek":12492,"turn":12493,"##UNN":12494,"##alysis":12495,"tax":12496,"difor":12497,"sliter":12498,"##marka":12499,"roman":12500,"harmon":12501,"##nett":12502,"menneskelig":12503,"investering":12504,"##skets":12505,"eleven":12506,"ryt":12507,"##danningen":12508,"kjærligheten":12509,"faktiske":12510,"##bøl":12511,"svik":12512,"Hje":12513,"selges":12514,"years":12515,"forfatteren":12516,"##lyd":12517,"Hedmark":12518,"##strakt":12519,"svø":12520,"117":12521,"anse":12522,"##shistor":12523,"avgjort":12524,"113":12525,"##ards":12526,"Landbruks":12527,"sinns":12528,"forbudt":12529,"klager":12530,"oppfat":12531,"risikoen":12532,"sunn":12533,"Salt":12534,"industrien":12535,"Kveld":12536,"Skjer":12537,"gjenta":12538,"fasc":12539,"skolens":12540,"Manchester":12541,"mogleg":12542,"##riene":12543,"##otisk":12544,"oli":12545,"billed":12546,"kommentarer":12547,"##cht":12548,"1923":12549,"kommersi":12550,"kombinert":12551,"Leon":12552,"innføre":12553,"Sivert":12554,"##osen":12555,"deira":12556,"Albert":12557,"1921":12558,"Flor":12559,"##lev":12560,"partner":12561,"##foret":12562,"konstant":12563,"banket":12564,"Næ":12565,"##sgrunn":12566,"##ikon":12567,"veggene":12568,"Gol":12569,"##bror":12570,"teik":12571,"##svik":12572,"Ville":12573,"Oscar":12574,"##demok":12575,"infra":12576,"punktet":12577,"##geir":12578,"netto":12579,"##sell":12580,"##skjel":12581,"##stoffer":12582,"aften":12583,"pasientene":12584,"##befaler":12585,"##ily":12586,"##UG":12587,"revolusjon":12588,"prinsipi":12589,"forlatt":12590,"gjennomgang":12591,"Jor":12592,"Jerus":12593,"gress":12594,"pum":12595,"##risen":12596,"Forsvaret":12597,"prosesser":12598,"skit":12599,"stuen":12600,"innkjøp":12601,"ros":12602,"##unene":12603,"##agraf":12604,"##teringer":12605,"##uminium":12606,"##arly":12607,"Eivind":12608,"##styrer":12609,"##linga":12610,"omgivelse":12611,"relasjon":12612,"varte":12613,"##ograph":12614,"regelen":12615,"~~~~~":12616,"##ART":12617,"##okol":12618,"##umen":12619,"overføres":12620,"forøvrig":12621,"team":12622,"##skillig":12623,"##afor":12624,"avslør":12625,"nedre":12626,"##ption":12627,"##less":12628,"##alls":12629,"restaurant":12630,"døgnet":12631,"eleg":12632,"syne":12633,"virkemidler":12634,"gruppa":12635,"##forslag":12636,"##møre":12637,"laks":12638,"##ligen":12639,"Wilhelm":12640,"##røt":12641,"effekten":12642,"Luk":12643,"##agne":12644,"metoden":12645,"cur":12646,"##ksh":12647,"##nummer":12648,"Stato":12649,"##produkter":12650,"##øyene":12651,"framtida":12652,"Valg":12653,"evner":12654,"Larvik":12655,"parla":12656,"##holmen":12657,"pø":12658,"##rømte":12659,"ordne":12660,"påk":12661,"trer":12662,"Film":12663,"##lette":12664,"rive":12665,"innhe":12666,"##raham":12667,"fremste":12668,"medhold":12669,"109":12670,"##DAL":12671,"##setnings":12672,"Kristiansund":12673,"##sida":12674,"##leggene":12675,"Harstad":12676,"konfir":12677,"Tw":12678,"water":12679,"ulovlig":12680,"gyl":12681,"dyktig":12682,"##FOR":12683,"##gro":12684,"Bort":12685,"##peren":12686,"1912":12687,"163":12688,"forskere":12689,"relevante":12690,"domsto":12691,"##zy":12692,"vitner":12693,"tilbe":12694,"each":12695,"##kerud":12696,"##skostnader":12697,"##ids":12698,"innføring":12699,"Emma":12700,"##stell":12701,"##settingen":12702,"regional":12703,"dep":12704,"##rust":12705,"strekker":12706,"utforming":12707,"nakken":12708,"101":12709,"meth":12710,"##fondet":12711,"ettermiddagen":12712,"##krigen":12713,"drepte":12714,"##opplæring":12715,"Mamma":12716,"Syl":12717,"tilsvarer":12718,"##alinger":12719,"sym":12720,"##produksjonen":12721,"understreke":12722,"progra":12723,"tvin":12724,"##oda":12725,"træ":12726,"Blad":12727,"##hengighet":12728,"behandler":12729,"Derimot":12730,"Vårt":12731,"##very":12732,"bøndene":12733,"satser":12734,"likestilling":12735,"##OV":12736,"korrekt":12737,"bero":12738,"undervisningen":12739,"##gruppa":12740,"##innasnekker":12741,"svel":12742,"##come":12743,"pian":12744,"##rel":12745,"##illett":12746,"stemte":12747,"Mis":12748,"##alie":12749,"Julie":12750,"fornær":12751,"##Gene":12752,"##stinget":12753,"Barna":12754,"Sist":12755,"fremhe":12756,"Lib":12757,"utelukkende":12758,"##fli":12759,"skarp":12760,"Rev":12761,"Cecil":12762,"1915":12763,"bekje":12764,"##IDE":12765,"##bilen":12766,"##oma":12767,"nesen":12768,"kvartal":12769,"sinne":12770,"romantisk":12771,"##omi":12772,"research":12773,"avdelingen":12774,"gjev":12775,"sannhet":12776,"desig":12777,"fiskeri":12778,"##interes":12779,"maskiner":12780,"Utdan":12781,"Rose":12782,"##cing":12783,"Mjø":12784,"medarbeidere":12785,"flate":12786,"1911":12787,"Akt":12788,"note":12789,"fon":12790,"intervjuet":12791,"oppdra":12792,"Herman":12793,"Nederland":12794,"Middel":12795,"høyst":12796,"Kongsberg":12797,"Kjære":12798,"##utan":12799,"kjøpes":12800,"Elver":12801,"argumen":12802,"Administ":12803,"avvi":12804,"utlå":12805,"Halden":12806,"tilpasse":12807,"bredde":12808,"reaksjoner":12809,"long":12810,"##ulerte":12811,"frøken":12812,"Klem":12813,"tenner":12814,"batter":12815,"Vestlandet":12816,"##saken":12817,"Forslag":12818,"havn":12819,"Ins":12820,"inntekts":12821,"sauer":12822,"mistanke":12823,"konse":12824,"##ubli":12825,"hjerne":12826,"meninger":12827,"##arte":12828,"Air":12829,"bekrefte":12830,"Reidar":12831,"##asj":12832,"Reise":12833,"##etet":12834,"frede":12835,"##OLD":12836,"fortid":12837,"vokst":12838,"##SM":12839,"stopper":12840,"snitt":12841,"kule":12842,"territ":12843,"spi":12844,"utredning":12845,"##sidig":12846,"veder":12847,"Birke":12848,"stiger":12849,"##målet":12850,"##hes":12851,"System":12852,"revi":12853,"##vnen":12854,"advar":12855,"Rein":12856,"Tone":12857,"oppvar":12858,"skred":12859,"##prin":12860,".>>":12861,"##ional":12862,"Lofoten":12863,"inse":12864,"##vandrere":12865,"garanti":12866,"auka":12867,"Lav":12868,"Sid":12869,"teke":12870,"trives":12871,"##AC":12872,"DE":12873,"morsomt":12874,"kvarandre":12875,"Wi":12876,"##visningen":12877,"betraktning":12878,"##Generes":12879,"##vendte":12880,"flertallet":12881,"Paulus":12882,"ÅR":12883,"vek":12884,"1926":12885,"anbefaler":12886,"##oppgjør":12887,"##ikter":12888,"yte":12889,"cons":12890,"hørtes":12891,"register":12892,"##meldinger":12893,"kasse":12894,"Hug":12895,"nyere":12896,"passende":12897,"##vask":12898,"lure":12899,"svingte":12900,"1922":12901,"rekord":12902,"##rde":12903,"artikler":12904,"Drift":12905,"referanse":12906,"bake":12907,"##merker":12908,"Statistisk":12909,"Hjer":12910,"arbeidstid":12911,"glasset":12912,"elektro":12913,"Moren":12914,"melod":12915,"distrib":12916,"rob":12917,"##lærer":12918,"##føren":12919,"snarere":12920,"back":12921,"måneden":12922,"utvil":12923,"Send":12924,"##ardi":12925,"kval":12926,"arbeidstakere":12927,"##jakt":12928,"bryllup":12929,"##YR":12930,"spredt":12931,"##bred":12932,"relasjoner":12933,"opptrer":12934,"offisielle":12935,"antatt":12936,"##park":12937,"boks":12938,"fae":12939,"##sjøen":12940,"Rome":12941,"##ssø":12942,"##prosjekt":12943,"##brigt":12944,"Stee":12945,"kritiske":12946,"forvand":12947,"Lærer":12948,"##lister":12949,"Mann":12950,"Kontr":12951,"latin":12952,"helga":12953,"##varing":12954,"Washington":12955,"besøkte":12956,"##folket":12957,"gjennomsnittlig":12958,"sola":12959,"##ITT":12960,"Gjel":12961,"1931":12962,"Brå":12963,"bestemor":12964,"PL":12965,"1880":12966,"heil":12967,"Bos":12968,"##skomiteen":12969,"Nyhet":12970,"##førings":12971,"##rdal":12972,"anti":12973,"akutt":12974,"##skilte":12975,"eksplos":12976,"diale":12977,"Vid":12978,"##rygden":12979,"posten":12980,"sus":12981,"DeGeneres":12982,"##bens":12983,"##sforen":12984,"verda":12985,"##vilje":12986,"partiene":12987,"Len":12988,"##odene":12989,"fryktelig":12990,"forandre":12991,"##vedtak":12992,"##ksa":12993,"America":12994,"heldigvis":12995,"##talene":12996,"##munt":12997,"##iskap":12998,"Åp":12999,"##vares":13000,"variere":13001,"kontrol":13002,"##any":13003,"Des":13004,"point":13005,"trærne":13006,"selge":13007,"1865":13008,"produsere":13009,"##nemnda":13010,"gjest":13011,"håpe":13012,"Kost":13013,"komiserie":13014,"##søkelser":13015,"Narvik":13016,"budsjettet":13017,"disposisjon":13018,"namnet":13019,"hul":13020,"##stu":13021,"wor":13022,"Skje":13023,"Mik":13024,"##ivene":13025,"Gal":13026,"##varig":13027,"Polen":13028,"rov":13029,"tøffe":13030,"fm":13031,"Hanne":13032,"##user":13033,"antakelig":13034,"binde":13035,"##vindu":13036,"don":13037,"kostet":13038,"cond":13039,"116":13040,"effektive":13041,"Abraham":13042,"landskapet":13043,"las":13044,"##strekk":13045,"##avdeling":13046,"atmosf":13047,"Sak":13048,"kren":13049,"##rm":13050,"Fug":13051,"bestandig":13052,"Jenny":13053,"found":13054,"Will":13055,"##forholdene":13056,"skjema":13057,"føles":13058,"fact":13059,"##attere":13060,"bærekraft":13061,"##slov":13062,"Bygge":13063,"røre":13064,"##spillere":13065,"invitert":13066,"vegvesen":13067,"did":13068,"##uge":13069,"ferdigheter":13070,"sekretær":13071,"##ygger":13072,"Fød":13073,"##ksusfellen":13074,"urolig":13075,"sans":13076,"114":13077,"##spartiet":13078,"petrole":13079,"litter":13080,"fæ":13081,"##jande":13082,"sosiali":13083,"##indre":13084,"lyde":13085,"cap":13086,"##ruset":13087,"Gode":13088,"##svalg":13089,"opplysningene":13090,"båter":13091,"Juni":13092,"beveger":13093,"Vinter":13094,"Hare":13095,"Egypt":13096,"forberede":13097,"Frede":13098,"##kirke":13099,"##anken":13100,"fastsettes":13101,"omfattet":13102,"##cture":13103,"Best":13104,"versjon":13105,"sovjet":13106,"kjøle":13107,"##Te":13108,"##ising":13109,"##**":13110,"important":13111,"##skatt":13112,"ast":13113,"stammer":13114,"##ahl":13115,"tilhørende":13116,"##frie":13117,"based":13118,"KV":13119,"##ksene":13120,"savnet":13121,"oppnådd":13122,"skuffet":13123,"Cont":13124,"leverer":13125,"Internett":13126,"forbund":13127,"Transport":13128,"##sbeg":13129,"SN":13130,"##bej":13131,"lev":13132,"Loven":13133,"stue":13134,"Aks":13135,"konflikter":13136,"skalv":13137,"studerte":13138,"people":13139,"hevde":13140,"##fallende":13141,"##okolade":13142,"dæ":13143,"baks":13144,"##ikar":13145,"##lass":13146,"Job":13147,"stater":13148,"våt":13149,"forlag":13150,"135":13151,"1916":13152,"Inne":13153,"ydmy":13154,"##smater":13155,"##iring":13156,"angitt":13157,"gjentok":13158,"isk":13159,"italie":13160,"##ér":13161,"medal":13162,"esti":13163,"dypere":13164,"##jus":13165,"sofaen":13166,"##boli":13167,"bussen":13168,"Stig":13169,"cirka":13170,"OSL":13171,"##rapeut":13172,"Ala":13173,"##KKE":13174,"1875":13175,"hvorledes":13176,"tempo":13177,"##JER":13178,"##irene":13179,"tiltre":13180,"badet":13181,"ledige":13182,"kvitt":13183,"##malt":13184,"##skor":13185,"Ac":13186,"inspe":13187,"utstyrt":13188,"Kvinner":13189,"bul":13190,"##analyse":13191,"sei":13192,"##listen":13193,"Kin":13194,"Ek":13195,"nov":13196,"##SER":13197,"uttalelser":13198,"Bras":13199,"oppgåvene":13200,"##kommet":13201,"##gelsene":13202,"##kelsen":13203,"Mur":13204,"spist":13205,"##finn":13206,"fakta":13207,"##ared":13208,"manglet":13209,"diplom":13210,"##chel":13211,"oppvekst":13212,"##husene":13213,"##hs":13214,"##tids":13215,"statlig":13216,"Kore":13217,"Tyrk":13218,"song":13219,"Time":13220,"piken":13221,"123":13222,"Cast":13223,"##rater":13224,"##rettes":13225,"naken":13226,"Selvfølgelig":13227,"filmer":13228,"##lyset":13229,"##kasse":13230,"dug":13231,"Jerusalem":13232,"opptak":13233,"Forlag":13234,"livets":13235,"##nnes":13236,"styres":13237,"plukket":13238,"glimt":13239,"dramatisk":13240,"##ressur":13241,"spillerne":13242,"##våpen":13243,"##sprodu":13244,"##pel":13245,"1913":13246,"##70":13247,"analyser":13248,"##delene":13249,"forval":13250,"Hvad":13251,"##cter":13252,"If":13253,"estet":13254,"kontinuerlig":13255,"Full":13256,"meningen":13257,"##sikre":13258,"uttaler":13259,"##right":13260,"arbeidstaker":13261,"frek":13262,"ideen":13263,"##givningen":13264,"##tidens":13265,"André":13266,"##ådet":13267,"vitenskap":13268,"semin":13269,"##meldt":13270,"infor":13271,"##familien":13272,"##eterin":13273,"AF":13274,"Eidsv":13275,"HA":13276,"generalforsam":13277,"kår":13278,"install":13279,"krevde":13280,"grave":13281,"opplegg":13282,"arbeidere":13283,"Moen":13284,"skjebne":13285,"Fun":13286,"##tidige":13287,"gy":13288,"potet":13289,"begrunnelse":13290,"armer":13291,"streng":13292,"stiftet":13293,"Randi":13294,"##atorer":13295,"internett":13296,"public":13297,"påta":13298,"##problemer":13299,"send":13300,"bene":13301,"Coun":13302,"##ettes":13303,"##ktere":13304,"eiende":13305,"DU":13306,"Fylkes":13307,"klassisk":13308,"##anns":13309,"Får":13310,"##usive":13311,"Simp":13312,"forsvunnet":13313,"naz":13314,"large":13315,"Else":13316,"AT":13317,"hennar":13318,"mas":13319,"##24":13320,"bestå":13321,"flinke":13322,"maatte":13323,"##OC":13324,"hemmelighet":13325,"fenome":13326,"relative":13327,"##hre":13328,"måler":13329,"enstemmig":13330,"spren":13331,"##unket":13332,"språ":13333,"søsken":13334,"Bildet":13335,"populær":13336,"##ird":13337,"normale":13338,"Josef":13339,"Dale":13340,"anser":13341,"National":13342,"søknaden":13343,"skjøv":13344,"Jø":13345,"##tekt":13346,"fylkeskommunen":13347,"##rator":13348,"tårer":13349,"##vogn":13350,"skjulte":13351,"##skriftene":13352,"verke":13353,"##ication":13354,"veksten":13355,"##mers":13356,"Mang":13357,"søppel":13358,"##feranse":13359,"Kommunal":13360,"nabo":13361,"Folket":13362,"døydde":13363,"studiet":13364,"faen":13365,"##ningsserie":13366,"erstattet":13367,"##angel":13368,"##skur":13369,"##ek":13370,"grepet":13371,"CH":13372,"datab":13373,"nedsatt":13374,"##fon":13375,"følges":13376,"##paret":13377,"omgivelsene":13378,"bryr":13379,"rettss":13380,"##itering":13381,"abs":13382,"##meldingen":13383,"##areal":13384,"way":13385,"flytta":13386,"##ygt":13387,"##ku":13388,"motiver":13389,"##parken":13390,"foregående":13391,"conta":13392,"LE":13393,"oppdage":13394,"##roe":13395,"dominerende":13396,"##do":13397,"siktet":13398,"primær":13399,"innspill":13400,"Tit":13401,"Pass":13402,"ISB":13403,"kulturmin":13404,"Svenske":13405,"##kastet":13406,"blin":13407,"nærmer":13408,"##forlaget":13409,"##navn":13410,"Innst":13411,"beregning":13412,"avsk":13413,"Livet":13414,"utvilsomt":13415,"##stider":13416,"fjord":13417,"##itivt":13418,"Rana":13419,"##skop":13420,"##bere":13421,"tiltakene":13422,"Motor":13423,"##NES":13424,"fenomen":13425,"doktor":13426,"##ifik":13427,"hverdagen":13428,"avgjørelsen":13429,"fastsette":13430,"##staten":13431,"forbere":13432,"Ax":13433,"hem":13434,"##conomic":13435,"##skren":13436,"Oppland":13437,"ii":13438,"Atl":13439,"variasjon":13440,"##ropp":13441,"Bent":13442,"fje":13443,"hinder":13444,"jag":13445,"overflaten":13446,"knytter":13447,"forsøks":13448,"kontrollen":13449,"/-":13450,"##ndalen":13451,"samferdsel":13452,"tilhørte":13453,"Kunne":13454,"bronse":13455,"senket":13456,"russisk":13457,"interne":13458,"##handlinger":13459,">>)":13460,"Hydro":13461,"##olin":13462,"##fab":13463,"within":13464,"##pr":13465,"##iko":13466,"stige":13467,"Rapp":13468,"pedagogisk":13469,"/.":13470,"statsbudsjettet":13471,"##rande":13472,"##gree":13473,"blind":13474,"byttet":13475,"##rollen":13476,"insp":13477,"krone":13478,"Syria":13479,"vurderingen":13480,"Cup":13481,"Bestemmelsen":13482,"##lok":13483,"##prosjektet":13484,"konsekvensene":13485,"##stykket":13486,"##vilg":13487,"por":13488,"vellykket":13489,"Fager":13490,"meldingen":13491,"jorde":13492,"##ERE":13493,"oksygen":13494,"godkjenning":13495,"##stilbud":13496,"##klet":13497,"aktiviteten":13498,"Linda":13499,"flukt":13500,"##80":13501,"Elevene":13502,"Gil":13503,"tilnærming":13504,"lettet":13505,"hovedt":13506,"Styr":13507,"##pool":13508,"politiker":13509,"##atal":13510,"Alfred":13511,"smal":13512,"brune":13513,"ml":13514,"bol":13515,"##åd":13516,"Nordre":13517,"maler":13518,"##baserte":13519,"negativt":13520,"wa":13521,":\"\"":13522,"skaffet":13523,"##ony":13524,"skarpe":13525,"how":13526,"Pra":13527,"beca":13528,"Universitets":13529,"##raren":13530,"122":13531,"synger":13532,"Research":13533,"Halv":13534,"overhodet":13535,"##KE":13536,"ungdommer":13537,"sære":13538,"Eksempel":13539,"##råder":13540,"Lab":13541,"ff":13542,"Nesten":13543,"##mengden":13544,"størrelsen":13545,"Luksusfellen":13546,"later":13547,"##valet":13548,"AM":13549,"produktet":13550,"Oli":13551,"tvunget":13552,"Ill":13553,"bif":13554,"##ffene":13555,"Huset":13556,"##kå":13557,"berømte":13558,"oppdrett":13559,"##ands":13560,"##000":13561,"requ":13562,"00M":13563,"sykdommen":13564,"##ix":13565,"tariff":13566,"ukene":13567,"programmer":13568,"SM":13569,"ISBN":13570,"##nning":13571,"dobbel":13572,"Herrens":13573,"##utta":13574,"flom":13575,"Stemmen":13576,"bensin":13577,"Død":13578,"evnen":13579,"Torbjørn":13580,"husene":13581,"fantastiske":13582,"avisa":13583,"##ducation":13584,"##neprest":13585,"Kur":13586,"landslag":13587,"##PI":13588,"toal":13589,"temperaturen":13590,"kopp":13591,"##alens":13592,"figuren":13593,"##administ":13594,"Sørensen":13595,"##ledge":13596,"Førde":13597,"##gne":13598,"departementets":13599,"##bevegelsen":13600,"##ading":13601,"1907":13602,"avskje":13603,"gjenstander":13604,"##dals":13605,"voldsomt":13606,"Tomm":13607,"måltid":13608,"##kli":13609,"CD":13610,"eieren":13611,"gonger":13612,"elektronisk":13613,"##prøve":13614,"##kj":13615,"##dome":13616,"besto":13617,"timen":13618,"HEL":13619,"(=":13620,"gods":13621,"Aldri":13622,"celle":13623,"avkast":13624,"nyttår":13625,"##bla":13626,"hygge":13627,"Ringe":13628,"1870":13629,"Gir":13630,"gråte":13631,"sørger":13632,"##ches":13633,"stemning":13634,"krysset":13635,"mindret":13636,"##SV":13637,"dratt":13638,"##BL":13639,"Street":13640,"##denes":13641,"ulykken":13642,"##asjonens":13643,"date":13644,"tvert":13645,"##klassen":13646,"inngrep":13647,"##sløse":13648,"interesserte":13649,"##nivået":13650,"##Se":13651,"Ingenting":13652,"tennene":13653,"erob":13654,"##ftes":13655,"Bjørg":13656,"Net":13657,"forandringer":13658,"Åse":13659,"prisene":13660,"1860":13661,"##reglene":13662,"materiell":13663,"Gang":13664,"Bert":13665,"impul":13666,"Data":13667,"##OST":13668,"ane":13669,"vennene":13670,"##aledes":13671,"formelle":13672,"vorte":13673,"helikop":13674,"sikkerhets":13675,"Scott":13676,"being":13677,"øvelse":13678,"Love":13679,"arab":13680,"kake":13681,"heiter":13682,"despe":13683,"##aliteten":13684,"##forskningen":13685,"millionar":13686,"##urch":13687,"##ville":13688,"pp":13689,"##riket":13690,"presentere":13691,"Mette":13692,"Nort":13693,"menighet":13694,"bevegelser":13695,"##vey":13696,"##måte":13697,"flagg":13698,"speil":13699,"##helse":13700,"kino":13701,"##gjøres":13702,"##tti":13703,"behol":13704,"give":13705,"Gru":13706,"rasjon":13707,"##aden":13708,"metod":13709,"konsentrasjon":13710,"turer":13711,"digitale":13712,"undersøkt":13713,"##lian":13714,"##genes":13715,"Staten":13716,"sikrer":13717,"premie":13718,"##rensa":13719,"oppfattes":13720,"##OH":13721,"##atorisk":13722,"forpliktelser":13723,"Ikkje":13724,"##kenen":13725,"Mind":13726,"##holdning":13727,"skarpt":13728,"1906":13729,"repar":13730,"betales":13731,"##ury":13732,"temperat":13733,"etterhvert":13734,"##elser":13735,"##berst":13736,"sele":13737,"Maren":13738,"minnes":13739,"##krav":13740,"Elverum":13741,"jordbruket":13742,"administrasjonen":13743,"orientering":13744,"utkast":13745,"ørene":13746,"Våre":13747,"##ught":13748,"153":13749,"gale":13750,"forstod":13751,"bransje":13752,"##aard":13753,"folks":13754,"klassiske":13755,"##remø":13756,"##ventet":13757,"##kassen":13758,"Pensjon":13759,"##JØR":13760,"Ibsen":13761,"rapporter":13762,"øret":13763,"pig":13764,"Chic":13765,"høf":13766,"rutiner":13767,"personlighet":13768,"stykket":13769,"Tilbake":13770,"need":13771,"forund":13772,"makten":13773,"normer":13774,"##atta":13775,"life":13776,"Ingebrigt":13777,"Grav":13778,"##hørt":13779,"Cri":13780,"##bransjen":13781,"##22":13782,"##urk":13783,"primært":13784,"målene":13785,"puste":13786,"due":13787,"brukerne":13788,"##alist":13789,"##oth":13790,"##trans":13791,"##ronten":13792,"Røros":13793,"marine":13794,"bidro":13795,"kvant":13796,"##fugl":13797,"dødsf":13798,"registrerte":13799,"1908":13800,"soc":13801,"kos":13802,"##rage":13803,"134":13804,"ligner":13805,"leiar":13806,"fann":13807,"drøfte":13808,"elve":13809,"mg":13810,"roper":13811,"følt":13812,"ethvert":13813,"Resulta":13814,"farlige":13815,"bånd":13816,"samler":13817,"etterfor":13818,"garn":13819,"paragra":13820,"ambul":13821,"##ARD":13822,"##nsker":13823,"Marte":13824,"stikker":13825,"avtalt":13826,"commun":13827,"omgivelser":13828,"betingelser":13829,"tapet":13830,"##bes":13831,"##renser":13832,"virkninger":13833,"magnet":13834,"##nering":13835,"samvittighet":13836,"inspirasjon":13837,"yt":13838,"tilgjengelige":13839,"blive":13840,"varian":13841,"avdelinger":13842,"rum":13843,"anten":13844,"talen":13845,"teleg":13846,"omsider":13847,"Mex":13848,"##stokk":13849,"AD":13850,"Christensen":13851,"gm":13852,"1902":13853,"##ryd":13854,"elleve":13855,"søt":13856,"##aton":13857,"##ssaker":13858,"svet":13859,"##standene":13860,"silke":13861,"havner":13862,"Au":13863,"levd":13864,"mellomrom":13865,"wc":13866,"forsker":13867,"firmaet":13868,"##regud":13869,"samboe":13870,"utvidelse":13871,"##fylt":13872,"svo":13873,"regnskaps":13874,"124":13875,"aga":13876,"pensjons":13877,"selskapene":13878,"inviterer":13879,"attende":13880,"markert":13881,"biblioteket":13882,"sult":13883,"gjennomgå":13884,"treet":13885,"mottok":13886,"arbeidsplass":13887,"Service":13888,"Moskva":13889,"year":13890,"Born":13891,"1850":13892,"budsj":13893,"soverom":13894,"Grimstad":13895,"##formål":13896,"bygnings":13897,"ukjente":13898,"DEN":13899,"Hvert":13900,"medisinske":13901,"øyeblikkelig":13902,"dyrene":13903,"##ulf":13904,"##asinet":13905,"Håvard":13906,"ED":13907,"hilse":13908,"##stilsynet":13909,"##verer":13910,"moment":13911,"forp":13912,"klø":13913,"##zer":13914,"##bygning":13915,"pålegg":13916,"##rativ":13917,"##middag":13918,"Jørgensen":13919,"Jess":13920,"##alla":13921,"derfrå":13922,"European":13923,"frelse":13924,"##etre":13925,"##sfull":13926,"##hos":13927,"rydde":13928,"sagde":13929,"nabol":13930,"elite":13931,"fond":13932,"1909":13933,"Jane":13934,"oppmunt":13935,"för":13936,"Presidenten":13937,"Louis":13938,"##møtet":13939,"Verden":13940,"okk":13941,"Dor":13942,"avstanden":13943,"væske":13944,"banker":13945,"frykter":13946,"##chef":13947,"##ader":13948,"reelle":13949,"idi":13950,"##andida":13951,"many":13952,"rørte":13953,"Effe":13954,"investerings":13955,"Fla":13956,"fortjener":13957,"bebyg":13958,"Hardanger":13959,"intervj":13960,"husdyr":13961,"skifter":13962,"Christiania":13963,"Champions":13964,"Aa":13965,"bandet":13966,"bam":13967,"##kommun":13968,"##garden":13969,"summen":13970,"##kol":13971,"##ydning":13972,"ante":13973,"Robin":13974,"pga":13975,"oppmerksomheten":13976,"##budsjett":13977,"##dar":13978,"##sfar":13979,"then":13980,"kyrkja":13981,"NB":13982,"One":13983,"hell":13984,"##angs":13985,"istedenfor":13986,"Iversen":13987,"overflate":13988,"##ksem":13989,"instrument":13990,"##PR":13991,"Retten":13992,"budskap":13993,"127":13994,"oppleves":13995,"prosedy":13996,"Problemet":13997,"Volda":13998,"katol":13999,"omstendigheter":14000,"occ":14001,"Green":14002,"bransjen":14003,"sekret":14004,"##nninger":14005,"impro":14006,"brukar":14007,"##undersøkelse":14008,"akseptere":14009,"rullet":14010,"månedene":14011,"forestilling":14012,"##De":14013,"##uleres":14014,"##back":14015,"Sum":14016,"Sola":14017,"endå":14018,"Ox":14019,"##denhet":14020,"tenden":14021,"Statoil":14022,"politidistrikt":14023,"159":14024,"korrid":14025,"FL":14026,"##ATT":14027,"leker":14028,"ost":14029,"##teinen":14030,"porten":14031,"132":14032,"##fordeling":14033,"innve":14034,"order":14035,"protester":14036,"##lunde":14037,"Las":14038,"##bol":14039,"##hage":14040,"##feller":14041,"##miks":14042,"skjermen":14043,"gongen":14044,"ekteskapet":14045,"##FO":14046,"kontakten":14047,"##yret":14048,"garder":14049,"interessen":14050,"##bein":14051,"forsvinne":14052,"camping":14053,"##renget":14054,"registrer":14055,"##ikeren":14056,"landsbyen":14057,"Sinnasnekker":14058,"glemte":14059,"forstås":14060,"opt":14061,"##seng":14062,"Kongsv":14063,"terreng":14064,"fartøy":14065,"##stod":14066,"ansett":14067,"Kval":14068,"nakne":14069,"innstillingen":14070,"##ION":14071,"plag":14072,"Heldigvis":14073,"##grad":14074,"128":14075,"aw":14076,"##større":14077,"materialer":14078,"##alisme":14079,"usyn":14080,"133":14081,"forvirret":14082,"hovedstaden":14083,"møttes":14084,"##ordnet":14085,"tørke":14086,"Sovjetun":14087,"Klasse":14088,"butikker":14089,"tittel":14090,"##konstru":14091,"avisene":14092,"Prosjektet":14093,"synspunkter":14094,"nervøs":14095,"##iro":14096,"##lion":14097,"flytende":14098,"##ftig":14099,"Johnny":14100,"##laus":14101,"gum":14102,"skatter":14103,"##renes":14104,"mote":14105,"muskel":14106,"senior":14107,"##stande":14108,"##fund":14109,"##ikkene":14110,"overordnede":14111,"Mine":14112,"##delta":14113,"##bergs":14114,"matematikk":14115,"##regist":14116,"##klaring":14117,"kontrakten":14118,"dekkes":14119,"begrensninger":14120,"##lerne":14121,"egentlige":14122,"##annon":14123,"##rix":14124,"##com":14125,"##politi":14126,"##syre":14127,"cost":14128,"stakkars":14129,"stasjonen":14130,"kvit":14131,"Utt":14132,"three":14133,"diskrim":14134,"bruka":14135,"beslag":14136,"ettertid":14137,"cri":14138,"Henriksen":14139,"##bland":14140,"##rukket":14141,"BAR":14142,"levering":14143,"Desse":14144,"ekstraordin":14145,"126":14146,"kartet":14147,"What":14148,"450":14149,"Of":14150,"Liver":14151,"##slovens":14152,"underholdningsprogram":14153,"##ital":14154,"##behandlingen":14155,"Holmen":14156,"overdratt":14157,"##instru":14158,"vinduene":14159,"utseende":14160,"Tha":14161,"gatene":14162,"vekke":14163,"##usi":14164,"fortvil":14165,"##kons":14166,"endnu":14167,"sakk":14168,"arres":14169,"grønnsaker":14170,"ure":14171,"##fikke":14172,"avgifter":14173,"##stillingene":14174,"##LAND":14175,"Ide":14176,"misly":14177,"foruten":14178,"##bygningen":14179,"fremtidige":14180,"kvalitets":14181,"Riktig":14182,"Offe":14183,"kontine":14184,"##vakten":14185,"##åg":14186,"##rare":14187,"impone":14188,"innbyggerne":14189,"##sprosess":14190,"Salg":14191,"Øynene":14192,"##skriver":14193,"smile":14194,"ien":14195,"##osi":14196,"Arth":14197,"129":14198,"##organisasjonen":14199,"given":14200,"Heidi":14201,"Buskerud":14202,"##ots":14203,"##papir":14204,"oppfylle":14205,"##ords":14206,"Log":14207,"Steen":14208,"##mente":14209,"Resten":14210,"fam":14211,"forbli":14212,"Mater":14213,"##ternativ":14214,"akter":14215,"Henning":14216,"##alent":14217,"##finans":14218,"påvirkning":14219,"hensynet":14220,"control":14221,"##smuligheter":14222,"erstatnings":14223,"kjøretøy":14224,"##atikk":14225,"gjensidig":14226,"##forbin":14227,"##bing":14228,"##regnet":14229,"Gry":14230,"origin":14231,"sonen":14232,"menneskets":14233,"##problem":14234,"##RIST":14235,"##cup":14236,"##skontor":14237,"##rogen":14238,"rammen":14239,"søsteren":14240,"Inform":14241,"##amilla":14242,"dørene":14243,"##stes":14244,"Klokken":14245,"avgjørelser":14246,"Torstein":14247,"##onering":14248,"##selet":14249,"##agen":14250,"##unet":14251,"SAM":14252,"##sjø":14253,"Dam":14254,"Søknad":14255,"vennskap":14256,"overleve":14257,"begreper":14258,"Konge":14259,"##verden":14260,"konsulent":14261,"Kas":14262,"halvdel":14263,"leverte":14264,"place":14265,"--.":14266,"riket":14267,"##gy":14268,"Sveits":14269,"hjørne":14270,"relation":14271,"saad":14272,"##revne":14273,"##ansene":14274,"##hagelig":14275,"##vatnet":14276,"##bruken":14277,"155":14278,"environ":14279,"Fisk":14280,"konkurs":14281,"fradrag":14282,"1200":14283,"komplisert":14284,"##uens":14285,"##atoren":14286,"Hjemme":14287,"seia":14288,"teknikk":14289,"leiren":14290,"USAs":14291,"##gjeld":14292,"##inspe":14293,"##drivende":14294,"Knudsen":14295,"INN":14296,"##ability":14297,"Vester":14298,"beskrives":14299,"senga":14300,"Aleks":14301,"Mæ":14302,"strømmen":14303,"Yng":14304,"##setningene":14305,"##ilbud":14306,"##rane":14307,"hed":14308,"oftere":14309,"rak":14310,"sprøy":14311,"elevane":14312,"friste":14313,"##strukturen":14314,"colle":14315,"Hotell":14316,"##salen":14317,"##nerte":14318,"Fremskritt":14319,"formålet":14320,",-.":14321,"##skapelig":14322,"hjå":14323,"øyet":14324,"Ner":14325,"Stian":14326,"Ragnar":14327,"salget":14328,"##UST":14329,"leid":14330,"erstatte":14331,"Cali":14332,"pålagt":14333,"##forf":14334,"##illene":14335,"forhandlingene":14336,"Tol":14337,"Lam":14338,"##St":14339,"levet":14340,"descri":14341,"varig":14342,"Law":14343,"Stjør":14344,"seksuelle":14345,"Ster":14346,"Elin":14347,"FNs":14348,"##IEN":14349,"Barnet":14350,"trykke":14351,"156":14352,"kunstnere":14353,"##alleri":14354,"##ruen":14355,"pengar":14356,"BER":14357,"##hag":14358,"Elias":14359,"Arbeiderparti":14360,"Hellas":14361,"bob":14362,"##sey":14363,"betraktes":14364,"myke":14365,"innsatsen":14366,"særdeles":14367,"avdø":14368,"times":14369,"##iltak":14370,"knytt":14371,"##sil":14372,"##grunns":14373,"motoren":14374,"gjerning":14375,"Hon":14376,"sykepleier":14377,"smi":14378,"gaa":14379,"tente":14380,"Mont":14381,"uttrykker":14382,"##imet":14383,"mengden":14384,"variert":14385,"teoretisk":14386,"Analy":14387,"forhå":14388,"##fruer":14389,"andet":14390,"Eld":14391,"Årets":14392,"##ines":14393,"##kna":14394,"##sområder":14395,"##juk":14396,"##plant":14397,"vindue":14398,"##sdotter":14399,"00N":14400,"mage":14401,"Rådet":14402,"Gundersen":14403,"inneholdt":14404,"1904":14405,"Dyr":14406,"run":14407,"Bis":14408,"##ype":14409,"145":14410,"ulykker":14411,"fabrikk":14412,"Leder":14413,"sone":14414,"gata":14415,"gravid":14416,"##okus":14417,"barnehager":14418,"permanent":14419,"produserer":14420,"jun":14421,"ytterst":14422,"bekymring":14423,"overtatt":14424,"Elling":14425,"Sok":14426,"Gudbrand":14427,"1903":14428,"##ization":14429,"##lapp":14430,"rid":14431,"cer":14432,"krimserie":14433,"##ørsmålet":14434,"formidle":14435,"vilkårene":14436,"##amlingen":14437,"##fyr":14438,"##win":14439,"stranden":14440,"karak":14441,"Gylde":14442,"##lysning":14443,"Long":14444,"Deb":14445,"##løk":14446,"bede":14447,"##AF":14448,"sysselsetting":14449,"##sem":14450,"Wen":14451,"våken":14452,"fanger":14453,"vogn":14454,"Gabriel":14455,"Kyr":14456,"##virket":14457,"Andel":14458,"##rød":14459,"##cul":14460,"CSI":14461,"##sammen":14462,"##ologer":14463,"Energi":14464,"##spli":14465,"skjør":14466,"opplyste":14467,"vedta":14468,"skry":14469,"drikker":14470,"aluminium":14471,"brakt":14472,"##giske":14473,"SL":14474,"slut":14475,"dyktige":14476,"rekna":14477,"presidenten":14478,"144":14479,"Sing":14480,"gående":14481,"definisjon":14482,"##stemning":14483,"##gaten":14484,"Special":14485,"agent":14486,"Bart":14487,"dører":14488,"##ERS":14489,"vas":14490,"Chr":14491,"avhenger":14492,"Gerd":14493,"##23":14494,"Nordisk":14495,"emne":14496,"bestående":14497,"pressen":14498,"dukke":14499,"ekskl":14500,"intera":14501,"krets":14502,"forsør":14503,"##ado":14504,"##mh":14505,"indik":14506,"knust":14507,"##førar":14508,"utvikles":14509,"Yo":14510,"fungerte":14511,"brannen":14512,"smart":14513,"morsom":14514,"juridisk":14515,"Rosenborg":14516,"intellekt":14517,"Kyst":14518,"pale":14519,"mr":14520,"Cas":14521,"##klær":14522,"statsråd":14523,"renter":14524,"##bruddet":14525,"understreket":14526,"akadem":14527,"##ologen":14528,"tørt":14529,"forbedre":14530,"feire":14531,"##pelig":14532,"gitar":14533,"149":14534,"##bilder":14535,"##atoriske":14536,"skulder":14537,"Eier":14538,"markedsføring":14539,"diverse":14540,"alp":14541,"bringer":14542,"##bete":14543,"jordbruk":14544,"kulturen":14545,"SSB":14546,"arrang":14547,"patient":14548,"Arnt":14549,"##sskatt":14550,"##remål":14551,"##lenes":14552,",,":14553,"##ldrene":14554,"hunder":14555,"##seks":14556,"inngangen":14557,"kriterier":14558,"provi":14559,"Kjøp":14560,"##serings":14561,"##orent":14562,"##uner":14563,"##rerne":14564,"haug":14565,"frust":14566,"sjokk":14567,"##asiteten":14568,"Sna":14569,"hemmelige":14570,"Ordet":14571,"##issel":14572,"##umme":14573,"kode":14574,"lita":14575,"##petansen":14576,"behø":14577,"nordisk":14578,"nydelig":14579,"take":14580,"##ksjons":14581,"Donald":14582,"femten":14583,"universitetet":14584,"Sat":14585,"høgt":14586,"fullmakt":14587,"sistnevnte":14588,"Poli":14589,"##dam":14590,"fiende":14591,"hei":14592,"Foreldre":14593,"##uch":14594,"aldeles":14595,"beten":14596,"Vat":14597,"Nap":14598,"enorm":14599,"provis":14600,"##fos":14601,"Ah":14602,"middels":14603,"##FK":14604,"beregnes":14605,"##heden":14606,"##heit":14607,"##ffa":14608,"linjen":14609,"##quen":14610,"kanter":14611,"omfanget":14612,"innstilt":14613,"results":14614,"endringene":14615,"erklær":14616,"##institusjoner":14617,"Steinkjer":14618,"dreide":14619,"Stå":14620,"##poeng":14621,"krigs":14622,"##direktør":14623,"Munch":14624,"cle":14625,"profesjonelle":14626,"paragraf":14627,"Vedlegg":14628,"isol":14629,"herfrå":14630,"Topp":14631,"##ansvarlig":14632,"velges":14633,"Teater":14634,"Etterpå":14635,"krimine":14636,"tiltaket":14637,"##sking":14638,"varene":14639,"##cen":14640,"provin":14641,"##hall":14642,"Lee":14643,"Psyk":14644,"kunden":14645,"kas":14646,"innvandrere":14647,"quest":14648,"forurensning":14649,"nekte":14650,"Mona":14651,"##kamera":14652,"atferd":14653,"1814":14654,"##domen":14655,"Tommy":14656,"Svart":14657,"åpningen":14658,"oppg":14659,"utbygg":14660,"gulv":14661,"##anta":14662,"overgangen":14663,"##departementets":14664,"ungdommen":14665,"Svendsen":14666,"iron":14667,"uttrykke":14668,"##sformer":14669,"vinduer":14670,"samiske":14671,"##obby":14672,"##melige":14673,"ingeniør":14674,"styrket":14675,"sjokolade":14676,"rednings":14677,"##itée":14678,"regelmessig":14679,"styrt":14680,"handa":14681,"asf":14682,"##75":14683,"##asing":14684,"##ledere":14685,"Liverpool":14686,"hendelsen":14687,"Int":14688,"eiere":14689,"##konkur":14690,"Cha":14691,"##kser":14692,"Camp":14693,"oppfatter":14694,"##heder":14695,"cre":14696,"ton":14697,"##isterte":14698,"Rock":14699,"angir":14700,"##nstre":14701,"usikkert":14702,"motivasjon":14703,"stoler":14704,"##settelsen":14705,"passerte":14706,"Kommer":14707,"Hur":14708,"Sånn":14709,"skyndte":14710,"##ail":14711,"##itch":14712,"tillate":14713,"Kate":14714,"Life":14715,"kolleger":14716,"Kron":14717,"Stri":14718,"Hvilket":14719,"boligen":14720,"Tyrkia":14721,"fortake":14722,"mos":14723,"hunde":14724,"løses":14725,"soldat":14726,"åring":14727,"einaste":14728,"kloster":14729,"Løs":14730,"musikkmiks":14731,"Brasil":14732,"konto":14733,"High":14734,"tillatt":14735,"Jul":14736,"lakse":14737,"##fene":14738,"Ross":14739,"tet":14740,"etterspørsel":14741,"Cath":14742,"##apet":14743,"kriter":14744,"rettes":14745,"føltes":14746,"139":14747,"##spa":14748,"##folkningen":14749,"##angene":14750,"##kelige":14751,"drin":14752,"Kil":14753,"inkluderer":14754,"deltatt":14755,"diskusjonen":14756,"favoritt":14757,"sovnet":14758,"utvalgte":14759,"hall":14760,"%,":14761,"berørte":14762,"P1":14763,"##EFA":14764,"Finansdepartementet":14765,"Sec":14766,"Ran":14767,"##ktorat":14768,"samles":14769,"Mikkel":14770,"volum":14771,"forening":14772,"hers":14773,"##sat":14774,"troll":14775,"kunnskapen":14776,"##stemmelse":14777,"keiser":14778,"##handlet":14779,"heve":14780,"Krog":14781,"##lassi":14782,"skrekk":14783,"Rep":14784,"analysen":14785,"##ova":14786,"Grin":14787,"Ute":14788,"ektefelle":14789,"136":14790,"statsbor":14791,"liknende":14792,"Birg":14793,"##skontoret":14794,"kvarter":14795,"##bånd":14796,"henter":14797,"##medisin":14798,"forestillinger":14799,"formelt":14800,"##light":14801,"Enge":14802,"kampan":14803,"vitenskapelige":14804,"##JØ":14805,"skept":14806,"##kas":14807,"top":14808,"medlems":14809,"scoret":14810,"Johannessen":14811,"utstyret":14812,"##DEL":14813,"Gli":14814,"forelsket":14815,"##organisasjoner":14816,"Simen":14817,"forventer":14818,"Hom":14819,"allier":14820,"##ygget":14821,"hørings":14822,"##skinn":14823,"##vennlig":14824,"innebære":14825,"utbrøt":14826,"katt":14827,"finalen":14828,"vul":14829,"##ktorer":14830,"##irektoratet":14831,"lidelse":14832,"##kveld":14833,"kinnet":14834,"tåle":14835,"154":14836,"##vidde":14837,"##ough":14838,"menigheten":14839,"##bekk":14840,"##ires":14841,"Sje":14842,"Howe":14843,"##mperatur":14844,"Kongsvinger":14845,"især":14846,"Nora":14847,"##data":14848,"herlig":14849,"tillater":14850,"elektris":14851,"omfattes":14852,"Nikola":14853,"Delta":14854,"##fee":14855,"##teller":14856,"143":14857,"##ransport":14858,"sønner":14859,"##periode":14860,"tæn":14861,"Arthur":14862,"Tanken":14863,"innd":14864,"##strene":14865,"##bia":14866,"Radi":14867,"drå":14868,"herred":14869,"britisk":14870,"##jos":14871,"##day":14872,"passasjer":14873,"##vnte":14874,"##jup":14875,"##sspørsmål":14876,"Hipp":14877,"utro":14878,"FRED":14879,"##iseren":14880,"vinkel":14881,
[...]
