{"version":"1.0","truncation":null,"padding":null,"added_tokens":[{"id":0,"special":true,"content":"[PAD]","single_word":false,"lstrip":false,"rstrip":false,"normalized":false},{"id":1,"special":true,"content":"[UNK]","single_word":false,"lstrip":false,"rstrip":false,"normalized":false},{"id":2,"special":true,"content":"[CLS]","single_word":false,"lstrip":false,"rstrip":false,"normalized":false},{"id":3,"special":true,"content":"[SEP]","single_word":false,"lstrip":false,"rstrip":false,"normalized":false},{"id":4,"special":true,"content":"[MASK]","single_word":false,"lstrip":false,"rstrip":false,"normalized":false}],"normalizer":{"type":"BertNormalizer","clean_text":true,"handle_chinese_chars":true,"strip_accents":null,"lowercase":true},"pre_tokenizer":{"type":"BertPreTokenizer"},"post_processor":null,"decoder":{"type":"WordPiece","prefix":"##","cleanup":true},"model":{"type":"WordPiece","unk_token":"[UNK]","continuing_subword_prefix":"##","max_input_chars_per_word":100,"vocab":{"[PAD]":0,"[UNK]":1,"[CLS]":2,"[SEP]":3,"[MASK]":4,"!":5,"\"":6,"#":7,"$":8,"%":9,"&":10,"'":11,"(":12,")":13,"*":14,"+":15,",":16,"-":17,".":18,"/":19,"0":20,"1":21,"2":22,"3":23,"4":24,"5":25,"6":26,"7":27,"8":28,"9":29,":":30,";":31,"<":32,"=":33,">":34,"?":35,"@":36,"[":37,"\\":38,"]":39,"^":40,"_":41,"`":42,"a":43,"b":44,"c":45,"d":46,"e":47,"f":48,"g":49,"h":50,"i":51,"j":52,"k":53,"l":54,"m":55,"n":56,"o":57,"p":58,"q":59,"r":60,"s":61,"t":62,"u":63,"v":64,"w":65,"x":66,"y":67,"z":68,"{":69,"|":70,"}":71,"~":72,"¡":73,"¢":74,"£":75,"¤":76,"¥":77,"¦":78,"§":79,"¨":80,"©":81,"ª":82,"«":83,"¬":84,"®":85,"°":86,"±":87,"²":88,"³":89,"´":90,"µ":91,"¶":92,"·":93,"¸":94,"¹":95,"º":96,"»":97,"¼":98,"½":99,"¾":100,"¿":101,"×":102,"ß":103,"æ":104,"ð":105,"÷":106,"ø":107,"þ":108,"đ":109,"ħ":110,"ı":111,"ł":112,"ŋ":113,"œ":114,"ƒ":115,"ɑ":116,"ɔ":117,"ə":118,"ɛ":119,"ɪ":120,"ʃ":121,"ʰ":122,"ʹ":123,"ʻ":124,"ʼ":125,"ʾ":126,"ʿ":127,"ˆ":128,"ˇ":129,"ˈ":130,"ː":131,"˚":132,"˜":133,"α":134,"β":135,"γ":136,"δ":137,"ε":138,"ζ":139,"η":140,"θ":141,"ι":142,"κ":143,"λ":144,"μ":145,"ν":146,"ξ":147,"ο":148,"π":149,"ρ":150,"ς":151,"σ":152,"τ":153,"υ":154,"φ":155,"χ":156,"ψ":157,"ω":158,"а":159,"б":160,"в":161,"г":162,"д":163,"е":164,"ж":165,"з":166,"и":167,"к":168,"л":169,"м":170,"н":171,"о":172,"п":173,"р":174,"с":175,"т":176,"у":177,"ф":178,"х":179,"ц":180,"ч":181,"ш":182,"щ":183,"ъ":184,"ы":185,"ь":186,"э":187,"ю":188,"я":189,"є":190,"ѕ":191,"і":192,"ј":193,"ћ":194,"ґ":195,"ա":196,"ե":197,"ի":198,"յ":199,"ն":200,"ո":201,"ս":202,"ր":203,"א":204,"ב":205,"ג":206,"ד":207,"ה":208,"ו":209,"ז":210,"ח":211,"ט":212,"י":213,"כ":214,"ל":215,"ם":216,"מ":217,"ן":218,"נ":219,"ס":220,"ע":221,"פ":222,"צ":223,"ק":224,"ר":225,"ש":226,"ת":227,"،":228,"ء":229,"ا":230,"ب":231,"ة":232,"ت":233,"ث":234,"ج":235,"ح":236,"خ":237,"د":238,"ذ":239,"ر":240,"ز":241,"س":242,"ش":243,"ص":244,"ض":245,"ط":246,"ظ":247,"ع":248,"غ":249,"ـ":250,"ف":251,"ق":252,"ك":253,"ل":254,"م":255,"ن":256,"ه":257,"و":258,"ى":259,"ي":260,"ٱ":261,"پ":262,"چ":263,"ک":264,"گ":265,"ہ":266,"ی":267,"क":268,"ग":269,"च":270,"ज":271,"त":272,"द":273,"न":274,"प":275,"ब":276,"भ":277,"म":278,"य":279,"र":280,"ल":281,"व":282,"श":283,"स":284,"ह":285,"ा":286,"ि":287,"ी":288,"ो":289,"॥":290,"ক":291,"ত":292,"দ":293,"ন":294,"ব":295,"ম":296,"য":297,"র":298,"ল":299,"স":300,"া":301,"ি":302,"ে":303,"ਕ":304,"ਜ":305,"ਤ":306,"ਨ":307,"ਪ":308,"ਮ":309,"ਰ":310,"ਲ":311,"ਵ":312,"ਸ":313,"ਹ":314,"ਾ":315,"ਿ":316,"ੀ":317,"க":318,"ட":319,"த":320,"ம":321,"ர":322,"ா":323,"ி":324,"ு":325,"ం":326,"క":327,"త":328,"ద":329,"న":330,"ప":331,"ర":332,"ల":333,"ు":334,"ก":335,"ค":336,"ง":337,"จ":338,"ช":339,"ด":340,"ต":341,"ท":342,"น":343,"บ":344,"ป":345,"พ":346,"ม":347,"ย":348,"ร":349,"ล":350,"ว":351,"ส":352,"ห":353,"อ":354,"ะ":355,"า":356,"฿":357,"เ":358,"แ":359,"ไ":360,"་":361,"ག":362,"ང":363,"ད":364,"ན":365,"པ":366,"བ":367,"མ":368,"འ":369,"ར":370,"ལ":371,"ས":372,"ა":373,"ე":374,"ი":375,"ლ":376,"მ":377,"ნ":378,"ო":379,"რ":380,"ს":381,"ღ":382,"ᄀ":383,"ᄂ":384,"ᄃ":385,"ᄅ":386,"ᄆ":387,"ᄇ":388,"ᄉ":389,"ᄋ":390,"ᄌ":391,"ᄎ":392,"ᄏ":393,"ᄐ":394,"ᄑ":395,"ᄒ":396,"ᅡ":397,"ᅢ":398,"ᅥ":399,"ᅦ":400,"ᅧ":401,"ᅩ":402,"ᅪ":403,"ᅭ":404,"ᅮ":405,"ᅲ":406,"ᅳ":407,"ᅴ":408,"ᅵ":409,"ᆨ":410,"ᆫ":411,"ᆯ":412,"ᆷ":413,"ᆸ":414,"ᆻ":415,"ᆼ":416,"ា":417,"‐":418,"‑":419,"‒":420,"–":421,"—":422,"―":423,"‘":424,"’":425,"‚":426,"“":427,"”":428,"„":429,"†":430,"•":431,"…":432,"‰":433,"′":434,"″":435,"‹":436,"›":437,"⁄":438,"₂":439,"₨":440,"€":441,"℃":442,"℉":443,"™":444,"←":445,"↑":446,"→":447,"↓":448,"∂":449,"−":450,"∙":451,"√":452,"≈":453,"≤":454,"≥":455,"⋅":456,"─":457,"│":458,"├":459,"╕":460,"■":461,"□":462,"▫":463,"►":464,"▻":465,"◆":466,"○":467,"●":468,"☀":469,"★":470,"☆":471,"☺":472,"♀":473,"♂":474,"♠":475,"♡":476,"♣":477,"♥":478,"♦":479,"✅":480,"✓":481,"✔":482,"✚":483,"✨":484,"❄":485,"❤":486,"➢":487,"➧":488,"⠀":489,"、":490,"。":491,"「":492,"」":493,"【":494,"】":495,"あ":496,"い":497,"う":498,"え":499,"お":500,"か":501,"き":502,"く":503,"け":504,"こ":505,"さ":506,"し":507,"す":508,"せ":509,"そ":510,"た":511,"ち":512,"っ":513,"つ":514,"て":515,"と":516,"な":517,"に":518,"の":519,"は":520,"ひ":521,"へ":522,"ま":523,"み":524,"め":525,"も":526,"や":527,"よ":528,"ら":529,"り":530,"る":531,"れ":532,"わ":533,"を":534,"ん":535,"ア":536,"ィ":537,"イ":538,"ウ":539,"ェ":540,"エ":541,"オ":542,"カ":543,"キ":544,"ク":545,"ケ":546,"コ":547,"サ":548,"シ":549,"ス":550,"セ":551,"ソ":552,"タ":553,"チ":554,"ッ":555,"ツ":556,"テ":557,"ト":558,"ナ":559,"ニ":560,"ヌ":561,"ネ":562,"ハ":563,"ヒ":564,"フ":565,"ヘ":566,"ホ":567,"マ":568,"ミ":569,"ム":570,"メ":571,"モ":572,"ャ":573,"ュ":574,"ョ":575,"ラ":576,"リ":577,"ル":578,"レ":579,"ロ":580,"ワ":581,"ン":582,"・":583,"ー":584,"一":585,"七":586,"万":587,"三":588,"上":589,"下":590,"不":591,"世":592,"业":593,"东":594,"两":595,"个":596,"中":597,"为":598,"主":599,"么":600,"之":601,"乐":602,"九":603,"也":604,"乡":605,"买":606,"了":607,"事":608,"二":609,"于":610,"五":611,"交":612,"产":613,"京":614,"人":615,"今":616,"他":617,"仙":618,"代":619,"以":620,"们":621,"件":622,"任":623,"会":624,"传":625,"位":626,"体":627,"何":628,"佛":629,"作":630,"使":631,"保":632,"信":633,"元":634,"先":635,"光":636,"免":637,"入":638,"全":639,"八":640,"公":641,"六":642,"关":643,"其":644,"典":645,"内":646,"円":647,"准":648,"凤":649,"出":650,"分":651,"创":652,"利":653,"到":654,"制":655,"前":656,"力":657,"加":658,"动":659,"動":660,"化":661,"北":662,"区":663,"十":664,"华":665,"单":666,"南":667,"博":668,"原":669,"县":670,"及":671,"双":672,"发":673,"取":674,"口":675,"古":676,"句":677,"可":678,"台":679,"史":680,"号":681,"司":682,"合":683,"同":684,"名":685,"后":686,"周":687,"和":688,"品":689,"商":690,"啊":691,"啥":692,"器":693,"四":694,"回":695,"国":696,"图":697,"國":698,"圓":699,"在":700,"地":701,"场":702,"址":703,"坛":704,"城":705,"基":706,"堂":707,"報":708,"場":709,"士":710,"外":711,"多":712,"大":713,"天":714,"太":715,"头":716,"奇":717,"奖":718,"女":719,"好":720,"姐":721,"婆":722,"子":723,"字":724,"学":725,"學":726,"宁":727,"安":728,"宗":729,"官":730,"定":731,"宝":732,"实":733,"客":734,"家":735,"富":736,"对":737,"寺":738,"将":739,"小":740,"少":741,"就":742,"尾":743,"展":744,"山":745,"島":746,"川":747,"州":748,"工":749,"市":750,"布":751,"帝":752,"常":753,"平":754,"年":755,"广":756,"库":757,"店":758,"府":759,"度":760,"建":761,"开":762,"式":763,"当":764,"彩":765,"律":766,"得":767,"德":768,"心":769,"必":770,"快":771,"思":772,"性":773,"情":774,"意":775,"感":776,"成":777,"我":778,"所":779,"手":780,"技":781,"报":782,"持":783,"挂":784,"指":785,"提":786,"政":787,"救":788,"教":789,"数":790,"文":791,"料":792,"新":793,"方":794,"族":795,"无":796,"日":797,"时":798,"明":799,"星":800,"是":801,"時":802,"更":803,"書":804,"曾":805,"最":806,"月":807,"有":808,"服":809,"期":810,"木":811,"本":812,"机":813,"杀":814,"李":815,"村":816,"来":817,"東":818,"林":819,"果":820,"校":821,"格":822,"業":823,"機":824,"正":825,"武":826,"比":827,"民":828,"氓":829,"気":830,"水":831,"江":832,"河":833,"治":834,"法":835,"波":836,"活":837,"流":838,"海":839,"清":840,"港":841,"湖":842,"源":843,"点":844,"無":845,"然":846,"片":847,"版":848,"牌":849,"牛":850,"物":851,"特":852,"狗":853,"玄":854,"王":855,"玩":856,"现":857,"球":858,"理":859,"生":860,"用":861,"田":862,"电":863,"画":864,"界":865,"白":866,"百":867,"的":868,"皇":869,"目":870,"直":871,"相":872,"看":873,"県":874,"真":875,"着":876,"知":877,"石":878,"码":879,"社":880,"神":881,"福":882,"科":883,"程":884,"空":885,"立":886,"站":887,"第":888,"等":889,"算":890,"管":891,"精":892,"系":893,"經":894,"红":895,"线":896,"经":897,"结":898,"网":899,"美":900,"群":901,"老":902,"者":903,"肖":904,"能":905,"自":906,"色":907,"花":908,"英":909,"行":910,"表":911,"西":912,"要":913,"見":914,"规":915,"解":916,"言":917,"語":918,"计":919,"记":920,"论":921,"设":922,"诗":923,"财":924,"费":925,"资":926,"赌":927,"赛":928,"起":929,"跑":930,"路":931,"车":932,"这":933,"进":934,"通":935,"道":936,"部":937,"都":938,"酶":939,"里":940,"重":941,"野":942,"量":943,"金":944,"钱":945,"铁":946,"错":947,"镇":948,"長":949,"长":950,"開":951,"間":952,"门":953,"阳":954,"限":955,"院":956,"集":957,"電":958,"青":959,"面":960,"音":961,"香":962,"马":963,"高":964,"黄":965,"龙":966,"ﬀ":967,"ﬁ":968,"ﬂ":969,"！":970,"（":971,"）":972,"，":973,"：":974,"？":975,"ﾆ":976,"ﾊ":977,"ﾟ":978,"￼":979,"🏻":980,"🏼":981,"👌":982,"👍":983,"👏":984,"💪":985,"💲":986,"😀":987,"😁":988,"😂":989,"😃":990,"😄":991,"😅":992,"😆":993,"😉":994,"😊":995,"😍":996,"😎":997,"😛":998,"🙁":999,"🙂":1000,"🙄":1001,"🙌":1002,"🤔":1003,"🤗":1004,"##e":1005,"##m":1006,"##o":1007,"##v":1008,"##i":1009,"##t":1010,"##s":1011,"##l":1012,"##n":1013,"##g":1014,"##a":1015,"##r":1016,"##f":1017,"##j":1018,"##d":1019,"##b":1020,"##u":1021,"##ø":1022,"##y":1023,"##k":1024,"##p":1025,"##z":1026,"##h":1027,"##æ":1028,"##w":1029,"##c":1030,"##غ":1031,"##د":1032,"##ا":1033,"##ش":1034,"##ل":1035,"##و":1036,"##α":1037,"##π":1038,"##ι":1039,"##γ":1040,"##κ":1041,"##ο":1042,"##8":1043,"##9":1044,"##2":1045,"##0":1046,"##5":1047,"##4":1048,"##1":1049,"##x":1050,"##פ":1051,"##נ":1052,"##י":1053,"##ו":1054,"##q":1055,"##6":1056,"##7":1057,"##త":1058,"##ర":1059,"##ు":1060,"##о":1061,"##б":1062,"##е":1063,"##л":1064,"##я":1065,"##к":1066,"##и":1067,"##シ":1068,"##ャ":1069,"##ン":1070,"##フ":1071,"##ー":1072,"##の":1073,"##レ":1074,"##ヒ":1075,"##ュ":1076,"##3":1077,"##р":1078,"##н":1079,"##у":1080,"##с":1081,"##¸":1082,"##т":1083,"##з":1084,"##ж":1085,"##क":1086,"##र":1087,"##ा":1088,"##न":1089,"##ी":1090,"##か":1091,"##な":1092,"##き":1093,"##щ":1094,"##а":1095,"##´":1096,"##ь":1097,"##в":1098,"##ч":1099,"##±":1100,"##マ":1101,"##ホ":1102,"##と":1103,"##λ":1104,"##て":1105,"##た":1106,"##ィ":1107,"##リ":1108,"##ッ":1109,"##ス":1110,"##м":1111,"##ル":1112,"##イ":1113,"##ワ":1114,"##ケ":1115,"##д":1116,"##ı":1117,"##δ":1118,"##ε":1119,"##υ":1120,"##σ":1121,"##η":1122,"##ς":1123,"##˚":1124,"##ы":1125,"##♥":1126,"##ᅳ":1127,"##ᆯ":1128,"##ᄅ":1129,"##ᅮ":1130,"##ᄋ":1131,"##ᅵ":1132,"##❤":1133,"##ł":1134,"##™":1135,"##®":1136,"##ц":1137,"##°":1138,"##ल":1139,"##म":1140,"##य":1141,"##ि":1142,"##ª":1143,"##ح":1144,"##ر":1145,"##ی":1146,"##ن":1147,"##ν":1148,"##μ":1149,"##ζ":1150,"##ک":1151,"##س":1152,"##τ":1153,"##ρ":1154,"##ј":1155,"##ð":1156,"##ك":1157,"##ד":1158,"##ה":1159,"##ᆷ":1160,"##ᄉ":1161,"##ᆼ":1162,"##ᄀ":1163,"##ᅧ":1164,"##¨":1165,"##を":1166,"##セ":1167,"##ト":1168,"##カ":1169,"##チ":1170,"##や":1171,"##х":1172,"##п":1173,"##ŋ":1174,"##ר":1175,"##ב":1176,"##タ":1177,"##º":1178,"##ه":1179,"##ء":1180,"##ф":1181,"##φ":1182,"##г":1183,"##ち":1184,"##ш":1185,"##サ":1186,"##テ":1187,"##ร":1188,"##ะ":1189,"##ก":1190,"##ว":1191,"##れ":1192,"##い":1193,"##ю":1194,"##²":1195,"##і":1196,"##🏼":1197,"##う":1198,"##よ":1199,"##く":1200,"##そ":1201,"##り":1202,"##ᅦ":1203,"##ᅥ":1204,"##ᄇ":1205,"##ᅢ":1206,"##ᆫ":1207,"##ﬂ":1208,"##đ":1209,"##こ":1210,"##ら":1211,"##χ":1212,"##ᅡ":1213,"##ᄎ":1214,"##😁":1215,"##さ":1216,"##ß":1217,"##ᅩ":1218,"##ח":1219,"##ג":1220,"##כ":1221,"##ן":1222,"##ω":1223,"##⁄":1224,"##θ":1225,"##ア":1226,"##ت":1227,"##ي":1228,"##ة":1229,"##א":1230,"##ק":1231,"##ס":1232,"##น":1233,"##ท":1234,"##า":1235,"##−":1236,"##ᄂ":1237,"##ᄐ":1238,"##ᆻ":1239,"##ᄃ":1240,"##β":1241,"##ˇ":1242,"##ق":1243,"##ف":1244,"##ج":1245,"##प":1246,"##も":1247,"##あ":1248,"##ラ":1249,"##ა":1250,"##მ":1251,"##ო":1252,"##ე":1253,"##ი":1254,"##っ":1255,"##す":1256,"##ր":1257,"##ե":1258,"##ի":1259,"##ս":1260,"##ո":1261,"##る":1262,"##に":1263,"##つ":1264,"##¹":1265,"##🙄":1266,"##😅":1267,"##😆":1268,"##🤗":1269,"##ذ":1270,"##ى":1271,"##µ":1272,"##¬":1273,"##コ":1274,"##ネ":1275,"##ѕ":1276,"##は":1277,"##ਾ":1278,"##ਨ":1279,"##¥":1280,"##👍":1281,"##ᅲ":1282,"##ᄑ":1283,"##ह":1284,"##स":1285,"##♡":1286,"##ث":1287,"##م":1288,"##✨":1289,"##し":1290,"##ま":1291,"##ع":1292,"##ᄒ":1293,"##ᄆ":1294,"##ᄏ":1295,"##ת":1296,"##み":1297,"##द":1298,"##ग":1299,"##э":1300,"##þ":1301,"##ب":1302,"##œ":1303,"##ע":1304,"##ᄌ":1305,"##מ":1306,"##צ":1307,"##گ":1308,"##ə":1309,"##া":1310,"##ম":1311,"##ъ":1312,"##ƒ":1313,"##ˈ":1314,"##ん":1315,"##わ":1316,"##ː":1317,"##ɑ":1318,"##ٱ":1319,"##⋅":1320,"##❄":1321,"##☀":1322,"##ద":1323,"##☺":1324,"##ᆸ":1325,"##ం":1326,"##ల":1327,"##ナ":1328,"##ツ":1329,"##ニ":1330,"##メ":1331,"##せ":1332,"##อ":1333,"##ส":1334,"##เ":1335,"##ต":1336,"##ล":1337,"##ص":1338,"##న":1339,"##ʿ":1340,"##ウ":1341,"##ェ":1342,"##ক":1343,"##ᅭ":1344,"##ז":1345,"##ᅴ":1346,"##ﬁ":1347,"##×":1348,"##ל":1349,"##ソ":1350,"##¾":1351,"##¤":1352,"##👏":1353,"##🙌":1354,"##ロ":1355,"##ハ":1356,"##😍":1357,"##エ":1358,"##ز":1359,"##ク":1360,"##へ":1361,"##ʰ":1362,"##ி":1363,"##😊":1364,"##ਤ":1365,"##ਿ":1366,"##ט":1367,"##ם":1368,"##ਜ":1369,"##ੀ":1370,"##ு":1371,"##க":1372,"##€":1373,"##พ":1374,"##ม":1375,"##ง":1376,"##ย":1377,"##แ":1378,"##ไ":1379,"##ด":1380,"##ห":1381,"##💪":1382,"##پ":1383,"##¦":1384,"##ʹ":1385,"##ש":1386,"##オ":1387,"##ョ":1388,"##¢":1389,"##ช":1390,"##ն":1391,"##ա":1392,"##ਰ":1393,"##ਕ":1394,"##จ":1395,"##რ":1396,"##ヘ":1397,"##👌":1398,"##🏻":1399,"##½":1400,"##ɛ":1401,"##😉":1402,"##व":1403,"##خ":1404,"##©":1405,"##յ":1406,"##ɔ":1407,"##ム":1408,"##け":1409,"##ヌ":1410,"##キ":1411,"##😄":1412,"##ʾ":1413,"##ਹ":1414,"##ミ":1415,"##འ":1416,"##ས":1417,"##བ":1418,"##ᆨ":1419,"##ब":1420,"##♂":1421,"##ป":1422,"##ค":1423,"##บ":1424,"##র":1425,"##ে":1426,"##ʼ":1427,"##ব":1428,"##দ":1429,"##ღ":1430,"##ਵ":1431,"##క":1432,"##🙂":1433,"##├":1434,"##╕":1435,"##ლ":1436,"##ნ":1437,"##ᅪ":1438,"##ា":1439,"##ﬀ":1440,"##ħ":1441,"##♣":1442,"##भ":1443,"##え":1444,"##є":1445,"##त":1446,"##ـ":1447,"##☆":1448,"##ط":1449,"##ন":1450,"##ত":1451,"##→":1452,"##श":1453,"##ா":1454,"##ர":1455,"##ம":1456,"##😀":1457,"##স":1458,"##ল":1459,"##ض":1460,"##ξ":1461,"##ি":1462,"##য":1463,"##ہ":1464,"##ட":1465,"##ప":1466,"##¼":1467,"##お":1468,"##モ":1469,"##ो":1470,"##♀":1471,"##ґ":1472,"##め":1473,"##ひ":1474,"##ظ":1475,"##³":1476,"##😂":1477,"##😃":1478,"##ਸ":1479,"##த":1480,"##∂":1481,"##≥":1482,"##∙":1483,"##😎":1484,"##►":1485,"##÷":1486,"##ɪ":1487,"##ს":1488,"##£":1489,"##ਮ":1490,"##ʻ":1491,"##♦":1492,"##ད":1493,"##ར":1494,"##ਪ":1495,"##√":1496,"##˜":1497,"##✔":1498,"##ʃ":1499,"##ज":1500,"##ང":1501,"##ན":1502,"##ћ":1503,"##च":1504,"##♠":1505,"##چ":1506,"##ག":1507,"##≈":1508,"##མ":1509,"##✓":1510,"##ψ":1511,"##₂":1512,"##ﾊ":1513,"##ਲ":1514,"##◆":1515,"##★":1516,"##🤔":1517,"##ˆ":1518,"##💲":1519,"##⠀":1520,"##↑":1521,"##■":1522,"##─":1523,"##ལ":1524,"##●":1525,"##￼":1526,"##℃":1527,"##↓":1528,"##🙁":1529,"##□":1530,"##✅":1531,"##▻":1532,"##≤":1533,"##←":1534,"##ﾟ":1535,"##ﾆ":1536,"##😛":1537,"##པ":1538,"##│":1539,"##฿":1540,"##▫":1541,"##○":1542,"##✚":1543,"##er":1544,"##en":1545,"##et":1546,"##or":1547,"##an":1548,"##ar":1549,"##in":1550,"##el":1551,"##il":1552,"og":1553,"##st":1554,"##om":1555,"##ed":1556,"for":1557,"##ing":1558,"##le":1559,"##re":1560,"##ig":1561,"##sk":1562,"##tt":1563,"##on":1564,"##al":1565,"til":1566,"det":1567,"##te":1568,"##ra":1569,"er":1570,"##kk":1571,"av":1572,"##eg":1573,"en":1574,"pa":1575,"som":1576,"##es":1577,"##id":1578,"##nn":1579,"st":1580,"##is":1581,"##de":1582,"med":1583,"##kt":1584,"##ør":1585,"##ene":1586,"##pp":1587,"##ol":1588,"##at":1589,"##as":1590,"##ver":1591,"##ag":1592,"##am":1593,"##ler":1594,"sk":1595,"##li":1596,"ut":1597,"de":1598,"##nd":1599,"at":1600,"har":1601,"##ne":1602,"##ent":1603,"##ri":1604,"##jon":1605,"vi":1606,"##se":1607,"##ru":1608,"den":1609,"##lig":1610,"##and":1611,"var":1612,"##ere":1613,"##ro":1614,"##kke":1615,"##ste":1616,"##ett":1617,"om":1618,"##it":1619,"opp":1620,"##ke":1621,"gj":1622,"##ang":1623,"##ning":1624,"ar":1625,"fra":1626,"##att":1627,"men":1628,"##ad":1629,"inn":1630,"##ær":1631,"##isk":1632,"al":1633,"##un":1634,"##ur":1635,"ikke":1636,"##ks":1637,"no":1638,"et":1639,"kan":1640,"##us":1641,"in":1642,"ble":1643,"##tter":1644,"##je":1645,"##ul":1646,"sp":1647,"##ik":1648,"##for":1649,"jeg":1650,"##ikk":1651,"##ap":1652,"hv":1653,"##ak":1654,"##iv":1655,"##ge":1656,"be":1657,"nor":1658,"##ot":1659,"sam":1660,"##ens":1661,"##het":1662,"##ter":1663,"kom":1664,"##mer":1665,"##der":1666,"##ende":1667,"du":1668,"el":1669,"##sa":1670,"##asjon":1671,"##be":1672,"han":1673,"kj":1674,"##gg":1675,"sa":1676,"seg":1677,"##enn":1678,"20":1679,"##itt":1680,"##ist":1681,"bli":1682,"##od":1683,"pro":1684,"etter":1685,"##est":1686,"##ss":1687,"##av":1688,"##elig":1689,"an":1690,"##ert":1691,"##ell":1692,"##ok":1693,"over":1694,"##øy":1695,"se":1696,"##elt":1697,"eller":1698,"ved":1699,"der":1700,"vil":1701,"##sen":1702,"tr":1703,"##ære":1704,"før":1705,"##ker":1706,"##eng":1707,"bar":1708,"bru":1709,"kon":1710,"ogsa":1711,"dette":1712,"##ir":1713,"##inn":1714,"##art":1715,"##ort":1716,"##ut":1717,"ma":1718,"##ann":1719,"##lo":1720,"##me":1721,"##ling":1722,"re":1723,"##ske":1724,"##sp":1725,"##nder":1726,"##ser":1727,"ny":1728,"##ft":1729,"##else":1730,"##ant":1731,"##ud":1732,"19":1733,"##beid":1734,"##old":1735,"skal":1736,"and":1737,"##yr":1738,"##ve":1739,"sel":1740,"fa":1741,"##ier":1742,"##unn":1743,"##all":1744,"##os":1745,"##skap":1746,"##iske":1747,"##øre":1748,"tid":1749,"##gen":1750,"##øp":1751,"##um":1752,"##men":1753,"man":1754,"##ord":1755,"##eld":1756,"##ff":1757,"under":1758,"mer":1759,"sy":1760,"noen":1761,"##adde":1762,"da":1763,"##og":1764,"##em":1765,"andre":1766,"##ov":1767,"201":1768,"hadde":1769,"dag":1770,"##øl":1771,"##und":1772,"kl":1773,"##var":1774,"##gj":1775,"være":1776,"##end":1777,"min":1778,"pl":1779,"by":1780,"kv":1781,"ha":1782,"##ob":1783,"alle":1784,"##ært":1785,"to":1786,"##ale":1787,"##legg":1788,"##ger":1789,"le":1790,"na":1791,"hel":1792,"dat":1793,"sin":1794,"ver":1795,"nar":1796,"noe":1797,"##sl":1798,"##ennom":1799,"##jer":1800,"bl":1801,"##ass":1802,"her":1803,"per":1804,"mot":1805,"selv":1806,"blir":1807,"reg":1808,"##enter":1809,"stor":1810,"##hold":1811,"gjennom":1812,"##sm":1813,"god":1814,"denne":1815,"##ktig":1816,"##rem":1817,"mang":1818,"##lige":1819,"sø":1820,"##alt":1821,"##lere":1822,"##ød":1823,"##iser":1824,"far":1825,"gru":1826,"##im":1827,"sli":1828,"##itet":1829,"nett":1830,"komm":1831,"my":1832,"##ly":1833,"ann":1834,"arbeid":1835,"##00":1836,"or":1837,"##ingen":1838,"sid":1839,"bil":1840,"##ber":1841,"##rad":1842,"ba":1843,"##per":1844,"##rø":1845,"##ster":1846,"##ksjon":1847,"##vik":1848,"hun":1849,"li":1850,"si":1851,"lag":1852,"sl":1853,"##net":1854,"##vis":1855,"##eder":1856,"ta":1857,"##tid":1858,"##ry":1859,"del":1860,"høy":1861,"fin":1862,"##del":1863,"##jel":1864,"##ia":1865,"##ie":1866,"##inger":1867,"mange":1868,"##alg":1869,"##sker":1870,"##elle":1871,"enn":1872,"##ek":1873,"##ic":1874,"##før":1875,"uten":1876,"##res":1877,"##opp":1878,"##ans":1879,"##ede":1880,"fort":1881,"##by":1882,"##lem":1883,"un":1884,"mu":1885,"##ien":1886,"bare":1887,"beg":1888,"##mp":1889,"hvor":1890,"##son":1891,"mar":1892,"kunn":1893,"##yl":1894,"##ess":1895,"dating":1896,"##ater":1897,"##utt":1898,"##ket":1899,"sv":1900,"##ige":1901,"frem":1902,"##he":1903,"ek":1904,"vært":1905,"deg":1906,"inter":1907,"norge":1908,"bruk":1909,"##ab":1910,"##den":1911,"##dr":1912,"hver":1913,"##akt":1914,"ser":1915,"land":1916,"flere":1917,"##kl":1918,"kont":1919,"spil":1920,"##red":1921,"gjøre":1922,"##ult":1923,"mye":1924,"pros":1925,"litt":1926,"dis":1927,"første":1928,"fikk":1929,"meg":1930,"hva":1931,"##ellom":1932,"##inner":1933,"sammen":1934,"gang":1935,"##yn":1936,"ap":1937,"bet":1938,"##jø":1939,"mellom":1940,"tre":1941,"##atte":1942,"##si":1943,"vid":1944,"##ch":1945,"##jem":1946,"ve":1947,"mø":1948,"##stil":1949,"##land":1950,"tilb":1951,"##rat":1952,"200":1953,"##ings":1954,"##øk":1955,"gar":1956,"sm":1957,"##dag":1958,"##form":1959,"gjør":1960,"kr":1961,"##ust":1962,"grunn":1963,"##kker":1964,"res":1965,"##ner":1966,"##tte":1967,"ne":1968,"leg":1969,"##ub":1970,"##ette":1971,"forsk":1972,"##ninger":1973,"##hand":1974,"slik":1975,"##ion":1976,"mil":1977,"alt":1978,"lang":1979,"##ighet":1980,"##lighet":1981,"##ets":1982,"##ull":1983,"##ost":1984,"##pe":1985,"ty":1986,"vel":1987,"oss":1988,"##stem":1989,"##na":1990,"bade":1991,"disse":1992,"##if":1993,"##arbeid":1994,"##eb":1995,"din":1996,"kjøp":1997,"##kter":1998,"føl":1999,"##du":2000,"##dre":2001,"ned":2002,"18":2003,"##elsen":2004,"viktig":2005,"##ast":2006,"nye":2007,"##ningen":2008,"hand":2009,"eg":2010,"##op":2011,"jo":2012,"##ktiv":2013,"siden":2014,"os":2015,"ber":2016,"kunne":2017,"##som":2018,"##lag":2019,"sex":2020,"rett":2021,"ly":2022,"pol":2023,"##gang":2024,"##ire":2025,"person":2026,"##jene":2027,"##rett":2028,"##kj":2029,"##enger":2030,"utvik":2031,"pr":2032,"nær":2033,"vir":2034,"igj":2035,"van":2036,"##ken":2037,"##elser":2038,"##let":2039,"##sten":2040,"la":2041,"##isjon":2042,"dem":2043,"ga":2044,"##ram":2045,"enk":2046,"##pl":2047,"##ial":2048,"stør":2049,"bed":2050,"fors":2051,"lø":2052,"##ente":2053,"##ener":2054,"##rev":2055,"##ug":2056,"øn":2057,"annet":2058,"##pt":2059,"norsk":2060,"##ulle":2061,"liv":2062,"nord":2063,"mal":2064,"forb":2065,"##riv":2066,"igjen":2067,"##ordan":2068,"of":2069,"##ret":2070,"##rift":2071,"##ode":2072,"helt":2073,"##ran":2074,"fol":2075,"ra":2076,"mo":2077,"par":2078,"##nes":2079,"##iver":2080,"hele":2081,"kommer":2082,"br":2083,"hvordan":2084,"norske":2085,"ch":2086,"oslo":2087,"kommun":2088,"blant":2089,"store":2090,"##els":2091,"##rav":2092,"ti":2093,"rund":2094,"tidlig":2095,"form":2096,"##tem":2097,"##etter":2098,"gi":2099,"##ake":2100,"lig":2101,"ans":2102,"##oll":2103,"godt":2104,"hjel":2105,"he":2106,"##ga":2107,"##rist":2108,"##tak":2109,"##eldig":2110,"##erne":2111,"##kket":2112,"##gan":2113,"like":2114,"##kon":2115,"##la":2116,"mat":2117,"fil":2118,"vis":2119,"##ktet":2120,"job":2121,"##atur":2122,"stat":2123,"ad":2124,"##eter":2125,"##dom":2126,"kun":2127,"fly":2128,"##di":2129,"##oner":2130,"##ine":2131,"gir":2132,"spes":2133,"ind":2134,"samme":2135,"rundt":2136,"polit":2137,"sj":2138,"##are":2139,"løp":2140,"##alen":2141,"mest":2142,"blitt":2143,"hov":2144,"hvis":2145,"##edet":2146,"##amp":2147,"barn":2148,"##formasjon":2149,"##lev":2150,"##met":2151,"##ind":2152,"##olog":2153,"##sb":2154,"10":2155,"bruker":2156,"all":2157,"hjem":2158,"##over":2159,"hen":2160,"sier":2161,"##like":2162,"sine":2163,"##ytt":2164,"sak":2165,"plan":2166,"skulle":2167,"##elige":2168,"##les":2169,"fri":2170,"nok":2171,"##asjoner":2172,"bes":2173,"sitt":2174,"##sjon":2175,"##erd":2176,"##sid":2177,"ant":2178,"tek":2179,"##føl":2180,"siste":2181,"red":2182,"##iet":2183,"ev":2184,"##set":2185,"##ole":2186,"tilbake":2187,"##ard":2188,"sør":2189,"les":2190,"stud":2191,"##rer":2192,"vare":2193,"##ark":2194,"mor":2195,"finn":2196,"delt":2197,"produ":2198,"prosje":2199,"stil":2200,"##ring":2201,"##aler":2202,"##ativ":2203,"##ges":2204,"gl":2205,"ord":2206,"tillegg":2207,"nav":2208,"##orn":2209,"kn":2210,"mid":2211,"##olig":2212,"##ppen":2213,"hoved":2214,"##satt":2215,"##hol":2216,"##elen":2217,"##fil":2218,"eks":2219,"menne":2220,"sn":2221,"ein":2222,"##ister":2223,"##sy":2224,"hans":2225,"gam":2226,"tur":2227,"##ikker":2228,"rom":2229,"informasjon":2230,"fatt":2231,"gikk":2232,"ei":2233,"##anske":2234,"innen":2235,"##ten":2236,"##eller":2237,"forhold":2238,"styr":2239,"##ffe":2240,"##atter":2241,"verd":2242,"des":2243,"star":2244,"kar":2245,"ingen":2246,"##slag":2247,"bak":2248,"the":2249,"vart":2250,"veldig":2251,"sen":2252,"beste":2253,"##ma":2254,"su":2255,"tar":2256,"##pet":2257,"fram":2258,"fot":2259,"videre":2260,"hol":2261,"##gru":2262,"tidligere":2263,"##istor":2264,"15":2265,"te":2266,"finne":2267,"##ond":2268,"##nings":2269,"valg":2270,"hos":2271,"##kom":2272,"##min":2273,"end":2274,"ten":2275,"derfor":2276,"ønsker":2277,"##pro":2278,"best":2279,"##bru":2280,"##kte":2281,"##ane":2282,"##ate":2283,"##ele":2284,"ol":2285,"##pper":2286,"##une":2287,"grat":2288,"##alitet":2289,"rad":2290,"intern":2291,"##gi":2292,"##raf":2293,"##ck":2294,"##rit":2295,"##kken":2296,"byg":2297,"egen":2298,"ri":2299,"tjene":2300,"##styr":2301,"fj":2302,"mulig":2303,"ekse":2304,"off":2305,"bra":2306,"##hus":2307,"##usjon":2308,"mens":2309,"##valg":2310,"fle":2311,"samt":2312,"gener":2313,"sol":2314,"##ksom":2315,"##skapet":2316,"fyl":2317,"dere":2318,"th":2319,"organ":2320,"eksemp":2321,"##oks":2322,"bruke":2323,"fun":2324,"mann":2325,"tro":2326,"##nad":2327,"fe":2328,"bør":2329,"17":2330,"lever":2331,"ulike":2332,"lu":2333,"12":2334,"##ører":2335,"##amil":2336,"##sel":2337,"##rag":2338,"kvinner":2339,"##bygg":2340,"##anse":2341,"on":2342,"##asjonen":2343,"##handling":2344,"##yd":2345,"fl":2346,"eng":2347,"##raft":2348,"møte":2349,"eu":2350,"bedre":2351,"vin":2352,"fag":2353,"medlem":2354,"##entet":2355,"199":2356,"skj":2357,"##gram":2358,"mus":2359,"gratis":2360,"venn":2361,"##føre":2362,"led":2363,"##far":2364,"##este":2365,"spør":2366,"##heten":2367,"tv":2368,"##skje":2369,"##iner":2370,"##mid":2371,"nytt":2372,"bygg":2373,"##ester":2374,"##ip":2375,"mulighet":2376,"try":2377,"lok":2378,"folk":2379,"inst":2380,"##entlig":2381,"besk":2382,"##esten":2383,"menn":2384,"full":2385,"##ise":2386,"stø":2387,"fød":2388,"##ian":2389,"kanskje":2390,"pres":2391,"##ib":2392,"##ill":2393,"viser":2394,"##ppe":2395,"ung":2396,"##med":2397,"aktiv":2398,"prø":2399,"##stand":2400,"ro":2401,"ofte":2402,"##ultur":2403,"##ren":2404,"slutt":2405,"histor":2406,"##gjør":2407,"kjent":2408,"pre":2409,"hø":2410,"##ført":2411,"sent":2412,"klo":2413,"helse":2414,"bok":2415,"øy":2416,"16":2417,"gode":2418,"##elder":2419,"##vn":2420,"##anger":2421,"lov":2422,"porn":2423,"##vend":2424,"##allet":2425,"spesi":2426,"sett":2427,"hal":2428,"gjen":2429,"ting":2430,"utvikling":2431,"først":2432,"##sf":2433,"##ven":2434,"vur":2435,"natur":2436,"vann":2437,"kjø":2438,"##søk":2439,"part":2440,"fordi":2441,"kommune":2442,"##smal":2443,"##radet":2444,"ville":2445,"start":2446,"dam":2447,"##stilling":2448,"##under":2449,"pris":2450,"##heng":2451,"plass":2452,"##sta":2453,"ste":2454,"stort":2455,"kontakt":2456,"fr":2457,"##stad":2458,"##sj":2459,"bid":2460,"##funn":2461,"rep":2462,"aller":2463,"lær":2464,"art":2465,"tatt":2466,"samarbeid":2467,"lik":2468,"tok":2469,"ju":2470,"søker":2471,"svært":2472,"##stre":2473,"finnes":2474,"skri":2475,"11":2476,"ham":2477,"unn":2478,"##io":2479,"##ite":2480,"utd":2481,"ben":2482,"##røm":2483,"famil":2484,"jobb":2485,"fakt":2486,"##jør":2487,"di":2488,"barne":2489,"beh":2490,"mark":2491,"am":2492,"eksempel":2493,"gre":2494,"kor":2495,"##kur":2496,"result":2497,"jenter":2498,"##sak":2499,"mindre":2500,"po":2501,"fant":2502,"##org":2503,"klar":2504,"##ong":2505,"##sh":2506,"ligger":2507,"##kes":2508,"##ynn":2509,"##pa":2510,"##øm":2511,"inv":2512,"verden":2513,"inne":2514,"##vir":2515,"##rader":2516,"kultur":2517,"##ont":2518,"##rens":2519,"##ide":2520,"hvil":2521,"14":2522,"##gre":2523,"##olen":2524,"prob":2525,"##lekt":2526,"komme":2527,"forskjel":2528,"##det":2529,"sc":2530,"innlegg":2531,"dersom":2532,"##vel":2533,"##verk":2534,"##rakt":2535,"##asser":2536,"lett":2537,"##ys":2538,"##isert":2539,"matte":2540,"skap":2541,"##inne":2542,"deres":2543,"endr":2544,"as":2545,"oppd":2546,"kli":2547,"##fri":2548,"##assen":2549,"hvert":2550,"mennesker":2551,"større":2552,"hus":2553,"tem":2554,"annen":2555,"løpet":2556,"kal":2557,"hjelp":2558,"lo":2559,"kjøpe":2560,"krist":2561,"blo":2562,"kre":2563,"##konom":2564,"sh":2565,"kort":2566,"økonom":2567,"kir":2568,"ca":2569,"sik":2570,"30":2571,"tilf":2572,"##iva":2573,"født":2574,"ja":2575,"tekn":2576,"##ikken":2577,"##par":2578,"vest":2579,"13":2580,"gjelder":2581,"##ina":2582,"##ps":2583,"forv":2584,"syn":2585,"pass":2586,"rus":2587,"bilder":2588,"##bo":2589,"##rasjon":2590,"euro":2591,"##erer":2592,"begynn":2593,"ster":2594,"##tidig":2595,"##ka":2596,"bestem":2597,"##ign":2598,"##iten":2599,"nød":2600,"2017":2601,"##asse":2602,"##kning":2603,"sær":2604,"jan":2605,"vide":2606,"senere":2607,"kamp":2608,"brukes":2609,"spørsmal":2610,"##sn":2611,"##vet":2612,"utfor":2613,"ansvar":2614,"side":2615,"##ce":2616,"milli":2617,"svar":2618,"sos":2619,"gjort":2620,"skole":2621,"##ct":2622,"bas":2623,"##asje":2624,"##ubb":2625,"rese":2626,"co":2627,"mate":2628,"ferd":2629,"198":2630,"nasjon":2631,"kro":2632,"hav":2633,"bor":2634,"vurder":2635,"##øs":2636,"##aten":2637,"organis":2638,"skjer":2639,"vansk":2640,"bo":2641,"enkelt":2642,"program":2643,"##utter":2644,"##fe":2645,"arbeids":2646,"##ball":2647,"##roll":2648,"##led":2649,"tiden":2650,"##sket":2651,"##dri":2652,"krav":2653,"laget":2654,"fast":2655,"##rak":2656,"##dus":2657,"##gav":2658,"##berg":2659,"enkel":2660,"voks":2661,"##olle":2662,"samfunn":2663,"##unkt":2664,"##itu":2665,"##syn":2666,"vet":2667,"alltid":2668,"ban":2669,"fred":2670,"##tek":2671,"prosent":2672,"utt":2673,"dy":2674,"stra":2675,"trenger":2676,"##enge":2677,"nettst":2678,"##ha":2679,"sann":2680,"finner":2681,"dri":2682,"ho":2683,"ute":2684,"##sikt":2685,"sommer":2686,"norges":2687,"trad":2688,"##jen":2689,"##rig":2690,"sje":2691,"dei":2692,"søk":2693,"##veg":2694,"##ille":2695,"##yttet":2696,"fran":2697,"##gende":2698,"##fer":2699,"fem":2700,"sna":2701,"ungdom":2702,"##tes":2703,"mass":2704,"behov":2705,"porno":2706,"##kelig":2707,"veg":2708,"is":2709,"leder":2710,"hold":2711,"##reg":2712,"vanlig":2713,"##revet":2714,"løs":2715,"ter":2716,"langt":2717,"##sdag":2718,"fire":2719,"satt":2720,"##mann":2721,"##ral":2722,"ka":2723,"kjær":2724,"##uder":2725,"mener":2726,"kunst":2727,"sted":2728,"post":2729,"000":2730,"aldri":2731,"##øker":2732,"effe":2733,"spesielt":2734,"øv":2735,"hy":2736,"##oden":2737,"felle":2738,"##erte":2739,"brukt":2740,"rekke":2741,"fortsatt":2742,"##igheter":2743,"##leg":2744,"hot":2745,"resept":2746,"##ay":2747,"arene":2748,"tor":2749,"ganger":2750,"##heter":2751,"dø":2752,"##mel":2753,"##age":2754,"##fter":2755,"kvalitet":2756,"kunnskap":2757,"##ivers":2758,"##eren":2759,"sma":2760,"samtidig":2761,"##orde":2762,"neste":2763,"##up":2764,"sikker":2765,"##ron":2766,"gamle":2767,"##grunn":2768,"konkur":2769,"met":2770,"##ensjon":2771,"##stra":2772,"avt":2773,"tren":2774,"syk":2775,"197":2776,"miljø":2777,"##agra":2778,"produksjon":2779,"fleste":2780,"forskjellige":2781,"sette":2782,"##spl":2783,"vanskelig":2784,"død":2785,"##sje":2786,"ab":2787,"ge":2788,"##ive":2789,"##lys":2790,"viagra":2791,"##dd":2792,"joh":2793,"hatt":2794,"me":2795,"##midler":2796,"##ustri":2797,"fø":2798,"ret":2799,"##lever":2800,"##tet":2801,"syke":2802,"##ingene":2803,"##off":2804,"grad":2805,"største":2806,"opplev":2807,"arr":2808,"video":2809,"oppt":2810,"jun":2811,"dager":2812,"stand":2813,"##get":2814,"100":2815,"regist":2816,"##sett":2817,"so":2818,"##mark":2819,"kjære":2820,"tallet":2821,"kjærlighet":2822,"amer":2823,"lite":2824,"bry":2825,"hap":2826,"##isering":2827,"##anning":2828,"##atet":2829,"##uler":2830,"følge":2831,"dermed":2832,"ett":2833,"dire":2834,"##ris":2835,"it":2836,"tan":2837,"flo":2838,"##udd":2839,"##spro":2840,"lar":2841,"sty":2842,"internasjon":2843,"univers":2844,"##bar":2845,"arbeidet":2846,"byen":2847,"##agt":2848,"gjerne":2849,"allerede":2850,"kap":2851,"25":2852,"##okum":2853,"mater":2854,"##iller":2855,"fjer":2856,"##ering":2857,"##enner":2858,"liten":2859,"erfar":2860,"dan":2861,"mod":2862,"em":2863,"##ue":2864,"funksjon":2865,"2016":2866,"stad":2867,"tru":2868,"pos":2869,"kraft":2870,"etab":2871,"ses":2872,"nr":2873,"sing":2874,"repres":2875,"prosjekt":2876,"##ennes":2877,"##kv":2878,"heller":2879,"betyd":2880,"spill":2881,"##ice":2882,"gitt":2883,"##sfor":2884,"##bl":2885,"##ori":2886,"##lagt":2887,"##ow":2888,"dom":2889,"send":2890,"øst":2891,"pub":2892,"regjer":2893,"##sv":2894,"tror":2895,"int":2896,"##entene":2897,"legge":2898,"hu":2899,"akt":2900,"ko":2901,"oppr":2902,"##gjeng":2903,"##mene":2904,"app":2905,"##sd":2906,"kur":2907,"dar":2908,"##rykk":2909,"##ummer":2910,"196":2911,"##bef":2912,"##rum":2913,"##teg":2914,"omf":2915,"##føring":2916,"bort":2917,"eit":2918,"bolig":2919,"virkelig":2920,"system":2921,"##meld":2922,"##line":2923,"##elef":2924,"##okus":2925,"##enes":2926,"behandling":2927,"##lik":2928,"##gt":2929,"kons":2930,"ener":2931,"bel":2932,"lin":2933,"inkl":2934,"begyn":2935,"forf":2936,"rask":2937,"omradet":2938,"lav":2939,"amerik":2940,"##syk":2941,"aktivitet":2942,"likevel":2943,"##ftet":2944,"##va":2945,"jord":2946,"ob":2947,"navn":2948,"rapp":2949,"dine":2950,"aret":2951,"nødvend":2952,"rel":2953,"feil":2954,"komp":2955,"com":2956,"nesten":2957,"mob":2958,"##ttet":2959,"blogg":2960,"##ksomhet":2961,"avsl":2962,"pop":2963,"mai":2964,"##ktor":2965,"kveld":2966,"peri":2967,"begge":2968,"##esp":2969,"##bil":2970,"2015":2971,"deler":2972,"lagt":2973,"forn":2974,"##gar":2975,"problem":2976,"##vert":2977,"##orter":2978,"undersøk":2979,"fer":2980,"gjorde":2981,"mag":2982,"sta":2983,"kost":2984,"kil":2985,"betyr":2986,"ditt":2987,"##følg":2988,"##vid":2989,"verdens":2990,"kroner":2991,"aug":2992,"livet":2993,"gud":2994,"##iale":2995,"minst":2996,"##tre":2997,"##aker":2998,"ry":2999,"##rukt":3000,"stem":3001,"leng":3002,"##bet":3003,"##svar":3004,"stre":3005,"dagen":3006,"mott":3007,"felles":3008,"##drett":3009,"skjø":3010,"personer":3011,"dokum":3012,"pri":3013,"funn":3014,"utvalg":3015,"##jell":3016,"spiller":3017,"online":3018,"##orte":3019,"riktig":3020,"musikk":3021,"##alet":3022,"##part":3023,"landet":3024,"tra":3025,"seks":3026,"besøk":3027,"##ager":3028,"ekte":3029,"##ologi":3030,"tot":3031,"produs":3032,"henne":3033,"imidler":3034,"utfordr":3035,"imidlertid":3036,"halv":3037,"##lær":3038,"tran":3039,"lenge":3040,"ganske":3041,"kjør":3042,"fokus":3043,"grø":3044,"##kar":3045,"##holder":3046,"holde":3047,"tilgjeng":3048,"##ile":3049,"priv":3050,"forts":3051,"sep":3052,"va":3053,"ris":3054,"##sport":3055,"##heim":3056,"tiltak":3057,"50":3058,"ram":3059,"##følge":3060,"str":3061,"industri":3062,"##kten":3063,"##alte":3064,"sver":3065,"okt":3066,"##ilt":3067,"##tr":3068,"foreld":3069,"##vin":3070,"kart":3071,"##uar":3072,"tjenester":3073,"##fol":3074,"særlig":3075,"##iden":3076,"forskning":3077,"##ator":3078,"##lert":3079,"oper":3080,"##uelle":3081,"slike":3082,"bergen":3083,"##sø":3084,"##andre":3085,"elekt":3086,"region":3087,"dre":3088,"##ation":3089,"##yld":3090,"hjelpe":3091,"klubb":3092,"im":3093,"##kjent":3094,"##atene":3095,"krig":3096,"selskap":3097,"enkelte":3098,"damer":3099,"enda":3100,"faktisk":3101,"redus":3102,"kontroll":3103,"##lingen":3104,"##fører":3105,"##bruk":3106,"tilbud":3107,"##ansen":3108,"##ald":3109,"##rom":3110,"akk":3111,"stedet":3112,"usa":3113,"meter":3114,"2014":3115,"##lene":3116,"##endom":3117,"##rene":3118,"fjell":3119,"##ograf":3120,"194":3121,"##sam":3122,"hennes":3123,"anbef":3124,"prof":3125,"økt":3126,"##rik":3127,"lev":3128,"##ferd":3129,"topp":3130,"##sc":3131,"##hav":3132,"##løp":3133,"støtte":3134,"bud":3135,"event":3136,"innhold":3137,"##anser":3138,"film":3139,"##sted":3140,"vei":3141,"##vere":3142,"##rige":3143,"195":3144,"##fin":3145,"juni":3146,"kompet":3147,"tap":3148,"22":3149,"mon":3150,"egne":3151,"disk":3152,"##ore":3153,"dyr":3154,"bur":3155,"drift":3156,"apr":3157,"kvinne":3158,"oppf":3159,"##isere":3160,"ansatte":3161,"##ade":3162,"arrang":3163,"ekstra":3164,"21":3165,"bu":3166,"##ansk":3167,"situ":3168,"bek":3169,"bidra":3170,"eldre":3171,"##ja":3172,"massasje":3173,"##adet":3174,"hens":3175,"millioner":3176,"aut":3177,"but":3178,"##mal":3179,"lønn":3180,"##ino":3181,"dra":3182,"##ats":3183,"kje":3184,"##ban":3185,"##ksjoner":3186,"utenfor":3187,"lage":3188,"inkluder":3189,"dess":3190,"fotball":3191,"00":3192,"##minist":3193,"altsa":3194,"innt":3195,"##ennende":3196,"id":3197,"popul":3198,"tradisjon":3199,"unge":3200,"søke":3201,"##ningene":3202,"alder":3203,"deretter":3204,"kam":3205,"utg":3206,"##ons":3207,"##anter":3208,"serv":3209,"data":3210,"##ærer":3211,"ang":3212,"vise":3213,"startet":3214,"##liv":3215,"tred":3216,"prosjektet":3217,"slag":3218,"begynte":3219,"lære":3220,"foret":3221,"bilde":3222,"meld":3223,"##utvik":3224,"teg":3225,"##bud":3226,"salg":3227,"saken":3228,"pasi":3229,"opprett":3230,"##fl":3231,"##one":3232,"##iene":3233,"antall":3234,"##van":3235,"spille":3236,"##jord":3237,"feb":3238,"##rade":3239,"anal":3240,"ide":3241,"##deling":3242,"bygge":3243,"##yt":3244,"høyere":3245,"##ialis":3246,"hjemme":3247,"synes":3248,"forslag":3249,"##dal":3250,"##kkje":3251,"##afil":3252,"##int":3253,"elev":3254,"24":3255,"##elses":3256,"luft":3257,"egentlig":3258,"innenfor":3259,"2013":3260,"bestil":3261,"##side":3262,"km":3263,"januar":3264,"##sland":3265,"sikkerhet":3266,"idrett":3267,"##urat":3268,"##mere":3269,"##ande":3270,"gjenopp":3271,"##agen":3272,"universitet":3273,"timer":3274,"il":3275,"##ider":3276,"vant":3277,"##elsene":3278,"utdanning":3279,"bakgrunn":3280,"##urt":3281,"##kene":3282,"forsvar":3283,"##ym":3284,"anlegg":3285,"hund":3286,"interes":3287,"##ht":3288,"ul":3289,"kvinn":3290,"fo":3291,"ak":3292,"##elefon":3293,"fisk":3294,"2012":3295,"sikre":3296,"ifølge":3297,"ven":3298,"tak":3299,"##star":3300,"lese":3301,"##ongen":3302,"imp":3303,"##plass":3304,"gu":3305,"##oen":3306,"venner":3307,"darlig":3308,"mine":3309,"nødvendig":3310,"tysk":3311,"##skudd":3312,"mel":3313,"cialis":3314,"fre":3315,"eneste":3316,"legger":3317,"##vem":3318,"go":3319,"ikkje":3320,"august":3321,"utgang":3322,"barneh":3323,"hverandre":3324,"##fall":3325,"instit":3326,"##linger":3327,"insp":3328,"fest":3329,"risik":3330,"akkurat":3331,"psyk":3332,"apen":3333,"forsta":3334,"pra":3335,"##tern":3336,"##orer":3337,"interess":3338,"dig":3339,"je":3340,"##bu":3341,"yo":3342,"ark":3343,"eget":3344,"##uts":3345,"ag":3346,"tilgjengelig":3347,"##oler":3348,"##atisk":3349,"##uten":3350,"##usen":3351,"us":3352,"##indelse":3353,"band":3354,"##vil":3355,"##unt":3356,"administ":3357,"hjer":3358,"vekt":3359,"nak":3360,"søknad":3361,"poeng":3362,"eiendom":3363,"marked":3364,"barna":3365,"vær":3366,"kommunen":3367,"mars":3368,"kri":3369,"veien":3370,"niva":3371,"##vær":3372,"forteller":3373,"##her":3374,"funnet":3375,"kjønn":3376,"tom":3377,"skolen":3378,"2011":3379,"kong":3380,"do":3381,"klart":3382,"ferdig":3383,"sykdom":3384,"dagens":3385,"penger":3386,"sto":3387,"40":3388,"spennende":3389,"gatt":3390,"utstyr":3391,"trond":3392,"utr":3393,"##ba":3394,"##ca":3395,"mitt":3396,"##otek":3397,"##arer":3398,"##aller":3399,"##øst":3400,"moder":3401,"##po":3402,"23":3403,"##kkel":3404,"##hengig":3405,"##man":3406,"##gaver":3407,"##kkes":3408,"sven":3409,"2018":3410,"##kret":3411,"juli":3412,"forbindelse":3413,"##entlige":3414,"via":3415,"septem":3416,"##isten":3417,"lokal":3418,"fantast":3419,"grav":3420,"september":3421,"test":3422,"medlemmer":3423,"hør":3424,"##likt":3425,"##nt":3426,"eksp":3427,"##ader":3428,"ski":3429,"sjø":3430,"kat":3431,"##sjett":3432,"høyre":3433,"##isin":3434,"##holde":3435,"følger":3436,"lille":3437,"erot":3438,"nærings":3439,"##siden":3440,"uke":3441,"##ital":3442,"selskapet":3443,"new":3444,"knyttet":3445,"##ete":3446,"inns":3447,"bi":3448,"att":3449,"hvilke":3450,"##orten":3451,"stav":3452,"##rert":3453,"posit":3454,"maten":3455,"##br":3456,"##lemer":3457,"vinter":3458,"sverige":3459,"2010":3460,"##øte":3461,"oppdag":3462,"##kn":3463,"prøve":3464,"sand":3465,"kjente":3466,"bla":3467,"opplys":3468,"april":3469,"bred":3470,"pe":3471,"##ies":3472,"##ober":3473,"skrive":3474,"##ity":3475,"fav":3476,"##ytte":3477,"tema":3478,"hotell":3479,"##ikasjon":3480,"##co":3481,"##ative":3482,"##ember":3483,"basert":3484,"høyt":3485,"møter":3486,"##bum":3487,"##ses":3488,"design":3489,"##ata":3490,"navnet":3491,"##giver":3492,"trom":3493,"engel":3494,"skriver":3495,"##partem":3496,"##skin":3497,"hj":3498,"historie":3499,"skjønn":3500,"hard":3501,"natt":3502,"sil":3503,"##pen":3504,"kompetanse":3505,"følgende":3506,"krit":3507,"val":3508,"lenger":3509,"fall":3510,"193":3511,"jul":3512,"hvem":3513,"dist":3514,"tør":3515,"##rar":3516,"##vember":3517,"direkte":3518,"ep":3519,"##fra":3520,"alv":3521,"haper":3522,"##urer":3523,"november":3524,"tredje":3525,"represent":3526,"kry":3527,"midt":3528,"altern":3529,"gr":3530,"beveg":3531,"mynd":3532,"skjed":3533,"##use":3534,"sprak":3535,"rø":3536,"##ssk":3537,"##delig":3538,"##bin":3539,"jobber":3540,"hvorfor":3541,"sønn":3542,"mis":3543,"foto":3544,"liker":3545,"effektiv":3546,"##landet":3547,"##spill":3548,"fordel":3549,"tu":3550,"forkl":3551,"velge":3552,"##rifter":3553,"trening":3554,"spe":3555,"desember":3556,"oppgav":3557,"utvikle":3558,"innbygg":3559,"##kningen":3560,"##ase":3561,"oktober":3562,"nem":3563,"lys":3564,"rest":3565,"spesial":3566,"foran":3567,"gjøres":3568,"eier":3569,"sky":3570,"holder":3571,"##vern":3572,"##menn":3573,"pavir":3574,"dokument":3575,"sku":3576,"##iste":3577,"bod":3578,"aks":3579,"strøm":3580,"døde":3581,"skrevet":3582,"voksne":3583,"arbeider":3584,"sla":3585,"##ern":3586,"avgjør":3587,"##føres":3588,"kjøre":3589,"sal":3590,"##ho":3591,"stadig":3592,"reise":3593,"sve":3594,"nov":3595,"rette":3596,"##verket":3597,"##organ":3598,"skape":3599,"konkurran":3600,"kommet":3601,"##mes":3602,"ing":3603,"minutter":3604,"##bok":3605,"##hør":3606,"##øya":3607,"##rafikk":3608,"##ium":3609,"##ktige":3610,"##ksis":3611,"##uelt":3612,"car":3613,"##fold":3614,"telefon":3615,"##spunkt":3616,"jente":3617,"##vnt":3618,"sport":3619,"##ansett":3620,"opprinn":3621,"vold":3622,"begynner":3623,"##rike":3624,"behand":3625,"##iljø":3626,"transport":3627,"##skom":3628,"##but":3629,"##olit":3630,"utrolig":3631,"##da":3632,"gutt":3633,"viktigste":3634,"##esjon":3635,"192":3636,"ren":3637,"energi":3638,"##plan":3639,"##unktet":3640,"ars":3641,"uansett":3642,"##øse":3643,"date":3644,"191":3645,"folke":3646,"##oret":3647,"bjør":3648,"uts":3649,"bus":3650,"lokale":3651,"##urn":3652,"##mar":3653,"##ink":3654,"regel":3655,"grunnlag":3656,"takk":3657,"##rere":3658,"tall":3659,"##ham":3660,"forel":3661,"ex":3662,"##ikt":3663,"##stend":3664,"##fag":3665,"are":3666,"ur":3667,"rek":3668,"gav":3669,"klokker":3670,"##snitt":3671,"##ksjonen":3672,"fjor":3673,"##enten":3674,"##ild":3675,"service":3676,"##ju":3677,"konse":3678,"maned":3679,"esk":3680,"##essur":3681,"sko":3682,"##ai":3683,"2009":3684,"##gge":3685,"oppdrag":3686,"kate":3687,"lør":3688,"oversikt":3689,"bedrift":3690,"uker":3691,"vedt":3692,"##mun":3693,"##ppet":3694,"alvor":3695,"##loven":3696,"fint":3697,"finans":3698,"russ":3699,"utviklet":3700,"##iserte":3701,"sist":3702,"gammel":3703,"detal":3704,"reis":3705,"##ruar":3706,"grens":3707,"internett":3708,"prakt":3709,"steder":3710,"hend":3711,"februar":3712,"##verd":3713,"sykehus":3714,"tenke":3715,"26":3716,"grønn":3717,"##ike":3718,"mand":3719,"skog":3720,"##gift":3721,"forbru":3722,"ressur":3723,"##iter":3724,"##kraft":3725,"ky":3726,"opplær":3727,"regn":3728,"vak":3729,"2008":3730,"kjenner":3731,"bestar":3732,"handler":3733,"familie":3734,"europa":3735,"retning":3736,"gjenopprett":3737,"prøv":3738,"tri":3739,"chat":3740,"apne":3741,"hom":3742,"arets":3743,"28":3744,"cas":3745,"sønd":3746,"gro":3747,"tilgang":3748,"##ppa":3749,"trondheim":3750,"##sut":3751,"##arbeidet":3752,"##ktene":3753,"politiet":3754,"gra":3755,"##vne":3756,"##ivt":3757,"##fo":3758,"barnet":3759,"##fjord":3760,"##inst":3761,"##ress":3762,"omrader":3763,"##ppene":3764,"ref":3765,"lyd":3766,"27":3767,"kirke":3768,"christ":3769,"tilp":3770,"nasjonal":3771,"##lin":3772,"##skaper":3773,"stopp":3774,"holdt":3775,"bon":3776,"pal":3777,"deltak":3778,"##ktøy":3779,"##ativt":3780,"##løs":3781,"##ikkert":3782,"inneholder":3783,"kroppen":3784,"##onser":3785,"tett":3786,"foren":3787,"nettsteder":3788,"bygget":3789,"fys":3790,"tross":3791,"##uttet":3792,"##ølv":3793,"familien":3794,"sannsyn":3795,"bro":3796,"vedtak":3797,"brann":3798,"tilbyr":3799,"##iker":3800,"kjemp":3801,"internasjonale":3802,"##str":3803,"web":3804,"øke":3805,"engas":3806,"##giv":3807,"brit":3808,"viktige":3809,"##akter":3810,"##sider":3811,"naturlig":3812,"skje":3813,"##essig":3814,"##iere":3815,"esc":3816,"##kont":3817,"viste":3818,"present":3819,"##za":3820,"gull":3821,"offentlige":3822,"føre":3823,"##iss":3824,"raskt":3825,"##bart":3826,"motor":3827,"##øyd":3828,"prin":3829,"oppmer":3830,"bø":3831,"##ves":3832,"##tale":3833,"konst":3834,"##aende":3835,"##king":3836,"ønsket":3837,"medisin":3838,"sosiale":3839,"yn":3840,"registrer":3841,"offentlig":3842,"masse":3843,"tips":3844,"praksis":3845,"perioden":3846,"funger":3847,"##fritt":3848,"kund":3849,"##nen":3850,"profil":3851,"kjem":3852,"kval":3853,"slutten":3854,"ass":3855,"befol":3856,"sch":3857,"pot":3858,"lørdag":3859,"##elag":3860,"ytter":3861,"generisk":3862,"single":3863,"dram":3864,"flott":3865,"vit":3866,"fores":3867,"##dere":3868,"##dene":3869,"legg":3870,"##kvens":3871,"valgt":3872,"samlet":3873,"klass":3874,"blod":3875,"super":3876,"##ming":3877,"sterk":3878,"rød":3879,"mør":3880,"dro":3881,"gjennomført":3882,"maneder":3883,"fi":3884,"fylkes":3885,"sar":3886,"##gjøre":3887,"fas":3888,"##produ":3889,"tun":3890,"##bel":3891,"##rol":3892,"bib":3893,"##kant":3894,"erfaring":3895,"##skrift":3896,"slett":3897,"forsøk":3898,"bal":3899,"##denafil":3900,"log":3901,"komment":3902,"##partementet":3903,"gul":3904,"##stid":3905,"till":3906,"2007":3907,"ph":3908,"problemer":3909,"publ":3910,"tilsvar":3911,"styret":3912,"ke":3913,"fry":3914,"forbed":3915,"##splan":3916,"60":3917,"##stene":3918,"pu":3919,"høre":3920,"##sst":3921,"##øren":3922,"##lov":3923,"##visning":3924,"sosial":3925,"inneb":3926,"daglig":3927,"prosjekter":3928,"konf":3929,"norw":3930,"##sav":3931,"##uell":3932,"bat":3933,"enten":3934,"hev":3935,"aust":3936,"stavanger":3937,"##ingsm":3938,"##grep":3939,"##mens":3940,"uav":3941,"leve":3942,"##bund":3943,"##agn":3944,"regjeringen":3945,"tilby":3946,"besø":3947,"trø":3948,"lærer":3949,"lyst":3950,"bevis":3951,"29":3952,"##inga":3953,"langs":3954,"fac":3955,"foreldre":3956,"##enne":3957,"##skole":3958,"bestille":3959,"innlegget":3960,"ru":3961,"##visjon":3962,"økonomi":3963,"##veien":3964,"real":3965,"##ologisk":3966,"plasser":3967,"vok":3968,"##uer":3969,"##late":3970,"mobil":3971,"endringer":3972,"##isjonen":3973,"##person":3974,"hin":3975,"filmen":3976,"fu":3977,"setter":3978,"ital":3979,"godkj":3980,"versjon":3981,"##ebo":3982,"##ssy":3983,"velger":3984,"album":3985,"##annet":3986,"oppg":3987,"##of":3988,"vek":3989,"felt":3990,"##utvikling":3991,"##delt":3992,"glad":3993,"morgen":3994,"hum":3995,"##lit":3996,"##aland":3997,"##ruktur":3998,"sider":3999,"##leve":4000,"olje":4001,"jobbe":4002,"uk":4003,"nærmere":4004,"organisasjon":4005,"virksomhet":4006,"##ifter":4007,"##ph":4008,"san":4009,"ellers":4010,"nemlig":4011,"##ns":4012,"klær":4013,"muligheter":4014,"sikkert":4015,"vite":4016,"##igur":4017,"##eleg":4018,"kombin":4019,"privat":4020,"ident":4021,"kostnad":4022,"snart":4023,"skyld":4024,"##ighetene":4025,"fylke":4026,"kampen":4027,"distri":4028,"##tert":4029,"trykk":4030,"klokke":4031,"##abil":4032,"størr":4033,"##ith":4034,"muligheten":4035,"gruppe":4036,"billig":4037,"##stein":4038,"bildet":4039,"norm":4040,"produkter":4041,"venstre":4042,"tø":4043,"##sler":4044,"stein":4045,"##ytter":4046,"fine":4047,"fremtid":4048,"resten":4049,"budsjett":4050,"##sg":4051,"##iz":4052,"stille":4053,"##mende":4054,"##itte":4055,"fro":4056,"defin":4057,"sammenlig":4058,"##ko":4059,"##isen":4060,"2006":4061,"arsak":4062,"eskorte":4063,"##ellen":4064,"##anlegg":4065,"endelig":4066,"##øv":4067,"kalt":4068,"henhold":4069,"frank":4070,"rev":4071,"##kka":4072,"fiske":4073,"omfatt":4074,"##apen":4075,"stri":4076,"##atert":4077,"ir":4078,"fart":4079,"skil":4080,"styrke":4081,"vist":4082,"meget":4083,"##inget":4084,"forskjell":4085,"dato":4086,"facebo":4087,"##eres":4088,"##sty":4089,"moderne":4090,"neg":4091,"standard":4092,"helst":4093,"##istikk":4094,"artikk":4095,"fører":4096,"føler":4097,"tusen":4098,"sang":4099,"høst":4100,"milit":4101,"begrens":4102,"yr":4103,"krever":4104,"##ment":4105,"prem":4106,"##odet":4107,"gjeld":4108,"##isme":4109,"##eland":4110,"slekt":4111,"deltok":4112,"kommunikasjon":4113,"##rep":4114,"can":4115,"##fly":4116,"sentrum":4117,"##jed":4118,"##vare":4119,"##ah":4120,"tydelig":4121,"hvilken":4122,"forhand":4123,"opptatt":4124,"fyr":4125,"##foren":4126,"bøker":4127,"kjæreste":4128,"##ich":4129,"##aret":4130,"tyskland":4131,"passer":4132,"amerikanske":4133,"engelsk":4134,"##mon":4135,"forl":4136,"lan":4137,"resultater":4138,"##ama":4139,"##vand":4140,"ed":4141,"31":4142,"forsik":4143,"midler":4144,"##aks":4145,"##plassen":4146,"lange":4147,"kurs":4148,"hovedsak":4149,"tjeneste":4150,"søndag":4151,"##ielle":4152,"##setning":4153,"burde":4154,"totalt":4155,"sti":4156,"vurdering":4157,"##irk":4158,"##spe":4159,"spillet":4160,"brukere":4161,"inkludert":4162,"##bare":4163,"sendt":4164,"##følgelig":4165,"##skolen":4166,"190":4167,"slo":4168,"fang":4169,"##byg":4170,"team":4171,"tol":4172,"trygg":4173,"malet":4174,"##igheten":4175,"sitter":4176,"avtale":4177,"hud":4178,"##ikere":4179,"ene":4180,"selve":4181,"hverdag":4182,"oms":4183,"kateg":4184,"unnga":4185,"sammenheng":4186,"fantastisk":4187,"time":4188,"##middel":4189,"turen":4190,"ledd":4191,"relig":4192,"##spunktet":4193,"##allen":4194,"selvfølgelig":4195,"sesongen":4196,"##lende":4197,"tekst":4198,"facebook":4199,"dele":4200,"sat":4201,"kropp":4202,"##jema":4203,"virke":4204,"vert":4205,"utvid":4206,"brans":4207,"bilen":4208,"klare":4209,"svart":4210,"riks":4211,"nettopp":4212,"##uss":4213,"øk":4214,"spilte":4215,"2005":4216,"prøver":4217,"pensjon":4218,"##iør":4219,"##førte":4220,"indiv":4221,"delta":4222,"##istisk":4223,"utviklingen":4224,"interv":4225,"bereg":4226,"john":4227,"##deles":4228,"##ena":4229,"##likk":4230,"forfatter":4231,"##mb":4232,"erst":4233,"brukte":4234,"europe":4235,"##kjøp":4236,"##øyt":4237,"fir":4238,"virksom":4239,"##livet":4240,"sentral":4241,"press":4242,"##20":4243,"berg":4244,"qu":4245,"profesjon":4246,"rolle":4247,"##sse":4248,"##nere":4249,"gjennomsnitt":4250,"høsten":4251,"port":4252,"meng":4253,"ni":4254,"ku":4255,"lands":4256,"drøm":4257,"##felt":4258,"etabler":4259,"arbeidsm":4260,"varme":4261,"##urnal":4262,"sign":4263,"muse":4264,"datingside":4265,"##ensen":4266,"kolle":4267,"jern":4268,"##nende":4269,"skikk":4270,"kob":4271,"sesong":4272,"medier":4273,"##unde":4274,"forut":4275,"dame":4276,"hjelper":4277,"##ska":4278,"merke":4279,"gangen":4280,"resultat":4281,"rob":4282,"bord":4283,"forsø":4284,"##ident":4285,"nt":4286,"krev":4287,"fredag":4288,"jakt":4289,"meste":4290,"elektron":4291,"##bygging":4292,"middel":4293,"institusjon":4294,"##essen":4295,"trafikk":4296,"##legging":4297,"ves":4298,"pap":4299,"veil":4300,"dr":4301,"reseptfritt":4302,"kunder":4303,"saks":4304,"##enning":4305,"verktøy":4306,"##vnte":4307,"betydning":4308,"apnet":4309,"##radene":4310,"##ork":4311,"etablert":4312,"klubben":4313,"nam":4314,"ring":4315,"##leder":4316,"legges":4317,"grunnlegg":4318,"nettet":4319,"alene":4320,"##holdt":4321,"##aling":4322,"ander":4323,"##somt":4324,"forrige":4325,"skrev":4326,"##ish":4327,"con":4328,"sende":4329,"##siktig":4330,"mannen":4331,"deb":4332,"35":4333,"##rivil":4334,"rele":4335,"##aget":4336,"lengre":4337,"tal":4338,"##avn":4339,"##lipp":4340,"løsninger":4341,"##my":4342,"mennesk":4343,"oppgaver":4344,"amb":4345,"##enterte":4346,"opplæring":4347,"##valget":4348,"##ania":4349,"##ins":4350,"autom":4351,"innte":4352,"##yttes":4353,"abs":4354,"##leie":4355,"lettere":4356,"naken":4357,"utb":4358,"2000":4359,"type":4360,"mart":4361,"dessuten":4362,"##asen":4363,"stol":4364,"##dem":4365,"ii":4366,"danmark":4367,"invit":4368,"leverand":4369,"##fte":4370,"saker":4371,"pat":4372,"blom":4373,"organisasjoner":4374,"##nær":4375,"##styret":4376,"kol":4377,"titt":4378,"snø":4379,"besl":4380,"nø":4381,"free":4382,"spor":4383,"##pris":4384,"##drag":4385,"høye":4386,"##serv":4387,"vm":4388,"##ktør":4389,"resta":4390,"##fest":4391,"kos":4392,"##alder":4393,"bank":4394,"betale":4395,"##eri":4396,"terr":4397,"##ringer":4398,"jes":4399,"##ettes":4400,"fal":4401,"ful":4402,"##enterer":4403,"forvalt":4404,"sannsynlig":4405,"interesse":4406,"overt":4407,"bom":4408,"personlig":4409,"hensyn":4410,"##oder":4411,"fungerer":4412,"oppfølg":4413,"##organis":4414,"##istiske":4415,"gruppen":4416,"ivar":4417,"publik":4418,"##oren":4419,"##hver":4420,"##ines":4421,"vedlike":4422,"##varer":4423,"stoff":4424,"elevene":4425,"boken":4426,"hygg":4427,"nasjonale":4428,"##lar":4429,"neder":4430,"formid":4431,"##len":4432,"bre":4433,"gift":4434,"markeds":4435,"##behandling":4436,"##rives":4437,"opplysninger":4438,"huset":4439,"sjeld":4440,"hem":4441,"innebærer":4442,"jap":4443,"hei":4444,"##ers":4445,"tenker":4446,"##dat":4447,"##era":4448,"##huset":4449,"bidrar":4450,"gis":4451,"snakke":4452,"skip":4453,"overra":4454,"##aen":4455,"elever":4456,"innov":4457,"oppst":4458,"ara":4459,"klarer":4460,"nei":4461,"nummer":4462,"##iserer":4463,"prior":4464,"##qu":4465,"80":4466,"##ogn":4467,"politiske":4468,"##imot":4469,"elsker":4470,"##rale":4471,"vurdere":4472,"datter":4473,"nettstedet":4474,"programmet":4475,"##ologiske":4476,"inntil":4477,"flyttet":4478,"høg":4479,"partner":4480,"sig":4481,"seier":4482,"kvalif":4483,"tilfeller":4484,"drikke":4485,"##slin":4486,"##forhold":4487,"##øye":4488,"lat":4489,"##verre":4490,"##prosje":4491,"##edag":4492,"refer":4493,"omrade":4494,"##forsk":4495,"tab":4496,"gjeng":4497,"analy":4498,"ødel":4499,"frivil":4500,"nrk":4501,"typer":4502,"lond":4503,"##ana":4504,"##mt":4505,"sterkt":4506,"##skl":4507,"ska":4508,"restaur":4509,"formal":4510,"##enfor":4511,"70":4512,"189":4513,"høyde":4514,"verdi":4515,"skjul":4516,"##enting":4517,"##fekt":4518,"stilling":4519,"starter":4520,"godkjent":4521,"##olusjon":4522,"##vok":4523,"##ifte":4524,"folket":4525,"avhengig":4526,"uttrykk":4527,"##gene":4528,"##kkelig":4529,"samfunnet":4530,"##kjør":4531,"nyheter":4532,"rapporter":4533,"vari":4534,"tilsvarende":4535,"øker":4536,"omsorg":4537,"bære":4538,"dob":4539,"vanligvis":4540,"tvil":4541,"sexy":4542,"ori":4543,"500":4544,"##mu":4545,"forh":4546,"sterke":4547,"##ote":4548,"utover":4549,"##ski":4550,"økonomisk":4551,"##lege":4552,"heldig":4553,"virker":4554,"##melig":4555,"prest":4556,"##vann":4557,"glo":4558,"##forbund":4559,"flotte":4560,"##onn":4561,"##fort":4562,"##enta":4563,"reguler":4564,"##atiske":4565,"private":4566,"arrangem":4567,"rut":4568,"##ligere":4569,"##rid":4570,"##inister":4571,"fornøyd":4572,"##hvert":4573,"kjæresten":4574,"spillere":4575,"journal":4576,"smak":4577,"##øver":4578,"wil":4579,"##stillinger":4580,"lager":4581,"populære":4582,"deil":4583,"##vek":4584,"sov":4585,"lavere":4586,"##ffer":4587,"aker":4588,"##onse":4589,"butikk":4590,"##jenester":4591,"2004":4592,"##stendig":4593,"bekre":4594,"##itra":4595,"tver":4596,"hopp":4597,"london":4598,"rør":4599,"##gn":4600,"sagt":4601,"integ":4602,"##peratur":4603,"ettersom":4604,"##kort":4605,"individ":4606,"isra":4607,"##gangen":4608,"generelt":4609,"oppfyl":4610,"##tteratur":4611,"delen":4612,"bestemt":4613,"anled":4614,"##spil":4615,"##skri":4616,"escort":4617,"##riks":4618,"kjøkken":4619,"sek":4620,"##utd":4621,"omtr":4622,"grupper":4623,"eksister":4624,"##venn":4625,"konsekvens":4626,"##ben":4627,"økonomiske":4628,"sw":4629,"invester":4630,"yngre":4631,"farge":4632,"##bladet":4633,"foreg":4634,"##slaget":4635,"##ekte":4636,"registrert":4637,"##kkene":4638,"valgte":4639,"studie":4640,"boka":4641,"markedet":4642,"hvit":4643,"skrift":4644,"makt":4645,"utgjør":4646,"skjedde":4647,"oppdater":4648,"alternativ":4649,"##vist":4650,"45":4651,"aktiviteter":4652,"##kast":4653,"periode":4654,"jf":4655,"endre":4656,"fortsette":4657,"##onom":4658,"afri":4659,"slags":4660,"opt":4661,"und":4662,"punkt":4663,"prote":4664,"begynne":4665,"serien":4666,"##rense":4667,"malt":4668,"fore":4669,"starte":4670,"##isjoner":4671,"kontrol":4672,"skade":4673,"stjer":4674,"resultatet":4675,"##yrk":4676,"regjering":4677,"##enet":4678,"politisk":4679,"##ose":4680,"avvik":4681,"##ida":4682,"ønske":4683,"##byen":4684,"utfordringer":4685,"eli":4686,"##kring":4687,"##ønn":4688,"##cc":4689,"sukker":4690,"tyske":4691,"skatt":4692,"gjennomføre":4693,"varen":4694,"inspir":4695,"omtrent":4696,"##ias":4697,"##mester":4698,"studenter":4699,"##mod":4700,"overfor":4701,"opphold":4702,"thai":4703,"##ash":4704,"tilkn":4705,"##egn":4706,"enkle":4707,"##apotek":4708,"jule":4709,"##former":4710,"redusere":4711,"mist":4712,"jon":4713,"energ":4714,"spise":4715,"skol":4716,"styre":4717,"potens":4718,"##engt":4719,"jobbet":4720,"akse":4721,"##iti":4722,"teknologi":4723,"##iks":4724,"##gte":4725,"wh":4726,"glem":4727,"gard":4728,"student":4729,"senter":4730,"##ure":4731,"cm":4732,"osv":4733,"ale":4734,"##uft":4735,"##ømme":4736,"sjekke":4737,"##ørs":4738,"aner":4739,"fortelle":4740,"##iell":4741,"klarte":4742,"##its":4743,"øvrige":4744,"##full":4745,"##mannen":4746,"##fyl":4747,"##ix":4748,"kjøpt":4749,"opplever":4750,"heter":4751,"rik":4752,"bos":4753,"material":4754,"feng":4755,"farger":4756,"##gaende":4757,"##melding":4758,"##rapp":4759,"##hjel":4760,"forret":4761,"##ros":4762,"##gere":4763,"handling":4764,"##vei":4765,"nettapotek":4766,"##ius":4767,"##arder":4768,"##ollen":4769,"vinner":4770,"ansvarlig":4771,"##iteten":4772,"arbeidst":4773,"##øtet":4774,"##vant":4775,"##stemet":4776,"betydelig":4777,"enhver":4778,"##srett":4779,"##xx":4780,"sjekk":4781,"utsatt":4782,"glede":4783,"not":4784,"oppleve":4785,"bloggen":4786,"derimot":4787,"##ffet":4788,"div":4789,"kommunene":4790,"spilt":4791,"figur":4792,"##ians":4793,"##oc":4794,"##asset":4795,"##jet":4796,"vanlige":4797,"russland":4798,"dav":4799,"##okrat":4800,"##til":4801,"##ton":4802,"driver":4803,"tas":4804,"slatt":4805,"innvand":4806,"undersøkelse":4807,"risiko":4808,"sommeren":4809,"administrasjon":4810,"##synet":4811,"##laget":4812,"førte":4813,"hodet":4814,"klasse":4815,"90":4816,"##olf":4817,"##ac":4818,"dessverre":4819,"##au":4820,"siv":4821,"toppen":4822,"konkurranse":4823,"##veis":4824,"jobben":4825,"fritid":4826,"vind":4827,"skikkelig":4828,"ras":4829,"suks":4830,"##sagt":4831,"rim":4832,"mam":4833,"høyeste":4834,"##jef":4835,"##ight":4836,"slikt":4837,"sentrale":4838,"##skrig":4839,"viten":4840,"president":4841,"##ansvar":4842,"spr":4843,"lun":4844,"##runn":4845,"forber":4846,"188":4847,"england":4848,"##vest":4849,"vekst":4850,"##ved":4851,"##oritter":4852,"karakter":4853,"tel":4854,"forskrift":4855,"##imal":4856,"enklere":4857,"vg":4858,"sant":4859,"##dde":4860,"ytterligere":4861,"unna":4862,"satte":4863,"##delingen":4864,"motstand":4865,"ekteskap":4866,"##emid":4867,"perfekt":4868,"oppfølging":4869,"##mo":4870,"cl":4871,"spar":4872,"bland":4873,"greit":4874,"##mest":4875,"smer":4876,"krigen":4877,"kjøper":4878,"##sken":4879,"gutter":4880,"lege":4881,"son":4882,"##ften":4883,"utført":4884,"sunn":4885,"##ales":4886,"bildene":4887,"##asjonene":4888,"forholdet":4889,"hjerte":4890,"##irasjon":4891,"møtte":4892,"##atør":4893,"fortsetter":4894,"russiske":4895,"rapport":4896,"##vs":4897,"situasjonen":4898,"##gave":4899,"##band":4900,"col":4901,"##ssel":4902,"skuesp":4903,"##bas":4904,"##polit":4905,"tim":4906,"levitra":4907,"bef":4908,"rygg":4909,"arg":4910,"##stoff":4911,"##spart":4912,"we":4913,"prisen":4914,"bestemm":4915,"##uk":4916,"##asjer":4917,"kron":4918,"##bane":4919,"nevnt":4920,"casino":4921,"vedlikehold":4922,"ill":4923,"klima":4924,"møtet":4925,"favoritter":4926,"elem":4927,"##fordr":4928,"invol":4929,"##parten":4930,"##olutt":4931,"grunnleggende":4932,"##ada":4933,"##ach":4934,"##jenesten":4935,"##sstil":4936,"publikum":4937,"##ssen":4938,"##urg":4939,"frankrike":4940,"##eliv":4941,"##stemer":4942,"utn":4943,"universitetet":4944,"oppna":4945,"filmer":4946,"utgangspunkt":4947,"tj":4948,"##attet":4949,"normalt":4950,"##iger":4951,"fullt":4952,"vedtatt":4953,"utgitt":4954,"hundre":4955,"tilsyn":4956,"historien":4957,"arkite":4958,"##ple":4959,"israel":4960,"fug":4961,"maskin":4962,"spesif":4963,"general":4964,"verk":4965,"regler":4966,"voksen":4967,"prinsi":4968,"mandag":4969,"pc":4970,"##legge":4971,"##orden":4972,"trener":4973,"menneske":4974,"sja":4975,"øyeb":4976,"##ereg":4977,"gran":4978,"##klær":4979,"kirken":4980,"begynnelsen":4981,"relativt":4982,"røy":4983,"##omradet":4984,"sim":4985,"##asjons":4986,"pan":4987,"debatt":4988,"mic":4989,"2003":4990,"##50":4991,"##itter":4992,"##mat":4993,"avgjørende":4994,"disp":4995,"##aren":4996,"endret":4997,"intervju":4998,"innbyggere":4999,"torsdag":5000,"wor":5001,"##borg":5002,"klikk":5003,"you":5004,"benyttes":5005,"goog":5006,"##stø":5007,"bjørn":5008,"kategor":5009,"egg":5010,"##edlem":5011,"##sminister":5012,"konkl":5013,"homo":5014,"##app":5015,"##th":5016,"velkom":5017,"##ors":5018,"varer":5019,"vakre":5020,"##etøy":5021,"nev":5022,"##merket":5023,"opprettet":5024,"digit":5025,"##æren":5026,"systemet":5027,"tromsø":5028,"nettsted":5029,"endring":5030,"##utning":5031,"##atning":5032,"atte":5033,"##ms":5034,"##tering":5035,"svenske":5036,"absolutt":5037,"utenland":5038,"kraftig":5039,"strand":5040,"reiser":5041,"vitenskap":5042,"vol":5043,"oppdatert":5044,"##alene":5045,"bedrifter":5046,"##zz":5047,"##ansert":5048,"videoer":5049,"##kost":5050,"300":5051,"pen":5052,"ment":5053,"karri":5054,"af":5055,"retningslin":5056,"##andid":5057,"ivaret":5058,"jur":5059,"beskriv":5060,"##ica":5061,"just":5062,"ingenting":5063,"tann":5064,"##somme":5065,"sykkel":5066,"##skj":5067,"##ung":5068,"diskusjon":5069,"##svis":5070,"##resse":5071,"##erv":5072,"match":5073,"##ærende":5074,"sur":5075,"øya":5076,"innsats":5077,"utdan":5078,"statens":5079,"hyggelig":5080,"spørsmalet":5081,"produkt":5082,"nes":5083,"anne":5084,"haug":5085,"nordmenn":5086,"overv":5087,"tir":5088,"norway":5089,"##sopp":5090,"##iler":5091,"omt":5092,"##ick":5093,"kjenn":5094,"au":5095,"##terte":5096,"##aring":5097,"bygd":5098,"stund":5099,"stortinget":5100,"##kan":5101,"glob":5102,"respe":5103,"gje":5104,"kvelden":5105,"utform":5106,"christian":5107,"##skont":5108,"kjører":5109,"##undersøk":5110,"øver":5111,"arbeidsgiver":5112,"opps":5113,"ekst":5114,"forp":5115,"uavhengig":5116,"ford":5117,"##ars":5118,"skaper":5119,"mester":5120,"kommuner":5121,"kop":5122,"##ometer":5123,"nordland":5124,"oppdaget":5125,"##ørene":5126,"selvsagt":5127,"treng":5128,"##instit":5129,"bestemte":5130,"arsm":5131,"detalj":5132,"##kal":5133,"##oritt":5134,"##departementet":5135,"##sson":5136,"offis":5137,"videreg":5138,"peng":5139,"omfattende":5140,"##ørt":5141,"gøy":5142,"leil":5143,"mangler":5144,"erfaringer":5145,"##sbe":5146,"profess":5147,"fysisk":5148,"fremst":5149,"attra":5150,"straff":5151,"politikk":5152,"sub":5153,"bad":5154,"##dt":5155,"utl":5156,"stemmer":5157,"opprinnelig":5158,"##stillingen":5159,"eld":5160,"##ettet":5161,"avtalen":5162,"eval":5163,"omkring":5164,"videregaende":5165,"187":5166,"##edning":5167,"hell":5168,"forsknings":5169,"tanke":5170,"retten":5171,"##ekom":5172,"musk":5173,"seri":5174,"konkret":5175,"bist":5176,"vilkar":5177,"##risk":5178,"##anten":5179,"ole":5180,"lignende":5181,"tilstand":5182,"kna":5183,"tilrett":5184,"kjøtt":5185,"live":5186,"sølv":5187,"up":5188,"storb":5189,"##unst":5190,"strateg":5191,"møtt":5192,"oppgave":5193,"motiv":5194,"nat":5195,"set":5196,"kristians":5197,"underhold":5198,"ligg":5199,"rot":5200,"stam":5201,"priser":5202,"beskri":5203,"tillit":5204,"2001":5205,"kjempe":5206,"tilstre":5207,"merk":5208,"mm":5209,"parker":5210,"lei":5211,"##kjente":5212,"##saker":5213,"hardt":5214,"fotograf":5215,"male":5216,"varier":5217,"##tekn":5218,"unntak":5219,"omfatter":5220,"mc":5221,"enhet":5222,"bidrag":5223,"gleder":5224,"utvikler":5225,"imot":5226,"politi":5227,"last":5228,"temperatur":5229,"36":5230,"svensk":5231,"sjef":5232,"indre":5233,"##ls":5234,"##miljø":5235,"nylig":5236,"albumet":5237,"##idrett":5238,"aktuelle":5239,"svarte":5240,"borte":5241,"regnskap":5242,"##atelse":5243,"##eler":5244,"snakker":5245,"kontin":5246,"pluts":5247,"##arar":5248,"tilh":5249,"utbred":5250,"##sle":5251,"bandet":5252,"nærheten":5253,"opplevelse":5254,"trønd":5255,"##uren":5256,"vapen":5257,"umiddel":5258,"##ittel":5259,"bunn":5260,"fremdeles":5261,"ledelse":5262,"kvart":5263,"##mus":5264,"skul":5265,"rommet":5266,"digital":5267,"pasienter":5268,"sørge":5269,"ww":5270,"tilfred":5271,"presse":5272,"sammens":5273,"bekym":5274,"nil":5275,"##des":5276,"kryss":5277,"trinn":5278,"stab":5279,"##stet":5280,"staten":5281,"spania":5282,"ordet":5283,"##strøm":5284,"##nummer":5285,"##ape":5286,"##fjell":5287,"##riske":5288,"##ante":5289,"apner":5290,"kjærligheten":5291,"2002":5292,"##handel":5293,"onsdag":5294,"186":5295,"mad":5296,"kina":5297,"effekt":5298,"hører":5299,"trekke":5300,"inspirasjon":5301,"ressurser":5302,"dep":5303,"dikt":5304,"benytte":5305,"fredrik":5306,"##hund":5307,"##als":5308,"litteratur":5309,"len":5310,"mente":5311,"trolig":5312,"storbrit":5313,"##plasser":5314,"forsikring":5315,"modell":5316,"jesus":5317,"kristne":5318,"sildenafil":5319,"kjend":5320,"##verks":5321,"sit":5322,"salt":5323,"nyhet":5324,"vinne":5325,"##arn":5326,"with":5327,"storbritann":5328,"uken":5329,"##kor":5330,"kast":5331,"trøndelag":5332,"hor":5333,"##gatt":5334,"bill":5335,"husk":5336,"forvent":5337,"google":5338,"##sto":5339,"deilig":5340,"forbund":5341,"status":5342,"##sprosje":5343,"endte":5344,"##adal":5345,"tilt":5346,"samle":5347,"selger":5348,"suksess":5349,"opply":5350,"##skiner":5351,"##skriv":5352,"plutselig":5353,"oven":5354,"dagbladet":5355,"olav":5356,"##bord":5357,"beskjed":5358,"##øn":5359,"hvite":5360,"hed":5361,"gjenoppretting":5362,"skad":5363,"avdeling":5364,"befolkningen":5365,"interessant":5366,"papir":5367,"mening":5368,"kreft":5369,"##sprogram":5370,"##omrader":5371,"bevisst":5372,"tog":5373,"gri":5374,"##ika":5375,"##fot":5376,"##ikler":5377,"##sil":5378,"intro":5379,"hil":5380,"##ange":5381,"resultatene":5382,"stod":5383,"nedenfor":5384,"vises":5385,"typ":5386,"uh":5387,"yrkes":5388,"rog":5389,"32":5390,"løsning":5391,"bibli":5392,"læring":5393,"tw":5394,"##ott":5395,"merket":5396,"kalles":5397,"##ktive":5398,"maks":5399,"innom":5400,"##pr":5401,"##ank":5402,"him":5403,"studier":5404,"internasjonal":5405,"##stru":5406,"personlige":5407,"interesser":5408,"hentet":5409,"vente":5410,"eksempler":5411,"roman":5412,"interiør":5413,"situasjon":5414,"sitte":5415,"kamper":5416,"##urder":5417,"pil":5418,"spesielle":5419,"##histor":5420,"##ikal":5421,"ledet":5422,"verdt":5423,"odd":5424,"##aksjon":5425,"don":5426,"gjer":5427,"vannet":5428,"arbeide":5429,"forbruker":5430,"supp":5431,"rettigheter":5432,"britiske":5433,"oppmerksomhet":5434,"##etten":5435,"utgangspunktet":5436,"lek":5437,"list":5438,"##essige":5439,"forest":5440,"##spiller":5441,"##kamp":5442,"##lede":5443,"kontaktann":5444,"spra":5445,"symp":5446,"##akere":5447,"praktisk":5448,"##tere":5449,"identif":5450,"helg":5451,"kontrakt":5452,"pasient":5453,"##stemm":5454,"nm":5455,"##nevnte":5456,"kompl":5457,"oppmerksom":5458,"kines":5459,"gal":5460,"##atikk":5461,"##nem":5462,"master":5463,"##ømt":5464,"tirsdag":5465,"##jeneste":5466,"anbefaler":5467,"redusert":5468,"ramme":5469,"desig":5470,"seng":5471,"prosessen":5472,"problemet":5473,"dann":5474,"##han":5475,"hente":5476,"##prø":5477,"brev":5478,"benyttet":5479,"eventuelt":5480,"##iteen":5481,"##oter":5482,"hit":5483,"heldigvis":5484,"medarbeid":5485,"drive":5486,"##gjort":5487,"##stedet":5488,"##fart":5489,"##butikk":5490,"ansatt":5491,"##redning":5492,"middag":5493,"##kommende":5494,"skriv":5495,"##ionen":5496,"##entering":5497,"##kkende":5498,"33":5499,"starten":5500,"venter":5501,"konser":5502,"prosess":5503,"##fa":5504,"thom":5505,"##shus":5506,"vennskap":5507,"favoritt":5508,"##asitet":5509,"anna":5510,"##ikkerhet":5511,"brø":5512,"www":5513,"island":5514,"forsker":5515,"##punkt":5516,"apent":5517,"fremover":5518,"størrelse":5519,"tilhør":5520,"alvorlig":5521,"op":5522,"gjeldende":5523,"amerikansk":5524,"orig":5525,"##telse":5526,"internasjonalt":5527,"forstaelse":5528,"kjøpte":5529,"kristian":5530,"ør":5531,"spis":5532,"##produksjon":5533,"media":5534,"arrangert":5535,"besøke":5536,"sats":5537,"##bruks":5538,"storbritannia":5539,"##gruppen":5540,"jevn":5541,"nettverk":5542,"##ningsm":5543,"##jøen":5544,"rapporten":5545,"angrep":5546,"tenkt":5547,"sold":5548,"foreldrene":5549,"##havn":5550,"##uter":5551,"uly":5552,"ball":5553,"annonser":5554,"##stud":5555,"løse":5556,"tilskudd":5557,"fritt":5558,"##klam":5559,"##ogen":5560,"##eth":5561,"peter":5562,"jam":5563,"uttry":5564,"teknisk":5565,"##sti":5566,"total":5567,"faglig":5568,"##ssp":5569,"ferie":5570,"1990":5571,"cup":5572,"##brudd":5573,"former":5574,"##irca":5575,"##iat":5576,"drept":5577,"tegn":5578,"org":5579,"munn":5580,"konstru":5581,"fylkeskom":5582,"sens":5583,"arbeidspl":5584,"mote":5585,"park":5586,"paul":5587,"##apt":5588,"vent":5589,"fla":5590,"mamma":5591,"##ita":5592,"helhet":5593,"erik":5594,"dagene":5595,"ukjent":5596,"glass":5597,"##hl":5598,"nest":5599,"##iseres":5600,"bydel":5601,"flest":5602,"fær":5603,"støtt":5604,"arkiv":5605,"mi":5606,"##rest":5607,"homofil":5608,"##tom":5609,"innovasjon":5610,"interessert":5611,"lis":5612,"liste":5613,"jentene":5614,"nyte":5615,"organisasjonen":5616,"radio":5617,"myndigheter":5618,"##ander":5619,"informasjonen":5620,"tadal":5621,"400":5622,"konsert":5623,"tadalafil":5624,"eid":5625,"landets":5626,"hjemmes":5627,"##messig":5628,"falt":5629,"##mot":5630,"##iteter":5631,"løy":5632,"##ior":5633,"kjenne":5634,"forbud":5635,"runde":5636,"prim":5637,"fett":5638,"##ley":5639,"##opplys":5640,"konkurr":5641,"planen":5642,"konsent":5643,"enor":5644,"myk":5645,"adc":5646,"forand":5647,"##lim":5648,"ki":5649,"spørre":5650,"innholdet":5651,"char":5652,"arranger":5653,"##dating":5654,"plast":5655,"adcirca":5656,"johan":5657,"publisert":5658,"##niva":5659,"dial":5660,"austral":5661,"demokrat":5662,"europeiske":5663,"##omrade":5664,"kle":5665,"erotiske":5666,"##tegi":5667,"tale":5668,"##program":5669,"fremme":5670,"verdenskrig":5671,"lam":5672,"leser":5673,"kunstner":5674,"fransk":5675,"møn":5676,"avstand":5677,"##agelig":5678,"virksomheten":5679,"planer":5680,"tilstrekkelig":5681,"areal":5682,"enna":5683,"ført":5684,"teater":5685,"##inter":5686,"frukt":5687,"italia":5688,"biler":5689,"nærme":5690,"##rekk":5691,"york":5692,"revolusjon":5693,"##edagog":5694,"skar":5695,"skjedd":5696,"driv":5697,"institutt":5698,"etterhvert":5699,"røde":5700,"illust":5701,"hotellet":5702,"posisjon":5703,"##likter":5704,"##ynd":5705,"##øyde":5706,"##ledes":5707,"avis":5708,"fjerne":5709,"kra":5710,"eksisterende":5711,"velkommen":5712,"origin":5713,"professor":5714,"møt":5715,"##iens":5716,"festiv":5717,"avg":5718,"##yen":5719,"paris":5720,"##klubb":5721,"##beh":5722,"##hjem":5723,"undersøkelsen":5724,"##økene":5725,"##mor":5726,"stats":5727,"samling":5728,"formann":5729,"##angen":5730,"beløp":5731,"##nor":5732,"oppe":5733,"vardenafil":5734,"arlig":5735,"##mas":5736,"flytte":5737,"turner":5738,"sag":5739,"revisjon":5740,"foreløp":5741,"rimelig":5742,"ordin":5743,"34":5744,"nakne":5745,"mol":5746,"digitale":5747,"##veks":5748,"planlegg":5749,"##enteret":5750,"##skil":5751,"barnehage":5752,"undersø":5753,"##stin":5754,"franske":5755,"stiller":5756,"##hjelp":5757,"produsert":5758,"artikkelen":5759,"kul":5760,"blei":5761,"føle":5762,"trekk":5763,"arter":5764,"økte":5765,"johann":5766,"##tok":5767,"kred":5768,"fantastiske":5769,"klin":5770,"kjøretøy":5771,"##unkter":5772,"rekru":5773,"hjert":5774,"martin":5775,"valget":5776,"tekniske":5777,"cam":5778,"##fi":5779,"##aket":5780,"bodde":5781,"##ura":5782,"nettsiden":5783,"andel":5784,"##beg":5785,"vindu":5786,"01":5787,"havet":5788,"alko":5789,"fru":5790,"gass":5791,"##ics":5792,"benytter":5793,"##gruppe":5794,"laste":5795,"sum":5796,"listen":5797,"arkitekt":5798,"##abel":5799,"skader":5800,"##natt":5801,"##grepet":5802,"grunnen":5803,"server":5804,"plassert":5805,"forum":5806,"##esser":5807,"symb":5808,"anledning":5809,"##ction":5810,"gjennomføring":5811,"##bisk":5812,"undervisning":5813,"##sar":5814,"ryd":5815,"##skog":5816,"sju":5817,"oppfordr":5818,"skyldes":5819,"ok":5820,"##ctor":5821,"##sene":5822,"minne":5823,"priorit":5824,"handel":5825,"tenkte":5826,"flykt":5827,"igjennom":5828,"stress":5829,"alkohol":5830,"ekstrem":5831,"##che":5832,"positive":5833,"##ktoratet":5834,"##utvalget":5835,"vivan":5836,"guds":5837,"##alla":5838,"##mede":5839,"cont":5840,"tanker":5841,"fan":5842,"##aut":5843,"vivanza":5844,"sektor":5845,"lars":5846,"apning":5847,"knut":5848,"begre":5849,"bol":5850,"##istene":5851,"jød":5852,"trenings":5853,"##stav":5854,"kilometer":5855,"##smessig":5856,"##ld":5857,"##banen":5858,"funksjoner":5859,"##inge":5860,"##kob":5861,"kandid":5862,"brød":5863,"tjenesten":5864,"konge":5865,"kamera":5866,"##resjon":5867,"gjest":5868,"##gjer":5869,"fjerde":5870,"selskaper":5871,"sentr":5872,"midten":5873,"skatte":5874,"##urte":5875,"##rettet":5876,"##belt":5877,"##skriften":5878,"gjent":5879,"øvrig":5880,"bruken":5881,"advok":5882,"utse":5883,"byr":5884,"aktive":5885,"reklam":5886,"afrika":5887,"kg":5888,"tider":5889,"handle":5890,"##aser":5891,"dokumentasjon":5892,"evne":5893,"serie":5894,"kunde":5895,"##oven":5896,"camp":5897,"##ordin":5898,"automatisk":5899,"overrask":5900,"diagn":5901,"bakken":5902,"verdier":5903,"##skv":5904,"utlandet":5905,"treff":5906,"detaljer":5907,"settes":5908,"##bry":5909,"##yttelse":5910,"garden":5911,"karl":5912,"skjema":5913,"sakalte":5914,"begrenset":5915,"nasjonalt":5916,"tradisjonelle":5917,"forekom":5918,"regionen":5919,"nøya":5920,"##informasjon":5921,"solgt":5922,"##30":5923,"##edrag":5924,"##utte":5925,"##vekst":5926,"fekk":5927,"fare":5928,"grader":5929,"fab":5930,"lover":5931,"##formen":5932,"##iering":5933,"samsvar":5934,"struktur":5935,"nom":5936,"utarbeid":5937,"kø":5938,"omgang":5939,"1999":5940,"##grupper":5941,"krimin":5942,"direktør":5943,"##struktur":5944,"same":5945,"##ational":5946,"samarbeidet":5947,"##utstyr":5948,"##stat":5949,"faste":5950,"##aking":5951,"isl":5952,"batter":5953,"##budet":5954,"etc":5955,"##edes":5956,"##ellet":5957,"##føringen":5958,"##forening":5959,"##sels":5960,"##pene":5961,"skoler":5962,"orden":5963,"helgen":5964,"mill":5965,"##ua":5966,"kirk":5967,"forny":5968,"levere":5969,"solid":5970,"09":5971,"##egg":5972,"##nene":5973,"pengene":5974,"frisk":5975,"fortell":5976,"faren":5977,"veier":5978,"leie":5979,"forbedre":5980,"##fun":5981,"flert":5982,"umu":5983,"##kre":5984,"opphav":5985,"##annen":5986,"ansvaret":5987,"kontor":5988,"##stilt":5989,"giftet":5990,"##inen":5991,"##ssjef":5992,"ekster":5993,"##pan":5994,"synd":5995,"skjønnhet":5996,"ple":5997,"##ørende":5998,"##elly":5999,"ventet":6000,"air":6001,"sendes":6002,"##ismen":6003,"begrunn":6004,"nederland":6005,"##vide":6006,"nettsider":6007,"ledere":6008,"##sper":6009,"##antene":6010,"tit":6011,"##we":6012,"##unnet":6013,"smart":6014,"kyst":6015,"##har":6016,"stemme":6017,"karriere":6018,"mik":6019,"tenk":6020,"##oker":6021,"bygger":6022,"anner":6023,"1980":6024,"undert":6025,"gravid":6026,"boks":6027,"gen":6028,"utføre":6029,"hensikt":6030,"planlagt":6031,"vesentlig":6032,"##revisjon":6033,"ac":6034,"sosi":6035,"jac":6036,"##jert":6037,"maler":6038,"##endørs":6039,"vat":6040,"dyre":6041,"##ual":6042,"umiddelbart":6043,"undersøkelser":6044,"plu":6045,"##samling":6046,"gjennomføres":6047,"rol":6048,"matem":6049,"næring":6050,"##yrer":6051,"sein":6052,"materiale":6053,"avsluttet":6054,"kompon":6055,"provin":6056,"demon":6057,"##tiden":6058,"minste":6059,"snakket":6060,"##kam":6061,"pet":6062,"minim":6063,"utsikt":6064,"delvis":6065,"utvalget":6066,"sjelden":6067,"trene":6068,"aktører":6069,"##elefoner":6070,"etterpa":6071,"37":6072,"agder":6073,"komfort":6074,"klokken":6075,"vekk":6076,"bio":6077,"rent":6078,"sender":6079,"##oper":6080,"sovjet":6081,"skuespiller":6082,"invest":6083,"tilfelle":6084,"trygt":6085,"##hel":6086,"kristiansand":6087,"kne":6088,"##ament":6089,"partiet":6090,"underholdning":6091,"htt":6092,"##amen":6093,"trodde":6094,"øyn":6095,"datama":6096,"##skapene":6097,"iv":6098,"oly":6099,"ufor":6100,"retningslinjer":6101,"##post":6102,"danske":6103,"lokalt":6104,"inkluderer":6105,"##nede":6106,"aktivt":6107,"øster":6108,"forbered":6109,"##ya":6110,"sort":6111,"tilpasset":6112,"dialog":6113,"initi":6114,"omradene":6115,"##industri":6116,"peder":6117,"banen":6118,"mult":6119,"foresl":6120,"##sbru":6121,"##ringen":6122,"##eden":6123,"gate":6124,"fortsatte":6125,"2019":6126,"net":6127,"##folk":6128,"viss":6129,"redd":6130,"trans":6131,"##steder":6132,"##rikk":6133,"evalu":6134,"mistet":6135,"##ielt":6136,"kjørte":6137,"olymp":6138,"løpe":6139,"milliarder":6140,"bir":6141,"innkjøp":6142,"økning":6143,"xxx":6144,"ytre":6145,"argum":6146,"museum":6147,"velg":6148,"behovet":6149,"kilde":6150,"matt":6151,"kapittel":6152,"følg":6153,"1970":6154,"melding":6155,"artikkel":6156,"blomster":6157,"grenser":6158,"tyrk":6159,"bærekraft":6160,"38":6161,"annerledes":6162,"cook":6163,"firma":6164,"administrat":6165,"mek":6166,"##nader":6167,"##stander":6168,"##rings":6169,"oppstar":6170,"positiv":6171,"##partiet":6172,"inntekt":6173,"frig":6174,"##inert":6175,"##ta":6176,"vedlegg":6177,"italien":6178,"synlig":6179,"##ese":6180,"flytt":6181,"frist":6182,"##osisjon":6183,"##inder":6184,"religion":6185,"visste":6186,"mottatt":6187,"tilretteleg":6188,"eldste":6189,"##stede":6190,"arne":6191,"lest":6192,"opptak":6193,"spel":6194,"borger":6195,"alex":6196,"lurt":6197,"tildelt":6198,"cal":6199,"##sarbeid":6200,"1000":6201,"dvs":6202,"ær":6203,"ankom":6204,"foreløpig":6205,"syv":6206,"gave":6207,"##ellene":6208,"##ood":6209,"drø":6210,"##kap":6211,"fjellet":6212,"nu":6213,"symptom":6214,"fortalte":6215,"eksper":6216,"oppbe":6217,"dekk":6218,"økende":6219,"184":6220,"linje":6221,"mangel":6222,"konfer":6223,"sentralt":6224,"sannsynligvis":6225,"hovedsakelig":6226,"petter":6227,"religi":6228,"utø":6229,"romer":6230,"akershus":6231,"reng":6232,"##10":6233,"hurt":6234,"næringsliv":6235,"##sleder":6236,"asi":6237,"nyttig":6238,"fjern":6239,"engasjem":6240,"tilnær":6241,"##osof":6242,"ledende":6243,"##rop":6244,"##dagen":6245,"tidspunkt":6246,"psykisk":6247,"##esel":6248,"pus":6249,"dommer":6250,"##vene":6251,"##isp":6252,"##utdanning":6253,"forsv":6254,"##bon":6255,"naturen":6256,"forskjellig":6257,"preget":6258,"positivt":6259,"##ømmer":6260,"##sund":6261,"stal":6262,"stasjon":6263,"entre":6264,"lab":6265,"epis":6266,"obje":6267,"grund":6268,"øynene":6269,"##innet":6270,"understre":6271,"##bert":6272,"divisjon":6273,"##ligheter":6274,"hevder":6275,"##ona":6276,"støtter":6277,"ske":6278,"dyn":6279,"##ografi":6280,"##haug":6281,"city":6282,"thomas":6283,"scen":6284,"rettet":6285,"hvilket":6286,"etablere":6287,"##ford":6288,"##kninger":6289,"##vent":6290,"singel":6291,"opptil":6292,"##ykke":6293,"fullstendig":6294,"##ynt":6295,"idag":6296,"programmer":6297,"situasjoner":6298,"##ail":6299,"bonus":6300,"##sessen":6301,"##handler":6302,"75":6303,"levert":6304,"analyse":6305,"refle":6306,"behandlet":6307,"bri":6308,"##fug":6309,"umulig":6310,"fleire":6311,"varm":6312,"islam":6313,"loven":6314,"forelig":6315,"kvinnen":6316,"##arked":6317,"eventuelle":6318,"##slige":6319,"opplevelser":6320,"nødvendige":6321,"bransje":6322,"beskrevet":6323,"##sent":6324,"relasjoner":6325,"kommentar":6326,"##holm":6327,"##wer":6328,"korre":6329,"respekt":6330,"turist":6331,"mun":6332,"resp":6333,"spre":6334,"lot":6335,"eventyr":6336,"##okk":6337,"representerer":6338,"vinteren":6339,"utel":6340,"##ulere":6341,"militær":6342,"kongen":6343,"##etil":6344,"lykkes":6345,"korte":6346,"amatør":6347,"185":6348,"##nu":6349,"inform":6350,"barnehagen":6351,"##iseringen":6352,"##itar":6353,"39":6354,"enheter":6355,"##famil":6356,"selge":6357,"sjel":6358,"studer":6359,"begynt":6360,"butikken":6361,"nettdating":6362,"forvente":6363,"##dyr":6364,"operasjon":6365,"observ":6366,"pul":6367,"##ze":6368,"foruts":6369,"statsb":6370,"alli":6371,"nærmeste":6372,"bredt":6373,"innb":6374,"##ipp":6375,"rike":6376,"tilfredsstil":6377,"forhandling":6378,"gjens":6379,"##virksomhet":6380,"styrem":6381,"##verdi":6382,"##aden":6383,"handverk":6384,"##fjorden":6385,"følelser":6386,"##fisk":6387,"forst":6388,"forsøker":6389,"##aken":6390,"##ennelse":6391,"vurdert":6392,"##etning":6393,"fulgte":6394,"underveis":6395,"representerte":6396,"typen":6397,"utseende":6398,"relevant":6399,"forsiktig":6400,"utslipp":6401,"tilknyt":6402,"1998":6403,"russisk":6404,"manglende":6405,"spesiell":6406,"##ertif":6407,"dør":6408,"sikt":6409,"1800":6410,"foredrag":6411,"platt":6412,"studentene":6413,"konkurransen":6414,"dobbelt":6415,"##igh":6416,"normal":6417,"utdann":6418,"##sreg":6419,"erotisk":6420,"180":6421,"arena":6422,"egnet":6423,"strø":6424,"øyeblikk":6425,"baby":6426,"nøyaktig":6427,"regnes":6428,"sjølv":6429,"motiver":6430,"##rening":6431,"ton":6432,"terror":6433,"##sniva":6434,"##urs":6435,"bytte":6436,"##vise":6437,"hyl":6438,"##avt":6439,"kore":6440,"olsen":6441,"vond":6442,"informasjonskap":6443,"##jo":6444,"08":6445,"##sled":6446,"##sord":6447,"erotikk":6448,"def":6449,"rock":6450,"leverer":6451,"##slig":6452,"reiste":6453,"fril":6454,"##akte":6455,"kontaktannonser":6456,"lind":6457,"teknolog":6458,"opplevd":6459,"##spolit":6460,"##løpet":6461,"1997":6462,"japan":6463,"##edal":6464,"egenskaper":6465,"stim":6466,"hovedstad":6467,"lyn":6468,"kampan":6469,"godkjenning":6470,"##inke":6471,"stabil":6472,"hode":6473,"beskrivelse":6474,"byer":6475,"##lan":6476,"fengsel":6477,"##havet":6478,"datingsider":6479,"taler":6480,"vo":6481,"sof":6482,"skru":6483,"tils":6484,"utbet":6485,"dim":6486,"55":6487,"vedkommende":6488,"##ime":6489,"drammen":6490,"formalet":6491,"##anal":6492,"snakk":6493,"flag":6494,"##oteket":6495,"##akon":6496,"veiledning":6497,"nytte":6498,"##gaven":6499,"mangfold":6500,"##ain":6501,"inntrykk":6502,"##ath":6503,"fremtiden":6504,"faller":6505,"##ll":6506,"brasil":6507,"parti":6508,"##ule":6509,"anmeld":6510,"forstar":6511,"##terer":6512,"hørt":6513,"##skrav":6514,"teksten":6515,"##gard":6516,"nærmest":6517,"##iel":6518,"ønsk":6519,"skand":6520,"ovenfor":6521,"landbruk":6522,"sem":6523,"myndighetene":6524,"dekke":6525,"##arden":6526,"##ala":6527,"plassen":6528,"dens":6529,"dog":6530,"play":6531,"ideer":6532,"pape":6533,"##bes":6534,"##peri":6535,"##own":6536,"norweg":6537,"forskere":6538,"tvang":6539,"opprinnelige":6540,"butikker":6541,"##bed":6542,"mos":6543,"##henger":6544,"utdannings":6545,"utvidet":6546,"##bilder":6547,"dekker":6548,"kas":6549,"melde":6550,"##ving":6551,"bøl":6552,"1960":6553,"##møte":6554,"romant":6555,"david":6556,"arsaken":6557,"##indel":6558,"##nne":6559,"##gger":6560,"tide":6561,"##isse":6562,"lærere":6563,"kommunens":6564,"ligge":6565,"leke":6566,"##liggende":6567,"##spektiv":6568,"elva":6569,"kurset":6570,"smar":6571,"##løsning":6572,"##habil":6573,"jør":6574,"logistikk":6575,"##inet":6576,"støy":6577,"dans":6578,"kategorier":6579,"##angel":6580,"strid":6581,"innled":6582,"terreng":6583,"##staende":6584,"kilder":6585,"finalen":6586,"##ico":6587,"medlemmene":6588,"##makt":6589,"raskere":6590,"48":6591,"legemid":6592,"innh":6593,"forbi":6594,"bob":6595,"show":6596,"instrum":6597,"amerika":6598,"reiseliv":6599,"##irektoratet":6600,"hendelser":6601,"mont":6602,"##tatt":6603,"lid":6604,"frykt":6605,"senior":6606,"tilhører":6607,"følte":6608,"##ria":6609,"hau":6610,"seil":6611,"150":6612,"hjul":6613,"hindre":6614,"helset":6615,"lil":6616,"##litt":6617,"produksjonen":6618,"##virkning":6619,"##yp":6620,"##psjon":6621,"pedagog":6622,"##ora":6623,"##uen":6624,"kristen":6625,"##anke":6626,"anvend":6627,"anlegget":6628,"##fulle":6629,"troms":6630,"count":6631,"##ingsmid":6632,"pavirke":6633,"anders":6634,"fleks":6635,"minner":6636,"innfly":6637,"oppstart":6638,"plate":6639,"song":6640,"naværende":6641,"##rus":6642,"aka":6643,"42":6644,"##kel":6645,"dyp":6646,"deltakere":6647,"install":6648,"hull":6649,"##feltet":6650,"lanser":6651,"##ubber":6652,"if":6653,"overfl":6654,"##vekt":6655,"##alderen":6656,"antar":6657,"##sik":6658,"ferdigheter":6659,"statsminister":6660,"telem":6661,"stift":6662,"##liste":6663,"friidrett":6664,"tilstede":6665,"syns":6666,"innstilling":6667,"##sjef":6668,"1996":6669,"rab":6670,"##egru":6671,"##rel":6672,"utenlandske":6673,"sap":6674,"kjøpes":6675,"skriftlig":6676,"nabo":6677,"mac":6678,"forvaltning":6679,"##jar":6680,"skjønner":6681,"canada":6682,"##bøker":6683,"initiativ":6684,"dit":6685,"bokstav":6686,"regnet":6687,"##atten":6688,"huske":6689,"isol":6690,"kombinasjon":6691,"forster":6692,"turer":6693,"løsningen":6694,"ukra":6695,"jenta":6696,"kaller":6697,"strategi":6698,"konklusjon":6699,"##aliteten":6700,"black":6701,"utmerket":6702,"verne":6703,"historiske":6704,"innspill":6705,"kravene":6706,"hurtig":6707,"tillatelse":6708,"skaffe":6709,"kapasitet":6710,"ekskl":6711,"metoder":6712,"symbol":6713,"oppgjør":6714,"##øpt":6715,"forslaget":6716,"departementet":6717,"##kking":6718,"enige":6719,"halvparten":6720,"kommunale":6721,"hverdagen":6722,"husker":6723,"fantas":6724,"##add":6725,"181":6726,"ettermid":6727,"slar":6728,"##jørn":6729,"baten":6730,"##fød":6731,"doll":6732,"bodø":6733,"nede":6734,"##jøring":6735,"mulige":6736,"sav":6737,"##mos":6738,"kommentarer":6739,"trav":6740,"finnmark":6741,"maria":6742,"##selen":6743,"hansen":6744,"##minister":6745,"##nok":6746,"farlig":6747,"reag":6748,"47":6749,"omgiv":6750,"##uksjon":6751,"levende":6752,"feltet":6753,"moro":6754,"ip":6755,"handels":6756,"##sser":6757,"norwegian":6758,"kritikk":6759,"fungere":6760,"##vi":6761,"##hal":6762,"flyt":6763,"slipper":6764,"lom":6765,"brukerne":6766,"artikler":6767,"personen":6768,"nøye":6769,"kreditt":6770,"##bruket":6771,"leir":6772,"konto":6773,"##ssam":6774,"møtes":6775,"sms":6776,"verken":6777,"los":6778,"prøvde":6779,"fleksib":6780,"nydelig":6781,"##produs":6782,"østfold":6783,"færre":6784,"hag":6785,"partene":6786,"tittelen":6787,"fler":6788,"skiller":6789,"##stol":6790,"##ep":6791,"kontra":6792,"##rud":6793,"##itenskap":6794,"feir":6795,"personopplys":6796,"forventet":6797,"dansk":6798,"lurer":6799,"##iment":6800,"konsekvenser":6801,"##istan":6802,"sterkere":6803,"##ging":6804,"grense":6805,"pga":6806,"##vante":6807,"##renn":6808,"overgang":6809,"##hi":6810,"planlegging":6811,"##nus":6812,"world":6813,"##nett":6814,"##shem":6815,"velferd":6816,"hjemmel":6817,"marker":6818,"retur":6819,"44":6820,"fordelt":6821,"##verdig":6822,"asyl":6823,"parkering":6824,"trekker":6825,"1994":6826,"##ini":6827,"passe":6828,"##ward":6829,"##dommer":6830,"##ella":6831,"oppgaven":6832,"stikk":6833,"avl":6834,"utarbeidet":6835,"dekket":6836,"##onym":6837,"lengde":6838,"tids":6839,"leker":6840,"##setninger":6841,"lad":6842,"brudd":6843,"tvers":6844,"hagen":6845,"huden":6846,"opprettholde":6847,"hjør":6848,"##byra":6849,"penis":6850,"kostnader":6851,"##vendig":6852,"kone":6853,"tida":6854,"##kser":6855,"aksept":6856,"svare":6857,"visst":6858,"beskriver":6859,"filosof":6860,"vokser":6861,"velly":6862,"##wa":6863,"arhund":6864,"##kretær":6865,"million":6866,"besøkende":6867,"utenriks":6868,"kjørt":6869,"avfall":6870,"##tten":6871,"##anda":6872,"##ited":6873,"india":6874,"katol":6875,"repar":6876,"grunner":6877,"##satte":6878,"tilknytning":6879,"##meldinger":6880,"robert":6881,"##itering":6882,"tidleg":6883,"tilfeldig":6884,"visse":6885,"rolig":6886,"##kere":6887,"diver":6888,"1900":6889,"bedriften":6890,"mønster":6891,"markedsføring":6892,"brun":6893,"tilgjengelige":6894,"indust":6895,"gram":6896,"fylle":6897,"tverr":6898,"forklar":6899,"##lement":6900,"##yre":6901,"##ikke":6902,"styrker":6903,"1995":6904,"##akk":6905,"##inene":6906,"galt":6907,"deltar":6908,"##skar":6909,"mas":6910,"antallet":6911,"frp":6912,"forfatt":6913,"pavirker":6914,"kolon":6915,"takket":6916,"##minn":6917,"##val":6918,"##edskap":6919,"betaling":6920,"befinner":6921,"uttal":6922,"dokumenter":6923,"merker":6924,"klat":6925,"fysiske":6926,"grunnlaget":6927,"oftest":6928,"dus":6929,"hyd":6930,"ent":6931,"##krig":6932,"ettersp":6933,"myndighet":6934,"hd":6935,"bøkene":6936,"virksomheter":6937,"##vesen":6938,"fulgt":6939,"##forn":6940,"størst":6941,"sammenlignet":6942,"##bler":6943,"samfunns":6944,"##slet":6945,"##øg":6946,"øvre":6947,"##bi":6948,"ger":6949,"##drer":6950,"representanter":6951,"##kr":6952,"##rafikken":6953,"##fs":6954,"modeller":6955,"blad":6956,"engelske":6957,"inge":6958,"##skraft":6959,"##sprak":6960,"engasjement":6961,"thor":6962,"miljøet":6963,"skapt":6964,"##bol":6965,"rekrutter":6966,"entrep":6967,"##erende":6968,"passasjer":6969,"ledelsen":6970,"opprette":6971,"1992":6972,"ele":6973,"kontroller":6974,"innrøm":6975,"naturlige":6976,"landene":6977,"aud":6978,"cor":6979,"presentere":6980,"##utvalg":6981,"marg":6982,"historier":6983,"##burg":6984,"omtale":6985,"fitte":6986,"##egj":6987,"herunder":6988,"vondt":6989,"wik":6990,"inngar":6991,"ntb":6992,"##wn":6993,"##kkert":6994,"mobilt":6995,"løper":6996,"forlag":6997,"øl":6998,"##inde":6999,"colle":7000,"##kjø":7001,"##resent":7002,"deltag":7003,"melder":7004,"befolkning":7005,"##institusjon":7006,"frihet":7007,"konsept":7008,"gjennomgang":7009,"##ksen":7010,"spare":7011,"begrepet":7012,"enig":7013,"harald":7014,"##eleder":7015,"##ato":7016,"akadem":7017,"##biske":7018,"ansett":7019,"human":7020,"##ligheten":7021,"##cke":7022,"nettbutikk":7023,"##vensjon":7024,"##prob":7025,"##setting":7026,"instru":7027,"stral":7028,"##enden":7029,"vill":7030,"herlig":7031,"##høy":7032,"inspirert":7033,"##inav":7034,"##ktivt":7035,"##inske":7036,"leverandør":7037,"##ari":7038,"intens":7039,"gunn":7040,"##vakt":7041,"entrepren":7042,"klim":7043,"##kontroll":7044,"frivillig":7045,"##ij":7046,"ulov":7047,"mørke":7048,"indik":7049,"bronse":7050,"utstilling":7051,"##orene":7052,"##urens":7053,"grønne":7054,"bistand":7055,"##ativer":7056,"reglene":7057,"##sko":7058,"##ula":7059,"innført":7060,"##nr":7061,"overnatt":7062,"##bær":7063,"garant":7064,"praktiske":7065,"##oo":7066,"forestil":7067,"hast":7068,"motta":7069,"frivillige":7070,"statistikk":7071,"foreninger":7072,"undervis":7073,"klassen":7074,"##ømte":7075,"tilbudet":7076,"foss":7077,"sveits":7078,"keiser":7079,"sykehuset":7080,"##aktør":7081,"sanger":7082,"rogaland":7083,"motsetning":7084,"oblig":7085,"hotel":7086,"studio":7087,"sikrer":7088,"##skjer":7089,"600":7090,"##eldige":7091,"finland":7092,"hovud":7093,"kundene":7094,"kreves":7095,"##lø":7096,"berre":7097,"saman":7098,"out":7099,"advokat":7100,"front":7101,"representant":7102,"sivil":7103,"sene":7104,"uka":7105,"##lek":7106,"##sky":7107,"kapital":7108,"fen":7109,"##duksjon":7110,"foregar":7111,"##lade":7112,"europ":7113,"##ec":7114,"pi":7115,"##ansjen":7116,"41":7117,"gli":7118,"forsøke":7119,"##skilt":7120,"medarbeidere":7121,"minimum":7122,"kjed":7123,"leter":7124,"kontinuer":7125,"omfang":7126,"kreve":7127,"aringen":7128,"spiser":7129,"hemmelig":7130,"##skol":7131,"##ague":7132,"oppført":7133,"deltakerne":7134,"aksep":7135,"jer":7136,"reser":7137,"stock":7138,"obser":7139,"##rut":7140,"mikro":7141,"fordeler":7142,"bot":7143,"pale":7144,"##oft":7145,"koselig":7146,"generelle":7147,"mengder":7148,"vurderes":7149,"##ips":7150,"##igere":7151,"##elet":7152,"handtere":7153,"vurderer":7154,"garder":7155,"hest":7156,"spred":7157,"behandlingen":7158,"##bia":7159,"##være":7160,"##port":7161,"henger":7162,"marie":7163,"05":7164,"aksjon":7165,"demonst":7166,"46":7167,"forar":7168,"utføres":7169,"kaffe":7170,"##boks":7171,"natten":7172,"ødeleg":7173,"kunden":7174,"lykke":7175,"involvert":7176,"bag":7177,"tonn":7178,"##press":7179,"hytt":7180,"fylkeskommun":7181,"##igen":7182,"søster":7183,"##ypt":7184,"wind":7185,"2020":7186,"alf":7187,"bær":7188,"historisk":7189,"06":7190,"pappa":7191,"sirk":7192,"utgifter":7193,"likte":7194,"kvinnelige":7195,"aften":7196,"##nevnt":7197,"##aktiv":7198,"##lant":7199,"tyn":7200,"hjertet":7201,"faglige":7202,"syd":7203,"##øter":7204,"sosialt":7205,"##car":7206,"selskapets":7207,"avde":7208,"##foret":7209,"amp":7210,"sæ":7211,"skilt":7212,"##ube":7213,"ballen":7214,"##alender":7215,"##speri":7216,"tekster":7217,"hall":7218,"profesjonelle":7219,"rene":7220,"43":7221,"##ave":7222,"fylt":7223,"##vo":7224,"##vidt":7225,"dollar":7226,"belast":7227,"sambo":7228,"prop":7229,"##rapport":7230,"dron":7231,"rettferd":7232,"##edd":7233,"relevante":7234,"ola":7235,"##album":7236,"stede":7237,"nettside":7238,"##jor":7239,"kriter":7240,"oppgrader":7241,"juster":7242,"willi":7243,"tabell":7244,"flink":7245,"unike":7246,"kvinnene":7247,"sund":7248,"league":7249,"##ola":7250,"morsomt":7251,"orientering":7252,"oppn":7253,"registrering":7254,"mak":7255,"##enhet":7256,"##agram":7257,"##ensasjon":7258,"lette":7259,"##blo":7260,"kravet":7261,"negative":7262,"1993":7263,"##ommet":7264,"effektivt":7265,"lim":7266,"##stall":7267,"##navn":7268,"##merk":7269,"##ions":7270,"jurid":7271,"vestfold":7272,"##able":7273,"berlin":7274,"grupp":7275,"##ace":7276,"bind":7277,"##kir":7278,"produktet":7279,"forskjellen":7280,"##film":7281,"##ney":7282,"famili":7283,"mekan":7284,"##ioder":7285,"kjemisk":7286,"1991":7287,"west":7288,"ulik":7289,"syntes":7290,"##ilde":7291,"##tra":7292,"your":7293,"øyne":7294,"australia":7295,"##inerte":7296,"forplikt":7297,"##opplev":7298,"lavt":7299,"triv":7300,"von":7301,"sykdommer":7302,"##hen":7303,"65":7304,"esp":7305,"samtale":7306,"##følgende":7307,"veter":7308,"metode":7309,"sendte":7310,"##ye":7311,"frokost":7312,"##mi":7313,"systemer":7314,"kull":7315,"##bat":7316,"##oppgaver":7317,"ansikt":7318,"overord":7319,"##aa":7320,"##rende":7321,"##hengige":7322,"jub":7323,"friluft":7324,"##lagte":7325,"fond":7326,"talet":7327,"##etting":7328,"smerte":7329,"regionale":7330,"oppover":7331,"bror":7332,"lansert":7333,"bortsett":7334,"##amin":7335,"altfor":7336,"##ukt":7337,"hels":7338,"betalt":7339,"slippe":7340,"cookies":7341,"opprør":7342,"populær":7343,"boliger":7344,"alvorlige":7345,"velvære":7346,"##samfunn":7347,"stilte":7348,"phil":7349,"militære":7350,"##df":7351,"kommersi":7352,"steg":7353,"##aner":7354,"##way":7355,"skille":7356,"fredrikstad":7357,"kant":7358,"legen":7359,"produktene":7360,"gjester":7361,"agent":7362,"henrik":7363,"diverse":7364,"daglige":7365,"betal":7366,"bevil":7367,"##rang":7368,"##cy":7369,"adresse":7370,"##kobling":7371,"besøker":7372,"line":7373,"##sløs":7374,"utenom":7375,"spillerne":7376,"vennlig":7377,"##omen":7378,"##stiden":7379,"likestilling":7380,"forklarer":7381,"modellen":7382,"forklare":7383,"##ansene":7384,"sliter":7385,"##ketøy":7386,"pause":7387,"kors":7388,"##kjøring":7389,"##uddet":7390,"søknaden":7391,"avdel":7392,"tanken":7393,"grensen":7394,"konkrete":7395,"handball":7396,"foreligger":7397,"mur":7398,"##kkelen":7399,"sertif":7400,"##ii":7401,"bygges":7402,"##esund":7403,"klassisk":7404,"##anen":7405,"##ksa":7406,"rid":7407,"183":7408,"##gjøring":7409,"musikken":7410,"##asjen":7411,"##skip":7412,"##medal":7413,"innskudd":7414,"regne":7415,"behandle":7416,"dreier":7417,"menneskene":7418,"informasjonskapsler":7419,"##jemp":7420,"##hu":7421,"svarer":7422,"utgave":7423,"avgift":7424,"treffe":7425,"##yse":7426,"minutt":7427,"##lands":7428,"utelu":7429,"lave":7430,"meir":7431,"borg":7432,"medal":7433,"stoppe":7434,"##slatt":7435,"##rerer":7436,"big":7437,"kritisk":7438,"arbeidsmiljø":7439,"jens":7440,"telemark":7441,"fisker":7442,"02":7443,"##løse":7444,"vakt":7445,"elektronikk":7446,"##likten":7447,"##viser":7448,"##elighet":7449,"angel":7450,"ntnu":7451,"kastet":7452,"bedt":7453,"engang":7454,"sluttet":7455,"kunnskaps":7456,"svak":7457,"##opplær":7458,"tyder":7459,"ender":7460,"vunnet":7461,"temaet":7462,"##onger":7463,"##ds":7464,"##ikerne":7465,"offisielle":7466,"800":7467,"##elling":7468,"##sdal":7469,"ast":7470,"##arene":7471,"fortj":7472,"dal":7473,"væ":7474,"beskytte":7475,"kvar":7476,"sus":7477,"designet":7478,"nevne":7479,"ib":7480,"tingene":7481,"##rimin":7482,"yout":7483,"avtaler":7484,"university":7485,"##ennene":7486,"beslut":7487,"drevet":7488,"stig":7489,"krevende":7490,"##atere":7491,"elektronisk":7492,"##barn":7493,"ordfører":7494,"##avnet":7495,"##settelse":7496,"forholdene":7497,"##cel":7498,"undersøke":7499,"##likevel":7500,"rulle":7501,"nevnte":7502,"het":7503,"populært":7504,"drar":7505,"presentert":7506,"##skyld":7507,"vag":7508,"##førsel":7509,"mail":7510,"elementer":7511,"sidene":7512,"pak":7513,"pluss":7514,"ner":7515,"ull":7516,"dømt":7517,"##petanse":7518,"oppbevar":7519,"bryll":7520,"##ova":7521,"##vart":7522,"##melt":7523,"johannes":7524,"vand":7525,"oppsummer":7526,"bæ":7527,"besøkte":7528,"deltakelse":7529,"kjerne":7530,"likhet":7531,"ros":7532,"opplysningene":7533,"møteplassen":7534,"lund":7535,"flertall":7536,"##skjema":7537,"menneskerett":7538,"typisk":7539,"##bør":7540,"##ute":7541,"varierer":7542,"rec":7543,"arbeidsmarked":7544,"##arm":7545,"kvaliteten":7546,"gifte":7547,"fn":7548,"##leser":7549,"vilje":7550,"ansi":7551,"uv":7552,"egypt":7553,"forfatteren":7554,"grand":7555,"##start":7556,"##tokoll":7557,"##ric":7558,"tørr":7559,"fartøy":7560,"##ktoren":7561,"leverandører":7562,"rehabil":7563,"##personer":7564,"folkeh":7565,"##lad":7566,"ende":7567,"meldinger":7568,"misjon":7569,"bestemmer":7570,"utfordring":7571,"trygge":7572,"kontinuerlig":7573,"evaluering":7574,"studiet":7575,"wal":7576,"noko":7577,"##sre":7578,"carl":7579,"##prosjekt":7580,"familier":7581,"rav":7582,"haret":7583,"william":7584,"fak":7585,"49":7586,"andreas":7587,"leveres":7588,"barnehag":7589,"likt":7590,"jar":7591,"framtid":7592,"utforske":7593,"07":7594,"mom":7595,"beregnet":7596,"##autom":7597,"okk":7598,"garanter":7599,"seksjon":7600,"##skrifter":7601,"site":7602,"polen":7603,"##dalen":7604,"sykeple":7605,"max":7606,"etablerte":7607,"cir":7608,"forskjeller":7609,"anbefales":7610,"skogen":7611,"medisinsk":7612,"spurte":7613,"igang":7614,"skjermen":7615,"slaget":7616,"søt":7617,"infra":7618,"plassering":7619,"autor":7620,"dannet":7621,"skjerm":7622,"rutiner":7623,"##retning":7624,"##delen":7625,"skam":7626,"omd":7627,"##mune":7628,"grunnlagt":7629,"bygninger":7630,"ryggen":7631,"registrere":7632,"regi":7633,"pupper":7634,"tunn":7635,"##su":7636,"fy":7637,"allmenn":7638,"avgjøre":7639,"##rerte":7640,"yng":7641,"massage":7642,"bakgrunnen":7643,"mr":7644,"repub":7645,"hjemmet":7646,"byens":7647,"instal":7648,"##forbundet":7649,"rart":7650,"totale":7651,"vaks":7652,"##ørte":7653,"fellesskap":7654,"fjernet":7655,"logg":7656,"søte":7657,"##ty":7658,"##klar":7659,"utgiv":7660,"virk":7661,"kommende":7662,"medie":7663,"metall":7664,"dimensjon":7665,"kok":7666,"assist":7667,"innsikt":7668,"generell":7669,"one":7670,"prøvd":7671,"##istri":7672,"redde":7673,"produsere":7674,"escorte":7675,"morsom":7676,"##avgift":7677,"hunder":7678,"mulighetene":7679,"takt":7680,"restaurant":7681,"##uta":7682,"##kurran":7683,"tilsk":7684,"52":7685,"1950":7686,"tapte":7687,"noreg":7688,"vore":7689,"sove":7690,"koster":7691,"pasienten":7692,"rust":7693,"##ingsmiddel":7694,"cre":7695,"forsøkte":7696,"øye":7697,"samarbeidspart":7698,"1989":7699,"gyld":7700,"cent":7701,"milf":7702,"##prisen":7703,"nedover":7704,"separ":7705,"rum":7706,"ekstremt":7707,"sies":7708,"andelen":7709,"overbe":7710,"trakk":7711,"bach":7712,"##aksjoner":7713,"lagene":7714,"rh":7715,"##blad":7716,"kysten":7717,"bibliotek":7718,"##ky":7719,"risikoen":7720,"stiftet":7721,"snar":7722,"iverks":7723,"darlige":7724,"statt":7725,"jak":7726,"organisert":7727,"klage":7728,"nært":7729,"molde":7730,"stolt":7731,"bygde":7732,"bit":7733,"semin":7734,"riksrevisjon":7735,"##udsjett":7736,"tjenestene":7737,"opplevde":7738,"##drift":7739,"slit":7740,"##spillet":7741,"slu":7742,"usikker":7743,"kalla":7744,"##bytte":7745,"sønnen":7746,"gjennomsnittlig":7747,"institusjoner":7748,"sjansen":7749,"##bø":7750,"omtalt":7751,"henvend":7752,"##jul":7753,"anses":7754,"prost":7755,"##ows":7756,"lært":7757,"##sinn":7758,"03":7759,"kult":7760,"null":7761,"forhin":7762,"##sfri":7763,"vass":7764,"konsul":7765,"##attes":7766,"optim":7767,"klokka":7768,"##ttene":7769,"utro":7770,"##øpet":7771,"utdannet":7772,"arrangement":7773,"##ykker":7774,"##vig":7775,"engasjer":7776,"køben":7777,"##uri":7778,"##misjon":7779,"sekunder":7780,"##ktighet":7781,"##fond":7782,"grep":7783,"##ulering":7784,"servic":7785,"bane":7786,"##delige":7787,"##inerer":7788,"##sess":7789,"sykdommen":7790,"##orge":7791,"jose":7792,"fattig":7793,"##posten":7794,"profesjonell":7795,"##ano":7796,"mg":7797,"beredskap":7798,"##iert":7799,"##beveg":7800,"love":7801,"##stekn":7802,"etn":7803,"identitet":7804,"perf":7805,"innsat":7806,"grov":7807,"hender":7808,"fylkesmannen":7809,"##merker":7810,"mengde":7811,"jorden":7812,"matematikk":7813,"aksje":7814,"datamaskin":7815,"skipet":7816,"maling":7817,"farmas":7818,"##edyr":7819,"malg":7820,"inf":7821,"interessante":7822,"blu":7823,"forsvaret":7824,"testet":7825,"vokste":7826,"begrav":7827,"##stasjon":7828,"info":7829,"systematisk":7830,"##com":7831,"forsøkt":7832,"formen":7833,"muslim":7834,"føles":7835,"04":7836,"est":7837,"##gifter":7838,"vurderinger":7839,"##strid":7840,"##vd":7841,"asia":7842,"regulering":7843,"brukeren":7844,"spraket":7845,"##ary":7846,"utøver":7847,"virket":7848,"radgiver":7849,"##arch":7850,"fortalt":7851,"bul":7852,"speed":7853,"imponer":7854,"ungdoms":7855,"##bygd":7856,"hensi":7857,"bransjen":7858,"allikevel":7859,"##apir":7860,"sørger":7861,"##rommet":7862,"medfører":7863,"pin":7864,"følelse":7865,"sistnevnte":7866,"gitar":7867,"##mosf":7868,"anti":7869,"##sjekk":7870,"apenbart":7871,"##bro":7872,"1988":7873,"misten":7874,"stoppet":7875,"effekten":7876,"bryst":7877,"konflikt":7878,"provinsen":7879,"junior":7880,"radi":7881,"skrem":7882,"samler":7883,"united":7884,"ekspert":7885,"samliv":7886,"moren":7887,"ess":7888,"##system":7889,"klem":7890,"introdus":7891,"gradvis":7892,"scene":7893,"rammer":7894,"lunsj":7895,"##opper":7896,"##irektør":7897,"kommunestyret":7898,"##endal":7899,"overgrep":7900,"##standen":7901,"##løst":7902,"tallene":7903,"##send":7904,"sidan":7905,"##styre":7906,"samtlige":7907,"appen":7908,"##verktøy":7909,"##sdatter":7910,"kab":7911,"bb":7912,"marit":7913,"##eloven":7914,"forurens":7915,"##innen":7916,"##urdering":7917,"riktige":7918,"##ras":7919,"resul":7920,"bestemme":7921,"døgn":7922,"##last":7923,"ektef":7924,"nedre":7925,"stillingen":7926,"##organisasjon":7927,"sikret":7928,"rollen":7929,"definit":7930,"las":7931,"##result":7932,"ug":7933,"##iken":7934,"kreativ":7935,"##skoler":7936,"ott":7937,"tusenvis":7938,"##hr":7939,"scan":7940,"grundig":7941,"##festiv":7942,"søvn":7943,"perfekte":7944,"##ulerer":7945,"sover":7946,"jacob":7947,"gjekk":7948,"revid":7949,"##somhet":7950,"hunden":7951,"analys":7952,"##selskap":7953,"##kende":7954,"lyse":7955,"##rerende":7956,"plag":7957,"karet":7958,"182":7959,"##mm":7960,"hoteller":7961,"rødt":7962,"##værende":7963,"trygghet":7964,"##ance":7965,"jø":7966,"skadet":7967,"kosthold":7968,"##foreningen":7969,"##yer":7970,"engasjert":7971,"bursdag":7972,"tend":7973,"##hammer":7974,"minn":7975,"roma":7976,"high":7977,"##isser":7978,"frø":7979,"fakult":7980,"skudd":7981,"##ilsynet":7982,"bestemmelser":7983,"rand":7984,"from":7985,"henholdsvis":7986,"busker":7987,"##ement":7988,"premier":7989,"ivareta":7990,"sande":7991,"kjennet":7992,"nadde":7993,"##cial":7994,"##elin":7995,"trump":7996,"holdes":7997,"##ggen":7998,"inngatt":7999,"eksamen":8000,"nødvendigvis":8001,"sle":8002,"innføring":8003,"noens":8004,"##vernet":8005,"atmosf":8006,"regiss":8007,"has":8008,"vedr":8009,"ze":8010,"sakalt":8011,"sinn":8012,"##æring":8013,"styring":8014,"andersen":8015,"54":8016,"ødelagt":8017,"posten":8018,"stu":8019,"##raden":8020,"##barhet":8021,"sangen":8022,"##rering":8023,"##odene":8024,"fersk":8025,"prosesser":8026,"##gjorde":8027,"løfte":8028,"arlige":8029,"##legget":8030,"programvare":8031,"varmt":8032,"pum":8033,"magas":8034,"skandinav":8035,"forventninger":8036,"spen":8037,"##api":8038,"##tur":8039,"##vennlig":8040,"##omradene":8041,"vellykket":8042,"##stjenester":8043,"51":8044,"##valt":8045,"infrastruktur":8046,"##sloven":8047,"buss":8048,"##imer":8049,"konkurrans":8050,"søkte":8051,"støttet":8052,"##gress":8053,"ordningen":8054,"utforming":8055,"oppvar":8056,"ideen":8057,"bevegelse":8058,"betong":8059,"##ble":8060,"magnus":8061,"##ktes":8062,"forbundet":8063,"##basert":8064,"fasts":8065,"##ansvarlig":8066,"datab":8067,"##rasjoner":8068,"engros":8069,"##biler":8070,"soldater":8071,"##veksling":8072,"stillinger":8073,"smil":8074,"jazz":8075,"aksjer":8076,"sne":8077,"drev":8078,"mottar":8079,"##egard":8080,"##ordning":8081,"skogbruk":8082,"##sevne":8083,"halvt":8084,"tone":8085,"arten":8086,"inde":8087,"verre":8088,"sjekket":8089,"##phone":8090,"global":8091,"##eten":8092,"kommunal":8093,"99":8094,"##ørsel":8095,"##cup":8096,"innga":8097,"##inerende":8098,"anbefale":8099,"golf":8100,"tung":8101,"gutta":8102,"uvan":8103,"utbygging":8104,"##givning":8105,"muligens":8106,"landslag":8107,"hamar":8108,"anerkj":8109,"utfører":8110,"slutte":8111,"yt":8112,"glade":8113,"organisering":8114,"##hengighet":8115,"deles":8116,"rosa":8117,"oppdrett":8118,"morten":8119,"mottak":8120,"bærer":8121,"tant":8122,"spenning":8123,"this":8124,"apotek":8125,"kring":8126,"bratt":8127,"##isteret":8128,"personal":8129,"kategori":8130,"youtube":8131,"motivasjon":8132,"tapt":8133,"strekker":8134,"##offer":8135,"nærmer":8136,"forvaltnings":8137,"oppgitt":8138,"levering":8139,"gevin":8140,"vend":8141,"##vold":8142,"analyser":8143,"brutt":8144,"rekord":8145,"dn":8146,"desse":8147,"arv":8148,"##stiltak":8149,"forbe":8150,"perioder":8151,"##still":8152,"##uth":8153,"kret":8154,"iran":8155,"56":8156,"lane":8157,"pakke":8158,"##poeng":8159,"##økonom":8160,"vanskelige":8161,"biotekn":8162,"##alinger":8163,"angrepet":8164,"##visor":8165,"##ittet":8166,"##hop":8167,"ettermiddag":8168,"seksuelle":8169,"##personell":8170,"back":8171,"gruppa":8172,"trengte":8173,"eksklus":8174,"##gikk":8175,"optimal":8176,"innkal":8177,"personopplysninger":8178,"viktigere":8179,"teste":8180,"haha":8181,"1945":8182,"##risen":8183,"roy":8184,"##sens":8185,"flat":8186,"ali":8187,"rammet":8188,"behandles":8189,"1940":8190,"##arbeider":8191,"regner":8192,"college":8193,"klasser":8194,"atferd":8195,"involver":8196,"nordiske":8197,"arsaker":8198,"vars":8199,"parall":8200,"##rur":8201,"##staten":8202,"slapp":8203,"utendørs":8204,"##uro":8205,"opplyser":8206,"spørsmalene":8207,"##familien":8208,"lit":8209,"tidssk":8210,"##omet":8211,"perspektiv":8212,"64":8213,"rich":8214,"øverste":8215,"versjonen":8216,"hord":8217,"gay":8218,"overtok":8219,"britisk":8220,"trukket":8221,"por":8222,"##eier":8223,"mykje":8224,"##bygge":8225,"hjemmeside":8226,"overraskende":8227,"##lie":8228,"nys":8229,"sjøen":8230,"nøkkel":8231,"handlinger":8232,"sjanse":8233,"beholde":8234,"##ssystem":8235,"ære":8236,"teor":8237,"##bal":8238,"##forskning":8239,"fat":8240,"faktum":8241,"farmasøyt":8242,"forening":8243,"bisk":8244,"##skost":8245,"bruks":8246,"apple":8247,"forhap":8248,"bestilling":8249,"sogn":8250,"##mater":8251,"myr":8252,"##brett":8253,"##wood":8254,"hon":8255,"politikere":8256,"bekreftet":8257,"tempo":8258,"profiler":8259,"vegne":8260,"svein":8261,"utvalgte":8262,"shopp":8263,"##ssenter":8264,"kortere":8265,"##nam":8266,"belig":8267,"##aterte":8268,"plante":8269,"##sberg":8270,"næringsmiddel":8271,"##enser":8272,"alp":8273,"vidt":8274,"##edia":8275,"hevdet":8276,"bordet":8277,"##edlemmer":8278,"adre":8279,"virkeligheten":8280,"midlertidig":8281,"unik":8282,"##job":8283,"##que":8284,"ube":8285,"oppfordrer":8286,"##feksjon":8287,"cro":8288,"##ilder":8289,"##ransport":8290,"miner":8291,"forleng":8292,"overlev":8293,"tidlegare":8294,"##lesund":8295,"latin":8296,"svaret":8297,"materialer":8298,"utøvere":8299,"larsen":8300,"tungt":8301,"utbredt":8302,"utbygg":8303,"fulle":8304,"kommand":8305,"inntekter":8306,"cru":8307,"##ugh":8308,"bygning":8309,"beina":8310,"##rede":8311,"##ipend":8312,"iii":8313,"##smann":8314,"planter":8315,"bygningen":8316,"##dret":8317,"fel":8318,"deleg":8319,"landskap":8320,"reist":8321,"slekten":8322,"drømmer":8323,"##cks":8324,"##veier":8325,"samarbeide":8326,"døpt":8327,"presset":8328,"selvstendig":8329,"##messige":8330,"##ega":8331,"ran":8332,"vakker":8333,"war":8334,"##ingar":8335,"effektive":8336,"basis":8337,"##kalt":8338,"kjøkkenet":8339,"hensikten":8340,"vegg":8341,"betaler":8342,"skinn":8343,"##elset":8344,"grunnet":8345,"taket":8346,"vere":8347,"verste":8348,"sites":8349,"lou":8350,"konsesjon":8351,"informer":8352,"hytte":8353,"1500":8354,"arbeidstaker":8355,"betegn":8356,"##kultur":8357,"magen":8358,"tilpasse":8359,"andres":8360,"##kta":8361,"old":8362,"##melen":8363,"viking":8364,"thail":8365,"haugesund":8366,"sandnes":8367,"stilt":8368,"hydro":8369,"danse":8370,"##arane":8371,"forretnings":8372,"isted":8373,"##ely":8374,"foreslar":8375,"##nsberg":8376,"hedmark":8377,"alternativer":8378,"følelsen":8379,"riv":8380,"evt":8381,"##øt":8382,"##fatt":8383,"fakta":8384,"sapass":8385,"mv":8386,"yog":8387,"arbeidslivet":8388,"##ksp":8389,"1984":8390,"københavn":8391,"##gor":8392,"that":8393,"##abeth":8394,"jensen":8395,"statlige":8396,"##svalg":8397,"fasc":8398,"været":8399,"sola":8400,"hvorav":8401,"##systemet":8402,"##smid":8403,"prosjektleder":8404,"annons":8405,"anska":8406,"religiøse":8407,"journalist":8408,"liksom":8409,"##ago":8410,"skum":8411,"reklame":8412,"ec":8413,"##sidene":8414,"parad":8415,"fornuft":8416,"##ilitet":8417,"##astro":8418,"teknikk":8419,"noensinne":8420,"foretatt":8421,"mobile":8422,"##chen":8423,"hapet":8424,"##likket":8425,"graf":8426,"67":8427,"##unget":8428,"stjerne":8429,"##onen":8430,"dru":8431,"ask":8432,"tøff":8433,"forholde":8434,"stockholm":8435,"møteplass":8436,"rosen":8437,"reaksjon":8438,"##siktige":8439,"hob":8440,"nb":8441,"hvitt":8442,"##foss":8443,"##holdes":8444,"champ":8445,"##ally":8446,"##vat":8447,"##busjon":8448,"støv":8449,"fange":8450,"beskyttelse":8451,"53":8452,"sving":8453,"1985":8454,"##tekter":8455,"fork":8456,"dekor":8457,"atom":8458,"179":8459,"##vapen":8460,"dags":8461,"##ira":8462,"belg":8463,"##ful":8464,"faktorer":8465,"inngang":8466,"kinesisk":8467,"teori":8468,"tilknyttet":8469,"retter":8470,"vestlige":8471,"kaste":8472,"tillate":8473,"gresk":8474,"##rykket":8475,"##spar":8476,"arsmøtet":8477,"victor":8478,"ikt":8479,"1987":8480,"humor":8481,"top":8482,"more":8483,"utbredelse":8484,"heg":8485,"kyr":8486,"bærekraftig":8487,"##ipl":8488,"windows":8489,"bærum":8490,"ringer":8491,"1986":8492,"##legger":8493,"moh":8494,"korn":8495,"foreta":8496,"tøy":8497,"##asses":8498,"59":8499,"nettleser":8500,"eksempelvis":8501,"krf":8502,"##vard":8503,"58":8504,"##skon":8505,"temp":8506,"psykiske":8507,"cd":8508,"thailand":8509,"malene":8510,"oppdage":8511,"undertøy":8512,"etterl":8513,"femte":8514,"alesund":8515,"klager":8516,"avslutt":8517,"nødt":8518,"finan":8519,"tilhørende":8520,"bekl":8521,"eiendommen":8522,"herre":8523,"aktuelt":8524,"tillatt":8525,"utvide":8526,"portug":8527,"##splass":8528,"øvelser":8529,"vig":8530,"##pix":8531,"presentasjon":8532,"ult":8533,"mottok":8534,"##olje":8535,"##selskapet":8536,"trist":8537,"iphone":8538,"overrasket":8539,"utfordrende":8540,"##parti":8541,"##filmer":8542,"ifra":8543,"anonym":8544,"book":8545,"veks":8546,"spesialist":8547,"##elde":8548,"##behør":8549,"vokse":8550,"hage":8551,"solberg":8552,"viet":8553,"57":8554,"##saktiv":8555,"forkant":8556,"grønnsaker":8557,"##tekt":8558,"##18":8559,"redaktør":8560,"utan":8561,"##isa":8562,"62":8563,"tenar":8564,"skyl":8565,"heng":8566,"miste":8567,"##mund":8568,"avløp":8569,"##ther":8570,"skjel":8571,"##user":8572,"ler":8573,"utnytte":8574,"studere":8575,"##foretak":8576,"utstyrt":8577,"storm":8578,"vanskeligere":8579,"##tein":8580,"##ani":8581,"bidratt":8582,"liber":8583,"bebo":8584,"##lyst":8585,"##ating":8586,"produsent":8587,"micha":8588,"maksim":8589,"klassiske":8590,"scenen":8591,"gaver":8592,"munt":8593,"nik":8594,"distrikt":8595,"parl":8596,"avholdt":8597,"telefoni":8598,"vaske":8599,"dukker":8600,"bost":8601,"##ical":8602,"##atorer":8603,"raske":8604,"##smøte":8605,"inc":8606,"##ffen":8607,"laks":8608,"tønsberg":8609,"sog":8610,"mørk":8611,"85":8612,"##cker":8613,"1920":8614,"finansiering":8615,"samtykke":8616,"vinn":8617,"##produkter":8618,"landbruks":8619,"høres":8620,"##utere":8621,"darligere":8622,"skapte":8623,"##ørsmal":8624,"##ela":8625,"nic":8626,"##savt":8627,"##bak":8628,"##bor":8629,"høgskolen":8630,"##ara":8631,"250":8632,"gjestene":8633,"scanpix":8634,"georg":8635,"tittel":8636,"reduksjon":8637,"hordaland":8638,"##fab":8639,"ærlig":8640,"##oer":8641,"##steret":8642,"utfør":8643,"hær":8644,"intel":8645,"veget":8646,"##øyene":8647,"stortings":8648,"nyere":8649,"lista":8650,"##bjørn":8651,"prisene":8652,"henge":8653,"tore":8654,"http":8655,"ulovlig":8656,"##mynd":8657,"symptomer":8658,"##ype":8659,"arrest":8660,"arm":8661,"rente":8662,"kjell":8663,"##bing":8664,"##cher":8665,"malgru":8666,"##60":8667,"##ux":8668,"120":8669,"byttet":8670,"seinare":8671,"ungdomssk":8672,"##faglig":8673,"##ati":8674,"skyte":8675,"##kkede":8676,"tester":8677,"nordvest":8678,"##politikk":8679,"##ørr":8680,"skred":8681,"samhandling":8682,"agentur":8683,"snu":8684,"asker":8685,"debatten":8686,"galler":8687,"##vitt":8688,"##regn":8689,"##mord":8690,"komite":8691,"utdannelse":8692,"planlegge":8693,"medlemskap":8694,"overs":8695,"##yting":8696,"samtaler":8697,"##las":8698,"framover":8699,"##onsen":8700,"leger":8701,"milj":8702,"bryte":8703,"gulv":8704,"##meter":8705,"agg":8706,"bein":8707,"ps":8708,"fylket":8709,"che":8710,"termin":8711,"##merke":8712,"pavirket":8713,"koll":8714,"plikt":8715,"homofile":8716,"##reen":8717,"kule":8718,"##ool":8719,"motsatt":8720,"##oppen":8721,"innflytelse":8722,"kombinert":8723,"uri":8724,"bønn":8725,"flyet":8726,"konstant":8727,"##iro":8728,"##skamp":8729,"riksrevisjonens":8730,"##illere":8731,"skifte":8732,"kvartal":8733,"fjord":8734,"eksist":8735,"videreutvik":8736,"##klart":8737,"international":8738,"##planen":8739,"tradisjonell":8740,"temaer":8741,"tyrkia":8742,"innvil":8743,"foresp":8744,"##entert":8745,"lede":8746,"fund":8747,"##taket":8748,"farmasøytisk":8749,"kontrollere":8750,"utnevnt":8751,"oft":8752,"tunge":8753,"##maskin":8754,"erstattet":8755,"overført":8756,"##ndom":8757,"import":8758,"tiltre":8759,"engroshandel":8760,"##xt":8761,"##industrien":8762,"kampene":8763,"muskel":8764,"##sborg":8765,"koble":8766,"hellas":8767,"dukket":8768,"##40":8769,"kin":8770,"##idae":8771,"##dring":8772,"staende":8773,"moral":8774,"elite":8775,"bay":8776,"##esy":8777,"##flate":8778,"songen":8779,"etablering":8780,"geograf":8781,"namnet":8782,"diam":8783,"##ddet":8784,"##rin":8785,"løpende":8786,"mex":8787,"james":8788,"pent":8789,"ventil":8790,"teamet":8791,"lete":8792,"flyktninger":8793,"trær":8794,"fing":8795,"##sla":8796,"##our":8797,"let":8798,"meldt":8799,"balanse":8800,"biv":8801,"bis":8802,"##park":8803,"musikal":8804,"erstatning":8805,"sekund":8806,"maneden":8807,"fullført":8808,"hørte":8809,"##behov":8810,"##cam":8811,"oppvekst":8812,"lillehammer":8813,"95":8814,"virkning":8815,"##rasjonen":8816,"beskrive":8817,"##itusjon":8818,"tryg":8819,"spilleautom":8820,"##bildet":8821,"##bit":8822,"##kurs":8823,"straks":8824,"link":8825,"##støtte":8826,"bygnings":8827,"##musikk":8828,"##ppel":8829,"lagre":8830,"##uller":8831,"foreslatt":8832,"twitter":8833,"es":8834,"nils":8835,"##knings":8836,"peker":8837,"##spor":8838,"##stur":8839,"betra":8840,"##hov":8841,"brønn":8842,"avisen":8843,"##leis":8844,"generasjon":8845,"##oth":8846,"verdif":8847,"##øyer":8848,"klubber":8849,"prat":8850,"##alp":8851,"1972":8852,"##moen":8853,"geir":8854,"vib":8855,"##papir":8856,"700":8857,"beting":8858,"##prosjektet":8859,"##ksjonene":8860,"##muse":8861,"later":8862,"produserer":8863,"##gas":8864,"barnehager":8865,"tilbakemeldinger":8866,"##edy":8867,"##arkedet":8868,"##sendt":8869,"møre":8870,"plikter":8871,"down":8872,"materialet":8873,"alderen":8874,"volum":8875,"hitt":8876,"##onert":8877,"syl":8878,"avd":8879,"##ryt":8880,"##leverand":8881,"tolv":8882,"fokusere":8883,"dynam":8884,"forventer":8885,"fakultet":8886,"nettverket":8887,"fremmed":8888,"##aga":8889,"tipp":8890,"innvandrere":8891,"##melige":8892,"nødnummer":8893,"øverst":8894,"rune":8895,"##okol":8896,"##vind":8897,"##pal":8898,"himmel":8899,"mister":8900,"##verdige":8901,"uen":8902,"maskiner":8903,"stren":8904,"sikte":8905,"ubeh":8906,"mig":8907,"studien":8908,"frust":8909,"##akse":8910,"kalle":8911,"##miljøet":8912,"konvensjon":8913,"cat":8914,"##boka":8915,"##lir":8916,"##ikeren":8917,"##amer":8918,"helga":8919,"foretre":8920,"fanget":8921,"eventuell":8922,"fastsatt":8923,"øyeblikket":8924,"registrerte":8925,"kinesiske":8926,"endres":8927,"eig":8928,"oks":8929,"oppgavene":8930,"##iness":8931,"bakter":8932,"##adresse":8933,"swinger":8934,"nysgjer":8935,"##kunst":8936,"##bot":8937,"kristin":8938,"dypt":8939,"minor":8940,"investeringer":8941,"papeker":8942,"##perioden":8943,"invitert":8944,"bioteknologisk":8945,"eksplo":8946,"prom":8947,"fremfor":8948,"elektrisk":8949,"ukene":8950,"ungdommer":8951,"flor":8952,"##deler":8953,"knapt":8954,"museet":8955,"##resten":8956,"ansiktet":8957,"##eltet":8958,"##undersøkelse":8959,"inneholde":8960,"næringslivet":8961,"følges":8962,"cap":8963,"troll":8964,"representert":8965,"##af":8966,"pad":8967,"dyb":8968,"##sperson":8969,"bygging":8970,"komplett":8971,"debut":8972,"kjøle":8973,"##gje":8974,"definitivt":8975,"club":8976,"##rør":8977,"##bur":8978,"##21":8979,"elektriske":8980,"rein":8981,"##vende":8982,"##stolen":8983,"##samlingen":8984,"erob":8985,"##sbas":8986,"emp":8987,"kalender":8988,"forhapentlig":8989,"planlegger":8990,"##sforsk":8991,"biskop":8992,"stadion":8993,"isa":8994,"rute":8995,"passord":8996,"romsdal":8997,"rig":8998,"industi":8999,"detaljvarer":9000,"##vilkar":9001,"##hild":9002,"##gruppa":9003,"##odd":9004,"66":9005,"stengt":9006,"gn":9007,"tilfellet":9008,"diskutere":9009,"johansen":9010,"kim":9011,"pedersen":9012,"scoret":9013,"##norsk":9014,"##skader":9015,"hjelpemid":9016,"lovlig":9017,"jack":9018,"##ware":9019,"vik":9020,"kollega":9021,"michael":9022,"latter":9023,"vedtaket":9024,"kjennskap":9025,"##ulert":9026,"lesere":9027,"buskerud":9028,"nordisk":9029,"diskrimin":9030,"leste":9031,"hovedstaden":9032,"##listen":9033,"høyest":9034,"besluttet":9035,"satse":9036,"##ts":9037,"nære":9038,"##lister":9039,"tilbehør":9040,"sikkerhets":9041,"gas":9042,"stram":9043,"søkemot":9044,"##rister":9045,"nyttar":9046,"akutt":9047,"##engde":9048,"##øvrig":9049,"bens":9050,"##spel":9051,"foreningen":9052,"solgte":9053,"eksped":9054,"od":9055,"stoffer":9056,"##vask":9057,"##bransjen":9058,"spurt":9059,"barndom":9060,"arrangementer":9061,"dels":9062,"##følger":9063,"funksjonshem":9064,"identifisere":9065,"##hard":9066,"1930":9067,"##isiner":9068,"##vesenet":9069,"tykk":9070,"##splanen":9071,"arsmøte":9072,"##sikring":9073,"penge":9074,"signal":9075,"##vika":9076,"##uch":9077,"co2":9078,"levde":9079,"forretning":9080,"beslutning":9081,"kino":9082,"hellige":9083,"bachel":9084,"menighet":9085,"spilles":9086,"elver":9087,"##sprosessen":9088,"##verden":9089,"instagram":9090,"tradisjonelt":9091,"##idig":9092,"1968":9093,"kjøring":9094,"katt":9095,"##menne":9096,"##iven":9097,"byene":9098,"arbeidsplasser":9099,"saledes":9100,"##iko":9101,"forøvrig":9102,"past":9103,"##krav":9104,"##sliv":9105,"langrenn":9106,"parørende":9107,"søknader":9108,"sørvest":9109,"begrep":9110,"rak":9111,"enheten":9112,"tegnet":9113,"gjennomførte":9114,"pleier":9115,"moss":9116,"##organisasjoner":9117,"flagg":9118,"gress":9119,"##lf":9120,"erklær":9121,"##bilde":9122,"cirka":9123,"##mert":9124,"micros":9125,"unød":9126,"fig":9127,"##ullet":9128,"jakten":9129,"##rinn":9130,"hvorvidt":9131,"##komm":9132,"trengs":9133,"sakene":9134,"knappen":9135,"parter":9136,"okkup":9137,"oppfatning":9138,"lesbisk":9139,"hjernen":9140,"presenterer":9141,"kla":9142,"garn":9143,"sec":9144,"havnet":9145,"plant":9146,"##sida":9147,"senteret":9148,"tube":9149,"##førings":9150,"eøs":9151,"lyset":9152,"que":9153,"bryter":9154,"brem":9155,"seksuell":9156,"##gging":9157,"endringene":9158,"##byggende":9159,"happ":9160,"oppdatere":9161,"stopper":9162,"tankene":9163,"##partement":9164,"stilles":9165,"jevnt":9166,"innbyggerne":9167,"sykehjem":9168,"microsoft":9169,"rehabilitering":9170,"##hv":9171,"individuelle":9172,"krefter":9173,"metoden":9174,"epost":9175,"grønt":9176,"##vinning":9177,"##24":9178,"noksa":9179,"##ness":9180,"potensielle":9181,"underlagt":9182,"øre":9183,"applik":9184,"##fang":9185,"##kehus":9186,"##gu":9187,"regjeringens":9188,"elven":9189,"tjener":9190,"tiar":9191,"flyplassen":9192,"banken":9193,"depresjon":9194,"##rim":9195,"nivaet":9196,"##ids":9197,"neppe":9198,"gunnar":9199,"fravær":9200,"deltatt":9201,"danner":9202,"may":9203,"nektet":9204,"terje":9205,"jakob":9206,"koordin":9207,"##bred":9208,"smab":9209,"##amentet":9210,"afg":9211,"knulle":9212,"oppdatering":9213,"##bus":9214,"hammer":9215,"kalk":9216,"##aldt":9217,"handlet":9218,"eksterne":9219,"##stjer":9220,"fløy":9221,"1979":9222,"vask":9223,"distribusjon":9224,"barns":9225,"hendene":9226,"dyktige":9227,"tsjekk":9228,"komb":9229,"##ryg":9230,"bidro":9231,"enorme":9232,"tob":9233,"##garden":9234,"teknologien":9235,"friske":9236,"rester":9237,"blogger":9238,"nevnes":9239,"sorter":9240,"adgang":9241,"betrakt":9242,"studi":9243,"opplevelsen":9244,"bosatt":9245,"bestand":9246,"##aktig":9247,"##gitt":9248,"endel":9249,"##aton":9250,"kjer":9251,"##reise":9252,"satser":9253,"##opplæring":9254,"1983":9255,"1982":9256,"funksjonen":9257,"barnets":9258,"hakon":9259,"alternative":9260,"dia":9261,"morsomme":9262,"178":9263,"prosjektene":9264,"##ony":9265,"kanal":9266,"melod":9267,"ingred":9268,"poker":9269,"1975":9270,"solen":9271,"##ci":9272,"aftenposten":9273,"utfordringene":9274,"offent":9275,"##ianter":9276,"##ssystemet":9277,"festival":9278,"slutter":9279,"lagring":9280,"nedsatt":9281,"alders":9282,"størrelsen":9283,"petro":9284,"utløp":9285,"mere":9286,"veggen":9287,"kjønnsle":9288,"bater":9289,"kose":9290,"##versjon":9291,"lokaler":9292,"styres":9293,"##ssitu":9294,"eta":9295,"stykke":9296,"grøn":9297,"barnevern":9298,"sykl":9299,"streng":9300,"read":9301,"times":9302,"##plikt":9303,"1981":9304,"##ugen":9305,"##represent":9306,"##hn":9307,"kjendiser":9308,"fris":9309,"arbeidstakere":9310,"##oda":9311,"lande":9312,"jernbane":9313,"##prosjekter":9314,"selskapene":9315,"##teres":9316,"sed":9317,"##pensjon":9318,"namn":9319,"girls":9320,"forebygge":9321,"##innhold":9322,"##abelt":9323,"##elsens":9324,"delstaten":9325,"perman":9326,"##stilbud":9327,"pafølgende":9328,"##sfjord":9329,"landsby":9330,"jernban":9331,"1976":9332,"korrekt":9333,"nyeste":9334,"foretak":9335,"infl":9336,"177":9337,"##sprosjekt":9338,"mes":9339,"##bygget":9340,"guide":9341,"##baserte":9342,"prioriter":9343,"pdf":9344,"irak":9345,"skiftet":9346,"sult":9347,"overskudd":9348,"##illet":9349,"beliggen":9350,"stakk":9351,"##eper":9352,"north":9353,"1973":9354,"definert":9355,"##forsvar":9356,"##varen":9357,"underteg":9358,"senest":9359,"##markedet":9360,"##itz":9361,"##elat":9362,"forstyr":9363,"major":9364,"kjedelig":9365,"forutsetninger":9366,"jevnlig":9367,"referanse":9368,"1978":9369,"egner":9370,"søkere":9371,"glemme":9372,"##pte":9373,"97":9374,"sammenligne":9375,"kommunisere":9376,"poly":9377,"guttene":9378,"utry":9379,"##aste":9380,"skøy":9381,"support":9382,"medføre":9383,"##ialet":9384,"drives":9385,"utred":9386,"hypp":9387,"##ikasjoner":9388,"##oms":9389,"##ikon":9390,"##appar":9391,"globale":9392,"##egnet":9393,"tynn":9394,"##kja":9395,"trend":9396,"##plom":9397,"power":9398,"usas":9399,"leilighet":9400,"km²":9401,"kari":9402,"besøkt":9403,"idrettslag":9404,"##penger":9405,"##æl":9406,"##hy":9407,"bevege":9408,"forsvarlig":9409,"cali":9410,"lut":9411,"fargen":9412,"lærings":9413,"styrket":9414,"belønn":9415,"forutsetning":9416,"preg":9417,"kjønns":9418,"forelsket":9419,"produsenter":9420,"##anserte":9421,"##ords":9422,"##jøre":9423,"eriks":9424,"intensjon":9425,"oppfylle":9426,"hoppe":9427,"forbudt":9428,"##ssels":9429,"oppleves":9430,"will":9431,"ins":9432,"beveger":9433,"mari":9434,"understreker":9435,"##setningen":9436,"##bakken":9437,"fjorden":9438,"##elagt":9439,"delte":9440,"kapit":9441,"tidspunktet":9442,"fyller":9443,"act":9444,"sjakk":9445,"personlighet":9446,"fremste":9447,"george":9448,"medisinske":9449,"utgift":9450,"gren":9451,"ranger":9452,"fed":9453,"mennesket":9454,"flate":9455,"syria":9456,"imponerende":9457,"bibel":9458,"spanske":9459,"sjøl":9460,"element":9461,"dronning":9462,"##sanlegg":9463,"##11":9464,"nokre":9465,"rektor":9466,"holdninger":9467,"svømme":9468,"##avtale":9469,"##rikken":9470,"##arkiv":9471,"##fullt":9472,"riktignok":9473,"ordinære":9474,"forsvinner":9475,"forlate":9476,"bonde":9477,"betydningen":9478,"##savtale":9479,"telefonen":9480,"liggende":9481,"##spra":9482,"storting":9483,"døg":9484,"##skop":9485,"sjokol":9486,"63":9487,"sees":9488,"##ame":9489,"##sex":9490,"helsepersonell":9491,"##cas":9492,"konkluder":9493,"livsstil":9494,"skolene":9495,"harde":9496,"##run":9497,"musli":9498,"forhapentligvis":9499,"1700":9500,"sunt":9501,"##kvalitet":9502,"##nda":9503,"klassif":9504,"##chester":9505,"elis":9506,"arrangementet":9507,"##bb":9508,"##atører":9509,"arke":9510,"##osen":9511,"1974":9512,"klikke":9513,"spansk":9514,"regelverket":9515,"stammer":9516,"forsvant":9517,"sovjetun":9518,"forlot":9519,"##kommun":9520,"gym":9521,"delene":9522,"##chat":9523,"lisens":9524,"county":9525,"heile":9526,"mich":9527,"##strand":9528,"faget":9529,"sørøst":9530,"trakt":9531,"##aksjonen":9532,"eleven":9533,"laveste":9534,"endrer":9535,"paske":9536,"stry":9537,"##ota":9538,"etasje":9539,"kvinners":9540,"##smessige":9541,"videos":9542,"tømmer":9543,"##nev":9544,"ambass":9545,"høyester":9546,"luks":9547,"vedrørende":9548,"kartlegging":9549,"liter":9550,"høring":9551,"apps":9552,"veileder":9553,"##legges":9554,"sandefjord":9555,"##søker":9556,"oppfylt":9557,"katolske":9558,"dets":9559,"aktiver":9560,"ts":9561,"japansk":9562,"##vag":9563,"##legen":9564,"stjerner":9565,"pilot":9566,"hytta":9567,"reisen":9568,"king":9569,"norden":9570,"morgenen":9571,"olympiske":9572,"fns":9573,"finansier":9574,"alminn":9575,"gammelt":9576,"fase":9577,"naturligvis":9578,"utgaven":9579,"oppdrags":9580,"##udere":9581,"##ordningen":9582,"##stille":9583,"gjem":9584,"##oppgjør":9585,"relasjon":9586,"pyn":9587,"eiere":9588,"68":9589,"samtid":9590,"samarbeider":9591,"##sforbund":9592,"##ae":9593,"skre":9594,"business":9595,"util":9596,"##historie":9597,"##kampen":9598,"høyesterett":9599,"##board":9600,"tilbakemelding":9601,"sakte":9602,"destin":9603,"blikk":9604,"løst":9605,"oppskrift":9606,"##ington":9607,"##elva":9608,"offer":9609,"##jev":9610,"ah":9611,"skutt":9612,"lengst":9613,"1969":9614,"kaldt":9615,"gruppene":9616,"frie":9617,"korea":9618,"gold":9619,"heim":9620,"snitt":9621,"##kle":9622,"math":9623,"primært":9624,"##orm":9625,"69":9626,"kilo":9627,"arbeiderpartiet":9628,"##mis":9629,"palit":9630,"formidle":9631,"medvir":9632,"dokt":9633,"##skontroll":9634,"avdelingen":9635,"ingrediens":9636,"##back":9637,"driften":9638,"gry":9639,"smerter":9640,"##fallet":9641,"still":9642,"ankl":9643,"langsiktig":9644,"varsel":9645,"californ":9646,"ker":9647,"hæren":9648,"integrert":9649,"##aka":9650,"netto":9651,"trykke":9652,"##helset":9653,"ordentlig":9654,"regelverk":9655,"ulem":9656,"gulvet":9657,"had":9658,"##umin":9659,"havne":9660,"1964":9661,"##sikkerhet":9662,"behandler":9663,"nivaer":9664,"hittil":9665,"##onne":9666,"##kreft":9667,"forventes":9668,"arbeidsliv":9669,"danne":9670,"inviterer":9671,"villig":9672,"anbefalt":9673,"studerte":9674,"##esen":9675,"reaksjoner":9676,"samferd":9677,"##itiv":9678,"avv":9679,"problemene":9680,"bang":9681,"omsetning":9682,"##boken":9683,"personvern":9684,"intellig":9685,"prosed":9686,"##etningen":9687,"nedbør":9688,"##cer":9689,"kulturelle":9690,"bety":9691,"variasjon":9692,"regional":9693,"investering":9694,"bredde":9695,"visjon":9696,"koste":9697,"##iserings":9698,"variere":9699,"debu":9700,"##datter":9701,"dir":9702,"mengden":9703,"helge":9704,"kvad":9705,"franc":9706,"glemt":9707,"naz":9708,"##voll":9709,"passet":9710,"verdien":9711,"##15":9712,"1977":9713,"##grad":9714,"havn":9715,"helhetlig":9716,"aff":9717,"##pot":9718,"1967":9719,"plattform":9720,"149":9721,"kontakte":9722,"##anset":9723,"##12":9724,"vokal":9725,"##do":9726,"toal":9727,"vitne":9728,"nark":9729,"rens":9730,"garantert":9731,"singler":9732,"##ila":9733,"administrasjonen":9734,"traff":9735,"##lingene":9736,"gjenstander":9737,"tilpas":9738,"##inal":9739,"sarp":9740,"##vegen":9741,"arhundre":9742,"horn":9743,"##gaard":9744,"##ibli":9745,"##butikken":9746,"damp":9747,"italienske":9748,"brand":9749,"vilkarene":9750,"distriktet":9751,"hr":9752,"uvanlig":9753,"arkitektur":9754,"dild":9755,"lytte":9756,"oppsta":9757,"syssels":9758,"cum":9759,"møl":9760,"##egler":9761,"##bard":9762,"prinsippet":9763,"falle":9764,"styrer":9765,"##atch":9766,"forbruk":9767,"##reng":9768,"annonse":9769,"boligen":9770,"##ition":9771,"##istikken":9772,"slappe":9773,"gutten":9774,"vokst":9775,"foster":9776,"ye":9777,"cla":9778,"nh":9779,"kh":9780,"##sesser":9781,"flinke":9782,"trives":9783,"fødsel":9784,"hert":9785,"aring":9786,"irri":9787,"bun":9788,"dispensasjon":9789,"##unnskap":9790,"tinder":9791,"overføring":9792,"##ilbud":9793,"artene":9794,"##ulen":9795,"##kommer":9796,"cy":9797,"kenn":9798,"medan":9799,"##sprosjekter":9800,"72":9801,"stk":9802,"skritt":9803,"utfyl":9804,"bass":9805,"##senter":9806,"utstillingen":9807,"kafe":9808,"inse":9809,"##grens":9810,"open":9811,"##pool":9812,"utvikles":9813,"maskinen":9814,"tilsl":9815,"forbindel":9816,"arrangeres":9817,"hi":9818,"##fen":9819,"##fakt":9820,"kostnadene":9821,"##ømmet":9822,"##ineres":9823,"mexico":9824,"green":9825,"søkt":9826,"kald":9827,"bibelen":9828,"anskaff":9829,"hørings":9830,"##seth":9831,"apnes":9832,"kalde":9833,"hf":9834,"tilgjengelighet":9835,"gjaldt":9836,"##enteres":9837,"##ekn":9838,"landslaget":9839,"medisiner":9840,"https":9841,"modern":9842,"kunnskapen":9843,"personell":9844,"##test":9845,"##ations":9846,"lud":9847,"pors":9848,"statsbudsjett":9849,"aspe":9850,"forhindre":9851,"langvar":9852,"eksport":9853,"samboer":9854,"tvunget":9855,"##fir":9856,"tilnærming":9857,"svanger":9858,"fornøyde":9859,"fantes":9860,"tørre":9861,"smartt":9862,"bringe":9863,"diplom":9864,"styrings":9865,"speil":9866,"forskerne":9867,"##reis":9868,"piz":9869,"base":9870,"bekjemp":9871,"kjeller":9872,"emil":9873,"##skuddet":9874,"bunnen":9875,"ish":9876,"gjelde":9877,"3d":9878,"spesifikke":9879,"reduserer":9880,"sykepleier":9881,"fos":9882,"##kapital":9883,"einar":9884,"##somrader":9885,"stasjonen":9886,"vakkert":9887,"##leks":9888,"wikip":9889,"ekteskapet":9890,"psykolog":9891,"intervjuet":9892,"semif":9893,"nap":9894,"##helm":9895,"california":9896,"##oni":9897,"oppland":9898,"ettertid":9899,"obligator":9900,"administrative":9901,"##orgen":9902,"rov":9903,"partnere":9904,"pasientene":9905,"gled":9906,"##institusjoner":9907,"eide":9908,"bergens":9909,"skien":9910,"sun":9911,"utlend":9912,"enstemm":9913,"##likken":9914,"evner":9915,"##følelse":9916,"artist":9917,"smør":9918,"##rul":9919,"døren":9920,"sanne":9921,"valer":9922,"stralende":9923,"derfra":9924,"##stoffer":9925,"uend":9926,"angst":9927,"##osjon":9928,"skolens":9929,"dekning":9930,"##rot":9931,"offisielt":9932,"tour":9933,"vassdrag":9934,"##ones":9935,"##oph":9936,"##trykk":9937,"##sem":9938,"effekter":9939,"##anne":9940,"blanding":9941,"##ileum":9942,"kundes":9943,"barnas":9944,"lærte":9945,"andro":9946,"##oil":9947,"jorda":9948,"klubbens":9949,"77":9950,"tegnes":9951,"tradisjoner":9952,"mannlige":9953,"##stikk":9954,"begrense":9955,"trykket":9956,"hehe":9957,"fungerte":9958,"##byr":9959,"##kompetanse":9960,"mennene":9961,"negativ":9962,"navig":9963,"forholdsvis":9964,"##dringer":9965,"##16":9966,"geb":9967,"##stasjonen":9968,"tilsvarer":9969,"samlinger":9970,"##ssik":9971,"##rete":9972,"school":9973,"omgivelser":9974,"munnen":9975,"kreative":9976,"opprinnelse":9977,"larvik":9978,"##iff":9979,"selges":9980,"1971":9981,"##yo":9982,"kode":9983,"hellig":9984,"forberedt":9985,"kirur":9986,"overnatting":9987,"drap":9988,"virkelige":9989,"##avisen":9990,"##bruker":9991,"landskapet":9992,"skjær":9993,"billett":9994,"finale":9995,"##kro":9996,"##bill":9997,"##veksten":9998,"##stider":9999,"national":10000,"tidsskrift":10001,"sper":10002,"datteren":10003,"verket":10004,"tilbys":10005,"richard":10006,"tendens":10007,"fylkeskommune":10008,"lt":10009,"billige":10010,"klipp":10011,"##ringe":10012,"spareb":10013,"roller":10014,"##uel":10015,"paret":10016,"irland":10017,"nilsen":10018,"politiker":10019,"ruter":10020,"kopi":10021,"ragn":10022,"sarpsborg":10023,"interne":10024,"##beskriv":10025,"teoret":10026,"fremtidige":10027,"ingeniør":10028,"elektroniske":10029,"greske":10030,"##smod":10031,"##rich":10032,"oppgir":10033,"tabellen":10034,"nas":10035,"##rette":10036,"reserv":10037,"tilsynelat":10038,"##jern":10039,"##ws":10040,"bestaende":10041,"gab":10042,"løk":10043,"hilsen":10044,"##vitenskap":10045,"##sløp":10046,"quiz":10047,"kunstnere":10048,"døgnet":10049,"blind":10050,"##idens":10051,"liden":10052,"arendal":10053,"##key":10054,"feste":10055,"utstyret":10056,"kommunes":10057,"##sforhold":10058,"##befol":10059,"gleden":10060,"definisjon":10061,"tillitsvalg":10062,"gunst":10063,"##fre":10064,"##anna":10065,"restauranter":10066,"##problemer":10067,"regelmessig":10068,"italiensk":10069,"##rap":10070,"tech":10071,"introduksjon":10072,"##pass":10073,"mov":10074,"palestin":10075,"##selskaper":10076,"ordene":10077,"fullmakt":10078,"wikipedia":10079,"samlede":10080,"##oto":10081,"søkes":10082,"oppdraget":10083,"##cus":10084,"1948":10085,"##serien":10086,"partier":10087,"acc":10088,"innsatsen":10089,"handtering":10090,"tiltakene":10091,"behagelig":10092,"angri":10093,"telen":10094,"himmelen":10095,"##komiteen":10096,"varslet":10097,"vul":10098,"samarbeidspartnere":10099,"jordbær":10100,"labor":10101,"isb":10102,"ud":10103,"##fødte":10104,"##smater":10105,"##jenter":10106,"##bunn":10107,"shopping":10108,"vedtok":10109,"spiste":10110,"hust":10111,"videoen":10112,"ukraina":10113,"hvile":10114,"tillater":10115,"nordlige":10116,"kyl":10117,"innføre":10118,"strikke":10119,"protest":10120,"##naden":10121,"mount":10122,"avtalt":10123,"agen":10124,"oftere":10125,"hat":10126,"rabatt":10127,"varianter":10128,"stemning":10129,"forklaring":10130,"hape":10131,"folkehelse":10132,"meninger":10133,"flam":10134,"##konkurran":10135,"1965":10136,"daniel":10137,"baks":10138,"utarbeide":10139,"##uligheter":10140,"politid":10141,"##veren":10142,"entreprenør":10143,"turn":10144,"rettss":10145,"spilleren":10146,"ungene":10147,"##somradet":10148,"hendelsen":10149,"1600":10150,"kva":10151,"sjanser":10152,"flytter":10153,"vanligste":10154,"##rand":10155,"evnen":10156,"kandidater":10157,"sivile":10158,"døden":10159,"pig":10160,"melk":10161,"ama":10162,"reduseres":10163,"harry":10164,"bjer":10165,"oppvarming":10166,"metal":10167,"##lass":10168,"##marks":10169,"##ting":10170,"##ømm":10171,"##cia":10172,"##az":10173,"##andel":10174,"##ervice":10175,"##parken":10176,"transa":10177,"##seier":10178,"evig":10179,"noveller":10180,"foruten":10181,"kontakter":10182,"finger":10183,"pust":10184,"##ome":10185,"uro":10186,"festivalen":10187,"##skerne":10188,"karakt":10189,"##orgrad":10190,"stolte":10191,"hms":10192,"avgjørelse":10193,"gy":10194,"170":10195,"##sjøen":10196,"trafikken":10197,"home":10198,"installert":10199,"virkelighet":10200,"sørget":10201,"bakke":10202,"gig":10203,"gjenstand":10204,"spons":10205,"innspil":10206,"##frie":10207,"takke":10208,"hjemmelaget":10209,"alexander":10210,"fødsels":10211,"protokoll":10212,"##so":10213,"##frem":10214,"foretrekker":10215,"pian":10216,"beløpet":10217,"##ualitet":10218,"gjø":10219,"##mf":10220,"semifin":10221,"ukjente":10222,"internt":10223,"manager":10224,"utk":10225,"aur":10226,"bekrefter":10227,"##go":10228,"konkurranser":10229,"##ict":10230,"renn":10231,"generalfor":10232,"camping":10233,"hang":10234,"gjennomsiktig":10235,"tilsynelatende":10236,"##ystemet":10237,"mem":10238,"fusjon":10239,"##irkninger":10240,"sørlige":10241,"##list":10242,"fet":10243,"advar":10244,"bund":10245,"stoffet":10246,"##data":10247,"group":10248,"##forsta":10249,"kamer":10250,"##edel":10251,"strøk":10252,"opph":10253,"roll":10254,"havner":10255,"sopp":10256,"innendørs":10257,"brøt":10258,"hensiktsmessig":10259,"##aritet":10260,"hill":10261,"formidling":10262,"##lund":10263,"avdelinger":10264,"salgs":10265,"unntatt":10266,"styrets":10267,"enstemmig":10268,"fremgang":10269,"snap":10270,"kjendis":10271,"tenn":10272,"##otika":10273,"ytelse":10274,"tilrettelegging":10275,"appar":10276,"run":10277,"##fyr":10278,"##ømming":10279,"asiatiske":10280,"rekruttering":10281,"flørt":10282,"drag":10283,"overh":10284,"gjenkj":10285,"radet":10286,"##angrep":10287,"fattige":10288,"kond":10289,"dum":10290,"lederen":10291,"sammenhenger":10292,"moden":10293,"##ystem":10294,"rengjøring":10295,"88":10296,"##gget":10297,"samisk":10298,"##stjenesten":10299,"forbedring":10300,"deltaker":10301,"##faring":10302,"##bra":10303,"servert":10304,"fortjener":10305,"overalt":10306,"sære":10307,"sok":10308,"dj":10309,"happy":10310,"nedgang":10311,"kjempet":10312,"kraftige":10313,"##jesel":10314,"tegne":10315,"undersøkt":10316,"##zen":10317,"apningen":10318,"deilige":10319,"rapportering":10320,"oppnad":10321,"##ekont":10322,"scor":10323,"##kkere":10324,"avgrens":10325,"vegvesen":10326,"oppdragsgiver":10327,"##somrade":10328,"oversett":10329,"skuff":10330,"vog":10331,"##kanten":10332,"bevar":10333,"ordre":10334,"skott":10335,"hushold":10336,"ringe":10337,"900":10338,"kona":10339,"manedene":10340,"dop":10341,"oppnadd":10342,"74":10343,"##brev":10344,"sovjetunionen":10345,"utgangen":10346,"samles":10347,"seieren":10348,"rettferdig":10349,"evangel":10350,"badet":10351,"liver":10352,"kyrk":10353,"øyene":10354,"gong":10355,"##hjul":10356,"presid":10357,"73":10358,"tiltaket":10359,"strategisk":10360,"##sats":10361,"antatt":10362,"gt":10363,"make":10364,"##bestemm":10365,"##nerte":10366,"sannheten":10367,"##hallen":10368,"eidsv":10369,"høyden":10370,"##nte":10371,"opphe":10372,"statoil":10373,"vitenskapelig":10374,"1966":10375,"##kontor":10376,"oscar":10377,"elisabeth":10378,"##styring":10379,"leiligheten":10380,"long":10381,"##pes":10382,"mobilen":10383,"datas":10384,"##jent":10385,"radmann":10386,"staf":10387,"gjennomfører":10388,"shem":10389,"good":10390,"fordeling":10391,"##ml":10392,"78":10393,"##møtet":10394,"velges":10395,"konver":10396,"alta":10397,"elektro":10398,"comp":10399,"tøffe":10400,"automat":10401,"sittende":10402,"bryllup":10403,"175":10404,"formannskapet":10405,"##elever":10406,"variert":10407,"hastighet":10408,"usikkerhet":10409,"kristus":10410,"selvtil":10411,"forresten":10412,"lukket":10413,"##fast":10414,"gule":10415,"##oli":10416,"##jes":10417,"utelukkende":10418,"parken":10419,"##ikop":10420,"innvandrer":10421,"ressurs":10422,"pamelding":10423,"oppfyller":10424,"##hem":10425,"omfattet":10426,"talt":10427,"##teret":10428,"bassen":10429,"avanserte":10430,"svake":10431,"gjenstar":10432,"original":10433,"##veil":10434,"wa":10435,"vegen":10436,"mnd":10437,"##jere":10438,"aviser":10439,"sjokolade":10440,"forpli":10441,"anton":10442,"##dy":10443,"98":10444,"relatert":10445,"stipend":10446,"maltid":10447,"innslag":10448,"protein":10449,"budsjettet":10450,"avhenger":10451,"##lia":10452,"konsentrasjon":10453,"villa":10454,"##date":10455,"hjalp":10456,"selvstend":10457,"jesu":10458,"marine":10459,"serier":10460,"##organisasjonen":10461,"bivirkninger":10462,"##onering":10463,"sexle":10464,"lidenskap":10465,"kategorien":10466,"tilsier":10467,"sval":10468,"##dig":10469,"tingrett":10470,"handen":10471,"tax":10472,"utfordringen":10473,"motoren":10474,"##undersøkelsen":10475,"##anner":10476,"##fjellet":10477,"afrik":10478,"##uens":10479,"dokumentert":10480,"møbler":10481,"bygda":10482,"##banken":10483,"tilfredsstillende":10484,"treffer":10485,"debuterte":10486,"overflate":10487,"mosk":10488,"##bevis":10489,"oppdager":10490,"kriterier":10491,"fortid":10492,"etterkant":10493,"she":10494,"afghan":10495,"kaptein":10496,"heilt":10497,"##forvalt":10498,"holm":10499,"meldte":10500,"bow":10501,"linjer":10502,"##ots":10503,"ødelegge":10504,"nabol":10505,"##arter":10506,"temperaturen":10507,"erkj":10508,"generasjoner":10509,"##stjeneste":10510,"kameraet":10511,"øvelse":10512,"61":10513,"uøn":10514,"komiteen":10515,"prinsipper":10516,"1963":10517,"##itive":10518,"lønns":10519,"fysi":10520,"##avtalen":10521,"cra":10522,"forbruks":10523,"anerkjente":10524,"særskilt":10525,"##anlegget":10526,"smal":10527,"vera":10528,"tenaring":10529,"##leum":10530,"europeisk":10531,"argument":10532,"android":10533,"japanske":10534,"skilsm":10535,"mørket":10536,"heid":10537,"jøder":10538,"##bøl":10539,"sekret":10540,"drømme":10541,"terra":10542,"webcam":10543,"inni":10544,"hundrevis":10545,"##lovens":10546,"røyk":10547,"##25":10548,"dug":10549,"##box":10550,"hjerne":10551,"##etid":10552,"orgas":10553,"innledning":10554,"fokuserer":10555,"disku":10556,"kvadrat":10557,"likes":10558,"ost":10559,"istedenfor":10560,"manchester":10561,"##fugl":10562,"##ifer":10563,"negativt":10564,"krem":10565,"berømte":10566,"tekstil":10567,"##søkonom":10568,"kjekt":10569,"slette":10570,"betydelige":10571,"hyggelige":10572,"kvalitetssik":10573,"##iskap":10574,"##lic":10575,"gjengen":10576,"ken":10577,"muslimske":10578,"mobbing":10579,"beliggenhet":10580,"##deren":10581,"176":10582,"ferdige":10583,"konserter":10584,"##skritt":10585,"##apeut":10586,"radmannen":10587,"##fru":10588,"##eløp":10589,"informere":10590,"toll":10591,"##agene":10592,"##administ":10593,"utformet":10594,"tank":10595,"planene":10596,"kalte":10597,"arn":10598,"##istrikt":10599,"forfattere":10600,"pkt":10601,"oversatt":10602,"truet":10603,"petroleum":10604,"erfarne":10605,"jødiske":10606,"loj":10607,"elv":10608,"selvmord":10609,"artister":10610,"ssb":10611,"##zy":10612,"sjafør":10613,"asf":10614,"spillene":10615,"##skade":10616,"tag":10617,"steng":10618,"utredning":10619,"apenhet":10620,"legemidler":10621,"##ressur":10622,"##smøtet":10623,"##spolitikk":10624,"drama":10625,"firmaet":10626,"kontoret":10627,"skrives":10628,"bussen":10629,"76":10630,"have":10631,"interessen":10632,"hobby":10633,"##iar":10634,"##sprob":10635,"jonas":10636,"##forum":10637,"##con":10638,"dobbel":10639,"romerske":10640,"sau":10641,"runder":10642,"billetter":10643,"helseforetak":10644,"##sos":10645,"intet":10646,"datert":10647,"keeper":10648,"elsket":10649,"vri":10650,"mess":10651,"tildeling":10652,"genet":10653,"1956":10654,"timen":10655,"##armer":10656,"gjentatte":10657,"lykkelig":10658,"skjemaet":10659,"samleie":10660,"##sretten":10661,"ektem":10662,"katal":10663,"hverken":10664,"luften":10665,"##ktivitet":10666,"styreleder":10667,"etiske":10668,"##sbrev":10669,"argent":10670,"kjærester":10671,"avsnitt":10672,"dildo":10673,"motsatte":10674,"##enga":10675,"utøv":10676,"forutsetter":10677,"unnskyld":10678,"juridisk":10679,"##opt":10680,"nordre":10681,"landsbyen":10682,"swingers":10683,"##klare":10684,"uttrykket":10685,"journalister":10686,"##oline":10687,"personalet":10688,"##forslag":10689,"etterful":10690,"bekreft":10691,"house":10692,"barnevernet":10693,"##19":10694,"##ordet":10695,"emner":10696,"##sperioden":10697,"harmon":10698,"##fu":10699,"opera":10700,"omstend":10701,"liverpool":10702,"revolusjonen":10703,"godkjente":10704,"toget":10705,"utbytte":10706,"dødsf":10707,"##odt":10708,"spekter":10709,"sexleketøy":10710,"merkelig":10711,"pas":10712,"forvir":10713,"##ison":10714,"tele":10715,"utal":10716,"halden":10717,"skot":10718,"tidlige":10719,"utmerk":10720,"forskriften":10721,"nestleder":10722,"opplæringen":10723,"eksisterer":10724,"##ctic":10725,"hek":10726,"armen":10727,"ens":10728,"union":10729,"østerrike":10730,"##ulære":10731,"##eremon":10732,"gjeste":10733,"##zon":10734,"##amet":10735,"punktet":10736,"##orium":10737,"jørgen":10738,"ded":10739,"sammenlik":10740,"avansert":10741,"antagelig":10742,"##oller":10743,"##mail":10744,"##gjøres":10745,"fullføre":10746,"kru":10747,"bachelor":10748,"permanent":10749,"livs":10750,"banker":10751,"##13":10752,"aktiviteten":10753,"##illa":10754,"##lest":10755,"##komst":10756,"smith":10757,"##odden":10758,"##iret":10759,"##stilsynet":10760,"oppskriften":10761,"gjennomgatt":10762,"poster":10763,"##tting":10764,"billed":10765,"##ødre":10766,"arrangerer":10767,"##undersøkelser":10768,"nakenbilder":10769,"lagret":10770,"aktørene":10771,"levet":10772,"vitenskapelige":10773,"konserv":10774,"pers":10775,"bern":10776,"##saks":10777,"skuffet":10778,"ort":10779,"vannkraft":10780,"##punkter":10781,"skjult":10782,"størrelser":10783,"##høg":10784,"lade":10785,"avsk":10786,"snill":10787,"79":10788,"rang":10789,"##ou":10790,"episode":10791,"holdning":10792,"finst":10793,"assos":10794,"##pos":10795,"##uminium":10796,"drifts":10797,"mesteparten":10798,"vennene":10799,"wash":10800,"analyt":10801,"##arbeidere":10802,"##tekst":10803,"pavirkning":10804,"tenner":10805,"bevare":10806,"konsekvensene":10807,"trekkes":10808,"##ience":10809,"statlig":10810,"veterin":10811,"held":10812,"##jarar":10813,"forberede":10814,"##analyse":10815,"konferansen":10816,"160":10817,"foreles":10818,"brett":10819,"##rund":10820,"litter":10821,"turne":10822,"oli":10823,"tegneser":10824,"##idar":10825,"sørg":10826,"##tal":10827,"##øde":10828,"##anere":10829,"sammenhengen":10830,"forpliktelser":10831,"strenge":10832,"##ages":10833,"1962":10834,"takknem":10835,"##amper":10836,"##pert":10837,"anerkjent":10838,"domin":10839,"kirker":10840,"lofot":10841,"grill":10842,"bryr":10843,"##innlegg":10844,"budd":10845,"##ville":10846,"##sprogrammet":10847,"##smed":10848,"fyll":10849,"sliten":10850,"filmene":10851,"##iblant":10852,"dun":10853,"kunnskaper":10854,"stiftelsen":10855,"friluftsliv":10856,"arrestert":10857,"vinneren":10858,"skjeb":10859,"romanen":10860,"angitt":10861,"##programmet":10862,"behøver":10863,"##konstru":10864,"nytta":10865,"##frihet":10866,"##utviklingen":10867,"biblioteket":10868,"yngste":10869,"designer":10870,"hester":10871,"forebyggende":10872,"stemp":10873,"indian":10874,"arbeidsplass":10875,"fad":10876,"flyktning":10877,"søket":10878,"anbefalinger":10879,"##agas":10880,"vurderingen":10881,"##finans":10882,"problemstillinger":10883,"urin":10884,"sjette":10885,"elske":10886,"get":10887,"##holt":10888,"fremstar":10889,"street":10890,"kongsberg":10891,"evaluer":10892,"##idge":10893,"halvor":10894,"billigere":10895,"strømmen":10896,"manag":10897,"eksperiment":10898,"##brand":10899,"spist":10900,"##vnen":10901,"##skogen":10902,"bekymret":10903,"##load":10904,"inner":10905,"kontrollen":10906,"lister":10907,"##rine":10908,"originale":10909,"##ulasjon":10910,"lufthavn":10911,"spelte":10912,"##gjennom":10913,"uttalte":10914,"falske":10915,"tus":10916,"angeles":10917,"klø":10918,"pav":10919,"##betaling":10920,"##bibli":10921,"fargene":10922,"kristendom":10923,"skjøt":10924,"konfir":10925,"personene":10926,"kutt":10927,"##lend":10928,"kritiske":10929,"talent":10930,"fron":10931,"veiled":10932,"##bank":10933,"innsjø":10934,"baker":10935,"##løpende":10936,"##los":10937,"##regel":10938,"##ji":10939,"ledige":10940,"##dager":10941,"stev":10942,"adam":10943,"avgang":10944,"##inasjon":10945,"##spunkter":10946,"instrument":10947,"tang":10948,"muntlig":10949,"glatt":10950,"##ces":10951,"brede":10952,"scener":10953,"##funnet":10954,"nato":10955,"spek":10956,"refusjon":10957,"##splikt":10958,"svalbard":10959,"heldige":10960,"administrerende":10961,"grei":10962,"##formid":10963,"##egrens":10964,"dokumentere":10965,"ekstraordin":10966,"premie":10967,"gjøvik":10968,"statistisk":10969,"##kortet":10970,"omhandler":10971,"immun":10972,"nominert":10973,"jula":10974,"##sbruk":10975,"henvendelser":10976,"nordøst":10977,"##cing":10978,"##pleie":10979,"kirkens":10980,"##løk":10981,"##feil":10982,"katastro":10983,"manus":10984,"##klassen":10985,"partiene":10986,"##isi":10987,"##kkelt":10988,"vinden":10989,"##fting":10990,"##snes":10991,"kartet":10992,"##egjør":10993,"sjokk":10994,"ida":10995,"aluminium":10996,"chil":10997,"freder":10998,"works":10999,"makten":11000,"##jeld":11001,"høytt":11002,"word":11003,"frid":11004,"deriblant":11005,"avslutter":11006,"diagnost":11007,"vald":11008,"styremedlem":11009,"82":11010,"##smidler":11011,"overvak":11012,"96":11013,"##ado":11014,"##dato":11015,"##kysten":11016,"victoria":11017,"##orteføl":11018,"##givende":11019,"##sal":11020,"##hei":11021,"bodd":11022,"day":11023,"##brukere":11024,"##17":11025,"##dam":11026,"skjen":11027,"tomt":11028,"##rater":11029,"ving":11030,"##sch":11031,"##gjørelse":11032,"sjefen":11033,"nettbrett":11034,"møtested":11035,"arbeidstid":11036,"fremgar":11037,"86":11038,"##lager":11039,"turneringen":11040,"spredt":11041,"espen":11042,"betegnelsen":11043,"poenget":11044,"pepper":11045,"gust":11046,"##core":11047,"forsy":11048,"##splasser":11049,"##ican":11050,"revet":11051,"pleie":11052,"endelige":11053,"treningen":11054,"tlf":11055,"konstruksjon":11056,"arrangere":11057,"justis":11058,"legemiddel":11059,"##asi":11060,"##ima":11061,"oppkobling":11062,"##ahl":11063,"music":11064,"nevner":11065,"skjulte":11066,"##no":11067,"##egen":11068,"##lav":11069,"torg":11070,"ond":11071,"1946":11072,"lesbiske":11073,"##akten":11074,"helses":11075,"patri":11076,"kraftverk":11077,"valuta":11078,"yoga":11079,"##areal":11080,"lene":11081,"installasjon":11082,"filosofi":11083,"hunn":11084,"furu":11085,"##orger":11086,"verksted":11087,"forhandlinger":11088,"kontrakten":11089,"enden":11090,"hunde":11091,"cli":11092,"individuell":11093,"##urit":11094,"##hopp":11095,"forekommer":11096,"dører":11097,"veksten":11098,"flyplass":11099,"forsvare":11100,"arbeidsoppgaver":11101,"##rapporter":11102,"fortsett":11103,"teknikker":11104,"detaljert":11105,"innbygger":11106,"sjanger":11107,"plukket":11108,"nederst":11109,"##bolig":11110,"salget":11111,"operasjoner":11112,"telenor":11113,"jud":11114,"bestemmelsen":11115,"instrukt":11116,"riket":11117,"polar":11118,"lillestrøm":11119,"korrig":11120,"matchm":11121,"humør":11122,"tilsynet":11123,"##virksom":11124,"##issen":11125,"diabet":11126,"økonomien":11127,"rydde":11128,"handlingen":11129,"meldingen":11130,"##forskriften":11131,"##punktet":11132,"##sutvikling":11133,"standarder":11134,"rio":11135,"virkemidler":11136,"##ssent":11137,"tapet":11138,"strikk":11139,"estet":11140,"akseptere":11141,"##smet":11142,"nordover":11143,"sluppet":11144,"dahl":11145,"emne":11146,"blomst":11147,"kniv":11148,"trag":11149,"ms":11150,"1958":11151,"besøks":11152,"møttes":11153,"##oser":11154,"innrømme":11155,"krise":11156,"coach":11157,"kvalifisert":11158,"dagers":11159,"##oppgave":11160,"oppløsning":11161,"##rollen":11162,"misly":11163,"##spes":11164,"##øvere":11165,"##prøve":11166,"##bre":11167,"saksbehandling":11168,"##yper":11169,"undervisningen":11170,"ombord":11171,"mesterskapet":11172,"##alisering":11173,"##staden":11174,"inger":11175,"flom":11176,"##tta":11177,"fisken":11178,"bevegelser":11179,"respons":11180,"##eled":11181,"lure":11182,"##ralen":11183,"##elv":11184,"venninne":11185,"rose":11186,"##elles":11187,"1952":11188,"##ining":11189,"arbeidskraft":11190,"sjeldne":11191,"##funksjon":11192,"romantisk":11193,"mobiltelefon":11194,"84":11195,"femin":11196,"fortløpende":11197,"sterkeste":11198,"rat":11199,"soft":11200,"ordning":11201,"##kons":11202,"fotballspiller":11203,"overlever":11204,"antas":11205,"sykler":11206,"##otiske":11207,"1917":11208,"konflikter":11209,"flyr":11210,"videreutvikle":11211,"eus":11212,"overordnet":11213,"cub":11214,"##vinner":11215,"stedene":11216,"##ttere":11217,"nydelige":11218,"##føringer":11219,"garanti":11220,"##søkere":11221,"sir":11222,"herren":11223,"materiell":11224,"tariff":11225,"innvandring":11226,"spent":11227,"allierte":11228,"bisp":11229,"hekte":11230,"tjenest":11231,"lyden":11232,"politikken":11233,"fugl":11234,"##etta":11235,"avgjørelsen":11236,"1944":11237,"##shistor":11238,"##elte":11239,"verdiskap":11240,"testen":11241,"avslutning":11242,"##endt":11243,"##ous":11244,"innsyn":11245,"##medalje":11246,"##sforen":11247,"##utdan":11248,"##skrevet":11249,"##wh":11250,"turister":11251,"yrke":11252,"gratulerer":11253,"110":11254,"vietnam":11255,"##pset":11256,"forferd":11257,"1961":11258,"implem":11259,"nærhet":11260,"##cm":11261,"oppkalt":11262,"sengen":11263,"enighet":11264,"orke":11265,"kartlegge":11266,"ytr":11267,"##bul":11268,"overgangen":11269,"økningen":11270,"slipp":11271,"seriøst":11272,"søsken":11273,"dype":11274,"differ":11275,"##egang":11276,"##ship":11277,"##srad":11278,"hende":11279,"batt":11280,"forskningen":11281,"##strekk":11282,"intim":11283,"chic":11284,"##forf":11285,"faktiske":11286,"enorm":11287,"##preg":11288,"ønskelig":11289,"forskrifter":11290,"##esn":11291,"spissen":11292,"foretaket":11293,"##ologien":11294,"##14":11295,"territ":11296,"bedriftene":11297,"##spris":11298,"87":11299,"##sselskap":11300,"##gra":11301,"##anken":11302,"disipl":11303,"kortet":11304,"demokrati":11305,"omgivelsene":11306,"festet":11307,"##ravær":11308,"ryt":11309,"entus":11310,"stimulere":11311,"døm":11312,"skottland":11313,"bam":11314,"##vennlige":11315,"forbedret":11316,"uttalelse":11317,"plassere":11318,"samspill":11319,"nedlast":11320,"gjennomføringen":11321,"##sfag":11322,"look":11323,"harstad":11324,"ordinær":11325,"state":11326,"action":11327,"fremhe":11328,"dataene":11329,"oppbevaring":11330,"ernær":11331,"barcel":11332,"uttak":11333,"##tegn":11334,"##værelse":11335,"pameld":11336,"##smiljø":11337,"regnskaps":11338,"gjenspe":11339,"halvdel":11340,"##sammen":11341,"##avis":11342,"mestring":11343,"menneskelige":11344,"artig":11345,"profilen":11346,"gaten":11347,"gyldig":11348,"sannsynlighet":11349,"kanaler":11350,"##klo":11351,"snøen":11352,"trett":11353,"avslutte":11354,"sorg":11355,"smaker":11356,"beslutninger":11357,"vinduer":11358,"jæ":11359,"teller":11360,"iver":11361,"tilstanden":11362,"##gata":11363,"research":11364,"##sstud":11365,"skjønte":11366,"konseptet":11367,"##atoren":11368,"nyttige":11369,"1947":11370,"##problem":11371,"##low":11372,"vende":11373,"muslimer":11374,"hjerter":11375,"spekt":11376,"innbyggjarar":11377,"undervisnings":11378,"##sbrudd":11379,"innblikk":11380,"troen":11381,"tredjepart":11382,"veit":11383,"##grunnlag":11384,"##forbruk":11385,"varte":11386,"lyder":11387,"feire":11388,"utvidelse":11389,"minnes":11390,"##23":11391,"mage":11392,"tildel":11393,"bestilt":11394,"fuktighet":11395,"mesterskap":11396,"reagerer":11397,"shemale":11398,"louis":11399,"ille":11400,"##itten":11401,"potet":11402,"eva":11403,"ks":11404,"polske":11405,"##ordane":11406,"hann":11407,"##feranse":11408,"dommen":11409,"bestod":11410,"##kler":11411,"besto":11412,"lie":11413,"kollektiv":11414,"##litteratur":11415,"etikk":11416,"reflekt":11417,"diskusjoner":11418,"savnet":11419,"trenere":11420,"revidert":11421,"øyer":11422,"##sverk":11423,"##engden":11424,"antarkt":11425,"flytende":11426,"seinere":11427,"bladet":11428,"filip":11429,"kontrollutvalget":11430,"idet":11431,"1200":11432,"primær":11433,"fattigdom":11434,"venst":11435,"glas":11436,"sone":11437,"##reden":11438,"girl":11439,"juridiske":11440,"minoritet":11441,"sten":11442,"##gin":11443,"versjoner":11444,"punkter":11445,"white":11446,"##aw":11447,"nadd":11448,"flu":11449,"datamaskiner":11450,"##gri":11451,"økologisk":11452,"frakt":11453,"##fta":11454,"##riket":11455,"##alls":11456,"##oppdrag":11457,"opplegg":11458,"lyng":11459,"afghanistan":11460,"##ikkel":11461,"alternativet":11462,"##ssenteret":11463,"moskva":11464,"hosp":11465,"blogge":11466,"reddet":11467,"##begynn":11468,"utgjorde":11469,"vitamin":11470,"lenker":11471,"dusj":11472,"##riere":11473,"1939":11474,"##butikker":11475,"bene":11476,"passende":11477,"fisket":11478,"##klubben":11479,"##æringen":11480,"trent":11481,"filer":11482,"##firma":11483,"##sve":11484,"uavhengige":11485,"damene":11486,"life":11487,"fødselen":11488,"tape":11489,"ild":11490,"utleie":11491,"oppførsel":11492,"angi":11493,"nit":11494,"##rukket":11495,"oppskrifter":11496,"aas":11497,"dalen":11498,"laga":11499,"##rek":11500,"dyrene":11501,"fjordane":11502,"øyet":11503,"straffe":11504,"##innene":11505,"##ump":11506,"sug":11507,"konsern":11508,"##prosessen":11509,"karbon":11510,"mobiltelefoner":11511,"##foreld":11512,"observert":11513,"modne":11514,"knytte":11515,"oppsig":11516,"eik":11517,"stole":11518,"##prøver":11519,"forretningsm":11520,"##skr":11521,"##speriode":11522,"urett":11523,"timers":11524,"jag":11525,"##imet":11526,"tradisjonen":11527,"bredere":11528,"vestre":11529,"forfall":11530,"kanalen":11531,"##field":11532,"inntak":11533,"oppholdet":11534,"zealand":11535,"##bordet":11536,"nøyt":11537,"##skjel":11538,"kutte":11539,"##virke":11540,"##eist":11541,"utsted":11542,"span":11543,"##alle":11544,"##øtte":11545,"pøl":11546,"frekvens":11547,"innk":11548,"øystein":11549,"kriminalitet":11550,"##bad":11551,"##fravær":11552,"89":11553,"dekkes":11554,"##prin":11555,"##øster":11556,"##minner":11557,"vas":11558,"datoen":11559,"fyrste":11560,"innkalling":11561,"##ratt":11562,"##skapen":11563,"dramatisk":11564,"varia":11565,"ever":11566,"bevissthet":11567,"stranden":11568,"##ferie":11569,"faktor":11570,"domstol":11571,"vr":11572,"vinduet":11573,"lesing":11574,"93":11575,"##lywood":11576,"##omer":11577,"83":11578,"midlene":11579,"ub":11580,"washington":11581,"##gir":11582,"##veit":11583,"stiv":11584,"farlige":11585,"pedagogisk":11586,"unikt":11587,"krim":11588,"ht":11589,"skept":11590,"##egner":11591,"skjønt":11592,"helikop":11593,"heft":11594,"faktura":11595,"eksperter":11596,"satsing":11597,"forarsak":11598,"luksus":11599,"albert":11600,"lagde":11601,"anim":11602,"kompetansen":11603,"dyrt":11604,"perm":11605,"format":11606,"imøte":11607,"##lings":11608,"##øyet":11609,"hur":11610,"##pre":11611,"pizza":11612,"1942":11613,"royal":11614,"gh":11615,"gol":11616,"##bevegelsen":11617,"ns":11618,"oppgi":11619,"##ftes":11620,"kolleger":11621,"##esenter":11622,"lagres":11623,"vilt":11624,"1957":11625,"fangst":11626,"center":11627,"oversikten":11628,"ambisjoner":11629,"retningslinjene":11630,"lidelser":11631,"atmosfære":11632,"pur":11633,"linn":11634,"døds":11635,"##instituttet":11636,"fremmer":11637,"drepe":11638,"diesel":11639,"shop":11640,"##edom":11641,"apenbar":11642,"forstatt":11643,"##sutøver":11644,"rolf":11645,"markert":11646,"##ods":11647,"innsiden":11648,"illustrasjon":11649,"##rog":11650,"krets":11651,"##ox":11652,"##arige":11653,"##80":11654,"drakt":11655,"##elding":11656,"redaksjon":11657,"styrt":11658,"trang":11659,"psykiat":11660,"##sset":11661,"kombinere":11662,"opplyst":11663,"eirik":11664,"barcelona":11665,"traf":11666,"langtid":11667,"renner":11668,"fremmet":11669,"1936":11670,"klinisk":11671,"anledninger":11672,"##onder":11673,"arabiske":11674,"spa":11675,"doktorgrad":11676,"ikon":11677,"helsed":11678,"vene":11679,"##smenn":11680,"synet":11681,"bilene":11682,"lagmann":11683,"dyktig":11684,"##skvalitet":11685,"begravet":11686,"ordfør":11687,"julen":11688,"fylte":11689,"menyen":11690,"##besk":11691,"##haugen":11692,"politiets":11693,"eriksen":11694,"apper":11695,"abo":11696,"vitner":11697,"tex":11698,"myt":11699,"borett":11700,"bekymring":11701,"tiltaks":11702,"industrien":11703,"flertallet":11704,"løv":11705,"pun":11706,"beat":11707,"##ørselen":11708,"beskrives":11709,"matchmaking":11710,"##ikar":11711,"who":11712,"leiligheter":11713,"leketøy":11714,"ron":11715,"sele":11716,"attraktive":11717,"erstatte":11718,"ligner":11719,"koblet":11720,"opptrer":11721,"normale":11722,"tørke":11723,"kommersielle":11724,"tam":11725,"##rator":11726,"menings":11727,"##elaget":11728,"##ortert":11729,"magnet":11730,"##mennene":11731,"##imellom":11732,"##gavene":11733,"føres":11734,"miljøer":11735,"passasjerer":11736,"øyvind":11737,"uheldig":11738,"##vinn":11739,"##¸ˇ":11740,"konkurrerer":11741,"vie":11742,"oppsett":11743,"offens":11744,"erkl":11745,"1941":11746,"##egnes":11747,"gum":11748,"rykket":11749,"nina":11750,"##forfatter":11751,"registrerer":11752,"foten":11753,"tantra":11754,"##lu":11755,"report":11756,"løftet":11757,"avisa":11758,"presidenten":11759,"cast":11760,"##gruppene":11761,"diskuter":11762,"ferske":11763,"kid":11764,"ingrid":11765,"mini":11766,"overflaten":11767,"rekker":11768,"rasjon":11769,"kren":11770,"##bs":11771,"##play":11772,"##hagen":11773,"##leir":11774,"sørover":11775,"marian":11776,"grim":11777,"overordnede":11778,"ungarn":11779,"anbud":11780,"begrensninger":11781,"oppfattet":11782,"konsernet":11783,"smarte":11784,"knall":11785,"##aster":11786,"squ":11787,"kake":11788,"begeist":11789,"##haver":11790,"##pat":11791,"grave":11792,"register":11793,"##fiske":11794,"operasjonen":11795,"1959":11796,"##komite":11797,"##sprosess":11798,"##bandet":11799,"formannskap":11800,"174":11801,"##nar":11802,"charles":11803,"3000":11804,"##ax":11805,"##onia":11806,"ef":11807,"føde":11808,"ari":11809,"utveksling":11810,"spilleautomater":11811,"##ettene":11812,"##navnet":11813,"drivstoff":11814,"##usale":11815,"referat":11816,"cop":11817,"1949":11818,"##produksjonen":11819,"komplek":11820,"ferien":11821,"stang":11822,"filipp":11823,"fabrikk":11824,"isen":11825,"fc":11826,"pens":11827,"inkludere":11828,"##eløs":11829,"##endring":11830,"jfr":11831,"lokalsamfunn":11832,"bakover":11833,"utbed":11834,"metod":11835,"forelsk":11836,"begrunnelse":11837,"##ekort":11838,"kasino":11839,"emosjon":11840,"##insk":11841,"##ampen":11842,"kvitt":11843,"nynorsk":11844,"sinte":11845,"##klet":11846,"sjekker":11847,"halvar":11848,"oksy":11849,"##grø":11850,"utgjøre":11851,"uttalt":11852,"eies":11853,"referer":11854,"forandret":11855,"##skostnader":11856,"##vendt":11857,"forhandler":11858,"##ssyn":11859,"glipp":11860,"uni":11861,"##well":11862,"gil":11863,"kundeservice":11864,"voksende":11865,"##savgift":11866,"gjensidig":11867,"stykker":11868,"94":11869,"strekk":11870,"##sbet":11871,"##espill":11872,"typiske":11873,"##stemt":11874,"cer":11875,"inspirere":11876,"operativ":11877,"tilrettelagt":11878,"trak":11879,"etterfulgt":11880,"##slene":11881,"forpliktet":11882,"øyen":11883,"##saktiviteter":11884,"head":11885,"mask":11886,"##iserende":11887,"tydeligvis":11888,"ambul":11889,"investere":11890,"luther":11891,"adel":11892,"organer":11893,"fugler":11894,"tillitsvalgte":11895,"løft":11896,"lengste":11897,"nærliggende":11898,"oppsummering":11899,"montert":11900,"lages":11901,"synlige":11902,"sofaen":11903,"vidar":11904,"advent":11905,"analysere":11906,"##akes":11907,"pavist":11908,"##retter":11909,"bønder":11910,"høyres":11911,"prioritere":11912,"##undervisning":11913,"py":11914,"##seffe":11915,"innimellom":11916,"slott":11917,"krysset":11918,"##una":11919,"##sey":11920,"##itasjon":11921,"sigur":11922,"##ding":11923,"##estil":11924,"##helsetjenesten":11925,"##itor":11926,"sammensla":11927,"##farge":11928,"skredder":11929,"##festivalen":11930,"##ansere":11931,"##ument":11932,"night":11933,"##vannet":11934,"american":11935,"krevde":11936,"##ami":11937,"revisor":11938,"fristen":11939,"regulert":11940,"avkast":11941,"##atret":11942,"tegninger":11943,"##størr":11944,"##splassen":11945,"##sete":11946,"gravide":11947,"##ndal":11948,"formelt":11949,"innsamling":11950,"barber":11951,"##støt":11952,"sikkerheten":11953,"saud":11954,"##sykdom":11955,"edvard":11956,"##ettig":11957,"what":11958,"siktet":11959,"road":11960,"kaff":11961,"trykker":11962,"jean":11963,"strategier":11964,"greier":11965,"ansvarlige":11966,"godkjennes":11967,"130":11968,"daværende":11969,"grev":11970,"##advok":11971,"universitetssy":11972,"belgia":11973,"##fr":11974,"sviger":11975,"skjønne":11976,"##isje":11977,"kongens":11978,"kombinasjonen":11979,"##priser":11980,"inneholdt":11981,"##splaner":11982,"oppslag":11983,"leverte":11984,"kjøttet":11985,"hekt":11986,"haugen":11987,"spart":11988,"selvtillit":11989,"##skomiteen":11990,"celle":11991,"##lovak":11992,"vestlandet":11993,"stiler":11994,"##usk":11995,"samlingen":11996,"##vikt":11997,"award":11998,"##paret":11999,"hinder":12000,"endt":12001,"norrø":12002,"##gde":12003,"fingrene":12004,"##kart":12005,"##møn":12006,"##olin":12007,"##oke":12008,"komplisert":12009,"##kirke":12010,"##oten":12011,"organisere":12012,"##dokum":12013,"engasjerte":12014,"##sku":12015,"##fasen":12016,"##ulær":12017,"drepte":12018,"##22":12019,"byra":12020,"##bod":12021,"gjød":12022,"anser":12023,"##krigen":12024,"ce":12025,"mog":12026,"statsbudsjettet":12027,"miljøp":12028,"##opol":12029,"##enny":12030,"##revende":12031,"fylkesvei":12032,"diabetes":12033,"søppel":12034,"jom":12035,"overføres":12036,"herlige":12037,"##sting":12038,"karen":12039,"##por":12040,"bestemmelsene":12041,"lærerne":12042,"engasjere":12043,"##vald":12044,"levevis":12045,"israelske":12046,"opplærings":12047,"1918":12048,"heve":12049,"taus":12050,"butikkene":12051,"##sekretær":12052,"##oe":12053,"##kontoret":12054,"nif":12055,"dor":12056,"tv2":12057,"individer":12058,"##relser":12059,"market":12060,"strengt":12061,"ane":12062,"dol":12063,"stater":12064,"##lubb":12065,"marin":12066,"utroskap":12067,"kylling":12068,"skatter":12069,"nedlagt":12070,"budskap":12071,"##stisk":12072,"bista":12073,"##driv":12074,"##celler":12075,"kredittkort":12076,"odds":12077,"##slutning":12078,"verdensmester":12079,"##sjoner":12080,"matvarer":12081,"kard":12082,"distribu":12083,"##endringer":12084,"savner":12085,"river":12086,"europas":12087,"skilsmisse":12088,"elg":12089,"foretas":12090,"sykefravær":12091,"enormt":12092,"brenn":12093,"was":12094,"tynne":12095,"graviditet":12096,"medvirkning":12097,"lakse":12098,"koord":12099,"avdekket":12100,"varighet":12101,"##itim":12102,"politim":12103,"korru":12104,"jerusale":12105,"beskytter":12106,"desto":12107,"ektefelle":12108,"##sdagen":12109,"utdanningen":12110,"solo":12111,"lovet":12112,"eie":12113,"interesserte":12114,"fou":12115,"##verdier":12116,"diale":12117,"eieren":12118,"##sselskapet":12119,"##forsy":12120,"ulykker":12121,"imponert":12122,"hundene":12123,"##sesongen":12124,"attende":12125,"varmen":12126,"beij":12127,"fiber":12128,"dypere":12129,"parlament":12130,"##hall":12131,"stjør":12132,"virt":12133,"bydelen":12134,"meny":12135,"plager":12136,"##sutvalget":12137,"narvik":12138,"##atar":12139,"adop":12140,"##estad":12141,"vegger":12142,"mellomrom":12143,"omkom":12144,"##partementets":12145,"cel":12146,"kulturer":12147,"utsikten":12148,"overføre":12149,"asfalt":12150,"##flaten":12151,"fit":12152,"##gs":12153,"indiske":12154,"hitler":12155,"smarttelefoner":12156,"##hor":12157,"sannhet":12158,"opplysning":12159,"plukke":12160,"##maling":12161,"belys":12162,"bearbeid":12163,"oppdateringer":12164,"teen":12165,"return":12166,"71":12167,"##svitenskap":12168,"universiteter":12169,"sul":12170,"##stilte":12171,"samiske":12172,"##gate":12173,"##skipet":12174,"##filmen":12175,"utsli":12176,"##lyn":12177,"##kveld":12178,"uttrykke":12179,"hjelpemidler":12180,"høyst":12181,"greie":12182,"pier":12183,"jane":12184,"frode":12185,"fanger":12186,"##tektene":12187,"bevilg":12188,"##opptak":12189,"clo":12190,"vern":12191,"##mpe":12192,"##finalen":12193,"##høyde":12194,"##ifisert":12195,"bm":12196,"cur":12197,"take":12198,"prev":12199,"befolknings":12200,"forstand":12201,"##jan":12202,"natta":12203,"##nadene":12204,"innover":12205,"sas":12206,"##feksjoner":12207,"fjernes":12208,"ss":12209,"##omi":12210,"leon":12211,"sjeldent":12212,"langvarig":12213,"1954":12214,"##¸ˇ¸ˇ":12215,"##ioner":12216,"##cast":12217,"skift":12218,"innhente":12219,"forsink":12220,"grafikk":12221,"compan":12222,"##aktive":12223,"pant":12224,"kjøpet":12225,"forutsig":12226,"prosjektering":12227,"jubileum":12228,"asa":12229,"middels":12230,"redegjør":12231,"##reiser":12232,"steink":12233,"##stillatelse":12234,"finansielle":12235,"##anny":12236,"##ansje":12237,"refleksjon":12238,"bevart":12239,"lens":12240,"seriøse":12241,"nerv":12242,"plus":12243,"games":12244,"foresatte":12245,"sor":12246,"cle":12247,"redning":12248,"lod":12249,"##bygning":12250,"utlever":12251,"##litter":12252,"tvert":12253,"høytid":12254,"##opplevelse":12255,"inngrep":12256,"permisjon":12257,"tilfreds":12258,"bull":12259,"samtalen":12260,"##kse":12261,"bosted":12262,"klubbene":12263,"##yst":12264,"##skede":12265,"##aktivitet":12266,"##stasjoner":12267,"kvalifiserte":12268,"kvalifisering":12269,"kristiansund":12270,"verdifull":12271,"##avdelingen":12272,"pod":12273,"1955":12274,"download":12275,"##strakt":12276,"##smynd":12277,"inspe":12278,"sammenligning":12279,"heste":12280,"##formal":12281,"feiret":12282,"etterforsk":12283,"lomme":12284,"##faglige":12285,"forbrukere":12286,"restauranten":12287,"jav":12288,"kongelige":12289,"roger":12290,"forsøket":12291,"##plate":12292,"rense":12293,"skuespillere":12294,"tyskerne":12295,"##handlet":12296,"rud":12297,"kristiania":12298,"koke":12299,"##spartiet":12300,"svindel":12301,"140":12302,"endringen":12303,"bulgar":12304,"fornuftig":12305,"##ariske":12306,"kunsten":12307,"begj":12308,"klatre":12309,"##streme":12310,"ambassad":12311,"gps":12312,"middelalderen":12313,"kontrollert":12314,"put":12315,"digitalt":12316,"##yk":12317,"vekten":12318,"dukke":12319,"##behandler":12320,"ulikt":12321,"##engen":12322,"mjø":12323,"92":12324,"kommisjonen":12325,"##sprosesser":12326,"etterretning":12327,"plak":12328,"beskyttet":12329,"bh":12330,"##skur":12331,"funksjonalitet":12332,"##skir":12333,"kjetil":12334,"presenteres":12335,"smitte":12336,"##klæring":12337,"lem":12338,"asp":12339,"eierskap":12340,"aar":12341,"hop":12342,"##spillere":12343,"1943":12344,"1938":12345,"arts":12346,"anm":12347,"ulykken":12348,"tilrettelegge":12349,"##sprosjektet":12350,"##handtering":12351,"deling":12352,"strekningen":12353,"##sprodu":12354,"innvilget":12355,"datamaskinen":12356,"##grunnlaget":12357,"game":12358,"##ti":12359,"aktuell":12360,"klærne":12361,"virus":12362,"forarsaket":12363,"ped":12364,"fjær":12365,"fv":12366,"utkast":12367,"tunnel":12368,"pakket":12369,"oh":12370,"##befolkningen":12371,"kontakten":12372,"ombudet":12373,"##abler":12374,"smake":12375,"##interesser":12376,"rem":12377,"sparebank":12378,"173":12379,"kaster":12380,"blokker":12381,"varig":12382,"##arets":12383,"forandring":12384,"statsrad":12385,"tette":12386,"manu":12387,"comm":12388,"statsborger":12389,"planlagte":12390,"definere":12391,"hoff":12392,"varsler":12393,"cu":12394,"seriøs":12395,"##otisk":12396,"beijing":12397,"innan":12398,"dybde":12399,"antak":12400,"folker":12401,"rakk":12402,"kare":12403,"hindrer":12404,"##gner":12405,"knapp":12406,"bevegelsen":12407,"mørkt":12408,"overleve":12409,"menneskelig":12410,"fordelene":12411,"##ikanske":12412,"portugal":12413,"progn":12414,"wi":12415,"kjemiske":12416,"jim":12417,"##pon":12418,"filter":12419,"tyr":12420,"ishoc":12421,"tidene":12422,"nybegynn":12423,"brenner":12424,"lengden":12425,"stjørdal":12426,"##besøk":12427,"palegg":12428,"light":12429,"kjøres":12430,"plata":12431,"first":12432,"tilbudt":12433,"##status":12434,"nasjoner":12435,"gyl":12436,"hesten":12437,"amund":12438,"##festet":12439,"vikar":12440,"skulpt":12441,"##irekte":12442,"resulterte":12443,"bestill":12444,"truffet":12445,"##inket":12446,"rop":12447,"adm":12448,"south":12449,"investerings":12450,"##ografiske":12451,"institusjonen":12452,"##drende":12453,"young":12454,"individuelt":12455,"tod":12456,"besøket":12457,"kulturen":12458,"dna":12459,"1910":12460,"bekjent":12461,"stemmerett":12462,"bensin":12463,"pakistan":12464,"jordbruks":12465,"signert":12466,"henry":12467,"hanne":12468,"##edde":12469,"eidsvoll":12470,"##iliteter":12471,"bestiller":12472,"##ned":12473,"pagrepet":12474,"omtaler":12475,"arild":12476,"røtter":12477,"##jening":12478,"prix":12479,"tum":12480,"##win":12481,"strikket":12482,"1912":12483,"##skjerm":12484,"grunnskole":12485,"##ism":12486,"vennligst":12487,"palagt":12488,"jerusalem":12489,"aleks":12490,"bell":12491,"rettes":12492,"grus":12493,"luftfart":12494,"sigurd":12495,"workshop":12496,"kontaktet":12497,"levetid":12498,"maksimal":12499,"mette":12500,"østlandet":12501,"bj":12502,"##obe":12503,"blues":12504,"tis":12505,"##esi":12506,"wilhelm":12507,"seter":12508,"##vers":12509,"ic":12510,"##cupen":12511,"unødvendig":12512,"1953":12513,"varierende":12514,"##inering":12515,"politikerne":12516,"erke":12517,"##fokus":12518,"arbeidsplassen":12519,"##ifi":12520,"dokumentet":12521,"høydepunkt":12522,"##lis":12523,"radgivning":12524,"heb":12525,"##ellingen":12526,"##forsikring":12527,"beklager":12528,"ungdommene":12529,"ekstern":12530,"uttale":12531,"##sma":12532,"kris":12533,"severd":12534,"##stiller":12535,"kompleks":12536,"##asiteten":12537,"tydelige":12538,"##ny":12539,"num":12540,"forutsatt":12541,"##vidde":12542,"##fet":12543,"montering":12544,"kapp":12545,"univer":12546,"fenom":12547,"myke":12548,"fremmede":12549,"brukernavn":12550,"sykkelen":12551,"beskytt":12552,"videok":12553,"##gjenger":12554,"sverre":12555,"##treff":12556,"reparasjon":12557,"##sarbeidet":12558,"add":12559,"##forsker":12560,"dugnad":12561,"watch":12562,"asylsøkere":12563,"call":12564,"pron":12565,"trusler":12566,"##skurs":12567,"##virksomheten":12568,"foregikk":12569,"lise":12570,"vesentlige":12571,"stord":12572,"fagfolk":12573,"##ussen":12574,"angaende":12575,"fugle":12576,"introdusert":12577,"sammenlagt":12578,"sprøy":12579,"spredning":12580,"hug":12581,"brødrene":12582,"peke":12583,"##eiere":12584,"jevne":12585,"avvist":12586,"##medlem":12587,"konserten":12588,"##idene":12589,"skremmende":12590,"##deb":12591,"særdeles":12592,"1919":12593,"omfanget":12594,"fuck":12595,"innse":12596,"##real":12597,"##flo":12598,"##profil":12599,"##vete":12600,"prioritert":12601,"kampanje":12602,"hertug":12603,"støtten":12604,"glimt":12605,"##ivind":12606,"##stemning":12607,"siri":12608,"følelses":12609,"stikke":12610,"records":12611,"blandet":12612,"##fare":12613,"ligget":12614,"bryllu":12615,"##sgrens":12616,"bekjempe":12617,"dvd":12618,"diagnose":12619,"##ferien":12620,"our":12621,"##hs":12622,"forløp":12623,"oppi":12624,"##skriver":12625,"strategiske":12626,"konflikten":12627,"slitt":12628,"wood":12629,"elleve":12630,"um":12631,"omfatte":12632,"oppmerksomheten":12633,"##økt":12634,"fenomen":12635,"nordic":12636,"halsen":12637,"løfter":12638,"pave":12639,"legend":12640,"anmeldelser":12641,"##atikken":12642,"brat":12643,"##adress":12644,"middelalder":12645,"hollywood":12646,"kristoffer":12647,"indikerer":12648,"prester":12649,"sud":12650,"##lete":12651,"samferdsel":12652,"redig":12653,"informert":12654,"##bygda":12655,"variant":12656,"linken":12657,"##70":12658,"sprint":12659,"legitim":12660,"##holmen":12661,"##verker":12662,"fornybar":12663,"##yser":12664,"##savis":12665,"##ards":12666,"detaljerte":12667,"representere":12668,"hustru":12669,"##sburg":12670,"drømmen":12671,"##casino":12672,"nettverks":12673,"talmod":12674,"##ack":12675,"imper":12676,"##itch":12677,"baserer":12678,"indirekte":12679,"desper":12680,"##bbe":12681,"##lok":12682,"##aria":12683,"party":12684,"søm":12685,"late":12686,"gjenta":12687,"utstillinger":12688,"##ped":12689,"gardermoen":12690,"biter":12691,"plasseres":12692,"oksygen":12693,"##utningen":12694,"seksuelt":12695,"eiend":12696,"5000":12697,"utallige":12698,"##sbehandling":12699,"pressemelding":12700,"henter":12701,"saint":12702,"blodet":12703,"besta":12704,"##rikker":12705,"ot":12706,"langsiktige":12707,"##demokrat":12708,"snur":12709,"lofoten":12710,"##prosess":12711,"konsulent":12712,"nve":12713,"avgjørelser":12714,"sykle":12715,"leses":12716,"beach":12717,"##albumet":12718,"bif":12719,"varierte":12720,"reell":12721,"##sjø":12722,"##orno":12723,"diskutert":12724,"rod":12725,"partneren":12726,"sekretær":12727,"##hast":12728,"##annelse":12729,"##onnement":12730,"ankomst":12731,"##vurdering":12732,"takle":12733,"ringte":12734,"døra":12735,"varam":12736,"1928":12737,"##bruddet":12738,"##stan":12739,"utsettes":12740,"oppdaterte":12741,"konger":12742,"bringer":12743,"stj":12744,"konfirm":12745,"pasta":12746,"avdøde":12747,"slite":12748,"implement":12749,"##østen":12750,"##lista":12751,"##light":12752,"sporet":12753,"seminar":12754,"samvitt":12755,"mannlig":12756,"minnet":12757,"rede":12758,"##cont":12759,"kampanjen":12760,"town":12761,"##aku":12762,"az":12763,"##ee":12764,"nettsidene":12765,"##sykkel":12766,"akseptert":12767,"tast":12768,"fremskritt":12769,"mediene":12770,"##aps":12771,"prot":12772,"##dretter":12773,"kollektivt":12774,"arabisk":12775,"premium":12776,"andreplass":12777,"kropps":12778,"fokuset":12779,"venez":12780,"gun":12781,"farg":12782,"forval":12783,"##bere":12784,"hemmelige":12785,"malrettet":12786,"ivaretatt":12787,"flash":12788,"planet":12789,"kvinnelig":12790,"instrumenter":12791,"forskjellene":12792,"scott":12793,"kandidat":12794,"økes":12795,"bake":12796,"hoppet":12797,"konkurrere":12798,"arrangør":12799,"skit":12800,"##jeller":12801,"##olley":12802,"funksjonshemmede":12803,"##agraf":12804,"rase":12805,"francis":12806,"innlem":12807,"læreren":12808,"logo":12809,"##faget":12810,"##skal":12811,"nad":12812,"attraksjoner":12813,"trenge":12814,"kjole":12815,"##valgt":12816,"donald":12817,"##skjær":12818,"oppsto":12819,"##strategi":12820,"age":12821,"tverrfaglig":12822,"##forholdet":12823,"medarbeider":12824,"##hot":12825,"fortrinn":12826,"løpere":12827,"agenda":12828,"brevet":12829,"##klaring":12830,"kyrkje":12831,"oppgradering":12832,"##vit":12833,"signaler":12834,"livssyn":12835,"utforsk":12836,"avgifter":12837,"vev":12838,"cec":12839,"infeksjon":12840,"##billetter":12841,"##klasse":12842,"rasmus":12843,"##amling":12844,"marius":12845,"##enen":12846,"##styrke":12847,"##renes":12848,"pene":12849,"regionalt":12850,"##statt":12851,"##ledere":12852,"##pol":12853,"##kode":12854,"country":12855,"##savtalen":12856,"##rukturer":12857,"telt":12858,"minus":12859,"##ology":12860,"standarden":12861,"seksualitet":12862,"brennende":12863,"broren":12864,"holmen":12865,"##sha":12866,"##stab":12867,"subst":12868,"asiatisk":12869,"liknende":12870,"##ologen":12871,"##tor":12872,"svi":12873,"telefoner":12874,"gjennomga":12875,"betalings":12876,"##esh":12877,"angiv":12878,"skjev":12879,"oppm":12880,"viktigheten":12881,"##sja":12882,"funksjonene":12883,"##ropp":12884,"##krets":12885,"varsling":12886,"##hyd":12887,"blue":12888,"emnet":12889,"##bygningen":12890,"uform":12891,"lufta":12892,"foreslas":12893,"venstres":12894,"overtid":12895,"johnsen":12896,"reflekter":12897,"proje":12898,"##act":12899,"vester":12900,"##uli":12901,"skala":12902,"forhandlingene":12903,"studiene":12904,"##mekan":12905,"stafett":12906,"innvendig":12907,"skjære":12908,"##ror":12909,"etisk":12910,"arkt":12911,"##sklubb":12912,"##90":12913,"kreativitet":12914,"teorien":12915,"fans":12916,"reelle":12917,"presenterte":12918,"##aman":12919,"hæ":12920,"innby":12921,"eksklusive":12922,"julet":12923,"brenne":12924,"dynast":12925,"350":12926,"##skifte":12927,"##oster":12928,"techn":12929,"inspirerende":12930,"tau":12931,"##æk":12932,"##egarden":12933,"eiendomsm":12934,"##cket":12935,"forsvars":12936,"ypper":12937,"linjen":12938,"utsette":12939,"trussel":12940,"senga":12941,"eksempl":12942,"##avdeling":12943,"##lid":12944,"vaknet":12945,"non":12946,"news":12947,"arrangerte":12948,"rengjør":12949,"marianne":12950,"rekkefølge":12951,"ethvert":12952,"dominerende":12953,"laser":12954,"sminke":12955,"øvelsen":12956,"postadresse":12957,"forebygging":12958,"##spekt":12959,"md":12960,"kjemper":12961,"folketryg":12962,"##eds":12963,"kabel":12964,"touch":12965,"##brød":12966,"lurte":12967,"##ndene":12968,"##akerne":12969,"disposisjon":12970,"##zo":12971,"brygg":12972,"effektivitet":12973,"potensial":12974,"##ures":12975,"##regist":12976,"##ason":12977,"renhold":12978,"##kontakt":12979,"komfortabel":12980,"1905":12981,"nekter":12982,"phot":12983,"møtene":12984,"jødene":12985,"sparer":12986,"kontaktannonse":12987,"observasjon":12988,"verktøyet":12989,"cit":12990,"arbeidsled":12991,"dørene":12992,"melke":12993,"##fred":12994,"hilde":12995,"avslag":12996,"1924":12997,"sjekking":12998,"olympisk":12999,"##fy":13000,"hevde":13001,"##dder":13002,"##marka":13003,"mandat":13004,"##oul":13005,"1914":13006,"dec":13007,"ipad":13008,"drikker":13009,"##inte":13010,"reform":13011,"flaske":13012,"bøy":13013,"laborator":13014,"angrer":13015,"muskler":13016,"ledig":13017,"fur":13018,"##sektoren":13019,"satel":13020,"karrieren":13021,"aggress":13022,"deira":13023,"pagaende":13024,"##sfun":13025,"semester":13026,"synge":13027,"dress":13028,"nettbutikken":13029,"fundament":13030,"##ero":13031,"orgasme":13032,"anerkjennelse":13033,"##sion":13034,"##lon":13035,"##ence":13036,"##ular":13037,"hval":13038,"elverum":13039,"##ammen":13040,"reisende":13041,"betingelser":13042,"ober":13043,"diskusjonen":13044,"##edt":13045,"tennene":13046,"ike":13047,"nho":13048,"dok":13049,"utkikk":13050,"##kset":13051,"class":13052,"##uste":13053,"miljøvennlig":13054,"forlatt":13055,"væske":13056,"statistikken":13057,"ash":13058,"grensene":13059,"oppnar":13060,"ungdomsskole":13061,"##sbasert":13062,"invitere":13063,"betalte":13064,"ruten":13065,"##vision":13066,"##ementer":13067,"aktør":13068,"##bygde":13069,"skisk":13070,"apoteket":13071,"ox":13072,"fair":13073,"tilbringe":13074,"vanleg":13075,"maksimalt":13076,"valerenga":13077,"ullev":13078,"mt":13079,"fjernsyn":13080,"sitater":13081,"intervjuer":13082,"iron":13083,"tenaringer":13084,"rub":13085,"obligatorisk":13086,"bestatt":13087,"mw":13088,"kloster":13089,"stemningen":13090,"miljøvern":13091,"inten":13092,"dedik":13093,"byggingen":13094,"wer":13095,"opphør":13096,"belastning":13097,"##riksen":13098,"kontant":13099,"oppstod":13100,"starta":13101,"biologisk":13102,"logge":13103,"##cs":13104,"gebyr":13105,"##æs":13106,"fylkeskommunen":13107,"##ungen":13108,"finsk":13109,"dødsfall":13110,"tilsett":13111,"##sidig":13112,"##født":13113,"veggene":13114,"##ktivet":13115,"##dren":13116,"overta":13117,"##øysund":13118,"1933":13119,"##oma":13120,"framfor":13121,"##fle":13122,"sjansene":13123,"musikere":13124,"elevenes":13125,"##umper":13126,"svel":13127,"##hengere":13128,"1951":13129,"irrit":13130,"madrid":13131,"pastand":13132,"gatene":13133,"##ynet":13134,"##feld":13135,"vs":13136,"stilen":13137,"##kas":13138,"##ulator":13139,"##kkelige":13140,"rapportert":13141,"##kamer":13142,"##bedrift":13143,"##tred":13144,"styrkene":13145,"religiøs":13146,"trivsel":13147,"##fugler":13148,"knud":13149,"fylles":13150,"produseres":13151,"steiner":13152,"##ов":13153,"offiser":13154,"kommentere":13155,"##pri":13156,"##verv":13157,"##iets":13158,"konferanse":13159,"hormon":13160,"##utslipp":13161,"øve":13162,"observasjoner":13163,"snapchat":13164,"management":13165,"##ssystemer":13166,"glid":13167,"terrenget":13168,"overn":13169,"minister":13170,"herfra":13171,"overtatt":13172,"bd":13173,"rocke":13174,"resepsjon":13175,"##fla":13176,"##mate":13177,"demokratiske":13178,"skr":13179,"hyper":13180,"programleder":13181,"##gro":13182,"nyt":13183,"tju":13184,"rommene":13185,"arve":13186,"uføre":13187,"vidare":13188,"malsett":13189,"armer":13190,"##akken":13191,"##ipe":13192,"føder":13193,"posisjoner":13194,"lunge":13195,"##smannen":13196,"##etet":13197,"prestasjon":13198,"##muligheter":13199,"skarp":13200,"kjern":13201,"separat":13202,"lor":13203,"organisasjonene":13204,"pst":13205,"utenriksminister":13206,"dokumentar":13207,"##visninger":13208,"hytter":13209,"dratt":13210,"##gjen":13211,"bring":13212,"mattilsynet":13213,"etterspørsel":13214,"forandre":13215,"fortellinger":13216,"oversettelse":13217,"stabilitet":13218,"bryster":13219,"rosenborg":13220,"kompens":13221,"##kjøl":13222,"avsluttes":13223,"ign":13224,"##tenberg":13225,"sans":13226,"##rup":13227,"kanon":13228,"fremtidig":13229,"egil":13230,"##fylt":13231,"fleksibilitet":13232,"cand":13233,"onde":13234,"bebygg":13235,"office":13236,"varene":13237,"forlagets":13238,"ishockey":13239,"##sr":13240,"bik":13241,"para":13242,"rammen":13243,"biologiske":13244,"flatt":13245,"skra":13246,"kjønnslepper":13247,"utenlandsk":13248,"nan":13249,"spreng":13250,"##isasjon":13251,"##emal":13252,"fm":13253,"enslige":13254,"kristiansen":13255,"filen":13256,"travel":13257,"osm":13258,"fysikk":13259,"magasinet":13260,"plat":13261,"innsjøen":13262,"deltagere":13263,"prosedyrer":13264,"førstekl":13265,"##ikre":13266,"##jente":13267,"##ands":13268,"##radets":13269,"skjule":13270,"simon":13271,"innstillinger":13272,"kvant":13273,"gjennomgaende":13274,"storby":13275,"rana":13276,"føttene":13277,"##lanter":13278,"##ema":13279,"##forvaltning":13280,"isolasjon":13281,"##jeg":13282,"opptre":13283,"jæv":13284,"fineste":13285,"justere":13286,"oppfattes":13287,"##fas":13288,"ressursene":13289,"testing":13290,"referanser":13291,"##maler":13292,"##opphold":13293,"kontoen":13294,"##iket":13295,"lenke":13296,"spelt":13297,"hjørnet":13298,"##renning":13299,"gjennomsnittet":13300,"tig":13301,"##ammer":13302,"##assene":13303,"##sdalen":13304,"##vang":13305,"escorts":13306,"##sutstyr":13307,"larvene":13308,"fjellene":13309,"utførelse":13310,"##000":13311,"arsakene":13312,"sammendrag":13313,"mektig":13314,"dur":13315,"camil":13316,"medlems":13317,"yte":13318,"politidistrikt":13319,"timene":13320,"##ights":13321,"ivrig":13322,"##løy":13323,"husdyr":13324,"lastebil":13325,"stortingets":13326,"mannskap":13327,"##onere":13328,"kulturminner":13329,"universell":13330,"stemte":13331,"sports":13332,"anledningen":13333,"##øvelse":13334,"sønner":13335,"treet":13336,"radik":13337,"##politikken":13338,"vogn":13339,"eierne":13340,"##olige":13341,"##jønn":13342,"innlever":13343,"##cil":13344,"særleg":13345,"##nettet":13346,"##anerne":13347,"ax":13348,"##nivaet":13349,"##itære":13350,"takker":13351,"beholdt":13352,"sikring":13353,"latt":13354,"forespørsel":13355,"hvertfall":13356,"cecil":13357,"##visningen":13358,"##ordninger":13359,"bytt":13360,"mcc":13361,"taushet":13362,"##vises":13363,"##berget":13364,"omstilling":13365,"##vingene":13366,"nyskap":13367,"##hyl":13368,"##fors":13369,"##terende":13370,"kjemikal":13371,"rast":13372,"##espiller":13373,"##ooth":13374,"##ckey":13375,"staden":13376,"singelen":13377,"ludvig":13378,"cann":13379,"tillat":13380,"pressen":13381,"##iendom":13382,"oppsø":13383,"beholder":13384,"##nas":13385,"tekstene":13386,"##km":13387,"sad":13388,"ravarer":13389,"##malet":13390,"bond":13391,"astron":13392,"telle":13393,"water":13394,"opererer":13395,"begreper":13396,"globalt":13397,"offsh":13398,"kriminal":13399,"helsedirektoratet":13400,"stoltenberg":13401,"søndre":13402,"##ikat":13403,"kyrkja":13404,"integrering":13405,"##kne":13406,"##været":13407,"boksen":13408,"miss":13409,"lady":13410,"##ummen":13411,"even":13412,"foreslo":13413,"hjulpet":13414,"tegning":13415,"stikker":13416,"geografisk":13417,"megler":13418,"fattet":13419,"innovative":13420,"straffes":13421,"##feransen":13422,"tort":13423,"##sling":13424,"komponenter":13425,"##klin":13426,"##øpe":13427,"frykter":13428,"##interv":13429,"forumet":13430,"omtales":13431,"omega":13432,"lake":13433,"##skrigen":13434,"merc":13435,"##kna":13436,"nettleseren":13437,"rettighet":13438,"orient":13439,"##skultur":13440,"##sons":13441,"penn":13442,"utgiftene":13443,"skilte":13444,"##annonser":13445,"svend":13446,"kristine":13447,"kriminelle":13448,"grønland":13449,"somal":13450,"universitetssykehus":13451,"cost":13452,"##book":13453,"nyhetsbrev":13454,"##kron":13455,"palitelig":13456,"##finn":13457,"manglet":13458,"commun":13459,"regissør":13460,"##prest":13461,"##festival":13462,"##edato":13463,"tøft":13464,"##sutøvere":13465,"løses":13466,"fik":13467,"fres":13468,"sommar":13469,"menigheten":13470,"uavhengighet":13471,"##olk":13472,"yd":13473,"pom":13474,"adressen":13475,"malte":13476,"gata":13477,"ink":13478,"##vog":13479,"tilhørighet":13480,"medhold":13481,"spot":13482,"vels":13483,"##vurder":13484,"kai":13485,"snarere":13486,"obs":13487,"1937":13488,"gater":13489,"forbindelser":13490,"##ript":13491,"knytter":13492,"hp":13493,"særlige":13494,"##bøkene":13495,"##uf":13496,"kjøl":13497,"##unge":13498,"dnb":13499,"##ologer":13500,"lunde":13501,"biller":13502,"reder":13503,"fjorarets":13504,"ihvert":13505,"finske":13506,"helgeland":13507,"bakterier":13508,"syr":13509,"overd":13510,"##budsjett":13511,"##cht":13512,"score":13513,"hiv":13514,"nøtter":13515,"zo":13516,"##ario":13517,"bekken":13518,"voldtekt":13519,"fester":13520,"eksemplarer":13521,"##likasjoner":13522,"tilfredsstille":13523,"moderat":13524,"ig":13525,"basket":13526,"abort":13527,"##erto":13528,"tyngre":13529,"prinsipp":13530,"alexand":13531,"otto":13532,"grove":13533,"##arig":13534,"about":13535,"doser":13536,"sammenhengende":13537,"brannen":13538,"trodd":13539,"##avtaler":13540,"internet":13541,"##sspørsmal":13542,"pt":13543,"komplekse":13544,"tørket":13545,"##sjetter":13546,"følelsene":13547,"vesten":13548,"##museum":13549,"##zer":13550,"repet":13551,"operatør":13552,"hjørne":13553,"##lærer":13554,"jess":13555,"##sordningen":13556,"utførte":13557,"tilpasses":13558,"fascinerende":13559,"tilsku":13560,"visning":13561,"##blom":13562,"##pros":13563,"##vatnet":13564,"##planer":13565,"ihvertfall":13566,"forsøks":13567,"utsiden":13568,"kanten":13569,"##steknologi":13570,"##møter":13571,"##ssøk":13572,"svarene":13573,"anta":13574,"smitt":13575,"##iltak":13576,"erling":13577,"toalett":13578,"vara":13579,"##uset":13580,"livets":13581,"rally":13582,"porsgrunn":13583,"##liten":13584,"blatt":13585,"##salg":13586,"gunstig":13587,"stas":13588,"cv":13589,"tilnærmet":13590,"kobber":13591,"168":13592,"##sesse":13593,"menneskerettigheter":13594,"kub":13595,"##leggingen":13596,"##orier":13597,"##spensjon":13598,"##idet":13599,"##vendige":13600,"ih":13601,"utsp":13602,"##rekke":13603,"detaljene":13604,"gustav":13605,"##ista":13606,"budskapet":13607,"##vogn":13608,"##edager":13609,"##erten":13610,"plater":13611,"folks":13612,"prate":13613,"wien":13614,"colom":13615,"company":13616,"lee":13617,"kostet":13618,"##mott":13619,"sykt":13620,"jomfru":13621,"fysioter":13622,"##mad":13623,"##atib":13624,"##rover":13625,"##sordning":13626,"bjar":13627,"ekstreme":13628,"konkurransedy":13629,"##staver":13630,"oppfatter":13631,"overvaking":13632,"ey":13633,"##vedtak":13634,"##out":13635,"etableres":13636,"elektris":13637,"avhengige":13638,"turnering":13639,"forvand":13640,"puste":13641,"spesialisert":13642,"betales":13643,"oppfat":13644,"##adiske":13645,"samlivsbrudd":13646,"salen":13647,"inndeling":13648,"figurer":13649,"pels":13650,"bekrefte":13651,"villige":13652,"avsløre":13653,"sverd":13654,"opposisjon":13655,"avdekke":13656,"helsen":13657,"antib":13658,"##manning":13659,"østre":13660,"anvendelse":13661,"forbehold":13662,"##geren":13663,"leverandøren":13664,"utfordre":13665,"eiendommer":13666,"cruise":13667,"bomull":13668,"disc":13669,"konkurs":13670,"unngar":13671,"passerer":13672,"oppfordret":13673,"dil":13674,"##ated":13675,"forestillingen":13676,"##strene":13677,"overraskelse":13678,"dap":13679,"fabrikken":13680,"børs":13681,"farten":13682,"kf":13683,"installere":13684,"##lett":13685,"bert":13686,"ingredienser":13687,"##ikasjonen":13688,"sjal":13689,"bundet":13690,"ytrings":13691,"inntektene":13692,"kjøret":13693,"##skift":13694,"fjerning":13695,"##ios":13696,"lyktes":13697,"males":13698,"1913":13699,"modellene":13700,"##site":13701,"beregning":13702,"##systemer":13703,"##viste":13704,"##esøk":13705,"##alere":13706,"prestasjoner":13707,"##dis":13708,"##oversikt":13709,"166":13710,"lederne":13711,"ross":13712,"##armen":13713,"opphavsrett":13714,"nasjonalpark":13715,"objekter":13716,"##møre":13717,"summer":13718,"arsen":13719,"dry":13720,"uriktige":13721,"nøkkelen":13722,"utslag":13723,"ordnet":13724,"sammensatt":13725,"aa":13726,"##søy":13727,"oppsikt":13728,"spøk":13729,"nyter":13730,"olavs":13731,"protok":13732,"##byggingen":13733,"term":13734,"##bun":13735,"##rapporten":13736,"##nering":13737,"##ople":13738,"period":13739,"1935":13740,"reflektere":13741,"pakken":13742,"##skad":13743,"lider":13744,"ungar":13745,"christiania":13746,"##jelp":13747,"batteri":13748,"ultral":13749,"realisere":13750,"dømme":13751,"symptomene":13752,"##akene":13753,"eksperim":13754,"sjømat":13755,"ork":13756,"malinger":13757,"sara":13758,"mineral":13759,"##srom":13760,"##veggen":13761,"elimin":13762,"stian":13763,"science":13764,"##utdanningen":13765,"wild":13766,"aksepterer":13767,"tilhørte":13768,"die":13769,"iso":13770,"drøyt":13771,"##skilde":13772,"##inae":13773,"oppkjøp":13774,"aktivitetene":13775,"skjold":13776,"tilhenger":13777,"veterinær":13778,"##meldingen":13779,"regioner":13780,"elect":13781,"##ivere":13782,"##itime":13783,"ubet":13784,"##stinget":13785,"way":13786,"##saken":13787,"evolusjon":13788,"spring":13789,"resterende":13790,"##øydde":13791,"konged":13792,"##ansatte":13793,"diskriminering":13794,"##75":13795,"tryggere":13796,"reduserte":13797,"celler":13798,"merverdi":13799,"sovjetiske":13800,"##vol":13801,"saft":13802,"toler":13803,"##cle":13804,"tat":13805,"##instrum":13806,"inviterte":13807,"løypa":13808,"bisped":13809,"risikov":13810,"hul":13811,"skandinavia":13812,"hog":13813,"slottet":13814,"81":13815,"##sløsninger":13816,"bin":13817,"##handlinger":13818,"sete":13819,"familiem":13820,"publisering":13821,"joseph":13822,"##medisin":13823,"hybr":13824,"kopp":13825,"figuren":13826,"##arv":13827,"##bir":13828,"regning":13829,"##æra":13830,"##elege":13831,"sot":13832,"ydmy":13833,"stoler":13834,"##ient":13835,"ofre":13836,"musikalske":13837,"ubehag":13838,"##faren":13839,"1934":13840,"##sskjema":13841,"lokalisert":13842,"lastet":13843,"helene":13844,"1908":13845,"restri":13846,"forsvarets":13847,"1929":13848,"page":13849,"massevis":13850,"hare":13851,"kjennetegn":13852,"leken":13853,"1932":13854,"farget":13855,"posted":13856,"##periode":13857,"førsteklasses":13858,"heis":13859,"##kjøtt":13860,"næringen":13861,"##rogen":13862,"##setningene":13863,"##amfunn":13864,"hod":13865,"sfo":13866,"##eta":13867,"verdiene":13868,"notat":13869,"minutters":13870,"##oget":13871,"frat":13872,"rettighetene":13873,"krysser":13874,"sjarmer":13875,"utlø":13876,"fjerner":13877,"##rakte":13878,"forandringer":13879,"uttalelser":13880,"tørt":13881,"transp":13882,"erna":13883,"balt":13884,"midtøsten":13885,"grunnskolen":13886,"kontrast":13887,"##alam":13888,"haw":13889,"fellesskapet":13890,"##skort":13891,"avhengighet":13892,"fins":13893,"avhør":13894,"##fondet":13895,"##skan":13896,"maraton":13897,"kompetans":13898,"anker":13899,"##pub":13900,"kaker":13901,"sakk":13902,"formula":13903,"gjengjeld":13904,"spir":13905,"flukt":13906,"1814":13907,"##adisk":13908,"##skilte":13909,"dyrere":13910,"lier":13911,"tabl":13912,"##sette":13913,"byggher":13914,"formiddag":13915,"##slar":13916,"menes":13917,"angir":13918,"mistanke":13919,"tersk":13920,"inngangen":13921,"##reres":13922,"xx":13923,"##forholdene":13924,"variasjoner":13925,"produserte":13926,"samord":13927,"##sapp":13928,"hals":13929,"halve":13930,"sf":13931,"##arena":13932,"oppstatt":13933,"forvaltningen":13934,"##artikler":13935,"leif":13936,"spesifikt":13937,"innl":13938,"hemmelighet":13939,"midlertid":13940,"verdig":13941,"stan":13942,"hovedperson":13943,"landbruket":13944,"##skinn":13945,"markeder":13946,"rednings":13947,"sørlandet":13948,"avstanden":13949,"soph":13950,"avh":13951,"stige":13952,"##osisjonen":13953,"handlingsplan":13954,"athen":13955,"##repet":13956,"##dage":13957,"stabilt":13958,"##nø":13959,"involverte":13960,"formelle":13961,"bokmal":13962,"##design":13963,"cell":13964,"texas":13965,"forferdelig":13966,"føringer":13967,"ubehagelig":13968,"navnene":13969,"mestre":13970,"premiere":13971,"frigjøre":13972,"mva":13973,"##present":13974,"##foreldre":13975,"pikk":13976,"##ransjen":13977,"vers":13978,"e6":13979,"##gane":13980,"juryen":13981,"##tene":13982,"snor":13983,"kaos":13984,"point":13985,"ideelle":13986,"tjue":13987,"servere":13988,"frigjør":13989,"##assasje":13990,"eksam":13991,"tarn":13992,"overbevist":13993,"samvittighet":13994,"##ressurser":13995,"##36":13996,"bbw":13997,"kronisk":13998,"høyder":13999,"##etaten":14000,"brystet":14001,"short":14002,"mottaker":14003,"##protokoll":14004,"skreddersy":14005,"informasjons":14006,"key":14007,"##ki":14008,"##ferdig":14009,"justin":14010,"##500":14011,"korrupsjon":14012,"venne":14013,"chris":14014,"##beting":14015,"markere":14016,"solide":14017,"knyttes":14018,"##forbruket":14019,"observer":14020,"lukt":14021,"syndrom":14022,"##stopp":14023,"##stilles":14024,"flørte":14025,"krone":14026,"sentralbyra":14027,"borgere":14028,"egenkapital":14029,"##adem":14030,"domstolen":14031,"mete":14032,"##iansk":14033,"##eli":14034,"eneb":14035,"##skriter":14036,"virgin":14037,"mary":14038,"##syke":14039,"novelle":14040,"generalsekretær":14041,"kryp":14042,"kompatib":14043,"##forsvaret":14044,"flytting":14045,"fornær":14046,"##direktør":14047,"leks":14048,"alminnelig":14049,"tine":14050,"##ærne":14051,"##store":14052,"intelle":14053,"tilhengere":14054,"kosty":14055,"steget":14056,"rekna":14057,"##ssprak":14058,"stiger":14059,"skytter":14060,"gabri":14061,"##liktig":14062,"vennlige":14063,"##formet":14064,"pred":14065,"##akeren":14066,"embet":14067,"bbc":14068,"fraktet":14069,"1921":14070,"kongsv":14071,"##ender":14072,"##artet":14073,"døydde":14074,"krydder":14075,"østlige":14076,"cross":14077,"ambisjon":14078,"millimeter":14079,"pakker":14080,"eas":14081,"##bakgrunn":14082,"fortvil":14083,"##ronten":14084,"topper":14085,"steinar":14086,"1890":14087,"##redet":14088,"idretts":14089,"##krit":14090,"kjapt":14091,"hodep":14092,"##venner":14093,"musik":14094,"1922":14095,"santa":14096,"##ues":14097,"kjemi":14098,"##komme":14099,"##mingen":14100,"sjang":14101,"bnr":14102,"##orf":14103,"levanger":14104,"nederlandske":14105,"atlant":14106,"forestillinger":14107,"##nek":14108,"main":14109,"ellen":14110,"slet":14111,"brygge":14112,"fremdrift":14113,"##savdelingen":14114,"hyppig":14115,"##forsøk":14116,"narkotika":14117,"fagmiljø":14118,"##opro":14119,"røros":14120,"##slø":14121,"cover":14122,"##linje":14123,"innledende":14124,"kunstig":14125,"uthold":14126,"bly":14127,"host":14128,"trer":14129,"elektrisitet":14130,"169":14131,"##sfjorden":14132,"125":14133,"kogn":14134,"##ads":14135,"##oksid":14136,"sannsynligheten":14137,"##varme":14138,"##sbed":14139,"##assering":14140,"kroppens":14141,"uio":14142,"165":14143,"bransjer":14144,"lux":14145,"falsk":14146,"forkynn":14147,"verv":14148,"realistisk":14149,"rap":14150,"saga":14151,"parallelt":14152,"robin":14153,"ørret":14154,"brent":14155,"ventilasjon":14156,"pornofilmer":14157,"grensa":14158,"spont":14159,"egenskapene":14160,"regnskapet":14161,"jacobsen":14162,"forblir":14163,"oppnadde":14164,"##vey":14165,"traden":14166,"##retten":14167,"magne":14168,"leiet":14169,"manip":14170,"##minne":14171,"hvitløk":14172,"krang":14173,"skry":14174,"##dommen":14175,"strekke":14176,"attraktiv":14177,"summen":14178,"kav":14179,"##ktorat":14180,"kles":14181,"lekk":14182,"gid":14183,"##vokst":14184,"radhus":14185,"##ssaker":14186,"tredjeplass":14187,"fortelling":14188,"virkemiddel":14189,"hovedk":14190,"wall":14191,"kopier":14192,"forelskelse":14193,"##smo":14194,"cons":14195,"##varende":14196,"lidelse":14197,"konklusjonen":14198,"arme":14199,"saret":14200,"##revne":14201,"sida":14202,"##organisasjonene":14203,"uklart":14204,"bestilte":14205,"runden":14206,"fremtidens":14207,"kaja":14208,"gripe":14209,"skreiv":14210,"##ieren":14211,"lovens":14212,"svekket":14213,"##sfull":14214,"did":14215,"produsenten":14216,"datoer":14217,"##atia":14218,"artik":14219,"lanserte":14220,"koden":14221,"bard":14222,"institusjonene":14223,"##icy":14224,"##sber":14225,"trop":14226,"vgs":14227,"##attra":14228,"finansiert":14229,"forsiden":14230,"##estaende":14231,"##jort":14232,"teoretisk":14233,"piano":14234,"forklart":14235,"vedtekter":14236,"seremon":14237,"theres":14238,"##stedene":14239,"email":14240,"apost":14241,"##elønn":14242,"coug":14243,"##ikket":14244,"klimag":14245,"romania":14246,"##mg":14247,"1911":14248,"pagar":14249,"##radte":14250,"##ytta":14251,"berørte":14252,"##taler":14253,"found":14254,"utnyttelse":14255,"arbeidsgivere":14256,"løsningene":14257,"bust":14258,"bing":14259,"katter":14260,"##egne":14261,"verdipapir":14262,"smaken":14263,"risikerer":14264,"afp":14265,"##gori":14266,"##roller":14267,"##øve":14268,"ledes":14269,"svikt":14270,"##dist":14271,"inngikk":14272,"kirkes":14273,"gjeve":14274,"ml":14275,"color":14276,"##øper":14277,"tilfellene":14278,"republikken":14279,"ya":14280,"teknologiske":14281,"##gne":14282,"##gens":14283,"hauge":14284,"aksjonen":14285,"indisk":14286,"blan":14287,"medaljer":14288,"episoder":14289,"ere":14290,"etableringen":14291,"diagnosen":14292,"must":14293,"trekant":14294,"##bygger":14295,"##folket":14296,"temaene":14297,"##see":14298,"bekreftelse":14299,"91":14300,"spenn":14301,"eleg":14302,"1916":14303,"skulder":14304,"formidler":14305,"aksjesel":14306,"oppdateres":14307,"##væ":14308,"bidragsy":14309,"##obje":14310,"kontorer":14311,"nomin":14312,"mona":14313,"forbedringer":14314,"milliard":14315,"##ingeniør":14316,"lytter":14317,
[...]
