{"version":"1.0","truncation":null,"padding":null,"added_tokens":[{"id":0,"special":true,"content":"[PAD]","single_word":false,"lstrip":false,"rstrip":false,"normalized":false},{"id":1,"special":true,"content":"[UNK]","single_word":false,"lstrip":false,"rstrip":false,"normalized":false},{"id":2,"special":true,"content":"[CLS]","single_word":false,"lstrip":false,"rstrip":false,"normalized":false},{"id":3,"special":true,"content":"[SEP]","single_word":false,"lstrip":false,"rstrip":false,"normalized":false},{"id":4,"special":true,"content":"[MASK]","single_word":false,"lstrip":false,"rstrip":false,"normalized":false}],"normalizer":{"type":"BertNormalizer","clean_text":true,"handle_chinese_chars":true,"strip_accents":null,"lowercase":true},"pre_tokenizer":{"type":"BertPreTokenizer"},"post_processor":null,"decoder":{"type":"WordPiece","prefix":"##","cleanup":true},"model":{"type":"WordPiece","unk_token":"[UNK]","continuing_subword_prefix":"##","max_input_chars_per_word":100,"vocab":{"[PAD]":0,"[UNK]":1,"[CLS]":2,"[SEP]":3,"[MASK]":4,"!":5,"\"":6,"#":7,"$":8,"%":9,"&":10,"'":11,"(":12,")":13,"*":14,"+":15,",":16,"-":17,".":18,"/":19,"0":20,"1":21,"2":22,"3":23,"4":24,"5":25,"6":26,"7":27,"8":28,"9":29,":":30,";":31,"<":32,"=":33,">":34,"?":35,"@":36,"[":37,"\\":38,"]":39,"^":40,"_":41,"`":42,"a":43,"b":44,"c":45,"d":46,"e":47,"f":48,"g":49,"h":50,"i":51,"j":52,"k":53,"l":54,"m":55,"n":56,"o":57,"p":58,"q":59,"r":60,"s":61,"t":62,"u":63,"v":64,"w":65,"x":66,"y":67,"z":68,"{":69,"|":70,"}":71,"~":72,"¡":73,"¢":74,"£":75,"¤":76,"¥":77,"¦":78,"§":79,"¨":80,"©":81,"ª":82,"«":83,"¬":84,"®":85,"¯":86,"°":87,"±":88,"²":89,"³":90,"´":91,"µ":92,"¶":93,"·":94,"¸":95,"¹":96,"º":97,"»":98,"¼":99,"½":100,"¾":101,"¿":102,"×":103,"ß":104,"æ":105,"ð":106,"ø":107,"þ":108,"đ":109,"ı":110,"ł":111,"œ":112,"ſ":113,"ƒ":114,"ɔ":115,"ə":116,"ʹ":117,"ʺ":118,"ʼ":119,"ˆ":120,"ˈ":121,"˚":122,"˜":123,"α":124,"β":125,"γ":126,"δ":127,"ε":128,"ζ":129,"η":130,"θ":131,"ι":132,"κ":133,"λ":134,"μ":135,"ν":136,"ξ":137,"ο":138,"π":139,"ρ":140,"ς":141,"σ":142,"τ":143,"υ":144,"φ":145,"χ":146,"ψ":147,"ω":148,"а":149,"б":150,"в":151,"г":152,"д":153,"е":154,"ж":155,"з":156,"и":157,"к":158,"л":159,"м":160,"н":161,"о":162,"п":163,"р":164,"с":165,"т":166,"у":167,"ф":168,"х":169,"ц":170,"ч":171,"ш":172,"щ":173,"ъ":174,"ы":175,"ь":176,"э":177,"ю":178,"я":179,"ђ":180,"є":181,"ѕ":182,"і":183,"ј":184,"ґ":185,"ա":186,"א":187,"ב":188,"ג":189,"ד":190,"ה":191,"ו":192,"ח":193,"ט":194,"י":195,"כ":196,"ל":197,"ם":198,"מ":199,"ן":200,"נ":201,"ס":202,"ע":203,"פ":204,"ק":205,"ר":206,"ש":207,"ת":208,"׳":209,"،":210,"ء":211,"ا":212,"ب":213,"ة":214,"ت":215,"ث":216,"ج":217,"ح":218,"خ":219,"د":220,"ذ":221,"ر":222,"ز":223,"س":224,"ش":225,"ص":226,"ض":227,"ط":228,"ع":229,"غ":230,"ـ":231,"ف":232,"ق":233,"ك":234,"ل":235,"م":236,"ن":237,"ه":238,"و":239,"ى":240,"ي":241,"پ":242,"ک":243,"گ":244,"ی":245,"क":246,"ज":247,"त":248,"न":249,"प":250,"म":251,"य":252,"र":253,"ल":254,"व":255,"स":256,"ह":257,"ा":258,"ि":259,"ी":260,"ो":261,"ক":262,"ন":263,"ব":264,"র":265,"া":266,"ি":267,"ে":268,"க":269,"த":270,"ி":271,"ு":272,"ക":273,"ത":274,"ന":275,"യ":276,"ര":277,"ല":278,"വ":279,"ാ":280,"ി":281,"െ":282,"ก":283,"ข":284,"ค":285,"ง":286,"จ":287,"ช":288,"ด":289,"ต":290,"ท":291,"น":292,"บ":293,"ป":294,"พ":295,"ม":296,"ย":297,"ร":298,"ล":299,"ว":300,"ส":301,"ห":302,"อ":303,"ะ":304,"า":305,"ำ":306,"เ":307,"แ":308,"ไ":309,"ა":310,"ე":311,"ი":312,"ᄀ":313,"ᄂ":314,"ᄃ":315,"ᄅ":316,"ᄆ":317,"ᄇ":318,"ᄉ":319,"ᄋ":320,"ᄌ":321,"ᄎ":322,"ᄏ":323,"ᄐ":324,"ᄑ":325,"ᄒ":326,"ᅡ":327,"ᅢ":328,"ᅥ":329,"ᅦ":330,"ᅧ":331,"ᅩ":332,"ᅪ":333,"ᅬ":334,"ᅭ":335,"ᅮ":336,"ᅳ":337,"ᅴ":338,"ᅵ":339,"ᆨ":340,"ᆫ":341,"ᆯ":342,"ᆷ":343,"ᆸ":344,"ᆻ":345,"ᆼ":346,"‐":347,"‑":348,"‒":349,"–":350,"—":351,"‘":352,"’":353,"‚":354,"“":355,"”":356,"„":357,"†":358,"•":359,"…":360,"‰":361,"′":362,"″":363,"‹":364,"›":365,"⁄":366,"₂":367,"€":368,"℃":369,"№":370,"™":371,"←":372,"↑":373,"→":374,"⇒":375,"−":376,"∗":377,"∙":378,"√":379,"≤":380,"≥":381,"─":382,"━":383,"│":384,"■":385,"▪":386,"►":387,"◊":388,"○":389,"●":390,"☀":391,"★":392,"☆":393,"☎":394,"☕":395,"☝":396,"☺":397,"♀":398,"♂":399,"♡":400,"♥":401,"♦":402,"✅":403,"✌":404,"✓":405,"✔":406,"✨":407,"❑":408,"❗":409,"❤":410,"➔":411,"➤":412,"➧":413,"⠀":414,"⬆":415,"⭐":416,"、":417,"。":418,"「":419,"」":420,"【":421,"】":422,"あ":423,"い":424,"う":425,"え":426,"お":427,"か":428,"き":429,"く":430,"け":431,"こ":432,"さ":433,"し":434,"す":435,"せ":436,"そ":437,"た":438,"ち":439,"っ":440,"つ":441,"て":442,"と":443,"な":444,"に":445,"の":446,"は":447,"ひ":448,"へ":449,"ま":450,"み":451,"め":452,"も":453,"や":454,"よ":455,"ら":456,"り":457,"る":458,"れ":459,"ろ":460,"わ":461,"を":462,"ん":463,"ア":464,"ィ":465,"イ":466,"ウ":467,"ェ":468,"エ":469,"オ":470,"カ":471,"キ":472,"ク":473,"ケ":474,"コ":475,"サ":476,"シ":477,"ス":478,"セ":479,"ソ":480,"タ":481,"チ":482,"ッ":483,"ツ":484,"テ":485,"ト":486,"ナ":487,"ニ":488,"ネ":489,"ハ":490,"ヒ":491,"フ":492,"ヘ":493,"ホ":494,"マ":495,"ミ":496,"ム":497,"メ":498,"モ":499,"ャ":500,"ュ":501,"ョ":502,"ラ":503,"リ":504,"ル":505,"レ":506,"ロ":507,"ワ":508,"ン":509,"・":510,"ー":511,"一":512,"七":513,"万":514,"三":515,"上":516,"下":517,"不":518,"与":519,"专":520,"世":521,"业":522,"东":523,"两":524,"个":525,"中":526,"为":527,"主":528,"久":529,"么":530,"之":531,"乐":532,"九":533,"也":534,"买":535,"了":536,"争":537,"事":538,"二":539,"于":540,"五":541,"亚":542,"交":543,"产":544,"京":545,"人":546,"什":547,"今":548,"他":549,"仙":550,"代":551,"以":552,"们":553,"件":554,"任":555,"企":556,"会":557,"传":558,"位":559,"体":560,"何":561,"作":562,"你":563,"使":564,"供":565,"保":566,"信":567,"元":568,"先":569,"光":570,"免":571,"入":572,"全":573,"八":574,"公":575,"六":576,"关":577,"其":578,"具":579,"内":580,"円":581,"册":582,"军":583,"冠":584,"准":585,"出":586,"分":587,"划":588,"列":589,"创":590,"利":591,"到":592,"制":593,"前":594,"力":595,"加":596,"务":597,"动":598,"势":599,"動":600,"化":601,"北":602,"区":603,"十":604,"单":605,"南":606,"博":607,"原":608,"去":609,"县":610,"及":611,"友":612,"双":613,"发":614,"取":615,"受":616,"口":617,"可":618,"台":619,"号":620,"司":621,"合":622,"同":623,"名":624,"后":625,"吗":626,"员":627,"和":628,"品":629,"哪":630,"商":631,"器":632,"四":633,"回":634,"国":635,"图":636,"在":637,"地":638,"场":639,"址":640,"坛":641,"型":642,"城":643,"堂":644,"場":645,"外":646,"多":647,"大":648,"天":649,"太":650,"头":651,"奇":652,"奖":653,"女":654,"好":655,"如":656,"姐":657,"娱":658,"婆":659,"子":660,"字":661,"学":662,"安":663,"官":664,"定":665,"宝":666,"实":667,"客":668,"家":669,"容":670,"富":671,"对":672,"将":673,"小":674,"少":675,"就":676,"尾":677,"展":678,"山":679,"島":680,"川":681,"州":682,"工":683,"巧":684,"市":685,"常":686,"平":687,"年":688,"广":689,"庆":690,"库":691,"店":692,"度":693,"建":694,"开":695,"式":696,"引":697,"当":698,"录":699,"彩":700,"影":701,"很":702,"律":703,"得":704,"微":705,"心":706,"必":707,"忙":708,"快":709,"怎":710,"思":711,"性":712,"总":713,"情":714,"想":715,"意":716,"感":717,"成":718,"我":719,"户":720,"房":721,"所":722,"手":723,"打":724,"技":725,"投":726,"报":727,"持":728,"挂":729,"指":730,"排":731,"接":732,"推":733,"提":734,"播":735,"放":736,"教":737,"数":738,"文":739,"料":740,"斯":741,"新":742,"方":743,"无":744,"日":745,"时":746,"明":747,"星":748,"是":749,"時":750,"更":751,"最":752,"月":753,"有":754,"服":755,"期":756,"未":757,"本":758,"机":759,"杀":760,"来":761,"東":762,"果":763,"校":764,"样":765,"格":766,"業":767,"次":768,"正":769,"比":770,"民":771,"氓":772,"気":773,"水":774,"江":775,"没":776,"河":777,"法":778,"波":779,"注":780,"活":781,"流":782,"测":783,"海":784,"清":785,"港":786,"游":787,"源":788,"澳":789,"点":790,"然":791,"爱":792,"片":793,"版":794,"牌":795,"牛":796,"物":797,"特":798,"狗":799,"玄":800,"王":801,"玩":802,"现":803,"球":804,"理":805,"生":806,"用":807,"田":808,"电":809,"町":810,"画":811,"界":812,"疆":813,"登":814,"白":815,"百":816,"的":817,"目":818,"直":819,"相":820,"省":821,"看":822,"県":823,"真":824,"着":825,"知":826,"石":827,"码":828,"碰":829,"社":830,"神":831,"票":832,"福":833,"科":834,"程":835,"稳":836,"空":837,"立":838,"站":839,"第":840,"等":841,"算":842,"管":843,"精":844,"系":845,"红":846,"线":847,"组":848,"经":849,"结":850,"统":851,"网":852,"美":853,"群":854,"老":855,"考":856,"者":857,"而":858,"联":859,"肖":860,"育":861,"能":862,"自":863,"色":864,"英":865,"蛋":866,"行":867,"表":868,"装":869,"西":870,"要":871,"見":872,"规":873,"视":874,"解":875,"語":876,"计":877,"记":878,"论":879,"设":880,"诗":881,"说":882,"请":883,"财":884,"费":885,"资":886,"赌":887,"赚":888,"赛":889,"赢":890,"走":891,"超":892,"越":893,"跑":894,"路":895,"身":896,"车":897,"软":898,"载":899,"过":900,"运":901,"还":902,"这":903,"进":904,"送":905,"选":906,"通":907,"速":908,"道":909,"選":910,"部":911,"都":912,"酶":913,"里":914,"重":915,"野":916,"量":917,"金":918,"钱":919,"银":920,"長":921,"长":922,"間":923,"门":924,"间":925,"阳":926,"际":927,"限":928,"院":929,"集":930,"霸":931,"青":932,"面":933,"音":934,"预":935,"频":936,"食":937,"香":938,"马":939,"高":940,"黄":941,"黑":942,"龙":943,"ﬁ":944,"ﬂ":945,"！":946,"（":947,"）":948,"，":949,"５":950,"：":951,"？":952,"ｗ":953,"～":954,"￼":955,"🇩":956,"🇰":957,"🌟":958,"🌸":959,"🍀":960,"🍁":961,"🍂":962,"🎄":963,"🎉":964,"🏻":965,"🏼":966,"🏽":967,"👌":968,"👍":969,"👏":970,"💕":971,"💙":972,"💚":973,"💪":974,"🔥":975,"🔺":976,"🔻":977,"😀":978,"😁":979,"😂":980,"😃":981,"😄":982,"😅":983,"😆":984,"😉":985,"😊":986,"😋":987,"😍":988,"😎":989,"😘":990,"😛":991,"😜":992,"😱":993,"😳":994,"🙁":995,"🙂":996,"🙄":997,"🙈":998,"🙌":999,"🙏":1000,"🤔":1001,"🤗":1002,"🤞":1003,"🤩":1004,"##o":1005,"##g":1006,"##l":1007,"##e":1008,"##v":1009,"##r":1010,"##a":1011,"##n":1012,"##c":1013,"##d":1014,"##i":1015,"##u":1016,"##s":1017,"##t":1018,"##y":1019,"##f":1020,"##k":1021,"##p":1022,"##b":1023,"##m":1024,"##æ":1025,"##ش":1026,"##ك":1027,"##و":1028,"##ر":1029,"##h":1030,"##1":1031,"##9":1032,"##8":1033,"##ᅪ":1034,"##ᆫ":1035,"##ᄌ":1036,"##ᅥ":1037,"##x":1038,"##ø":1039,"##®":1040,"##0":1041,"##3":1042,"##6":1043,"##7":1044,"##2":1045,"##4":1046,"##j":1047,"##q":1048,"##w":1049,"##ı":1050,"##フ":1051,"##ト":1052,"##を":1053,"##5":1054,"##ロ":1055,"##ケ":1056,"##カ":1057,"##ー":1058,"##™":1059,"##ð":1060,"##z":1061,"##´":1062,"##р":1063,"##х":1064,"##е":1065,"##о":1066,"##л":1067,"##г":1068,"##и":1069,"##ч":1070,"##с":1071,"##к":1072,"##п":1073,"##д":1074,"##н":1075,"##у":1076,"##м":1077,"##モ":1078,"##チ":1079,"##☺":1080,"##ュ":1081,"##ン":1082,"##ᆨ":1083,"##ᄋ":1084,"##ᅵ":1085,"##ᄒ":1086,"##ᅢ":1087,"##❤":1088,"##🎄":1089,"##т":1090,"##¦":1091,"##¥":1092,"##ц":1093,"##і":1094,"##я":1095,"##а":1096,"##з":1097,"##ل":1098,"##ا":1099,"##ف":1100,"##ص":1101,"##ه":1102,"##в":1103,"##ᆯ":1104,"##ᄆ":1105,"##ᅮ":1106,"##¸":1107,"##α":1108,"##π":1109,"##ε":1110,"##λ":1111,"##か":1112,"##し":1113,"##う":1114,"##た":1115,"##¨":1116,"##ა":1117,"##ი":1118,"##¬":1119,"##ж":1120,"##س":1121,"##م":1122,"##ு":1123,"##ы":1124,"##ท":1125,"##ย":1126,"##า":1127,"##ส":1128,"##ต":1129,"##ร":1130,"##て":1131,"##る":1132,"##ヒ":1133,"##ル":1134,"##は":1135,"##ج":1136,"##ی":1137,"##ि":1138,"##क":1139,"##ल":1140,"##ा":1141,"##ъ":1142,"##د":1143,"##ع":1144,"##ى":1145,"##θ":1146,"##ι":1147,"##©":1148,"##ь":1149,"##ю":1150,"##ม":1151,"##°":1152,"##€":1153,"##ш":1154,"##½":1155,"##ʼ":1156,"##б":1157,"##ß":1158,"##ت":1159,"##💪":1160,"##🏼":1161,"##щ":1162,"##ह":1163,"##व":1164,"##ो":1165,"##न":1166,"##ャ":1167,"##ス":1168,"##ي":1169,"##ب":1170,"##μ":1171,"##−":1172,"##ி":1173,"##×":1174,"##😄":1175,"##מ":1176,"##ע":1177,"##ו":1178,"##ל":1179,"##ם":1180,"##¼":1181,"##ن":1182,"##گ":1183,"##ρ":1184,"##γ":1185,"##ο":1186,"##σ":1187,"##τ":1188,"##κ":1189,"##υ":1190,"##ς":1191,"##ح":1192,"##🙏":1193,"##þ":1194,"##🏻":1195,"##テ":1196,"##エ":1197,"##ク":1198,"##リ":1199,"##ア":1200,"##ᅡ":1201,"##ᄀ":1202,"##🌸":1203,"##อ":1204,"##ง":1205,"##ห":1206,"##น":1207,"##ว":1208,"##เ":1209,"##ก":1210,"##ไ":1211,"##ป":1212,"##บ":1213,"##ช":1214,"##サ":1215,"##キ":1216,"##া":1217,"##お":1218,"##す":1219,"##め":1220,"##ろ":1221,"##ᆷ":1222,"##ﬁ":1223,"##💚":1224,"##ﬂ":1225,"##い":1226,"##ᅧ":1227,"##シ":1228,"##ز":1229,"##˜":1230,"##க":1231,"##ق":1232,"##イ":1233,"##ヘ":1234,"##ウ":1235,"##ィ":1236,"##œ":1237,"##わ":1238,"##く":1239,"##ラ":1240,"##ョ":1241,"##ェ":1242,"##ə":1243,"##β":1244,"##η":1245,"##э":1246,"##ე":1247,"##😂":1248,"##ł":1249,"##🍂":1250,"##✨":1251,"##ض":1252,"##خ":1253,"##र":1254,"##य":1255,"##ज":1256,"##त":1257,"##വ":1258,"##ة":1259,"##ר":1260,"##ה":1261,"##さ":1262,"##れ":1263,"##😊":1264,"##ค":1265,"##ะ":1266,"##り":1267,"##ッ":1268,"##ソ":1269,"##ニ":1270,"##ำ":1271,"##พ":1272,"##ф":1273,"##ν":1274,"##ホ":1275,"##ᄅ":1276,"##ᅳ":1277,"##כ":1278,"##ש":1279,"##י":1280,"##ա":1281,"##ハ":1282,"##²":1283,"##🍀":1284,"##đ":1285,"##み":1286,"##😍":1287,"##コ":1288,"##の":1289,"##け":1290,"##ナ":1291,"##メ":1292,"##δ":1293,"##ן":1294,"##っ":1295,"##も":1296,"##🤩":1297,"##ƒ":1298,"##💙":1299,"##º":1300,"##●":1301,"##ে":1302,"##র":1303,"##🙄":1304,"##ـ":1305,"##ђ":1306,"##☕":1307,"##🍁":1308,"##に":1309,"##レ":1310,"##ム":1311,"##ら":1312,"##と":1313,"##˚":1314,"##ᅩ":1315,"##ᄑ":1316,"##ᅦ":1317,"##あ":1318,"##ま":1319,"##🤔":1320,"##¾":1321,"##ᆼ":1322,"##ᆸ":1323,"##ᅴ":1324,"##ര":1325,"##ത":1326,"##ി":1327,"##ന":1328,"##ാ":1329,"##せ":1330,"##ん":1331,"##⭐":1332,"##😜":1333,"##¹":1334,"##👍":1335,"##¤":1336,"##φ":1337,"##ζ":1338,"##🎉":1339,"##ी":1340,"##☀":1341,"##😘":1342,"##タ":1343,"##こ":1344,"##￼":1345,"##ক":1346,"##ט":1347,"##ワ":1348,"##χ":1349,"##😀":1350,"##つ":1351,"##☝":1352,"##µ":1353,"##😉":1354,"##き":1355,"##ſ":1356,"##マ":1357,"##オ":1358,"##ω":1359,"##ʹ":1360,"##غ":1361,"##セ":1362,"##🙈":1363,"##ѕ":1364,"##👌":1365,"##ک":1366,"##จ":1367,"##ミ":1368,"##℃":1369,"##♀":1370,"##ґ":1371,"##▪":1372,"##👏":1373,"##ј":1374,"##🇰":1375,"##ᄂ":1376,"##ᅭ":1377,"##ᄉ":1378,"##な":1379,"##स":1380,"##म":1381,"##ɔ":1382,"##⁄":1383,"##ネ":1384,"##ন":1385,"##ি":1386,"##ᄏ":1387,"##♥":1388,"##😋":1389,"##😅":1390,"##प":1391,"##ᄃ":1392,"##ᄇ":1393,"##є":1394,"##😃":1395,"##ʺ":1396,"##ᅬ":1397,"##🙌":1398,"##🇩":1399,"##ല":1400,"##ക":1401,"##ב":1402,"##±":1403,"##ˆ":1404,"##ข":1405,"##ด":1406,"##♂":1407,"##よ":1408,"##🏽":1409,"##⠀":1410,"##🤗":1411,"##や":1412,"##פ":1413,"##ח":1414,"##ס":1415,"##🙂":1416,"##ひ":1417,"##ء":1418,"##😁":1419,"##യ":1420,"##െ":1421,"##ק":1422,"##ת":1423,"##ط":1424,"##🔥":1425,"##ツ":1426,"##ล":1427,"##א":1428,"##ג":1429,"##♡":1430,"##～":1431,"##ד":1432,"##נ":1433,"##แ":1434,"##そ":1435,"##ব":1436,"##え":1437,"##💕":1438,"##³":1439,"##¢":1440,"##ᄎ":1441,"##√":1442,"##✌":1443,"##ψ":1444,"##✔":1445,"##へ":1446,"##😎":1447,"##ذ":1448,"##😳":1449,"##ᄐ":1450,"##ث":1451,"##த":1452,"##₂":1453,"##😆":1454,"##ち":1455,"##∗":1456,"##£":1457,"##♦":1458,"##ξ":1459,"##¯":1460,"##ˈ":1461,"##✓":1462,"##↑":1463,"##ᆻ":1464,"##🔺":1465,"##🔻":1466,"##→":1467,"##∙":1468,"##ｗ":1469,"##５":1470,"##😱":1471,"##پ":1472,"##ª":1473,"##🤞":1474,"##✅":1475,"##❗":1476,"##☆":1477,"##★":1478,"##🌟":1479,"##○":1480,"##←":1481,"##■":1482,"##━":1483,"##►":1484,"##№":1485,"##─":1486,"##⇒":1487,"##≥":1488,"##│":1489,"##◊":1490,"##😛":1491,"##☎":1492,"##🙁":1493,"##≤":1494,"##➤":1495,"##⬆":1496,"##er":1497,"##en":1498,"##et":1499,"##or":1500,"##an":1501,"##ed":1502,"##in":1503,"##ig":1504,"##ar":1505,"##il":1506,"##el":1507,"og":1508,"##st":1509,"##de":1510,"for":1511,"##al":1512,"##nd":1513,"er":1514,"##ing":1515,"##es":1516,"at":1517,"##om":1518,"til":1519,"en":1520,"af":1521,"##sk":1522,"##le":1523,"##ag":1524,"det":1525,"##re":1526,"pa":1527,"##on":1528,"##at":1529,"##eg":1530,"##kk":1531,"der":1532,"##ne":1533,"med":1534,"##ter":1535,"st":1536,"##ver":1537,"##id":1538,"##ør":1539,"##ra":1540,"sa":1541,"##ol":1542,"de":1543,"##is":1544,"##ler":1545,"##te":1546,"sk":1547,"den":1548,"##se":1549,"##lig":1550,"##and":1551,"##ær":1552,"ud":1553,"##kke":1554,"##der":1555,"hv":1556,"har":1557,"##ning":1558,"som":1559,"vi":1560,"##it":1561,"##ge":1562,"##iv":1563,"om":1564,"##un":1565,"##od":1566,"et":1567,"du":1568,"##og":1569,"kan":1570,"jeg":1571,"ikke":1572,"##ende":1573,"##ik":1574,"##kt":1575,"##ej":1576,"op":1577,"##ru":1578,"##ere":1579,"##ion":1580,"##av":1581,"al":1582,"##ste":1583,"##mm":1584,"##ad":1585,"pr":1586,"##ede":1587,"##ur":1588,"ar":1589,"man":1590,"##hed":1591,"ind":1592,"men":1593,"##isk":1594,"##æl":1595,"##els":1596,"var":1597,"el":1598,"##ens":1599,"bl":1600,"##igt":1601,"##ent":1602,"##else":1603,"##ul":1604,"in":1605,"##as":1606,"##ræ":1607,"##ab":1608,"##erne":1609,"##for":1610,"##ige":1611,"##am":1612,"an":1613,"sp":1614,"fra":1615,"eller":1616,"##ger":1617,"hvor":1618,"vil":1619,"be":1620,"##omm":1621,"##ks":1622,"##fter":1623,"##us":1624,"over":1625,"##sa":1626,"ved":1627,"væ":1628,"skal":1629,"##ud":1630,"##nder":1631,"##ang":1632,"##age":1633,"##ist":1634,"fa":1635,"se":1636,"##lev":1637,"##ov":1638,"##ind":1639,"##op":1640,"##iver":1641,"sig":1642,"##øb":1643,"##old":1644,"##je":1645,"##elt":1646,"##gen":1647,"hav":1648,"han":1649,"##est":1650,"##bej":1651,"##ort":1652,"##ation":1653,"and":1654,"##lige":1655,"##end":1656,"efter":1657,"##sp":1658,"ma":1659,"##ot":1660,"##ft":1661,"nog":1662,"kun":1663,"##ske":1664,"ogsa":1665,"##ut":1666,"##ok":1667,"##æn":1668,"komm":1669,"##ive":1670,"være":1671,"sam":1672,"##im":1673,"##yg":1674,"##ill":1675,"her":1676,"kon":1677,"ny":1678,"kl":1679,"##und":1680,"##øj":1681,"sel":1682,"##em":1683,"dan":1684,"##ød":1685,"bru":1686,"god":1687,"blev":1688,"##ser":1689,"##ri":1690,"##æg":1691,"##æt":1692,"##ene":1693,"selv":1694,"hvis":1695,"##yr":1696,"##ine":1697,"##ale":1698,"##ir":1699,"##pp":1700,"##lem":1701,"##eget":1702,"##ade":1703,"20":1704,"##elig":1705,"under":1706,"##dan":1707,"##ligt":1708,"gen":1709,"vær":1710,"##øl":1711,"##iske":1712,"##kker":1713,"##art":1714,"kr":1715,"meget":1716,"tid":1717,"før":1718,"##esk":1719,"##os":1720,"##ic":1721,"##ring":1722,"nar":1723,"end":1724,"sm":1725,"##vær":1726,"##ob":1727,"##sen":1728,"##ling":1729,"alle":1730,"alt":1731,"fin":1732,"hel":1733,"##hold":1734,"##ret":1735,"##um":1736,"##ff":1737,"tr":1738,"##rem":1739,"arbej":1740,"samm":1741,"##ers":1742,"pl":1743,"sid":1744,"min":1745,"##yn":1746,"dig":1747,"mod":1748,"##sm":1749,"##øg":1750,"fr":1751,"##ke":1752,"##idt":1753,"mere":1754,"##var":1755,"##sl":1756,"##ark":1757,"##eret":1758,"læ":1759,"##ord":1760,"far":1761,"##vis":1762,"kv":1763,"sl":1764,"##ant":1765,"stor":1766,"da":1767,"mu":1768,"mange":1769,"##yl":1770,"##ie":1771,"##eder":1772,"nu":1773,"dag":1774,"br":1775,"##ager":1776,"##skab":1777,"vor":1778,"##itet":1779,"re":1780,"##øre":1781,"##yd":1782,"bet":1783,"##ide":1784,"fl":1785,"##elser":1786,"##ninger":1787,"##elsen":1788,"##tet":1789,"##lighed":1790,"din":1791,"##be":1792,"##ænd":1793,"bar":1794,"køb":1795,"vores":1796,"##ner":1797,"##øn":1798,"vir":1799,"##jer":1800,"##nem":1801,"##det":1802,"denne":1803,"bliver":1804,"havde":1805,"##alg":1806,"hun":1807,"##del":1808,"mig":1809,"frem":1810,"##per":1811,"kunne":1812,"##kl":1813,"##net":1814,"##æng":1815,"hvad":1816,"reg":1817,"##yt":1818,"tilb":1819,"samt":1820,"udv":1821,"##ass":1822,"bed":1823,"bør":1824,"##ys":1825,"##agt":1826,"pro":1827,"##ier":1828,"godt":1829,"dem":1830,"dette":1831,"##lere":1832,"gr":1833,"##ille":1834,"noget":1835,"##jæl":1836,"have":1837,"brug":1838,"andre":1839,"##pe":1840,"forsk":1841,"##alt":1842,"sex":1843,"lig":1844,"##enter":1845,"##ss":1846,"or":1847,"forb":1848,"kom":1849,"##des":1850,"##ast":1851,"##ch":1852,"##ak":1853,"##arbej":1854,"beg":1855,"deres":1856,"##ci":1857,"ret":1858,"##00":1859,"##ek":1860,"træ":1861,"##den":1862,"##ktion":1863,"201":1864,"hand":1865,"helt":1866,"##ering":1867,"##gang":1868,"del":1869,"gru":1870,"uden":1871,"to":1872,"form":1873,"##ce":1874,"##hand":1875,"un":1876,"##ningen":1877,"##tr":1878,"hver":1879,"##ten":1880,"ad":1881,"##eri":1882,"le":1883,"sø":1884,"##dag":1885,"##let":1886,"sammen":1887,"lidt":1888,"høj":1889,"lige":1890,"##pr":1891,"os":1892,"##erson":1893,"##læg":1894,"##mmer":1895,"##ber":1896,"##odu":1897,"##ost":1898,"hje":1899,"##ker":1900,"gl":1901,"mel":1902,"fort":1903,"nogle":1904,"##land":1905,"gennem":1906,"##før":1907,"ga":1908,"##ess":1909,"##sæt":1910,"##ighed":1911,"##ode":1912,"forskel":1913,"##ve":1914,"næ":1915,"##ket":1916,"ch":1917,"vej":1918,"##ga":1919,"th":1920,"bes":1921,"par":1922,"##mme":1923,"bade":1924,"##dt":1925,"##ikker":1926,"##aler":1927,"##org":1928,"hele":1929,"##ksom":1930,"gar":1931,"##di":1932,"person":1933,"været":1934,"ser":1935,"nye":1936,"##sker":1937,"fors":1938,"jo":1939,"##ap":1940,"flere":1941,"##dr":1942,"føl":1943,"##get":1944,"##atur":1945,"##sat":1946,"##aget":1947,"##yk":1948,"inter":1949,"##hol":1950,"##avn":1951,"##yder":1952,"##pl":1953,"blive":1954,"ek":1955,"##nes":1956,"19":1957,"ned":1958,"##ange":1959,"hvil":1960,"lav":1961,"derfor":1962,"##isse":1963,"su":1964,"ab":1965,"vid":1966,"mellem":1967,"lang":1968,"##ster":1969,"##inder":1970,"sin":1971,"kont":1972,"##elle":1973,"igen":1974,"inden":1975,"##sb":1976,"stør":1977,"dr":1978,"bil":1979,"hen":1980,"##ien":1981,"gør":1982,"##mp":1983,"best":1984,"##eb":1985,"mind":1986,"##edet":1987,"##elige":1988,"kommer":1989,"skul":1990,"hjæl":1991,"##mer":1992,"land":1993,"##ult":1994,"gang":1995,"##ksomhed":1996,"rigt":1997,"##inger":1998,"produ":1999,"##ac":2000,"##øde":2001,"##eligt":2002,"##vend":2003,"##ktiv":2004,"sy":2005,"##bl":2006,"første":2007,"grund":2008,"##ets":2009,"bare":2010,"##ug":2011,"store":2012,"mass":2013,"eks":2014,"hvordan":2015,"vis":2016,"dk":2017,"øn":2018,"danm":2019,"dat":2020,"mulighed":2021,"ty":2022,"besk":2023,"børn":2024,"##me":2025,"##edes":2026,"##vej":2027,"forskellige":2028,"arbejd":2029,"##elses":2030,"udvik":2031,"hol":2032,"hos":2033,"##gør":2034,"##vet":2035,"des":2036,"liv":2037,"##tal":2038,"skulle":2039,"di":2040,"##kken":2041,"##andt":2042,"##ans":2043,"net":2044,"ven":2045,"##æld":2046,"##ald":2047,"##øs":2048,"##fte":2049,"bill":2050,"massage":2051,"##over":2052,"##af":2053,"dog":2054,"##sten":2055,"##inde":2056,"str":2057,"##les":2058,"##ære":2059,"ev":2060,"andet":2061,"##ingen":2062,"gøre":2063,"##br":2064,"##hus":2065,"##føl":2066,"##under":2067,"10":2068,"gra":2069,"##form":2070,"##orn":2071,"mat":2072,"##kter":2073,"##stem":2074,"##nesk":2075,"natur":2076,"dit":2077,"dansk":2078,"vel":2079,"mand":2080,"giver":2081,"##ørg":2082,"anden":2083,"syn":2084,"siden":2085,"tra":2086,"virksomhed":2087,"sen":2088,"vand":2089,"samme":2090,"ville":2091,"præ":2092,"byg":2093,"by":2094,"##tes":2095,"##nings":2096,"mal":2097,"##ven":2098,"mennesk":2099,"kommun":2100,"so":2101,"##giv":2102,"altid":2103,"ver":2104,"hende":2105,"tilf":2106,"##gende":2107,"finde":2108,"fol":2109,"sikker":2110,"forhold":2111,"disse":2112,"lu":2113,"omk":2114,"pol":2115,"##ken":2116,"res":2117,"##iger":2118,"##cer":2119,"sn":2120,"##ads":2121,"bag":2122,"fik":2123,"danske":2124,"løb":2125,"væl":2126,"##ard":2127,"##ræn":2128,"la":2129,"##dann":2130,"##ub":2131,"blevet":2132,"ans":2133,"##still":2134,"tilbage":2135,"opl":2136,"##alitet":2137,"##ust":2138,"##urt":2139,"lille":2140,"##endt":2141,"##iller":2142,"skr":2143,"star":2144,"danmark":2145,"##kon":2146,"mor":2147,"pen":2148,"ly":2149,"##havn":2150,"##amp":2151,"hans":2152,"##fl":2153,"##gi":2154,"##sta":2155,"nok":2156,"side":2157,"##unkt":2158,"sag":2159,"##kket":2160,"vigt":2161,"fil":2162,"skab":2163,"enk":2164,"on":2165,"pris":2166,"##uld":2167,"dine":2168,"arbejde":2169,"ha":2170,"##oder":2171,"gerne":2172,"fordi":2173,"ham":2174,"lov":2175,"##nu":2176,"##gt":2177,"##ele":2178,"omra":2179,"##olog":2180,"##ater":2181,"kvinder":2182,"sadan":2183,"##len":2184,"rad":2185,"##ffe":2186,"nem":2187,"sit":2188,"##red":2189,"sær":2190,"maske":2191,"beh":2192,"##hver":2193,"sv":2194,"sæt":2195,"##ligere":2196,"virk":2197,"##akt":2198,"hov":2199,"##tere":2200,"gode":2201,"ingen":2202,"##ogra":2203,"200":2204,"##ister":2205,"##handling":2206,"bedste":2207,"##ow":2208,"##of":2209,"kra":2210,"sidste":2211,"gener":2212,"nær":2213,"ra":2214,"##til":2215,"te":2216,"##oblem":2217,"ord":2218,"mest":2219,"inde":2220,"##tag":2221,"##ole":2222,"##fat":2223,"is":2224,"im":2225,"komme":2226,"hold":2227,"tage":2228,"plan":2229,"hurt":2230,"##ationer":2231,"valg":2232,"made":2233,"##anden":2234,"##ynd":2235,"##istor":2236,"vide":2237,"tv":2238,"fast":2239,"lever":2240,"##asse":2241,"oplev":2242,"omkring":2243,"spe":2244,"18":2245,"##rer":2246,"##sc":2247,"tek":2248,"##are":2249,"##iden":2250,"led":2251,"siger":2252,"##smal":2253,"##au":2254,"##mær":2255,"kn":2256,"##borg":2257,"##ppe":2258,"ting":2259,"sal":2260,"##amil":2261,"ænd":2262,"##ører":2263,"nød":2264,"polit":2265,"##atis":2266,"porn":2267,"per":2268,"mark":2269,"tæn":2270,"##æv":2271,"##lever":2272,"rigtig":2273,"fakt":2274,"spørg":2275,"##led":2276,"##jen":2277,"lok":2278,"##bet":2279,"##enhavn":2280,"hal":2281,"##ække":2282,"fun":2283,"læng":2284,"##sel":2285,"##ærd":2286,"bo":2287,"bruge":2288,"københavn":2289,"eg":2290,"tim":2291,"ønsker":2292,"problem":2293,"##ings":2294,"nogen":2295,"mad":2296,"off":2297,"##ma":2298,"proje":2299,"##if":2300,"prø":2301,"speci":2302,"##styr":2303,"##bru":2304,"##rift":2305,"aller":2306,"bruger":2307,"kort":2308,"stad":2309,"give":2310,"rej":2311,"jer":2312,"mænd":2313,"##som":2314,"famil":2315,"12":2316,"15":2317,"tre":2318,"##komm":2319,"ber":2320,"##far":2321,"gratis":2322,"delt":2323,"hus":2324,"met":2325,"ofte":2326,"hjemm":2327,"##ave":2328,"##gru":2329,"##olig":2330,"##bo":2331,"##res":2332,"##ider":2333,"hoved":2334,"##ges":2335,"smu":2336,"##io":2337,"mindre":2338,"##entlig":2339,"hvilket":2340,"##ip":2341,"udvikling":2342,"##ia":2343,"sol":2344,"blandt":2345,"tur":2346,"spørgsmal":2347,"##stru":2348,"lan":2349,"kar":2350,"stk":2351,"lær":2352,"mar":2353,"##arbejder":2354,"bedre":2355,"fæl":2356,"uddann":2357,"##iet":2358,"##oc":2359,"nord":2360,"##ringer":2361,"##orm":2362,"mil":2363,"histor":2364,"sik":2365,"##opp":2366,"##løb":2367,"fle":2368,"gj":2369,"##iner":2370,"##spr":2371,"lej":2372,"let":2373,"fortæl":2374,"nyt":2375,"ligger":2376,"##arbejde":2377,"hjælp":2378,"ben":2379,"bog":2380,"muligt":2381,"kal":2382,"kræ":2383,"sted":2384,"##søg":2385,"ekst":2386,"##anske":2387,"##idig":2388,"mens":2389,"mit":2390,"svar":2391,"ja":2392,"red":2393,"##ioner":2394,"endnu":2395,"##ib":2396,"##sted":2397,"##gar":2398,"sund":2399,"##med":2400,"##vid":2401,"hjem":2402,"##spunkt":2403,"##sn":2404,"##undet":2405,"##ld":2406,"sæ":2407,"ca":2408,"am":2409,"hu":2410,"stat":2411,"finder":2412,"##indelse":2413,"folk":2414,"virkelig":2415,"kvalitet":2416,"række":2417,"esc":2418,"##reg":2419,"com":2420,"stadig":2421,"fant":2422,"##all":2423,"faet":2424,"soci":2425,"##mel":2426,"##irk":2427,"##ank":2428,"mennesker":2429,"##line":2430,"##holder":2431,"##æk":2432,"aktiv":2433,"ars":2434,"hot":2435,"##æss":2436,"##oks":2437,"styr":2438,"##ift":2439,"escort":2440,"tager":2441,"ene":2442,"ej":2443,"verden":2444,"egen":2445,"##up":2446,"##øt":2447,"rest":2448,"ekse":2449,"komp":2450,"gange":2451,"##stand":2452,"først":2453,"forv":2454,"unge":2455,"bek":2456,"kor":2457,"##vende":2458,"mær":2459,"und":2460,"##yld":2461,"##byg":2462,"rund":2463,"akt":2464,"##sf":2465,"##pper":2466,"bor":2467,"mus":2468,"fælles":2469,"film":2470,"vin":2471,"tha":2472,"##ygt":2473,"##vic":2474,"##alet":2475,"start":2476,"klar":2477,"##la":2478,"##pt":2479,"ide":2480,"sh":2481,"##rakt":2482,"##øje":2483,"mine":2484,"##oner":2485,"##vel":2486,"11":2487,"##hæng":2488,"##øger":2489,"dej":2490,"dire":2491,"gam":2492,"##eller":2493,"lave":2494,"##uden":2495,"større":2496,"proc":2497,"##heden":2498,"##kte":2499,"set":2500,"online":2501,"stort":2502,"##urder":2503,"##str":2504,"læs":2505,"forbindelse":2506,"inv":2507,"dy":2508,"opt":2509,"##øm":2510,"dage":2511,"##ond":2512,"pat":2513,"tal":2514,"##set":2515,"##ise":2516,"projekt":2517,"langt":2518,"udvalg":2519,"##konom":2520,"##ct":2521,"eksemp":2522,"ka":2523,"##sh":2524,"fag":2525,"længere":2526,"oplys":2527,"##yst":2528,"findes":2529,"behandling":2530,"##ativ":2531,"tidligere":2532,"30":2533,"ne":2534,"##ition":2535,"ro":2536,"sma":2537,"samtidig":2538,"##syn":2539,"##agen":2540,"synes":2541,"væk":2542,"mang":2543,"org":2544,"mot":2545,"ren":2546,"##lad":2547,"gik":2548,"##alis":2549,"søger":2550,"art":2551,"##ytte":2552,"##nen":2553,"na":2554,"prof":2555,"##okus":2556,"ener":2557,"##by":2558,"kontakt":2559,"alm":2560,"##sfor":2561,"øv":2562,"allerede":2563,"aldr":2564,"##øv":2565,"pas":2566,"##utter":2567,"##tede":2568,"##trol":2569,"aldrig":2570,"14":2571,"spr":2572,"altsa":2573,"##omme":2574,"##ren":2575,"hjemmes":2576,"dyr":2577,"spil":2578,"fal":2579,"stand":2580,"sommer":2581,"fre":2582,"bel":2583,"erhver":2584,"fokus":2585,"kø":2586,"##van":2587,"##bef":2588,"##sigt":2589,"faktisk":2590,"læg":2591,"result":2592,"gu":2593,"##idler":2594,"sine":2595,"sta":2596,"web":2597,"##lag":2598,"medarbejder":2599,"løs":2600,"hendes":2601,"he":2602,"sc":2603,"##eren":2604,"##jø":2605,"tab":2606,"piger":2607,"plads":2608,"voks":2609,"em":2610,"rundt":2611,"##atte":2612,"priv":2613,"##asser":2614,"##ationen":2615,"##istr":2616,"##ælder":2617,"svær":2618,"inst":2619,"##blik":2620,"16":2621,"sige":2622,"17":2623,"saledes":2624,"modt":2625,"konk":2626,"##ian":2627,"ekstra":2628,"##ue":2629,"##telse":2630,"##ejl":2631,"spænd":2632,"##ænge":2633,"##une":2634,"videre":2635,"##anis":2636,"gamle":2637,"fantast":2638,"hurtigt":2639,"næste":2640,"lin":2641,"tekn":2642,"int":2643,"##egn":2644,"behov":2645,"penge":2646,"kur":2647,"##eter":2648,"eng":2649,"afsl":2650,"##gelig":2651,"leg":2652,"##olle":2653,"##tid":2654,"##na":2655,"viser":2656,"##ykke":2657,"tæt":2658,"nr":2659,"tog":2660,"effe":2661,"holde":2662,"##revet":2663,"fuld":2664,"eur":2665,"##ender":2666,"økonom":2667,"##min":2668,"##uder":2669,"##elte":2670,"fri":2671,"tilbud":2672,"privat":2673,"##ultur":2674,"##erer":2675,"betyder":2676,"grøn":2677,"##lede":2678,"tag":2679,"anbef":2680,"erhverv":2681,"part":2682,"##aling":2683,"købe":2684,"##omra":2685,"billeder":2686,"nødvend":2687,"kvinde":2688,"##olen":2689,"##ator":2690,"##ont":2691,"vælge":2692,"vurder":2693,"##ført":2694,"##uelle":2695,"stedet":2696,"yder":2697,"##iveau":2698,"hvert":2699,"foret":2700,"sundhed":2701,"vigtigt":2702,"##teret":2703,"##dom":2704,"13":2705,"##riv":2706,"kør":2707,"arbejder":2708,"##erede":2709,"besl":2710,"##elef":2711,"bev":2712,"jord":2713,"fræ":2714,"ge":2715,"nemlig":2716,"desig":2717,"po":2718,"##rev":2719,"aft":2720,"glæ":2721,"undersøg":2722,"video":2723,"##gte":2724,"kat":2725,"##skaber":2726,"tiden":2727,"næsten":2728,"fød":2729,"servic":2730,"erfar":2731,"thai":2732,"eksempel":2733,"##ire":2734,"tilfæl":2735,"##slag":2736,"viden":2737,"super":2738,"sand":2739,"besøg":2740,"hjælpe":2741,"flot":2742,"kommune":2743,"##endte":2744,"stær":2745,"blot":2746,"##sv":2747,"haft":2748,"##snit":2749,"100":2750,"##ym":2751,"ta":2752,"##ester":2753,"tale":2754,"##træ":2755,"ter":2756,"bolig":2757,"##kom":2758,"25":2759,"funktion":2760,"ste":2761,"giv":2762,"##ader":2763,"norm":2764,"##sam":2765,"##ro":2766,"hvorfor":2767,"##aret":2768,"ol":2769,"aut":2770,"jul":2771,"antal":2772,"begynd":2773,"##aden":2774,"##ensen":2775,"##uds":2776,"sj":2777,"bi":2778,"co":2779,"æld":2780,"hj":2781,"især":2782,"##mmet":2783,"mindst":2784,"porno":2785,"##øder":2786,"interes":2787,"##grund":2788,"fordel":2789,"fleste":2790,"slag":2791,"##igheder":2792,"##værk":2793,"kunst":2794,"##ure":2795,"tem":2796,"the":2797,"##ikke":2798,"kæ":2799,"ris":2800,"syg":2801,"undervis":2802,"##terne":2803,"##ansk":2804,"læse":2805,"beslut":2806,"enkelte":2807,"bud":2808,"igennem":2809,"##øse":2810,"skøn":2811,"morgen":2812,"event":2813,"##efter":2814,"##ha":2815,"##ite":2816,"oplysninger":2817,"maned":2818,"##sdag":2819,"inform":2820,"fjer":2821,"##men":2822,"lavet":2823,"ban":2824,"ansvar":2825,"opg":2826,"##eneste":2827,"syd":2828,"##edt":2829,"##sent":2830,"##one":2831,"stra":2832,"skabe":2833,"udfor":2834,"aktivitet":2835,"##orde":2836,"tror":2837,"##rag":2838,"taget":2839,"##rik":2840,"ung":2841,"cent":2842,"opf":2843,"samarbejde":2844,"kamp":2845,"##unde":2846,"hin":2847,"##ikken":2848,"vind":2849,"ann":2850,"via":2851,"hotel":2852,"##yde":2853,"kultur":2854,"id":2855,"##lerne":2856,"##rede":2857,"enkelt":2858,"kap":2859,"##skabet":2860,"produkter":2861,"materi":2862,"ude":2863,"herunder":2864,"##brug":2865,"##son":2866,"##præ":2867,"fod":2868,"halv":2869,"lys":2870,"anal":2871,"krav":2872,"selvom":2873,"##stænd":2874,"##dat":2875,"jan":2876,"##iste":2877,"##akter":2878,"job":2879,"##ori":2880,"peri":2881,"app":2882,"sikkert":2883,"ps":2884,"##satte":2885,"støt":2886,"##fra":2887,"skole":2888,"##rist":2889,"hab":2890,"##ledning":2891,"sim":2892,"##fe":2893,"##ylland":2894,"kig":2895,"##iddel":2896,"##ligvis":2897,"kost":2898,"ju":2899,"ful":2900,"netop":2901,"##lemmer":2902,"luft":2903,"##udv":2904,"bruges":2905,"##kning":2906,"almind":2907,"selvføl":2908,"bestyr":2909,"##kv":2910,"##vn":2911,"betyd":2912,"sat":2913,"lo":2914,"##heder":2915,"##skud":2916,"##stat":2917,"##ars":2918,"000":2919,"##itut":2920,"europ":2921,"mon":2922,"##int":2923,"aften":2924,"##gaver":2925,"hyg":2926,"##elefon":2927,"begge":2928,"senere":2929,"still":2930,"omfat":2931,"sikre":2932,"midt":2933,"ander":2934,"##øren":2935,"hæ":2936,"liges":2937,"største":2938,"fer":2939,"ul":2940,"virksomheder":2941,"##sg":2942,"##oppen":2943,"anvend":2944,"##entet":2945,"##par":2946,"gælder":2947,"trad":2948,"tro":2949,"mød":2950,"##ionen":2951,"kir":2952,"##tra":2953,"##unden":2954,"tilfælde":2955,"##ande":2956,"færd":2957,"anvende":2958,"##ember":2959,"fot":2960,"øvr":2961,"ejend":2962,"##ældende":2963,"##ppen":2964,"##tek":2965,"50":2966,"selvfølgelig":2967,"##alen":2968,"hjer":2969,"##meld":2970,"møde":2971,"grad":2972,"hvilke":2973,"##leje":2974,"##po":2975,"elever":2976,"svært":2977,"ring":2978,"øje":2979,"fantastisk":2980,"hør":2981,"##stemm":2982,"indhold":2983,"##plan":2984,"sker":2985,"##yldt":2986,"##bud":2987,"direkte":2988,"nov":2989,"adgang":2990,"bas":2991,"##ask":2992,"musik":2993,"ru":2994,"tør":2995,"##our":2996,"opmær":2997,"mob":2998,"forsta":2999,"##ay":3000,"pos":3001,"##mmel":3002,"ellers":3003,"##stre":3004,"eu":3005,"##ograf":3006,"##ffer":3007,"##vand":3008,"værd":3009,"##use":3010,"afgør":3011,"foren":3012,"##nede":3013,"nat":3014,"##ession":3015,"desuden":3016,"moder":3017,"##tryk":3018,"medlem":3019,"opret":3020,"##vir":3021,"##cc":3022,"##oden":3023,"resultat":3024,"prakt":3025,"indtil":3026,"timer":3027,"sagde":3028,"sjæl":3029,"##uler":3030,"progra":3031,"ni":3032,"##spl":3033,"ang":3034,"dermed":3035,"##iss":3036,"##øge":3037,"følge":3038,"ele":3039,"##elserne":3040,"sæl":3041,"fø":3042,"pige":3043,"ældre":3044,"stud":3045,"spændende":3046,"dar":3047,"hinanden":3048,"##cept":3049,"fx":3050,"løbet":3051,"system":3052,"sikkerhed":3053,"fys":3054,"klub":3055,"jun":3056,"størr":3057,"lækker":3058,"##amer":3059,"vigtig":3060,"lyst":3061,"tru":3062,"organis":3063,"mail":3064,"høje":3065,"fald":3066,"samf":3067,"plac":3068,"##rig":3069,"##ance":3070,"brugt":3071,"##ved":3072,"længe":3073,"foræld":3074,"vist":3075,"familie":3076,"hjemme":3077,"hens":3078,"fred":3079,"produkt":3080,"##ative":3081,"##ove":3082,"##okum":3083,"rel":3084,"varm":3085,"##dens":3086,"tan":3087,"tak":3088,"artik":3089,"uge":3090,"gjort":3091,"personer":3092,"højt":3093,"##ben":3094,"barn":3095,"regn":3096,"psyk":3097,"kraft":3098,"fortæller":3099,"udgang":3100,"##ikring":3101,"ski":3102,"heller":3103,"arbejdet":3104,"salg":3105,"følgende":3106,"kær":3107,"pati":3108,"steder":3109,"varme":3110,"insp":3111,"passer":3112,"indsat":3113,"slut":3114,"but":3115,"holder":3116,"børne":3117,"hjemmeside":3118,"sagt":3119,"omradet":3120,"slet":3121,"fem":3122,"##holde":3123,"dæ":3124,"sætte":3125,"##bar":3126,"##rum":3127,"navn":3128,"##færd":3129,"mener":3130,"##cen":3131,"maj":3132,"fire":3133,"##aet":3134,"miljø":3135,"annon":3136,"##rej":3137,"tilbyder":3138,"tran":3139,"##øver":3140,"##terer":3141,"elsker":3142,"intern":3143,"##ck":3144,"dating":3145,"rejse":3146,"matte":3147,"risik":3148,"laver":3149,"masse":3150,"##læ":3151,"mobil":3152,"##iser":3153,"telefon":3154,"##star":3155,"##jerg":3156,"dagen":3157,"##stilling":3158,"##arks":3159,"##ef":3160,"forl":3161,"problemer":3162,"##ytter":3163,"omrade":3164,"lad":3165,"muligheder":3166,"##itter":3167,"##rad":3168,"vest":3169,"christ":3170,"##cent":3171,"indeholder":3172,"gav":3173,"bef":3174,"##øst":3175,"kontrol":3176,"værdi":3177,"##ørende":3178,"##fald":3179,"køre":3180,"##arer":3181,"bestem":3182,"nærm":3183,"##føre":3184,"baggrund":3185,"##ykker":3186,"##ivers":3187,"eneste":3188,"##værende":3189,"skær":3190,"##fik":3191,"dokum":3192,"##kkes":3193,"##kkede":3194,"##ina":3195,"##ital":3196,"krop":3197,"##fr":3198,"ligesom":3199,"top":3200,"pop":3201,"handler":3202,"##pu":3203,"hvem":3204,"leder":3205,"##stil":3206,"##pa":3207,"dele":3208,"##ægt":3209,"24":3210,"##anset":3211,"offent":3212,"pass":3213,"##smæss":3214,"fejl":3215,"##illet":3216,"service":3217,"spiller":3218,"##køb":3219,"syge":3220,"disk":3221,"godk":3222,"##atisk":3223,"mart":3224,"bedst":3225,"energi":3226,"##reb":3227,"##agra":3228,"bu":3229,"test":3230,"cyk":3231,"forud":3232,"fly":3233,"kære":3234,"rød":3235,"21":3236,"dec":3237,"ko":3238,"seks":3239,"uanset":3240,"borg":3241,"ob":3242,"død":3243,"lokal":3244,"##ht":3245,"inspir":3246,"kil":3247,"smukke":3248,"##skil":3249,"cm":3250,"fest":3251,"lokale":3252,"minutter":3253,"lyd":3254,"skrive":3255,"dom":3256,"danmarks":3257,"derefter":3258,"søg":3259,"rigtige":3260,"tøj":3261,"ant":3262,"hurtig":3263,"nemt":3264,"00":3265,"##lagt":3266,"køkken":3267,"samlet":3268,"ref":3269,"oven":3270,"post":3271,"bal":3272,"byen":3273,"pik":3274,"design":3275,"lejlighed":3276,"teg":3277,"aar":3278,"##ack":3279,"##tering":3280,"##orer":3281,"billig":3282,"øj":3283,"##følge":3284,"verdens":3285,"##ann":3286,"gjorde":3287,"##ligevel":3288,"ganske":3289,"hvilken":3290,"##ods":3291,"forbru":3292,"##yster":3293,"alligevel":3294,"arr":3295,"ba":3296,"##deling":3297,"##kar":3298,"niveau":3299,"lag":3300,"nettet":3301,"park":3302,"forsøg":3303,"stil":3304,"skov":3305,"forvent":3306,"ex":3307,"bid":3308,"sort":3309,"sprog":3310,"held":3311,"maneder":3312,"##arbejdet":3313,"forældre":3314,"alder":3315,"##ell":3316,"ses":3317,"##gene":3318,"##oler":3319,"løn":3320,"læge":3321,"bord":3322,"forkl":3323,"masser":3324,"##ologi":3325,"##eten":3326,"medlemmer":3327,"##ban":3328,"klass":3329,"indt":3330,"fisk":3331,"situ":3332,"alene":3333,"konkur":3334,"40":3335,"opr":3336,"enten":3337,"bemær":3338,"sil":3339,"##ateg":3340,"ho":3341,"um":3342,"social":3343,"##pport":3344,"søge":3345,"##ktur":3346,"##anter":3347,"uger":3348,"##reds":3349,"græ":3350,"##hen":3351,"##sætning":3352,"##uel":3353,"##ron":3354,"kræver":3355,"tidspunkt":3356,"udford":3357,"prøve":3358,"##tem":3359,"##sætte":3360,"data":3361,"livet":3362,"nøg":3363,"##sy":3364,"gæ":3365,"##ævn":3366,"ak":3367,"penis":3368,"ejer":3369,"we":3370,"##ations":3371,"##isten":3372,"kender":3373,"rom":3374,"nav":3375,"##ktioner":3376,"##lej":3377,"22":3378,"lade":3379,"politik":3380,"freder":3381,"##sels":3382,"indlæg":3383,"##kommen":3384,"##aven":3385,"anlæg":3386,"aben":3387,"indenfor":3388,"kommet":3389,"frit":3390,"uddannelse":3391,"pu":3392,"##yttet":3393,"me":3394,"særligt":3395,"historie":3396,"forh":3397,"##ension":3398,"##ræt":3399,"dren":3400,"simp":3401,"##sætter":3402,"prin":3403,"##ph":3404,"##ivl":3405,"invest":3406,"##oen":3407,"behand":3408,"##æd":3409,"præc":3410,"##udover":3411,"##sport":3412,"##icin":3413,"imp":3414,"gul":3415,"fru":3416,"sidst":3417,"stille":3418,"##ose":3419,"##bold":3420,"199":3421,"hverdag":3422,"univers":3423,"##gifter":3424,"udg":3425,"mag":3426,"jeres":3427,"ferie":3428,"dis":3429,"vejen":3430,"tor":3431,"##atter":3432,"overvej":3433,"##abler":3434,"drø":3435,"##uddann":3436,"blog":3437,"eget":3438,"græn":3439,"vælger":3440,"tit":3441,"##ningerne":3442,"internation":3443,"##stræ":3444,"##pligt":3445,"##ies":3446,"##givet":3447,"##mmen":3448,"forbed":3449,"fj":3450,"enhver":3451,"smag":3452,"ønsk":3453,"##ium":3454,"samfund":3455,"støtte":3456,"ford":3457,"omrader":3458,"of":3459,"##ful":3460,"##eringen":3461,"udgangspunkt":3462,"##aur":3463,"ske":3464,"##uelt":3465,"udsk":3466,"hed":3467,"vedr":3468,"fyr":3469,"##værre":3470,"##ikk":3471,"typ":3472,"ur":3473,"dyb":3474,"vold":3475,"lande":3476,"##ogn":3477,"deltag":3478,"restaur":3479,"##vor":3480,"##ific":3481,"##ynder":3482,"lø":3483,"##æft":3484,"car":3485,"fundet":3486,"lære":3487,"gud":3488,"desværre":3489,"mill":3490,"ryg":3491,"begræn":3492,"bær":3493,"##ps":3494,"##endes":3495,"posit":3496,"##inst":3497,"##ænger":3498,"##ons":3499,"##mod":3500,"sej":3501,"log":3502,"seneste":3503,"medarbejdere":3504,"tilg":3505,"blod":3506,"##arbejd":3507,"sætter":3508,"ens":3509,"sidder":3510,"##orte":3511,"bad":3512,"rent":3513,"sør":3514,"anvendes":3515,"kæm":3516,"bryster":3517,"2018":3518,"popul":3519,"nation":3520,"kunder":3521,"fug":3522,"fandt":3523,"##samling":3524,"##mand":3525,"##føres":3526,"##nar":3527,"imod":3528,"vægt":3529,"bestemt":3530,"produktion":3531,"juni":3532,"go":3533,"effekt":3534,"##ært":3535,"foreg":3536,"##holdt":3537,"mør":3538,"højere":3539,"information":3540,"##yse":3541,"##eres":3542,"opgaver":3543,"##jylland":3544,"glad":3545,"rum":3546,"##mark":3547,"okt":3548,"ønske":3549,"ifølge":3550,"borger":3551,"spille":3552,"##rat":3553,"skriver":3554,"farver":3555,"skyl":3556,"egne":3557,"drift":3558,"prim":3559,"sjov":3560,"tvivl":3561,"gaet":3562,"##retning":3563,"##iddag":3564,"sep":3565,"aarhus":3566,"hvid":3567,"regler":3568,"##he":3569,"tysk":3570,"oplevelse":3571,"bræ":3572,"evt":3573,"procent":3574,"velkommen":3575,"##foren":3576,"udstyr":3577,"foran":3578,"rele":3579,"##gaard":3580,"##fører":3581,"##iat":3582,"mask":3583,"mærke":3584,"sport":3585,"karakter":3586,"afslut":3587,"væg":3588,"sæson":3589,"slags":3590,"yderligere":3591,"studer":3592,"apr":3593,"region":3594,"billede":3595,"2017":3596,"sæd":3597,"arbejdsm":3598,"kolle":3599,"barnet":3600,"ark":3601,"marked":3602,"##øjer":3603,"##lys":3604,"##uar":3605,"##gere":3606,"sw":3607,"tænke":3608,"hjælper":3609,"##uss":3610,"bur":3611,"høre":3612,"proces":3613,"formal":3614,"aug":3615,"##frem":3616,"jf":3617,"bred":3618,"##varer":3619,"##رر":3620,"hund":3621,"profession":3622,"træning":3623,"køn":3624,"fir":3625,"amer":3626,"##ink":3627,"haber":3628,"internet":3629,"motor":3630,"bygge":3631,"krist":3632,"normalt":3633,"landet":3634,"repræ":3635,"##berg":3636,"pal":3637,"2015":3638,"##igvis":3639,"kommunik":3640,"port":3641,"##ales":3642,"frække":3643,"23":3644,"særlig":3645,"it":3646,"nej":3647,"##elsk":3648,"##ivil":3649,"##ment":3650,"ac":3651,"uds":3652,"elekt":3653,"##ober":3654,"##følgende":3655,"rig":3656,"tvær":3657,"mangler":3658,"sociale":3659,"lærer":3660,"møder":3661,"komb":3662,"skrevet":3663,"bestille":3664,"forn":3665,"##kal":3666,"##drag":3667,"##endelse":3668,"ansøg":3669,"selskab":3670,"##ore":3671,"virker":3672,"institut":3673,"##ommen":3674,"medicin":3675,"##iz":3676,"dejlig":3677,"##kort":3678,"##ids":3679,"aret":3680,"inkl":3681,"##olut":3682,"##værd":3683,"effektiv":3684,"opna":3685,"##bart":3686,"venner":3687,"##igur":3688,"##ppet":3689,"kompeten":3690,"##rup":3691,"##fekt":3692,"##ild":3693,"centr":3694,"vinter":3695,"naturligvis":3696,"##hov":3697,"fat":3698,"kærlighed":3699,"arbejds":3700,"erfaring":3701,"givet":3702,"sider":3703,"aktiviteter":3704,"hensyn":3705,"model":3706,"us":3707,"##mæss":3708,"sku":3709,"##ledes":3710,"recept":3711,"alvor":3712,"forslag":3713,"stod":3714,"##aller":3715,"yd":3716,"deb":3717,"##oven":3718,"interesser":3719,"fær":3720,"##da":3721,"##holm":3722,"energ":3723,"bestar":3724,"endelig":3725,"gammel":3726,"fint":3727,"pæ":3728,"funger":3729,"erot":3730,"intet":3731,"##gift":3732,"cl":3733,"##center":3734,"##uer":3735,"##olk":3736,"2016":3737,"januar":3738,"##givning":3739,"no":3740,"kold":3741,"blom":3742,"##løs":3743,"##enti":3744,"egentlig":3745,"bevæg":3746,"derudover":3747,"rigtigt":3748,"brand":3749,"##assen":3750,"2014":3751,"valgt":3752,"##tende":3753,"sch":3754,"##esp":3755,"##produ":3756,"bereg":3757,"##aner":3758,"føler":3759,"compu":3760,"kryd":3761,"ær":3762,"##gørelse":3763,"snart":3764,"##olit":3765,"##elighed":3766,"##raks":3767,"tyd":3768,"spise":3769,"admin":3770,"##skrift":3771,"mis":3772,"##aske":3773,"amerik":3774,"##kn":3775,"forløb":3776,"##hjæl":3777,"kører":3778,"##kkende":3779,"aftale":3780,"mæng":3781,"etabler":3782,"km":3783,"pap":3784,"##gede":3785,"sla":3786,"feb":3787,"##nende":3788,"tred":3789,"betydning":3790,"sket":3791,"konkret":3792,"kurs":3793,"oden":3794,"##ylde":3795,"bogen":3796,"henhold":3797,"betale":3798,"##stid":3799,"odense":3800,"##anlæg":3801,"klart":3802,"frederik":3803,"##anger":3804,"stig":3805,"begynder":3806,"børnene":3807,"glæde":3808,"##bog":3809,"aal":3810,"##ceret":3811,"##hør":3812,"priser":3813,"betaling":3814,"mm":3815,"##dagog":3816,"ægte":3817,"gruppe":3818,"##nal":3819,"##elsens":3820,"rol":3821,"trods":3822,"##ktor":3823,"##raksis":3824,"##yre":3825,"optim":3826,"tradition":3827,"##ix":3828,"viagra":3829,"særlige":3830,"beskæft":3831,"følger":3832,"dv":3833,"##uen":3834,"tj":3835,"60":3836,"arhus":3837,"kol":3838,"kommunen":3839,"##huset":3840,"efterfølgende":3841,"il":3842,"##spil":3843,"lange":3844,"##lejer":3845,"usa":3846,"vise":3847,"tun":3848,"##pen":3849,"tæ":3850,"##her":3851,"val":3852,"##vede":3853,"fremm":3854,"##enser":3855,"bemærk":3856,"till":3857,"engang":3858,"offentlige":3859,"##ts":3860,"##ligheder":3861,"bus":3862,"##tig":3863,"dri":3864,"##kald":3865,"26":3866,"##ellem":3867,"2013":3868,"##nere":3869,"ag":3870,"afg":3871,"perfekt":3872,"##anch":3873,"smer":3874,"forfat":3875,"##ylder":3876,"##offer":3877,"kendt":3878,"aalborg":3879,"størrelse":3880,"pot":3881,"##eskab":3882,"beskriv":3883,"samlede":3884,"lide":3885,"finans":3886,"##teres":3887,"joh":3888,"bol":3889,"find":3890,"abs":3891,"hum":3892,"generelt":3893,"moderne":3894,"periode":3895,"løsning":3896,"##sættes":3897,"rette":3898,"autom":3899,"eksper":3900,"elev":3901,"indiv":3902,"planlæg":3903,"nævn":3904,"time":3905,"##gelse":3906,"resten":3907,"cit":3908,"føde":3909,"here":3910,"gennemsnit":3911,"kroppen":3912,"kæmpe":3913,"æg":3914,"ok":3915,"begyndte":3916,"##za":3917,"kend":3918,"udb":3919,"mic":3920,"uddannelses":3921,"pres":3922,"stop":3923,"offentlig":3924,"sammenlig":3925,"stri":3926,"##fil":3927,"udtryk":3928,"kunde":3929,"##kr":3930,"præsen":3931,"tænker":3932,"taler":3933,"seri":3934,"øvrige":3935,"modtager":3936,"ir":3937,"succ":3938,"skol":3939,"28":3940,"##ktør":3941,"hej":3942,"undervisning":3943,"##ærer":3944,"##sbe":3945,"##to":3946,"bla":3947,"##abil":3948,"konkurren":3949,"tilgæng":3950,"are":3951,"##lin":3952,"jule":3953,"private":3954,"##lende":3955,"kroner":3956,"beløb":3957,"løbende":3958,"fremtid":3959,"projektet":3960,"##ate":3961,"##alog":3962,"vækst":3963,"indga":3964,"profil":3965,"bekendt":3966,"opmærksom":3967,"##kre":3968,"27":3969,"##ampe":3970,"##visning":3971,"budget":3972,"peter":3973,"sna":3974,"week":3975,"varer":3976,"nuværende":3977,"bestyrelsen":3978,"##yser":3979,"ejendom":3980,"køber":3981,"##linger":3982,"##ras":3983,"##lo":3984,"hud":3985,"##fri":3986,"neg":3987,"##tagelse":3988,"##vist":3989,"søn":3990,"opgave":3991,"uh":3992,"huset":3993,"sek":3994,"##spe":3995,"nødvendigt":3996,"idet":3997,"##ng":3998,"nor":3999,"klasse":4000,"##unkter":4001,"farve":4002,"##akte":4003,"##ages":4004,"##rav":4005,"tilfreds":4006,"forest":4007,"personlige":4008,"artikel":4009,"fjern":4010,"##ystem":4011,"##adet":4012,"sagen":4013,"marts":4014,"selve":4015,"smil":4016,"specielt":4017,"rab":4018,"##agn":4019,"registr":4020,"##udvik":4021,"##ringe":4022,"##sd":4023,"ophold":4024,"##fang":4025,"detal":4026,"december":4027,"fortælle":4028,"bebo":4029,"voksne":4030,"##oer":4031,"fortsat":4032,"##estyr":4033,"udvikle":4034,"ph":4035,"ende":4036,"##uren":4037,"jes":4038,"##klub":4039,"indb":4040,"oktober":4041,"##imod":4042,"##vit":4043,"øst":4044,"neden":4045,"adres":4046,"bland":4047,"april":4048,"team":4049,"redu":4050,"glas":4051,"virksomheden":4052,"herefter":4053,"pluds":4054,"sygdom":4055,"general":4056,"behøver":4057,"##vent":4058,"husk":4059,"as":4060,"##part":4061,"bab":4062,"septem":4063,"##raft":4064,"gældende":4065,"fodbold":4066,"hy":4067,"kommende":4068,"##derne":4069,"stykke":4070,"frisk":4071,"##tern":4072,"september":4073,"muse":4074,"kred":4075,"kj":4076,"##ffet":4077,"##værks":4078,"skolen":4079,"##ierne":4080,"##essour":4081,"succes":4082,"klo":4083,"fedt":4084,"individ":4085,"##omradet":4086,"hard":4087,"skj":4088,"indsats":4089,"sønd":4090,"##ko":4091,"pct":4092,"utr":4093,"##ustri":4094,"##fin":4095,"gravid":4096,"ry":4097,"typisk":4098,"rør":4099,"billed":4100,"tillad":4101,"figur":4102,"forsikring":4103,"stem":4104,"##radet":4105,"transport":4106,"##somt":4107,"##varende":4108,"værkt":4109,"##værelse":4110,"##aende":4111,"##cep":4112,"##staende":4113,"##hje":4114,"tils":4115,"abne":4116,"korre":4117,"simpelt":4118,"type":4119,"dejligt":4120,"opd":4121,"skrift":4122,"nyde":4123,"bøger":4124,"spør":4125,"universitet":4126,"minim":4127,"##lementer":4128,"dens":4129,"undga":4130,"##høj":4131,"##aft":4132,"krig":4133,"forst":4134,"tryk":4135,"sten":4136,"tilp":4137,"skaber":4138,"hvornar":4139,"stru":4140,"fas":4141,"flotte":4142,"ligel":4143,"##æst":4144,"ci":4145,"mo":4146,"lagt":4147,"august":4148,"29":4149,"##ativt":4150,"holdt":4151,"praksis":4152,"retning":4153,"venstre":4154,"##skri":4155,"oplever":4156,"midler":4157,"##obb":4158,"fungerer":4159,"##vare":4160,"##udvalg":4161,"administr":4162,"eksister":4163,"forhand":4164,"2012":4165,"studerende":4166,"overfl":4167,"præcis":4168,"##eld":4169,"tekst":4170,"udn":4171,"instru":4172,"kre":4173,"hul":4174,"højre":4175,"hom":4176,"tant":4177,"imellem":4178,"##asin":4179,"klin":4180,"udel":4181,"strateg":4182,"fuldt":4183,"ændringer":4184,"bestemm":4185,"leve":4186,"udl":4187,"##bro":4188,"bort":4189,"ligeledes":4190,"afhæng":4191,"##afil":4192,"##skl":4193,"##kræ":4194,"november":4195,"##man":4196,"tje":4197,"krit":4198,"##bu":4199,"pag":4200,"##rettet":4201,"meter":4202,"server":4203,"familien":4204,"pædagog":4205,"afsnit":4206,"vent":4207,"##plad":4208,"kæreste":4209,"færdig":4210,"mio":4211,"##mad":4212,"computer":4213,"##eringer":4214,"##ly":4215,"##sens":4216,"frivil":4217,"##oje":4218,"35":4219,"opleve":4220,"regel":4221,"kirke":4222,"fisse":4223,"kop":4224,"##smin":4225,"skyldes":4226,"prisen":4227,"sammenhæng":4228,"dam":4229,"bygger":4230,"tri":4231,"##arm":4232,"smart":4233,"##øjet":4234,"cirk":4235,"bidr":4236,"##fort":4237,"fine":4238,"##støt":4239,"erne":4240,"##ou":4241,"tjen":4242,"osv":4243,"erhvervs":4244,"##igheden":4245,"##ins":4246,"overra":4247,"skat":4248,"opdat":4249,"31":4250,"kombin":4251,"arige":4252,"##istiske":4253,"vejledning":4254,"##ologiske":4255,"apo":4256,"##ørs":4257,"##ja":4258,"kateg":4259,"punkt":4260,"tand":4261,"ændre":4262,"ansigt":4263,"komment":4264,"kendte":4265,"helst":4266,"vedlige":4267,"##ommer":4268,"kvind":4269,"klim":4270,"lyder":4271,"lækre":4272,"nærmere":4273,"projekter":4274,"##stændig":4275,"##tiden":4276,"ww":4277,"##oret":4278,"overv":4279,"stærk":4280,"##deles":4281,"##isteri":4282,"bank":4283,"##ologisk":4284,"ram":4285,"##menter":4286,"læser":4287,"##peratur":4288,"starter":4289,"##iljø":4290,"patienter":4291,"udsigt":4292,"materiale":4293,"##inen":4294,"interess":4295,"dokument":4296,"dra":4297,"paa":4298,"##egr":4299,"lignende":4300,"oper":4301,"lør":4302,"##ydelse":4303,"almindelige":4304,"europa":4305,"patient":4306,"45":4307,"##komst":4308,"tot":4309,"weekend":4310,"##ømme":4311,"ital":4312,"##ock":4313,"belig":4314,"arrange":4315,"anmeld":4316,"##ynde":4317,"mærk":4318,"tantra":4319,"##elen":4320,"##sning":4321,"##fo":4322,"li":4323,"kg":4324,"ressour":4325,"hører":4326,"tilsyn":4327,"##sættelse":4328,"sende":4329,"koncer":4330,"forbi":4331,"konst":4332,"smuk":4333,"kons":4334,"##skr":4335,"##sekv":4336,"mening":4337,"kli":4338,"pleje":4339,"interesse":4340,"mynd":4341,"ident":4342,"www":4343,"vurdering":4344,"van":4345,"cykel":4346,"anvendelse":4347,"beskæftig":4348,"omkost":4349,"##orden":4350,"kul":4351,"standard":4352,"nummer":4353,"øl":4354,"chat":4355,"foto":4356,"##istisk":4357,"safrem":4358,"##ofil":4359,"##isen":4360,"øvrigt":4361,"udgifter":4362,"##eløb":4363,"højde":4364,"##hav":4365,"oprind":4366,"partner":4367,"kød":4368,"fac":4369,"sød":4370,"supp":4371,"spillet":4372,"##book":4373,"afdeling":4374,"##hjælp":4375,"##iven":4376,"ras":4377,"safremt":4378,"##jort":4379,"##ivet":4380,"##ktionen":4381,"europæ":4382,"søndag":4383,"firma":4384,"##mus":4385,"typer":4386,"malt":4387,"ændring":4388,"##port":4389,"##ndt":4390,"antallet":4391,"##fuld":4392,"pig":4393,"eksempelvis":4394,"##stillinger":4395,"skatte":4396,"rammer":4397,"lørdag":4398,"mader":4399,"tegn":4400,"styrke":4401,"positiv":4402,"##tel":4403,"##sid":4404,"vandet":4405,"skift":4406,"dels":4407,"face":4408,"##ømm":4409,"beting":4410,"regnskab":4411,"##illing":4412,"meg":4413,"##abel":4414,"##plads":4415,"##own":4416,"bilag":4417,"rev":4418,"kapit":4419,"##skole":4420,"udf":4421,"pludselig":4422,"##vejen":4423,"deltage":4424,"hvide":4425,"gift":4426,"udelu":4427,"konsekv":4428,"glæder":4429,"##ikt":4430,"2011":4431,"##ips":4432,"erstat":4433,"kaffe":4434,"magt":4435,"vers":4436,"pagældende":4437,"altern":4438,"##anten":4439,"vari":4440,"brød":4441,"tredje":4442,"##forløb":4443,"retur":4444,"ti":4445,"vigtigste":4446,"##æring":4447,"plad":4448,"##iteter":4449,"hor":4450,"hardt":4451,"##forsamling":4452,"fræk":4453,"skade":4454,"guld":4455,"gent":4456,"kontakte":4457,"##erk":4458,"senest":4459,"##gr":4460,"endda":4461,"netværk":4462,"nødt":4463,"##alder":4464,"revis":4465,"jorden":4466,"pavir":4467,"stærkt":4468,"##ragt":4469,"##ante":4470,"pe":4471,"sidde":4472,"##terede":4473,"udover":4474,"##ici":4475,"##stillet":4476,"næv":4477,"all":4478,"##mb":4479,"dobb":4480,"opfat":4481,"eleverne":4482,"##ørn":4483,"omfang":4484,"resultater":4485,"##svis":4486,"##okol":4487,"lægger":4488,"mist":4489,"borgere":4490,"spur":4491,"lod":4492,"trafik":4493,"sove":4494,"##ygge":4495,"198":4496,"stol":4497,"##nas":4498,"##alte":4499,"##gaende":4500,"ent":4501,"##splad":4502,"ufor":4503,"##kast":4504,"digit":4505,"undersøgelse":4506,"##ach":4507,"2010":4508,"burde":4509,"80":4510,"juli":4511,"##taget":4512,"vælg":4513,"##slut":4514,"##bred":4515,"overrask":4516,"lykk":4517,"viste":4518,"hedder":4519,"amb":4520,"anderledes":4521,"fej":4522,"##met":4523,"##aben":4524,"##bes":4525,"##yttelse":4526,"##udvikling":4527,"bon":4528,"##ice":4529,"##uligheder":4530,"cialis":4531,"vild":4532,"aftal":4533,"pension":4534,"menneske":4535,"fyn":4536,"##vidst":4537,"oplevelser":4538,"sandsyn":4539,"##fa":4540,"generalforsamling":4541,"sko":4542,"datter":4543,"kval":4544,"udviklet":4545,"##illede":4546,"##sst":4547,"savel":4548,"##ikket":4549,"sønder":4550,"new":4551,"fe":4552,"lyn":4553,"##etter":4554,"##handen":4555,"lægge":4556,"generisk":4557,"camp":4558,"udgør":4559,"symp":4560,"febru":4561,"udviklingen":4562,"special":4563,"band":4564,"fredag":4565,"70":4566,"februar":4567,"san":4568,"##iew":4569,"skriv":4570,"sven":4571,"baseret":4572,"geng":4573,"hunde":4574,"træt":4575,"absolut":4576,"sar":4577,"##videre":4578,"klik":4579,"sælger":4580,"konf":4581,"købt":4582,"##øgen":4583,"fyldt":4584,"øjne":4585,"forening":4586,"##jerne":4587,"heldigvis":4588,"efterhanden":4589,"##splan":4590,"##æde":4591,"dygt":4592,"char":4593,"situation":4594,"##strup":4595,"##ka":4596,"gym":4597,"bekym":4598,"##elset":4599,"valgte":4600,"sikrer":4601,"møn":4602,"forskning":4603,"brugte":4604,"forbrug":4605,"fremgar":4606,"afh":4607,"ungdom":4608,"langs":4609,"##tom":4610,"hygg":4611,"middel":4612,"yng":4613,"respe":4614,"huske":4615,"##itu":4616,"drikke":4617,"dre":4618,"##kommende":4619,"olie":4620,"rejser":4621,"##try":4622,"forfatter":4623,"##ateri":4624,"skil":4625,"##ty":4626,"##forhold":4627,"maler":4628,"vedrørende":4629,"princi":4630,"folke":4631,"dejlige":4632,"##holdelse":4633,"starte":4634,"##ry":4635,"##ish":4636,"økonomiske":4637,"flyt":4638,"jylland":4639,"afgørende":4640,"##ves":4641,"##ung":4642,"bilen":4643,"##ifik":4644,"christian":4645,"stress":4646,"sang":4647,"mv":4648,"uaf":4649,"rand":4650,"klare":4651,"genop":4652,"overfor":4653,"ass":4654,"nyhed":4655,"opfyldt":4656,"dvs":4657,"lar":4658,"##ta":4659,"blød":4660,"foræl":4661,"##betaling":4662,"isl":4663,"økonomi":4664,"##virk":4665,"ked":4666,"sjæld":4667,"omfatter":4668,"##fæl":4669,"liste":4670,"italien":4671,"debat":4672,"ht":4673,"nab":4674,"engelsk":4675,"##vig":4676,"##indre":4677,"##nov":4678,"##viser":4679,"##20":4680,"skabt":4681,"interv":4682,"##giver":4683,"kommuner":4684,"søde":4685,"cop":4686,"møl":4687,"##beg":4688,"endvidere":4689,"markedet":4690,"tyskland":4691,"former":4692,"##ions":4693,"mik":4694,"##ugt":4695,"intr":4696,"con":4697,"risiko":4698,"##bil":4699,"##valg":4700,"##iker":4701,"gæster":4702,"##ba":4703,"##løse":4704,"populære":4705,"##blio":4706,"skyld":4707,"deltager":4708,"##ich":4709,"lider":4710,"foregar":4711,"##co":4712,"lege":4713,"jour":4714,"skrev":4715,"træk":4716,"##aer":4717,"afsk":4718,"hjør":4719,"rim":4720,"hverken":4721,"##enes":4722,"197":4723,"##omrade":4724,"umiddel":4725,"folket":4726,"##ick":4727,"grundlæg":4728,"##mmerne":4729,"lager":4730,"grundlag":4731,"stof":4732,"##atet":4733,"tom":4734,"500":4735,"væsent":4736,"kommunikation":4737,"øk":4738,"sender":4739,"real":4740,"bage":4741,"fysisk":4742,"opbe":4743,"bryst":4744,"uk":4745,"udfordringer":4746,"rekl":4747,"præst":4748,"værk":4749,"program":4750,"dobbelt":4751,"##amen":4752,"kong":4753,"øjebl":4754,"indkøb":4755,"formand":4756,"strand":4757,"damer":4758,"##person":4759,"##fek":4760,"sjovt":4761,"sing":4762,"musk":4763,"##okost":4764,"født":4765,"rengør":4766,"dør":4767,"spis":4768,"smule":4769,"sad":4770,"dyre":4771,"##holdes":4772,"kast":4773,"##mmelig":4774,"rolle":4775,"##smæssige":4776,"eksisterende":4777,"vinder":4778,"##alu":4779,"##lader":4780,"just":4781,"stræ":4782,"gard":4783,"ansatte":4784,"ot":4785,"facebook":4786,"##ordin":4787,"nør":4788,"venlig":4789,"potenti":4790,"pæn":4791,"##centr":4792,"røde":4793,"frugt":4794,"prøver":4795,"almindelig":4796,"jensen":4797,"dialog":4798,"##isme":4799,"##ovens":4800,"beret":4801,"vare":4802,"internationale":4803,"køl":4804,"inspiration":4805,"arets":4806,"##mask":4807,"##cere":4808,"fødsels":4809,"dæk":4810,"tus":4811,"hotellet":4812,"##vejs":4813,"starten":4814,"darlig":4815,"struktur":4816,"brænd":4817,"bund":4818,"##okrat":4819,"nøgen":4820,"opbyg":4821,"startede":4822,"repræsent":4823,"##endørs":4824,"forand":4825,"##domme":4826,"billedet":4827,"besked":4828,"strøm":4829,"##bæk":4830,"simpelthen":4831,"unders":4832,"hansen":4833,"adresse":4834,"##oplys":4835,"automatisk":4836,"levering":4837,"cy":4838,"udenfor":4839,"##50":4840,"##ægter":4841,"wor":4842,"hjerte":4843,"forret":4844,"svarer":4845,"ed":4846,"dækker":4847,"ros":4848,"tages":4849,"vidt":4850,"forsvar":4851,"hovedet":4852,"videnskab":4853,"av":4854,"gengæld":4855,"nogens":4856,"##fer":4857,"integr":4858,"modtaget":4859,"apotek":4860,"##oces":4861,"##mal":4862,"falder":4863,"rett":4864,"forker":4865,"##besk":4866,"##vante":4867,"sammens":4868,"forældr":4869,"bygget":4870,"dokumenter":4871,"##ydende":4872,"papir":4873,"øget":4874,"rapport":4875,"##hovedet":4876,"2009":4877,"ori":4878,"guide":4879,"##stemmelse":4880,"##atør":4881,"##orter":4882,"##fag":4883,"mer":4884,"kirk":4885,"tanker":4886,"mund":4887,"økonomisk":4888,"##bare":4889,"##ødes":4890,"politiske":4891,"ideer":4892,"##brud":4893,"ringe":4894,"vejr":4895,"##mmere":4896,"københavns":4897,"##vin":4898,"pul":4899,"fører":4900,"sendt":4901,"##fulde":4902,"pri":4903,"tilstræ":4904,"##kser":4905,"blomster":4906,"##landet":4907,"læst":4908,"fantas":4909,"nøgne":4910,"maden":4911,"##ness":4912,"##sø":4913,"fork":4914,"thom":4915,"modtage":4916,"foreb":4917,"##app":4918,"##styrelsen":4919,"forpligt":4920,"gre":4921,"nielsen":4922,"stilling":4923,"leverand":4924,"løsninger":4925,"modeller":4926,"varmt":4927,"##amin":4928,"historien":4929,"trække":4930,"beskr":4931,"nærmest":4932,"point":4933,"enhed":4934,"##iens":4935,"aktiver":4936,"tillæg":4937,"grønne":4938,"##edygt":4939,"##ash":4940,"mulige":4941,"##dage":4942,"##istik":4943,"ønskede":4944,"koster":4945,"indgar":4946,"##ette":4947,"fantastiske":4948,"##fekte":4949,"værelse":4950,"##ustr":4951,"personale":4952,"meddel":4953,"godkendt":4954,"nogensinde":4955,"betragt":4956,"36":4957,"visse":4958,"vansk":4959,"journal":4960,"industri":4961,"udbud":4962,"døde":4963,"medier":4964,"##ancer":4965,"forklar":4966,"##omrader":4967,"esb":4968,"understøt":4969,"##hj":4970,"##iel":4971,"millioner":4972,"vilkar":4973,"skar":4974,"kund":4975,"##leder":4976,"plast":4977,"##qu":4978,"opmærksomhed":4979,"##fun":4980,"neder":4981,"jens":4982,"frank":4983,"tilskud":4984,"spor":4985,"ug":4986,"temperatur":4987,"##stemer":4988,"flytte":4989,"##rige":4990,"overens":4991,"ing":4992,"##øve":4993,"erfaringer":4994,"vit":4995,"straks":4996,"turen":4997,"forsv":4998,"##delingen":4999,"fleks":5000,"symptom":5001,"vidste":5002,"opdag":5003,"samarbejd":5004,"fortsætter":5005,"videoer":5006,"spar":5007,"nødvendige":5008,"tl":5009,"træn":5010,"##pos":5011,"##væg":5012,"gøres":5013,"je":5014,"##ætter":5015,"kron":5016,"dato":5017,"##vest":5018,"lettere":5019,"##mester":5020,"arig":5021,"arbejdsg":5022,"mandag":5023,"##lingen":5024,"##ape":5025,"forsøger":5026,"##bjerg":5027,"omgiv":5028,"affald":5029,"sjælland":5030,"knap":5031,"bygning":5032,"amerikanske":5033,"##institut":5034,"næst":5035,"relevante":5036,"##orier":5037,"live":5038,"politiet":5039,"beslutning":5040,"##førte":5041,"##anti":5042,"jagt":5043,"##skrifter":5044,"materialer":5045,"bod":5046,"tilbyde":5047,"##egnet":5048,"leje":5049,"##sætt":5050,"sorte":5051,"prøvet":5052,"##assage":5053,"##cel":5054,"sundheds":5055,"primært":5056,"branch":5057,"init":5058,"##ah":5059,"##behandling":5060,"##rende":5061,"##rund":5062,"omgang":5063,"korrekt":5064,"udvid":5065,"##vender":5066,"maks":5067,"kigge":5068,"##hal":5069,"daglig":5070,"væs":5071,"##histor":5072,"radighed":5073,"tids":5074,"arkite":5075,"imidler":5076,"indbyg":5077,"##las":5078,"##eks":5079,"fores":5080,"2008":5081,"hosp":5082,"##mor":5083,"skønne":5084,"hjemmesiden":5085,"ugen":5086,"##skilde":5087,"##fors":5088,"imidlertid":5089,"center":5090,"perfekte":5091,"do":5092,"goog":5093,"voksen":5094,"detaljer":5095,"parkering":5096,"##bær":5097,"indfl":5098,"##inge":5099,"reser":5100,"opskrift":5101,"swinger":5102,"ødel":5103,"##ert":5104,"prote":5105,"ændret":5106,"kem":5107,"orienter":5108,"90":5109,"bevæ":5110,"afsp":5111,"mom":5112,"handle":5113,"regering":5114,"sager":5115,"kursus":5116,"øver":5117,"accep":5118,"sukker":5119,"anerk":5120,"ledelse":5121,"book":5122,"butik":5123,"##gade":5124,"forek":5125,"scen":5126,"##iteten":5127,"stærke":5128,"lars":5129,"konkrete":5130,"##ftet":5131,"##ity":5132,"##usion":5133,"##ragende":5134,"##job":5135,"glade":5136,"støv":5137,"mæl":5138,"forber":5139,"lader":5140,"##splads":5141,"##uddannelse":5142,"overord":5143,"32":5144,"funktioner":5145,"glob":5146,"fremtiden":5147,"muligheden":5148,"vigtige":5149,"##imer":5150,"##vice":5151,"ligge":5152,"fysiske":5153,"batter":5154,"##liv":5155,"196":5156,"##ight":5157,"europæiske":5158,"nøj":5159,"sli":5160,"vildt":5161,"##førelse":5162,"##urs":5163,"behag":5164,"ramme":5165,"teen":5166,"livs":5167,"tar":5168,"brugere":5169,"tværs":5170,"saa":5171,"##bord":5172,"opfor":5173,"grundlæggende":5174,"elektron":5175,"tydeligt":5176,"hast":5177,"invi":5178,"out":5179,"biblio":5180,"tilslut":5181,"hi":5182,"##forening":5183,"evalu":5184,"prøv":5185,"lækkert":5186,"uafhæng":5187,"##olf":5188,"##gard":5189,"pil":5190,"manglende":5191,"stemme":5192,"##slaget":5193,"skræ":5194,"udst":5195,"landbrug":5196,"lands":5197,"##skov":5198,"##denafil":5199,"tryg":5200,"malet":5201,"træner":5202,"alko":5203,"##yttes":5204,"igang":5205,"innov":5206,"##vok":5207,"daglige":5208,"##ses":5209,"fællesskab":5210,"fremragende":5211,"bevidst":5212,"##agne":5213,"konstru":5214,"wh":5215,"##stedet":5216,"##rene":5217,"kommunal":5218,"overblik":5219,"henvend":5220,"publik":5221,"løber":5222,"udt":5223,"fav":5224,"tilst":5225,"manden":5226,"afv":5227,"cam":5228,"##oft":5229,"up":5230,"henrik":5231,"##imin":5232,"møb":5233,"bekræ":5234,"sind":5235,"pengene":5236,"match":5237,"tilstand":5238,"besøge":5239,"tyske":5240,"tir":5241,"arbejdsmark":5242,"naturen":5243,"fotograf":5244,"##nene":5245,"indre":5246,"##andid":5247,"##saf":5248,"##ane":5249,"sov":5250,"salt":5251,"##saft":5252,"national":5253,"tilkn":5254,"baby":5255,"##riter":5256,"##erende":5257,"resultatet":5258,"kræft":5259,"rul":5260,"##estyrelsen":5261,"##ordning":5262,"derimod":5263,"##رررر":5264,"værelser":5265,"væsentlig":5266,"interview":5267,"personlig":5268,"esbjerg":5269,"##slen":5270,"løbe":5271,"pan":5272,"faglige":5273,"mødes":5274,"sasom":5275,"##park":5276,"relev":5277,"##isteriet":5278,"down":5279,"33":5280,"##mon":5281,"##sig":5282,"anbefale":5283,"torsdag":5284,"plus":5285,"idræt":5286,"læring":5287,"##eltet":5288,"opst":5289,"venter":5290,"relig":5291,"##æder":5292,"##afe":5293,"##sby":5294,"##out":5295,"forstaelse":5296,"moden":5297,"##nat":5298,"vejle":5299,"##entligt":5300,"arg":5301,"##opper":5302,"vore":5303,"analyse":5304,"vandt":5305,"##huse":5306,"umiddelbart":5307,"vejret":5308,"beskrivelse":5309,"##agte":5310,"anbefaler":5311,"minimum":5312,"grupper":5313,"tænk":5314,"huden":5315,"##tages":5316,"vente":5317,"rasmus":5318,"max":5319,"##vise":5320,"satte":5321,"##ase":5322,"##mail":5323,"fortr":5324,"##iseret":5325,"frederiks":5326,"døg":5327,"##we":5328,"##olitik":5329,"praktisk":5330,"fo":5331,"##bed":5332,"øge":5333,"restaurant":5334,"historier":5335,"modne":5336,"opbevar":5337,"hænder":5338,"silke":5339,"navnet":5340,"overhovedet":5341,"##ines":5342,"randers":5343,"kampen":5344,"stal":5345,"##aen":5346,"kone":5347,"##ament":5348,"drenge":5349,"sver":5350,"##peri":5351,"udelukkende":5352,"støj":5353,"##chef":5354,"chokol":5355,"oph":5356,"##yll":5357,"##mænd":5358,"triv":5359,"indholdet":5360,"##rib":5361,"hjul":5362,"dengang":5363,"##varme":5364,"##somme":5365,"døren":5366,"onsdag":5367,"194":5368,"introdu":5369,"fab":5370,"##ros":5371,"ube":5372,"##landske":5373,"##ski":5374,"natten":5375,"alkohol":5376,"tilstrækk":5377,"virkeligheden":5378,"trav":5379,"##anen":5380,"modstand":5381,"udgave":5382,"##føring":5383,"nævnt":5384,"skridt":5385,"kompetencer":5386,"vilde":5387,"##ork":5388,"halvdel":5389,"føle":5390,"henblik":5391,"od":5392,"grunde":5393,"2007":5394,"gave":5395,"haven":5396,"fart":5397,"beste":5398,"##ojekt":5399,"##sler":5400,"færre":5401,"overensstemmelse":5402,"begrænset":5403,"##ssel":5404,"##aff":5405,"frokost":5406,"##reme":5407,"radgivning":5408,"sagtens":5409,"placeret":5410,"cook":5411,"retten":5412,"##illes":5413,"gulv":5414,"opstar":5415,"tabel":5416,"biler":5417,"mærker":5418,"toil":5419,"markeds":5420,"forne":5421,"##istrer":5422,"eventuelle":5423,"not":5424,"iværks":5425,"slu":5426,"syntes":5427,"defin":5428,"forstar":5429,"roskilde":5430,"orig":5431,"##ission":5432,"##oo":5433,"studie":5434,"##agere":5435,"##ævnet":5436,"kapitel":5437,"##sku":5438,"præg":5439,"stabil":5440,"perioden":5441,"sadanne":5442,"omfattet":5443,"##phone":5444,"fu":5445,"byder":5446,"hørt":5447,"##sprog":5448,"bestil":5449,"##rader":5450,"brun":5451,"oppe":5452,"skru":5453,"politisk":5454,"##kor":5455,"højeste":5456,"##ømt":5457,"arm":5458,"peder":5459,"byens":5460,"internettet":5461,"meste":5462,"fjerne":5463,"##middag":5464,"300":5465,"komfort":5466,"##stof":5467,"qu":5468,"varet":5469,"reglerne":5470,"hænd":5471,"dags":5472,"trin":5473,"nedenfor":5474,"eventuelt":5475,"##lement":5476,"skader":5477,"##sorg":5478,"entre":5479,"respekt":5480,"nemmere":5481,"oversigt":5482,"link":5483,"føre":5484,"personalet":5485,"##udvalget":5486,"sjældent":5487,"undersøgelser":5488,"skifte":5489,"trans":5490,"##ura":5491,"udført":5492,"fuldstændig":5493,"abent":5494,"##vil":5495,"##skom":5496,"betaler":5497,"angiv":5498,"dagens":5499,"levit":5500,"don":5501,"##delt":5502,"##ytt":5503,"steg":5504,"tilsvarende":5505,"kne":5506,"bæredygt":5507,"tlf":5508,"##dem":5509,"ku":5510,"websted":5511,"google":5512,"kontor":5513,"spillere":5514,"billige":5515,"##esten":5516,"kunden":5517,"flygt":5518,"col":5519,"problemet":5520,"forretning":5521,"##itt":5522,"organisation":5523,"sigt":5524,"##leks":5525,"præm":5526,"løse":5527,"sur":5528,"lukket":5529,"##gjort":5530,"personligt":5531,"utrolig":5532,"dræ":5533,"levitra":5534,"male":5535,"faste":5536,"air":5537,"fødselsdag":5538,"install":5539,"tidligt":5540,"##ænk":5541,"praktik":5542,"milj":5543,"udfordring":5544,"benytte":5545,"reklam":5546,"forventes":5547,"##oplysninger":5548,"andersen":5549,"##behør":5550,"nede":5551,"adfærd":5552,"hil":5553,"repræsen":5554,"##aktion":5555,"værktøj":5556,"##liggende":5557,"##skolen":5558,"spare":5559,"##slin":5560,"##hund":5561,"stigende":5562,"##anke":5563,"##pleje":5564,"##adem":5565,"vende":5566,"tirsdag":5567,"sne":5568,"gennemført":5569,"sommeren":5570,"naturlige":5571,"tilmeld":5572,"hovedst":5573,"##ton":5574,"##drer":5575,"origin":5576,"##gangen":5577,"##hjemme":5578,"ekskl":5579,"oftest":5580,"fund":5581,"vask":5582,"rob":5583,"udgivet":5584,"kamer":5585,"slot":5586,"bold":5587,"tank":5588,"75":5589,"tider":5590,"##pris":5591,"naturligt":5592,"værdier":5593,"klubben":5594,"forbedre":5595,"##anc":5596,"##smæssigt":5597,"##ware":5598,"interessant":5599,"grænse":5600,"eftermiddag":5601,"##ime":5602,"kørte":5603,"spiser":5604,"status":5605,"##nævn":5606,"udarbejdet":5607,"kart":5608,"ner":5609,"leget":5610,"##vind":5611,"tilh":5612,"mindste":5613,"følelser":5614,"##gu":5615,"ræ":5616,"serie":5617,"annoncen":5618,"stykker":5619,"##olkning":5620,"kolding":5621,"jac":5622,"rut":5623,"søren":5624,"anbefales":5625,"##væk":5626,"##itte":5627,"annoncer":5628,"ør":5629,"smukt":5630,"litter":5631,"fleksib":5632,"##pon":5633,"las":5634,"passe":5635,"34":5636,"kilde":5637,"##ulering":5638,"ansvarlig":5639,"afgørelse":5640,"læder":5641,"##delse":5642,"hvorefter":5643,"pc":5644,"##rab":5645,"aktuelle":5646,"##ny":5647,"foreningen":5648,"begiven":5649,"ondt":5650,"fremme":5651,"ender":5652,"##ander":5653,"##ls":5654,"version":5655,"ska":5656,"darligt":5657,"mult":5658,"##ydes":5659,"##sende":5660,"programmet":5661,"##serv":5662,"foretaget":5663,"bredt":5664,"##handler":5665,"my":5666,"tend":5667,"ansat":5668,"røg":5669,"##væ":5670,"pakke":5671,"kende":5672,"pga":5673,"konfl":5674,"##værdi":5675,"niels":5676,"abon":5677,"tænd":5678,"ep":5679,"##urer":5680,"camping":5681,"indflydelse":5682,"##klæd":5683,"faldt":5684,"avis":5685,"omkostninger":5686,"designet":5687,"##onen":5688,"begynde":5689,"gymnas":5690,"stjer":5691,"diver":5692,"kalder":5693,"arbejdsgiver":5694,"levende":5695,"##service":5696,"mort":5697,"metoder":5698,"relevant":5699,"investering":5700,"free":5701,"sverige":5702,"serien":5703,"grader":5704,"fæng":5705,"arbejdsplad":5706,"##oplev":5707,"fordele":5708,"bir":5709,"##xx":5710,"##ith":5711,"maksim":5712,"##off":5713,"fortalte":5714,"##enh":5715,"fortsætte":5716,"bjer":5717,"sor":5718,"stiller":5719,"##oppe":5720,"systemet":5721,"##olver":5722,"tænkt":5723,"jern":5724,"amatør":5725,"can":5726,"gæst":5727,"undervejs":5728,"formalet":5729,"bygninger":5730,"lavere":5731,"##sjæl":5732,"tekniske":5733,"ansøgning":5734,"##ulent":5735,"##ike":5736,"37":5737,"##als":5738,"køret":5739,"centrum":5740,"forars":5741,"vol":5742,"jævn":5743,"derved":5744,"##isteren":5745,"vindu":5746,"##former":5747,"##stillingen":5748,"veg":5749,"spørgsmalet":5750,"dest":5751,"casin":5752,"##iment":5753,"sejl":5754,"dets":5755,"forbundet":5756,"##kaldte":5757,"kond":5758,"##virksomhed":5759,"ill":5760,"thomas":5761,"seng":5762,"##spart":5763,"lykkedes":5764,"holdet":5765,"feri":5766,"isol":5767,"##dannet":5768,"##sede":5769,"##atik":5770,"priori":5771,"##ætte":5772,"stre":5773,"konkurrence":5774,"##tage":5775,"##su":5776,"##øjelse":5777,"direktør":5778,"heraf":5779,"##abet":5780,"tænder":5781,"##alinger":5782,"##steder":5783,"aflever":5784,"danskere":5785,"jap":5786,"##ogne":5787,"gives":5788,"##vokat":5789,"fler":5790,"bj":5791,"abner":5792,"##unst":5793,"elementer":5794,"hæv":5795,"afd":5796,"##band":5797,"øjnene":5798,"##nuft":5799,"forlæng":5800,"favor":5801,"trækker":5802,"emner":5803,"forkert":5804,"sav":5805,"opsta":5806,"skete":5807,"john":5808,"korte":5809,"søvn":5810,"mødet":5811,"muligvis":5812,"morgenmad":5813,"interesseret":5814,"##haver":5815,"fed":5816,"peg":5817,"kunstner":5818,"søl":5819,"konstant":5820,"diverse":5821,"forebyg":5822,"politi":5823,"rek":5824,"klima":5825,"ledige":5826,"##atiske":5827,"toppen":5828,"teknologi":5829,"eksempler":5830,"konto":5831,"kontrakt":5832,"johan":5833,"fyld":5834,"##10":5835,"placering":5836,"mulig":5837,"cont":5838,"gyld":5839,"brev":5840,"elsk":5841,"##sken":5842,"##penge":5843,"##ii":5844,"filmen":5845,"sælge":5846,"##rit":5847,"grav":5848,"##ube":5849,"afl":5850,"##alisering":5851,"metode":5852,"kredit":5853,"fang":5854,"##rapport":5855,"38":5856,"##oster":5857,"udvikler":5858,"##nævnte":5859,"sættes":5860,"kaldes":5861,"ut":5862,"soft":5863,"vises":5864,"svend":5865,"mængde":5866,"jur":5867,"kob":5868,"vinde":5869,"##udstyr":5870,"cafe":5871,"afstand":5872,"fi":5873,"chokolade":5874,"skib":5875,"##ema":5876,"downlo":5877,"spurgte":5878,"##nummer":5879,"fornuft":5880,"kommunens":5881,"syv":5882,"##værket":5883,"tingene":5884,"##nis":5885,"##ofilm":5886,"virke":5887,"##bane":5888,"au":5889,"hensigt":5890,"offici":5891,"##dere":5892,"sjove":5893,"##pladsen":5894,"erik":5895,"eventyr":5896,"##riere":5897,"viborg":5898,"adskil":5899,"renover":5900,"formid":5901,"gas":5902,"ger":5903,"##idenskab":5904,"##ødet":5905,"udlandet":5906,"anders":5907,"middag":5908,"landets":5909,"handling":5910,"webs":5911,"bange":5912,"oplevet":5913,"klassiske":5914,"fond":5915,"udbet":5916,"bom":5917,"konkl":5918,"##sident":5919,"##slev":5920,"varen":5921,"symb":5922,"dreng":5923,"##rebet":5924,"##arder":5925,"hertil":5926,"sprøj":5927,"##sr":5928,"##gøre":5929,"handen":5930,"hente":5931,"##have":5932,"beliggende":5933,"##nerne":5934,"tiltræ":5935,"##skær":5936,"##ile":5937,"glem":5938,"presse":5939,"museum":5940,"klage":5941,"forbruger":5942,"tilbehør":5943,"##undersøg":5944,"##inden":5945,"##ong":5946,"stoffer":5947,"involver":5948,"ip":5949,"lagde":5950,"huse":5951,"##ytning":5952,"overskud":5953,"##gruppe":5954,"tiltag":5955,"praktiske":5956,"digitale":5957,"gruppen":5958,"butikker":5959,"frihed":5960,"tjeneste":5961,"micha":5962,"kigger":5963,"orden":5964,"##punkt":5965,"regeringen":5966,"##sætninger":5967,"drømme":5968,"dyn":5969,"toilet":5970,"##skort":5971,"##niveau":5972,"dav":5973,"2006":5974,"vester":5975,"kandid":5976,"##forb":5977,"##kaldt":5978,"udp":5979,"slutningen":5980,"frivillige":5981,"##sex":5982,"##ias":5983,"kendskab":5984,"##api":5985,"vivan":5986,"##ival":5987,"##ikkerhed":5988,"vag":5989,"foretage":5990,"##able":5991,"che":5992,"##yb":5993,"undervisningen":5994,"normal":5995,"tænkte":5996,"##zz":5997,"kvart":5998,"##værker":5999,"bro":6000,"total":6001,"##ancen":6002,"begyndt":6003,"tallet":6004,"vivanza":6005,"handic":6006,"kapital":6007,"samtid":6008,"ejendommen":6009,"##klar":6010,"rengøring":6011,"hænger":6012,"styre":6013,"##æmp":6014,"selskabet":6015,"dagligt":6016,"lane":6017,"##hl":6018,"begyndelsen":6019,"mode":6020,"vaske":6021,"forsøge":6022,"ker":6023,"sus":6024,"sakaldte":6025,"kb":6026,"kommentar":6027,"vedkommende":6028,"stranden":6029,"##kendt":6030,"tø":6031,"util":6032,"foretages":6033,"udk":6034,"løg":6035,"mørke":6036,"selvstænd":6037,"##inget":6038,"##organis":6039,"2000":6040,"nærme":6041,"øjeblik":6042,"spørger":6043,"boliger":6044,"aftenen":6045,"##laget":6046,"##otte":6047,"inkluder":6048,"indg":6049,"beskrevet":6050,"##ows":6051,"vejled":6052,"undersøge":6053,"cykl":6054,"spørge":6055,"grænser":6056,"gal":6057,"anledning":6058,"##yp":6059,"dertil":6060,"##kende":6061,"cirka":6062,"prov":6063,"##bol":6064,"bestyrelses":6065,"##kont":6066,"endte":6067,"##læge":6068,"##sjælland":6069,"##gørelsen":6070,"nyheder":6071,"overbe":6072,"extra":6073,"les":6074,"##30":6075,"sens":6076,"##pet":6077,"galt":6078,"omstænd":6079,"bra":6080,"behandlingen":6081,"yderst":6082,"symptomer":6083,"##sproces":6084,"##kost":6085,"arsag":6086,"plat":6087,"udskift":6088,"ressourcer":6089,"kog":6090,"samtale":6091,"pornofilm":6092,"fugt":6093,"fransk":6094,"##stande":6095,"martin":6096,"ov":6097,"erkl":6098,"dybt":6099,"lavede":6100,"samarbejdet":6101,"hverdagen":6102,"listen":6103,"øjeblikket":6104,"##seende":6105,"afhængig":6106,"solen":6107,"talt":6108,"smerte":6109,"nyeste":6110,"omfattende":6111,"##plejer":6112,"htt":6113,"garanti":6114,"##stol":6115,"byer":6116,"##nement":6117,"##ikere":6118,"##rus":6119,"42":6120,"bunden":6121,"optaget":6122,"nordjylland":6123,"planter":6124,"##stalt":6125,"skoler":6126,"udføre":6127,"##ningsm":6128,"tillid":6129,"opgaven":6130,"særdeles":6131,"anne":6132,"hurtigere":6133,"fulde":6134,"repar":6135,"##ivt":6136,"udendørs":6137,"sendes":6138,"ment":6139,"dokumentation":6140,"sørger":6141,"udføres":6142,"yngre":6143,"##ail":6144,"##hæ":6145,"##vidt":6146,"39":6147,"born":6148,"silkeborg":6149,"chef":6150,"sædvan":6151,"smør":6152,"ægt":6153,"emne":6154,"udstyret":6155,"radio":6156,"michael":6157,"cla":6158,"##fær":6159,"##skriv":6160,"handels":6161,"love":6162,"sub":6163,"last":6164,"links":6165,"dist":6166,"geb":6167,"opdateret":6168,"stue":6169,"oprette":6170,"tanke":6171,"sørg":6172,"abning":6173,"andel":6174,"myndighed":6175,"arbejdsmiljø":6176,"skuesp":6177,"frygt":6178,"rabat":6179,"##opgaver":6180,"skin":6181,"##mæssige":6182,"bind":6183,"hyggeligt":6184,"utrol":6185,"diskuss":6186,"brø":6187,"##cerer":6188,"##kel":6189,"koncentr":6190,"erotisk":6191,"##struktur":6192,"##ekter":6193,"##celler":6194,"tyr":6195,"##iem":6196,"##skyld":6197,"folkesk":6198,"publikum":6199,"øjen":6200,"##ep":6201,"bryll":6202,"##film":6203,"klokken":6204,"nyder":6205,"##øret":6206,"aktive":6207,"mid":6208,"##dyr":6209,"hidt":6210,"lufthavn":6211,"##anal":6212,"udløb":6213,"##ometer":6214,"hø":6215,"underhold":6216,"suppler":6217,"##dende":6218,"ligner":6219,"stik":6220,"##sløs":6221,"##itioner":6222,"##ureau":6223,"##edrag":6224,"helbred":6225,"russ":6226,"rene":6227,"motion":6228,"hoteller":6229,"aftaler":6230,"##jening":6231,"vad":6232,"lun":6233,"##omen":6234,"anvendt":6235,"naede":6236,"bevægelse":6237,"købte":6238,"medarbejderne":6239,"##ika":6240,"##arden":6241,"rus":6242,"stift":6243,"##avet":6244,"retter":6245,"nærheden":6246,"overveje":6247,"##vendt":6248,"intens":6249,"##yske":6250,"##elske":6251,"samling":6252,"##spar":6253,"arrangementer":6254,"hygge":6255,"veje":6256,"##ificeret":6257,"##varm":6258,"##kraft":6259,"informationer":6260,"bidrage":6261,"##urg":6262,"##mæssigt":6263,"55":6264,"drejer":6265,"øster":6266,"plant":6267,"##fart":6268,"perspe":6269,"info":6270,"##ror":6271,"01":6272,"navne":6273,"eftersp":6274,"flygtning":6275,"generelle":6276,"efteraret":6277,"produktet":6278,"enheder":6279,"foraret":6280,"henholdsvis":6281,"specifik":6282,"jesus":6283,"langsomt":6284,"##lade":6285,"undersøgelsen":6286,"udvalgte":6287,"horsens":6288,"hvorvidt":6289,"rettigheder":6290,"##sger":6291,"enorm":6292,"naturlig":6293,"legetøj":6294,"##iering":6295,"uddannelsen":6296,"beskriver":6297,"kræfter":6298,"vender":6299,"##ude":6300,"travl":6301,"gri":6302,"arligt":6303,"nævnte":6304,"sign":6305,"##æb":6306,"professionelle":6307,"##mos":6308,"metal":6309,"sygdomme":6310,"professionel":6311,"kvaliteten":6312,"imøde":6313,"føles":6314,"##edag":6315,"enige":6316,"kys":6317,"længde":6318,"##illa":6319,"afhænger":6320,"omgivelser":6321,"fit":6322,"driv":6323,"umu":6324,"nærmeste":6325,"##ogram":6326,"fing":6327,"##mann":6328,"lægem":6329,"##leg":6330,"familier":6331,"medle":6332,"disku":6333,"kampe":6334,"forklarer":6335,"tilladelse":6336,"vinduer":6337,"num":6338,"tips":6339,"centrale":6340,"gem":6341,"nic":6342,"##grupper":6343,"boede":6344,"try":6345,"cookies":6346,"48":6347,"##mmes":6348,"##olie":6349,"tilmel":6350,"bre":6351,"afsted":6352,"ægteskab":6353,"##tim":6354,"opskrifter":6355,"implementer":6356,"kommunale":6357,"kurser":6358,"smerter":6359,"##tøj":6360,"kna":6361,"milit":6362,"lid":6363,"unikke":6364,"##vne":6365,"tilfæld":6366,"banen":6367,"##uk":6368,"##algru":6369,"venligst":6370,"heste":6371,"spej":6372,"golf":6373,"knæ":6374,"planer":6375,"forvejen":6376,"##ume":6377,"vedt":6378,"##eting":6379,"sørge":6380,"##bel":6381,"##cl":6382,"alternativ":6383,"##ese":6384,"forar":6385,"handel":6386,"##alerne":6387,"##ansvar":6388,"skud":6389,"nationale":6390,"##rænde":6391,"kirken":6392,"##fisk":6393,"##dre":6394,"date":6395,"sælges":6396,"leverer":6397,"hær":6398,"præsident":6399,"##regn":6400,"stats":6401,"2005":6402,"deltagere":6403,"ke":6404,"diagn":6405,"fan":6406,"landsby":6407,"hels":6408,"levere":6409,"mødt":6410,"finansi":6411,"sms":6412,"herre":6413,"##gruppen":6414,"virksomhedens":6415,"processen":6416,"forsigt":6417,"##bas":6418,"##pot":6419,"##oss":6420,"solgt":6421,"tablet":6422,"mun":6423,"##ones":6424,"ere":6425,"##shop":6426,"ekstrem":6427,"erotiske":6428,"balance":6429,"##rækker":6430,"##skon":6431,"pænt":6432,"##rut":6433,"##ømte":6434,"poul":6435,"##ernes":6436,"gebyr":6437,"artikler":6438,"bevar":6439,"##ior":6440,"##ringen":6441,"fylder":6442,"##erence":6443,"samfundet":6444,"kontant":6445,"##aa":6446,"fritid":6447,"litteratur":6448,"##forbrug":6449,"you":6450,"tilgængelige":6451,"konsekvenser":6452,"##æs":6453,"herning":6454,"teknisk":6455,"##sty":6456,"##værelset":6457,"forældrene":6458,"##smod":6459,"##ligheden":6460,"kørt":6461,"press":6462,"##asset":6463,"pkt":6464,"##irt":6465,"tæl":6466,"##sej":6467,"terras":6468,"tilret":6469,"forventer":6470,"gi":6471,"udtal":6472,"hjemmet":6473,"akut":6474,"sikkerheds":6475,"##vogn":6476,"luks":6477,"##sek":6478,"advokat":6479,"positive":6480,"##aard":6481,"betal":6482,"deltagelse":6483,"##che":6484,"##ssystem":6485,"lette":6486,"##bolig":6487,"opfattelse":6488,"duft":6489,"400":6490,"hyggelig":6491,"ødelæg":6492,"international":6493,"mur":6494,"orgas":6495,"pers":6496,"udvalget":6497,"søges":6498,"krimin":6499,"helhed":6500,"##igh":6501,"central":6502,"jacob":6503,"egenskaber":6504,"æb":6505,"##irma":6506,"##foreningen":6507,"frankrig":6508,"guds":6509,"oprindelige":6510,"##kommer":6511,"indik":6512,"minder":6513,"lou":6514,"##hop":6515,"situationer":6516,"tilføj":6517,"godkendelse":6518,"troede":6519,"forbe":6520,"aktivt":6521,"##rest":6522,"##press":6523,"arhund":6524,"relation":6525,"##hvert":6526,"følelse":6527,"registreret":6528,"##kred":6529,"pum":6530,"##holdet":6531,"tilfældet":6532,"samtlige":6533,"digital":6534,"##isterne":6535,"lægges":6536,"beliggen":6537,"##pladser":6538,"effektivt":6539,"fremmest":6540,"rac":6541,"malgru":6542,"billigt":6543,"##ram":6544,"anvender":6545,"strategi":6546,"position":6547,"falde":6548,"bidrag":6549,"##ho":6550,"udsat":6551,"##ffen":6552,"##moder":6553,"dim":6554,"dages":6555,"mester":6556,"##ower":6557,"skønt":6558,"copenh":6559,"gade":6560,"##fød":6561,"##system":6562,"retningslin":6563,"samle":6564,"bornholm":6565,"cert":6566,"indsam":6567,"tel":6568,"parter":6569,"besluttet":6570,"##stør":6571,"##siden":6572,"##sind":6573,"##ana":6574,"kommentarer":6575,"##bal":6576,"fødevarer":6577,"##yttede":6578,"##ærk":6579,"tusind":6580,"vidunder":6581,"##stille":6582,"##pap":6583,"vagt":6584,"midten":6585,"##but":6586,"attra":6587,"##lagte":6588,"vurdere":6589,"##oter":6590,"ledere":6591,"dru":6592,"initi":6593,"ri":6594,"lab":6595,"gennemføre":6596,"##spor":6597,"##iliteter":6598,"##enten":6599,"købes":6600,"ramt":6601,"44":6602,"sky":6603,"##ola":6604,"klog":6605,"evne":6606,"##ign":6607,"##æle":6608,"##forsk":6609,"intim":6610,"roligt":6611,"##ball":6612,"institution":6613,"optræ":6614,"dækket":6615,"##frit":6616,"##dele":6617,"pet":6618,"195":6619,"lyse":6620,"komplet":6621,"kontroller":6622,"kraftig":6623,"##aktiv":6624,"vider":6625,"benytter":6626,"ordet":6627,"kalender":6628,"harde":6629,"grunden":6630,"ventil":6631,"sent":6632,"motiver":6633,"forretnings":6634,"obje":6635,"udbyder":6636,"kant":6637,"body":6638,"biograf":6639,"musl":6640,"aftalen":6641,"rod":6642,"kus":6643,"casino":6644,"afholdt":6645,"##ned":6646,"befolk":6647,"halvdelen":6648,"tilgang":6649,"demokrat":6650,"lind":6651,"65":6652,"kla":6653,"fremstillet":6654,"tidlig":6655,"##hv":6656,"##ris":6657,"station":6658,"bede":6659,"##mag":6660,"slaet":6661,"stemning":6662,"norge":6663,"spir":6664,"##har":6665,"forbud":6666,"udgiv":6667,"restauranter":6668,"indtryk":6669,"##løsning":6670,"rust":6671,"nødvendigvis":6672,"otte":6673,"##its":6674,"overnat":6675,"fordelt":6676,"anmeldelser":6677,"snak":6678,"teater":6679,"ændres":6680,"##synet":6681,"basis":6682,"ydelser":6683,"køkkenet":6684,"præsent":6685,"tema":6686,"lovgivning":6687,"karriere":6688,"##okse":6689,"##oblemer":6690,"arsager":6691,"thor":6692,"kyl":6693,"leveret":6694,"bryg":6695,"gir":6696,"##lægning":6697,"akk":6698,"klikke":6699,"##smed":6700,"span":6701,"##elefoner":6702,"##att":6703,"sølv":6704,"lim":6705,"passende":6706,"klager":6707,"stoppe":6708,"##sret":6709,"anmel":6710,"##apeut":6711,"hænge":6712,"snakke":6713,"husker":6714,"dame":6715,"forhandling":6716,"udlever":6717,"##bi":6718,"udlej":6719,"##aster":6720,"larsen":6721,"##kur":6722,"fremover":6723,"kbh":6724,"eksist":6725,"elektr":6726,"##oni":6727,"##oseks":6728,"følte":6729,"##delinger":6730,"##pil":6731,"##rejse":6732,"plejer":6733,"levet":6734,"##oll":6735,"traditionelle":6736,"150":6737,"##speri":6738,"takt":6739,"brit":6740,"mangel":6741,"##rænd":6742,"møbler":6743,"ah":6744,"kontra":6745,"røv":6746,"##bill":6747,"ve":6748,"lavt":6749,"svare":6750,"##sag":6751,"specif":6752,"##aten":6753,"angar":6754,"dkk":6755,"markant":6756,"copenhagen":6757,"hospital":6758,"mødte":6759,"##gas":6760,"##fal":6761,"bløde":6762,"##førsel":6763,"kyst":6764,"indsigt":6765,"pedersen":6766,"utroligt":6767,"læger":6768,"betalt":6769,"eksklus":6770,"##strøm":6771,"datab":6772,"marie":6773,"bonus":6774,"##fære":6775,"skærm":6776,"iphone":6777,"ordre":6778,"betingelser":6779,"isra":6780,"stopp":6781,"tunge":6782,"hest":6783,"##ovre":6784,"dygtige":6785,"mængder":6786,"##sliv":6787,"afvik":6788,"##ierede":6789,"##bygning":6790,"friske":6791,"socialt":6792,"borgerne":6793,"besøger":6794,"eleg":6795,"kaldet":6796,"videreg":6797,"kategori":6798,"konge":6799,"indret":6800,"sommerhus":6801,"punkter":6802,"programmer":6803,"fornemm":6804,"dagsorden":6805,"uheld":6806,"pladsen":6807,"forventninger":6808,"kompetence":6809,"landskab":6810,"191":6811,"##mmeret":6812,"jesper":6813,"ole":6814,"beskyttelse":6815,"lokalplan":6816,"##aren":6817,"havet":6818,"##møl":6819,"almindeligt":6820,"bestemmelser":6821,"##agement":6822,"rapp":6823,"væsentligt":6824,"foredrag":6825,"benyttes":6826,"morten":6827,"registrer":6828,"afholdes":6829,"ib":6830,"tilrettel":6831,"nyhedsb":6832,"##mindre":6833,"nut":6834,"uddannelser":6835,"##lek":6836,"teknik":6837,"##kkerne":6838,"hvoraf":6839,"bøs":6840,"rart":6841,"##dire":6842,"kommunerne":6843,"handtere":6844,"runde":6845,"cas":6846,"brænde":6847,"##kør":6848,"kollega":6849,"kru":6850,"##igheds":6851,"41":6852,"matem":6853,"svenske":6854,"positivt":6855,"døgn":6856,"bekendtgørelse":6857,"kvalitets":6858,"##lov":6859,"finan":6860,"##redi":6861,"medmindre":6862,"blok":6863,"##mmende":6864,"forvalt":6865,"fungere":6866,"pin":6867,"besluttede":6868,"bryllup":6869,"43":6870,"kælder":6871,"kombination":6872,"##aut":6873,"bordet":6874,"ungdoms":6875,"risikoen":6876,"##spunkter":6877,"slar":6878,"##deren":6879,"argum":6880,"ryggen":6881,"tydelig":6882,"hjertet":6883,"parørende":6884,"kiggede":6885,"##uft":6886,"hemm":6887,"2004":6888,"overflade":6889,"virkning":6890,"##piger":6891,"tanken":6892,"redeg":6893,"udtry":6894,"naet":6895,"##alp":6896,"##smuligheder":6897,"fede":6898,"mette":6899,"forsy":6900,"jør":6901,"arene":6902,"##oren":6903,"ekspert":6904,"frist":6905,"##fuldt":6906,"faldet":6907,"ovenstaende":6908,"##ica":6909,"svaret":6910,"bagefter":6911,"køleskab":6912,"institutioner":6913,"hr":6914,"hjemmel":6915,"skolens":6916,"##hel":6917,"##ction":6918,"danne":6919,"##teket":6920,"vurderer":6921,"##ydelser":6922,"grupp":6923,"franske":6924,"bøl":6925,"##hag":6926,"tegne":6927,"svære":6928,"##mest":6929,"udbr":6930,"hypp":6931,"##sloven":6932,"munden":6933,"lægen":6934,"kommunalb":6935,"registrering":6936,"etableret":6937,"46":6938,"##verden":6939,"##owser":6940,"##ca":6941,"spid":6942,"##aterede":6943,"##maskine":6944,"uv":6945,"##række":6946,"klassisk":6947,"udlænd":6948,"mobilt":6949,"##ze":6950,"mærket":6951,"oblig":6952,"gangen":6953,"##lan":6954,"afrik":6955,"kim":6956,"historiske":6957,"##enskom":6958,"line":6959,"maling":6960,"slog":6961,"kompl":6962,"deltagerne":6963,"pyn":6964,"linje":6965,"billederne":6966,"gæld":6967,"hd":6968,"maven":6969,"mente":6970,"darlige":6971,"gennemga":6972,"kines":6973,"##skraft":6974,"##mi":6975,"ligeg":6976,"mørk":6977,"omsorg":6978,"ki":6979,"##idens":6980,"##smæssig":6981,"islam":6982,"indstilling":6983,"jørgen":6984,"arbejdsplads":6985,"##bruget":6986,"stillet":6987,"##lands":6988,"lyset":6989,"finger":6990,"##eng":6991,"forbered":6992,"bos":6993,"skam":6994,"analyser":6995,"brugen":6996,"kæmp":6997,"sammenh":6998,"indled":6999,"udseende":7000,"uddannet":7001,"##han":7002,"sofa":7003,"mælk":7004,"berør":7005,"organisationer":7006,"indeb":7007,"forny":7008,"imens":7009,"erstatning":7010,"dj":7011,"grønts":7012,"velfærd":7013,"stemmer":7014,"bri":7015,"kørsel":7016,"omt":7017,"motiv":7018,"flad":7019,"##ogen":7020,"spillede":7021,"arlige":7022,"spring":7023,"moms":7024,"samtidigt":7025,"show":7026,"laves":7027,"tjene":7028,"planlægning":7029,"udenlandske":7030,"alb":7031,"##ætning":7032,"gavn":7033,"kage":7034,"gulvet":7035,"forholdet":7036,"angreb":7037,"barnets":7038,"vokser":7039,"##fest":7040,"vedligeholdelse":7041,"##fund":7042,"loven":7043,"sejr":7044,"myndigheder":7045,"##ds":7046,"lyng":7047,"##sko":7048,"sengen":7049,"utal":7050,"##vises":7051,"##stal":7052,"forbl":7053,"49":7054,"værker":7055,"##formen":7056,"##produkter":7057,"befinder":7058,"bære":7059,"##byr":7060,"##lex":7061,"bringe":7062,"pladser":7063,"evaluering":7064,"fla":7065,"ideen":7066,"yde":7067,"##udgifter":7068,"tw":7069,"blæ":7070,"værktøjer":7071,"fornøjelse":7072,"havn":7073,"fremad":7074,"##ydning":7075,"##ærke":7076,"yog":7077,"##tager":7078,"sof":7079,"tendens":7080,"##agning":7081,"størrelser":7082,"luder":7083,"menu":7084,"relativt":7085,"enig":7086,"foreløb":7087,"oprettet":7088,"nysger":7089,"beslutninger":7090,"anmod":7091,"systemer":7092,"##iland":7093,"193":7094,"radgiver":7095,"##issionen":7096,"oplæg":7097,"##prøve":7098,"regne":7099,"pligt":7100,"##gning":7101,"##oth":7102,"behandles":7103,"##asen":7104,"stim":7105,"##onning":7106,"sygeplejer":7107,"##iets":7108,"tilgængelig":7109,"##aliseret":7110,"ældste":7111,"##stiden":7112,"##hu":7113,"##ony":7114,"nøgle":7115,"##cyk":7116,"si":7117,"lam":7118,"individuelle":7119,"ynd":7120,"inspireret":7121,"omstændigheder":7122,"##egard":7123,"lak":7124,"##jeneste":7125,"cal":7126,"inddr":7127,"graviditet":7128,"##ual":7129,"lært":7130,"190":7131,"chance":7132,"areal":7133,"hellere":7134,"##fru":7135,"div":7136,"##igen":7137,"seksuelle":7138,"bygnings":7139,"opkræ":7140,"imponer":7141,"##lings":7142,"vaben":7143,"##folk":7144,"trænger":7145,"nøjagt":7146,"##ateriale":7147,"##pan":7148,"medfører":7149,"##lemme":7150,"modtag":7151,"##lægge":7152,"fremtidige":7153,"will":7154,"afslutning":7155,"att":7156,"skønhed":7157,"rav":7158,"symbol":7159,"behandlet":7160,"47":7161,"##rom":7162,"homoseks":7163,"##redse":7164,"skel":7165,"resul":7166,"væsentlige":7167,"##firma":7168,"autor":7169,"koordin":7170,"black":7171,"##rof":7172,"valget":7173,"##plant":7174,"handicap":7175,"kasse":7176,"##tige":7177,"helsing":7178,"##svej":7179,"ændrer":7180,"foruren":7181,"sold":7182,"##forsikring":7183,"leveres":7184,"bebyg":7185,"besøgende":7186,"gumm":7187,"dynam":7188,"generalforsamlingen":7189,"tilpas":7190,"wind":7191,"blad":7192,"jub":7193,"##ffes":7194,"##kvalitet":7195,"##forsta":7196,"##itz":7197,"adskillige":7198,"send":7199,"efterar":7200,"overd":7201,"deler":7202,"##eland":7203,"kilometer":7204,"fylde":7205,"grill":7206,"christensen":7207,"pavirker":7208,"holdes":7209,"felt":7210,"ap":7211,"##iceret":7212,"indgaet":7213,"##mar":7214,"bespar":7215,"overordnede":7216,"overlev":7217,"##stilles":7218,"plante":7219,"##acitet":7220,"beskæftigelses":7221,"##cerede":7222,"forløbet":7223,"pavirk":7224,"medvir":7225,"##ktive":7226,"administration":7227,"møller":7228,"##bad":7229,"rens":7230,"fragt":7231,"hæng":7232,"##standen":7233,"site":7234,"værelset":7235,"blow":7236,"##komne":7237,"##dommen":7238,"foreningens":7239,"stede":7240,"ordin":7241,"romant":7242,"##papir":7243,"look":7244,"ønsket":7245,"skand":7246,"##ius":7247,"lærere":7248,"entrepr":7249,"frederiksberg":7250,"##illinger":7251,"forskellig":7252,"kasser":7253,"sygehus":7254,"arranger":7255,"cd":7256,"eleven":7257,"bliv":7258,"forelig":7259,"mads":7260,"kompon":7261,"rasmussen":7262,"##ino":7263,"kunderne":7264,"##bring":7265,"indberet":7266,"kvinden":7267,"pigerne":7268,"herfra":7269,"fris":7270,"52":7271,"højst":7272,"indeholde":7273,"hermed":7274,"flertal":7275,"spred":7276,"##klag":7277,"##stet":7278,"avan":7279,"slid":7280,"scan":7281,"idag":7282,"skoven":7283,"hunden":7284,"acc":7285,"vurderes":7286,"svarende":7287,"##forsy":7288,"lykke":7289,"ventet":7290,"big":7291,"frig":7292,"##gave":7293,"maltid":7294,"vels":7295,"bloggen":7296,"##getøj":7297,"dans":7298,"angst":7299,"fiske":7300,"udstilling":7301,"besvær":7302,"gaver":7303,"kerne":7304,"prem":7305,"øger":7306,"##yttelses":7307,"pause":7308,"rente":7309,"##vente":7310,"tilføje":7311,"ledelses":7312,"##ojekter":7313,"foder":7314,"forum":7315,"parad":7316,"badeværelse":7317,"synd":7318,"relationer":7319,"lesb":7320,"england":7321,"træer":7322,"befolkning":7323,"opfylder":7324,"##kap":7325,"skifter":7326,"snar":7327,"##vi":7328,"øverste":7329,"##kant":7330,"nedsat":7331,"vik":7332,"jak":7333,"diskret":7334,"##projekt":7335,"##ics":7336,"favorit":7337,"dygtig":7338,"tilstede":7339,"andels":7340,"indvend":7341,"claus":7342,"mulighederne":7343,"fugle":7344,"skærmen":7345,"##ordningen":7346,"vælges":7347,"kab":7348,"turner":7349,"indkomst":7350,"##ya":7351,"abonnement":7352,"atmos":7353,"garan":7354,"medie":7355,"xxx":7356,"if":7357,"gaden":7358,"billigere":7359,"besvar":7360,"psykisk":7361,"##essor":7362,"##iget":7363,"bidrager":7364,"island":7365,"##skol":7366,"nørre":7367,"anmeldelse":7368,"initiativ":7369,"handværk":7370,"formentlig":7371,"mave":7372,"nødvendig":7373,"##lægges":7374,"stød":7375,"va":7376,"##angen":7377,"beregnet":7378,"biv":7379,"99":7380,"##adal":7381,"1000":7382,"##sæ":7383,"##edyr":7384,"mikk":7385,"##agerer":7386,"behandler":7387,"##ændelse":7388,"opført":7389,"forsik":7390,"refer":7391,"beliggenhed":7392,"hidtil":7393,"himmel":7394,"begrund":7395,"lat":7396,"bø":7397,"statistik":7398,"kalde":7399,"nabo":7400,"##okl":7401,"##eden":7402,"skub":7403,"fc":7404,"ild":7405,"normale":7406,"revision":7407,"brede":7408,"tav":7409,"indr":7410,"jørg":7411,"lond":7412,"piz":7413,"træder":7414,"forg":7415,"hent":7416,"arkitekt":7417,"tilt":7418,"single":7419,"gens":7420,"##cam":7421,"stigning":7422,"##stider":7423,"##beret":7424,"titel":7425,"##staltninger":7426,"##kne":7427,"##dragelse":7428,"seværd":7429,"mek":7430,"virkelighed":7431,"##osof":7432,"pabeg":7433,"produceret":7434,"kreativ":7435,"understre":7436,"veninde":7437,"belast":7438,"##iness":7439,"95":7440,"lejligheden":7441,"##df":7442,"paris":7443,"tilladt":7444,"##isering":7445,"opv":7446,"forskelligt":7447,"hjemmesider":7448,"udfl":7449,"por":7450,"arbejdsmarkedet":7451,"spilde":7452,"jurid":7453,"kopi":7454,"##ænder":7455,"grundigt":7456,"telefonen":7457,"192":7458,"udform":7459,"stammer":7460,"sildenafil":7461,"lukke":7462,"installer":7463,"lejligheder":7464,"præget":7465,"##hr":7466,"skad":7467,"##aterne":7468,"psykolog":7469,"hob":7470,"eksamen":7471,"forhind":7472,"luften":7473,"http":7474,"##gøres":7475,"eb":7476,"##ampen":7477,"kolde":7478,"##hul":7479,"angivet":7480,"brem":7481,"offentligt":7482,"##enhed":7483,"##imenter":7484,"ii":7485,"ture":7486,"hørte":7487,"mas":7488,"køge":7489,"amager":7490,"overenskom":7491,"##unt":7492,"##købing":7493,"##atorer":7494,"fortalt":7495,"ten":7496,"luksus":7497,"##famil":7498,"##relse":7499,"thaim":7500,"unik":7501,"horm":7502,"perioder":7503,"specielle":7504,"rettet":7505,"engelske":7506,"##ulere":7507,"##elsesk":7508,"m2":7509,"trænings":7510,"timers":7511,"##pum":7512,"iv":7513,"samarbejdspart":7514,"##best":7515,"rimelig":7516,"næstved":7517,"mia":7518,"sekret":7519,"løfte":7520,"##brød":7521,"##spiller":7522,"##ævne":7523,"2003":7524,"nik":7525,"rid":7526,"situationen":7527,"lede":7528,"frø":7529,"begej":7530,"##ska":7531,"etc":7532,"##sbehandling":7533,"sports":7534,"ubehag":7535,"opfylde":7536,"arv":7537,"##ktivt":7538,"ægtefæl":7539,"talte":7540,"blanding":7541,"bib":7542,"humør":7543,"##hi":7544,"##ædt":7545,"##ferie":7546,"##tiget":7547,"##inet":7548,"maria":7549,"træne":7550,"maskin":7551,"kurset":7552,"frie":7553,"forbind":7554,"tørre":7555,"danner":7556,"##stoffer":7557,"##ugle":7558,"etablering":7559,"midtjylland":7560,"kendet":7561,"front":7562,"bjerg":7563,"##haven":7564,"forel":7565,"piller":7566,"lund":7567,"ansøger":7568,"flyttet":7569,"##adende":7570,"rige":7571,"næppe":7572,"annonc":7573,"##bens":7574,"planlagt":7575,"organ":7576,"##ænomen":7577,"nedenstaende":7578,"holdning":7579,"##edel":7580,"kreative":7581,"##funktion":7582,"udvide":7583,"##børn":7584,"boks":7585,"maneden":7586,"##sforhold":7587,"lis":7588,"kammer":7589,"mini":7590,"bygningen":7591,"størrelsen":7592,"liter":7593,"butikken":7594,"smager":7595,"civil":7596,"indvand":7597,"nul":7598,"anses":7599,"danskerne":7600,"kriter":7601,"overalt":7602,"modsætning":7603,"forhab":7604,"opløs":7605,"bakter":7606,"asp":7607,"##entlige":7608,"førende":7609,"webshop":7610,"##vention":7611,"##rere":7612,"villa":7613,"pus":7614,"56":7615,"malrettet":7616,"akadem":7617,"##erm":7618,"##produktion":7619,"indebærer":7620,"kina":7621,"overtræ":7622,"mi":7623,"indrettet":7624,"udarbejd":7625,"værste":7626,"##fektion":7627,"tjener":7628,"##inerer":7629,"tekster":7630,"leverandør":7631,"lykkes":7632,"vinteren":7633,"stiger":7634,"henvendelse":7635,"ryd":7636,"##tekn":7637,"##ænke":7638,"resultaterne":7639,"bestemte":7640,"senior":7641,"sti":7642,"innovation":7643,"grønt":7644,"præcist":7645,"##ama":7646,"omvendt":7647,"tadal":7648,"proced":7649,"sunde":7650,"##dder":7651,"##inerende":7652,"enkel":7653,"##tegn":7654,"selvstændig":7655,"sandsynligvis":7656,"tadalafil":7657,"indretning":7658,"##varter":7659,"kommunes":7660,"priserne":7661,"##fond":7662,"kortet":7663,"##rid":7664,"##kkelse":7665,"sæsonen":7666,"følg":7667,"##regler":7668,"hyggelige":7669,"ansætt":7670,"##orien":7671,"stolt":7672,"staet":7673,"fuck":7674,"grønland":7675,"##ejser":7676,"jakob":7677,"udkig":7678,"tast":7679,"teksten":7680,"assist":7681,"øvelser":7682,"well":7683,"bestyrelse":7684,"glat":7685,"##way":7686,"alvorligt":7687,"koldt":7688,"psykiat":7689,"mos":7690,"søster":7691,"tyrk":7692,"##ctor":7693,"eksp":7694,"##æne":7695,"##skade":7696,"bivirk":7697,"high":7698,"livsstil":7699,"##ili":7700,"selskaber":7701,"kompr":7702,"forslaget":7703,"pok":7704,"opvarm":7705,"sty":7706,"ovenfor":7707,"fabrik":7708,"london":7709,"herom":7710,"betales":7711,"demon":7712,"##sborg":7713,"fortsatte":7714,"kritik":7715,"mac":7716,"##inter":7717,"##stra":7718,"varier":7719,"genbrug":7720,"##præsent":7721,"##ønne":7722,"##sled":7723,"jon":7724,"udvæl":7725,"bul":7726,"##muligheder":7727,"talent":7728,"##hjul":7729,"kunnet":7730,"##slet":7731,"efterl":7732,"54":7733,"kode":7734,"##side":7735,"tilbydes":7736,"weekenden":7737,"##bus":7738,"oversk":7739,"##sminister":7740,"medføre":7741,"beskytte":7742,"##somhed":7743,"##ærker":7744,"##utte":7745,"halvt":7746,"thaimassage":7747,"fare":7748,"ethvert":7749,"##ceres":7750,"kæl":7751,"600":7752,"foretrækker":7753,"##asses":7754,"bladet":7755,"betrag":7756,"kvartal":7757,"effektive":7758,"hundrede":7759,"illustr":7760,"##onym":7761,"51":7762,"ansvaret":7763,"repræsentant":7764,"##uter":7765,"##drende":7766,"hit":7767,"##valt":7768,"##inav":7769,"##gest":7770,"væld":7771,"svarede":7772,"specifikke":7773,"afgift":7774,"galler":7775,"vardenafil":7776,"siges":7777,"bestemme":7778,"##ford":7779,"##kostninger":7780,"##bøger":7781,"bis":7782,"hader":7783,"afspej":7784,"politikere":7785,"##handel":7786,"aftalt":7787,"græs":7788,"minde":7789,"optag":7790,"selskabets":7791,"vegne":7792,"staten":7793,"def":7794,"alderen":7795,"helsingør":7796,"teknolog":7797,"handlinger":7798,"arsagen":7799,"andres":7800,"##iør":7801,"##iøse":7802,"bevæger":7803,"browser":7804,"##dres":7805,"##ilde":7806,"##visninger":7807,"##elsess":7808,"vend":7809,"knud":7810,"brønd":7811,"##lav":7812,"kvindelige":7813,"umuligt":7814,"reguler":7815,"blik":7816,"parl":7817,"##givningen":7818,"faktorer":7819,"tilsynel":7820,"gn":7821,"##ækket":7822,"rummer":7823,"sekunder":7824,"opbevaring":7825,"faglig":7826,"døre":7827,"ball":7828,"##sætningen":7829,"##møde":7830,"medlemmerne":7831,"produktionen":7832,"hastighed":7833,"##ox":7834,"##alske":7835,"aud":7836,"nyd":7837,"##ati":7838,"flyve":7839,"modul":7840,"tilsyneladende":7841,"cv":7842,"gay":7843,"vilje":7844,"##yge":7845,"deltog":7846,"domin":7847,"lokalt":7848,"endelige":7849,"rummet":7850,"##indsat":7851,"tryghed":7852,"##ata":7853,"konstat":7854,"##olution":7855,"##økonom":7856,"##uc":7857,"xtra":7858,"software":7859,"overgang":7860,"##skat":7861,"##stav":7862,"##sforen":7863,"thailand":7864,"planen":7865,"##ilitet":7866,"bibliotek":7867,"forandring":7868,"socialdem":7869,"fyre":7870,"dansker":7871,"forhandler":7872,"##pperne":7873,"vanskelig":7874,"konver":7875,"##lene":7876,"bærer":7877,"færdigheder":7878,"bevæge":7879,"formanden":7880,"færdige":7881,"imponerende":7882,"hust":7883,"trak":7884,"##illerød":7885,"pavirke":7886,"heldig":7887,"##indes":7888,"forklare":7889,"flygtninge":7890,"lytte":7891,"emnet":7892,"shop":7893,"##erien":7894,"lukkede":7895,"slappe":7896,"behandle":7897,"##skv":7898,"##ariat":7899,"spanien":7900,"##lunde":7901,"ressource":7902,"forudsætning":7903,"business":7904,"terror":7905,"teori":7906,"##put":7907,"skive":7908,"introduktion":7909,"øen":7910,"garden":7911,"##ygg":7912,"dræb":7913,"venlige":7914,"fitness":7915,"kylling":7916,"udvalgt":7917,"intel":7918,"svensk":7919,"##enteret":7920,"##play":7921,"ryt":7922,"arbejdspladser":7923,"forskellen":7924,"##agram":7925,"fn":7926,"oplyst":7927,"klip":7928,"hind":7929,"##bogen":7930,"aftens":7931,"aktier":7932,"##skrav":7933,"##æm":7934,"dække":7935,"stopper":7936,"trivsel":7937,"forventet":7938,"svag":7939,"forstyr":7940,"element":7941,"elskede":7942,"##burg":7943,"##erencer":7944,"omd":7945,"verdensk":7946,"##stillende":7947,"##barhed":7948,"works":7949,"beboere":7950,"nytar":7951,"udd":7952,"club":7953,"cat":7954,"##vs":7955,"##ric":7956,"bob":7957,"identific":7958,"operation":7959,"smar":7960,"lic":7961,"sans":7962,"arbejdsmarked":7963,"gennemføres":7964,"champ":7965,"##60":7966,"##alderen":7967,"forsøgt":7968,"præsentere":7969,"bane":7970,"make":7971,"##icia":7972,"mister":7973,"sektor":7974,"85":7975,"appar":7976,"##fold":7977,"milli":7978,"arbejdes":7979,"rat":7980,"imm":7981,"forskere":7982,"indh":7983,"gro":7984,"stuen":7985,"oprindeligt":7986,"##ax":7987,"afdelinger":7988,"##strateg":7989,"euro":7990,"##amet":7991,"anbefalinger":7992,"maskiner":7993,"ken":7994,"fotos":7995,"##unget":7996,"ligesa":7997,"bio":7998,"dekor":7999,"sto":8000,"##sop":8001,"##fot":8002,"styrker":8003,"vært":8004,"advar":8005,"mes":8006,"##ladt":8007,"rem":8008,"trend":8009,"swingerklub":8010,"identitet":8011,"perspektiv":8012,"vitamin":8013,"vedligehold":8014,"opnaet":8015,"##isser":8016,"ledelsen":8017,"##banen":8018,"##plade":8019,"revisor":8020,"##skift":8021,"enormt":8022,"pædagogiske":8023,"vm":8024,"havne":8025,"##sprodu":8026,"tip":8027,"##sministeriet":8028,"afsluttet":8029,"##inerede":8030,"parti":8031,"##ysten":8032,"konflik":8033,"back":8034,"uafhængigt":8035,"##tighed":8036,"##mæssig":8037,"garn":8038,"forvente":8039,"koncert":8040,"##anchen":8041,"stole":8042,"##angel":8043,"nemme":8044,"artiklen":8045,"primære":8046,"ef":8047,"historisk":8048,"##ote":8049,"##ham":8050,"inklus":8051,"stilles":8052,"abenbart":8053,"##ena":8054,"##enterne":8055,"rock":8056,"værre":8057,"##ood":8058,"okay":8059,"billet":8060,"besid":8061,"knappen":8062,"carl":8063,"##proc":8064,"forstand":8065,"tap":8066,"tvang":8067,"peber":8068,"##industri":8069,"resp":8070,"elektronisk":8071,"morgenen":8072,"##fj":8073,"189":8074,"##ec":8075,"herhjemme":8076,"forklaring":8077,"betyde":8078,"holste":8079,"svømme":8080,"plade":8081,"turist":8082,"udpeg":8083,"fremgang":8084,"tilsæt":8085,"##aser":8086,"medlems":8087,"forsknings":8088,"beton":8089,"udmær":8090,"slippe":8091,"træffe":8092,"reelt":8093,"dm":8094,"lyde":8095,"mennesket":8096,"power":8097,"øre":8098,"undtag":8099,"##formand":8100,"fasc":8101,"forsøgte":8102,"travlt":8103,"fastsat":8104,"kraftigt":8105,"##klædning":8106,"glemt":8107,"##server":8108,"læste":8109,"hillerød":8110,"tættere":8111,"##rak":8112,"storm":8113,"kortere":8114,"græsk":8115,"flytter":8116,"publ":8117,"##spligt":8118,"53":8119,"bringer":8120,"besæt":8121,"drej":8122,"##ellen":8123,"patienten":8124,"kok":8125,"opføl":8126,"tabt":8127,"spurgt":8128,"tilrettelæg":8129,"##itation":8130,"slutter":8131,"blu":8132,"virksomhederne":8133,"austr":8134,"disc":8135,"fortælling":8136,"diskussion":8137,"ulov":8138,"skuespiller":8139,"marg":8140,"vundet":8141,"enkle":8142,"##ktiver":8143,"##ygter":8144,"blomst":8145,"koge":8146,"hænderne":8147,"##førelsen":8148,"bemærkninger":8149,"spa":8150,"radi":8151,"trykke":8152,"##elter":8153,"##oli":8154,"##emidler":8155,"nyere":8156,"##komme":8157,"arrangement":8158,"konsekvens":8159,"hverdage":8160,"180":8161,"festival":8162,"reaktion":8163,"##hjem":8164,"##40":8165,"orgasme":8166,"##rur":8167,"samtykke":8168,"kamera":8169,"dild":8170,"overg":8171,"##somradet":8172,"kræve":8173,"svendborg":8174,"##gelsen":8175,"barnd":8176,"ton":8177,"##kender":8178,"noveller":8179,"fremmed":8180,"tjekke":8181,"##klin":8182,"##arter":8183,"tilhørende":8184,"temmelig":8185,"miner":8186,"fødder":8187,"varmen":8188,"krydder":8189,"udtr":8190,"bedømm":8191,"gran":8192,"dækning":8193,"seværdigheder":8194,"##forslag":8195,"bager":8196,"haret":8197,"##wa":8198,"bøsse":8199,"oplysning":8200,"##politik":8201,"eksperter":8202,"hjørne":8203,"kaldt":8204,"reducere":8205,"brugerne":8206,"førte":8207,"abnede":8208,"09":8209,"##ener":8210,"##sniveau":8211,"konsulent":8212,"jørgensen":8213,"##etræ":8214,"##jern":8215,"##tur":8216,"personlighed":8217,"##jent":8218,"##smand":8219,"gev":8220,"sørensen":8221,"##ination":8222,"##edskab":8223,"##lyst":8224,"foruden":8225,"bøg":8226,"cykler":8227,"06":8228,"02":8229,"##æger":8230,"##رررررررر":8231,"peger":8232,"250":8233,"stram":8234,"alvorlige":8235,"finansielle":8236,"beder":8237,"city":8238,"modellen":8239,"boligen":8240,"##itor":8241,"sogn":8242,"udfører":8243,"skriftlig":8244,"kategorier":8245,"hvori":8246,"prop":8247,"lokaler":8248,"##centret":8249,"markedsføring":8250,"værksted":8251,"redskaber":8252,"2002":8253,"##kir":8254,"##iler":8255,"pre":8256,"anlægget":8257,"klassen":8258,"temp":8259,"dukker":8260,"ønskes":8261,"entrepren":8262,"dejen":8263,"##bøl":8264,"tjek":8265,"vedtaget":8266,"##cher":8267,"brugeren":8268,"udbetaling":8269,"##rens":8270,"##kede":8271,"##kræft":8272,"læsning":8273,"gider":8274,"apple":8275,"tjenester":8276,"hæl":8277,"pool":8278,"opnar":8279,"afdelingen":8280,"paul":8281,"slagelse":8282,"##ame":8283,"virkede":8284,"##spillet":8285,"blowjob":8286,"befolkningen":8287,"2001":8288,"søgning":8289,"59":8290,"kæmper":8291,"##serne":8292,"samtaler":8293,"sakaldt":8294,"separ":8295,"gad":8296,"vade":8297,"oplysningerne":8298,"byde":8299,"##etr":8300,"with":8301,"##sninger":8302,"dum":8303,"afs":8304,"udgift":8305,"##mming":8306,"rækker":8307,"mængden":8308,"fænomen":8309,"##skal":8310,"økologisk":8311,"udnytte":8312,"fiskeri":8313,"drømmer":8314,"##uddannelsen":8315,"intellig":8316,"rot":8317,"fredericia":8318,"støtter":8319,"rekrut":8320,"##manden":8321,"58":8322,"times":8323,"beskæftigelse":8324,"##iks":8325,"laur":8326,"arter":8327,"pt":8328,"##rette":8329,"ordentligt":8330,"mg":8331,"bukser":8332,"nærværende":8333,"##værkt":8334,"dø":8335,"vestlige":8336,"arbejdede":8337,"##ablere":8338,"nævnes":8339,"##igere":8340,"købet":8341,"gennemgang":8342,"fagligt":8343,"##træk":8344,"ejendomme":8345,"overraskende":8346,"lug":8347,"filosof":8348,"betragtes":8349,"##navn":8350,"handbold":8351,"ført":8352,"solid":8353,"miljøet":8354,"##ovn":8355,"##ett":8356,"ekstremt":8357,"##ysning":8358,"glim":8359,"sendte":8360,"hjerne":8361,"email":8362,"comm":8363,"##ekort":8364,"udvidet":8365,"57":8366,"##kredit":8367,"##onom":8368,"pla":8369,"speciel":8370,"loft":8371,"##urdering":8372,"lem":8373,"arhundrede":8374,"fremhæ":8375,"08":8376,"fulgte":8377,"kristne":8378,"minut":8379,"eventuel":8380,"signal":8381,"sange":8382,"ig":8383,"udbytte":8384,"frækt":8385,"##smøde":8386,"evner":8387,"berlin":8388,"##ulation":8389,"retfærd":8390,"roman":8391,"skra":8392,"oplyser":8393,"##sland":8394,"hellig":8395,"bestilling":8396,"##inform":8397,"efterspørg":8398,"##iej":8399,"vr":8400,"##ifikation":8401,"sundt":8402,"tilfredse":8403,"understøtter":8404,"fornemmelse":8405,"vendte":8406,"##mentet":8407,"grøntsager":8408,"kald":8409,"adsk":8410,"flyttede":8411,"bestaende":8412,"vokse":8413,"foresla":8414,"ankom":8415,"musikken":8416,"##urop":8417,"smal":8418,"præsenteret":8419,"##skont":8420,"##plader":8421,"05":8422,"holm":8423,"brænder":8424,"udsatte":8425,"kolleger":8426,"##ats":8427,"kors":8428,"prot":8429,"##vers":8430,"##tab":8431,"velegnet":8432,"kræves":8433,"##være":8434,"hurtige":8435,"vanskeligt":8436,"##rien":8437,"##revne":8438,"ins":8439,"##iativer":8440,"##acc":8441,"##tog":8442,"gmail":8443,"drive":8444,"højest":8445,"##fi":8446,"##ona":8447,"##spolitik":8448,"tilmelding":8449,"helle":8450,"centralt":8451,"forp":8452,"##svæ":8453,"samvær":8454,"webcam":8455,"fjerde":8456,"##vandet":8457,"##ognen":8458,"overvejer":8459,"fløj":8460,"rapporten":8461,"tilstrækkelig":8462,"800":8463,"herudover":8464,"##okr":8465,"huller":8466,"behagelig":8467,"##arch":8468,"charl":8469,"utro":8470,"kaste":8471,"flest":8472,"ekspl":8473,"one":8474,"forholdsvis":8475,"løst":8476,"betegn":8477,"kommunalbestyrelsen":8478,"kontin":8479,"ops":8480,"prost":8481,"##auff":8482,"##irksomhed":8483,"##adres":8484,"retningslinjer":8485,"##givelse":8486,"##ædvan":8487,"bevare":8488,"baggrunden":8489,"nordisk":8490,"188":8491,"dir":8492,"nøje":8493,"eftersom":8494,"gamm":8495,"##veje":8496,"oplagt":8497,"indendørs":8498,"katte":8499,"vogn":8500,"tol":8501,"snakker":8502,"##elm":8503,"humor":8504,"##egru":8505,"foreninger":8506,"##ænde":8507,"stjerner":8508,"menuen":8509,"##rade":8510,"##alsk":8511,"64":8512,"##tilbud":8513,"##mat":8514,"york":8515,"##rør":8516,"indstillinger":8517,"co2":8518,"begivenheder":8519,"##løst":8520,"##start":8521,"forudsætninger":8522,"##ejer":8523,"##ple":8524,"horn":8525,"redegør":8526,"spons":8527,"kondom":8528,"##dagen":8529,"rusland":8530,"bivirkninger":8531,"##go":8532,"fjernet":8533,"##ængde":8534,"direktiv":8535,"besøgte":8536,"##ægler":8537,"##pens":8538,"amerikansk":8539,"lyser":8540,"##priser":8541,"##kend":8542,"forbedring":8543,"##selskab":8544,"samarbejder":8545,"kapacitet":8546,"faciliteter":8547,"cor":8548,"annonce":8549,"udveks":8550,"havnen":8551,"pigen":8552,"undskyld":8553,"diam":8554,"handtering":8555,"ekstraordin":8556,"nordsjælland":8557,"##utr":8558,"tempo":8559,"grundet":8560,"arab":8561,"definition":8562,"matematik":8563,"##ineres":8564,"support":8565,"##jyske":8566,"##punkter":8567,"foresl":8568,"tilstrækkeligt":8569,"sexet":8570,"saft":8571,"trukket":8572,"##appet":8573,"##fyld":8574,"##ipp":8575,"opslag":8576,"ern":8577,"##arbejdes":8578,"##yldes":8579,"stiv":8580,"prøvede":8581,"stu":8582,"##dæk":8583,"spl":8584,"kontakter":8585,"borgeren":8586,"##tilskud":8587,"stj":8588,"reserver":8589,"bøn":8590,"##regning":8591,"##rul":8592,"klinik":8593,"dvd":8594,"hjernen":8595,"##slovens":8596,"bortset":8597,"es":8598,"##vægt":8599,"aps":8600,"##ision":8601,"est":8602,"energim":8603,"krigen":8604,"byggeri":8605,"finansiering":8606,"##xe":8607,"kos":8608,"master":8609,"bestemmer":8610,"##agerne":8611,"afhængigt":8612,"bedt":8613,"indtægter":8614,"##ilæ":8615,"cr":8616,"##slivet":8617,"ultim":8618,"disci":8619,"##oper":8620,"kusse":8621,"skriftligt":8622,"##kan":8623,"præsentation":8624,"milf":8625,"startet":8626,"skære":8627,"##ygdomme":8628,"internationalt":8629,"lyngby":8630,"usædvan":8631,"maskinen":8632,"##ita":8633,"berømte":8634,"copyr":8635,"etablere":8636,"rumm":8637,"term":8638,"negative":8639,"##ump":8640,"##onde":8641,"##com":8642,"anna":8643,"##11":8644,"betalings":8645,"interne":8646,"holbæk":8647,"##vejledning":8648,"mont":8649,"personen":8650,"##mynd":8651,"benene":8652,"sortiment":8653,"##skende":8654,"##undervisning":8655,"##stemning":8656,"kandidat":8657,"uen":8658,"valut":8659,"overst":8660,"eff":8661,"##ikler":8662,"##akning":8663,"copyright":8664,"processer":8665,"kartof":8666,"opskriften":8667,"hæld":8668,"tæller":8669,"begejst":8670,"generation":8671,"integration":8672,"væske":8673,"stjerne":8674,"dyrt":8675,"##ement":8676,"derhjemme":8677,"##redienser":8678,"indsatsen":8679,"religion":8680,"eksperimenter":8681,"billigste":8682,"driver":8683,"##vejr":8684,"him":8685,"vindmøl":8686,"##egner":8687,"##cy":8688,"grænsen":8689,"##kendelse":8690,"world":8691,"samler":8692,"pizza":8693,"##givende":8694,"stærkere":8695,"høring":8696,"##pression":8697,"rute":8698,"##ivende":8699,"drag":8700,"desto":8701,"##perioden":8702,"protein":8703,"løft":8704,"##igelse":8705,"vision":8706,"personoplysninger":8707,"tillader":8708,"indgang":8709,"##maden":8710,"##back":8711,"kjole":8712,"indblik":8713,"##vækst":8714,"arrang":8715,"##isere":8716,"kommissionen":8717,"angiver":8718,"rejsen":8719,"tilknyttet":8720,"officielle":8721,"forestille":8722,"mønster":8723,"princip":8724,"187":8725,"kolon":8726,"lød":8727,"aktion":8728,"##sud":8729,"tax":8730,"modsatte":8731,"studier":8732,"##taler":8733,"flade":8734,"fattig":8735,"følelses":8736,"windows":8737,"##stekn":8738,"##umer":8739,"bekræft":8740,"##retten":8741,"million":8742,"pornost":8743,"bop":8744,"takket":8745,"blade":8746,"##iserede":8747,"beskrive":8748,"##italet":8749,"lejer":8750,"##vask":8751,"##ystemet":8752,"##sprojekt":8753,"td":8754,"##næst":8755,"nordiske":8756,"smat":8757,"##oplevelse":8758,"##ada":8759,"lol":8760,"##værelser":8761,"hurtigst":8762,"bevis":8763,"##bygger":8764,"yo":8765,"pakker":8766,"klogere":8767,"07":8768,"pens":8769,"##que":8770,"##ksomme":8771,"ryger":8772,"amt":8773,"kulturelle":8774,"overordnet":8775,"fulgt":8776,"##lerup":8777,"eksem":8778,"##lund":8779,"##bund":8780,"##jet":8781,"regner":8782,"forlængelse":8783,"##ley":8784,"nylig":8785,"sikret":8786,"##bevæg":8787,"ride":8788,"forsvinder":8789,"beløbet":8790,"benz":8791,"##abelt":8792,"feltet":8793,"##vning":8794,"##usk":8795,"sommerf":8796,"ovnen":8797,"gyn":8798,"skiftet":8799,"alex":8800,"slap":8801,"##øvet":8802,"øverst":8803,"skjul":8804,"##blad":8805,"##bladet":8806,"##car":8807,"skandinav":8808,"kilder":8809,"pande":8810,"##bringe":8811,"derfra":8812,"drøm":8813,"interessante":8814,"##følger":8815,"udsted":8816,"72":8817,"perman":8818,"##idende":8819,"forholde":8820,"kro":8821,"##øven":8822,"dann":8823,"diabet":8824,"##bert":8825,"undervisnings":8826,"##visende":8827,"klubbens":8828,"nævne":8829,"orientering":8830,"terrasse":8831,"##rigt":8832,"fødevar":8833,"holstebro":8834,"smarte":8835,"opkald":8836,"##fyr":8837,"ingredienser":8838,"forlade":8839,"nerv":8840,"flag":8841,"arealer":8842,"##jener":8843,"rejste":8844,"##reen":8845,"scor":8846,"boet":8847,"forhindre":8848,"korn":8849,"verdenskrig":8850,"flyver":8851,"dernæst":8852,"##øen":8853,"børns":8854,"mobile":8855,"fase":8856,"kam":8857,"omsætning":8858,"##pas":8859,"##spunktet":8860,"mega":8861,"misbrug":8862,"120":8863,"konflikt":8864,"myst":8865,"sygdommen":8866,"harmon":8867,"##cks":8868,"bolden":8869,"##aks":8870,"##somrader":8871,"regionen":8872,"studiet":8873,"dybe":8874,"66":8875,"##igter":8876,"midlertid":8877,"gæsterne":8878,"regnskabs":8879,"uret":8880,"tilknytning":8881,"teoret":8882,"økologiske":8883,"##ineret":8884,"##kes":8885,"##egaard":8886,"##sammen":8887,"grin":8888,"indtast":8889,"radik":8890,"##billeder":8891,"sekund":8892,"ligefrem":8893,"69":8894,"##ysk":8895,"hval":8896,"originale":8897,"##smet":8898,"gennemsnitlige":8899,"spildevand":8900,"atter":8901,"damp":8902,"inder":8903,"barne":8904,"formiddag":8905,"leverandører":8906,"ost":8907,"##ente":8908,"behovet":8909,"planlægge":8910,"niveauer":8911,"eksport":8912,"fokusere":8913,"meddelelse":8914,"##æret":8915,"fange":8916,"socialdemokrat":8917,"##skifte":8918,"##ravet":8919,"modtog":8920,"sikkerheden":8921,"mission":8922,"voldsomt":8923,"organisationen":8924,"vant":8925,"arsregn":8926,"infl":8927,"scenen":8928,"##rukne":8929,"potentiale":8930,"fingre":8931,"knog":8932,"sammenligne":8933,"scene":8934,"nett":8935,"play":8936,"##undersøgelse":8937,"spot":8938,"kalk":8939,"ydre":8940,"tynd":8941,"kvad":8942,"##videnskab":8943,"inds":8944,"initiativer":8945,"##planen":8946,"frat":8947,"##rummet":8948,"david":8949,"rolig":8950,"fader":8951,"renovering":8952,"##sikring":8953,"firmaet":8954,"refle":8955,"gule":8956,"værdien":8957,"##th":8958,"producenter":8959,"erfarne":8960,"greb":8961,"farvel":8962,"gram":8963,"tyk":8964,"tillige":8965,"installation":8966,"##skoler":8967,"##ns":8968,"ess":8969,"trump":8970,"##skrevet":8971,"undgar":8972,"pisk":8973,"cre":8974,"overvejelser":8975,"foreløbig":8976,"domm":8977,"muslim":8978,"kvinderne":8979,"gammelt":8980,"pdf":8981,"nogenlunde":8982,"forvir":8983,"##position":8984,"##garden":8985,"##alisme":8986,"mc":8987,"betød":8988,"##proces":8989,"spiste":8990,"##astik":8991,"alvorlig":8992,"anonym":8993,"wellness":8994,"abnet":8995,"##bank":8996,"blandet":8997,"professor":8998,"skaffe":8999,"##biler":9000,"##legetøj":9001,"##askine":9002,"geograf":9003,"##post":9004,"koncept":9005,"elske":9006,"2019":9007,"senge":9008,"tøjet":9009,"mandlige":9010,"hustru":9011,"##etten":9012,"03":9013,"steget":9014,"forelsk":9015,"##sender":9016,"##egang":9017,"##ismen":9018,"smide":9019,"vedrører":9020,"##ateret":9021,"aktie":9022,"plak":9023,"graf":9024,"##12":9025,"begivenhed":9026,"ansigtet":9027,"erotik":9028,"samleje":9029,"gemme":9030,"##ni":9031,"bang":9032,"62":9033,"østr":9034,"##ini":9035,"hovedstaden":9036,"lik":9037,"betragtning":9038,"repræsenterer":9039,"singler":9040,"vandløb":9041,"tilslutning":9042,"kas":9043,"miste":9044,"##æves":9045,"oplevede":9046,"vokset":9047,"menstru":9048,"slægt":9049,"henvisning":9050,"##løg":9051,"aktører":9052,"hilsen":9053,"liderlige":9054,"##øbt":9055,"brut":9056,"søen":9057,"væggen":9058,"fængsel":9059,"##gel":9060,"produkterne":9061,"hug":9062,"##loven":9063,"uover":9064,"##erings":9065,"skilt":9066,"spørgesk":9067,"interesserede":9068,"psykiske":9069,"russiske":9070,"##veks":9071,"download":9072,"placeres":9073,"bist":9074,"##ømmer":9075,"pasta":9076,"eksterne":9077,"juster":9078,"egnet":9079,"redskab":9080,"hvorfra":9081,"##repræsent":9082,"stræk":9083,"offentliggjort":9084,"opgør":9085,"berettiget":9086,"henvender":9087,"kombineret":9088,"logo":9089,"bryder":9090,"løsningen":9091,"flaske":9092,"staende":9093,"##arr":9094,"hvorledes":9095,"traf":9096,"##kkere":9097,"krise":9098,"##ræk":9099,"producent":9100,"vibr":9101,"##ssam":9102,"udbred":9103,"leds":9104,"magasin":9105,"fradrag":9106,"megen":9107,"fødsel":9108,"##pige":9109,"liderlig":9110,"186":9111,"##ule":9112,"##agten":9113,"arbejdskraft":9114,"byd":9115,"hvidt":9116,"skarp":9117,"israel":9118,"##ano":9119,"globale":9120,"afgræn":9121,"##aps":9122,"uforpligt":9123,"##spolit":9124,"##anne":9125,"##relser":9126,"##va":9127,"netto":9128,"##ysen":9129,"sexy":9130,"##gerne":9131,"##tion":9132,"##rud":9133,"##jorde":9134,"##teren":9135,"principper":9136,"##landt":9137,"##ott":9138,"døden":9139,"medlemskab":9140,"##li":9141,"varighed":9142,"dram":9143,"mundt":9144,"lukker":9145,"fakta":9146,"##regnes":9147,"underholdning":9148,"bredde":9149,"drøft":9150,"opnas":9151,"klubber":9152,"portræt":9153,"kampag":9154,"anti":9155,"##ioter":9156,"##esel":9157,"menneskelige":9158,"##sforløb":9159,"frost":9160,"styring":9161,"sammenlignet":9162,"femin":9163,"emil":9164,"##shøj":9165,"hovedsag":9166,"madsen":9167,"##bag":9168,"##ades":9169,"simpel":9170,"roy":9171,"68":9172,"afpr":9173,"frivillig":9174,"##spænd":9175,"##ualitet":9176,"totalt":9177,"##hot":9178,"##tekst":9179,"statens":9180,"##annon":9181,"##sch":9182,"undersøgt":9183,"skyde":9184,"opfølgning":9185,"branchen":9186,"bach":9187,"telefoner":9188,"præsenterer":9189,"atmosfære":9190,"følges":9191,"##atoriske":9192,"ankl":9193,"##ain":9194,"##ykning":9195,"forpligtet":9196,"##freds":9197,"netværks":9198,"brud":9199,"uld":9200,"##kj":9201,"##usen":9202,"mistet":9203,"tat":9204,"producerer":9205,"##etøj":9206,"67":9207,"æl":9208,"##polit":9209,"virksomheds":9210,"ikon":9211,"forebyggelse":9212,"enest":9213,"almen":9214,"fundament":9215,"ydelse":9216,"##osis":9217,"computere":9218,"##beskriv":9219,"titlen":9220,"##ffel":9221,"fans":9222,"website":9223,"dyrke":9224,"forskelle":9225,"nom":9226,"muskler":9227,"sammenhænge":9228,"beboerne":9229,"elegant":9230,"engagement":9231,"jubilæ":9232,"album":9233,"syr":9234,"lign":9235,"##telsen":9236,"investeringer":9237,"##boliger":9238,"skulder":9239,"##tagere":9240,"uforpligtende":9241,"udenrig":9242,"simon":9243,"maskine":9244,"optimale":9245,"##danmark":9246,"konfir":9247,"frug":9248,"##phones":9249,"##yer":9250,"ordentlig":9251,"slipper":9252,"modsat":9253,"##ukker":9254,"bun":9255,"demonstr":9256,"hormon":9257,"##ani":9258,"kabel":9259,"tabe":9260,"folketinget":9261,"forekommer":9262,"læsere":9263,"##ensborg":9264,"##stillede":9265,"børnenes":9266,"meld":9267,"##smidler":9268,"repræsentanter":9269,"konserv":9270,"##ammen":9271,"##ites":9272,"##una":9273,"opb":9274,"workshop":9275,"##tidig":9276,"##orme":9277,"acceptere":9278,"bragt":9279,"størst":9280,"doll":9281,"sover":9282,"##ktivitet":9283,"producere":9284,"forbund":9285,"bevægelser":9286,"monteret":9287,"populær":9288,"##marked":9289,"kryds":9290,"##ygte":9291,"mog":9292,"overenskomst":9293,"kongen":9294,"bror":9295,"##lik":9296,"smagen":9297,"individuel":9298,"knyttet":9299,"minutters":9300,"gear":9301,"smykker":9302,"mr":9303,"##esen":9304,"fad":9305,"##frist":9306,"##sløb":9307,"shopp":9308,"glemme":9309,"iværksætter":9310,"varsel":9311,"##institutioner":9312,"forventede":9313,"##øft":9314,"##berne":9315,"##ingerne":9316,"##user":9317,"##ystemer":9318,"##dato":9319,"kunstnere":9320,"bug":9321,"alarm":9322,"overrasket":9323,"beholder":9324,"##klasse":9325,"udstillingen":9326,"omhandler":9327,"##ath":9328,"rosen":9329,"##bor":9330,"your":9331,"affil":9332,"komprom":9333,"##aftale":9334,"##ødning":9335,"inviteret":9336,"##cykel":9337,"##indt":9338,"foreligger":9339,"fantasi":9340,"coc":9341,"04":9342,"neutr":9343,"materialet":9344,"behageligt":9345,"sperm":9346,"julem":9347,"##orator":9348,"observ":9349,"##ico":9350,"##skærm":9351,"##smænd":9352,"interessen":9353,"ulem":9354,"##avisen":9355,"##møn":9356,"forsyn":9357,"betydelig":9358,"##ekn":9359,"##kunst":9360,"simple":9361,"levetid":9362,"##personer":9363,"inge":9364,"stillede":9365,"bopæl":9366,"##uleret":9367,"##skode":9368,"kritisk":9369,"##kendte":9370,"##rel":9371,"forega":9372,"stadigvæk":9373,"##fab":9374,"udsalg":9375,"##ikkerne":9376,"patter":9377,"enestaende":9378,"beregning":9379,"foretager":9380,"kræn":9381,"kaff":9382,"ligegyld":9383,"##aste":9384,"##grundlag":9385,"fjernes":9386,"ekster":9387,"etage":9388,"savner":9389,"gemmer":9390,"betydeligt":9391,"computeren":9392,"refleks":9393,"fanget":9394,"##atoren":9395,"salat":9396,"fremtidens":9397,"##rød":9398,"##status":9399,"##ima":9400,"##bør":9401,"udarbejde":9402,"##andet":9403,"##problemer":9404,"bevidsthed":9405,"filer":9406,"integreret":9407,"fravær":9408,"planlægger":9409,"blond":9410,"fysioter":9411,"##uch":9412,"88":9413,"regioner":9414,"farven":9415,"investere":9416,"##lægger":9417,"##udb":9418,"sandt":9419,"bordel":9420,"partier":9421,"arkitektur":9422,"kejser":9423,"begrebet":9424,"straf":9425,"##ærket":9426,"koncep":9427,"##billet":9428,"vægge":9429,"##ræning":9430,"skuff":9431,"bekl":9432,"forrige":9433,"##andens":9434,"mølle":9435,"slik":9436,"andelen":9437,"jobbet":9438,"creme":9439,"##alisere":9440,"##adelse":9441,"henvises":9442,"##istens":9443,"fjord":9444,"mobiltelefon":9445,"hall":9446,"designer":9447,"forsigtigt":9448,"klasser":9449,"##fly":9450,"mekan":9451,"##ial":9452,"usikker":9453,"parterne":9454,"arbejdspladsen":9455,"ejeren":9456,"kontrollere":9457,"belæg":9458,"accept":9459,"datoer":9460,"##kasse":9461,"indsatser":9462,"##sket":9463,"tour":9464,"tøm":9465,"individuelt":9466,"kundeservice":9467,"sammenhængende":9468,"afslappet":9469,"taske":9470,"farligt":9471,"miss":9472,"kassen":9473,"gymn":9474,"##ney":9475,"citron":9476,"næse":9477,"krops":9478,"undtagelse":9479,"uly":9480,"##´s":9481,"trekant":9482,"faktor":9483,"##bragt":9484,"##cca":9485,"##test":9486,"vort":9487,"anført":9488,"pædagogisk":9489,"ambul":9490,"generel":9491,"louise":9492,"##ationerne":9493,"##iserende":9494,"##ækken":9495,"kanten":9496,"##erie":9497,"synlig":9498,"derude":9499,"##aktioner":9500,"længst":9501,"afgørelsen":9502,"tube":9503,"instagram":9504,"dal":9505,"sving":9506,"bestyrelsesmed":9507,"##ux":9508,"opsig":9509,"read":9510,"optagelse":9511,"##stilbud":9512,"98":9513,"konting":9514,"ekstern":9515,"##aften":9516,"trygt":9517,"pir":9518,"##elej":9519,"presset":9520,"##kørsel":9521,"robot":9522,"##areal":9523,"danish":9524,"format":9525,"sædvanlige":9526,"unikt":9527,"spænding":9528,"##merende":9529,"##ktøren":9530,"hjemmelavet":9531,"urin":9532,"liber":9533,"forpligtelser":9534,"##æve":9535,"sorg":9536,"cap":9537,"sgu":9538,"tilføjer":9539,"bekæmp":9540,"63":9541,"museet":9542,"##illingen":9543,"fremstar":9544,"##result":9545,"jordbær":9546,"##artet":9547,"##forsyning":9548,"fastholde":9549,"micros":9550,"smage":9551,"karen":9552,"##oci":9553,"forhabentlig":9554,"m²":9555,"reklame":9556,"##vo":9557,"understøtte":9558,"mol":9559,"##talte":9560,"italienske":9561,"tyder":9562,"bygges":9563,"##ife":9564,"studenter":9565,"fuldstænd":9566,"##linge":9567,"kanal":9568,"bryde":9569,"lib":9570,"##ærende":9571,"##sleder":9572,"discipl":9573,"##datter":9574,"beskrives":9575,"##skaff":9576,"udvend":9577,"had":9578,"afbr":9579,"borgmester":9580,"##holt":9581,"miljøm":9582,"japan":9583,"forfatteren":9584,"fastsættes":9585,"princippet":9586,"foranstaltninger":9587,"##fløj":9588,"print":9589,"fur":9590,"liggende":9591,"byradet":9592,"more":9593,"##havet":9594,"styrket":9595,"inf":9596,"61":9597,"kanaler":9598,"kravene":9599,"##bekendt":9600,"bot":9601,"rappor":9602,"opmærksomme":9603,"opgrader":9604,"tilfredsstillende":9605,"##chen":9606,"tob":9607,"journalist":9608,"forbehold":9609,"konstruktion":9610,"sf":9611,"##deligt":9612,"ære":9613,"opstaet":9614,"branche":9615,"dybde":9616,"opsætning":9617,"##sbes":9618,"etn":9619,"mors":9620,"##cm":9621,"delvist":9622,"3d":9623,"yout":9624,"##ora":9625,"##oværd":9626,"##agelse":9627,"lit":9628,"blo":9629,"##ommens":9630,"gevinst":9631,"beboer":9632,"barndom":9633,"hukomm":9634,"##sevne":9635,"kommerci":9636,"klarer":9637,"strikke":9638,"hæve":9639,"##sbet":9640,"##ledningen":9641,"##lær":9642,"behandlinger":9643,"lægemidler":9644,"døgnet":9645,"forandringer":9646,"gig":9647,"fremmede":9648,"mangfold":9649,"udlejning":9650,"petersen":9651,"konkurrenc":9652,"værelserne":9653,"green":9654,"sluttede":9655,"skidt":9656,"supplerende":9657,"flydende":9658,"crem":9659,"træningen":9660,"desser":9661,"udskiftning":9662,"indledning":9663,"iværksæt":9664,"kaj":9665,"nøjes":9666,"##sfri":9667,"fløde":9668,"tidlige":9669,"begreb":9670,"spist":9671,"##arealer":9672,"jordens":9673,"hhv":9674,"skrædder":9675,"##idige":9676,"##styrke":9677,"##egen":9678,"unød":9679,"smukkeste":9680,"herved":9681,"##atten":9682,"##mo":9683,"##uge":9684,"holdninger":9685,"kompleks":9686,"74":9687,"maneders":9688,"##parken":9689,"populært":9690,"feed":9691,"##historie":9692,"udbredt":9693,"æstet":9694,"vo":9695,"##uret":9696,"diabetes":9697,"poin":9698,"ml":9699,"##fac":9700,"services":9701,"##sselskab":9702,"##byen":9703,"nyhedsbrev":9704,"vine":9705,"yoga":9706,"##ging":9707,"broder":9708,"numre":9709,"##eler":9710,"bestilt":9711,"tilbuddet":9712,"britiske":9713,"ec":9714,"##rifter":9715,"brygger":9716,"##eriet":9717,"norske":9718,"hk":9719,"ændrede":9720,"potentielle":9721,"bent":9722,"##assist":9723,"##ryg":9724,"holland":9725,"stillinger":9726,"pi":9727,"indbet":9728,"##umin":9729,"##svirksomhed":9730,"lyden":9731,"hylde":9732,"##muse":9733,"gemt":9734,"##sson":9735,"karl":9736,"hjalp":9737,"##mere":9738,"cig":9739,"svamp":9740,"word":9741,"##elin":9742,"beredskab":9743,"mikr":9744,"arkiv":9745,"konkurrencen":9746,"negativ":9747,"##ktoren":9748,"opfyld":9749,"kloak":9750,"oplyse":9751,"marketing":9752,"note":9753,"lolland":9754,"tall":9755,"##bid":9756,"##kamp":9757,"poly":9758,"indbygget":9759,"arme":9760,"etableres":9761,"##agtig":9762,"put":9763,"##ophold":9764,"##kkel":9765,"problemstillinger":9766,"udskriv":9767,"##ames":9768,"##sbeg":9769,"soldater":9770,"sul":9771,"kristian":9772,"bomuld":9773,"afk":9774,"samarbejdspartnere":9775,"##regel":9776,"##kommet":9777,"##somrade":9778,"##000":9779,"mikro":9780,"##stiller":9781,"##mmede":9782,"dagpenge":9783,"skabes":9784,"hentet":9785,"##meter":9786,"1999":9787,"samlinger":9788,"eder":9789,"uend":9790,"##habil":9791,"tide":9792,"##pul":9793,"termin":9794,"opdaget":9795,"kvadrat":9796,"komplek":9797,"overvægt":9798,"##læggelse":9799,"koste":9800,"##sperson":9801,"sønderjylland":9802,"faget":9803,"##inerne":9804,"bakke":9805,"banken":9806,"##gle":9807,"afsæt":9808,"##ordet":9809,"##creme":9810,"aab":9811,"overfladen":9812,"hjulpet":9813,"oplevelsen":9814,"##ye":9815,"kniv":9816,"seg":9817,"videos":9818,"##besøg":9819,"kartofler":9820,"respekter":9821,"##tre":9822,"palæg":9823,"##behov":9824,"begrænsninger":9825,"ond":9826,"elevernes":9827,"microsoft":9828,"##midler":9829,"træffes":9830,"tomm":9831,"halsen":9832,"rose":9833,"tilpasse":9834,"bh":9835,"faktura":9836,"##skilt":9837,"##box":9838,"##væl":9839,"involveret":9840,"selvstændigt":9841,"ventede":9842,"##oppens":9843,"##gul":9844,"##ybe":9845,"olsen":9846,"optimalt":9847,"ophør":9848,"vacc":9849,"bam":9850,"forkæl":9851,"brøndby":9852,"tvært":9853,"ler":9854,"restauranten":9855,"##umen":9856,"kilo":9857,"##gange":9858,"##amentet":9859,"beslutter":9860,"eva":9861,"cool":9862,"##forslaget":9863,"tegner":9864,"forkerte":9865,"vejleder":9866,"drifts":9867,"##kontrol":9868,"anim":9869,"dommer":9870,"tdc":9871,"check":9872,"analys":9873,"fair":9874,"udviklings":9875,"##val":9876,"##hyd":9877,"mdr":9878,"henviser":9879,"##anvend":9880,"base":9881,"##æren":9882,"anmodning":9883,"##stig":9884,"strip":9885,"rense":9886,"sags":9887,"##vide":9888,"##eliv":9889,"##ighederne":9890,"##ummer":9891,"rigeligt":9892,"##ordninger":9893,"##typer":9894,"skabte":9895,"ovn":9896,"plastik":9897,"##ædagog":9898,"træde":9899,"opfordrer":9900,"paske":9901,"testet":9902,"##vidste":9903,"tilpasset":9904,"71":9905,"##elever":9906,"korrekte":9907,"spær":9908,"dronning":9909,"tilfredshed":9910,"stige":9911,"##parti":9912,"bæl":9913,"##dags":9914,"sprøjte":9915,"sikres":9916,"human":9917,"afsked":9918,"sammenligning":9919,"celler":9920,"spin":9921,"##reber":9922,"grand":9923,"forekomme":9924,"fremstilling":9925,"argang":9926,"emp":9927,"##planer":9928,"##ksen":9929,"glemmer":9930,"høst":9931,"bb":9932,"regionale":9933,"gennemgaet":9934,"vurderet":9935,"kontanthjælp":9936,"##sprogram":9937,"dildo":9938,"politikerne":9939,"sexlegetøj":9940,"johannes":9941,"indsamling":9942,"veninder":9943,"fjernvarme":9944,"argumenter":9945,"anbefal":9946,"hjørring":9947,"##faldet":9948,"##isteriets":9949,"elektroniske":9950,"##data":9951,"temaer":9952,"kw":9953,"forventning":9954,"bød":9955,"danse":9956,"profiler":9957,"krim":9958,"sogne":9959,"depression":9960,"beskytter":9961,"vedvarende":9962,"184":9963,"##oritet":9964,"##oser":9965,"chauff":9966,"##osen":9967,"afholder":9968,"tegnes":9969,"185":9970,"jævnligt":9971,"austral":9972,"##obe":9973,"professionelt":9974,"##pad":9975,"ærlig":9976,"platform":9977,"rulle":9978,"digt":9979,"væsen":9980,"funktionen":9981,"tegnet":9982,"optimal":9983,"opford":9984,"sværere":9985,"##græn":9986,"forvand":9987,"eksempl":9988,"##sser":9989,"##periode":9990,"ringer":9991,"levede":9992,"##kortet":9993,"indført":9994,"ipad":9995,"##konstru":9996,"omh":9997,"home":9998,"##gra":9999,"arbejdst":10000,"inse":10001,"##pakke":10002,"effekter":10003,"værket":10004,"tykke":10005,"##sbesk":10006,"opdager":10007,"86":10008,"resterende":10009,"zo":10010,"79":10011,"78":10012,"##visningen":10013,"selvstændige":10014,"##anerne":10015,"##fre":10016,"##astrof":10017,"##forløbet":10018,"lover":10019,"##progra":10020,"ryst":10021,"sparer":10022,"##pine":10023,"##æssige":10024,"jubilæum":10025,"fokuserer":10026,"eksam":10027,"ift":10028,"ansættelses":10029,"vendt":10030,"##gebyr":10031,"jazz":10032,"blan":10033,"opgav":10034,"noter":10035,"##livet":10036,"##arn":10037,"fordeling":10038,"sandheden":10039,"##træning":10040,"drevet":10041,"høn":10042,"legal":10043,"haver":10044,"billetter":10045,"##rejser":10046,"##kage":10047,"oversku":10048,"fødevare":10049,"forstas":10050,"##miljø":10051,"fødslen":10052,"hjemmefra":10053,"##stjen":10054,"kærligheden":10055,"tilber":10056,"charmerende":10057,"##risk":10058,"anbefaling":10059,"passion":10060,"drikker":10061,"motivation":10062,"tynde":10063,"77":10064,"##enting":10065,"skabel":10066,"videregaende":10067,"tilføjet":10068,"##oplevelser":10069,"varem":10070,"rets":10071,"tone":10072,"risikerer":10073,"##ilbud":10074,"emball":10075,"prom":10076,"specifikt":10077,"veget":10078,"##indhold":10079,"milliarder":10080,"##edr":10081,"dennes":10082,"afgang":10083,"børnehave":10084,"ejendomsm":10085,"herren":10086,"pavirket":10087,"##iter":10088,"bygher":10089,"##styrelsens":10090,"læses":10091,"ydes":10092,"effekten":10093,"##atorisk":10094,"glide":10095,"træet":10096,"##mma":10097,"pak":10098,"##ards":10099,"snarere":10100,"##evne":10101,"sikring":10102,"faktum":10103,"beskad":10104,"søgte":10105,"borde":10106,"isolering":10107,"opdagede":10108,"jack":10109,"thi":10110,"seksuel":10111,"##tigt":10112,"##valtningen":10113,"posten":10114,"accepterer":10115,"folkeskolen":10116,"##tens":10117,"##aede":10118,"opvarmning":10119,"bras":10120,"##sministeren":10121,"cup":10122,"sydlige":10123,"ager":10124,"##speci":10125,"videns":10126,"##tigheder":10127,"pæne":10128,"smartphones":10129,"varierer":10130,"talmod":10131,"underviser":10132,"forsam":10133,"kriterier":10134,"delvis":10135,"foretrukne":10136,"sponsor":10137,"udfylde":10138,"##ular":10139,"sites":10140,"aner":10141,"##meddel":10142,"##agtige":10143,"virt":10144,"##ifi":10145,"##bon":10146,"##ooth":10147,"ejendoms":10148,"##18":10149,"##fyn":10150,"udgangen":10151,"trækkes":10152,"skander":10153,"##sprocessen":10154,"##frastruktur":10155,"##kons":10156,"utallige":10157,"##ringes":10158,"##skomm":10159,"mikkel":10160,"##istrik":10161,"##svæsen":10162,"persond":10163,"forbedringer":10164,"strid":10165,"optage":10166,"##ulære":10167,"rødt":10168,"males":10169,"##oph":10170,"aspekter":10171,"sved":10172,"##ara":10173,"##zon":10174,"##iere":10175,"skibe":10176,"sofaen":10177,"bøj":10178,"forlader":10179,"terræn":10180,"udarbejdelse":10181,"spændt":10182,"ovennævnte":10183,"bogstav":10184,"mov":10185,"hjælpemidler":10186,"leger":10187,"udarbejdes":10188,"bron":10189,"past":10190,"##onten":10191,"skæb":10192,"##analyse":10193,"plader":10194,"##15":10195,"halve":10196,"udefra":10197,"##arne":10198,"eksklusive":10199,"##industrien":10200,"troværd":10201,"##sfag":10202,"tung":10203,"betjen":10204,"##fred":10205,"alles":10206,"reduceret":10207,"asyl":10208,"truffet":10209,"turister":10210,"##okaler":10211,"spidsen":10212,"menstruation":10213,"##anken":10214,"rammerne":10215,"frems":10216,"son":10217,"vifte":10218,"minister":10219,"forsink":10220,"##brit":10221,"##ikkens":10222,"##elet":10223,"##point":10224,"##osp":10225,"##ieret":10226,"##dede":10227,"##adresse":10228,"##ikal":10229,"##25":10230,"dagtilbud":10231,"virkelige":10232,"hvorpa":10233,"##uller":10234,"linjer":10235,"##information":10236,"lærte":10237,"input":10238,"handkl":10239,"reduktion":10240,"ramte":10241,"vejer":10242,"##ænkning":10243,"revolution":10244,"##esko":10245,"discla":10246,"##ændringer":10247,"snit":10248,"##holdning":10249,"bestræ":10250,"belysning":10251,"stren":10252,"budskab":10253,"##ylden":10254,"sønderborg":10255,"##scenter":10256,"konklusion":10257,"1990":10258,"afslapp":10259,"modtagelse":10260,"videnskabelige":10261,"##omet":10262,"##unge":10263,"##gørende":10264,"forebygge":10265,"melde":10266,"standarder":10267,"87":10268,"disclaimer":10269,"##feltet":10270,"##bureau":10271,"vandret":10272,"fortællinger":10273,"klat":10274,"##hurt":10275,"bit":10276,"afkast":10277,"steen":10278,"udmærket":10279,"tværtimod":10280,"sandhed":10281,"##amm":10282,"sci":10283,"homo":10284,"detail":10285,"optræder":10286,"traditionel":10287,"valby":10288,"##mes":10289,"##aming":10290,"sidstnævnte":10291,"cover":10292,"die":10293,"##aliserede":10294,"flok":10295,"rec":10296,"matcher":10297,"vinduet":10298,"##ella":10299,"latin":10300,"firmaer":10301,"wo":10302,"pornostjerne":10303,"debut":10304,"tillykke":10305,"##øser":10306,"##skur":10307,"##skader":10308,"##yste":10309,"søgt":10310,"batteri":10311,"73":10312,"størsted":10313,"shopping":10314,"ure":10315,"chok":10316,"guit":10317,"forsikringen":10318,"##issen":10319,"mælke":10320,"forlag":10321,"temperaturen":10322,"folketing":10323,"permanent":10324,"bakterier":10325,"gader":10326,"ansættelse":10327,"##ulighed":10328,"coach":10329,"display":10330,"chancen":10331,"##emal":10332,"evnen":10333,"frivilligt":10334,"##splanen":10335,"abningstider":10336,"##isol":10337,"kundens":10338,"##middel":10339,"fastsl":10340,"##rapporten":10341,"sædceller":10342,"handværker":10343,"varmepum":10344,"repræsenteret":10345,"nordlige":10346,"bureau":10347,"læber":10348,"udviklede":10349,"netværket":10350,"ordning":10351,"gavekort":10352,"##hjel":10353,"bd":10354,"veks":10355,"opdatering":10356,"inkluderet":10357,"formue":10358,"##ianter":10359,"renter":10360,"##stad":10361,"parken":10362,"opstod":10363,"spisest":10364,"medierne":10365,"hoppe":10366,"serveret":10367,"forberedt":10368,"schwe":10369,"##radgiver":10370,"##inci":10371,"opstart":10372,"math":10373,"##ægte":10374,"##drages":10375,"gren":10376,"ingenting":10377,"##egarden":10378,"##bs":10379,"citat":10380,"##rettede":10381,"licens":10382,"vvs":10383,"forside":10384,"udforske":10385,"faktiske":10386,"skæv":10387,"homoseksuelle":10388,"bedes":10389,"rejst":10390,"skanderborg":10391,"##skema":10392,"opbygning":10393,"embed":10394,"eksisterer":10395,"rimeligt":10396,"etik":10397,"byggeriet":10398,"ugers":10399,"skum":10400,"apps":10401,"##liste":10402,"##centre":10403,"mails":10404,"samles":10405,"returner":10406,"hemmelig":10407,"stoppede":10408,"##venlig":10409,"himlen":10410,"##rent":10411,"##rerer":10412,"##hn":10413,"##sti":10414,"venskab":10415,"kampagne":10416,"ovenpa":10417,"##anda":10418,"##aterialer":10419,"89":10420,"anvendte":10421,"fjerner":10422,"##ribut":10423,"kødet":10424,"avisen":10425,"ejere":10426,"##mot":10427,"##rapp":10428,"tilhører":10429,"politiken":10430,"##branchen":10431,"øjeblikk":10432,"forbedret":10433,"luk":10434,"afspejler":10435,"##si":10436,"##skop":10437,"##avne":10438,"slank":10439,"formar":10440,"kompens":10441,"solgte":10442,"konsul":10443,"fold":10444,"##ografi":10445,"beskæftiger":10446,"astr":10447,"tandlæge":10448,"genstande":10449,"køretøjer":10450,"tusindvis":10451,"ferien":10452,"farlige":10453,"this":10454,"##program":10455,"##ificering":10456,"skarpe":10457,"eftermiddagen":10458,"##højde":10459,"##saftale":10460,"glip":10461,"##sgade":10462,"enorme":10463,"##indlæg":10464,"europæisk":10465,"forsyning":10466,"alders":10467,"administrative":10468,"tabte":10469,"størstedelen":10470,"fortjener":10471,"non":10472,"76":10473,"tilbudt":10474,"affilierede":10475,"##ødder":10476,"##bukser":10477,"kompromis":10478,"forsiden":10479,"montering":10480,"vindue":10481,"mex":10482,"spillerne":10483,"hals":10484,"opleves":10485,"pakket":10486,"følelsen":10487,"mess":10488,"blodet":10489,"##bygget":10490,"##nor":10491,"parf":10492,"nedbr":10493,"hede":10494,"##ostrup":10495,"alting":10496,"##væsen":10497,"julen":10498,"##ænkt":10499,"røn":10500,"skriftlige":10501,"youtube":10502,"##omkostninger":10503,"papeg":10504,"pøl":10505,"tusinde":10506,"personal":10507,"##rikken":10508,"phil":10509,"muskel":10510,"stoffet":10511,"##førende":10512,"beretning":10513,"pant":10514,"hyd":10515,"##yper":10516,"##prøver":10517,"smartphone":10518,"skema":10519,"laborator":10520,"vug":10521,"byr":10522,"##verdenen":10523,"wil":10524,"endeligt":10525,"palid":10526,"##ursus":10527,"ster":10528,"almene":10529,"##rol":10530,"hylder":10531,"konflikter":10532,"debatten":10533,"##ml":10534,"tegninger":10535,"96":10536,"ogsaa":10537,"kategorien":10538,"venligt":10539,"opløsning":10540,"##gives":10541,"##baseret":10542,"ordningen":10543,"tv2":10544,"rug":10545,"##4for":10546,"mands":10547,"##prisen":10548,"tro4for":10549,"ded":10550,"enheden":10551,"ork":10552,"mødre":10553,"fisker":10554,"drengene":10555,"##styring":10556,"linket":10557,"##uf":10558,"##instru":10559,"##lege":10560,"tum":10561,"##endelsen":10562,"nærings":10563,"salget":10564,"badeværelset":10565,"fortid":10566,"dybere":10567,"##profil":10568,"gold":10569,"begrænse":10570,"##stjeneste":10571,"lufthavnen":10572,"##ners":10573,"bæredygtig":10574,"##hh":10575,"arbejdstid":10576,"##ækkende":10577,"besøgt":10578,"pod":10579,"##espørg":10580,"gennemførelse":10581,"##speriode":10582,"virus":10583,"diskutere":10584,"aftensmad":10585,"##aktør":10586,"stolte":10587,"##sholm":10588,"fællesskabet":10589,"menneskets":10590,"uop":10591,"kommenter":10592,"##ulerer":10593,"tildelt":10594,"italiensk":10595,"sadant":10596,"baden":10597,"score":10598,"##atch":10599,"##uddannelser":10600,"parforhold":10601,"##spris":10602,"præmie":10603,"økonomien":10604,"telt":10605,"regning":10606,"østrig":10607,"kjær":10608,"bestilte":10609,"tankerne":10610,"vægttab":10611,"original":10612,"frederikshavn":10613,"##inens":10614,"betjening":10615,"overskrift":10616,"skor":10617,"beregnes":10618,"skilsm":10619,"uund":10620,"kommand":10621,"installeret":10622,"##kammer":10623,"landsd":10624,"global":10625,"ravarer":10626,"sekretariat":10627,"mav":10628,"bestiller":10629,"##vogne":10630,"##rukket":10631,"immun":10632,"indbrud":10633,"##ificerede":10634,"inspirerende":10635,"drage":10636,"##indsats":10637,"abnes":10638,"##sprojekter":10639,"angive":10640,"lot":10641,"##ype":10642,"##till":10643,"længden":10644,"wal":10645,"##stykke":10646,"##fast":10647,"##afgift":10648,"bytte":10649,"færø":10650,"##appar":10651,"gummi":10652,"##skvalitet":10653,"trives":10654,"##olde":10655,"unges":10656,"##eled":10657,"##midt":10658,"formidling":10659,"blødt":10660,"##ellet":10661,"medicinsk":10662,"##markedet":10663,"ankomst":10664,"orange":10665,"##ams":10666,"must":10667,"jød":10668,"reparation":10669,"arbejdsløs":10670,"snap":10671,"##mærker":10672,"##enn":10673,"##venlige":10674,"jyske":10675,"strø":10676,"ægtefælle":10677,"##cts":10678,"##24":10679,"deltaget":10680,"##sproc":10681,"##vilkar":10682,"polen":10683,"klagen":10684,"øjet":10685,"##13":10686,"endt":10687,"lanet":10688,"##sbr":10689,"festiv":10690,"kontoret":10691,"##ript":10692,"bond":10693,"hvile":10694,"militær":10695,"##ous":10696,"forvaltning":10697,"tværfag":10698,"##iserer":10699,"sæde":10700,"heldige":10701,"observer":10702,"##sprodukter":10703,"beskyttet":10704,"rader":10705,"lønmod":10706,"navig":10707,"reflekter":10708,"udsigten":10709,"ce":10710,"parat":10711,"##hoved":10712,"nederst":10713,"##spring":10714,"biblioteket":10715,"inc":10716,"speciale":10717,"indeks":10718,"##spension":10719,"##oppet":10720,"tilmelde":10721,"sande":10722,"smed":10723,"kroppens":10724,"##ory":10725,"skulpt":10726,"1998":10727,"kravet":10728,"opbygge":10729,"røre":10730,"##14":10731,"selvm":10732,"lytter":10733,"pabegynd":10734,"forøg":10735,"1800":10736,"##anlægget":10737,"##gennem":10738,"house":10739,"klø":10740,"foruds":10741,"samvit":10742,"kraftige":10743,"grundig":10744,"køle":10745,"vig":10746,"loftet":10747,"forstaet":10748,"malgruppe":10749,"vinkel":10750,"bestemmelse":10751,"binde":10752,"##19":10753,"meningen":10754,"hovedstad":10755,"banker":10756,"usikkerhed":10757,"hygiej":10758,"opbygget":10759,"##skar":10760,"##enden":10761,"regulering":10762,"udvidelse":10763,"garder":10764,"fejre":10765,"told":10766,"pakken":10767,"forordning":10768,"##yrer":10769,"##astrup":10770,"##anere":10771,"sams":10772,"afb":10773,"livmoder":10774,"jøder":10775,"trist":10776,"##sproblemer":10777,"identificere":10778,"bundet":10779,"##plo":10780,"fet":10781,"##krav":10782,"ringsted":10783,"brændstof":10784,"alternative":10785,"filter":10786,"udkast":10787,"82":10788,"sovjet":10789,"##peten":10790,"##askiner":10791,"##itten":10792,"tech":10793,"spilles":10794,"bjørn":10795,"indtægt":10796,"colle":10797,"bestod":10798,"##itiv":10799,"has":10800,"stemningen":10801,"tiltrække":10802,"seksuelt":10803,"garant":10804,"##sj":10805,"veter":10806,"infrastruktur":10807,"atom":10808,"##sprogra":10809,"typen":10810,"retss":10811,"ukendt":10812,"elite":10813,"gucca":10814,"opretholde":10815,"##etid":10816,"udbetalt":10817,"mellemrum":10818,"##værdige":10819,"nervøs":10820,"##nens":10821,"teknikker":10822,"forberede":10823,"##ættet":10824,"sandsynlighed":10825,"udsl":10826,"systematisk":10827,"##fod":10828,"dræbt":10829,"dannet":10830,"##zone":10831,"mistede":10832,"lovens":10833,"##egning":10834,"tredj":10835,"dun":10836,"nætter":10837,"bandet":10838,"hvorved":10839,"##aterer":10840,"##saktiv":10841,"husdyr":10842,"df":10843,"morg":10844,"##stens":10845,"##stillings":10846,"##oklip":10847,"overvagning":10848,"83":10849,"indbyggere":10850,"tons":10851,"##fødte":10852,"efterløn":10853,"skygge":10854,"ødelægge":10855,"##ai":10856,"maksimalt":10857,"afrika":10858,"##skin":10859,"opbevares":10860,"fonden":10861,"øvelse":10862,"ansøgningen":10863,"92":10864,"begreber":10865,"gravide":10866,"##ray":10867,"ryge":10868,"kvarter":10869,"langsigt":10870,"##idte":10871,"taller":10872,"transpor":10873,"voksende":10874,"stav":10875,"##aminer":10876,"##egnes":10877,"referat":10878,"anelse":10879,"klinisk":10880,"storbrit":10881,"tændt":10882,"udfordrende":10883,"udførelse":10884,"1970":10885,"adgangskode":10886,"velkomne":10887,"birg":10888,"opdage":10889,"##ældre":10890,"##riterende":10891,"medfør":10892,"alumin":10893,"medarbejderen":10894,"menneskeret":10895,"hæk":10896,"manglede":10897,"als":10898,"##ariske":10899,"knu":10900,"føres":10901,"kinesiske":10902,"hvidløg":10903,"##ivelse":10904,"##elovens":10905,"seriøst":10906,"instruktør":10907,"##pension":10908,"skit":10909,"parlament":10910,"afgørelser":10911,"##omst":10912,"svage":10913,"##ygdom":10914,"kaster":10915,"##delen":10916,"forlod":10917,"pia":10918,"fornød":10919,"girl":10920,"klippe":10921,"malene":10922,"sproget":10923,"pic":10924,"skibet":10925,"##yggeligt":10926,"undersøger":10927,"kaldte":10928,"ped":10929,"##aliteter":10930,"arrangementet":10931,"opbakning":10932,"sikke":10933,"##afdeling":10934,"##fulgt":10935,"hvidovre":10936,"lægemiddel":10937,"##foreninger":10938,"tidens":10939,"frid":10940,"bac":10941,"vidner":10942,"svine":10943,"street":10944,"samspil":10945,"radet":10946,"vidunderlige":10947,"mærkeligt":10948,"##ives":10949,"infektion":10950,"læseren":10951,"##fyldt":10952,"##xt":10953,"tegning":10954,"mem":10955,"dt":10956,"fiber":10957,"##chat":10958,"##emaet":10959,"stam":10960,"parret":10961,"fleksibel":10962,"udvikles":10963,"sec":10964,"sau":10965,"auto":10966,"understreger":10967,"##strækning":10968,"eksamens":10969,"##elskab":10970,"dimension":10971,"700":10972,"lene":10973,"##institution":10974,"koncerter":10975,"reform":10976,"teste":10977,"mønstre":10978,"ling":10979,"race":10980,"kirsten":10981,"køleskabet":10982,"##icerede":10983,"regnet":10984,"##bordet":10985,"##70":10986,"overraskelse":10987,"old":10988,"sjældne":10989,"wik":10990,"vink":10991,"foreslar":10992,"##ævner":10993,"strik":10994,"slette":10995,"aktuelt":10996,"bestyrelsens":10997,"##sbeting":10998,"regeringens":10999,"dyrere":11000,"##sform":11001,"##geren":11002,"indk":11003,"##fundet":11004,"ze":11005,"fremtræ":11006,"##farve":11007,"teat":11008,"hon":11009,"nævner":11010,"storbritann":11011,"inspirere":11012,"parall":11013,"import":11014,"benzin":11015,"shem":11016,"##rop":11017,"hf":11018,"von":11019,"##ti":11020,"indv":11021,"melod":11022,"gh":11023,"##endom":11024,"rask":11025,"angri":11026,"##anceret":11027,"##autom":11028,"##bede":11029,"hanne":11030,"##imeter":11031,"dreje":11032,"kliniske":11033,"kommunikere":11034,"##ran":11035,"##leden":11036,"slip":11037,"##kultur":11038,"kirur":11039,"forbudt":11040,"jose":11041,"datings":11042,"digitalt":11043,"soveværelse":11044,"##krig":11045,"religiøse":11046,"tilsk":11047,"domstol":11048,"dl":11049,"menigheds":11050,"besta":11051,"##ateres":11052,"obs":11053,"vedtægter":11054,"metoden":11055,"indrømme":11056,"præsenteres":11057,"udlændinge":11058,"falster":11059,"tvunget":11060,"##brudt":11061,"sagens":11062,"afhent":11063,"grundlagt":11064,"cigaret":11065,"##ical":11066,"cyklen":11067,"tarn":11068,"indsig":11069,"##klen":11070,"##billede":11071,"konceptet":11072,"tillade":11073,"budgettet":11074,"romer":11075,"##rænding":11076,"##ppes":11077,"træffer":11078,"scenar":11079,"##iblandt":11080,"84":11081,"nærmer":11082,"aluminium":11083,"varieret":11084,"sandsynligt":11085,"##ydelses":11086,"epis":11087,"toget":11088,"##piller":11089,"uni":11090,"##ækker":11091,"skuffet":11092,"partnere":11093,"ansøgninger":11094,"væn":11095,"godkendte":11096,"inviterer":11097,"spejl":11098,"konkluder":11099,"indstillet":11100,"enden":11101,"##sbid":11102,"kandidater":11103,"laveste":11104,"##afdelingen":11105,"junior":11106,"anerkendelse":11107,"fastsætte":11108,"magnet":11109,"omhand":11110,"tarm":11111,"krog":11112,"fog":11113,"redde":11114,"##ala":11115,"##umre":11116,"imødekommende":11117,"##rerede":11118,"##lovens":11119,"synlige":11120,"andro":11121,"placere":11122,"erg":11123,"kneppe":11124,"juridiske":11125,"bonde":11126,"makeup":11127,"mændene":11128,"##amper":11129,"erind":11130,"keram":11131,"gennemsigt":11132,"##esex":11133,"schweiz":11134,"betingelserne":11135,"##ev":11136,"støvler":11137,"præd":11138,"##core":11139,"applik":11140,"carsten":11141,"mht":11142,"snor":11143,"lærerne":11144,"##ary":11145,"##sonen":11146,"##skontrol":11147,"usb":11148,"tos":11149,"##skræ":11150,"rehabil":11151,"reklamer":11152,"fryser":11153,"administrer":11154,"spek":11155,"##itive":11156,"ærligt":11157,"manu":11158,"mørkt":11159,"apos":11160,"medlemsstat":11161,"box":11162,"konference":11163,"morgenmaden":11164,"melder":11165,"videoklip":11166,"denmark":11167,"##brugt":11168,"tørt":11169,"##spørg":11170,"udlejer":11171,"servicen":11172,"##kvens":11173,"good":11174,"##aka":11175,"pille":11176,"sod":11177,"##kul":11178,"##raktive":11179,"skræddersy":11180,"kontingent":11181,"erklær":11182,"indien":11183,"prostitu":11184,"##agtigt":11185,"##skede":11186,"##yden":11187,"anerkendt":11188,"##teker":11189,"lesbisk":11190,"##plom":11191,"formel":11192,"plej":11193,"##ilj":11194,"kh":11195,"##ki":11196,"fyldte":11197,"overnatning":11198,"##møder":11199,"dosis":11200,"hegn":11201,"##staet":11202,"arrække":11203,"rykker":11204,"##dren":11205,"lovgivningen":11206,"projektets":11207,"katastrof":11208,"henvendelser":11209,"##pat":11210,"sygeplejerske":11211,"##ands":11212,"royal":11213,"tallene":11214,"øges":11215,"velsmag":11216,"smit":11217,"præstation":11218,"oversættelse":11219,"##lejning":11220,"bussen":11221,"##arked":11222,"louis":11223,"festen":11224,"screen":11225,"dømt":11226,"søer":11227,"ruten":11228,"##give":11229,"##smag":11230,"kager":11231,"søskende":11232,"##ageret":11233,"ansvarlige":11234,"opvaske":11235,"##armen":11236,"##act":11237,"udgifterne":11238,"fuldstændigt":11239,"forinden":11240,"##støtte":11241,"produktions":11242,"sun":11243,"irriterende":11244,"springe":11245,"93":11246,"ruder":11247,"rødovre":11248,"##værdier":11249,"##sbyg":11250,"vrede":11251,"palæst":11252,"husets":11253,"varetage":11254,"##odt":11255,"flex":11256,"afsnittet":11257,"variere":11258,"anvendelsen":11259,"##gisk":11260,"børnet":11261,"juletræ":11262,"attraktive":11263,"##16":11264,"##strategi":11265,"##overe":11266,"##ize":11267,"medvirke":11268,"neur":11269,"nykøbing":11270,"97":11271,"dispens":11272,"##værdig":11273,"##ums":11274,"rekord":11275,"mix":11276,"berling":11277,"udsagn":11278,"slim":11279,"tilmeldt":11280,"rekruttering":11281,"##otiske":11282,"komplekse":11283,"dyrker":11284,"redegørelse":11285,"##entre":11286,"kameraet":11287,"##annoncer":11288,"##elor":11289,"##ærm":11290,"spirit":11291,"cle":11292,"rober":11293,"##jour":11294,"kæledyr":11295,"portug":11296,"marker":11297,"portion":11298,"1980":11299,"##ktører":11300,"##install":11301,"##du":11302,"dab":11303,"forberedelse":11304,"indire":11305,"##elem":11306,"niveauet":11307,"videoen":11308,"skudt":11309,"##virkende":11310,"##betændelse":11311,"##bade":11312,"##forme":11313,"eje":11314,"ekspon":11315,"irri":11316,"##ummet":11317,"##æver":11318,"forbliver":11319,"bekymring":11320,"ordinære":11321,"##maling":11322,"ligget":11323,"analyt":11324,"samtalen":11325,"ringede":11326,"implementering":11327,"naz":11328,"##melding":11329,"vinen":11330,"veder":11331,"sviger":11332,"hemmelighed":11333,"juridisk":11334,"##egnede":11335,"sofie":11336,"##ence":11337,"latter":11338,"hobby":11339,"bekymret":11340,"kærlig":11341,"uges":11342,"##zen":11343,"autent":11344,"indirekte":11345,"##iverset":11346,"patienterne":11347,"lugt":11348,"grundlaget":11349,"##rudt":11350,"brune":11351,"efterskole":11352,"##staver":11353,"##ress":11354,"lidelser":11355,"tætte":11356,"svin":11357,"kristus":11358,"egentlige":11359,"færdigt":11360,"hang":11361,"kvalifik":11362,"##reder":11363,"##projekter":11364,"##eløs":11365,"ærger":11366,"cykelt":11367,"##afrik":11368,"porte":11369,"fig":11370,"android":11371,"onde":11372,"underligt":11373,"visit":11374,"##orienteret":11375,"naar":11376,"##dene":11377,"opdelt":11378,"klæde":11379,"ubet":11380,"strej":11381,"ingeniør":11382,"negle":11383,"forbr":11384,"##økken":11385,"domæn":11386,"godkendes":11387,"##teg":11388,"habet":11389,"ic":11390,"realkredit":11391,"##erencen":11392,"##igtig":11393,"langvar":11394,"trykker":11395,"trafikken":11396,"##omi":11397,"gennemgar":11398,"marian":11399,"passager":11400,"frik":11401,"110":11402,"##ee":11403,"samvittighed":11404,"ordene":11405,"besvare":11406,"skjult":11407,"demokrati":11408,"##udbyder":11409,"familiens":11410,"##iko":11411,"##asing":11412,"##tning":11413,"stemp":11414,"##shosp":11415,"erst":11416,"##skel":11417,"skuespil":11418,"selvmord":11419,"hellige":11420,"##sre":11421,"##tigede":11422,"##draget":11423,"virkeligt":11424,"omfatte":11425,"tidspunkter":11426,"byrad":11427,"##ofte":11428,"indledende":11429,"##læde":11430,"lut":11431,"taber":11432,"dukke":11433,"strækker":11434,"host":11435,"signaler":11436,"ødelagt":11437,"reagerer":11438,"innovative":11439,"barns":11440,"opgaverne":11441,"udgangspunktet":11442,"##itis":11443,"entreprenør":11444,"##brog":11445,"sed":11446,"andreas":11447,"bay":11448,"artier":11449,"monteres":11450,"efterspørgsel":11451,"løfter":11452,"glostrup":11453,"afslører":11454,"tidspunktet":11455,"##parten":11456,"##ugler":11457,"gevin":11458,"haderslev":11459,"##ligter":11460,"kongelige":11461,"db":11462,"##ting":11463,"##apning":11464,"##kær":11465,"serier":11466,"stund":11467,"##klubben":11468,"forsker":11469,"##fejl":11470,"sammensat":11471,"##vang":11472,"##uderende":11473,"##iøs":11474,"vitaminer":11475,"fortrol":11476,"malsætning":11477,"madlav":11478,"##80":11479,"gæste":11480,"bredband":11481,"hop":11482,"grundvand":11483,"fantasier":11484,"kosttilskud":11485,"pensions":11486,"##vem":11487,"kvalificeret":11488,"##abon":11489,"herfor":11490,"##iche":11491,"iagt":11492,"klædt":11493,"tang":11494,"dedik":11495,"##eloven":11496,"lykkelig":11497,"tønder":11498,"##isted":11499,"vægten":11500,"##pligtige":11501,"diplom":11502,"iii":11503,"##butik":11504,"sagsbehandling":11505,"spansk":11506,"##flade":11507,"##dy":11508,"opp":11509,"los":11510,"##begræn":11511,"siderne":11512,"tiv":11513,"chancer":11514,"fritids":11515,"sexede":11516,"##ideret":11517,"bekæm":11518,"##stur":11519,"georg":11520,"briller":11521,"lighed":11522,"strategisk":11523,"##17":11524,"daværende":11525,"beskat":11526,"sparring":11527,"pern":11528,"room":11529,"detalj":11530,"tilsammen":11531,"terapi":11532,"bik":11533,"scener":11534,"gel":11535,"samsung":11536,"##holdende":11537,"kysten":11538,"hjørnet":11539,"##yng":11540,"multi":11541,"jobs":11542,"##lens":11543,"hjælpsomme":11544,"deles":11545,"esp":11546,"udtaler":11547,"arom":11548,"##ælde":11549,"varianter":11550,"adop":11551,"semin":11552,"perform":11553,"tyver":11554,"rejs":11555,"##baner":11556,"adresser":11557,"hinandens":11558,"##hjer":11559,"opdagelse":11560,"trygge":11561,"##regne":11562,"drengen":11563,"vinden":11564,"skjold":11565,"floden":11566,"##roen":11567,"figurer":11568,"##visor":11569,"class":11570,"separat":11571,"herlev":11572,"open":11573,"øer":11574,"forleden":11575,"##kontakt":11576,"cand":11577,"kronisk":11578,"nederste":11579,"##ktail":11580,"overholde":11581,"##gelser":11582,"##itering":11583,"konvention":11584,"analysen":11585,"gennemsnitlig":11586,"bæredygtighed":11587,"funktionalitet":11588,"ugens":11589,"opdatere":11590,"indtræ":11591,"may":11592,"velsmagende":11593,"##mak":11594,"##cast":11595,"flow":11596,"tilgængeligt":11597,"tradte":11598,"fingrene":11599,"##æge":11600,"##varet":11601,"forank":11602,"angel":11603,"sult":11604,"præcise":11605,"##arige":11606,"##ents":11607,"##eser":11608,"kæde":11609,"journalister":11610,"kollegaer":11611,"##arrange":11612,"##lut":11613,"##ftere":11614,"mistanke":11615,"gribe":11616,"flo":11617,"overgreb":11618,"##holdte":11619,"befri":11620,"##jælp":11621,"udpeget":11622,"beslutte":11623,"drikkevarer":11624,"skolerne":11625,"begrav":11626,"##værdien":11627,"partiet":11628,"##hente":11629,"##forbruget":11630,"landsdækkende":11631,"afkl":11632,"landskabet":11633,"##pædagog":11634,"##ace":11635,"##magt":11636,"afholde":11637,"##ae":11638,"##stolen":11639,"afløb":11640,"##klet":11641,"feedback":11642,"##gerende":11643,"##abe":11644,"##ool":11645,"##stole":11646,"##lel":11647,"opad":11648,"wi":11649,"genstand":11650,"##landsk":11651,"herrer":11652,"downloade":11653,"##upunkt":11654,"##ates":11655,"sundhedsvæsen":11656,"konger":11657,"erstatte":11658,"##yen":11659,"##ians":11660,"pej":11661,"guler":11662,"legem":11663,"diagnost":11664,"##kelse":11665,"næsen":11666,"##resund":11667,"opgørelse":11668,"agt":11669,"##ænker":11670,"anbring":11671,"##spladsen":11672,"##kob":11673,"beskeder":11674,"##ævnt":11675,"udgøre":11676,"##viste":11677,"traditionelt":11678,"gardiner":11679,"##ppede":11680,"sejler":11681,"maltider":11682,"tyrkiet":11683,"forespørg":11684,"##sformer":11685,"formod":11686,"livets":11687,"fleksibilitet":11688,"velkomst":11689,"##sving":11690,"daniel":11691,"##ælk":11692,"##kat":11693,"torben":11694,"doser":11695,"fattige":11696,"konfirm":11697,"ihjel":11698,"rh":11699,"sut":11700,"bøgerne":11701,"grov":11702,"##støj":11703,"forarsage":11704,"##saktiviteter":11705,"uddan":11706,"øgede":11707,"##beløb":11708,"##sperioden":11709,"run":11710,"inkluderer":11711,"ox":11712,"ida":11713,"rast":11714,"ophav":11715,"##interes":11716,"squ":11717,"##word":11718,"pend":11719,"from":11720,"##bygningen":11721,"perspektiver":11722,"sammensætning":11723,"pressemeddel":11724,"pud":11725,"tomme":11726,"arbejdsopgaver":11727,"magn":11728,"nyborg":11729,"omegn":11730,"omdrej":11731,"tilfældigt":11732,"harry":11733,"tekstil":11734,"vurderingen":11735,"1997":11736,"flu":11737,"##værktøj":11738,"een":11739,"enighed":11740,"##fit":11741,"##sforsikring":11742,"stak":11743,"katol":11744,"##terings":11745,"besparelser":11746,"blid":11747,"frustr":11748,"smidt":11749,"energik":11750,"planlagte":11751,"vul":11752,"inddrage":11753,"repu":11754,"køretøj":11755,"##reve":11756,"dress":11757,"##ametre":11758,"indsk":11759,"kritiske":11760,"filen":11761,"fastsætter":11762,"kirker":11763,"jom":11764,"kombinere":11765,"klikker":11766,"egentligt":11767,"rækkefølge":11768,"ik":11769,"købmand":11770,"kran":11771,"elektrisk":11772,"##ors":11773,"velly":11774,"risici":11775,"kemikal":11776,"##skridt":11777,"rapporter":11778,"##fonden":11779,"##orts":11780,"king":11781,"##kkene":11782,"laks":11783,"##ativer":11784,"nydelse":11785,"voksede":11786,"##egler":11787,"ast":11788,"spekt":11789,"forfattere":11790,"akvar":11791,"skulde":11792,"spild":11793,"ventilation":11794,"##virksomheder":11795,"omgivet":11796,"synet":11797,"tilbag":11798,"##maskiner":11799,"##inket":11800,"ejendomsmægler":11801,"aftalte":11802,"tegl":11803,"reaktioner":11804,"forbindelser":11805,"ged":11806,"gymnasium":11807,"win":11808,"##vidde":11809,"dyrene":11810,"##type":11811,"storby":11812,"flytning":11813,"efterlader":11814,"dirig":11815,"kult":11816,"forudsætter":11817,"kunsten":11818,"storbritannien":11819,"beslutningen":11820,"realitet":11821,"afgøre":11822,"split":11823,"kit":11824,"hovedsageligt":11825,"forsvandt":11826,"laser":11827,"##fælde":11828,"universitetet":11829,"kemi":11830,"bragte":11831,"prins":11832,"underholdende":11833,"adam":11834,"spanske":11835,"arlig":11836,"##ikre":11837,"gryde":11838,"mogens":11839,"spark":11840,"ilt":11841,"salgs":11842,"stab":11843,"udleveret":11844,"anlægs":11845,"australien":11846,"cvr":11847,"##arbejdere":11848,"japanske":11849,"henne":11850,"##plejen":11851,"svampe":11852,"beskyttelses":11853,"kedeligt":11854,"incl":11855,"##ern":11856,"##oe":11857,"oprettelse":11858,"fm":11859,"sanger":11860,"inten":11861,"guid":11862,"udtrykke":11863,"dominans":11864,"kasper":11865,"sutte":11866,"slikke":11867,"alu":11868,"1960":11869,"##pes":11870,"privatliv":11871,"landshold":11872,"flitt":11873,"##pool":11874,"guitar":11875,"##fladen":11876,"bredere":11877,"forurening":11878,"spejder":11879,"##stud":11880,"problemerne":11881,"##sgaard":11882,"detaljeret":11883,"femte":11884,"landbruget":11885,"poulsen":11886,"træl":11887,"##spekt":11888,"beholde":11889,"ds":11890,"##øbler":11891,"omgivelserne":11892,"wa":11893,"formidle":11894,"##spillere":11895,"swe":11896,"160":11897,"beløn":11898,"misforsta":11899,"officielt":11900,"valuta":11901,"##iges":11902,"kriminalitet":11903,"##sættelsen":11904,"##nemm":11905,"optimere":11906,"ulykke":11907,"distribut":11908,"løses":11909,"aw":11910,"nærliggende":11911,"impon":11912,"generationer":11913,"romantisk":11914,"##ererer":11915,"glimrende":11916,"ydm":11917,"kalorier":11918,"sektion":11919,"vred":11920,"mej":11921,"ejet":11922,"##slisten":11923,"94":11924,"henvende":11925,"telefonnummer":11926,"henter":11927,"list":11928,"vandre":11929,"afgifter":11930,"##egle":11931,"skind":11932,"fæ":11933,"handlede":11934,"genet":11935,"flemming":11936,"prog":11937,"reserv":11938,"interviews":11939,"prinses":11940,"2020":11941,"poster":11942,"##kanten":11943,"##ondition":11944,"udtalelse":11945,"lekt":11946,"##organisation":11947,"teknologier":11948,"krævede":11949,"oplyste":11950,"avancerede":11951,"mak":11952,"forsynet":11953,"avanceret":11954,"##tale":11955,"forbrugere":11956,"attraktiv":11957,"halvar":11958,"##slan":11959,"##smateriale":11960,"##iseres":11961,"##ops":11962,"##anterne":11963,"medens":11964,"turde":11965,"aaben":11966,"ron":11967,"forhøjet":11968,"plet":11969,"##spørgsmal":11970,"lady":11971,"racer":11972,"##korn":11973,"sygepleje":11974,"indkal":11975,"lærings":11976,"forudgaende":11977,"hart":11978,"viet":11979,"kvinders":11980,"##smødet":11981,"##betjening":11982,"eksped":11983,"essenti":11984,"##seng":11985,"##oppede":11986,"##farvet":11987,"markeret":11988,"##olin":11989,"ministeren":11990,"bekymringer":11991,"indeholdt":11992,"##gik":11993,"bakker":11994,"menneskers":11995,"afsluttes":11996,"touch":11997,"bestemmelsen":11998,"henning":11999,"##smiljø":12000,"##ømmet":12001,"værende":12002,"##ague":12003,"bogstaver":12004,"shemale":12005,"irak":12006,"##celle":12007,"aggr":12008,"regnskabet":12009,"meldt":12010,"smilede":12011,"forelsket":12012,"blande":12013,"anbefalet":12014,"##skrivning":12015,"østerbro":12016,"happ":12017,"armen":12018,"ballerup":12019,"##skiftet":12020,"##21":12021,"sele":12022,"centret":12023,"arrangeret":12024,"klinikken":12025,"fornuftigt":12026,"union":12027,"##endelser":12028,"komponenter":12029,"benyttet":12030,"action":12031,"markeder":12032,"##nel":12033,"skræmmende":12034,"typiske":12035,"batterier":12036,"##ulde":12037,"##ebr":12038,"voldsom":12039,"klaus":12040,"foregik":12041,"pornograf":12042,"##hæft":12043,"flensborg":12044,"menings":12045,"rese":12046,"aflæ":12047,"##frokost":12048,"public":12049,"##ageren":12050,"skjulte":12051,"siddende":12052,"vanvit":12053,"ving":12054,"pier":12055,"nas":12056,"##ism":12057,"##slaet":12058,"cast":12059,"værelses":12060,"adressen":12061,"len":12062,"##størrelse":12063,"##foto":12064,"loy":12065,"##ussen":12066,"doc":12067,"##mf":12068,"ensartet":12069,"speciall":12070,"pink":12071,"##ypt":12072,"forestilling":12073,"adskiller":12074,"indehaver":12075,"bøde":12076,"finansier":12077,"herred":12078,"robust":12079,"bebyggelse":12080,"hp":12081,"fødderne":12082,"synge":12083,"##mind":12084,"dagsordenen":12085,"skot":12086,"muslimer":12087,"citater":12088,"kreditkort":12089,"naboer":12090,"stramme":12091,"taastrup":12092,"yngste":12093,"mærkes":12094,"##kkelig":12095,"konstatere":12096,"gods":12097,"førtid":12098,"justit":12099,"velfun":12100,"##agerede":12101,"##værdigt":12102,"hospitalet":12103,"rib":12104,"æble":12105,"##systemet":12106,"oprør":12107,"overbevist":12108,"rist":12109,"##stegn":12110,"naturvidenskab":12111,"kokos":12112,"bagt":12113,"##lagde":12114,"jakke":12115,"merc":12116,"sæbe":12117,"##enterede":12118,"##ynge":12119,"183":12120,"##boy":12121,"##ægten":12122,"græske":12123,"fanger":12124,"case":12125,"trætte":12126,"transa":12127,"##hs":12128,"seksualitet":12129,"cros":12130,"erektion":12131,"ande":12132,"##domm":12133,"##drift":12134,"lederen":12135,"atlet":12136,"cocktail":12137,"spænder":12138,"væv":12139,"charlotte":12140,"skyg":12141,"forbrugerne":12142,"##ryk":12143,"willi":12144,"##plej":12145,"##sløse":12146,"forholdene":12147,"logge":12148,"##klagede":12149,"familiem":12150,"panden":12151,"sejle":12152,"##otisk":12153,"teamet":12154,"##ega":12155,"dokumentere":12156,"nærvær":12157,"##ængen":12158,"##øvelse":12159,"slem":12160,"unger":12161,"honning":12162,"reel":12163,"ankommer":12164,"lovligt":12165,"##gelses":12166,"##ifte":12167,"cens":12168,"defineret":12169,"##oline":12170,"velvære":12171,"overvejende":12172,"tu":12173,"særskilt":12174,"ultra":12175,"suver":12176,"login":12177,"regelmæssigt":12178,"ax":12179,"##jord":12180,"##skriver":12181,"bagsiden":12182,"indbydende":12183,"præster":12184,"##wood":12185,"nederlag":12186,"egner":12187,"##uddannede":12188,"spredt":12189,"solidt":12190,"trusser":12191,"yderste":12192,"yndling":12193,"galleri":12194,"udlænding":12195,"https":12196,"##avede":12197,"##direktør":12198,"hyp":12199,"speed":12200,"velfungerende":12201,"##esult":12202,"magten":12203,"berlingske":12204,"##ding":12205,"varde":12206,"foden":12207,"flasker":12208,"##alende":12209,"##ugter":12210,"farverne":12211,"kongens":12212,"antik":12213,"afslappende":12214,"##ækning":12215,"begyndelse":12216,"events":12217,"food":12218,"rytter":12219,"kvæl":12220,"vejledningen":12221,"140":12222,"forebyggende":12223,"##ots":12224,"medfølger":12225,"##øves":12226,"tabletter":12227,"##gl":12228,"mari":12229,"kvadratmeter":12230,"kobber":12231,"østjylland":12232,"hekt":12233,"jonas":12234,"programm":12235,"buks":12236,"erklæring":12237,"hovedpine":12238,"##værelsen":12239,"##foder":12240,"silik":12241,"poker":12242,"pavirkning":12243,"##brev":12244,"uafhængige":12245,"farvet":12246,"victor":12247,"spill":12248,"##stilsynet":12249,"kreativitet":12250,"##rethe":12251,"stiftet":12252,"svagt":12253,"opretter":12254,"##yrdes":12255,"væsentligste":12256,"rede":12257,"ægge":12258,"kæresten":12259,"uskyld":12260,"folkeparti":12261,"elektriske":12262,"kram":12263,"udnyttelse":12264,"##safgift":12265,"kvaliteter":12266,"mørket":12267,"inklusive":12268,"##lespil":12269,"##mærke":12270,"udbydere":12271,"holdbarhed":12272,"pernille":12273,"anerkendte":12274,"møbel":12275,"##inationer":12276,"fremgangsm":12277,"aldre":12278,"west":12279,"slanke":12280,"##bedste":12281,"spørgeskema":12282,"##listen":12283,"##kalender":12284,"##lægen":12285,"##ulin":12286,"veld":12287,"folkem":12288,"##stemt":12289,"##øvede":12290,"##tain":12291,"anm":12292,"##por":12293,"driften":12294,"deraf":12295,"kjoler":12296,"fremga":12297,"kartoff":12298,"hensigtsmæssigt":12299,"offer":12300,"thisted":12301,"nordic":12302,"##istan":12303,"##ylle":12304,"sommerferien":12305,"dynamisk":12306,"afvig":12307,"utilfreds":12308,"management":12309,"pind":12310,"hyppig":12311,"##22":12312,"baner":12313,"omkostningerne":12314,"praktiserende":12315,"returret":12316,"kørekort":12317,"zoo":12318,"##wich":12319,"##hast":12320,"pose":12321,"##byggeri":12322,"bitter":12323,"##az":12324,"##trækning":12325,"stadion":12326,"ernæring":12327,"konkurr":12328,"kælderen":12329,"##cert":12330,"lejr":12331,"indføre":12332,"firk":12333,"##uten":12334,"##ansøg":12335,"roller":12336,"##taj":12337,"##omb":12338,"jav":12339,"institutionen":12340,"##mændene":12341,"frugter":12342,"##agende":12343,"bekæmpelse":12344,"anlagt":12345,"albert":12346,"inspe":12347,"##stik":12348,"erhvervslivet":12349,"flor":12350,"##felt":12351,"folks":12352,"rejsende":12353,"registrerede":12354,"##ramme":12355,"##sset":12356,"norden":12357,"passede":12358,"##spladser":12359,"##raa":12360,"rumme":12361,"afklar":12362,"##artikler":12363,"brands":12364,"tørret":12365,"stock":12366,"dødsf":12367,"war":12368,"forskerne":12369,"underskud":12370,"##øster":12371,"##sbeløb":12372,"udby":12373,"##partner":12374,"##bespar":12375,"kigget":12376,"matrik":12377,"##barn":12378,"pumpe":12379,"blind":12380,"afsluttende":12381,"130":12382,"skaret":12383,"forælder":12384,"ank":12385,"ambition":12386,"radets":12387,"overtog":12388,"syl":12389,"vill":12390,"receptionen":12391,"##skib":12392,"ane":12393,"forholder":12394,"pad":12395,"samfunds":12396,"bagud":12397,"drama":12398,"##stød":12399,"udsættes":12400,"trof":12401,"digte":12402,"motoren":12403,"gyldne":12404,"##alde":12405,"katalog":12406,"udad":12407,"##gæng":12408,"overført":12409,"ple":12410,"##egne":12411,"springer":12412,"rødder":12413,"skatter":12414,"gensidig":12415,"velkendte":12416,"##massage":12417,"##ari":12418,"jomfru":12419,"sjælden":12420,"allergi":12421,"tallerken":12422,"##sekret":12423,"##seks":12424,"seo":12425,"##igennem":12426,"udkom":12427,"instrument":12428,"premier":12429,"##pres":12430,"nuancer":12431,"##talere":12432,"alternativt":12433,"pels":12434,"kompetente":12435,"notat":12436,"twitter":12437,"kirkens":12438,"norde":12439,"ambit":12440,"kvik":12441,"forfær":12442,"demens":12443,"voldsomme":12444,"##atører":12445,"europas":12446,"##tagen":12447,"##okratisk":12448,"wifi":12449,"##avnet":12450,"julie":12451,"serveres":12452,"##san":12453,"asiat":12454,"malgruppen":12455,"løser":12456,"køres":12457,"effektivitet":12458,"fremskridt":12459,"advarsel":12460,"##allere":12461,"##ainer":12462,"125":12463,"lamper":12464,"vaner":12465,"##fol":12466,"højskole":12467,"blodtryk":12468,"tilgode":12469,"udsm":12470,"dæm":12471,"detaljerede":12472,"##kassen":12473,"afsat":12474,"traditioner":12475,"cra":12476,"bekræfter":12477,"kemiske":12478,"stillingen":12479,"mødtes":12480,"udstillinger":12481,"etager":12482,"homoseksuel":12483,"indbyrdes":12484,"integ":12485,"tennis":12486,"nysgerrig":12487,"##ymp":12488,"trakt":12489,"realistisk":12490,"##flix":12491,"belg":12492,"vanskeligheder":12493,"sum":12494,"mindske":12495,"##dating":12496,"minus":12497,"kalund":12498,"brændende":12499,"tilgængelighed":12500,"group":12501,"styres":12502,"variation":12503,"herinde":12504,"garanteret":12505,"##90":12506,"sygedag":12507,"forf":12508,"støb":12509,"synger":12510,"konstateret":12511,"refunder":12512,"bjerge":12513,"##shistor":12514,"overholder":12515,"installationer":12516,"##aktionen":12517,"ration":12518,"uplo":12519,"kontrast":12520,"bestemmelserne":12521,"barcel":12522,"klit":12523,"girls":12524,"evangel":12525,"oliven":12526,"skiver":12527,"sem":12528,"sammenlign":12529,"spillem":12530,"##vad":12531,"##kode":12532,"begaet":12533,"##aterialet":12534,"##stidspunktet":12535,"formen":12536,"camilla":12537,"nyligt":12538,"##edal":12539,"efterfulgt":12540,"##sbor":12541,"ligegyldigt":12542,"yt":12543,"elast":12544,"mærkede":12545,"gymnastik":12546,"1996":12547,"ikraft":12548,"kommunikations":12549,"##ited":12550,"jeans":12551,"vedligeholdelses":12552,"##forn":12553,"indvandrere":12554,"snakkede":12555,"selvtill":12556,"specialiseret":12557,"call":12558,"kontakten":12559,"omradets":12560,"gammeldags":12561,"begejstret":12562,"flyttes":12563,"appet":12564,"styrer":12565,"##ffekt":12566,"tæppe":12567,"##ilien":12568,"fungerede":12569,"sundhedsstyrelsen":12570,"betydningen":12571,"konklus":12572,"asf":12573,"kagen":12574,"røven":12575,"jamen":12576,"##aritet":12577,"afslør":12578,"forbinder":12579,"##cia":12580,"kastet":12581,"kostumer":12582,"ministeriet":12583,"rich":12584,"analysere":12585,"##plac":12586,"##itution":12587,"bistand":12588,"hovedperson":12589,"##omer":12590,"kedelig":12591,"skrives":12592,"bisk":12593,"cu":12594,"tyndt":12595,"reelle":12596,"overføres":12597,"trop":12598,"finn":12599,"##lyd":12600,"league":12601,"drys":12602,"farlig":12603,"##splaner":12604,"lovet":12605,"hallen":12606,"##lesk":12607,"mormor":12608,"kalundborg":12609,"brystet":12610,"oprindelse":12611,"##øvler":12612,"pædagoger":12613,"dagene":12614,"foregaende":12615,"instruktion":12616,"gps":12617,"act":12618,"registrere":12619,"styrelsen":12620,"mt":12621,"##eleder":12622,"toner":12623,"##drivende":12624,"##nr":12625,"instrumenter":12626,"sutter":12627,"##oller":12628,"koncentration":12629,"relateret":12630,"##artner":12631,"##fyldte":12632,"internt":12633,"##ms":12634,"meddelt":12635,"bestand":12636,"reagere":12637,"##frihed":12638,"kulhyd":12639,"æbler":12640,"##klinik":12641,"tungt":12642,"farten":12643,"oral":12644,"jæger":12645,"falske":12646,"forarsaget":12647,"snakket":12648,"belastning":12649,"rub":12650,"##trad":12651,"get":12652,"##virkning":12653,"##udviklingen":12654,"spræn":12655,"leverandøren":12656,"##orth":12657,"175":12658,"udsendt":12659,"pest":12660,"smut":12661,"##sal":12662,"##sbas":12663,"vejledende":12664,"thy":12665,"##avand":12666,"strategiske":12667,"udsp":12668,"##asken":12669,"livskvalitet":12670,"##ces":12671,"##historier":12672,"##opgave":12673,"##selskaber":12674,"tilmed":12675,"##svil":12676,"skild":12677,"##gener":12678,"##sfre":12679,"dsb":12680,"patri":12681,"fore":12682,"##regnet":12683,"gast":12684,"dannes":12685,"cru":12686,"##undersøgelser":12687,"##station":12688,"grim":12689,"groft":12690,"ideel":12691,"hævet":12692,"kommunernes":12693,"forhindrer":12694,"strande":12695,"konservative":12696,"rammen":12697,"overstiger":12698,"skrue":12699,"##key":12700,"horis":12701,"hændelser":12702,"ikrafttræ":12703,"##stykker":12704,"forre":12705,"##gaet":12706,"##aftalen":12707,"##arv":12708,"indikator":12709,"ever":12710,"udstedt":12711,"##læn":12712,"hesten":12713,"midlertidig":12714,"ih":12715,"##itim":12716,"derpa":12717,"uøn":12718,"middelfart":12719,"##aku":12720,"omtr":12721,"flybillet":12722,"oprindelig":12723,"hyper":12724,"seriøs":12725,"##tagelser":12726,"overn":12727,"irrit":12728,"##estyrelsens":12729,"tær":12730,"lysten":12731,"russisk":12732,"##kød":12733,"statslige":12734,"klæ":12735,"jag":12736,"##rug":12737,"bekymre":12738,"esk":12739,"rengørings":12740,"vesterbro":12741,"dessert":12742,"kvitter":12743,"udbetales":12744,"arkæ":12745,"##frisk":12746,"allian":12747,"breve":12748,"##minister":12749,"mene":12750,"jacobsen":12751,"tilhør":12752,"netflix":12753,"##bur":12754,"##kapital":12755,"ofre":12756,"##log":12757,"eksplos":12758,"##sberet":12759,"afslapning":12760,"mental":12761,"oftere":12762,"##vognen":12763,"fornuftig":12764,"genkende":12765,"isoleret":12766,"trænet":12767,"division":12768,"sorter":12769,"udtrykker":12770,"##otika":12771,"orienteret":12772,"##elev":12773,"beund":12774,"rester":12775,"##frie":12776,"##stue":12777,"reference":12778,"hemmelige":12779,"##skaffe":12780,"##hverv":12781,"nedad":12782,"booke":12783,"pynt":12784,"supplement":12785,"folkeskol":12786,"midlertidigt":12787,"given":12788,"fleksible":12789,"thomsen":12790,"##ibi":12791,"xx":12792,"takke":12793,"affære":12794,"middelalder":12795,"ungerne":12796,"nakke":12797,"stoppet":12798,"##no":12799,"skarpt":12800,"stabilitet":12801,"baren":12802,"##hallen":12803,"skilte":12804,"aftales":12805,"leverings":12806,"##do":12807,"##ælt":12808,"organisering":12809,"begrundelse":12810,"that":12811,"frod":12812,"skilsmisse":12813,"jean":12814,"minimal":12815,"designs":12816,"invent":12817,"##sbidrag":12818,"udstrækning":12819,"kristensen":12820,"besiddelse":12821,"900":12822,"cykle":12823,"##ændring":12824,"kreds":12825,"øm":12826,"nævnet":12827,"nørrebro":12828,"vedligeholde":12829,"marianne":12830,"ladet":12831,"bruser":12832,"##læger":12833,"##oke":12834,"færreste":12835,"fokuseret":12836,"##mennesk":12837,"phot":12838,"felter":12839,"sant":12840,"beregninger":12841,"sauna":12842,"gebyrer":12843,"##sselskaber":12844,"robert":12845,"ordbog":12846,"lunge":12847,"analsex":12848,"##ørerne":12849,"graviditeten":12850,"siddet":12851,"indlægget":12852,"##stilladelse":12853,"stævne":12854,"sas":12855,"forelæg":12856,"##omraderne":12857,"førtidspension":12858,"indstille":12859,"detalje":12860,"pletter":12861,"jorde":12862,"dominerende":12863,"forældrem":12864,"delte":12865,"kommission":12866,"white":12867,"amal":12868,"advent":12869,"fril":12870,"ideelle":12871,"lidelse":12872,"stolen":12873,"##alingen":12874,"fysik":12875,"escortpiger":12876,"snyd":12877,"afslag":12878,"que":12879,"yndlings":12880,"koll":12881,"broen":12882,"airc":12883,"##umb":12884,"græken":12885,"diagnose":12886,"anbefalede":12887,"kompet":12888,"##stemmelser":12889,"krøl":12890,"tæpper":12891,"##ssystemet":12892,"##astning":12893,"slagter":12894,"farv":12895,"##arde":12896,"##fektioner":12897,"brian":12898,"prøven":12899,"styret":12900,"nordvest":12901,"##rich":12902,"nære":12903,"##ælling":12904,"canada":12905,"##fabrik":12906,"bdsm":12907,"tømrer":12908,"##prop":12909,"respons":12910,"sfo":12911,"kore":12912,"1995":12913,"udgiver":12914,"light":12915,"##rediens":12916,"tilpasses":12917,"heri":12918,"flys":12919,"tavs":12920,"bekræftet":12921,"##sforening":12922,"strategier":12923,"##samfund":12924,"content":12925,"hammer":12926,"fliser":12927,"batteriet":12928,"offentligheden":12929,"sammenhængen":12930,"##zy":12931,"inddrages":12932,"##agenævnet":12933,"ringkøbing":12934,"argument":12935,"maneds":12936,"##sgræn":12937,"##aktiver":12938,"radhus":12939,"undertøj":12940,"##værn":12941,"flugt":12942,"dækkes":12943,"præmier":12944,"næg":12945,"##elf":12946,"væksten":12947,"negativt":12948,"lokalavisen":12949,"kinesisk":12950,"smad":12951,"greve":12952,"overtrædelse":12953,"##slov":12954,"##leverand":12955,"industrien":12956,"ombord":12957,"sned":12958,"reserved":12959,"varetager":12960,"ub":12961,"omkringliggende":12962,"##stog":12963,"støder":12964,"fandtes":12965,"gennemførte":12966,"rækken":12967,"krævende":12968,"ventetid":12969,"##bræt":12970,"auktion":12971,"forestillinger":12972,"##een":12973,"protest":12974,"indlagt":12975,"madras":12976,"##edage":12977,"medbringe":12978,"##design":12979,"midter":12980,"bevil":12981,"##ægterne":12982,"day":12983,"##angreb":12984,"##retter":12985,"smalle":12986,"tapet":12987,"roser":12988,"bogens":12989,"myndighederne":12990,"diameter":12991,"omtalt":12992,"##iber":12993,"overfør":12994,"hjerter":12995,"hvortil":12996,"blods":12997,"##øvrigt":12998,"drives":12999,"berg":13000,"betalte":13001,"protokol":13002,"overtage":13003,"##forældre":13004,"spiseb":13005,"sikrede":13006,"børnehaven":13007,"mandens":13008,"fester":13009,"##oman":13010,"1900":13011,"nøjagtig":13012,"udfør":13013,"##omp":13014,"##ulær":13015,"##procent":13016,"ansøgnings":13017,"uafhængig":13018,"##ologien":13019,"##søkonom":13020,"##kirken":13021,"pun":13022,"vestjylland":13023,"angives":13024,"overstaet":13025,"genre":13026,"glæd":13027,"tivoli":13028,"beach":13029,"gab":13030,"planet":13031,"##aktivitet":13032,"servere":13033,"vuggest":13034,"1950":13035,"arbejdsgiveren":13036,"varerne":13037,"navnlig":13038,"myr":13039,"aktuel":13040,"overleve":13041,"revet":13042,"troen":13043,"##saftalen":13044,"nationalt":13045,"pikken":13046,"dna":13047,"filtr":13048,"etablerede":13049,"søb":13050,"##ils":13051,"##valget":13052,"sætning":13053,"##ituation":13054,"inklusiv":13055,"gentofte":13056,"asiatiske":13057,"lovforslaget":13058,"spont":13059,"##artede":13060,"vord":13061,"kosmet":13062,"omkostning":13063,"symptomerne":13064,"grave":13065,"rygning":13066,"pilot":13067,"fastlagt":13068,"##dal":13069,"trænere":13070,"temaet":13071,"albu":13072,"læreren":13073,"faldende":13074,"hass":13075,"##riske":13076,"##blade":13077,"evigt":13078,"svigt":13079,"emballage":13080,"lidenskab":13081,"##stræk":13082,"selvs":13083,"bekæmpe":13084,"bm":13085,"##ido":13086,"##bla":13087,"tænde":13088,"billund":13089,"udred":13090,"rikke":13091,"optages":13092,"nytte":13093,"storeb":13094,"overskr":13095,"fremfor":13096,"betingelse":13097,"registreres":13098,"##æsning":13099,"hvalpe":13100,"susanne":13101,"udgaver":13102,"ryn":13103,"reduceres":13104,"beklager":13105,"operationen":13106,"##kager":13107,"næstformand":13108,"terrassen":13109,"indekl":13110,"##appede":13111,"intent":13112,"agent":13113,"radikale":13114,"myt":13115,"ømme":13116,"indskud":13117,"bachelor":13118,"sødt":13119,"chi":13120,"ledende":13121,"nøglen":13122,"værdipapir":13123,"kendetegnet":13124,"installere":13125,"sagsbe":13126,"ego":13127,"rimelige":13128,"##selskabet":13129,"tilsynet":13130,"##zer":13131,"søj":13132,"asien":13133,"perle":13134,"fineste":13135,"falsk":13136,"handværkere":13137,"skala":13138,"##maskinen":13139,"##kurren":13140,"lant":13141,"kopier":13142,"fars":13143,"kollektiv":13144,"inn":13145,"##illæg":13146,"##bragte":13147,"reb":13148,"##runde":13149,"stikk":13150,"chili":13151,"grundt":13152,"allan":13153,"zone":13154,"##bj":13155,"forstod":13156,"##dansk":13157,"budd":13158,"##36":13159,"slidt":13160,"grafik":13161,"##ibre":13162,"karakterer":13163,"nøgler":13164,"armene":13165,"maksimal":13166,"isb":13167,"ukra":13168,"lastbil":13169,"skagen":13170,"nicola":13171,"fremadrettet":13172,"færøerne":13173,"##æden":13174,"boller":13175,"udsol":13176,"blidt":13177,"iført":13178,"skød":13179,"##ktoratet":13180,"udarbejder":13181,"lesbiske":13182,"##unktion":13183,"##klassen":13184,"voldt":13185,"forkæle":13186,"rygs":13187,"japansk":13188,"##sparing":13189,"prædik":13190,"terapeut":13191,"##ensioner":13192,"mænds":13193,"nan":13194,"teoretisk":13195,"##sev":13196,"arne":13197,"anvendelses":13198,"maleri":13199,"klap":13200,"leasing":13201,"malerier":13202,"##tran":13203,"diesel":13204,"opdræt":13205,"vigtigere":13206,"bækken":13207,"##ky":13208,"reducerer":13209,"forudsat":13210,"##strede":13211,"##materiale":13212,"##onsulent":13213,"arsregnskab":13214,"pastand":13215,"happy":13216,"strikket":13217,"oste":13218,"trusler":13219,"glæden":13220,"##hvil":13221,"gær":13222,"hørsholm":13223,"mb":13224,"james":13225,"ribe":13226,"organer":13227,"kontrakten":13228,"##istre":13229,"statist":13230,"kryst":13231,"##æssigt":13232,"kørende":13233,"forladt":13234,"gulve":13235,"##sak":13236,"##forbindelse":13237,"snav":13238,"fordybe":13239,"koden":13240,"session":13241,"facade":13242,"##lægningen":13243,"##oderne":13244,"##arisk":13245,"kvæg":13246,"mentor":13247,"bluet":13248,"rettes":13249,"##gers":13250,"##ado":13251,"##ome":13252,"aabenraa":13253,"vidst":13254,"krydret":13255,"sara":13256,"anten":13257,"træthed":13258,"##stilstand":13259,"gifte":13260,"##atil":13261,"medal":13262,"life":13263,"##assistent":13264,"faderen":13265,"tilbagebet":13266,"maa":13267,"præsten":13268,"gymnasiet":13269,"ext":13270,"nikola":13271,"##vaner":13272,"smile":13273,"odder":13274,"##maler":13275,"tilstedeværelse":13276,"printer":13277,"medvirkende":13278,"bass":13279,"indfri":13280,"gennemsnittet":13281,"kup":13282,"prostat":13283,"##bunden":13284,"trøje":13285,"##garn":13286,"indgangen":13287,"barsel":13288,"hvede":13289,"barcelona":13290,"certifik":13291,"manager":13292,"vederlag":13293,"shirt":13294,"smagte":13295,"##ønnede":13296,"afprøve":13297,"170":13298,"##skrives":13299,"##ssund":13300,"selskabs":13301,"##anker":13302,"plejehjem":13303,"statsfor":13304,"##dam":13305,"farverige":13306,"aviser":13307,"websteder":13308,"##inke":13309,"coun":13310,"erhvervsliv":13311,"##hotel":13312,"##store":13313,"bedømmelse":13314,"afhængige":13315,"apparatet":13316,"afdrag":13317,"kloster":13318,"##hd":13319,"gennemt":13320,"##somkostninger":13321,"nb":13322,"udløsning":13323,"afdøde":13324,"dead":13325,"drev":13326,"franc":13327,"lise":13328,"opfyldelse":13329,"rud":13330,"satser":13331,"afsløre":13332,"slutte":13333,"apoteket":13334,"finalen":13335,"uro":13336,"syddanmark":13337,"##ilje":13338,"##onto":13339,"dørene":13340,"klem":13341,"gun":13342,"fornøj":13343,"omfanget":13344,"elef":13345,"intelle":13346,"##forbund":13347,"regions":13348,"##tagelsen":13349,"tørkl":13350,"##imellem":13351,"dagligdagen":13352,"overtaget":13353,"vidne":13354,"81":13355,"##løshed":13356,"tilværelse":13357,"aflevere":13358,"##ssikring":13359,"sundere":13360,"##ida":13361,"tøs":13362,"blue":13363,"kuffer":13364,"lampe":13365,"venst":13366,"##jo":13367,"cur":13368,"meddelelser":13369,"##jene":13370,"opsat":13371,"arbejdsløshed":13372,"angivelse":13373,"erob":13374,"ingrediens":13375,"##spir":13376,"##arbejdning":13377,"kulde":13378,"norsk":13379,"##mmers":13380,"##klæring":13381,"lukkes":13382,"tænkes":13383,"rollen":13384,"##varteret":13385,"halvleg":13386,"research":13387,"læn":13388,"##punktet":13389,"##sager":13390,"lanceret":13391,"##forskning":13392,"##grundlaget":13393,"kass":13394,"omhyggeligt":13395,"vække":13396,"administrationen":13397,"##isation":13398,"hardcore":13399,"##drede":13400,"trang":13401,"##sregler":13402,"##arig":13403,"appels":13404,"nice":13405,"istand":13406,"aggress":13407,"ekspertise":13408,"kompetent":13409,"modtageren":13410,"køns":13411,"##telser":13412,"mild":13413,"##syre":13414,"kogn":13415,"skeden":13416,"1500":13417,"lignede":13418,"reglen":13419,"selvværd":13420,"paradis":13421,"istedet":13422,"smilende":13423,"superlig":13424,"##sider":13425,"rumæn":13426,"##anet":13427,"kontaktperson":13428,"muslimske":13429,"##smodel":13430,"##øvelser":13431,"medi":13432,"lay":13433,"kompliceret":13434,"gevinster":13435,"gennemfører":13436,"##ilder":13437,"erfaren":13438,"attraktivt":13439,"omtalte":13440,"afgjort":13441,"habe":13442,"tatover":13443,"museer":13444,"enlige":13445,"betinget":13446,"villig":13447,"demokratiske":13448,"##inspe":13449,"anstr":13450,"underlagt":13451,"heden":13452,"##okale":13453,"medicinske":13454,"fællesskaber":13455,"##baserede":13456,"##spraksis":13457,"##can":13458,"kontekst":13459,"optager":13460,"##eliste":13461,"##egade":13462,"dba":13463,"volumen":13464,"##aftaler":13465,"grækenland":13466,"omtrent":13467,"engageret":13468,"##istyr":13469,"klæder":13470,"opm":13471,"indvendig":13472,"dahl":13473,"begrænsede":13474,"ble":13475,"##ørt":13476,"uænd":13477,"##dj":13478,"dick":13479,"##ministeriet":13480,"pur":13481,"gatur":13482,"opnaede":13483,"booking":13484,"vidunderlig":13485,"##centeret":13486,"loc":13487,"lux":13488,"##aland":13489,"##ologer":13490,"knytter":13491,"duften":13492,"database":13493,"bern":13494,"bluetooth":13495,"tykt":13496,"##boks":13497,"##brand":13498,"game":13499,"darligere":13500,"teknologien":13501,"dys":13502,"tilsendt":13503,"kaptaj":13504,"ike":13505,"angaende":13506,"##disk":13507,"soveværelset":13508,"udløbet":13509,"stive":13510,"kristen":13511,"##teringen":13512,"indtager":13513,"bemærkes":13514,"##jerner":13515,"afstemning":13516,"glatte":13517,"turnering":13518,"1992":13519,"forsvaret":13520,"##raf":13521,"##ally":13522,"teorier":13523,"hæfter":13524,"deg":13525,"ulovligt":13526,"frygter":13527,"slagt":13528,"filosofi":13529,"bagage":13530,"##grad":13531,"fjernsyn":13532,"udgav":13533,"armb":13534,"temper":13535,"##itutter":13536,"##strand":13537,"respektive":13538,"##slo":13539,"malinger":13540,"opføre":13541,"fusion":13542,"##garanti":13543,"gradvist":13544,"udfordre":13545,"##admin":13546,"bly":13547,"##ono":13548,"maksimale":13549,"91":13550,"talet":13551,"ledig":13552,"##endelses":13553,"selvtillid":13554,"##yndighed":13555,"risikere":13556,"350":13557,"forlig":13558,"##rikker":13559,"isen":13560,"døbt":13561,"nakken":13562,"komfortable":13563,"utroskab":13564,"procedure":13565,"arbejdsmilj":13566,"autoriseret":13567,"##flader":13568,"vindmøller":13569,"ærgerligt":13570,"anker":13571,"##ible":13572,"##work":13573,"skyder":13574,"##sprocesser":13575,"forhandlere":13576,"##skabe":13577,"undtagen":13578,"##aldet":13579,"testen":13580,"tina":13581,"##ledninger":13582,"bt":13583,"fæst":13584,"stabilt":13585,"##steurop":13586,"leverede":13587,"højden":13588,"indslag":13589,"seriøse":13590,"sænke":13591,"sommerferie":13592,"forblive":13593,"nad":13594,"marc":13595,"udformning":13596,"ligestilling":13597,"fel":13598,"eas":13599,"bestaet":13600,"fortolkning":13601,"##aker":13602,"##klass":13603,"##fravær":13604,"udenom":13605,"præsenterede":13606,"procedurer":13607,"sexfilm":13608,"udenlandsk":13609,"indtaste":13610,"skinner":13611,"chr":13612,"betragter":13613,"elektronik":13614,"##interesser":13615,"##elementer":13616,"##spær":13617,"udr":13618,"179":13619,"hak":13620,"udfyld":13621,"blæser":13622,"ubegræn":13623,"intellekt":13624,"angrebet":13625,"inddragelse":13626,"lg":13627,"mord":13628,"parametre":13629,"løv":13630,"tasker":13631,"pikke":13632,"university":13633,"legeplads":13634,"supple":13635,"heriblandt":13636,"skabet":13637,"skadelige":13638,"tilsat":13639,"##familie":13640,"barb":13641,"jagten":13642,"koloni":13643,"beviser":13644,"cb":13645,"##finans":13646,"indhente":13647,"opgjort":13648,"party":13649,"md":13650,"udveksling":13651,"julefrokost":13652,"bemærket":13653,"afholdelse":13654,"anded":13655,"##icer":13656,"aks":13657,"øve":13658,"lyt":13659,"1994":13660,"moun":13661,"omdrejning":13662,"udtalelser":13663,"##drene":13664,"støttet":13665,"faglighed":13666,"fornemme":13667,"sprede":13668,"ulykker":13669,"##rod":13670,"begravet":13671,"kombinerer":13672,"konkurrencer":13673,"medtage":13674,"oversv":13675,"skjern":13676,"trag":13677,"centimeter":13678,"tov":13679,"##vurder":13680,"temperaturer":13681,"fascinerende":13682,"nummeret":13683,"indtage":13684,"skaden":13685,"teenager":13686,"gitte":13687,"lægerne":13688,"##briller":13689,"beaut":13690,"##butikker":13691,"tilbøj":13692,"svind":13693,"porcel":13694,"vellykket":13695,"##verdens":13696,"##inal":13697,"trappe":13698,"tømmer":13699,"gag":13700,"slottet":13701,"smider":13702,"indgreb":13703,"rykke":13704,"##wor":13705,"##beskyttelse":13706,"##leve":13707,"opstilling":13708,"visuelle":13709,"##stop":13710,"justere":13711,"tilsluttet":13712,"##niveauet":13713,"garde":13714,"rolige":13715,"grafisk":13716,"##elskaber":13717,"bevægelses":13718,"pra":13719,"##venligt":13720,"##smetoder":13721,"kulturer":13722,"##stuen":13723,"ordsprog":13724,"##dannelse":13725,"trade":13726,"step":13727,"##anvendelse":13728,"tænderne":13729,"erstattet":13730,"forsøget":13731,"hukommelse":13732,"##bevis":13733,"arbejdsdag":13734,"omtale":13735,"militære":13736,"kvindelig":13737,"##olet":13738,"borgerlige":13739,"##oversigt":13740,"dannelse":13741,"pakræ":13742,"hvalp":13743,"madlavning":13744,"finland":13745,"##meldt":13746,"sorø":13747,"##ministeren":13748,"drop":13749,"##holdere":13750,"hert":13751,"office":13752,"christina":13753,"indbetaling":13754,"bestyrelsesmedlemmer":13755,"##mg":13756,"kirkegard":13757,"kontaktet":13758,"bidraget":13759,"##anstaltninger":13760,"mp":13761,"kastede":13762,"grene":13763,"sigte":13764,"##istrikt":13765,"##lænd":13766,"slas":13767,"lone":13768,"##pladen":13769,"spørgsmalene":13770,"##tro":13771,"tilbagevend":13772,"ambass":13773,"##esvig":13774,"##asker":13775,"lagerstatus":13776,"busser":13777,"hash":13778,"højttaler":13779,"nap":13780,"##tor":13781,"##beth":13782,"fjernelse":13783,"opstillet":13784,"ligne":13785,"##smøder":13786,"kollektion":13787,"arrangere":13788,"arealet":13789,"##fatter":13790,"haha":13791,"indenrig":13792,"skiftes":13793,"access":13794,"sindss":13795,"forsigtig":13796,"nike":13797,"mose":13798,"##bek":13799,"##pose":13800,"færdes":13801,"cons":13802,"lasse":13803,"klinikker":13804,"##orgen":13805,"undersøges":13806,"grat":13807,"##aktive":13808,"olien":13809,"moderen":13810,"ukendte":13811,"længste":13812,"##ødte":13813,"##acks":13814,"1993":13815,"energien":13816,"##inkel":13817,"rap":13818,"puls":13819,"container":13820,"stier":13821,"udkommer":13822,"interesserer":13823,"##gaven":13824,"uddyb":13825,"begrænsning":13826,"respond":13827,"performance":13828,"##vision":13829,"produceres":13830,"##drage":13831,"fremmer":13832,"trænge":13833,"ideelt":13834,"røver":13835,"bagved":13836,"brancher":13837,"flod":13838,"regnes":13839,"##forstyr":13840,"##regulering":13841,"andelsbolig":13842,"kontinuer":13843,"##handtering":13844,"svej":13845,"sitet":13846,"##høje":13847,"begær":13848,"destination":13849,"fastsatte":13850,"rosa":13851,"synder":13852,"##læsning":13853,"cirkus":13854,"##sklub":13855,"##23":13856,"skæbne":13857,"hygiejne":13858,"pressen":13859,"rækkevidde":13860,"fremhæver":13861,"##klasses":13862,"##sem":13863,"##ikel":13864,"plu":13865,"hat":13866,"bemærkning":13867,"bevilling":13868,"talmodighed":13869,"sound":13870,"##salt":13871,"invitere":13872,"##aliseringen":13873,"##ingborg":13874,"nyttige":13875,"samfundets":13876,"forarsager":13877,"##ælles":13878,"pressemeddelelse":13879,"familiemed":13880,"##cript":13881,"overskriften":13882,"straffes":13883,"see":13884,"psykologi":13885,"forhandlinger":13886,"udgjorde":13887,"streaming":13888,"udlig":13889,"sab":13890,"pulver":13891,"##sektoren":13892,"##organisationer":13893,"teenage":13894,"husstand":13895,"cali":13896,"##mødet":13897,"præf":13898,"forsvundet":13899,"bæredygtige":13900,"lego":13901,"ultimative":13902,"##usi":13903,"differ":13904,"##akke":13905,"tendenser":13906,"##ræs":13907,"bat":13908,"##etil":13909,"flash":13910,"mentalt":13911,"##esæt":13912,"##sættelser":13913,"symboler":13914,"skæl":13915,"projektleder":13916,"søgeord":13917,"##adgang":13918,"##hæv":13919,"redaktion":13920,"##رررررررررررررررر":13921,"html":13922,"knudsen":13923,"tviv":13924,"decideret":13925,"kvant":13926,"sandwich":13927,"klippet":13928,"gigant":13929,"##stein":13930,"tydelige":13931,"cirkel":13932,"##teks":13933,"undgas":13934,"behagelige":13935,"##sto":13936,"udtalt":13937,"kvalifikationer":13938,"naturens":13939,"bydel":13940,"excel":13941,"##sau":13942,"##afstand":13943,"##linjen":13944,"forklarede":13945,"friluft":13946,"miljøb":13947,"##ssag":13948,"foreslas":13949,"nets":13950,"salen":13951,"##obi":13952,"udgivelse":13953,"bremse":13954,"##ørne":13955,"sygeplejersker":13956,"skjule":13957,"afskriv":13958,"##pilot":13959,"kompetenceudvikling":13960,"trine":13961,"passagerer":13962,"estim":13963,"fortrydelses":13964,"hjælpen":13965,"overvældende":13966,"##ju":13967,"gentagne":13968,"##handlinger":13969,"højesteret":13970,"skæg":13971,"afvist":13972,"seje":13973,"##ørger":13974,"udledning":13975,"balancen":13976,"vordingborg":13977,"tex":13978,"ægløsning":13979,"glemte":13980,"amm":13981,"synspunkter":13982,"##studerende":13983,"overflader":13984,"abenhed":13985,"dokumenteret":13986,"##ifest":13987,"potentielt":13988,"slagsen":13989,"navigation":13990,"##pal":13991,"champagne":13992,"relativ":13993,"danskernes":13994,"##eddel":13995,"##agtet":13996,"pulje":13997,"##kerne":13998,"##kval":13999,"##alismen":14000,"pist":14001,"burger":14002,"##rin":14003,"##irts":14004,"fyret":14005,"forældres":14006,"porcelæn":14007,"erstatnings":14008,"oh":14009,"##farver":14010,"alborg":14011,"##skamp":14012,"forlaget":14013,"frederikssund":14014,"flittigt":14015,"kugle":14016,"cpr":14017,"redig":14018,"##emin":14019,"landd":14020,"syrien":14021,"djur":14022,"færdsels":14023,"ye":14024,"sangen":14025,"palæstinens":14026,"##kasser":14027,"lev":14028,"afsender":14029,"##udgift":14030,"konfigur":14031,"##øjt":14032,"##forum":14033,"birk":14034,"aldeles":14035,"pragt":14036,"højsæ":14037,"fortsæt":14038,"beskæftiget":14039,"vikar":14040,"kostede":14041,"mentale":14042,"bræt":14043,"dort":14044,"koncentrere":14045,"helvede":14046,"lilla":14047,"alf":14048,"appetit":14049,"østers":14050,"angivne":14051,"full":14052,"schmidt":14053,"roc":14054,"glasset":14055,"krigs":14056,"suveræn":14057,"ama":14058,"##imentet":14059,"vietn":14060,"hundred":14061,"butikkerne":14062,"##præst":14063,"ansøgeren":14064,"følsomme":14065,"hængende":14066,"##fakt":14067,"premium":14068,"badmin":14069,"poolen":14070,"##vejleder":14071,"fantasien":14072,"##wn":14073,"##kkeligt":14074,"ulemper":14075,"regi":14076,"178":14077,"##45":14078,"igar":14079,"swing":14080,"udtale":14081,"afgive":14082,"fratræ":14083,"gennemgaende":14084,"landbrugs":14085,"##skap":14086,"tricks":14087,"altan":14088,"dykker":14089,"skabelon":14090,"slettet":14091,"oversat":14092,"vagner":14093,"##cykler":14094,"endog":14095,"ein":14096,"##cker":14097,"overholdes":14098,"nak":14099,"##svin":14100,"sætninger":14101,"erhvervsdrivende":14102,"langsom":14103,"tilpasning":14104,"##sborger":14105,"feber":14106,"##ejere":14107,"hvorimod":14108,"køer":14109,"jor":14110,"beslag":14111,"overføre":14112,"malsætninger":14113,"##adt":14114,"studere":14115,"organiseret":14116,"kendes":14117,"##egu":14118,"##ædet":14119,"krydderier":14120,"bou":14121,"##ømning":14122,"ophæng":14123,"atl":14124,"usædvanligt":14125,"smid":14126,"sygefravær":14127,"streg":14128,"##cerne":14129,"##sikkerhed":14130,"forretningen":14131,"fran":14132,"kredsløb":14133,"besparelse":14134,"##illeder":14135,"##illings":14136,"handfuld":14137,"menneskes":14138,"provin":14139,"##vurdering":14140,"##sbegræn":14141,"sejren":14142,"snarest":14143,"##ago":14144,"antages":14145,"straff":14146,"##don":14147,"skiller":14148,"##stest":14149,"smab":14150,"karam":14151,"oprettes":14152,"nysgerr":14153,"imødekomme":14154,"fornyet":14155,"udtrykket":14156,"##ature":14157,"efteruddannelse":14158,"betegnelse":14159,"tilsku":14160,"##ærkning":14161,"krydser":14162,"##rine":14163,"bindende":14164,"opfordring":14165,"fortiden":14166,"##produkt":14167,"gentlem":14168,"jesu":14169,"rehabilitering":14170,"sydvest":14171,"informere":14172,"likvid":14173,"konsekvenserne":14174,"inventar":14175,"patent":14176,"provok":14177,"nit":14178,"helbr":14179,"##behand":14180,"gb":14181,"ts":14182,"##how":14183,"##edia":14184,"kæmpede":14185,"investorer":14186,"intu":14187,"kanter":14188,"garanterer":14189,"midlertidige":14190,"##ira":14191,"##registr":14192,"træerne":14193,"toilettet":14194,"like":14195,"koncern":14196,"firkant":14197,"##inding":14198,"##elund":14199,"##esi":14200,"sup":14201,"motorvej":14202,"##ila":14203,"favoritter":14204,"beskrivelser":14205,"##eskov":14206,"work":14207,"halsk":14208,"##levende":14209,"##spark":14210,"betegnes":14211,"samarbejdspartner":14212,"bjarne":14213,"appen":14214,"hensigten":14215,"##amerika":14216,"udbuddet":14217,"fortællingen":14218,"portal":14219,"angiveligt":14220,"hentes":14221,"##ytten":14222,"##75":14223,"berørte":14224,"tillids":14225,"olier":14226,"ører":14227,"nødder":14228,"manuelt":14229,"bedstem":14230,"##allet":14231,"borgernes":14232,"##istret":14233,"##mesteren":14234,"stel":14235,"tjenesten":14236,"andedræt":14237,"kle":14238,"##aktiviteter":14239,"##funktioner":14240,"##yggelig":14241,"moduler":14242,"night":14243,"opfatter":14244,"lister":14245,"##vik":14246,"matt":14247,"betændelse":14248,"##sgiver":14249,"bekræfte":14250,"bruse":14251,"ignor":14252,"arsregnskabet":14253,
[...]
