{"version":"1.0","truncation":null,"padding":null,"added_tokens":[{"id":0,"special":true,"content":"[PAD]","single_word":false,"lstrip":false,"rstrip":false,"normalized":false},{"id":1,"special":true,"content":"[UNK]","single_word":false,"lstrip":false,"rstrip":false,"normalized":false},{"id":2,"special":true,"content":"[CLS]","single_word":false,"lstrip":false,"rstrip":false,"normalized":false},{"id":3,"special":true,"content":"[SEP]","single_word":false,"lstrip":false,"rstrip":false,"normalized":false},{"id":4,"special":true,"content":"[MASK]","single_word":false,"lstrip":false,"rstrip":false,"normalized":false}],"normalizer":{"type":"BertNormalizer","clean_text":true,"handle_chinese_chars":true,"strip_accents":null,"lowercase":true},"pre_tokenizer":{"type":"BertPreTokenizer"},"post_processor":null,"decoder":{"type":"WordPiece","prefix":"##","cleanup":true},"model":{"type":"WordPiece","unk_token":"[UNK]","continuing_subword_prefix":"##","max_input_chars_per_word":100,"vocab":{"[PAD]":0,"[UNK]":1,"[CLS]":2,"[SEP]":3,"[MASK]":4,"!":5,"\"":6,"#":7,"$":8,"%":9,"&":10,"'":11,"(":12,")":13,"*":14,"+":15,",":16,"-":17,".":18,"/":19,"0":20,"1":21,"2":22,"3":23,"4":24,"5":25,"6":26,"7":27,"8":28,"9":29,":":30,";":31,"=":32,"?":33,"@":34,"[":35,"\\":36,"]":37,"^":38,"_":39,"`":40,"a":41,"b":42,"c":43,"d":44,"e":45,"f":46,"g":47,"h":48,"i":49,"j":50,"k":51,"l":52,"m":53,"n":54,"o":55,"p":56,"q":57,"r":58,"s":59,"t":60,"u":61,"v":62,"w":63,"x":64,"y":65,"z":66,"{":67,"|":68,"}":69,"~":70,"¡":71,"£":72,"§":73,"¨":74,"«":75,"¬":76,"®":77,"¯":78,"°":79,"±":80,"²":81,"³":82,"´":83,"µ":84,"·":85,"¹":86,"º":87,"»":88,"¼":89,"½":90,"¾":91,"¿":92,"×":93,"ß":94,"æ":95,"ð":96,"÷":97,"ø":98,"þ":99,"đ":100,"ħ":101,"ı":102,"ł":103,"ŋ":104,"œ":105,"ƒ":106,"ɐ":107,"ɑ":108,"ɒ":109,"ɔ":110,"ɕ":111,"ə":112,"ɛ":113,"ɡ":114,"ɣ":115,"ɨ":116,"ɪ":117,"ɲ":118,"ɾ":119,"ʀ":120,"ʁ":121,"ʃ":122,"ʉ":123,"ʊ":124,"ʌ":125,"ʒ":126,"ʔ":127,"ʰ":128,"ʲ":129,"ʹ":130,"ʻ":131,"ʼ":132,"ʾ":133,"ʿ":134,"ˈ":135,"ˌ":136,"ː":137,"˚":138,"α":139,"β":140,"γ":141,"δ":142,"ε":143,"ζ":144,"η":145,"θ":146,"ι":147,"κ":148,"λ":149,"μ":150,"ν":151,"ξ":152,"ο":153,"π":154,"ρ":155,"ς":156,"σ":157,"τ":158,"υ":159,"φ":160,"χ":161,"ψ":162,"ω":163,"а":164,"б":165,"в":166,"г":167,"д":168,"е":169,"ж":170,"з":171,"и":172,"к":173,"л":174,"м":175,"н":176,"о":177,"п":178,"р":179,"с":180,"т":181,"у":182,"ф":183,"х":184,"ц":185,"ч":186,"ш":187,"щ":188,"ъ":189,"ы":190,"ь":191,"э":192,"ю":193,"я":194,"ђ":195,"є":196,"і":197,"ј":198,"љ":199,"њ":200,"ћ":201,"џ":202,"қ":203,"ү":204,"ә":205,"ө":206,"ա":207,"բ":208,"գ":209,"դ":210,"ե":211,"զ":212,"թ":213,"ի":214,"լ":215,"խ":216,"կ":217,"հ":218,"ղ":219,"մ":220,"յ":221,"ն":222,"շ":223,"ո":224,"պ":225,"ռ":226,"ս":227,"վ":228,"տ":229,"ր":230,"ց":231,"ւ":232,"ք":233,"א":234,"ב":235,"ג":236,"ד":237,"ה":238,"ו":239,"ז":240,"ח":241,"ט":242,"י":243,"כ":244,"ל":245,"ם":246,"מ":247,"ן":248,"נ":249,"ס":250,"ע":251,"ף":252,"פ":253,"צ":254,"ק":255,"ר":256,"ש":257,"ת":258,"ء":259,"ا":260,"ب":261,"ة":262,"ت":263,"ث":264,"ج":265,"ح":266,"خ":267,"د":268,"ذ":269,"ر":270,"ز":271,"س":272,"ش":273,"ص":274,"ض":275,"ط":276,"ظ":277,"ع":278,"غ":279,"ـ":280,"ف":281,"ق":282,"ك":283,"ل":284,"م":285,"ن":286,"ه":287,"و":288,"ى":289,"ي":290,"پ":291,"چ":292,"ژ":293,"ک":294,"گ":295,"ھ":296,"ہ":297,"ۆ":298,"ی":299,"ێ":300,"ە":301,"ܐ":302,"ܕ":303,"ܘ":304,"ܝ":305,"ܪ":306,"ܬ":307,"अ":308,"क":309,"ग":310,"च":311,"ज":312,"ट":313,"ड":314,"ण":315,"त":316,"द":317,"ध":318,"न":319,"प":320,"ब":321,"भ":322,"म":323,"य":324,"र":325,"ल":326,"व":327,"श":328,"ष":329,"स":330,"ह":331,"ा":332,"ि":333,"ी":334,"ो":335,"॥":336,"ক":337,"জ":338,"ত":339,"দ":340,"ন":341,"প":342,"ব":343,"ম":344,"য":345,"র":346,"ল":347,"স":348,"া":349,"ি":350,"ী":351,"ে":352,"ਅ":353,"ਆ":354,"ਇ":355,"ਕ":356,"ਖ":357,"ਗ":358,"ਜ":359,"ਣ":360,"ਤ":361,"ਦ":362,"ਨ":363,"ਪ":364,"ਮ":365,"ਰ":366,"ਲ":367,"ਵ":368,"ਸ":369,"ਹ":370,"ਾ":371,"ਿ":372,"ੀ":373,"લ":374,"க":375,"ச":376,"ட":377,"த":378,"ன":379,"ப":380,"ம":381,"ர":382,"ல":383,"வ":384,"ா":385,"ி":386,"ு":387,"ల":388,"ก":389,"ค":390,"ง":391,"จ":392,"ช":393,"ด":394,"ต":395,"ท":396,"น":397,"บ":398,"ป":399,"พ":400,"ม":401,"ย":402,"ร":403,"ล":404,"ว":405,"ส":406,"ห":407,"อ":408,"ะ":409,"า":410,"เ":411,"་":412,"།":413,"ཀ":414,"ཁ":415,"ག":416,"ང":417,"ཆ":418,"ད":419,"ན":420,"པ":421,"ཕ":422,"བ":423,"མ":424,"འ":425,"ར":426,"ལ":427,"ཤ":428,"ས":429,"ა":430,"ბ":431,"გ":432,"დ":433,"ე":434,"ვ":435,"ზ":436,"თ":437,"ი":438,"კ":439,"ლ":440,"მ":441,"ნ":442,"ო":443,"პ":444,"რ":445,"ს":446,"ტ":447,"უ":448,"ფ":449,"ქ":450,"ყ":451,"შ":452,"ც":453,"ძ":454,"წ":455,"ხ":456,"ᄀ":457,"ᄂ":458,"ᄃ":459,"ᄅ":460,"ᄆ":461,"ᄇ":462,"ᄉ":463,"ᄋ":464,"ᄌ":465,"ᄎ":466,"ᄏ":467,"ᄐ":468,"ᄑ":469,"ᄒ":470,"ᅡ":471,"ᅢ":472,"ᅣ":473,"ᅥ":474,"ᅦ":475,"ᅧ":476,"ᅨ":477,"ᅩ":478,"ᅪ":479,"ᅬ":480,"ᅭ":481,"ᅮ":482,"ᅯ":483,"ᅱ":484,"ᅲ":485,"ᅳ":486,"ᅴ":487,"ᅵ":488,"ᆨ":489,"ᆫ":490,"ᆯ":491,"ᆷ":492,"ᆸ":493,"ᆺ":494,"ᆼ":495,"ᚢ":496,"ᚦ":497,"ᚱ":498,"ᚴ":499,"ᚾ":500,"ᛁ":501,"ᛅ":502,"ᛋ":503,"ᛏ":504,"᛫":505,"រ":506,"ា":507,"‐":508,"‑":509,"–":510,"—":511,"‘":512,"’":513,"“":514,"”":515,"„":516,"†":517,"•":518,"…":519,"‰":520,"′":521,"″":522,"₂":523,"€":524,"℃":525,"ℓ":526,"№":527,"™":528,"⅓":529,"⅔":530,"→":531,"∂":532,"∇":533,"∈":534,"−":535,"√":536,"∞":537,"≈":538,"≤":539,"≥":540,"⋅":541,"─":542,"│":543,"└":544,"├":545,"●":546,"★":547,"♠":548,"♣":549,"♥":550,"♭":551,"♯":552,"⟨":553,"⟩":554,"い":555,"う":556,"か":557,"き":558,"し":559,"た":560,"と":561,"の":562,"は":563,"り":564,"ん":565,"ア":566,"ィ":567,"イ":568,"ウ":569,"エ":570,"オ":571,"カ":572,"キ":573,"ク":574,"コ":575,"サ":576,"シ":577,"ス":578,"タ":579,"ッ":580,"テ":581,"ト":582,"ナ":583,"ハ":584,"ヒ":585,"フ":586,"ホ":587,"マ":588,"ラ":589,"リ":590,"ル":591,"レ":592,"ロ":593,"ン":594,"・":595,"ー":596,"一":597,"丁":598,"七":599,"万":600,"三":601,"上":602,"下":603,"世":604,"东":605,"中":606,"丰":607,"临":608,"丹":609,"主":610,"义":611,"之":612,"乌":613,"乐":614,"九":615,"乡":616,"二":617,"云":618,"五":619,"井":620,"亚":621,"京":622,"亭":623,"人":624,"什":625,"仁":626,"仙":627,"代":628,"伊":629,"会":630,"佛":631,"作":632,"依":633,"保":634,"信":635,"元":636,"光":637,"克":638,"八":639,"公":640,"六":641,"兰":642,"共":643,"关":644,"兴":645,"内":646,"军":647,"农":648,"凤":649,"刘":650,"利":651,"前":652,"劉":653,"力":654,"加":655,"勒":656,"化":657,"北":658,"区":659,"十":660,"千":661,"华":662,"南":663,"博":664,"卡":665,"厂":666,"原":667,"县":668,"双":669,"口":670,"古":671,"台":672,"司":673,"合":674,"吉":675,"同":676,"后":677,"吴":678,"周":679,"和":680,"哈":681,"唐":682,"嘉":683,"嘎":684,"四":685,"回":686,"团":687,"园":688,"国":689,"图":690,"國":691,"土":692,"地":693,"场":694,"址":695,"坊":696,"坑":697,"坝":698,"坡":699,"坪":700,"城":701,"堂":702,"堡":703,"塔":704,"塘":705,"士":706,"夏":707,"外":708,"多":709,"大":710,"天":711,"太":712,"头":713,"女":714,"如":715,"子":716,"字":717,"孙":718,"孝":719,"学":720,"學":721,"宁":722,"安":723,"宋":724,"宗":725,"官":726,"定":727,"宝":728,"家":729,"富":730,"寨":731,"寺":732,"寿":733,"小":734,"尔":735,"尖":736,"尼":737,"居":738,"屯":739,"山":740,"屿":741,"岗":742,"岛":743,"岩":744,"岭":745,"岳":746,"峡":747,"峰":748,"島":749,"川":750,"州":751,"工":752,"巴":753,"市":754,"布":755,"帝":756,"常":757,"干":758,"平":759,"年":760,"广":761,"庄":762,"庆":763,"库":764,"店":765,"庙":766,"府":767,"康":768,"建":769,"式":770,"张":771,"張":772,"彝":773,"彦":774,"徐":775,"德":776,"心":777,"成":778,"所":779,"扎":780,"拉":781,"政":782,"教":783,"文":784,"斯":785,"新":786,"方":787,"族":788,"旗":789,"日":790,"旧":791,"昌":792,"明":793,"星":794,"春":795,"普":796,"景":797,"曲":798,"書":799,"曹":800,"會":801,"月":802,"有":803,"望":804,"朝":805,"木":806,"本":807,"朱":808,"机":809,"李":810,"村":811,"杜":812,"来":813,"杨":814,"東":815,"松":816,"板":817,"林":818,"果":819,"柏":820,"查":821,"柳":822,"树":823,"株":824,"根":825,"格":826,"桃":827,"桑":828,"桥":829,"梁":830,"梅":831,"楼":832,"横":833,"正":834,"武":835,"毛":836,"氏":837,"民":838,"水":839,"永":840,"汉":841,"江":842,"池":843,"沙":844,"沟":845,"河":846,"治":847,"泉":848,"法":849,"波":850,"泰":851,"洋":852,"洛":853,"洞":854,"津":855,"洪":856,"洲":857,"流":858,"浦":859,"海":860,"清":861,"渡":862,"温":863,"港":864,"湖":865,"湾":866,"源":867,"溪":868,"满":869,"滩":870,"漢":871,"潭":872,"灣":873,"火":874,"热":875,"牛":876,"物":877,"特":878,"玄":879,"玉":880,"王":881,"玛":882,"珠":883,"理":884,"瓦":885,"生":886,"田":887,"甲":888,"界":889,"白":890,"百":891,"皇":892,"盘":893,"真":894,"石":895,"社":896,"祖":897,"神":898,"福":899,"秀":900,"秋":901,"科":902,"秦":903,"空":904,"立":905,"站":906,"章":907,"竹":908,"經":909,"红":910,"纳":911,"罗":912,"羅":913,"羊":914,"美":915,"群":916,"義":917,"老":918,"胜":919,"胡":920,"自":921,"良":922,"色":923,"花":924,"苏":925,"苗":926,"若":927,"英":928,"茶":929,"草":930,"荣":931,"莫":932,"莲":933,"華":934,"营":935,"蒙":936,"藏":937,"虎":938,"行":939,"街":940,"西":941,"观":942,"角":943,"語":944,"谷":945,"贡":946,"赛":947,"赤":948,"赵":949,"路":950,"軍":951,"车":952,"达":953,"连":954,"通":955,"道":956,"遗":957,"那":958,"郊":959,"郎":960,"郡":961,"部":962,"郭":963,"都":964,"里":965,"野":966,"金":967,"铁":968,"铺":969,"错":970,"镇":971,"長":972,"长":973,"門":974,"门":975,"阳":976,"阿":977,"陈":978,"院":979,"陳":980,"陵":981,"陽":982,"隆":983,"雄":984,"雅":985,"集":986,"雪":987,"青":988,"音":989,"顶":990,"顺":991,"风":992,"香":993,"馬":994,"马":995,"高":996,"鱼":997,"鲁":998,"鹿":999,"麻":1000,"黄":1001,"黑":1002,"龍":1003,"龙":1004,"##a":1005,"##h":1006,"##r":1007,"##m":1008,"##4":1009,"##7":1010,"##t":1011,"##u":1012,"##2":1013,"##d":1014,"##0":1015,"##p":1016,"##v":1017,"##n":1018,"##i":1019,"##g":1020,"##e":1021,"##o":1022,"##s":1023,"##f":1024,"##x":1025,"##l":1026,"##æ":1027,"##k":1028,"##b":1029,"##ø":1030,"##z":1031,"##c":1032,"##j":1033,"##y":1034,"##1":1035,"##5":1036,"##−":1037,"##9":1038,"##6":1039,"##е":1040,"##д":1041,"##о":1042,"##к":1043,"##л":1044,"##а":1045,"##н":1046,"##ل":1047,"##ه":1048,"##ρ":1049,"##γ":1050,"##ο":1051,"##σ":1052,"##τ":1053,"##λ":1054,"##ι":1055,"##w":1056,"##q":1057,"##і":1058,"##п":1059,"##я":1060,"##с":1061,"##в":1062,"##ر":1063,"##т":1064,"##р":1065,"##и":1066,"##و":1067,"##ا":1068,"##ش":1069,"##ن":1070,"##ᅥ":1071,"##ᆼ":1072,"##ᄌ":1073,"##ᄃ":1074,"##ᅩ":1075,"##8":1076,"##°":1077,"##م":1078,"##ی":1079,"##ᅡ":1080,"##ᆨ":1081,"##ᄉ":1082,"##ᆫ":1083,"##г":1084,"##3":1085,"##ð":1086,"##ط":1087,"##ب":1088,"##ي":1089,"##ᄋ":1090,"##ᅪ":1091,"##ᅳ":1092,"##ف":1093,"##ß":1094,"##ᅵ":1095,"##ł":1096,"##у":1097,"##ت":1098,"##ʌ":1099,"##ə":1100,"##κ":1101,"##ν":1102,"##ร":1103,"##ᅢ":1104,"##ᅮ":1105,"##د":1106,"##अ":1107,"##र":1108,"##м":1109,"##ɑ":1110,"##ɪ":1111,"##ز":1112,"##υ":1113,"##η":1114,"##ე":1115,"##რ":1116,"##ა":1117,"##ნ":1118,"##ი":1119,"##ե":1120,"##ր":1121,"##թ":1122,"##か":1123,"##と":1124,"##の":1125,"##ε":1126,"##α":1127,"##ш":1128,"##μ":1129,"##ς":1130,"##з":1131,"##б":1132,"##ч":1133,"##ك":1134,"##ى":1135,"##ᄐ":1136,"##ᄅ":1137,"##þ":1138,"##מ":1139,"##ר":1140,"##վ":1141,"##պ":1142,"##ա":1143,"##տ":1144,"##ո":1145,"##ի":1146,"##ц":1147,"##´":1148,"##ع":1149,"##ն":1150,"##ք":1151,"##х":1152,"##ە":1153,"##ج":1154,"##ı":1155,"##خ":1156,"##ژ":1157,"##گ":1158,"##ф":1159,"##ւ":1160,"##ו":1161,"##ל":1162,"##ם":1163,"##π":1164,"##φ":1165,"##ᅧ":1166,"##ᅣ":1167,"##ᆸ":1168,"##δ":1169,"##ω":1170,"##θ":1171,"##ь":1172,"##ة":1173,"##ძ":1174,"##ᆯ":1175,"##đ":1176,"##ย":1177,"##ˈ":1178,"##ː":1179,"##ɡ":1180,"##є":1181,"##ю":1182,"##چ":1183,"##ᄇ":1184,"##ح":1185,"##ء":1186,"##ث":1187,"##س":1188,"##น":1189,"##า":1190,"##ы":1191,"##ᆷ":1192,"##ᄀ":1193,"##™":1194,"##ʒ":1195,"##う":1196,"##ि":1197,"##न":1198,"##ध":1199,"##ी":1200,"##ү":1201,"##œ":1202,"##ʁ":1203,"##ม":1204,"##เ":1205,"##ก":1206,"##ต":1207,"##ᄎ":1208,"##ق":1209,"##ב":1210,"##ᄒ":1211,"##ᅴ":1212,"##э":1213,"##ხ":1214,"##უ":1215,"##მ":1216,"##ะ":1217,"##บ":1218,"##ท":1219,"##ส":1220,"##ด":1221,"##จ":1222,"##ს":1223,"##ლ":1224,"##ᄆ":1225,"##غ":1226,"##ช":1227,"##य":1228,"##श":1229,"##द":1230,"##भ":1231,"##म":1232,"##क":1233,"##ा":1234,"##स":1235,"##त":1236,"##ղ":1237,"##կ":1238,"##ս":1239,"##ξ":1240,"##ᄂ":1241,"##ص":1242,"##ק":1243,"##ן":1244,"##ਿ":1245,"##ਤ":1246,"##ע":1247,"##ז":1248,"##י":1249,"##צ":1250,"##ח":1251,"##ћ":1252,"##щ":1253,"##ک":1254,"##پ":1255,"##ᅲ":1256,"##ж":1257,"##ђ":1258,"##ј":1259,"##ᆺ":1260,"##ி":1261,"##ன":1262,"##ψ":1263,"##ɔ":1264,"##ん":1265,"##り":1266,"##き":1267,"##い":1268,"##ɒ":1269,"##ŋ":1270,"##წ":1271,"##ъ":1272,"##ʊ":1273,"##ɛ":1274,"##²":1275,"##մ":1276,"##հ":1277,"##ʰ":1278,"##ি":1279,"##ক":1280,"##া":1281,"##գ":1282,"##β":1283,"##ɾ":1284,"##ɣ":1285,"##ɨ":1286,"##¨":1287,"##ᅬ":1288,"##─":1289,"##®":1290,"##ン":1291,"##シ":1292,"##ה":1293,"##พ":1294,"##ง":1295,"##յ":1296,"##զ":1297,"##ᚢ":1298,"##ט":1299,"##נ":1300,"##ห":1301,"##ᅦ":1302,"##ო":1303,"##ש":1304,"##ᅯ":1305,"##ד":1306,"##×":1307,"##⋅":1308,"##ܘ":1309,"##ܐ":1310,"##ܪ":1311,"##ג":1312,"##ハ":1313,"##ー":1314,"##ト":1315,"##ـ":1316,"##χ":1317,"##פ":1318,"##א":1319,"##ᄑ":1320,"##ड":1321,"##ह":1322,"##ス":1323,"##ন":1324,"##ম":1325,"##জ":1326,"##ظ":1327,"##ө":1328,"##ʃ":1329,"##€":1330,"##ذ":1331,"##ס":1332,"##љ":1333,"##た":1334,"##し":1335,"##ʲ":1336,"##ल":1337,"##ɐ":1338,"##ல":1339,"##ம":1340,"##£":1341,"##դ":1342,"##ց":1343,"##ζ":1344,"##ਾ":1345,"##ਵ":1346,"##ਦ":1347,"##ு":1348,"##ா":1349,"##ர":1350,"##ᅱ":1351,"##ਇ":1352,"##ਆ":1353,"##⅓":1354,"##க":1355,"##ப":1356,"##ட":1357,"##ラ":1358,"##อ":1359,"##ੀ":1360,"##ᅨ":1361,"##დ":1362,"##½":1363,"##ᅭ":1364,"##イ":1365,"##ہ":1366,"##प":1367,"##ट":1368,"##ण":1369,"##ʿ":1370,"##স":1371,"##ত":1372,"##த":1373,"##³":1374,"##ज":1375,"##প":1376,"##ਰ":1377,"##ܝ":1378,"##כ":1379,"##ת":1380,"##ყ":1381,"##ਖ":1382,"##ਅ":1383,"##ਹ":1384,"##თ":1385,"##ბ":1386,"##შ":1387,"##ो":1388,"##ग":1389,"##མ":1390,"##ਣ":1391,"##ტ":1392,"##য":1393,"##კ":1394,"##ܕ":1395,"##フ":1396,"##テ":1397,"##ナ":1398,"##タ":1399,"##℃":1400,"##ʻ":1401,"##қ":1402,"##ク":1403,"##サ":1404,"##њ":1405,"##ʀ":1406,"##ਗ":1407,"##±":1408,"##ʾ":1409,"##ض":1410,"##ச":1411,"##ਨ":1412,"##व":1413,"##ਸ":1414,"##ᛏ":1415,"##ᛁ":1416,"##ɲ":1417,"##ʼ":1418,"##բ":1419,"##ვ":1420,"##ᚱ":1421,"##ᚦ":1422,"##ᛅ":1423,"##ʹ":1424,"##¬":1425,"##ਪ":1426,"##ɕ":1427,"##ც":1428,"##ད":1429,"##ག":1430,"##ფ":1431,"##ۆ":1432,"##ष":1433,"##₂":1434,"##ล":1435,"##ཕ":1436,"##ལ":1437,"##ھ":1438,"##ʔ":1439,"##キ":1440,"##ア":1441,"##გ":1442,"##រ":1443,"##ា":1444,"##¼":1445,"##ᛋ":1446,"##ᚾ":1447,"##ィ":1448,"##ル":1449,"##ᚴ":1450,"##ʉ":1451,"##≥":1452,"##∂":1453,"##ħ":1454,"##ロ":1455,"##ల":1456,"##→":1457,"##ব":1458,"##ল":1459,"##র":1460,"##ী":1461,"##カ":1462,"##լ":1463,"##リ":1464,"##ว":1465,"##வ":1466,"##ਲ":1467,"##ზ":1468,"##џ":1469,"##ێ":1470,"##ब":1471,"##¹":1472,"##ਕ":1473,"##ས":1474,"##ә":1475,"##≈":1476,"##º":1477,"##ে":1478,"##ང":1479,"##♯":1480,"##շ":1481,"##レ":1482,"##は":1483,"##ף":1484,"##দ":1485,"##ヒ":1486,"##オ":1487,"##∇":1488,"##ཁ":1489,"##ར":1490,"##ਮ":1491,"##マ":1492,"##ホ":1493,"##ป":1494,"##ქ":1495,"##コ":1496,"##ッ":1497,"##խ":1498,"##ค":1499,"##♭":1500,"##პ":1501,"##¾":1502,"##ན":1503,"##ᄏ":1504,"##ռ":1505,"##འ":1506,"##≤":1507,"##ˌ":1508,"##⅔":1509,"##エ":1510,"##♥":1511,"##˚":1512,"##ཆ":1513,"##÷":1514,"##च":1515,"##¯":1516,"##♣":1517,"##ܬ":1518,"##ਜ":1519,"##ཀ":1520,"##લ":1521,"##བ":1522,"##µ":1523,"##ƒ":1524,"##ℓ":1525,"##ウ":1526,"##∞":1527,"##∈":1528,"##★":1529,"##√":1530,"##♠":1531,"##ཤ":1532,"##●":1533,"##པ":1534,"##en":1535,"##er":1536,"##an":1537,"##ar":1538,"##et":1539,"##or":1540,"##st":1541,"##in":1542,"ar":1543,"##ed":1544,"##om":1545,"##at":1546,"##il":1547,"##el":1548,"##al":1549,"##ad":1550,"##sk":1551,"##on":1552,"##ig":1553,"##ra":1554,"den":1555,"##ch":1556,"##tt":1557,"en":1558,"av":1559,"##un":1560,"med":1561,"och":1562,"##kt":1563,"##es":1564,"##and":1565,"##ing":1566,"in":1567,"##am":1568,"for":1569,"##re":1570,"##ol":1571,"og":1572,"som":1573,"##te":1574,"##le":1575,"##ste":1576,"st":1577,"##la":1578,"##id":1579,"til":1580,"##ord":1581,"pa":1582,"##is":1583,"##ur":1584,"var":1585,"##li":1586,"##ter":1587,"om":1588,"##og":1589,"19":1590,"##ver":1591,"det":1592,"##der":1593,"##eter":1594,"##ri":1595,"##ag":1596,"##eg":1597,"de":1598,"##ro":1599,"##as":1600,"##av":1601,"an":1602,"##lig":1603,"##ade":1604,"##us":1605,"##ning":1606,"li":1607,"##pp":1608,"##ang":1609,"##it":1610,"##de":1611,"han":1612,"##aden":1613,"##ik":1614,"er":1615,"un":1616,"##eder":1617,"ing":1618,"##isk":1619,"##ck":1620,"##ud":1621,"##per":1622,"##sn":1623,"##em":1624,"##kten":1625,"be":1626,"##ak":1627,"°c":1628,"sk":1629,"##ler":1630,"##bord":1631,"man":1632,"##ederbord":1633,"##itt":1634,"##are":1635,"##art":1636,"##ger":1637,"##od":1638,"under":1639,"del":1640,"##na":1641,"##ent":1642,"##tem":1643,"##ion":1644,"##ru":1645,"##ne":1646,"##ast":1647,"gen":1648,"tra":1649,"##ot":1650,"##att":1651,"over":1652,"##aste":1653,"20":1654,"##ber":1655,"##ul":1656,"##land":1657,"##unt":1658,"ut":1659,"##ens":1660,"##atur":1661,"ett":1662,"ble":1663,"##ør":1664,"har":1665,"till":1666,"trakten":1667,"##iv":1668,"##ns":1669,"##os":1670,"fin":1671,"genom":1672,"lig":1673,"##ia":1674,"##uv":1675,"##ist":1676,"at":1677,"##jen":1678,"km":1679,"##ran":1680,"sam":1681,"al":1682,"of":1683,"##ska":1684,"##peratur":1685,"fra":1686,"##um":1687,"##peraturen":1688,"runt":1689,"##eltem":1690,"##eltemperaturen":1691,"##uvud":1692,"##lim":1693,"##snitt":1694,"manaden":1695,"land":1696,"ligger":1697,"mm":1698,"sy":1699,"reg":1700,"genomsnitt":1701,"nederbord":1702,"sp":1703,"huvud":1704,"##sen":1705,"##sm":1706,"##all":1707,"kom":1708,"da":1709,"##se":1710,"att":1711,"##rev":1712,"##ke":1713,"##ov":1714,"af":1715,"##ari":1716,"ingar":1717,"##ut":1718,"sla":1719,"##op":1720,"##amil":1721,"hav":1722,"##ue":1723,"nar":1724,"##ok":1725,"finns":1726,"famil":1727,"##be":1728,"18":1729,"##for":1730,"##fe":1731,"##sa":1732,"##sta":1733,"##ktet":1734,"per":1735,"meter":1736,"pro":1737,"##ometer":1738,"el":1739,"stor":1740,"##ilometer":1741,"##ene":1742,"##ir":1743,"men":1744,"kv":1745,"besk":1746,"##ic":1747,"familjen":1748,"##mer":1749,"##rat":1750,"##arter":1751,"##ell":1752,"kal":1753,"kan":1754,"nord":1755,"##ust":1756,"##ug":1757,"inga":1758,"##est":1759,"##het":1760,"##ost":1761,"nor":1762,"##ien":1763,"mil":1764,"##atal":1765,"##maste":1766,"beskrev":1767,"et":1768,"der":1769,"slaktet":1770,"underarter":1771,"##und":1772,"havet":1773,"delen":1774,"beskrevs":1775,"list":1776,"##van":1777,"##ek":1778,"##ft":1779,"life":1780,"##atalog":1781,"##ande":1782,"##jon":1783,"catalog":1784,"catalogue":1785,"##olk":1786,"##yg":1787,"landet":1788,"listade":1789,"fran":1790,"##ær":1791,"##sp":1792,"##va":1793,"##rad":1794,"##ser":1795,"200":1796,"##ep":1797,"##ant":1798,"##staden":1799,"kon":1800,"##ark":1801,"tor":1802,"##ere":1803,"kalla":1804,"jan":1805,"##del":1806,"ch":1807,"##ab":1808,"##yr":1809,"syd":1810,"komm":1811,"regn":1812,"huvudstaden":1813,"##ske":1814,"vid":1815,"##fter":1816,"##ann":1817,"and":1818,"sin":1819,"##smed":1820,"invan":1821,"invanare":1822,"janu":1823,"201":1824,"blev":1825,"##ss":1826,"ju":1827,"##red":1828,"arsmed":1829,"arsmedeltemperaturen":1830,"varmaste":1831,"medeltemperaturen":1832,"kallaste":1833,"or":1834,"eller":1835,"##im":1836,"kvad":1837,"##ge":1838,"kvadrat":1839,"##ende":1840,"##ard":1841,"##igaste":1842,"##kilometer":1843,"kvadratkilometer":1844,"##limeter":1845,"millimeter":1846,"##arna":1847,"##ling":1848,"tid":1849,"##ett":1850,"##raste":1851,"pl":1852,"##folk":1853,"genomsnittlig":1854,"arsn":1855,"arsnederbord":1856,"torraste":1857,"regnigaste":1858,"sv":1859,"##ort":1860,"##ap":1861,"##limat":1862,"##ster":1863,"ma":1864,"to":1865,"##00":1866,"ber":1867,"juli":1868,"januari":1869,"kommun":1870,"##end":1871,"##eb":1872,"##ader":1873,"##vin":1874,"##ala":1875,"##ation":1876,"opp":1877,"##ede":1878,"ved":1879,"##ub":1880,"##sak":1881,"##iske":1882,"##je":1883,"gr":1884,"##net":1885,"efter":1886,"##ock":1887,"##angen":1888,"##men":1889,"##ember":1890,"##iska":1891,"##ind":1892,"ter":1893,"##ac":1894,"##giv":1895,"##ier":1896,"##ly":1897,"upp":1898,"##ks":1899,"sig":1900,"##ades":1901,"##vast":1902,"mar":1903,"ver":1904,"th":1905,"##befolk":1906,"før":1907,"hog":1908,"##lag":1909,"##den":1910,"vast":1911,"##heten":1912,"##ax":1913,"199":1914,"provin":1915,"aug":1916,"##ød":1917,"##skap":1918,"ny":1919,"august":1920,"##ry":1921,"##ron":1922,"##hol":1923,"mot":1924,"##rig":1925,"ku":1926,"##ma":1927,"sj":1928,"huvudsak":1929,"so":1930,"sa":1931,"vil":1932,"ind":1933,"le":1934,"##kk":1935,"##gen":1936,"inn":1937,"terr":1938,"##tal":1939,"##ve":1940,"hel":1941,"kun":1942,"re":1943,"##ta":1944,"##ner":1945,"##ige":1946,"##res":1947,"##ka":1948,"ty":1949,"##ikk":1950,"sl":1951,"omgiv":1952,"##ae":1953,"##man":1954,"##ring":1955,"terrangen":1956,"##ie":1957,"##kke":1958,"##ob":1959,"pun":1960,"rader":1961,"provinsen":1962,"##nings":1963,"##son":1964,"art":1965,"##yn":1966,"##ill":1967,"198":1968,"##ick":1969,"narheten":1970,"hv":1971,"##ningen":1972,"lang":1973,"ogsa":1974,"##jer":1975,"##yl":1976,"hans":1977,"##me":1978,"lag":1979,"##alt":1980,"bl":1981,"mo":1982,"etter":1983,"hogsta":1984,"##rag":1985,"197":1986,"vax":1987,"##hal":1988,"des":1989,"##amp":1990,"##var":1991,"##ikt":1992,"bli":1993,"augusti":1994,"##rin":1995,"##ionen":1996,"##ygg":1997,"ud":1998,"bar":1999,"kl":2000,"dar":2001,"kilometer":2002,"##befolkat":2003,"##ets":2004,"punkten":2005,"##ip":2006,"##iser":2007,"##if":2008,"##ppen":2009,"##ib":2010,"17":2011,"ha":2012,"dan":2013,"best":2014,"##ningarna":2015,"##sh":2016,"by":2017,"196":2018,"##jar":2019,"##else":2020,"##org":2021,"jun":2022,"##rit":2023,"##io":2024,"##sl":2025,"##sart":2026,"##ina":2027,"##ket":2028,"##oh":2029,"op":2030,"##lem":2031,"##ott":2032,"##radet":2033,"ikke":2034,"oster":2035,"pol":2036,"##ebru":2037,"hon":2038,"febru":2039,"kar":2040,"omgivningarna":2041,"la":2042,"par":2043,"##ian":2044,"her":2045,"##ater":2046,"ap":2047,"fl":2048,"fil":2049,"##entr":2050,"gl":2051,"juni":2052,"mell":2053,"fram":2054,"berg":2055,"##amn":2056,"##ken":2057,"##ogra":2058,"##nes":2059,"br":2060,"fors":2061,"seg":2062,"am":2063,"##anska":2064,"se":2065,"sydost":2066,"##ale":2067,"##oll":2068,"##sb":2069,"##ake":2070,"tva":2071,"sen":2072,"##ong":2073,"ne":2074,"te":2075,"##uc":2076,"bland":2077,"samt":2078,"##iet":2079,"vaster":2080,"fler":2081,"bor":2082,"##adde":2083,"##asjon":2084,"tal":2085,"sid":2086,"##lige":2087,"val":2088,"##vis":2089,"andre":2090,"forst":2091,"hen":2092,"the":2093,"mang":2094,"mus":2095,"##ff":2096,"##øy":2097,"194":2098,"vatt":2099,"tre":2100,"nov":2101,"195":2102,"my":2103,"ein":2104,"##lar":2105,"sep":2106,"##ats":2107,"bet":2108,"gra":2109,"##ire":2110,"ad":2111,"##ligt":2112,"##ober":2113,"hun":2114,"bru":2115,"##old":2116,"dec":2117,"##ingen":2118,"tv":2119,"nordvast":2120,"##øl":2121,"##ou":2122,"soder":2123,"sven":2124,"dag":2125,"gj":2126,"mal":2127,"##rem":2128,"##aten":2129,"##ung":2130,"##vax":2131,"##ah":2132,"##klimat":2133,"februari":2134,"far":2135,"pr":2136,"16":2137,"##ane":2138,"##ulle":2139,"ant":2140,"##istor":2141,"fol":2142,"##ker":2143,"storre":2144,"193":2145,"aven":2146,"første":2147,"##unn":2148,"##rade":2149,"beg":2150,"15":2151,"nordost":2152,"##skog":2153,"centr":2154,"##eng":2155,"december":2156,"##bet":2157,"septem":2158,"##rist":2159,"hadde":2160,"norr":2161,"september":2162,"##da":2163,"ser":2164,"##ans":2165,"##iver":2166,"##ult":2167,"sitt":2168,"##ligen":2169,"fod":2170,"tr":2171,"##elt":2172,"bestar":2173,"##oc":2174,"##igt":2175,"mind":2176,"191":2177,"192":2178,"##ert":2179,"sydvast":2180,"sh":2181,"november":2182,"min":2183,"##akt":2184,"##ce":2185,"##ningsom":2186,"##ten":2187,"##ow":2188,"##des":2189,"##ore":2190,"##opp":2191,"spel":2192,"sel":2193,"##itet":2194,"##ay":2195,"##las":2196,"hade":2197,"##øn":2198,"inte":2199,"hand":2200,"mars":2201,"tro":2202,"##gel":2203,"lake":2204,"mindre":2205,"##aren":2206,"okt":2207,"##ril":2208,"narmaste":2209,"##utt":2210,"##ts":2211,"mon":2212,"##berg":2213,"mat":2214,"kuper":2215,"bas":2216,"oktober":2217,"hvor":2218,"form":2219,"kuperad":2220,"##iskt":2221,"##ild":2222,"##leg":2223,"jord":2224,"##halle":2225,"he":2226,"me":2227,"##up":2228,"##olog":2229,"##kte":2230,"##ata":2231,"rep":2232,"##rik":2233,"klimat":2234,"fød":2235,"samhalle":2236,"##ada":2237,"ex":2238,"ganska":2239,"sver":2240,"ann":2241,"##ich":2242,"##ret":2243,"folj":2244,"maj":2245,"histor":2246,"##orde":2247,"hal":2248,"##riv":2249,"dette":2250,"toppen":2251,"##aw":2252,"joh":2253,"van":2254,"co":2255,"##ift":2256,"centrala":2257,"##min":2258,"##elsen":2259,"ge":2260,"##idae":2261,"##onen":2262,"gu":2263,"##ære":2264,"##ister":2265,"tat":2266,"##ess":2267,"##liga":2268,"amer":2269,"fly":2270,"##ys":2271,"##iss":2272,"all":2273,"sm":2274,"##kon":2275,"ost":2276,"is":2277,"kall":2278,"##enter":2279,"april":2280,"##omm":2281,"gles":2282,"sch":2283,"##bru":2284,"##edan":2285,"##iller":2286,"kommunen":2287,"inter":2288,"##alen":2289,"regionen":2290,"utb":2291,"glesbefolkat":2292,"nara":2293,"##hav":2294,"##ella":2295,"andra":2296,"no":2297,"mer":2298,"født":2299,"##allet":2300,"kj":2301,"vaxer":2302,"mest":2303,"nog":2304,"##mark":2305,"omradet":2306,"ab":2307,"190":2308,"##sam":2309,"##erna":2310,"omk":2311,"stad":2312,"ste":2313,"bra":2314,"bu":2315,"##elig":2316,"##ara":2317,"##smark":2318,"##entet":2319,"##emp":2320,"##ine":2321,"led":2322,"##ha":2323,"##endrag":2324,"##yd":2325,"##fl":2326,"hj":2327,"kuh":2328,"forsta":2329,"gru":2330,"vattendrag":2331,"kra":2332,"skulle":2333,"##kl":2334,"hov":2335,"##inn":2336,"##før":2337,"##ull":2338,"fick":2339,"##vik":2340,"ol":2341,"##bum":2342,"##hor":2343,"forb":2344,"rom":2345,"platt":2346,"##her":2347,"nav":2348,"fodd":2349,"##he":2350,"##els":2351,"##ack":2352,"amerik":2353,"mel":2354,"denne":2355,"##met":2356,"##yrk":2357,"bygg":2358,"vis":2359,"vart":2360,"delst":2361,"foljande":2362,"##ass":2363,"##ningar":2364,"res":2365,"##hus":2366,"##mp":2367,"##yt":2368,"##mar":2369,"omkring":2370,"##vand":2371,"eur":2372,"##ial":2373,"eg":2374,"##tart":2375,"##ja":2376,"mod":2377,"##hold":2378,"##ond":2379,"##anger":2380,"antal":2381,"##holm":2382,"##rom":2383,"san":2384,"ord":2385,"10":2386,"polit":2387,"skal":2388,"bo":2389,"##nas":2390,"plat":2391,"grund":2392,"car":2393,"are":2394,"talet":2395,"rad":2396,"tatbefolkat":2397,"kor":2398,"##dag":2399,"hem":2400,"sc":2401,"12":2402,"delt":2403,"mellom":2404,"utg":2405,"ag":2406,"##bar":2407,"liv":2408,"##tter":2409,"ned":2410,"dem":2411,"##ansk":2412,"##ben":2413,"##sten":2414,"sverige":2415,"sav":2416,"folk":2417,"tysk":2418,"##cket":2419,"##ct":2420,"##ium":2421,"##æn":2422,"##kel":2423,"frem":2424,"huvudsakligen":2425,"gam":2426,"##fatt":2427,"189":2428,"##rid":2429,"namn":2430,"##verk":2431,"fri":2432,"##fta":2433,"mor":2434,"fa":2435,"##erne":2436,"on":2437,"##ana":2438,"##yp":2439,"##ald":2440,"gar":2441,"rik":2442,"dod":2443,"##ogram":2444,"rikt":2445,"tur":2446,"bes":2447,"##gar":2448,"##ivers":2449,"##ren":2450,"##uk":2451,"bro":2452,"sammen":2453,"##of":2454,"ta":2455,"##ide":2456,"##skapet":2457,"person":2458,"ham":2459,"##jaril":2460,"##by":2461,"##lass":2462,"14":2463,"end":2464,"flere":2465,"##istri":2466,"prod":2467,"mycket":2468,"##tid":2469,"##ings":2470,"stat":2471,"sedan":2472,"##iker":2473,"##igh":2474,"dei":2475,"##ral":2476,"##rinningsom":2477,"##rak":2478,"##ille":2479,"ock":2480,"##ograf":2481,"nag":2482,"##par":2483,"##atte":2484,"##uss":2485,"natur":2486,"syfta":2487,"##bruk":2488,"univers":2489,"##jan":2490,"##ris":2491,"vær":2492,"##elle":2493,"##awa":2494,"##hi":2495,"##sklimat":2496,"stra":2497,"##ld":2498,"lov":2499,"##ga":2500,"sal":2501,"##inge":2502,"13":2503,"ott":2504,"vin":2505,"mellan":2506,"gjen":2507,"##bl":2508,"col":2509,"ho":2510,"forsk":2511,"arbe":2512,"##atter":2513,"dis":2514,"bak":2515,"sør":2516,"##ven":2517,"medlem":2518,"##get":2519,"##nen":2520,"##pl":2521,"stør":2522,"lu":2523,"em":2524,"norra":2525,"band":2526,"kat":2527,"europ":2528,"bred":2529,"##ius":2530,"bade":2531,"ph":2532,"##stem":2533,"##ktiv":2534,"##dom":2535,"mange":2536,"11":2537,"##øm":2538,"ocksa":2539,"##med":2540,"tidlig":2541,"##nar":2542,"off":2543,"ur":2544,"##stad":2545,"storsta":2546,"##befolkad":2547,"inne":2548,"##osa":2549,"##hand":2550,"sod":2551,"##ica":2552,"aust":2553,"ca":2554,"188":2555,"##stand":2556,"##bag":2557,"hol":2558,"krig":2559,"##gang":2560,"vest":2561,"##form":2562,"hø":2563,"part":2564,"##rett":2565,"kir":2566,"stud":2567,"##au":2568,"##kter":2569,"obefolkad":2570,"blir":2571,"sodra":2572,"nu":2573,"ans":2574,"gal":2575,"utbred":2576,"sol":2577,"new":2578,"hoved":2579,"konst":2580,"##lin":2581,"riktning":2582,"fot":2583,"##over":2584,"dom":2585,"sjo":2586,"##lik":2587,"fjaril":2588,"delstaten":2589,"000":2590,"stock":2591,"##app":2592,"##sson":2593,"usa":2594,"##urg":2595,"##val":2596,"su":2597,"distri":2598,"##ytt":2599,"##som":2600,"mark":2601,"album":2602,"##anske":2603,"mid":2604,"alle":2605,"lan":2606,"##cer":2607,"svensk":2608,"##eld":2609,"selv":2610,"arten":2611,"antalet":2612,"##ef":2613,"##skol":2614,"kont":2615,"##ester":2616,"##ii":2617,"##iga":2618,"ve":2619,"##int":2620,"##iz":2621,"vilket":2622,"po":2623,"##ite":2624,"##ora":2625,"dess":2626,"##rod":2627,"stockholm":2628,"wil":2629,"eks":2630,"##iner":2631,"jordbruk":2632,"##far":2633,"detta":2634,"##zonen":2635,"##rike":2636,"##vaxter":2637,"##ativ":2638,"ly":2639,"gang":2640,"##qu":2641,"##borg":2642,"mag":2643,"hos":2644,"sydostra":2645,"##lighet":2646,"gre":2647,"##ile":2648,"klimatzonen":2649,"##vaxtart":2650,"##ator":2651,"slut":2652,"lø":2653,"##lande":2654,"frank":2655,"ben":2656,"senere":2657,"fem":2658,"##iod":2659,"god":2660,"lar":2661,"187":2662,"bel":2663,"##ym":2664,"##th":2665,"186":2666,"met":2667,"##oph":2668,"enligt":2669,"##uder":2670,"##ton":2671,"plan":2672,"##ræ":2673,"##ban":2674,"fjarilsart":2675,"##jur":2676,"##rakt":2677,"##rum":2678,"##konom":2679,"##ford":2680,"##gan":2681,"##lands":2682,"fle":2683,"fj":2684,"lac":2685,"##empel":2686,"##ula":2687,"##led":2688,"di":2689,"cer":2690,"død":2691,"nam":2692,"savann":2693,"store":2694,"anvand":2695,"##piskt":2696,"eit":2697,"##nom":2698,"##lingen":2699,"platser":2700,"byg":2701,"##rer":2702,"##az":2703,"tvav":2704,"si":2705,"##ph":2706,"as":2707,"##enn":2708,"kanada":2709,"##our":2710,"##satt":2711,"##gt":2712,"skol":2713,"##pe":2714,"annat":2715,"rek":2716,"##kom":2717,"##elser":2718,"skrev":2719,"##ukt":2720,"##ity":2721,"lat":2722,"eng":2723,"##ninger":2724,"##ensis":2725,"ro":2726,"være":2727,"go":2728,"tidligere":2729,"jordbruksmark":2730,"##isjon":2731,"##fors":2732,"##af":2733,"hus":2734,"ele":2735,"##ach":2736,"fikk":2737,"havde":2738,"byen":2739,"ei":2740,"##kar":2741,"film":2742,"##spel":2743,"siden":2744,"##sv":2745,"oli":2746,"bi":2747,"gjorde":2748,"tvavinge":2749,"tvavingeart":2750,"##sil":2751,"ed":2752,"##hall":2753,"con":2754,"inom":2755,"##agen":2756,"##let":2757,"##sf":2758,"##nad":2759,"tog":2760,"##ec":2761,"intern":2762,"ingen":2763,"int":2764,"grupp":2765,"ottawa":2766,"##sjon":2767,"dra":2768,"kunne":2769,"inst":2770,"ang":2771,"lin":2772,"gener":2773,"##pt":2774,"bil":2775,"##bygg":2776,"##orn":2777,"##ida":2778,"pres":2779,"##ers":2780,"kyrk":2781,"vann":2782,"sn":2783,"norsk":2784,"kraft":2785,"norge":2786,"utan":2787,"im":2788,"##rukt":2789,"ater":2790,"##era":2791,"du":2792,"fort":2793,"son":2794,"cre":2795,"krist":2796,"engel":2797,"klub":2798,"vastra":2799,"tek":2800,"kn":2801,"##les":2802,"gjennom":2803,"##ya":2804,"##ultur":2805,"vir":2806,"vi":2807,"ital":2808,"pre":2809,"##aget":2810,"grunn":2811,"avrinningsom":2812,"##indel":2813,"red":2814,"mu":2815,"##iden":2816,"musik":2817,"ek":2818,"##ilt":2819,"##bo":2820,"##sj":2821,"sak":2822,"ostra":2823,"finland":2824,"ald":2825,"##ho":2826,"rund":2827,"kort":2828,"lok":2829,"##sy":2830,"svenska":2831,"##rift":2832,"start":2833,"organ":2834,"styr":2835,"befolk":2836,"ry":2837,"sjon":2838,"ga":2839,"##ate":2840,"bok":2841,"komp":2842,"##slag":2843,"danmark":2844,"sine":2845,"ak":2846,"sag":2847,"nation":2848,"tem":2849,"##ioner":2850,"##co":2851,"##ern":2852,"barn":2853,"id":2854,"samme":2855,"sar":2856,"gav":2857,"arbet":2858,"kol":2859,"kommune":2860,"do":2861,"ob":2862,"fun":2863,"##rar":2864,"senare":2865,"##hed":2866,"trad":2867,"##nem":2868,"flera":2869,"kamp":2870,"##fer":2871,"2010":2872,"sas":2873,"slutt":2874,"nær":2875,"##inger":2876,"##ingar":2877,"##veck":2878,"christ":2879,"øst":2880,"begyn":2881,"prof":2882,"stort":2883,"disse":2884,"##han":2885,"sek":2886,"185":2887,"##ham":2888,"##sel":2889,"vikt":2890,"tidig":2891,"kr":2892,"##vet":2893,"30":2894,"repres":2895,"blant":2896,"austral":2897,"ye":2898,"ort":2899,"period":2900,"pal":2901,"##ena":2902,"##æl":2903,"25":2904,"fast":2905,"##partem":2906,"forts":2907,"vaxt":2908,"mens":2909,"tallet":2910,"creek":2911,"##fly":2912,"##etter":2913,"flytt":2914,"##klar":2915,"kand":2916,"kong":2917,"count":2918,"hver":2919,"##ont":2920,"arbeid":2921,"sand":2922,"brit":2923,"##ca":2924,"kommer":2925,"basen":2926,"ke":2927,"pop":2928,"##rich":2929,"##minist":2930,"na":2931,"##ura":2932,"2008":2933,"lite":2934,"ban":2935,"ger":2936,"##mal":2937,"verd":2938,"bredden":2939,"##gr":2940,"2007":2941,"fred":2942,"kin":2943,"##mans":2944,"medel":2945,"omgivande":2946,"dock":2947,"kro":2948,"tidigare":2949,"##esp":2950,"##reg":2951,"##øde":2952,"##sing":2953,"samma":2954,"2006":2955,"brasil":2956,"##oss":2957,"tropiskt":2958,"denna":2959,"##lø":2960,"fyl":2961,"inse":2962,"olika":2963,"star":2964,"moder":2965,"administ":2966,"##ander":2967,"div":2968,"fotb":2969,"##ubli":2970,"jam":2971,"høy":2972,"kap":2973,"2000":2974,"str":2975,"kultur":2976,"kam":2977,"ofte":2978,"sina":2979,"føl":2980,"hemib":2981,"##ager":2982,"##stall":2983,"##byg":2984,"tran":2985,"mount":2986,"##oreala":2987,"hemiboreala":2988,"ac":2989,"##ba":2990,"##partementet":2991,"deres":2992,"##sch":2993,"##øre":2994,"##ones":2995,"bergig":2996,"pla":2997,"utbredningsom":2998,"ko":2999,"##ighet":3000,"que":3001,"nye":3002,"2011":3003,"ra":3004,"##eller":3005,"vara":3006,"##gj":3007,"num":3008,"##rep":3009,"vaxtlighet":3010,"##cker":3011,"##oner":3012,"mart":3013,"alt":3014,"##uld":3015,"universitet":3016,"##ira":3017,"john":3018,"dansk":3019,"amp":3020,"filmen":3021,"##ondon":3022,"artens":3023,"carl":3024,"##kes":3025,"sø":3026,"dal":3027,"##har":3028,"##ola":3029,"karl":3030,"sted":3031,"frankrike":3032,"2009":3033,"##ratt":3034,"##one":3035,"egen":3036,"søn":3037,"region":3038,"tot":3039,"tok":3040,"##ationen":3041,"##fin":3042,"##rog":3043,"london":3044,"namnet":3045,"jap":3046,"syn":3047,"utbredningsomrade":3048,"##oma":3049,"hennes":3050,"forl":3051,"100":3052,"184":3053,"bol":3054,"##gende":3055,"##ktor":3056,"##lagt":3057,"blandskog":3058,"##ongen":3059,"##tes":3060,"tred":3061,"##ografi":3062,"sant":3063,"von":3064,"##kn":3065,"bed":3066,"##elen":3067,"##alp":3068,"tyskland":3069,"mex":3070,"##uter":3071,"##arden":3072,"bild":3073,"2005":3074,"##ges":3075,"deb":3076,"halv":3077,"##skrig":3078,"januar":3079,"fire":3080,"##ksjon":3081,"2012":3082,"tan":3083,"stil":3084,"skog":3085,"cerro":3086,"arean":3087,"manga":3088,"##arta":3089,"fer":3090,"##set":3091,"gran":3092,"sang":3093,"##mann":3094,"ov":3095,"gift":3096,"##kur":3097,"ark":3098,"inv":3099,"tilb":3100,"##yra":3101,"amerikansk":3102,"##flug":3103,"sjal":3104,"##sd":3105,"##ish":3106,"##ley":3107,"avrinningsomradet":3108,"skalbag":3109,"storb":3110,"port":3111,"##ey":3112,"##sted":3113,"dav":3114,"21":3115,"milit":3116,"sommer":3117,"oper":3118,"forsam":3119,"##este":3120,"klimatet":3121,"##ace":3122,"##20":3123,"##erat":3124,"##jd":3125,"can":3126,"##ive":3127,"jak":3128,"##gte":3129,"enn":3130,"stora":3131,"meg":3132,"##band":3133,"cir":3134,"busk":3135,"italien":3136,"##ologi":3137,"##ident":3138,"sub":3139,"tillsam":3140,"##aler":3141,"tillsammans":3142,"##undet":3143,"staden":3144,"##ins":3145,"program":3146,"##flugor":3147,"##arbe":3148,"##ons":3149,"navn":3150,"kø":3151,"##tte":3152,"##ition":3153,"##ork":3154,"alla":3155,"kunst":3156,"departementet":3157,"jar":3158,"if":3159,"rundt":3160,"mad":3161,"dessa":3162,"##kker":3163,"dire":3164,"vit":3165,"##jet":3166,"##ritann":3167,"##ros":3168,"##mus":3169,"storbritann":3170,"##bia":3171,"stads":3172,"##ført":3173,"##mel":3174,"kron":3175,"pri":3176,"##slo":3177,"ville":3178,"ven":3179,"##gere":3180,"##ucer":3181,"24":3182,"##ij":3183,"vm":3184,"##lan":3185,"##och":3186,"satt":3187,"2004":3188,"savannklimat":3189,"oly":3190,"##rop":3191,"##vn":3192,"helsing":3193,"innan":3194,"fr":3195,"karri":3196,"cal":3197,"aret":3198,"blitt":3199,"samtid":3200,"kop":3201,"sing":3202,"pe":3203,"foret":3204,"tar":3205,"pat":3206,"noen":3207,"##edes":3208,"##raden":3209,"profess":3210,"norske":3211,"ale":3212,"##ors":3213,"ses":3214,"##orter":3215,"verk":3216,"2016":3217,"nya":3218,"##ipp":3219,"##sc":3220,"forf":3221,"sma":3222,"wal":3223,"riks":3224,"stapp":3225,"kina":3226,"##lev":3227,"##orden":3228,"##blad":3229,"ung":3230,"vand":3231,"##djur":3232,"flyg":3233,"natt":3234,"ekonom":3235,"insekt":3236,"##smarker":3237,"leg":3238,"##ekk":3239,"##ette":3240,"##endt":3241,"##vid":3242,"##hel":3243,"forek":3244,"com":3245,"##iva":3246,"##rupp":3247,"navnet":3248,"studer":3249,"tri":3250,"char":3251,"representer":3252,"22":3253,"tim":3254,"grasmarker":3255,"ep":3256,"ford":3257,"bla":3258,"varld":3259,"stappklimat":3260,"23":3261,"først":3262,"vok":3263,"kallt":3264,"##br":3265,"##len":3266,"dog":3267,"##ice":3268,"skalbagg":3269,"lever":3270,"russ":3271,"helt":3272,"skalbaggsart":3273,"##strom":3274,"kvinn":3275,"ru":3276,"##istan":3277,"exempel":3278,"##olf":3279,"2014":3280,"kjent":3281,"største":3282,"hold":3283,"##part":3284,"ars":3285,"##ksam":3286,"england":3287,"administrat":3288,"je":3289,"annet":3290,"##che":3291,"il":3292,"omfatt":3293,"bj":3294,"mann":3295,"vært":3296,"##kket":3297,"verden":3298,"##cent":3299,"##ori":3300,"oppet":3301,"183":3302,"internation":3303,"##sker":3304,"##landskap":3305,"##skar":3306,"1990":3307,"##vi":3308,"iran":3309,"dj":3310,"soc":3311,"qu":3312,"tiden":3313,"##raft":3314,"##stil":3315,"##jade":3316,"ul":3317,"albumet":3318,"##til":3319,"sock":3320,"##rang":3321,"##atet":3322,"2013":3323,"##atus":3324,"ev":3325,"vag":3326,"##ering":3327,"##pa":3328,"##rott":3329,"pers":3330,"olymp":3331,"fisk":3332,"aktiv":3333,"##its":3334,"bri":3335,"insektsart":3336,"##aster":3337,"ka":3338,"fatt":3339,"##fj":3340,"tit":3341,"##hj":3342,"##ix":3343,"##cher":3344,"ros":3345,"##legg":3346,"##ota":3347,"##tor":3348,"##eln":3349,"##age":3350,"ig":3351,"lo":3352,"lj":3353,"2015":3354,"##ops":3355,"uten":3356,"sær":3357,"vatten":3358,"1970":3359,"mellem":3360,"##vag":3361,"popul":3362,"##ommer":3363,"##sfor":3364,"gallande":3365,"bety":3366,"stod":3367,"mas":3368,"forsvar":3369,"vant":3370,"dy":3371,"sydlig":3372,"##ider":3373,"peter":3374,"##ico":3375,"sim":3376,"samhall":3377,"park":3378,"fik":3379,"hele":3380,"##ationer":3381,"##ksom":3382,"kval":3383,"divis":3384,"kung":3385,"span":3386,"utt":3387,"##ært":3388,"dam":3389,"##landet":3390,"##we":3391,"historie":3392,"##ars":3393,"##alis":3394,"kant":3395,"##esh":3396,"sten":3397,"spill":3398,"1980":3399,"ba":3400,"distriktet":3401,"##æg":3402,"oslo":3403,"busklandskap":3404,"##lav":3405,"##ith":3406,"##orna":3407,"##styr":3408,"johan":3409,"cor":3410,"nytt":3411,"gun":3412,"28":3413,"europa":3414,"sov":3415,"##cia":3416,"slakte":3417,"sil":3418,"26":3419,"gud":3420,"jos":3421,"##ika":3422,"bur":3423,"##bert":3424,"sit":3425,"##ash":3426,"februar":3427,"##enskap":3428,"##ona":3429,"indones":3430,"##burg":3431,"##skab":3432,"##mat":3433,"##spr":3434,"kulle":3435,"arg":3436,"27":3437,"##jø":3438,"svamp":3439,"##lassen":3440,"air":3441,"prin":3442,"##ele":3443,"##fil":3444,"##bol":3445,"willi":3446,"##mo":3447,"menne":3448,"##vær":3449,"oken":3450,"skap":3451,"##rut":3452,"fal":3453,"##ides":3454,"sydvastra":3455,"##fal":3456,"vastlig":3457,"2003":3458,"gor":3459,"laget":3460,"kateg":3461,"##sar":3462,"personer":3463,"ska":3464,"##ua":3465,"##za":3466,"rio":3467,"teg":3468,"muse":3469,"##bin":3470,"2002":3471,"nordostra":3472,"##lad":3473,"ret":3474,"bal":3475,"borjade":3476,"##esten":3477,"hur":3478,"pas":3479,"##off":3480,"helsingfors":3481,"los":3482,"organis":3483,"##abler":3484,"##ux":3485,"tillhor":3486,"1960":3487,"gikk":3488,"##ila":3489,"##ellt":3490,"okenklimat":3491,"noe":3492,"neder":3493,"tekn":3494,"hot":3495,"kines":3496,"##lam":3497,"serien":3498,"bandet":3499,"stand":3500,"lev":3501,"##esi":3502,"##trad":3503,"hjem":3504,"##ynd":3505,"vel":3506,"mari":3507,"##eret":3508,"2001":3509,"od":3510,"ander":3511,"mun":3512,"grad":3513,"fan":3514,"##landsklimat":3515,"foren":3516,"##ører":3517,"##sg":3518,"##inga":3519,"sjalv":3520,"2018":3521,"city":3522,"forsamling":3523,"spiller":3524,"nok":3525,"stracker":3526,"rett":3527,"william":3528,"##utom":3529,"##ise":3530,"##stra":3531,"##iar":3532,"##alist":3533,"sle":3534,"luft":3535,"##under":3536,"##uvudstaden":3537,"skri":3538,"lovskog":3539,"tredje":3540,"rh":3541,"lav":3542,"rod":3543,"ni":3544,"##ffe":3545,"indonesien":3546,"island":3547,"kur":3548,"fag":3549,"klubben":3550,"181":3551,"ofta":3552,"skj":3553,"2017":3554,"rak":3555,"las":3556,"##ote":3557,"##iken":3558,"##adem":3559,"tav":3560,"##heran":3561,"##ensen":3562,"ir":3563,"naturlig":3564,"##vir":3565,"utvik":3566,"kvin":3567,"##otter":3568,"gro":3569,"tyske":3570,"gruppen":3571,"nagra":3572,"kjen":3573,"##bel":3574,"##det":3575,"bare":3576,"etabler":3577,"jakarta":3578,"##vit":3579,"1999":3580,"cirka":3581,"samhallen":3582,"rol":3583,"sist":3584,"ram":3585,"##hov":3586,"konkur":3587,"##ustri":3588,"stekel":3589,"##odes":3590,"medelhav":3591,"rel":3592,"##uth":3593,"teheran":3594,"##okrat":3595,"##ric":3596,"sprak":3597,"##ies":3598,"##rol":3599,"##vo":3600,"##oren":3601,"29":3602,"##yc":3603,"utveck":3604,"ast":3605,"##uler":3606,"##illa":3607,"krit":3608,"medan":3609,"danske":3610,"arkite":3611,"paris":3612,"mac":3613,"nordvastra":3614,"stekelart":3615,"bon":3616,"christian":3617,"##pel":3618,"##rond":3619,"verdens":3620,"##iens":3621,"sovjet":3622,"##pet":3623,"roman":3624,"ovrig":3625,"ass":3626,"##iel":3627,"persiska":3628,"##iro":3629,"temper":3630,"musikk":3631,"bron":3632,"klad":3633,"stø":3634,"50":3635,"##like":3636,"full":3637,"##ng":3638,"klass":3639,"general":3640,"##unkt":3641,"vinter":3642,"fe":3643,"totalt":3644,"bid":3645,"##oden":3646,"siste":3647,"##ellige":3648,"##skri":3649,"forfatt":3650,"##sø":3651,"større":3652,"##asjonen":3653,"allt":3654,"langs":3655,"bag":3656,"elekt":3657,"like":3658,"##shuvudstaden":3659,"paul":3660,"ganger":3661,"gard":3662,"vanlig":3663,"bruk":3664,"##yll":3665,"ekonomiska":3666,"area":3667,"rock":3668,"##kv":3669,"##jo":3670,"arter":3671,"sem":3672,"##una":3673,"##steklar":3674,"##aga":3675,"##ure":3676,"##oni":3677,"landskapet":3678,"slik":3679,"##ps":3680,"##benhav":3681,"fyra":3682,"##stre":3683,"bog":3684,"medelhavsklimat":3685,"langt":3686,"##orer":3687,"sty":3688,"inns":3689,"##lade":3690,"##aceae":3691,"##ogn":3692,"##gav":3693,"ren":3694,"31":3695,"derfor":3696,"leder":3697,"hall":3698,"##heter":3699,"kh":3700,"##unds":3701,"##sun":3702,"##isen":3703,"##sert":3704,"aren":3705,"inlandsklimat":3706,"amerikanske":3707,"##gard":3708,"hy":3709,"gamle":3710,"stift":3711,"##aka":3712,"spec":3713,"fransk":3714,"##andet":3715,"mich":3716,"københav":3717,"varier":3718,"døde":3719,"inkl":3720,"result":3721,"svar":3722,"bort":3723,"mand":3724,"##jerne":3725,"##album":3726,"1998":3727,"mosa":3728,"##use":3729,"##lege":3730,"varit":3731,"pan":3732,"180":3733,"stam":3734,"spelade":3735,"samman":3736,"priv":3737,"gick":3738,"hor":3739,"##dal":3740,"##ias":3741,"matte":3742,"2019":3743,"kunde":3744,"ti":3745,"rev":3746,"skriv":3747,"##ita":3748,"teater":3749,"bry":3750,"##ølv":3751,"honom":3752,"australien":3753,"tilbake":3754,"system":3755,"##rika":3756,"jo":3757,"1992":3758,"thom":3759,"perioden":3760,"##uren":3761,"##ago":3762,"##vest":3763,"nasjon":3764,"##roll":3765,"##hl":3766,"offent":3767,"mai":3768,"ork":3769,"hu":3770,"##delen":3771,"##ward":3772,"slag":3773,"dare":3774,"forhold":3775,"borjan":3776,"##ress":3777,"nummer":3778,"##aria":3779,"national":3780,"1994":3781,"bev":3782,"##erte":3783,"igen":3784,"johann":3785,"##sprung":3786,"omrade":3787,"##anter":3788,"rum":3789,"deltok":3790,"tel":3791,"tempererat":3792,"betyd":3793,"mont":3794,"litter":3795,"##elige":3796,"grav":3797,"und":3798,"##serv":3799,"##alder":3800,"1996":3801,"viktig":3802,"engelsk":3803,"delav":3804,"kladogram":3805,"##oth":3806,"gennem":3807,"pass":3808,"ursprung":3809,"182":3810,"##gi":3811,"mosaik":3812,"georg":3813,"##aland":3814,"##kop":3815,"##inister":3816,"##spiller":3817,"unge":3818,"delavrinningsom":3819,"##naden":3820,"##ilte":3821,"##ze":3822,"##rede":3823,"##egron":3824,"tom":3825,"fore":3826,"ky":3827,"##sby":3828,"ras":3829,"stadsegron":3830,"##handling":3831,"ytter":3832,"##uel":3833,"##ath":3834,"##teborg":3835,"verksam":3836,"ii":3837,"1900":3838,"##djursart":3839,"forekommer":3840,"##laget":3841,"##igheter":3842,"darefter":3843,"##ain":3844,"tak":3845,"dann":3846,"myr":3847,"post":3848,"##chen":3849,"fang":3850,"bay":3851,"##upp":3852,"turner":3853,"prakt":3854,"storbritannien":3855,"bill":3856,"ligg":3857,"hela":3858,"##kj":3859,"fotball":3860,"hvil":3861,"##pen":3862,"ib":3863,"##idler":3864,"næ":3865,"administrativ":3866,"milli":3867,"we":3868,"goteborg":3869,"bara":3870,"##lo":3871,"gjort":3872,"nom":3873,"york":3874,"##lagg":3875,"plats":3876,"##cis":3877,"sett":3878,"president":3879,"1997":3880,"##iter":3881,"guld":3882,"##udd":3883,"##ænd":3884,"meget":3885,"mak":3886,"##ign":3887,"chile":3888,"pos":3889,"mc":3890,"roll":3891,"delavrinningsomrade":3892,"##organ":3893,"##bb":3894,"alex":3895,"##atan":3896,"##ko":3897,"phil":3898,"##bro":3899,"##isert":3900,"##delse":3901,"innen":3902,"1991":3903,"alger":3904,"1995":3905,"kab":3906,"aller":3907,"bre":3908,"professor":3909,"##helm":3910,"dr":3911,"besl":3912,"##erade":3913,"kirke":3914,"sad":3915,"kategor":3916,"fall":3917,"##drag":3918,"##forb":3919,"##asta":3920,"##lit":3921,"bul":3922,"cent":3923,"fjell":3924,"##anden":3925,"##svar":3926,"socken":3927,"##ommun":3928,"##arbet":3929,"1993":3930,"##itar":3931,"høj":3932,"##abri":3933,"bran":3934,"##rader":3935,"tru":3936,"øy":3937,"##iko":3938,"fest":3939,"##eph":3940,"pra":3941,"##ood":3942,"lind":3943,"overt":3944,"##iat":3945,"innebar":3946,"jur":3947,"1950":3948,"via":3949,"fjer":3950,"song":3951,"ratt":3952,"mø":3953,"40":3954,"varm":3955,"gunung":3956,"##ino":3957,"lou":3958,"##hund":3959,"slapp":3960,"bos":3961,"afg":3962,"##foren":3963,"##delig":3964,"igjen":3965,"svart":3966,"deltog":3967,"##bil":3968,"rober":3969,"pse":3970,"##ama":3971,"##bu":3972,"##kkje":3973,"grev":3974,"mol":3975,"pen":3976,"fyr":3977,"relig":3978,"bib":3979,"##onia":3980,"pet":3981,"##str":3982,"fanns":3983,"instit":3984,"kvar":3985,"##amer":3986,"tilh":3987,"kring":3988,"##ktar":3989,"len":3990,"arab":3991,"sex":3992,"ok":3993,"begge":3994,"##olit":3995,"skar":3996,"lik":3997,"##delt":3998,"ungdom":3999,"##rav":4000,"kust":4001,"monsun":4002,"##orge":4003,"1988":4004,"fre":4005,"ton":4006,"##vel":4007,"historia":4008,"europe":4009,"tex":4010,"##vig":4011,"##sport":4012,"vol":4013,"km²":4014,"##yttet":4015,"lange":4016,"ikkje":4017,"middel":4018,"tillegg":4019,"prob":4020,"##vatt":4021,"delstat":4022,"videre":4023,"mater":4024,"dermed":4025,"bore":4026,"try":4027,"forsø":4028,"##skil":4029,"##oster":4030,"regnskog":4031,"##50":4032,"##gor":4033,"##ceae":4034,"eld":4035,"freder":4036,"monsunklimat":4037,"##sst":4038,"ist":4039,"##tra":4040,"don":4041,"akt":4042,"##slut":4043,"økonom":4044,"##ios":4045,"##føl":4046,"miss":4047,"1800":4048,"##port":4049,"##eren":4050,"##dt":4051,"##ney":4052,"##ept":4053,"##alet":4054,"county":4055,"##igen":4056,"spor":4057,"##staende":4058,"eftersom":4059,"1989":4060,"sur":4061,"forbindel":4062,"##arkt":4063,"deras":4064,"brun":4065,"##æng":4066,"##fordes":4067,"mott":4068,"erne":4069,"orkide":4070,"blad":4071,"fleste":4072,"yt":4073,"mitt":4074,"##kken":4075,"desember":4076,"mur":4077,"tall":4078,"republi":4079,"arkitekt":4080,"stre":4081,"##roducer":4082,"est":4083,"##ani":4084,"bir":4085,"ten":4086,"##ces":4087,"##rob":4088,"##que":4089,"##stein":4090,"##ole":4091,"romer":4092,"##endte":4093,"##itz":4094,"anna":4095,"##unde":4096,"vaxtart":4097,"##meh":4098,"##sket":4099,"hed":4100,"klar":4101,"nederland":4102,"arene":4103,"jon":4104,"eksempel":4105,"##si":4106,"været":4107,"##osof":4108,"sku":4109,"##ument":4110,"sym":4111,"##sminister":4112,"bygget":4113,"bod":4114,"pseud":4115,"##heim":4116,"##erv":4117,"dok":4118,"##dann":4119,"1971":4120,"erik":4121,"prem":4122,"##øst":4123,"finnes":4124,"offic":4125,"dre":4126,"##ense":4127,"henne":4128,"anvands":4129,"##bor":4130,"1984":4131,"enk":4132,"##iges":4133,"##ockey":4134,"skip":4135,"##ini":4136,"1920":4137,"ide":4138,"hum":4139,"spindel":4140,"vet":4141,"sasongen":4142,"##ærer":4143,"kil":4144,"glob":4145,"179":4146,"pros":4147,"##oder":4148,"langd":4149,"hett":4150,"vill":4151,"brukt":4152,"veg":4153,"imidler":4154,"delar":4155,"imidlertid":4156,"ons":4157,"##iger":4158,"vic":4159,"seks":4160,"##bec":4161,"psy":4162,"##jarn":4163,"idag":4164,"##ram":4165,"jern":4166,"framst":4167,"kantonen":4168,"robert":4169,"rec":4170,"folket":4171,"##ht":4172,"motor":4173,"berlin":4174,"side":4175,"norrut":4176,"produ":4177,"gt":4178,"##nam":4179,"effe":4180,"regnskogsklimat":4181,"handling":4182,"præ":4183,"forfatter":4184,"vik":4185,"500":4186,"##uer":4187,"countyt":4188,"gi":4189,"##iana":4190,"##usjon":4191,"##rinn":4192,"nagot":4193,"##amen":4194,"##arbeid":4195,"soderut":4196,"1987":4197,"george":4198,"##iteten":4199,"lt":4200,"1986":4201,"sat":4202,"vert":4203,"1940":4204,"##uden":4205,"##ox":4206,"jac":4207,"sentr":4208,"saint":4209,"chesh":4210,"fortsatte":4211,"tab":4212,"maria":4213,"endast":4214,"fotboll":4215,"super":4216,"boreala":4217,"hvis":4218,"tatt":4219,"cl":4220,"ansvar":4221,"beste":4222,"britt":4223,"1930":4224,"##omen":4225,"fir":4226,"stem":4227,"##sag":4228,"mexico":4229,"##namn":4230,"##uli":4231,"##endes":4232,"slaget":4233,"##ete":4234,"gora":4235,"##ras":4236,"##stemet":4237,"kry":4238,"mere":4239,"fas":4240,"##ski":4241,"øv":4242,"hund":4243,"##ruktbar":4244,"bat":4245,"dat":4246,"##ism":4247,"1972":4248,"##cus":4249,"industri":4250,"jarn":4251,"have":4252,"lam":4253,"##akter":4254,"1985":4255,"##ror":4256,"typ":4257,"mulig":4258,"cheshmeh":4259,"uk":4260,"colom":4261,"##seende":4262,"skrevet":4263,"##kan":4264,"gull":4265,"sæ":4266,"##iskop":4267,"mis":4268,"redan":4269,"rekke":4270,"ster":4271,"##adi":4272,"blandt":4273,"rich":4274,"hektar":4275,"##omy":4276,"##ea":4277,"arrang":4278,"strid":4279,"alder":4280,"tag":4281,"ring":4282,"##ementet":4283,"os":4284,"brasilien":4285,"##bold":4286,"##dig":4287,"vap":4288,"1968":4289,"guver":4290,"1974":4291,"sidan":4292,"plass":4293,"sport":4294,"sveriges":4295,"##arande":4296,"københavn":4297,"##vard":4298,"1945":4299,"##tro":4300,"hast":4301,"nat":4302,"##ikken":4303,"##ublik":4304,"iuc":4305,"##stor":4306,"angel":4307,"##byggere":4308,"samband":4309,"##huset":4310,"##plan":4311,"tilbag":4312,"stedet":4313,"cap":4314,"gangen":4315,"ofruktbar":4316,"##als":4317,"inkluder":4318,"##ny":4319,"##ellen":4320,"##opter":4321,"thomas":4322,"1979":4323,"spilte":4324,"bror":4325,"iucn":4326,"alf":4327,"rid":4328,"gla":4329,"forv":4330,"sna":4331,"##ubb":4332,"blom":4333,"##ions":4334,"##amot":4335,"tap":4336,"liten":4337,"aldre":4338,"##isering":4339,"indiv":4340,"placer":4341,"topp":4342,"cy":4343,"1982":4344,"quebec":4345,"befolkningen":4346,"mic":4347,"2020":4348,"##gick":4349,"##ikker":4350,"aut":4351,"argent":4352,"##ourn":4353,"spanien":4354,"##osp":4355,"bør":4356,"##sat":4357,"##yrka":4358,"##sprak":4359,"pris":4360,"grand":4361,"lak":4362,"##kning":4363,"social":4364,"fordi":4365,"filosof":4366,"david":4367,"60":4368,"##elli":4369,"insp":4370,"tjan":4371,"us":4372,"direkt":4373,"regjer":4374,"1976":4375,"blevet":4376,"##kor":4377,"##ativt":4378,"yng":4379,"1983":4380,"koh":4381,"ent":4382,"##ria":4383,"##lat":4384,"slott":4385,"##uten":4386,"vers":4387,"##iserar":4388,"##asa":4389,"sta":4390,"familien":4391,"##yo":4392,"tj":4393,"camp":4394,"ulike":4395,"1973":4396,"##heng":4397,"bus":4398,"litt":4399,"franske":4400,"##eth":4401,"bad":4402,"nr":4403,"uden":4404,"parti":4405,"vad":4406,"lud":4407,"vidare":4408,"cup":4409,"1981":4410,"bek":4411,"lund":4412,"##anten":4413,"samling":4414,"spar":4415,"##fall":4416,"osterut":4417,"##lasser":4418,"##ci":4419,"produkt":4420,"vasterut":4421,"##inen":4422,"nuv":4423,"##dem":4424,"##inal":4425,"##hen":4426,"sold":4427,"leng":4428,"mester":4429,"politiker":4430,"##jekt":4431,"kjø":4432,"lille":4433,"1964":4434,"jag":4435,"ener":4436,"vissa":4437,"dri":4438,"fukt":4439,"##eh":4440,"beskriv":4441,"stav":4442,"##ima":4443,"imp":4444,"west":4445,"bom":4446,"##anda":4447,"1975":4448,"##eta":4449,"##utveck":4450,"litteratur":4451,"1978":4452,"bakgr":4453,"tjen":4454,"##skrift":4455,"178":4456,"sum":4457,"1969":4458,"britiske":4459,"amb":4460,"disk":4461,"biografi":4462,"hert":4463,"##ifl":4464,"alli":4465,"konf":4466,"samtidig":4467,"1967":4468,"anden":4469,"moj":4470,"lokal":4471,"hit":4472,"rab":4473,"##mester":4474,"inf":4475,"krigen":4476,"##urer":4477,"fys":4478,"hom":4479,"latin":4480,"hær":4481,"publi":4482,"samf":4483,"1977":4484,"jean":4485,"sista":4486,"##nade":4487,"##skole":4488,"##isten":4489,"cm":4490,"pot":4491,"produs":4492,"colum":4493,"nagon":4494,"##dte":4495,"##orea":4496,"##aller":4497,"ner":4498,"nil":4499,"tilf":4500,"##histor":4501,"##ario":4502,"forskj":4503,"enda":4504,"##espiller":4505,"177":4506,"egent":4507,"##liv":4508,"træ":4509,"fart":4510,"university":4511,"finalen":4512,"kons":4513,"norm":4514,"tol":4515,"##arktis":4516,"##ev":4517,"##jor":4518,"infor":4519,"prote":4520,"gamla":4521,"##rim":4522,"les":4523,"lys":4524,"afghan":4525,"tillb":4526,"verdenskrig":4527,"##rettet":4528,"##bart":4529,"##holdt":4530,"##ange":4531,"distrikt":4532,"bada":4533,"begynte":4534,"japan":4535,"##cken":4536,"godt":4537,"opprinn":4538,"##uch":4539,"allerede":4540,"førte":4541,"##ads":4542,"##wa":4543,"brev":4544,"wor":4545,"hvert":4546,"##vist":4547,"1952":4548,"stats":4549,"bø":4550,"##film":4551,"##adespel":4552,"enkel":4553,"##famil":4554,"arm":4555,"egyp":4556,"ovrigt":4557,"traf":4558,"slutet":4559,"##eri":4560,"##anth":4561,"##førte":4562,"##hu":4563,"borg":4564,"norges":4565,"##mos":4566,"##usen":4567,"job":4568,"cla":4569,"##ball":4570,"riket":4571,"arhund":4572,"ytterlig":4573,"##ruppen":4574,"##iti":4575,"ful":4576,"magn":4577,"1965":4578,"overs":4579,"varje":4580,"bergen":4581,"##fekt":4582,"##lov":4583,"ish":4584,"##øver":4585,"fakt":4586,"##smann":4587,"utgav":4588,"katol":4589,"fant":4590,"reger":4591,"partiet":4592,"eget":4593,"kyrkan":4594,"befolknings":4595,"cast":4596,"mexiko":4597,"##ebel":4598,"1962":4599,"friid":4600,"martin":4601,"representerte":4602,"##ifor":4603,"bern":4604,"blei":4605,"hard":4606,"serie":4607,"forbindelse":4608,"strand":4609,"flod":4610,"##øj":4611,"stockholms":4612,"sjuk":4613,"##grupp":4614,"landsk":4615,"universitetet":4616,"afghanistan":4617,"radio":4618,"karriere":4619,"##tet":4620,"tilbage":4621,"skil":4622,"##forande":4623,"##lades":4624,"##istisk":4625,"##bane":4626,"##emat":4627,"perio":4628,"##stid":4629,"charles":4630,"kategoriserar":4631,"sju":4632,"internasjon":4633,"andet":4634,"kalt":4635,"stall":4636,"isra":4637,"##ano":4638,"long":4639,"adel":4640,"rob":4641,"øn":4642,"handel":4643,"##nast":4644,"bliver":4645,"##ølge":4646,"krav":4647,"##stan":4648,"delstatshuvudstaden":4649,"vilken":4650,"##komm":4651,"grek":4652,"##bi":4653,"james":4654,"deretter":4655,"lagt":4656,"just":4657,"##isi":4658,"##rada":4659,"1966":4660,"mos":4661,"sw":4662,"ran":4663,"##enten":4664,"##fi":4665,"eksp":4666,"gul":4667,"mannisk":4668,"dor":4669,"##bladig":4670,"særlig":4671,"frederik":4672,"hjalp":4673,"fortsatt":4674,"##reb":4675,"dikt":4676,"høg":4677,"pu":4678,"væ":4679,"istallet":4680,"jes":4681,"##otten":4682,"midt":4683,"ror":4684,"##bild":4685,"museum":4686,"##ific":4687,"river":4688,"gir":4689,"kallas":4690,"##egn":4691,"##asjoner":4692,"##lipp":4693,"##ifte":4694,"##mon":4695,"tyska":4696,"wilhelm":4697,"gol":4698,"louis":4699,"ræ":4700,"upps":4701,"dig":4702,"##ty":4703,"##enser":4704,"##fest":4705,"##sid":4706,"##ael":4707,"##utveckling":4708,"darfor":4709,"war":4710,"landslag":4711,"##tr":4712,"djur":4713,"pil":4714,"##kta":4715,"kristian":4716,"##isme":4717,"prins":4718,"studier":4719,"funger":4720,"lyck":4721,"journ":4722,"##ova":4723,"inden":4724,"##elp":4725,"##vnt":4726,"mik":4727,"##jde":4728,"datter":4729,"mes":4730,"jer":4731,"##nader":4732,"##oppet":4733,"##hjart":4734,"laten":4735,"##bok":4736,"south":4737,"hvilket":4738,"opt":4739,"##eland":4740,"bestem":4741,"nattfly":4742,"##ema":4743,"utanfor":4744,"svært":4745,"um":4746,"hill":4747,"henrik":4748,"##aret":4749,"dø":4750,"##ugh":4751,"moderne":4752,"##skilt":4753,"##oj":4754,"##andra":4755,"400":4756,"kul":4757,"##ds":4758,"central":4759,"##skolan":4760,"barr":4761,"formula":4762,"rost":4763,"indien":4764,"##ague":4765,"dip":4766,"300":4767,"utgiv":4768,"british":4769,"##iri":4770,"skadespel":4771,"lek":4772,"##rup":4773,"##way":4774,"tam":4775,"chef":4776,"bud":4777,"kre":4778,"heter":4779,"divisionen":4780,"fru":4781,"kej":4782,"sund":4783,"1948":4784,"mye":4785,"##opsis":4786,"ovan":4787,"##ismen":4788,"gruppe":4789,"##isa":4790,"##joner":4791,"70":4792,"##horningar":4793,"##sut":4794,"nattflyn":4795,"division":4796,"1963":4797,"uppt":4798,"alb":4799,"gym":4800,"dyr":4801,"forskellige":4802,"gust":4803,"1956":4804,"##bas":4805,"nogle":4806,"##elses":4807,"eneste":4808,"##fot":4809,"##innare":4810,"vind":4811,"vapen":4812,"##holder":4813,"ordet":4814,"##ynt":4815,"avvatt":4816,"80":4817,"##øya":4818,"belg":4819,"fær":4820,"landsby":4821,"sølv":4822,"##dan":4823,"##asit":4824,"utbild":4825,"græ":4826,"fork":4827,"##plass":4828,"##formen":4829,"it":4830,"##icus":4831,"fel":4832,"øya":4833,"spindelart":4834,"##edon":4835,"1939":4836,"ze":4837,"utseende":4838,"delas":4839,"utgitt":4840,"##los":4841,"##krig":4842,"##stilling":4843,"##ente":4844,"##ighed":4845,"##indlar":4846,"politisk":4847,"trol":4848,"got":4849,"alter":4850,"inform":4851,"##istiske":4852,"max":4853,"##ordning":4854,"madrid":4855,"##zz":4856,"cro":4857,"##rans":4858,"anv":4859,"spe":4860,"arrond":4861,"arrondiss":4862,"##ool":4863,"##isp":4864,"##iste":4865,"app":4866,"arbeidet":4867,"##skan":4868,"mennesker":4869,"sent":4870,"ont":4871,"ker":4872,"##ærende":4873,"kvinnor":4874,"johannes":4875,"gustav":4876,"##iere":4877,"uttry":4878,"fried":4879,"##nene":4880,"##verket":4881,"landets":4882,"1961":4883,"##hjartbladig":4884,"grøn":4885,"privat":4886,"##smal":4887,"sangen":4888,"##deling":4889,"##iy":4890,"brasilia":4891,"beslut":4892,"##ador":4893,"eli":4894,"##ener":4895,"israel":4896,"periodiskt":4897,"dub":4898,"startet":4899,"##vert":4900,"##bur":4901,"##hoj":4902,"alv":4903,"##olut":4904,"##iella":4905,"prim":4906,"schwe":4907,"##inget":4908,"league":4909,"##jarvi":4910,"dagens":4911,"##inst":4912,"wien":4913,"richard":4914,"parlam":4915,"##ogs":4916,"orig":4917,"titt":4918,"tillverk":4919,"##rot":4920,"65":4921,"millioner":4922,"sesongen":4923,"##ved":4924,"##urt":4925,"uppsala":4926,"nadde":4927,"##liote":4928,"##illet":4929,"dels":4930,"##ji":4931,"skole":4932,"1958":4933,"bosn":4934,"1944":4935,"reproducer":4936,"medlemmer":4937,"skiv":4938,"bestod":4939,"aldrig":4940,"svampart":4941,"sos":4942,"orden":4943,"rapp":4944,"ox":4945,"back":4946,"##stroms":4947,"folke":4948,"##yer":4949,"##fri":4950,"colombia":4951,"ober":4952,"##stero":4953,"##tak":4954,"lamn":4955,"luc":4956,"1912":4957,"klassen":4958,"az":4959,"skuespiller":4960,"boken":4961,"##ordes":4962,"kas":4963,"##medal":4964,"kallar":4965,"kabul":4966,"hopp":4967,"debut":4968,"##æt":4969,"problem":4970,"riksdag":4971,"dotter":4972,"##ital":4973,"##delige":4974,"mask":4975,"64":4976,"ljus":4977,"spelar":4978,"hyp":4979,"matt":4980,"pap":4981,"franska":4982,"columbia":4983,"##orten":4984,"##ringer":4985,"hitt":4986,"matare":4987,"1936":4988,"##skriget":4989,"deltag":4990,"salt":4991,"##sland":4992,"befolkningsutveckling":4993,"1941":4994,"saledes":4995,"vandt":4996,"viser":4997,"##ival":4998,"samtidigt":4999,"sommar":5000,"##nor":5001,"##ight":5002,"pi":5003,"sanger":5004,"##øv":5005,"joseph":5006,"##out":5007,"##skraft":5008,"klubb":5009,"refer":5010,"##cel":5011,"##sek":5012,"valg":5013,"fuktigt":5014,"##skj":5015,"1938":5016,"##omyia":5017,"ali":5018,"##opro":5019,"##unnet":5020,"udvik":5021,"vat":5022,"subtro":5023,"regel":5024,"subtropiskt":5025,"nast":5026,"ifølge":5027,"##sman":5028,"medverk":5029,"##havet":5030,"1918":5031,"##iaceae":5032,"black":5033,"##rør":5034,"es":5035,"##hr":5036,"tradisjon":5037,"barrskog":5038,"##cha":5039,"##skaper":5040,"medal":5041,"arrondissementet":5042,"##pan":5043,"mynd":5044,"fig":5045,"##fatter":5046,"##bergs":5047,"framfor":5048,"argentina":5049,"debuter":5050,"1910":5051,"herc":5052,"##olen":5053,"176":5054,"##ktes":5055,"vist":5056,"akadem":5057,"svenske":5058,"psyk":5059,"suc":5060,"huset":5061,"reproducerande":5062,"alexander":5063,"kendt":5064,"mountain":5065,"kustklimat":5066,"inspir":5067,"##mast":5068,"##oret":5069,"##unta":5070,"1957":5071,"fekk":5072,"konge":5073,"blod":5074,"##jør":5075,"tidleg":5076,"annan":5077,"findes":5078,"##inde":5079,"sovjetun":5080,"karriar":5081,"santa":5082,"gammel":5083,"kart":5084,"globalt":5085,"##oper":5086,"##lek":5087,"spesi":5088,"henry":5089,"##iforn":5090,"##rov":5091,"demokrat":5092,"livet":5093,"sab":5094,"##وه":5095,"##oen":5096,"ou":5097,"række":5098,"provincia":5099,"fleire":5100,"eu":5101,"ontario":5102,"lab":5103,"tett":5104,"sluttar":5105,"borger":5106,"framgang":5107,"##stam":5108,"##nat":5109,"##erer":5110,"##igheten":5111,"##isse":5112,"pin":5113,"motstand":5114,"kast":5115,"1959":5116,"fc":5117,"ej":5118,"slutten":5119,"##adels":5120,"1946":5121,"oversatt":5122,"##pper":5123,"##spelare":5124,"vas":5125,"stal":5126,"##ement":5127,"##back":5128,"##oe":5129,"enkelt":5130,"##ode":5131,"mestadels":5132,"35":5133,"##risk":5134,"##stod":5135,"1947":5136,"##iteter":5137,"not":5138,"1914":5139,"sve":5140,"##fart":5141,"francis":5142,"rud":5143,"konta":5144,"ytan":5145,"forest":5146,"##veg":5147,"amerikanska":5148,"sik":5149,"løpet":5150,"haft":5151,"##organis":5152,"exp":5153,"skul":5154,"fredrik":5155,"him":5156,"schweiz":5157,"grupper":5158,"areal":5159,"##eck":5160,"##oter":5161,"tids":5162,"fur":5163,"ori":5164,"##iale":5165,"deler":5166,"##staf":5167,"tu":5168,"afrika":5169,"##læg":5170,"jack":5171,"stein":5172,"por":5173,"##spindlar":5174,"fodbold":5175,"friedrich":5176,"resten":5177,"anton":5178,"##ington":5179,"engelska":5180,"erst":5181,"ken":5182,"au":5183,"##ose":5184,"brand":5185,"##vok":5186,"1942":5187,"producer":5188,"ungefar":5189,"koud":5190,"##vs":5191,"##mask":5192,"##ited":5193,"##ior":5194,"foreg":5195,"##cy":5196,"skott":5197,"vilka":5198,"kolon":5199,"cam":5200,"nab":5201,"set":5202,"gitt":5203,"tradition":5204,"##elles":5205,"santi":5206,"bost":5207,"cat":5208,"drev":5209,"1928":5210,"bildades":5211,"basta":5212,"##fol":5213,"dol":5214,"resta":5215,"vattnet":5216,"kinesiska":5217,"utgor":5218,"ped":5219,"følgende":5220,"leon":5221,"elva":5222,"##ogen":5223,"but":5224,"##shus":5225,"holdt":5226,"inde":5227,"rød":5228,"##gren":5229,"smith":5230,"##rades":5231,"##iserte":5232,"kropp":5233,"1955":5234,"byggdes":5235,"1949":5236,"blivit":5237,"hyd":5238,"1924":5239,"1908":5240,"north":5241,"omtal":5242,"sønn":5243,"iii":5244,"##lom":5245,"ec":5246,"##usa":5247,"1943":5248,"hust":5249,"minst":5250,"##lden":5251,"ax":5252,"##kraft":5253,"valgt":5254,"olympiska":5255,"##star":5256,"resultat":5257,"##try":5258,"bou":5259,"roy":5260,"regering":5261,"omraden":5262,"rit":5263,"##orp":5264,"##sty":5265,"kanal":5266,"garden":5267,"ytterligare":5268,"allman":5269,"##ment":5270,"##cke":5271,"bot":5272,"##sett":5273,"1954":5274,"territ":5275,"##wn":5276,"##ologisk":5277,"hamn":5278,"hab":5279,"##lund":5280,"##ingene":5281,"##uta":5282,"##gangen":5283,"gem":5284,"ibland":5285,"artik":5286,"##lant":5287,"bevar":5288,"langhorningar":5289,"ident":5290,"behov":5291,"1919":5292,"michael":5293,"90":5294,"##sal":5295,"##gjorde":5296,"kri":5297,"edward":5298,"forn":5299,"armen":5300,"hatt":5301,"represent":5302,"##agt":5303,"1917":5304,"punkt":5305,"nic":5306,"gitar":5307,"savannskog":5308,"spillet":5309,"kyrka":5310,"programmet":5311,"kost":5312,"##nd":5313,"##samling":5314,"santiago":5315,"brukes":5316,"##spe":5317,"##ørte":5318,"##haller":5319,"##insk":5320,"kirken":5321,"sjø":5322,"stadig":5323,"##ords":5324,"##inia":5325,"loma":5326,"vari":5327,"alp":5328,"##aris":5329,"##fte":5330,"##do":5331,"victor":5332,"lid":5333,"nuvarande":5334,"##30":5335,"neg":5336,"trots":5337,"meste":5338,"##ye":5339,"##ju":5340,"##cka":5341,"nem":5342,"gik":5343,"station":5344,"##ktion":5345,"##agn":5346,"biskop":5347,"1953":5348,"##oker":5349,"virksom":5350,"1933":5351,"versjon":5352,"##roller":5353,"##fen":5354,"ordningen":5355,"djup":5356,"ledamot":5357,"individ":5358,"##ocker":5359,"ri":5360,"jud":5361,"##æld":5362,"test":5363,"##une":5364,"slekt":5365,"fo":5366,"##anen":5367,"##ydd":5368,"interes":5369,"udgiv":5370,"1937":5371,"tillbaka":5372,"fla":5373,"1913":5374,"##ilis":5375,"innbyggere":5376,"##ville":5377,"1932":5378,"##ado":5379,"forklar":5380,"##ovina":5381,"international":5382,"##edel":5383,"dagen":5384,"##hojden":5385,"##ito":5386,"fordel":5387,"dessutom":5388,"skot":5389,"1911":5390,"stab":5391,"flyttade":5392,"fug":5393,"friidrett":5394,"modern":5395,"##ope":5396,"##lede":5397,"##ytor":5398,"politiske":5399,"bidrag":5400,"makt":5401,"queb":5402,"fylke":5403,"bab":5404,"familie":5405,"holl":5406,"32":5407,"mord":5408,"mek":5409,"herceg":5410,"varierad":5411,"marock":5412,"ple":5413,"##orf":5414,"offentlig":5415,"##gu":5416,"##mens":5417,"sogn":5418,"lands":5419,"##onst":5420,"1935":5421,"heller":5422,"symbol":5423,"skyl":5424,"foran":5425,"vald":5426,"defin":5427,"##senter":5428,"##anus":5429,"1700":5430,"journalist":5431,"nik":5432,"##erad":5433,"##isjonen":5434,"fron":5435,"øster":5436,"mare":5437,"##ritar":5438,"##oul":5439,"##arken":5440,"lad":5441,"world":5442,"marie":5443,"##urner":5444,"astron":5445,"behand":5446,"flyttet":5447,"1934":5448,"##itets":5449,"uppstroms":5450,"sasom":5451,"1951":5452,"##ellet":5453,"forskning":5454,"medic":5455,"slatt":5456,"##allen":5457,"hovud":5458,"ordforande":5459,"beratt":5460,"##kir":5461,"studerade":5462,"##jas":5463,"snart":5464,"##stritar":5465,"rolle":5466,"foretag":5467,"##avn":5468,"nett":5469,"##60":5470,"trond":5471,"portug":5472,"##ony":5473,"gh":5474,"1929":5475,"lapp":5476,"##likt":5477,"##edde":5478,"kirk":5479,"kanda":5480,"arr":5481,"karakter":5482,"##cip":5483,"175":5484,"jab":5485,"##tn":5486,"united":5487,"##fra":5488,"sein":5489,"quebrada":5490,"##last":5491,"##bat":5492,"##jev":5493,"dokument":5494,"saga":5495,"darmed":5496,"enkelte":5497,"lær":5498,"oppdag":5499,"engelske":5500,"smhi":5501,"horn":5502,"##fører":5503,"##rene":5504,"sor":5505,"forskjellige":5506,"bosnien":5507,"kallade":5508,"flor":5509,"tron":5510,"jawa":5511,"##yggor":5512,"##delsen":5513,"jacob":5514,"marocko":5515,"##skola":5516,"##jarnen":5517,"forbunds":5518,"##uen":5519,"ara":5520,"rabat":5521,"##40":5522,"spela":5523,"bygd":5524,"##oka":5525,"metal":5526,"støtte":5527,"publicer":5528,"studio":5529,"##oides":5530,"osc":5531,"##pris":5532,"udde":5533,"oprin":5534,"storbritannia":5535,"##fag":5536,"marts":5537,"1921":5538,"polen":5539,"kunna":5540,"student":5541,"hercegovina":5542,"##hang":5543,"gron":5544,"reser":5545,"punta":5546,"##ivet":5547,"tvahjartbladig":5548,"##rost":5549,"##omrade":5550,"menn":5551,"finans":5552,"##hamn":5553,"##ela":5554,"##heder":5555,"respe":5556,"eup":5557,"arbejd":5558,"vetenskap":5559,"antarktis":5560,"vattenytor":5561,"produksjon":5562,"fylkes":5563,"1906":5564,"##oprocent":5565,"skrift":5566,"inled":5567,"##illing":5568,"sjoprocent":5569,"institut":5570,"historik":5571,"##unden":5572,"##osten":5573,"##alte":5574,"wh":5575,"1927":5576,"periode":5577,"ole":5578,"spillede":5579,"tang":5580,"##stopp":5581,"##wood":5582,"vide":5583,"raknas":5584,"##ule":5585,"##mes":5586,"##skt":5587,"1925":5588,"anders":5589,"jeg":5590,"sovjetunionen":5591,"sidste":5592,"medelhojden":5593,"##ulus":5594,"sall":5595,"45":5596,"vaxter":5597,"1926":5598,"kvart":5599,"##arar":5600,"silver":5601,"##iment":5602,"1922":5603,"finn":5604,"##omradet":5605,"melod":5606,"kongen":5607,"forfattare":5608,"buk":5609,"ryska":5610,"##maren":5611,"fok":5612,"##plats":5613,"spilt":5614,"emb":5615,"ledde":5616,"vars":5617,"spille":5618,"##øg":5619,"italia":5620,"driv":5621,"##alla":5622,"annen":5623,"##prod":5624,"##holl":5625,"ske":5626,"ishockey":5627,"##gift":5628,"rus":5629,"##fug":5630,"dob":5631,"slapptes":5632,"familj":5633,"1916":5634,"direkte":5635,"tack":5636,"##mot":5637,"##forening":5638,"indtil":5639,"##ful":5640,"iv":5641,"1907":5642,"lett":5643,"1905":5644,"master":5645,"##horde":5646,"anne":5647,"kla":5648,"liber":5649,"##hop":5650,"status":5651,"##own":5652,"teng":5653,"##jektet":5654,"##wan":5655,"##ologiske":5656,"##fisk":5657,"rig":5658,"frit":5659,"australia":5660,"##aly":5661,"nød":5662,"1909":5663,"lars":5664,"ain":5665,"upptac":5666,"##inus":5667,"##sky":5668,"mør":5669,"1931":5670,"ryss":5671,"##tag":5672,"##ktive":5673,"##ifik":5674,"##hard":5675,"soldater":5676,"kontrakt":5677,"##arp":5678,"skild":5679,"undervis":5680,"kjente":5681,"##cc":5682,"redakt":5683,"miljoner":5684,"##spunkt":5685,"kontroll":5686,"staten":5687,"villa":5688,"maur":5689,"##partiet":5690,"##endig":5691,"astero":5692,"befolkning":5693,"##person":5694,"##jung":5695,"ungar":5696,"##ative":5697,"ron":5698,"ledet":5699,"##skabet":5700,"##svis":5701,"utfor":5702,"kampen":5703,"tunn":5704,"sarskilt":5705,"delvis":5706,"hein":5707,"log":5708,"cha":5709,"pier":5710,"filmer":5711,"##svaxtart":5712,"cas":5713,"##aner":5714,"tet":5715,"##ni":5716,"gri":5717,"bogota":5718,"district":5719,"##farande":5720,"##esl":5721,"gas":5722,"flesta":5723,"bifl":5724,"albert":5725,"drift":5726,"militær":5727,"champ":5728,"utover":5729,"irland":5730,"rot":5731,"standard":5732,"##ansen":5733,"galler":5734,"##etten":5735,"arbetade":5736,"farg":5737,"arrangert":5738,"##avax":5739,"1923":5740,"##mor":5741,"##ierna":5742,"malmo":5743,"material":5744,"hind":5745,"rog":5746,"##øder":5747,"gjerne":5748,"##fjaril":5749,"kandid":5750,"dens":5751,"kompon":5752,"##rasjon":5753,"##arer":5754,"##ttet":5755,"##ringen":5756,"##hur":5757,"##oa":5758,"##ank":5759,"fiskart":5760,"nas":5761,"orkideer":5762,"tjanst":5763,"##ytte":5764,"##edal":5765,"##ms":5766,"ill":5767,"##rys":5768,"1915":5769,"blive":5770,"170":5771,"sara":5772,"##rus":5773,"##jder":5774,"150":5775,"##ugen":5776,"##loss":5777,"japansk":5778,"slekten":5779,"unders":5780,"lander":5781,"gil":5782,"leve":5783,"ot":5784,"##omet":5785,"##jef":5786,"##fjarilar":5787,"kraftdjursart":5788,"##skriv":5789,"matemat":5790,"saman":5791,"##ves":5792,"##mere":5793,"کوه":5794,"##slutt":5795,"gifte":5796,"songen":5797,"civ":5798,"vux":5799,"kvinner":5800,"ukra":5801,"algeriet":5802,"avslut":5803,"##vei":5804,"relativt":5805,"##rest":5806,"top":5807,"mob":5808,"rub":5809,"##iop":5810,"mosk":5811,"fader":5812,"gram":5813,"arke":5814,"drag":5815,"##ckor":5816,"stjarn":5817,"jul":5818,"##inne":5819,"anstall":5820,"gustaf":5821,"##nsp":5822,"1904":5823,"scen":5824,"##80":5825,"##aker":5826,"aker":5827,"diam":5828,"russisk":5829,"##10":5830,"oft":5831,"tour":5832,"##inder":5833,"fortfarande":5834,"##uan":5835,"brook":5836,"restaur":5837,"regist":5838,"##edd":5839,"venstre":5840,"##eds":5841,"langre":5842,"slutade":5843,"yngre":5844,"alltid":5845,"provinshuvudstaden":5846,"##zo":5847,"bjor":5848,"omrader":5849,"spra":5850,"##atten":5851,"##ses":5852,"sankt":5853,"##hora":5854,"nordvest":5855,"##rige":5856,"##ike":5857,"stan":5858,"##mid":5859,"##ict":5860,"##chus":5861,"arranger":5862,"desa":5863,"##atisk":5864,"følge":5865,"numera":5866,"bergstopp":5867,"hojd":5868,"1600":5869,"kem":5870,"lokale":5871,"fi":5872,"##sla":5873,"point":5874,"betyder":5875,"fokus":5876,"##lia":5877,"linje":5878,"##pro":5879,"##vers":5880,"varmt":5881,"##stav":5882,"satte":5883,"ersatt":5884,"##con":5885,"desuden":5886,"basert":5887,"innehaller":5888,"##irk":5889,"##lor":5890,"otto":5891,"##ennis":5892,"##klub":5893,"sign":5894,"##hou":5895,"hendes":5896,"mala":5897,"##rogram":5898,"##flyt":5899,"noreg":5900,"##azz":5901,"trom":5902,"avrinningsomraden":5903,"##plat":5904,"altern":5905,"lut":5906,"records":5907,"##angel":5908,"37":5909,"forand":5910,"profession":5911,"cra":5912,"varldskriget":5913,"##varg":5914,"##vent":5915,"bjør":5916,"##sked":5917,"##heden":5918,"observ":5919,"selskapet":5920,"##vej":5921,"kors":5922,"gren":5923,"##oven":5924,"kongel":5925,"##ese":5926,"niva":5927,"##istiska":5928,"##ampar":5929,"konstnar":5930,"delhi":5931,"kommuner":5932,"bakgrunn":5933,"viss":5934,"hurt":5935,"##ute":5936,"mast":5937,"##arten":5938,"skall":5939,"##minister":5940,"nordlige":5941,"varav":5942,"##jerg":5943,"undersø":5944,"publik":5945,"republiken":5946,"##øk":5947,"##bra":5948,"##forde":5949,"maste":5950,"##myggor":5951,"arbeider":5952,"orkideart":5953,"motsvar":5954,"##reh":5955,"gott":5956,"##add":5957,"1500":5958,"##muse":5959,"wales":5960,"angrep":5961,"union":5962,"ovriga":5963,"kos":5964,"##oy":5965,"##ulata":5966,"##spelen":5967,"mass":5968,"##bus":5969,"hag":5970,"produc":5971,"kroppen":5972,"religi":5973,"kommand":5974,"##ylla":5975,"posit":5976,"tidlegare":5977,"##ilus":5978,"avvattnar":5979,"##enes":5980,"##skip":5981,"flodar":5982,"jorden":5983,"airport":5984,"rekord":5985,"regeringen":5986,"33":5987,"##sberg":5988,"##koping":5989,"major":5990,"##gaende":5991,"##cht":5992,"##iidae":5993,"##dde":5994,"tolk":5995,"domin":5996,"bebygg":5997,"steder":5998,"##uba":5999,"sky":6000,"##ruktur":6001,"foretaget":6002,"ris":6003,"##mene":6004,"canada":6005,"##banen":6006,"liban":6007,"##menter":6008,"valde":6009,"##san":6010,"##onger":6011,"##ætt":6012,"##ink":6013,"kopp":6014,"##korea":6015,"hustru":6016,"samarbet":6017,"bodde":6018,"bah":6019,"dominer":6020,"jabal":6021,"##onom":6022,"##øb":6023,"let":6024,"##iftet":6025,"biflodes":6026,"biflodesordning":6027,"##elv":6028,"livskraft":6029,"amerika":6030,"event":6031,"##21":6032,"you":6033,"##got":6034,"ski":6035,"##føre":6036,"anses":6037,"varlden":6038,"semif":6039,"##syn":6040,"##iff":6041,"kallad":6042,"guvernem":6043,"bank":6044,"praktfjarilar":6045,"##oli":6046,"bef":6047,"lyd":6048,"italiensk":6049,"arro":6050,"flertal":6051,"svampar":6052,"grundades":6053,"mig":6054,"##mod":6055,"##fjorden":6056,"arets":6057,"##demokrat":6058,"saker":6059,"mist":6060,"snabb":6061,"1902":6062,"begyndte":6063,"transport":6064,"king":6065,"sendt":6066,"døm":6067,"feder":6068,"brok":6069,"fu":6070,"ursprungligen":6071,"##ump":6072,"inat":6073,"isl":6074,"anvandes":6075,"latt":6076,"##bon":6077,"##lement":6078,"bibliote":6079,"betegn":6080,"rap":6081,"russland":6082,"byr":6083,"##ations":6084,"##ming":6085,"##omer":6086,"sentral":6087,"thor":6088,"falt":6089,"##opa":6090,"##imer":6091,"##kast":6092,"exempelvis":6093,"##emplar":6094,"##wer":6095,"##ahl":6096,"##rets":6097,"adolf":6098,"nap":6099,"dvarg":6100,"174":6101,"##gjort":6102,"arv":6103,"barne":6104,"buen":6105,"1901":6106,"##efter":6107,"##mare":6108,"ball":6109,"stark":6110,"ja":6111,"magnus":6112,"##rument":6113,"amt":6114,"##win":6115,"viste":6116,"prag":6117,"passer":6118,"lande":6119,"va":6120,"##tiden":6121,"fab":6122,"1903":6123,"##wig":6124,"ah":6125,"ute":6126,"##umenter":6127,"lager":6128,"rej":6129,"utbredelse":6130,"læ":6131,"pel":6132,"henhold":6133,"##fort":6134,"nesten":6135,"riv":6136,"midten":6137,"kommunal":6138,"comm":6139,"##ament":6140,"hak":6141,"##cens":6142,"poang":6143,"avtal":6144,"##kro":6145,"real":6146,"##sborg":6147,"##unge":6148,"boh":6149,"konser":6150,"kontin":6151,"##hem":6152,"##zer":6153,"dagar":6154,"dep":6155,"herr":6156,"##rikt":6157,"1890":6158,"kinesisk":6159,"kriget":6160,"##enden":6161,"##ogne":6162,"##ania":6163,"##olia":6164,"dron":6165,"##kester":6166,"erob":6167,"peak":6168,"osterrike":6169,"naz":6170,"oftast":6171,"medelt":6172,"normalt":6173,"##oda":6174,"##punkt":6175,"##alderen":6176,"handels":6177,"manu":6178,"vej":6179,"spelades":6180,"skad":6181,"keiser":6182,"vek":6183,"##ids":6184,"ting":6185,"femte":6186,"75":6187,"intres":6188,"nomin":6189,"##gruppen":6190,"##rek":6191,"procent":6192,"##ystem":6193,"straff":6194,"##ison":6195,"medlemmar":6196,"run":6197,"politik":6198,"##yst":6199,"begrav":6200,"##lingar":6201,"endte":6202,"seinare":6203,"##utter":6204,"kna":6205,"livskraftig":6206,"oscar":6207,"jarnvag":6208,"situ":6209,"daniel":6210,"internationella":6211,"likn":6212,"varen":6213,"##ali":6214,"russiske":6215,"##sning":6216,"##itte":6217,"lil":6218,"##okk":6219,"tas":6220,"komme":6221,"kraftig":6222,"sej":6223,"##familien":6224,"angeles":6225,"stig":6226,"##atum":6227,"omtr":6228,"36":6229,"##urs":6230,"matcher":6231,"ore":6232,"betydning":6233,"fabri":6234,"sjølv":6235,"liksom":6236,"omtrent":6237,"##sburg":6238,"internasjonale":6239,"tjeneste":6240,"##mak":6241,"ank":6242,"##mand":6243,"ferd":6244,"##raf":6245,"sæson":6246,"skolen":6247,"spesielt":6248,"##satte":6249,"wadi":6250,"##parasit":6251,"idrett":6252,"##erede":6253,"rav":6254,"##no":6255,"das":6256,"strat":6257,"geografi":6258,"##olin":6259,"kontakt":6260,"fjerde":6261,"vor":6262,"##ision":6263,"blan":6264,"##deles":6265,"lim":6266,"##iets":6267,"brokparasit":6268,"belagen":6269,"##dam":6270,"brokparasitsteklar":6271,"##hallet":6272,"##kant":6273,"offici":6274,"brons":6275,"##elia":6276,"##skolen":6277,"egypt":6278,"##zon":6279,"##tnant":6280,"samarbeid":6281,"##ppet":6282,"##slandor":6283,"hart":6284,"##hopp":6285,"vore":6286,"cru":6287,"##bak":6288,"skill":6289,"##full":6290,"teck":6291,"##vene":6292,"gall":6293,"##tere":6294,"##gs":6295,"##ude":6296,"800":6297,"spes":6298,"sof":6299,"offisi":6300,"tredj":6301,"##ibet":6302,"skand":6303,"prefekt":6304,"verksamhet":6305,"##sida":6306,"peng":6307,"britisk":6308,"##abeth":6309,"forlor":6310,"##bj":6311,"lamnade":6312,"tilkn":6313,"special":6314,"##skapen":6315,"manniskor":6316,"##dar":6317,"beskri":6318,"##serien":6319,"##uts":6320,"same":6321,"##aldt":6322,"ganske":6323,"##ivt":6324,"##nende":6325,"##ales":6326,"##svaxter":6327,"##vere":6328,"asp":6329,"rem":6330,"##næ":6331,"##ordan":6332,"egne":6333,"bob":6334,"centrum":6335,"171":6336,"##mas":6337,"kroat":6338,"klart":6339,"##eden":6340,"foreningen":6341,"##anga":6342,"slo":6343,"kombin":6344,"##komst":6345,"##cho":6346,"##ato":6347,"instru":6348,"##rick":6349,"syv":6350,"##nede":6351,"##vil":6352,"egna":6353,"skadespelare":6354,"##col":6355,"nastan":6356,"territor":6357,"kjem":6358,"##ime":6359,"ødel":6360,"mitten":6361,"39":6362,"samlet":6363,"sida":6364,"##isseau":6365,"unn":6366,"bord":6367,"##ues":6368,"arb":6369,"##ivalen":6370,"batt":6371,"jazz":6372,"##tog":6373,"pens":6374,"##asen":6375,"vansk":6376,"arme":6377,"stilling":6378,"marg":6379,"vigt":6380,"utne":6381,"indre":6382,"lep":6383,"ruisseau":6384,"dannet":6385,"hjelp":6386,"gje":6387,"trondheim":6388,"bestam":6389,"34":6390,"##emb":6391,"##zar":6392,"##fan":6393,"unger":6394,"myn":6395,"##ai":6396,"##nst":6397,"innenfor":6398,"nan":6399,"tyrk":6400,"sadan":6401,"##jord":6402,"tilhører":6403,"symp":6404,"omfatter":6405,"begre":6406,"prest":6407,"##ømmer":6408,"forsamlingen":6409,"cur":6410,"opprinnelig":6411,"##ender":6412,"##zi":6413,"omfattar":6414,"##raff":6415,"gode":6416,"##ary":6417,"avled":6418,"1898":6419,"1897":6420,"elektron":6421,"up":6422,"gjør":6423,"fon":6424,"##ringar":6425,"##skaber":6426,"dim":6427,"160":6428,"##aca":6429,"fartyg":6430,"former":6431,"jød":6432,"##uelle":6433,"boliv":6434,"nev":6435,"##oba":6436,"prot":6437,"nig":6438,"floden":6439,"##urus":6440,"##ophila":6441,"lept":6442,"separ":6443,"##ape":6444,"arabiska":6445,"visar":6446,"fotbolls":6447,"utviklet":6448,"energi":6449,"moskva":6450,"historien":6451,"bast":6452,"##kje":6453,"##amin":6454,"173":6455,"live":6456,"ene":6457,"kg":6458,"kungliga":6459,"popular":6460,"##kamp":6461,"music":6462,"tje":6463,"riksdelen":6464,"##eten":6465,"##ktene":6466,"tilsvar":6467,"laur":6468,"holland":6469,"stopp":6470,"rollen":6471,"lyn":6472,"##erk":6473,"600":6474,"drog":6475,"moh":6476,"statens":6477,"bis":6478,"##ogon":6479,"erstatt":6480,"##rack":6481,"##lex":6482,"##ransen":6483,"##ame":6484,"berre":6485,"##gra":6486,"landskommun":6487,"ack":6488,"dro":6489,"##xamen":6490,"miljø":6491,"##siden":6492,"pul":6493,"##cen":6494,"hvordan":6495,"tung":6496,"plasser":6497,"lista":6498,"bevis":6499,"##valg":6500,"yta":6501,"grevskapet":6502,"167":6503,"innbygg":6504,"##vnte":6505,"ash":6506,"sasong":6507,"##gave":6508,"old":6509,"opera":6510,"##omp":6511,"##væ":6512,"##blomm":6513,"##terna":6514,"forvalt":6515,"rosen":6516,"##arie":6517,"##slande":6518,"brittiska":6519,"##sne":6520,"hovedsak":6521,"##loppet":6522,"##anse":6523,"##oende":6524,"kompos":6525,"lans":6526,"##angd":6527,"stader":6528,"1899":6529,"1896":6530,"lor":6531,"##sbe":6532,"turneringen":6533,"##amo":6534,"parlament":6535,"169":6536,"##ømme":6537,"avsnitt":6538,"bedre":6539,"ala":6540,"##fang":6541,"prov":6542,"tildelt":6543,"poly":6544,"gatt":6545,"utenfor":6546,"slakt":6547,"vanligt":6548,"mj":6549,"olympiske":6550,"forutom":6551,"##field":6552,"avstand":6553,"musikal":6554,"1880":6555,"##riks":6556,"##ygt":6557,"befin":6558,"##inav":6559,"rov":6560,"web":6561,"indian":6562,"##roc":6563,"##lie":6564,"##etta":6565,"produktion":6566,"##itter":6567,"etablert":6568,"likevel":6569,"ghar":6570,"rac":6571,"##former":6572,"uppgick":6573,"styrk":6574,"hev":6575,"##gas":6576,"##vande":6577,"##ege":6578,"ansag":6579,"##bre":6580,"skottland":6581,"cd":6582,"regler":6583,"opprettet":6584,"##ots":6585,"brig":6586,"##stads":6587,"klipp":6588,"##delser":6589,"last":6590,"##ssel":6591,"orsak":6592,"##mest":6593,"##jevo":6594,"skov":6595,"##hog":6596,"meddel":6597,"gammal":6598,"kunstner":6599,"harad":6600,"##øren":6601,"insekter":6602,"forbundslandet":6603,"##stol":6604,"byggnad":6605,"anda":6606,"ug":6607,"##kall":6608,"broder":6609,"##stal":6610,"version":6611,"flock":6612,"##ega":6613,"##lene":6614,"sul":6615,"##kam":6616,"##kre":6617,"aar":6618,"match":6619,"konstant":6620,"##asin":6621,"1895":6622,"regis":6623,"##essen":6624,"djebel":6625,"desse":6626,"hører":6627,"##falt":6628,"vuxna":6629,"sud":6630,"mi":6631,"viet":6632,"gange":6633,"langa":6634,"ins":6635,"##but":6636,"rand":6637,"skulpt":6638,"##nu":6639,"aires":6640,"yr":6641,"jose":6642,"##andre":6643,"award":6644,"diplom":6645,"californ":6646,"mult":6647,"##ase":6648,"heinrich":6649,"##sma":6650,"##bry":6651,"premiar":6652,"artvaxter":6653,"buenos":6654,"speci":6655,"starten":6656,"38":6657,"college":6658,"jane":6659,"##engt":6660,"##ftet":6661,"##lats":6662,"##forbundet":6663,"alfred":6664,"massa":6665,"##edet":6666,"##vd":6667,"##can":6668,"kore":6669,"##act":6670,"troll":6671,"utvid":6672,"uddann":6673,"##garden":6674,"high":6675,"konserv":6676,"singel":6677,"##sjo":6678,"##riske":6679,"pian":6680,"tekst":6681,"royal":6682,"gjekk":6683,"##cks":6684,"##vek":6685,"dur":6686,"fremst":6687,"168":6688,"wester":6689,"tør":6690,"##industri":6691,"guvernementet":6692,"##deligt":6693,"##ards":6694,"kok":6695,"##sbyg":6696,"##slandeart":6697,"##rikes":6698,"sommeren":6699,"##ati":6700,"titel":6701,"felt":6702,"stj":6703,"##yth":6704,"nasjonal":6705,"ray":6706,"temp":6707,"##asjer":6708,"love":6709,"gast":6710,"##bud":6711,"behandling":6712,"##maskart":6713,"##chi":6714,"##bach":6715,"følger":6716,"##my":6717,"##øse":6718,"kritik":6719,"dramat":6720,"vard":6721,"museet":6722,"pub":6723,"annu":6724,"##mi":6725,"regi":6726,"##skl":6727,"maler":6728,"little":6729,"kle":6730,"trich":6731,"styre":6732,"##huvud":6733,"##ovo":6734,"typer":6735,"fotograf":6736,"islam":6737,"##lasse":6738,"hogre":6739,"svan":6740,"forlag":6741,"systemet":6742,"##bland":6743,"##otus":6744,"hertug":6745,"planer":6746,"47":6747,"##dagen":6748,"ges":6749,"spred":6750,"##forsk":6751,"##nades":6752,"bang":6753,"##pert":6754,"felles":6755,"ask":6756,"skick":6757,"klim":6758,"uppdrag":6759,"##zen":6760,"##aph":6761,"konstru":6762,"##andt":6763,"che":6764,"165":6765,"1870":6766,"adam":6767,"##anthus":6768,"sir":6769,"##ønn":6770,"##gje":6771,"bosatt":6772,"show":6773,"især":6774,"danmarks":6775,"##ømmet":6776,"kalles":6777,"glac":6778,"respektive":6779,"##rast":6780,"emil":6781,"laguna":6782,"bit":6783,"elis":6784,"##valget":6785,"innbyggjar":6786,"school":6787,"vul":6788,"neste":6789,"##arane":6790,"##sund":6791,"stille":6792,"##ologiska":6793,"##odor":6794,"fjar":6795,"tio":6796,"gunn":6797,"net":6798,"funnet":6799,"big":6800,"historisk":6801,"sosial":6802,"valgte":6803,"darreh":6804,"jakob":6805,"initi":6806,"tand":6807,"arbete":6808,"manus":6809,"##ollar":6810,"##rens":6811,"lagen":6812,"militar":6813,"##sled":6814,"##idens":6815,"##alj":6816,"tolv":6817,"##ephal":6818,"55":6819,"aur":6820,"kyst":6821,"##ky":6822,"fagel":6823,"myt":6824,"##aea":6825,"utveckling":6826,"origin":6827,"##lemer":6828,"##fa":6829,"sprog":6830,"seoul":6831,"mente":6832,"east":6833,"mah":6834,"##feld":6835,"energ":6836,"virk":6837,"##ummer":6838,"fos":6839,"##okte":6840,"##kare":6841,"fard":6842,"vall":6843,"din":6844,"forel":6845,"bestaende":6846,"hack":6847,"styrker":6848,"##ffer":6849,"bind":6850,"1000":6851,"lyckades":6852,"##vens":6853,"bow":6854,"indel":6855,"yo":6856,"uav":6857,"spør":6858,"udgivet":6859,"##bara":6860,"aldri":6861,"bem":6862,"##ingo":6863,"pod":6864,"##iang":6865,"liknande":6866,"##felt":6867,"lika":6868,"orten":6869,"sikker":6870,"##rust":6871,"sommaren":6872,"hens":6873,"brack":6874,"comp":6875,"##ørende":6876,"164":6877,"##fjord":6878,"bedste":6879,"1893":6880,"fjord":6881,"##esen":6882,"juv":6883,"##ques":6884,"politiska":6885,"lant":6886,"musiker":6887,"##kontor":6888,"forening":6889,"##ervat":6890,"forh":6891,"##upen":6892,"##elin":6893,"lis":6894,"hang":6895,"illust":6896,"goteborgs":6897,"monte":6898,"##etes":6899,"##illo":6900,"lærer":6901,"byn":6902,"olympisk":6903,"##uz":6904,"mul":6905,"stammer":6906,"johns":6907,"dun":6908,"vak":6909,"design":6910,"utgj":6911,"mennesk":6912,"almin":6913,"##følgende":6914,"lappland":6915,"religion":6916,"klock":6917,"atta":6918,"ryssland":6919,"uts":6920,"1889":6921,"forekom":6922,"innsjø":6923,"anled":6924,"betrakt":6925,"acc":6926,"sydney":6927,"##list":6928,"strom":6929,"##sons":6930,"mong":6931,"##pun":6932,"trafik":6933,"nils":6934,"1892":6935,"##ois":6936,"muslim":6937,"virke":6938,"##di":6939,"mary":6940,"belig":6941,"##øs":6942,"simon":6943,"æld":6944,"##shire":6945,"sarajevo":6946,"læn":6947,"##ulter":6948,"hil":6949,"##itut":6950,"##oz":6951,"utvikling":6952,"##tre":6953,"pierre":6954,"##olusjon":6955,"libanon":6956,"act":6957,"kvalif":6958,"##inea":6959,"##derne":6960,"junior":6961,"statsminister":6962,"plant":6963,"brød":6964,"1894":6965,"sier":6966,"nordøst":6967,"42":6968,"atte":6969,"##omyc":6970,"forkort":6971,"##tradde":6972,"gymnas":6973,"bygger":6974,"dir":6975,"wash":6976,"smal":6977,"nob":6978,"sjalva":6979,"mekan":6980,"fli":6981,"##kap":6982,"eksister":6983,"knut":6984,"fen":6985,"sveits":6986,"rest":6987,"veien":6988,"type":6989,"##skal":6990,"##arnas":6991,"artvaxtart":6992,"kim":6993,"##skript":6994,"##uda":6995,"hansen":6996,"utom":6997,"##emal":6998,"timur":6999,"vise":7000,"cand":7001,"landslaget":7002,"byens":7003,"##marker":7004,"##pass":7005,"lom":7006,"##itionen":7007,"tillhorde":7008,"noter":7009,"how":7010,"##kopings":7011,"hod":7012,"regjering":7013,"landskap":7014,"maneder":7015,"##rien":7016,"dele":7017,"1862":7018,"##fold":7019,"##vant":7020,"utbredning":7021,"eric":7022,"eksped":7023,"mit":7024,"ref":7025,"ludvig":7026,"utdann":7027,"poeng":7028,"tanjung":7029,"##ppe":7030,"pavir":7031,"dynast":7032,"##nelsen":7033,"doktor":7034,"##go":7035,"walker":7036,"sto":7037,"##unda":7038,"opphav":7039,"republik":7040,"skrive":7041,"##agne":7042,"##iven":7043,"eldre":7044,"dvargstritar":7045,"##inte":7046,"arroyo":7047,"divisjon":7048,"uppfordes":7049,"agg":7050,"green":7051,"##ance":7052,"spelare":7053,"derim":7054,"revolut":7055,"bart":7056,"##asp":7057,"olav":7058,"kjøp":7059,"lod":7060,"typisk":7061,"romerske":7062,"##amerika":7063,"biart":7064,"meir":7065,"konkurrer":7066,"##byen":7067,"brom":7068,"##veien":7069,"gras":7070,"##ush":7071,"##emon":7072,"betydelse":7073,"ambass":7074,"frig":7075,"##esel":7076,"##sene":7077,"##sens":7078,"##nsyn":7079,"slog":7080,"dekk":7081,"##ther":7082,"kommunik":7083,"minister":7084,"##iene":7085,"parall":7086,"pak":7087,"forhal":7088,"benyttet":7089,"hjer":7090,"nest":7091,"kategori":7092,"1891":7093,"##ines":7094,"holde":7095,"prop":7096,"irak":7097,"##enta":7098,"##ista":7099,"apnet":7100,"##yk":7101,"spansk":7102,"carol":7103,"48":7104,"##dalen":7105,"##ulerade":7106,"166":7107,"enten":7108,"henri":7109,"funn":7110,"syk":7111,"skriven":7112,"øver":7113,"gresk":7114,"##otte":7115,"##bred":7116,"uppe":7117,"noget":7118,"vestlige":7119,"##sor":7120,"presenter":7121,"sun":7122,"kloster":7123,"##botten":7124,"dronning":7125,"grande":7126,"##brid":7127,"##hver":7128,"axel":7129,"##smannen":7130,"nes":7131,"byer":7132,"gyl":7133,"##forbund":7134,"militære":7135,"roma":7136,"forslag":7137,"ør":7138,"arhundrede":7139,"##test":7140,"konsert":7141,"vitt":7142,"1888":7143,"##ischer":7144,"##ørs":7145,"##gerne":7146,"suks":7147,"##somradet":7148,"##olon":7149,"græns":7150,"chil":7151,"##hy":7152,"feng":7153,"##baggar":7154,"drott":7155,"rut":7156,"##nere":7157,"regnes":7158,"siv":7159,"glas":7160,"1885":7161,"skolan":7162,"##udt":7163,"americ":7164,"funktion":7165,"liste":7166,"172":7167,"turk":7168,"##vat":7169,"tjeck":7170,"harald":7171,"##anes":7172,"margar":7173,"ansprak":7174,"spring":7175,"miner":7176,"holm":7177,"##ernas":7178,"ljung":7179,"kontroller":7180,"120":7181,"##akk":7182,"vanligvis":7183,"##mad":7184,"##delag":7185,"##orum":7186,"##osc":7187,"konc":7188,"teor":7189,"grens":7190,"center":7191,"##period":7192,"varandra":7193,"levde":7194,"titeln":7195,"overlev":7196,"##rh":7197,"startade":7198,"##etts":7199,"ferdig":7200,"peder":7201,"sesong":7202,"jug":7203,"##elder":7204,"spelte":7205,"##ppar":7206,"##sw":7207,"leuc":7208,"grekland":7209,"brann":7210,"die":7211,"cu":7212,"##esjon":7213,"hug":7214,"besø":7215,"ving":7216,"##parten":7217,"##vann":7218,"def":7219,"##splan":7220,"epis":7221,"##eres":7222,"manader":7223,"##sven":7224,"##avnet":7225,"pastor":7226,"europeiska":7227,"traff":7228,"gent":7229,"##aki":7230,"##uksjon":7231,"elever":7232,"washington":7233,"finska":7234,"##ome":7235,"bygning":7236,"##vapen":7237,"whi":7238,"##chef":7239,"utstall":7240,"medvir":7241,"konse":7242,"tross":7243,"##ical":7244,"autom":7245,"##mond":7246,"vold":7247,"sentrum":7248,"rym":7249,"queens":7250,"41":7251,"knyttet":7252,"heb":7253,"sker":7254,"##alus":7255,"strøm":7256,"tittelen":7257,"sydkorea":7258,"spelet":7259,"##nis":7260,"eldste":7261,"lanet":7262,"fulgte":7263,"lita":7264,"medverkade":7265,"ettersom":7266,"serv":7267,"1860":7268,"nominer":7269,"rø":7270,"stjer":7271,"bracksteklar":7272,"coll":7273,"cry":7274,"ludwig":7275,"jør":7276,"##fyl":7277,"dans":7278,"bygge":7279,"bell":7280,"tsj":7281,"##mun":7282,"jakt":7283,"##ual":7284,"##nik":7285,"forbund":7286,"fus":7287,"may":7288,"kob":7289,"stiftet":7290,"filipp":7291,"wind":7292,"##ensam":7293,"lee":7294,"##klubb":7295,"##leder":7296,"karakt":7297,"##spinnare":7298,"##eda":7299,"temperatur":7300,"scott":7301,"##stant":7302,"##ssk":7303,"størr":7304,"sjukdom":7305,"shan":7306,"direktør":7307,"##axa":7308,"selvst":7309,"##uell":7310,"##ave":7311,"naturres":7312,"49":7313,"##amerik":7314,"aten":7315,"inkludert":7316,"ingick":7317,"kard":7318,"##gjen":7319,"fjorden":7320,"ernst":7321,"##opus":7322,"minor":7323,"historiske":7324,"##offer":7325,"runde":7326,"##skont":7327,"bruker":7328,"vilhelm":7329,"bakom":7330,"delta":7331,"rapporter":7332,"##skon":7333,"##usten":7334,"jurid":7335,"sib":7336,"foddes":7337,"##ding":7338,"##vagen":7339,"brug":7340,"graf":7341,"frankrig":7342,"minnes":7343,"sommarspelen":7344,"turne":7345,"effektiv":7346,"wa":7347,"##tale":7348,"##sent":7349,"##olo":7350,"final":7351,"kamper":7352,"arn":7353,"overfl":7354,"##sidan":7355,"studenter":7356,"gavs":7357,"##iket":7358,"##rattades":7359,"opna":7360,"##aen":7361,"tilldel":7362,"modell":7363,"mate":7364,"##retær":7365,"##tatt":7366,"brukte":7367,"##oarna":7368,"hin":7369,"##board":7370,"44":7371,"selve":7372,"43":7373,"corn":7374,"instrument":7375,"tun":7376,"ænd":7377,"sammens":7378,"##agare":7379,"paverk":7380,"dit":7381,"dia":7382,"has":7383,"nytta":7384,"italienske":7385,"##ifer":7386,"##war":7387,"pur":7388,"arbets":7389,"togs":7390,"seier":7391,"dari":7392,"##ui":7393,"##ruk":7394,"kongelige":7395,"##uf":7396,"##marksam":7397,"utnamn":7398,"##øen":7399,"utbredt":7400,"gjøre":7401,"hæ":7402,"##inske":7403,"##spart":7404,"hud":7405,"effekt":7406,"##slatt":7407,"##gifter":7408,"##anser":7409,"heg":7410,"romanen":7411,"##apt":7412,"beteck":7413,"kav":7414,"##unc":7415,"begynnelsen":7416,"organisation":7417,"roller":7418,"##tz":7419,"1887":7420,"spesial":7421,"##emann":7422,"føre":7423,"jesus":7424,"uppmarksam":7425,"##well":7426,"hjæl":7427,"victoria":7428,"interv":7429,"solgt":7430,"valk":7431,"orkester":7432,"##stiden":7433,"##iph":7434,"##kkede":7435,"data":7436,"grunnlagt":7437,"##ctic":7438,"avl":7439,"line":7440,"mog":7441,"##ærk":7442,"##blom":7443,"verket":7444,"##ental":7445,"vattendraget":7446,"kapit":7447,"66":7448,"1884":7449,"byggnaden":7450,"atlant":7451,"malm":7452,"repræ":7453,"sørvest":7454,"sed":7455,"stol":7456,"##kyrk":7457,"blomster":7458,"altsa":7459,"flockblomm":7460,"antall":7461,"harry":7462,"##spolit":7463,"##iler":7464,"##bod":7465,"##lus":7466,"virg":7467,"anvanda":7468,"##tar":7469,"##steg":7470,"ss":7471,"##flyg":7472,"##sand":7473,"gn":7474,"anvandas":7475,"munchen":7476,"storm":7477,"##abet":7478,"white":7479,"##umb":7480,"##dere":7481,"invig":7482,"fien":7483,"kopen":7484,"advok":7485,"sok":7486,"##ativa":7487,"trop":7488,"##ften":7489,"vare":7490,"##igheder":7491,"oh":7492,"##pas":7493,"##iddel":7494,"syl":7495,"samhallet":7496,"økonomiske":7497,"derefter":7498,"soci":7499,"valet":7500,"1886":7501,"antag":7502,"diameter":7503,"dennes":7504,"##risen":7505,"kjend":7506,"##skatt":7507,"afrik":7508,"stefan":7509,"wood":7510,"avdel":7511,"slottet":7512,"##øt":7513,"hell":7514,"##ettet":7515,"1878":7516,"isa":7517,"##eligt":7518,"beveg":7519,"pir":7520,"voksne":7521,"##eme":7522,"etn":7523,"minne":7524,"##cin":7525,"##akh":7526,"perman":7527,"cham":7528,"skjer":7529,"lilla":7530,"##fær":7531,"##alia":7532,"hoff":7533,"700":7534,"aks":7535,"prisen":7536,"##icola":7537,"bei":7538,"flott":7539,"##system":7540,"##emot":7541,"##albumet":7542,"##sey":7543,"##yllum":7544,"utnevnt":7545,"romersk":7546,"registrer":7547,"spraket":7548,"##po":7549,"taget":7550,"resulter":7551,"##retning":7552,"##rivil":7553,"tidningen":7554,"vanligen":7555,"svarte":7556,"innbyggjarar":7557,"lige":7558,"jim":7559,"olof":7560,"##ates":7561,"##illes":7562,"alto":7563,"skandinav":7564,"ackum":7565,"63":7566,"##endom":7567,"radi":7568,"##makt":7569,"##ics":7570,"semifin":7571,"##adens":7572,"nere":7573,"pon":7574,"socialdemokrat":7575,"##kh":7576,"##tus":7577,"trupp":7578,"eurov":7579,"betydelig":7580,"tving":7581,"total":7582,"46":7583,"##skat":7584,"1882":7585,"dager":7586,"##løp":7587,"##uma":7588,"geograf":7589,"egypten":7590,"##idium":7591,"betyr":7592,"rat":7593,"slags":7594,"57":7595,"##uca":7596,"lamp":7597,"starkt":7598,"løp":7599,"##isc":7600,"strax":7601,"børn":7602,"landsbyen":7603,"kysten":7604,"trøn":7605,"vig":7606,"##bit":7607,"vitenskap":7608,"latar":7609,"jens":7610,"kred":7611,"##anien":7612,"##horn":7613,"##sav":7614,"52":7615,"##iseringen":7616,"kallades":7617,"omfattande":7618,"strateg":7619,"team":7620,"staf":7621,"levevis":7622,"funksjon":7623,"finner":7624,"sao":7625,"india":7626,"##stat":7627,"tavling":7628,"nødv":7629,"nova":7630,"opprør":7631,"artene":7632,"samarbe":7633,"malt":7634,"komma":7635,"skift":7636,"bass":7637,"##rip":7638,"##lys":7639,"inspel":7640,"bronse":7641,"##chy":7642,"##ressen":7643,"andreas":7644,"forut":7645,"arbejde":7646,"spelat":7647,"forsknings":7648,"gemensam":7649,"##gaard":7650,"##ston":7651,"beh":7652,"nedre":7653,"charl":7654,"københavns":7655,"jernban":7656,"vei":7657,"##unst":7658,"fjarde":7659,"##reter":7660,"chic":7661,"##zhou":7662,"##lager":7663,"ens":7664,"information":7665,"mam":7666,"67":7667,"handlar":7668,"arthur":7669,"prix":7670,"spania":7671,"dic":7672,"1863":7673,"##ukk":7674,"malet":7675,"trans":7676,"framsta":7677,"##rover":7678,"##linjen":7679,"sach":7680,"##fon":7681,"##holmen":7682,"##cos":7683,"artist":7684,"##museum":7685,"ves":7686,"##anna":7687,"kalk":7688,"##olis":7689,"systemat":7690,"upplag":7691,"##iserade":7692,"frag":7693,"serier":7694,"pek":7695,"resultatet":7696,"erkl":7697,"1879":7698,"hir":7699,"will":7700,"elev":7701,"eurovision":7702,"kans":7703,"##ava":7704,"##ower":7705,"alvor":7706,"sus":7707,"72":7708,"##spar":7709,"solen":7710,"##stedet":7711,"##beg":7712,"##chester":7713,"##acker":7714,"budd":7715,"vita":7716,"win":7717,"normal":7718,"kampe":7719,"##kjent":7720,"utbildning":7721,"sterkt":7722,"kejser":7723,"##hæng":7724,"barat":7725,"##slaget":7726,"pter":7727,"skydd":7728,"##idea":7729,"##olas":7730,"##biner":7731,"ackumulerade":7732,"##vide":7733,"##uella":7734,"##edonien":7735,"1864":7736,"yder":7737,"##ckan":7738,"lenger":7739,"fotbollsspelare":7740,"##belt":7741,"##ante":7742,"steph":7743,"##vern":7744,"diale":7745,"dist":7746,"skriver":7747,"##por":7748,"##inand":7749,"clar":7750,"##atorer":7751,"##spass":7752,"møl":7753,"##skrifter":7754,"##ami":7755,"studerte":7756,"1881":7757,"gunnar":7758,"gransen":7759,"club":7760,"##brott":7761,"##aktig":7762,"entiteten":7763,"samtliga":7764,"vaxte":7765,"finne":7766,"1883":7767,"pave":7768,"retning":7769,"bruges":7770,"opprett":7771,"røde":7772,"publ":7773,"dop":7774,"hva":7775,"flag":7776,"##nande":7777,"##hn":7778,"france":7779,"hop":7780,"benytt":7781,"assoc":7782,"nm":7783,"anvander":7784,"##cess":7785,"figur":7786,"fro":7787,"mcc":7788,"71":7789,"tha":7790,"hæren":7791,"##valet":7792,"spanske":7793,"##ugg":7794,"##egard":7795,"##rac":7796,"katolske":7797,"stallet":7798,"had":7799,"51":7800,"00":7801,"utsag":7802,"bulgar":7803,"##mund":7804,"fører":7805,"cop":7806,"##iserer":7807,"uavheng":7808,"##mir":7809,"##fru":7810,"francisco":7811,"py":7812,"kristne":7813,"økonomisk":7814,"premier":7815,"##orth":7816,"sann":7817,"##sident":7818,"viden":7819,"tidigt":7820,"ekte":7821,"hosten":7822,"##bes":7823,"##ckning":7824,"##uck":7825,"##spelar":7826,"163":7827,"overfor":7828,"skane":7829,"##regionen":7830,"##svampar":7831,"idrott":7832,"danne":7833,"fac":7834,"##bt":7835,"reform":7836,"sjalvstand":7837,"aldsta":7838,"##ifolia":7839,"##kene":7840,"ende":7841,"ler":7842,"moss":7843,"sentrale":7844,"chrys":7845,"kandidat":7846,"kot":7847,"disp":7848,"##ægt":7849,"250":7850,"bilder":7851,"beliggende":7852,"vib":7853,"beskriver":7854,"befinner":7855,"bytte":7856,"vietnam":7857,"berøm":7858,"##skott":7859,"emp":7860,"##isch":7861,"visade":7862,"krimin":7863,"brott":7864,"##grund":7865,"franco":7866,"okk":7867,"hann":7868,"ferdinand":7869,"tida":7870,"takt":7871,"##bad":7872,"##skij":7873,"##ows":7874,"##stedt":7875,"tyd":7876,"bygningen":7877,"lære":7878,"##byggnad":7879,"forbundet":7880,"##unns":7881,"laga":7882,"##ystemet":7883,"sider":7884,"1865":7885,"invol":7886,"1875":7887,"vagen":7888,"forsok":7889,"noko":7890,"menneske":7891,"danska":7892,"stasjon":7893,"øk":7894,"cel":7895,"personlig":7896,"hyl":7897,"lit":7898,"dvs":7899,"made":7900,"##føring":7901,"69":7902,"##uri":7903,"cit":7904,"##fig":7905,"tale":7906,"tren":7907,"styrke":7908,"##riar":7909,"##ørt":7910,"##skaff":7911,"lanser":7912,"klost":7913,"tw":7914,"inklus":7915,"1200":7916,"bocker":7917,"##ipes":7918,"pala":7919,"hjel":7920,"simp":7921,"kontra":7922,"faren":7923,"erstattet":7924,"gjer":7925,"inneholder":7926,"##oslav":7927,"gon":7928,"ts":7929,"nun":7930,"stadion":7931,"ihop":7932,"seri":7933,"1850":7934,"##folj":7935,"##mannen":7936,"forlorade":7937,"stavanger":7938,"klok":7939,"indbyggere":7940,"##dy":7941,"kanalen":7942,"byggnader":7943,"1877":7944,"bergspass":7945,"talets":7946,"##iret":7947,"agde":7948,"fjellet":7949,"fry":7950,"steg":7951,"##gitt":7952,"artiller":7953,"##iør":7954,"finst":7955,"syster":7956,"56":7957,"73":7958,"canad":7959,"rygg":7960,"utdan":7961,"tele":7962,"juan":7963,"stater":7964,"offentlige":7965,"##gatan":7966,"gjordes":7967,"##terne":7968,"bolivia":7969,"spin":7970,"avgj":7971,"##revet":7972,"##haer":7973,"ross":7974,"produsert":7975,"klarte":7976,"dollar":7977,"##lip":7978,"andersson":7979,"infanter":7980,"idet":7981,"dæ":7982,"omgang":7983,"##strand":7984,"klassisk":7985,"giftet":7986,"davarande":7987,"##bour":7988,"##reformen":7989,"sort":7990,"rein":7991,"søster":7992,"brukar":7993,"54":7994,"##rix":7995,"##mastare":7996,"##ifran":7997,"##flytt":7998,"nak":7999,"saval":8000,"problemer":8001,"dets":8002,"priser":8003,"##chn":8004,"omfattende":8005,"##sende":8006,"queensland":8007,"anth":8008,"stral":8009,"mir":8010,"bruke":8011,"slike":8012,"suksess":8013,"wer":8014,"##oria":8015,"egenskaper":8016,"astronom":8017,"enbart":8018,"tac":8019,"utgang":8020,"atervande":8021,"rang":8022,"##ussen":8023,"arbetar":8024,"american":8025,"62":8026,"ach":8027,"forald":8028,"dest":8029,"skipet":8030,"brown":8031,"bam":8032,"##kal":8033,"##sack":8034,"##aljer":8035,"53":8036,"bris":8037,"civil":8038,"##oi":8039,"melan":8040,"hap":8041,"85":8042,"trøndelag":8043,"guy":8044,"time":8045,"##rester":8046,"tema":8047,"arkitektur":8048,"pron":8049,"betegnelsen":8050,"##somrade":8051,"zag":8052,"##itioner":8053,"reserv":8054,"##vare":8055,"midler":8056,"godk":8057,"gong":8058,"##sti":8059,"kontor":8060,"##oo":8061,"tusen":8062,"##hark":8063,"linjen":8064,"pad":8065,"viktigaste":8066,"troligen":8067,"turist":8068,"tider":8069,"front":8070,"vanskelig":8071,"tilsvarende":8072,"løbet":8073,"##beck":8074,"##holms":8075,"utgjorde":8076,"enhet":8077,"pasir":8078,"1874":8079,"arts":8080,"##enez":8081,"##æss":8082,"senter":8083,"text":8084,"hitler":8085,"tunnel":8086,"larare":8087,"fuld":8088,"lenge":8089,"##inska":8090,"##umet":8091,"biograf":8092,"vent":8093,"forber":8094,"abo":8095,"##musik":8096,"##ره":8097,"68":8098,"konger":8099,"##atar":8100,"##ship":8101,"##iae":8102,"##stud":8103,"ungdoms":8104,"fiske":8105,"arch":8106,"1866":8107,"##elius":8108,"##ierne":8109,"japanske":8110,"##ao":8111,"##ti":8112,"formal":8113,"##skomm":8114,"varme":8115,"viktigste":8116,"brugt":8117,"contest":8118,"law":8119,"norden":8120,"##eps":8121,"wolf":8122,"##visning":8123,"skrifter":8124,"regiss":8125,"she":8126,"##rollen":8127,"##ligere":8128,"media":8129,"1876":8130,"aud":8131,"##lop":8132,"ola":8133,"##holde":8134,"antar":8135,"hovedsakelig":8136,"dos":8137,"glacier":8138,"stadens":8139,"##huvudort":8140,"imper":8141,"trin":8142,"bund":8143,"shah":8144,"##kvarter":8145,"##inc":8146,"##endet":8147,"kvarter":8148,"upptacktes":8149,"1871":8150,"##uva":8151,"tillgang":8152,"inc":8153,"eid":8154,"##tera":8155,"balt":8156,"##osus":8157,"mongol":8158,"##lans":8159,"scot":8160,"##departementet":8161,"inntil":8162,"bukit":8163,"isol":8164,"lon":8165,"inneh":8166,"ledelse":8167,"##ان":8168,"franz":8169,"herred":8170,"shu":8171,"##qvist":8172,"brad":8173,"##spun":8174,"##kas":8175,"ellers":8176,"ljud":8177,"##verka":8178,"telef":8179,"rag":8180,"##gør":8181,"assist":8182,"janeiro":8183,"##skild":8184,"##skade":8185,"tapp":8186,"struktur":8187,"western":8188,"projekt":8189,"##jak":8190,"##sere":8191,"##saker":8192,"østlige":8193,"beat":8194,"stemmer":8195,"nrk":8196,"ryg":8197,"##ido":8198,"##istrikt":8199,"alban":8200,"sec":8201,"napole":8202,"##laktet":8203,"162":8204,"bolag":8205,"nogen":8206,"##lest":8207,"banen":8208,"damp":8209,"grat":8210,"esp":8211,"##sutøver":8212,"harris":8213,"antonio":8214,"doc":8215,"##kreis":8216,"santo":8217,"korte":8218,"endnu":8219,"parad":8220,"##ory":8221,"##lever":8222,"hermann":8223,"anal":8224,"##ilia":8225,"fyrste":8226,"##lagd":8227,"##onym":8228,"metall":8229,"stortinget":8230,"ordin":8231,"58":8232,"dater":8233,"golf":8234,"##ylland":8235,"##orus":8236,"firma":8237,"##skiftet":8238,"hamp":8239,"##foret":8240,"kompl":8241,"nokre":8242,"bent":8243,"##oca":8244,"##mant":8245,"##ingart":8246,"##inae":8247,"130":8248,"kronor":8249,"74":8250,"herrar":8251,"##rey":8252,"sagt":8253,"##ungen":8254,"##æst":8255,"##ares":8256,"hvad":8257,"nikola":8258,"##riere":8259,"1848":8260,"bach":8261,"drottning":8262,"parken":8263,"ik":8264,"plads":8265,"jamt":8266,"debuterade":8267,"##ove":8268,"konfli":8269,"kopenhamn":8270,"161":8271,"open":8272,"california":8273,"##teg":8274,"##umen":8275,"josef":8276,"skedde":8277,"alltsa":8278,"akten":8279,"valget":8280,"framgangs":8281,"serb":8282,"krigs":8283,"##ifier":8284,"##xi":8285,"##rona":8286,"##iland":8287,"herunder":8288,"mera":8289,"allra":8290,"hotad":8291,"##ienter":8292,"marin":8293,"##omrader":8294,"patri":8295,"##biskop":8296,"fog":8297,"tidspunkt":8298,"##egnet":8299,"kroner":8300,"eri":8301,"mem":8302,"##orm":8303,"##repet":8304,"regjeringen":8305,"prad":8306,"etiop":8307,"europeiske":8308,"meng":8309,"##wald":8310,"element":8311,"dokumentar":8312,"dynt":8313,"lengre":8314,"1868":8315,"##ælles":8316,"klima":8317,"kungen":8318,"##bal":8319,"##verksam":8320,"barcel":8321,"##bom":8322,"svenskt":8323,"jebel":8324,"brittisk":8325,"##ophyllum":8326,"dyntaxa":8327,"reakt":8328,"avslutt":8329,"##affe":8330,"##eras":8331,"##løst":8332,"tidlige":8333,"ekstra":8334,"administrasjon":8335,"##sforen":8336,"1872":8337,"fann":8338,"##arg":8339,"fav":8340,"parlamentet":8341,"khan":8342,"##uh":8343,"interesse":8344,"slutningen":8345,"##arn":8346,"oppna":8347,"##rankar":8348,"obser":8349,"rudolf":8350,"overtog":8351,"elven":8352,"smak":8353,"hockey":8354,"spelt":8355,"##reterare":8356,"blot":8357,"sjoarna":8358,"##atoriet":8359,"gronland":8360,"##unnit":8361,"selskap":8362,"seb":8363,"hjul":8364,"vendte":8365,"solo":8366,"fn":8367,"##landske":8368,"styl":8369,"utloppet":8370,"##bebygg":8371,"##ration":8372,"frivil":8373,"universitets":8374,"##liggende":8375,"tekniska":8376,"##nspinnare":8377,"##still":8378,"##halla":8379,"##urder":8380,"##bruks":8381,"atom":8382,"reklam":8383,"bjornspinnare":8384,"##kret":8385,"orgel":8386,"##hast":8387,"59":8388,"jones":8389,"forhind":8390,"asteroid":8391,"##ætning":8392,"##harkrankar":8393,"##vakt":8394,"ivan":8395,"sap":8396,"filosofi":8397,"1869":8398,"1867":8399,"asia":8400,"##foreningen":8401,"sørøst":8402,"##inna":8403,"##emang":8404,"##fs":8405,"##iansk":8406,"cab":8407,"one":8408,"naturreservat":8409,"oss":8410,"##ollen":8411,"nordisk":8412,"lord":8413,"sr":8414,"phyll":8415,"ama":8416,"sula":8417,"lage":8418,"##brun":8419,"flygplan":8420,"##otyp":8421,"##skriften":8422,"##icum":8423,"anger":8424,"ال":8425,"moderna":8426,"affar":8427,"##uktion":8428,"fotballspiller":8429,"melodi":8430,"snabbt":8431,"##idia":8432,"1873":8433,"chal":8434,"##holdet":8435,"venn":8436,"##du":8437,"konstrukt":8438,"varldens":8439,"##fallande":8440,"initiativ":8441,"beseg":8442,"kaz":8443,"forvar":8444,"vigtig":8445,"lib":8446,"159":8447,"raskt":8448,"skib":8449,"lade":8450,"ribe":8451,"fodboldspiller":8452,"norska":8453,"bonde":8454,"##æk":8455,"næsten":8456,"viking":8457,"##bladet":8458,"##værk":8459,"lignende":8460,"arbejder":8461,"hverandre":8462,"hemm":8463,"##nan":8464,"sprid":8465,"##avaxter":8466,"sitter":8467,"##riska":8468,"##livet":8469,"##sol":8470,"alko":8471,"egentliga":8472,"kinesiske":8473,"compan":8474,"modeller":8475,"1861":8476,"inklusive":8477,"original":8478,"osm":8479,"##ligheten":8480,"##ej":8481,"drama":8482,"##ningsp":8483,"høje":8484,"introducer":8485,"##osia":8486,"##ligg":8487,"akk":8488,"##ønt":8489,"##rel":8490,"mykje":8491,"gat":8492,"##lah":8493,"befal":8494,"avg":8495,"bygninger":8496,"##stone":8497,"##vika":8498,"ursprungliga":8499,"##slutning":8500,"guvern":8501,"oppk":8502,"##isere":8503,"platsen":8504,"wat":8505,"dokumenter":8506,"##eman":8507,"nep":8508,"edvard":8509,"integ":8510,"##eleg":8511,"manuskript":8512,"##ipend":8513,"portugal":8514,"##agog":8515,"##gaver":8516,"##mera":8517,"##lopp":8518,"chicago":8519,"out":8520,"##bc":8521,"61":8522,"borjar":8523,"festival":8524,"advokat":8525,"##sforb":8526,"pula":8527,"nærings":8528,"nod":8529,"stri":8530,"bestemt":8531,"77":8532,"cord":8533,"##jonen":8534,"##ih":8535,"##utsch":8536,"140":8537,"##yrer":8538,"texas":8539,"mangfot":8540,"hovedstaden":8541,"erbj":8542,"##itten":8543,"nielsen":8544,"##rackligt":8545,"##faren":8546,"tyder":8547,"ledare":8548,"##sken":8549,"individer":8550,"flav":8551,"##sle":8552,"hoga":8553,"planter":8554,"aqu":8555,"sterk":8556,"jensen":8557,"utsatt":8558,"lew":8559,"reiste":8560,"hende":8561,"kunn":8562,"bildade":8563,"klasse":8564,"gate":8565,"bøker":8566,"finsk":8567,"infl":8568,"##entlig":8569,"ønsket":8570,"##ardo":8571,"##dyr":8572,"høyre":8573,"110":8574,"vo":8575,"##yang":8576,"utform":8577,"beroende":8578,"anat":8579,"pic":8580,"finansier":8581,"##skje":8582,"oph":8583,"##plassen":8584,"##ums":8585,"kroatien":8586,"##assel":8587,"kilder":8588,"pere":8589,"chap":8590,"gabri":8591,"##sang":8592,"##ello":8593,"##yi":8594,"##forsamling":8595,"kull":8596,"##strøm":8597,"ech":8598,"bull":8599,"modellen":8600,"ager":8601,"##ytning":8602,"smaland":8603,"##ов":8604,"leker":8605,"lokalt":8606,"##esvig":8607,"tillfal":8608,"analy":8609,"alternativ":8610,"##iji":8611,"##havn":8612,"bakgrund":8613,"studie":8614,"installer":8615,"derimot":8616,"snar":8617,"##emi":8618,"dong":8619,"introd":8620,"supp":8621,"vekt":8622,"##borgs":8623,"elisabeth":8624,"elv":8625,"pall":8626,"frukt":8627,"##program":8628,"##adel":8629,"153":8630,"vanster":8631,"spen":8632,"hob":8633,"flam":8634,"marevaxter":8635,"eig":8636,"overtok":8637,"##lassert":8638,"rey":8639,"driver":8640,"desig":8641,"##menn":8642,"bibliotek":8643,"flest":8644,"##sattning":8645,"redus":8646,"##abad":8647,"bydel":8648,"##mossart":8649,"antik":8650,"##rof":8651,"fris":8652,"##manland":8653,"mød":8654,"radik":8655,"peru":8656,"dessuten":8657,"fandt":8658,"lem":8659,"##bare":8660,"præsident":8661,"phou":8662,"tengah":8663,"sendte":8664,"representant":8665,"øvrige":8666,"hovedstad":8667,"populære":8668,"##ask":8669,"##viste":8670,"vere":8671,"formann":8672,"generelt":8673,"##lare":8674,"private":8675,"mynnar":8676,"##litter":8677,"populær":8678,"mangd":8679,"berak":8680,"arena":8681,"##oten":8682,"##avaxtart":8683,"kolle":8684,"amar":8685,"bygga":8686,"bladmossart":8687,"##prin":8688,"##gotland":8689,"sannsyn":8690,"##giver":8691,"formel":8692,"fylkesvei":8693,"oc":8694,"venez":8695,"tapte":8696,"##kst":8697,"##øret":8698,"varv":8699,"lades":8700,"varian":8701,"tredjep":8702,"pyr":8703,"luther":8704,"##yre":8705,"længere":8706,"høyeste":8707,"verdensmester":8708,"prast":8709,"sporsack":8710,"##serne":8711,"human":8712,"##antarktis":8713,"tavlingen":8714,"##ernes":8715,"biller":8716,"##tein":8717,"##sko":8718,"scien":8719,"chang":8720,"##jekter":8721,"##esse":8722,"sovjetiske":8723,"forhandling":8724,"barcelona":8725,"gib":8726,"valdes":8727,"##kvens":8728,"holls":8729,"danner":8730,"stationen":8731,"sporsacksvampar":8732,"##skold":8733,"høsten":8734,"##lyst":8735,"wall":8736,"##abrik":8737,"koudiat":8738,"##ytter":8739,"natten":8740,"##konkur":8741,"##grad":8742,"kongo":8743,"drept":8744,"##iseret":8745,"##emente":8746,"kæ":8747,"dott":8748,"qar":8749,"orebro":8750,"foljd":8751,"castle":8752,"##sporter":8753,"teori":8754,"kallor":8755,"million":8756,"rike":8757,"##ylus":8758,"permanent":8759,"##ningene":8760,"spil":8761,"900":8762,"##yet":8763,"##uttet":8764,"##rarna":8765,"liges":8766,"tings":8767,"kaliforn":8768,"gold":8769,"##slin":8770,"##iteen":8771,"brisbane":8772,"##ornis":8773,"young":8774,"lot":8775,"serra":8776,"beskrevet":8777,"99":8778,"##kin":8779,"jung":8780,"lykk":8781,"nasjonale":8782,"dersom":8783,"oftest":8784,"##ission":8785,"95":8786,"pav":8787,"anerk":8788,"##akadem":8789,"battre":8790,"ført":8791,"##anne":8792,"##lista":8793,"##com":8794,"##oto":8795,"##fald":8796,"arbeten":8797,"redaktør":8798,"##ods":8799,"hjal":8800,"nøy":8801,"##ellig":8802,"arne":8803,"##aksjon":8804,"##standen":8805,"viktige":8806,"##ero":8807,"##bard":8808,"##vald":8809,"inflyt":8810,"sri":8811,"kapp":8812,"##systemet":8813,"##yla":8814,"williams":8815,"water":8816,"gutt":8817,"wilson":8818,"mener":8819,"##ient":8820,"##fo":8821,"##skrigen":8822,"sørlige":8823,"bolig":8824,"deg":8825,"##amper":8826,"kommet":8827,"##adene":8828,"marknad":8829,"abu":8830,"icke":8831,"varde":8832,"sekund":8833,"##atta":8834,"historiker":8835,"1858":8836,"pabor":8837,"heile":8838,"dobbelt":8839,"##avet":8840,"##sim":8841,"kommersi":8842,"nhl":8843,"##vingene":8844,"samuel":8845,"rug":8846,"allmanna":8847,"##legget":8848,"1859":8849,"here":8850,"##hets":8851,"prefekturen":8852,"kaldes":8853,"debuterte":8854,"##ferd":8855,"petter":8856,"syke":8857,"gab":8858,"grekiska":8859,"hurtig":8860,"##anta":8861,"meller":8862,"dekor":8863,"gur":8864,"artister":8865,"##rert":8866,"formen":8867,"omd":8868,"dh":8869,"##ieb":8870,"ledning":8871,"##ordin":8872,"prom":8873,"jackson":8874,"##tekn":8875,"##festivalen":8876,"anvande":8877,"holder":8878,"##arus":8879,"uppkall":8880,"musk":8881,"##tradte":8882,"erov":8883,"##skor":8884,"##leks":8885,"##serna":8886,"grundade":8887,"eien":8888,"myndigheter":8889,"risk":8890,"variant":8891,"##kort":8892,"##don":8893,"##eles":8894,"abra":8895,"##ampa":8896,"roda":8897,"##bs":8898,"76":8899,"resultater":8900,"##otum":8901,"beirut":8902,"utn":8903,"##emark":8904,"rester":8905,"##æring":8906,"cle":8907,"flat":8908,"##js":8909,"##brug":8910,"alkohol":8911,"##sprogram":8912,"##bott":8913,"bisp":8914,"kalmar":8915,"kanskje":8916,"emot":8917,"johnson":8918,"avrinningsomradena":8919,"##gara":8920,"skab":8921,"dry":8922,"##erades":8923,"guat":8924,"##imus":8925,"maskin":8926,"komed":8927,"jesu":8928,"nuværende":8929,"##so":8930,"direktor":8931,"pulau":8932,"forste":8933,"mission":8934,"stafett":8935,"##alpark":8936,"dominik":8937,"##ningsm":8938,"societ":8939,"stang":8940,"motiv":8941,"157":8942,"uppskatt":8943,"tsjekk":8944,"bøn":8945,"##uras":8946,"##lu":8947,"møtte":8948,"kongens":8949,"champion":8950,"butt":8951,"##dommen":8952,"color":8953,"ecu":8954,"mats":8955,"##landsk":8956,"hk":8957,"het":8958,"spillere":8959,"pant":8960,"bong":8961,"tibet":8962,"terror":8963,"arist":8964,"##ence":8965,"##jat":8966,"kanon":8967,"arrester":8968,"##omat":8969,"lenn":8970,"##itat":8971,"planet":8972,"bandets":8973,"teksten":8974,"marevaxtart":8975,"plassert":8976,"brdo":8977,"koping":8978,"##geren":8979,"##aneh":8980,"makten":8981,"magnet":8982,"julius":8983,"lokala":8984,"betal":8985,"sønder":8986,"sikre":8987,"ce":8988,"vice":8989,"drabb":8990,"beij":8991,"##styret":8992,"##ilien":8993,"kari":8994,"begyndelsen":8995,"fores":8996,"##run":8997,"##lost":8998,"bilen":8999,"landkreis":9000,"##taget":9001,"køb":9002,"pradesh":9003,"##samlingen":9004,"nad":9005,"riksdagen":9006,"larvene":9007,"##ksis":9008,"fordelt":9009,"samarbete":9010,"##uelt":9011,"hof":9012,"##iensis":9013,"##mord":9014,"blues":9015,"156":9016,"##skop":9017,"german":9018,"correg":9019,"##ped":9020,"##yx":9021,"sprin":9022,"##elvingar":9023,"økonomi":9024,"##aya":9025,"angri":9026,"##atre":9027,"walter":9028,"##kul":9029,"tip":9030,"##rud":9031,"##odon":9032,"sound":9033,"øvre":9034,"kalifornien":9035,"##umin":9036,"paret":9037,"1840":9038,"##zirk":9039,"makedon":9040,"vac":9041,"##sterne":9042,"##rea":9043,"hipp":9044,"botan":9045,"evangel":9046,"ungarn":9047,"##itor":9048,"publikum":9049,"fund":9050,"dahl":9051,"78":9052,"lago":9053,"##osh":9054,"samle":9055,"##19":9056,"##forsvar":9057,"gør":9058,"##pter":9059,"bergsked":9060,"fattig":9061,"grunnleg":9062,"##agon":9063,"##iah":9064,"ringmaskart":9065,"komponist":9066,"##dis":9067,"##ræns":9068,"aleks":9069,"anti":9070,"heim":9071,"mill":9072,"oleander":9073,"mort":9074,"orm":9075,"1857":9076,"ungern":9077,"sank":9078,"##urn":9079,"87":9080,"angreb":9081,"sunn":9082,"regnet":9083,"costa":9084,"sammenlig":9085,"##bury":9086,"dato":9087,"##skede":9088,"##ktioner":9089,"bostad":9090,"##rekord":9091,"athen":9092,"lux":9093,"##backen":9094,"##strid":9095,"1830":9096,"jugoslav":9097,"estland":9098,"##arina":9099,"bryg":9100,"group":9101,"##iation":9102,"cruz":9103,"emeller":9104,"nio":9105,"##hvert":9106,"skapa":9107,"##iki":9108,"heder":9109,"sofia":9110,"mangfotingart":9111,"88":9112,"##øyene":9113,"instrueret":9114,"fø":9115,"hodet":9116,"emellertid":9117,"mr":9118,"##elsene":9119,"utnamndes":9120,"solgte":9121,"succes":9122,"ever":9123,"lej":9124,"company":9125,"##lighed":9126,"##kerne":9127,"##aben":9128,"skillnad":9129,"##medalje":9130,"##otes":9131,"##svag":9132,"juvelvingar":9133,"trag":9134,"##fød":9135,"alm":9136,"ensam":9137,"##oga":9138,"##eli":9139,"baker":9140,"kapell":9141,"##erar":9142,"kungar":9143,"1300":9144,"hek":9145,"depart":9146,"##vas":9147,"##optera":9148,"kejs":9149,"fak":9150,"flagg":9151,"##aux":9152,"##roph":9153,"skre":9154,"konfer":9155,"kaldet":9156,"##skilda":9157,"aarhus":9158,"foreld":9159,"##olax":9160,"foresl":9161,"##lic":9162,"##antus":9163,"utkom":9164,"fars":9165,"rent":9166,"##skov":9167,"##unnen":9168,"klubbens":9169,"lagre":9170,"utgors":9171,"mall":9172,"eftertrad":9173,"medeltida":9174,"avs":9175,"##ylor":9176,"82":9177,"tig":9178,"##lok":9179,"tilldelades":9180,"elektrisk":9181,"tills":9182,"organisationen":9183,"ridder":9184,"sonen":9185,"##kningen":9186,"kræ":9187,"tyn":9188,"sats":9189,"##konst":9190,"##dad":9191,"##boll":9192,"skop":9193,"medis":9194,"kak":9195,"##parti":9196,"marken":9197,"tegnet":9198,"##usal":9199,"1400":9200,"##eler":9201,"ligesom":9202,"152":9203,"##edom":9204,"ela":9205,"jr":9206,"ansatte":9207,"andersen":9208,"egentlig":9209,"utsags":9210,"varldsm":9211,"katal":9212,"##arder":9213,"##arm":9214,"snak":9215,"rim":9216,"hjemme":9217,"kraftigt":9218,"parish":9219,"avvattnas":9220,"84":9221,"tempel":9222,"døy":9223,"##varande":9224,"##arch":9225,"inrattades":9226,"kvalific":9227,"portugis":9228,"skrivit":9229,"corrego":9230,"greske":9231,"høyde":9232,"##fred":9233,"exemplar":9234,"revolusjon":9235,"##olonth":9236,"melolonth":9237,"vakt":9238,"tyr":9239,"mojligt":9240,"sydlige":9241,"skade":9242,"ovre":9243,"dend":9244,"daremot":9245,"##inner":9246,"jacques":9247,"##ble":9248,"johansson":9249,"##oft":9250,"socknen":9251,"##issen":9252,"##gade":9253,"darpa":9254,"profesjon":9255,"torn":9256,"gy":9257,"##asi":9258,"nordvastlig":9259,"historiska":9260,"##styrelsen":9261,"unga":9262,"##elly":9263,"napoleon":9264,"kent":9265,"ankom":9266,"marks":9267,"beijing":9268,"##tysk":9269,"benyttes":9270,"##ando":9271,"street":9272,"##larna":9273,"ytt":9274,"syrien":9275,"eksper":9276,"tennis":9277,"##agus":9278,"house":9279,"dru":9280,"##illi":9281,"holly":9282,"##omraden":9283,"tilsk":9284,"virkelig":9285,"79":9286,"tax":9287,"skepp":9288,"foljde":9289,"ender":9290,"italienska":9291,"vanliga":9292,"mellersta":9293,"##bygd":9294,"prosent":9295,"##ume":9296,"vinteren":9297,"ecuador":9298,"stær":9299,"##ligvis":9300,"filip":9301,"rektor":9302,"kub":9303,"##fora":9304,"##træ":9305,"farger":9306,"bin":9307,"##berget":9308,"##kommun":9309,"detaljer":9310,"##omus":9311,"##stift":9312,"##apa":9313,"naede":9314,"diplomat":9315,"utgjør":9316,"forfattaren":9317,"regisser":9318,"dagg":9319,"gruppens":9320,"155":9321,"##landska":9322,"##kins":9323,"sene":9324,"pont":9325,"##alam":9326,"pred":9327,"greve":9328,"forhand":9329,"##skad":9330,"##esund":9331,"##krigen":9332,"##radets":9333,"oblast":9334,"prog":9335,"##spill":9336,"flyt":9337,"fælles":9338,"chur":9339,"orn":9340,"zo":9341,"vlad":9342,"lock":9343,"##ray":9344,"##ninga":9345,"##spillet":9346,"erk":9347,"forbed":9348,"fortal":9349,"##ryd":9350,"visse":9351,"##skilde":9352,"##stemer":9353,"fored":9354,"##uge":9355,"trolig":9356,"parasit":9357,"##emala":9358,"partier":9359,"##uds":9360,"rene":9361,"tvang":9362,"støtt":9363,"mandat":9364,"##draget":9365,"opført":9366,"billboard":9367,"##atret":9368,"##ellus":9369,"##halland":9370,"spekt":9371,"ay":9372,"kendte":9373,"##uper":9374,"##liste":9375,"##shov":9376,"##bygger":9377,"##elis":9378,"eksemp":9379,"dram":9380,"gis":9381,"دره":9382,"lovfallande":9383,"##bank":9384,"internationale":9385,"oarna":9386,"tai":9387,"wol":9388,"helst":9389,"##ktør":9390,"officer":9391,"tub":9392,"vinn":9393,"sakalte":9394,"##bolaget":9395,"projektet":9396,"korea":9397,"ment":9398,"henholdsvis":9399,"romant":9400,"endret":9401,"##alo":9402,"1856":9403,"dage":9404,"besok":9405,"udvikling":9406,"##vak":9407,"play":9408,"##otta":9409,"oppdaget":9410,"landst":9411,"kvinder":9412,"fjader":9413,"gord":9414,"##bø":9415,"giver":9416,"##namnet":9417,"svarta":9418,"etapp":9419,"avis":9420,"aterupp":9421,"##ancer":9422,"##delingen":9423,"##gruppe":9424,"konstantin":9425,"dubbel":9426,"sette":9427,"statist":9428,"##oro":9429,"lanka":9430,"##platsen":9431,"gruppa":9432,"albummet":9433,"##iffer":9434,"verksamheten":9435,"##aran":9436,"seger":9437,"folkem":9438,"finlands":9439,"##ulen":9440,"bug":9441,"press":9442,"sot":9443,"##ili":9444,"forsøk":9445,"produkter":9446,"robin":9447,"##jk":9448,"efterfølgende":9449,"hundre":9450,"##rym":9451,"neb":9452,"##grupper":9453,"1855":9454,"udgav":9455,"##brud":9456,"##gelig":9457,"##øve":9458,"skatt":9459,"vanleg":9460,"##ophora":9461,"handler":9462,"##emedal":9463,"princip":9464,"##meb":9465,"slutligen":9466,"timer":9467,"tidiga":9468,"monter":9469,"ling":9470,"##litt":9471,"anim":9472,"hat":9473,"##zig":9474,"##skamp":9475,"eksemplar":9476,"monark":9477,"tage":9478,"andel":9479,"##vap":9480,"##iku":9481,"daværende":9482,"89":9483,"97":9484,"helse":9485,"pit":9486,"1852":9487,"philip":9488,"linne":9489,"ext":9490,"invigdes":9491,"##sbl":9492,"158":9493,"##dige":9494,"synes":9495,"overgang":9496,"vurder":9497,"hertig":9498,"##ennene":9499,"sac":9500,"##dra":9501,"ægte":9502,"kone":9503,"darlig":9504,"spanska":9505,"francois":9506,"undervisning":9507,"utford":9508,"flytta":9509,"honor":9510,"##fron":9511,"typen":9512,"dirig":9513,"##unget":9514,"nilsson":9515,"##medlem":9516,"hid":9517,"deira":9518,"melolonthidae":9519,"##bla":9520,"oppført":9521,"##uni":9522,"##uga":9523,"vokste":9524,"udnæ":9525,"##stolen":9526,"hay":9527,"jobbet":9528,"ki":9529,"1100":9530,"fjarilar":9531,"perioder":9532,"##jiang":9533,"##redakt":9534,"bac":9535,"eugen":9536,"##manns":9537,"bapt":9538,"zealand":9539,"##sin":9540,"hosp":9541,"lengde":9542,"liter":9543,"##ledare":9544,"sachsen":9545,"høyere":9546,"ansatt":9547,"formand":9548,"##ocarp":9549,"turnering":9550,"##yder":9551,"##bygget":9552,"##yph":9553,"varianter":9554,"antallet":9555,"##rium":9556,"fril":9557,"philipp":9558,"teknisk":9559,"filippin":9560,"tenggara":9561,"##jes":9562,"##pool":9563,"informasjon":9564,"86":9565,"sz":9566,"kvinne":9567,"squ":9568,"##vaxt":9569,"##lers":9570,"motset":9571,"merc":9572,"semifinalen":9573,"raf":9574,"anledning":9575,"##aton":9576,"bygde":9577,"##kont":9578,"atmos":9579,"##sha":9580,"kum":9581,"##ckel":9582,"##ynam":9583,"##asan":9584,"udtry":9585,"japanska":9586,"østrig":9587,"utmark":9588,"mannen":9589,"##sdal":9590,"##mea":9591,"monten":9592,"##marna":9593,"##imeter":9594,"frid":9595,"polsk":9596,"linjer":9597,"foot":9598,"oppt":9599,"europæ":9600,"oppos":9601,"krev":9602,"guinea":9603,"sande":9604,"dekkvingene":9605,"sic":9606,"guatemala":9607,"arlig":9608,"belag":9609,"##hjem":9610,"mørk":9611,"81":9612,"nordland":9613,"starta":9614,"manchester":9615,"giv":9616,"utstyr":9617,"##hai":9618,"with":9619,"##ulatus":9620,"morro":9621,"##ologen":9622,"##klubben":9623,"skjedde":9624,"kombiner":9625,"fritt":9626,"kjemp":9627,"##liggande":9628,"karn":9629,"##leis":9630,"medaljer":9631,"bebyggelsen":9632,"96":9633,"trett":9634,"states":9635,"grod":9636,"benam":9637,"reguler":9638,"##rah":9639,"##atør":9640,"1849":9641,"dator":9642,"oversikt":9643,"83":9644,"##hoe":9645,"lug":9646,"minutter":9647,"separat":9648,"annon":9649,"ria":9650,"zar":9651,"##fabri":9652,"halla":9653,"##fard":9654,"lidt":9655,"beach":9656,"isb":9657,"kammer":9658,"bestemte":9659,"vunnet":9660,"uppgift":9661,"##ularis":9662,"hamburg":9663,"inre":9664,"##gelsen":9665,"psal":9666,"augu":9667,"pans":9668,"##øp":9669,"theodor":9670,"##endal":9671,"skargard":9672,"##yen":9673,"savolax":9674,"avvik":9675,"soph":9676,"kristen":9677,"flykt":9678,"##jal":9679,"haw":9680,"anlagg":9681,"konflikt":9682,"feil":9683,"tyng":9684,"bayern":9685,"skopje":9686,"##eton":9687,"##cu":9688,"ther":9689,"##stallning":9690,"musikken":9691,"##rater":9692,"oppkalt":9693,"##elsens":9694,"exped":9695,"bond":9696,"tror":9697,"middelsst":9698,"sasonger":9699,"##melse":9700,"myndighet":9701,"dhar":9702,"fat":9703,"egg":9704,"underarten":9705,"##forfatt":9706,"komponer":9707,"1851":9708,"##jeb":9709,"deutsch":9710,"##xt":9711,"ub":9712,"forsokte":9713,"termin":9714,"overra":9715,"sekunder":9716,"øen":9717,"##ibliote":9718,"##jorden":9719,"modstand":9720,"burg":9721,"mw":9722,"##tain":9723,"hjælp":9724,"middelalderen":9725,"##rul":9726,"##mede":9727,"rose":9728,"##oer":9729,"varia":9730,"inget":9731,"##spunktet":9732,"piz":9733,"sandes":9734,"##bolag":9735,"##egg":9736,"blue":9737,"##avik":9738,"arabisk":9739,"palest":9740,"##station":9741,"korn":9742,"##tning":9743,"##fran":9744,"myrten":9745,"##dre":9746,"##viken":9747,"dræ":9748,"##atning":9749,"##iers":9750,"##ctus":9751,"sloven":9752,"skrevs":9753,"praksis":9754,"herman":9755,"##avling":9756,"##endørs":9757,"abd":9758,"programmer":9759,"tillkom":9760,"para":9761,"niger":9762,"fiji":9763,"##see":9764,"##mis":9765,"##zy":9766,"reich":9767,"##atorium":9768,"##traf":9769,"1854":9770,"omtalt":9771,"trekk":9772,"##grens":9773,"finnmark":9774,"branden":9775,"nusa":9776,"erholl":9777,"roger":9778,"vokal":9779,"##fyr":9780,"florida":9781,"##omycetes":9782,"doug":9783,"ivar":9784,"monteneg":9785,"range":9786,"##tina":9787,"vunnit":9788,"crypt":9789,"##usalem":9790,"##rand":9791,"kalender":9792,"folkrak":9793,"##lere":9794,"thailand":9795,"##ligheter":9796,"barnet":9797,"from":9798,"##forbindel":9799,"skold":9800,"vii":9801,"##ianske":9802,"maxim":9803,"eh":9804,"kommunist":9805,"passager":9806,"møn":9807,"larsen":9808,"##idi":9809,"ng":9810,"vinner":9811,"hyper":9812,"##bul":9813,"daglig":9814,"hvite":9815,"##omi":9816,"tavlade":9817,"##vikt":9818,"lunds":9819,"##klass":9820,"cyc":9821,"mænd":9822,"lob":9823,"prøv":9824,"mim":9825,"##dens":9826,"##atis":9827,"hammer":9828,"rasmus":9829,"berom":9830,"webb":9831,"##mur":9832,"##agu":9833,"later":9834,"senaste":9835,"nedlagt":9836,"framtid":9837,"extra":9838,"##dr":9839,"kus":9840,"##arl":9841,"##afrika":9842,"revolution":9843,"##svenskan":9844,"wik":9845,"opprinnelige":9846,"torel":9847,"##ommet":9848,"folker":9849,"undant":9850,"tilst":9851,"##aman":9852,"tjeckien":9853,"service":9854,"98":9855,"oar":9856,"skid":9857,"taylor":9858,"##uft":9859,"provins":9860,"diver":9861,"hend":9862,"##slet":9863,"##spil":9864,"ersattes":9865,"visa":9866,"##sakadem":9867,"organisasjon":9868,"størrelse":9869,"##riket":9870,"flygplats":9871,"brag":9872,"great":9873,"##rata":9874,"slesvig":9875,"hellas":9876,"##imir":9877,"kret":9878,"##jente":9879,"championship":9880,"sval":9881,"lei":9882,"pronotum":9883,"bjerg":9884,"##sbygg":9885,"##wesi":9886,"154":9887,"tidsskrift":9888,"sager":9889,"flyttades":9890,"nordmak":9891,"jarl":9892,"vass":9893,"zagreb":9894,"##ikere":9895,"##osoma":9896,"##iew":9897,"gom":9898,"##oly":9899,"hammar":9900,"chah":9901,"bea":9902,"gregor":9903,"eier":9904,"kott":9905,"olsen":9906,"##hea":9907,"yang":9908,"jerusalem":9909,"uttal":9910,"ukraina":9911,"øverste":9912,"magasin":9913,"##snit":9914,"belgien":9915,"republikken":9916,"nedan":9917,"##eger":9918,"madaga":9919,"##inas":9920,"##gari":9921,"bøl":9922,"tillstand":9923,"intens":9924,"sidst":9925,"yrkes":9926,"##bandet":9927,"##irektor":9928,"##aldern":9929,"##urneringen":9930,"bjer":9931,"1853":9932,"##onsin":9933,"##ianus":9934,"pok":9935,"domingo":9936,"nattslandeart":9937,"##su":9938,"polis":9939,"##føres":9940,"##aro":9941,"samfund":9942,"religiøse":9943,"morg":9944,"vulkan":9945,"nyt":9946,"operation":9947,"##olle":9948,"kommit":9949,"alene":9950,"billed":9951,"bergskedja":9952,"utred":9953,"##janst":9954,"nordmakedonien":9955,"##forhalland":9956,"91":9957,"bengt":9958,"kenn":9959,"nyere":9960,"##urd":9961,"##bell":9962,"skalbaggar":9963,"skivan":9964,"finan":9965,"boy":9966,"manit":9967,"##formet":9968,"##schef":9969,"matchen":9970,"##iane":9971,"arbetet":9972,"##innan":9973,"nej":9974,"sende":9975,"nør":9976,"##vey":9977,"##igan":9978,"offisielle":9979,"madagaskar":9980,"##perioden":9981,"##ury":9982,"gjenopp":9983,"##herre":9984,"##dommer":9985,"myror":9986,"##edy":9987,"##spor":9988,"stjerne":9989,"grenser":9990,"##eldig":9991,"##jtnant":9992,"hong":9993,"##rock":9994,"innsp":9995,"##bek":9996,"##chia":9997,"krets":9998,"##leve":9999,"tank":10000,"##ravet":10001,"##ills":10002,"92":10003,"##vad":10004,"ogon":10005,"science":10006,"isla":10007,"##ssam":10008,"##ssystem":10009,"likhet":10010,"friidrott":10011,"trum":10012,"##ningens":10013,"##ijan":10014,"93":10015,"##teck":10016,"grun":10017,"##bot":10018,"##senteret":10019,"malv":10020,"##row":10021,"scenen":10022,"transporter":10023,"##rere":10024,"venner":10025,"sulawesi":10026,"##atene":10027,"brist":10028,"slov":10029,"basket":10030,"internet":10031,"##ular":10032,"card":10033,"begrans":10034,"planen":10035,"oberst":10036,"lun":10037,"forfattar":10038,"vasa":10039,"##escens":10040,"nederlanderna":10041,"seder":10042,"exper":10043,"chi":10044,"poet":10045,"renover":10046,"##wart":10047,"##onde":10048,"##mil":10049,"bjorn":10050,"sher":10051,"primært":10052,"##snamn":10053,"ytre":10054,"box":10055,"otte":10056,"jonas":10057,"##ylon":10058,"##rane":10059,"##viet":10060,"skola":10061,"skriva":10062,"dokt":10063,"himmel":10064,"andrew":10065,"oprindeligt":10066,"##sjtina":10067,"tus":10068,"##oslov":10069,"spindeldjursart":10070,"##erto":10071,"mach":10072,"frihet":10073,"endelig":10074,"bokstav":10075,"main":10076,"gøre":10077,"##perio":10078,"##linger":10079,"grasart":10080,"proces":10081,"koudyet":10082,"##edia":10083,"stru":10084,"tilgjen":10085,"bark":10086,"cyr":10087,"kw":10088,"##ælde":10089,"kvalster":10090,"mut":10091,"studioalbum":10092,"hotell":10093,"lave":10094,"saldes":10095,"uppf":10096,"sierra":10097,"##ephalus":10098,"khor":10099,"##oken":10100,"kristiania":10101,"kated":10102,"stu":10103,"nationella":10104,"fortæl":10105,"mening":10106,"døydde":10107,"plassen":10108,"nit":10109,"næv":10110,"sens":10111,"##spelet":10112,"aer":10113,"huvudstad":10114,"cr":10115,"aph":10116,"botten":10117,"sult":10118,"styret":10119,"##iot":10120,"karaktar":10121,"akantus":10122,"##iba":10123,"pjas":10124,"amster":10125,"##finalen":10126,"##iget":10127,"reise":10128,"##phia":10129,"road":10130,"jas":10131,"##hag":10132,"ip":10133,"utbygg":10134,"##pre":10135,"##skom":10136,"##stø":10137,"amsterdam":10138,"nordiska":10139,"cri":10140,"christop":10141,"dc":10142,"erklær":10143,"##nare":10144,"landshold":10145,"nut":10146,"foljer":10147,"##bridge":10148,"##iform":10149,"bjørn":10150,"wang":10151,"##valgt":10152,"sogne":10153,"trakt":10154,"konkurrerer":10155,"konged":10156,"##oki":10157,"forbi":10158,"academ":10159,"ff":10160,"morgen":10161,"##halv":10162,"##icer":10163,"pag":10164,"valen":10165,"aktiviteter":10166,"##ryck":10167,"##ction":10168,"cont":10169,"##lanssteklar":10170,"malar":10171,"##bør":10172,"dvd":10173,"##strup":10174,"##verg":10175,"ath":10176,"bulu":10177,"tysklands":10178,"##amento":10179,"examen":10180,"esc":10181,"##ktig":10182,"##bourne":10183,"##vise":10184,"forsy":10185,"##ites":10186,"signer":10187,"stabil":10188,"##ocer":10189,"get":10190,"##smuse":10191,"listen":10192,"##altet":10193,"reservo":10194,"disc":10195,"helg":10196,"##ving":10197,"kairo":10198,"past":10199,"scotia":10200,"ortod":10201,"undersok":10202,"virginia":10203,"vinde":10204,"knapp":10205,"##arius":10206,"nasta":10207,"##uster":10208,"eksempler":10209,"hul":10210,"forsvaret":10211,"viv":10212,"##angden":10213,"ansags":10214,"grim":10215,"aktivitet":10216,"etablerte":10217,"##rant":10218,"##rence":10219,"##bror":10220,"ull":10221,"bolaget":10222,"anvendes":10223,"lopp":10224,"genet":10225,"##urnering":10226,"tagit":10227,"arbeta":10228,"antingen":10229,"##kkel":10230,"##fugl":10231,"##oslovak":10232,"erhver":10233,"##kirke":10234,"male":10235,"##smil":10236,"baserad":10237,"kryss":10238,"omgivningen":10239,"lill":10240,"##ovic":10241,"forbatt":10242,"tropper":10243,"særleg":10244,"damask":10245,"uppfatt":10246,"eva":10247,"stemme":10248,"conc":10249,"sadana":10250,"##ahr":10251,"overg":10252,"pip":10253,"ruf":10254,"##frag":10255,"tokyo":10256,"##king":10257,"kyr":10258,"cach":10259,"plante":10260,"1814":10261,"chlor":10262,"day":10263,"digit":10264,"##oke":10265,"rosa":10266,"darah":10267,"centimeter":10268,"##kysten":10269,"sønnen":10270,"trods":10271,"drygt":10272,"gabriel":10273,"hvorav":10274,"sog":10275,"viken":10276,"professionell":10277,"hoh":10278,"good":10279,"vetenskapliga":10280,"liver":10281,"brach":10282,"uly":10283,"erfar":10284,"patraff":10285,"inledde":10286,"##idar":10287,"posten":10288,"tittel":10289,"efterhand":10290,"##dera":10291,"##ells":10292,"carolina":10293,"##atra":10294,"mete":10295,"nederlandsk":10296,"handball":10297,"reserve":10298,"nick":10299,"##stens":10300,"##jn":10301,"##onis":10302,"maned":10303,"##apest":10304,"orienter":10305,"sjæl":10306,"innflyt":10307,"country":10308,"yderligere":10309,"##sblomm":10310,"##juk":10311,"##pol":10312,"kod":10313,"knud":10314,"fikt":10315,"yu":10316,"##imb":10317,"nich":10318,"##mass":10319,"##stjen":10320,"##entes":10321,"##ophor":10322,"##løb":10323,"bun":10324,"##elden":10325,"kyrkob":10326,"betydande":10327,"møte":10328,"##acken":10329,"faet":10330,"mork":10331,"manitoba":10332,"forster":10333,"diskuter":10334,"plata":10335,"##car":10336,"##rie":10337,"malare":10338,"mistet":10339,"##kong":10340,"metoder":10341,"fundet":10342,"glad":10343,"tum":10344,"invester":10345,"bakter":10346,"vundet":10347,"give":10348,"damaskus":10349,"overført":10350,"##atern":10351,"##listan":10352,"plate":10353,"tjanstgjorde":10354,"renn":10355,"##agua":10356,"##smand":10357,"##icia":10358,"vera":10359,"intresse":10360,"islands":10361,"enheter":10362,"marit":10363,"hjør":10364,"ranger":10365,"niels":10366,"støttet":10367,"dalen":10368,"lie":10369,"avlade":10370,"lewis":10371,"agu":10372,"grundlagt":10373,"mottok":10374,"dum":10375,"##usk":10376,"konkurransen":10377,"association":10378,"##esa":10379,"voks":10380,"##agner":10381,"metod":10382,"nominat":10383,"trebu":10384,"buddh":10385,"anvandning":10386,"jøder":10387,"aal":10388,"krim":10389,"engager":10390,"odense":10391,"cos":10392,"##otrich":10393,"nue":10394,"warren":10395,"precis":10396,"gig":10397,"reformer":10398,"udkom":10399,"gods":10400,"##mess":10401,"deltak":10402,"pand":10403,"sax":10404,"##aco":10405,"##oppor":10406,"ansvaret":10407,"##ordenen":10408,"##enfor":10409,"##fiskar":10410,"##kede":10411,"##elva":10412,"##kraftverk":10413,"##real":10414,"##ikan":10415,"budapest":10416,"middelalder":10417,"moore":10418,"tilknyttet":10419,"dyp":10420,"erke":10421,"##itis":10422,"koncer":10423,"tromsø":10424,"hotel":10425,"daribland":10426,"##log":10427,"pengar":10428,"occ":10429,"flyet":10430,"forholdsvis":10431,"##ologien":10432,"##sels":10433,"bomb":10434,"indust":10435,"baseret":10436,"faste":10437,"kilde":10438,"faktisk":10439,"##vart":10440,"stund":10441,"##itu":10442,"khal":10443,"bert":10444,"politiet":10445,"teknik":10446,"ribeira":10447,"bane":10448,"skatte":10449,"forfatteren":10450,"##yns":10451,"##jene":10452,"slappte":10453,"##handel":10454,"##18":10455,"priset":10456,"udbred":10457,"wen":10458,"##naren":10459,"##ieg":10460,"accep":10461,"nel":10462,"telefon":10463,"tronen":10464,"mine":10465,"mali":10466,"grader":10467,"dublin":10468,"snack":10469,"instrukt":10470,"indeholder":10471,"hette":10472,"utvecklades":10473,"kronprin":10474,"partiets":10475,"##bildning":10476,"buss":10477,"pig":10478,"##komp":10479,"##nt":10480,"ambet":10481,"bevæ":10482,"skapade":10483,"anklag":10484,"utdannet":10485,"##aterial":10486,"inrikt":10487,"gad":10488,"hals":10489,"verkade":10490,"##polit":10491,"##fast":10492,"rekna":10493,"stro":10494,"##ængde":10495,"##skriver":10496,"##ikkel":10497,"fremdeles":10498,"1847":10499,"bredt":10500,"pent":10501,"##gers":10502,"trakk":10503,"church":10504,"grensen":10505,"anven":10506,"##ukas":10507,"fardig":10508,"##fir":10509,"syg":10510,"##vetenskap":10511,"kli":10512,"naturen":10513,"singelen":10514,"eliz":10515,"nominatformen":10516,"milj":10517,"##nus":10518,"fed":10519,"fastlandet":10520,"position":10521,"partik":10522,"##organisation":10523,"##løse":10524,"##icol":10525,"syft":10526,"night":10527,"94":10528,"hvilken":10529,"brat":10530,"guer":10531,"##banan":10532,"##lis":10533,"avse":10534,"federationen":10535,"football":10536,"##orda":10537,"ledd":10538,"drevet":10539,"etterhvert":10540,"##utvik":10541,"utga":10542,"asteroiden":10543,"gross":10544,"##pr":10545,"materiale":10546,"angiv":10547,"motsvarar":10548,"##ksomhet":10549,"hurtigt":10550,"oppen":10551,"##shall":10552,"departamento":10553,"cell":10554,"##hjul":10555,"fox":10556,"way":10557,"##ifisert":10558,"##zan":10559,"startede":10560,"davis":10561,"##agar":10562,"delarna":10563,"myc":10564,"politikk":10565,"##filmen":10566,"key":10567,"uaf":10568,"##vinsen":10569,"##spro":10570,"modtog":10571,"monster":10572,"officiella":10573,"##itel":10574,"uppgifter":10575,"hest":10576,"antarctic":10577,"gamm":10578,"elect":10579,"saken":10580,"did":10581,"passasjer":10582,"tæt":10583,"komment":10584,"##stillingen":10585,"stallde":10586,"statsb":10587,"fange":10588,"roth":10589,"##løs":10590,"##ipennis":10591,"sno":10592,"##ands":10593,"##forfatter":10594,"flyttede":10595,"call":10596,"tilknytning":10597,"##dater":10598,"kopte":10599,"gavle":10600,"##num":10601,"utviklingen":10602,"##moss":10603,"##lander":10604,"schmid":10605,"kvinnliga":10606,"##sprod":10607,"elit":10608,"filosofie":10609,"##allt":10610,"kampene":10611,"valkrets":10612,"sjef":10613,"naværende":10614,"##mær":10615,"attende":10616,"##lea":10617,"utmer":10618,"##olph":10619,"nødvendig":10620,"mira":10621,"samlede":10622,"##edlem":10623,"drive":10624,"##isera":10625,"parasitflugor":10626,"##verks":10627,"gly":10628,"##fabrik":10629,"kenya":10630,"##obius":10631,"1842":10632,"tir":10633,"veget":10634,"utøver":10635,"cens":10636,"opdag":10637,"preussen":10638,"##iserades":10639,"##resident":10640,"smaharkrankar":10641,"kvinna":10642,"bulgari":10643,"sucre":10644,"psych":10645,"kris":10646,"##pla":10647,"salg":10648,"skiljer":10649,"barndom":10650,"base":10651,"##ei":10652,"fern":10653,"born":10654,"demonst":10655,"##hein":10656,"pac":10657,"hollywood":10658,"cav":10659,"fragor":10660,"mansk":10661,"kryd":10662,"dømt":10663,"æres":10664,"##hatt":10665,"##barn":10666,"micro":10667,"løs":10668,"asien":10669,"preste":10670,"marx":10671,"##serie":10672,"hvem":10673,"mesterskapet":10674,"maten":10675,"veckor":10676,"##aterna":10677,"1846":10678,"skøy":10679,"astronomen":10680,"spr":10681,"perth":10682,"avheng":10683,"cec":10684,"observer":10685,"hond":10686,"kvalitet":10687,"##opt":10688,"bakken":10689,"wild":10690,"lamna":10691,"scha":10692,"singeln":10693,"##snes":10694,"##sdag":10695,"fair":10696,"bidrog":10697,"##aket":10698,"formod":10699,"umiddel":10700,"forny":10701,"kardinal":10702,"inkluderer":10703,"kid":10704,"hvid":10705,"bibel":10706,"fack":10707,"emer":10708,"lavere":10709,"##ough":10710,"marc":10711,"monument":10712,"rhod":10713,"##æv":10714,"grac":10715,"##kka":10716,"hier":10717,"kjær":10718,"##cupen":10719,"luxem":10720,"##zel":10721,"sakerhet":10722,"igenom":10723,"hogt":10724,"minuter":10725,"muller":10726,"##ekan":10727,"føde":10728,"sterke":10729,"za":10730,"beskrivs":10731,"suva":10732,"myrart":10733,"forbered":10734,"##nens":10735,"##lyck":10736,"egentligen":10737,"##natt":10738,"ombord":10739,"sangare":10740,"umea":10741,"leop":10742,"næst":10743,"joe":10744,"moral":10745,"forhallande":10746,"udvid":10747,"skreiv":10748,"tiz":10749,"alber":10750,"ældre":10751,"miljo":10752,"sebast":10753,"##anan":10754,"slot":10755,"##stendig":10756,"leir":10757,"kungariket":10758,"talen":10759,"slovak":10760,"##ireg":10761,"organisasjonen":10762,"mikro":10763,"udgave":10764,"oce":10765,"tarn":10766,"fald":10767,"føder":10768,"##verksamhet":10769,"##anni":10770,"michel":10771,"haller":10772,"##svall":10773,"produktionen":10774,"##stadt":10775,"arkitekten":10776,"kolleg":10777,"viborg":10778,"stone":10779,"louise":10780,"coc":10781,"kanske":10782,"kjøpte":10783,"elfen":10784,"##enne":10785,"dominikanska":10786,"georgia":10787,"##issa":10788,"synd":10789,"1838":10790,"begrens":10791,"bure":10792,"jama":10793,"fakult":10794,"syns":10795,"omfattade":10796,"1845":10797,"enter":10798,"sjette":10799,"mix":10800,"dalarna":10801,"masse":10802,"liverpool":10803,"ena":10804,"##kanten":10805,"elizabeth":10806,"herrarnas":10807,"medborg":10808,"##ryp":10809,"tib":10810,"##uela":10811,"##anj":10812,"overl":10813,"uppratt":10814,"oprindelige":10815,"oven":10816,"##derna":10817,"ifran":10818,"friidrettsutøver":10819,"nordamerika":10820,"nordiske":10821,"fullt":10822,"##oppen":10823,"tvingades":10824,"domstol":10825,"##satser":10826,"##ield":10827,"chen":10828,"##ppa":10829,"klubber":10830,"avisen":10831,"romaner":10832,"##yah":10833,"apen":10834,"centre":10835,"##yan":10836,"givet":10837,"piper":10838,"##vejen":10839,"paven":10840,"ødelagt":10841,"larsson":10842,"kyrkja":10843,"rysk":10844,"hoger":10845,"brian":10846,"østerrike":10847,"berømte":10848,"kult":10849,"ansl":10850,"framtrad":10851,"##etning":10852,"gum":10853,"##deren":10854,"digital":10855,"##resp":10856,"149":10857,"tradgard":10858,"forlang":10859,"##resent":10860,"uru":10861,"magt":10862,"kraftige":10863,"svt":10864,"##sekretær":10865,"ribeirao":10866,"1844":10867,"##rande":10868,"arkiv":10869,"##alven":10870,"##rette":10871,"ytterligere":10872,"hamil":10873,"##shand":10874,"##jades":10875,"jødiske":10876,"##asj":10877,"mytologi":10878,"##antha":10879,"##jylland":10880,"igar":10881,"##aa":10882,"utnytt":10883,"fylumet":10884,"stoff":10885,"##inden":10886,"manager":10887,"misslyck":10888,"fx":10889,"##akes":10890,"interesser":10891,"varfor":10892,"##sats":10893,"dubb":10894,"zeeland":10895,"##rina":10896,"##bygning":10897,"iris":10898,"##iev":10899,"uppkallad":10900,"osterrik":10901,"sags":10902,"kyrkans":10903,"mørke":10904,"opk":10905,"ønsker":10906,"##shistor":10907,"##inet":10908,"forp":10909,"##farg":10910,"inner":10911,"##bajd":10912,"begreppet":10913,"kvalsterart":10914,"##onoma":10915,"regioner":10916,"forteller":10917,"hegy":10918,"sedermera":10919,"helik":10920,"scor":10921,"stræ":10922,"haug":10923,"beord":10924,"##vari":10925,"##skydd":10926,"##ls":10927,"##ellan":10928,"##vania":10929,"forsvars":10930,"tros":10931,"kirker":10932,"vokser":10933,"##yrkan":10934,"montenegro":10935,"##arkite":10936,"arhundre":10937,"##mers":10938,"aktivt":10939,"forlot":10940,"mess":10941,"syfte":10942,"##opel":10943,"ordfører":10944,"##wick":10945,"foll":10946,"volk":10947,"brother":10948,"kallat":10949,"sluttet":10950,"##hof":10951,"##inter":10952,"cher":10953,"##institut":10954,"begrepet":10955,"lagene":10956,"forholdet":10957,"##elling":10958,"hyr":10959,"##bana":10960,"teoret":10961,"oppst":10962,"##lagde":10963,"værker":10964,"##vor":10965,"##iserede":10966,"igennem":10967,"##motor":10968,"rok":10969,"plast":10970,"hoglandsklimat":10971,"rust":10972,"ledende":10973,"grunden":10974,"##wich":10975,"##omot":10976,"utrust":10977,"handlingen":10978,"alg":10979,"##kopp":10980,"kinas":10981,"viktiga":10982,"kuba":10983,"verkar":10984,"posisjon":10985,"##ische":10986,"overd":10987,"innled":10988,"foraldrar":10989,"byggde":10990,"autor":10991,"##pere":10992,"resa":10993,"landh":10994,"##viks":10995,"##iano":10996,"begravet":10997,"shuiku":10998,"##meter":10999,"placering":11000,"unntak":11001,"##deb":11002,"herre":11003,"vorte":11004,"stann":11005,"##tjarnen":11006,"##wall":11007,"lakare":11008,"allierte":11009,"fenomen":11010,"utrikes":11011,"brid":11012,"folkm":11013,"cykel":11014,"eksempelvis":11015,"arbejdede":11016,"##ublikken":11017,"snackart":11018,"##arez":11019,"konserter":11020,"hemma":11021,"kran":11022,"##nia":11023,"dna":11024,"kraftverk":11025,"aktive":11026,"##styre":11027,"tatbebygg":11028,"vanligtvis":11029,"##yin":11030,"senior":11031,"##aldte":11032,"syr":11033,"##vision":11034,"ow":11035,"gymnast":11036,"##sbo":11037,"##quist":11038,"fengsel":11039,"involver":11040,"labor":11041,"kru":11042,"##ki":11043,"##arig":11044,"##eks":11045,"##mane":11046,"okade":11047,"normand":11048,"wu":11049,"apost":11050,"##historie":11051,"##ار":11052,"nø":11053,"bestyr":11054,"beteg":11055,"riviere":11056,"offisielt":11057,"##edyr":11058,"hjart":11059,"varierer":11060,"rymd":11061,"makedonska":11062,"##stillinger":11063,"bosatte":11064,"##hire":11065,"skan":11066,"maz":11067,"diagn":11068,"innsjøen":11069,"smitt":11070,"ix":11071,"vog":11072,"amph":11073,"jørgen":11074,"regim":11075,"batter":11076,"gett":11077,"ideer":11078,"1839":11079,"administrer":11080,"##kat":11081,"##tall":11082,"##via":11083,"##rute":11084,"zam":11085,"høyt":11086,"portratt":11087,"muligt":11088,"flockblommiga":11089,"##aba":11090,"signal":11091,"avdeling":11092,"hvit":11093,"##furt":11094,"vr":11095,"##grav":11096,"molek":11097,"liga":11098,"territori":11099,"eksist":11100,"##edag":11101,"##12":11102,"##ollis":11103,"abs":11104,"fej":11105,"humor":11106,"videnskab":11107,"indenfor":11108,"##dende":11109,"inflytande":11110,"officiellt":11111,"##ique":11112,"##spektiv":11113,"christopher":11114,"beskytt":11115,"##nets":11116,"##ligste":11117,"##arbeidet":11118,"administrativt":11119,"##ttes":11120,"##abil":11121,"steve":11122,"ældste":11123,"tilhørte":11124,"##enda":11125,"vaben":11126,"utdanning":11127,"##ocera":11128,"selskab":11129,"ligel":11130,"##icip":11131,"klin":11132,"skyld":11133,"kriminal":11134,"rusland":11135,"nieder":11136,"titlen":11137,"sard":11138,"video":11139,"##partement":11140,"tow":11141,"jiang":11142,"rib":11143,"igarape":11144,"##ness":11145,"internasjonal":11146,"douglas":11147,"arig":11148,"##jus":11149,"atten":11150,"boka":11151,"forg":11152,"inndeling":11153,"finlandsk":11154,"ordenen":11155,"stylt":11156,"##fjell":11157,"##kyrka":11158,"##eborg":11159,"##finns":11160,"bryst":11161,"howard":11162,"slakten":11163,"stadsdelen":11164,"tver":11165,"alan":11166,"havn":11167,"fantas":11168,"##viser":11169,"##ckte":11170,"##rupper":11171,"oxford":11172,"kullar":11173,"finde":11174,"nederlag":11175,"undantag":11176,"##mag":11177,"cupen":11178,"uttrykk":11179,"kurd":11180,"ligeledes":11181,"forekomm":11182,"society":11183,"##orh":11184,"cross":11185,"betrag":11186,"melbourne":11187,"livs":11188,"figurer":11189,"jurist":11190,"uh":11191,"##ranse":11192,"order":11193,"invas":11194,"wur":11195,"lokaler":11196,"##line":11197,"kyrkog":11198,"kannet":11199,"hamilton":11200,"uef":11201,"ces":11202,"town":11203,"jobb":11204,"amazon":11205,"presidenten":11206,"lof":11207,"tromm":11208,"rør":11209,"low":11210,"ambassad":11211,"kontrover":11212,"festivalen":11213,"favor":11214,"##right":11215,"forblev":11216,"kamer":11217,"##øns":11218,"skala":11219,"heil":11220,"bbc":11221,"##ych":11222,"##osi":11223,"##vants":11224,"1837":11225,"kristendom":11226,"##strakt":11227,"hellige":11228,"anser":11229,"upphorde":11230,"##maskar":11231,"bildar":11232,"fing":11233,"gene":11234,"state":11235,"færø":11236,"gilbert":11237,"##melser":11238,"hevdet":11239,"##emer":11240,"##yting":11241,"banan":11242,"akse":11243,"meddelade":11244,"etiopien":11245,"tatbebyggt":11246,"dick":11247,"##angare":11248,"server":11249,"beck":11250,"blek":11251,"fylket":11252,"byrja":11253,"##hallen":11254,"##eslut":11255,"say":11256,"bronsemedal":11257,"##stoff":11258,"##ikkert":11259,"##kultur":11260,"windows":11261,"telemark":11262,"starter":11263,"##arth":11264,"utvidet":11265,"motiver":11266,"arabiske":11267,"nationale":11268,"lop":11269,"sman":11270,"dommer":11271,"inng":11272,"##ætte":11273,"grov":11274,"guvernor":11275,"bezirk":11276,"hugo":11277,"##ple":11278,"dømes":11279,"wars":11280,"bonn":11281,"guds":11282,"stortings":11283,"otill":11284,"##forhallandena":11285,"autonoma":11286,"prost":11287,"sprang":11288,"##steder":11289,"tiln":11290,"jamtland":11291,"##ophagus":11292,"##følger":11293,"cant":11294,"tres":11295,"slav":11296,"forsøkte":11297,"jin":11298,"##sfisk":11299,"zur":11300,"##adet":11301,"vider":11302,"##endige":11303,"kapten":11304,"vinna":11305,"sønner":11306,"##kelser":11307,"omkom":11308,"anlegget":11309,"koreanska":11310,"gaz":11311,"samfunn":11312,"kyrkobygg":11313,"valle":11314,"ryt":11315,"lavart":11316,"indfly":11317,"avsluttet":11318,"single":11319,"karrieren":11320,"mottag":11321,"##hoven":11322,"##sjøen":11323,"##syk":11324,"stanley":11325,"##lagen":11326,"##ego":11327,"utført":11328,"##apar":11329,"abraham":11330,"##raket":11331,"sarbar":11332,"##alli":11333,"##sex":11334,"spelas":11335,"offens":11336,"sammanhang":11337,"##ogae":11338,"##ophilus":11339,"underfamilien":11340,"koloni":11341,"blomst":11342,"hakon":11343,"jbel":11344,"now":11345,"nærmere":11346,"iron":11347,"kurs":11348,"viol":11349,"overbe":11350,"menar":11351,"##etus":11352,"levnad":11353,"partner":11354,"elfenben":11355,"halvt":11356,"centrale":11357,"kanadens":11358,"salde":11359,"##iflora":11360,"##rykk":11361,"forega":11362,"varierar":11363,"leip":11364,"rena":11365,"kollektiv":11366,"damer":11367,"songar":11368,"##icornis":11369,"anlagt":11370,"care":11371,"##elberg":11372,"utslatt":11373,"objekt":11374,"pam":11375,"xi":11376,"finske":11377,"##kunst":11378,"orth":11379,"anvants":11380,"schle":11381,"selvom":11382,"planlagt":11383,"##16":11384,"jordan":11385,"herefter":11386,"quad":11387,"##baltet":11388,"avancer":11389,"ey":11390,"utd":11391,"##oman":11392,"selvstænd":11393,"##isterna":11394,"kejsar":11395,"blind":11396,"oppdrag":11397,"##jøen":11398,"drep":11399,"andreplass":11400,"timmar":11401,"##ielle":11402,"militara":11403,"##iell":11404,"neut":11405,"##issionen":11406,"allvar":11407,"unionen":11408,"urval":11409,"diverse":11410,"skapades":11411,"indled":11412,"jernbane":11413,"##ube":11414,"hinanden":11415,"cover":11416,"##samma":11417,"mastare":11418,"fangelse":11419,"that":11420,"personlige":11421,"mike":11422,"##gelse":11423,"tekniske":11424,"##fallet":11425,"slaver":11426,"##anc":11427,"##uellt":11428,"##uro":11429,"bedri":11430,"##ylind":11431,"##ikal":11432,"##udover":11433,"kristna":11434,"##eti":11435,"##yeong":11436,"##jing":11437,"tod":11438,"##ckar":11439,"##opol":11440,"kastilien":11441,"artikler":11442,"olje":11443,"stasjonen":11444,"sha":11445,"wel":11446,"##ikon":11447,"regional":11448,"lufthavn":11449,"debatt":11450,"##olag":11451,"chris":11452,"vegen":11453,"clark":11454,"##ekamp":11455,"senator":11456,"rese":11457,"##feldt":11458,"tappeh":11459,"jav":11460,"samfunns":11461,"konsul":11462,"anmel":11463,"overgick":11464,"handbold":11465,"valdigt":11466,"eb":11467,"polske":11468,"##ssons":11469,"##kol":11470,"##skin":11471,"deltagare":11472,"##cast":11473,"frederick":11474,"##fallen":11475,"oversattning":11476,"mans":11477,"##itus":11478,"##alpa":11479,"##esia":11480,"atter":11481,"jamfor":11482,"kaldt":11483,"##shoppor":11484,"spelaren":11485,"boston":11486,"##edo":11487,"saf":11488,"myst":11489,"anderson":11490,"radet":11491,"##iction":11492,"palm":11493,"klassiske":11494,"puerto":11495,"##lende":11496,"aften":11497,"stiftelsen":11498,"taiwan":11499,"##tom":11500,"speciellt":11501,"##losa":11502,"125":11503,"triv":11504,"##vall":11505,"##spring":11506,"piano":11507,"charlotte":11508,"##andid":11509,"nederlandske":11510,"publicerades":11511,"arida":11512,"##ctor":11513,"brygger":11514,"urban":11515,"motsvarande":11516,"##fod":11517,"##æd":11518,"stipend":11519,"##unga":11520,"aterfinns":11521,"agare":11522,"##jam":11523,"schw":11524,"stick":11525,"manad":11526,"##gelser":11527,"halvdel":11528,"##ulas":11529,"##fur":11530,"##shuset":11531,"tin":11532,"##urser":11533,"##ople":11534,"personen":11535,"kritiker":11536,"##iende":11537,"skilt":11538,"aktenskap":11539,"##atak":11540,"##iten":11541,"trebukker":11542,"grus":11543,"reykj":11544,"dyrk":11545,"gjelder":11546,"##fat":11547,"parc":11548,"teolog":11549,"skaff":11550,"vanlige":11551,"radd":11552,"representerad":11553,"batal":11554,"bebo":11555,"agder":11556,"tanke":11557,"bulgarien":11558,"kommunens":11559,"nerv":11560,"optræ":11561,"##estan":11562,"foregar":11563,"##bran":11564,"##ous":11565,"ledande":11566,"populært":11567,"bys":11568,"foreb":11569,"forskare":11570,"##utan":11571,"forsalj":11572,"ess":11573,"##jel":11574,"allen":11575,"ranun":11576,"preget":11577,"misjon":11578,"cass":11579,"##værende":11580,"cli":11581,"##uning":11582,"##bottens":11583,"aland":11584,"shar":11585,"renner":11586,"løy":11587,"loven":11588,"##løpet":11589,"##iserad":11590,"forret":11591,"##illinger":11592,"musiken":11593,"fysisk":11594,"##sforening":11595,"bagdad":11596,"##assa":11597,"kaptein":11598,"forbj":11599,"aik":11600,"letter":11601,"beror":11602,"distan":11603,"jersey":11604,"##ovit":11605,"##vind":11606,"rolf":11607,"publicerade":11608,"vladimir":11609,"representerade":11610,"##valt":11611,"##ønne":11612,"opplev":11613,"tillat":11614,"##his":11615,"studiet":11616,"1815":11617,"shang":11618,"##fartyg":11619,"pitt":11620,"##tur":11621,"kjell":11622,"dekker":11623,"hardt":11624,"intervju":11625,"gw":11626,"plag":11627,"##sætning":11628,"harstam":11629,"namns":11630,"baggrund":11631,"bebyggelse":11632,"petersburg":11633,"##aeus":11634,"upphov":11635,"navne":11636,"baron":11637,"sports":11638,"gill":11639,"##prisen":11640,"1841":11641,"korre":11642,"debutalbum":11643,"guyana":11644,"golden":11645,"frist":11646,"model":11647,"##jut":11648,"saknar":11649,"reykjavik":11650,"poul":11651,"sop":11652,"still":11653,"##17":11654,"ric":11655,"sikt":11656,"##mu":11657,"forvand":11658,"##nevnte":11659,"heilt":11660,"nemlig":11661,"datab":11662,"##recht":11663,"##oland":11664,"##oser":11665,"narings":11666,"yor":11667,"rattigheter":11668,"honduras":11669,"##klart":11670,"##obe":11671,"mika":11672,"tomm":11673,"tekster":11674,"teatern":11675,"mom":11676,"cay":11677,"sprint":11678,"gjeve":11679,"genop":11680,"##alisme":11681,"non":11682,"internationellt":11683,"skyldes":11684,"sannol":11685,"1843":11686,"##domm":11687,"grott":11688,"##lerne":11689,"mode":11690,"your":11691,"##idus":11692,"hvoraf":11693,"antennene":11694,"##edere":11695,"luften":11696,"omradene":11697,"muham":11698,"##reds":11699,"sociala":11700,"systematik":11701,"##aust":11702,"##estad":11703,"##ffen":11704,"##lanter":11705,"fabrik":11706,"nominert":11707,"##ikar":11708,"vasteras":11709,"aalborg":11710,"midlertid":11711,"commun":11712,"##malm":11713,"cin":11714,"stykke":11715,"##skning":11716,"marked":11717,"kjende":11718,"versjonen":11719,"##skommun":11720,"##bibliote":11721,"ahl":11722,"##egaende":11723,"moren":11724,"##pur":11725,"##figur":11726,"awards":11727,"eleg":11728,"røy":11729,"veter":11730,"##ourt":11731,"retten":11732,"1820":11733,"honan":11734,"##sbruk":11735,"beskrivelse":11736,"xanth":11737,"ryggen":11738,"##skyl":11739,"##alan":11740,"##endron":11741,"aj":11742,"frans":11743,"##erie":11744,"##ifera":11745,"varer":11746,"kad":11747,"trav":11748,"siah":11749,"mobil":11750,"europam":11751,"deleg":11752,"##lak":11753,"##byggnaden":11754,"baserat":11755,"scoret":11756,"protester":11757,"trykk":11758,"head":11759,"minim":11760,"automat":11761,"##vans":11762,"medier":11763,"##ubben":11764,"løb":11765,"konver":11766,"oskar":11767,"hogst":11768,"tyskerne":11769,"##eslag":11770,"##akon":11771,"2021":11772,"##lings":11773,"lege":11774,"##mont":11775,"stadsdel":11776,"##miral":11777,"##kelige":11778,"avslo":11779,"lavet":11780,"tradisjonelle":11781,"##oeira":11782,"##irus":11783,"##made":11784,"eksemplarer":11785,"##brog":11786,"##ssatt":11787,"pedro":11788,"ryd":11789,"gradvis":11790,"indiske":11791,"oprettet":11792,"foremal":11793,"litauen":11794,"dich":11795,"blok":11796,"##lut":11797,"upplagan":11798,"tann":11799,"klimatforhallandena":11800,"møter":11801,"##kron":11802,"org":11803,"##shavet":11804,"fremste":11805,"avskaff":11806,"heid":11807,"sankmarker":11808,"utgrav":11809,"protestant":11810,"samfunnet":11811,"cob":11812,"kommunerna":11813,"kel":11814,"rica":11815,"##ellingen":11816,"skiftede":11817,"##ættelse":11818,"schiz":11819,"mineral":11820,"committe":11821,"pist":11822,"curt":11823,"artikel":11824,"##stig":11825,"innført":11826,"##givare":11827,"wi":11828,"##park":11829,"##anke":11830,"dialekt":11831,"350":11832,"##asitet":11833,"bif":11834,"##formede":11835,"texten":11836,"meteor":11837,"##shan":11838,"administrative":11839,"stycken":11840,"epid":11841,"asiat":11842,"eksterne":11843,"bjork":11844,"løv":11845,"##smakten":11846,"scene":11847,"legend":11848,"skyd":11849,"fadern":11850,"osterbotten":11851,"montreal":11852,"svend":11853,"pakistan":11854,"##bun":11855,"reservatet":11856,"##ckt":11857,"genomfordes":11858,"##hara":11859,"havs":11860,"beet":11861,"bruce":11862,"fyrst":11863,"katolsk":11864,"guitar":11865,"bens":11866,"send":11867,"##23":11868,"##ione":11869,"adskil":11870,"representerer":11871,"##acka":11872,"broad":11873,"nobelp":11874,"ordning":11875,"process":11876,"underlagt":11877,"motte":11878,"mynt":11879,"pach":11880,"##lod":11881,"##stalt":11882,"##klare":11883,"oued":11884,"huvudbaltet":11885,"khorasan":11886,"marine":11887,"scar":11888,"metrop":11889,"sammenheng":11890,"flockblommig":11891,"fremtid":11892,"starka":11893,"varldsmaster":11894,"beng":11895,"vinkel":11896,"##elag":11897,"term":11898,"##stj":11899,"demon":11900,"alfabet":11901,"pinyin":11902,"##fulgt":11903,"tony":11904,"flate":11905,"rapids":11906,"##ining":11907,"samarbejde":11908,"##zj":11909,"næste":11910,"arsak":11911,"vrh":11912,"##yle":11913,"regerings":11914,"representanter":11915,"##yret":11916,"##alistisk":11917,"mt":11918,"##major":11919,"rou":11920,"##smedlem":11921,"funnits":11922,"spir":11923,"europæiske":11924,"committee":11925,"nærheten":11926,"##laggning":11927,"##høy":11928,"##jed":11929,"##innen":11930,"##70":11931,"##skib":11932,"heav":11933,"##aspis":11934,"fortsatta":11935,"forbud":11936,"torg":11937,"sli":11938,"personal":11939,"sæsonen":11940,"introdus":11941,"angrepet":11942,"utok":11943,"##asia":11944,"nærmest":11945,"bour":11946,"søra":11947,"##filmer":11948,"abe":11949,"##cta":11950,"varmland":11951,"halm":11952,"beatles":11953,"baden":11954,"##ruz":11955,"##bruket":11956,"hentet":11957,"##hammer":11958,"##haus":11959,"oppdaga":11960,"crist":11961,"guad":11962,"anstallda":11963,"##amal":11964,"levande":11965,"bock":11966,"##rage":11967,"prosjektet":11968,"referenser":11969,"##straf":11970,"nicola":11971,"05":11972,"protest":11973,"teleg":11974,"tydelig":11975,"tilfælde":11976,"##faglar":11977,"saskat":11978,"##ree":11979,"##jektiv":11980,"maleri":11981,"sche":11982,"vester":11983,"imod":11984,"freden":11985,"##sgatan":11986,"##chewan":11987,"nævnes":11988,"##hs":11989,"##isar":11990,"noksa":11991,"power":11992,"##ringe":11993,"sja":11994,"uttryck":11995,"##krit":11996,"##ktionen":11997,"##inidae":11998,"altid":11999,"djib":12000,"savel":12001,"##ingsm":12002,"natura":12003,"09":12004,"strang":12005,"##lon":12006,"rotter":12007,"##brand":12008,"arbetat":12009,"kold":12010,"farge":12011,"grønland":12012,"filmat":12013,"læg":12014,"##tek":12015,"##øyer":12016,"ernest":12017,"saskatchewan":12018,"disney":12019,"##givning":12020,"uefa":12021,"luis":12022,"positiv":12023,"tranare":12024,"##ður":12025,"##amat":12026,"yngste":12027,"##imar":12028,"was":12029,"##osen":12030,"strav":12031,"colorado":12032,"tidens":12033,"skarab":12034,"koppar":12035,"svav":12036,"##ilde":12037,"prefektur":12038,"##ан":12039,"moham":12040,"stilen":12041,"fødd":12042,"splitt":12043,"journal":12044,"buttu":12045,"##ogloss":12046,"hæn":12047,"##15":12048,"##ionens":12049,"korall":12050,"##cio":12051,"antas":12052,"##forfattare":12053,"##sped":12054,"jordens":12055,"schles":12056,"##talen":12057,"uafhæng":12058,"allmant":12059,"syss":12060,"sange":12061,"cort":12062,"##handler":12063,"##agan":12064,"bened":12065,"cachoeira":12066,"##ætter":12067,"##uka":12068,"##intend":12069,"imm":12070,"narmare":12071,"definer":12072,"produsent":12073,"finder":12074,"dm":12075,"##oks":12076,"etc":12077,"kjer":12078,"høye":12079,"tvunget":12080,"1835":12081,"manen":12082,"geomet":12083,"##wi":12084,"leipzig":12085,"uker":12086,"utgavs":12087,"##slagen":12088,"forsøg":12089,"##jinga":12090,"##rap":12091,"##maktige":12092,"1836":12093,"##høg":12094,"cyk":12095,"elementer":12096,"lung":12097,"down":12098,"hørte":12099,"##idion":12100,"##rong":12101,"##ønns":12102,"##fulla":12103,"##iber":12104,"anom":12105,"løber":12106,"ordre":12107,"djibout":12108,"ps":12109,"heart":12110,"vigtigste":12111,"make":12112,"eug":12113,"sammenlagt":12114,"dyre":12115,"##sjuk":12116,"graham":12117,"institutt":12118,"hastighet":12119,"##arv":12120,"##ittel":12121,"##astro":12122,"##eby":12123,"amerikan":12124,"euc":12125,"fungerer":12126,"giov":12127,"##worth":12128,"infordes":12129,"##sblad":12130,"plassering":12131,"okkup":12132,"glav":12133,"reis":12134,"roskilde":12135,"videregaende":12136,"oct":12137,"pom":12138,"##otis":12139,"gula":12140,"##baijan":12141,"municip":12142,"alta":12143,"ostantarktis":12144,"##ipe":12145,"##nos":12146,"forretning":12147,"øyene":12148,"ordinarie":12149,"bortsett":12150,"bist":12151,"##egen":12152,"##havare":12153,"##essor":12154,"fisker":12155,"sydøst":12156,"systematisk":12157,"xen":12158,"##rare":12159,"frø":12160,"##oun":12161,"dør":12162,"institute":12163,"##result":12164,"stens":12165,"ild":12166,"sammanlagt":12167,"laste":12168,"fame":12169,"colonia":12170,"phyt":12171,"tackt":12172,"##ovac":12173,"##bourg":12174,"ekst":12175,"begynner":12176,"oversett":12177,"laurent":12178,"##sledamot":12179,"leonard":12180,"volley":12181,"stallning":12182,"##asje":12183,"sorter":12184,"##idan":12185,"gjeld":12186,"konvent":12187,"srp":12188,"fæng":12189,"##jarne":12190,"navy":12191,"stephen":12192,"ær":12193,"staende":12194,"virksomhed":12195,"meters":12196,"aukt":12197,"vd":12198,"inspirert":12199,"##ogaster":12200,"cyper":12201,"tasman":12202,"utforde":12203,"sydvest":12204,"fotballspelar":12205,"usas":12206,"ekv":12207,"##skaps":12208,"adskillige":12209,"utifran":12210,"falk":12211,"##plant":12212,"##takt":12213,"europas":12214,"forar":12215,"tegn":12216,"##agh":12217,"##elserna":12218,"tegel":12219,"kanoner":12220,"neur":12221,"valley":12222,"adri":12223,"penns":12224,"anord":12225,"1834":12226,"##yne":12227,"liberal":12228,"internasjonalt":12229,"regissert":12230,"##bent":12231,"tatort":12232,"leda":12233,"inbord":12234,"##uy":12235,"aner":12236,"spi":12237,"foræld":12238,"prince":12239,"hospital":12240,"dres":12241,"konkurs":12242,"skulptur":12243,"##tyskland":12244,"medeltiden":12245,"##hagen":12246,"##floden":12247,"##itiv":12248,"##espill":12249,"politiskt":12250,"ich":12251,"times":12252,"##smy":12253,"forsoker":12254,"##perm":12255,"amnen":12256,"sakaldte":12257,"donald":12258,"trig":12259,"aterigen":12260,"expedition":12261,"##uther":12262,"alexand":12263,"belgia":12264,"lap":12265,"##biller":12266,"rykket":12267,"08":12268,"blomm":12269,"mojlighet":12270,"##bjerg":12271,"carlos":12272,"cambridge":12273,"##ifa":12274,"erobret":12275,"stjerner":12276,"pahar":12277,"skiftet":12278,"uran":12279,"camer":12280,"##ukter":12281,"##ll":12282,"lp":12283,"##emen":12284,"##tel":12285,"##jande":12286,"huvudort":12287,"uen":12288,"##aks":12289,"america":12290,"havne":12291,"cerat":12292,"bærer":12293,"estero":12294,"##illverk":12295,"fløy":12296,"##udi":12297,"katolska":12298,"##onius":12299,"kristiansand":12300,"##ungebin":12301,"holdet":12302,"firmaet":12303,"##cla":12304,"##haf":12305,"inleddes":12306,"##somt":12307,"mindst":12308,"strandlinjen":12309,"polar":12310,"##vandring":12311,"arsen":12312,"cet":12313,"hors":12314,"reste":12315,"nedbør":12316,"##adsen":12317,"forsvin":12318,"##phy":12319,"dash":12320,"klasser":12321,"mund":12322,"##aj":12323,"stry":12324,"tong":12325,"##omon":12326,"##ephala":12327,"oka":12328,"kyrkoh":12329,"lakes":12330,"tiar":12331,"##stekn":12332,"lincol":12333,"gjennomsnitt":12334,"pyra":12335,"einar":12336,"doda":12337,"pha":12338,"organisationer":12339,"berget":12340,"##kore":12341,"##idd":12342,"morris":12343,"semifinal":12344,"##inata":12345,"storlek":12346,"liknar":12347,"republika":12348,"##gik":12349,"qal":12350,"##qi":12351,"ligaen":12352,"##gras":12353,"korsblomm":12354,"##iveau":12355,"offentliga":12356,"1829":12357,"##anum":12358,"metoden":12359,"bedst":12360,"hvilke":12361,"1833":12362,"tala":12363,"##stilt":12364,"##itud":12365,"politischer":12366,"sade":12367,"##smalet":12368,"##skjold":12369,"##irektør":12370,"##ofon":12371,"pennsyl":12372,"##ifol":12373,"series":12374,"##renn":12375,"ic":12376,"utvecklingen":12377,"##rine":12378,"skon":12379,"cong":12380,"væl":12381,"##rill":12382,"elli":12383,"formelt":12384,"administrativa":12385,"kvinde":12386,"dah":12387,"##spartiet":12388,"kvarteret":12389,"ingeniør":12390,"##ters":12391,"paulo":12392,"##imenter":12393,"nordaust":12394,"vanner":12395,"kortare":12396,"titler":12397,"frik":12398,"krat":12399,"tilsyn":12400,"stillingen":12401,"exister":12402,"stilte":12403,"djibouti":12404,"gordon":12405,"tul":12406,"lansert":12407,"hamnade":12408,"##platser":12409,"verne":12410,"likt":12411,"parker":12412,"nationalpark":12413,"queen":12414,"##stasjon":12415,"bakkro":12416,"##døde":12417,"offer":12418,"colombo":12419,"fet":12420,"##klassen":12421,"helsingborg":12422,"bureau":12423,"hass":12424,"##pal":12425,"hydro":12426,"massachus":12427,"definier":12428,"gest":12429,"marcus":12430,"svampdjursart":12431,"pga":12432,"antyder":12433,"foster":12434,"betydligt":12435,"tuber":12436,"behover":12437,"rah":12438,"borgen":12439,"kamar":12440,"apote":12441,"ifk":12442,"folkerep":12443,"partil":12444,"urugu":12445,"uddannelse":12446,"##icolor":12447,"##elidae":12448,"agua":12449,"##iks":12450,"##okt":12451,"##ledes":12452,"##arbejder":12453,"##orpha":12454,"lyng":12455,"##ocke":12456,"massachusetts":12457,"nyg":12458,"tømmer":12459,"##lyn":12460,"kurt":12461,"##skontrakt":12462,"##hv":12463,"bæ":12464,"oppnade":12465,"##cera":12466,"##skusten":12467,"beford":12468,"leo":12469,"1809":12470,"trodde":12471,"ansat":12472,"nelson":12473,"koll":12474,"##ebo":12475,"penge":12476,"##vekt":12477,"slogs":12478,"praktisk":12479,"originale":12480,"##arium":12481,"avslutade":12482,"##aktiv":12483,"##ræt":12484,"fraga":12485,"berattar":12486,"uppror":12487,"mull":12488,"christensen":12489,"motsetning":12490,"miljon":12491,"##stag":12492,"osv":12493,"reist":12494,"lykkedes":12495,"doktorg":12496,"klara":12497,"samla":12498,"bohus":12499,"##86":12500,"srpska":12501,"inngar":12502,"edu":12503,"rute":12504,"lata":12505,"beskrivning":12506,"ulf":12507,"semin":12508,"##ordningen":12509,"ceram":12510,"oprett":12511,"verda":12512,"##fried":12513,"##breen":12514,"bogen":12515,"kæmp":12516,"##stander":12517,"befolkad":12518,"fond":12519,"ekt":12520,"vende":12521,"betong":12522,"hugh":12523,"##uropa":12524,"##ratten":12525,"romerska":12526,"derudover":12527,"##rogen":12528,"##igg":12529,"vem":12530,"##skottet":12531,"##iseras":12532,"##ahan":12533,"fiskar":12534,"avholdt":12535,"##reger":12536,"linkoping":12537,"##inos":12538,"##sakademien":12539,"holsten":12540,"avhengig":12541,"aktiva":12542,"rapport":12543,"##museet":12544,"styrelse":12545,"generation":12546,"##ocephalus":12547,"fjernet":12548,"##bitare":12549,"##stalldes":12550,"papir":12551,"riacho":12552,"kef":12553,"vejen":12554,"##stri":12555,"bott":12556,"accepter":12557,"##oler":12558,"##ularia":12559,"##omia":12560,"##fiske":12561,"overens":12562,"flade":12563,"utvecklade":12564,"##bed":12565,"generalmajor":12566,"margaret":12567,"installert":12568,"hip":12569,"##vatten":12570,"jen":12571,"holstein":12572,"##reich":12573,"##ross":12574,"grans":12575,"dimens":12576,"intresser":12577,"##ingham":12578,"sjukhus":12579,"uavhengig":12580,"karet":12581,"##resse":12582,"##agna":12583,"rott":12584,"vastergotland":12585,"##char":12586,"inneholl":12587,"originalt":12588,"dicran":12589,"tenu":12590,"utov":12591,"param":12592,"djurg":12593,"eriksson":12594,"##æde":12595,"veck":12596,"uruguay":12597,"allsvenskan":12598,"pia":12599,"##ylan":12600,"internationell":12601,"chamber":12602,"kit":12603,"##ksjonen":12604,"##roblem":12605,"guang":12606,"levende":12607,"##fakt":12608,"##hias":12609,"konflikten":12610,"##kommer":12611,"katarina":12612,"kulturen":12613,"invader":12614,"obe":12615,"urin":12616,"progress":12617,"##dene":12618,"rask":12619,"1832":12620,"betraktas":12621,"buset":12622,"##ulf":12623,"keram":12624,"bydelen":12625,"bk":12626,"kulturmin":12627,"odd":12628,"breuning":12629,"profil":12630,"anstalld":12631,"##start":12632,"troms":12633,"fria":12634,"delte":12635,"##valdes":12636,"##cal":12637,"bulb":12638,"bisped":12639,"##periode":12640,"kjøpt":12641,"##trykk":12642,"clin":12643,"igang":12644,"tryck":12645,"yttre":12646,"##rana":12647,"besatt":12648,"##ocha":12649,"##aville":12650,"miller":12651,"##abi":12652,"##uki":12653,"angre":12654,"konservative":12655,"##okar":12656,"europeisk":12657,"##kende":12658,"##odi":12659,"etym":12660,"imot":12661,"##ysia":12662,"radhus":12663,"##vitenskap":12664,"nyheter":12665,"##festival":12666,"##ophaga":12667,"##bog":12668,"##forhold":12669,"expl":12670,"pedersen":12671,"##shavn":12672,"anten":12673,"##ikeren":12674,"kommunikation":12675,"sidor":12676,"##varig":12677,"##ikern":12678,"alberta":12679,"sorg":12680,"kommunes":12681,"##head":12682,"145":12683,"adela":12684,"umiddelbart":12685,"forskere":12686,"##amf":12687,"##zin":12688,"spørsmal":12689,"##vede":12690,"sosiale":12691,"trafikk":12692,"##agg":12693,"##tran":12694,"##uller":12695,"skjold":12696,"koret":12697,"spilles":12698,"##riften":12699,"medicin":12700,"##brudd":12701,"omfattning":12702,"##low":12703,"styrkene":12704,"namnas":12705,"varlds":12706,"##anthes":12707,"##hogskolan":12708,"ayn":12709,"aring":12710,"betegnelse":12711,"patt":12712,"avhandling":12713,"trener":12714,"ligan":12715,"sigurd":12716,"tverr":12717,"versionen":12718,"hvore":12719,"taler":12720,"bibli":12721,"opprinnelse":12722,"hvorefter":12723,"##etti":12724,"ingenjor":12725,"tanken":12726,"nordre":12727,"damm":12728,"party":12729,"kyrkje":12730,"buck":12731,"synner":12732,"##reen":12733,"munt":12734,"omvand":12735,"femin":12736,"##vav":12737,"chin":12738,"baptiste":12739,"##tok":12740,"##ск":12741,"derib":12742,"##bygningen":12743,"hills":12744,"iso":12745,"soner":12746,"teologi":12747,"rejse":12748,"flyv":12749,"brazz":12750,"vinne":12751,"nepal":12752,"tredjeplass":12753,"rovflugor":12754,"stjarna":12755,"##bos":12756,"gratis":12757,"produksjonen":12758,"##ici":12759,"popularitet":12760,"overvin":12761,"sjeld":12762,"serge":12763,"##gran":12764,"##abel":12765,"studera":12766,"mario":12767,"oms":12768,"højeste":12769,"pow":12770,"##rund":12771,"##ftea":12772,"math":12773,"møller":12774,"cub":12775,"##osphaer":12776,"##satta":12777,"##sforbund":12778,"stærkt":12779,"borde":12780,"sebastian":12781,"rige":12782,"skara":12783,"##ksjoner":12784,"bh":12785,"bundes":12786,"##mennene":12787,"guvernør":12788,"hensyn":12789,"put":12790,"tend":12791,"lyder":12792,"##latt":12793,"inslag":12794,"enhjartbladig":12795,"polyp":12796,"xii":12797,"##13":12798,"middelsstore":12799,"arbejdet":12800,"bernard":12801,"finale":12802,"maksim":12803,"##omyza":12804,"##talje":12805,"højde":12806,"pedagog":12807,"ube":12808,"##aring":12809,"##adt":12810,"##chis":12811,"udtal":12812,"##ologer":12813,"almindelig":12814,"pale":12815,"##jun":12816,"##klin":12817,"micros":12818,"##bæk":12819,"regemente":12820,"mey":12821,"stadium":12822,"skapte":12823,"tizi":12824,"korta":12825,"flug":12826,"tilfeller":12827,"ere":12828,"##div":12829,"dynastiet":12830,"skogen":12831,"pavirket":12832,"##sattes":12833,"christiania":12834,"repræsenter":12835,"##14":12836,"koordin":12837,"skoler":12838,"asa":12839,"lane":12840,"##rons":12841,"upplost":12842,"##ilj":12843,"temperaturen":12844,"anvendt":12845,"forma":12846,"fugle":12847,"oav":12848,"katt":12849,"##illon":12850,"lyst":12851,"doub":12852,"synlig":12853,"institusjon":12854,"smab":12855,"##gene":12856,"##ygge":12857,"##tu":12858,"##edra":12859,"wagner":12860,"##schen":12861,"##oneura":12862,"##emus":12863,"ejen":12864,"##olus":12865,"##ulu":12866,"illustrat":12867,"forlaget":12868,"miguel":12869,"hale":12870,"jatte":12871,"##ingom":12872,"##sjonen":12873,"lagger":12874,"gle":12875,"atlanter":12876,"tegnes":12877,"fossil":12878,"##egarden":12879,"##ulin":12880,"besto":12881,"namngje":12882,"konsekv":12883,"##dare":12884,"##eus":12885,"operasjon":12886,"kunstnere":12887,"skotsk":12888,"gule":12889,"##høj":12890,"bath":12891,"eventyr":12892,"##cidae":12893,"sond":12894,"jom":12895,"olsson":12896,"##pec":12897,"assistent":12898,"brandenburg":12899,"brot":12900,"##linge":12901,"uttar":12902,"1818":12903,"bard":12904,"cari":12905,"##ussel":12906,"johnny":12907,"revs":12908,"autonom":12909,"hendelser":12910,"munk":12911,"visst":12912,"hull":12913,"avsnittet":12914,"computer":12915,"gitarr":12916,"fartyget":12917,"ping":12918,"trupper":12919,"pennsylvania":12920,"faller":12921,"opnaede":12922,"##ahn":12923,"##onto":12924,"folkerepublikken":12925,"##ologin":12926,"øvrig":12927,"overrask":12928,"glavica":12929,"gala":12930,"kristus":12931,"06":12932,"##nelse":12933,"acanth":12934,"gransar":12935,"afholdt":12936,"flytte":12937,"svøm":12938,"kritisk":12939,"##urope":12940,"##norsk":12941,"ansvarlig":12942,"brazzaville":12943,"morne":12944,"sejr":12945,"administration":12946,"sydafrika":12947,"grense":12948,"##iseres":12949,"leb":12950,"##amnet":12951,"##skrev":12952,"amf":12953,"euro":12954,"arbeide":12955,"##igi":12956,"##hausen":12957,"romsdal":12958,"##nummer":12959,"samlingen":12960,"spets":12961,"offiser":12962,"1810":12963,"udsen":12964,"preuss":12965,"##odendron":12966,"indflydelse":12967,"skel":12968,"vannet":12969,"ekteskap":12970,"varefter":12971,"celler":12972,"hes":12973,"grundlæg":12974,"veldig":12975,"##æren":12976,"leopold":12977,"filippinerna":12978,"cost":12979,"##wal":12980,"##skir":12981,"patrick":12982,"##amus":12983,"##vol":12984,"##ogel":12985,"harmon":12986,"04":12987,"##kow":12988,"qing":12989,"##ellidae":12990,"nordover":12991,"##chang":12992,"##emin":12993,"felix":12994,"gotland":12995,"rick":12996,"valer":12997,"hellig":12998,"krys":12999,"helikopter":13000,"##fc":13001,"hovudsak":13002,"##avdel":13003,"##api":13004,"giovanni":13005,"220":13006,"extrem":13007,"belon":13008,"viktor":13009,"seil":13010,"ude":13011,"optaget":13012,"refle":13013,"##ocarpus":13014,"smaningom":13015,"trak":13016,"##die":13017,"kiri":13018,"maske":13019,"belaget":13020,"##ovs":13021,"tecken":13022,"mangler":13023,"##smedel":13024,"##skytt":13025,"baten":13026,"innflytelse":13027,"##ures":13028,"##rosophila":13029,"prinsesse":13030,"nunatak":13031,"kerman":13032,"repar":13033,"medverkat":13034,"walt":13035,"ult":13036,"##produksjon":13037,"dyg":13038,"fjall":13039,"konkurr":13040,"even":13041,"##lack":13042,"##folket":13043,"ekonomi":13044,"fageln":13045,"##sekreterare":13046,"gunt":13047,"pastorat":13048,"ile":13049,"bratt":13050,"udviklet":13051,"147":13052,"##any":13053,"lucas":13054,"foregaende":13055,"##rier":13056,"##svagen":13057,"##arkitekt":13058,"publisert":13059,"virksomhet":13060,"utgangspunkt":13061,"##ianska":13062,"##arbetare":13063,"kang":13064,"##idaceae":13065,"##ifikation":13066,"bayer":13067,"ejer":13068,"##ex":13069,"bereg":13070,"goran":13071,"bold":13072,"dak":13073,"forbindelser":13074,"##neum":13075,"spek":13076,"##fr":13077,"##stock":13078,"##istene":13079,"fut":13080,"nass":13081,"dyb":13082,"avbild":13083,"akershus":13084,"deltagelse":13085,"rette":13086,"pereval":13087,"##ches":13088,"##uterade":13089,"3000":13090,"##ija":13091,"anlæg":13092,"##sme":13093,"##yrus":13094,"basis":13095,"##bjør":13096,"halften":13097,"snø":13098,"##dals":13099,"anbe":13100,"nordkorea":13101,"##ners":13102,"hoch":13103,"sovjetisk":13104,"skarp":13105,"oppnades":13106,"otillrackligt":13107,"glest":13108,"forsv":13109,"jevn":13110,"cape":13111,"bandy":13112,"kiel":13113,"lens":13114,"spre":13115,"##25":13116,"##dorf":13117,"##occus":13118,"syftar":13119,"dirigent":13120,"adgang":13121,"fremme":13122,"##amb":13123,"trip":13124,"utgivet":13125,"fugl":13126,"udgør":13127,"fritz":13128,"fangen":13129,"polska":13130,"sophie":13131,"milano":13132,"ansett":13133,"stim":13134,"valdemar":13135,"lara":13136,"##ensson":13137,"karlek":13138,"utdannelse":13139,"arnold":13140,"sjun":13141,"hawa":13142,"carp":13143,"sorte":13144,"shi":13145,"##enga":13146,"##enia":13147,"global":13148,"rytt":13149,"søndag":13150,"ohio":13151,"##kov":13152,"1828":13153,"skotske":13154,"reder":13155,"pupp":13156,"##iao":13157,"atlanta":13158,"kne":13159,"##meister":13160,"producent":13161,"versioner":13162,"sich":13163,"force":13164,"ranunkel":13165,"##hamns":13166,"utgiven":13167,"derved":13168,"##aku":13169,"begiven":13170,"petersen":13171,"vestre":13172,"ral":13173,"inneheld":13174,"forlod":13175,"habitat":13176,"##lagte":13177,"grunnla":13178,"##burgh":13179,"dream":13180,"redaktor":13181,"##erien":13182,"tradisjonelt":13183,"dial":13184,"pabeg":13185,"##lot":13186,"bevart":13187,"efterhanden":13188,"styltflugor":13189,"##onus":13190,"oliver":13191,"brem":13192,"fynd":13193,"premiere":13194,"soldat":13195,"oks":13196,"forran":13197,"1824":13198,"teorier":13199,"dannebrog":13200,"musikvide":13201,"tyrkia":13202,"dikter":13203,"elfenbenskusten":13204,"tonn":13205,"eftertraddes":13206,"##edig":13207,"fungerar":13208,"grensa":13209,"karen":13210,"relater":13211,"pt":13212,"hvide":13213,"##færen":13214,"sne":13215,"##varer":13216,"etableret":13217,"edwards":13218,"litet":13219,"##betet":13220,"##yton":13221,"##handlingen":13222,"tegninger":13223,"premiarminister":13224,"mccart":13225,"menade":13226,"minutt":13227,"invest":13228,"##amm":13229,"##ression":13230,"##loven":13231,"genombrott":13232,"kaw":13233,"fjadermyggor":13234,"auguste":13235,"##yu":13236,"bered":13237,"illin":13238,"straks":13239,"##ody":13240,"norther":13241,"institutet":13242,"sala":13243,"atmin":13244,"koal":13245,"sug":13246,"halsing":13247,"##fram":13248,"##ukkende":13249,"nagonsin":13250,"lip":13251,"anc":13252,"rail":13253,"atminstone":13254,"larver":13255,"bidra":13256,"brant":13257,"##onne":13258,"sundsvall":13259,"artiklar":13260,"havanna":13261,"07":13262,"zap":13263,"ekspedisjon":13264,"adelaide":13265,"vie":13266,"grashoppor":13267,"dynam":13268,"##byn":13269,"argumenter":13270,"vartbitare":13271,"skete":13272,"oppl":13273,"anto":13274,"bruger":13275,"dil":13276,"latinske":13277,"public":13278,"danna":13279,"loire":13280,"fasc":13281,"haj":13282,"##kommande":13283,"sikkerhet":13284,"ekspedisjonen":13285,"yam":13286,"##ophylla":13287,"rogaland":13288,"frankfurt":13289,"krom":13290,"framforallt":13291,"##hafaz":13292,"maurice":13293,"studerad":13294,"fullstendig":13295,"gæ":13296,"xyl":13297,"##alism":13298,"##uset":13299,"##utz":13300,"foredrag":13301,"peg":13302,"##forskning":13303,"##ely":13304,"medlemmene":13305,"søraust":13306,"##ryt":13307,"skibe":13308,"enhver":13309,"pus":13310,"fortsat":13311,"##alismen":13312,"glass":13313,"##elm":13314,"beina":13315,"besøk":13316,"northern":13317,"148":13318,"ceramby":13319,"opptil":13320,"##ukta":13321,"##ementer":13322,"kalle":13323,"khar":13324,"##espel":13325,"##nea":13326,"agent":13327,"corpor":13328,"repræsent":13329,"##inda":13330,"sandsyn":13331,"dev":13332,"cote":13333,"økt":13334,"braun":13335,"hebra":13336,"tropp":13337,"trium":13338,"fritid":13339,"maja":13340,"studere":13341,"##elef":13342,"pansar":13343,"benj":13344,"who":13345,"beethoven":13346,"vack":13347,"##kra":13348,"bladet":13349,"hord":13350,"værd":13351,"anfall":13352,"alice":13353,"forslaget":13354,"framleis":13355,"midd":13356,"1812":13357,"knytt":13358,"fragan":13359,"forde":13360,"##banken":13361,"identitet":13362,"gifta":13363,"tidskriften":13364,"markeds":13365,"heste":13366,"boede":13367,"blu":13368,"ønske":13369,"krigsf":13370,"statt":13371,"##day":13372,"##ithe":13373,"vidt":13374,"##litteratur":13375,"hvorfor":13376,"overst":13377,"avgor":13378,"sf":13379,"##aric":13380,"##hon":13381,"kreis":13382,"##ogi":13383,"studios":13384,"peppar":13385,"##oglossum":13386,"##tav":13387,"##ningss":13388,"sattes":13389,"cum":13390,"##sna":13391,"##status":13392,"brost":13393,"kritikk":13394,"pensjon":13395,"##itze":13396,"##fas":13397,"unna":13398,"mani":13399,"ouadi":13400,"horde":13401,"##imo":13402,"olig":13403,"snor":13404,"nærme":13405,"højere":13406,"strekker":13407,"##enbar":13408,"##boken":13409,"narvarande":13410,"sørover":13411,"##amerikanske":13412,"misstan":13413,"##kyrkan":13414,"fiction":13415,"##aderna":13416,"frie":13417,"lyse":13418,"tipula":13419,"##arens":13420,"##stallningar":13421,"1831":13422,"his":13423,"beholdt":13424,"lost":13425,"sidi":13426,"##ytan":13427,"##to":13428,"legge":13429,"fallet":13430,"taung":13431,"##rorelsen":13432,"byene":13433,"##zburg":13434,"regent":13435,"tillfallen":13436,"homer":13437,"##fli":13438,"margret":13439,"schmidt":13440,"norrkoping":13441,"sølvmedalje":13442,"tidning":13443,"ophi":13444,"##instrument":13445,"##skoldloss":13446,"##mossor":13447,"##ilm":13448,"scener":13449,"##industrien":13450,"mora":13451,"jernbanen":13452,"##hug":13453,"oppf":13454,"1821":13455,"bourg":13456,"hør":13457,"folkets":13458,"sallan":13459,"##hafazat":13460,"erit":13461,"revet":13462,"ian":13463,"borte":13464,"begravd":13465,"aleksand":13466,"innsats":13467,"##hort":13468,"tilstand":13469,"##ocar":13470,"arterna":13471,"cow":13472,"narmast":13473,"tjug":13474,"##oller":13475,"faglar":13476,"besluttet":13477,"##oar":13478,"##leik":13479,"##rende":13480,"borr":13481,"uppdel":13482,"dek":13483,"fyn":13484,"##centr":13485,"brøt":13486,"mio":13487,"135":13488,"brede":13489,"motorer":13490,"##namnda":13491,"omfang":13492,"landene":13493,"aus":13494,"grammat":13495,"klassiska":13496,"goda":13497,"sluttede":13498,"territoriet":13499,"mulighed":13500,"opsjtina":13501,"##tering":13502,"lady":13503,"##nav":13504,"silke":13505,"trygg":13506,"vestfold":13507,"styres":13508,"ære":13509,"##ileg":13510,"##skans":13511,"kass":13512,"##ioides":13513,"onth":13514,"fylkesveg":13515,"norman":13516,"##karriere":13517,"##entyr":13518,"bøger":13519,"illustrer":13520,"nuuk":13521,"uddannet":13522,"arvid":13523,"kemi":13524,"draa":13525,"helena":13526,"elias":13527,"##stral":13528,"montana":13529,"tattingar":13530,"warsz":13531,"##ils":13532,"misly":13533,"klare":13534,"avsl":13535,"##smot":13536,"betale":13537,"##liknande":13538,"kyrkoher":13539,"##ders":13540,"særligt":13541,"lith":13542,"externa":13543,"traditionella":13544,"zan":13545,"##hes":13546,"eryth":13547,"paras":13548,"minas":13549,"##dahl":13550,"ags":13551,"##oon":13552,"bysant":13553,"##ashi":13554,"slipp":13555,"mikael":13556,"marshall":13557,"tillbring":13558,"##hm":13559,"##umentet":13560,"1808":13561,"##cas":13562,"cov":13563,"handboll":13564,"loren":13565,"minsk":13566,"tillrackligt":13567,"##manuel":13568,"framat":13569,"arhus":13570,"##amar":13571,"1816":13572,"elektriske":13573,"skader":13574,"chel":13575,"nyhet":13576,"bernhard":13577,"operativ":13578,"intill":13579,"##rener":13580,"orient":13581,"more":13582,"unes":13583,"begræns":13584,"kjelder":13585,"storting":13586,"valt":13587,"jenn":13588,"utp":13589,"apoll":13590,"totale":13591,"roh":13592,"##house":13593,"ideen":13594,"gos":13595,"##inella":13596,"##she":13597,"emig":13598,"prosjekt":13599,"gjennomført":13600,"territorium":13601,"skape":13602,"##jah":13603,"##на":13604,"koptes":13605,"profesjonell":13606,"benjamin":13607,"##22":13608,"##cou":13609,"##andes":13610,"kash":13611,"smy":13612,"populara":13613,"karelen":13614,"dolich":13615,"##skipet":13616,"four":13617,"##ruppe":13618,"##yllis":13619,"potent":13620,"parap":13621,"##uez":13622,"buff":13623,"havd":13624,"penger":13625,"teknologi":13626,"cten":13627,"hampson":13628,"garde":13629,"illinois":13630,"##økonom":13631,"1825":13632,"##kjemp":13633,"ress":13634,"##ako":13635,"kaj":13636,"skargardshavet":13637,"ligner":13638,"##staver":13639,"##linje":13640,"nejlik":13641,"nevnt":13642,"turn":13643,"shet":13644,"##fordel":13645,"##ipper":13646,"fastighet":13647,"østerrik":13648,"satur":13649,"fischer":13650,"##ypen":13651,"reb":13652,"census":13653,"##amoter":13654,"##manlands":13655,"##ains":13656,"utvikla":13657,"elver":13658,"chan":13659,"##rej":13660,"1819":13661,"bevarade":13662,"strukt":13663,"academy":13664,"møre":13665,"lisa":13666,"##tern":13667,"cot":13668,"anis":13669,"konstruktion":13670,"hemmelig":13671,"##side":13672,"befri":13673,"kunskap":13674,"potatis":13675,"kvadratmeter":13676,"trafiker":13677,"##sling":13678,"relation":13679,"antwer":13680,"olj":13681,"zard":13682,"##jin":13683,"mohafazat":13684,"##enteret":13685,"##ellia":13686,"azer":13687,"dow":13688,"punkter":13689,"##visor":13690,"##eiret":13691,"##foni":13692,"146":13693,"filmens":13694,"oro":13695,"##oris":13696,"atervand":13697,"sekretær":13698,"research":13699,"osl":13700,"nay":13701,"rolling":13702,"dokumentarfilm":13703,"1826":13704,"staff":13705,"oversk":13706,"fjerne":13707,"perspektiv":13708,"##vara":13709,"naturlige":13710,"sentralt":13711,"klaver":13712,"politi":13713,"beslutade":13714,"grønne":13715,"inborde":13716,"meyer":13717,"orange":13718,"butler":13719,"minut":13720,"##illingen":13721,"##lika":13722,"gass":13723,"medalj":13724,"##studier":13725,"##beveg":13726,"##uensis":13727,"uppstod":13728,"placeret":13729,"##ileum":13730,"tacker":13731,"presse":13732,"eau":13733,"udnævnt":13734,"##yon":13735,"landskamper":13736,"hertugd":13737,"alpes":13738,"racing":13739,"##ovi":13740,"odont":13741,"mitch":13742,"framgangar":13743,"tah":13744,"normandie":13745,"##hot":13746,"##smus":13747,"siger":13748,"115":13749,"antagelig":13750,"spelen":13751,"tvilling":13752,"144":13753,"tillhorande":13754,"bald":13755,"visades":13756,"only":13757,"block":13758,"karp":13759,"##linjer":13760,"funktioner":13761,"##asis":13762,"barnen":13763,"pension":13764,"træk":13765,"ded":13766,"##olaget":13767,"##ynch":13768,"garn":13769,"starte":13770,"tull":13771,"nato":13772,"iz":13773,"##ulosa":13774,"landhockey":13775,"munn":13776,"cirk":13777,"patraffats":13778,"tillamp":13779,"##samt":13780,"fis":13781,"##hald":13782,"##latsen":13783,"##esprak":13784,"qa":13785,"death":13786,"##ieri":13787,"banks":13788,"formid":13789,"samarbeidet":13790,"##holt":13791,"anges":13792,"erem":13793,"##lend":13794,"onthophagus":13795,"bodø":13796,"strauss":13797,"pund":13798,"jordbruks":13799,"fysik":13800,"lette":13801,"kapital":13802,"134":13803,"phys":13804,"influ":13805,"##jern":13806,"bruge":13807,"fargen":13808,"pyong":13809,"cou":13810,"##ionde":13811,"petit":13812,"brugte":13813,"loch":13814,"##oco":13815,"treng":13816,"tenn":13817,"##halt":13818,"##kot":13819,"kommunhuvudort":13820,"schwar":13821,"soft":13822,"##uin":13823,"inviter":13824,"oleandervaxter":13825,"kalte":13826,"##arda":13827,"innte":13828,"forband":13829,"##eto":13830,"##odia":13831,"jeff":13832,"kontroversi":13833,"oppmer":13834,"coch":13835,"højre":13836,"##føringen":13837,"##vesen":13838,"##amas":13839,"ms":13840,"kombination":13841,"sannsynligvis":13842,"avveck":13843,"##givet":13844,"framstaende":13845,"medførte":13846,"skogar":13847,"juridisk":13848,"##lang":13849,"##sniva":13850,"##able":13851,"jonsson":13852,"fonster":13853,"mick":13854,"##24":13855,"##itusjon":13856,"light":13857,"##køb":13858,"vanligaste":13859,"##esser":13860,"##emoni":13861,"skivbolaget":13862,"##stru":13863,"delades":13864,"##oua":13865,"opkaldt":13866,"bly":13867,"foss":13868,"##rats":13869,"##konkurransen":13870,"##iserat":13871,"boris":13872,"kirkes":13873,"talent":13874,"##marken":13875,"nedenfor":13876,"hjemmeb":13877,"##raget":13878,"##90":13879,"coel":13880,"besej":13881,"avtalen":13882,"administrasjons":13883,"host":13884,"rif":13885,"rival":13886,"lepid":13887,"familier":13888,"mordet":13889,"##ango":13890,"kortere":13891,"tegne":13892,"##reder":13893,"##ommern":13894,"mov":13895,"nk":13896,"uppta":13897,"cheng":13898,"shel":13899,"cyp":13900,"byar":13901,"værk":13902,"sjøen":13903,"designet":13904,"##won":13905,"##shog":13906,"helic":13907,"hode":13908,"utgave":13909,"##burn":13910,"##ussou":13911,"hovedkvarter":13912,"ønskede":13913,"##ritt":13914,"mesterskap":13915,"kvinnelige":13916,"sump":13917,"agnade":13918,"brødrene":13919,"karin":13920,"nash":13921,"peking":13922,"##ер":13923,"panser":13924,"forfattere":13925,"nouv":13926,"##qa":13927,"##bei":13928,"departement":13929,"guldmedal":13930,"folketinget":13931,"tilgjengelig":13932,"slar":13933,"mountains":13934,"##opogon":13935,"samlade":13936,"claude":13937,"##hera":13938,"tanker":13939,"gotaland":13940,"billene":13941,"demokratiske":13942,"##مه":13943,"svara":13944,"polisen":13945,"tager":13946,"##sfjorden":13947,"gerhard":13948,"hval":13949,"##saari":13950,"medlemmarna":13951,"erkebiskop":13952,"esper":13953,"werner":13954,"##kkelig":13955,"regionale":13956,"zu":13957,"domdes":13958,"##bere":13959,"##sjub":13960,"anthony":13961,"##resentant":13962,"##mande":13963,"problemet":13964,"hagen":13965,"كوه":13966,"oberoende":13967,"forestall":13968,"field":13969,"##smat":13970,"##amt":13971,"##personer":13972,"øl":13973,"capit":13974,"abnede":13975,"placerade":13976,"##cell":13977,"frances":13978,"matematik":13979,"vive":13980,"##ksomhed":13981,"rhin":13982,"bidro":13983,"jup":13984,"vokalist":13985,"##historisk":13986,"thel":13987,"##fugler":13988,"bredd":13989,"grant":13990,"vatn":13991,"##adelphia":13992,"skiller":13993,"moz":13994,"tob":13995,"kommunreformen":13996,"champions":13997,"##usi":13998,"tæn":13999,"himm":14000,"kazak":14001,"##kkes":14002,"naut":14003,"discip":14004,"finlandska":14005,"##stab":14006,"underjord":14007,"lagoa":14008,"draft":14009,"tanger":14010,"eksamen":14011,"##glanssteklar":14012,"##11":14013,"stewart":14014,"hogskolan":14015,"materialet":14016,"observatoriet":14017,"##ialis":14018,"maskiner":14019,"##oidea":14020,"tillverkades":14021,"milliarder":14022,"##iculata":14023,"##ikter":14024,"##stjarn":14025,"upplev":14026,"kunnskap":14027,"wright":14028,"tabellen":14029,"upplostes":14030,"1827":14031,"lankar":14032,"podgor":14033,"nært":14034,"attack":14035,"statsrad":14036,"television":14037,"##bærer":14038,"innspel":14039,"fulgt":14040,"row":14041,"##itas":14042,"mexic":14043,"upptrad":14044,"grunnet":14045,"enskilda":14046,"bedrev":14047,"##musikk":14048,"døden":14049,"cours":14050,"##smiljo":14051,"##matt":14052,"benamn":14053,"vaxjo":14054,"representert":14055,"diesel":14056,"##foss":14057,"poesi":14058,"##olution":14059,"gymnasium":14060,"thunder":14061,"1813":14062,"kontrollen":14063,"listan":14064,"##immer":14065,"predik":14066,"margareta":14067,"##alistiske":14068,"spredt":14069,"##antes":14070,"karriaren":14071,"bete":14072,"##grunn":14073,"##mia":14074,"jules":14075,"holmen":14076,"torp":14077,"##sattningar":14078,"rain":14079,"ci":14080,"##celler":14081,"rodrig":14082,"wy":14083,"##frid":14084,"naturligt":14085,"nodvand":14086,"addis":14087,"geolog":14088,"##ktige":14089,"tilgang":14090,"folkrakningen":14091,"##igalpa":14092,"shakes":14093,"##strad":14094,"##orps":14095,"210":14096,"##bryt":14097,"##witz":14098,"egentlige":14099,"##ев":14100,"erich":14101,"##nadde":14102,"produceret":14103,"##bergen":14104,"operan":14105,"engasjer":14106,"240":14107,"##odont":14108,"##orte":14109,"143":14110,"sekreterare":14111,"satelli":14112,"aw":14113,"##ieu":14114,"truleg":14115,"first":14116,"##fødte":14117,"utlandet":14118,"kirkens":14119,"font":14120,"##ttog":14121,"format":14122,"styrelsen":14123,"bildas":14124,"class":14125,"magnitud":14126,"podgorica":14127,"soul":14128,"tilhørende":14129,"rekkje":14130,"ked":14131,"levu":14132,"rorelsen":14133,"flo":14134,"##kjer":14135,"bedom":14136,"##fre":14137,"persson":14138,"krog":14139,"programledare":14140,"##aken":14141,"samtida":14142,"mg":14143,"embed":14144,"varte":14145,"smed":14146,"tyrkiske":14147,"230":14148,"klosteret":14149,"amal":14150,"konig":14151,"banglades":14152,"lektor":14153,"##lich":14154,"gjeven":14155,"tvar":14156,"forum":14157,"antwerpen":14158,"inspiration":14159,"laos":14160,"trukket":14161,"væsent":14162,"kombinert":14163,"microsoft":14164,"theatre":14165,"##kandid":14166,"frederiksberg":14167,"##stræ":14168,"##ospora":14169,"bergs":14170,"dekket":14171,"ekstrem":14172,"##mæss":14173,"##lakare":14174,"bm":14175,"##kirken":14176,"minist":14177,"128":14178,"##sprakiga":14179,"meldte":14180,"philadelphia":14181,"shakespe":14182,"##uret":14183,"utel":14184,"lagde":14185,"jørg":14186,"jungfru":14187,"psalm":14188,"##auer":14189,"##iza":14190,"##ucigalpa":14191,"tegucigalpa":14192,"##orget":14193,"biler":14194,"fare":14195,"vedtatt":14196,"intelle":14197,"asm":14198,"forord":14199,"127":14200,"brasiliansk":14201,"omtales":14202,"1801":14203,"hydra":14204,"rast":14205,"infrast":14206,"wrest":14207,"billy":14208,"rasmussen":14209,"styrt":14210,"stilla":14211,"whit":14212,"højt":14213,"grunnlag":14214,"buch":14215,"##fid":14216,"##acitet":14217,"manniskan":14218,"##asjons":14219,"jorda":14220,"oriental":14221,"harde":14222,"##say":14223,"rigt":14224,"##forsamlingen":14225,"resp":14226,"hamar":14227,"klassific":14228,"stren":14229,"anslutning":14230,"sever":14231,"konkl":14232,"marknaden":14233,"kay":14234,"sæl":14235,"gros":14236,"brud":14237,"##more":14238,"deles":14239,"hero":14240,"bekraft":14241,"medvirket":14242,"##orkester":14243,"spørg":14244,"dren":14245,"adams":14246,"øverst":14247,"sjatte":14248,"##retten":14249,"##umann":14250,"##rica":14251,"analyser":14252,"105":14253,"foreslog":14254,"etablere":14255,"##ird":14256,"##rero":14257,"##onotus":14258,"blanding":14259,"prist":14260,"anpass":14261,"framgangsrika":14262,"##mænd":14263,"stationer":14264,"studerede":14265,"uke":14266,"dead":14267,"1790":14268,"børne":14269,"hannen":14270,"orch":14271,"gale":14272,"##fos":14273,"overste":14274,"##byggerne":14275,"##øne":14276,"ae":14277,"moritz":14278,"anslut":14279,"klokken":14280,"floder":14281,"##fel":14282,"##ostoma":14283,"hovedsag":14284,"begrenset":14285,"pyongyang":14286,"landbrug":14287,"poj":14288,"litau":14289,"##icta":14290,"kolla":14291,"gallmyggor":14292,"tradte":14293,"halvparten":14294,"##indust":14295,"diskuss":14296,"religiosa":14297,"##onien":14298,"##malar":14299,"nærmeste":14300,"##alum":14301,"1823":14302,"##ippet":14303,"økte":14304,"eftertradde":14305,"bombe":14306,"##nett":14307,"atlet":14308,"##idad":14309,"##artist":14310,"terreng":14311,"storstad":14312,"skikk":14313,"flora":14314,"meck":14315,"hooker":14316,"ake":14317,"yorks":14318,"bær":14319,"koncent":14320,"##endomen":14321,"##cea":14322,"utenrik":14323,"sistnevnte":14324,"kyrkor":14325,"talar":14326,"fordon":14327,"beslutt":14328,"forhalland":14329,"venezuela":14330,"fjen":14331,"##ور":14332,"piet":14333,"##foretag":14334,"brænd":14335,"returner":14336,"tvaa":14337,"fødsels":14338,"skinn":14339,"kompan":14340,"revolutionen":14341,"experiment":14342,"æg":14343,"bangladesh":14344,"trump":14345,"gray":14346,"##oce":14347,"kirurg":14348,"skapt":14349,"betydninger":14350,"##stro":14351,"vild":14352,"docent":14353,"effekten":14354,"opphavleg":14355,"ariz":14356,"##rass":14357,"bilar":14358,"nuevo":14359,"barna":14360,"rin":14361,"tilbud":14362,"recens":14363,"robinson":14364,"deltatt":14365,"home":14366,"##elset":14367,"##quin":14368,"næring":14369,"##iso":14370,"termen":14371,"stur":14372,"kommunest":14373,"##ligaen":14374,"##espillet":14375,"fyll":14376,"isen":14377,"##rypare":14378,"uvan":14379,"huse":14380,"##ouri":14381,"pum":14382,"##kelse":14383,"alc":14384,"##pson":14385,"##landa":14386,"samtlige":14387,"intraff":14388,"tilhen":14389,"arrestert":14390,"eskil":14391,"corporation":14392,"##somraden":14393,"cad":14394,"halle":14395,"libert":14396,"marinen":14397,"hjelpe":14398,"gunther":14399,"##anken":14400,"kriter":14401,"friluft":14402,"##somme":14403,"koch":14404,"##onica":14405,"##maler":14406,"andrades":14407,"skat":14408,"karlsk":14409,"eiendom":14410,"##arbejd":14411,"##spros":14412,"##blo":14413,"kampan":14414,"free":14415,"fortalte":14416,"##okan":14417,"##np":14418,"names":14419,"rekonst":14420,"kær":14421,"hex":14422,"oprør":14423,"omfattet":14424,"##messig":14425,"aspe":14426,"##inspe":14427,"##ktorer":14428,"##omataceae":14429,"##ortsvaxter":14430,"1822":14431,"abeba":14432,"nfl":14433,"eksisterer":14434,"voksede":14435,"##samf":14436,"tapt":14437,"hastar":14438,"##ional":14439,"kommunale":14440,"trang":14441,"auster":14442,"markedet":14443,"jæ":14444,"parac":14445,"##tagelse":14446,"konflikter":14447,"fanger":14448,"##delar":14449,"##ioc":14450,"polyn":14451,"##bella":14452,"tad":14453,"fv":14454,"sadant":14455,"gyn":14456,"kvindel":14457,"##ware":14458,"huvudet":14459,"fornlam":14460,"uppmarksamhet":14461,"##lysning":14462,"damernas":14463,"##yte":14464,"##skam":14465,"hjort":14466,"##selen":14467,"rull":14468,"tep":14469,"##enz":14470,"indiker":14471,"betød":14472,"skytt":14473,"yamo":14474,"game":14475,"besegrade":14476,"##ommen":14477,"##værker":14478,"individuelle":14479,"konstnaren":14480,"136":14481,"hundra":14482,"upptackt":14483,"##præ":14484,"european":14485,"##zero":14486,"##huvudstaden":14487,"chaet":14488,"##fronten":14489,"redusert":14490,"##ology":14491,"book":14492,"tomas":14493,"morgan":14494,"intet":14495,"ronald":14496,"##okal":14497,"dresden":14498,"klot":14499,"borja":14500,"sykehus":14501,"minnesota":14502,"ddr":14503,"##ype":14504,"##lock":14505,"frat":14506,"enkla":14507,"mulighet":14508,"tredjedel":14509,"integrer":14510,"katedral":14511,"bilde":14512,"fatal":14513,"slægt":14514,"udel":14515,"1807":14516,"landsbyg":14517,"##aminer":14518,"christina":14519,"sovjetiska":14520,"drom":14521,"parv":14522,"yamoussou":14523,"fk":14524,"verkt":14525,"##asien":14526,"riddar":14527,"yamoussoukro":14528,"vancou":14529,"regionhuvudstaden":14530,"hamt":14531,"masterskapet":14532,"install":14533,"akra":14534,"dobbel":14535,"helge":14536,"trommer":14537,"ww":14538,"radgiver":14539,"vinst":14540,"sikkerhed":14541,"lh":14542,"biblioteket":14543,"nis":14544,"bilda":14545,"viktigt":14546,"parlamentar":14547,"lawrence":14548,"enden":14549,"pick":14550,"rhone":14551,"omg":14552,"angola":14553,"organisert":14554,"##tert":14555,"##ekon":14556,"svag":14557,"birk":14558,"crass":14559,"##forbindelse":14560,"tone":14561,"vu":14562,"irsk":14563,"faktor":14564,"studi":14565,"106":14566,"tvavingar":14567,"ritningar":14568,"sonder":14569,"osak":14570,"##iologi":14571,"thur":14572,"kontinent":14573,"##kontoret":14574,"##munt":14575,"##byr":14576,"##اد":14577,"canal":14578,"##lenburg":14579,"turkiet":14580,"bana":14581,"##grev":14582,"helhet":14583,"kjerne":14584,"regul":14585,"prøver":14586,"yong":14587,"##varlden":14588,"pue":14589,"sydamerika":14590,"innlem":14591,"##box":14592,"aber":14593,"eus":14594,"einaste":14595,"baseb":14596,"flick":14597,"##ligan":14598,"##eser":14599,"##jursart":14600,"##provinsen":14601,"##yper":14602,"##ligaste":14603,"slam":14604,"anlegg":14605,"barbara":14606,"##gus":14607,"##falz":14608,"tril":14609,"##ianum":14610,"heat":14611,"##uru":14612,"betra":14613,"##iceps":14614,"heldt":14615,"hongkong":14616,"kunstakadem":14617,"bruken":14618,"bladhorningar":14619,"hitta":14620,"dark":14621,"zh":14622,"##ivan":14623,"banken":14624,"##cial":14625,"kirkegard":14626,"kontinuer":14627,"##ikring":14628,"besta":14629,"trapp":14630,"selskabet":14631,"##listen":14632,"##ants":14633,"##dor":14634,"##lane":14635,"##løper":14636,"underhall":14637,"augustus":14638,"samtal":14639,"filmp":14640,"tjock":14641,"taket":14642,"##rell":14643,"erfaren":14644,"##sslaktet":14645,"elef":14646,"kulturelle":14647,"minska":14648,"##elserne":14649,"cano":14650,"mongoliet":14651,"bop":14652,"vav":14653,"sjost":14654,"##løsning":14655,"regelb":14656,"etymologi":14657,"opstod":14658,"sev":14659,"vancouver":14660,"formuler":14661,"visat":14662,"##cle":14663,"snarare":14664,"##hild":14665,"##kla":14666,"polyg":14667,"bygda":14668,"frankrikes":14669,"utbildade":14670,"##ally":14671,"conne":14672,"##vatnet":14673,"##sler":14674,"steng":14675,"latarna":14676,"tommy":14677,"##etenskap":14678,"##ache":14679,"##ighetene":14680,"broderna":14681,"boll":14682,"zhang":14683,"ridge":14684,"allmanhet":14685,"##edda":14686,"plut":14687,"##fjellet":14688,"shaw":14689,"##varo":14690,"##komsten":14691,"##posten":14692,"##chter":14693,"byggd":14694,"##orium":14695,"hort":14696,"##æs":14697,"cour":14698,"jupiter":14699,"gris":14700,
[...]
