{"version":"1.0","truncation":null,"padding":null,"added_tokens":[{"id":0,"special":true,"content":"[PAD]","single_word":false,"lstrip":false,"rstrip":false,"normalized":false},{"id":1,"special":true,"content":"[UNK]","single_word":false,"lstrip":false,"rstrip":false,"normalized":false},{"id":2,"special":true,"content":"[CLS]","single_word":false,"lstrip":false,"rstrip":false,"normalized":false},{"id":3,"special":true,"content":"[SEP]","single_word":false,"lstrip":false,"rstrip":false,"normalized":false},{"id":4,"special":true,"content":"[MASK]","single_word":false,"lstrip":false,"rstrip":false,"normalized":false}],"normalizer":{"type":"BertNormalizer","clean_text":true,"handle_chinese_chars":true,"strip_accents":null,"lowercase":true},"pre_tokenizer":{"type":"BertPreTokenizer"},"post_processor":null,"decoder":{"type":"WordPiece","prefix":"##","cleanup":true},"model":{"type":"WordPiece","unk_token":"[UNK]","continuing_subword_prefix":"##","max_input_chars_per_word":100,"vocab":{"[PAD]":0,"[UNK]":1,"[CLS]":2,"[SEP]":3,"[MASK]":4,"!":5,"\"":6,"#":7,"$":8,"%":9,"&":10,"'":11,"(":12,")":13,"*":14,"+":15,",":16,"-":17,".":18,"/":19,"0":20,"1":21,"2":22,"3":23,"4":24,"5":25,"6":26,"7":27,"8":28,"9":29,":":30,";":31,"<":32,"=":33,">":34,"?":35,"@":36,"[":37,"\\":38,"]":39,"^":40,"_":41,"`":42,"a":43,"b":44,"c":45,"d":46,"e":47,"f":48,"g":49,"h":50,"i":51,"j":52,"k":53,"l":54,"m":55,"n":56,"o":57,"p":58,"q":59,"r":60,"s":61,"t":62,"u":63,"v":64,"w":65,"x":66,"y":67,"z":68,"{":69,"|":70,"}":71,"~":72,"¡":73,"¢":74,"£":75,"¤":76,"¥":77,"¦":78,"§":79,"¨":80,"©":81,"ª":82,"«":83,"¬":84,"®":85,"¯":86,"°":87,"±":88,"²":89,"³":90,"´":91,"µ":92,"¶":93,"·":94,"¸":95,"¹":96,"º":97,"»":98,"¼":99,"½":100,"¾":101,"¿":102,"×":103,"ß":104,"æ":105,"ð":106,"÷":107,"ø":108,"þ":109,"đ":110,"ı":111,"ł":112,"œ":113,"ƒ":114,"ɔ":115,"ə":116,"ɛ":117,"ʹ":118,"ʺ":119,"ˆ":120,"ˇ":121,"ˈ":122,"˚":123,"˜":124,"ˮ":125,"ͼ":126,"α":127,"β":128,"γ":129,"δ":130,"ε":131,"ζ":132,"η":133,"θ":134,"ι":135,"κ":136,"λ":137,"μ":138,"ν":139,"ξ":140,"ο":141,"π":142,"ρ":143,"ς":144,"σ":145,"τ":146,"υ":147,"φ":148,"χ":149,"ψ":150,"ω":151,"ϕ":152,"а":153,"б":154,"в":155,"г":156,"д":157,"е":158,"ж":159,"з":160,"и":161,"к":162,"л":163,"м":164,"н":165,"о":166,"п":167,"р":168,"с":169,"т":170,"у":171,"ф":172,"х":173,"ц":174,"ч":175,"ш":176,"щ":177,"ъ":178,"ы":179,"ь":180,"э":181,"ю":182,"я":183,"ђ":184,"є":185,"ѕ":186,"і":187,"ј":188,"љ":189,"ґ":190,"һ":191,"ա":192,"א":193,"ב":194,"ג":195,"ד":196,"ה":197,"ו":198,"ח":199,"ט":200,"י":201,"כ":202,"ל":203,"ם":204,"מ":205,"ן":206,"נ":207,"ס":208,"ע":209,"פ":210,"ק":211,"ר":212,"ש":213,"ת":214,"،":215,"ء":216,"ا":217,"ب":218,"ة":219,"ت":220,"ث":221,"ج":222,"ح":223,"خ":224,"د":225,"ذ":226,"ر":227,"ز":228,"س":229,"ش":230,"ص":231,"ض":232,"ط":233,"ظ":234,"ع":235,"غ":236,"ـ":237,"ف":238,"ق":239,"ك":240,"ل":241,"م":242,"ن":243,"ه":244,"و":245,"ى":246,"ي":247,"پ":248,"چ":249,"ک":250,"گ":251,"ی":252,"क":253,"ग":254,"ज":255,"त":256,"द":257,"न":258,"प":259,"म":260,"य":261,"र":262,"ल":263,"व":264,"स":265,"ह":266,"ा":267,"ि":268,"ी":269,"ो":270,"ক":271,"ত":272,"ন":273,"ব":274,"য":275,"র":276,"া":277,"ি":278,"ে":279,"க":280,"த":281,"ன":282,"ப":283,"ம":284,"ர":285,"ா":286,"ி":287,"ு":288,"ക":289,"ാ":290,"ി":291,"ก":292,"ข":293,"ค":294,"ง":295,"จ":296,"ช":297,"ด":298,"ต":299,"ท":300,"น":301,"บ":302,"ป":303,"พ":304,"ม":305,"ย":306,"ร":307,"ล":308,"ว":309,"ส":310,"ห":311,"อ":312,"ะ":313,"า":314,"฿":315,"เ":316,"แ":317,"โ":318,"ไ":319,"ა":320,"ე":321,"ი":322,"ᄀ":323,"ᄂ":324,"ᄃ":325,"ᄅ":326,"ᄆ":327,"ᄇ":328,"ᄉ":329,"ᄋ":330,"ᄌ":331,"ᄎ":332,"ᄏ":333,"ᄐ":334,"ᄑ":335,"ᄒ":336,"ᅡ":337,"ᅢ":338,"ᅥ":339,"ᅦ":340,"ᅧ":341,"ᅩ":342,"ᅪ":343,"ᅬ":344,"ᅭ":345,"ᅮ":346,"ᅳ":347,"ᅴ":348,"ᅵ":349,"ᆨ":350,"ᆫ":351,"ᆯ":352,"ᆷ":353,"ᆸ":354,"ᆻ":355,"ᆼ":356,"ᐈ":357,"‐":358,"‑":359,"‒":360,"–":361,"—":362,"―":363,"‘":364,"’":365,"‚":366,"“":367,"”":368,"„":369,"†":370,"‡":371,"•":372,"…":373,"‰":374,"′":375,"″":376,"‹":377,"›":378,"₂":379,"₨":380,"€":381,"℃":382,"№":383,"™":384,"←":385,"↑":386,"→":387,"↓":388,"⇒":389,"−":390,"√":391,"≤":392,"≥":393,"─":394,"■":395,"□":396,"▪":397,"▫":398,"▲":399,"▶":400,"►":401,"▻":402,"▼":403,"◊":404,"○":405,"●":406,"☀":407,"★":408,"☆":409,"☺":410,"♀":411,"♂":412,"♡":413,"♣":414,"♥":415,"♦":416,"✅":417,"✌":418,"✓":419,"✔":420,"✚":421,"✨":422,"✭":423,"✰":424,"❄":425,"❑":426,"❗":427,"❤":428,"➔":429,"➧":430,"⠀":431,"⭐":432,"ⰰ":433,"、":434,"。":435,"「":436,"」":437,"【":438,"】":439,"あ":440,"い":441,"う":442,"え":443,"お":444,"か":445,"き":446,"く":447,"け":448,"こ":449,"さ":450,"し":451,"す":452,"せ":453,"そ":454,"た":455,"ち":456,"っ":457,"つ":458,"て":459,"と":460,"な":461,"に":462,"の":463,"は":464,"ひ":465,"へ":466,"ま":467,"み":468,"め":469,"も":470,"や":471,"よ":472,"ら":473,"り":474,"る":475,"れ":476,"わ":477,"を":478,"ん":479,"ア":480,"ィ":481,"イ":482,"ウ":483,"ェ":484,"エ":485,"オ":486,"カ":487,"キ":488,"ク":489,"ケ":490,"コ":491,"サ":492,"シ":493,"ス":494,"セ":495,"ソ":496,"タ":497,"チ":498,"ッ":499,"ツ":500,"テ":501,"ト":502,"ナ":503,"ニ":504,"ネ":505,"ハ":506,"ヒ":507,"フ":508,"ヘ":509,"ホ":510,"マ":511,"ミ":512,"ム":513,"メ":514,"モ":515,"ャ":516,"ュ":517,"ョ":518,"ラ":519,"リ":520,"ル":521,"レ":522,"ロ":523,"ワ":524,"ン":525,"・":526,"ー":527,"䄀":528,"䈀":529,"䔀":530,"䜀":531,"䠀":532,"䤀":533,"䬀":534,"䰀":535,"䴀":536,"一":537,"七":538,"万":539,"三":540,"上":541,"下":542,"不":543,"与":544,"专":545,"世":546,"业":547,"东":548,"两":549,"个":550,"中":551,"为":552,"主":553,"么":554,"之":555,"乐":556,"九":557,"也":558,"买":559,"了":560,"争":561,"事":562,"二":563,"于":564,"五":565,"亚":566,"交":567,"产":568,"京":569,"人":570,"什":571,"今":572,"他":573,"仙":574,"代":575,"以":576,"们":577,"件":578,"任":579,"伀":580,"会":581,"传":582,"位":583,"体":584,"何":585,"作":586,"你":587,"使":588,"供":589,"保":590,"信":591,"元":592,"先":593,"光":594,"免":595,"入":596,"全":597,"八":598,"公":599,"六":600,"关":601,"其":602,"具":603,"内":604,"円":605,"册":606,"准":607,"出":608,"刀":609,"分":610,"划":611,"创":612,"利":613,"到":614,"制":615,"前":616,"力":617,"加":618,"务":619,"动":620,"势":621,"動":622,"匀":623,"化":624,"北":625,"区":626,"十":627,"单":628,"南":629,"博":630,"原":631,"县":632,"及":633,"双":634,"发":635,"取":636,"口":637,"可":638,"台":639,"号":640,"司":641,"吀":642,"合":643,"同":644,"名":645,"后":646,"吗":647,"员":648,"和":649,"品":650,"哪":651,"唀":652,"商":653,"器":654,"四":655,"回":656,"国":657,"图":658,"在":659,"地":660,"场":661,"址":662,"坛":663,"型":664,"城":665,"基":666,"堂":667,"場":668,"士":669,"外":670,"多":671,"大":672,"天":673,"太":674,"奇":675,"奖":676,"女":677,"好":678,"如":679,"姐":680,"娱":681,"婆":682,"子":683,"字":684,"学":685,"安":686,"官":687,"定":688,"宝":689,"实":690,"客":691,"室":692,"家":693,"富":694,"对":695,"将":696,"小":697,"少":698,"就":699,"尾":700,"展":701,"山":702,"川":703,"州":704,"工":705,"巧":706,"市":707,"常":708,"平":709,"年":710,"广":711,"庆":712,"库":713,"店":714,"度":715,"建":716,"开":717,"式":718,"当":719,"录":720,"彩":721,"影":722,"律":723,"得":724,"微":725,"心":726,"必":727,"忙":728,"快":729,"怎":730,"思":731,"性":732,"总":733,"情":734,"意":735,"感":736,"戏":737,"成":738,"我":739,"户":740,"所":741,"手":742,"打":743,"技":744,"投":745,"报":746,"持":747,"挂":748,"指":749,"推":750,"提":751,"播":752,"教":753,"数":754,"文":755,"料":756,"斯":757,"新":758,"方":759,"无":760,"日":761,"时":762,"明":763,"星":764,"是":765,"時":766,"更":767,"最":768,"月":769,"有":770,"服":771,"期":772,"未":773,"本":774,"机":775,"杀":776,"来":777,"東":778,"枚":779,"果":780,"校":781,"样":782,"格":783,"業":784,"次":785,"正":786,"比":787,"民":788,"氓":789,"気":790,"水":791,"江":792,"河":793,"法":794,"波":795,"注":796,"活":797,"流":798,"测":799,"海":800,"港":801,"游":802,"源":803,"澳":804,"点":805,"然":806,"爱":807,"片":808,"版":809,"牌":810,"牛":811,"物":812,"特":813,"狗":814,"玄":815,"王":816,"玩":817,"现":818,"球":819,"理":820,"生":821,"用":822,"田":823,"电":824,"画":825,"界":826,"登":827,"白":828,"百":829,"的":830,"皇":831,"目":832,"盲":833,"直":834,"相":835,"看":836,"県":837,"真":838,"着":839,"知":840,"码":841,"社":842,"神":843,"票":844,"福":845,"科":846,"程":847,"空":848,"立":849,"站":850,"第":851,"等":852,"算":853,"管":854,"精":855,"系":856,"红":857,"线":858,"组":859,"经":860,"结":861,"统":862,"网":863,"美":864,"群":865,"老":866,"者":867,"而":868,"肖":869,"育":870,"能":871,"自":872,"色":873,"花":874,"英":875,"行":876,"表":877,"装":878,"西":879,"要":880,"見":881,"规":882,"视":883,"解":884,"語":885,"计":886,"记":887,"论":888,"设":889,"诗":890,"财":891,"费":892,"资":893,"赌":894,"赛":895,"赢":896,"走":897,"起":898,"超":899,"足":900,"跑":901,"路":902,"身":903,"车":904,"软":905,"载":906,"过":907,"运":908,"这":909,"进":910,"送":911,"选":912,"通":913,"道":914,"選":915,"部":916,"都":917,"酶":918,"里":919,"重":920,"野":921,"量":922,"金":923,"钱":924,"长":925,"間":926,"门":927,"间":928,"际":929,"限":930,"院":931,"集":932,"霸":933,"青":934,"面":935,"音":936,"预":937,"频":938,"食":939,"香":940,"马":941,"高":942,"黄":943,"龙":944,"ﬁ":945,"ﬂ":946,"！":947,"（":948,"）":949,"，":950,"：":951,"？":952,"ｩ":953,"ﾞ":954,"￼":955,"🌟":956,"🌸":957,"🍁":958,"🎉":959,"🏻":960,"🏼":961,"🏽":962,"👊":963,"👌":964,"👍":965,"👏":966,"💕":967,"💖":968,"💗":969,"💙":970,"💚":971,"💛":972,"💜":973,"💪":974,"🔥":975,"😀":976,"😁":977,"😂":978,"😃":979,"😄":980,"😅":981,"😆":982,"😉":983,"😊":984,"😋":985,"😍":986,"😎":987,"😘":988,"😛":989,"😜":990,"😦":991,"😬":992,"😱":993,"😳":994,"🙁":995,"🙂":996,"🙄":997,"🙈":998,"🙌":999,"🙏":1000,"🤔":1001,"🤗":1002,"🤣":1003,"🤩":1004,"##o":1005,"##p":1006,"##b":1007,"##l":1008,"##m":1009,"##r":1010,"##u":1011,"##n":1012,"##d":1013,"##e":1014,"##c":1015,"##h":1016,"##f":1017,"##t":1018,"##y":1019,"##s":1020,"##a":1021,"##i":1022,"##j":1023,"##k":1024,"##g":1025,"##x":1026,"##v":1027,"##2":1028,"##0":1029,"##1":1030,"##7":1031,"##9":1032,"##6":1033,"##5":1034,"##3":1035,"##8":1036,"##w":1037,"##°":1038,"##4":1039,"##ø":1040,"##х":1041,"##æ":1042,"##z":1043,"##ß":1044,"##¥":1045,"##и":1046,"##н":1047,"##г":1048,"##а":1049,"##с":1050,"##к":1051,"##е":1052,"##´":1053,"##ᄂ":1054,"##ᅵ":1055,"##ᆷ":1056,"##ᄋ":1057,"##❤":1058,"##э":1059,"##м":1060,"##д":1061,"##л":1062,"##ن":1063,"##ب":1064,"##ل":1065,"##о":1066,"##р":1067,"##у":1068,"##є":1069,"##т":1070,"##ь":1071,"##я":1072,"##😉":1073,"##م":1074,"##و":1075,"##ي":1076,"##q":1077,"##¤":1078,"##☺":1079,"##ч":1080,"##😀":1081,"##👌":1082,"##🤗":1083,"##в":1084,"##©":1085,"##る":1086,"##と":1087,"##ر":1088,"##د":1089,"##🙄":1090,"##💕":1091,"##€":1092,"##¦":1093,"##ら":1094,"##な":1095,"##い":1096,"##こ":1097,"##は":1098,"##ی":1099,"##ه":1100,"##🌟":1101,"##ж":1102,"##щ":1103,"##ђ":1104,"##і":1105,"##п":1106,"##ѕ":1107,"##®":1108,"##λ":1109,"##ت":1110,"##س":1111,"##✨":1112,"##خ":1113,"##ᅡ":1114,"##ᄑ":1115,"##ᅩ":1116,"##ᆫ":1117,"##ᅴ":1118,"##ф":1119,"##ق":1120,"##ا":1121,"##ع":1122,"##ة":1123,"##ε":1124,"##ι":1125,"##α":1126,"##ς":1127,"##ز":1128,"##😊":1129,"##ı":1130,"##ц":1131,"##ш":1132,"##ﬁ":1133,"##🔥":1134,"##ы":1135,"##ю":1136,"##も":1137,"##の":1138,"##し":1139,"##て":1140,"##ル":1141,"##ラ":1142,"##ー":1143,"##シ":1144,"##ュ":1145,"##ロ":1146,"##ン":1147,"##カ":1148,"##レ":1149,"##タ":1150,"##か":1151,"##¼":1152,"##ج":1153,"##ס":1154,"##פ":1155,"##ת":1156,"##ش":1157,"##ு":1158,"##த":1159,"##😎":1160,"##б":1161,"##ᆨ":1162,"##ᄀ":1163,"##ᅥ":1164,"##ᄉ":1165,"##👍":1166,"##🏻":1167,"##イ":1168,"##ス":1169,"##ホ":1170,"##™":1171,"##さ":1172,"##ま":1173,"##た":1174,"##ト":1175,"##😂":1176,"##¨":1177,"##や":1178,"##ث":1179,"##ط":1180,"##¸":1181,"##あ":1182,"##っ":1183,"##ᅦ":1184,"##ᄆ":1185,"##ᄅ":1186,"##ᅳ":1187,"##キ":1188,"##う":1189,"##💜":1190,"##ʺ":1191,"##🌸":1192,"##コ":1193,"##τ":1194,"##φ":1195,"##ρ":1196,"##ν":1197,"##ท":1198,"##พ":1199,"##ด":1200,"##น":1201,"##ต":1202,"##อ":1203,"##เ":1204,"##ร":1205,"##ม":1206,"##ว":1207,"##ł":1208,"##ذ":1209,"##り":1210,"##く":1211,"##せ":1212,"##に":1213,"##🏽":1214,"##โ":1215,"##き":1216,"##ف":1217,"##ᄃ":1218,"##ᆼ":1219,"##ᄒ":1220,"##œ":1221,"##ク":1222,"##ッ":1223,"##チ":1224,"##を":1225,"##フ":1226,"##セ":1227,"##μ":1228,"##ω":1229,"##π":1230,"##γ":1231,"##−":1232,"##🙂":1233,"##κ":1234,"##β":1235,"##ο":1236,"##ﬂ":1237,"##ˮ":1238,"##マ":1239,"##サ":1240,"##け":1241,"##×":1242,"##ാ":1243,"##ک":1244,"##گ":1245,"##स":1246,"##ो":1247,"##♥":1248,"##ك":1249,"##ป":1250,"##แ":1251,"##ห":1252,"##ล":1253,"##ง":1254,"##ก":1255,"##ย":1256,"##ไ":1257,"##า":1258,"##す":1259,"##द":1260,"##ส":1261,"##ช":1262,"##ค":1263,"##ツ":1264,"##ア":1265,"##テ":1266,"##ा":1267,"##न":1268,"##ल":1269,"##ん":1270,"##リ":1271,"##з":1272,"##ɔ":1273,"##ミ":1274,"##ح":1275,"##ʹ":1276,"##ᆯ":1277,"##ᅭ":1278,"##ظ":1279,"##お":1280,"##ו":1281,"##ר":1282,"##ט":1283,"##🏼":1284,"##😃":1285,"##ð":1286,"##😋":1287,"##😜":1288,"##η":1289,"##ص":1290,"##ハ":1291,"##য":1292,"##া":1293,"##ক":1294,"##র":1295,"##ে":1296,"##θ":1297,"##🙌":1298,"##מ":1299,"##נ":1300,"##י":1301,"##จ":1302,"##บ":1303,"##れ":1304,"##½":1305,"##わ":1306,"##め":1307,"##ち":1308,"##º":1309,"##ъ":1310,"##ム":1311,"##メ":1312,"##غ":1313,"##ל":1314,"##ד":1315,"##ה":1316,"##ケ":1317,"##ェ":1318,"##→":1319,"##👊":1320,"##σ":1321,"##😍":1322,"##よ":1323,"##ב":1324,"##δ":1325,"##µ":1326,"##ョ":1327,"##み":1328,"##ी":1329,"##त":1330,"##ח":1331,"##🙏":1332,"##💪":1333,"##پ":1334,"##そ":1335,"##υ":1336,"##ξ":1337,"##ナ":1338,"##ᅢ":1339,"##ᄐ":1340,"##र":1341,"##😄":1342,"##ウ":1343,"##ɛ":1344,"##ᅧ":1345,"##ם":1346,"##😁":1347,"##ி":1348,"##க":1349,"##ן":1350,"##ᅮ":1351,"##ᅪ":1352,"##ى":1353,"##ம":1354,"##ζ":1355,"##±":1356,"##љ":1357,"##♀":1358,"##ர":1359,"##ா":1360,"##ன":1361,"##✌":1362,"##ע":1363,"##χ":1364,"##א":1365,"##ᄌ":1366,"##ᄎ":1367,"##ᆸ":1368,"##¹":1369,"##ᄇ":1370,"##ヘ":1371,"##³":1372,"##¬":1373,"##√":1374,"##ব":1375,"##ა":1376,"##ज":1377,"##प":1378,"##🙈":1379,"##ג":1380,"##ネ":1381,"##ィ":1382,"##😘":1383,"##چ":1384,"##ա":1385,"##◊":1386,"##エ":1387,"##↓":1388,"##ͼ":1389,"##💗":1390,"##ᄏ":1391,"##ᅬ":1392,"##ƒ":1393,"##ض":1394,"##✔":1395,"##✓":1396,"##व":1397,"##đ":1398,"##つ":1399,"##ि":1400,"##म":1401,"##ј":1402,"##ヒ":1403,"##ə":1404,"##ะ":1405,"##💙":1406,"##ニ":1407,"##ـ":1408,"##ह":1409,"##ャ":1410,"##💛":1411,"##👏":1412,"##ש":1413,"##😱":1414,"##ე":1415,"##ი":1416,"##ப":1417,"##ग":1418,"##ª":1419,"##⠀":1420,"##²":1421,"##क":1422,"##🤔":1423,"##😅":1424,"##ソ":1425,"##≤":1426,"##🎉":1427,"##þ":1428,"##ء":1429,"##■":1430,"##♡":1431,"##へ":1432,"##ˇ":1433,"##ᆻ":1434,"##★":1435,"##˜":1436,"##ґ":1437,"##オ":1438,"##ি":1439,"##○":1440,"##ˆ":1441,"##ി":1442,"##य":1443,"##ข":1444,"##⭐":1445,"##♂":1446,"##ק":1447,"##☀":1448,"##💚":1449,"##ⰰ":1450,"##ひ":1451,"##ワ":1452,"##❗":1453,"##😆":1454,"##÷":1455,"##モ":1456,"##ˈ":1457,"##һ":1458,"##ত":1459,"##💖":1460,"##ন":1461,"##🍁":1462,"##え":1463,"##☆":1464,"##►":1465,"##¾":1466,"##♦":1467,"##♣":1468,"##🤩":1469,"##●":1470,"##¯":1471,"##😳":1472,"##▼":1473,"##😬":1474,"##😛":1475,"##≥":1476,"##£":1477,"##ψ":1478,"##❄":1479,"##˚":1480,"##כ":1481,"##🤣":1482,"##ക":1483,"##↑":1484,"##№":1485,"##ϕ":1486,"##¢":1487,"##ﾞ":1488,"##℃":1489,"##￼":1490,"##▫":1491,"##←":1492,"##✅":1493,"##₂":1494,"##□":1495,"##─":1496,"##▲":1497,"##▻":1498,"##▶":1499,"##ｩ":1500,"##▪":1501,"##🙁":1502,"##⇒":1503,"##฿":1504,"##➔":1505,"##✭":1506,"##✰":1507,"##😦":1508,"##✚":1509,"##❑":1510,"##➧":1511,"##er":1512,"##en":1513,"##ar":1514,"##an":1515,"##or":1516,"##et":1517,"##in":1518,"##ll":1519,"##tt":1520,"##st":1521,"##ig":1522,"##om":1523,"##ag":1524,"##ed":1525,"for":1526,"##de":1527,"##ing":1528,"##on":1529,"##al":1530,"##ch":1531,"##at":1532,"##el":1533,"en":1534,"och":1535,"##sk":1536,"det":1537,"ti":1538,"pa":1539,"##ra":1540,"in":1541,"ar":1542,"vi":1543,"att":1544,"som":1545,"##es":1546,"sa":1547,"med":1548,"##te":1549,"og":1550,"st":1551,"##kt":1552,"sk":1553,"##re":1554,"har":1555,"##ck":1556,"av":1557,"##der":1558,"##na":1559,"var":1560,"##un":1561,"an":1562,"##as":1563,"##ol":1564,"de":1565,"##ter":1566,"##ning":1567,"##pp":1568,"##and":1569,"##ver":1570,"##lig":1571,"er":1572,"den":1573,"##sa":1574,"##ik":1575,"##il":1576,"##is":1577,"##it":1578,"om":1579,"##eg":1580,"##ro":1581,"till":1582,"jag":1583,"##ad":1584,"##em":1585,"##ang":1586,"kan":1587,"at":1588,"til":1589,"##iv":1590,"bl":1591,"##id":1592,"##all":1593,"##am":1594,"du":1595,"##ade":1596,"##ur":1597,"##ion":1598,"ut":1599,"##att":1600,"##ne":1601,"##isk":1602,"men":1603,"##og":1604,"##ot":1605,"##ller":1606,"##for":1607,"##ast":1608,"kom":1609,"man":1610,"##den":1611,"af":1612,"##ke":1613,"##se":1614,"inte":1615,"fr":1616,"##ok":1617,"##est":1618,"##ør":1619,"all":1620,"sp":1621,"der":1622,"ett":1623,"##ut":1624,"##are":1625,"##ent":1626,"##us":1627,"##od":1628,"##mer":1629,"un":1630,"sam":1631,"##ru":1632,"eller":1633,"##ist":1634,"##ta":1635,"##ens":1636,"##ul":1637,"##av":1638,"##ande":1639,"se":1640,"##igt":1641,"##var":1642,"##ort":1643,"##het":1644,"##itt":1645,"##le":1646,"min":1647,"han":1648,"##ser":1649,"be":1650,"##fter":1651,"nar":1652,"##ell":1653,"##kke":1654,"##gen":1655,"fra":1656,"##ær":1657,"##ill":1658,"##ak":1659,"pro":1660,"##ss":1661,"upp":1662,"hel":1663,"##ker":1664,"over":1665,"hv":1666,"fin":1667,"##ska":1668,"##ir":1669,"fl":1670,"al":1671,"##sp":1672,"kl":1673,"##art":1674,"kon":1675,"##ation":1676,"##ende":1677,"##ger":1678,"fa":1679,"##ri":1680,"ny":1681,"et":1682,"sig":1683,"##ud":1684,"ikke":1685,"##yg":1686,"##sen":1687,"##ma":1688,"and":1689,"##ov":1690,"##sl":1691,"ska":1692,"##yck":1693,"##ft":1694,"##ej":1695,"##und":1696,"##um":1697,"tr":1698,"jeg":1699,"efter":1700,"under":1701,"bar":1702,"gr":1703,"##op":1704,"##ere":1705,"far":1706,"##ant":1707,"##os":1708,"##ev":1709,"##ull":1710,"20":1711,"fran":1712,"sl":1713,"pr":1714,"vil":1715,"##ns":1716,"##ligt":1717,"kun":1718,"##ff":1719,"nag":1720,"##ge":1721,"nu":1722,"##dag":1723,"##bb":1724,"ud":1725,"pl":1726,"stor":1727,"val":1728,"dag":1729,"per":1730,"##ige":1731,"ha":1732,"da":1733,"##ett":1734,"##bl":1735,"op":1736,"##del":1737,"kr":1738,"##ans":1739,"##ick":1740,"##ek":1741,"dar":1742,"##ost":1743,"##bet":1744,"del":1745,"##je":1746,"##ord":1747,"##yr":1748,"##ark":1749,"kommer":1750,"##arna":1751,"##dr":1752,"mig":1753,"vara":1754,"kv":1755,"##ling":1756,"##ner":1757,"sj":1758,"li":1759,"gen":1760,"##ene":1761,"##ede":1762,"mo":1763,"##yn":1764,"ta":1765,"sin":1766,"tid":1767,"mang":1768,"or":1769,"din":1770,"##ic":1771,"lag":1772,"##im":1773,"##ock":1774,"##son":1775,"##ber":1776,"bor":1777,"vill":1778,"##ass":1779,"##ske":1780,"##hol":1781,"hj":1782,"##else":1783,"##me":1784,"##sta":1785,"##ier":1786,"##ess":1787,"ma":1788,"gj":1789,"sv":1790,"gor":1791,"##kl":1792,"ver":1793,"##men":1794,"lang":1795,"mer":1796,"##tid":1797,"##opp":1798,"br":1799,"##ningen":1800,"ind":1801,"mot":1802,"beh":1803,"##ga":1804,"jo":1805,"ann":1806,"##sam":1807,"##hed":1808,"##ste":1809,"##ket":1810,"dig":1811,"##ks":1812,"##va":1813,"sex":1814,"bil":1815,"skal":1816,"##itet":1817,"##be":1818,"alla":1819,"##da":1820,"ju":1821,"væ":1822,"##ikt":1823,"ved":1824,"##gar":1825,"##per":1826,"sen":1827,"komm":1828,"##sm":1829,"##ika":1830,"bet":1831,"bra":1832,"##ken":1833,"god":1834,"sm":1835,"##00":1836,"##æn":1837,"##age":1838,"201":1839,"hur":1840,"re":1841,"ser":1842,"fram":1843,"##pl":1844,"vid":1845,"##jon":1846,"##ater":1847,"lite":1848,"##alt":1849,"hon":1850,"##ycket":1851,"gar":1852,"##rad":1853,"bru":1854,"##ulle":1855,"##ka":1856,"sag":1857,"##ann":1858,"ex":1859,"##aste":1860,"reg":1861,"blev":1862,"##ekt":1863,"##oll":1864,"opp":1865,"skulle":1866,"bli":1867,"##ats":1868,"mycket":1869,"inn":1870,"##vis":1871,"##satt":1872,"finns":1873,"bara":1874,"##edan":1875,"##iga":1876,"##org":1877,"##ott":1878,"person":1879,"##jer":1880,"##iska":1881,"gang":1882,"vad":1883,"th":1884,"##ie":1885,"##eck":1886,"##era":1887,"##kel":1888,"##ring":1889,"blir":1890,"nog":1891,"##la":1892,"ch":1893,"ty":1894,"##jt":1895,"hand":1896,"ogsa":1897,"##du":1898,"##ering":1899,"hem":1900,"##ja":1901,"fort":1902,"##liga":1903,"res":1904,"ock":1905,"aven":1906,"ol":1907,"##tal":1908,"##ive":1909,"ocksa":1910,"gl":1911,"helt":1912,"dem":1913,"##ci":1914,"sy":1915,"##ligen":1916,"##net":1917,"best":1918,"##bil":1919,"ber":1920,"anv":1921,"dat":1922,"her":1923,"andra":1924,"van":1925,"##gang":1926,"##ack":1927,"##ster":1928,"nat":1929,"fors":1930,"sel":1931,"allt":1932,"hade":1933,"hvor":1934,"##tr":1935,"##alv":1936,"##get":1937,"##lag":1938,"##far":1939,"sid":1940,"detta":1941,"hav":1942,"##ien":1943,"##ys":1944,"være":1945,"mal":1946,"bes":1947,"vis":1948,"##som":1949,"##kar":1950,"fol":1951,"19":1952,"##ningar":1953,"nor":1954,"##ug":1955,"##ult":1956,"##ler":1957,"no":1958,"arbet":1959,"tj":1960,"##dre":1961,"##aller":1962,"tan":1963,"ga":1964,"##mar":1965,"##over":1966,"##ets":1967,"on":1968,"##ds":1969,"##gi":1970,"des":1971,"##ce":1972,"før":1973,"##ygg":1974,"svar":1975,"por":1976,"satt":1977,"##skap":1978,"kvin":1979,"##ara":1980,"##erna":1981,"##rem":1982,"##ia":1983,"mat":1984,"##dt":1985,"spel":1986,"##uk":1987,"kommun":1988,"##pa":1989,"##iske":1990,"mell":1991,"##form":1992,"tra":1993,"##stall":1994,"##sb":1995,"##riv":1996,"genom":1997,"##atis":1998,"oss":1999,"par":2000,"utan":2001,"##erne":2002,"##ytt":2003,"sn":2004,"samt":2005,"##æl":2006,"dan":2007,"selv":2008,"vin":2009,"tro":2010,"##dig":2011,"hen":2012,"##ram":2013,"akt":2014,"liv":2015,"nagon":2016,"form":2017,"bade":2018,"lan":2019,"##if":2020,"inter":2021,"fun":2022,"manga":2023,"fil":2024,"led":2025,"##ktion":2026,"##nings":2027,"di":2028,"lig":2029,"##bej":2030,"barn":2031,"##ingen":2032,"sven":2033,"##ala":2034,"le":2035,"##des":2036,"##hall":2037,"##man":2038,"##enter":2039,"tre":2040,"sedan":2041,"verk":2042,"##ote":2043,"gratis":2044,"alle":2045,"##yl":2046,"##pr":2047,"to":2048,"nagot":2049,"mar":2050,"##jting":2051,"##gr":2052,"##kom":2053,"forsta":2054,"kra":2055,"##iskt":2056,"str":2057,"##øl":2058,"##amp":2059,"##land":2060,"##ale":2061,"##ilj":2062,"##lige":2063,"vær":2064,"forsk":2065,"dette":2066,"mu":2067,"meg":2068,"beg":2069,"##aget":2070,"hog":2071,"gora":2072,"##yd":2073,"igen":2074,"so":2075,"el":2076,"##kter":2077,"su":2078,"dr":2079,"vet":2080,"land":2081,"tv":2082,"##lighet":2083,"##ret":2084,"##asta":2085,"hos":2086,"of":2087,"jobb":2088,"ans":2089,"produ":2090,"va":2091,"##ine":2092,"ni":2093,"forb":2094,"##dom":2095,"##ust":2096,"ja":2097,"inne":2098,"idag":2099,"hun":2100,"##kon":2101,"##det":2102,"##øre":2103,"hvis":2104,"sitt":2105,"fick":2106,"sjalv":2107,"##yk":2108,"##elsen":2109,"anvand":2110,"##agen":2111,"kor":2112,"end":2113,"##eb":2114,"10":2115,"##nes":2116,"ratt":2117,"tva":2118,"pol":2119,"##elser":2120,"denna":2121,"##ef":2122,"bed":2123,"hitt":2124,"##lar":2125,"##øn":2126,"##app":2127,"sver":2128,"kop":2129,"##jen":2130,"skol":2131,"rad":2132,"mass":2133,"##ide":2134,"##fr":2135,"##iver":2136,"##eder":2137,"kont":2138,"andre":2139,"hela":2140,"##nas":2141,"seg":2142,"olika":2143,"fast":2144,"##bar":2145,"te":2146,"ka":2147,"saker":2148,"##elig":2149,"mest":2150,"##pt":2151,"dom":2152,"denne":2153,"mange":2154,"utv":2155,"##io":2156,"##aren":2157,"borj":2158,"hø":2159,"##æg":2160,"fakt":2161,"##pe":2162,"nagra":2163,"dejting":2164,"##ativ":2165,"mark":2166,"ingen":2167,"im":2168,"rikt":2169,"##ym":2170,"vikt":2171,"las":2172,"##br":2173,"##rupp":2174,"eg":2175,"star":2176,"bland":2177,"maste":2178,"##nar":2179,"##lev":2180,"##ader":2181,"sna":2182,"##pel":2183,"##ager":2184,"frem":2185,"##ings":2186,"slut":2187,"bo":2188,"forst":2189,"vir":2190,"gam":2191,"200":2192,"plan":2193,"##stem":2194,"kar":2195,"ad":2196,"pen":2197,"##els":2198,"am":2199,"ble":2200,"nya":2201,"##inger":2202,"foret":2203,"ab":2204,"##sker":2205,"##ju":2206,"##hus":2207,"hall":2208,"##min":2209,"##met":2210,"##fil":2211,"mor":2212,"##holm":2213,"by":2214,"meget":2215,"##sid":2216,"mann":2217,"hjal":2218,"##ighet":2219,"pris":2220,"##øb":2221,"##mark":2222,"sal":2223,"na":2224,"##ps":2225,"kj":2226,"frag":2227,"varit":2228,"##ow":2229,"ned":2230,"##fatt":2231,"18":2232,"##ninger":2233,"tal":2234,"lin":2235,"kanske":2236,"hans":2237,"gra":2238,"kn":2239,"enkel":2240,"tar":2241,"inom":2242,"tran":2243,"##ille":2244,"##val":2245,"##tter":2246,"##ven":2247,"natur":2248,"vag":2249,"grund":2250,"tyck":2251,"moj":2252,"hu":2253,"##led":2254,"##jekt":2255,"##rum":2256,"##ød":2257,"ham":2258,"##by":2259,"ant":2260,"##ister":2261,"##takt":2262,"fatt":2263,"behov":2264,"##sc":2265,"##hand":2266,"##verk":2267,"sol":2268,"hal":2269,"##ikk":2270,"ly":2271,"ro":2272,"##asjon":2273,"##ont":2274,"##lem":2275,"bok":2276,"##vet":2277,"##cer":2278,"##str":2279,"alt":2280,"lik":2281,"##ts":2282,"la":2283,"mellan":2284,"##blem":2285,"##digt":2286,"red":2287,"ord":2288,"##kte":2289,"##pro":2290,"hus":2291,"##fl":2292,"dessa":2293,"##utom":2294,"vide":2295,"mitt":2296,"##eter":2297,"bill":2298,"sverige":2299,"stad":2300,"##sten":2301,"eu":2302,"sø":2303,"##bo":2304,"lar":2305,"hol":2306,"##borg":2307,"##atten":2308,"##este":2309,"syn":2310,"##elt":2311,"arbej":2312,"kunne":2313,"##ella":2314,"fot":2315,"veck":2316,"vor":2317,"##ades":2318,"##idt":2319,"##dan":2320,"##yll":2321,"##enn":2322,"##ider":2323,"mod":2324,"the":2325,"ater":2326,"he":2327,"spe":2328,"##hold":2329,"##vik":2330,"læ":2331,"tur":2332,"just":2333,"ur":2334,"15":2335,"kort":2336,"mere":2337,"innan":2338,"vilket":2339,"lever":2340,"##akt":2341,"egen":2342,"inform":2343,"stock":2344,"##iner":2345,"##fall":2346,"ner":2347,"##olog":2348,"##før":2349,"jul":2350,"hver":2351,"##van":2352,"lø":2353,"bak":2354,"##alen":2355,"##ata":2356,"godt":2357,"ste":2358,"12":2359,"tag":2360,"besk":2361,"dess":2362,"##nad":2363,"etter":2364,"##nen":2365,"##ha":2366,"annat":2367,"##stand":2368,"##gram":2369,"##empel":2370,"ca":2371,"em":2372,"stockholm":2373,"##orna":2374,"##ten":2375,"ligger":2376,"alltid":2377,"kontakt":2378,"fam":2379,"##orde":2380,"dis":2381,"##giv":2382,"nam":2383,"##rekt":2384,"##istor":2385,"sammen":2386,"ek":2387,"problem":2388,"porr":2389,"##tra":2390,"##iva":2391,"vel":2392,"##ial":2393,"tiden":2394,"batt":2395,"bro":2396,"##iet":2397,"##ationer":2398,"stora":2399,"sh":2400,"##nem":2401,"ev":2402,"fall":2403,"##iser":2404,"basta":2405,"tror":2406,"##ran":2407,"kro":2408,"##ator":2409,"bør":2410,"massage":2411,"##esta":2412,"speci":2413,"behover":2414,"##sv":2415,"##aka":2416,"go":2417,"lok":2418,"kall":2419,"kvinn":2420,"##unt":2421,"##sson":2422,"##oj":2423,"sina":2424,"aldr":2425,"##med":2426,"sager":2427,"lu":2428,"ger":2429,"tek":2430,"tilb":2431,"porn":2432,"##skar":2433,"##heten":2434,"behand":2435,"ge":2436,"kost":2437,"ban":2438,"koll":2439,"svenska":2440,"styr":2441,"flere":2442,"mindre":2443,"##anden":2444,"bad":2445,"sik":2446,"##di":2447,"varje":2448,"vart":2449,"kunna":2450,"pre":2451,"##igare":2452,"folk":2453,"eftersom":2454,"##rakt":2455,"byg":2456,"##ander":2457,"ville":2458,"##gt":2459,"medlem":2460,"we":2461,"skriv":2462,"##cent":2463,"##lighed":2464,"##mal":2465,"bare":2466,"kval":2467,"##sn":2468,"##slag":2469,"blog":2470,"esc":2471,"mus":2472,"stall":2473,"##par":2474,"mil":2475,"onl":2476,"tjej":2477,"##ffekt":2478,"polit":2479,"aldrig":2480,"##ard":2481,"fant":2482,"vores":2483,"##jud":2484,"føl":2485,"bort":2486,"##ester":2487,"##æk":2488,"30":2489,"##sh":2490,"samma":2491,"varl":2492,"##ition":2493,"##rade":2494,"komp":2495,"ret":2496,"gick":2497,"off":2498,"gjort":2499,"tog":2500,"##utt":2501,"##oker":2502,"##unkt":2503,"##vær":2504,"##arbet":2505,"utveck":2506,"org":2507,"dating":2508,"hopp":2509,"##ve":2510,"11":2511,"konst":2512,"sak":2513,"valdigt":2514,"bliver":2515,"samtid":2516,"havde":2517,"##red":2518,"##bild":2519,"hor":2520,"latt":2521,"riktigt":2522,"##ipp":2523,"##fin":2524,"hjem":2525,"##ian":2526,"pass":2527,"sma":2528,"flera":2529,"nye":2530,"##ert":2531,"##kv":2532,"mannisk":2533,"##elle":2534,"##kring":2535,"stort":2536,"fi":2537,"##uter":2538,"deres":2539,"full":2540,"ra":2541,"ele":2542,"forv":2543,"sist":2544,"hele":2545,"tycker":2546,"intr":2547,"art":2548,"trad":2549,"hvad":2550,"##tag":2551,"mis":2552,"milj":2553,"bilder":2554,"##dens":2555,"##ob":2556,"com":2557,"tor":2558,"have":2559,"online":2560,"eng":2561,"lo":2562,"app":2563,"##anska":2564,"start":2565,"##ubb":2566,"dock":2567,"snabb":2568,"part":2569,"##skil":2570,"result":2571,"information":2572,"##øg":2573,"##konom":2574,"##ct":2575,"##ratt":2576,"galler":2577,"##delse":2578,"kunde":2579,"##heter":2580,"gener":2581,"foretag":2582,"escort":2583,"##iten":2584,"##las":2585,"##yt":2586,"rel":2587,"co":2588,"##iken":2589,"lov":2590,"stat":2591,"##radet":2592,"is":2593,"##rift":2594,"##etter":2595,"mina":2596,"enkelt":2597,"battre":2598,"gjorde":2599,"mø":2600,"##upp":2601,"##under":2602,"##orter":2603,"histor":2604,"noget":2605,"enligt":2606,"første":2607,"##ordan":2608,"tel":2609,"##iker":2610,"inv":2611,"tha":2612,"ditt":2613,"eks":2614,"##rev":2615,"##lut":2616,"nytt":2617,"##unn":2618,"sta":2619,"##olig":2620,"##river":2621,"17":2622,"##berg":2623,"##skol":2624,"##lagg":2625,"##gifter":2626,"##ars":2627,"pres":2628,"dagen":2629,"soci":2630,"##anis":2631,"verkligen":2632,"film":2633,"16":2634,"##samm":2635,"stør":2636,"rek":2637,"##ellt":2638,"langt":2639,"##istr":2640,"kvar":2641,"fortsatt":2642,"inst":2643,"##stad":2644,"sadan":2645,"##ind":2646,"##ksom":2647,"tim":2648,"leg":2649,"bygg":2650,"##ice":2651,"##øj":2652,"##pen":2653,"øn":2654,"##oka":2655,"effekt":2656,"mas":2657,"grupp":2658,"komma":2659,"post":2660,"ren":2661,"##andet":2662,"krav":2663,"hvordan":2664,"##orer":2665,"store":2666,"klar":2667,"ben":2668,"14":2669,"aktiv":2670,"tekn":2671,"##atte":2672,"erb":2673,"##ina":2674,"tillb":2675,"kron":2676,"svart":2677,"anda":2678,"##spl":2679,"jam":2680,"##nade":2681,"##nat":2682,"ag":2683,"uden":2684,"my":2685,"haft":2686,"##aler":2687,"tack":2688,"##lingen":2689,"##arbej":2690,"skall":2691,"os":2692,"bi":2693,"stod":2694,"sit":2695,"direkt":2696,"##mel":2697,"bel":2698,"rum":2699,"##vag":2700,"stu":2701,"ung":2702,"sc":2703,"##ite":2704,"nord":2705,"derfor":2706,"runt":2707,"##rik":2708,"##fer":2709,"##ioner":2710,"forl":2711,"noen":2712,"##dagen":2713,"fler":2714,"pu":2715,"kat":2716,"##ære":2717,"kur":2718,"##ationen":2719,"siden":2720,"exempel":2721,"##orgon":2722,"##sel":2723,"program":2724,"kvinnor":2725,"redan":2726,"lev":2727,"##dere":2728,"personer":2729,"ov":2730,"disse":2731,"lam":2732,"nett":2733,"ansvar":2734,"met":2735,"##øm":2736,"##hav":2737,"##vud":2738,"##edet":2739,"lat":2740,"deras":2741,"svensk":2742,"##styr":2743,"100":2744,"int":2745,"manniskor":2746,"ba":2747,"ven":2748,"13":2749,"euro":2750,"##iter":2751,"mon":2752,"##adde":2753,"##sammans":2754,"resultat":2755,"tidigare":2756,"fem":2757,"fred":2758,"po":2759,"tillsammans":2760,"via":2761,"dit":2762,"##dent":2763,"##ift":2764,"hvil":2765,"##cis":2766,"##ingar":2767,"as":2768,"##slut":2769,"ener":2770,"##mo":2771,"##spro":2772,"annan":2773,"fantast":2774,"##ung":2775,"##iller":2776,"lidt":2777,"hitta":2778,"##sfor":2779,"projekt":2780,"##æt":2781,"##ionen":2782,"##rar":2783,"pas":2784,"##efon":2785,"beslut":2786,"##beid":2787,"dina":2788,"##andel":2789,"ok":2790,"video":2791,"vand":2792,"kult":2793,"##gor":2794,"san":2795,"kvalitet":2796,"##oligt":2797,"##fol":2798,"lav":2799,"##bel":2800,"sar":2801,"ne":2802,"bety":2803,"sjuk":2804,"kropp":2805,"##kes":2806,"##ip":2807,"##asin":2808,"hjalp":2809,"##yra":2810,"##sat":2811,"##ges":2812,"##uld":2813,"stra":2814,"##ren":2815,"disk":2816,"25":2817,"##uss":2818,"lige":2819,"glad":2820,"pat":2821,"darfor":2822,"webb":2823,"##tte":2824,"typ":2825,"fre":2826,"nogle":2827,"ob":2828,"tillbaka":2829,"mand":2830,"tem":2831,"son":2832,"beratt":2833,"##reg":2834,"ute":2835,"##illa":2836,"plats":2837,"infor":2838,"dam":2839,"ide":2840,"##bart":2841,"køb":2842,"betal":2843,"gennem":2844,"honom":2845,"##tern":2846,"mid":2847,"tjan":2848,"huvud":2849,"ih":2850,"##still":2851,"##bru":2852,"liten":2853,"næ":2854,"##gende":2855,"kvall":2856,"kna":2857,"##orn":2858,"##føl":2859,"##raf":2860,"stand":2861,"lyck":2862,"hemma":2863,"do":2864,"traff":2865,"system":2866,"##res":2867,"stud":2868,"funger":2869,"##fekt":2870,"##ukt":2871,"samme":2872,"vej":2873,"dra":2874,"sov":2875,"##xt":2876,"nær":2877,"mojlighet":2878,"henne":2879,"##vid":2880,"##anger":2881,"##skab":2882,"50":2883,"lange":2884,"noe":2885,"verksam":2886,"hadde":2887,"halv":2888,"##let":2889,"ars":2890,"##okus":2891,"##of":2892,"##læg":2893,"høj":2894,"000":2895,"kul":2896,"titt":2897,"gre":2898,"anal":2899,"danmark":2900,"været":2901,"match":2902,"antal":2903,"bas":2904,"hund":2905,"ofta":2906,"##ies":2907,"saga":2908,"##aster":2909,"unders":2910,"##rak":2911,"nok":2912,"##ivt":2913,"##bland":2914,"rund":2915,"lika":2916,"##sade":2917,"ak":2918,"priv":2919,"varm":2920,"menne":2921,"gav":2922,"dessutom":2923,"dej":2924,"##ald":2925,"mater":2926,"##one":2927,"flytt":2928,"##kur":2929,"faktiskt":2930,"fan":2931,"jan":2932,"##amma":2933,"serv":2934,"mag":2935,"hov":2936,"##ellige":2937,"bild":2938,"##erat":2939,"##rat":2940,"##lek":2941,"bid":2942,"kanner":2943,"00":2944,"##æng":2945,"cent":2946,"erfar":2947,"nast":2948,"tjejer":2949,"##ads":2950,"egent":2951,"litt":2952,"ul":2953,"mobil":2954,"fokus":2955,"##klar":2956,"##jan":2957,"pla":2958,"##anter":2959,"##ummer":2960,"kultur":2961,"foren":2962,"##kor":2963,"super":2964,"kø":2965,"##esser":2966,"snart":2967,"viktig":2968,"joh":2969,"##esten":2970,"anvanda":2971,"##leg":2972,"heller":2973,"vatten":2974,"##ate":2975,"ror":2976,"pos":2977,"##stra":2978,"fel":2979,"precis":2980,"dal":2981,"blive":2982,"rak":2983,"##ivet":2984,"##lad":2985,"kanns":2986,"funktion":2987,"##up":2988,"##gift":2989,"gjenn":2990,"kap":2991,"kal":2992,"unge":2993,"inden":2994,"gjennom":2995,"##kop":2996,"##sf":2997,"##ember":2998,"dog":2999,"sett":3000,"##bol":3001,"##ron":3002,"ter":3003,"mellem":3004,"yo":3005,"desig":3006,"famil":3007,"##smal":3008,"telefon":3009,"vack":3010,"insp":3011,"gote":3012,"ang":3013,"##omm":3014,"kamp":3015,"pengar":3016,"sikker":3017,"organis":3018,"##illar":3019,"finans":3020,"krist":3021,"ho":3022,"##vand":3023,"##otell":3024,"##icka":3025,"##ban":3026,"##sdag":3027,"lad":3028,"goteborg":3029,"##kan":3030,"produkt":3031,"spør":3032,"##ond":3033,"bliv":3034,"hennes":3035,"intern":3036,"dk":3037,"##saker":3038,"nov":3039,"ganska":3040,"##drag":3041,"kraft":3042,"##pet":3043,"aret":3044,"norge":3045,"samtidigt":3046,"##jar":3047,"##sattning":3048,"gu":3049,"inget":3050,"namn":3051,"##ons":3052,"##bud":3053,"##iss":3054,"##ligere":3055,"moder":3056,"##dende":3057,"fordel":3058,"musik":3059,"gør":3060,"dagar":3061,"tot":3062,"##cept":3063,"bag":3064,"ps":3065,"##sch":3066,"kontro":3067,"##ystem":3068,"but":3069,"kred":3070,"livet":3071,"sæ":3072,"knull":3073,"##æll":3074,"hin":3075,"hjæl":3076,"dy":3077,"##grupp":3078,"klart":3079,"sommar":3080,"sw":3081,"fø":3082,"und":3083,"klass":3084,"##ksomhed":3085,"utbild":3086,"pri":3087,"pop":3088,"##ins":3089,"ap":3090,"mode":3091,"##stallet":3092,"kopa":3093,"##erar":3094,"aldre":3095,"utfor":3096,"rigt":3097,"ting":3098,"varfor":3099,"##dar":3100,"publ":3101,"cy":3102,"storre":3103,"##ras":3104,"##naden":3105,"langre":3106,"fri":3107,"nastan":3108,"vilken":3109,"##bro":3110,"event":3111,"extra":3112,"gud":3113,"##edel":3114,"##ænd":3115,"##iden":3116,"borjar":3117,"hoppas":3118,"##rag":3119,"##iger":3120,"##jor":3121,"træ":3122,"helst":3123,"gode":3124,"vax":3125,"spr":3126,"alltsa":3127,"omkring":3128,"##ument":3129,"##alla":3130,"##ogen":3131,"bek":3132,"fordi":3133,"rom":3134,"produkter":3135,"side":3136,"hotell":3137,"##sin":3138,"vissa":3139,"perfekt":3140,"##gere":3141,"##tem":3142,"##erade":3143,"tom":3144,"senaste":3145,"ganger":3146,"istallet":3147,"behandling":3148,"##lys":3149,"ram":3150,"##vin":3151,"artik":3152,"annu":3153,"##jur":3154,"##ternativ":3155,"bud":3156,"bred":3157,"tak":3158,"##ital":3159,"begyn":3160,"##nader":3161,"ring":3162,"slag":3163,"bon":3164,"blivit":3165,"procent":3166,"##kelig":3167,"gott":3168,"hot":3169,"fag":3170,"sand":3171,"aktivitet":3172,"nav":3173,"ønsker":3174,"mulighed":3175,"##ært":3176,"##ry":3177,"folj":3178,"2017":3179,"##aga":3180,"vidare":3181,"aller":3182,"##sida":3183,"tillgang":3184,"rapp":3185,"##ivers":3186,"##ise":3187,"kons":3188,"sang":3189,"dansk":3190,"erot":3191,"##ium":3192,"samman":3193,"garna":3194,"skriver":3195,"tav":3196,"##cc":3197,"forhold":3198,"##sikt":3199,"##edes":3200,"let":3201,"rev":3202,"##gj":3203,"log":3204,"##ører":3205,"igar":3206,"forskellige":3207,"nem":3208,"##fik":3209,"##spel":3210,"kam":3211,"##ograf":3212,"##farande":3213,"ibland":3214,"nasta":3215,"##undet":3216,"deg":3217,"topp":3218,"lak":3219,"udvik":3220,"##eng":3221,"##yndig":3222,"##atter":3223,"test":3224,"vilka":3225,"offent":3226,"199":3227,"minst":3228,"##essen":3229,"##gør":3230,"omfatt":3231,"papp":3232,"##fors":3233,"innebar":3234,"lj":3235,"ens":3236,"skj":3237,"##ike":3238,"elever":3239,"familj":3240,"net":3241,"##ub":3242,"##rukt":3243,"utt":3244,"haller":3245,"borjade":3246,"komme":3247,"##plat":3248,"sagt":3249,"##dann":3250,"dok":3251,"sjal":3252,"fo":3253,"trots":3254,"uten":3255,"##eringen":3256,"bol":3257,"24":3258,"brug":3259,"##elses":3260,"dejtingsa":3261,"registr":3262,"##ny":3263,"forut":3264,"2018":3265,"prakt":3266,"##hor":3267,"ekonom":3268,"sarskil":3269,"andet":3270,"##ux":3271,"gamla":3272,"lagen":3273,"##ledning":3274,"hast":3275,"fik":3276,"dine":3277,"21":3278,"bost":3279,"##dater":3280,"sista":3281,"luft":3282,"car":3283,"##eret":3284,"##als":3285,"visar":3286,"jun":3287,"data":3288,"senare":3289,"arbeid":3290,"sitter":3291,"##sak":3292,"prø":3293,"ytter":3294,"fortfarande":3295,"sær":3296,"##juder":3297,"halla":3298,"spar":3299,"hoved":3300,"thai":3301,"anden":3302,"kol":3303,"sch":3304,"##kning":3305,"##øy":3306,"hende":3307,"børn":3308,"blogg":3309,"##iz":3310,"##ræ":3311,"fore":3312,"##cka":3313,"ko":3314,"free":3315,"vant":3316,"##nam":3317,"40":3318,"alternativ":3319,"vare":3320,"##raft":3321,"gøre":3322,"##band":3323,"enda":3324,"##ure":3325,"##plan":3326,"##ydd":3327,"rik":3328,"forand":3329,"hittar":3330,"bedre":3331,"##nads":3332,"##alj":3333,"ungdom":3334,"enn":3335,"##rett":3336,"22":3337,"lille":3338,"præ":3339,"##end":3340,"bal":3341,"##int":3342,"endast":3343,"esk":3344,"##ffe":3345,"univers":3346,"inga":3347,"porno":3348,"##ue":3349,"list":3350,"##joner":3351,"kunder":3352,"gjør":3353,"energi":3354,"rett":3355,"##he":3356,"popul":3357,"mens":3358,"vært":3359,"besok":3360,"lasa":3361,"##its":3362,"##lø":3363,"bev":3364,"##erad":3365,"##esse":3366,"##amm":3367,"kjø":3368,"sing":3369,"##aden":3370,"mamma":3371,"giver":3372,"##uren":3373,"risk":3374,"gir":3375,"framfor":3376,"tips":3377,"handel":3378,"##ko":3379,"##set":3380,"resp":3381,"##bor":3382,"omradet":3383,"##tera":3384,"##drar":3385,"skar":3386,"rundt":3387,"gangen":3388,"dro":3389,"kredit":3390,"##ocker":3391,"situ":3392,"fint":3393,"##handling":3394,"gatt":3395,"aren":3396,"##omen":3397,"nr":3398,"knapp":3399,"fer":3400,"fly":3401,"casin":3402,"##inn":3403,"##af":3404,"virksomhed":3405,"##ateg":3406,"##bin":3407,"##pas":3408,"##sett":3409,"danske":3410,"ander":3411,"natt":3412,"inde":3413,"inkl":3414,"##ank":3415,"fragor":3416,"fal":3417,"ofte":3418,"væl":3419,"hva":3420,"##jo":3421,"nej":3422,"inspir":3423,"vol":3424,"ihop":3425,"alder":3426,"erbjud":3427,"##ække":3428,"fisk":3429,"anvander":3430,"samhall":3431,"altid":3432,"lek":3433,"bast":3434,"##lam":3435,"##vs":3436,"##sport":3437,"mye":3438,"kansl":3439,"psyk":3440,"##ity":3441,"spela":3442,"##unden":3443,"soker":3444,"##entet":3445,"##spunkt":3446,"finde":3447,"##hj":3448,"fod":3449,"##ht":3450,"verden":3451,"sim":3452,"sund":3453,"##fri":3454,"rej":3455,"hy":3456,"##vard":3457,"kok":3458,"visa":3459,"pros":3460,"tyd":3461,"##ligare":3462,"host":3463,"##otter":3464,"##bara":3465,"ovr":3466,"grad":3467,"les":3468,"##gjen":3469,"jord":3470,"##estaur":3471,"##hver":3472,"flyg":3473,"tilf":3474,"##ansk":3475,"sine":3476,"storsta":3477,"social":3478,"prof":3479,"fav":3480,"##isen":3481,"##aten":3482,"mojligt":3483,"##arer":3484,"stan":3485,"##sst":3486,"ton":3487,"restaur":3488,"stø":3489,"slapp":3490,"trev":3491,"2016":3492,"si":3493,"regler":3494,"nak":3495,"sek":3496,"los":3497,"##gav":3498,"##sæ":3499,"snabbt":3500,"it":3501,"skr":3502,"2015":3503,"vard":3504,"##ighed":3505,"##ong":3506,"service":3507,"bry":3508,"posit":3509,"##ror":3510,"borja":3511,"##ph":3512,"betyder":3513,"jer":3514,"borde":3515,"fina":3516,"##nt":3517,"##raden":3518,"først":3519,"material":3520,"roll":3521,"mennesker":3522,"tanker":3523,"maj":3524,"##ari":3525,"web":3526,"##gte":3527,"matt":3528,"##vej":3529,"eget":3530,"sidan":3531,"##rader":3532,"timmar":3533,"internet":3534,"##skin":3535,"##ender":3536,"lær":3537,"usa":3538,"set":3539,"dyr":3540,"##uta":3541,"blevet":3542,"##ham":3543,"sjalva":3544,"gol":3545,"slik":3546,"farg":3547,"fyll":3548,"##spr":3549,"gro":3550,"##bygg":3551,"##ommen":3552,"##svar":3553,"##aa":3554,"flesta":3555,"##skriv":3556,"fyra":3557,"fys":3558,"haha":3559,"varlden":3560,"##ly":3561,"amer":3562,"plat":3563,"sem":3564,"##sol":3565,"tills":3566,"##gre":3567,"høy":3568,"morgon":3569,"egentligen":3570,"verksamhet":3571,"##alog":3572,"##dejting":3573,"##sted":3574,"##star":3575,"##ral":3576,"##øde":3577,"viktigt":3578,"skolan":3579,"##klart":3580,"##full":3581,"lokal":3582,"gillar":3583,"handlar":3584,"tidligere":3585,"##lade":3586,"stol":3587,"tred":3588,"sport":3589,"tank":3590,"konkur":3591,"vecka":3592,"##oc":3593,"sil":3594,"arr":3595,"##nande":3596,"gem":3597,"skad":3598,"##slo":3599,"klubb":3600,"##lin":3601,"##film":3602,"##au":3603,"landet":3604,"nation":3605,"vanligt":3606,"##nu":3607,"##ay":3608,"##ers":3609,"blod":3610,"framtid":3611,"stark":3612,"vok":3613,"ry":3614,"arbete":3615,"##ikker":3616,"vigt":3617,"skapa":3618,"##anda":3619,"jamfor":3620,"23":3621,"minuter":3622,"##kort":3623,"##mes":3624,"nara":3625,"favor":3626,"forslag":3627,"læn":3628,"dec":3629,"tæn":3630,"skriva":3631,"indiv":3632,"lug":3633,"##ension":3634,"##ich":3635,"vak":3636,"##mor":3637,"##so":3638,"lilla":3639,"dags":3640,"##itut":3641,"bada":3642,"##lan":3643,"privat":3644,"egna":3645,"sker":3646,"stil":3647,"leder":3648,"skyl":3649,"ljus":3650,"arbejde":3651,"engel":3652,"hej":3653,"ej":3654,"opt":3655,"mel":3656,"gerne":3657,"aug":3658,"mm":3659,"me":3660,"##delig":3661,"made":3662,"sted":3663,"##ifran":3664,"sverig":3665,"natet":3666,"##æv":3667,"##snitt":3668,"##sag":3669,"ovan":3670,"##igheter":3671,"fikk":3672,"internation":3673,"##anske":3674,"2014":3675,"sep":3676,"eventu":3677,"##anser":3678,"forbin":3679,"tilbage":3680,"beskriv":3681,"valja":3682,"okt":3683,"juni":3684,"##lever":3685,"bu":3686,"##til":3687,"chr":3688,"smak":3689,"arbets":3690,"fest":3691,"brukar":3692,"gjøre":3693,"kvinder":3694,"##rikt":3695,"veckan":3696,"##lat":3697,"tu":3698,"cm":3699,"videre":3700,"aka":3701,"jon":3702,"alskar":3703,"rost":3704,"##gard":3705,"kir":3706,"emot":3707,"hurt":3708,"apr":3709,"##eln":3710,"##rig":3711,"nød":3712,"lagga":3713,"design":3714,"vit":3715,"maske":3716,"##haller":3717,"##lo":3718,"##ib":3719,"##spekt":3720,"sym":3721,"kara":3722,"cir":3723,"rod":3724,"##otek":3725,"norm":3726,"him":3727,"bestem":3728,"viser":3729,"medan":3730,"massa":3731,"kroppen":3732,"##eras":3733,"##len":3734,"hard":3735,"fas":3736,"inf":3737,"fraga":3738,"##use":3739,"##alet":3740,"ac":3741,"##lex":3742,"vur":3743,"recept":3744,"proc":3745,"dagens":3746,"kring":3747,"malmo":3748,"##oder":3749,"##xx":3750,"sida":3751,"større":3752,"##ansen":3753,"sok":3754,"vanlig":3755,"bedste":3756,"pe":3757,"eta":3758,"verkar":3759,"skick":3760,"##visning":3761,"fredag":3762,"mad":3763,"valkom":3764,"##kta":3765,"##ensen":3766,"forh":3767,"##byg":3768,"samarbet":3769,"natdejting":3770,"##endel":3771,"sidste":3772,"kopp":3773,"utveckling":3774,"prov":3775,"deb":3776,"betyd":3777,"dejta":3778,"tage":3779,"##annande":3780,"kompl":3781,"kompet":3782,"gym":3783,"ing":3784,"sat":3785,"##rer":3786,"##sakring":3787,"dod":3788,"60":3789,"##anga":3790,"erbjuder":3791,"##kker":3792,"port":3793,"##ygt":3794,"##ksjon":3795,"##hl":3796,"##ona":3797,"roligt":3798,"last":3799,"ifr":3800,"bank":3801,"narm":3802,"##mid":3803,"##lla":3804,"matte":3805,"delt":3806,"##ix":3807,"##fe":3808,"##ots":3809,"intress":3810,"tanka":3811,"komment":3812,"lor":3813,"perio":3814,"##ession":3815,"alls":3816,"##samma":3817,"##ida":3818,"##po":3819,"##enskap":3820,"##syn":3821,"forel":3822,"ses":3823,"##plats":3824,"fantastisk":3825,"kronor":3826,"id":3827,"delar":3828,"fe":3829,"install":3830,"bus":3831,"hander":3832,"##book":3833,"borjan":3834,"##part":3835,"trott":3836,"vem":3837,"sall":3838,"talet":3839,"deltag":3840,"annon":3841,"passar":3842,"oplev":3843,"##egor":3844,"elekt":3845,"##andra":3846,"##betal":3847,"respekt":3848,"##ish":3849,"##oter":3850,"##bok":3851,"yn":3852,"##enhav":3853,"##grund":3854,"jatt":3855,"##huset":3856,"sør":3857,"date":3858,"universitet":3859,"##ient":3860,"##verket":3861,"##vir":3862,"vux":3863,"virkelig":3864,"##ologi":3865,"sten":3866,"##ca":3867,"æn":3868,"lagt":3869,"sla":3870,"vanner":3871,"fanns":3872,"siger":3873,"casino":3874,"kil":3875,"##ført":3876,"##nal":3877,"ten":3878,"tillfall":3879,"erfaren":3880,"mj":3881,"##agg":3882,"ph":3883,"##enser":3884,"arets":3885,"##ytte":3886,"fon":3887,"##deles":3888,"##pon":3889,"##llen":3890,"sveriges":3891,"vinter":3892,"repr":3893,"foral":3894,"feb":3895,"billig":3896,"ark":3897,"meter":3898,"forra":3899,"kre":3900,"##stid":3901,"samtidig":3902,"##off":3903,"##elige":3904,"bestam":3905,"##dte":3906,"mellom":3907,"bilen":3908,"##sidor":3909,"mail":3910,"stadig":3911,"aktu":3912,"##pan":3913,"##les":3914,"##oms":3915,"jobbet":3916,"pal":3917,"sort":3918,"hum":3919,"glas":3920,"2013":3921,"region":3922,"filmer":3923,"##sper":3924,"københav":3925,"ogon":3926,"kommunen":3927,"kanna":3928,"##holder":3929,"rigtig":3930,"forfatt":3931,"djur":3932,"##produ":3933,"face":3934,"sarskilt":3935,"utanfor":3936,"##koping":3937,"##dering":3938,"##revet":3939,"bruger":3940,"ford":3941,"motor":3942,"ske":3943,"max":3944,"lun":3945,"arbejd":3946,"bestar":3947,"##imer":3948,"eksempel":3949,"kommit":3950,"myndig":3951,"##derar":3952,"tren":3953,"ww":3954,"manader":3955,"spill":3956,"absol":3957,"karl":3958,"kvinna":3959,"##splan":3960,"øv":3961,"cl":3962,"ata":3963,"regel":3964,"##bord":3965,"##port":3966,"##bas":3967,"##co":3968,"vagen":3969,"økonom":3970,"løs":3971,"hjalpa":3972,"invest":3973,"indust":3974,"avtal":3975,"bur":3976,"##ash":3977,"regn":3978,"hvert":3979,"##atta":3980,"##ild":3981,"##skaper":3982,"prat":3983,"##ement":3984,"synes":3985,"ris":3986,"##iel":3987,"##kn":3988,"bla":3989,"dere":3990,"##ega":3991,"mine":3992,"klas":3993,"26":3994,"skill":3995,"##stre":3996,"janu":3997,"stam":3998,"norr":3999,"##fa":4000,"##eds":4001,"rekommen":4002,"##ober":4003,"godk":4004,"sommer":4005,"krit":4006,"amerik":4007,"allerede":4008,"tredje":4009,"sakerhet":4010,"tjen":4011,"##atet":4012,"frit":4013,"##ikation":4014,"##assage":4015,"samtal":4016,"etabl":4017,"give":4018,"##sd":4019,"igang":4020,"gamle":4021,"smart":4022,"forstar":4023,"varme":4024,"presenter":4025,"bruge":4026,"pot":4027,"kyr":4028,"ass":4029,"uddann":4030,"skont":4031,"avslut":4032,"28":4033,"##komm":4034,"stopp":4035,"forsvar":4036,"genomfor":4037,"yr":4038,"tol":4039,"klock":4040,"igjen":4041,"ve":4042,"forskning":4043,"##ode":4044,"##atur":4045,"johan":4046,"søn":4047,"##ativt":4048,"27":4049,"##dera":4050,"nogen":4051,"forklar":4052,"##icin":4053,"con":4054,"gi":4055,"akte":4056,"www":4057,"##dags":4058,"hvilket":4059,"laget":4060,"##stol":4061,"huset":4062,"##tre":4063,"fj":4064,"##ink":4065,"##ningarna":4066,"affar":4067,"##skapet":4068,"utvik":4069,"##sj":4070,"##jter":4071,"unga":4072,"##emot":4073,"omrade":4074,"##agt":4075,"##oende":4076,"kolla":4077,"spørg":4078,"##olit":4079,"varandra":4080,"miljo":4081,"utr":4082,"tradition":4083,"lej":4084,"forbindelse":4085,"taget":4086,"##anta":4087,"bord":4088,"bruk":4089,"##rack":4090,"bolig":4091,"##skan":4092,"veta":4093,"innehall":4094,"wh":4095,"faktisk":4096,"tankte":4097,"tagit":4098,"##bef":4099,"eskort":4100,"arbetar":4101,"##edag":4102,"anstall":4103,"skrev":4104,"fjer":4105,"special":4106,"##oo":4107,"boken":4108,"facebook":4109,"igenom":4110,"tri":4111,"imorgon":4112,"allman":4113,"septem":4114,"dokument":4115,"syg":4116,"veckor":4117,"gul":4118,"noj":4119,"tryck":4120,"september":4121,"annars":4122,"##fte":4123,"norsk":4124,"##her":4125,"##ienter":4126,"oslo":4127,"##back":4128,"sakert":4129,"real":4130,"traning":4131,"still":4132,"driv":4133,"mart":4134,"2012":4135,"barnet":4136,"ytterligare":4137,"august":4138,"##sad":4139,"new":4140,"server":4141,"##sav":4142,"interv":4143,"lyss":4144,"stk":4145,"elev":4146,"##oren":4147,"holl":4148,"##aljer":4149,"##ab":4150,"ru":4151,"titta":4152,"svært":4153,"mit":4154,"dor":4155,"hud":4156,"upplev":4157,"##dene":4158,"altsa":4159,"##ktioner":4160,"tysk":4161,"##kost":4162,"stund":4163,"satta":4164,"april":4165,"enkl":4166,"profil":4167,"blandt":4168,"##arn":4169,"vann":4170,"mak":4171,"rent":4172,"otr":4173,"fores":4174,"fix":4175,"meddel":4176,"forsoka":4177,"passer":4178,"##ses":4179,"##inst":4180,"##varr":4181,"november":4182,"syd":4183,"##rav":4184,"##samt":4185,"##foren":4186,"oktober":4187,"barnen":4188,"kund":4189,"##øk":4190,"manad":4191,"##ore":4192,"##boll":4193,"od":4194,"##satte":4195,"##lagt":4196,"##legg":4197,"liksom":4198,"annet":4199,"##sket":4200,"utbildning":4201,"fir":4202,"teg":4203,"visst":4204,"spørgsmal":4205,"nj":4206,"defin":4207,"##pass":4208,"klader":4209,"##atisk":4210,"inlagg":4211,"holde":4212,"##50":4213,"fyl":4214,"##inde":4215,"skil":4216,"can":4217,"bruker":4218,"##isering":4219,"grunn":4220,"kunskap":4221,"autom":4222,"tyvarr":4223,"christ":4224,"km":4225,"##iteten":4226,"sur":4227,"span":4228,"##ita":4229,"nødven":4230,"##slaget":4231,"29":4232,"##frag":4233,"##za":4234,"##gelig":4235,"back":4236,"fungerar":4237,"europa":4238,"##ruktur":4239,"ekstra":4240,"mill":4241,"ir":4242,"hold":4243,"saledes":4244,"medel":4245,"##utter":4246,"mind":4247,"varde":4248,"damer":4249,"steg":4250,"##gaende":4251,"sent":4252,"trafik":4253,"skap":4254,"prin":4255,"krig":4256,"##chen":4257,"niva":4258,"betala":4259,"kommune":4260,"totalt":4261,"anvands":4262,"##agra":4263,"spiller":4264,"oper":4265,"kategor":4266,"resten":4267,"veg":4268,"tit":4269,"norske":4270,"##eden":4271,"oav":4272,"bj":4273,"198":4274,"spelar":4275,"##lund":4276,"##kr":4277,"##mon":4278,"fro":4279,"lon":4280,"heter":4281,"hom":4282,"ras":4283,"##isten":4284,"anbef":4285,"filmen":4286,"hjel":4287,"bakom":4288,"sad":4289,"drift":4290,"mænd":4291,"kart":4292,"##ette":4293,"dist":4294,"nedan":4295,"##kk":4296,"qu":4297,"tus":4298,"lamp":4299,"adr":4300,"ifran":4301,"##angen":4302,"spannande":4303,"##ikke":4304,"nyt":4305,"tilbud":4306,"foto":4307,"uppgifter":4308,"link":4309,"lara":4310,"priser":4311,"##arbejde":4312,"muligt":4313,"##ias":4314,"innehaller":4315,"##tes":4316,"##iella":4317,"bod":4318,"##ations":4319,"neg":4320,"ident":4321,"##lysninger":4322,"tex":4323,"##sidan":4324,"traffa":4325,"lager":4326,"fleste":4327,"strateg":4328,"##bered":4329,"##kret":4330,"##ælles":4331,"##heder":4332,"##ton":4333,"personal":4334,"sason":4335,"oft":4336,"samf":4337,"vist":4338,"mott":4339,"##qu":4340,"##veck":4341,"##serv":4342,"kunst":4343,"finder":4344,"mys":4345,"skog":4346,"endnu":4347,"##gs":4348,"blom":4349,"helgen":4350,"len":4351,"gæl":4352,"forbatt":4353,"##ligheten":4354,"31":4355,"team":4356,"aktiviteter":4357,"individ":4358,"##ism":4359,"##itter":4360,"##ckt":4361,"##ith":4362,"##dige":4363,"##lands":4364,"##kvall":4365,"##æss":4366,"forandring":4367,"##ange":4368,"forsok":4369,"københavn":4370,"##eligt":4371,"2011":4372,"klipp":4373,"typer":4374,"spring":4375,"energ":4376,"fær":4377,"stem":4378,"later":4379,"##heden":4380,"andel":4381,"##oret":4382,"mulig":4383,"##sex":4384,"##tering":4385,"lys":4386,"##sar":4387,"stedet":4388,"##person":4389,"##staende":4390,"##samling":4391,"utom":4392,"hjælp":4393,"2010":4394,"sant":4395,"grøn":4396,"aut":4397,"##ema":4398,"##atan":4399,"jobba":4400,"##bli":4401,"##dringer":4402,"dejtingsajt":4403,"parker":4404,"kvallen":4405,"række":4406,"hogre":4407,"cykel":4408,"##skade":4409,"vers":4410,"jav":4411,"naturligt":4412,"aker":4413,"skade":4414,"admin":4415,"faet":4416,"bit":4417,"forhall":4418,"analy":4419,"chat":4420,"80":4421,"##samhet":4422,"speciellt":4423,"##komst":4424,"##skud":4425,"##ach":4426,"##tak":4427,"sexiga":4428,"kand":4429,"##blik":4430,"absolut":4431,"knulla":4432,"kontroller":4433,"##kten":4434,"tager":4435,"xxx":4436,"##øger":4437,"##bes":4438,"pan":4439,"rapport":4440,"produktion":4441,"gange":4442,"viagra":4443,"##20":4444,"glom":4445,"hjalper":4446,"timer":4447,"scen":4448,"are":4449,"fig":4450,"sier":4451,"partner":4452,"dire":4453,"handling":4454,"##mere":4455,"##allet":4456,"##uppgifter":4457,"butik":4458,"##orden":4459,"sprak":4460,"##ansvar":4461,"osv":4462,"##rott":4463,"folja":4464,"##egg":4465,"##hov":4466,"fastighet":4467,"rut":4468,"##vist":4469,"rol":4470,"##blad":4471,"##strom":4472,"##ica":4473,"##skad":4474,"##platsen":4475,"miljø":4476,"##endes":4477,"##ben":4478,"##emang":4479,"skatt":4480,"##eta":4481,"##ota":4482,"bestall":4483,"##namn":4484,"valjer":4485,"teck":4486,"70":4487,"brand":4488,"##ding":4489,"arrang":4490,"medicin":4491,"##isa":4492,"##har":4493,"fragan":4494,"normalt":4495,"enkelte":4496,"##skatt":4497,"##ane":4498,"transport":4499,"mær":4500,"forsoker":4501,"punkt":4502,"oavsett":4503,"##ften":4504,"##æm":4505,"valg":4506,"plus":4507,"senere":4508,"##skri":4509,"tun":4510,"kry":4511,"mener":4512,"##umenter":4513,"sty":4514,"berg":4515,"thaim":4516,"500":4517,"##but":4518,"##idler":4519,"ons":4520,"varen":4521,"##ey":4522,"upps":4523,"oppna":4524,"mandag":4525,"industri":4526,"fire":4527,"##ork":4528,"pra":4529,"fart":4530,"public":4531,"##arnas":4532,"##vent":4533,"##ions":4534,"følge":4535,"bilden":4536,"##dring":4537,"tilby":4538,"uppdater":4539,"juli":4540,"##rust":4541,"##ifier":4542,"kombin":4543,"vaster":4544,"fælles":4545,"middag":4546,"##erer":4547,"mog":4548,"kurs":4549,"ungefar":4550,"gemen":4551,"soder":4552,"standard":4553,"ital":4554,"##varande":4555,"tanke":4556,"integr":4557,"mars":4558,"197":4559,"trygg":4560,"pappa":4561,"kontroll":4562,"hit":4563,"tjanster":4564,"text":4565,"givet":4566,"hvorfor":4567,"stre":4568,"gravid":4569,"##sent":4570,"blant":4571,"hjemmes":4572,"fortsatta":4573,"tand":4574,"forutom":4575,"out":4576,"december":4577,"##lle":4578,"supp":4579,"tyckte":4580,"største":4581,"ful":4582,"vast":4583,"##mat":4584,"##sing":4585,"##ugg":4586,"dels":4587,"prem":4588,"htt":4589,"##inar":4590,"erik":4591,"##føre":4592,"forvar":4593,"spes":4594,"45":4595,"læg":4596,"you":4597,"jes":4598,"foretaget":4599,"snygg":4600,"lave":4601,"otroligt":4602,"##san":4603,"resa":4604,"dju":4605,"uppta":4606,"##otten":4607,"skon":4608,"lander":4609,"rab":4610,"dermed":4611,"##iat":4612,"bedom":4613,"nummer":4614,"begge":4615,"goda":4616,"lamna":4617,"febru":4618,"tab":4619,"nemlig":4620,"fyr":4621,"vackra":4622,"90":4623,"detaljer":4624,"##satta":4625,"varldens":4626,"live":4627,"befin":4628,"forek":4629,"##asser":4630,"beror":4631,"guld":4632,"politik":4633,"##ygga":4634,"##uden":4635,"##kont":4636,"effektiv":4637,"##tryk":4638,"##skor":4639,"thaimassage":4640,"dage":4641,"udval":4642,"favorit":4643,"peter":4644,"cam":4645,"nan":4646,"varld":4647,"slags":4648,"##fyl":4649,"ovriga":4650,"##pper":4651,"##øs":4652,"##ningsm":4653,"vanliga":4654,"##gn":4655,"##los":4656,"tavling":4657,"amator":4658,"jobbar":4659,"##okrat":4660,"oster":4661,"vatt":4662,"##tere":4663,"varier":4664,"ivag":4665,"##nytt":4666,"35":4667,"lop":4668,"##ba":4669,"bloggen":4670,"resultatet":4671,"klockan":4672,"kri":4673,"kræ":4674,"finner":4675,"gall":4676,"##mær":4677,"længere":4678,"##sæt":4679,"ingar":4680,"oftast":4681,"##evel":4682,"rapporter":4683,"ljud":4684,"##tet":4685,"begr":4686,"bat":4687,"ed":4688,"stallet":4689,"udvikling":4690,"##kant":4691,"findes":4692,"kaffe":4693,"hjart":4694,"##ola":4695,"sju":4696,"bostad":4697,"sikre":4698,"nod":4699,"dejtingsidor":4700,"##sut":4701,"##unde":4702,"lund":4703,"væk":4704,"##derne":4705,"char":4706,"##isjon":4707,"##verkar":4708,"##sekv":4709,"viss":4710,"anledning":4711,"##igen":4712,"naturlig":4713,"siste":4714,"hør":4715,"bygger":4716,"teknik":4717,"##seende":4718,"dejtingsajter":4719,"##orm":4720,"bem":4721,"varmt":4722,"tillverk":4723,"artikel":4724,"##sigt":4725,"mun":4726,"##skrift":4727,"chef":4728,"vilja":4729,"##ktor":4730,"trak":4731,"##dat":4732,"##uten":4733,"sasom":4734,"bog":4735,"##gas":4736,"arm":4737,"reser":4738,"alldeles":4739,"##asjoner":4740,"forvalt":4741,"##foret":4742,"##ryck":4743,"spelare":4744,"##gene":4745,"cirka":4746,"gik":4747,"##gangen":4748,"arbetet":4749,"##punkt":4750,"malet":4751,"##ante":4752,"kontakta":4753,"midt":4754,"brost":4755,"band":4756,"##ruk":4757,"##ora":4758,"not":4759,"##giver":4760,"##skabet":4761,"massor":4762,"utman":4763,"salt":4764,"søger":4765,"##fyll":4766,"diskuter":4767,"jour":4768,"##arbeid":4769,"laser":4770,"##agare":4771,"dejt":4772,"blitt":4773,"bonus":4774,"arbeta":4775,"##øv":4776,"##agar":4777,"morgen":4778,"skole":4779,"drom":4780,"##garden":4781,"slipp":4782,"2009":4783,"delen":4784,"framst":4785,"forsakring":4786,"##any":4787,"miljoner":4788,"kvinde":4789,"##itu":4790,"behovs":4791,"hens":4792,"marker":4793,"princi":4794,"frisk":4795,"##oven":4796,"##skl":4797,"##skaber":4798,"forbi":4799,"sann":4800,"##mann":4801,"##ista":4802,"##stil":4803,"##unkter":4804,"##arta":4805,"present":4806,"hyr":4807,"##sg":4808,"darmed":4809,"slutet":4810,"projektet":4811,"tilfæl":4812,"repres":4813,"forest":4814,"inklu":4815,"fullt":4816,"ager":4817,"administr":4818,"##por":4819,"##delser":4820,"wid":4821,"##eren":4822,"foljande":4823,"yngre":4824,"informasjon":4825,"relev":4826,"fang":4827,"##gangspunkt":4828,"hvilke":4829,"##eller":4830,"vest":4831,"##ment":4832,"veldig":4833,"kopte":4834,"##iale":4835,"ref":4836,"##isar":4837,"##otte":4838,"##dde":4839,"isl":4840,"natten":4841,"##folk":4842,"hoj":4843,"fruk":4844,"park":4845,"fy":4846,"medier":4847,"centr":4848,"delta":4849,"##cy":4850,"##aret":4851,"frukt":4852,"erhver":4853,"##ativa":4854,"brans":4855,"solen":4856,"profession":4857,"beroende":4858,"##gaver":4859,"intressant":4860,"##allt":4861,"rack":4862,"klok":4863,"##ffa":4864,"##ule":4865,"##lede":4866,"##bler":4867,"anvandas":4868,"flick":4869,"##ific":4870,"dubb":4871,"##skott":4872,"fu":4873,"gron":4874,"##eld":4875,"gammal":4876,"tok":4877,"##ftet":4878,"statist":4879,"piger":4880,"muse":4881,"##fra":4882,"medarbej":4883,"kande":4884,"cook":4885,"samband":4886,"##smark":4887,"semester":4888,"erfarenhet":4889,"exempelvis":4890,"hendes":4891,"##rige":4892,"kravs":4893,"##klader":4894,"torsdag":4895,"top":4896,"namligen":4897,"antligen":4898,"intresser":4899,"##ettet":4900,"dvs":4901,"promen":4902,"##endelse":4903,"sitta":4904,"tw":4905,"vind":4906,"##ssystem":4907,"daremot":4908,"##ake":4909,"alv":4910,"sikkert":4911,"ot":4912,"dare":4913,"konto":4914,"foræl":4915,"##slan":4916,"##givning":4917,"finansier":4918,"menar":4919,"oka":4920,"ansok":4921,"selvføl":4922,"press":4923,"institut":4924,"sige":4925,"uppdrag":4926,"ill":4927,"avl":4928,"frukost":4929,"penge":4930,"##ep":4931,"finne":4932,"helg":4933,"arg":4934,"##ppar":4935,"##ingsl":4936,"tør":4937,"##kast":4938,"prote":4939,"##ii":4940,"overra":4941,"ikvall":4942,"lata":4943,"##redning":4944,"##cke":4945,"##sats":4946,"konsekv":4947,"modt":4948,"prata":4949,"##hen":4950,"fej":4951,"kora":4952,"liknande":4953,"##garder":4954,"##skolan":4955,"sadana":4956,"##dret":4957,"berattar":4958,"vas":4959,"fitt":4960,"temper":4961,"offentlig":4962,"ryg":4963,"seks":4964,"##urer":4965,"##itar":4966,"hurtigt":4967,"anmal":4968,"goog":4969,"plads":4970,"##jarn":4971,"##mm":4972,"gift":4973,"fritid":4974,"hjemme":4975,"direkte":4976,"pension":4977,"##ørende":4978,"##ikring":4979,"lage":4980,"blot":4981,"##cep":4982,"##hæng":4983,"plast":4984,"##ana":4985,"satte":4986,"fuld":4987,"hora":4988,"drag":4989,"reklam":4990,"forvant":4991,"##folj":4992,"bocker":4993,"ganske":4994,"tale":4995,"##bur":4996,"programmet":4997,"navn":4998,"fotboll":4999,"darefter":5000,"glob":5001,"tas":5002,"##enting":5003,"organ":5004,"##oden":5005,"næste":5006,"tio":5007,"##fritt":5008,"mannen":5009,"hittade":5010,"riktig":5011,"ume":5012,"##emal":5013,"spil":5014,"##ance":5015,"gran":5016,"##urs":5017,"##kende":5018,"##add":5019,"##ual":5020,"medlemmer":5021,"##yttet":5022,"##gave":5023,"##rog":5024,"##bu":5025,"##fort":5026,"cit":5027,"dri":5028,"reda":5029,"##ap":5030,"anna":5031,"klicka":5032,"kostnader":5033,"##mera":5034,"triv":5035,"investering":5036,"grader":5037,"serien":5038,"##ementer":5039,"##holde":5040,"avsl":5041,"hotel":5042,"trodde":5043,"sommaren":5044,"kin":5045,"##vel":5046,"placer":5047,"um":5048,"bygga":5049,"italien":5050,"196":5051,"mej":5052,"valj":5053,"lunch":5054,"skul":5055,"2008":5056,"ensam":5057,"##terna":5058,"##ancer":5059,"##skt":5060,"dest":5061,"##ld":5062,"rull":5063,"lagger":5064,"##sattningar":5065,"tatt":5066,"girl":5067,"##remt":5068,"ordent":5069,"##sorg":5070,"langa":5071,"langs":5072,"musk":5073,"vanster":5074,"##inge":5075,"##kken":5076,"personlig":5077,"uppsala":5078,"innen":5079,"hell":5080,"relig":5081,"læs":5082,"finnas":5083,"sjalvklart":5084,"lyst":5085,"sjukdom":5086,"hemsida":5087,"fotograf":5088,"##ologisk":5089,"brott":5090,"##ækker":5091,"viden":5092,"jur":5093,"##ight":5094,"kommunikation":5095,"klim":5096,"skicka":5097,"verkt":5098,"beste":5099,"##holdet":5100,"##ialis":5101,"sova":5102,"slutt":5103,"##følge":5104,"##skydd":5105,"##styrelsen":5106,"billeder":5107,"tillegg":5108,"hed":5109,"købe":5110,"følgende":5111,"##alder":5112,"klara":5113,"personliga":5114,"jack":5115,"selvfølgelig":5116,"##æde":5117,"##nummer":5118,"36":5119,"##zny":5120,"holder":5121,"skrift":5122,"behova":5123,"##ordning":5124,"pap":5125,"gymnas":5126,"##rapp":5127,"maskin":5128,"dla":5129,"plac":5130,"vælge":5131,"tankt":5132,"mik":5133,"##ips":5134,"##ama":5135,"yder":5136,"farger":5137,"##iveau":5138,"dans":5139,"##anych":5140,"##owanych":5141,"##behandling":5142,"zalog":5143,"ingenting":5144,"##oczny":5145,"widoczny":5146,"zalogowanych":5147,"##erte":5148,"allvar":5149,"rim":5150,"maten":5151,"rec":5152,"studen":5153,"poj":5154,"##umm":5155,"ellers":5156,"kast":5157,"nyhet":5158,"sundhed":5159,"skyd":5160,"stress":5161,"##filmer":5162,"familjen":5163,"##iteter":5164,"foljer":5165,"budget":5166,"vigtigt":5167,"forening":5168,"eneste":5169,"##agn":5170,"##ump":5171,"rese":5172,"løn":5173,"##iens":5174,"black":5175,"gay":5176,"##program":5177,"##ative":5178,"##ierna":5179,"alko":5180,"gikk":5181,"##iven":5182,"##eres":5183,"tider":5184,"bidrag":5185,"digit":5186,"snar":5187,"vantar":5188,"medlemmar":5189,"erotisk":5190,"undersok":5191,"sadant":5192,"##forande":5193,"misst":5194,"##skon":5195,"##verka":5196,"up":5197,"helsing":5198,"lordag":5199,"nojd":5200,"ah":5201,"anslut":5202,"hvem":5203,"ep":5204,"kommuner":5205,"entre":5206,"engelska":5207,"forhand":5208,"chok":5209,"vore":5210,"##iod":5211,"##iti":5212,"##rummet":5213,"##verkan":5214,"valkommen":5215,"sms":5216,"##ikken":5217,"historia":5218,"studie":5219,"##platser":5220,"kg":5221,"hart":5222,"##ligheter":5223,"steder":5224,"innov":5225,"##leks":5226,"bruke":5227,"##ands":5228,"hant":5229,"like":5230,"regeringen":5231,"fortsatter":5232,"næsten":5233,"intresse":5234,"sats":5235,"omraden":5236,"je":5237,"##ærer":5238,"foraldrar":5239,"wor":5240,"##bi":5241,"journal":5242,"poang":5243,"forekom":5244,"300":5245,"patient":5246,"##bon":5247,"##elsens":5248,"byen":5249,"kant":5250,"borjat":5251,"nø":5252,"lock":5253,"##kraft":5254,"##stallning":5255,"kram":5256,"ore":5257,"tilbake":5258,"##satser":5259,"shopp":5260,"prova":5261,"forsalj":5262,"foran":5263,"fremtid":5264,"regering":5265,"##pris":5266,"##urser":5267,"størr":5268,"dator":5269,"##iko":5270,"cialis":5271,"dela":5272,"##øver":5273,"kjen":5274,"##dning":5275,"##mun":5276,"stær":5277,"##stor":5278,"aftal":5279,"##hal":5280,"utmar":5281,"##forb":5282,"dejtingsida":5283,"##nit":5284,"marknads":5285,"ont":5286,"videos":5287,"daligt":5288,"samtliga":5289,"infl":5290,"lill":5291,"bibli":5292,"prosjekt":5293,"enskil":5294,"brun":5295,"exper":5296,"##iste":5297,"##stat":5298,"##takter":5299,"hjælpe":5300,"karlek":5301,"frank":5302,"##ssel":5303,"##cen":5304,"handler":5305,"##ved":5306,"tillrack":5307,"skydd":5308,"anders":5309,"##rid":5310,"prior":5311,"sidor":5312,"problemet":5313,"litet":5314,"visade":5315,"stabil":5316,"ken":5317,"##centr":5318,"utifran":5319,"refer":5320,"maneder":5321,"uppe":5322,"ky":5323,"##deling":5324,"uans":5325,"tidigt":5326,"##ovis":5327,"bolag":5328,"masse":5329,"bom":5330,"kollekt":5331,"##assen":5332,"##garna":5333,"centrum":5334,"info":5335,"forbru":5336,"ple":5337,"forbered":5338,"##inister":5339,"alkohol":5340,"spæn":5341,"mask":5342,"familie":5343,"herunder":5344,"minutter":5345,"arbejds":5346,"##ykker":5347,"digital":5348,"##lare":5349,"etc":5350,"platser":5351,"##dem":5352,"spa":5353,"##rup":5354,"tema":5355,"##skje":5356,"accep":5357,"kvinner":5358,"brev":5359,"with":5360,"larare":5361,"penis":5362,"hogt":5363,"skit":5364,"dre":5365,"nyheter":5366,"kør":5367,"uk":5368,"##okt":5369,"tvatt":5370,"mindst":5371,"hang":5372,"egne":5373,"##ena":5374,"gal":5375,"lind":5376,"problemer":5377,"lære":5378,"batter":5379,"##fun":5380,"kapital":5381,"især":5382,"modeller":5383,"voks":5384,"us":5385,"##edd":5386,"##ktionen":5387,"vald":5388,"hotellet":5389,"arbejder":5390,"svara":5391,"umea":5392,"forstas":5393,"##vn":5394,"ald":5395,"gast":5396,"##esp":5397,"motsvar":5398,"patienter":5399,"klin":5400,"##best":5401,"##omradet":5402,"hd":5403,"##enta":5404,"##ting":5405,"hæn":5406,"plock":5407,"##fær":5408,"beratta":5409,"halsa":5410,"ost":5411,"skrive":5412,"##stilling":5413,"##hem":5414,"støtte":5415,"ku":5416,"##uts":5417,"staden":5418,"amb":5419,"##arbete":5420,"sky":5421,"uppmark":5422,"sub":5423,"##aner":5424,"begre":5425,"venner":5426,"##kede":5427,"leva":5428,"##zz":5429,"serie":5430,"lokale":5431,"icke":5432,"nodvand":5433,"##hang":5434,"##mant":5435,"fla":5436,"vurder":5437,"stig":5438,"##sla":5439,"vader":5440,"villkor":5441,"vansk":5442,"##igg":5443,"elektron":5444,"strand":5445,"hamt":5446,"eftermid":5447,"borger":5448,"prøve":5449,"dav":5450,"vent":5451,"01":5452,"time":5453,"##rip":5454,"vari":5455,"framgang":5456,"vardag":5457,"if":5458,"##kendt":5459,"samling":5460,"rolig":5461,"organisation":5462,"gjel":5463,"##fører":5464,"jak":5465,"bevis":5466,"læse":5467,"##anen":5468,"##vart":5469,"gruppen":5470,"igennem":5471,"##æller":5472,"##hu":5473,"##uell":5474,"fored":5475,"##usive":5476,"forskj":5477,"aften":5478,"ulike":5479,"lesb":5480,"kalla":5481,"##lov":5482,"overt":5483,"cookies":5484,"tanken":5485,"##uella":5486,"sondag":5487,"kontor":5488,"##ho":5489,"forn":5490,"kraver":5491,"got":5492,"former":5493,"ax":5494,"anser":5495,"##bruk":5496,"avsnitt":5497,"europe":5498,"konkret":5499,"oplysninger":5500,"jorden":5501,"rid":5502,"32":5503,"ena":5504,"bekv":5505,"saval":5506,"2007":5507,"dalig":5508,"antalet":5509,"##vall":5510,"salg":5511,"kanskje":5512,"elsker":5513,"kroner":5514,"særlig":5515,"sej":5516,"salj":5517,"kommet":5518,"##bilder":5519,"respektive":5520,"januari":5521,"ideer":5522,"exakt":5523,"sor":5524,"underhall":5525,"utveckla":5526,"tyskland":5527,"kak":5528,"sociala":5529,"lavet":5530,"##sor":5531,"##skole":5532,"kuk":5533,"onsdag":5534,"dele":5535,"skøn":5536,"undersøg":5537,"##adem":5538,"allra":5539,"søker":5540,"almin":5541,"##laget":5542,"hoga":5543,"##onen":5544,"##we":5545,"nakna":5546,"gjen":5547,"lade":5548,"##etten":5549,"besø":5550,"##iment":5551,"skola":5552,"sangen":5553,"##ætt":5554,"skabe":5555,"løb":5556,"skapar":5557,"egentlig":5558,"folket":5559,"udfor":5560,"##ase":5561,"ifølge":5562,"samarbete":5563,"samlet":5564,"katt":5565,"##hel":5566,"##janst":5567,"##delige":5568,"historie":5569,"makt":5570,"avgor":5571,"samarbejde":5572,"##smilj":5573,"##ura":5574,"##aterna":5575,"kandes":5576,"##ningsl":5577,"laver":5578,"camp":5579,"##orda":5580,"himla":5581,"##sr":5582,"drog":5583,"avs":5584,"orig":5585,"mogna":5586,"yt":5587,"onskar":5588,"trans":5589,"trevlig":5590,"##inal":5591,"mojligheter":5592,"gard":5593,"selvom":5594,"ene":5595,"lagre":5596,"vitt":5597,"##gruppen":5598,"situation":5599,"lyd":5600,"##bt":5601,"grupper":5602,"mera":5603,"møte":5604,"##cker":5605,"##teck":5606,"hvilken":5607,"33":5608,"ude":5609,"##sken":5610,"##asjonen":5611,"cre":5612,"mening":5613,"stalla":5614,"kata":5615,"barne":5616,"menn":5617,"lars":5618,"##landet":5619,"##ycken":5620,"##øren":5621,"milf":5622,"bestyr":5623,"##dena":5624,"systemet":5625,"ug":5626,"kille":5627,"##inder":5628,"##kommen":5629,"anvandning":5630,"diskuss":5631,"##empl":5632,"stats":5633,"cykl":5634,"##bev":5635,"viktiga":5636,"mol":5637,"undervis":5638,"slar":5639,"##utbild":5640,"##ytter":5641,"job":5642,"toppen":5643,"##ada":5644,"friv":5645,"##ube":5646,"kott":5647,"overv":5648,"##ex":5649,"##ilt":5650,"enten":5651,"tant":5652,"helse":5653,"194":5654,"onsk":5655,"struktur":5656,"don":5657,"platt":5658,"##ire":5659,"ovrigt":5660,"##ielt":5661,"boll":5662,"seri":5663,"senast":5664,"skratt":5665,"tæt":5666,"##ikter":5667,"forum":5668,"lagg":5669,"æl":5670,"##gren":5671,"trevligt":5672,"http":5673,"maned":5674,"soka":5675,"erbjuda":5676,"##delning":5677,"hoger":5678,"fat":5679,"jatte":5680,"##oppet":5681,"kommentar":5682,"studer":5683,"revis":5684,"gammel":5685,"grav":5686,"kem":5687,"netop":5688,"2000":5689,"##gjør":5690,"##ringar":5691,"vise":5692,"bruges":5693,"skor":5694,"##ih":5695,"overfor":5696,"##center":5697,"##oga":5698,"##ppe":5699,"berak":5700,"##phone":5701,"luk":5702,"##istisk":5703,"foreningen":5704,"skillnad":5705,"ster":5706,"stal":5707,"giv":5708,"##nede":5709,"bidra":5710,"finland":5711,"sot":5712,"skam":5713,"google":5714,"##stans":5715,"trana":5716,"drar":5717,"grann":5718,"demokrat":5719,"garanter":5720,"inspiration":5721,"spelet":5722,"pul":5723,"hals":5724,"##ningsvis":5725,"framtiden":5726,"lana":5727,"##imal":5728,"bir":5729,"##jekter":5730,"##igh":5731,"visste":5732,"total":5733,"plots":5734,"nettet":5735,"##oster":5736,"##ction":5737,"intervju":5738,"yrkes":5739,"værd":5740,"kallas":5741,"undervisning":5742,"##jendom":5743,"dusch":5744,"uttryck":5745,"nagonsin":5746,"naken":5747,"##æder":5748,"lattare":5749,"##arder":5750,"##anse":5751,"tum":5752,"##mus":5753,"tube":5754,"omrader":5755,"sno":5756,"mjol":5757,"intro":5758,"##spektiv":5759,"pin":5760,"##sætt":5761,"kansla":5762,"stockholms":5763,"frivill":5764,"##ball":5765,"##sprogram":5766,"straff":5767,"webbplats":5768,"konkurr":5769,"john":5770,"enbart":5771,"will":5772,"stang":5773,"##føres":5774,"fantastiskt":5775,"uppgift":5776,"atgarder":5777,"forbed":5778,"##laggning":5779,"fru":5780,"##kommer":5781,"fork":5782,"skrivit":5783,"spille":5784,"studier":5785,"intens":5786,"ext":5787,"satter":5788,"##ppen":5789,"##our":5790,"##andes":5791,"##delsen":5792,"##ima":5793,"perioden":5794,"sjukt":5795,"boende":5796,"##10":5797,"vacker":5798,"liges":5799,"uppskatt":5800,"kunn":5801,"okar":5802,"lyckas":5803,"bygge":5804,"njuta":5805,"##freds":5806,"verksamheten":5807,"virksomheder":5808,"porrfilm":5809,"##ielle":5810,"general":5811,"vanta":5812,"dum":5813,"utnytt":5814,"08":5815,"alene":5816,"relativt":5817,"fjar":5818,"media":5819,"##ifte":5820,"kas":5821,"##chef":5822,"##sled":5823,"sider":5824,"forvent":5825,"jenter":5826,"##skont":5827,"gælder":5828,"##ctor":5829,"naturen":5830,"##fest":5831,"testa":5832,"##pren":5833,"##teret":5834,"foreb":5835,"analyser":5836,"datum":5837,"##ungen":5838,"saknar":5839,"antag":5840,"##ior":5841,"##terar":5842,"lokala":5843,"##ose":5844,"##fly":5845,"miss":5846,"##rede":5847,"##æring":5848,"tilfælde":5849,"sorter":5850,"servic":5851,"ansikt":5852,"funktioner":5853,"##ile":5854,"adgang":5855,"##ustr":5856,"##edagog":5857,"prioriter":5858,"byta":5859,"##own":5860,"handla":5861,"##ppet":5862,"borta":5863,"##30":5864,"maria":5865,"##vers":5866,"dagarna":5867,"kapit":5868,"besvar":5869,"saken":5870,"laga":5871,"hogsta":5872,"korrekt":5873,"##anten":5874,"konstater":5875,"leverant":5876,"producer":5877,"##una":5878,"lett":5879,"##nare":5880,"dotter":5881,"oppen":5882,"møde":5883,"##ukke":5884,"##utveck":5885,"boka":5886,"arkite":5887,"utmarkt":5888,"saklart":5889,"konfer":5890,"##skrifter":5891,"modell":5892,"##skomm":5893,"##out":5894,"storlek":5895,"drabb":5896,"omsorg":5897,"ip":5898,"2006":5899,"undrar":5900,"##urt":5901,"symbol":5902,"##uer":5903,"##dal":5904,"sum":5905,"fantas":5906,"col":5907,"medvet":5908,"##roll":5909,"augusti":5910,"##ykke":5911,"knappt":5912,"##spar":5913,"stille":5914,"07":5915,"##stæn":5916,"mg":5917,"utover":5918,"##ood":5919,"kommentarer":5920,"verdens":5921,"dø":5922,"34":5923,"potent":5924,"iaf":5925,"følger":5926,"##system":5927,"##ktar":5928,"redu":5929,"##arken":5930,"garant":5931,"tviv":5932,"opmær":5933,"lakem":5934,"##beh":5935,"##dighet":5936,"namnet":5937,"radio":5938,"09":5939,"fx":5940,"##ykk":5941,"idrott":5942,"mult":5943,"vuxna":5944,"##ffer":5945,"hosten":5946,"huden":5947,"oven":5948,"pga":5949,"ejendom":5950,"hjemmeside":5951,"##derna":5952,"paket":5953,"tru":5954,"##xa":5955,"##lunda":5956,"erfaring":5957,"##istan":5958,"afgør":5959,"marknaden":5960,"##snit":5961,"desuden":5962,"vall":5963,"lyssna":5964,"##ledningen":5965,"tankar":5966,"retur":5967,"lagenhet":5968,"75":5969,"mjuk":5970,"##bert":5971,"orebro":5972,"afsl":5973,"alvor":5974,"##ente":5975,"##aterial":5976,"metoder":5977,"##liv":5978,"grill":5979,"##larna":5980,"verktyg":5981,"bilar":5982,"##kj":5983,"forp":5984,"##emat":5985,"nil":5986,"##mod":5987,"##ometer":5988,"sluta":5989,"##erande":5990,"klubben":5991,"historien":5992,"øje":5993,"pavir":5994,"sagde":5995,"indtil":5996,"spara":5997,"formul":5998,"mør":5999,"national":6000,"formid":6001,"masser":6002,"hygg":6003,"starka":6004,"stav":6005,"omgiv":6006,"ældre":6007,"vita":6008,"##ylland":6009,"kunnat":6010,"karakter":6011,"air":6012,"plotsligt":6013,"##ya":6014,"pil":6015,"overens":6016,"dersom":6017,"januar":6018,"##histor":6019,"##iell":6020,"interesser":6021,"skatte":6022,"skrevet":6023,"mich":6024,"site":6025,"martin":6026,"tillrackligt":6027,"ingr":6028,"jesus":6029,"##ømme":6030,"halso":6031,"ori":6032,"pige":6033,"##agram":6034,"##hund":6035,"##klubb":6036,"##bum":6037,"##press":6038,"sæl":6039,"løbet":6040,"bestille":6041,"fantastiska":6042,"##stav":6043,"##ius":6044,"student":6045,"##løs":6046,"miljon":6047,"##stod":6048,"rock":6049,"skolen":6050,"sjov":6051,"##ernas":6052,"##bolag":6053,"finnes":6054,"hinanden":6055,"spændende":6056,"##makt":6057,"##skning":6058,"##værk":6059,"impon":6060,"##lande":6061,"yout":6062,"sikkerhed":6063,"enorm":6064,"##erede":6065,"##amin":6066,"øst":6067,"tidspunkt":6068,"priset":6069,"sos":6070,"formal":6071,"skov":6072,"##ower":6073,"oke":6074,"##organis":6075,"formod":6076,"##ole":6077,"skru":6078,"normal":6079,"ligga":6080,"##ms":6081,"55":6082,"nack":6083,"vigtig":6084,"carl":6085,"ordet":6086,"city":6087,"lækker":6088,"##sdagen":6089,"kjøp":6090,"##fald":6091,"forsvin":6092,"##medel":6093,"konser":6094,"samhallet":6095,"kyl":6096,"nas":6097,"##spart":6098,"##mot":6099,"karri":6100,"##orlunda":6101,"ihag":6102,"slog":6103,"utgor":6104,"sens":6105,"##uelle":6106,"havet":6107,"ekonomiska":6108,"##yp":6109,"timme":6110,"publik":6111,"brugt":6112,"tillhor":6113,"javla":6114,"mesta":6115,"bre":6116,"##pat":6117,"naturligtvis":6118,"tyn":6119,"tillstand":6120,"offic":6121,"framat":6122,"harligt":6123,"##skyl":6124,"ansokan":6125,"##givare":6126,"rem":6127,"vattnet":6128,"dukt":6129,"##ugt":6130,"##ksis":6131,"enhver":6132,"##brug":6133,"hurtig":6134,"##unders":6135,"rummet":6136,"ordning":6137,"##pos":6138,"##dels":6139,"længe":6140,"nagonting":6141,"##kal":6142,"gas":6143,"figur":6144,"medarbet":6145,"utbud":6146,"##vaxt":6147,"##ila":6148,"uge":6149,"opplev":6150,"tall":6151,"anses":6152,"master":6153,"narmare":6154,"##isse":6155,"positiv":6156,"rød":6157,"vinna":6158,"##brott":6159,"sof":6160,"tjanst":6161,"##ellen":6162,"folke":6163,"ordforande":6164,"antingen":6165,"neder":6166,"restaurang":6167,"fortæller":6168,"planer":6169,"##alg":6170,"##vok":6171,"sod":6172,"##fon":6173,"##holdt":6174,"kjøpe":6175,"##ygge":6176,"golf":6177,"lack":6178,"##eratur":6179,"buss":6180,"##rin":6181,"##kopp":6182,"vagar":6183,"lærer":6184,"driver":6185,"##atch":6186,"##fang":6187,"rest":6188,"##ics":6189,"##digvis":6190,"minska":6191,"kommande":6192,"##orten":6193,"urspr":6194,"monster":6195,"##ogg":6196,"spra":6197,"smal":6198,"børne":6199,"##start":6200,"vuxen":6201,"stick":6202,"##omrade":6203,"lekt":6204,"##illing":6205,"undersø":6206,"##aks":6207,"tids":6208,"##elefon":6209,"forud":6210,"rosa":6211,"##ble":6212,"##ori":6213,"bekym":6214,"passa":6215,"slakt":6216,"rea":6217,"##ffan":6218,"mangd":6219,"sku":6220,"rygg":6221,"kunden":6222,"play":6223,"38":6224,"flytta":6225,"##ident":6226,"objekt":6227,"bereg":6228,"aktiver":6229,"radd":6230,"##usjon":6231,"##ekn":6232,"##sminister":6233,"betyg":6234,"##mest":6235,"kjent":6236,"tilbyder":6237,"fry":6238,"personen":6239,"strax":6240,"besøg":6241,"##kade":6242,"utrust":6243,"big":6244,"##offer":6245,"fett":6246,"##kat":6247,"##imul":6248,"angel":6249,"##ival":6250,"rus":6251,"forsø":6252,"konstru":6253,"##holds":6254,"400":6255,"takt":6256,"##rigt":6257,"endelig":6258,"positivt":6259,"thom":6260,"februari":6261,"matchen":6262,"udvalg":6263,"##vi":6264,"højt":6265,"hjul":6266,"inb":6267,"rette":6268,"ordentligt":6269,"##uel":6270,"huvudet":6271,"blomm":6272,"##fiken":6273,"stranden":6274,"##okr":6275,"høre":6276,"fitta":6277,"valgt":6278,"bestemt":6279,"offentlige":6280,"##beskriv":6281,"okej":6282,"position":6283,"rader":6284,"##fal":6285,"uppfatt":6286,"##sig":6287,"generisk":6288,"##kere":6289,"##handel":6290,"herr":6291,"ønske":6292,"##føring":6293,"37":6294,"##vika":6295,"##ful":6296,"føler":6297,"fysisk":6298,"ladda":6299,"##arm":6300,"##foring":6301,"##fir":6302,"tving":6303,"valt":6304,"kung":6305,"ansatte":6306,"##nere":6307,"forhopp":6308,"nyck":6309,"##annon":6310,"finansiella":6311,"sætte":6312,"syk":6313,"forstaelse":6314,"##natt":6315,"ara":6316,"motes":6317,"harlig":6318,"center":6319,"##klag":6320,"kær":6321,"kig":6322,"ekonomi":6323,"tillamp":6324,"voksne":6325,"arbejdet":6326,"kommunens":6327,"gjelder":6328,"hensyn":6329,"tonar":6330,"coll":6331,"dokumenter":6332,"komb":6333,"ferie":6334,"ursprung":6335,"##pi":6336,"fonster":6337,"hamta":6338,"39":6339,"aar":6340,"mote":6341,"##skola":6342,"klimat":6343,"##oteket":6344,"fed":6345,"polis":6346,"pik":6347,"risiko":6348,"##ningst":6349,"##elserne":6350,"gun":6351,"annonser":6352,"##stone":6353,"02":6354,"starkt":6355,"rym":6356,"kæm":6357,"utred":6358,"haret":6359,"køre":6360,"utform":6361,"forældre":6362,"##skraft":6363,"spelade":6364,"fald":6365,"pag":6366,"betydligt":6367,"prøv":6368,"195":6369,"faktum":6370,"rabatt":6371,"skjer":6372,"beskriver":6373,"##ence":6374,"##værende":6375,"blad":6376,"puss":6377,"##stalla":6378,"05":6379,"##løb":6380,"ros":6381,"forlor":6382,"sjun":6383,"lond":6384,"tapp":6385,"##orges":6386,"konfl":6387,"motiver":6388,"valde":6389,"##rike":6390,"lapp":6391,"##grupper":6392,"forr":6393,"snygga":6394,"##service":6395,"##denafil":6396,"##vara":6397,"relation":6398,"mom":6399,"virker":6400,"muligheder":6401,"inkluder":6402,"##drer":6403,"dim":6404,"##skj":6405,"##igheten":6406,"papper":6407,"vanskelig":6408,"##iets":6409,"ges":6410,"forvan":6411,"modern":6412,"##delen":6413,"korde":6414,"2005":6415,"enhet":6416,"##farg":6417,"sygdom":6418,"betydelse":6419,"##slagen":6420,"##ple":6421,"renover":6422,"mate":6423,"indeholder":6424,"appar":6425,"motiv":6426,"viktigaste":6427,"##mos":6428,"annen":6429,"kostar":6430,"rav":6431,"##bladet":6432,"forte":6433,"gallande":6434,"underbart":6435,"kurser":6436,"flash":6437,"choklad":6438,"show":6439,"##jerg":6440,"kos":6441,"registrering":6442,"kjær":6443,"bakgrund":6444,"datorn":6445,"landst":6446,"06":6447,"##ec":6448,"##melse":6449,"##varden":6450,"bestalla":6451,"##ills":6452,"billigt":6453,"##ac":6454,"alex":6455,"##dage":6456,"tydligt":6457,"your":6458,"this":6459,"spørsmal":6460,"doll":6461,"##uttet":6462,"##oss":6463,"laste":6464,"fixa":6465,"##lysning":6466,"##bak":6467,"resultater":6468,"isra":6469,"##enden":6470,"pratar":6471,"opfyl":6472,"ersatt":6473,"##deligt":6474,"##sakt":6475,"jf":6476,"parkering":6477,"##polit":6478,"##nende":6479,"hatt":6480,"teater":6481,"smid":6482,"ligesom":6483,"underklader":6484,"hyp":6485,"samarbeid":6486,"forkl":6487,"##ox":6488,"##kam":6489,"bidrar":6490,"kommen":6491,"##cel":6492,"jamfort":6493,"strøm":6494,"anbefal":6495,"kontin":6496,"youtube":6497,"version":6498,"##egaende":6499,"aktivt":6500,"tittar":6501,"bedst":6502,"dol":6503,"hjelp":6504,"##forening":6505,"one":6506,"##endet":6507,"koncer":6508,"sikt":6509,"##egar":6510,"introdu":6511,"rejse":6512,"vat":6513,"løpet":6514,"lju":6515,"##han":6516,"sasong":6517,"effektivt":6518,"fyn":6519,"##foretag":6520,"stolt":6521,"##ids":6522,"automat":6523,"staller":6524,"kompetens":6525,"diagn":6526,"mov":6527,"polisen":6528,"guide":6529,"agg":6530,"##ifik":6531,"status":6532,"##aning":6533,"forret":6534,"au":6535,"koper":6536,"bran":6537,"fredrik":6538,"##oner":6539,"##fot":6540,"imidler":6541,"gri":6542,"##rast":6543,"##lor":6544,"imidlertid":6545,"sammenlig":6546,"spender":6547,"happ":6548,"utsikt":6549,"hyll":6550,"killar":6551,"##edi":6552,"temperatur":6553,"kostnad":6554,"##trol":6555,"##verse":6556,"pet":6557,"##falt":6558,"dild":6559,"mic":6560,"##asje":6561,"arene":6562,"lugn":6563,"bekvam":6564,"roliga":6565,"cert":6566,"ress":6567,"##gjort":6568,"bolaget":6569,"sexlek":6570,"##kul":6571,"hyres":6572,"dialog":6573,"lans":6574,"##hy":6575,"anstallda":6576,"humor":6577,"kombiner":6578,"tusen":6579,"oro":6580,"kamera":6581,"48":6582,"erhverv":6583,"velkommen":6584,"div":6585,"london":6586,"central":6587,"##spolit":6588,"##istiska":6589,"gæ":6590,"kære":6591,"##tok":6592,"oppet":6593,"##itivt":6594,"inklusive":6595,"dato":6596,"comp":6597,"fortæll":6598,"period":6599,"##god":6600,"svarta":6601,"##ors":6602,"betydning":6603,"private":6604,"hak":6605,"øj":6606,"underbara":6607,"trenger":6608,"pamin":6609,"##rop":6610,"kend":6611,"##skede":6612,"morgonen":6613,"fardig":6614,"goras":6615,"mangler":6616,"promenad":6617,"type":6618,"##isert":6619,"millioner":6620,"##eran":6621,"04":6622,"lyckades":6623,"angiv":6624,"forhallande":6625,"henrik":6626,"smukke":6627,"##way":6628,"##heng":6629,"##skift":6630,"synd":6631,"wik":6632,"engang":6633,"derefter":6634,"##fag":6635,"vars":6636,"personuppgifter":6637,"kompis":6638,"ejer":6639,"uanset":6640,"##ee":6641,"ski":6642,"studenter":6643,"pc":6644,"forutsattningar":6645,"magen":6646,"allig":6647,"lant":6648,"lanser":6649,"##lik":6650,"##assan":6651,"gors":6652,"##læ":6653,"gruppe":6654,"køkken":6655,"bilderna":6656,"spise":6657,"handen":6658,"skane":6659,"il":6660,"tunn":6661,"avgift":6662,"rigtige":6663,"##skal":6664,"instru":6665,"aktie":6666,"turen":6667,"tøj":6668,"forsv":6669,"nemt":6670,"visas":6671,"##inget":6672,"djup":6673,"kontrakt":6674,"ialla":6675,"myndighet":6676,"freder":6677,"prest":6678,"##vax":6679,"sus":6680,"##talet":6681,"##rit":6682,"danmarks":6683,"##mail":6684,"mikro":6685,"sign":6686,"atmin":6687,"numera":6688,"jakt":6689,"kopt":6690,"født":6691,"##rande":6692,"##alitet":6693,"annorlunda":6694,"##taget":6695,"##draget":6696,"givetvis":6697,"##brik":6698,"##fs":6699,"##ukker":6700,"##atorer":6701,"##iland":6702,"lejlighed":6703,"utsatt":6704,"holdt":6705,"sko":6706,"iphone":6707,"##ekan":6708,"##inen":6709,"initi":6710,"dyg":6711,"arranger":6712,"datings":6713,"princip":6714,"run":6715,"skift":6716,"##ologiska":6717,"betale":6718,"praksis":6719,"daglig":6720,"lust":6721,"##sproc":6722,"tat":6723,"vetenskap":6724,"inlag":6725,"1000":6726,"lista":6727,"pool":6728,"##fisk":6729,"dram":6730,"omgang":6731,"detalj":6732,"engelsk":6733,"kommunal":6734,"hallbar":6735,"hunden":6736,"prosent":6737,"week":6738,"specif":6739,"42":6740,"niveau":6741,"magn":6742,"separ":6743,"vedr":6744,"grym":6745,"syns":6746,"##smed":6747,"hat":6748,"##ern":6749,"alligevel":6750,"stift":6751,"##hamn":6752,"##ris":6753,"intresserad":6754,"lør":6755,"150":6756,"redovis":6757,"##ah":6758,"drygt":6759,"besl":6760,"vm":6761,"kampen":6762,"##splat":6763,"hemm":6764,"forsikt":6765,"anmel":6766,"engag":6767,"fakta":6768,"styrelsen":6769,"brukes":6770,"sags":6771,"sannol":6772,"singlar":6773,"lakare":6774,"formodligen":6775,"starten":6776,"acc":6777,"apotek":6778,"utrym":6779,"##df":6780,"norges":6781,"##tar":6782,"03":6783,"bestamm":6784,"##ivan":6785,"##varer":6786,"##ledes":6787,"##beider":6788,"besta":6789,"ytt":6790,"##leva":6791,"landets":6792,"sprang":6793,"lamnar":6794,"moderne":6795,"vinst":6796,"lande":6797,"entrepren":6798,"smag":6799,"##alender":6800,"baby":6801,"fyller":6802,"##tning":6803,"uger":6804,"syfte":6805,"##fan":6806,"musl":6807,"orkar":6808,"konstigt":6809,"flot":6810,"##former":6811,"##ete":6812,"##essor":6813,"##institut":6814,"##slos":6815,"##ckar":6816,"##onom":6817,"styrke":6818,"##leder":6819,"hogst":6820,"domstol":6821,"##olut":6822,"kampan":6823,"stalle":6824,"stimul":6825,"skogen":6826,"##tiden":6827,"mogen":6828,"forsikring":6829,"befolk":6830,"idr":6831,"ersattning":6832,"helsingborg":6833,"teen":6834,"chans":6835,"fordon":6836,"##leken":6837,"##stø":6838,"iallafall":6839,"guds":6840,"##ningsb":6841,"bemær":6842,"søk":6843,"atminstone":6844,"internationella":6845,"##dus":6846,"populara":6847,"falt":6848,"##fart":6849,"aust":6850,"ægte":6851,"starta":6852,"here":6853,"##arbejdet":6854,"strom":6855,"hort":6856,"prim":6857,"##uddann":6858,"skær":6859,"isol":6860,"samfund":6861,"grunden":6862,"##valt":6863,"##elles":6864,"inc":6865,"kors":6866,"tydligen":6867,"utvikling":6868,"paverkar":6869,"##tim":6870,"akadem":6871,"bakgr":6872,"##aket":6873,"anpas":6874,"##hop":6875,"lugnt":6876,"mord":6877,"forbattra":6878,"est":6879,"arkitekt":6880,"##rom":6881,"##vo":6882,"kræver":6883,"singel":6884,"gratt":6885,"##maskin":6886,"##varm":6887,"bio":6888,"underbar":6889,"##klus":6890,"##stift":6891,"##cher":6892,"inled":6893,"staten":6894,"atta":6895,"nøg":6896,"65":6897,"generelt":6898,"hantera":6899,"resept":6900,"leda":6901,"smer":6902,"motstand":6903,"fejl":6904,"klarar":6905,"##andt":6906,"slet":6907,"##sy":6908,"##skom":6909,"orsa":6910,"varum":6911,"fiske":6912,"tala":6913,"##kas":6914,"minns":6915,"ball":6916,"forsaljning":6917,"pengarna":6918,"nærmere":6919,"formaga":6920,"vaxt":6921,"planen":6922,"het":6923,"fine":6924,"bryster":6925,"popular":6926,"##niva":6927,"represent":6928,"eksister":6929,"hittat":6930,"##wa":6931,"sasongen":6932,"behandlingen":6933,"fac":6934,"minim":6935,"forelas":6936,"midler":6937,"bjud":6938,"venstre":6939,"##dd":6940,"uddannelse":6941,"love":6942,"##adel":6943,"##mens":6944,"ungdomar":6945,"talar":6946,"perspektiv":6947,"##stam":6948,"marken":6949,"husk":6950,"##vig":6951,"##anning":6952,"anvant":6953,"##ows":6954,"##steder":6955,"##ffar":6956,"##aker":6957,"##vikling":6958,"##entyr":6959,"soffan":6960,"tisdag":6961,"kirke":6962,"pedagog":6963,"##delar":6964,"rot":6965,"2004":6966,"##ensioner":6967,"succ":6968,"forny":6969,"øy":6970,"##ftig":6971,"kombination":6972,"happy":6973,"##hæn":6974,"mansk":6975,"starter":6976,"sodra":6977,"##stru":6978,"##stret":6979,"intet":6980,"sara":6981,"kender":6982,"løsning":6983,"##ongen":6984,"marie":6985,"44":6986,"saljer":6987,"evt":6988,"funkar":6989,"spor":6990,"vurdering":6991,"salja":6992,"vælger":6993,"øvrige":6994,"darlig":6995,"thomas":6996,"sallan":6997,"stral":6998,"indlæg":6999,"repar":7000,"sexleksaker":7001,"##risk":7002,"aben":7003,"box":7004,"##rettet":7005,"indenfor":7006,"homo":7007,"utvecklas":7008,"bygget":7009,"anlæg":7010,"##bred":7011,"hojd":7012,"py":7013,"organisationer":7014,"##sø":7015,"inkop":7016,"okad":7017,"##ægt":7018,"jarn":7019,"##rika":7020,"##do":7021,"##ress":7022,"##gaard":7023,"##smæss":7024,"definitivt":7025,"særligt":7026,"##gl":7027,"hann":7028,"##sprodu":7029,"sover":7030,"cont":7031,"overfl":7032,"periode":7033,"##terne":7034,"misstan":7035,"##kval":7036,"manniska":7037,"##behor":7038,"##stændig":7039,"slutade":7040,"politisk":7041,"rig":7042,"##jas":7043,"swinger":7044,"##ønn":7045,"##adser":7046,"enkla":7047,"fuck":7048,"##server":7049,"familien":7050,"aldri":7051,"##lader":7052,"##køb":7053,"mc":7054,"praktisk":7055,"sidst":7056,"svang":7057,"viste":7058,"##ave":7059,"roda":7060,"slipper":7061,"fungerer":7062,"firma":7063,"##ned":7064,"tekst":7065,"gett":7066,"##inne":7067,"ryggen":7068,"regul":7069,"fing":7070,"syster":7071,"##udover":7072,"racker":7073,"konkurren":7074,"stanna":7075,"##esen":7076,"kjære":7077,"bilj":7078,"krimin":7079,"selve":7080,"swed":7081,"monter":7082,"jap":7083,"kandid":7084,"##prov":7085,"##hets":7086,"mojligheten":7087,"mobilt":7088,"olyck":7089,"##kall":7090,"##ele":7091,"placering":7092,"skand":7093,"oj":7094,"lanet":7095,"##bla":7096,"##egn":7097,"191":7098,"underl":7099,"bostads":7100,"##ness":7101,"##ogn":7102,"uppen":7103,"jeres":7104,"krop":7105,"##fta":7106,"##ugga":7107,"brist":7108,"sweden":7109,"siff":7110,"rø":7111,"vejen":7112,"diverse":7113,"ær":7114,"thailand":7115,"kristen":7116,"##ffet":7117,"##cken":7118,"plass":7119,"udtryk":7120,"fortsatte":7121,"vold":7122,"vaknade":7123,"døde":7124,"dæk":7125,"overvej":7126,"##skolen":7127,"lod":7128,"##ismen":7129,"statistik":7130,"metod":7131,"##hort":7132,"forsokte":7133,"forskol":7134,"væg":7135,"##handa":7136,"christian":7137,"46":7138,"##th":7139,"album":7140,"deler":7141,"##fragan":7142,"garden":7143,"##trad":7144,"flex":7145,"##angd":7146,"næv":7147,"varken":7148,"##vagen":7149,"##akning":7150,"trum":7151,"lopp":7152,"cafe":7153,"##itra":7154,"baggrund":7155,"romant":7156,"##halla":7157,"##alte":7158,"fris":7159,"##følgende":7160,"prins":7161,"marknad":7162,"bb":7163,"varer":7164,"##ivitet":7165,"gull":7166,"gis":7167,"vindu":7168,"##jej":7169,"bø":7170,"vackert":7171,"##olver":7172,"mysigt":7173,"attrakt":7174,"losningar":7175,"unik":7176,"find":7177,"spesielt":7178,"udgangspunkt":7179,"allmanna":7180,"amnen":7181,"grov":7182,"##ordin":7183,"gladje":7184,"uppratt":7185,"ron":7186,"debatt":7187,"##isere":7188,"anvendes":7189,"villa":7190,"tyst":7191,"politiska":7192,"utvecklingen":7193,"##sætning":7194,"motion":7195,"##smedel":7196,"era":7197,"##blick":7198,"##ordningen":7199,"kina":7200,"cop":7201,"seneste":7202,"matcher":7203,"glass":7204,"##iar":7205,"fukt":7206,"interess":7207,"##eri":7208,"##till":7209,"spillet":7210,"##værre":7211,"rattigheter":7212,"cas":7213,"oden":7214,"sæson":7215,"##verksamhet":7216,"størrelse":7217,"erotik":7218,"tjenester":7219,"piz":7220,"line":7221,"utgangspunkt":7222,"resul":7223,"torr":7224,"mi":7225,"49":7226,"springa":7227,"mitten":7228,"vaxer":7229,"grat":7230,"langiv":7231,"##sporter":7232,"neste":7233,"klasse":7234,"losa":7235,"wind":7236,"flykt":7237,"##annen":7238,"linje":7239,"skid":7240,"england":7241,"bestamt":7242,"indt":7243,"ins":7244,"193":7245,"nasjon":7246,"##gatan":7247,"##øse":7248,"##somt":7249,"##skill":7250,"##pu":7251,"paul":7252,"##ræns":7253,"genomsnitt":7254,"##ome":7255,"ranta":7256,"desto":7257,"##inner":7258,"socialt":7259,"britt":7260,"stjarn":7261,"fet":7262,"##mas":7263,"socker":7264,"##king":7265,"fundet":7266,"egenskaper":7267,"##irt":7268,"bered":7269,"##enten":7270,"befinner":7271,"##heim":7272,"bergen":7273,"jurid":7274,"venn":7275,"rok":7276,"make":7277,"ventil":7278,"##ringen":7279,"sende":7280,"desværre":7281,"finansiering":7282,"pek":7283,"impl":7284,"termin":7285,"kommunik":7286,"##roende":7287,"dildo":7288,"nuvarande":7289,"pack":7290,"##amen":7291,"snarare":7292,"vek":7293,"unn":7294,"burde":7295,"valet":7296,"upplevelse":7297,"##xor":7298,"tantra":7299,"bror":7300,"stammer":7301,"israel":7302,"down":7303,"##indu":7304,"resan":7305,"kne":7306,"strategi":7307,"begrans":7308,"stri":7309,"typisk":7310,"medarbejdere":7311,"svaret":7312,"utvar":7313,"milit":7314,"litteratur":7315,"rob":7316,"orienter":7317,"##unda":7318,"norra":7319,"##otta":7320,"sammanhang":7321,"bjuder":7322,"tallet":7323,"sajt":7324,"sætter":7325,"søndag":7326,"david":7327,"sidder":7328,"tjock":7329,"omedel":7330,"chatt":7331,"mota":7332,"naturligvis":7333,"glem":7334,"york":7335,"daniel":7336,"##bergs":7337,"##iew":7338,"personlige":7339,"forsknings":7340,"letar":7341,"syr":7342,"lørdag":7343,"politiet":7344,"initiativ":7345,"tryk":7346,"bete":7347,"fungera":7348,"fodd":7349,"betalar":7350,"fn":7351,"##terer":7352,"intra":7353,"medarbetare":7354,"parti":7355,"politiker":7356,"paverka":7357,"mojliga":7358,"undant":7359,"##skat":7360,"oblig":7361,"imod":7362,"økonomi":7363,"flotte":7364,"rekommenderar":7365,"lider":7366,"kanda":7367,"##gu":7368,"jobbigt":7369,"kunnskap":7370,"##che":7371,"væsent":7372,"##ptom":7373,"##onym":7374,"intell":7375,"sattet":7376,"##sler":7377,"##jet":7378,"assist":7379,"interesse":7380,"græ":7381,"gitt":7382,"##uen":7383,"undan":7384,"oer":7385,"hinner":7386,"funder":7387,"fritt":7388,"civ":7389,"besoka":7390,"aarhus":7391,"landsb":7392,"kill":7393,"neden":7394,"optim":7395,"##llop":7396,"##lok":7397,"søge":7398,"41":7399,"aktuella":7400,"opgaver":7401,"betaling":7402,"##arens":7403,"##barn":7404,"højere":7405,"sexy":7406,"innlegg":7407,"simpel":7408,"##øst":7409,"##sætte":7410,"leve":7411,"syke":7412,"trav":7413,"risken":7414,"græn":7415,"exp":7416,"farver":7417,"kyrkan":7418,"bussen":7419,"amerikanska":7420,"redo":7421,"##ign":7422,"##rasjon":7423,"platsen":7424,"99":7425,"prost":7426,"mennesk":7427,"utrolig":7428,"##ørn":7429,"mork":7430,"tvivl":7431,"##ford":7432,"letter":7433,"malt":7434,"##ino":7435,"pasta":7436,"gaet":7437,"koncentr":7438,"kapitel":7439,"##angt":7440,"ack":7441,"##lingar":7442,"##ric":7443,"refle":7444,"arv":7445,"eleverna":7446,"##ros":7447,"##slapp":7448,"tekniska":7449,"framforallt":7450,"##jent":7451,"##beg":7452,"##annonser":7453,"aktier":7454,"inrikt":7455,"##mø":7456,"rør":7457,"ringa":7458,"kallade":7459,"representer":7460,"mats":7461,"drøm":7462,"oplevelse":7463,"kong":7464,"narheten":7465,"##ologiske":7466,"vinner":7467,"##vide":7468,"##tokoll":7469,"##stedet":7470,"socialdem":7471,"##bad":7472,"nerv":7473,"videor":7474,"tradgard":7475,"43":7476,"forskjellige":7477,"##sætter":7478,"harliga":7479,"flickor":7480,"##fy":7481,"paris":7482,"behovde":7483,"190":7484,"gavle":7485,"utdan":7486,"invand":7487,"##fred":7488,"hvid":7489,"##skort":7490,"##spill":7491,"chansen":7492,"enklare":7493,"bef":7494,"##ioden":7495,"februar":7496,"udstyr":7497,"kanslor":7498,"gren":7499,"mærke":7500,"illa":7501,"teknisk":7502,"##jus":7503,"major":7504,"lyx":7505,"##bed":7506,"stycken":7507,"bær":7508,"nyligen":7509,"standigt":7510,"##bold":7511,"advok":7512,"efterhand":7513,"##kket":7514,"##regler":7515,"skada":7516,"skra":7517,"sekret":7518,"##000":7519,"sprog":7520,"koket":7521,"jonkoping":7522,"død":7523,"rekommender":7524,"dager":7525,"avstand":7526,"##punkter":7527,"yderligere":7528,"paverk":7529,"kines":7530,"##behov":7531,"færdig":7532,"hushall":7533,"prisen":7534,"lokaler":7535,"betrakt":7536,"##staden":7537,"hjælper":7538,"tilg":7539,"47":7540,"silver":7541,"orden":7542,"taler":7543,"##ogra":7544,"##uft":7545,"islam":7546,"##svall":7547,"##laggande":7548,"##elen":7549,"haber":7550,"blomster":7551,"mac":7552,"billede":7553,"##asen":7554,"klare":7555,"regelb":7556,"horn":7557,"barns":7558,"mormor":7559,"hundar":7560,"bjor":7561,"##middel":7562,"##erende":7563,"##ratten":7564,"tvungen":7565,"undvika":7566,"##æld":7567,"luften":7568,"aventyr":7569,"##somradet":7570,"##fam":7571,"delvis":7572,"smarta":7573,"##bare":7574,"##fulla":7575,"##uds":7576,"##umer":7577,"hunnit":7578,"avancer":7579,"kursen":7580,"personligt":7581,"oh":7582,"vardags":7583,"individer":7584,"bodde":7585,"##ime":7586,"brollop":7587,"##entlig":7588,"tænke":7589,"lader":7590,"##isme":7591,"kyrk":7592,"##talt":7593,"lid":7594,"##fullt":7595,"##tekn":7596,"gransk":7597,"mobilen":7598,"sallskap":7599,"pratade":7600,"finn":7601,"involver":7602,"overrask":7603,"##jord":7604,"andersson":7605,"legge":7606,"vila":7607,"mos":7608,"nere":7609,"##oper":7610,"##hjem":7611,"lakemedel":7612,"funn":7613,"##deren":7614,"spis":7615,"computer":7616,"##رر":7617,"nev":7618,"botten":7619,"##eger":7620,"nik":7621,"kilometer":7622,"produksjon":7623,"##uellt":7624,"##pot":7625,"gn":7626,"situationer":7627,"##forsakring":7628,"##ugning":7629,"rakt":7630,"vasteras":7631,"##rel":7632,"##sjon":7633,"##varme":7634,"##pac":7635,"relevant":7636,"dollar":7637,"ende":7638,"192":7639,"##play":7640,"kanslan":7641,"erotiska":7642,"##dres":7643,"##ytning":7644,"##sko":7645,"##cks":7646,"levitra":7647,"vadret":7648,"lyckats":7649,"##isera":7650,"skull":7651,"##anal":7652,"shopping":7653,"block":7654,"mast":7655,"vd":7656,"repræ":7657,"##vatt":7658,"##11":7659,"automatisk":7660,"trakigt":7661,"##yper":7662,"postad":7663,"##riter":7664,"losning":7665,"##sliv":7666,"##rang":7667,"samhalle":7668,"##stalld":7669,"rekke":7670,"sekunder":7671,"praktik":7672,"situationen":7673,"forslaget":7674,"##grader":7675,"prøver":7676,"frække":7677,"golv":7678,"fallet":7679,"champ":7680,"resurser":7681,"##ynt":7682,"ii":7683,"##janster":7684,"##gress":7685,"##assigt":7686,"banan":7687,"##valget":7688,"##adsen":7689,"##bra":7690,"##juk":7691,"behag":7692,"sæd":7693,"2003":7694,"##yer":7695,"oversikt":7696,"check":7697,"##skrav":7698,"perfekta":7699,"##orier":7700,"felles":7701,"##old":7702,"omoj":7703,"historier":7704,"gjerne":7705,"##øp":7706,"opmærksom":7707,"tax":7708,"varden":7709,"personalen":7710,"matemat":7711,"##skoter":7712,"##fod":7713,"brukt":7714,"single":7715,"##siden":7716,"##diga":7717,"sociale":7718,"riktiga":7719,"support":7720,"forhoppningsvis":7721,"fylla":7722,"ker":7723,"sammanfatt":7724,"kallar":7725,"inkomst":7726,"gill":7727,"begran":7728,"iv":7729,"demon":7730,"##result":7731,"kategorier":7732,"kompon":7733,"##ikal":7734,"vastra":7735,"modellen":7736,"##con":7737,"micro":7738,"uttal":7739,"##jning":7740,"##appar":7741,"##sprak":7742,"klassisk":7743,"pæ":7744,"gif":7745,"dens":7746,"berattade":7747,"hittills":7748,"grundlaggande":7749,"føds":7750,"slott":7751,"aner":7752,"##kninger":7753,"fører":7754,"himmel":7755,"gram":7756,"dejlig":7757,"##40":7758,"drikke":7759,"langsikt":7760,"helhet":7761,"power":7762,"##somrade":7763,"fack":7764,"opna":7765,"##box":7766,"##inter":7767,"mv":7768,"koncept":7769,"##produkter":7770,"##mand":7771,"marked":7772,"tidlig":7773,"skan":7774,"utomhus":7775,"smil":7776,"rapporten":7777,"skuld":7778,"relationer":7779,"lyder":7780,"##uro":7781,"konsekvenser":7782,"##direkt":7783,"##lak":7784,"kompletter":7785,"##aturen":7786,"garanti":7787,"dack":7788,"##nasjon":7789,"handa":7790,"##kre":7791,"##evær":7792,"tillfalle":7793,"museum":7794,"brod":7795,"lane":7796,"##burg":7797,"urval":7798,"symptom":7799,"natverk":7800,"vild":7801,"##øjer":7802,"lim":7803,"vider":7804,"bordet":7805,"##rarna":7806,"faktorer":7807,"##skrig":7808,"##lende":7809,"okat":7810,"skott":7811,"frakt":7812,"trapp":7813,"##istiske":7814,"##dele":7815,"trolig":7816,"girls":7817,"ein":7818,"##delningen":7819,"kreativ":7820,"eleg":7821,"##ege":7822,"sortiment":7823,"fandt":7824,"##60":7825,"lou":7826,"lignende":7827,"micha":7828,"varma":7829,"nom":7830,"tung":7831,"blas":7832,"glæde":7833,"ei":7834,"nødvendig":7835,"##hjæl":7836,"##jal":7837,"##stillinger":7838,"lyn":7839,"##splats":7840,"kærlighed":7841,"listan":7842,"kollade":7843,"andras":7844,"jonas":7845,"##varo":7846,"kunskaper":7847,"world":7848,"kjem":7849,"instagram":7850,"engager":7851,"knullar":7852,"motsvarande":7853,"##varl":7854,"moderna":7855,"hamnar":7856,"ort":7857,"##mad":7858,"ryss":7859,"extremt":7860,"hæ":7861,"##ledare":7862,"arige":7863,"##mask":7864,"njut":7865,"svag":7866,"webbplatser":7867,"##ova":7868,"##osa":7869,"##inform":7870,"funderar":7871,"##oth":7872,"anpass":7873,"anvandare":7874,"dn":7875,"myndigheter":7876,"eksempl":7877,"lank":7878,"rammer":7879,"utlan":7880,"##ningens":7881,"forre":7882,"##usen":7883,"ledig":7884,"starte":7885,"processen":7886,"forhandling":7887,"allmant":7888,"skyldes":7889,"##ea":7890,"visat":7891,"fika":7892,"observer":7893,"##ekte":7894,"aal":7895,"glada":7896,"indhold":7897,"##ini":7898,"webbplatsen":7899,"dubbel":7900,"russ":7901,"##sene":7902,"austral":7903,"løsninger":7904,"apple":7905,"##ørs":7906,"##lats":7907,"samre":7908,"mur":7909,"ri":7910,"tip":7911,"##mene":7912,"frederik":7913,"eksp":7914,"centrala":7915,"pens":7916,"behovet":7917,"##betalning":7918,"alskade":7919,"##unds":7920,"pus":7921,"##vatten":7922,"analys":7923,"leverand":7924,"daliga":7925,"samlede":7926,"særlige":7927,"tabl":7928,"langst":7929,"kla":7930,"magnus":7931,"cor":7932,"lagom":7933,"metall":7934,"mobiltelefon":7935,"kjør":7936,"jobbat":7937,"##ycke":7938,"##jylland":7939,"dia":7940,"##opt":7941,"rakna":7942,"##inav":7943,"##elset":7944,"arbeidet":7945,"that":7946,"storbr":7947,"sorg":7948,"##viken":7949,"mottag":7950,"##kontakt":7951,"##stiden":7952,"arsm":7953,"##sjuk":7954,"##formen":7955,"hansyn":7956,"syftet":7957,"sade":7958,"fragade":7959,"blommor":7960,"distri":7961,"##pol":7962,"vægt":7963,"vanligtvis":7964,"##80":7965,"eleven":7966,"abon":7967,"reserv":7968,"feil":7969,"snabbare":7970,"køber":7971,"læser":7972,"linkoping":7973,"huvudsak":7974,"ifall":7975,"##mode":7976,"##minister":7977,"stjer":7978,"rigtigt":7979,"##djur":7980,"derudover":7981,"værdi":7982,"tillgangliga":7983,"##skyd":7984,"sugen":7985,"avgifter":7986,"slutar":7987,"tittade":7988,"ekte":7989,"##foreningen":7990,"enskilda":7991,"##itann":7992,"faller":7993,"bogen":7994,"arig":7995,"langtar":7996,"##eten":7997,"high":7998,"##ængde":7999,"kontrollera":8000,"president":8001,"hil":8002,"omfattande":8003,"turner":8004,"sendt":8005,"heta":8006,"hjarn":8007,"mamm":8008,"datter":8009,"startade":8010,"blu":8011,"valgte":8012,"inns":8013,"odense":8014,"mont":8015,"økonomiske":8016,"##partem":8017,"overen":8018,"internasjon":8019,"grona":8020,"lyk":8021,"##skost":8022,"populære":8023,"hører":8024,"hardt":8025,"##gørelse":8026,"more":8027,"bebo":8028,"##ley":8029,"relater":8030,"hande":8031,"hehe":8032,"##iosa":8033,"forekommer":8034,"menneske":8035,"##gora":8036,"##satsen":8037,"narvarande":8038,"japan":8039,"body":8040,"kus":8041,"opret":8042,"snyggt":8043,"from":8044,"imor":8045,"møder":8046,"tecken":8047,"vekt":8048,"jac":8049,"52":8050,"anledningen":8051,"anne":8052,"konstnar":8053,"stads":8054,"moter":8055,"cla":8056,"bloggar":8057,"kommende":8058,"insatser":8059,"dricka":8060,"gemensamma":8061,"lettere":8062,"cro":8063,"hverdag":8064,"kritik":8065,"##sked":8066,"bri":8067,"front":8068,"ledare":8069,"model":8070,"turist":8071,"kører":8072,"snabba":8073,"kollektiv":8074,"klick":8075,"varv":8076,"felt":8077,"##ysning":8078,"illustr":8079,"banker":8080,"erbjudanden":8081,"begar":8082,"##enny":8083,"billiga":8084,"avseende":8085,"##hallen":8086,"tyg":8087,"dorren":8088,"forlag":8089,"jar":8090,"flashback":8091,"europ":8092,"##ellan":8093,"dobb":8094,"##etøj":8095,"arhus":8096,"##iserade":8097,"erfarenheter":8098,"##job":8099,"kallt":8100,"klassen":8101,"##odet":8102,"##gande":8103,"varan":8104,"##bal":8105,"kik":8106,"likevel":8107,"adress":8108,"##ævn":8109,"atit":8110,"sæt":8111,"langd":8112,"##fi":8113,"fug":8114,"kontant":8115,"eventuella":8116,"virksom":8117,"rov":8118,"##eslut":8119,"##stallningar":8120,"forsøg":8121,"ell":8122,"gat":8123,"identifier":8124,"storbritann":8125,"##ze":8126,"definition":8127,"beb":8128,"programmer":8129,"##oda":8130,"sval":8131,"bidr":8132,"dikt":8133,"##varet":8134,"original":8135,"privata":8136,"sonder":8137,"føde":8138,"tydlig":8139,"børnene":8140,"##fo":8141,"##cam":8142,"##ula":8143,"arkiv":8144,"skot":8145,"utland":8146,"##skr":8147,"leta":8148,"bestamde":8149,"nationella":8150,"vanda":8151,"mix":8152,"juster":8153,"##rument":8154,"aftale":8155,"has":8156,"idet":8157,"betyr":8158,"windows":8159,"banken":8160,"##slutning":8161,"oerhort":8162,"betalt":8163,"besokare":8164,"expl":8165,"hjerte":8166,"unika":8167,"##fria":8168,"##fallet":8169,"karaktar":8170,"sti":8171,"begynder":8172,"trods":8173,"mini":8174,"tillhanda":8175,"##ellem":8176,"angre":8177,"##ørg":8178,"##samlingen":8179,"dj":8180,"michael":8181,"##fragor":8182,"kraftig":8183,"tillvaxt":8184,"##tryck":8185,"##hog":8186,"##ytande":8187,"kategori":8188,"forandringar":8189,"bjorn":8190,"inner":8191,"terror":8192,"ringde":8193,"mist":8194,"pabor":8195,"nesten":8196,"##ckning":8197,"tjansten":8198,"jens":8199,"diskussion":8200,"##marna":8201,"##yttes":8202,"logga":8203,"hors":8204,"tidningen":8205,"##utveckling":8206,"nagonstans":8207,"svarar":8208,"eftermiddag":8209,"##bat":8210,"##ringer":8211,"poker":8212,"##12":8213,"saf":8214,"beskæ":8215,"typen":8216,"##ums":8217,"fodels":8218,"dekor":8219,"##bby":8220,"rolle":8221,"brann":8222,"##avtal":8223,"minne":8224,"##omrader":8225,"fria":8226,"pir":8227,"teknologi":8228,"##sek":8229,"##partiet":8230,"##unnit":8231,"##icy":8232,"mr":8233,"smitt":8234,"tilfreds":8235,"##fora":8236,"##problem":8237,"pig":8238,"##gade":8239,"##stri":8240,"akta":8241,"kanal":8242,"##bit":8243,"ki":8244,"ogonen":8245,"hjarta":8246,"mangder":8247,"skiv":8248,"godis":8249,"konflikt":8250,"varlds":8251,"anges":8252,"hoppa":8253,"lide":8254,"##lost":8255,"##bank":8256,"##kelige":8257,"##angel":8258,"nytta":8259,"træning":8260,"##sattningen":8261,"island":8262,"bekraft":8263,"cat":8264,"tilgjen":8265,"korta":8266,"efterfølgende":8267,"konstant":8268,"pagar":8269,"stallen":8270,"tilsvar":8271,"bøger":8272,"##forvalt":8273,"bevæg":8274,"tillganglig":8275,"porrfilmer":8276,"250":8277,"kog":8278,"##træ":8279,"varmen":8280,"frankrike":8281,"økonomisk":8282,"##ockey":8283,"##ojd":8284,"specifik":8285,"##aland":8286,"aalborg":8287,"##eringar":8288,"##ament":8289,"lenge":8290,"##lades":8291,"##mannen":8292,"klima":8293,"##mæss":8294,"heldigvis":8295,"begræns":8296,"##shop":8297,"ke":8298,"parad":8299,"installer":8300,"badrum":8301,"ansvaret":8302,"dei":8303,"handelser":8304,"uppleva":8305,"kristian":8306,"æg":8307,"belopp":8308,"andelen":8309,"hjartat":8310,"liter":8311,"##aft":8312,"lokalt":8313,"##amer":8314,"forutsattning":8315,"besked":8316,"##terade":8317,"eva":8318,"amerikanske":8319,"johansson":8320,"opr":8321,"##fel":8322,"inlagget":8323,"##dagog":8324,"skaffa":8325,"mall":8326,"traffar":8327,"nodvandigt":8328,"lankar":8329,"slit":8330,"appen":8331,"mojlig":8332,"kontakter":8333,"even":8334,"materiale":8335,"valkomna":8336,"borg":8337,"##anvand":8338,"sjo":8339,"sette":8340,"intressanta":8341,"lagenheten":8342,"barna":8343,"levande":8344,"øjeblik":8345,"cd":8346,"vapen":8347,"59":8348,"navnet":8349,"##mi":8350,"smor":8351,"##gards":8352,"utav":8353,"##legget":8354,"##gerne":8355,"##vil":8356,"øk":8357,"markedet":8358,"##enhet":8359,"##osof":8360,"##milj":8361,"avsugning":8362,"emil":8363,"sakra":8364,"lands":8365,"hag":8366,"politiske":8367,"emma":8368,"stykke":8369,"forran":8370,"##linjer":8371,"undantag":8372,"##enge":8373,"##vare":8374,"balkon":8375,"sagen":8376,"lycka":8377,"diam":8378,"behøver":8379,"bilag":8380,"##orte":8381,"##ografi":8382,"##iot":8383,"varsta":8384,"##ugan":8385,"##projekt":8386,"potatis":8387,"mjolk":8388,"tilgang":8389,"forfattare":8390,"##ivalen":8391,"amerikansk":8392,"traffade":8393,"radgivning":8394,"try":8395,"##vek":8396,"kendt":8397,"mai":8398,"kostnads":8399,"befolkningen":8400,"snitt":8401,"95":8402,"nyckel":8403,"orsak":8404,"bot":8405,"##annes":8406,"##ski":8407,"ryska":8408,"skickas":8409,"frasch":8410,"foljd":8411,"lamnade":8412,"##nor":8413,"##losa":8414,"2001":8415,"##æst":8416,"sun":8417,"startet":8418,"svenskt":8419,"indsats":8420,"overallt":8421,"189":8422,"process":8423,"##bill":8424,"inse":8425,"tilsyn":8426,"blanda":8427,"aspekt":8428,"fargen":8429,"##givet":8430,"##emed":8431,"sukker":8432,"miner":8433,"##iseret":8434,"kim":8435,"sop":8436,"trygghet":8437,"escorts":8438,"bedomning":8439,"##kommende":8440,"600":8441,"##ligheder":8442,"2002":8443,"garder":8444,"saknas":8445,"jud":8446,"skickar":8447,"halften":8448,"framtida":8449,"leverans":8450,"##arbetet":8451,"vintern":8452,"osaker":8453,"##ards":8454,"##elserna":8455,"kvalitets":8456,"anm":8457,"regjer":8458,"uppfyll":8459,"oppnar":8460,"invan":8461,"markt":8462,"fullstand":8463,"##sil":8464,"stro":8465,"varav":8466,"tilskud":8467,"pdf":8468,"##qvist":8469,"slappa":8470,"##imod":8471,"angaende":8472,"##fen":8473,"rutiner":8474,"ent":8475,"fasc":8476,"rant":8477,"overlev":8478,"hjelpe":8479,"omfang":8480,"##drene":8481,"henhold":8482,"sadar":8483,"sav":8484,"##folkning":8485,"##70":8486,"##ese":8487,"planlæg":8488,"knappen":8489,"ungdoms":8490,"##wn":8491,"ansøg":8492,"befint":8493,"klassiska":8494,"bilde":8495,"##fast":8496,"mju":8497,"kans":8498,"onod":8499,"utval":8500,"ledande":8501,"enheter":8502,"##sland":8503,"umiddel":8504,"book":8505,"præcis":8506,"kommiss":8507,"enormt":8508,"inviter":8509,"muskler":8510,"##ians":8511,"international":8512,"sjukhus":8513,"##rare":8514,"uppfolj":8515,"##ssp":8516,"begyndte":8517,"##lene":8518,"vardering":8519,"uddannelses":8520,"##personer":8521,"bestemm":8522,"##sstil":8523,"##valu":8524,"look":8525,"camping":8526,"plocka":8527,"global":8528,"massasje":8529,"aning":8530,"atmos":8531,"saa":8532,"ringer":8533,"##yta":8534,"modtager":8535,"##hi":8536,"ratta":8537,"ler":8538,"num":8539,"cup":8540,"finger":8541,"sarskilda":8542,"##vest":8543,"resor":8544,"dv":8545,"butiker":8546,"von":8547,"foregaende":8548,"spanien":8549,"digitala":8550,"positiva":8551,"posted":8552,"religion":8553,"forbud":8554,"##namnden":8555,"tænker":8556,"fordelar":8557,"##hagen":8558,"texten":8559,"føre":8560,"præsen":8561,"ange":8562,"artiklar":8563,"anmalan":8564,"statens":8565,"billed":8566,"##visa":8567,"##byr":8568,"betalnings":8569,"maler":8570,"kraftigt":8571,"##lyst":8572,"talt":8573,"deltagare":8574,"##utte":8575,"##jobb":8576,"imp":8577,"##ckor":8578,"tiltak":8579,"halm":8580,"andreas":8581,"tvær":8582,"stack":8583,"grattis":8584,"##utr":8585,"spur":8586,"troll":8587,"klad":8588,"videoer":8589,"tilh":8590,"mulighet":8591,"papir":8592,"##pres":8593,"ladd":8594,"foraldr":8595,"julkl":8596,"##rapport":8597,"samle":8598,"tyr":8599,"bredvid":8600,"tillagg":8601,"gamm":8602,"ødel":8603,"##førte":8604,"overtyg":8605,"85":8606,"##behag":8607,"gyn":8608,"læge":8609,"##forbundet":8610,"##itor":8611,"forsamling":8612,"narmaste":8613,"##fru":8614,"slike":8615,"plant":8616,"##jande":8617,"tilgæng":8618,"undersokning":8619,"svamp":8620,"langivare":8621,"##ones":8622,"undga":8623,"##behand":8624,"##ware":8625,"arab":8626,"flott":8627,"##gitt":8628,"voksen":8629,"beskrivning":8630,"gent":8631,"##ders":8632,"gemensamt":8633,"hundra":8634,"prag":8635,"tegn":8636,"##astro":8637,"##valg":8638,"tacka":8639,"kæmpe":8640,"56":8641,"produkten":8642,"mala":8643,"løbende":8644,"##raff":8645,"europeiska":8646,"##rimin":8647,"simpelt":8648,"mio":8649,"hr":8650,"bekendt":8651,"##rej":8652,"maskiner":8653,"##usk":8654,"belast":8655,"aud":8656,"sjæl":8657,"telefonen":8658,"omfatter":8659,"##cial":8660,"redus":8661,"kjærlighet":8662,"bist":8663,"hanga":8664,"funnits":8665,"stilling":8666,"ufor":8667,"etik":8668,"journalist":8669,"ferdig":8670,"tomt":8671,"identitet":8672,"avvik":8673,"##utbildning":8674,"sd":8675,"passade":8676,"nio":8677,"okade":8678,"##gaven":8679,"økt":8680,"opgave":8681,"obs":8682,"anlagg":8683,"genomfora":8684,"station":8685,"nuværende":8686,"bestyrelsen":8687,"##delingen":8688,"antallet":8689,"##arch":8690,"storm":8691,"##ou":8692,"møn":8693,"middel":8694,"180":8695,"startar":8696,"amat":8697,"##urg":8698,"##skop":8699,"tycka":8700,"framover":8701,"##station":8702,"foredrag":8703,"##ebra":8704,"##iness":8705,"vilkar":8706,"##beroende":8707,"cancer":8708,"professor":8709,"sec":8710,"bakter":8711,"specielt":8712,"minskar":8713,"skulder":8714,"##edde":8715,"##ykket":8716,"tera":8717,"lesbisk":8718,"erfaringer":8719,"##stu":8720,"54":8721,"tillfallen":8722,"utrustning":8723,"minsta":8724,"##skam":8725,"##vakt":8726,"eld":8727,"pct":8728,"ofor":8729,"##asino":8730,"familjer":8731,"##ierne":8732,"soft":8733,"##ælland":8734,"avfall":8735,"ratten":8736,"bos":8737,"##egang":8738,"tranings":8739,"rena":8740,"##usten":8741,"nødvendigt":8742,"opdater":8743,"##jol":8744,"livs":8745,"marts":8746,"akut":8747,"##schef":8748,"strid":8749,"vækst":8750,"vibr":8751,"konsument":8752,"bett":8753,"karn":8754,"betalning":8755,"bræn":8756,"hanger":8757,"lege":8758,"kyck":8759,"bandet":8760,"belig":8761,"pi":8762,"##istens":8763,"def":8764,"effekter":8765,"ht":8766,"##anke":8767,"dør":8768,"kvaliteten":8769,"kontinuer":8770,"minut":8771,"cool":8772,"##ssen":8773,"artikeln":8774,"eksisterende":8775,"markeds":8776,"tyska":8777,"varor":8778,"##nast":8779,"##hjul":8780,"##orerna":8781,"pask":8782,"vaxa":8783,"psykisk":8784,"120":8785,"ledar":8786,"53":8787,"fen":8788,"https":8789,"##brans":8790,"##unnet":8791,"arlig":8792,"faste":8793,"svt":8794,"element":8795,"##ney":8796,"grejer":8797,"materialet":8798,"kvinne":8799,"høje":8800,"gumm":8801,"frig":8802,"##iam":8803,"livsstil":8804,"club":8805,"konsul":8806,"wil":8807,"##ennende":8808,"##bilar":8809,"##entals":8810,"træk":8811,"stader":8812,"noll":8813,"##umin":8814,"##vert":8815,"stann":8816,"herre":8817,"wal":8818,"knyttet":8819,"ike":8820,"rekord":8821,"##side":8822,"##resa":8823,"ledning":8824,"marg":8825,"##tur":8826,"ec":8827,"agare":8828,"forelig":8829,"allting":8830,"stefan":8831,"forbundet":8832,"##bri":8833,"udvikle":8834,"##serne":8835,"kryd":8836,"somn":8837,"##hast":8838,"orgas":8839,"##tatt":8840,"##skaff":8841,"farve":8842,"golvet":8843,"evalu":8844,"skydda":8845,"fortsat":8846,"verkligheten":8847,"##celler":8848,"ked":8849,"##vards":8850,"##que":8851,"vei":8852,"manaden":8853,"##hr":8854,"##nene":8855,"fragar":8856,"akkur":8857,"dyb":8858,"speg":8859,"51":8860,"jose":8861,"bibel":8862,"varre":8863,"##kommande":8864,"##takte":8865,"swedish":8866,"alltfor":8867,"akkurat":8868,"##sættes":8869,"solid":8870,"##forsalj":8871,"kaff":8872,"charl":8873,"##bek":8874,"vaga":8875,"virksomheden":8876,"hansen":8877,"lut":8878,"pum":8879,"foreslar":8880,"alsk":8881,"##sman":8882,"##ekul":8883,"sundsvall":8884,"##encer":8885,"vagg":8886,"motet":8887,"moms":8888,"herefter":8889,"skaber":8890,"turk":8891,"transporter":8892,"forklara":8893,"fortælle":8894,"##tale":8895,"##rans":8896,"##kro":8897,"foll":8898,"toal":8899,"##somme":8900,"buk":8901,"gæster":8902,"rekry":8903,"spillere":8904,"##sund":8905,"blond":8906,"spare":8907,"huske":8908,"alternativt":8909,"##sbol":8910,"naturliga":8911,"rosen":8912,"antar":8913,"##intr":8914,"##oler":8915,"kriter":8916,"tir":8917,"invester":8918,"restauranger":8919,"##plikt":8920,"scenen":8921,"##løse":8922,"read":8923,"besøk":8924,"64":8925,"duktig":8926,"##okraterna":8927,"downlo":8928,"gældende":8929,"naringsl":8930,"jensen":8931,"funksjon":8932,"flest":8933,"##inna":8934,"fira":8935,"bostader":8936,"røde":8937,"##ftar":8938,"flertal":8939,"eftermiddagen":8940,"roman":8941,"##sbrev":8942,"3d":8943,"kalender":8944,"##klass":8945,"dyre":8946,"meste":8947,"moten":8948,"bull":8949,"##okning":8950,"liste":8951,"##melig":8952,"##itering":8953,"peder":8954,"fantastiske":8955,"##sprojekt":8956,"hyra":8957,"tilsvarende":8958,"upplever":8959,"olje":8960,"reha":8961,"vidt":8962,"##ultur":8963,"eksempelvis":8964,"succes":8965,"bang":8966,"##agne":8967,"sekund":8968,"##spil":8969,"godkan":8970,"##si":8971,"øl":8972,"læring":8973,"house":8974,"syntes":8975,"frihet":8976,"##position":8977,"bestammer":8978,"barnets":8979,"eldre":8980,"sikrer":8981,"dame":8982,"seminar":8983,"rorelse":8984,"##lere":8985,"##ming":8986,"informationen":8987,"prosjektet":8988,"enk":8989,"utfora":8990,"snall":8991,"hjert":8992,"eventuellt":8993,"værkt":8994,"twitter":8995,"fransk":8996,"fornu":8997,"dop":8998,"green":8999,"sender":9000,"##asa":9001,"##ination":9002,"##park":9003,"tvek":9004,"betrag":9005,"tilmel":9006,"utbildningen":9007,"##amal":9008,"##indra":9009,"abne":9010,"balans":9011,"kvitt":9012,"inredning":9013,"nødt":9014,"nyde":9015,"tavlingen":9016,"senior":9017,"sne":9018,"forskott":9019,"anger":9020,"##olen":9021,"samla":9022,"gru":9023,"tilkn":9024,"informer":9025,"##forbund":9026,"##fit":9027,"radi":9028,"##betaling":9029,"fortroende":9030,"dejligt":9031,"##besok":9032,"leng":9033,"tolv":9034,"nick":9035,"format":9036,"fundera":9037,"##rek":9038,"hastar":9039,"tilstand":9040,"rora":9041,"redig":9042,"##eledes":9043,"##li":9044,"ledelse":9045,"radda":9046,"satsa":9047,"arbetsmark":9048,"butiken":9049,"##matt":9050,"##ygger":9051,"indr":9052,"fodelsedag":9053,"##følg":9054,"surf":9055,"bibliotek":9056,"bestamma":9057,"lule":9058,"vander":9059,"##ionens":9060,"##savgift":9061,"erne":9062,"foreningens":9063,"foder":9064,"slot":9065,"studi":9066,"##bs":9067,"##fard":9068,"kontakte":9069,"amne":9070,"victor":9071,"##vill":9072,"irriter":9073,"fjor":9074,"hvornar":9075,"##isser":9076,"##iserad":9077,"##vetenskap":9078,"sexig":9079,"hinna":9080,"spons":9081,"udel":9082,"##andre":9083,"fit":9084,"undervisningen":9085,"sota":9086,"##pacitet":9087,"marknadsforing":9088,"skador":9089,"##ældende":9090,"posten":9091,"word":9092,"fur":9093,"befolkning":9094,"forestall":9095,"##etar":9096,"inre":9097,"adresse":9098,"##varlden":9099,"partier":9100,"anonym":9101,"ull":9102,"ønsket":9103,"registrera":9104,"blick":9105,"produs":9106,"højre":9107,"oplever":9108,"aktiva":9109,"vitamin":9110,"##lagen":9111,"rott":9112,"fond":9113,"reducer":9114,"##ckta":9115,"studerende":9116,"##mande":9117,"##cir":9118,"##esh":9119,"jern":9120,"konsekvens":9121,"raknas":9122,"2019":9123,"protein":9124,"senest":9125,"foregar":9126,"øver":9127,"##lass":9128,"horde":9129,"##stræk":9130,"gaster":9131,"arbeids":9132,"arligt":9133,"diskutera":9134,"beslutet":9135,"skin":9136,"regionen":9137,"##cm":9138,"##smet":9139,"ye":9140,"avgorande":9141,"dynam":9142,"hjør":9143,"lavere":9144,"kvad":9145,"maks":9146,"lasare":9147,"grej":9148,"tempo":9149,"##kerne":9150,"eksper":9151,"indga":9152,"omkost":9153,"brett":9154,"kalmar":9155,"##ani":9156,"nyss":9157,"lic":9158,"lart":9159,"##jansten":9160,"##omraden":9161,"war":9162,"uppna":9163,"market":9164,"imellem":9165,"bock":9166,"tillbehor":9167,"##bordet":9168,"skadespel":9169,"kompisar":9170,"tam":9171,"##sprodukter":9172,"gust":9173,"dominer":9174,"tvang":9175,"sahar":9176,"automatiskt":9177,"inred":9178,"felakt":9179,"ændringer":9180,"##oppen":9181,"vr":9182,"paa":9183,"fund":9184,"overst":9185,"veter":9186,"fjern":9187,"##ml":9188,"ligeledes":9189,"pojk":9190,"sammant":9191,"##sperson":9192,"tillfallet":9193,"implementer":9194,"anslutning":9195,"##slen":9196,"anl":9197,"afhæng":9198,"civil":9199,"aterigen":9200,"høyere":9201,"noggr":9202,"liber":9203,"femin":9204,"##anna":9205,"exklus":9206,"fril":9207,"anvendelse":9208,"offentliga":9209,"##anlæg":9210,"##skog":9211,"kameran":9212,"##bilitet":9213,"overgang":9214,"##rifter":9215,"lamnat":9216,"##roid":9217,"underlag":9218,"wall":9219,"##bog":9220,"##gra":9221,"57":9222,"kontrol":9223,"dru":9224,"##ødte":9225,"partiet":9226,"sock":9227,"nyfiken":9228,"##ages":9229,"rester":9230,"tad":9231,"##15":9232,"ansvarlig":9233,"kniv":9234,"samarbej":9235,"karlstad":9236,"ingredi":9237,"efterat":9238,"ever":9239,"##levelse":9240,"arter":9241,"lese":9242,"forsvinner":9243,"##rot":9244,"##smak":9245,"advokat":9246,"##kamp":9247,"business":9248,"fisse":9249,"nojda":9250,"kollega":9251,"forhin":9252,"##stud":9253,"##juter":9254,"hemmet":9255,"behandlas":9256,"##core":9257,"##idens":9258,"poly":9259,"800":9260,"asyl":9261,"halsen":9262,"##olja":9263,"utseende":9264,"ansiktet":9265,"bjod":9266,"utenfor":9267,"avser":9268,"beting":9269,"generalfor":9270,"overvag":9271,"hypotek":9272,"anbefaler":9273,"latar":9274,"organisationen":9275,"58":9276,"smar":9277,"kæreste":9278,"##erings":9279,"gjenopp":9280,"venter":9281,"##yst":9282,"stj":9283,"smuk":9284,"opleve":9285,"tillat":9286,"cu":9287,"telefonnummer":9288,"ox":9289,"engagemang":9290,"kulture":9291,"##ax":9292,"nilsson":9293,"##dor":9294,"yoga":9295,"coach":9296,"##iendom":9297,"uh":9298,"##vider":9299,"spelat":9300,"instit":9301,"jor":9302,"psykolog":9303,"##keligt":9304,"##line":9305,"##peut":9306,"##pens":9307,"##iddel":9308,"jacob":9309,"robert":9310,"protokoll":9311,"dyrt":9312,"forvand":9313,"behor":9314,"cell":9315,"noter":9316,"erhvervs":9317,"ledam":9318,"rit":9319,"sildenafil":9320,"spark":9321,"legger":9322,"##stallningen":9323,"##oser":9324,"##skriften":9325,"antall":9326,"forklaring":9327,"origin":9328,"fedt":9329,"##dy":9330,"utredning":9331,"søg":9332,"##unnen":9333,"hypotekslan":9334,"miljarder":9335,"pizza":9336,"##gruppe":9337,"skyldig":9338,"argument":9339,"works":9340,"##bid":9341,"muskel":9342,"skram":9343,"##forhold":9344,"vivan":9345,"##arden":9346,"##cus":9347,"musikk":9348,"pak":9349,"reager":9350,"kvinnan":9351,"##sling":9352,"sprid":9353,"navig":9354,"bedriv":9355,"modul":9356,"kortet":9357,"minimum":9358,"retten":9359,"##stekn":9360,"sto":9361,"framsta":9362,"mika":9363,"##satter":9364,"utbildnings":9365,"diabet":9366,"arbetat":9367,"##sforen":9368,"infekt":9369,"utrymme":9370,"pædagog":9371,"farligt":9372,"forbund":9373,"dryck":9374,"tranar":9375,"ryssland":9376,"perman":9377,"##uelt":9378,"##holdsvis":9379,"vivanza":9380,"pod":9381,"##boken":9382,"##esel":9383,"formen":9384,"filosof":9385,"boras":9386,"deltar":9387,"loss":9388,"##gatt":9389,"franska":9390,"sovrum":9391,"tonaring":9392,"##ision":9393,"fjarde":9394,"ansigt":9395,"noga":9396,"beskytt":9397,"vejledning":9398,"tl":9399,"norrkoping":9400,"tilpas":9401,"tjeneste":9402,"kendte":9403,"ansvarig":9404,"ændre":9405,"kvalific":9406,"order":9407,"presentation":9408,"yng":9409,"fattig":9410,"west":9411,"axel":9412,"69":9413,"sommeren":9414,"##spital":9415,"nødvendige":9416,"vedlige":9417,"##beskrivning":9418,"##18":9419,"kris":9420,"lækre":9421,"bott":9422,"pic":9423,"##statt":9424,"1800":9425,"enlighet":9426,"cum":9427,"##soft":9428,"##ningerne":9429,"ikea":9430,"onskemal":9431,"##sbruk":9432,"forskare":9433,"##ckan":9434,"##fat":9435,"sannolikt":9436,"finna":9437,"ingredienser":9438,"skillnaden":9439,"##værks":9440,"phil":9441,"arena":9442,"revolut":9443,"skolor":9444,"sarskild":9445,"##bær":9446,"lulea":9447,"vente":9448,"##partementet":9449,"inge":9450,"##skov":9451,"##produktion":9452,"kristna":9453,"shop":9454,"gustav":9455,"punkter":9456,"kabel":9457,"##felt":9458,"webs":9459,"ambition":9460,"##iler":9461,"good":9462,"hunde":9463,"##oten":9464,"signal":9465,"spennende":9466,"træn":9467,"pepp":9468,"ansvarar":9469,"infrast":9470,"appl":9471,"##bevar":9472,"get":9473,"gom":9474,"arbetsgiv":9475,"##holdes":9476,"lamnas":9477,"nærmest":9478,"omfattar":9479,"apen":9480,"udsigt":9481,"indre":9482,"##huvud":9483,"innovation":9484,"##nsyn":9485,"##slyck":9486,"svarer":9487,"forsokt":9488,"mulige":9489,"tilgjengelig":9490,"traffas":9491,"call":9492,"bryst":9493,"anstr":9494,"##bring":9495,"bind":9496,"vaxjo":9497,"pigg":9498,"##wood":9499,"varder":9500,"##briken":9501,"lis":9502,"##emidler":9503,"hinder":9504,"levering":9505,"##pri":9506,"almindelige":9507,"##ces":9508,"kolon":9509,"tyske":9510,"##ners":9511,"##ksjoner":9512,"ramme":9513,"sir":9514,"intressen":9515,"koster":9516,"##høj":9517,"##anken":9518,"barndom":9519,"fasta":9520,"index":9521,"gennemsnit":9522,"benytte":9523,"halva":9524,"##flytt":9525,"inkom":9526,"##ografer":9527,"##smiljo":9528,"##iere":9529,"nt":9530,"samverkan":9531,"##tran":9532,"omstand":9533,"fora":9534,"rasmus":9535,"inser":9536,"perf":9537,"vedrørende":9538,"parter":9539,"##orget":9540,"totala":9541,"hverandre":9542,"vurdere":9543,"omedelbart":9544,"##øbet":9545,"forresten":9546,"ekonomisk":9547,"upptacka":9548,"##pad":9549,"formed":9550,"aktuelle":9551,"pengene":9552,"##sform":9553,"blek":9554,"rat":9555,"##planen":9556,"baten":9557,"medborg":9558,"amnet":9559,"nedenfor":9560,"framgar":9561,"selskab":9562,"trend":9563,"hust":9564,"para":9565,"bin":9566,"fodbold":9567,"databas":9568,"##vida":9569,"interessant":9570,"fleks":9571,"spins":9572,"demonstr":9573,"obligator":9574,"eventuelt":9575,"frid":9576,"produc":9577,"##strateg":9578,"ressour":9579,"##drom":9580,"driva":9581,"arbejdspl":9582,"handle":9583,"bestaende":9584,"maltid":9585,"##botten":9586,"virke":9587,"inl":9588,"kold":9589,"##rene":9590,"cal":9591,"grus":9592,"svarare":9593,"##yder":9594,"dobbelt":9595,"##tor":9596,"##eland":9597,"##funktion":9598,"##ortt":9599,"##forslag":9600,"##somraden":9601,"rejalt":9602,"aw":9603,"sed":9604,"grundlag":9605,"penger":9606,"##asy":9607,"forpack":9608,"62":9609,"isa":9610,"døg":9611,"slang":9612,"føle":9613,"lagstift":9614,"pann":9615,"oxa":9616,"innenfor":9617,"paus":9618,"flyttade":9619,"trivs":9620,"handlade":9621,"##ølv":9622,"utstyr":9623,"skiljer":9624,"##lekar":9625,"##material":9626,"eskorter":9627,"##tav":9628,"grønne":9629,"lyser":9630,"biler":9631,"instrument":9632,"##smiljø":9633,"##roller":9634,"safremt":9635,"72":9636,"##unk":9637,"enor":9638,"##byte":9639,"##fig":9640,"distrikt":9641,"mysig":9642,"glade":9643,"skoj":9644,"afg":9645,"hemsidan":9646,"skandinav":9647,"snakke":9648,"mp":9649,"intresserade":9650,"kvadrat":9651,"##stig":9652,"forebygg":9653,"abonnem":9654,"##slivet":9655,"sjon":9656,"visse":9657,"beskæftig":9658,"##ares":9659,"borgere":9660,"##bane":9661,"home":9662,"##færd":9663,"##maktige":9664,"sammens":9665,"køn":9666,"##com":9667,"styrka":9668,"snur":9669,"melod":9670,"storbritannien":9671,"misslyck":9672,"komplett":9673,"##ibel":9674,"upptack":9675,"dokumentation":9676,"forteller":9677,"utdanning":9678,"søke":9679,"##saft":9680,"##fakt":9681,"lax":9682,"##yrer":9683,"##umt":9684,"##delt":9685,"karin":9686,"teori":9687,"svenskar":9688,"##ked":9689,"verd":9690,"##ordet":9691,"fremgar":9692,"intill":9693,"blan":9694,"##ripande":9695,"netværk":9696,"##iering":9697,"bytte":9698,"julen":9699,"forvir":9700,"tirsdag":9701,"##hjælp":9702,"øvrigt":9703,"uppmarksamhet":9704,"kortare":9705,"android":9706,"##hjal":9707,"##ingsdag":9708,"riksdag":9709,"sve":9710,"brit":9711,"nic":9712,"avlon":9713,"##stal":9714,"udgifter":9715,"male":9716,"forhallanden":9717,"elit":9718,"##kred":9719,"højde":9720,"riv":9721,"skader":9722,"##igheder":9723,"restaurant":9724,"traningen":9725,"lagar":9726,"støtt":9727,"lyssnar":9728,"rust":9729,"##ally":9730,"deltog":9731,"fremtiden":9732,"leksaker":9733,"springer":9734,"##ettig":9735,"eiendom":9736,"##sal":9737,"##alafil":9738,"jamt":9739,"asiat":9740,"elektr":9741,"omojligt":9742,"##bag":9743,"linda":9744,"1990":9745,"leverantorer":9746,"anti":9747,"##radd":9748,"trond":9749,"spir":9750,"tadalafil":9751,"visser":9752,"##amn":9753,"##icera":9754,"##ifi":9755,"jakob":9756,"europæ":9757,"harmon":9758,"rengor":9759,"kaka":9760,"lost":9761,"##iled":9762,"asikter":9763,"skjul":9764,"##ines":9765,"hug":9766,"shem":9767,"##gick":9768,"troligen":9769,"##fla":9770,"stemme":9771,"livsmedel":9772,"##sna":9773,"##pir":9774,"##onger":9775,"anord":9776,"rog":9777,"wa":9778,"opdag":9779,"relevante":9780,"ess":9781,"skona":9782,"grand":9783,"jattebra":9784,"##ystemet":9785,"egendom":9786,"innehallet":9787,"##kod":9788,"umiddelbart":9789,"løse":9790,"erbjudande":9791,"linne":9792,"manglende":9793,"mader":9794,"halvt":9795,"skala":9796,"tidig":9797,"##skra":9798,"forskel":9799,"perioder":9800,"fjerne":9801,"##mak":9802,"plasser":9803,"bevar":9804,"etablering":9805,"tabell":9806,"syge":9807,"##dørs":9808,"antagligen":9809,"trevliga":9810,"##oen":9811,"##sgr":9812,"gyl":9813,"suger":9814,"vanligaste":9815,"latin":9816,"##antering":9817,"##rades":9818,"leka":9819,"##cia":9820,"pleje":9821,"graviditet":9822,"fattar":9823,"vision":9824,"forvaltning":9825,"flicka":9826,"##forl":9827,"faktur":9828,"##skvall":9829,"##sre":9830,"vandet":9831,"kru":9832,"citron":9833,"sykdom":9834,"overord":9835,"forber":9836,"retning":9837,"dyker":9838,"##forsk":9839,"inomhus":9840,"indik":9841,"##udselig":9842,"##mede":9843,"visserligen":9844,"bedrift":9845,"gifta":9846,"##meter":9847,"utomlands":9848,"serier":9849,"riktlinjer":9850,"knappast":9851,"##emark":9852,"##fyller":9853,"diskret":9854,"##rost":9855,"forbe":9856,"patienten":9857,"ago":9858,"##sbest":9859,"presentera":9860,"##platt":9861,"intim":9862,"##agas":9863,"kallad":9864,"thor":9865,"uc":9866,"1999":9867,"hellre":9868,"pludselig":9869,"hvide":9870,"shemale":9871,"benen":9872,"deltage":9873,"##hals":9874,"faktura":9875,"gymnasie":9876,"final":9877,"narmast":9878,"phot":9879,"ran":9880,"begrav":9881,"##opa":9882,"##emon":9883,"##ianter":9884,"liker":9885,"glæder":9886,"uttr":9887,"##ath":9888,"##uch":9889,"uke":9890,"skapat":9891,"knut":9892,"ekonomiskt":9893,"dann":9894,"fræk":9895,"broder":9896,"##olf":9897,"gemensam":9898,"kollar":9899,"##komma":9900,"evenemang":9901,"planera":9902,"hverken":9903,"bund":9904,"mkt":9905,"parall":9906,"tvart":9907,"ekst":9908,"planerar":9909,"##ktorn":9910,"festival":9911,"brut":9912,"well":9913,"kontra":9914,"halmstad":9915,"spin":9916,"offer":9917,"hjer":9918,"operation":9919,"tap":9920,"vo":9921,"pers":9922,"diskrimin":9923,"##egen":9924,"67":9925,"hev":9926,"munnen":9927,"##garen":9928,"##lej":9929,"gb":9930,"trist":9931,"##24":9932,"##enes":9933,"##okl":9934,"tryg":9935,"aktuell":9936,"##zon":9937,"66":9938,"vigtigste":9939,"kassa":9940,"rens":9941,"##vat":9942,"oppdater":9943,"##driv":9944,"astr":9945,"##16":9946,"effekten":9947,"manniskan":9948,"bransch":9949,"sutt":9950,"haper":9951,"##ningslin":9952,"allmanhet":9953,"bis":9954,"aks":9955,"jobbade":9956,"vanligen":9957,"lordagen":9958,"vacc":9959,"##uttar":9960,"henv":9961,"legg":9962,"flytte":9963,"188":9964,"norden":9965,"klik":9966,"atgard":9967,"fysiske":9968,"vises":9969,"minister":9970,"konsult":9971,"##øve":9972,"stiller":9973,"muslim":9974,"motesplatsen":9975,"gig":9976,"##bærer":9977,"kreditkort":9978,"endda":9979,"likt":9980,"komfort":9981,"bul":9982,"laten":9983,"##spa":9984,"styre":9985,"gave":9986,"steget":9987,"vask":9988,"es":9989,"uppre":9990,"##øje":9991,"regnskab":9992,"stærkt":9993,"byggnader":9994,"##ekk":9995,"rask":9996,"kaj":9997,"planering":9998,"##slet":9999,"konver":10000,"klasser":10001,"udover":10002,"oppr":10003,"savel":10004,"ml":10005,"konkrete":10006,"smatt":10007,"unikt":10008,"oppe":10009,"##sky":10010,"eventuelle":10011,"pussy":10012,"olja":10013,"tang":10014,"##post":10015,"stemmer":10016,"hp":10017,"ovanligt":10018,"behalla":10019,"bif":10020,"taket":10021,"sci":10022,"styra":10023,"eleverne":10024,"##samtal":10025,"email":10026,"landsting":10027,"deretter":10028,"kryss":10029,"##ye":10030,"##ørt":10031,"##etid":10032,"petter":10033,"utmaningar":10034,"##14":10035,"sidde":10036,"geng":10037,"multi":10038,"tydelig":10039,"##styrelsens":10040,"beskrivelse":10041,"veien":10042,"stannar":10043,"##stan":10044,"titel":10045,"prom":10046,"undersøgelse":10047,"##slin":10048,"arbetst":10049,"avslapp":10050,"opfatt":10051,"sites":10052,"jamfora":10053,"mikael":10054,"billigare":10055,"familje":10056,"lægger":10057,"legit":10058,"##bruks":10059,"##endt":10060,"anvende":10061,"kod":10062,"anderledes":10063,"goteborgs":10064,"##haver":10065,"dvd":10066,"##disk":10067,"simon":10068,"darifran":10069,"perfekte":10070,"hul":10071,"##sberg":10072,"tenn":10073,"tungt":10074,"planter":10075,"movies":10076,"butikker":10077,"##splanen":10078,"##artik":10079,"##ited":10080,"postadress":10081,"troligt":10082,"jobber":10083,"syv":10084,"ligge":10085,"sektor":10086,"ica":10087,"blogga":10088,"##landa":10089,"bik":10090,"styret":10091,"forbedre":10092,"sket":10093,"debatten":10094,"analyse":10095,"funnet":10096,"##fuld":10097,"idrett":10098,"angest":10099,"nabo":10100,"sikkerhet":10101,"##iør":10102,"kull":10103,"##tagelse":10104,"katastro":10105,"##data":10106,"avloningsdag":10107,"attra":10108,"##jejer":10109,"karriar":10110,"kyckling":10111,"##stillet":10112,"styrelse":10113,"løp":10114,"brom":10115,"granser":10116,"chil":10117,"fremme":10118,"etn":10119,"optimer":10120,"##eler":10121,"roy":10122,"erkan":10123,"##istik":10124,"##hengig":10125,"møter":10126,"uppstar":10127,"summa":10128,"eksempler":10129,"eventuell":10130,"hedder":10131,"##byggnad":10132,"installation":10133,"pagældende":10134,"begynte":10135,"alumin":10136,"sønder":10137,"verksamheter":10138,"glomt":10139,"##anders":10140,"##isch":10141,"tradgarden":10142,"vardagen":10143,"##ikte":10144,"##isin":10145,"##gangar":10146,"forfatter":10147,"##læring":10148,"skjut":10149,"raka":10150,"forar":10151,"forbl":10152,"omdom":10153,"seger":10154,"materialer":10155,"hack":10156,"tjana":10157,"##skurs":10158,"domin":10159,"separat":10160,"kvartal":10161,"moral":10162,"koppla":10163,"small":10164,"##sproblem":10165,"betalas":10166,"##ico":10167,"##uligheder":10168,"erbjuds":10169,"##holdelse":10170,"hørt":10171,"grymt":10172,"##sommar":10173,"##kelsen":10174,"human":10175,"tycks":10176,"##ypt":10177,"ideal":10178,"##naren":10179,"garn":10180,"inslag":10181,"##belt":10182,"virus":10183,"uv":10184,"ukra":10185,"##ategor":10186,"webcam":10187,"lot":10188,"rehabil":10189,"daglige":10190,"fader":10191,"oplevelser":10192,"ostra":10193,"faglige":10194,"færre":10195,"missa":10196,"sandsyn":10197,"##ool":10198,"alter":10199,"##agan":10200,"##stillingen":10201,"afdeling":10202,"##beth":10203,"##varde":10204,"##information":10205,"elin":10206,"spot":10207,"kalk":10208,"##ingo":10209,"doda":10210,"##øjet":10211,"sug":10212,"skat":10213,"berlin":10214,"##bolaget":10215,"tekniske":10216,"udviklet":10217,"##vark":10218,"processer":10219,"uppenbar":10220,"##shus":10221,"trening":10222,"konferens":10223,"spl":10224,"holm":10225,"mata":10226,"##sas":10227,"høyre":10228,"skyld":10229,"bd":10230,"transa":10231,"ør":10232,"kapacitet":10233,"##edia":10234,"tillsatt":10235,"hyggelig":10236,"speciella":10237,"rekommendera":10238,"bevilj":10239,"speed":10240,"##ical":10241,"##rona":10242,"63":10243,"manskliga":10244,"observ":10245,"rida":10246,"parlam":10247,"insats":10248,"emellan":10249,"##ogon":10250,"##lerne":10251,"lediga":10252,"deltager":10253,"rand":10254,"##rats":10255,"fødsels":10256,"lægge":10257,"point":10258,"hamnade":10259,"##fre":10260,"svarade":10261,"##vete":10262,"tusentals":10263,"velge":10264,"##ular":10265,"##bus":10266,"flyttar":10267,"nielsen":10268,"udgør":10269,"##spe":10270,"microsoft":10271,"bubb":10272,"lisa":10273,"hormon":10274,"eskil":10275,"negativ":10276,"udviklingen":10277,"larsson":10278,"ordinar":10279,"##spris":10280,"register":10281,"aluminium":10282,"##vern":10283,"berom":10284,"straks":10285,"##kopings":10286,"spraket":10287,"gjøres":10288,"kilo":10289,"kone":10290,"stallning":10291,"weekend":10292,"##got":10293,"stannade":10294,"##ano":10295,"skarp":10296,"##pression":10297,"forskell":10298,"feber":10299,"##onde":10300,"##plads":10301,"projekter":10302,"##hydr":10303,"fiber":10304,"bære":10305,"fabrik":10306,"omfattende":10307,"foton":10308,"##vention":10309,"bens":10310,"baseret":10311,"fysiska":10312,"farmor":10313,"##uth":10314,"graf":10315,"retningslin":10316,"passe":10317,"kunstner":10318,"kilde":10319,"ringe":10320,"traditionella":10321,"klub":10322,"vinden":10323,"expert":10324,"yog":10325,"sælger":10326,"sjalvstand":10327,"fredags":10328,"##ingarna":10329,"klokker":10330,"speciell":10331,"verklighet":10332,"anvande":10333,"fyldt":10334,"beløb":10335,"købt":10336,"øjne":10337,"gront":10338,"fasciner":10339,"høyt":10340,"ole":10341,"følelser":10342,"faststall":10343,"##omb":10344,"##losning":10345,"certifier":10346,"##tain":10347,"umgas":10348,"oberoende":10349,"##sborg":10350,"forlang":10351,"slutligen":10352,"efterhanden":10353,"utstra":10354,"plugga":10355,"stres":10356,"dygt":10357,"##glas":10358,"lyfta":10359,"paga":10360,"##iellt":10361,"que":10362,"takk":10363,"medlemskap":10364,"##ikon":10365,"##yndigheten":10366,"##´s":10367,"gutt":10368,"lyft":10369,"andring":10370,"##meddel":10371,"vardenafil":10372,"##aaaa":10373,"tapet":10374,"slippa":10375,"utvikle":10376,"filer":10377,"runda":10378,"##90":10379,"##dyr":10380,"listen":10381,"bron":10382,"##liggande":10383,"##finans":10384,"utgar":10385,"workshop":10386,"agen":10387,"uppman":10388,"bestallning":10389,"texter":10390,"internett":10391,"##meste":10392,"digitale":10393,"bryr":10394,"watch":10395,"meningen":10396,"arhund":10397,"undvik":10398,"staende":10399,"brugte":10400,"mia":10401,"spekt":10402,"praktiskt":10403,"sambo":10404,"sje":10405,"##espiller":10406,"sørge":10407,"foljde":10408,"##konto":10409,"synlig":10410,"##banan":10411,"##skiftet":10412,"selskabet":10413,"##rende":10414,"##usion":10415,"fuldt":10416,"##uu":10417,"##besk":10418,"lena":10419,"jente":10420,"beach":10421,"rejser":10422,"##kert":10423,"fjall":10424,"afrik":10425,"##isterna":10426,"bokstav":10427,"leag":10428,"##løsning":10429,"fjell":10430,"oph":10431,"insag":10432,"act":10433,"##osen":10434,"olof":10435,"life":10436,"anbefale":10437,"##spol":10438,"sjukvard":10439,"##iviteter":10440,"svenske":10441,"kompetanse":10442,"kanon":10443,"skara":10444,"dejlige":10445,"diabetes":10446,"nyhed":10447,"hamtade":10448,"centralt":10449,"##inspekt":10450,"##bygget":10451,"veckans":10452,"hanna":10453,"##strand":10454,"tech":10455,"negativt":10456,"frist":10457,"##oppa":10458,"regnet":10459,"##pack":10460,"##stang":10461,"lagenheter":10462,"yta":10463,"prop":10464,"esb":10465,"kass":10466,"##organ":10467,"##try":10468,"kond":10469,"##gubb":10470,"afgørende":10471,"landskap":10472,"pall":10473,"##esjon":10474,"ida":10475,"teoret":10476,"##xid":10477,"bekant":10478,"myst":10479,"bjuda":10480,"ikk":10481,"##ømt":10482,"adam":10483,"arbeider":10484,"elektronisk":10485,"frokost":10486,"psykiat":10487,"##rettel":10488,"svær":10489,"##ssystemet":10490,"exempl":10491,"sper":10492,"tjug":10493,"##rukket":10494,"##edom":10495,"armen":10496,"besoker":10497,"rast":10498,"leverer":10499,"doft":10500,"##splatser":10501,"brasil":10502,"beteende":10503,"vinster":10504,"##kler":10505,"fortalte":10506,"glomma":10507,"noveller":10508,"##rut":10509,"forskolan":10510,"medie":10511,"osc":10512,"##sall":10513,"##itten":10514,"linjer":10515,"primært":10516,"rekommenderas":10517,"opfyldt":10518,"fott":10519,"##bæk":10520,"##videre":10521,"class":10522,"stoppa":10523,"1998":10524,"temat":10525,"nede":10526,"##iera":10527,"rollen":10528,"dagligen":10529,"medarbejder":10530,"vælg":10531,"##skommun":10532,"forf":10533,"186":10534,"##25":10535,"##ikere":10536,"##mester":10537,"tavla":10538,"smule":10539,"fann":10540,"brud":10541,"ik":10542,"sas":10543,"metoden":10544,"lask":10545,"skape":10546,"amatør":10547,"##adt":10548,"aktorer":10549,"ekskl":10550,"udbud":10551,"68":10552,"bage":10553,"minnes":10554,"syssel":10555,"##sspel":10556,"hente":10557,"planet":10558,"lud":10559,"nør":10560,"##stein":10561,"##75":10562,"afsnit":10563,"uaf":10564,"##pligt":10565,"##ison":10566,"##kap":10567,"##light":10568,"##bana":10569,"bh":10570,"uansett":10571,"mobler":10572,"##porr":10573,"##maskiner":10574,"##sku":10575,"karleken":10576,"gronsaker":10577,"##butik":10578,"##landske":10579,"ordinarie":10580,"forsak":10581,"belysning":10582,"gymnasiet":10583,"lone":10584,"kontaktannonser":10585,"##stander":10586,"dun":10587,"skabt":10588,"klag":10589,"##13":10590,"inbjud":10591,"##kok":10592,"søde":10593,"generellt":10594,"foremal":10595,"koka":10596,"lenger":10597,"biblioteket":10598,"##erare":10599,"##last":10600,"spelas":10601,"##æs":10602,"hyl":10603,"hallen":10604,"endvidere":10605,"##ffen":10606,"meddelande":10607,"mekan":10608,"cur":10609,"##sbygg":10610,"afton":10611,"larande":10612,"old":10613,"imorse":10614,"hamn":10615,"vik":10616,"stream":10617,"somnade":10618,"matematik":10619,"malin":10620,"himlen":10621,"mex":10622,"olie":10623,"our":10624,"dress":10625,"gjord":10626,"harry":10627,"skifte":10628,"jamforelse":10629,"tradisjon":10630,"utlaning":10631,"##ordes":10632,"##ensson":10633,"femte":10634,"mobile":10635,"begynner":10636,"andersen":10637,"kanaler":10638,"publikum":10639,"mage":10640,"maskinen":10641,"ovre":10642,"lamplig":10643,"omt":10644,"##samheten":10645,"tillag":10646,"ophold":10647,"ledsen":10648,"morse":10649,"formalet":10650,"minus":10651,"snack":10652,"eric":10653,"proces":10654,"intakter":10655,"stram":10656,"skum":10657,"byggnad":10658,"spri":10659,"rich":10660,"##ansvart":10661,"##verkt":10662,"selskap":10663,"##bry":10664,"anvandar":10665,"bredt":10666,"dygnet":10667,"traffat":10668,"meny":10669,"blow":10670,"riksdagen":10671,"forstod":10672,"pant":10673,"jeans":10674,"loven":10675,"sød":10676,"biljetter":10677,"league":10678,"forholdet":10679,"regeringens":10680,"stof":10681,"høst":10682,"velat":10683,"komplic":10684,"##brud":10685,"##ugh":10686,"kondom":10687,"ig":10688,"fagel":10689,"##cykel":10690,"temperaturen":10691,"88":10692,"##imeter":10693,"avsloj":10694,"erotiske":10695,"galla":10696,"##teras":10697,"##osition":10698,"belon":10699,"##ebror":10700,"##ampa":10701,"naturlige":10702,"tø":10703,"grundlæg":10704,"1900":10705,"grans":10706,"infrastruktur":10707,"statt":10708,"hockey":10709,"may":10710,"losen":10711,"##rollen":10712,"tredj":10713,"upphov":10714,"bevid":10715,"produktionen":10716,"ask":10717,"kveld":10718,"day":10719,"##bund":10720,"##cing":10721,"skoter":10722,"fokusera":10723,"##beratt":10724,"kontoret":10725,"administration":10726,"johannes":10727,"udfordringer":10728,"##agaren":10729,"tilrettel":10730,"spiser":10731,"utnyttja":10732,"##liggende":10733,"passager":10734,"forløb":10735,"lei":10736,"##staf":10737,"varianter":10738,"andamal":10739,"karlsson":10740,"naz":10741,"mund":10742,"pon":10743,"benyttes":10744,"##elsene":10745,"##spiller":10746,"upplag":10747,"aga":10748,"tillater":10749,"##ize":10750,"direktør":10751,"tilpass":10752,"hastighet":10753,"afrika":10754,"musikal":10755,"##tagen":10756,"sjovt":10757,"revider":10758,"gubb":10759,"verkade":10760,"##19":10761,"##js":10762,"##ænding":10763,"##lista":10764,"##cake":10765,"comment":10766,"kostnaden":10767,"internationale":10768,"levende":10769,"udeluk":10770,"harda":10771,"universitetet":10772,"##holmen":10773,"98":10774,"annons":10775,"fara":10776,"korte":10777,"trag":10778,"personale":10779,"rengør":10780,"##parten":10781,"forrige":10782,"simpelthen":10783,"##stande":10784,"selskapet":10785,"stallde":10786,"ib":10787,"##imm":10788,"medfor":10789,"##tjanst":10790,"days":10791,"##rustning":10792,"starkare":10793,"andas":10794,"##yre":10795,"mental":10796,"legat":10797,"tuff":10798,"cle":10799,"endte":10800,"vaggen":10801,"dater":10802,"##nelse":10803,"regelbundet":10804,"sjukdomar":10805,"hasten":10806,"venlig":10807,"wi":10808,"tages":10809,"pren":10810,"hop":10811,"##eser":10812,"##olin":10813,"konsert":10814,"sexfilm":10815,"snor":10816,"tenke":10817,"##skilde":10818,"##holdning":10819,"leverantor":10820,"##delses":10821,"##egnet":10822,"bevæ":10823,"##proc":10824,"sjukskoter":10825,"sendes":10826,"pæn":10827,"##ript":10828,"##och":10829,"progn":10830,"slapper":10831,"tunga":10832,"elegant":10833,"favoriter":10834,"##jam":10835,"nivaer":10836,"undersoka":10837,"##oli":10838,"generation":10839,"drive":10840,"##dighed":10841,"700":10842,"term":10843,"vite":10844,"##kanten":10845,"alm":10846,"almindelig":10847,"kirken":10848,"roligare":10849,"##22":10850,"intellig":10851,"latta":10852,"attack":10853,"william":10854,"handlingar":10855,"betaler":10856,"##programmet":10857,"moment":10858,"oftest":10859,"skriftlig":10860,"##mans":10861,"##iserar":10862,"moden":10863,"farre":10864,"kirk":10865,"##hh":10866,"københavns":10867,"nøgen":10868,"anbefales":10869,"74":10870,"brudar":10871,"minnen":10872,"damp":10873,"filter":10874,"##radets":10875,"virt":10876,"download":10877,"anton":10878,"jazz":10879,"##vnte":10880,"##go":10881,"sakerstalla":10882,"kick":10883,"religi":10884,"game":10885,"affarer":10886,"loj":10887,"dramat":10888,"flor":10889,"plugg":10890,"stada":10891,"fotball":10892,"overg":10893,"ink":10894,"medveten":10895,"finalen":10896,"sle":10897,"gitar":10898,"formand":10899,"betong":10900,"##jonen":10901,"introduktion":10902,"nettsteder":10903,"kannas":10904,"##ira":10905,"sammenhæng":10906,"foreligger":10907,"ryd":10908,"aktive":10909,"ovant":10910,"areal":10911,"avtalet":10912,"action":10913,"soll":10914,"avses":10915,"studien":10916,"startede":10917,"kjenner":10918,"##sprocessen":10919,"djupt":10920,"overenskomm":10921,"forstark":10922,"positive":10923,"repræsent":10924,"##pros":10925,"insattning":10926,"narings":10927,"##ioxid":10928,"bbw":10929,"genast":10930,"anlaggning":10931,"hest":10932,"likad":10933,"hardcore":10934,"##ratter":10935,"##ooth":10936,"sorte":10937,"tuttar":10938,"ving":10939,"##vast":10940,"##ovens":10941,"historisk":10942,"##famil":10943,"integritet":10944,"erstat":10945,"byn":10946,"beslutning":10947,"henvis":10948,"invanare":10949,"slett":10950,"##zy":10951,"verket":10952,"hyg":10953,"##evis":10954,"musiken":10955,"drø":10956,"bomull":10957,"aring":10958,"##17":10959,"umu":10960,"rene":10961,"tæ":10962,"##aldern":10963,"behandlar":10964,"roller":10965,"uker":10966,"synner":10967,"##yrelsen":10968,"##kendte":10969,"raskt":10970,"sanna":10971,"handelse":10972,"traf":10973,"utslapp":10974,"udenfor":10975,"ønskede":10976,"asa":10977,"haven":10978,"sigt":10979,"utstrackning":10980,"##ruppen":10981,"premium":10982,"bun":10983,"understø":10984,"teknolog":10985,"usikker":10986,"tyder":10987,"nut":10988,"øster":10989,"strum":10990,"##ægter":10991,"konkurran":10992,"ekster":10993,"gjorts":10994,"basert":10995,"##grad":10996,"goran":10997,"recensioner":10998,"##otet":10999,"soldater":11000,"konsumenter":11001,"inspel":11002,"motte":11003,"##rogen":11004,"demokrati":11005,"##sfri":11006,"beskriva":11007,"utgifter":11008,"##vikt":11009,"koordin":11010,"fremover":11011,"##een":11012,"##seffekt":11013,"midsommar":11014,"dækker":11015,"##opro":11016,"museet":11017,"open":11018,"##talje":11019,"##fj":11020,"skoler":11021,"eventyr":11022,"raknar":11023,"##industri":11024,"trondheim":11025,"vedkommende":11026,"##edygt":11027,"suttit":11028,"dorr":11029,"bjer":11030,"trang":11031,"79":11032,"hjemmesiden":11033,"anpassa":11034,"##visor":11035,"init":11036,"hakan":11037,"gjenopprett":11038,"##kun":11039,"permanent":11040,"##pade":11041,"##dagar":11042,"kran":11043,"upplevelser":11044,"##ude":11045,"silke":11046,"praktiska":11047,"##aven":11048,"verkliga":11049,"flag":11050,"apne":11051,"hovedet":11052,"cra":11053,"spont":11054,"utgang":11055,"##eringer":11056,"prøvet":11057,"##pool":11058,"advent":11059,"nogens":11060,"bebygg":11061,"stiger":11062,"døren":11063,"datorer":11064,"omtal":11065,"hammar":11066,"uppat":11067,"what":11068,"dl":11069,"tvar":11070,"modtaget":11071,"klatt":11072,"##efter":11073,"sports":11074,"disc":11075,"##sette":11076,"tidning":11077,"##sby":11078,"kompens":11079,"##tage":11080,"galt":11081,"##jun":11082,"##kurs":11083,"lastbil":11084,"byens":11085,"##ela":11086,"slots":11087,"johanna":11088,"foljt":11089,"##sned":11090,"mam":11091,"##ove":11092,"##shem":11093,"##uppgift":11094,"##kræ":11095,"løbe":11096,"papek":11097,"genop":11098,"framme":11099,"somna":11100,"##ppa":11101,"kb":11102,"skatter":11103,"klokken":11104,"øget":11105,"##arbeider":11106,"foretagets":11107,"besikt":11108,"lott":11109,"viktigste":11110,"##ype":11111,"levere":11112,"premiar":11113,"billedet":11114,"svin":11115,"hatar":11116,"gev":11117,"designet":11118,"ansikte":11119,"tje":11120,"bengt":11121,"##førelse":11122,"ledde":11123,"moln":11124,"overgre":11125,"smidigt":11126,"nyar":11127,"motsvarar":11128,"frekv":11129,"##stjen":11130,"##lejer":11131,"snalla":11132,"trosor":11133,"##amet":11134,"portug":11135,"lanken":11136,"baserat":11137,"innebara":11138,"gunnar":11139,"schwe":11140,"usb":11141,"##iene":11142,"falder":11143,"##orth":11144,"##vitt":11145,"erk":11146,"holland":11147,"oprinde":11148,"zo":11149,"polen":11150,"jylland":11151,"skarm":11152,"king":11153,"kyrka":11154,"ugnen":11155,"bestammelser":11156,"ender":11157,"nøgne":11158,"vejr":11159,"spørge":11160,"reaktion":11161,"##strin":11162,"##elighed":11163,"##blog":11164,"m2":11165,"##behør":11166,"cv":11167,"auto":11168,"befintliga":11169,"piller":11170,"bilaga":11171,"##valitet":11172,"gulv":11173,"mojligen":11174,"##blom":11175,"##tek":11176,"maden":11177,"utvecklar":11178,"tendens":11179,"73":11180,"forvaltnings":11181,"ast":11182,"dos":11183,"##regn":11184,"##ingsm":11185,"serios":11186,"kjente":11187,"gjordes":11188,"samlar":11189,"flu":11190,"fød":11191,"ratts":11192,"##skydds":11193,"geograf":11194,"personlighet":11195,"##ous":11196,"76":11197,"tranare":11198,"group":11199,"klarer":11200,"##jour":11201,"report":11202,"kravet":11203,"labor":11204,"##asse":11205,"læst":11206,"urin":11207,"arbetsgivare":11208,"værk":11209,"##mord":11210,"ert":11211,"##rikes":11212,"street":11213,"skonhet":11214,"##stolen":11215,"fordju":11216,"duktiga":11217,"parken":11218,"leverera":11219,"gengæld":11220,"proff":11221,"mem":11222,"ændring":11223,"his":11224,"planerat":11225,"poeng":11226,"1980":11227,"prenumer":11228,"##aldte":11229,"##sagt":11230,"tilbyr":11231,"anhor":11232,"glim":11233,"ultim":11234,"##værelse":11235,"modne":11236,"rekommend":11237,"trin":11238,"78":11239,"hverdagen":11240,"upptackt":11241,"stycket":11242,"##iserer":11243,"forpligt":11244,"indkøb":11245,"kritisk":11246,"levereras":11247,"##spir":11248,"syftar":11249,"lycklig":11250,"eier":11251,"vardet":11252,"tunnel":11253,"##perioden":11254,"pakke":11255,"værelse":11256,"enhed":11257,"varierar":11258,"overskud":11259,"annonsen":11260,"##bbe":11261,"1500":11262,"hass":11263,"uppfattning":11264,"##bling":11265,"klan":11266,"foretagen":11267,"forkyl":11268,"immun":11269,"trække":11270,"gillade":11271,"tvartom":11272,"storst":11273,"##ifest":11274,"reise":11275,"##hn":11276,"inkluderar":11277,"bam":11278,"##rus":11279,"øke":11280,"telefoner":11281,"tillæg":11282,"teamet":11283,"white":11284,"tour":11285,"##formed":11286,"nordiska":11287,"kika":11288,"ipad":11289,"bostadsratt":11290,"larm":11291,"jesper":11292,"kjøre":11293,"fans":11294,"1970":11295,"benytter":11296,"##udvikling":11297,"negativa":11298,"praktiske":11299,"varenda":11300,"tavlingar":11301,"##itz":11302,"metode":11303,"nm":11304,"næst":11305,"arbetslos":11306,"trus":11307,"vandring":11308,"volvo":11309,"##kene":11310,"indgar":11311,"tingene":11312,"reserver":11313,"skydds":11314,"godkendt":11315,"metal":11316,"bakat":11317,"party":11318,"##bildning":11319,"##klan":11320,"brød":11321,"herren":11322,"magt":11323,"repl":11324,"##ankande":11325,"konstruktion":11326,"historiska":11327,"fastigheten":11328,"modtage":11329,"licens":11330,"tings":11331,"jamstalld":11332,"kollegor":11333,"bygninger":11334,"landsbyg":11335,"gemenskap":11336,"ikon":11337,"##medlem":11338,"##ckande":11339,"badoo":11340,"forklarar":11341,"harom":11342,"faktor":11343,"beskrevet":11344,"nogensinde":11345,"antik":11346,"spesial":11347,"bredband":11348,"##arter":11349,"##bile":11350,"eme":11351,"hyd":11352,"internationell":11353,"arkitektur":11354,"##kak":11355,"##træk":11356,"##skick":11357,"stop":11358,"snon":11359,"langvar":11360,"##profil":11361,"squ":11362,"evne":11363,"aktenskap":11364,"##vind":11365,"##asten":11366,"malm":11367,"instrukt":11368,"bekl":11369,"##ission":11370,"frivillige":11371,"skett":11372,"verka":11373,"##21":11374,"fenomen":11375,"elementer":11376,"volym":11377,"##eled":11378,"asi":11379,"##strøm":11380,"trump":11381,"billige":11382,"##uc":11383,"smaning":11384,"rep":11385,"##rund":11386,"##efte":11387,"stik":11388,"sakta":11389,"specifika":11390,"forventes":11391,"flyttet":11392,"kud":11393,"##anmark":11394,"lovar":11395,"iran":11396,"##ningsfor":11397,"uppmun":11398,"##ttes":11399,"opmærksomhed":11400,"##ojligheter":11401,"profiler":11402,"praktiken":11403,"resultaten":11404,"politi":11405,"fornem":11406,"##olade":11407,"inriktning":11408,"naring":11409,"skillnader":11410,"siffror":11411,"reis":11412,"ombord":11413,"##ragende":11414,"##asinon":11415,"behandla":11416,"##verkets":11417,"bea":11418,"##anne":11419,"##elden":11420,"##hovedet":11421,"##sekret":11422,"forandras":11423,"hjalpte":11424,"##gjorde":11425,"lordags":11426,"debut":11427,"##oteller":11428,"##ils":11429,"personligen":11430,"enheten":11431,"valp":11432,"tydliga":11433,"kæl":11434,"mæng":11435,"97":11436,"funktionen":11437,"persson":11438,"fastigheter":11439,"charm":11440,"##saf":11441,"hustru":11442,"##stjarn":11443,"junior":11444,"##kningen":11445,"migr":11446,"variant":11447,"##erades":11448,"gransen":11449,"trett":11450,"kopen":11451,"vakt":11452,"##vejs":11453,"flyt":11454,"medvir":11455,"185":11456,"##aring":11457,"##rutt":11458,"foredrar":11459,"import":11460,"carol":11461,"upphandling":11462,"sorts":11463,"tlf":11464,"allian":11465,"vantade":11466,"##pul":11467,"##skottet":11468,"personalet":11469,"stadens":11470,"fantasi":11471,"vidste":11472,"##bryt":11473,"utmaning":11474,"deleg":11475,"fortsætter":11476,"dick":11477,"overblik":11478,"dagis":11479,"nærmeste":11480,"blank":11481,"77":11482,"##idan":11483,"stanga":11484,"bryta":11485,"ott":11486,"gøres":11487,"offentligt":11488,"##merksom":11489,"vaxter":11490,"##ningss":11491,"magasin":11492,"læng":11493,"##huse":11494,"ledere":11495,"##muse":11496,"kvant":11497,"kvinnliga":11498,"##skær":11499,"spred":11500,"riskerar":11501,"sexuella":11502,"solgt":11503,"##øen":11504,"vende":11505,"sondagen":11506,"beton":11507,"lopande":11508,"vegetar":11509,"naringsliv":11510,"netto":11511,"##savtal":11512,"ljuset":11513,"forsøger":11514,"##samf":11515,"banen":11516,"##agna":11517,"innhold":11518,"ikkje":11519,"##anderna":11520,"ordentlig":11521,"96":11522,"##adelse":11523,"##eve":11524,"smaningom":11525,"fredagen":11526,"stærke":11527,"1997":11528,"saaa":11529,"##bba":11530,"ambul":11531,"eskilst":11532,"morka":11533,"overlag":11534,"##jerne":11535,"rektor":11536,"##dagens":11537,"##slosa":11538,"anlegg":11539,"lakemed":11540,"primar":11541,"arenden":11542,"##elin":11543,"##formaga":11544,"##spros":11545,"##vanlig":11546,"eskorte":11547,"lom":11548,"##beide":11549,"##setter":11550,"levererar":11551,"søvn":11552,"##havare":11553,"uds":11554,"##glad":11555,"livsl":11556,"fonder":11557,"tilbyde":11558,"byer":11559,"komfor":11560,"##domar":11561,"smerte":11562,"hundrat":11563,"lukket":11564,"boliger":11565,"##essig":11566,"mæl":11567,"garderob":11568,"##klub":11569,"insikt":11570,"drabbas":11571,"galet":11572,"ogonblick":11573,"fornuft":11574,"##ew":11575,"eriksson":11576,"budsj":11577,"cap":11578,"kalas":11579,"##cell":11580,"storlekar":11581,"setter":11582,"vakna":11583,"klokke":11584,"omfattet":11585,"##skapen":11586,"##usi":11587,"##kningar":11588,"engas":11589,"##bod":11590,"fremragende":11591,"uppdraget":11592,"xx":11593,"klanning":11594,"##iserat":11595,"sovjet":11596,"##aminer":11597,"##imenter":11598,"mente":11599,"kommers":11600,"frugt":11601,"ts":11602,"rose":11603,"gotland":11604,"##rapporter":11605,"valuta":11606,"drivs":11607,"##kir":11608,"##iliteter":11609,"##edda":11610,"tillbring":11611,"myr":11612,"halls":11613,"schweiz":11614,"enige":11615,"bdsm":11616,"blandning":11617,"##udvalget":11618,"tt":11619,"sosiale":11620,"emeller":11621,"##spra":11622,"oppmerksom":11623,"##vagn":11624,"##sbr":11625,"kraven":11626,"tvingas":11627,"kigge":11628,"##attan":11629,"skinn":11630,"alexander":11631,"radighed":11632,"##gym":11633,"##hvert":11634,"##lagte":11635,"premier":11636,"##stalt":11637,"eskilstuna":11638,"ordin":11639,"##sutveck":11640,"emellertid":11641,"troja":11642,"avsluta":11643,"friluft":11644,"##plass":11645,"jarnvag":11646,"##ansvarig":11647,"win":11648,"##trafik":11649,"##øring":11650,"utok":11651,"##jente":11652,"##banken":11653,"##cl":11654,"webben":11655,"delas":11656,"basis":11657,"##sbel":11658,"##uder":11659,"##ves":11660,"oliv":11661,"187":11662,"spendera":11663,"put":11664,"uppfyller":11665,"##vas":11666,"omvand":11667,"paverkas":11668,"sanningen":11669,"balanser":11670,"##menn":11671,"gustaf":11672,"##itation":11673,"kød":11674,"##eks":11675,"julklapp":11676,"falla":11677,"##gelse":11678,"##emask":11679,"ugen":11680,"træner":11681,"kommunala":11682,"fragorna":11683,"minuters":11684,"moss":11685,"##bocker":11686,"plug":11687,"##omet":11688,"tvatta":11689,"add":11690,"vildt":11691,"mester":11692,"##æd":11693,"anmala":11694,"##slar":11695,"##istiskt":11696,"skønne":11697,"mørke":11698,"##kontroll":11699,"bestemte":11700,"dygn":11701,"##steg":11702,"pojkar":11703,"barneh":11704,"##igar":11705,"util":11706,"alternativet":11707,"##acka":11708,"reson":11709,"##priser":11710,"løber":11711,"##to":11712,"frivillig":11713,"gatan":11714,"##dalen":11715,"##iseringen":11716,"##kelser":11717,"kw":11718,"##orts":11719,"emner":11720,"komplex":11721,"jenny":11722,"uteslut":11723,"hospital":11724,"sajten":11725,"89":11726,"observera":11727,"##pum":11728,"studio":11729,"##vne":11730,"mangel":11731,"##utomater":11732,"ande":11733,"handerna":11734,"##dringen":11735,"ambas":11736,"yrke":11737,"##uddannelse":11738,"leje":11739,"aff":11740,"jordgubb":11741,"riktning":11742,"aterstall":11743,"oppnade":11744,"sprut":11745,"familier":11746,"##ssk":11747,"webblas":11748,"swe":11749,"manniskors":11750,"bondage":11751,"innlegget":11752,"tjejerna":11753,"##ume":11754,"framgangs":11755,"86":11756,"##lt":11757,"medbor":11758,"##budet":11759,"##agande":11760,"hette":11761,"recension":11762,"jess":11763,"skyn":11764,"##klipp":11765,"sannsyn":11766,"institutioner":11767,"tillverkar":11768,"ændret":11769,"sanger":11770,"kav":11771,"aspekter":11772,"europas":11773,"branschen":11774,"hallet":11775,"hobby":11776,"foreldre":11777,"##just":11778,"hoppade":11779,"forfattaren":11780,"kandidat":11781,"##splatsen":11782,"heder":11783,"internationellt":11784,"fm":11785,"##sniva":11786,"scan":11787,"bryll":11788,"##lyser":11789,"gjennomført":11790,"runde":11791,"##stemmelse":11792,"drommar":11793,"##porn":11794,"##shandel":11795,"andringar":11796,"trycka":11797,"##gardar":11798,"utvalg":11799,"##skrivning":11800,"dahl":11801,"erkl":11802,"barnens":11803,"foddes":11804,"uppgifterna":11805,"komponenter":11806,"mari":11807,"støv":11808,"pagaende":11809,"nark":11810,"inneholder":11811,"##boende":11812,"rop":11813,"dagliga":11814,"##verks":11815,"lur":11816,"##ener":11817,"beakt":11818,"viktige":11819,"che":11820,"syri":11821,"##havet":11822,"orange":11823,"priserna":11824,"##strup":11825,"publiken":11826,"presenteras":11827,"overnatt":11828,"##arke":11829,"##log":11830,"##bj":11831,"fatta":11832,"mega":11833,"iii":11834,"forordning":11835,"bespar":11836,"##parken":11837,"medlemsst":11838,"how":11839,"traden":11840,"##ute":11841,"produktet":11842,"samtale":11843,"konkurrens":11844,"samord":11845,"packa":11846,"montering":11847,"forskola":11848,"hantering":11849,"##km":11850,"##bygning":11851,"##ætter":11852,"medans":11853,"muligheden":11854,"generelle":11855,"tekniken":11856,"##øte":11857,"oppett":11858,"bestod":11859,"kommunale":11860,"oscar":11861,"sofia":11862,"begrepp":11863,"##eliv":11864,"vilde":11865,"magnet":11866,"deltagarna":11867,"samlat":11868,"##sok":11869,"stykker":11870,"vikten":11871,"utviklet":11872,"jobbe":11873,"##ementet":11874,"stærk":11875,"avkast":11876,"nøj":11877,"##hyr":11878,"europæiske":11879,"kanten":11880,"##hs":11881,"klage":11882,"kvart":11883,"brø":11884,"ola":11885,"katter":11886,"##mast":11887,"solna":11888,"ankom":11889,"legen":11890,"##varda":11891,"dyra":11892,"##inet":11893,"##unns":11894,"##spelet":11895,"##bevis":11896,"vigtige":11897,"vice":11898,"she":11899,"brow":11900,"##adet":11901,"forman":11902,"##koppling":11903,"##rim":11904,"##holl":11905,"celler":11906,"ifragas":11907,"koncern":11908,"katol":11909,"hjarnan":11910,"fotografer":11911,"##gøre":11912,"##samen":11913,"begransad":11914,"nordic":11915,"betalningsanmark":11916,"fair":11917,"wikip":11918,"##smæssige":11919,"##sættelse":11920,"opfor":11921,"alders":11922,"grundlæggende":11923,"redov":11924,"tele":11925,"84":11926,"rika":11927,"jattef":11928,"tydeligt":11929,"brugere":11930,"##forand":11931,"klubbens":11932,"ze":11933,"kursus":11934,"heltid":11935,"delakt":11936,"tværs":11937,"##væk":11938,"##forsta":11939,"byggt":11940,"tross":11941,"##stider":11942,"sprida":11943,"fotter":11944,"sørger":11945,"##ymp":11946,"krydd":11947,"##yser":11948,"smink":11949,"interview":11950,"ytan":11951,"fare":11952,"batteri":11953,"begiven":11954,"artikler":11955,"##kommit":11956,"australien":11957,"oppettider":11958,"svett":11959,"hekt":11960,"pasient":11961,"sjælland":11962,"uppdatera":11963,"reglerna":11964,"bitar":11965,"110":11966,"kommissionen":11967,"##kna":11968,"ulf":11969,"lækkert":11970,"marke":11971,"##day":11972,"##peratur":11973,"muslimer":11974,"olj":11975,"uafhæng":11976,"institution":11977,"##zer":11978,"bab":11979,"fjarr":11980,"hoteller":11981,"enkle":11982,"##annan":11983,"finaste":11984,"optimal":11985,"foss":11986,"anstallning":11987,"##pes":11988,"stavanger":11989,"træt":11990,"##sakerhet":11991,"##ffel":11992,"udarbej":11993,"lit":11994,"ond":11995,"stru":11996,"sparar":11997,"##storp":11998,"utstallning":11999,"##kamera":12000,"forsvann":12001,"forbjud":12002,"citat":12003,"##iseras":12004,"forsvars":12005,"##skabel":12006,"sr":12007,"aktuellt":12008,"forskjell":12009,"vig":12010,"forklarer":12011,"##blet":12012,"nedre":12013,"display":12014,"guid":12015,"##etning":12016,"bistand":12017,"klær":12018,"doktor":12019,"knap":12020,"mobb":12021,"##forvaltningen":12022,"unna":12023,"##cket":12024,"##staller":12025,"varet":12026,"rimelig":12027,"manden":12028,"karta":12029,"bevidst":12030,"oron":12031,"skab":12032,"hih":12033,"faglig":12034,"jas":12035,"intensiv":12036,"farsk":12037,"utbildningar":12038,"livets":12039,"sentr":12040,"##nats":12041,"dalarna":12042,"rag":12043,"uppvarm":12044,"##deb":12045,"homosex":12046,"mangden":12047,"integration":12048,"skik":12049,"##tom":12050,"##kvalitet":12051,"nyhetsbrev":12052,"james":12053,"klassiker":12054,"##ørsel":12055,"byr":12056,"størst":12057,"skuespiller":12058,"begav":12059,"##osta":12060,"forlust":12061,"misstag":12062,"nils":12063,"husker":12064,"klassiske":12065,"stek":12066,"##ylar":12067,"elva":12068,"bekræ":12069,"effektiva":12070,"stilla":12071,"##ibilitet":12072,"testat":12073,"panik":12074,"besøge":12075,"spej":12076,"egypt":12077,"japansk":12078,"arbejdsmark":12079,"##rette":12080,"light":12081,"fyllt":12082,"tilbehør":12083,"##plom":12084,"adressen":12085,"allerg":12086,"roskilde":12087,"kronika":12088,"kontanter":12089,"odds":12090,"stoffer":12091,"rosta":12092,"##ologiskt":12093,"direktiv":12094,"budskap":12095,"##orp":12096,"maxim":12097,"orolig":12098,"##rod":12099,"##fulde":12100,"datingside":12101,"apoteket":12102,"studera":12103,"##politik":12104,"funktionsned":12105,"blød":12106,"fortr":12107,"digitalt":12108,"arliga":12109,"##spass":12110,"outfit":12111,"##ivir":12112,"foreskrifter":12113,"halvar":12114,"valget":12115,"beraknas":12116,"##ømmer":12117,"##assiga":12118,"forvantningar":12119,"hyresg":12120,"stoff":12121,"nøy":12122,"muligheter":12123,"vunnit":12124,"føles":12125,"##itte":12126,"non":12127,"midten":12128,"snakker":12129,"bebis":12130,"gymmet":12131,"smslan":12132,"kontakten":12133,"mjuka":12134,"yttre":12135,"værelser":12136,"skud":12137,"##edem":12138,"cel":12139,"##ualitet":12140,"##fold":12141,"##skrona":12142,"##igheden":12143,"dets":12144,"følte":12145,"derimod":12146,"fak":12147,"##førsel":12148,"symptomer":12149,"endringer":12150,"bolagets":12151,"afstand":12152,"pay":12153,"medicinsk":12154,"##رررر":12155,"uppfoljning":12156,"arbetsplats":12157,"intryck":12158,"pur":12159,"##das":12160,"##hlm":12161,"##drift":12162,"væsentlig":12163,"annoncer":12164,"bibliote":12165,"sha":12166,"tull":12167,"seng":12168,"##uge":12169,"mødes":12170,"blok":12171,"betydande":12172,"##lon":12173,"##lock":12174,"esbjerg":12175,"efterfragan":12176,"manag":12177,"overensstemmelse":12178,"innehalla":12179,"ventet":12180,"##livet":12181,"medisin":12182,"spekul":12183,"##no":12184,"nike":12185,"karakt":12186,"grunde":12187,"##uti":12188,"ere":12189,"danska":12190,"summer":12191,"##bjerg":12192,"##morgon":12193,"##stallda":12194,"##resultat":12195,"900":12196,"hallbarhet":12197,"hjemmel":12198,"##branschen":12199,"##dating":12200,"vejle":12201,"gla":12202,"##staver":12203,"svare":12204,"iden":12205,"laggs":12206,"enig":12207,"##spolitik":12208,"tidpunkt":12209,"forandra":12210,"##papper":12211,"tjanste":12212,"potential":12213,"statsminister":12214,"bildet":12215,"tja":12216,"##systemet":12217,"alternat":12218,"nordisk":12219,"hær":12220,"work":12221,"##unge":12222,"##igaste":12223,"uni":12224,"##smode":12225,"##klad":12226,"orter":12227,"##bran":12228,"hungr":12229,"morfar":12230,"##supp":12231,"patri":12232,"##design":12233,"skapade":12234,"83":12235,"##afton":12236,"dengang":12237,"sølv":12238,"designer":12239,"retter":12240,"##saken":12241,"ana":12242,"geb":12243,"kommunfull":12244,"##oman":12245,"testet":12246,"toil":12247,"inbland":12248,"##ni":12249,"muligheten":12250,"avlopp":12251,"forstatt":12252,"forekomm":12253,"radet":12254,"ledige":12255,"##dam":12256,"##ekort":12257,"baka":12258,"utsatta":12259,"##massigt":12260,"mans":12261,"kampanj":12262,"bekvamt":12263,"##sprogrammet":12264,"finska":12265,"jakla":12266,"bunden":12267,"##sendt":12268,"##bandet":12269,"farlig":12270,"distribut":12271,"natter":12272,"tillgod":12273,"kapp":12274,"##spunkter":12275,"tomm":12276,"døds":12277,"forvag":12278,"utlandska":12279,"romer":12280,"øge":12281,"paborj":12282,"##moder":12283,"first":12284,"sjuka":12285,"##hopp":12286,"syss":12287,"milli":12288,"godkant":12289,"##vendt":12290,"lette":12291,"belg":12292,"representanter":12293,"##oer":12294,"sams":12295,"langsamt":12296,"redovisning":12297,"togs":12298,"overhovedet":12299,"atervin":12300,"##issar":12301,"stodja":12302,"hi":12303,"##pre":12304,"##stedt":12305,"hoja":12306,"revision":12307,"##ogne":12308,"##ugen":12309,"presenterar":12310,"nice":12311,"strategier":12312,"sannolik":12313,"passion":12314,"tyng":12315,"nylig":12316,"agera":12317,"##sperioden":12318,"underlatta":12319,"sove":12320,"vejret":12321,"medborgare":12322,"cr":12323,"##sjo":12324,"udl":12325,"hantverk":12326,"math":12327,"##teckning":12328,"##sreg":12329,"##sert":12330,"olsson":12331,"analyt":12332,"placera":12333,"bay":12334,"udelukkende":12335,"94":12336,"##koll":12337,"##rull":12338,"hænder":12339,"inbygg":12340,"ledarskap":12341,"enter":12342,"vaknar":12343,"revisor":12344,"tacksam":12345,"forald":12346,"##ejen":12347,"diesel":12348,"##utrym":12349,"undt":12350,"##stin":12351,"184":12352,"bøn":12353,"content":12354,"##yen":12355,"hjemmet":12356,"uppmarksamm":12357,"behandlet":12358,"orsaken":12359,"kemikal":12360,"##øret":12361,"syskon":12362,"hamna":12363,"##ary":12364,"##grunden":12365,"##bre":12366,"##synet":12367,"##ado":12368,"##hoj":12369,"blue":12370,"randers":12371,"dras":12372,"barcel":12373,"ytterst":12374,"rank":12375,"fungere":12376,"betydelig":12377,"norska":12378,"indholdet":12379,"sonen":12380,"kristus":12381,"##ides":12382,"##figur":12383,"##skur":12384,"oppdrag":12385,"##stillstand":12386,"mess":12387,"##organisation":12388,"forma":12389,"foresla":12390,"uppehall":12391,"ves":12392,"asikt":12393,"##forn":12394,"##dæk":12395,"nyttig":12396,"investeringar":12397,"tjenest":12398,"nyeste":12399,"61":12400,"ønsk":12401,"##oritet":12402,"##kra":12403,"dricker":12404,"velger":12405,"smaken":12406,"##bolig":12407,"utredningen":12408,"wo":12409,"##yns":12410,"gammalt":12411,"tilstræk":12412,"nybor":12413,"##entar":12414,"forsiktig":12415,"bearbet":12416,"82":12417,"paverkan":12418,"##bø":12419,"feed":12420,"affaren":12421,"ef":12422,"virkeligheden":12423,"93":12424,"uppfor":12425,"forsen":12426,"##skostnader":12427,"tagg":12428,"ansag":12429,"##struktur":12430,"##sbas":12431,"nævnt":12432,"ovningar":12433,"##sagare":12434,"##ect":12435,"atmosfar":12436,"intresset":12437,"bakterier":12438,"besokte":12439,"##svær":12440,"krediter":12441,"##bost":12442,"alska":12443,"##terat":12444,"udgave":12445,"kjæreste":12446,"robin":12447,"norrland":12448,"##agning":12449,"fællesskab":12450,"brister":12451,"bredd":12452,"foraldrarna":12453,"kompetencer":12454,"kriterier":12455,"##serie":12456,"##bygger":12457,"forbrug":12458,"fangelse":12459,"sidorna":12460,"tillganglighet":12461,"##forsaljare":12462,"stigende":12463,"backen":12464,"nad":12465,"##prom":12466,"##marken":12467,"blowjob":12468,"drenge":12469,"klam":12470,"valut":12471,"ish":12472,"nude":12473,"lektion":12474,"forsiktigt":12475,"kreditvar":12476,"internasjonale":12477,"elisa":12478,"suga":12479,"##emedlem":12480,"understre":12481,"kvalite":12482,"roster":12483,"##uttede":12484,"skak":12485,"skri":12486,"kit":12487,"dir":12488,"henblik":12489,"##slok":12490,"slip":12491,"##lu":12492,"følelse":12493,"søren":12494,"kommentera":12495,"bockerna":12496,"kvm":12497,"forhindra":12498,"bollen":12499,"##økelse":12500,"markant":12501,"lufthav":12502,"##kelen":12503,"##drende":12504,"vandt":12505,"##stens":12506,"manager":12507,"nærings":12508,"##ely":12509,"kopenhamn":12510,"kræft":12511,"sthlm":12512,"mt":12513,"arne":12514,"born":12515,"##iek":12516,"renovering":12517,"begrænset":12518,"ama":12519,"samlas":12520,"fog":12521,"robot":12522,"1996":12523,"##eftea":12524,"##don":12525,"mærker":12526,"politiken":12527,"byggnads":12528,"##estall":12529,"drev":12530,"##ily":12531,"henta":12532,"##vidt":12533,"karleks":12534,"sagtens":12535,"exister":12536,"placeret":12537,"sande":12538,"##klubben":12539,"##priset":12540,"klager":12541,"tram":12542,"opstar":12543,"lady":12544,"##kvar":12545,"##eman":12546,"veckorna":12547,"risker":12548,"kaos":12549,"beskrivs":12550,"access":12551,"utro":12552,"synpunkter":12553,"##øyd":12554,"mission":12555,"##sider":12556,"regi":12557,"1995":12558,"##barhet":12559,"division":12560,"##departementet":12561,"institutionen":12562,"troms":12563,"organisasjon":12564,"1994":12565,"##smaterial":12566,"hundarna":12567,"definer":12568,"lung":12569,"tjek":12570,"henholdsvis":12571,"ovanfor":12572,"##avgift":12573,"##tex":12574,"skje":12575,"kristne":12576,"tilldel":12577,"##agte":12578,"handtere":12579,"##bul":12580,"paminner":12581,"specifikt":12582,"skrack":12583,"##cipl":12584,"##sand":12585,"cha":12586,"berattelser":12587,"sadanne":12588,"##aktor":12589,"##skador":12590,"berattelse":12591,"vav":12592,"bryter":12593,"indfly":12594,"larar":12595,"leker":12596,"indien":12597,"franske":12598,"##redovis":12599,"sticka":12600,"balt":12601,"turister":12602,"92":12603,"gel":12604,"skridt":12605,"##ævnet":12606,"vurderer":12607,"##lang":12608,"allmanheten":12609,"##chat":12610,"krever":12611,"##hult":12612,"##firma":12613,"midlertid":12614,"gest":12615,"##visningar":12616,"lagring":12617,"##sfull":12618,"losenord":12619,"forord":12620,"forvantas":12621,"##lasser":12622,"vester":12623,"dommer":12624,"kundens":12625,"foresp":12626,"arrangementer":12627,"ledningen":12628,"ravar":12629,"vell":12630,"pt":12631,"planlagt":12632,"uppskattar":12633,"konflikter":12634,"dm":12635,"fax":12636,"sammenhæn":12637,"diskussioner":12638,"byder":12639,"ledd":12640,"rart":12641,"avsikt":12642,"fuldstændig":12643,"byter":12644,"fonstret":12645,"regjeringen":12646,"minimer":12647,"rakar":12648,"pump":12649,"##backen":12650,"kokos":12651,"cru":12652,"aukt":12653,"kategorin":12654,"##erats":12655,"foreningar":12656,"fartyg":12657,"##stof":12658,"##ls":12659,"##sbolag":12660,"##istret":12661,"pratat":12662,"versionen":12663,"stoppe":12664,"russiske":12665,"plattform":12666,"højeste":12667,"bruks":12668,"ramen":12669,"##pal":12670,"##hæ":12671,"##oci":12672,"sf":12673,"sovit":12674,"##centrum":12675,"lærere":12676,"taxi":12677,"sana":12678,"viking":12679,"gifte":12680,"##yndighet":12681,"bytt":12682,"tester":12683,"1960":12684,"konserv":12685,"svensson":12686,"fordelt":12687,"virkning":12688,"spanska":12689,"installning":12690,"niels":12691,"munt":12692,"diplom":12693,"##skamp":12694,"gluten":12695,"godkand":12696,"##emiddel":12697,"160":12698,"bygning":12699,"filtr":12700,"##okument":12701,"vett":12702,"inspekt":12703,"gur":12704,"##irekt":12705,"reglerne":12706,"website":12707,"udtal":12708,"stalls":12709,"dagligt":12710,"hvorvidt":12711,"maling":12712,"laborator":12713,"##arbeidet":12714,"websted":12715,"touch":12716,"spann":12717,"inatt":12718,"huse":12719,"kasta":12720,"frost":12721,"acceptera":12722,"larsen":12723,"##varor":12724,"pred":12725,"gras":12726,"flack":12727,"##snittet":12728,"fortjan":12729,"##atoren":12730,"tabletter":12731,"udført":12732,"restaurangen":12733,"angar":12734,"terra":12735,"avse":12736,"kys":12737,"times":12738,"aldsta":12739,"vert":12740,"oversigt":12741,"##esund":12742,"87":12743,"##resor":12744,"utfly":12745,"##ago":12746,"signaler":12747,"vinkel":12748,"flyttat":12749,"meddela":12750,"vanilj":12751,"vistelse":12752,"nemmere":12753,"regioner":12754,"enorma":12755,"videon":12756,"bakgrunn":12757,"astad":12758,"avis":12759,"links":12760,"arbetsuppgifter":12761,"potens":12762,"gilla":12763,"opprinn":12764,"lagde":12765,"tekniker":12766,"tjejen":12767,"kyst":12768,"samtlige":12769,"ansoka":12770,"omgaende":12771,"brittiska":12772,"overgripande":12773,"undersøgelser":12774,"lansstyrelsen":12775,"##ony":12776,"klient":12777,"lykke":12778,"pick":12779,"kreativitet":12780,"skjøn":12781,"##icia":12782,"##hd":12783,"##øder":12784,"abent":12785,"cer":12786,"sjældent":12787,"tabellen":12788,"internettet":12789,"korkort":12790,"gigant":12791,"argumenter":12792,"dek":12793,"upptackte":12794,"##kons":12795,"virksomhet":12796,"##front":12797,"socialdemokrat":12798,"butikken":12799,"pojkvan":12800,"andres":12801,"narkot":12802,"##serien":12803,"##cca":12804,"##stjanst":12805,"##okrater":12806,"brukere":12807,"##gol":12808,"morten":12809,"vantat":12810,"detsamma":12811,"referens":12812,"##pla":12813,"##ng":12814,"timmars":12815,"morkt":12816,"komforta":12817,"conta":12818,"##lings":12819,"##lær":12820,"##spelare":12821,"omfattas":12822,"bakgrunden":12823,"ljung":12824,"respons":12825,"besviken":12826,"videokl":12827,"bæredygt":12828,"sallad":12829,"fortid":12830,"##vader":12831,"skickade":12832,"danne":12833,"skur":12834,"missat":12835,"samlade":12836,"justin":12837,"was":12838,"wikipedia":12839,"tander":12840,"seb":12841,"fotterna":12842,"ern":12843,"wifi":12844,"okning":12845,"140":12846,"blin":12847,"##zen":12848,"variera":12849,"rutin":12850,"cirkul":12851,"lykkes":12852,"forventer":12853,"forbereda":12854,"##rere":12855,"##36":12856,"##sfall":12857,"ordre":12858,"avgj":12859,"repu":12860,"opptatt":12861,"ordningen":12862,"journalister":12863,"mødt":12864,"##plant":12865,"killen":12866,"drømme":12867,"loppet":12868,"##æves":12869,"loser":12870,"##bjud":12871,"jobben":12872,"skapas":12873,"iværks":12874,"2020":12875,"asiatiska":12876,"##duk":12877,"forlorade":12878,"kommunikasjon":12879,"##yo":12880,"passet":12881,"##setning":12882,"rettet":12883,"##inci":12884,"tillfreds":12885,"ordna":12886,"bm":12887,"sundheds":12888,"ideen":12889,"ondt":12890,"##hantering":12891,"##ligvis":12892,"banklan":12893,"tjanstem":12894,"romantisk":12895,"forars":12896,"pad":12897,"##spartner":12898,"gennemført":12899,"kvadratmeter":12900,"fardiga":12901,"innefatt":12902,"kommunerna":12903,"derved":12904,"netta":12905,"lavt":12906,"styrket":12907,"mick":12908,"sofa":12909,"obehag":12910,"fordele":12911,"fanga":12912,"##pin":12913,"losningen":12914,"opbevar":12915,"forg":12916,"chatta":12917,"##sens":12918,"tidligt":12919,"pavirker":12920,"komplet":12921,"oskar":12922,"##geren":12923,"kvarter":12924,"dial":12925,"poster":12926,"##vor":12927,"trivsel":12928,"##blogg":12929,"nødvendigvis":12930,"begreppet":12931,"fulla":12932,"spelarna":12933,"populart":12934,"##ulette":12935,"kurset":12936,"##ssitu":12937,"##idor":12938,"marcus":12939,"##iff":12940,"njuter":12941,"smerter":12942,"krang":12943,"##rafik":12944,"##paket":12945,"##skifte":12946,"producent":12947,"##dress":12948,"vedtak":12949,"skiva":12950,"ryk":12951,"gry":12952,"antib":12953,"bonde":12954,"allvarligt":12955,"festen":12956,"##estad":12957,"night":12958,"godkanner":12959,"repræsen":12960,"##plassen":12961,"risikoen":12962,"rorelser":12963,"proced":12964,"fremst":12965,"##put":12966,"m²":12967,"hjertet":12968,"oppdag":12969,"agent":12970,"uav":12971,"##hard":12972,"##sajter":12973,"##forskning":12974,"støj":12975,"katten":12976,"##præ":12977,"##melige":12978,"doser":12979,"rehabilitering":12980,"##iserte":12981,"##vask":12982,"rytt":12983,"sosial":12984,"leverandør":12985,"regl":12986,"##istent":12987,"nervos":12988,"##endelser":12989,"hmm":12990,"##central":12991,"##verktyg":12992,"avgora":12993,"send":12994,"##skilt":12995,"kreditupp":12996,"orientering":12997,"chan":12998,"##lav":12999,"fynd":13000,"blatt":13001,"applik":13002,"##gir":13003,"##halsa":13004,"ostersund":13005,"##jare":13006,"##ømte":13007,"omh":13008,"valk":13009,"scener":13010,"dott":13011,"omgivelser":13012,"university":13013,"vokser":13014,"inspirerande":13015,"skræ":13016,"##yse":13017,"lita":13018,"skip":13019,"##jd":13020,"traditionell":13021,"##tas":13022,"ped":13023,"##ington":13024,"jev":13025,"kasino":13026,"##oplysninger":13027,"forventninger":13028,"udby":13029,"asiatisk":13030,"alvorlig":13031,"gives":13032,"erkanna":13033,"130":13034,"epis":13035,"svend":13036,"krigen":13037,"stott":13038,"plante":13039,"who":13040,"ledamoter":13041,"mum":13042,"avlag":13043,"##splaner":13044,"biograf":13045,"fruktansvart":13046,"menyn":13047,"##produkt":13048,"rante":13049,"hera":13050,"rh":13051,"lampligt":13052,"billigaste":13053,"##sbeg":13054,"fc":13055,"formiddagen":13056,"##hallanden":13057,"kroppens":13058,"førte":13059,"college":13060,"##cast":13061,"escortt":13062,"avsnittet":13063,"servicen":13064,"##rukturen":13065,"halvtim":13066,"bestemmelser":13067,"##bell":13068,"kolding":13069,"emne":13070,"knep":13071,"massan":13072,"raddning":13073,"nettopp":13074,"##løst":13075,"tidningar":13076,"udgivet":13077,"specialist":13078,"##ywood":13079,"##delinger":13080,"pkt":13081,"trykk":13082,"##natur":13083,"angr":13084,"fitness":13085,"dron":13086,"ic":13087,"nasjonal":13088,"køle":13089,"chock":13090,"værdier":13091,"past":13092,"forloss":13093,"lyse":13094,"##garant":13095,"politiskt":13096,"##ible":13097,"enst":13098,"gjorda":13099,"aringen":13100,"##sbru":13101,"##cre":13102,"kropps":13103,"garanterat":13104,"palit":13105,"frustr":13106,"minskat":13107,"##smat":13108,"kontinuerligt":13109,"sammanfattning":13110,"##nitt":13111,"##nævn":13112,"tekster":13113,"informera":13114,"handika":13115,"arbetsmiljo":13116,"pian":13117,"adult":13118,"##hjemme":13119,"##ykkedes":13120,"management":13121,"brus":13122,"##skall":13123,"utforska":13124,"saljs":13125,"##lager":13126,"wow":13127,"##ulin":13128,"studiet":13129,"##givningen":13130,"ryck":13131,"##ify":13132,"##rens":13133,"dagbladet":13134,"##holdene":13135,"vurderes":13136,"vagbeskrivning":13137,"had":13138,"nul":13139,"arbejdsgiver":13140,"omkostninger":13141,"175":13142,"##ørte":13143,"kørte":13144,"pedersen":13145,"pause":13146,"hihi":13147,"huru":13148,"motivation":13149,"fullstandigt":13150,"tillampas":13151,"regne":13152,"stunder":13153,"orsaker":13154,"historiske":13155,"systemer":13156,"udarbejdet":13157,"miste":13158,"fisker":13159,"##frihet":13160,"miljoer":13161,"vaxande":13162,"seriosa":13163,"annoncen":13164,"gala":13165,"victoria":13166,"præm":13167,"##egard":13168,"desper":13169,"##komp":13170,"lem":13171,"hjelper":13172,"ansætt":13173,"fardigt":13174,"reseptfritt":13175,"videregaende":13176,"sammanlagt":13177,"##sbo":13178,"##ylla":13179,"blott":13180,"bemærk":13181,"lover":13182,"commun":13183,"damm":13184,"##ledningar":13185,"tillgangar":13186,"##holms":13187,"##ods":13188,"louise":13189,"mek":13190,"julia":13191,"##anmal":13192,"bemot":13193,"fyllde":13194,"##rater":13195,"vande":13196,"ce":13197,"##temot":13198,"room":13199,"levde":13200,"kollat":13201,"iron":13202,"elast":13203,"sygep":13204,"smukt":13205,"gna":13206,"skell":13207,"drack":13208,"unnga":13209,"oplysning":13210,"kontrollen":13211,"##hjalp":13212,"yttrande":13213,"smør":13214,"##vad":13215,"##alternativ":13216,"##vente":13217,"luks":13218,"desember":13219,"##entene":13220,"abb":13221,"bow":13222,"produkterna":13223,"##frem":13224,"blodet":13225,"globala":13226,"##undervisning":13227,"##iseres":13228,"foralder":13229,"marks":13230,"##sons":13231,"kup":13232,"irak":13233,"slanga":13234,"games":13235,"fungerande":13236,"policy":13237,"vinnare":13238,"toalett":13239,"##handler":13240,"aterupp":13241,"skolans":13242,"fysiskt":13243,"afgørelse":13244,"##forløb":13245,"øye":13246,"##like":13247,"forsam":13248,"depression":13249,"signer":13250,"darlige":13251,"privatpersoner":13252,"forlora":13253,"fugt":13254,"arrangemang":13255,"tennis":13256,"kende":13257,"##file":13258,"krafter":13259,"hvorefter":13260,"barcelona":13261,"darligt":13262,"udfyl":13263,"oversatt":13264,"##sning":13265,"symboler":13266,"##bull":13267,"71":13268,"hentai":13269,"grænse":13270,"prosjekter":13271,"##iskop":13272,"##cere":13273,"long":13274,"flickvan":13275,"scand":13276,"##ij":13277,"##atorn":13278,"##hænger":13279,"kriminal":13280,"statliga":13281,"stede":13282,"ovenfor":13283,"amnes":13284,"skarmen":13285,"##mende":13286,"eit":13287,"generalforsamling":13288,"##sep":13289,"print":13290,"satsar":13291,"befri":13292,"##inga":13293,"##oma":13294,"##ffade":13295,"faldt":13296,"ryt":13297,"hyper":13298,"ged":13299,"grabb":13300,"enstaka":13301,"##ups":13302,"##stark":13303,"aterstar":13304,"vinder":13305,"udst":13306,"artister":13307,"snacka":13308,"trekant":13309,"nodvandiga":13310,"militar":13311,"jonsson":13312,"leveres":13313,"fota":13314,"beund":13315,"retningslinjer":13316,"##isol":13317,"manus":13318,"##økonom":13319,"torka":13320,"##befin":13321,"vasent":13322,"kombinera":13323,"##ican":13324,"særdeles":13325,"byggnaden":13326,"utvardering":13327,"viktigare":13328,"##retten":13329,"##uster":13330,"resen":13331,"beliggen":13332,"fylkes":13333,"utvecklings":13334,"enskild":13335,"samrad":13336,"smaka":13337,"##omer":13338,"talat":13339,"mots":13340,"klapp":13341,"tilfred":13342,"restauranter":13343,"grek":13344,"##banen":13345,"oral":13346,"vager":13347,"spanning":13348,"maltider":13349,"filen":13350,"##motor":13351,"aa":13352,"##hjel":13353,"expon":13354,"myndigheten":13355,"suck":13356,"indflydelse":13357,"diskriminering":13358,"opprett":13359,"##arv":13360,"anvandarna":13361,"sjukhuset":13362,"isen":13363,"##regel":13364,"wild":13365,"forstor":13366,"harde":13367,"##agarna":13368,"lært":13369,"##laddning":13370,"varda":13371,"kunderna":13372,"narhet":13373,"deltagande":13374,"nud":13375,"beskyttelse":13376,"satsning":13377,"##kommun":13378,"begynde":13379,"utbetal":13380,"kampar":13381,"aterkommer":13382,"kalder":13383,"##foljande":13384,"school":13385,"finan":13386,"##iode":13387,"united":13388,"##oke":13389,"##sorganis":13390,"html":13391,"erhall":13392,"co2":13393,"kriget":13394,"##andan":13395,"ado":13396,"adresser":13397,"sakerhets":13398,"introducer":13399,"merke":13400,"1993":13401,"skyddar":13402,"manniskorna":13403,"slo":13404,"identifiera":13405,"værktøj":13406,"slap":13407,"##iljon":13408,"##gange":13409,"tilbag":13410,"opplæring":13411,"ført":13412,"overhuvud":13413,"ekspert":13414,"frien":13415,"trycker":13416,"torg":13417,"##etr":13418,"drott":13419,"kosta":13420,"##igheterna":13421,"kalle":13422,"##svagen":13423,"textil":13424,"##fram":13425,"##ifikation":13426,"utvalda":13427,"menings":13428,"tjanar":13429,"mattias":13430,"##elever":13431,"usch":13432,"fle":13433,"minimal":13434,"komprom":13435,"##uv":13436,"##ovan":13437,"dart":13438,"kust":13439,"ventilation":13440,"hahaha":13441,"##varna":13442,"sørg":13443,"anmark":13444,"sokande":13445,"brot":13446,"die":13447,"##ikat":13448,"pavirke":13449,"glatt":13450,"analsex":13451,"##gg":13452,"fortsætte":13453,"samarbejd":13454,"##ights":13455,"favoritter":13456,"stallt":13457,"##vise":13458,"anstalld":13459,"besluttet":13460,"tart":13461,"legges":13462,"balkong":13463,"vinduer":13464,"redd":13465,"retro":13466,"smuts":13467,"vilt":13468,"tron":13469,"klikke":13470,"undersokningen":13471,"tænkt":13472,"##cht":13473,"japanska":13474,"invig":13475,"vinteren":13476,"arendet":13477,"omstandigheter":13478,"samsung":13479,"matlag":13480,"foten":13481,"##stak":13482,"##xy":13483,"baserad":13484,"helger":13485,"170":13486,"rejal":13487,"undervejs":13488,"mindste":13489,"spen":13490,"flask":13491,"pier":13492,"medfører":13493,"##visningen":13494,"begag":13495,"majoritet":13496,"skel":13497,"galen":13498,"majoriteten":13499,"swingers":13500,"læder":13501,"cast":13502,"##begyn":13503,"chanser":13504,"gissa":13505,"konstatera":13506,"##issa":13507,"##kyr":13508,"##bott":13509,"##taket":13510,"##skriget":13511,"##stick":13512,"evaluering":13513,"inflytande":13514,"troligtvis":13515,"provat":13516,"##øjelse":13517,"bøl":13518,"framja":13519,"jenn":13520,"##menter":13521,"vitlok":13522,"viborg":13523,"hentet":13524,"arlige":13525,"klippa":13526,"støtter":13527,"holdet":13528,"##halt":13529,"##dack":13530,"katalog":13531,"klickar":13532,"malar":13533,"forvarva":13534,"glans":13535,"##gets":13536,"##visar":13537,"##alar":13538,"spørgsmalet":13539,"korn":13540,"about":13541,"kej":13542,"toner":13543,"svarigheter":13544,"pyss":13545,"kampa":13546,"##ørr":13547,"dumt":13548,"byte":13549,"##malm":13550,"##pak":13551,"##etts":13552,"høsten":13553,"##splikt":13554,"mull":13555,"##legging":13556,"terr":13557,"intervjuer":13558,"##oft":13559,"vaxte":13560,"##jakt":13561,"gilt":13562,"##vision":13563,"presse":13564,"ingred":13565,"saft":13566,"coun":13567,"redovisas":13568,"kore":13569,"grepp":13570,"sverigedem":13571,"karriere":13572,"plag":13573,"larde":13574,"##sajt":13575,"##ated":13576,"meng":13577,"bøker":13578,"ligner":13579,"##betyg":13580,"evangel":13581,"atl":13582,"##imentet":13583,"lykkedes":13584,"radgiver":13585,"cross":13586,"##entre":13587,"##board":13588,"omfattning":13589,"rubriken":13590,"lyfter":13591,"##emel":13592,"varderingar":13593,"omsattning":13594,"byxor":13595,"services":13596,"behandles":13597,"nei":13598,"biljett":13599,"##ætte":13600,"diagnost":13601,"normer":13602,"grin":13603,"grunder":13604,"gad":13605,"aktører":13606,"garage":13607,"utmark":13608,"##innan":13609,"slappte":13610,"kid":13611,"heraf":13612,"smaker":13613,"##bilen":13614,"sken":13615,"slutten":13616,"abner":13617,"uppdatering":13618,"kasser":13619,"professionell":13620,"aflever":13621,"utfors":13622,"scre":13623,"pornofilm":13624,"godkjen":13625,"danskere":13626,"titeln":13627,"any":13628,"##ating":13629,"copen":13630,"beaut":13631,"##krig":13632,"seksuelle":13633,"friske":13634,"##værker":13635,"redeg":13636,"spets":13637,"##inlagg":13638,"##edyr":13639,"hei":13640,"##løbet":13641,"lagstiftning":13642,"klarade":13643,"tabel":13644,"klog":13645,"##nom":13646,"indian":13647,"parf":13648,"plagg":13649,"stipen":13650,"##musik":13651,"tenker":13652,"arende":13653,"malen":13654,"lasning":13655,"utvid":13656,"varia":13657,"##peg":13658,"nur":13659,"fritids":13660,"gps":13661,"aja":13662,"utviklingen":13663,"##tro":13664,"aik":13665,"suver":13666,"##33":13667,"##omi":13668,"kandidater":13669,"oppgaver":13670,"gyll":13671,"tumbl":13672,"slutat":13673,"ursprungligen":13674,"foreslas":13675,"utspel":13676,"utvecklats":13677,"lukt":13678,"##vens":13679,"utvecklat":13680,"tænder":13681,"trækker":13682,"morgenmad":13683,"forplikt":13684,"fylld":13685,"ankomst":13686,"rang":13687,"##tegn":13688,"fixade":13689,"lyset":13690,"endring":13691,"##kansla":13692,"ff":13693,"mild":13694,"dreng":13695,"##bytte":13696,"afsp":13697,"ansat":13698,"forventet":13699,"øjnene":13700,"##effekt":13701,"arbetade":13702,"viktor":13703,"muligvis":13704,"##speriod":13705,"##aser":13706,"aterforsaljare":13707,"varumarken":13708,"forbattring":13709,"view":13710,"publiceras":13711,"vul":13712,"fokuserar":13713,"keram":13714,"forkert":13715,"lockar":13716,"oppfølg":13717,"##industrin":13718,"samfunns":13719,"skete":13720,"hm":13721,"##oken":13722,"birgitt":13723,"##cs":13724,"peppar":13725,"middagen":13726,"##ki":13727,"dyl":13728,"##uf":13729,"kompa":13730,"utlandet":13731,"regional":13732,"kampanjer":13733,"eur":13734,"1992":13735,"cykla":13736,"ign":13737,"mødet":13738,"rulle":13739,"forha":13740,"##værdig":13741,"##ios":13742,"interesseret":13743,"producera":13744,"forskere":13745,"bell":13746,"fortalt":13747,"vana":13748,"prestand":13749,"ersatta":13750,"italiensk":13751,"tradgards":13752,"camilla":13753,"aterham":13754,"##verden":13755,"gitarr":13756,"##atiska":13757,"##beskytt":13758,"onska":13759,"installningar":13760,"samfunn":13761,"kommunfullmaktige":13762,"kamer":13763,"##smannen":13764,"serveras":13765,"tillverkad":13766,"byggdes":13767,"##ifer":13768,"effektivitet":13769,"##verre":13770,"samfunnet":13771,"##pension":13772,"##junkt":13773,"hangde":13774,"##utvikling":13775,"forvaring":13776,"experter":13777,"korv":13778,"inlogg":13779,"vinde":13780,"##gorande":13781,"stok":13782,"##ellet":13783,"legitim":13784,"##ato":13785,"konkurrence":13786,"informations":13787,"##ekonom":13788,"chokolade":13789,"pok":13790,"##ikop":13791,"ss":13792,"##flyg":13793,"marin":13794,"nyan":13795,"bero":13796,"91":13797,"anslag":13798,"gallde":13799,"holdes":13800,"aftonbladet":13801,"##cha":13802,"kyll":13803,"innte":13804,"verktøy":13805,"opsta":13806,"baren":13807,"fylke":13808,"uttag":13809,"slump":13810,"##illinger":13811,"1700":13812,"domstolen":13813,"##valla":13814,"pojke":13815,"1950":13816,"kle":13817,"tub":13818,"navne":13819,"tumblr":13820,"adfærd":13821,"##test":13822,"##oliga":13823,"begaran":13824,"madde":13825,"beliggende":13826,"hemskt":13827,"##forbru":13828,"##ords":13829,"meta":13830,"kungs":13831,"way":13832,"##ife":13833,"stabilitet":13834,"lakaren":13835,"kladd":13836,"jung":13837,"##vning":13838,"konkl":13839,"begrens":13840,"copyr":13841,"elevene":13842,"frida":13843,"nyanser":13844,"viet":13845,"ansøgning":13846,"##ationerna":13847,"beregnet":13848,"##tral":13849,"##etisk":13850,"samarbetet":13851,"landbrug":13852,"delarna":13853,"pia":13854,"##mag":13855,"vaggar":13856,"varumark":13857,"fæng":13858,"sælge":13859,"foretags":13860,"lagsta":13861,"kolleg":13862,"panel":13863,"oppnas":13864,"jør":13865,"forlat":13866,"##not":13867,"nomin":13868,"grun":13869,"vg":13870,"grunnlag":13871,"omtr":13872,"udvikler":13873,"quiz":13874,"overklag":13875,"foretagare":13876,"##ytan":13877,"jamn":13878,"opplysninger":13879,"mister":13880,"fungerade":13881,"parørende":13882,"##shav":13883,"##miljø":13884,"sættes":13885,"mandat":13886,"diagram":13887,"forretnings":13888,"##sforet":13889,"casinon":13890,"##retning":13891,"teksten":13892,"unger":13893,"##jening":13894,"dræ":13895,"galopp":13896,"##lakare":13897,"rengoring":13898,"brygger":13899,"sentrum":13900,"jattem":13901,"lenn":13902,"##stopp":13903,"kaldes":13904,"forskningen":13905,"krev":13906,"##cal":13907,"amanda":13908,"##smæssigt":13909,"styrker":13910,"energim":13911,"tillsyn":13912,"varumarke":13913,"ingrediens":13914,"##penge":13915,"##gro":13916,"debat":13917,"aggress":13918,"tankarna":13919,"normala":13920,"##nævnte":13921,"nettstedet":13922,"##sledare":13923,"farfar":13924,"kjell":13925,"##sident":13926,"tunge":13927,"floden":13928,"spurgte":13929,"maken":13930,"##udstyr":13931,"deltagere":13932,"mængde":13933,"prostitu":13934,"##sloven":13935,"brygg":13936,"kvinnorna":13937,"kali":13938,"handikapp":13939,"cou":13940,"utsl":13941,"leif":13942,"jean":13943,"tredjedel":13944,"koppar":13945,"opin":13946,"attraktiv":13947,"##gb":13948,"bjork":13949,"##stran":13950,"hogskole":13951,"##iro":13952,"konfir":13953,"forutsattningarna":13954,"satts":13955,"##pladsen":13956,"organisasjoner":13957,"clo":13958,"hensigt":13959,"konkurs":13960,"udnytt":13961,"vedlike":13962,"##lopp":13963,"cec":13964,"bach":13965,"italienska":13966,"ling":13967,"hap":13968,"kjøper":13969,"etablere":13970,"brutt":13971,"handlingen":13972,"anteck":13973,"gula":13974,"rullar":13975,"efterl":13976,"medic":13977,"bjørn":13978,"kock":13979,"##jef":13980,"vaska":13981,"søster":13982,"must":13983,"adel":13984,"solo":13985,"bange":13986,"udlandet":13987,"alg":13988,"visning":13989,"##dis":13990,"hypp":13991,"copyright":13992,"innebærer":13993,"iso":13994,"sykehus":13995,"##drede":13996,"vender":13997,"##teres":13998,"spelen":13999,"slav":14000,"dubbla":14001,"##kram":14002,"##35":14003,"##iserede":14004,"##imin":14005,"irland":14006,"##forsikring":14007,"forsor":14008,"##ikerer":14009,"distans":14010,"kristianstad":14011,"stel":14012,"extrem":14013,"eksamen":14014,"funktionsh":14015,"hertil":14016,"race":14017,"scenar":14018,"##isjonen":14019,"tidiga":14020,"inkludert":14021,"##isjoner":14022,"oplevet":14023,"onodigt":14024,"anvendt":14025,"makten":14026,"##shistor":14027,"forsvaret":14028,"anta":14029,"fundament":14030,"##boy":14031,"350":14032,"artist":14033,"anstrang":14034,"forretning":14035,"##hurt":14036,"snap":14037,"namna":14038,"sakna":14039,"stemning":14040,"gummi":14041,"margar":14042,"flakt":14043,"tipsa":14044,"##registr":14045,"##sratt":14046,"skilsm":14047,"##væl":14048,"hyf":14049,"firar":14050,"musiker":14051,"##rive":14052,"tomas":14053,"saks":14054,"maksim":14055,"##utrustning":14056,"##navn":14057,"million":14058,"##kande":14059,"dagars":14060,"page":14061,"kjæresten":14062,"typiskt":14063,"affald":14064,"orkade":14065,"sjunga":14066,"dertil":14067,"underlatt":14068,"anmeldelser":14069,"##sband":14070,"##endelsen":14071,"##ollen":14072,"stak":14073,"tiltag":14074,"vindkraft":14075,"##omal":14076,"cons":14077,"skylt":14078,"løfte":14079,"rente":14080,"##sbar":14081,"##ljus":14082,"gaver":14083,"batterier":14084,"gradde":14085,"trygt":14086,"##forum":14087,"categor":14088,"markligt":14089,"mynt":14090,"##ites":14091,"poolen":14092,"stue":14093,"creme":14094,"palest":14095,"kallor":14096,"webshop":14097,"nominer":14098,"glid":14099,"huruvida":14100,"anklag":14101,"tabe":14102,"overhuvudtaget":14103,"rakade":14104,"royal":14105,"skjuta":14106,"oand":14107,"ms":14108,"kommand":14109,"vikar":14110,"##nr":14111,"minnas":14112,"ekologisk":14113,"kryp":14114,"allvarliga":14115,"beslutade":14116,"##date":14117,"jamstalldhet":14118,"samfundet":14119,"medi":14120,"blind":14121,"bekan":14122,"mønster":14123,"beveg":14124,"avslutade":14125,"esp":14126,"##brid":14127,"behandle":14128,"importer":14129,"samhalls":14130,"ledigt":14131,"revolution":14132,"sokt":14133,"##agere":14134,"##kester":14135,"copenhagen":14136,"lagret":14137,"science":14138,"omtrent":14139,"underholdning":14140,"ekonomin":14141,"##verksamheten":14142,"##givelse":14143,"profesjon":14144,"gulvet":14145,"ledelsen":14146,"##tals":14147,"pensjon":14148,"##cos":14149,"skivor":14150,"delade":14151,"officiella":14152,"suc":14153,"lakar":14154,"125":14155,"frihed":14156,"slutningen":14157,"anfall":14158,"tett":14159,"forsy":14160,"##stallande":14161,"forklare":14162,"skolens":14163,"##stock":14164,"mora":14165,"##undersøg":14166,"frygt":14167,"##cle":14168,"cyklar":14169,"drama":14170,"nin":14171,"##kontor":14172,"##work":14173,"##jek":14174,"vardera":14175,"kigger":14176,"##rud":14177,"narmar":14178,"ensamstaende":14179,"fisken":14180,"partners":14181,"##venskan":14182,"smalt":14183,"stein":14184,"##nelsen":14185,"beskytte":14186,"breda":14187,"folks":14188,"granskning":14189,"##tages":14190,"##knipp":14191,"partik":14192,"##forsor":14193,"wester":14194,"konge":14195,"energik":14196,"masker":14197,"office":14198,"tillfalligt":14199,"##kland":14200,"cash":14201,"optimalt":14202,"vidunder":14203,"##cancer":14204,"##itch":14205,"fixat":14206,"anvants":14207,"instruktion":14208,"fornøyd":14209,"julafton":14210,"##kus":14211,"kendskab":14212,"foretage":14213,"verdi":14214,"dennes":14215,"passende":14216,"medlemmarna":14217,"arrangement":14218,"genomfors":14219,"smycken":14220,"pastar":14221,"alfa":14222,"tænkte":14223,"grønn":14224,"sjunger":14225,"auktor":14226,"suppler":14227,"ulov":14228,"missade":14229,"borgen":14230,"##ogs":14231,"##relater":14232,"##atar":14233,"lakt":14234,"##sætninger":14235,"##usjoner":14236,"respon":14237,"##arig":14238,"##circa":14239,"##sem":14240,"sorters":14241,"begyndt":14242,"adcirca":14243,"sud":14244,"##hydrater":14245,"balance":14246,"vardagsrum":14247,"varsel":14248,"lararna":14249,"konsol":14250,"meld":14251,"jagt":14252,"photos":14253,"planerade":14254,"frys":14255,"sodertalje":14256,"arke":14257,"##teknik":14258,"sankt":14259,"mette":14260,"georg":14261,"kommunicera":14262,"hagen":14263,"høye":14264,"lil":14265,"siv":14266,"##agelse":14267,"laur":14268,"##instit":14269,"##terapi":14270,"pornograf":14271,"ejendommen":14272,"##lassen":14273,"installera":14274,"##papir":14275,"koppling":14276,"overenskommelse":14277,"kostnaderna":14278,"##biler":14279,"tegne":14280,"hænger":14281,"exklusiva":14282,"markedsføring":14283,"dansa":14284,"bringe":14285,"abs":14286,"rekrutt":14287,"##tan":14288,"uppfylla":14289,"begyndelsen":14290,"foretages":14291,"tvekan":14292,"olsen":14293,"onan":14294,"snak":14295,"tommy":14296,"vegas":14297,"gentemot":14298,"konvention":14299,"teor":14300,"stjarnor":14301,"beslutar":14302,"north":14303,"flertalet":14304,"slippe":14305,"tillslut":14306,"forsøge":14307,"gymnast":14308,"##given":14309,"##idig":14310,"sakaldte":14311,"discipl":14312,"returner":14313,"##sakra":14314,"langsomt":14315,"foreninger":14316,"bekymmer":14317,"sunn":14318,"tjugo":14319,"hjalpt":14320,"##løp":14321,"##wer":14322,"veder":14323,"pm":14324,"opera":14325,"lesbian":14326,"ogat":14327,"dead":14328,"##ftt":14329,"az":14330,"lr":14331,"mandel":14332,"##potek":14333,"##bilj":14334,"dryg":14335,"##planer":14336,"aftenen":14337,"##sang":14338,"bt":14339,"manaderna":14340,"betingelser":14341,"##sløs":14342,"tide":14343,"##yske":14344,"deltagelse":14345,"##vagar":14346,"socialdemokraterna":14347,"tobak":14348,"individuella":14349,"kjøkken":14350,"belaget":14351,"##unget":14352,"hogskolan":14353,"bager":14354,"riktar":14355,"gt":14356,"øre":14357,"tacker":14358,"spansk":14359,"##ffat":14360,"øker":14361,"grænser":14362,"bratt":14363,"mir":14364,"arbejdsmiljø":14365,"studenten":14366,"##rap":14367,"friska":14368,"glommer":14369,"##levelser":14370,"ending":14371,"fjerde":14372,"mojligheterna":14373,"##nadens":14374,"women":14375,"##mater":14376,"virk":14377,"tann":14378,"sind":14379,"skriftligt":14380,"comments":14381,"egnet":14382,"##lamp":14383,"##ulen":14384,"professionella":14385,"undersøge":14386,"skulpt":14387,"testade":14388,"odd":14389,"now":14390,"hallow":14391,"nyheder":14392,"ekologiska":14393,"##aton":14394,"oftare":14395,"formagan":14396,"diameter":14397,"kontrast":14398,"formiddag":14399,"##phones":14400,"slatt":14401,"skedde":14402,"miljøet":14403,"centrale":14404,"##umen":14405,"vantan":14406,"lof":14407,"fordelen":14408,"##ommer":14409,"##cript":14410,"cirkel":14411,"ded":14412,"individuelle":14413,"imponerande":14414,"##hotell":14415,"smidig":14416,"vaxel":14417,"vaken":14418,"##fjord":14419,"flam":14420,"brukte":14421,"##hallare":14422,"tyrk":14423,"behall":14424,"jatteg":14425,"fødselsdag":14426,"godkjent":14427,"##iks":14428,"isb":14429,"extre":14430,"legetøj":14431,"vitaminer":14432,"bestemme":14433,"strang":14434,"##vandring":14435,"gris":14436,"##ksjonen":14437,"øjeblikket":14438,"##niveau":14439,"hurtigere":14440,"brad":14441,"##gørelsen":14442,"bestyrelses":14443,"##juka":14444,"spørger":14445,"##aldt":14446,"anvandes":14447,"food":14448,"presenterade":14449,"aft":14450,"ada":14451,"##spor":14452,"ljusa":14453,"vintage":14454,"variation":14455,"helena":14456,"##ktorer":14457,"##ield":14458,"finansinstitut":14459,"pix":14460,"flygplatsen":14461,"pend":14462,"investera":14463,"##grav":14464,"avdelning":14465,"##ægge":14466,"godkannande":14467,"##ækken":14468,"nationell":14469,"yderst":14470,"formar":14471,"##23":14472,"analysera":14473,"sokte":14474,"koden":14475,"arsag":14476,"talade":14477,"##hallning":14478,"##99":14479,"##brand":14480,"farten":14481,"ressourcer":14482,"music":14483,"##stoffer":14484,"bladet":14485,"vilje":14486,"##være":14487,"##juden":14488,"##mn":14489,"##atiskt":14490,"storleken":14491,"##hallet":14492,"leende":14493,"mira":14494,"aterbetal":14495,"protest":14496,"inkomster":14497,"lyssnade":14498,"narvaro":14499,"##centralen":14500,"kampe":14501,"fad":14502,"1991":14503,"avtale":14504,"hoppar":14505,"antibiot":14506,"vedt":14507,"dybt":14508,"liberal":14509,"##fukt":14510,"tackar":14511,"lavede":14512,"hanterar":14513,"vans":14514,"decenn":14515,"##ict":14516,"##ero":14517,"wordpress":14518,"##trykk":14519,"##sekonom":14520,"vs":14521,"fos":14522,"cigar":14523,"afhængig":14524,"see":14525,"##fu":14526,"hk":14527,"##direktor":14528,"5000":14529,"ovning":14530,"underteck":14531,"fulgt":14532,"undersokningar":14533,"flagg":14534,"alvorlige":14535,"##trade":14536,"skattem":14537,"grunnleg":14538,"seriost":14539,"øjen":14540,"besluta":14541,"##stendig":14542,"##frist":14543,"halt":14544,"poul":14545,"hygge":14546,"silkeborg":14547,"missbruk":14548,"definier":14549,"##jed":14550,"##laren":14551,"dimension":14552,"hogtal":14553,"anerk":14554,"##ærende":14555,"engelske":14556,"##chf":14557,"tomten":14558,"##okan":14559,"hastarna":14560,"##ail":14561,"skelleftea":14562,"standarder":14563,"indret":14564,"##skrid":14565,"lugna":14566,"skradd":14567,"forskrift":14568,"##smetoder":14569,"livsk":14570,"fulgte":14571,"##able":14572,"##klin":14573,"varna":14574,
[...]
