{"version":"1.0","truncation":null,"padding":null,"added_tokens":[{"id":0,"special":true,"content":"[PAD]","single_word":false,"lstrip":false,"rstrip":false,"normalized":false},{"id":1,"special":true,"content":"[UNK]","single_word":false,"lstrip":false,"rstrip":false,"normalized":false},{"id":2,"special":true,"content":"[CLS]","single_word":false,"lstrip":false,"rstrip":false,"normalized":false},{"id":3,"special":true,"content":"[SEP]","single_word":false,"lstrip":false,"rstrip":false,"normalized":false},{"id":4,"special":true,"content":"[MASK]","single_word":false,"lstrip":false,"rstrip":false,"normalized":false}],"normalizer":{"type":"BertNormalizer","clean_text":true,"handle_chinese_chars":true,"strip_accents":null,"lowercase":true},"pre_tokenizer":{"type":"BertPreTokenizer"},"post_processor":null,"decoder":{"type":"WordPiece","prefix":"##","cleanup":true},"model":{"type":"WordPiece","unk_token":"[UNK]","continuing_subword_prefix":"##","max_input_chars_per_word":100,"vocab":{"[PAD]":0,"[UNK]":1,"[CLS]":2,"[SEP]":3,"[MASK]":4,"!":5,"\"":6,"#":7,"$":8,"%":9,"&":10,"'":11,"(":12,")":13,"*":14,"+":15,",":16,"-":17,".":18,"/":19,"0":20,"1":21,"2":22,"3":23,"4":24,"5":25,"6":26,"7":27,"8":28,"9":29,":":30,";":31,"<":32,"=":33,">":34,"?":35,"@":36,"[":37,"\\":38,"]":39,"^":40,"_":41,"`":42,"a":43,"b":44,"c":45,"d":46,"e":47,"f":48,"g":49,"h":50,"i":51,"j":52,"k":53,"l":54,"m":55,"n":56,"o":57,"p":58,"q":59,"r":60,"s":61,"t":62,"u":63,"v":64,"w":65,"x":66,"y":67,"z":68,"{":69,"|":70,"}":71,"~":72,"¡":73,"¢":74,"£":75,"¤":76,"¥":77,"¦":78,"§":79,"¨":80,"©":81,"«":82,"¬":83,"®":84,"¯":85,"°":86,"±":87,"²":88,"³":89,"´":90,"µ":91,"¶":92,"·":93,"¹":94,"º":95,"»":96,"¼":97,"½":98,"¾":99,"¿":100,"×":101,"ß":102,"æ":103,"ð":104,"÷":105,"ø":106,"þ":107,"đ":108,"ħ":109,"ı":110,"ł":111,"œ":112,"ƒ":113,"ə":114,"ɛ":115,"ʹ":116,"ˆ":117,"ˈ":118,"ː":119,"˚":120,"ˮ":121,"ͼ":122,"α":123,"β":124,"γ":125,"δ":126,"ε":127,"ζ":128,"η":129,"θ":130,"ι":131,"κ":132,"λ":133,"μ":134,"ν":135,"ξ":136,"ο":137,"π":138,"ρ":139,"ς":140,"σ":141,"τ":142,"υ":143,"φ":144,"χ":145,"ψ":146,"ω":147,"ϕ":148,"а":149,"б":150,"в":151,"г":152,"д":153,"е":154,"ж":155,"з":156,"и":157,"к":158,"л":159,"м":160,"н":161,"о":162,"п":163,"р":164,"с":165,"т":166,"у":167,"ф":168,"х":169,"ц":170,"ч":171,"ш":172,"щ":173,"ъ":174,"ы":175,"ь":176,"э":177,"ю":178,"я":179,"ђ":180,"є":181,"ѕ":182,"і":183,"ј":184,"љ":185,"њ":186,"ґ":187,"һ":188,"ա":189,"ե":190,"ն":191,"ո":192,"ր":193,"א":194,"ב":195,"ג":196,"ד":197,"ה":198,"ו":199,"ח":200,"ט":201,"י":202,"כ":203,"ל":204,"ם":205,"מ":206,"ן":207,"נ":208,"ס":209,"ע":210,"פ":211,"ק":212,"ר":213,"ש":214,"ת":215,"،":216,"ء":217,"ا":218,"ب":219,"ة":220,"ت":221,"ث":222,"ج":223,"ح":224,"خ":225,"د":226,"ذ":227,"ر":228,"ز":229,"س":230,"ش":231,"ص":232,"ض":233,"ط":234,"ظ":235,"ع":236,"غ":237,"ـ":238,"ف":239,"ق":240,"ك":241,"ل":242,"م":243,"ن":244,"ه":245,"و":246,"ى":247,"ي":248,"پ":249,"چ":250,"ک":251,"گ":252,"ی":253,"ە":254,"क":255,"ग":256,"ज":257,"त":258,"द":259,"न":260,"प":261,"ब":262,"म":263,"य":264,"र":265,"ल":266,"व":267,"स":268,"ह":269,"ा":270,"ि":271,"ी":272,"ो":273,"ক":274,"ত":275,"ন":276,"ব":277,"য":278,"র":279,"ল":280,"া":281,"ি":282,"ে":283,"க":284,"த":285,"ன":286,"ப":287,"ம":288,"ர":289,"வ":290,"ா":291,"ி":292,"ு":293,"ก":294,"ข":295,"ค":296,"ง":297,"จ":298,"ช":299,"ด":300,"ต":301,"ท":302,"น":303,"บ":304,"ป":305,"พ":306,"ม":307,"ย":308,"ร":309,"ล":310,"ว":311,"ส":312,"ห":313,"อ":314,"ะ":315,"า":316,"เ":317,"แ":318,"โ":319,"ไ":320,"ა":321,"ე":322,"ი":323,"ლ":324,"მ":325,"ნ":326,"ო":327,"რ":328,"ს":329,"ᄀ":330,"ᄂ":331,"ᄃ":332,"ᄅ":333,"ᄆ":334,"ᄇ":335,"ᄉ":336,"ᄋ":337,"ᄌ":338,"ᄎ":339,"ᄏ":340,"ᄐ":341,"ᄑ":342,"ᄒ":343,"ᅡ":344,"ᅢ":345,"ᅥ":346,"ᅦ":347,"ᅧ":348,"ᅩ":349,"ᅪ":350,"ᅬ":351,"ᅭ":352,"ᅮ":353,"ᅲ":354,"ᅳ":355,"ᅴ":356,"ᅵ":357,"ᆨ":358,"ᆫ":359,"ᆯ":360,"ᆷ":361,"ᆸ":362,"ᆼ":363,"ᐈ":364,"‐":365,"‑":366,"‒":367,"–":368,"—":369,"‘":370,"’":371,"‚":372,"“":373,"”":374,"„":375,"†":376,"‡":377,"•":378,"…":379,"‰":380,"′":381,"″":382,"‹":383,"›":384,"₨":385,"€":386,"℃":387,"№":388,"™":389,"←":390,"↑":391,"→":392,"↓":393,"⇒":394,"−":395,"√":396,"≈":397,"≤":398,"≥":399,"─":400,"■":401,"□":402,"▪":403,"▫":404,"▲":405,"▶":406,"►":407,"▻":408,"▼":409,"○":410,"●":411,"☀":412,"★":413,"☆":414,"☺":415,"♀":416,"♡":417,"♣":418,"♥":419,"♦":420,"✅":421,"✌":422,"✓":423,"✔":424,"✚":425,"✨":426,"✭":427,"✰":428,"❄":429,"❑":430,"❤":431,"➔":432,"⠀":433,"⭐":434,"ⰰ":435,"、":436,"。":437,"「":438,"」":439,"【":440,"】":441,"あ":442,"い":443,"う":444,"え":445,"お":446,"か":447,"き":448,"く":449,"け":450,"こ":451,"さ":452,"し":453,"す":454,"せ":455,"そ":456,"た":457,"ち":458,"っ":459,"つ":460,"て":461,"と":462,"な":463,"に":464,"の":465,"は":466,"ま":467,"み":468,"め":469,"も":470,"や":471,"よ":472,"ら":473,"り":474,"る":475,"れ":476,"わ":477,"を":478,"ん":479,"ア":480,"ィ":481,"イ":482,"ウ":483,"ェ":484,"エ":485,"オ":486,"カ":487,"キ":488,"ク":489,"ケ":490,"コ":491,"サ":492,"シ":493,"ス":494,"セ":495,"タ":496,"チ":497,"ッ":498,"ツ":499,"テ":500,"ト":501,"ナ":502,"ニ":503,"ネ":504,"ハ":505,"ヒ":506,"フ":507,"ヘ":508,"ホ":509,"マ":510,"ミ":511,"ム":512,"メ":513,"モ":514,"ャ":515,"ュ":516,"ョ":517,"ラ":518,"リ":519,"ル":520,"レ":521,"ロ":522,"ワ":523,"ン":524,"・":525,"ー":526,"䄀":527,"䈀":528,"䌀":529,"䐀":530,"䔀":531,"䜀":532,"䠀":533,"䤀":534,"䬀":535,"䰀":536,"䴀":537,"一":538,"万":539,"三":540,"上":541,"下":542,"不":543,"与":544,"专":545,"世":546,"业":547,"东":548,"个":549,"中":550,"为":551,"主":552,"么":553,"之":554,"乐":555,"九":556,"也":557,"乡":558,"买":559,"了":560,"争":561,"事":562,"二":563,"于":564,"五":565,"亚":566,"交":567,"产":568,"京":569,"人":570,"什":571,"今":572,"他":573,"仙":574,"代":575,"以":576,"们":577,"件":578,"伀":579,"会":580,"传":581,"位":582,"体":583,"何":584,"作":585,"你":586,"使":587,"供":588,"保":589,"信":590,"值":591,"元":592,"光":593,"克":594,"免":595,"入":596,"全":597,"八":598,"公":599,"六":600,"关":601,"其":602,"内":603,"円":604,"册":605,"准":606,"出":607,"刀":608,"分":609,"划":610,"创":611,"利":612,"到":613,"制":614,"前":615,"力":616,"加":617,"务":618,"动":619,"势":620,"動":621,"匀":622,"包":623,"化":624,"北":625,"区":626,"十":627,"华":628,"单":629,"南":630,"博":631,"原":632,"县":633,"及":634,"双":635,"发":636,"取":637,"口":638,"古":639,"可":640,"台":641,"号":642,"司":643,"吀":644,"合":645,"同":646,"名":647,"后":648,"吗":649,"和":650,"品":651,"哪":652,"唀":653,"商":654,"嘀":655,"器":656,"四":657,"回":658,"国":659,"图":660,"在":661,"地":662,"场":663,"址":664,"坛":665,"城":666,"堂":667,"場":668,"外":669,"多":670,"大":671,"天":672,"太":673,"头":674,"奖":675,"女":676,"好":677,"如":678,"姐":679,"娱":680,"婆":681,"子":682,"字":683,"学":684,"安":685,"官":686,"定":687,"宝":688,"实":689,"客":690,"室":691,"家":692,"富":693,"对":694,"小":695,"少":696,"尔":697,"就":698,"尾":699,"展":700,"山":701,"川":702,"州":703,"工":704,"巧":705,"市":706,"布":707,"平":708,"年":709,"广":710,"庄":711,"庆":712,"库":713,"店":714,"度":715,"建":716,"开":717,"式":718,"当":719,"录":720,"彩":721,"影":722,"律":723,"得":724,"微":725,"德":726,"心":727,"必":728,"快":729,"怎":730,"思":731,"性":732,"总":733,"情":734,"意":735,"感":736,"戏":737,"成":738,"我":739,"户":740,"所":741,"手":742,"打":743,"技":744,"投":745,"报":746,"拉":747,"持":748,"挂":749,"指":750,"推":751,"提":752,"播":753,"教":754,"数":755,"文":756,"料":757,"斯":758,"新":759,"方":760,"无":761,"日":762,"时":763,"明":764,"星":765,"是":766,"時":767,"更":768,"最":769,"月":770,"有":771,"服":772,"期":773,"木":774,"本":775,"机":776,"杀":777,"村":778,"来":779,"東":780,"林":781,"枚":782,"果":783,"校":784,"样":785,"格":786,"業":787,"次":788,"正":789,"比":790,"民":791,"氓":792,"水":793,"江":794,"沙":795,"河":796,"法":797,"波":798,"注":799,"活":800,"流":801,"测":802,"海":803,"港":804,"游":805,"湖":806,"源":807,"澳":808,"点":809,"爱":810,"片":811,"版":812,"牌":813,"牛":814,"物":815,"特":816,"狗":817,"玄":818,"王":819,"玩":820,"现":821,"球":822,"理":823,"生":824,"用":825,"田":826,"电":827,"画":828,"界":829,"登":830,"白":831,"百":832,"的":833,"皇":834,"盘":835,"目":836,"盲":837,"直":838,"相":839,"看":840,"県":841,"真":842,"着":843,"知":844,"石":845,"码":846,"社":847,"神":848,"票":849,"福":850,"科":851,"程":852,"空":853,"立":854,"站":855,"第":856,"等":857,"算":858,"管":859,"精":860,"系":861,"红":862,"线":863,"组":864,"经":865,"结":866,"统":867,"网":868,"美":869,"群":870,"老":871,"者":872,"肖":873,"育":874,"能":875,"自":876,"色":877,"花":878,"英":879,"行":880,"街":881,"表":882,"西":883,"要":884,"見":885,"规":886,"视":887,"解":888,"计":889,"记":890,"论":891,"设":892,"诗":893,"财":894,"费":895,"资":896,"赌":897,"赛":898,"赢":899,"走":900,"足":901,"跑":902,"路":903,"身":904,"车":905,"软":906,"载":907,"过":908,"这":909,"进":910,"送":911,"选":912,"通":913,"道":914,"部":915,"都":916,"里":917,"重":918,"金":919,"钱":920,"镇":921,"长":922,"間":923,"门":924,"阳":925,"际":926,"限":927,"院":928,"集":929,"霸":930,"青":931,"面":932,"音":933,"预":934,"食":935,"香":936,"马":937,"高":938,"黄":939,"黑":940,"龙":941,"ﬁ":942,"ﬂ":943,"！":944,"（":945,"）":946,"，":947,"：":948,"ｩ":949,"ｲ":950,"ﾞ":951,"𝐞":952,"🌟":953,"🌸":954,"🎉":955,"🏻":956,"🏼":957,"🏽":958,"👊":959,"👌":960,"👍":961,"👏":962,"💕":963,"💖":964,"💗":965,"💙":966,"💚":967,"💛":968,"💜":969,"💞":970,"💪":971,"🔥":972,"😀":973,"😁":974,"😂":975,"😃":976,"😄":977,"😅":978,"😆":979,"😉":980,"😊":981,"😋":982,"😍":983,"😎":984,"😏":985,"😘":986,"😛":987,"😜":988,"😝":989,"😢":990,"😦":991,"😬":992,"😭":993,"😱":994,"😳":995,"🙁":996,"🙂":997,"🙄":998,"🙈":999,"🙌":1000,"🙏":1001,"🤔":1002,"🤗":1003,"🤣":1004,"##a":1005,"##l":1006,"##g":1007,"##b":1008,"##e":1009,"##r":1010,"##s":1011,"##f":1012,"##t":1013,"##i":1014,"##v":1015,"##n":1016,"##y":1017,"##o":1018,"##j":1019,"##u":1020,"##k":1021,"##h":1022,"##p":1023,"##d":1024,"##c":1025,"##1":1026,"##7":1027,"##3":1028,"##5":1029,"##2":1030,"##m":1031,"##6":1032,"##0":1033,"##z":1034,"##x":1035,"##w":1036,"##4":1037,"##9":1038,"##8":1039,"##ᅡ":1040,"##ᆫ":1041,"##ᄌ":1042,"##ᅥ":1043,"##ᆼ":1044,"##ᆨ":1045,"##ᄋ":1046,"##ᅵ":1047,"##q":1048,"##´":1049,"##с":1050,"##е":1051,"##д":1052,"##о":1053,"##р":1054,"##ж":1055,"##н":1056,"##ы":1057,"##и":1058,"##ρ":1059,"##α":1060,"##π":1061,"##ε":1062,"##ζ":1063,"##ι":1064,"##κ":1065,"##η":1066,"##ч":1067,"##т":1068,"##в":1069,"##а":1070,"##я":1071,"##°":1072,"##😍":1073,"##ن":1074,"##ع":1075,"##ق":1076,"##د":1077,"##م":1078,"##ي":1079,"##п":1080,"##к":1081,"##ц":1082,"##→":1083,"##ث":1084,"##ا":1085,"##ł":1086,"##¥":1087,"##چ":1088,"##ک":1089,"##ل":1090,"##خ":1091,"##ѕ":1092,"##і":1093,"##®":1094,"##¤":1095,"##µ":1096,"##ん":1097,"##や":1098,"##θ":1099,"##ν":1100,"##σ":1101,"##ο":1102,"##ς":1103,"##❤":1104,"##г":1105,"##º":1106,"##し":1107,"##て":1108,"##も":1109,"##さ":1110,"##み":1111,"##ج":1112,"##ی":1113,"##♦":1114,"##ら":1115,"##い":1116,"##す":1117,"##あ":1118,"##と":1119,"##گ":1120,"##ب":1121,"##×":1122,"##л":1123,"##у":1124,"##ᆷ":1125,"##ᅧ":1126,"##ᄀ":1127,"##υ":1128,"##া":1129,"##ল":1130,"##ি":1131,"##ᅩ":1132,"##ᆸ":1133,"##ᅳ":1134,"##ᆯ":1135,"##ø":1136,"##ı":1137,"##る":1138,"##の":1139,"##は":1140,"##に":1141,"##な":1142,"##っ":1143,"##ち":1144,"##●":1145,"##מ":1146,"##ח":1147,"##י":1148,"##ר":1149,"##ו":1150,"##ᄇ":1151,"##£":1152,"##ω":1153,"##τ":1154,"##ر":1155,"##ი":1156,"##ᄉ":1157,"##ت":1158,"##ظ":1159,"##ル":1160,"##タ":1161,"##け":1162,"##た":1163,"##ك":1164,"##ব":1165,"##х":1166,"##¬":1167,"##و":1168,"##😉":1169,"##ð":1170,"##レ":1171,"##ー":1172,"##ニ":1173,"##ン":1174,"##ク":1175,"##を":1176,"##ま":1177,"##м":1178,"##б":1179,"##щ":1180,"##🏼":1181,"##ز":1182,"##ش":1183,"##ɛ":1184,"##ə":1185,"##γ":1186,"##ᅮ":1187,"##ᄑ":1188,"##💗":1189,"##ラ":1190,"##ウ":1191,"##フ":1192,"##ッ":1193,"##ト":1194,"##đ":1195,"##ß":1196,"##ャ":1197,"##テ":1198,"##ィ":1199,"##💙":1200,"##ᄂ":1201,"##¨":1202,"##コ":1203,"##ح":1204,"##ᅬ":1205,"##ᄃ":1206,"##ف":1207,"##™":1208,"##😃":1209,"##æ":1210,"##ф":1211,"##э":1212,"##ג":1213,"##ב":1214,"##ה":1215,"##ᅪ":1216,"##リ":1217,"##ヒ":1218,"##ス":1219,"##ש":1220,"##ת":1221,"##ᅢ":1222,"##ᅦ":1223,"##ш":1224,"##ｲ":1225,"##ʹ":1226,"##♥":1227,"##з":1228,"##א":1229,"##−":1230,"##ю":1231,"##イ":1232,"##👌":1233,"##👏":1234,"##り":1235,"##ة":1236,"##ь":1237,"##ψ":1238,"##😬":1239,"##🙈":1240,"##ע":1241,"##נ":1242,"##ן":1243,"##ذ":1244,"##น":1245,"##ว":1246,"##♣":1247,"##þ":1248,"##²":1249,"##ி":1250,"##ம":1251,"##க":1252,"##ு":1253,"##ハ":1254,"##よ":1255,"##ो":1256,"##ल":1257,"##ग":1258,"##ी":1259,"##ᄅ":1260,"##μ":1261,"##ᄒ":1262,"##ᅴ":1263,"##œ":1264,"##ס":1265,"##👍":1266,"##シ":1267,"##ュ":1268,"##ア":1269,"##😋":1270,"##🏻":1271,"##ל":1272,"##せ":1273,"##エ":1274,"##ロ":1275,"##€":1276,"##🤗":1277,"##ᄎ":1278,"##س":1279,"##ه":1280,"##👊":1281,"##ˆ":1282,"##ј":1283,"##ͼ":1284,"##ъ":1285,"##ե":1286,"##ى":1287,"##ː":1288,"##һ":1289,"##🙏":1290,"##ᄆ":1291,"##ก":1292,"##า":1293,"##ห":1294,"##ล":1295,"##ม":1296,"##ส":1297,"##ช":1298,"##ป":1299,"##マ":1300,"##ネ":1301,"##か":1302,"##ि":1303,"##ब":1304,"##र":1305,"##😂":1306,"##カ":1307,"##お":1308,"##め":1309,"##□":1310,"##♀":1311,"##ง":1312,"##ะ":1313,"##โ":1314,"##ต":1315,"##ด":1316,"##ท":1317,"##เ":1318,"##न":1319,"##व":1320,"##ा":1321,"##स":1322,"##त":1323,"##ヘ":1324,"##オ":1325,"##💪":1326,"##پ":1327,"##こ":1328,"##れ":1329,"##そ":1330,"##ᅭ":1331,"##±":1332,"##ص":1333,"##ـ":1334,"##ո":1335,"##ա":1336,"##ն":1337,"##😱":1338,"##λ":1339,"##❄":1340,"##ە":1341,"##○":1342,"##😄":1343,"##🙌":1344,"##ค":1345,"##ร":1346,"##อ":1347,"##บ":1348,"##จ":1349,"##✔":1350,"##💛":1351,"##δ":1352,"##メ":1353,"##њ":1354,"##😊":1355,"##😀":1356,"##©":1357,"##ホ":1358,"##サ":1359,"##セ":1360,"##く":1361,"##ט":1362,"##র":1363,"##う":1364,"##¦":1365,"##☀":1366,"##ґ":1367,"##য":1368,"##ক":1369,"##ミ":1370,"##ħ":1371,"##ப":1372,"##ர":1373,"##ツ":1374,"##ে":1375,"##ム":1376,"##チ":1377,"##ェ":1378,"##🎉":1379,"##φ":1380,"##🏽":1381,"##β":1382,"##½":1383,"##ק":1384,"##ם":1385,"##ﬁ":1386,"##💖":1387,"##ƒ":1388,"##😆":1389,"##ր":1390,"##♡":1391,"##ত":1392,"##य":1393,"##כ":1394,"##வ":1395,"##ன":1396,"##¹":1397,"##🔥":1398,"##キ":1399,"##ョ":1400,"##き":1401,"##ข":1402,"##ไ":1403,"##ط":1404,"##►":1405,"##غ":1406,"##ᅲ":1407,"##¼":1408,"##ξ":1409,"##😢":1410,"##😎":1411,"##😘":1412,"##ย":1413,"##แ":1414,"##พ":1415,"##ᄏ":1416,"##💕":1417,"##ワ":1418,"##ђ":1419,"##ন":1420,"##✨":1421,"##モ":1422,"##☆":1423,"##ज":1424,"##ლ":1425,"##ო":1426,"##ა":1427,"##ケ":1428,"##χ":1429,"##÷":1430,"##ᄐ":1431,"##😭":1432,"##℃":1433,"##ე":1434,"##🌸":1435,"##⭐":1436,"##つ":1437,"##ह":1438,"##🤣":1439,"##ナ":1440,"##³":1441,"##ா":1442,"##😅":1443,"##№":1444,"##ض":1445,"##😜":1446,"##💞":1447,"##த":1448,"##✌":1449,"##✓":1450,"##ს":1451,"##प":1452,"##म":1453,"##😳":1454,"##פ":1455,"##є":1456,"##わ":1457,"##ד":1458,"##ნ":1459,"##😏":1460,"##■":1461,"##─":1462,"##क":1463,"##↓":1464,"##☺":1465,"##🌟":1466,"##𝐞":1467,"##ˈ":1468,"##★":1469,"##ﬂ":1470,"##द":1471,"##¢":1472,"##≈":1473,"##💜":1474,"##ء":1475,"##🤔":1476,"##¯":1477,"##え":1478,"##😁":1479,"##▻":1480,"##😝":1481,"##რ":1482,"##✅":1483,"##🙁":1484,"##↑":1485,"##ˮ":1486,"##💚":1487,"##˚":1488,"##≥":1489,"##😛":1490,"##ﾞ":1491,"##љ":1492,"##≤":1493,"##▲":1494,"##🙂":1495,"##⠀":1496,"##🙄":1497,"##მ":1498,"##¾":1499,"##ⰰ":1500,"##√":1501,"##ｩ":1502,"##✰":1503,"##▼":1504,"##ϕ":1505,"##⇒":1506,"##←":1507,"##➔":1508,"##▪":1509,"##😦":1510,"##✚":1511,"##▶":1512,"##▫":1513,"##✭":1514,"##❑":1515,"##ar":1516,"##er":1517,"##an":1518,"##en":1519,"##or":1520,"##et":1521,"##tt":1522,"##ll":1523,"##in":1524,"##ag":1525,"##st":1526,"##om":1527,"##ch":1528,"och":1529,"##ig":1530,"##ad":1531,"##at":1532,"##on":1533,"for":1534,"ar":1535,"##ed":1536,"att":1537,"##al":1538,"##ing":1539,"in":1540,"en":1541,"det":1542,"##sk":1543,"##el":1544,"##ra":1545,"pa":1546,"##ck":1547,"##ill":1548,"##and":1549,"som":1550,"av":1551,"sa":1552,"##te":1553,"med":1554,"##na":1555,"vi":1556,"##kt":1557,"var":1558,"till":1559,"sk":1560,"st":1561,"##es":1562,"jag":1563,"har":1564,"an":1565,"##as":1566,"##pp":1567,"##ning":1568,"##sa":1569,"##un":1570,"##all":1571,"##ter":1572,"den":1573,"##lig":1574,"##ade":1575,"##ro":1576,"##il":1577,"##it":1578,"om":1579,"de":1580,"##id":1581,"##ol":1582,"##ang":1583,"##ver":1584,"##am":1585,"##ast":1586,"##re":1587,"##att":1588,"##ik":1589,"##is":1590,"inte":1591,"kan":1592,"ut":1593,"##der":1594,"##iv":1595,"##em":1596,"##ur":1597,"##ion":1598,"##ot":1599,"##ran":1600,"bl":1601,"ett":1602,"man":1603,"##are":1604,"du":1605,"##isk":1606,"##ta":1607,"##og":1608,"##de":1609,"kom":1610,"##for":1611,"all":1612,"men":1613,"##ande":1614,"##ut":1615,"##ok":1616,"##itt":1617,"upp":1618,"be":1619,"##var":1620,"##het":1621,"un":1622,"##us":1623,"##ller":1624,"sp":1625,"##od":1626,"##yck":1627,"komm":1628,"nar":1629,"##ent":1630,"##ss":1631,"##ak":1632,"se":1633,"##inn":1634,"##ist":1635,"##ort":1636,"sam":1637,"##ens":1638,"fran":1639,"##ul":1640,"eller":1641,"##um":1642,"ska":1643,"##fter":1644,"##ska":1645,"re":1646,"min":1647,"han":1648,"##la":1649,"nag":1650,"##igt":1651,"##art":1652,"bar":1653,"##ick":1654,"##sta":1655,"##ud":1656,"##ell":1657,"##os":1658,"pro":1659,"##ation":1660,"hel":1661,"##ma":1662,"under":1663,"##ull":1664,"##ligt":1665,"##op":1666,"ha":1667,"dar":1668,"##ram":1669,"##gen":1670,"##arna":1671,"##va":1672,"##im":1673,"and":1674,"val":1675,"##bb":1676,"efter":1677,"over":1678,"##ir":1679,"far":1680,"fa":1681,"vara":1682,"sig":1683,"gr":1684,"##und":1685,"kl":1686,"##ord":1687,"fl":1688,"kon":1689,"nu":1690,"##ans":1691,"##yg":1692,"##ock":1693,"##ant":1694,"li":1695,"##ff":1696,"##erna":1697,"fr":1698,"ny":1699,"##sp":1700,"##aste":1701,"al":1702,"da":1703,"##ats":1704,"##ft":1705,"##ess":1706,"stor":1707,"ta":1708,"##ost":1709,"gor":1710,"##sl":1711,"sj":1712,"per":1713,"##era":1714,"##bet":1715,"##dag":1716,"20":1717,"##ark":1718,"##gar":1719,"##ga":1720,"##els":1721,"kommer":1722,"##je":1723,"bor":1724,"mo":1725,"##inns":1726,"pr":1727,"tid":1728,"##ger":1729,"del":1730,"alla":1731,"lag":1732,"allt":1733,"mig":1734,"gen":1735,"tr":1736,"##le":1737,"finns":1738,"##sam":1739,"vill":1740,"dag":1741,"vid":1742,"##ank":1743,"pl":1744,"##ov":1745,"##ikt":1746,"ju":1747,"##ika":1748,"##ic":1749,"hon":1750,"kr":1751,"##ass":1752,"##ycket":1753,"##da":1754,"fram":1755,"##ne":1756,"sl":1757,"##est":1758,"##iska":1759,"or":1760,"##bl":1761,"lite":1762,"ann":1763,"bra":1764,"##opp":1765,"mycket":1766,"kv":1767,"vad":1768,"ex":1769,"##edan":1770,"lang":1771,"sin":1772,"mot":1773,"##per":1774,"##eck":1775,"sv":1776,"##liga":1777,"bara":1778,"hur":1779,"ver":1780,"##ling":1781,"mer":1782,"##uk":1783,"##son":1784,"bil":1785,"genom":1786,"##ningen":1787,"kun":1788,"br":1789,"##iga":1790,"##ligen":1791,"aven":1792,"beh":1793,"##ber":1794,"##vand":1795,"ock":1796,"##kl":1797,"##ann":1798,"hem":1799,"ocksa":1800,"vil":1801,"##ja":1802,"sy":1803,"er":1804,"##dr":1805,"andra":1806,"##ott":1807,"##jt":1808,"hade":1809,"##oll":1810,"##stall":1811,"sag":1812,"##eter":1813,"sen":1814,"##nad":1815,"##den":1816,"hand":1817,"##ka":1818,"##ilj":1819,"detta":1820,"din":1821,"##satt":1822,"##ker":1823,"##ulle":1824,"##ningar":1825,"sex":1826,"##hall":1827,"mang":1828,"##ack":1829,"##org":1830,"ol":1831,"dig":1832,"jo":1833,"##yr":1834,"arbet":1835,"skulle":1836,"tra":1837,"##ev":1838,"##ri":1839,"verk":1840,"##ek":1841,"##ukt":1842,"##mar":1843,"fin":1844,"19":1845,"samt":1846,"##00":1847,"##ala":1848,"gar":1849,"spel":1850,"##alv":1851,"blir":1852,"ser":1853,"ber":1854,"##ett":1855,"##ekt":1856,"##sm":1857,"##mer":1858,"ch":1859,"vis":1860,"utan":1861,"anvand":1862,"##orr":1863,"##ia":1864,"##ara":1865,"th":1866,"##alt":1867,"mat":1868,"satt":1869,"##bil":1870,"201":1871,"nagon":1872,"hog":1873,"ty":1874,"sm":1875,"bet":1876,"##pl":1877,"##av":1878,"person":1879,"##rad":1880,"##ering":1881,"manga":1882,"on":1883,"##aren":1884,"res":1885,"##ket":1886,"sedan":1887,"##iskt":1888,"nat":1889,"##lag":1890,"##ug":1891,"sven":1892,"##man":1893,"##som":1894,"hj":1895,"##ster":1896,"svar":1897,"fol":1898,"##eg":1899,"nagot":1900,"##ci":1901,"reg":1902,"ma":1903,"##ygg":1904,"##pa":1905,"##jting":1906,"at":1907,"van":1908,"##ef":1909,"tva":1910,"tro":1911,"so":1912,"gora":1913,"barn":1914,"##upp":1915,"##amn":1916,"##itet":1917,"##jer":1918,"##riv":1919,"gang":1920,"hall":1921,"fors":1922,"##vis":1923,"fort":1924,"##br":1925,"##asta":1926,"oss":1927,"gl":1928,"fick":1929,"##unt":1930,"forsta":1931,"##ust":1932,"tank":1933,"##uv":1934,"##ier":1935,"##ader":1936,"bli":1937,"##del":1938,"helt":1939,"sn":1940,"sjalv":1941,"##men":1942,"des":1943,"##skap":1944,"##ring":1945,"idag":1946,"##tal":1947,"##sn":1948,"denna":1949,"of":1950,"blev":1951,"ratt":1952,"land":1953,"##aden":1954,"##ende":1955,"##ets":1956,"bes":1957,"##atis":1958,"##jan":1959,"##ys":1960,"##gi":1961,"##lar":1962,"##over":1963,"##ighet":1964,"hitt":1965,"##kom":1966,"##land":1967,"vet":1968,"##gang":1969,"olika":1970,"##verig":1971,"hela":1972,"##hol":1973,"inne":1974,"lig":1975,"##ote":1976,"ni":1977,"vag":1978,"dem":1979,"##nings":1980,"sverig":1981,"gj":1982,"##eras":1983,"ga":1984,"##ades":1985,"dat":1986,"liv":1987,"mal":1988,"kop":1989,"##ult":1990,"va":1991,"sitt":1992,"##ress":1993,"le":1994,"nagra":1995,"##orn":1996,"##verk":1997,"##ien":1998,"fil":1999,"jobb":2000,"##form":2001,"##rev":2002,"dejting":2003,"##ie":2004,"##ida":2005,"saker":2006,"##yn":2007,"##yd":2008,"##lighet":2009,"fun":2010,"##kten":2011,"##ske":2012,"rikt":2013,"##if":2014,"##eder":2015,"maste":2016,"int":2017,"##ce":2018,"gratis":2019,"ro":2020,"kall":2021,"kommun":2022,"runt":2023,"nya":2024,"##bar":2025,"##uvud":2026,"inn":2027,"##oj":2028,"##ellan":2029,"las":2030,"##gr":2031,"inom":2032,"kra":2033,"##ju":2034,"varit":2035,"forst":2036,"te":2037,"##str":2038,"hjal":2039,"##ser":2040,"##sb":2041,"##nas":2042,"##else":2043,"di":2044,"##holm":2045,"frag":2046,"##etag":2047,"mark":2048,"dom":2049,"mar":2050,"kanske":2051,"ja":2052,"##amp":2053,"tyck":2054,"##age":2055,"ligger":2056,"mellan":2057,"huvud":2058,"moj":2059,"##ken":2060,"##tern":2061,"##van":2062,"akt":2063,"igen":2064,"hen":2065,"kann":2066,"##ym":2067,"##veck":2068,"dessa":2069,"##ella":2070,"##ater":2071,"lan":2072,"tran":2073,"tv":2074,"##dre":2075,"##bord":2076,"##ont":2077,"##ip":2078,"##jar":2079,"slut":2080,"vin":2081,"str":2082,"god":2083,"ater":2084,"kor":2085,"mann":2086,"vilket":2087,"sla":2088,"bland":2089,"##get":2090,"kar":2091,"##atten":2092,"##iva":2093,"##aller":2094,"veck":2095,"sna":2096,"ner":2097,"par":2098,"sverige":2099,"innan":2100,"stock":2101,"form":2102,"dr":2103,"vald":2104,"mitt":2105,"##sen":2106,"led":2107,"annat":2108,"fam":2109,"##kel":2110,"##vet":2111,"hal":2112,"##pel":2113,"hos":2114,"##erade":2115,"ans":2116,"stockholm":2117,"##far":2118,"fast":2119,"vikt":2120,"##uren":2121,"##tem":2122,"##orna":2123,"dess":2124,"ord":2125,"tal":2126,"##dukt":2127,"##nar":2128,"##ata":2129,"rad":2130,"bade":2131,"ka":2132,"tag":2133,"##utom":2134,"##pt":2135,"just":2136,"stora":2137,"bok":2138,"##sson":2139,"am":2140,"18":2141,"##ingen":2142,"tar":2143,"##aka":2144,"##fall":2145,"foretag":2146,"##ow":2147,"porr":2148,"##ts":2149,"##lin":2150,"su":2151,"##erar":2152,"##anska":2153,"ur":2154,"sina":2155,"##sak":2156,"basta":2157,"##io":2158,"fakt":2159,"##ratt":2160,"fatt":2161,"##agen":2162,"lar":2163,"##se":2164,"nog":2165,"pol":2166,"svenska":2167,"##ej":2168,"10":2169,"familj":2170,"kont":2171,"behover":2172,"skol":2173,"##rat":2174,"pre":2175,"##enter":2176,"plats":2177,"##skar":2178,"°c":2179,"ra":2180,"##fr":2181,"kvinn":2182,"##pr":2183,"##ytt":2184,"varje":2185,"jul":2186,"we":2187,"fall":2188,"lin":2189,"kunna":2190,"##takt":2191,"batt":2192,"##sh":2193,"##jud":2194,"ger":2195,"tje":2196,"mass":2197,"best":2198,"alltid":2199,"samma":2200,"eftersom":2201,"varl":2202,"##be":2203,"ingen":2204,"stall":2205,"el":2206,"tre":2207,"##igare":2208,"##ederbord":2209,"##me":2210,"##erad":2211,"bo":2212,"sager":2213,"milj":2214,"200":2215,"##ada":2216,"##heten":2217,"ant":2218,"gick":2219,"bro":2220,"la":2221,"utveck":2222,"##arbet":2223,"##iken":2224,"##dom":2225,"fy":2226,"##snitt":2227,"flera":2228,"##ari":2229,"##xt":2230,"##ionen":2231,"##bild":2232,"gam":2233,"##kon":2234,"besk":2235,"grund":2236,"##orde":2237,"eg":2238,"kn":2239,"##kar":2240,"##ha":2241,"valdigt":2242,"##fatt":2243,"##borg":2244,"pen":2245,"##ativ":2246,"the":2247,"mannisk":2248,"riktigt":2249,"mm":2250,"dock":2251,"##alen":2252,"fot":2253,"##sc":2254,"pass":2255,"inga":2256,"ge":2257,"skriv":2258,"##edel":2259,"##erat":2260,"sok":2261,"enligt":2262,"star":2263,"##perat":2264,"latt":2265,"tycker":2266,"##fil":2267,"hans":2268,"snabb":2269,"vart":2270,"hopp":2271,"##rekt":2272,"plan":2273,"tor":2274,"bak":2275,"namn":2276,"lik":2277,"##vag":2278,"##aget":2279,"##mans":2280,"##ste":2281,"hus":2282,"battre":2283,"##akt":2284,"mina":2285,"opp":2286,"koll":2287,"##formation":2288,"##yl":2289,"exem":2290,"##giv":2291,"##led":2292,"galler":2293,"im":2294,"##stem":2295,"spe":2296,"em":2297,"##lagg":2298,"##iss":2299,"##ellt":2300,"produkt":2301,"##met":2302,"mest":2303,"##stand":2304,"pris":2305,"##bo":2306,"tim":2307,"##mal":2308,"aldr":2309,"##fl":2310,"varm":2311,"verkligen":2312,"eu":2313,"##hand":2314,"sal":2315,"ingar":2316,"tack":2317,"sak":2318,"sh":2319,"mor":2320,"km":2321,"bort":2322,"##rakt":2323,"komma":2324,"intress":2325,"##ista":2326,"##pro":2327,"forsok":2328,"tror":2329,"red":2330,"erb":2331,"sol":2332,"anda":2333,"##ioner":2334,"##ung":2335,"behov":2336,"##rum":2337,"sid":2338,"kort":2339,"##sid":2340,"trakten":2341,"exempel":2342,"15":2343,"##gram":2344,"##alog":2345,"##sv":2346,"kunde":2347,"sad":2348,"vide":2349,"forb":2350,"skall":2351,"##ue":2352,"kontakt":2353,"ag":2354,"ok":2355,"##skil":2356,"svart":2357,"##sammans":2358,"redan":2359,"tidigare":2360,"information":2361,"blog":2362,"kvinnor":2363,"ung":2364,"##sch":2365,"mus":2366,"tog":2367,"##cent":2368,"##blem":2369,"tillsammans":2370,"sjuk":2371,"speci":2372,"bilder":2373,"deras":2374,"gra":2375,"ov":2376,"aldrig":2377,"##ars":2378,"tiden":2379,"ab":2380,"he":2381,"ind":2382,"egen":2383,"kvar":2384,"genomsnitt":2385,"##mark":2386,"##orgon":2387,"svensk":2388,"enkel":2389,"##jekt":2390,"tillb":2391,"##uari":2392,"##ora":2393,"manniskor":2394,"##ationer":2395,"bygg":2396,"full":2397,"##iten":2398,"manaden":2399,"ditt":2400,"##hus":2401,"##eri":2402,"ele":2403,"ca":2404,"##par":2405,"##ivit":2406,"art":2407,"##ob":2408,"##peraturen":2409,"##samhet":2410,"konst":2411,"fler":2412,"annan":2413,"stad":2414,"ak":2415,"12":2416,"lat":2417,"##by":2418,"##skol":2419,"vatten":2420,"##ina":2421,"##ubb":2422,"vast":2423,"##berg":2424,"by":2425,"hitta":2426,"##sfor":2427,"kost":2428,"kro":2429,"##las":2430,"##rade":2431,"##ingar":2432,"hjalp":2433,"##val":2434,"borj":2435,"gjort":2436,"##tra":2437,"nord":2438,"dina":2439,"darfor":2440,"jam":2441,"##nes":2442,"##ipp":2443,"honom":2444,"##gifter":2445,"ly":2446,"##uter":2447,"##orer":2448,"gjorde":2449,"tur":2450,"fortsatt":2451,"##icka":2452,"stod":2453,"##sten":2454,"tillbaka":2455,"##temperaturen":2456,"meter":2457,"trad":2458,"##ings":2459,"direkt":2460,"##plats":2461,"tjan":2462,"##andet":2463,"beratt":2464,"intern":2465,"stud":2466,"jan":2467,"folk":2468,"natur":2469,"webb":2470,"mindre":2471,"##elsen":2472,"##lem":2473,"lever":2474,"##olk":2475,"familjen":2476,"lyck":2477,"esc":2478,"medel":2479,"nor":2480,"ganska":2481,"hemma":2482,"bild":2483,"##fe":2484,"##kr":2485,"storre":2486,"kvall":2487,"typ":2488,"##slag":2489,"##iker":2490,"ad":2491,"##lut":2492,"nederbord":2493,"ste":2494,"##ard":2495,"problem":2496,"##istor":2497,"##ektiv":2498,"ofta":2499,"traff":2500,"syn":2501,"mojlighet":2502,"##vard":2503,"son":2504,"##anden":2505,"##rar":2506,"to":2507,"##ydd":2508,"rel":2509,"##orter":2510,"##illa":2511,"co":2512,"##min":2513,"lo":2514,"##iver":2515,"vax":2516,"sar":2517,"nytt":2518,"##cis":2519,"gran":2520,"30":2521,"lika":2522,"##des":2523,"##rang":2524,"##rack":2525,"##ct":2526,"##ister":2527,"dessutom":2528,"##tid":2529,"saga":2530,"ute":2531,"komp":2532,"delen":2533,"ih":2534,"##ana":2535,"##ultat":2536,"##line":2537,"nast":2538,"faktiskt":2539,"app":2540,"##red":2541,"list":2542,"dagen":2543,"haft":2544,"fore":2545,"landet":2546,"besok":2547,"film":2548,"kanner":2549,"infor":2550,"##lek":2551,"titt":2552,"##bland":2553,"##idigt":2554,"folj":2555,"##kv":2556,"tjejer":2557,"##ers":2558,"11":2559,"##olog":2560,"antal":2561,"##rak":2562,"##yt":2563,"hund":2564,"##radet":2565,"vack":2566,"##stad":2567,"##kop":2568,"##amma":2569,"eng":2570,"pres":2571,"anvanda":2572,"rum":2573,"##ometer":2574,"krav":2575,"precis":2576,"dal":2577,"##mo":2578,"sma":2579,"ev":2580,"ob":2581,"17":2582,"gote":2583,"prov":2584,"##ex":2585,"varld":2586,"kanns":2587,"escort":2588,"##ator":2589,"ter":2590,"part":2591,"##esta":2592,"enkelt":2593,"soci":2594,"##lan":2595,"##omm":2596,"goteborg":2597,"styr":2598,"rak":2599,"##ix":2600,"liten":2601,"massage":2602,"##ationen":2603,"innehall":2604,"##net":2605,"slakt":2606,"match":2607,"##nat":2608,"samhall":2609,"mon":2610,"##inner":2611,"lok":2612,"medlem":2613,"pengar":2614,"cent":2615,"online":2616,"fel":2617,"pu":2618,"henne":2619,"##assa":2620,"##gor":2621,"##ilometer":2622,"##illar":2623,"post":2624,"fant":2625,"##igaste":2626,"lak":2627,"##elser":2628,"##ekn":2629,"##sdag":2630,"beslut":2631,"##sy":2632,"sta":2633,"16":2634,"##nen":2635,"ang":2636,"##slut":2637,"stort":2638,"##nade":2639,"inget":2640,"kron":2641,"sommar":2642,"tel":2643,"##ember":2644,"##ian":2645,"##ningarna":2646,"##eln":2647,"dagar":2648,"tha":2649,"##int":2650,"ytt":2651,"##ice":2652,"utbild":2653,"##asin":2654,"##amm":2655,"cat":2656,"##add":2657,"##ind":2658,"##ite":2659,"kul":2660,"##stallet":2661,"org":2662,"##river":2663,"##bart":2664,"fre":2665,"behand":2666,"##unkt":2667,"end":2668,"kat":2669,"##anis":2670,"vilken":2671,"##inna":2672,"samtidigt":2673,"langre":2674,"porn":2675,"aldre":2676,"nastan":2677,"personer":2678,"bi":2679,"kopa":2680,"varfor":2681,"lange":2682,"lj":2683,"knull":2684,"lu":2685,"vissa":2686,"havet":2687,"borjar":2688,"##istr":2689,"##lingen":2690,"resultat":2691,"##raf":2692,"bel":2693,"##vid":2694,"kval":2695,"istallet":2696,"##kor":2697,"bruk":2698,"alltsa":2699,"##ition":2700,"start":2701,"ham":2702,"hoppas":2703,"fem":2704,"##heter":2705,"##aga":2706,"kna":2707,"program":2708,"ror":2709,"grupp":2710,"blivit":2711,"senaste":2712,"##jur":2713,"hennes":2714,"##kommen":2715,"##iet":2716,"vard":2717,"##ips":2718,"##lla":2719,"ne":2720,"eff":2721,"ren":2722,"kropp":2723,"##imat":2724,"senare":2725,"##sf":2726,"vann":2727,"via":2728,"vidare":2729,"##naden":2730,"##andra":2731,"na":2732,"borjade":2733,"##konom":2734,"jatt":2735,"gott":2736,"stat":2737,"klass":2738,"beg":2739,"fred":2740,"##sattning":2741,"langt":2742,"annu":2743,"ekonom":2744,"14":2745,"off":2746,"tillgang":2747,"los":2748,"##arter":2749,"innebar":2750,"sc":2751,"##han":2752,"##farande":2753,"##fekt":2754,"##iter":2755,"vilka":2756,"disk":2757,"kand":2758,"hy":2759,"dra":2760,"##sida":2761,"##ny":2762,"ibland":2763,"forl":2764,"garna":2765,"##sikt":2766,"trots":2767,"nasta":2768,"##tag":2769,"histor":2770,"tav":2771,"forsk":2772,"##uss":2773,"##ons":2774,"euro":2775,"fod":2776,"100":2777,"tekn":2778,"##oner":2779,"##med":2780,"##revs":2781,"##alj":2782,"##ligare":2783,"##end":2784,"gamla":2785,"extra":2786,"igar":2787,"sarskil":2788,"sista":2789,"##rot":2790,"##gard":2791,"id":2792,"##rik":2793,"nara":2794,"##saker":2795,"po":2796,"##rott":2797,"life":2798,"samman":2799,"##drag":2800,"sjal":2801,"betal":2802,"##hor":2803,"og":2804,"ot":2805,"syd":2806,"haller":2807,"regn":2808,"kons":2809,"fe":2810,"gre":2811,"januari":2812,"13":2813,"projekt":2814,"visar":2815,"ned":2816,"dejtingsa":2817,"kur":2818,"fortfarande":2819,"storsta":2820,"lagen":2821,"papp":2822,"ansvar":2823,"met":2824,"snart":2825,"bill":2826,"endast":2827,"##smedel":2828,"matt":2829,"bed":2830,"##ux":2831,"halla":2832,"narm":2833,"mil":2834,"##juder":2835,"##staden":2836,"verksamhet":2837,"bost":2838,"pat":2839,"glad":2840,"##lev":2841,"her":2842,"dod":2843,"slaktet":2844,"##als":2845,"gu":2846,"polit":2847,"und":2848,"##iddag":2849,"##klar":2850,"framfor":2851,"com":2852,"san":2853,"hittar":2854,"fantast":2855,"##gift":2856,"kred":2857,"is":2858,"underarter":2859,"beskrevs":2860,"##one":2861,"rik":2862,"jord":2863,"norr":2864,"##igheter":2865,"hor":2866,"##iner":2867,"sang":2868,"ben":2869,"##ond":2870,"##otell":2871,"##ider":2872,"##up":2873,"bad":2874,"catalog":2875,"25":2876,"lasa":2877,"##ies":2878,"##ument":2879,"ba":2880,"maj":2881,"flytt":2882,"##uta":2883,"##fors":2884,"farg":2885,"##uc":2886,"##unn":2887,"##ret":2888,"do":2889,"##drar":2890,"ovr":2891,"yo":2892,"##spel":2893,"##ift":2894,"finans":2895,"topp":2896,"listade":2897,"bank":2898,"risk":2899,"catalogue":2900,"klar":2901,"tot":2902,"natt":2903,"dating":2904,"bef":2905,"50":2906,"##bara":2907,"##ester":2908,"erbjud":2909,"##ocker":2910,"fragor":2911,"invan":2912,"mis":2913,"##ygga":2914,"ytter":2915,"##of":2916,"##nam":2917,"ihop":2918,"anvander":2919,"egent":2920,"ganger":2921,"##ena":2922,"spela":2923,"bas":2924,"sw":2925,"##oter":2926,"sitter":2927,"tem":2928,"ville":2929,"pla":2930,"kok":2931,"hast":2932,"##pe":2933,"bast":2934,"##etter":2935,"ener":2936,"aug":2937,"if":2938,"##ivt":2939,"blogg":2940,"juli":2941,"ins":2942,"000":2943,"flyg":2944,"soker":2945,"##band":2946,"##ins":2947,"##jo":2948,"helst":2949,"procent":2950,"cy":2951,"00":2952,"tyd":2953,"##juk":2954,"fyra":2955,"stark":2956,"foren":2957,"funkt":2958,"forut":2959,"##ner":2960,"mamma":2961,"bol":2962,"##sok":2963,"mojligt":2964,"forv":2965,"dan":2966,"199":2967,"sett":2968,"##kan":2969,"##agg":2970,"##bol":2971,"snabbt":2972,"##ona":2973,"##ea":2974,"halv":2975,"tills":2976,"##ynd":2977,"system":2978,"##ternativ":2979,"kult":2980,"mobil":2981,"mag":2982,"##onen":2983,"##spro":2984,"fann":2985,"hotell":2986,"##ong":2987,"trev":2988,"##cept":2989,"publ":2990,"minst":2991,"##lats":2992,"sjalva":2993,"sidan":2994,"flesta":2995,"borja":2996,"invanare":2997,"aret":2998,"sch":2999,"tu":3000,"varlden":3001,"timmar":3002,"##ojd":3003,"fina":3004,"##ograf":3005,"##its":3006,"##ryck":3007,"perfekt":3008,"kredit":3009,"nov":3010,"##alla":3011,"##lad":3012,"talet":3013,"skolan":3014,"vant":3015,"klart":3016,"bestall":3017,"egentligen":3018,"tom":3019,"utt":3020,"lam":3021,"kap":3022,"bada":3023,"dec":3024,"visa":3025,"handlar":3026,"musik":3027,"viktigt":3028,"##dejting":3029,"anal":3030,"ring":3031,"inv":3032,"##cess":3033,"vanligt":3034,"arbete":3035,"gillar":3036,"morgon":3037,"##pen":3038,"ho":3039,"vecka":3040,"inter":3041,"ljus":3042,"jamfor":3043,"utfor":3044,"spar":3045,"mill":3046,"arbets":3047,"##alis":3048,"oster":3049,"dej":3050,"##under":3051,"enda":3052,"skapa":3053,"##ert":3054,"##oc":3055,"jun":3056,"egna":3057,"bon":3058,"##bel":3059,"kontro":3060,"minuter":3061,"gangen":3062,"##ander":3063,"skriva":3064,"##res":3065,"host":3066,"borde":3067,"esk":3068,"pos":3069,"free":3070,"##omen":3071,"stra":3072,"gav":3073,"##sla":3074,"huvudstaden":3075,"kvad":3076,"##nader":3077,"##bruk":3078,"##lat":3079,"funger":3080,"moder":3081,"##lade":3082,"august":3083,"##ifran":3084,"##bor":3085,"ovan":3086,"##varande":3087,"et":3088,"knapp":3089,"slapp":3090,"foral":3091,"kvadrat":3092,"mode":3093,"##bygg":3094,"medan":3095,"bred":3096,"video":3097,"##otter":3098,"hals":3099,"gatt":3100,"lilla":3101,"##iz":3102,"haha":3103,"organis":3104,"kraft":3105,"soder":3106,"kund":3107,"##klart":3108,"stand":3109,"##fin":3110,"ide":3111,"##raste":3112,"go":3113,"super":3114,"natet":3115,"telef":3116,"valja":3117,"ens":3118,"##itu":3119,"##bin":3120,"as":3121,"##ummer":3122,"veckan":3123,"##imeter":3124,"##faren":3125,"##samma":3126,"##ags":3127,"alskar":3128,"skar":3129,"massa":3130,"berg":3131,"lagga":3132,"pop":3133,"brukar":3134,"emot":3135,"bid":3136,"tips":3137,"##arer":3138,"car":3139,"aka":3140,"##ium":3141,"ing":3142,"ac":3143,"gener":3144,"##uella":3145,"casin":3146,"malmo":3147,"##ph":3148,"samarbet":3149,"kring":3150,"borjan":3151,"centr":3152,"##uld":3153,"fraga":3154,"##anda":3155,"##ots":3156,"##fik":3157,"skick":3158,"aff":3159,"betyd":3160,"tjej":3161,"##ps":3162,"alternativ":3163,"spr":3164,"utveckling":3165,"##nande":3166,"but":3167,"kyr":3168,"sida":3169,"##derar":3170,"krist":3171,"priv":3172,"livet":3173,"verkar":3174,"##reg":3175,"##oden":3176,"kam":3177,"delar":3178,"fanns":3179,"##ras":3180,"rod":3181,"serv":3182,"manad":3183,"lug":3184,"lov":3185,"natdejting":3186,"##eta":3187,"varmaste":3188,"dejta":3189,"##sakring":3190,"hogsta":3191,"##ler":3192,"aren":3193,"skog":3194,"erbjuder":3195,"##lingar":3196,"##dera":3197,"##ustr":3198,"##raft":3199,"kallaste":3200,"##sin":3201,"erot":3202,"arsmedel":3203,"medeltemperaturen":3204,"##anga":3205,"gol":3206,"##grupp":3207,"kronor":3208,"##ivet":3209,"arsmedeltemperaturen":3210,"kopp":3211,"tanka":3212,"##sidor":3213,"##andring":3214,"vux":3215,"##aa":3216,"bostad":3217,"bal":3218,"##emen":3219,"materi":3220,"skriver":3221,"heller":3222,"sveriges":3223,"kal":3224,"##okus":3225,"sall":3226,"gud":3227,"log":3228,"tillfall":3229,"sem":3230,"genomsnittlig":3231,"juni":3232,"trott":3233,"internet":3234,"##ivers":3235,"augusti":3236,"##annande":3237,"ars":3238,"stan":3239,"bran":3240,"millimeter":3241,"tryck":3242,"webbplats":3243,"mog":3244,"ry":3245,"hot":3246,"nej":3247,"produkter":3248,"##kilometer":3249,"passar":3250,"kvadratkilometer":3251,"fri":3252,"##raden":3253,"##bud":3254,"2018":3255,"vem":3256,"dam":3257,"ku":3258,"utanfor":3259,"##ity":3260,"rapp":3261,"dro":3262,"kvalitet":3263,"sarskilt":3264,"dags":3265,"##frag":3266,"bestam":3267,"##unda":3268,"insp":3269,"##anter":3270,"##koping":3271,"vardag":3272,"##aler":3273,"sov":3274,"torraste":3275,"##rans":3276,"##aten":3277,"regnigaste":3278,"arsn":3279,"##vor":3280,"huvudsak":3281,"arsnederbord":3282,"varandra":3283,"rost":3284,"kultur":3285,"##alet":3286,"##ore":3287,"##ork":3288,"test":3289,"artik":3290,"jon":3291,"##anger":3292,"text":3293,"forra":3294,"sing":3295,"kanna":3296,"kommit":3297,"##styr":3298,"resp":3299,"nak":3300,"##full":3301,"smak":3302,"##usk":3303,"skap":3304,"##egor":3305,"erfaren":3306,"fordel":3307,"kvinna":3308,"##ille":3309,"sagt":3310,"ata":3311,"##vast":3312,"##ine":3313,"##tack":3314,"otro":3315,"##hl":3316,"install":3317,"hjalpa":3318,"##film":3319,"karl":3320,"tanker":3321,"tj":3322,"vagen":3323,"fokus":3324,"##ren":3325,"##ron":3326,"fisk":3327,"genomfor":3328,"##atta":3329,"klock":3330,"nam":3331,"roligt":3332,"ton":3333,"omgiv":3334,"sakerhet":3335,"marknad":3336,"##ign":3337,"vit":3338,"##anc":3339,"lord":3340,"park":3341,"##ald":3342,"rekommen":3343,"anstall":3344,"vanner":3345,"##oder":3346,"omradet":3347,"##ror":3348,"24":3349,"##strom":3350,"##sett":3351,"##boll":3352,"alls":3353,"reger":3354,"##splats":3355,"univers":3356,"ost":3357,"skont":3358,"##bro":3359,"##dat":3360,"elever":3361,"nation":3362,"allman":3363,"##oende":3364,"##ich":3365,"akte":3366,"narheten":3367,"##ke":3368,"utr":3369,"prat":3370,"unga":3371,"upps":3372,"foljande":3373,"cir":3374,"traning":3375,"ytterligare":3376,"sep":3377,"skatt":3378,"rader":3379,"arbetar":3380,"polis":3381,"##ankt":3382,"##ht":3383,"bj":3384,"miss":3385,"21":3386,"##tera":3387,"miljo":3388,"tagit":3389,"##jter":3390,"gemen":3391,"##bund":3392,"sason":3393,"##stid":3394,"##anta":3395,"2017":3396,"igenom":3397,"veta":3398,"##kort":3399,"skill":3400,"veckor":3401,"lek":3402,"prakt":3403,"tankte":3404,"##ppar":3405,"##spr":3406,"##tre":3407,"##fer":3408,"##pan":3409,"popul":3410,"##fol":3411,"djur":3412,"anvands":3413,"annars":3414,"##mor":3415,"lamn":3416,"##staur":3417,"kolla":3418,"imorgon":3419,"last":3420,"hav":3421,"##emang":3422,"##yll":3423,"ek":3424,"him":3425,"40":3426,"bestar":3427,"sakert":3428,"##utt":3429,"##samt":3430,"finansi":3431,"omfatt":3432,"22":3433,"##ng":3434,"##skriv":3435,"fint":3436,"bek":3437,"utbildning":3438,"gym":3439,"##olut":3440,"##emot":3441,"usa":3442,"##pass":3443,"vaster":3444,"##ften":3445,"favor":3446,"framtid":3447,"eskort":3448,"upplev":3449,"kunskap":3450,"ungdom":3451,"##strukt":3452,"##back":3453,"me":3454,"hander":3455,"##ension":3456,"##bok":3457,"ej":3458,"skydd":3459,"titta":3460,"##arn":3461,"satta":3462,"##verket":3463,"okt":3464,"hud":3465,"johan":3466,"manader":3467,"##ish":3468,"lyss":3469,"event":3470,"forsoka":3471,"barnen":3472,"##ova":3473,"vak":3474,"##ash":3475,"effekt":3476,"##batt":3477,"registr":3478,"##varr":3479,"roll":3480,"telefon":3481,"##rag":3482,"kunder":3483,"energi":3484,"##efolk":3485,"spelar":3486,"fi":3487,"##aster":3488,"kol":3489,"tillverk":3490,"inlagg":3491,"febr":3492,"fon":3493,"posit":3494,"inspir":3495,"mand":3496,"fungerar":3497,"anled":3498,"tyvarr":3499,"rom":3500,"##xx":3501,"##ab":3502,"amer":3503,"##atan":3504,"##kur":3505,"apr":3506,"liksom":3507,"dit":3508,"december":3509,"restaur":3510,"bakom":3511,"innehaller":3512,"##sidan":3513,"inst":3514,"internation":3515,"betala":3516,"jobbet":3517,"funktion":3518,"it":3519,"fix":3520,"oav":3521,"##ita":3522,"hamn":3523,"mars":3524,"##tes":3525,"stund":3526,"##unkten":3527,"hej":3528,"kamp":3529,"indiv":3530,"##namn":3531,"viss":3532,"bud":3533,"ansok":3534,"##plan":3535,"fyll":3536,"nedan":3537,"##eringen":3538,"ko":3539,"ifran":3540,"uppgifter":3541,"mys":3542,"septem":3543,"##skydd":3544,"##skolan":3545,"max":3546,"##ober":3547,"lank":3548,"september":3549,"abs":3550,"##los":3551,"kansl":3552,"dy":3553,"boken":3554,"oft":3555,"lara":3556,"fard":3557,"spannande":3558,"forhall":3559,"yr":3560,"ford":3561,"inf":3562,"skal":3563,"februari":3564,"traffa":3565,"visst":3566,"dok":3567,"beskriv":3568,"##unch":3569,"##kla":3570,"skad":3571,"198":3572,"##he":3573,"forbatt":3574,"hard":3575,"##osa":3576,"##ven":3577,"bedom":3578,"##ernas":3579,"##skin":3580,"november":3581,"filmer":3582,"undersok":3583,"pe":3584,"utom":3585,"gro":3586,"recept":3587,"##ry":3588,"inkl":3589,"##sst":3590,"sadan":3591,"kommunen":3592,"sand":3593,"tred":3594,"mots":3595,"kompl":3596,"hogre":3597,"##ca":3598,"##esb":3599,"ph":3600,"##ump":3601,"##kvall":3602,"##skan":3603,"my":3604,"vanlig":3605,"ander":3606,"mak":3607,"sten":3608,"##co":3609,"holl":3610,"paverk":3611,"plac":3612,"##efar":3613,"presenter":3614,"##duc":3615,"##jut":3616,"##grund":3617,"engel":3618,"lugn":3619,"##assage":3620,"dagens":3621,"##uell":3622,"##ten":3623,"##agar":3624,"teck":3625,"gall":3626,"chans":3627,"speciellt":3628,"kvallen":3629,"##gaende":3630,"##ota":3631,"dejtingsajt":3632,"lev":3633,"varde":3634,"jobba":3635,"##syk":3636,"back":3637,"omk":3638,"##ey":3639,"glom":3640,"avslut":3641,"sondag":3642,"##agare":3643,"##uck":3644,"##itar":3645,"od":3646,"lamp":3647,"sim":3648,"##vs":3649,"klimat":3650,"fastighet":3651,"sexiga":3652,"##arnas":3653,"steg":3654,"ungefar":3655,"knulla":3656,"##skatt":3657,"oktober":3658,"stam":3659,"folja":3660,"klubb":3661,"##star":3662,"klader":3663,"##uppgifter":3664,"hjalper":3665,"later":3666,"bety":3667,"23":3668,"##ide":3669,"##mat":3670,"terrang":3671,"##okrat":3672,"igang":3673,"##vik":3674,"lad":3675,"forh":3676,"2016":3677,"driv":3678,"alder":3679,"fragan":3680,"heter":3681,"forsoker":3682,"mott":3683,"sant":3684,"valjer":3685,"2015":3686,"stol":3687,"##mt":3688,"vatt":3689,"##ba":3690,"thai":3691,"oavsett":3692,"situ":3693,"##skl":3694,"##ure":3695,"##itut":3696,"##enskap":3697,"sport":3698,"##ive":3699,"##her":3700,"forutom":3701,"date":3702,"##vaxt":3703,"material":3704,"##inne":3705,"##ial":3706,"upptack":3707,"##ions":3708,"##lands":3709,"##ica":3710,"197":3711,"privat":3712,"bilden":3713,"totalt":3714,"##port":3715,"cl":3716,"fjar":3717,"##rift":3718,"port":3719,"ogon":3720,"##oren":3721,"lagg":3722,"##oo":3723,"dju":3724,"sil":3725,"fortsatta":3726,"service":3727,"april":3728,"drom":3729,"ap":3730,"forslag":3731,"eget":3732,"##tar":3733,"no":3734,"provin":3735,"##wa":3736,"ovriga":3737,"helgen":3738,"##ffe":3739,"tyckte":3740,"casino":3741,"span":3742,"resa":3743,"##satta":3744,"personal":3745,"fest":3746,"sek":3747,"##sg":3748,"kara":3749,"meddel":3750,"public":3751,"varldens":3752,"sker":3753,"##ink":3754,"omkring":3755,"glas":3756,"forstar":3757,"komment":3758,"##ge":3759,"bus":3760,"snygg":3761,"##sav":3762,"ram":3763,"##smark":3764,"blod":3765,"skon":3766,"kroppen":3767,"antalet":3768,"forvar":3769,"ljud":3770,"otroligt":3771,"goda":3772,"platt":3773,"##ib":3774,"##fri":3775,"oftast":3776,"##ystem":3777,"##alist":3778,"vanliga":3779,"kilometer":3780,"jav":3781,"##skr":3782,"##vart":3783,"##stol":3784,"##enn":3785,"prof":3786,"stallet":3787,"lop":3788,"bilen":3789,"slutet":3790,"jatte":3791,"##otek":3792,"avtal":3793,"2014":3794,"aker":3795,"##orl":3796,"arets":3797,"kombin":3798,"dare":3799,"transp":3800,"lans":3801,"##otten":3802,"lon":3803,"60":3804,"ass":3805,"klockan":3806,"nod":3807,"ivag":3808,"avs":3809,"jobbar":3810,"cm":3811,"universitet":3812,"spelare":3813,"karlek":3814,"lamna":3815,"terrangen":3816,"##jarn":3817,"new":3818,"##qu":3819,"##deles":3820,"miljoner":3821,"tak":3822,"link":3823,"##har":3824,"ww":3825,"##ugg":3826,"forfatt":3827,"kostnad":3828,"hjart":3829,"darmed":3830,"##tering":3831,"##dde":3832,"framst":3833,"##eringar":3834,"psyk":3835,"##staende":3836,"sur":3837,"arbetet":3838,"beror":3839,"defin":3840,"dejtingsidor":3841,"peri":3842,"godk":3843,"darefter":3844,"##book":3845,"pappa":3846,"filmen":3847,"tjanster":3848,"middag":3849,"smart":3850,"tredje":3851,"vilja":3852,"behandling":3853,"deltag":3854,"##urn":3855,"##rikt":3856,"mote":3857,"dejtingsajter":3858,"digit":3859,"##folj":3860,"arbeta":3861,"samband":3862,"wid":3863,"alldeles":3864,"##yndighet":3865,"pal":3866,"mod":3867,"##skaper":3868,"brost":3869,"##ko":3870,"utman":3871,"betyder":3872,"##uellt":3873,"wh":3874,"amerik":3875,"massor":3876,"kontakta":3877,"##samheten":3878,"##any":3879,"##mi":3880,"##ffa":3881,"fotboll":3882,"swed":3883,"behovs":3884,"##ukost":3885,"##edag":3886,"gron":3887,"##malt":3888,"##iden":3889,"effektiv":3890,"exempelvis":3891,"forsakring":3892,"naturligt":3893,"niva":3894,"dubb":3895,"lunch":3896,"##ate":3897,"anvandas":3898,"poang":3899,"##skade":3900,"dejt":3901,"##kta":3902,"##skog":3903,"kopte":3904,"##utveck":3905,"##part":3906,"stil":3907,"##skor":3908,"##emal":3909,"##sd":3910,"forandring":3911,"##isa":3912,"##skott":3913,"##allt":3914,"con":3915,"##skad":3916,"www":3917,"platser":3918,"rack":3919,"gammal":3920,"qu":3921,"beroende":3922,"##ub":3923,"thaim":3924,"##ith":3925,"##llen":3926,"punkten":3927,"##ild":3928,"##so":3929,"design":3930,"##ula":3931,"##isar":3932,"face":3933,"flick":3934,"##iff":3935,"ske":3936,"forutsatt":3937,"skrev":3938,"sprak":3939,"intressant":3940,"uppdrag":3941,"daremot":3942,"ed":3943,"##ferens":3944,"fys":3945,"aktiv":3946,"##sel":3947,"fla":3948,"mj":3949,"joh":3950,"kravs":3951,"##betal":3952,"frukt":3953,"namligen":3954,"erfarenhet":3955,"spring":3956,"hora":3957,"liknande":3958,"nan":3959,"196":3960,"##ativa":3961,"xxx":3962,"menar":3963,"##sing":3964,"##komst":3965,"##garden":3966,"fas":3967,"exp":3968,"kande":3969,"samhalle":3970,"hum":3971,"oppna":3972,"tio":3973,"favorit":3974,"tat":3975,"antligen":3976,"fan":3977,"forsvar":3978,"##but":3979,"thaimassage":3980,"sitta":3981,"provinsen":3982,"##icin":3983,"sadana":3984,"##jal":3985,"uppsala":3986,"##repp":3987,"kapit":3988,"##ern":3989,"##yss":3990,"vackra":3991,"tand":3992,"vol":3993,"bocker":3994,"berattar":3995,"##juta":3996,"vaxer":3997,"##ias":3998,"skr":3999,"klipp":4000,"invest":4001,"promen":4002,"pot":4003,"foretaget":4004,"##una":4005,"##ham":4006,"frukost":4007,"lund":4008,"helg":4009,"##jen":4010,"region":4011,"laget":4012,"historia":4013,"amator":4014,"kora":4015,"lata":4016,"trafik":4017,"ikvall":4018,"##50":4019,"prata":4020,"##ement":4021,"anmal":4022,"tankt":4023,"fal":4024,"##garder":4025,"absolut":4026,"##cke":4027,"##iel":4028,"##igen":4029,"forvant":4030,"uppf":4031,"hit":4032,"chr":4033,"luft":4034,"sommaren":4035,"bygga":4036,"ume":4037,"stu":4038,"trygg":4039,"##slaget":4040,"##ikation":4041,"vanster":4042,"kram":4043,"langa":4044,"ros":4045,"##skapet":4046,"kung":4047,"syf":4048,"##ient":4049,"##pres":4050,"##klader":4051,"##terna":4052,"huset":4053,"##forande":4054,"laser":4055,"brott":4056,"num":4057,"26":4058,"hittade":4059,"guld":4060,"viktig":4061,"cirka":4062,"toppen":4063,"sjukdom":4064,"##cka":4065,"engelska":4066,"28":4067,"staden":4068,"27":4069,"##iat":4070,"##po":4071,"lagger":4072,"chef":4073,"oro":4074,"interv":4075,"regel":4076,"##erande":4077,"centrala":4078,"krit":4079,"##itta":4080,"klicka":4081,"##ativt":4082,"valj":4083,"##hang":4084,"hyr":4085,"data":4086,"kuk":4087,"ensam":4088,"##ii":4089,"narmaste":4090,"fodd":4091,"##splan":4092,"plus":4093,"finnas":4094,"avl":4095,"ark":4096,"mjuk":4097,"prin":4098,"medlemmar":4099,"##ane":4100,"##ior":4101,"##iteten":4102,"hemsida":4103,"facebook":4104,"skicka":4105,"sjalvklart":4106,"##kn":4107,"##inge":4108,"ul":4109,"2013":4110,"analys":4111,"sod":4112,"process":4113,"kategor":4114,"semester":4115,"lander":4116,"personliga":4117,"dans":4118,"trak":4119,"bla":4120,"forek":4121,"##komm":4122,"videos":4123,"allvar":4124,"sova":4125,"##punkt":4126,"klara":4127,"sort":4128,"foljer":4129,"poj":4130,"##ike":4131,"misst":4132,"##rav":4133,"##san":4134,"##handling":4135,"ban":4136,"behova":4137,"##foretag":4138,"##ateg":4139,"##efolkat":4140,"##ila":4141,"yng":4142,"dorr":4143,"anv":4144,"dla":4145,"profess":4146,"##zny":4147,"present":4148,"vaxt":4149,"bod":4150,"##20":4151,"##stallning":4152,"fredag":4153,"##skola":4154,"##verka":4155,"dis":4156,"offent":4157,"##anych":4158,"##owanych":4159,"zalog":4160,"##oczny":4161,"widoczny":4162,"zalogowanych":4163,"##skt":4164,"##blad":4165,"bord":4166,"##af":4167,"vare":4168,"##yld":4169,"helsing":4170,"##ocka":4171,"##ktyg":4172,"##utbild":4173,"bit":4174,"##unnit":4175,"konkur":4176,"radd":4177,"server":4178,"##ovis":4179,"scen":4180,"fir":4181,"##ly":4182,"vantar":4183,"ras":4184,"social":4185,"foraldrar":4186,"bu":4187,"samtliga":4188,"ore":4189,"katt":4190,"vinter":4191,"byg":4192,"framgang":4193,"lager":4194,"fullt":4195,"nojd":4196,"fortsatter":4197,"uppe":4198,"hant":4199,"forsalj":4200,"##fa":4201,"sym":4202,"##ton":4203,"utred":4204,"forklar":4205,"teknik":4206,"oka":4207,"visade":4208,"borjat":4209,"valkommen":4210,"intresse":4211,"##sar":4212,"erik":4213,"forsv":4214,"##irl":4215,"tidigt":4216,"vas":4217,"sasom":4218,"##ach":4219,"enskil":4220,"##ktig":4221,"finland":4222,"##stor":4223,"europa":4224,"prova":4225,"ir":4226,"tavling":4227,"bat":4228,"##huset":4229,"tillrack":4230,"##ism":4231,"##iens":4232,"##za":4233,"dela":4234,"##raff":4235,"htt":4236,"varen":4237,"tradition":4238,"daligt":4239,"29":4240,"##bered":4241,"sidor":4242,"you":4243,"larare":4244,"litet":4245,"slag":4246,"hogt":4247,"utifran":4248,"restaurang":4249,"lagt":4250,"fj":4251,"stopp":4252,"##lare":4253,"dejtingsida":4254,"##ierna":4255,"kalla":4256,"tex":4257,"##garna":4258,"dator":4259,"motor":4260,"sodra":4261,"let":4262,"2012":4263,"##trad":4264,"uppmark":4265,"drag":4266,"##mant":4267,"kontroller":4268,"sydost":4269,"ont":4270,"##stans":4271,"fo":4272,"dokument":4273,"rut":4274,"##ssa":4275,"sist":4276,"##yp":4277,"trodde":4278,"elekt":4279,"tvatt":4280,"rec":4281,"adr":4282,"icke":4283,"skillnad":4284,"begrans":4285,"hart":4286,"uttryck":4287,"umea":4288,"##jor":4289,"##janst":4290,"arrang":4291,"svara":4292,"tit":4293,"##seende":4294,"af":4295,"ovrigt":4296,"fra":4297,"##ban":4298,"##teck":4299,"namnet":4300,"fotograf":4301,"##dar":4302,"krig":4303,"bakgrund":4304,"##bli":4305,"lordag":4306,"sadant":4307,"out":4308,"dels":4309,"underhall":4310,"##arbete":4311,"norra":4312,"nodvand":4313,"tus":4314,"##vax":4315,"omgivningarna":4316,"##sart":4317,"##vin":4318,"cykel":4319,"leg":4320,"##urs":4321,"##ations":4322,"beratta":4323,"2010":4324,"saval":4325,"##bes":4326,"exper":4327,"ret":4328,"drog":4329,"utmar":4330,"individ":4331,"villkor":4332,"vir":4333,"halsa":4334,"fores":4335,"##use":4336,"##filmer":4337,"leva":4338,"##ningsom":4339,"##bur":4340,"31":4341,"tradgard":4342,"ru":4343,"allra":4344,"tysk":4345,"##ligheten":4346,"tanke":4347,"hoga":4348,"insats":4349,"fang":4350,"##slan":4351,"##utr":4352,"engag":4353,"##etens":4354,"kallas":4355,"##pol":4356,"are":4357,"sociala":4358,"fro":4359,"kraver":4360,"ena":4361,"fart":4362,"##ds":4363,"bonus":4364,"##cc":4365,"samarbete":4366,"##vent":4367,"forel":4368,"skola":4369,"anna":4370,"solen":4371,"##orda":4372,"vers":4373,"stockholms":4374,"utveckla":4375,"exakt":4376,"##vall":4377,"band":4378,"dalig":4379,"grad":4380,"avsnitt":4381,"gast":4382,"mera":4383,"500":4384,"##pris":4385,"tjanst":4386,"tum":4387,"salj":4388,"##imin":4389,"forskning":4390,"80":4391,"##iviteter":4392,"kant":4393,"##hem":4394,"##xa":4395,"ital":4396,"##person":4397,"sats":4398,"vader":4399,"nyhet":4400,"##hav":4401,"varmt":4402,"##centr":4403,"inled":4404,"autom":4405,"skapar":4406,"bloggen":4407,"##orge":4408,"jack":4409,"hang":4410,"kontroll":4411,"mej":4412,"kott":4413,"nakna":4414,"mun":4415,"ident":4416,"got":4417,"##aljer":4418,"tas":4419,"himla":4420,"vitt":4421,"lind":4422,"2011":4423,"ekonomiska":4424,"##dering":4425,"##rummet":4426,"brand":4427,"reser":4428,"mojligheter":4429,"cam":4430,"##oppet":4431,"##kont":4432,"rull":4433,"viktiga":4434,"kandes":4435,"torsdag":4436,"sann":4437,"onskar":4438,"trevlig":4439,"mogna":4440,"seg":4441,"stalla":4442,"##ycken":4443,"70":4444,"diskuter":4445,"infl":4446,"rapporter":4447,"onsk":4448,"##kes":4449,"col":4450,"##vara":4451,"mannen":4452,"strack":4453,"berak":4454,"produc":4455,"hoger":4456,"hom":4457,"##nytt":4458,"extre":4459,"##ektive":4460,"##ifi":4461,"##lam":4462,"kart":4463,"respektive":4464,"cre":4465,"lokal":4466,"spelet":4467,"##delning":4468,"kille":4469,"hol":4470,"utrust":4471,"##ight":4472,"princi":4473,"char":4474,"senast":4475,"medicin":4476,"90":4477,"storlek":4478,"priser":4479,"sund":4480,"arg":4481,"kaffe":4482,"kata":4483,"soka":4484,"butik":4485,"leder":4486,"live":4487,"##samling":4488,"##fs":4489,"enbart":4490,"gallande":4491,"##inder":4492,"urspr":4493,"profil":4494,"##endet":4495,"typer":4496,"mad":4497,"repres":4498,"press":4499,"##still":4500,"erbjuda":4501,"forvalt":4502,"upple":4503,"resten":4504,"dotter":4505,"194":4506,"punkt":4507,"trevligt":4508,"ax":4509,"anslut":4510,"skratt":4511,"##bon":4512,"kak":4513,"stress":4514,"##dagen":4515,"bev":4516,"uppgift":4517,"anser":4518,"##ee":4519,"frit":4520,"skrivit":4521,"mart":4522,"mel":4523,"bur":4524,"nagonsin":4525,"uppskatt":4526,"##bra":4527,"girl":4528,"##laggning":4529,"##ting":4530,"sjo":4531,"nordvast":4532,"##oret":4533,"##ns":4534,"ager":4535,"skit":4536,"##hi":4537,"trana":4538,"forstas":4539,"tillhor":4540,"anledning":4541,"##kvam":4542,"verksamheten":4543,"##jon":4544,"dryg":4545,"plots":4546,"lattare":4547,"##schen":4548,"ah":4549,"lana":4550,"idrott":4551,"salt":4552,"sju":4553,"sot":4554,"lokala":4555,"##gj":4556,"affar":4557,"regeringen":4558,"strateg":4559,"natten":4560,"syft":4561,"fly":4562,"not":4563,"agg":4564,"fag":4565,"opt":4566,"snar":4567,"bekvam":4568,"anpass":4569,"kansla":4570,"atgarder":4571,"oppet":4572,"##ologi":4573,"sangen":4574,"knappt":4575,"##middag":4576,"lyckas":4577,"ursprung":4578,"rid":4579,"spelade":4580,"gymnas":4581,"okar":4582,"lagre":4583,"##okt":4584,"193":4585,"##gora":4586,"##erades":4587,"satter":4588,"saknar":4589,"fantastiskt":4590,"vuxna":4591,"vacker":4592,"##oms":4593,"porrfilm":4594,"omraden":4595,"framtiden":4596,"rent":4597,"ersatt":4598,"ses":4599,"black":4600,"drabb":4601,"stang":4602,"##atet":4603,"nr":4604,"tw":4605,"sjun":4606,"ladd":4607,"##hal":4608,"uppdat":4609,"45":4610,"##vist":4611,"pan":4612,"vanta":4613,"njuta":4614,"sjukt":4615,"omrade":4616,"arm":4617,"##nos":4618,"regler":4619,"##stav":4620,"yngre":4621,"reda":4622,"fantastisk":4623,"##entet":4624,"varme":4625,"oppen":4626,"rapport":4627,"gal":4628,"tis":4629,"##onser":4630,"datum":4631,"web":4632,"osv":4633,"testa":4634,"borta":4635,"vari":4636,"integr":4637,"hosten":4638,"chat":4639,"resultatet":4640,"byta":4641,"gay":4642,"samtal":4643,"eta":4644,"jak":4645,"neg":4646,"##enting":4647,"##skning":4648,"##ius":4649,"dagarna":4650,"##ningsvis":4651,"pension":4652,"tol":4653,"handla":4654,"inb":4655,"modern":4656,"medvet":4657,"leverant":4658,"onsdag":4659,"imp":4660,"italien":4661,"het":4662,"utmarkt":4663,"##larna":4664,"forekom":4665,"karakt":4666,"os":4667,"orebro":4668,"bry":4669,"lock":4670,"##hamn":4671,"bolag":4672,"##bolag":4673,"sign":4674,"team":4675,"laga":4676,"lakem":4677,"cook":4678,"ingenting":4679,"##lo":4680,"serien":4681,"##isen":4682,"##hov":4683,"dist":4684,"undrar":4685,"blom":4686,"centrum":4687,"ordforande":4688,"sasong":4689,"##visning":4690,"nordost":4691,"inred":4692,"vattnet":4693,"saklart":4694,"standard":4695,"vastra":4696,"marknaden":4697,"anvandning":4698,"sub":4699,"givet":4700,"sluta":4701,"##gren":4702,"starka":4703,"minn":4704,"iaf":4705,"boll":4706,"##ura":4707,"##edd":4708,"samhallet":4709,"avsl":4710,"bilar":4711,"##klam":4712,"##cy":4713,"yt":4714,"##bilder":4715,"##fritt":4716,"sat":4717,"##igg":4718,"spa":4719,"kostnader":4720,"lagenhet":4721,"vita":4722,"verktyg":4723,"boende":4724,"je":4725,"##mon":4726,"tillrackligt":4727,"sno":4728,"lyssna":4729,"kunnat":4730,"foto":4731,"tankar":4732,"brev":4733,"##pet":4734,"artikel":4735,"##produkt":4736,"peter":4737,"##varden":4738,"##mann":4739,"spara":4740,"##urer":4741,"nack":4742,"##ssystem":4743,"plotsligt":4744,"drar":4745,"ordent":4746,"##itter":4747,"rabatt":4748,"##ios":4749,"isl":4750,"##bundet":4751,"priset":4752,"##givare":4753,"mid":4754,"oper":4755,"naring":4756,"adress":4757,"tillstand":4758,"##fort":4759,"##ogg":4760,"##ustri":4761,"glob":4762,"damer":4763,"special":4764,"lack":4765,"skor":4766,"valkom":4767,"mangd":4768,"period":4769,"191":4770,"sydvast":4771,"fantastiska":4772,"##klimat":4773,"mail":4774,"kompetens":4775,"##ors":4776,"##inar":4777,"##estall":4778,"halso":4779,"2009":4780,"##len":4781,"miljon":4782,"spen":4783,"35":4784,"ligga":4785,"hamt":4786,"andel":4787,"europe":4788,"framat":4789,"rev":4790,"valt":4791,"antingen":4792,"##orlunda":4793,"nummer":4794,"shopp":4795,"##verkan":4796,"jur":4797,"##skri":4798,"##ya":4799,"##ungen":4800,"vinna":4801,"195":4802,"narmare":4803,"##ben":4804,"nyheter":4805,"sms":4806,"##styrelsen":4807,"ihag":4808,"##ho":4809,"##slapp":4810,"mesta":4811,"ill":4812,"enor":4813,"aktiviteter":4814,"##uten":4815,"##ansk":4816,"timme":4817,"medarbet":4818,"stann":4819,"paket":4820,"slipp":4821,"##gran":4822,"ansokan":4823,"##istik":4824,"strax":4825,"konto":4826,"naturligtvis":4827,"##iella":4828,"javla":4829,"##lande":4830,"##rin":4831,"##medel":4832,"##ansen":4833,"harligt":4834,"##slagen":4835,"##ola":4836,"##ffan":4837,"nagonting":4838,"site":4839,"##ordning":4840,"utbud":4841,"vall":4842,"forening":4843,"utnytt":4844,"##lor":4845,"##gas":4846,"minska":4847,"taget":4848,"grader":4849,"##serv":4850,"horn":4851,"forlor":4852,"projektet":4853,"vagar":4854,"##onom":4855,"stre":4856,"prote":4857,"kommande":4858,"enkl":4859,"##we":4860,"##cep":4861,"##spektiv":4862,"##ode":4863,"##ienter":4864,"##ager":4865,"makt":4866,"kurs":4867,"visste":4868,"bygger":4869,"vuxen":4870,"uppfatt":4871,"jarn":4872,"formod":4873,"rym":4874,"aut":4875,"rolig":4876,"cit":4877,"tapp":4878,"kla":4879,"##usive":4880,"##ills":4881,"matchen":4882,"kyl":4883,"betyg":4884,"klad":4885,"admin":4886,"vore":4887,"erotisk":4888,"huvudet":4889,"starkt":4890,"malet":4891,"##ids":4892,"jes":4893,"##utveckling":4894,"##fiken":4895,"flytta":4896,"##asa":4897,"john":4898,"passa":4899,"##sled":4900,"nyck":4901,"myndighet":4902,"##program":4903,"strom":4904,"##iot":4905,"##edagog":4906,"kre":4907,"chok":4908,"hd":4909,"##ve":4910,"amb":4911,"##iti":4912,"blomm":4913,"##sakt":4914,"etc":4915,"tillamp":4916,"utgor":4917,"vars":4918,"forbi":4919,"##let":4920,"hell":4921,"energ":4922,"##kat":4923,"organisation":4924,"programmet":4925,"##sex":4926,"stick":4927,"datorn":4928,"##emokrat":4929,"sasongen":4930,"tving":4931,"varier":4932,"okej":4933,"riksdag":4934,"##arta":4935,"##uts":4936,"ladda":4937,"finansiella":4938,"forhopp":4939,"gard":4940,"sum":4941,"with":4942,"dvs":4943,"betydligt":4944,"regionen":4945,"satte":4946,"student":4947,"plast":4948,"tonar":4949,"kast":4950,"will":4951,"christ":4952,"delta":4953,"fonster":4954,"##ec":4955,"harlig":4956,"farger":4957,"orsak":4958,"##dern":4959,"ug":4960,"carl":4961,"yrkes":4962,"mask":4963,"##stalla":4964,"regl":4965,"hamta":4966,"fitta":4967,"lesb":4968,"info":4969,"triv":4970,"bidrag":4971,"viktigaste":4972,"##lang":4973,"redovis":4974,"2008":4975,"lake":4976,"##ktor":4977,"smal":4978,"vetenskap":4979,"##vens":4980,"anders":4981,"ekonomi":4982,"##ube":4983,"##foren":4984,"dubbel":4985,"##bum":4986,"jordbruk":4987,"##bas":4988,"kommunikation":4989,"numera":4990,"##lov":4991,"tanken":4992,"sty":4993,"marknadsfor":4994,"papper":4995,"##stone":4996,"diskuss":4997,"lyckades":4998,"automat":4999,"korde":5000,"byggnad":5001,"##inal":5002,"##ckar":5003,"##adress":5004,"##system":5005,"##kant":5006,"##ifier":5007,"tube":5008,"antag":5009,"snygga":5010,"intervju":5011,"norge":5012,"maten":5013,"##mel":5014,"tydligt":5015,"transport":5016,"normalt":5017,"gravid":5018,"##vika":5019,"monster":5020,"eftermiddag":5021,"vinst":5022,"forvan":5023,"befolk":5024,"##bell":5025,"ort":5026,"##istan":5027,"kostar":5028,"##farg":5029,"underbart":5030,"jamfort":5031,"can":5032,"smar":5033,"kors":5034,"##skon":5035,"vind":5036,"ansikt":5037,"up":5038,"reklam":5039,"modell":5040,"entre":5041,"##varl":5042,"bolaget":5043,"avgor":5044,"ges":5045,"bestalla":5046,"mol":5047,"frisk":5048,"svarta":5049,"mandag":5050,"rok":5051,"polisen":5052,"pratar":5053,"fixa":5054,"##bert":5055,"city":5056,"##mm":5057,"maria":5058,"##atch":5059,"##sor":5060,"anstallda":5061,"veg":5062,"landst":5063,"djup":5064,"skiv":5065,"##zz":5066,"media":5067,"tittar":5068,"##slos":5069,"##ele":5070,"skil":5071,"##bank":5072,"riktig":5073,"maskin":5074,"##nummer":5075,"accep":5076,"nil":5077,"goog":5078,"forhallande":5079,"definit":5080,"dol":5081,"brist":5082,"internationella":5083,"http":5084,"staller":5085,"promenad":5086,"rygg":5087,"##iljo":5088,"relig":5089,"300":5090,"##sr":5091,"lage":5092,"dusch":5093,"##kade":5094,"underklader":5095,"##spekt":5096,"gun":5097,"##igh":5098,"strand":5099,"herr":5100,"valde":5101,"killar":5102,"##les":5103,"roliga":5104,"etabl":5105,"alko":5106,"##rip":5107,"goras":5108,"musk":5109,"koper":5110,"##lund":5111,"##stod":5112,"vinn":5113,"##iment":5114,"sexlek":5115,"hojd":5116,"cookies":5117,"##umenter":5118,"morgonen":5119,"36":5120,"detaljer":5121,"gors":5122,"atmin":5123,"angel":5124,"##terar":5125,"##rande":5126,"##fard":5127,"##kopp":5128,"underbara":5129,"kallt":5130,"forr":5131,"institut":5132,"forbered":5133,"visas":5134,"bjud":5135,"serie":5136,"2000":5137,"atta":5138,"##ologiska":5139,"##ningsm":5140,"forutsattningar":5141,"##ama":5142,"drygt":5143,"dyg":5144,"utover":5145,"##perad":5146,"fru":5147,"porno":5148,"##kast":5149,"bom":5150,"personuppgifter":5151,"bilderna":5152,"gif":5153,"lakare":5154,"fored":5155,"##ydda":5156,"##ligheter":5157,"utgang":5158,"##amen":5159,"annorlunda":5160,"##umark":5161,"sannol":5162,"hyres":5163,"vand":5164,"kopt":5165,"##dater":5166,"##sratt":5167,"slutade":5168,"dyr":5169,"##sorg":5170,"##ise":5171,"litt":5172,"##brott":5173,"syfte":5174,"ialla":5175,"skane":5176,"langs":5177,"##fton":5178,"slog":5179,"##hel":5180,"overt":5181,"##ular":5182,"buss":5183,"ep":5184,"gruppen":5185,"formodligen":5186,"bestamm":5187,"##assan":5188,"##bi":5189,"begar":5190,"intresserad":5191,"op":5192,"studie":5193,"inlag":5194,"hogst":5195,"utrym":5196,"ordning":5197,"singlar":5198,"##roll":5199,"##kraft":5200,"hallbar":5201,"kuperad":5202,"##angen":5203,"slar":5204,"lust":5205,"fett":5206,"lamnar":5207,"rosa":5208,"kyrk":5209,"noj":5210,"grym":5211,"politik":5212,"##marna":5213,"##talet":5214,"192":5215,"##ansvar":5216,"atminstone":5217,"fordon":5218,"##oga":5219,"um":5220,"budget":5221,"##ilt":5222,"populara":5223,"helsingborg":5224,"##pack":5225,"noter":5226,"profession":5227,"strukt":5228,"##hy":5229,"journ":5230,"##ppen":5231,"riktning":5232,"anvant":5233,"01":5234,"alkohol":5235,"varden":5236,"kem":5237,"##spol":5238,"##chef":5239,"stalle":5240,"boka":5241,"dest":5242,"naken":5243,"190":5244,"patient":5245,"andring":5246,"##verksamhet":5247,"givetvis":5248,"kompis":5249,"07":5250,"rummet":5251,"skott":5252,"konstigt":5253,"kyrkan":5254,"##ase":5255,"andre":5256,"mg":5257,"orkar":5258,"##urser":5259,"##arens":5260,"08":5261,"mansk":5262,"##leken":5263,"forsaljning":5264,"leda":5265,"choklad":5266,"paverkar":5267,"bibli":5268,"balans":5269,"nuvarande":5270,"muse":5271,"lant":5272,"mogen":5273,"lista":5274,"iallafall":5275,"betydelse":5276,"##anner":5277,"konkurr":5278,"studier":5279,"##shus":5280,"detalj":5281,"personlig":5282,"formaga":5283,"##vatt":5284,"skul":5285,"tala":5286,"##ands":5287,"fing":5288,"tydligen":5289,"gjord":5290,"sprang":5291,"hantera":5292,"siff":5293,"lugnt":5294,"princip":5295,"hort":5296,"roda":5297,"invand":5298,"stjarn":5299,"foreningen":5300,"syster":5301,"##skomm":5302,"problemet":5303,"##ake":5304,"varumark":5305,"talar":5306,"industri":5307,"underbar":5308,"##enden":5309,"klarar":5310,"##natt":5311,"sent":5312,"ungdomar":5313,"##pla":5314,"mitten":5315,"##ood":5316,"rem":5317,"flash":5318,"kanda":5319,"stabil":5320,"spra":5321,"pengarna":5322,"starta":5323,"salja":5324,"hittat":5325,"grav":5326,"framt":5327,"minns":5328,"##kommer":5329,"politiska":5330,"ersattning":5331,"partner":5332,"inklusive":5333,"##lys":5334,"ordentligt":5335,"amerikanska":5336,"garanter":5337,"kin":5338,"sjon":5339,"##splatsen":5340,"##klass":5341,"mord":5342,"yout":5343,"sorter":5344,"forbattra":5345,"##ction":5346,"##inst":5347,"regering":5348,"utvecklas":5349,"sallan":5350,"##bran":5351,"##jas":5352,"tisdag":5353,"okad":5354,"supp":5355,"2007":5356,"##tr":5357,"aktie":5358,"demokrat":5359,"saljer":5360,"soffan":5361,"inkop":5362,"huvudsakligen":5363,"##press":5364,"forum":5365,"forsokte":5366,"forbund":5367,"enkla":5368,"singel":5369,"brod":5370,"hyp":5371,"##ira":5372,"##ige":5373,"funkar":5374,"manniska":5375,"olyck":5376,"magn":5377,"tunn":5378,"kallade":5379,"skam":5380,"##ics":5381,"allmanna":5382,"milf":5383,"asikt":5384,"gratt":5385,"##gt":5386,"ref":5387,"rock":5388,"forelas":5389,"uppratt":5390,"##stam":5391,"sav":5392,"glesb":5393,"sexleksaker":5394,"modeller":5395,"torr":5396,"don":5397,"##handa":5398,"ostra":5399,"pra":5400,"stanna":5401,"uppen":5402,"mojligheten":5403,"##own":5404,"tun":5405,"styrelsen":5406,"sof":5407,"##derade":5408,"##skont":5409,"gett":5410,"##ctor":5411,"inklu":5412,"##istiska":5413,"racker":5414,"##behor":5415,"danmark":5416,"##mot":5417,"britt":5418,"##ment":5419,"##pren":5420,"mats":5421,"ack":5422,"##ident":5423,"##pat":5424,"##gruppen":5425,"amnen":5426,"##ower":5427,"vat":5428,"svang":5429,"ik":5430,"##fragan":5431,"tung":5432,"##anen":5433,"##hort":5434,"##entyr":5435,"##ugga":5436,"anses":5437,"##stift":5438,"natverk":5439,"utvecklingen":5440,"varken":5441,"valet":5442,"kommuner":5443,"##skal":5444,"##rapp":5445,"marken":5446,"##igheten":5447,"brun":5448,"finner":5449,"##prov":5450,"##ual":5451,"funn":5452,"nas":5453,"orig":5454,"gladje":5455,"gift":5456,"alex":5457,"##halla":5458,"magen":5459,"kallar":5460,"##vagen":5461,"vaknade":5462,"oj":5463,"sammanhang":5464,"##fan":5465,"diag":5466,"rattigheter":5467,"skyld":5468,"utform":5469,"##ivare":5470,"fyller":5471,"##atar":5472,"##erings":5473,"comm":5474,"produktion":5475,"##fest":5476,"skid":5477,"##emat":5478,"barnet":5479,"losningar":5480,"avgift":5481,"enhet":5482,"konsek":5483,"##bu":5484,"tyskland":5485,"##ific":5486,"vackert":5487,"losa":5488,"##blick":5489,"##oss":5490,"hotellet":5491,"09":5492,"kommentar":5493,"dack":5494,"hann":5495,"bjorn":5496,"leverans":5497,"mysigt":5498,"##klubb":5499,"lill":5500,"popular":5501,"sweden":5502,"tyst":5503,"air":5504,"##amin":5505,"undant":5506,"situation":5507,"handling":5508,"fredrik":5509,"tillvaxt":5510,"##ancer":5511,"begrepp":5512,"platsen":5513,"bestamt":5514,"##gl":5515,"snarare":5516,"springa":5517,"##god":5518,"##kret":5519,"##sprogram":5520,"##agaren":5521,"##hog":5522,"mik":5523,"offic":5524,"##ollar":5525,"tekniska":5526,"kg":5527,"rim":5528,"##delar":5529,"stig":5530,"relativt":5531,"motstand":5532,"32":5533,"ranta":5534,"faktum":5535,"kamer":5536,"lond":5537,"stads":5538,"vattendrag":5539,"total":5540,"fung":5541,"omedel":5542,"skogen":5543,"laste":5544,"lekt":5545,"funktioner":5546,"##klara":5547,"mork":5548,"hoj":5549,"2006":5550,"tyg":5551,"play":5552,"##server":5553,"bete":5554,"resan":5555,"inspiration":5556,"fukt":5557,"utland":5558,"##ox":5559,"bilj":5560,"##svall":5561,"inrikt":5562,"utsikt":5563,"medarbetare":5564,"##xor":5565,"grill":5566,"##deras":5567,"mota":5568,"##sliv":5569,"socker":5570,"##maskin":5571,"era":5572,"fungera":5573,"utvar":5574,"happ":5575,"kill":5576,"##phone":5577,"mojliga":5578,"japan":5579,"##barn":5580,"silver":5581,"##riar":5582,"upplevelse":5583,"##isten":5584,"div":5585,"bjuder":5586,"glesbefolkat":5587,"##llop":5588,"sock":5589,"takt":5590,"paverka":5591,"coll":5592,"por":5593,"sajt":5594,"ryss":5595,"##bergs":5596,"##rop":5597,"fardig":5598,"##etten":5599,"big":5600,"letar":5601,"nere":5602,"framforallt":5603,"##istrikt":5604,"##elserna":5605,"skuld":5606,"##akning":5607,"frankr":5608,"sattet":5609,"33":5610,"##sked":5611,"langd":5612,"innov":5613,"fack":5614,"this":5615,"besoka":5616,"stycken":5617,"aktuella":5618,"rekommenderar":5619,"stal":5620,"lars":5621,"aktivitet":5622,"gavle":5623,"billig":5624,"oer":5625,"fig":5626,"jobbigt":5627,"risken":5628,"synd":5629,"betalar":5630,"##ford":5631,"hushall":5632,"slags":5633,"bir":5634,"youtube":5635,"##ose":5636,"personen":5637,"kampan":5638,"##grad":5639,"net":5640,"symbol":5641,"botten":5642,"losning":5643,"nav":5644,"ip":5645,"##gangen":5646,"##ickar":5647,"behovde":5648,"##roende":5649,"falt":5650,"illa":5651,"##mala":5652,"##jus":5653,"redo":5654,"eleverna":5655,"##eten":5656,"##djur":5657,"brud":5658,"flickor":5659,"##vo":5660,"kommentarer":5661,"sikt":5662,"skatte":5663,"##adem":5664,"sara":5665,"systemet":5666,"ideer":5667,"##enhet":5668,"ringa":5669,"##ile":5670,"desig":5671,"mom":5672,"relation":5673,"metod":5674,"skada":5675,"enklare":5676,"camp":5677,"chansen":5678,"undan":5679,"kanslor":5680,"nyligen":5681,"standigt":5682,"kontor":5683,"fritid":5684,"martin":5685,"jonkoping":5686,"vr":5687,"objekt":5688,"prim":5689,"aventyr":5690,"inkomst":5691,"##laggande":5692,"##du":5693,"hinner":5694,"london":5695,"##edes":5696,"intens":5697,"andersson":5698,"overra":5699,"appar":5700,"##erier":5701,"exkl":5702,"##elsens":5703,"lyx":5704,"harliga":5705,"besvar":5706,"pedagog":5707,"undvika":5708,"kuh":5709,"##platsen":5710,"okat":5711,"vasteras":5712,"##derna":5713,"klan":5714,"pack":5715,"##skraft":5716,"##fred":5717,"specif":5718,"sallskap":5719,"brollop":5720,"##bler":5721,"optim":5722,"definitivt":5723,"videor":5724,"mic":5725,"##otta":5726,"central":5727,"##dex":5728,"master":5729,"lim":5730,"##hj":5731,"koket":5732,"##park":5733,"##eller":5734,"rep":5735,"konstnar":5736,"jakt":5737,"box":5738,"hundar":5739,"##skrivning":5740,"matcher":5741,"##oker":5742,"##th":5743,"your":5744,"bevis":5745,"pet":5746,"smarta":5747,"lanet":5748,"respekt":5749,"##ledare":5750,"hunnit":5751,"##sjuk":5752,"##stalld":5753,"##iam":5754,"wa":5755,"ordet":5756,"##huvud":5757,"minim":5758,"##10":5759,"##draget":5760,"moderna":5761,"lyckats":5762,"##aterial":5763,"02":5764,"forsikt":5765,"##pper":5766,"sank":5767,"pratade":5768,"forandra":5769,"mjolk":5770,"##isch":5771,"underl":5772,"rakt":5773,"vila":5774,"lopp":5775,"hittills":5776,"debatt":5777,"grupper":5778,"ye":5779,"hjarn":5780,"ran":5781,"05":5782,"rund":5783,"##edom":5784,"##idae":5785,"##vers":5786,"##ilje":5787,"tvungen":5788,"vd":5789,"one":5790,"landsting":5791,"189":5792,"wik":5793,"##derat":5794,"chatt":5795,"appl":5796,"urval":5797,"omoj":5798,"kanslan":5799,"##erats":5800,"startade":5801,"fyr":5802,"vadret":5803,"perspektiv":5804,"banan":5805,"politiker":5806,"erotiska":5807,"straff":5808,"stats":5809,"prem":5810,"overv":5811,"radio":5812,"fat":5813,"riktiga":5814,"grundlaggande":5815,"##delningen":5816,"##ikat":5817,"golv":5818,"cr":5819,"##sprak":5820,"fallet":5821,"billigt":5822,"trakigt":5823,"##skoter":5824,"sammanfatt":5825,"frankrike":5826,"golf":5827,"vardags":5828,"55":5829,"##oda":5830,"##betalning":5831,"##utbildning":5832,"motsvarande":5833,"##uff":5834,"ott":5835,"prior":5836,"berattade":5837,"##smed":5838,"##kam":5839,"konferens":5840,"##skat":5841,"perfekta":5842,"mult":5843,"##ire":5844,"skilj":5845,"personalen":5846,"##sil":5847,"tillfalle":5848,"##itekt":5849,"##assigt":5850,"hed":5851,"##vatten":5852,"varv":5853,"studenter":5854,"ingr":5855,"##till":5856,"ledare":5857,"forhoppningsvis":5858,"omfattande":5859,"listan":5860,"syss":5861,"##ningst":5862,"allmant":5863,"real":5864,"utomhus":5865,"plock":5866,"humor":5867,"forfattare":5868,"hyll":5869,"delst":5870,"fylla":5871,"lys":5872,"##rades":5873,"mast":5874,"##pas":5875,"##varo":5876,"##iven":5877,"ryska":5878,"##sats":5879,"pul":5880,"04":5881,"jorden":5882,"##adespel":5883,"ten":5884,"tider":5885,"befinner":5886,"visat":5887,"##takter":5888,"vist":5889,"matte":5890,"##aket":5891,"lid":5892,"##vakt":5893,"flex":5894,"utsatt":5895,"block":5896,"##ette":5897,"vanligtvis":5898,"##fta":5899,"skull":5900,"kompletter":5901,"##oster":5902,"##gav":5903,"varma":5904,"andras":5905,"dild":5906,"##lex":5907,"kapital":5908,"##set":5909,"##forsakring":5910,"##kord":5911,"06":5912,"hansyn":5913,"mov":5914,"##ap":5915,"tjock":5916,"tyska":5917,"album":5918,"##falt":5919,"##sut":5920,"##fisk":5921,"##ycke":5922,"lakemedel":5923,"rot":5924,"extremt":5925,"anvandare":5926,"##gatan":5927,"stranden":5928,"gas":5929,"##iosa":5930,"gill":5931,"linkoping":5932,"75":5933,"34":5934,"potent":5935,"separ":5936,"kollade":5937,"tidningen":5938,"samre":5939,"njut":5940,"knullar":5941,"uppdater":5942,"avsug":5943,"lamnade":5944,"varav":5945,"fodels":5946,"400":5947,"deb":5948,"ron":5949,"funderar":5950,"glada":5951,"syftet":5952,"webbplatsen":5953,"enskilda":5954,"##orerna":5955,"haret":5956,"daliga":5957,"renover":5958,"hamnar":5959,"##stallningar":5960,"fika":5961,"drift":5962,"##mos":5963,"tecken":5964,"austr":5965,"overens":5966,"##ytande":5967,"bidra":5968,"alskade":5969,"blommor":5970,"parti":5971,"seger":5972,"slutar":5973,"##lak":5974,"pus":5975,"narvarande":5976,"##yggen":5977,"national":5978,"utbr":5979,"metoder":5980,"inl":5981,"pabor":5982,"stral":5983,"snabbare":5984,"mich":5985,"grona":5986,"##strack":5987,"medier":5988,"mening":5989,"konser":5990,"##jol":5991,"patienter":5992,"cert":5993,"jobbat":5994,"nationella":5995,"pga":5996,"tillgangliga":5997,"lagom":5998,"der":5999,"pam":6000,"03":6001,"folket":6002,"tatb":6003,"gemensamma":6004,"##omradet":6005,"karaktar":6006,"##ene":6007,"vintern":6008,"korrekt":6009,"##eratur":6010,"fragade":6011,"daniel":6012,"fork":6013,"ifall":6014,"betrakt":6015,"frakt":6016,"major":6017,"handa":6018,"kontrollera":6019,"##skole":6020,"##arder":6021,"version":6022,"sade":6023,"##fyll":6024,"cont":6025,"##mus":6026,"##off":6027,"##ynt":6028,"##stret":6029,"heta":6030,"##sport":6031,"google":6032,"sens":6033,"##hets":6034,"dog":6035,"bidrar":6036,"austral":6037,"tittade":6038,"##lades":6039,"##ppa":6040,"teater":6041,"overg":6042,"handel":6043,"##ange":6044,"webbplatser":6045,"konsekvens":6046,"langtar":6047,"pool":6048,"est":6049,"initi":6050,"##lle":6051,"sugen":6052,"##oteket":6053,"vel":6054,"slott":6055,"rov":6056,"##spar":6057,"##shand":6058,"vm":6059,"##kall":6060,"snabba":6061,"jesus":6062,"naturen":6063,"domstol":6064,"avseende":6065,"privata":6066,"##hund":6067,"utlan":6068,"dricka":6069,"##df":6070,"##janster":6071,"snyggt":6072,"bestamde":6073,"##uer":6074,"moter":6075,"kanada":6076,"tatbefolkat":6077,"sky":6078,"##shop":6079,"tillhanda":6080,"foraldr":6081,"hak":6082,"fet":6083,"##maktig":6084,"bloggar":6085,"langst":6086,"erfarenheter":6087,"##vaxter":6088,"##issa":6089,"kina":6090,"##ua":6091,"2005":6092,"##ratten":6093,"svenskt":6094,"##ivan":6095,"driver":6096,"fria":6097,"##laget":6098,"forandringar":6099,"forhand":6100,"dorren":6101,"##fon":6102,"billiga":6103,"erotik":6104,"erbjudanden":6105,"##cer":6106,"positivt":6107,"eventuella":6108,"david":6109,"dor":6110,"normal":6111,"garant":6112,"##fot":6113,"besokare":6114,"##losa":6115,"##organis":6116,"tydlig":6117,"##sklimat":6118,"##ih":6119,"fjaril":6120,"arbetsm":6121,"kran":6122,"lju":6123,"rakna":6124,"skrift":6125,"##uch":6126,"##fragor":6127,"##valt":6128,"foljd":6129,"anges":6130,"atit":6131,"korta":6132,"bror":6133,"bekraft":6134,"varan":6135,"revis":6136,"akta":6137,"##ockey":6138,"kunskaper":6139,"vanda":6140,"forekommer":6141,"leta":6142,"##andes":6143,"skadespel":6144,"tjansten":6145,"mangder":6146,"tuff":6147,"oerhort":6148,"##lekt":6149,"##anten":6150,"hande":6151,"pil":6152,"prest":6153,"fakta":6154,"##uft":6155,"##imul":6156,"##kans":6157,"kontin":6158,"karn":6159,"syns":6160,"kombination":6161,"europeiska":6162,"svag":6163,"##angd":6164,"pek":6165,"##ologisk":6166,"lapp":6167,"sonder":6168,"mojlig":6169,"puss":6170,"lankar":6171,"##ros":6172,"inc":6173,"stolt":6174,"##gande":6175,"ogonen":6176,"potatis":6177,"svarar":6178,"premi":6179,"levande":6180,"elektron":6181,"dim":6182,"##ensioner":6183,"nagonstans":6184,"tolk":6185,"##ome":6186,"ringde":6187,"##tim":6188,"johansson":6189,"unika":6190,"klubben":6191,"##ekan":6192,"bransch":6193,"omsorg":6194,"foret":6195,"samling":6196,"##ori":6197,"avanc":6198,"tillganglig":6199,"##ningsomrade":6200,"##fora":6201,"forran":6202,"run":6203,"##opa":6204,"former":6205,"hjarta":6206,"jud":6207,"38":6208,"logga":6209,"##ep":6210,"##ela":6211,"uppfy":6212,"##peratur":6213,"orsa":6214,"huden":6215,"intro":6216,"39":6217,"##iland":6218,"mormor":6219,"##irekt":6220,"nodvandigt":6221,"traffar":6222,"resurser":6223,"##intress":6224,"beskriver":6225,"organisationer":6226,"halften":6227,"forn":6228,"##inen":6229,"vik":6230,"avstand":6231,"##ningens":6232,"flashback":6233,"york":6234,"skjut":6235,"bre":6236,"##lok":6237,"##anvand":6238,"hoppa":6239,"##klag":6240,"##qvist":6241,"annons":6242,"traffade":6243,"hjartat":6244,"##kost":6245,"bytt":6246,"ledande":6247,"##skrifter":6248,"uppleva":6249,"nyckel":6250,"badrum":6251,"ledam":6252,"skaffa":6253,"belopp":6254,"cer":6255,"##out":6256,"ent":6257,"statistik":6258,"godis":6259,"grann":6260,"intressanta":6261,"kommenter":6262,"kollektiv":6263,"##brit":6264,"fullstand":6265,"nytta":6266,"klassiska":6267,"top":6268,"kursen":6269,"tok":6270,"sjukhus":6271,"bodde":6272,"##gangar":6273,"avgifter":6274,"smor":6275,"mac":6276,"saknas":6277,"lagenheten":6278,"##ugan":6279,"raknas":6280,"oh":6281,"stallen":6282,"##aner":6283,"##arbetet":6284,"uts":6285,"texten":6286,"egenskaper":6287,"rej":6288,"lycka":6289,"deltagare":6290,"kust":6291,"afr":6292,"##raning":6293,"varsta":6294,"nio":6295,"inlagget":6296,"entrepren":6297,"##orp":6298,"bag":6299,"skickas":6300,"hun":6301,"tall":6302,"osaker":6303,"##dens":6304,"avsugning":6305,"motiver":6306,"##varlden":6307,"##ledning":6308,"##kry":6309,"##lost":6310,"porrfilmer":6311,"nerv":6312,"postadress":6313,"anlagg":6314,"show":6315,"bb":6316,"franska":6317,"uppfolj":6318,"##burg":6319,"##istrat":6320,"188":6321,"sags":6322,"utav":6323,"overallt":6324,"grat":6325,"grov":6326,"##strument":6327,"happy":6328,"sor":6329,"grunden":6330,"frasch":6331,"##ensen":6332,"drick":6333,"sjukvard":6334,"bio":6335,"##ema":6336,"blanda":6337,"sarskilda":6338,"skickar":6339,"slappa":6340,"##viken":6341,"artiklar":6342,"befint":6343,"##sattningen":6344,"bedomning":6345,"valkomna":6346,"okade":6347,"resor":6348,"struktur":6349,"maxim":6350,"##duk":6351,"beskrivning":6352,"beb":6353,"mc":6354,"65":6355,"sociald":6356,"sked":6357,"funnits":6358,"kans":6359,"##polit":6360,"##umm":6361,"##cel":6362,"ratta":6363,"kil":6364,"fantas":6365,"##30":6366,"##brik":6367,"positiv":6368,"##fulla":6369,"uttal":6370,"digitala":6371,"positiva":6372,"tusen":6373,"##pos":6374,"aning":6375,"alt":6376,"planer":6377,"forsamling":6378,"butiker":6379,"sadar":6380,"distrikt":6381,"klin":6382,"##ival":6383,"vardering":6384,"flykt":6385,"onod":6386,"civ":6387,"##ones":6388,"##terade":6389,"##sper":6390,"37":6391,"gemensamt":6392,"##agning":6393,"motsvar":6394,"dj":6395,"anledningen":6396,"overtyg":6397,"arkitekt":6398,"betalnings":6399,"fuck":6400,"svamp":6401,"attrakt":6402,"sover":6403,"##annen":6404,"storbrit":6405,"##teras":6406,"malt":6407,"##ionerna":6408,"plocka":6409,"mala":6410,"fordelar":6411,"betalning":6412,"sval":6413,"##start":6414,"tillagg":6415,"motiv":6416,"##mask":6417,"mamm":6418,"tillfallen":6419,"bredvid":6420,"storbritann":6421,"hunden":6422,"##uro":6423,"1000":6424,"##visa":6425,"villa":6426,"##namnden":6427,"ange":6428,"sakra":6429,"insatser":6430,"desto":6431,"anmalan":6432,"##lim":6433,"prioriter":6434,"vagg":6435,"hundra":6436,"misstank":6437,"framtida":6438,"termin":6439,"effektivt":6440,"que":6441,"artikeln":6442,"utrustning":6443,"blad":6444,"##beroende":6445,"undersokning":6446,"relev":6447,"undantag":6448,"genomfora":6449,"fortsatte":6450,"kir":6451,"##esh":6452,"##deringar":6453,"##hallen":6454,"##yta":6455,"##jande":6456,"fritt":6457,"minskar":6458,"tacka":6459,"150":6460,"##fel":6461,"pagar":6462,"##forsalj":6463,"represent":6464,"agare":6465,"##sjo":6466,"2004":6467,"syfta":6468,"turk":6469,"instrukt":6470,"##sle":6471,"individer":6472,"##vetenskap":6473,"tax":6474,"bussen":6475,"minsta":6476,"##olf":6477,"produkten":6478,"grattis":6479,"micro":6480,"langivare":6481,"expl":6482,"##rare":6483,"ratten":6484,"48":6485,"##icy":6486,"lul":6487,"pin":6488,"iphone":6489,"passade":6490,"thom":6491,"##eriet":6492,"kommunens":6493,"asiat":6494,"svt":6495,"julkla":6496,"hanga":6497,"##sven":6498,"stack":6499,"##pac":6500,"##ley":6501,"##och":6502,"##byggnad":6503,"representer":6504,"ofor":6505,"lukt":6506,"dollar":6507,"tavlingen":6508,"langsikt":6509,"pask":6510,"##flikt":6511,"thailand":6512,"##pon":6513,"##hag":6514,"##aterade":6515,"startar":6516,"tycka":6517,"mobilen":6518,"handels":6519,"perioden":6520,"england":6521,"##kommande":6522,"flyttade":6523,"dum":6524,"varor":6525,"mas":6526,"sel":6527,"digital":6528,"vaxa":6529,"vent":6530,"##uf":6531,"hanger":6532,"##sbe":6533,"##tog":6534,"allting":6535,"hov":6536,"fastighets":6537,"noll":6538,"##edda":6539,"paul":6540,"even":6541,"prog":6542,"##bilar":6543,"kyck":6544,"metall":6545,"skydda":6546,"mont":6547,"##delen":6548,"sundsvall":6549,"##ah":6550,"magnus":6551,"domin":6552,"glass":6553,"somn":6554,"forsam":6555,"aukt":6556,"kurser":6557,"offentlig":6558,"prag":6559,"##foring":6560,"pasta":6561,"work":6562,"##vel":6563,"karriar":6564,"forman":6565,"konsument":6566,"##elef":6567,"##okoll":6568,"prot":6569,"##ows":6570,"##punkter":6571,"inre":6572,"naturliga":6573,"verkligheten":6574,"##fallet":6575,"##ums":6576,"##entals":6577,"##erligen":6578,"oppnar":6579,"tabell":6580,"latar":6581,"socialt":6582,"alltfor":6583,"ryssland":6584,"##resa":6585,"ledig":6586,"nik":6587,"aktivt":6588,"handen":6589,"ig":6590,"spelat":6591,"##rit":6592,"##lagen":6593,"mikro":6594,"bem":6595,"##sprocess":6596,"saken":6597,"anger":6598,"##platser":6599,"##yk":6600,"speg":6601,"##fullt":6602,"forklara":6603,"kunden":6604,"finansiering":6605,"##sund":6606,"##stiden":6607,"rekry":6608,"make":6609,"##liv":6610,"garden":6611,"##urt":6612,"##varor":6613,"##schef":6614,"sus":6615,"golvet":6616,"##alys":6617,"##rom":6618,"fragar":6619,"damm":6620,"##haller":6621,"slipper":6622,"varre":6623,"fris":6624,"##ict":6625,"pers":6626,"familje":6627,"support":6628,"uppmarksam":6629,"forestall":6630,"##fly":6631,"piz":6632,"hastar":6633,"restauranger":6634,"parkering":6635,"##tekn":6636,"grej":6637,"isra":6638,"##institut":6639,"##bit":6640,"ledar":6641,"##kra":6642,"paris":6643,"##ekonom":6644,"##givning":6645,"marknadsforing":6646,"duktig":6647,"##olja":6648,"jamn":6649,"utfora":6650,"assist":6651,"bestammer":6652,"dos":6653,"hehe":6654,"dildo":6655,"elev":6656,"fjarde":6657,"##skost":6658,"##tav":6659,"kalmar":6660,"vaga":6661,"radda":6662,"hjul":6663,"motet":6664,"##irt":6665,"inner":6666,"stefan":6667,"plat":6668,"korr":6669,"##arm":6670,"nom":6671,"skra":6672,"utok":6673,"aktiver":6674,"konstrukt":6675,"dn":6676,"##amal":6677,"eventuellt":6678,"fargen":6679,"skyl":6680,"rena":6681,"utbildningen":6682,"halm":6683,"swedish":6684,"motion":6685,"upplever":6686,"marie":6687,"omfattar":6688,"##orld":6689,"rora":6690,"storbritannien":6691,"##ere":6692,"##niva":6693,"moten":6694,"framsta":6695,"##zonen":6696,"##histor":6697,"aktiva":6698,"skador":6699,"cup":6700,"stimul":6701,"aterigen":6702,"socialdemokrat":6703,"dekor":6704,"##ografi":6705,"##stat":6706,"horde":6707,"spanien":6708,"##indra":6709,"##nades":6710,"anslutning":6711,"gat":6712,"##mande":6713,"bett":6714,"laten":6715,"antar":6716,"##ustrin":6717,"emma":6718,"offentliga":6719,"arbetsmark":6720,"##oth":6721,"snall":6722,"avgorande":6723,"wind":6724,"##yndigheter":6725,"bestamma":6726,"##sprodukt":6727,"organ":6728,"mall":6729,"##itionen":6730,"##grupper":6731,"##sal":6732,"hotel":6733,"##sforen":6734,"forand":6735,"##stallningen":6736,"##ffekt":6737,"arbetsplats":6738,"forskott":6739,"aktier":6740,"butiken":6741,"kallad":6742,"dikt":6743,"fundera":6744,"hack":6745,"##ikationer":6746,"jonas":6747,"satsa":6748,"beslutet":6749,"sekt":6750,"##agram":6751,"##nare":6752,"jar":6753,"##jansten":6754,"sprid":6755,"##besok":6756,"skand":6757,"naturlig":6758,"alsk":6759,"girls":6760,"samla":6761,"##sas":6762,"shopping":6763,"stro":6764,"##box":6765,"##botten":6766,"vander":6767,"##juter":6768,"##ingarna":6769,"felakt":6770,"##bal":6771,"faller":6772,"ledning":6773,"##skam":6774,"staten":6775,"lamnat":6776,"##40":6777,"stift":6778,"##bladet":6779,"uppna":6780,"##ini":6781,"sop":6782,"center":6783,"rant":6784,"sota":6785,"registrera":6786,"blas":6787,"##gick":6788,"troll":6789,"##11":6790,"##ongen":6791,"hemm":6792,"sammant":6793,"situationen":6794,"hinna":6795,"escorts":6796,"##kande":6797,"diskutera":6798,"lasare":6799,"arbetat":6800,"love":6801,"ingred":6802,"##ino":6803,"42":6804,"stammer":6805,"behandlas":6806,"karlstad":6807,"kines":6808,"##spa":6809,"mix":6810,"tillfallet":6811,"noggran":6812,"has":6813,"##agande":6814,"fortroende":6815,"automatiskt":6816,"lart":6817,"##funkt":6818,"##yer":6819,"##varde":6820,"nilsson":6821,"tillbehor":6822,"##efolkad":6823,"ork":6824,"avser":6825,"##smal":6826,"186":6827,"##kul":6828,"##bat":6829,"gaster":6830,"tant":6831,"balkon":6832,"nyss":6833,"187":6834,"president":6835,"exklus":6836,"##fir":6837,"vapen":6838,"atgard":6839,"##varm":6840,"kompisar":6841,"##partiet":6842,"unik":6843,"sd":6844,"forskare":6845,"##risk":6846,"doft":6847,"engagemang":6848,"##matt":6849,"##stra":6850,"hyra":6851,"bostader":6852,"helhet":6853,"sahar":6854,"that":6855,"amne":6856,"ingrediens":6857,"bedriv":6858,"##ale":6859,"kameran":6860,"miljarder":6861,"##ivande":6862,"goteborgs":6863,"check":6864,"delvis":6865,"##slyck":6866,"##annonser":6867,"##iget":6868,"gom":6869,"sortiment":6870,"bjod":6871,"kristna":6872,"von":6873,"##partem":6874,"##rarna":6875,"kvinnan":6876,"norrkoping":6877,"fn":6878,"brom":6879,"dram":6880,"rit":6881,"efterat":6882,"nyfiken":6883,"anim":6884,"handelser":6885,"sarskild":6886,"hi":6887,"saledes":6888,"##sman":6889,"nojda":6890,"hemmet":6891,"hypotek":6892,"mos":6893,"##ris":6894,"troligen":6895,"##osof":6896,"informationen":6897,"sydostra":6898,"mex":6899,"ansvarig":6900,"grans":6901,"boras":6902,"arten":6903,"##ullar":6904,"##aterna":6905,"ald":6906,"##ugor":6907,"##tryck":6908,"angest":6909,"reakt":6910,"sannolikt":6911,"sorg":6912,"wal":6913,"veter":6914,"behor":6915,"pojk":6916,"46":6917,"totala":6918,"konflikt":6919,"lulea":6920,"dop":6921,"##ladd":6922,"skolor":6923,"utrymme":6924,"dryck":6925,"##briken":6926,"jurid":6927,"##agra":6928,"vinner":6929,"snack":6930,"lokaler":6931,"brasil":6932,"skiljer":6933,"position":6934,"eld":6935,"planen":6936,"##sbol":6937,"##lagt":6938,"ryggen":6939,"cro":6940,"49":6941,"koncentr":6942,"tillsatt":6943,"hypotekslan":6944,"skillnaden":6945,"obefolkad":6946,"ky":6947,"tomt":6948,"champ":6949,"ker":6950,"hag":6951,"trygghet":6952,"gi":6953,"##ou":6954,"##resultat":6955,"enlighet":6956,"##byte":6957,"vaxjo":6958,"##upplev":6959,"misslyck":6960,"ekonomisk":6961,"loss":6962,"tranar":6963,"kris":6964,"vanligen":6965,"exist":6966,"##bla":6967,"noga":6968,"##vaxtart":6969,"sovrum":6970,"##omrade":6971,"riktlin":6972,"set":6973,"forstark":6974,"relationer":6975,"fasta":6976,"medborg":6977,"gn":6978,"gusta":6979,"rorelse":6980,"kontrakt":6981,"obe":6982,"gul":6983,"kommunal":6984,"kristen":6985,"ansvarar":6986,"servic":6987,"##vi":6988,"jamt":6989,"resul":6990,"onskemal":6991,"reserv":6992,"sexig":6993,"driva":6994,"finna":6995,"omedelbart":6996,"##ikte":6997,"##maktige":6998,"##spart":6999,"akadem":7000,"presentation":7001,"tranings":7002,"angaende":7003,"##fria":7004,"intill":7005,"##ogon":7006,"##atorer":7007,"administrat":7008,"island":7009,"##aning":7010,"##ordningen":7011,"slang":7012,"lagstift":7013,"registrering":7014,"##onym":7015,"forsokt":7016,"##domen":7017,"kik":7018,"##got":7019,"arbetsgiv":7020,"##anser":7021,"framover":7022,"rott":7023,"utbildnings":7024,"historien":7025,"##ward":7026,"##illkor":7027,"lamnas":7028,"##hjal":7029,"grejer":7030,"##taget":7031,"omstand":7032,"cafe":7033,"fira":7034,"bock":7035,"forre":7036,"kortare":7037,"henrik":7038,"formed":7039,"##cia":7040,"traffas":7041,"foregaende":7042,"uppmarksamhet":7043,"rese":7044,"forhallanden":7045,"##iger":7046,"annonser":7047,"tonaring":7048,"##sattningar":7049,"snitt":7050,"luften":7051,"##verse":7052,"##minister":7053,"upptacka":7054,"styrka":7055,"tam":7056,"##kval":7057,"observer":7058,"handlade":7059,"##smak":7060,"slit":7061,"##stud":7062,"posted":7063,"faststall":7064,"thomas":7065,"svarare":7066,"landets":7067,"##ssk":7068,"halva":7069,"pir":7070,"sekunder":7071,"myndigheter":7072,"##kal":7073,"initiativ":7074,"99":7075,"kasin":7076,"pann":7077,"si":7078,"intresserade":7079,"rob":7080,"##komma":7081,"from":7082,"##ese":7083,"##tjanst":7084,"romant":7085,"##boken":7086,"toal":7087,"cykl":7088,"vanligaste":7089,"##ortt":7090,"line":7091,"foll":7092,"amnet":7093,"original":7094,"##ners":7095,"##bror":7096,"gull":7097,"forpack":7098,"inser":7099,"##icera":7100,"trop":7101,"##sommar":7102,"trapp":7103,"44":7104,"##nor":7105,"evenemang":7106,"rejalt":7107,"##unk":7108,"guide":7109,"##asen":7110,"lagar":7111,"surf":7112,"count":7113,"##agan":7114,"arv":7115,"svenskar":7116,"fen":7117,"##000":7118,"axel":7119,"ris":7120,"2003":7121,"linje":7122,"pigg":7123,"forny":7124,"anord":7125,"oxa":7126,"##rid":7127,"yta":7128,"narmast":7129,"##speri":7130,"hin":7131,"##imm":7132,"litteratur":7133,"bostadsratt":7134,"hemsidan":7135,"##ubl":7136,"##iteter":7137,"##pi":7138,"inbjud":7139,"##rost":7140,"world":7141,"situationer":7142,"skoj":7143,"spin":7144,"inomhus":7145,"brett":7146,"framgar":7147,"mobilt":7148,"underlag":7149,"##sspel":7150,"lax":7151,"wil":7152,"##savgift":7153,"wall":7154,"asikter":7155,"##por":7156,"omojligt":7157,"##bring":7158,"ox":7159,"##umt":7160,"belys":7161,"inredning":7162,"journalist":7163,"bott":7164,"##lekar":7165,"lou":7166,"##way":7167,"avlon":7168,"##urg":7169,"skogs":7170,"cancer":7171,"inform":7172,"##orget":7173,"lyssnar":7174,"skram":7175,"utomlands":7176,"kamera":7177,"gemensam":7178,"antagligen":7179,"enheter":7180,"traningen":7181,"delstaten":7182,"pyss":7183,"##kanna":7184,"##garen":7185,"innehallet":7186,"##ogen":7187,"##ima":7188,"##skvall":7189,"kalen":7190,"jer":7191,"gifta":7192,"##ico":7193,"sjalvstand":7194,"ii":7195,"##jobb":7196,"##ney":7197,"leverantorer":7198,"status":7199,"manniskan":7200,"##radd":7201,"minne":7202,"gren":7203,"##ttar":7204,"##mode":7205,"trivs":7206,"flicka":7207,"instagram":7208,"fjall":7209,"allmanhet":7210,"rengor":7211,"##kopings":7212,"eva":7213,"skapat":7214,"dia":7215,"##amer":7216,"skona":7217,"ekonomiskt":7218,"dyker":7219,"##tiden":7220,"##bolaget":7221,"halmstad":7222,"power":7223,"guds":7224,"erbjudande":7225,"il":7226,"visserligen":7227,"##ringar":7228,"koncept":7229,"kyrka":7230,"##forbundet":7231,"##klad":7232,"##ision":7233,"##eb":7234,"##ero":7235,"##mail":7236,"jattebra":7237,"##ij":7238,"uppre":7239,"familjer":7240,"barns":7241,"##ivalen":7242,"redig":7243,"trevliga":7244,"muslim":7245,"fattar":7246,"##undersok":7247,"knappast":7248,"medverk":7249,"kritik":7250,"benen":7251,"##12":7252,"dialog":7253,"##flytt":7254,"skade":7255,"##rass":7256,"bot":7257,"hellre":7258,"arbetst":7259,"##sbrev":7260,"anvande":7261,"##iell":7262,"sec":7263,"##fte":7264,"##bad":7265,"presentera":7266,"ovanligt":7267,"arab":7268,"##inarie":7269,"kass":7270,"mika":7271,"leka":7272,"##que":7273,"cha":7274,"tvart":7275,"berom":7276,"referens":7277,"planerar":7278,"tema":7279,"overvag":7280,"##eala":7281,"kandid":7282,"planera":7283,"obs":7284,"utseende":7285,"##ffar":7286,"tolv":7287,"raka":7288,"samverkan":7289,"##cens":7290,"##sken":7291,"behandlingen":7292,"##mast":7293,"reflekt":7294,"fagel":7295,"nad":7296,"klimatzonen":7297,"darifran":7298,"frihet":7299,"emil":7300,"olja":7301,"inslag":7302,"kollar":7303,"behalla":7304,"slutligen":7305,"##con":7306,"doda":7307,"delas":7308,"jobbade":7309,"ting":7310,"svaret":7311,"bif":7312,"##utrust":7313,"##fart":7314,"overen":7315,"prost":7316,"mkt":7317,"byn":7318,"klatt":7319,"klassen":7320,"markt":7321,"fond":7322,"storst":7323,"##lik":7324,"basen":7325,"dukt":7326,"forstaelse":7327,"##oma":7328,"##enten":7329,"foljde":7330,"more":7331,"lordagen":7332,"##landa":7333,"lac":7334,"##ega":7335,"kos":7336,"##ingsdag":7337,"bandet":7338,"olof":7339,"ventil":7340,"##cus":7341,"stannar":7342,"##ze":7343,"modellen":7344,"hamnade":7345,"##ialis":7346,"exempl":7347,"lut":7348,"uppstar":7349,"troligt":7350,"stader":7351,"planering":7352,"avfall":7353,"kraftigt":7354,"gram":7355,"banken":7356,"pepp":7357,"##skapen":7358,"forlust":7359,"poker":7360,"instrument":7361,"leksaker":7362,"gyn":7363,"frys":7364,"##banan":7365,"ledde":7366,"linn":7367,"teen":7368,"kanal":7369,"ever":7370,"##service":7371,"##kontakt":7372,"tip":7373,"motesplatsen":7374,"flertal":7375,"ler":7376,"tidig":7377,"##isera":7378,"##hast":7379,"billigare":7380,"stracker":7381,"eskorter":7382,"jamfora":7383,"##ani":7384,"##platt":7385,"alternativt":7386,"stallning":7387,"forsvinner":7388,"utmaningar":7389,"fora":7390,"annon":7391,"##spolit":7392,"tycks":7393,"etik":7394,"##ares":7395,"neder":7396,"##mannen":7397,"##spunkt":7398,"mur":7399,"matemat":7400,"##ae":7401,"gustav":7402,"##formaga":7403,"##fam":7404,"insekt":7405,"fjarilsart":7406,"jordbruksmark":7407,"intell":7408,"lost":7409,"tradgarden":7410,"traditionella":7411,"##ionens":7412,"manskliga":7413,"upplag":7414,"repar":7415,"mata":7416,"##vide":7417,"##jejer":7418,"speciella":7419,"##rats":7420,"##ikal":7421,"##beskrivning":7422,"fodelsedag":7423,"kyckling":7424,"##ble":7425,"stannade":7426,"##liggande":7427,"tjana":7428,"uppenbar":7429,"robert":7430,"##fod":7431,"mysig":7432,"kus":7433,"eftermiddagen":7434,"##slivet":7435,"##omb":7436,"oberoende":7437,"43":7438,"syr":7439,"styrelse":7440,"war":7441,"avloningsdag":7442,"elin":7443,"forlang":7444,"verksamheter":7445,"##formed":7446,"##itioner":7447,"blogga":7448,"svarade":7449,"##jet":7450,"##hr":7451,"ansiktet":7452,"israel":7453,"lott":7454,"##do":7455,"summa":7456,"krimin":7457,"##ifiera":7458,"iv":7459,"fer":7460,"paus":7461,"glomt":7462,"spark":7463,"kry":7464,"##vark":7465,"47":7466,"vardagen":7467,"##losning":7468,"erbjuds":7469,"iran":7470,"koppla":7471,"emellan":7472,"betalas":7473,"bevilj":7474,"tids":7475,"##lit":7476,"irri":7477,"vaxter":7478,"kassa":7479,"##dal":7480,"forlag":7481,"still":7482,"##partementet":7483,"skara":7484,"trend":7485,"isol":7486,"##flykt":7487,"grymt":7488,"##oten":7489,"utbred":7490,"hinder":7491,"##inska":7492,"texter":7493,"akten":7494,"##iellt":7495,"##nast":7496,"savann":7497,"suc":7498,"formiddag":7499,"##umer":7500,"##ugo":7501,"##rikes":7502,"processen":7503,"tusentals":7504,"investering":7505,"##ms":7506,"blank":7507,"##behandling":7508,"mjol":7509,"cell":7510,"flyttar":7511,"diam":7512,"trang":7513,"amerikansk":7514,"utstrack":7515,"jen":7516,"premiar":7517,"appen":7518,"ica":7519,"apple":7520,"##skort":7521,"speciell":7522,"rekord":7523,"fysiska":7524,"##struktur":7525,"larsson":7526,"klimatet":7527,"##sbygg":7528,"hantverk":7529,"nick":7530,"mell":7531,"spelas":7532,"ytan":7533,"oblig":7534,"cool":7535,"reag":7536,"index":7537,"##kod":7538,"uppman":7539,"west":7540,"rekommendera":7541,"stav":7542,"##iost":7543,"2002":7544,"missa":7545,"##fi":7546,"ordinarie":7547,"##kro":7548,"faktorer":7549,"moln":7550,"smid":7551,"lediga":7552,"inspel":7553,"sug":7554,"verklighet":7555,"slippa":7556,"order":7557,"forest":7558,"foremal":7559,"turn":7560,"##play":7561,"bibliotek":7562,"inkom":7563,"##vinge":7564,"##sfull":7565,"gymnasie":7566,"ken":7567,"egendom":7568,"##lass":7569,"ansl":7570,"high":7571,"##onn":7572,"krydd":7573,"##bryt":7574,"marker":7575,"figur":7576,"bestallning":7577,"riksdagen":7578,"##awa":7579,"runda":7580,"forsknings":7581,"##stru":7582,"##iller":7583,"gront":7584,"pap":7585,"##vagn":7586,"lyfta":7587,"lane":7588,"station":7589,"##aks":7590,"alv":7591,"victor":7592,"##80":7593,"publik":7594,"verkade":7595,"umgas":7596,"##terad":7597,"australien":7598,"##sna":7599,"praktiskt":7600,"rida":7601,"##uu":7602,"civil":7603,"upphov":7604,"tob":7605,"##uth":7606,"2001":7607,"##pit":7608,"foton":7609,"stallde":7610,"sekund":7611,"karin":7612,"deltog":7613,"plugga":7614,"##oper":7615,"utgar":7616,"180":7617,"blond":7618,"mr":7619,"insag":7620,"##rig":7621,"bekant":7622,"slutsats":7623,"hamtade":7624,"##ripande":7625,"windows":7626,"##drade":7627,"lyft":7628,"belon":7629,"lagenheter":7630,"tillag":7631,"forslaget":7632,"##valda":7633,"besoker":7634,"##log":7635,"##uel":7636,"aktuell":7637,"##oci":7638,"eleg":7639,"tillsyn":7640,"apotek":7641,"skulder":7642,"##drom":7643,"##pot":7644,"eskil":7645,"livsmedel":7646,"##60":7647,"##orse":7648,"uppm":7649,"41":7650,"format":7651,"transporter":7652,"smatt":7653,"##bana":7654,"##pacitet":7655,"tavla":7656,"hors":7657,"diverse":7658,"##aker":7659,"veckans":7660,"jarnvag":7661,"avsloj":7662,"viagra":7663,"##oppa":7664,"##pten":7665,"lask":7666,"gjordes":7667,"##projekt":7668,"phil":7669,"##jord":7670,"flod":7671,"bjuda":7672,"intraff":7673,"spets":7674,"dagligen":7675,"kod":7676,"##sbyg":7677,"##unta":7678,"stoppa":7679,"https":7680,"generellt":7681,"ottawa":7682,"ell":7683,"forsak":7684,"##gubb":7685,"flexi":7686,"omgivande":7687,"##alitet":7688,"rekommenderas":7689,"##astro":7690,"varmen":7691,"##inav":7692,"##skill":7693,"forskolan":7694,"aktorer":7695,"##varme":7696,"down":7697,"##asy":7698,"250":7699,"borg":7700,"##sby":7701,"cla":7702,"temperatur":7703,"typen":7704,"ec":7705,"karleken":7706,"denne":7707,"helsingfors":7708,"##ence":7709,"##ampa":7710,"mobler":7711,"ikea":7712,"diskussion":7713,"snur":7714,"pod":7715,"##fragas":7716,"##oja":7717,"##sfri":7718,"##beratt":7719,"avrin":7720,"##udd":7721,"##nads":7722,"kontakter":7723,"bubb":7724,"torn":7725,"uc":7726,"##somradet":7727,"lamplig":7728,"hockey":7729,"##avtal":7730,"##hals":7731,"islam":7732,"##skurs":7733,"kapitel":7734,"tvavinge":7735,"tvavingeart":7736,"house":7737,"##holl":7738,"blek":7739,"ull":7740,"kompon":7741,"##sgatan":7742,"bakt":7743,"##skrav":7744,"linda":7745,"attack":7746,"meddelande":7747,"##istisk":7748,"##orj":7749,"andamal":7750,"klassisk":7751,"expert":7752,"##rog":7753,"musiken":7754,"##isering":7755,"poly":7756,"spins":7757,"filosof":7758,"mu":7759,"femin":7760,"utlaning":7761,"aller":7762,"vandring":7763,"harda":7764,"imorse":7765,"gransen":7766,"administr":7767,"somnade":7768,"##passa":7769,"komplett":7770,"##cken":7771,"gustaf":7772,"intakter":7773,"arsm":7774,"motsvarar":7775,"traffat":7776,"sutt":7777,"undervis":7778,"##talje":7779,"us":7780,"sjukdomar":7781,"##lista":7782,"velat":7783,"##ops":7784,"synner":7785,"ledsen":7786,"avst":7787,"forbjud":7788,"biljetter":7789,"utnyttja":7790,"##gin":7791,"karlsson":7792,"##osex":7793,"##orten":7794,"blick":7795,"swing":7796,"undervisning":7797,"beteende":7798,"##emon":7799,"##erv":7800,"tyng":7801,"##ismen":7802,"tillfor":7803,"organisationen":7804,"regelbundet":7805,"hammar":7806,"elit":7807,"kontinuer":7808,"##umin":7809,"##ks":7810,"bered":7811,"600":7812,"ringer":7813,"skoter":7814,"starkare":7815,"kreativ":7816,"hasten":7817,"cal":7818,"styra":7819,"strategi":7820,"fokusera":7821,"call":7822,"64":7823,"william":7824,"kopen":7825,"motte":7826,"micha":7827,"glomma":7828,"59":7829,"eric":7830,"tidning":7831,"##angel":7832,"lesbisk":7833,"nyar":7834,"redakt":7835,"##anken":7836,"halls":7837,"lille":7838,"##ekul":7839,"sun":7840,"handlingar":7841,"personligt":7842,"##fit":7843,"byggnader":7844,"andreas":7845,"baserat":7846,"morse":7847,"minut":7848,"historiska":7849,"##hen":7850,"##meddel":7851,"green":7852,"latta":7853,"fynd":7854,"losen":7855,"faktur":7856,"ment":7857,"##porr":7858,"get":7859,"dygn":7860,"besked":7861,"medfor":7862,"##cam":7863,"anstr":7864,"ball":7865,"1990":7866,"##uga":7867,"kontra":7868,"##alisering":7869,"undersoka":7870,"##mas":7871,"eme":7872,"lakemed":7873,"stadens":7874,"vaggen":7875,"fredags":7876,"til":7877,"demon":7878,"tang":7879,"2019":7880,"ago":7881,"syssel":7882,"sjukskoter":7883,"samhalls":7884,"tranare":7885,"suger":7886,"pc":7887,"effekter":7888,"fott":7889,"cum":7890,"utstrackning":7891,"affarer":7892,"nordiska":7893,"anvandar":7894,"gjorts":7895,"andas":7896,"djupt":7897,"bredden":7898,"andelen":7899,"afton":7900,"lokalt":7901,"protokoll":7902,"1800":7903,"##ew":7904,"professor":7905,"munnen":7906,"tvar":7907,"varierar":7908,"tunga":7909,"farre":7910,"##ansvart":7911,"##rika":7912,"friv":7913,"overenskomm":7914,"foddes":7915,"aterf":7916,"besl":7917,"favoriter":7918,"##forbund":7919,"goran":7920,"intressen":7921,"illustr":7922,"##hoj":7923,"foretags":7924,"##ingo":7925,"para":7926,"##skop":7927,"malin":7928,"##opro":7929,"juster":7930,"genast":7931,"pren":7932,"svett":7933,"uppfor":7934,"galla":7935,"avses":7936,"avtalet":7937,"deltar":7938,"ovant":7939,"##omraden":7940,"lena":7941,"medveten":7942,"sakerstalla":7943,"##sprodukter":7944,"final":7945,"##dra":7946,"##vete":7947,"skonhet":7948,"beskriva":7949,"liter":7950,"behandlar":7951,"##skrift":7952,"forresten":7953,"garder":7954,"roligare":7955,"bul":7956,"leverantor":7957,"52":7958,"syftar":7959,"recensioner":7960,"mojligen":7961,"abo":7962,"mp":7963,"likad":7964,"kategorier":7965,"bengt":7966,"telefonnummer":7967,"##yndigheten":7968,"##byg":7969,"##ationerna":7970,"cd":7971,"##otet":7972,"verkliga":7973,"foretagets":7974,"omvand":7975,"vasent":7976,"stada":7977,"minnes":7978,"kannas":7979,"brudar":7980,"bang":7981,"riktlinjer":7982,"avslapp":7983,"##spl":7984,"internationell":7985,"pdf":7986,"tatt":7987,"springer":7988,"##isterna":7989,"kaka":7990,"foljt":7991,"gubb":7992,"vibr":7993,"fara":7994,"ti":7995,"larande":7996,"movies":7997,"mobiltelef":7998,"behovet":7999,"uppat":8000,"skarm":8001,"riks":8002,"raknar":8003,"utslapp":8004,"temat":8005,"##utrym":8006,"##bby":8007,"##aldern":8008,"isa":8009,"hakan":8010,"ask":8011,"miner":8012,"utga":8013,"datorer":8014,"##varna":8015,"##familj":8016,"praktiska":8017,"aspekt":8018,"dramat":8019,"rank":8020,"##rel":8021,"cor":8022,"##tet":8023,"aga":8024,"utredning":8025,"##itarr":8026,"emeller":8027,"anlaggning":8028,"##ents":8029,"##forvalt":8030,"enormt":8031,"dygnet":8032,"volym":8033,"##omp":8034,"kategori":8035,"emellertid":8036,"tuttar":8037,"##uppgift":8038,"ud":8039,"midsommar":8040,"##agna":8041,"store":8042,"kopenhamn":8043,"trans":8044,"fasc":8045,"suttit":8046,"koka":8047,"##che":8048,"kong":8049,"kvinnliga":8050,"grand":8051,"120":8052,"plugg":8053,"##formen":8054,"rest":8055,"upplevelser":8056,"##skans":8057,"ovre":8058,"atervand":8059,"inkluderar":8060,"sanna":8061,"lisa":8062,"smaning":8063,"coach":8064,"jac":8065,"##hamt":8066,"##bs":8067,"time":8068,"##peri":8069,"forvand":8070,"ansikte":8071,"charl":8072,"cas":8073,"konsumenter":8074,"liber":8075,"konstater":8076,"handelse":8077,"tavlingar":8078,"sinn":8079,"##information":8080,"##fast":8081,"innebara":8082,"##innande":8083,"jamforelse":8084,"spraket":8085,"twitter":8086,"bordet":8087,"##holmen":8088,"prins":8089,"saaa":8090,"begrav":8091,"strid":8092,"befintliga":8093,"##js":8094,"##skolor":8095,"praktik":8096,"anpassa":8097,"johann":8098,"lone":8099,"##15":8100,"sakerhets":8101,"hanna":8102,"farmor":8103,"kristian":8104,"##lever":8105,"##ago":8106,"##ath":8107,"pussy":8108,"bestammelser":8109,"##skottet":8110,"##landet":8111,"##bordet":8112,"partiet":8113,"parad":8114,"melod":8115,"##itor":8116,"akut":8117,"hatar":8118,"uppmunt":8119,"somna":8120,"farligt":8121,"nomin":8122,"arbetsgivare":8123,"arkiv":8124,"snalla":8125,"##arch":8126,"lanken":8127,"express":8128,"uppfattning":8129,"framgangs":8130,"avrinningsom":8131,"##skriget":8132,"planerat":8133,"reduc":8134,"gb":8135,"##70":8136,"ugnen":8137,"##ml":8138,"##elle":8139,"fordju":8140,"trosor":8141,"ratts":8142,"arenden":8143,"mam":8144,"legat":8145,"##yo":8146,"fastigheten":8147,"##sprojekt":8148,"vardet":8149,"body":8150,"bilaga":8151,"arbetslos":8152,"fader":8153,"smaningom":8154,"lycklig":8155,"baten":8156,"riv":8157,"shemal":8158,"##tea":8159,"milit":8160,"leverera":8161,"jos":8162,"##insats":8163,"##ccin":8164,"taket":8165,"aterstall":8166,"rekommend":8167,"praktiken":8168,"##wood":8169,"samlar":8170,"serios":8171,"##core":8172,"negativa":8173,"anhor":8174,"stycket":8175,"befolkningen":8176,"have":8177,"##rut":8178,"imm":8179,"##ologiskt":8180,"##sall":8181,"likt":8182,"duktiga":8183,"revolut":8184,"paga":8185,"levereras":8186,"##iserar":8187,"##atera":8188,"finska":8189,"stott":8190,"##itim":8191,"skett":8192,"affars":8193,"##bocker":8194,"konsult":8195,"ke":8196,"prenumer":8197,"185":8198,"holm":8199,"besikt":8200,"tvartom":8201,"##ked":8202,"gillade":8203,"pall":8204,"##syn":8205,"bakat":8206,"##ffs":8207,"forfattaren":8208,"hjalpte":8209,"hat":8210,"forklarar":8211,"tillfred":8212,"foreslar":8213,"himmel":8214,"##produkter":8215,"##spass":8216,"kreditkort":8217,"##terat":8218,"tillbring":8219,"alli":8220,"##mak":8221,"##stjarn":8222,"verka":8223,"jamstalld":8224,"##somrade":8225,"##jarna":8226,"##sland":8227,"osc":8228,"##sniva":8229,"95":8230,"##ickor":8231,"roman":8232,"overlag":8233,"garanti":8234,"##ac":8235,"materialet":8236,"specifika":8237,"frivill":8238,"inriktning":8239,"mini":8240,"##asse":8241,"##iox":8242,"kollegor":8243,"##agarna":8244,"placering":8245,"formul":8246,"eskilst":8247,"siffror":8248,"smidigt":8249,"##skande":8250,"varenda":8251,"danska":8252,"tydliga":8253,"fastigheter":8254,"kika":8255,"ps":8256,"85":8257,"internationellt":8258,"##ribut":8259,"bryta":8260,"##ringen":8261,"##ye":8262,"halsen":8263,"lordags":8264,"eventuell":8265,"##elt":8266,"grek":8267,"##slo":8268,"tabl":8269,"framme":8270,"3d":8271,"##ugh":8272,"oppnade":8273,"kaff":8274,"fysisk":8275,"resultaten":8276,"forandras":8277,"##pre":8278,"naringsliv":8279,"lade":8280,"tilldel":8281,"persson":8282,"angiv":8283,"ven":8284,"sakta":8285,"##ymp":8286,"harom":8287,"##gu":8288,"foredrar":8289,"mikael":8290,"##ojligheter":8291,"moss":8292,"diagnos":8293,"intryck":8294,"drivs":8295,"privatperson":8296,"personligen":8297,"bekym":8298,"##roller":8299,"##kak":8300,"penis":8301,"##vd":8302,"morka":8303,"1900":8304,"##issar":8305,"argument":8306,"skot":8307,"##svagen":8308,"read":8309,"1999":8310,"brittiska":8311,"smink":8312,"tan":8313,"##domar":8314,"fiske":8315,"losenord":8316,"hundrat":8317,"skri":8318,"##18":8319,"uppdraget":8320,"togs":8321,"good":8322,"forf":8323,"fitt":8324,"landsbyg":8325,"johanna":8326,"fragorna":8327,"armen":8328,"##ensis":8329,"nyhetsbrev":8330,"gotland":8331,"sorts":8332,"vantade":8333,"behandla":8334,"sexuella":8335,"myr":8336,"days":8337,"lovar":8338,"vo":8339,"foretagen":8340,"bryr":8341,"eriksson":8342,"fartyg":8343,"ert":8344,"blandning":8345,"produ":8346,"ljuset":8347,"##roid":8348,"landskap":8349,"vett":8350,"ht":8351,"##rov":8352,"byggdes":8353,"##vikt":8354,"brut":8355,"##oph":8356,"gatan":8357,"utvecklar":8358,"gla":8359,"snon":8360,"##ullen":8361,"baby":8362,"foder":8363,"##vok":8364,"creek":8365,"utmaning":8366,"pum":8367,"formen":8368,"stek":8369,"56":8370,"word":8371,"sondagen":8372,"##fla":8373,"eskilstuna":8374,"lur":8375,"hette":8376,"drabbas":8377,"##slin":8378,"kontant":8379,"kniv":8380,"vunnit":8381,"hett":8382,"lopande":8383,"element":8384,"riskerar":8385,"sed":8386,"kommunala":8387,"##ison":8388,"trav":8389,"gronsaker":8390,"##ily":8391,"##jam":8392,"lita":8393,"##wn":8394,"##tank":8395,"kvitt":8396,"slapper":8397,"rapporten":8398,"minnen":8399,"##anmark":8400,"hastighet":8401,"knappen":8402,"ogonblick":8403,"##skick":8404,"dagis":8405,"##eterare":8406,"tvingas":8407,"insikt":8408,"##det":8409,"jap":8410,"lung":8411,"##gg":8412,"medelhav":8413,"cialis":8414,"levererar":8415,"stanga":8416,"falla":8417,"avsluta":8418,"hu":8419,"norska":8420,"buk":8421,"paverkas":8422,"##pade":8423,"storlekar":8424,"ri":8425,"betydande":8426,"54":8427,"orden":8428,"##sand":8429,"##butik":8430,"eleven":8431,"club":8432,"fonder":8433,"##rater":8434,"##our":8435,"##station":8436,"verket":8437,"bens":8438,"pi":8439,"overst":8440,"##ads":8441,"charm":8442,"dalarna":8443,"##inari":8444,"pojkar":8445,"tagg":8446,"galet":8447,"ostersund":8448,"infekt":8449,"##backen":8450,"publiken":8451,"##jun":8452,"##fald":8453,"##job":8454,"utmark":8455,"uppfyller":8456,"paborj":8457,"sanningen":8458,"hoppade":8459,"##ansvarig":8460,"utstallning":8461,"klanning":8462,"##varda":8463,"##sted":8464,"malm":8465,"##ited":8466,"##ges":8467,"tings":8468,"serier":8469,"skapade":8470,"##iserade":8471,"medlemskap":8472,"##glas":8473,"##skrona":8474,"klick":8475,"scenen":8476,"anstallning":8477,"53":8478,"schwe":8479,"##li":8480,"kalas":8481,"kvalitets":8482,"fur":8483,"begransad":8484,"##spris":8485,"rutiner":8486,"gymnasiet":8487,"##alten":8488,"##verkets":8489,"handerna":8490,"manniskors":8491,"hallet":8492,"troja":8493,"vikten":8494,"##zon":8495,"##ces":8496,"##egang":8497,"##kommit":8498,"minuters":8499,"webben":8500,"spendera":8501,"observera":8502,"studera":8503,"##slosa":8504,"smitt":8505,"arbetade":8506,"##ament":8507,"forsvars":8508,"bomull":8509,"rosen":8510,"anmala":8511,"tvatta":8512,"rich":8513,"aldsta":8514,"##ally":8515,"ifragas":8516,"kriget":8517,"##radena":8518,"##sstil":8519,"tekniken":8520,"##spelet":8521,"vakna":8522,"kraven":8523,"deltagarna":8524,"##itch":8525,"andringar":8526,"yttre":8527,"webblas":8528,"byggt":8529,"##flod":8530,"market":8531,"##strand":8532,"##ric":8533,"recension":8534,"##onger":8535,"sajten":8536,"##kok":8537,"solna":8538,"erk":8539,"##ioxid":8540,"vild":8541,"slot":8542,"forsvann":8543,"800":8544,"uppgifterna":8545,"##ifest":8546,"dagliga":8547,"branschen":8548,"annonsen":8549,"##vig":8550,"presenteras":8551,"##rimin":8552,"jordgubb":8553,"posten":8554,"trycka":8555,"barnens":8556,"drommar":8557,"lett":8558,"##inter":8559,"badoo":8560,"tjejerna":8561,"tillat":8562,"kommers":8563,"rika":8564,"beach":8565,"vinster":8566,"busk":8567,"##samtal":8568,"hantering":8569,"##storp":8570,"stilla":8571,"informer":8572,"beakt":8573,"##byggande":8574,"##industrin":8575,"front":8576,"##atter":8577,"kladd":8578,"bredd":8579,"##upplys":8580,"forskola":8581,"separat":8582,"ljung":8583,"priserna":8584,"##problem":8585,"samlat":8586,"sprida":8587,"veget":8588,"hustr":8589,"hjarnan":8590,"kanon":8591,"nett":8592,"planet":8593,"##elen":8594,"beraknas":8595,"act":8596,"##ute":8597,"tillater":8598,"##ivitet":8599,"##vav":8600,"cur":8601,"##tas":8602,"##beln":8603,"socken":8604,"fatta":8605,"forlorade":8606,"##orts":8607,"integritet":8608,"##branschen":8609,"##attan":8610,"turist":8611,"reha":8612,"##best":8613,"##dition":8614,"oron":8615,"granser":8616,"##former":8617,"prop":8618,"ursprungligen":8619,"fik":8620,"arter":8621,"lader":8622,"ved":8623,"fjarr":8624,"brann":8625,"farsk":8626,"our":8627,"reglerna":8628,"kim":8629,"##16":8630,"packa":8631,"dott":8632,"##ceae":8633,"##makt":8634,"anton":8635,"tvek":8636,"feber":8637,"##light":8638,"##ivna":8639,"oppett":8640,"skan":8641,"##byggd":8642,"religion":8643,"fotter":8644,"forutsattning":8645,"mangden":8646,"loj":8647,"gitarr":8648,"bitar":8649,"medans":8650,"##rem":8651,"impon":8652,"look":8653,"doktor":8654,"yoga":8655,"home":8656,"##ikanska":8657,"atmos":8658,"sofia":8659,"baka":8660,"##rod":8661,"##24":8662,"spanska":8663,"##teckning":8664,"trett":8665,"jattef":8666,"orter":8667,"betalningsanmark":8668,"arliga":8669,"frid":8670,"konkurrens":8671,"beskrivs":8672,"##ral":8673,"##90":8674,"##aret":8675,"##material":8676,"##lopp":8677,"##koppling":8678,"teknisk":8679,"##kyr":8680,"homosex":8681,"inbland":8682,"nivaer":8683,"kryss":8684,"oversatt":8685,"utlandska":8686,"##inspekt":8687,"##atur":8688,"tropiskt":8689,"uppdatera":8690,"aktuellt":8691,"##stallda":8692,"kommiss":8693,"hp":8694,"##sakerhet":8695,"misstag":8696,"tunnel":8697,"flor":8698,"rosta":8699,"uppfyll":8700,"##dagar":8701,"1980":8702,"terror":8703,"museum":8704,"asa":8705,"astr":8706,"lud":8707,"larm":8708,"1998":8709,"finaste":8710,"utbildningar":8711,"##skyld":8712,"michael":8713,"##assiga":8714,"sparar":8715,"schweiz":8716,"##sklass":8717,"kvalific":8718,"anstalld":8719,"sexy":8720,"gras":8721,"effektiva":8722,"##styrelsens":8723,"signal":8724,"##analys":8725,"##skaff":8726,"infra":8727,"##ibor":8728,"##bjud":8729,"innehalla":8730,"##gol":8731,"##uti":8732,"ve":8733,"##text":8734,"marke":8735,"testat":8736,"mjuka":8737,"protein":8738,"ideal":8739,"heder":8740,"medborgare":8741,"android":8742,"arlig":8743,"mage":8744,"perman":8745,"phot":8746,"delakt":8747,"bolagets":8748,"missbruk":8749,"badd":8750,"##behov":8751,"norden":8752,"orolig":8753,"kronika":8754,"partier":8755,"##iera":8756,"##ordes":8757,"##hantering":8758,"##idan":8759,"##cm":8760,"besokte":8761,"hyresg":8762,"fril":8763,"kommunfull":8764,"offer":8765,"licens":8766,"skinn":8767,"impl":8768,"##ano":8769,"efterfragan":8770,"watch":8771,"avlopp":8772,"dokumenter":8773,"identitet":8774,"avse":8775,"forvantningar":8776,"laggs":8777,"##eftea":8778,"vaxtlighet":8779,"foreskrifter":8780,"konsekvenser":8781,"bearbet":8782,"arena":8783,"julen":8784,"##sbes":8785,"knut":8786,"julklapp":8787,"smuts":8788,"iden":8789,"petter":8790,"##meter":8791,"drott":8792,"byggnaden":8793,"57":8794,"militar":8795,"uppvarm":8796,"##kyl":8797,"##ool":8798,"##sned":8799,"orsaken":8800,"bebis":8801,"uppfoljning":8802,"##21":8803,"grepp":8804,"stodja":8805,"##fraga":8806,"sankt":8807,"fyllt":8808,"##ioder":8809,"##forening":8810,"spann":8811,"##hjul":8812,"forvag":8813,"sannolik":8814,"aud":8815,"##produc":8816,"sci":8817,"skala":8818,"invig":8819,"tillt":8820,"cop":8821,"konsert":8822,"garderob":8823,"utsatta":8824,"berlin":8825,"kampanj":8826,"langsamt":8827,"forvarv":8828,"spelautom":8829,"##hallanden":8830,"shemale":8831,"vice":8832,"gymmet":8833,"##usen":8834,"sonen":8835,"uppehall":8836,"##afton":8837,"norrland":8838,"sexfilm":8839,"bog":8840,"##arden":8841,"##fakt":8842,"foreningens":8843,"##ningss":8844,"##kons":8845,"olsson":8846,"##fen":8847,"##ymer":8848,"roster":8849,"1970":8850,"##morgon":8851,"utgangspunkt":8852,"sjuka":8853,"telefonen":8854,"past":8855,"brad":8856,"alexander":8857,"##rigt":8858,"smslan":8859,"fredagen":8860,"underlatta":8861,"strump":8862,"ess":8863,"chil":8864,"tillgod":8865,"bockerna":8866,"##innan":8867,"##iness":8868,"godkant":8869,"hoja":8870,"aring":8871,"upptrad":8872,"hekt":8873,"##hlm":8874,"sprut":8875,"ingredienser":8876,"begreppet":8877,"livsstil":8878,"##priset":8879,"titeln":8880,"##dan":8881,"paverkan":8882,"hallbarhet":8883,"allmanheten":8884,"ked":8885,"placera":8886,"livs":8887,"##sjon":8888,"##alism":8889,"pag":8890,"presenterar":8891,"##aland":8892,"soll":8893,"vaxte":8894,"anonym":8895,"politisk":8896,"ledarskap":8897,"##vagar":8898,"agera":8899,"landskapet":8900,"forstod":8901,"nic":8902,"##utrustning":8903,"##ektion":8904,"##25":8905,"bekvamt":8906,"definition":8907,"foraldrarna":8908,"parall":8909,"intresset":8910,"sidorna":8911,"gammalt":8912,"paminner":8913,"##aaaa":8914,"jakla":8915,"##handel":8916,"kommunerna":8917,"ovanfor":8918,"forhindra":8919,"regeringens":8920,"auktor":8921,"##eteck":8922,"tenn":8923,"ast":8924,"ryck":8925,"skrack":8926,"##bul":8927,"##skra":8928,"advok":8929,"karta":8930,"slots":8931,"58":8932,"vaknar":8933,"affaren":8934,"##bid":8935,"foretrad":8936,"dyrt":8937,"bjork":8938,"gunnar":8939,"jeans":8940,"indien":8941,"tacksam":8942,"##punkten":8943,"bull":8944,"##produktion":8945,"##bba":8946,"anvandes":8947,"avsikt":8948,"berattelser":8949,"bik":8950,"kne":8951,"investeringar":8952,"trupp":8953,"##disk":8954,"##usten":8955,"moms":8956,"##fre":8957,"reson":8958,"kinesiska":8959,"vitamin":8960,"yog":8961,"samlade":8962,"mans":8963,"backen":8964,"misstankt":8965,"kategorin":8966,"kud":8967,"##anmal":8968,"statt":8969,"kostnaden":8970,"##idens":8971,"spons":8972,"dricker":8973,"samlas":8974,"diabet":8975,"##itz":8976,"oppettider":8977,"his":8978,"oliv":8979,"##ague":8980,"##iro":8981,"vaccin":8982,"vision":8983,"berattelse":8984,"tera":8985,"ovningar":8986,"diskrimin":8987,"##stillstand":8988,"hamna":8989,"nybor":8990,"spot":8991,"tillfreds":8992,"dras":8993,"##pool":8994,"##biliter":8995,"alska":8996,"##ness":8997,"ml":8998,"##rycket":8999,"##eman":9000,"larar":9001,"##ize":9002,"vakt":9003,"##ifiering":9004,"varian":9005,"##gym":9006,"journal":9007,"small":9008,"personlighet":9009,"foreningar":9010,"hallen":9011,"##okl":9012,"tram":9013,"specifik":9014,"tillganglighet":9015,"obligator":9016,"##forsaljare":9017,"varlds":9018,"##uen":9019,"pizza":9020,"bestaende":9021,"maskiner":9022,"##gra":9023,"klag":9024,"##skador":9025,"##ancake":9026,"marks":9027,"##annan":9028,"69":9029,"##vald":9030,"##papper":9031,"kvalite":9032,"rog":9033,"aktenskap":9034,"ink":9035,"rutin":9036,"katastro":9037,"bd":9038,"bist":9039,"forsiktigt":9040,"artens":9041,"betong":9042,"##orth":9043,"hemibor":9044,"halvar":9045,"hemiboreala":9046,"blu":9047,"##redovis":9048,"##edia":9049,"ms":9050,"suga":9051,"insattning":9052,"timmars":9053,"upptackte":9054,"loppet":9055,"##kland":9056,"##takten":9057,"gig":9058,"politiskt":9059,"ulf":9060,"storm":9061,"betalt":9062,"jenny":9063,"adam":9064,"innefatt":9065,"forekomm":9066,"aterupp":9067,"tt":9068,"##hopp":9069,"hungr":9070,"medbor":9071,"rand":9072,"risker":9073,"forsen":9074,"teor":9075,"overlev":9076,"installation":9077,"bergig":9078,"mack":9079,"bind":9080,"veckorna":9081,"distans":9082,"##mod":9083,"##visningar":9084,"##komp":9085,"synpunkter":9086,"bea":9087,"rag":9088,"simon":9089,"kommentera":9090,"forvantas":9091,"astad":9092,"##ical":9093,"symt":9094,"##byggda":9095,"hundarna":9096,"sammanlagt":9097,"redovisning":9098,"japanska":9099,"dress":9100,"debut":9101,"##com":9102,"skickade":9103,"bollen":9104,"arrangemang":9105,"##ylar":9106,"byter":9107,"volvo":9108,"migr":9109,"##ary":9110,"himlen":9111,"galopp":9112,"patienten":9113,"ansvaret":9114,"svensson":9115,"oslo":9116,"##bost":9117,"sticka":9118,"rakar":9119,"valk":9120,"flyttat":9121,"uppskattar":9122,"legitim":9123,"teg":9124,"inse":9125,"kvarter":9126,"luck":9127,"onlin":9128,"##maskiner":9129,"carol":9130,"hr":9131,"avlag":9132,"##hyr":9133,"ukra":9134,"##14":9135,"fonstret":9136,"##stolen":9137,"sthlm":9138,"brister":9139,"trag":9140,"datab":9141,"##vardighet":9142,"##ografiska":9143,"##hult":9144,"stalls":9145,"dun":9146,"godkand":9147,"ledamoter":9148,"tjanste":9149,"tjanstem":9150,"ramen":9151,"acceptera":9152,"##centrum":9153,"byte":9154,"uppdatering":9155,"rast":9156,"samhallen":9157,"populart":9158,"lansstyrelsen":9159,"bjor":9160,"enorma":9161,"##tals":9162,"baserad":9163,"valp":9164,"narings":9165,"restaurangen":9166,"strang":9167,"bakgrunden":9168,"videon":9169,"starten":9170,"##registr":9171,"##flyg":9172,"varda":9173,"##unskap":9174,"titel":9175,"##sket":9176,"installning":9177,"aterv":9178,"detsamma":9179,"spelarna":9180,"skots":9181,"rea":9182,"forvaltnings":9183,"morkt":9184,"pratat":9185,"bos":9186,"asp":9187,"forvaring":9188,"##banken":9189,"bbw":9190,"skov":9191,"##ffektiv":9192,"fortjan":9193,"frida":9194,"##oped":9195,"overgripande":9196,"sovit":9197,"pagaende":9198,"##22":9199,"christian":9200,"ursakt":9201,"##cha":9202,"funktionsned":9203,"asiatiska":9204,"agen":9205,"sambo":9206,"variera":9207,"skapas":9208,"##cern":9209,"##iklar":9210,"##spelare":9211,"meddela":9212,"enst":9213,"vistelse":9214,"konvent":9215,"arbetsuppgifter":9216,"kold":9217,"skalb":9218,"tidningar":9219,"##alternativ":9220,"faktura":9221,"skiva":9222,"ansoka":9223,"##soft":9224,"suck":9225,"okning":9226,"vav":9227,"report":9228,"omfattas":9229,"regelbund":9230,"king":9231,"rollen":9232,"jess":9233,"##gatt":9234,"traditionell":9235,"fardiga":9236,"korkort":9237,"enorm":9238,"class":9239,"sana":9240,"##bt":9241,"##igar":9242,"fotterna":9243,"innovation":9244,"tjejen":9245,"##stekn":9246,"alumin":9247,"moment":9248,"utbredningsomrade":9249,"bron":9250,"gilla":9251,"##resor":9252,"harry":9253,"inatt":9254,"passion":9255,"##varen":9256,"versionen":9257,"fenomen":9258,"vantat":9259,"##cir":9260,"inflytande":9261,"pamin":9262,"forbereda":9263,"krediter":9264,"##konto":9265,"##oka":9266,"##prak":9267,"professionell":9268,"sallad":9269,"enskild":9270,"fanga":9271,"konstant":9272,"slappte":9273,"##systemet":9274,"rorelser":9275,"##casin":9276,"besviken":9277,"##tur":9278,"allvarligt":9279,"missat":9280,"statliga":9281,"rh":9282,"arean":9283,"losningen":9284,"kasta":9285,"ple":9286,"league":9287,"ida":9288,"##dagens":9289,"avgora":9290,"utredningen":9291,"saljs":9292,"cle":9293,"##ssjuk":9294,"game":9295,"##kram":9296,"udde":9297,"klas":9298,"##inerande":9299,"##uggar":9300,"##dorr":9301,"##antor":9302,"gjorda":9303,"ytterst":9304,"hardcore":9305,"##oty":9306,"##cial":9307,"white":9308,"##mes":9309,"##akar":9310,"##bott":9311,"fulla":9312,"finn":9313,"minskat":9314,"tungt":9315,"ze":9316,"##kvens":9317,"like":9318,"##sug":9319,"blandskog":9320,"##ream":9321,"obehag":9322,"meny":9323,"oversikt":9324,"kapacitet":9325,"##somraden":9326,"##belt":9327,"##verktyg":9328,"##hydr":9329,"antik":9330,"upphandling":9331,"##stark":9332,"avsnittet":9333,"tander":9334,"killen":9335,"vinnare":9336,"prom":9337,"bis":9338,"roy":9339,"chatta":9340,"femte":9341,"51":9342,"lyd":9343,"meningen":9344,"##massigt":9345,"navig":9346,"184":9347,"operation":9348,"##ance":9349,"livsmed":9350,"##stroms":9351,"katter":9352,"##cell":9353,"tempo":9354,"##trafik":9355,"##istiskt":9356,"##skift":9357,"samord":9358,"rat":9359,"group":9360,"drack":9361,"##foljande":9362,"njuter":9363,"naz":9364,"fullstandigt":9365,"##ultur":9366,"vaxande":9367,"massan":9368,"lampligt":9369,"italienska":9370,"komplic":9371,"##igheterna":9372,"republ":9373,"kallor":9374,"erkanna":9375,"enheten":9376,"samm":9377,"godkanner":9378,"avkast":9379,"aluminium":9380,"miljoer":9381,"rante":9382,"##iserad":9383,"##temot":9384,"batteri":9385,"##dt":9386,"nervos":9387,"fangelse":9388,"##sforetag":9389,"##halsa":9390,"kulture":9391,"skepp":9392,"omfattning":9393,"##bod":9394,"##ous":9395,"natter":9396,"negativt":9397,"minus":9398,"enstaka":9399,"##egrans":9400,"oscar":9401,"hop":9402,"textil":9403,"slak":9404,"day":9405,"skolans":9406,"menyn":9407,"forloss":9408,"##ides":9409,"praktisk":9410,"##lock":9411,"utspel":9412,"##regler":9413,"##ski":9414,"forvir":9415,"krafter":9416,"grundades":9417,"fardigt":9418,"##ican":9419,"tidiga":9420,"ledningen":9421,"delarna":9422,"utvecklings":9423,"##riska":9424,"varldskriget":9425,"tillampas":9426,"##derande":9427,"skank":9428,"oskar":9429,"##lapp":9430,"##´s":9431,"inspirerande":9432,"ts":9433,"##ikan":9434,"fruktansvart":9435,"kj":9436,"##rapport":9437,"trist":9438,"##rupp":9439,"statens":9440,"kreditupplys":9441,"bay":9442,"billigaste":9443,"finalen":9444,"##fig":9445,"##ikern":9446,"peppar":9447,"deltagande":9448,"elva":9449,"loser":9450,"what":9451,"osterrik":9452,"##stin":9453,"utrikes":9454,"division":9455,"##alder":9456,"sammanfattning":9457,"##andan":9458,"muskel":9459,"utforska":9460,"tillgangar":9461,"banker":9462,"chock":9463,"##sborg":9464,"afg":9465,"globala":9466,"rus":9467,"fac":9468,"efterhand":9469,"escortt":9470,"informera":9471,"leds":9472,"forstor":9473,"variant":9474,"fiber":9475,"##ole":9476,"garanterat":9477,"##stopp":9478,"hihi":9479,"fyllde":9480,"lider":9481,"##adels":9482,"mottag":9483,"global":9484,"skedde":9485,"stapp":9486,"arbetsmiljo":9487,"##lander":9488,"sjukhuset":9489,"operat":9490,"skylt":9491,"broder":9492,"##jd":9493,"fysiskt":9494,"67":9495,"##stil":9496,"yttrande":9497,"latin":9498,"steget":9499,"panik":9500,"international":9501,"dansk":9502,"bytte":9503,"##atgarder":9504,"register":9505,"vagbeskrivning":9506,"spanning":9507,"aterstar":9508,"seriosa":9509,"##ege":9510,"##paket":9511,"asyl":9512,"sas":9513,"retur":9514,"forlora":9515,"fungerande":9516,"erhall":9517,"pant":9518,"##ytor":9519,"##dack":9520,"pred":9521,"##hn":9522,"cra":9523,"bemot":9524,"belast":9525,"##kas":9526,"##plikt":9527,"##angs":9528,"produkterna":9529,"business":9530,"area":9531,"banklan":9532,"##speriod":9533,"budskap":9534,"##mord":9535,"grus":9536,"vinden":9537,"##laren":9538,"##ado":9539,"jonsson":9540,"studien":9541,"feb":9542,"##evis":9543,"sekret":9544,"ki":9545,"kick":9546,"##unge":9547,"rop":9548,"anmark":9549,"forvaltning":9550,"kollat":9551,"nodvandiga":9552,"amnes":9553,"skell":9554,"larde":9555,"unikt":9556,"citron":9557,"anstrang":9558,"livsl":9559,"##visar":9560,"narhet":9561,"##iering":9562,"anti":9563,"garn":9564,"##flugor":9565,"##just":9566,"slanga":9567,"##fo":9568,"sken":9569,"##regl":9570,"torka":9571,"##etta":9572,"##alar":9573,"talat":9574,"viktigare":9575,"skarmen":9576,"bevar":9577,"begav":9578,"##hard":9579,"manniskorna":9580,"##orgen":9581,"##bandet":9582,"utvardering":9583,"gemenskap":9584,"##sprocessen":9585,"sr":9586,"##no":9587,"how":9588,"##ekr":9589,"sej":9590,"##programmet":9591,"66":9592,"kombinera":9593,"anl":9594,"##rollen":9595,"kaj":9596,"skandinav":9597,"avrinningsomradet":9598,"troligtvis":9599,"##vardet":9600,"officiella":9601,"mestadels":9602,"morfar":9603,"aterkommer":9604,"identifiera":9605,"63":9606,"identifier":9607,"overdr":9608,"lakemedels":9609,"aik":9610,"##malm":9611,"yrke":9612,"##ador":9613,"##aring":9614,"koppar":9615,"overhuvud":9616,"satsar":9617,"ursprungliga":9618,"term":9619,"##19":9620,"snacka":9621,"framja":9622,"##iew":9623,"tele":9624,"smaken":9625,"slump":9626,"##ffer":9627,"anvandarna":9628,"##asten":9629,"##bak":9630,"arligt":9631,"1997":9632,"##attar":9633,"kunderna":9634,"##di":9635,"fota":9636,"belysning":9637,"##yft":9638,"skyddar":9639,"utvecklat":9640,"spont":9641,"styrels":9642,"utvalda":9643,"utvecklats":9644,"grabb":9645,"1960":9646,"dvd":9647,"talets":9648,"1500":9649,"james":9650,"framtrad":9651,"bondag":9652,"##arken":9653,"omstandigheter":9654,"pojkvan":9655,"##ytan":9656,"svarigheter":9657,"indones":9658,"lantbruk":9659,"kampar":9660,"tjanar":9661,"##pra":9662,"##ssystemet":9663,"smaka":9664,"premium":9665,"kortet":9666,"##jare":9667,"##cen":9668,"party":9669,"uteslut":9670,"##lage":9671,"stallt":9672,"gallde":9673,"##ned":9674,"##center":9675,"gest":9676,"motesplats":9677,"sokande":9678,"begag":9679,"##bildning":9680,"sir":9681,"##olver":9682,"harmon":9683,"resen":9684,"##lon":9685,"##hop":9686,"ordna":9687,"##tai":9688,"##17":9689,"expon":9690,"undersokningen":9691,"lastbil":9692,"mull":9693,"##bef":9694,"centralt":9695,"##shem":9696,"##lakare":9697,"##cing":9698,"rester":9699,"boksta":9700,"cerro":9701,"undvik":9702,"##ratter":9703,"kosta":9704,"rav":9705,"studio":9706,"tech":9707,"syskon":9708,"anvants":9709,"##litt":9710,"fungerade":9711,"arendet":9712,"manus":9713,"##ript":9714,"usch":9715,"##ikapp":9716,"##onde":9717,"spelen":9718,"ersatta":9719,"galen":9720,"avslutade":9721,"##sledare":9722,"##tran":9723,"traden":9724,"varianter":9725,"myst":9726,"##don":9727,"klippa":9728,"utflykt":9729,"klarade":9730,"smyg":9731,"##blogg":9732,"guid":9733,"gilt":9734,"1994":9735,"flygplats":9736,"virus":9737,"slapptes":9738,"##iko":9739,"speed":9740,"pump":9741,"konstatera":9742,"she":9743,"abb":9744,"##anna":9745,"rejal":9746,"##sback":9747,"##hh":9748,"##ippa":9749,"malar":9750,"##betyg":9751,"##chen":9752,"##sse":9753,"alg":9754,"robin":9755,"producera":9756,"##vil":9757,"lot":9758,"##yra":9759,"##old":9760,"nark":9761,"balkong":9762,"biljett":9763,"hogskole":9764,"musikal":9765,"bildades":9766,"lagstiftning":9767,"##yst":9768,"##ipend":9769,"##funktion":9770,"skift":9771,"##duktion":9772,"##ieras":9773,"redovisas":9774,"varderingar":9775,"forvarva":9776,"vitlok":9777,"gissa":9778,"josef":9779,"provat":9780,"utgiv":9781,"forklaring":9782,"boj":9783,"tillverkad":9784,"rengoring":9785,"amp":9786,"##day":9787,"beslutade":9788,"##kansla":9789,"livsmedels":9790,"nils":9791,"tviv":9792,"##ierade":9793,"##esa":9794,"forstatt":9795,"brot":9796,"forbann":9797,"rubriken":9798,"##hjalp":9799,"portug":9800,"lyfter":9801,"klickar":9802,"byxor":9803,"##iets":9804,"mobila":9805,"olje":9806,"kommunfullmaktige":9807,"pay":9808,"ana":9809,"avvik":9810,"##svenskan":9811,"outfit":9812,"##esp":9813,"##sko":9814,"wild":9815,"slutat":9816,"omsattning":9817,"gula":9818,"mattias":9819,"##kurs":9820,"##ikon":9821,"##uster":9822,"##kna":9823,"matematik":9824,"##inlagg":9825,"##sbo":9826,"gt":9827,"kristianstad":9828,"samarbetet":9829,"mick":9830,"##sfall":9831,"roller":9832,"parlam":9833,"##landskap":9834,"skruv":9835,"az":9836,"oken":9837,"dynam":9838,"fokuserar":9839,"kropps":9840,"formular":9841,"##ovan":9842,"advent":9843,"kriter":9844,"##boende":9845,"utgifter":9846,"##kamera":9847,"fylld":9848,"tekniker":9849,"kampa":9850,"sveriged":9851,"grekland":9852,"##jack":9853,"##ordin":9854,"nyans":9855,"##board":9856,"dick":9857,"medlemmarna":9858,"##stallande":9859,"py":9860,"##verksamheten":9861,"##stal":9862,"long":9863,"access":9864,"##valla":9865,"dart":9866,"forbattring":9867,"begaran":9868,"##brad":9869,"general":9870,"##jej":9871,"ledamot":9872,"well":9873,"lagsta":9874,"vanilj":9875,"##gorande":9876,"##klipp":9877,"serveras":9878,"lockar":9879,"##ampan":9880,"lakaren":9881,"prestand":9882,"varumarken":9883,"biblioteket":9884,"##agor":9885,"##een":9886,"misshand":9887,"talt":9888,"relevant":9889,"vager":9890,"jakob":9891,"vaggar":9892,"##cykel":9893,"##ulla":9894,"skadespelare":9895,"pon":9896,"blatt":9897,"##sajter":9898,"beteck":9899,"vana":9900,"vardera":9901,"kostnads":9902,"belaget":9903,"mangfald":9904,"aterforsaljare":9905,"##ospel":9906,"dl":9907,"72":9908,"##itten":9909,"##13":9910,"##slar":9911,"debatten":9912,"bestod":9913,"##hs":9914,"##savtal":9915,"hangde":9916,"bin":9917,"fixade":9918,"overklag":9919,"satts":9920,"skivor":9921,"cykla":9922,"kvinnorna":9923,"lasning":9924,"majoritet":9925,"certifier":9926,"normala":9927,"##skall":9928,"##naren":9929,"overl":9930,"##betalningar":9931,"##side":9932,"delade":9933,"mem":9934,"korv":9935,"vande":9936,"pojke":9937,"jas":9938,"##finans":9939,"kvant":9940,"##visor":9941,"seminari":9942,"legen":9943,"tacker":9944,"publiceras":9945,"kontaktannonser":9946,"lod":9947,"action":9948,"negativ":9949,"##sack":9950,"onska":9951,"installningar":9952,"gum":9953,"##handlingar":9954,"sodertalje":9955,"sha":9956,"parf":9957,"bondage":9958,"koppling":9959,"inlogg":9960,"konver":9961,"ful":9962,"jattem":9963,"majoriteten":9964,"associ":9965,"##sbolag":9966,"##oli":9967,"tart":9968,"exemplar":9969,"##emed":9970,"foretagare":9971,"skarp":9972,"skyldig":9973,"##ki":9974,"hogskolan":9975,"tillfalligt":9976,"stjarnor":9977,"arbeten":9978,"linne":9979,"dubbla":9980,"700":9981,"arende":9982,"transakt":9983,"papek":9984,"egy":9985,"##uvida":9986,"sjunga":9987,"hyd":9988,"##iljon":9989,"sydvastra":9990,"##splanen":9991,"varumarke":9992,"systemat":9993,"hemskt":9994,"sovjet":9995,"huruvida":9996,"etn":9997,"typiskt":9998,"##agge":9999,"barnets":10000,"planerade":10001,"arig":10002,"##grar":10003,"kontinuerligt":10004,"##holms":10005,"aftonbladet":10006,"upplys":10007,"krang":10008,"##ati":10009,"ara":10010,"experter":10011,"frustr":10012,"anteck":10013,"skjuta":10014,"madde":10015,"##slok":10016,"tankarna":10017,"##smet":10018,"##omal":10019,"##brist":10020,"orgas":10021,"alternativet":10022,"anfall":10023,"uttag":10024,"skriven":10025,"effekten":10026,"uppsk":10027,"skillnader":10028,"kabel":10029,"trum":10030,"valuta":10031,"rio":10032,"handikapp":10033,"casinon":10034,"diabetes":10035,"forutsattningarna":10036,"tjugo":10037,"sjunger":10038,"##essa":10039,"kontanter":10040,"ogat":10041,"ombord":10042,"open":10043,"email":10044,"torg":10045,"metoden":10046,"dyra":10047,"##ief":10048,"avdelning":10049,"1995":10050,"##foreningen":10051,"arr":10052,"jean":10053,"ekonomin":10054,"breda":10055,"flertalet":10056,"specialist":10057,"ish":10058,"hyfs":10059,"allvarliga":10060,"repl":10061,"prognos":10062,"##eland":10063,"omdom":10064,"##ningsfor":10065,"##rich":10066,"##onerande":10067,"lyser":10068,"may":10069,"resurs":10070,"oand":10071,"uppgick":10072,"kvart":10073,"levde":10074,"##stjanst":10075,"blott":10076,"aterbetalning":10077,"diskussioner":10078,"##hallet":10079,"bh":10080,"savannklimat":10081,"##eled":10082,"68":10083,"##ljus":10084,"##opt":10085,"rullar":10086,"##effekt":10087,"##beth":10088,"##sperson":10089,"departementet":10090,"sokt":10091,"stream":10092,"kock":10093,"kup":10094,"kulle":10095,"malen":10096,"##emokraterna":10097,"##smarker":10098,"gentemot":10099,"rakade":10100,"1996":10101,"halvtim":10102,"ola":10103,"solid":10104,"mynt":10105,"julia":10106,"dagars":10107,"abonn":10108,"sva":10109,"diskret":10110,"maken":10111,"frig":10112,"##datum":10113,"##olen":10114,"forbruk":10115,"##blom":10116,"##75":10117,"##span":10118,"forlat":10119,"myndigheten":10120,"##agne":10121,"liknar":10122,"firar":10123,"len":10124,"grip":10125,"##bilitet":10126,"pig":10127,"marin":10128,"hahaha":10129,"lenn":10130,"sokte":10131,"onodigt":10132,"uppr":10133,"afghan":10134,"shop":10135,"##uz":10136,"skaff":10137,"funktionsh":10138,"##mn":10139,"sydlig":10140,"##celler":10141,"##bile":10142,"krets":10143,"##ced":10144,"tap":10145,"avsk":10146,"zo":10147,"belagen":10148,"individuella":10149,"arligen":10150,"usb":10151,"namna":10152,"nordostra":10153,"marcus":10154,"prast":10155,"festival":10156,"missade":10157,"kastr":10158,"arskurs":10159,"overhuvudtaget":10160,"vaska":10161,"markligt":10162,"orkade":10163,"##mart":10164,"punkter":10165,"##shamn":10166,"ekologisk":10167,"heltid":10168,"colle":10169,"gradde":10170,"##ogram":10171,"decenn":10172,"squ":10173,"sorters":10174,"##jakt":10175,"##position":10176,"synnerhet":10177,"behag":10178,"##iske":10179,"professionella":10180,"flygplan":10181,"##rakning":10182,"minnas":10183,"##fund":10184,"potential":10185,"spekt":10186,"funktionen":10187,"##spe":10188,"katalog":10189,"flygplatsen":10190,"jose":10191,"##marken":10192,"jamstalldhet":10193,"soderut":10194,"##rol":10195,"narmar":10196,"frank":10197,"##peut":10198,"dahl":10199,"halvt":10200,"genomfors":10201,"socialdemokraterna":10202,"##ygien":10203,"cyklar":10204,"##ax":10205,"tipsa":10206,"fattig":10207,"add":10208,"##bri":10209,"nationell":10210,"undersokningar":10211,"origin":10212,"bero":10213,"##igger":10214,"##undersokning":10215,"byggnads":10216,"##hallare":10217,"policy":10218,"overenskommelse":10219,"hentai":10220,"presenterade":10221,"placeras":10222,"tjeck":10223,"smycken":10224,"vaxel":10225,"microsoft":10226,"##otte":10227,"flickvan":10228,"skelleftea":10229,"skatter":10230,"88":10231,"##oni":10232,"lakar":10233,"ensamstaende":10234,"ahl":10235,"kilo":10236,"##elar":10237,"norrut":10238,"julafton":10239,"introduc":10240,"filer":10241,"underteck":10242,"##ission":10243,"kostnaderna":10244,"beslutar":10245,"##bec":10246,"talade":10247,"kommunicera":10248,"workshop":10249,"##nien":10250,"##rafik":10251,"brasilien":10252,"##alistiska":10253,"##stran":10254,"##kning":10255,"##plat":10256,"uppfylla":10257,"##uva":10258,"dyl":10259,"fabrik":10260,"##esson":10261,"koncern":10262,"temperaturen":10263,"gur":10264,"exklusiva":10265,"ljusa":10266,"polen":10267,"moral":10268,"forkn":10269,"lararna":10270,"formagan":10271,"vardagsrum":10272,"generation":10273,"fixat":10274,"permanent":10275,"aterkommande":10276,"##svik":10277,"behall":10278,"komfort":10279,"##ssons":10280,"##skas":10281,"##teknik":10282,"extrem":10283,"##gjort":10284,"granskning":10285,"mi":10286,"##sbok":10287,"installera":10288,"rens":10289,"bredband":10290,"kallat":10291,"##eka":10292,"filter":10293,"##unna":10294,"tvekan":10295,"nude":10296,"demokrati":10297,"pens":10298,"##omat":10299,"riktar":10300,"pick":10301,"##musik":10302,"utfors":10303,"skin":10304,"oftare":10305,"brygg":10306,"taxi":10307,"produktionen":10308,"mora":10309,"forord":10310,"grasmarker":10311,"manaderna":10312,"tillhorande":10313,"bana":10314,"filmerna":10315,"bekymmer":10316,"odling":10317,"intensiv":10318,"##brod":10319,"narvaro":10320,"trycker":10321,"##mote":10322,"##styrka":10323,"arbetsdag":10324,"183":10325,"seb":10326,"##sakra":10327,"98":10328,"##ender":10329,"tron":10330,"##ington":10331,"aja":10332,"##teringen":10333,"vantan":10334,"atervin":10335,"flest":10336,"friska":10337,"mojligheterna":10338,"maltid":10339,"##havare":10340,"storleken":10341,"margar":10342,"otill":10343,"##hallning":10344,"ekologiska":10345,"##lack":10346,"tillslut":10347,"menade":10348,"trafiken":10349,"utstallningen":10350,"slakte":10351,"nordvastra":10352,"62":10353,"pian":10354,"temper":10355,"johannes":10356,"jenn":10357,"ther":10358,"bolags":10359,"kh":10360,"hastarna":10361,"specialis":10362,"skalbagg":10363,"salde":10364,"tagits":10365,"lof":10366,"street":10367,"stunder":10368,"##odes":10369,"tja":10370,"jacob":10371,"##kott":10372,"##cher":10373,"processer":10374,"##skolans":10375,"dies":10376,"79":10377,"talas":10378,"testade":10379,"rekrytering":10380,"ons":10381,"##elin":10382,"sites":10383,"overfor":10384,"glommer":10385,"kontoret":10386,"##forandring":10387,"likasa":10388,"imponerande":10389,"mess":10390,"frista":10391,"##heim":10392,"##cos":10393,"##olyck":10394,"soft":10395,"virt":10396,"kolhydr":10397,"omgaende":10398,"swe":10399,"human":10400,"##srika":10401,"74":10402,"tomm":10403,"redov":10404,"##sokt":10405,"stappklimat":10406,"matlag":10407,"73":10408,"plagg":10409,"plattform":10410,"1993":10411,"bokning":10412,"riket":10413,"##usi":10414,"jatteg":10415,"iii":10416,"##gjorde":10417,"godkannande":10418,"analysera":10419,"##umb":10420,"muskler":10421,"xx":10422,"blixt":10423,"foralder":10424,"privatpersoner":10425,"##ocke":10426,"fristaende":10427,"##rek":10428,"bdsm":10429,"##omy":10430,"##ementet":10431,"blyg":10432,"##tagna":10433,"medborgar":10434,"mosa":10435,"investera":10436,"##rund":10437,"kas":10438,"##strateg":10439,"tantra":10440,"skradd":10441,"##jot":10442,"##marknad":10443,"##laggningar":10444,"besluts":10445,"hanterar":10446,"kanaler":10447,"havdar":10448,"toalett":10449,"##ogs":10450,"kompens":10451,"gna":10452,"spelaren":10453,"hoppar":10454,"old":10455,"lyssnade":10456,"##obel":10457,"dansa":10458,"##inister":10459,"nederland":10460,"skovde":10461,"bryter":10462,"skalbaggsart":10463,"demonstr":10464,"ped":10465,"finansinstitut":10466,"smaland":10467,"rehabiliter":10468,"hemliga":10469,"##skarm":10470,"besluta":10471,"ovning":10472,"olymp":10473,"##process":10474,"##stan":10475,"##namnda":10476,"tillverkning":10477,"sexual":10478,"##atus":10479,"##oman":10480,"tackar":10481,"hogtal":10482,"76":10483,"lugna":10484,"##ils":10485,"tomma":10486,"##blog":10487,"nud":10488,"##iler":10489,"miljop":10490,"bestallde":10491,"sjong":10492,"kunn":10493,"snor":10494,"indik":10495,"flyga":10496,"##atte":10497,"ledigt":10498,"tull":10499,"forknipp":10500,"##unds":10501,"kvm":10502,"tomas":10503,"avancerade":10504,"##sproblem":10505,"forkyl":10506,"seriost":10507,"bam":10508,"blue":10509,"uppenbart":10510,"aldern":10511,"fransk":10512,"namnda":10513,"##tillverk":10514,"ama":10515,"bokstav":10516,"syri":10517,"kusin":10518,"##bilden":10519,"##upplevelse":10520,"nice":10521,"leende":10522,"##cl":10523,"distriktet":10524,"regionala":10525,"kali":10526,"##ratta":10527,"book":10528,"cast":10529,"rektor":10530,"forvanad":10531,"auto":10532,"samrad":10533,"##helm":10534,"varna":10535,"krava":10536,"darav":10537,"##pert":10538,"armar":10539,"opin":10540,"varierande":10541,"vardagsrummet":10542,"dyka":10543,"dragit":10544,"teori":10545,"##ooth":10546,"bab":10547,"sanka":10548,"vals":10549,"engelsk":10550,"glomde":10551,"##kte":10552,"notera":10553,"jazz":10554,"##meddelande":10555,"servera":10556,"pekar":10557,"bond":10558,"munt":10559,"1992":10560,"extern":10561,"wikip":10562,"laggas":10563,"parken":10564,"mega":10565,"##kaka":10566,"ungdoms":10567,"vetenskapliga":10568,"forskole":10569,"institutionen":10570,"viktor":10571,"satsning":10572,"##byra":10573,"hogskola":10574,"##rus":10575,"78":10576,"##vards":10577,"arbetsmarknaden":10578,"hundratals":10579,"arke":10580,"beslutat":10581,"flask":10582,"kopet":10583,"##etts":10584,"georg":10585,"uppenbarligen":10586,"doden":10587,"skamt":10588,"uppgiften":10589,"nedre":10590,"vilt":10591,"gyll":10592,"interna":10593,"fu":10594,"##gotland":10595,"##nan":10596,"ljuv":10597,"problemen":10598,"nodvandig":10599,"skota":10600,"mekan":10601,"hjalpt":10602,"hallbart":10603,"vans":10604,"adult":10605,"involver":10606,"skivan":10607,"olj":10608,"europas":10609,"formiddagen":10610,"elegant":10611,"intervjuer":10612,"landerna":10613,"foten":10614,"sondags":10615,"elisa":10616,"##givande":10617,"##porn":10618,"##eda":10619,"##fram":10620,"kruk":10621,"bedoma":10622,"senior":10623,"helena":10624,"depress":10625,"flykting":10626,"##smode":10627,"lakt":10628,"symtom":10629,"examen":10630,"sevard":10631,"hustru":10632,"arbetsgivaren":10633,"##sag":10634,"##rant":10635,"hallas":10636,"lesbiska":10637,"skratta":10638,"turkiet":10639,"kampen":10640,"makten":10641,"##pad":10642,"myt":10643,"##cancer":10644,"trump":10645,"radsla":10646,"farfar":10647,"externa":10648,"slappt":10649,"##platta":10650,"tappar":10651,"flit":10652,"##fat":10653,"##arbeten":10654,"robot":10655,"kakor":10656,"indonesien":10657,"bonusar":10658,"##stedt":10659,"##frihet":10660,"1950":10661,"##alisera":10662,"##maren":10663,"pur":10664,"katol":10665,"ff":10666,"kemikal":10667,"undra":10668,"hill":10669,"psykisk":10670,"teoret":10671,"##kontroll":10672,"##staller":10673,"birg":10674,"radi":10675,"light":10676,"anne":10677,"avslutas":10678,"uppdaterad":10679,"trip":10680,"##terande":10681,"cock":10682,"oppnas":10683,"##jav":10684,"tillh":10685,"skickat":10686,"vastlig":10687,"artister":10688,"##koll":10689,"holland":10690,"tryggt":10691,"enter":10692,"utse":10693,"insektsart":10694,"##kanten":10695,"##vack":10696,"tillgangligt":10697,"##sajt":10698,"victoria":10699,"##blomm":10700,"##barhet":10701,"##okan":10702,"baksidan":10703,"hmm":10704,"slagit":10705,"diskriminering":10706,"##fang":10707,"ovanstaende":10708,"destin":10709,"##igenom":10710,"##isse":10711,"spindel":10712,"##au":10713,"first":10714,"##laddning":10715,"kassan":10716,"dottern":10717,"ado":10718,"observ":10719,"##ify":10720,"berattelsen":10721,"utbudet":10722,"##iem":10723,"inuti":10724,"citat":10725,"forordning":10726,"varmland":10727,"##rorelsen":10728,"manag":10729,"camping":10730,"##forsvar":10731,"fog":10732,"gasterna":10733,"##iana":10734,"salu":10735,"##pul":10736,"97":10737,"foredrag":10738,"medicinsk":10739,"skugg":10740,"psykolog":10741,"kandidat":10742,"hjalpmedel":10743,"albumet":10744,"konstruktion":10745,"stanger":10746,"dipl":10747,"infrastruktur":10748,"slip":10749,"##namnet":10750,"anvandningen":10751,"parker":10752,"utsatts":10753,"samarbetar":10754,"lampliga":10755,"sympt":10756,"win":10757,"##iser":10758,"##enterna":10759,"##bag":10760,"mins":10761,"valfard":10762,"##made":10763,"smalt":10764,"##varon":10765,"vardcentr":10766,"##vux":10767,"avdelningen":10768,"##last":10769,"redigera":10770,"kollega":10771,"relevanta":10772,"mejl":10773,"orka":10774,"distribut":10775,"##elie":10776,"locka":10777,"uppgrad":10778,"##km":10779,"altern":10780,"ce":10781,"ande":10782,"motorn":10783,"##tagen":10784,"tillverkare":10785,"grafik":10786,"##ule":10787,"agaren":10788,"kommunstyrelsen":10789,"week":10790,"##skare":10791,"##umma":10792,"langden":10793,"behandlingar":10794,"##steg":10795,"stugan":10796,"konstaterar":10797,"museet":10798,"lt":10799,"wo":10800,"vilda":10801,"vint":10802,"united":10803,"##hu":10804,"##byxor":10805,"killarna":10806,"##ulette":10807,"##supp":10808,"anlaggningar":10809,"##idrott":10810,"fixar":10811,"knep":10812,"nike":10813,"##oler":10814,"upptacker":10815,"fritids":10816,"saa":10817,"##rock":10818,"klam":10819,"##ynda":10820,"ytor":10821,"onskan":10822,"arbetsformed":10823,"##ball":10824,"lr":10825,"meddelanden":10826,"sjukvarden":10827,"ng":10828,"ib":10829,"##mare":10830,"amanda":10831,"river":10832,"wi":10833,"##makten":10834,"hamtar":10835,"##skiftet":10836,"mums":10837,"##leva":10838,"skord":10839,"ljust":10840,"##grans":10841,"matta":10842,"##stock":10843,"dartill":10844,"##laggare":10845,"##berget":10846,"kav":10847,"kraftig":10848,"kreativa":10849,"webcam":10850,"anslag":10851,"##zy":10852,"morg":10853,"##lagga":10854,"forhandling":10855,"slutt":10856,"##muse":10857,"##ages":10858,"##sprogrammet":10859,"forverk":10860,"beredd":10861,"besvik":10862,"byggde":10863,"betting":10864,"tomten":10865,"patrik":10866,"remiss":10867,"##cal":10868,"ariga":10869,"##sbel":10870,"##ni":10871,"university":10872,"##vas":10873,"forlorat":10874,"was":10875,"adel":10876,"globalt":10877,"##bygga":10878,"uthyr":10879,"##stugan":10880,"##shuset":10881,"gos":10882,"radgivning":10883,"vig":10884,"dorrar":10885,"verkstad":10886,"bedriva":10887,"ling":10888,"fm":10889,"sticker":10890,"che":10891,"##listan":10892,"avslutar":10893,"befolkning":10894,"forelasning":10895,"110":10896,"##nost":10897,"wester":10898,"drottning":10899,"bund":10900,"kontaktuppgifter":10901,"behorighet":10902,"##ysa":10903,"handduk":10904,"succe":10905,"huvudvark":10906,"trygga":10907,"gbg":10908,"motsats":10909,"##etiska":10910,"medicinska":10911,"tranat":10912,"anpassade":10913,"minor":10914,"kaos":10915,"tarta":10916,"mojliggor":10917,"1991":10918,"##politik":10919,"##anpass":10920,"ombud":10921,"stralande":10922,"900":10923,"77":10924,"byggs":10925,"vanskap":10926,"trotta":10927,"ond":10928,"staende":10929,"mia":10930,"persiska":10931,"butt":10932,"##smat":10933,"spir":10934,"bekvama":10935,"mandat":10936,"ugn":10937,"##laggningen":10938,"rytt":10939,"framgangsrika":10940,"gala":10941,"sanger":10942,"prick":10943,"##isser":10944,"falun":10945,"mjukt":10946,"fit":10947,"orsaka":10948,"96":10949,"biverk":10950,"commun":10951,"ping":10952,"ansag":10953,"perioder":10954,"dubbelt":10955,"forlorar":10956,"##istiken":10957,"##arp":10958,"manliga":10959,"forskar":10960,"smakar":10961,"dagslaget":10962,"##iskop":10963,"vindkraft":10964,"pancake":10965,"bosatt":10966,"forbud":10967,"junior":10968,"##afil":10969,"forebyggande":10970,"bostaden":10971,"89":10972,"herre":10973,"##gb":10974,"vagn":10975,"nyan":10976,"rimligt":10977,"detaljplan":10978,"advokat":10979,"vaken":10980,"vardnad":10981,"##emar":10982,"##spir":10983,"finger":10984,"tonaringar":10985,"##jorn":10986,"frien":10987,"forvis":10988,"langvar":10989,"tumbl":10990,"##dell":10991,"regiss":10992,"afrika":10993,"ss":10994,"djuren":10995,"ifk":10996,"langsiktigt":10997,"proffs":10998,"storstad":10999,"##sforbund":11000,"mater":11001,"anledningar":11002,"busklandskap":11003,"lina":11004,"nordic":11005,"palit":11006,"infora":11007,"les":11008,"bert":11009,"accepterar":11010,"klassiker":11011,"##ekonomi":11012,"sajter":11013,"glid":11014,"barcel":11015,"richard":11016,"regnet":11017,"graviditet":11018,"labor":11019,"padd":11020,"partners":11021,"##smannen":11022,"cap":11023,"##riga":11024,"tappa":11025,"stackars":11026,"rummen":11027,"tittat":11028,"upplevt":11029,"aw":11030,"##ji":11031,"apoteket":11032,"##umtion":11033,"vy":11034,"##ilia":11035,"ljudet":11036,"betraktas":11037,"arkitektur":11038,"agde":11039,"befri":11040,"marknads":11041,"badrummet":11042,"##syra":11043,"wow":11044,"gh":11045,"grunder":11046,"put":11047,"flaska":11048,"ansluta":11049,"neutr":11050,"underhallning":11051,"parter":11052,"lova":11053,"pier":11054,"immun":11055,"forsakringsk":11056,"##skvallen":11057,"receptet":11058,"primar":11059,"##orjning":11060,"forekommande":11061,"skilja":11062,"games":11063,"irland":11064,"##faltet":11065,"##arten":11066,"nedanfor":11067,"gluten":11068,"medic":11069,"##ove":11070,"flyger":11071,"kundtjanst":11072,"konstru":11073,"bedrag":11074,"besatt":11075,"##nats":11076,"dokumentation":11077,"leker":11078,"##alerna":11079,"barndom":11080,"##ilda":11081,"brinner":11082,"baseras":11083,"bedoms":11084,"##work":11085,"spok":11086,"175":11087,"holls":11088,"slapps":11089,"downlo":11090,"dyrare":11091,"plag":11092,"mt":11093,"passande":11094,"kanneteck":11095,"representanter":11096,"alp":11097,"sko":11098,"prestanda":11099,"shoppa":11100,"hektar":11101,"urin":11102,"##profil":11103,"##lop":11104,"sper":11105,"torra":11106,"narmsta":11107,"kladerna":11108,"sakerna":11109,"cash":11110,"pappers":11111,"faglar":11112,"##site":11113,"bekan":11114,"noggrann":11115,"samarbeta":11116,"##lager":11117,"tappat":11118,"tv4":11119,"skargard":11120,"tillverkade":11121,"duschen":11122,"oversattning":11123,"fortjanar":11124,"mobiltelefon":11125,"84":11126,"##agda":11127,"garage":11128,"kore":11129,"##sband":11130,"nyborjare":11131,"balt":11132,"kokos":11133,"forber":11134,"##ssn":11135,"##jod":11136,"missar":11137,"tilltal":11138,"##miljo":11139,"miljovan":11140,"bell":11141,"##oppen":11142,"##foretaget":11143,"justin":11144,"frammande":11145,"##ionella":11146,"skur":11147,"##bre":11148,"##omet":11149,"tumblr":11150,"exam":11151,"narkot":11152,"kampanjer":11153,"export":11154,"fatal":11155,"tredj":11156,"jamna":11157,"mysiga":11158,"bergen":11159,"##ektionen":11160,"160":11161,"lektion":11162,"sjalvklar":11163,"##65":11164,"george":11165,"madrid":11166,"historier":11167,"nackdelar":11168,"##stang":11169,"mammas":11170,"##lakt":11171,"1700":11172,"smaker":11173,"konkurren":11174,"sandra":11175,"##junkt":11176,"night":11177,"ash":11178,"borgen":11179,"djupare":11180,"##resan":11181,"erf":11182,"vandrar":11183,"##zo":11184,"tatu":11185,"kw":11186,"inrednings":11187,"borger":11188,"##esi":11189,"##inspektionen":11190,"inland":11191,"kvaliteten":11192,"##mastare":11193,"tour":11194,"stuga":11195,"##elsef":11196,"uttrycka":11197,"forelasningar":11198,"##skriven":11199,"skrattade":11200,"skym":11201,"genomforande":11202,"assa":11203,"avancerad":11204,"##ights":11205,"hogkval":11206,"fans":11207,"upptackt":11208,"berorda":11209,"noje":11210,"lovskog":11211,"mari":11212,"programmer":11213,"stel":11214,"hm":11215,"##dam":11216,"##hjart":11217,"alskling":11218,"bekanta":11219,"rorande":11220,"livets":11221,"inkomster":11222,"ipad":11223,"##ementer":11224,"##loss":11225,"orange":11226,"stamning":11227,"redog":11228,"appel":11229,"skraddars":11230,"allerg":11231,"politiken":11232,"kalender":11233,"tagen":11234,"overtygad":11235,"proje":11236,"alger":11237,"ambass":11238,"disc":11239,"##handeln":11240,"##ulen":11241,"##komsten":11242,"##sforening":11243,"webblasare":11244,"##inkar":11245,"middagen":11246,"##dalen":11247,"uppsats":11248,"portratt":11249,"lav":11250,"##serien":11251,"au":11252,"minskade":11253,"ving":11254,"allvarlig":11255,"2020":11256,"tradgardar":11257,"##motor":11258,"tillkommer":11259,"uppger":11260,"##ywood":11261,"natverket":11262,"afghanistan":11263,"hardare":11264,"forsvinna":11265,"undervisningen":11266,"nivan":11267,"informations":11268,"konsul":11269,"kalle":11270,"artist":11271,"fodda":11272,"##veckan":11273,"agna":11274,"##rukt":11275,"racka":11276,"unger":11277,"vuxit":11278,"betraff":11279,"mir":11280,"##infl":11281,"card":11282,"nut":11283,"mount":11284,"##sbord":11285,"teamet":11286,"plant":11287,"lunds":11288,"synas":11289,"foraldra":11290,"arbetsmarknad":11291,"norm":11292,"rekt":11293,"vattent":11294,"chanser":11295,"kontakten":11296,"here":11297,"rulla":11298,"lotta":11299,"anklag":11300,"jaja":11301,"bow":11302,"stravar":11303,"sling":11304,"##idor":11305,"##eds":11306,"stipend":11307,"bagge":11308,"asiatisk":11309,"##ding":11310,"chefer":11311,"omt":11312,"##omer":11313,"anhoriga":11314,"noggrant":11315,"##anmalan":11316,"herren":11317,"##annons":11318,"kondom":11319,"##tex":11320,"##ede":11321,"kreditvardighet":11322,"funderingar":11323,"katten":11324,"##lada":11325,"head":11326,"lokalen":11327,"kartan":11328,"forsaljningen":11329,"##ektorn":11330,"##aganden":11331,"alm":11332,"mammor":11333,"interakt":11334,"conta":11335,"funderat":11336,"hamnen":11337,"sjukdomen":11338,"upph":11339,"sexfilmer":11340,"who":11341,"lats":11342,"reste":11343,"tapet":11344,"kej":11345,"varannan":11346,"##iled":11347,"anlaggningen":11348,"##parken":11349,"##rorna":11350,"oroa":11351,"##23":11352,"atal":11353,"##bbe":11354,"fjol":11355,"intyg":11356,"mandagen":11357,"kvadratmeter":11358,"torsdagen":11359,"##oppar":11360,"julklappar":11361,"##tio":11362,"spelautomater":11363,"adressen":11364,"gel":11365,"tjansteman":11366,"farliga":11367,"kard":11368,"##ulin":11369,"aspekter":11370,"landstinget":11371,"94":11372,"domstolen":11373,"lila":11374,"innefattar":11375,"provning":11376,"vagnen":11377,"##satter":11378,"registrerade":11379,"startat":11380,"spor":11381,"##ely":11382,"osterrike":11383,"moll":11384,"fax":11385,"bilda":11386,"##vert":11387,"south":11388,"personuppgift":11389,"##skrivna":11390,"spelades":11391,"jacka":11392,"fantasi":11393,"ordfor":11394,"koldioxid":11395,"annika":11396,"bastu":11397,"provade":11398,"bestallt":11399,"hemifran":11400,"##delningar":11401,"school":11402,"personerna":11403,"lennart":11404,"##pal":11405,"##cernen":11406,"ake":11407,"tufft":11408,"##olid":11409,"tend":11410,"administration":11411,"##rapporter":11412,"bransle":11413,"arabiska":11414,"titlar":11415,"buff":11416,"##entuna":11417,"way":11418,"multi":11419,"egenskap":11420,"##chf":11421,"inledning":11422,"##skostnader":11423,"170":11424,"komplex":11425,"skydds":11426,"bildar":11427,"##hd":11428,"producerar":11429,"scand":11430,"ged":11431,"semestern":11432,"##scen":11433,"tappade":11434,"##tro":11435,"hobby":11436,"##inerna":11437,"gigant":11438,"innanfor":11439,"paret":11440,"##villkor":11441,"regi":11442,"any":11443,"##ytning":11444,"deklar":11445,"okenklimat":11446,"##eden":11447,"entreprenor":11448,"140":11449,"firade":11450,"introduktion":11451,"##flode":11452,"skrivbord":11453,"##fallen":11454,"anvandaren":11455,"kjol":11456,"lyckad":11457,"glatt":11458,"flakt":11459,"##stick":11460,"medi":11461,"mist":11462,"##figur":11463,"##promen":11464,"mobb":11465,"begara":11466,"akl":11467,"beseg":11468,"kull":11469,"chile":11470,"funktionsnedsattning":11471,"namnden":11472,"##stjanster":11473,"tras":11474,"magnet":11475,"anpassad":11476,"odds":11477,"farska":11478,"sexuellt":11479,"##poang":11480,"##varld":11481,"drommer":11482,"##butiker":11483,"##skomp":11484,"tavlar":11485,"villkoren":11486,"hornet":11487,"graf":11488,"skrap":11489,"comments":11490,"rapporterar":11491,"feder":11492,"hamnat":11493,"kvallens":11494,"tidpunkt":11495,"luk":11496,"kungs":11497,"karol":11498,"placerade":11499,"jimm":11500,"chefen":11501,"pals":11502,"##heran":11503,"medlemsst":11504,"psykiat":11505,"##etch":11506,"##plac":11507,"##berga":11508,"japansk":11509,"##opol":11510,"aldrar":11511,"amerikan":11512,"##hamtning":11513,"medvetna":11514,"forebygga":11515,"##svillkor":11516,"noveller":11517,"iron":11518,"##sons":11519,"instruktioner":11520,"##sbest":11521,"minsann":11522,"kommissionen":11523,"content":11524,"sams":11525,"##okument":11526,"katastrof":11527,"saljare":11528,"##lav":11529,"brak":11530,"hungrig":11531,"##anas":11532,"gator":11533,"specifikt":11534,"##osition":11535,"fras":11536,"maila":11537,"##svar":11538,"forvantar":11539,"snabblan":11540,"forflytt":11541,"##eng":11542,"##test":11543,"##traff":11544,"avbr":11545,"dari":11546,"brit":11547,"rakningar":11548,"skytt":11549,"tillverkas":11550,"##stuga":11551,"bensin":11552,"gd":11553,"bevara":11554,"forsvara":11555,"##smiljo":11556,"tri":11557,"##bilj":11558,"halland":11559,"##forbruk":11560,"saint":11561,"wikipedia":11562,"genomforas":11563,"arbetssatt":11564,"insidan":11565,"##bek":11566,"paketet":11567,"celler":11568,"flag":11569,"unge":11570,"glans":11571,"stolta":11572,"kungen":11573,"touch":11574,"forbundet":11575,"now":11576,"prylar":11577,"bedomer":11578,"orn":11579,"varning":11580,"lady":11581,"anbud":11582,"pic":11583,"ansprak":11584,"inspirerad":11585,"##strad":11586,"flagg":11587,"xd":11588,"utstall":11589,"##bus":11590,"varst":11591,"es":11592,"##fj":11593,"##skommun":11594,"##kann":11595,"haromdagen":11596,"import":11597,"alice":11598,"north":11599,"kiss":11600,"ingang":11601,"floden":11602,"tennis":11603,"summer":11604,"atmosfar":11605,"kompa":11606,"lyckligt":11607,"website":11608,"allih":11609,"wifi":11610,"aland":11611,"sanning":11612,"hogkvalit":11613,"psy":11614,"ystad":11615,"forhallandet":11616,"must":11617,"hjarna":11618,"had":11619,"##dags":11620,"##gjorda":11621,"programvara":11622,"tjocka":11623,"##viker":11624,"##atorn":11625,"83":11626,"##zen":11627,"oga":11628,"##allen":11629,"130":11630,"samarbetspart":11631,"mkr":11632,"tillatet":11633,"##ammare":11634,"cirk":11635,"fargerna":11636,"##radets":11637,"rensa":11638,"xn":11639,"hallbara":11640,"##shistor":11641,"hallit":11642,"niklas":11643,"lappar":11644,"grannar":11645,"nationellt":11646,"mission":11647,"ensamma":11648,"##klubben":11649,"smidig":11650,"vistas":11651,"##amnen":11652,"overnatt":11653,"orsakar":11654,"representerar":11655,"##nis":11656,"telefoner":11657,"maskinen":11658,"##gjord":11659,"absol":11660,"##hallande":11661,"##fattare":11662,"lchf":11663,"##borgs":11664,"strategier":11665,"kungliga":11666,"##langt":11667,"bildas":11668,"argent":11669,"uppsta":11670,"jessica":11671,"##arbetare":11672,"teheran":11673,"konsum":11674,"montering":11675,"upplevelsen":11676,"##ave":11677,"linjer":11678,"presentkort":11679,"ggr":11680,"lampor":11681,"samtalet":11682,"saft":11683,"##amerika":11684,"feta":11685,"##inci":11686,"stamp":11687,"tillhandahaller":11688,"bokstaver":11689,"##redning":11690,"alternativa":11691,"genomfordes":11692,"less":11693,"plockade":11694,"turen":11695,"gruv":11696,"86":11697,"passager":11698,"underlattar":11699,"hanteras":11700,"flytande":11701,"vaskan":11702,"forklarade":11703,"##sha":11704,"foss":11705,"##ammation":11706,"mosaik":11707,"##forhallanden":11708,"omgivning":11709,"women":11710,"forare":11711,"kvartalet":11712,"verksamhets":11713,"databas":11714,"baserade":11715,"##vit":11716,"sjalvfort":11717,"underhallande":11718,"##fru":11719,"nasan":11720,"jakarta":11721,"gava":11722,"##ningssatt":11723,"categor":11724,"forstora":11725,"hass":11726,"minskning":11727,"mellanrum":11728,"inge":11729,"road":11730,"indiska":11731,"about":11732,"##sun":11733,"##komligt":11734,"##ield":11735,"tillbaks":11736,"after":11737,"sexuell":11738,"##emi":11739,"wel":11740,"##prim":11741,"barcelona":11742,"berattat":11743,"dnr":11744,"varsin":11745,"##baserade":11746,"bern":11747,"beton":11748,"cross":11749,"fordr":11750,"rantor":11751,"tranade":11752,"strumpor":11753,"utby":11754,"pse":11755,"skadestand":11756,"overgang":11757,"mounta":11758,"kasino":11759,"ikon":11760,"bedriver":11761,"##pital":11762,"kjell":11763,"irak":11764,"download":11765,"lada":11766,"rantan":11767,"##aria":11768,"visby":11769,"byggas":11770,"javligt":11771,"konkurrenskraft":11772,"##underlag":11773,"insatt":11774,"leksak":11775,"bibeln":11776,"besokt":11777,"finansiell":11778,"aktiebolag":11779,"lagring":11780,"framtidens":11781,"burk":11782,"##ydde":11783,"##utbildningen":11784,"93":11785,"##zer":11786,"##elly":11787,"dire":11788,"beromda":11789,"grekiska":11790,"##byggnaden":11791,"##arina":11792,"snick":11793,"bun":11794,"##cs":11795,"barr":11796,"##amod":11797,"fiskar":11798,"##manland":11799,"bidr":11800,"##utbildningar":11801,"##hotell":11802,"publicerat":11803,"brotts":11804,"raknat":11805,"gifte":11806,"cos":11807,"ags":11808,"##data":11809,"##ffel":11810,"pont":11811,"spekul":11812,"##skrivningar":11813,"##garant":11814,"somras":11815,"hallon":11816,"njot":11817,"filt":11818,"color":11819,"hamburg":11820,"##sokande":11821,"onsdagen":11822,"sve":11823,"symboler":11824,"college":11825,"blot":11826,"oratt":11827,"tunna":11828,"##organisation":11829,"batar":11830,"##krets":11831,"grata":11832,"dumt":11833,"##speg":11834,"##brev":11835,"##bonus":11836,"##ifik":11837,"##ipa":11838,"##rah":11839,"invandrare":11840,"##kalla":11841,"abonnemang":11842,"trakig":11843,"forsakringen":11844,"digitalt":11845,"##cle":11846,"kyrkans":11847,"blaser":11848,"direktiv":11849,"studenten":11850,"##marknaden":11851,"ihjal":11852,"tekniskt":11853,"honung":11854,"leon":11855,"ratter":11856,"avkastning":11857,"##erie":11858,"##vetet":11859,"##glad":11860,"akade":11861,"rumpa":11862,"sokning":11863,"eur":11864,"vagrar":11865,"expans":11866,"##ologin":11867,"kid":11868,"##tagande":11869,"##bottens":11870,"##ony":11871,"landslag":11872,"grovt":11873,"bebygg":11874,"kallades":11875,"lesbian":11876,"diesel":11877,"##sklader":11878,"##etterna":11879,"modernt":11880,"story":11881,"arsredovis":11882,"jordgubbar":11883,"diet":11884,"uk":11885,"varat":11886,"rud":11887,"##iseras":11888,"##album":11889,"##pump":11890,"kreditupplysning":11891,"onskade":11892,"##bilen":11893,"vegas":11894,"forank":11895,"louis":11896,"poolen":11897,"##sorganis":11898,"##utbud":11899,"intellig":11900,"dur":11901,"antib":11902,"##hogskolan":11903,"##not":11904,"##oe":11905,"tanter":11906,"mandags":11907,"##brid":11908,"ovrig":11909,"kross":11910,"recens":11911,"sound":11912,"brukade":11913,"andrar":11914,"insamling":11915,"godkanda":11916,"etablering":11917,"##sem":11918,"orsaker":11919,"individuellt":11920,"laddar":11921,"##shav":11922,"manniskans":11923,"##enser":11924,"fusk":11925,"##stationen":11926,"syl":11927,"aktivera":11928,"swingers":11929,"kroat":11930,"kryp":11931,"forsiktig":11932,"##utvecklingen":11933,"##uge":11934,"talamod":11935,"##ru":11936,"##vision":11937,"konkret":11938,"stekel":11939,"##hammar":11940,"uni":11941,"industr":11942,"avdrag":11943,"escorter":11944,"grev":11945,"ingick":11946,"tyder":11947,"##block":11948,"oc":11949,"djupa":11950,"morkret":11951,"##ekreterare":11952,"begransat":11953,"okanda":11954,"ext":11955,"roulette":11956,"##eld":11957,"##edon":11958,"premier":11959,"missn":11960,"vinsten":11961,"##oklipp":11962,"kanslig":11963,"##kreta":11964,"bibe":11965,"musiker":11966,"##imentet":11967,"1930":11968,"komponenter":11969,"minuten":11970,"##mera":11971,"samverk":11972,"lararen":11973,"smorg":11974,"##vapen":11975,"##emedlem":11976,"universitetet":11977,"friluft":11978,"orten":11979,"##ito":11980,"##asyster":11981,"##cted":11982,"##ware":11983,"##utna":11984,"ordningen":11985,"markte":11986,"1989":11987,"klubbar":11988,"handelsen":11989,"idol":11990,"overgrepp":11991,"reserver":11992,"##ttill":11993,"langsam":11994,"bygglov":11995,"tabellen":11996,"nadde":11997,"regnskog":11998,"blivande":11999,"skrivande":12000,"ambul":12001,"frukosten":12002,"arbetsloshet":12003,"display":12004,"implementer":12005,"raddningst":12006,"##ituation":12007,"skrattar":12008,"asien":12009,"##ibla":12010,"vaggarna":12011,"##yper":12012,"view":12013,"##fal":12014,"samtycke":12015,"saknade":12016,"##byggt":12017,"skilda":12018,"##angar":12019,"##skningen":12020,"klarat":12021,"foreslag":12022,"enk":12023,"degen":12024,"little":12025,"platta":12026,"revid":12027,"##konst":12028,"forfl":12029,"##ross":12030,"ventilation":12031,"framgangsrik":12032,"tommy":12033,"bransl":12034,"applic":12035,"damp":12036,"##spolicy":12037,"##handlingen":12038,"##langd":12039,"html":12040,"##snummer":12041,"##tta":12042,"##amet":12043,"konkreta":12044,"handlat":12045,"rutan":12046,"pite":12047,"beloppet":12048,"##vat":12049,"diskuterar":12050,"forrad":12051,"passerar":12052,"##akade":12053,"photos":12054,"palest":12055,"##itte":12056,"mach":12057,"doma":12058,"panel":12059,"##osten":12060,"bokat":12061,"genomfort":12062,"utformning":12063,"sis":12064,"kostnadsfritt":12065,"klev":12066,"##itation":12067,"sprider":12068,"tummarna":12069,"belgi":12070,"religiosa":12071,"##skytt":12072,"##halt":12073,"pm":12074,"genu":12075,"ova":12076,"##sforsakring":12077,"ending":12078,"##oa":12079,"##cast":12080,"rekommendationer":12081,"##usion":12082,"##lur":12083,"lekte":12084,"stekelart":12085,"##enta":12086,"diagram":12087,"cykeln":12088,"subt":12089,"bm":12090,"##splatser":12091,"analsex":12092,"##skval":12093,"pastar":12094,"kanten":12095,"lands":12096,"reaktion":12097,"ansoker":12098,"##forvaltningen":12099,"kongress":12100,"atl":12101,"leif":12102,"glasogon":12103,"tydligare":12104,"producent":12105,"hemsidor":12106,"toner":12107,"palm":12108,"kontrollen":12109,"##brand":12110,"61":12111,"styck":12112,"konkurs":12113,"##onto":12114,"tanderna":12115,"blekinge":12116,"##ated":12117,"faktor":12118,"##zan":12119,"feed":12120,"##lange":12121,"bestammelserna":12122,"rattvis":12123,"1920":12124,"rita":12125,"kasinon":12126,"sovrummet":12127,"mexiko":12128,"projektledare":12129,"klaga":12130,"explo":12131,"##ife":12132,"aggress":12133,"##spra":12134,"integration":12135,"non":12136,"forvanta":12137,"moderaterna":12138,"hv":12139,"za":12140,"##kter":12141,"monter":12142,"omgivningen":12143,"formedla":12144,"undrade":12145,"halt":12146,"solo":12147,"##aktor":12148,"udda":12149,"##33":12150,"##byn":12151,"science":12152,"jung":12153,"utnyttjar":12154,"rose":12155,"##stallt":12156,"##dy":12157,"aterfinns":12158,"minnet":12159,"##reserv":12160,"renovering":12161,"##sarbete":12162,"oral":12163,"1600":12164,"##plattor":12165,"##ylt":12166,"fula":12167,"valkanda":12168,"romer":12169,"miljopart":12170,"orgasm":12171,"kostade":12172,"offentligt":12173,"##uppdrag":12174,"##skjut":12175,"buck":12176,"historik":12177,"##ergi":12178,"ode":12179,"folkets":12180,"##jerna":12181,"casinot":12182,"kvallarna":12183,"tiot":12184,"nyheterna":12185,"nt":12186,"##atern":12187,"beskatt":12188,"avsloja":12189,"overleva":12190,"##vader":12191,"idrotts":12192,"betraffande":12193,"##vaska":12194,"jamtland":12195,"kunskapen":12196,"margin":12197,"luktar":12198,"##stein":12199,"rymd":12200,"##loppet":12201,"darpa":12202,"bostads":12203,"lacker":12204,"linnea":12205,"avsedd":12206,"chic":12207,"relaterade":12208,"passet":12209,"norsk":12210,"uppvaxt":12211,"##bind":12212,"videospel":12213,"forne":12214,"##idning":12215,"viner":12216,"komple":12217,"forbl":12218,"radet":12219,"parterna":12220,"mental":12221,"tester":12222,"nm":12223,"verklig":12224,"komplettera":12225,"skadade":12226,"##pg":12227,"##skada":12228,"tillverkar":12229,"##sforeningen":12230,"##hojd":12231,"rakning":12232,"russ":12233,"miljom":12234,"179":12235,"helvete":12236,"inratt":12237,"beaut":12238,"iso":12239,"rang":12240,"beund":12241,"##upen":12242,"stodjer":12243,"bokar":12244,"lex":12245,"genomsnittet":12246,"##cas":12247,"varmare":12248,"uppdateras":12249,"##natur":12250,"forsamlingen":12251,"utnyttj":12252,"82":12253,"##stro":12254,"##fordon":12255,"diameter":12256,"meriter":12257,"##ionde":12258,"cec":12259,"anta":12260,"kyla":12261,"fastan":12262,"##itra":12263,"##ria":12264,"##anvandning":12265,"##hur":12266,"birgitta":12267,"skorna":12268,"sekr":12269,"allas":12270,"problemat":12271,"blow":12272,"koh":12273,"stenar":12274,"bedomningen":12275,"medelhavsklimat":12276,"##splaner":12277,"tolkning":12278,"##gam":12279,"jobbig":12280,"##skur":12281,"fien":12282,"##bidrag":12283,"##svatten":12284,"##smaterial":12285,"jackp":12286,"87":12287,"##stig":12288,"pseud":12289,"##fag":12290,"fattas":12291,"##kontor":12292,"##sw":12293,"christer":12294,"find":12295,"lagret":12296,"tillforlit":12297,"92":12298,"##lagda":12299,"dimension":12300,"kristus":12301,"sannolikhet":12302,"##syr":12303,"##livet":12304,"utdelning":12305,"individuell":12306,"tisdagen":12307,"agar":12308,"ravaror":12309,"1988":12310,"ebon":12311,"fattiga":12312,"come":12313,"##check":12314,"arbetstid":12315,"kreativitet":12316,"##adet":12317,"stangt":12318,"##fron":12319,"ansvariga":12320,"knack":12321,"##su":12322,"morr":12323,"kvarn":12324,"filip":12325,"revolution":12326,"karlskrona":12327,"##ligaste":12328,"hjartan":12329,"tals":12330,"meg":12331,"##maskinen":12332,"omgang":12333,"hyfsat":12334,"vagledning":12335,"tik":12336,"nacka":12337,"##bete":12338,"lednings":12339,"vacka":12340,"retro":12341,"##astaende":12342,"letade":12343,"orkide":12344,"vackraste":12345,"##sbyggnad":12346,"##estad":12347,"##usa":12348,"likadant":12349,"##esen":12350,"##car":12351,"##glom":12352,"hallow":12353,"##dring":12354,"halsar":12355,"pyssel":12356,"##ete":12357,"magasin":12358,"##opter":12359,"skrammande":12360,"roligaste":12361,"kolon":12362,"91":12363,"tillhandahalla":12364,"cigar":12365,"##varu":12366,"videoklipp":12367,"die":12368,"buller":12369,"kvinnors":12370,"ankn":12371,"torrt":12372,"meddelar":12373,"skum":12374,"verksam":12375,"halvtimme":12376,"kandis":12377,"flickan":12378,"marg":12379,"inblandade":12380,"##frukt":12381,"tegel":12382,"skoll":12383,"tuffa":12384,"room":12385,"##bilda":12386,"gumm":12387,"motivation":12388,"alltmer":12389,"forma":12390,"lyr":12391,"ganget":12392,"##ionell":12393,"kansliga":12394,"berget":12395,"schema":12396,"stryk":12397,"overraskning":12398,"maja":12399,"nja":12400,"##format":12401,"sverigedemokraterna":12402,"##skyddet":12403,"fordelarna":12404,"namns":12405,"##visas":12406,"rick":12407,"sinne":12408,"##skiv":12409,"servicen":12410,"##hattan":12411,"analyt":12412,"erfarna":12413,"isen":12414,"stracka":12415,"vagade":12416,"page":12417,"rotter":12418,"kolhydrater":12419,"redskap":12420,"betalningar":12421,"lamm":12422,"##beck":12423,"bistand":12424,"pirat":12425,"uddevalla":12426,"jaha":12427,"matcherna":12428,"tvang":12429,"##mers":12430,"trakiga":12431,"##front":12432,"paminn":12433,"biverkningar":12434,"##andare":12435,"sjalvstandigt":12436,"##anning":12437,"borlange":12438,"vinkel":12439,"##scent":12440,"forsakringskassan":12441,"sparas":12442,"principer":12443,"vaxthus":12444,"management":12445,"rust":12446,"publicera":12447,"soffa":12448,"onda":12449,"pix":12450,"olle":12451,"tillata":12452,"##spolitik":12453,"american":12454,"forskningen":12455,"cirkel":12456,"utbyte":12457,"skarpa":12458,"##ogn":12459,"felaktig":12460,"thor":12461,"overlat":12462,"ohalsa":12463,"arsmote":12464,"##bron":12465,"##dragen":12466,"peppark":12467,"fittor":12468,"##vagnar":12469,"lagst":12470,"stamningen":12471,"vanligare":12472,"##design":12473,"##cht":12474,"slottet":12475,"music":12476,"ebony":12477,"##steklar":12478,"konstiga":12479,"fornuft":12480,"inlandsklimat":12481,"mysa":12482,"##¤r":12483,"##okning":12484,"utgors":12485,"##perioden":12486,"vagarna":12487,"prestation":12488,"skriker":12489,"sommarlov":12490,"##kad":12491,"##belopp":12492,"kontaktar":12493,"gardagens":12494,"varg":12495,"##kvar":12496,"dvar":12497,"befolknings":12498,"mountain":12499,"loper":12500,"blandat":12501,"##otyp":12502,"absoluta":12503,"stiger":12504,"##ipro":12505,"skold":12506,"begransningar":12507,"intim":12508,"uppmarksamma":12509,"skrivet":12510,"bakterier":12511,"##vaningen":12512,"gris":12513,"hygien":12514,"forbind":12515,"tredjedel":12516,"trakass":12517,"matlagning":12518,"montera":12519,"sjutt":12520,"penning":12521,"##ovning":12522,"##sperioden":12523,"batter":12524,"valdes":12525,"matcha":12526,"inneholl":12527,"##karna":12528,"huvudstad":12529,"##smassigt":12530,"arbetskraft":12531,"diskuteras":12532,"intakt":12533,"fasad":12534,"blabar":12535,"loner":12536,"festen":12537,"assistans":12538,"##bileum":12539,"##viv":12540,"harifran":12541,"##skold":12542,"ovantat":12543,"##stalle":12544,"uppvarmning":12545,"reagerar":12546,"flock":12547,"examens":12548,"historiskt":12549,"potentiella":12550,"betyda":12551,"##djursart":12552,"##irektor":12553,"klasser":12554,"##stjarnor":12555,"enskilt":12556,"komplement":12557,"protest":12558,"medvetet":12559,"rymmer":12560,"kvinnlig":12561,"##elia":12562,"fotbolls":12563,"##akes":12564,"##smatch":12565,"kommunik":12566,"rabattkod":12567,"omhand":12568,"gotaland":12569,"sekretess":12570,"nos":12571,"##ransa":12572,"migrations":12573,"##pension":12574,"kammar":12575,"skrivs":12576,"##eve":12577,"1987":12578,"onan":12579,"handlingen":12580,"utforas":12581,"cv":12582,"torget":12583,"##ekv":12584,"##examen":12585,"respons":12586,"progress":12587,"tempererat":12588,"omdome":12589,"##innare":12590,"corn":12591,"##ungna":12592,"administrativ":12593,"delav":12594,"##cipl":12595,"poll":12596,"militara":12597,"meta":12598,"##industri":12599,"##ifer":12600,"##bullar":12601,"olag":12602,"parag":12603,"sagas":12604,"forekomma":12605,"lopning":12606,"hemlighet":12607,"bifog":12608,"atervanda":12609,"refer":12610,"skrek":12611,"langsiktiga":12612,"framsteg":12613,"foretradare":12614,"stot":12615,"##sling":12616,"##svin":12617,"genomgang":12618,"##ords":12619,"kravet":12620,"kristina":12621,"sne":12622,"kriminal":12623,"balkongen":12624,"andrade":12625,"spotify":12626,"samhallets":12627,"spegel":12628,"expressen":12629,"forvisso":12630,"juridiska":12631,"iak":12632,"armarna":12633,"aringen":12634,"schemat":12635,"dead":12636,"jattekul":12637,"##halls":12638,"bemotande":12639,"##pedagog":12640,"depression":12641,"##bostad":12642,"##unga":12643,"string":12644,"prev":12645,"utrustad":12646,"garanterar":12647,"modul":12648,"##ansokan":12649,"mamman":12650,"engagerade":12651,"kvallar":12652,"regional":12653,"laddning":12654,"##samnen":12655,"stok":12656,"resulterade":12657,"hyresgast":12658,"landsbygden":12659,"drev":12660,"##varre":12661,"gold":12662,"fordelen":12663,"partiled":12664,"narliggande":12665,"latina":12666,"justera":12667,"husdjur":12668,"grasm":12669,"gata":12670,"##massan":12671,"know":12672,"##eh":12673,"variation":12674,"##casino":12675,"##renover":12676,"smith":12677,"veder":12678,"##onia":12679,"ukraina":12680,"kundens":12681,"manaders":12682,"##etid":12683,"stressad":12684,"blanc":12685,"malade":12686,"talang":12687,"##esc":12688,"forkort":12689,"##mass":12690,"skjuts":12691,"##vc":12692,"##sbeslut":12693,"1986":12694,"##yder":12695,"##insatser":12696,"kopare":12697,"myn":12698,"morker":12699,"rehabilitering":12700,"ekologiskt":12701,"utrymmen":12702,"testar":12703,"resterande":12704,"kostnadsfri":12705,"allians":12706,"##alistisk":12707,"m2":12708,"designen":12709,"pict":12710,"daglig":12711,"kanel":12712,"biograf":12713,"##agt":12714,"droj":12715,"rek":12716,"##iar":12717,"kum":12718,"baren":12719,"hogtid":12720,"debiter":12721,"vul":12722,"handled":12723,"##marke":12724,"##ungit":12725,"astadkomma":12726,"meet":12727,"klokt":12728,"partierna":12729,"spik":12730,"institutet":12731,"blomster":12732,"##kg":12733,"##slost":12734,"funnit":12735,"deg":12736,"tillracklig":12737,"bilarna":12738,"visning":12739,"lis":12740,"fortsattning":12741,"synlig":12742,"pjas":12743,"medie":12744,"kusten":12745,"ada":12746,"klient":12747,"review":12748,"lor":12749,"tallrik":12750,"##sforvalt":12751,"besta":12752,"sjunker":12753,"viking":12754,"##come":12755,"shirt":12756,"valdtakt":12757,"nur":12758,"##ierar":12759,"##ampor":12760,"badkar":12761,"##ostnad":12762,"aa":12763,"years":12764,"350":12765,"halloween":12766,"vintage":12767,"paj":12768,"forandrats":12769,"##penning":12770,"lovat":12771,"##egron":12772,"cirkul":12773,"vegetar":12774,"vaning":12775,"vardagar":12776,"spill":12777,"elect":12778,"size":12779,"frost":12780,"onskat":12781,"slakten":12782,"erbjudandet":12783,"konstig":12784,"rackte":12785,"oronen":12786,"begransa":12787,"##ymen":12788,"##vill":12789,"uppratthalla":12790,"upphovsratt":12791,"avveck":12792,"linjen":12793,"##xy":12794,"great":12795,"nyfik":12796,"otal":12797,"bratt":12798,"vs":12799,"fron":12800,"smek":12801,"gods":12802,"oklart":12803,"##istens":12804,"##regionen":12805,"omedelbar":12806,"##hagen":12807,"ostergotland":12808,"kakel":12809,"##ladan":12810,"kallare":12811,"romantisk":12812,"sess":12813,"latex":12814,"sul":12815,"krypa":12816,"##ses":12817,"slaget":12818,"osk":12819,"##kostnad":12820,"##sre":12821,"71":12822,"santa":12823,"mossa":12824,"taggad":12825,"halsade":12826,"##xis":12827,"math":12828,"##file":12829,"##jolk":12830,"blandade":12831,"slappna":12832,"kitt":12833,"kopplade":12834,"xnxx":12835,"##jacka":12836,"pip":12837,"##briker":12838,"cyk":12839,"tarar":12840,"fund":12841,"ambition":12842,"##anlaggning":12843,"##ariga":12844,"samsung":12845,"kundservice":12846,"uppskatta":12847,"see":12848,"##bom":12849,"##vest":12850,"##ektor":12851,"##arl":12852,"konsten":12853,"nul":12854,"taby":12855,"sakna":12856,"latarna":12857,"##ians":12858,"faltet":12859,"##ovlar":12860,"existerar":12861,"##innor":12862,"piller":12863,"webbsida":12864,"forfar":12865,"##linjen":12866,"maz":12867,"runtom":12868,"##historia":12869,"sektor":12870,"agerar":12871,"##atts":12872,"##skontroll":12873,"dessvarre":12874,"delavrin":12875,"maximal":12876,"kommuns":12877,"esp":12878,"vap":12879,"skrevs":12880,"bruna":12881,"lysande":12882,"intervall":12883,"vingar":12884,"m²":12885,"##sj":12886,"##olin":12887,"traditionellt":12888,"misstanker":12889,"pastor":12890,"louise":12891,"huvudsakliga":12892,"dennes":12893,"inledde":12894,"1984":12895,"meddelade":12896,"syda":12897,"178":12898,"domare":12899,"asf":12900,"##aken":12901,"found":12902,"##offer":12903,"drabbade":12904,"1940":12905,"##forslag":12906,"lasse":12907,"skyldighet":12908,"rutt":12909,"byra":12910,"haftigt":12911,"forfall":12912,"falken":12913,"utgora":12914,"stadning":12915,"dolda":12916,"forhallningssatt":12917,"##avstand":12918,"monstret":12919,"blind":12920,"##omi":12921,"inneha":12922,"imorr":12923,"doften":12924,"benam":12925,"##sdagen":12926,"##sklubb":12927,"evangel":12928,"young":12929,"bestaller":12930,"markera":12931,"##chefen":12932,"wiki":12933,"omdomen":12934,"##ption":12935,"##handlare":12936,"betalningsanmarkningar":12937,"novell":12938,"##frika":12939,"profiler":12940,"stamma":12941,"##skiva":12942,"slutandan":12943,"##quist":12944,"kladogram":12945,"##register":12946,"avslutades":12947,"rein":12948,"basket":12949,"pase":12950,"fortro":12951,"etablerade":12952,"upphor":12953,"sjukskoterska":12954,"##odde":12955,"arbetsformedlingen":12956,"overvikt":12957,"##video":12958,"##tida":12959,"narkotika":12960,"##splikt":12961,"utmarkta":12962,"passform":12963,"promenader":12964,"##45":12965,"##innar":12966,"##provning":12967,"##ves":12968,"lanade":12969,"##gade":12970,"konflikter":12971,"rap":12972,"torsdags":12973,"hollywood":12974,"dream":12975,"every":12976,"fullstandig":12977,"kk":12978,"##feldt":12979,"melodifest":12980,"utfard":12981,"darigenom":12982,"vinet":12983,"ll":12984,"granne":12985,"##derad":12986,"tyr":12987,"spridning":12988,"sakerheten":12989,"tillverka":12990,"foreslas":12991,"industrin":12992,"kroppens":12993,"##entar":12994,"##tell":12995,"studi":12996,"quiz":12997,"##journ":12998,"lit":12999,"##skorna":13000,"stjarna":13001,"sf":13002,"kopplas":13003,"##alken":13004,"sevardheter":13005,"vantas":13006,"vandra":13007,"jattes":13008,"invester":13009,"##lerna":13010,"##tips":13011,"alfa":13012,"parfym":13013,"mobl":13014,"muslimer":13015,"pak":13016,"stunden":13017,"davarande":13018,"nobel":13019,"wien":13020,"shit":13021,"##sbas":13022,"##sgran":13023,"osterut":13024,"nass":13025,"5000":13026,"food":13027,"explos":13028,"kyrkor":13029,"tenderar":13030,"handtag":13031,"uppdateringar":13032,"ovanpa":13033,"varberg":13034,"stry":13035,"kent":13036,"##boy":13037,"sax":13038,"pend":13039,"charles":13040,"utvardera":13041,"1985":13042,"##ystemet":13043,"nacken":13044,"numret":13045,"naglar":13046,"summan":13047,"##amot":13048,"##aminer":13049,"stadsegron":13050,"##cet":13051,"##ime":13052,"paras":13053,"rider":13054,"resonemang":13055,"studerade":13056,"mek":13057,"##panel":13058,"##deltag":13059,"alle":13060,"##ures":13061,"garantera":13062,"lillebror":13063,"##ratts":13064,"skidor":13065,"flexibel":13066,"mira":13067,"##byran":13068,"rorelsen":13069,"poster":13070,"syrien":13071,"sammans":13072,"hemmaplan":13073,"natterna":13074,"##icia":13075,"mottes":13076,"tabletter":13077,"valkomst":13078,"fair":13079,"vasa":13080,"deltagit":13081,"fak":13082,"statsminister":13083,"pel":13084,"maklare":13085,"##ople":13086,"klagomal":13087,"rinner":13088,"##ofs":13089,"##sstod":13090,"##iserat":13091,"##angden":13092,"##statt":13093,"mild":13094,"carlsson":13095,"##kostnader":13096,"##bibli":13097,"spad":13098,"##plic":13099,"uppdel":13100,"husen":13101,"starker":13102,"whisk":13103,"kopia":13104,"kulturella":13105,"uppfod":13106,"hittas":13107,"flog":13108,"generationer":13109,"lanka":13110,"vinnaren":13111,"##ygger":13112,"##vackande":13113,"sena":13114,"bidragit":13115,"dejten":13116,"kulturen":13117,"hogra":13118,"360":13119,"##ikansk":13120,"mastare":13121,"ordentlig":13122,"royal":13123,"overvakning":13124,"##kapp":13125,"efterlangt":13126,"##tvatt":13127,"klok":13128,"##eso":13129,"grod":13130,"##skrid":13131,"konserv":13132,"##objekt":13133,"##smojligheter":13134,"okand":13135,"125":13136,"metro":13137,"jens":13138,"svan":13139,"experim":13140,"hammarby":13141,"herreg":13142,"nyckeln":13143,"##ityd":13144,"apels":13145,"##unnen":13146,"##cin":13147,"##personal":13148,"##pengar":13149,"rattvisa":13150,"fororen":13151,"kliva":13152,"foda":13153,"sjalvfortroende":13154,"##foljer":13155,"terrass":13156,"##massa":13157,"fysik":13158,"gavs":13159,"camilla":13160,"##win":13161,"foreligger":13162,"##gna":13163,"##olution":13164,"vilar":13165,"##skostnad":13166,"stodet":13167,"##yren":13168,"funka":13169,"##umpen":13170,"antibiot":13171,"lades":13172,"##stider":13173,"vasterut":13174,"myndigheterna":13175,"vatska":13176,"tad":13177,"##addra":13178,"##hing":13179,"indirekt":13180,"kapp":13181,"underratt":13182,"keram":13183,"vim":13184,"snubb":13185,"varu":13186,"care":13187,"1982":13188,"##forvar":13189,"klocka":13190,"besoket":13191,"tiderna":13192,"dir":13193,"bredare":13194,"malvakt":13195,"karri":13196,"second":13197,"aterbetal":13198,"elektronisk":13199,"##agd":13200,"gaming":13201,"##samman":13202,"vispa":13203,"search":13204,"tomat":13205,"symptom":13206,"rattegang":13207,"italiensk":13208,"##uven":13209,"benny":13210,"deleg":13211,"barnmor":13212,"brunett":13213,"##stens":13214,"##stadiet":13215,"importer":13216,"blogginlagg":13217,"##svikt":13218,"##utan":13219,"##resultatet":13220,"vip":13221,"regelbundna":13222,"latit":13223,"befann":13224,"portugal":13225,"micke":13226,"kenn":13227,"latsas":13228,"##orier":13229,"##inas":13230,"##go":13231,"##aaa":13232,"sjost":13233,"fire":13234,"rykte":13235,"netto":13236,"sele":13237,"tankas":13238,"tankande":13239,"avled":13240,"duscha":13241,"##27":13242,"pia":13243,"patag":13244,"lektioner":13245,"sparet":13246,"##shot":13247,"engang":13248,"hemmag":13249,"motstandare":13250,"pitea":13251,"try":13252,"bromma":13253,"loppis":13254,"brons":13255,"skulpt":13256,"varas":13257,"christina":13258,"##gs":13259,"delavrinningsomrade":13260,"skadad":13261,"wordpress":13262,"##plock":13263,"there":13264,"indian":13265,"journalister":13266,"##massage":13267,"gradd":13268,"bryt":13269,"veterinar":13270,"teckna":13271,"utbildad":13272,"sprit":13273,"1971":13274,"berattig":13275,"##cript":13276,"scener":13277,"##yrkan":13278,"officiellt":13279,"toppar":13280,"ingaende":13281,"arbetsplatsen":13282,"naringslivet":13283,"##gie":13284,"filen":13285,"snarast":13286,"relationen":13287,"plockar":13288,"naja":13289,"bt":13290,"blomma":13291,"utvecklade":13292,"idiot":13293,"diskussionen":13294,"ront":13295,"##koden":13296,"roger":13297,"laborator":13298,"motverka":13299,"fisken":13300,"trettio":13301,"kommersiella":13302,"comp":13303,"valda":13304,"##savgiften":13305,"wood":13306,"anpassas":13307,"manager":13308,"dejtingsidan":13309,"##sgrupp":13310,"kottet":13311,"casinospel":13312,"fascin":13313,"##akare":13314,"individen":13315,"kontrast":13316,"##ville":13317,"##inger":13318,"koordin":13319,"karaktarer":13320,"regioner":13321,"framgangar":13322,"stallas":13323,"fragestall":13324,"##ør":13325,"##fjar":13326,"##skran":13327,"pettersson":13328,"genomsnittliga":13329,"##kron":13330,"psykiska":13331,"exped":13332,"opera":13333,"utmaningen":13334,"return":13335,"bomb":13336,"planeras":13337,"drabbats":13338,"kondition":13339,"elimin":13340,"giss":13341,"arbetsplatser":13342,"manat":13343,"kontot":13344,"centimeter":13345,"##lings":13346,"sovmorgon":13347,"##gro":13348,"name":13349,"##foder":13350,"##fas":13351,"##ili":13352,"kolleg":13353,"mobile":13354,"stolar":13355,"poangen":13356,"ersatter":13357,"cred":13358,"klubbens":13359,"publicerade":13360,"##ateri":13361,"##speci":13362,"hindrar":13363,"byggd":13364,"manlig":13365,"nost":13366,"hamtat":13367,"biskop":13368,"##planen":13369,"##utor":13370,"uppkopp":13371,"njur":13372,"spray":13373,"varnar":13374,"skatteverket":13375,"##99":13376,"1974":13377,"fingrar":13378,"turister":13379,"analyser":13380,"kapten":13381,"sjalvmord":13382,"stotta":13383,"##lampa":13384,"hostens":13385,"hembyg":13386,"alliansen":13387,"mexico":13388,"##jort":13389,"elast":13390,"beck":13391,"politikerna":13392,"stabilitet":13393,"menings":13394,"historisk":13395,"jakten":13396,"##horn":13397,"givit":13398,"##ynn":13399,"herregud":13400,"iordning":13401,"utmanande":13402,"sill":13403,"gabri":13404,"ersatts":13405,"kyrkog":13406,"trakt":13407,"##bai":13408,"##skningar":13409,"##intresse":13410,"##grader":13411,"##klund":13412,"##vind":13413,"skanska":13414,"##isionen":13415,"##etik":13416,"fortsattningen":13417,"uppgar":13418,"please":13419,"pad":13420,"rabatter":13421,"bortom":13422,"mandel":13423,"gifter":13424,"styrning":13425,"vaningen":13426,"teman":13427,"dopp":13428,"energin":13429,"##oven":13430,"##kvist":13431,"bonn":13432,"##uterade":13433,"##kommun":13434,"##immer":13435,"##anne":13436,"surfa":13437,"homosexuella":13438,"segern":13439,"konstnarer":13440,"##ankar":13441,"office":13442,"svarat":13443,"vasterbotten":13444,"ishockey":13445,"tripp":13446,"vass":13447,"break":13448,"hudvard":13449,"##serie":13450,"##aton":13451,"inneband":13452,"statistiken":13453,"amatorer":13454,"utvid":13455,"##kamer":13456,"resenarer":13457,"##rick":13458,"aro":13459,"##ory":13460,"fc":13461,"##ischer":13462,"tvungna":13463,"##kakor":13464,"##fett":13465,"funderade":13466,"femton":13467,"framgangsrikt":13468,"##steknik":13469,"##vardig":13470,"##stalls":13471,"finlands":13472,"sakerligen":13473,"kritisk":13474,"kit":13475,"daribland":13476,"dataskydd":13477,"nhl":13478,"##mad":13479,"##onder":13480,"##anting":13481,"sammanstallning":13482,"##sang":13483,"##orden":13484,"##ines":13485,"fjader":13486,"brunn":13487,"kopplat":13488,"anden":13489,"lampa":13490,"tjug":13491,"##modellen":13492,"konton":13493,"svenskarna":13494,"##socker":13495,"##period":13496,"##dahl":13497,"kvalit":13498,"series":13499,"fotografera":13500,"##35":13501,"success":13502,"stj":13503,"##espel":13504,"##priser":13505,"utspelar":13506,"stir":13507,"emelie":13508,"fb":13509,"##smorgon":13510,"missfor":13511,"##une":13512,"##bitar":13513,"intensivt":13514,"monsun":13515,"popularitet":13516,"traningspass":13517,"blandar":13518,"forsaljnings":13519,"fods":13520,"flyktingar":13521,"##tagning":13522,"slat":13523,"attityd":13524,"##smarknaden":13525,"##zi":13526,"resur":13527,"##blas":13528,"##salj":13529,"##vant":13530,"raden":13531,"only":13532,"race":13533,"3000":13534,"plug":13535,"##yssel":13536,"fattade":13537,"armband":13538,"##ydlig":13539,"smala":13540,"begransade":13541,"inhand":13542,"##sminister":13543,"pedagogiska":13544,"##yle":13545,"upply":13546,"##oft":13547,"intraffar":13548,"nederlanderna":13549,"##sbolaget":13550,"colomb":13551,"forbe":13552,"dri":13553,"slack":13554,"##ilja":13555,"anvandarnamn":13556,"influ":13557,"miljok":13558,"##nik":13559,"avund":13560,"##bjorn":13561,"kriterier":13562,"flyt":13563,"levitra":13564,"##eger":13565,"##arv":13566,"delat":13567,"##ikel":13568,"##mott":13569,"genomforts":13570,"fangar":13571,"belgien":13572,"manads":13573,"low":13574,"akademiker":13575,"blondin":13576,"dyn":13577,"##skriften":13578,"trivas":13579,"##ship":13580,"ersattare":13581,"award":13582,"coop":13583,"inventer":13584,"##fet":13585,"tyngd":13586,"##vap":13587,"##26":13588,"##snat":13589,"givande":13590,"##mjuk":13591,"##uckit":13592,"##inrikt":13593,"cons":13594,"##vecka":13595,"nyttigt":13596,"##nastik":13597,"forestallningar":13598,"fodelsed":13599,"kunskaps":13600,"narstaende":13601,"kollektivavtal":13602,"##batten":13603,"##hart":13604,"experiment":13605,"monteras":13606,"reportage":13607,"delaktighet":13608,"irriterad":13609,"dran":13610,"katarina":13611,"ala":13612,"langiv":13613,"behovas":13614,"1975":13615,"dokumentar":13616,"spell":13617,"synes":13618,"angeles":13619,"chal":13620,"maximalt":13621,"fingrarna":13622,"dropp":13623,"##ulara":13624,"malgrupp":13625,"levt":13626,"bonder":13627,"tryckt":13628,"marock":13629,"forfragan":13630,"samvete":13631,"compan":13632,"ming":13633,"intag":13634,"##prom":13635,"klassific":13636,"arch":13637,"hindra":13638,"##°c":13639,"spelande":13640,"ligg":13641,"forbattringar":13642,"##samlingen":13643,"styrelsens":13644,"##77":13645,"hojer":13646,"fotografering":13647,"egypten":13648,"pressmeddelande":13649,"wash":13650,"kramar":13651,"studerar":13652,"svd":13653,"valfri":13654,"prel":13655,"onani":13656,"rubrik":13657,"portfolj":13658,"gunung":13659,"nina":13660,"##dit":13661,"flyttas":13662,"andrat":13663,"##reen":13664,"lux":13665,"##bock":13666,"foster":13667,"##formular":13668,"strikt":13669,"##wer":13670,"heliga":13671,"minskad":13672,"##sele":13673,"serverar":13674,"jonkopings":13675,"utreda":13676,"lunchen":13677,"##traning":13678,"##inka":13679,"skalet":13680,"vaskor":13681,"oppnat":13682,"inbrott":13683,"konceptet":13684,"##strar":13685,"effektivitet":13686,"lanar":13687,"##ilar":13688,"firma":13689,"hyper":13690,"krok":13691,"engagera":13692,"trafikverket":13693,"##ampning":13694,"trycket":13695,"##vagnen":13696,"gummi":13697,"gps":13698,"water":13699,"tvingades":13700,"provet":13701,"utat":13702,"##arig":13703,"utarbet":13704,"1973":13705,"branscher":13706,"sommarens":13707,"grot":13708,"disp":13709,"offens":13710,"bege":13711,"vattenfall":13712,"def":13713,"fardigheter":13714,"konsumtion":13715,"fyllda":13716,"yttersta":13717,"flug":13718,"##verige":13719,"bladdra":13720,"##avgift":13721,"##essan":13722,"jordens":13723,"emellanat":13724,"varia":13725,"##stolar":13726,"ray":13727,"##chester":13728,"utov":13729,"arrangeras":13730,"utfort":13731,"drink":13732,"movie":13733,"svaren":13734,"flott":13735,"stapel":13736,"vansterpartiet":13737,"francis":13738,"avslojar":13739,"marknader":13740,"nojes":13741,"utstallningar":13742,"mv":13743,"efterfrag":13744,"lejon":13745,"##akim":13746,"tanda":13747,"publicerades":13748,"##stallen":13749,"strackan":13750,"bristande":13751,"askad":13752,"inleddes":13753,"rol":13754,"innovativa":13755,"fastnade":13756,"cecilia":13757,"ngt":13758,"##ifikat":13759,"hemat":13760,"##fattning":13761,"gronsak":13762,"rostade":13763,"tes":13764,"omradena":13765,"sammanhanget":13766,"tillfallig":13767,"engagerad":13768,"pics":13769,"langtan":13770,"##29":13771,"ataganden":13772,"##baserad":13773,"##spres":13774,"handeln":13775,"overforing":13776,"intellekt":13777,"##sidorna":13778,"samsta":13779,"beredskap":13780,"soldater":13781,"spektak":13782,"##beller":13783,"##sprov":13784,"stiftelsen":13785,"##ordforande":13786,"##vagg":13787,"servering":13788,"##edi":13789,"pt":13790,"##skons":13791,"##ters":13792,"##olo":13793,"hult":13794,"krak":13795,"placerad":13796,"##gorelse":13797,"elektroniska":13798,"##jning":13799,"oliver":13800,"samuel":13801,"##date":13802,"allsvenskan":13803,"##orns":13804,"flackar":13805,"gestalt":13806,"##valet":13807,"forutsatter":13808,"verkligt":13809,"blodet":13810,"1979":13811,"demokratiska":13812,"koden":13813,"franvaro":13814,"##dress":13815,"matning":13816,"enklaste":13817,"##ovningar":13818,"##illverk":13819,"##krit":13820,"##pes":13821,"turne":13822,"kemi":13823,"elektronik":13824,"repet":13825,"saab":13826,"arbetslosa":13827,"namner":13828,"typiska":13829,"##ssp":13830,"kontaktperson":13831,"karnkraft":13832,"##visningen":13833,"bedrivs":13834,"grott":13835,"antas":13836,"stina":13837,"##kare":13838,"blandas":13839,"forsvarsmakten":13840,"generisk":13841,"tvill":13842,"slap":13843,"sortera":13844,"##korea":13845,"ladan":13846,"klassiskt":13847,"scha":13848,"##vanliga":13849,"##ningsl":13850,"huvudperson":13851,"fordonet":13852,"##yrer":13853,"##sky":13854,"enkat":13855,"champagne":13856,"territ":13857,"kylskap":13858,"inspirera":13859,"##ree":13860,"adoos":13861,"avgiften":13862,"##givaren":13863,"##chi":13864,"forsvunnit":13865,"1968":13866,"##vattnet":13867,"sysselsattning":13868,"intraffade":13869,"kartor":13870,"misslyckas":13871,"apt":13872,"familjemedlem":13873,"##ating":13874,"rapportera":13875,"backar":13876,"bekraftelse":13877,"angivna":13878,"lugnare":13879,"uppskattat":13880,"stilar":13881,"postades":13882,"isb":13883,"##unskaper":13884,"siffrorna":13885,"inbjudan":13886,"samlag":13887,"sjatte":13888,"next":13889,"kraftiga":13890,"##skapande":13891,"##yy":13892,"blicken":13893,"most":13894,"forestalla":13895,"##ingenjor":13896,"imorn":13897,"utforande":13898,"magiska":13899,"##oon":13900,"batterier":13901,"rele":13902,"energik":13903,"skotsel":13904,"njutning":13905,"klanningar":13906,"contin":13907,"tangent":13908,"droger":13909,"##given":13910,"##umul":13911,"receptfritt":13912,"hemt":13913,"begagnade":13914,"publicerad":13915,"expand":13916,"sekreterare":13917,"koks":13918,"forbattras":13919,"logistik":13920,"blast":13921,"##rer":13922,"korrig":13923,"frascha":13924,"##lust":13925,"feedback":13926,"tvaa":13927,"##foral":13928,"forde":13929,"varumarket":13930,"##28":13931,"##hojden":13932,"viet":13933,"platserna":13934,"nedanstaende":13935,"attraktiva":13936,"soff":13937,"betalat":13938,"torde":13939,"##69":13940,"##ush":13941,"slass":13942,"nyanser":13943,"inverkan":13944,"hbt":13945,"utbetalning":13946,"joakim":13947,"mul":13948,"hugo":13949,"slav":13950,"betalningsanmarkning":13951,"ohl":13952,"jaga":13953,"quote":13954,"pp":13955,"##ropp":13956,"##blar":13957,"##usch":13958,"fortjust":13959,"suver":13960,"##overket":13961,"reflex":13962,"tent":13963,"olycka":13964,"##arerna":13965,"saljaren":13966,"rysk":13967,"representant":13968,"arrangerar":13969,"##ysning":13970,"monsunklimat":13971,"kiruna":13972,"arsmotet":13973,"##edomning":13974,"##hlin":13975,"husse":13976,"forenings":13977,"drakt":13978,"inat":13979,"arvid":13980,"belagg":13981,"hormon":13982,"livslangd":13983,"##varan":13984,"granska":13985,"avsked":13986,"spis":13987,"classic":13988,"bingo":13989,"##koder":13990,"inleds":13991,"news":13992,"norrbotten":13993,"##svenska":13994,"slutsatser":13995,"falska":13996,"enastaende":13997,"kemiska":13998,"medium":13999,"chips":14000,"laskigt":14001,"formar":14002,"##ckare":14003,"naked":14004,"login":14005,"hiv":14006,"postat":14007,"##utrymmet":14008,"##elever":14009,"##kalen":14010,"helger":14011,"timma":14012,"koncernen":14013,"sott":14014,"annanstans":14015,"kroppar":14016,"vasentligt":14017,"##oplan":14018,"hands":14019,"tveka":14020,"##ites":14021,"##fyllda":14022,"avslappnad":14023,"faster":14024,"uppskattade":14025,"tolka":14026,"##effektiv":14027,"##omsorg":14028,"koparen":14029,"utmana":14030,"forfattar":14031,"arbetsliv":14032,"##skom":14033,"ordforanden":14034,"automatisk":14035,"passerat":14036,"##medlem":14037,"hatt":14038,"anime":14039,"jesper":14040,"kalk":14041,"use":14042,"avsedda":14043,"pussel":14044,"##ст":14045,"avslutning":14046,"strunt":14047,"regerings":14048,"kosten":14049,"semif":14050,"okande":14051,"##panna":14052,"1976":14053,"##illgang":14054,"ansikts":14055,"##stora":14056,"forbattrar":14057,"upplagg":14058,"ordnar":14059,"betydelsen":14060,"tobias":14061,"utbilda":14062,"knappar":14063,"tipp":14064,"##bis":14065,"sexstallningar":14066,"tandlak":14067,"timmen":14068,"valbered":14069,"irriterande":14070,"##ssnitt":14071,"##innen":14072,"##sfullt":14073,"##konstrukt":14074,"bk":14075,"drama":14076,"valkomnar":14077,"##rygg":14078,"paradis":14079,"byx":14080,"##idas":14081,"omtal":14082,"##vanlig":14083,"boendet":14084,"kastar":14085,"category":14086,"grava":14087,"##ierad":14088,"skapades":14089,"markus":14090,"marka":14091,"##ando":14092,"prostitu":14093,"insett":14094,"utsikten":14095,"##etiskt":14096,"##vad":14097,"##sfest":14098,"##idningen":14099,"mes":14100,"##stamma":14101,"stadat":14102,"##brada":14103,"bokfor":14104,"trojor":14105,"edward":14106,"nedsatt":14107,"lasar":14108,"aj":14109,"albert":14110,"homo":14111,"creamp":14112,"##chat":14113,"svin":14114,"##ared":14115,"tystnad":14116,"kerstin":14117,"tillvag":14118,"behovt":14119,"kemikalier":14120,"odla":14121,"drommen":14122,"imponerad":14123,"bloggare":14124,"key":14125,"behovdes":14126,"olympiska":14127,"normer":14128,"##fiske":14129,"1972":14130,"medverka":14131,"##helst":14132,"fliken":14133,"satsningar":14134,"##shavare":14135,"##uls":14136,"pok":14137,"festivalen":14138,"kombinerar":14139,"henry":14140,"hostas":14141,"1983":14142,"anlita":14143,"overvaga":14144,"##stamm":14145,"forfog":14146,"sjunde":14147,"##blod":14148,"##ов":14149,"ade":14150,"uv":14151,"tvivel":14152,"nedladdning":14153,"##tankt":14154,"citer":14155,"krankande":14156,"rostfritt":14157,"##alia":14158,"lasaren":14159,"sommark":14160,"broderna":14161,"vackte":14162,"ic":14163,"mum":14164,"sammank":14165,"lyckliga":14166,"charlotte":14167,"##filmen":14168,"sodermalm":14169,"tobak":14170,"vaxtart":14171,"genus":14172,"funkade":14173,"uppror":14174,"bonde":14175,"nova":14176,"pas":14177,"konstaterade":14178,"##gat":14179,"##71":14180,"tranga":14181,"bankkonto":14182,"tillfalliga":14183,"arlanda":14184,"arbetare":14185,"people":14186,"slanger":14187,"reaktioner":14188,"##finansiering":14189,"elisabeth":14190,"norde":14191,"tros":14192,"kollektivtrafik":14193,"dna":14194,"finare":14195,"fos":14196,"##him":14197,"trenden":14198,"poliser":14199,"itu":14200,"sebast":14201,"bikini":14202,"##fc":14203,"##cho":14204,"brostet":14205,"utdrag":14206,"hil":14207,"##skikt":14208,"kampanjen":14209,"kanslom":14210,"felaktigt":14211,"forestallningen":14212,"konserter":14213,"extrema":14214,"##atum":14215,"##parlam":14216,"diagnost":14217,"##tz":14218,"##jta":14219,"##adens":14220,"##rakningen":14221,"lidande":14222,"kannedom":14223,"fastnar":14224,"sander":14225,"mobel":14226,"xl":14227,"kraftfull":14228,"tankbara":14229,"stycke":14230,"singles":14231,"vardepapper":14232,"utbetal":14233,"##umpar":14234,"glod":14235,"texas":14236,"cart":14237,"handboll":14238,"institutioner":14239,"biten":14240,"##dinge":14241,"##eli":14242,"##skonferens":14243,"stilen":14244,"forlangning":14245,"overskott":14246,"1981":14247,"##elius":14248,"saldes":14249,"##formar":14250,"boy":14251,"rostar":14252,"mineral":14253,"vardefulla":14254,"studerande":14255,"prostata":14256,"erbjod":14257,"narma":14258,"##kyrka":14259,"##rep":14260,"agnar":14261,"tin":14262,"##ledaren":14263,"jobbiga":14264,"##jung":14265,"##savgifter":14266,"##ious":14267,"##alismen":14268,"##drift":14269,"socialstyrelsen":14270,"avsevart":14271,"substans":14272,"research":14273,"ungar":14274,"dm":14275,"##ungar":14276,"kylan":14277,"filtr":14278,"year":14279,"protester":14280,"djurgarden":14281,"##lott":14282,"segr":14283,"accept":14284,"privatlan":14285,"kroatien":14286,"konferensen":14287,"##medicin":14288,"dromma":14289,"##adi":14290,"##ribu":14291,"sud":14292,"upplevde":14293,"frack":14294,"##sallad":14295,"lagras":14296,"##bryn":14297,"##forsaljning":14298,"ankomst":14299,"svull":14300,"anmalt":14301,"parallellt":14302,"kyss":14303,"salong":14304,"##amatch":14305,"##klassen":14306,"uppsagning":14307,"sho":14308,"faktiska":14309,"##rent":14310,"fallen":14311,"kompakt":14312,"merc":14313,"varierad":14314,"anhorig":14315,"##nation":14316,"##lasning":14317,"engl":14318,"provar":14319,"landskrona":14320,"##kol":14321,"staffan":14322,"fascinerande":14323,"anstallnings":14324,"jansson":14325,"##tain":14326,"trojan":14327,"##rr":14328,"segel":14329,"brittisk":14330,"kritiska":14331,"radik":14332,"##plar":14333,"oland":14334,"##ygen":14335,"tarm":14336,"##rafta":14337,"smartan":14338,"sluts":14339,"sangar":14340,"omvard":14341,"entusi":14342,"##skepp":14343,"anknytning":14344,"mn":14345,"foraren":14346,"##tral":14347,"joseph":14348,"namnd":14349,"lador":14350,"##atser":14351,"elevernas":14352,"neuro":14353,"##hm":14354,"designer":14355,"indel":14356,"1978":14357,"kalkyl":14358,"##vardering":14359,"inr":14360,"otrolig":14361,"columb":14362,"##bolagen":14363,"graset":14364,"jattemycket":14365,"##asar":14366,"svaga":14367,"##genom":14368,"##evin":14369,"hariga":14370,"versioner":14371,"telia":14372,"##straning":14373,"onsdags":14374,"borr":14375,"helik":14376,"ey":14377,"ultra":14378,"##slov":14379,"smeten":14380,"##korning":14381,
[...]
