{"version":"1.0","truncation":null,"padding":null,"added_tokens":[{"id":0,"special":true,"content":"[PAD]","single_word":false,"lstrip":false,"rstrip":false,"normalized":false},{"id":1,"special":true,"content":"[UNK]","single_word":false,"lstrip":false,"rstrip":false,"normalized":false},{"id":2,"special":true,"content":"[CLS]","single_word":false,"lstrip":false,"rstrip":false,"normalized":false},{"id":3,"special":true,"content":"[SEP]","single_word":false,"lstrip":false,"rstrip":false,"normalized":false},{"id":4,"special":true,"content":"[MASK]","single_word":false,"lstrip":false,"rstrip":false,"normalized":false}],"normalizer":{"type":"BertNormalizer","clean_text":true,"handle_chinese_chars":true,"strip_accents":null,"lowercase":true},"pre_tokenizer":{"type":"BertPreTokenizer"},"post_processor":null,"decoder":{"type":"WordPiece","prefix":"##","cleanup":true},"model":{"type":"WordPiece","unk_token":"[UNK]","continuing_subword_prefix":"##","max_input_chars_per_word":100,"vocab":{"[PAD]":0,"[UNK]":1,"[CLS]":2,"[SEP]":3,"[MASK]":4,"!":5,"\"":6,"#":7,"$":8,"%":9,"&":10,"'":11,"(":12,")":13,"*":14,"+":15,",":16,"-":17,".":18,"/":19,"0":20,"1":21,"2":22,"3":23,"4":24,"5":25,"6":26,"7":27,"8":28,"9":29,":":30,";":31,"=":32,"?":33,"@":34,"[":35,"\\":36,"]":37,"^":38,"_":39,"`":40,"a":41,"b":42,"c":43,"d":44,"e":45,"f":46,"g":47,"h":48,"i":49,"j":50,"k":51,"l":52,"m":53,"n":54,"o":55,"p":56,"q":57,"r":58,"s":59,"t":60,"u":61,"v":62,"w":63,"x":64,"y":65,"z":66,"{":67,"|":68,"}":69,"~":70,"¡":71,"£":72,"§":73,"¨":74,"«":75,"®":76,"°":77,"±":78,"²":79,"³":80,"´":81,"µ":82,"·":83,"¹":84,"º":85,"»":86,"¼":87,"½":88,"¾":89,"×":90,"ß":91,"æ":92,"ð":93,"ø":94,"þ":95,"đ":96,"ħ":97,"ı":98,"ł":99,"ŋ":100,"œ":101,"ƒ":102,"ɐ":103,"ɑ":104,"ɒ":105,"ɔ":106,"ɕ":107,"ə":108,"ɛ":109,"ɡ":110,"ɨ":111,"ɪ":112,"ɾ":113,"ʀ":114,"ʁ":115,"ʃ":116,"ʉ":117,"ʊ":118,"ʒ":119,"ʔ":120,"ʰ":121,"ʲ":122,"ʹ":123,"ʻ":124,"ʼ":125,"ʾ":126,"ʿ":127,"ˈ":128,"ˌ":129,"ː":130,"˚":131,"α":132,"β":133,"γ":134,"δ":135,"ε":136,"ζ":137,"η":138,"θ":139,"ι":140,"κ":141,"λ":142,"μ":143,"ν":144,"ξ":145,"ο":146,"π":147,"ρ":148,"ς":149,"σ":150,"τ":151,"υ":152,"φ":153,"χ":154,"ψ":155,"ω":156,"а":157,"б":158,"в":159,"г":160,"д":161,"е":162,"ж":163,"з":164,"и":165,"к":166,"л":167,"м":168,"н":169,"о":170,"п":171,"р":172,"с":173,"т":174,"у":175,"ф":176,"х":177,"ц":178,"ч":179,"ш":180,"щ":181,"ъ":182,"ы":183,"ь":184,"э":185,"ю":186,"я":187,"ђ":188,"є":189,"і":190,"ј":191,"љ":192,"њ":193,"ћ":194,"џ":195,"қ":196,"ү":197,"ә":198,"ө":199,"ա":200,"բ":201,"գ":202,"դ":203,"ե":204,"զ":205,"թ":206,"ի":207,"լ":208,"խ":209,"կ":210,"հ":211,"ղ":212,"մ":213,"յ":214,"ն":215,"շ":216,"ո":217,"պ":218,"ռ":219,"ս":220,"վ":221,"տ":222,"ր":223,"ց":224,"ւ":225,"ք":226,"א":227,"ב":228,"ג":229,"ד":230,"ה":231,"ו":232,"ז":233,"ח":234,"ט":235,"י":236,"כ":237,"ל":238,"ם":239,"מ":240,"ן":241,"נ":242,"ס":243,"ע":244,"ף":245,"פ":246,"צ":247,"ק":248,"ר":249,"ש":250,"ת":251,"ء":252,"ا":253,"ب":254,"ة":255,"ت":256,"ث":257,"ج":258,"ح":259,"خ":260,"د":261,"ذ":262,"ر":263,"ز":264,"س":265,"ش":266,"ص":267,"ض":268,"ط":269,"ظ":270,"ع":271,"غ":272,"ـ":273,"ف":274,"ق":275,"ك":276,"ل":277,"م":278,"ن":279,"ه":280,"و":281,"ى":282,"ي":283,"پ":284,"چ":285,"ژ":286,"ک":287,"گ":288,"ھ":289,"ہ":290,"ۆ":291,"ی":292,"ێ":293,"ە":294,"ܐ":295,"ܕ":296,"ܘ":297,"ܝ":298,"ܪ":299,"ܬ":300,"अ":301,"क":302,"ग":303,"च":304,"ज":305,"ट":306,"ड":307,"ण":308,"त":309,"द":310,"ध":311,"न":312,"प":313,"ब":314,"भ":315,"म":316,"य":317,"र":318,"ल":319,"व":320,"श":321,"ष":322,"स":323,"ह":324,"ा":325,"ि":326,"ी":327,"ो":328,"॥":329,"ক":330,"জ":331,"ত":332,"দ":333,"ন":334,"প":335,"ব":336,"ম":337,"য":338,"র":339,"ল":340,"স":341,"া":342,"ি":343,"ী":344,"ে":345,"ਅ":346,"ਆ":347,"ਇ":348,"ਕ":349,"ਖ":350,"ਗ":351,"ਜ":352,"ਣ":353,"ਤ":354,"ਦ":355,"ਨ":356,"ਪ":357,"ਮ":358,"ਰ":359,"ਲ":360,"ਵ":361,"ਸ":362,"ਹ":363,"ਾ":364,"ਿ":365,"ੀ":366,"લ":367,"க":368,"ச":369,"ட":370,"த":371,"ன":372,"ப":373,"ம":374,"ர":375,"ல":376,"வ":377,"ா":378,"ி":379,"ு":380,"ാ":381,"ก":382,"ค":383,"ง":384,"จ":385,"ช":386,"ด":387,"ต":388,"ท":389,"น":390,"บ":391,"ป":392,"พ":393,"ม":394,"ย":395,"ร":396,"ล":397,"ว":398,"ส":399,"ห":400,"อ":401,"ะ":402,"า":403,"เ":404,"་":405,"།":406,"ཀ":407,"ཁ":408,"ག":409,"ང":410,"ཆ":411,"ད":412,"ན":413,"པ":414,"ཕ":415,"བ":416,"མ":417,"འ":418,"ར":419,"ལ":420,"ཤ":421,"ས":422,"ა":423,"ბ":424,"გ":425,"დ":426,"ე":427,"ვ":428,"ზ":429,"თ":430,"ი":431,"კ":432,"ლ":433,"მ":434,"ნ":435,"ო":436,"პ":437,"რ":438,"ს":439,"ტ":440,"უ":441,"ფ":442,"ქ":443,"ყ":444,"შ":445,"ჩ":446,"ც":447,"ძ":448,"წ":449,"ხ":450,"ᄀ":451,"ᄂ":452,"ᄃ":453,"ᄅ":454,"ᄆ":455,"ᄇ":456,"ᄉ":457,"ᄋ":458,"ᄌ":459,"ᄎ":460,"ᄏ":461,"ᄐ":462,"ᄑ":463,"ᄒ":464,"ᅡ":465,"ᅢ":466,"ᅣ":467,"ᅥ":468,"ᅦ":469,"ᅧ":470,"ᅨ":471,"ᅩ":472,"ᅪ":473,"ᅬ":474,"ᅭ":475,"ᅮ":476,"ᅯ":477,"ᅱ":478,"ᅲ":479,"ᅳ":480,"ᅴ":481,"ᅵ":482,"ᆨ":483,"ᆫ":484,"ᆯ":485,"ᆷ":486,"ᆸ":487,"ᆺ":488,"ᆼ":489,"ᚢ":490,"ᚦ":491,"ᚱ":492,"ᚴ":493,"ᚾ":494,"ᛁ":495,"ᛅ":496,"ᛋ":497,"ᛏ":498,"ᛚ":499,"᛫":500,"រ":501,"ា":502,"‐":503,"‑":504,"–":505,"—":506,"‘":507,"’":508,"“":509,"”":510,"„":511,"†":512,"•":513,"…":514,"‰":515,"′":516,"″":517,"‹":518,"›":519,"₂":520,"€":521,"℃":522,"ℓ":523,"№":524,"⅍":525,"→":526,"∂":527,"∇":528,"∈":529,"−":530,"√":531,"∞":532,"∧":533,"≈":534,"≤":535,"≥":536,"⋅":537,"─":538,"│":539,"└":540,"├":541,"●":542,"★":543,"♠":544,"♥":545,"♭":546,"♯":547,"⟨":548,"⟩":549,"い":550,"う":551,"か":552,"き":553,"し":554,"と":555,"の":556,"り":557,"ん":558,"ア":559,"イ":560,"ウ":561,"オ":562,"カ":563,"キ":564,"ク":565,"コ":566,"サ":567,"シ":568,"ス":569,"タ":570,"ッ":571,"テ":572,"ト":573,"ハ":574,"ヒ":575,"フ":576,"ホ":577,"マ":578,"ラ":579,"リ":580,"ル":581,"ロ":582,"ン":583,"・":584,"ー":585,"一":586,"丁":587,"七":588,"万":589,"三":590,"上":591,"下":592,"世":593,"东":594,"中":595,"丰":596,"临":597,"丹":598,"主":599,"义":600,"之":601,"乌":602,"乐":603,"九":604,"乡":605,"二":606,"云":607,"五":608,"井":609,"亚":610,"京":611,"亭":612,"人":613,"什":614,"仁":615,"仙":616,"代":617,"伊":618,"会":619,"佛":620,"作":621,"依":622,"保":623,"信":624,"元":625,"光":626,"克":627,"八":628,"公":629,"六":630,"兰":631,"共":632,"关":633,"兴":634,"内":635,"军":636,"农":637,"凤":638,"刘":639,"利":640,"前":641,"劉":642,"力":643,"加":644,"勒":645,"包":646,"化":647,"北":648,"区":649,"十":650,"千":651,"华":652,"南":653,"博":654,"卡":655,"厂":656,"原":657,"县":658,"双":659,"口":660,"古":661,"台":662,"史":663,"司":664,"合":665,"吉":666,"同":667,"后":668,"向":669,"吴":670,"周":671,"和":672,"哈":673,"唐":674,"嘉":675,"嘎":676,"四":677,"回":678,"团":679,"园":680,"国":681,"图":682,"國":683,"土":684,"地":685,"场":686,"址":687,"坊":688,"坑":689,"坝":690,"坡":691,"坪":692,"城":693,"堂":694,"堡":695,"塔":696,"塘":697,"墓":698,"士":699,"夏":700,"外":701,"多":702,"大":703,"天":704,"太":705,"头":706,"女":707,"如":708,"子":709,"孔":710,"字":711,"孙":712,"孝":713,"学":714,"學":715,"宁":716,"安":717,"宋":718,"宗":719,"官":720,"定":721,"宝":722,"家":723,"富":724,"寨":725,"寺":726,"寿":727,"小":728,"尔":729,"尖":730,"尼":731,"居":732,"屯":733,"山":734,"屿":735,"岗":736,"岛":737,"岩":738,"岭":739,"岳":740,"峡":741,"峰":742,"島":743,"川":744,"州":745,"工":746,"巴":747,"市":748,"布":749,"帝":750,"常":751,"干":752,"平":753,"年":754,"广":755,"庄":756,"庆":757,"库":758,"店":759,"庙":760,"府":761,"康":762,"建":763,"式":764,"张":765,"張":766,"当":767,"彝":768,"彦":769,"徐":770,"德":771,"心":772,"志":773,"成":774,"房":775,"所":776,"扎":777,"拉":778,"政":779,"教":780,"文":781,"斯":782,"新":783,"方":784,"族":785,"旗":786,"日":787,"旧":788,"昌":789,"明":790,"星":791,"春":792,"昭":793,"普":794,"景":795,"曲":796,"書":797,"曹":798,"會":799,"月":800,"望":801,"朝":802,"木":803,"本":804,"朱":805,"机":806,"李":807,"村":808,"杜":809,"来":810,"杨":811,"東":812,"松":813,"板":814,"林":815,"果":816,"柏":817,"查":818,"柳":819,"树":820,"株":821,"根":822,"格":823,"桂":824,"桃":825,"桑":826,"桥":827,"梁":828,"梅":829,"楼":830,"横":831,"正":832,"武":833,"毛":834,"氏":835,"民":836,"水":837,"永":838,"汉":839,"江":840,"池":841,"沙":842,"沟":843,"河":844,"治":845,"泉":846,"法":847,"波":848,"泰":849,"洋":850,"洛":851,"洞":852,"津":853,"洪":854,"洲":855,"流":856,"浦":857,"海":858,"清":859,"渡":860,"温":861,"港":862,"湖":863,"湾":864,"源":865,"溪":866,"满":867,"滩":868,"漢":869,"潭":870,"灣":871,"火":872,"热":873,"牛":874,"物":875,"特":876,"玄":877,"玉":878,"王":879,"玛":880,"珠":881,"理":882,"瓦":883,"生":884,"田":885,"甲":886,"界":887,"白":888,"百":889,"皇":890,"盘":891,"真":892,"石":893,"矿":894,"社":895,"祖":896,"神":897,"福":898,"秀":899,"秋":900,"科":901,"秦":902,"空":903,"立":904,"站":905,"章":906,"竹":907,"經":908,"红":909,"纳":910,"罗":911,"羅":912,"羊":913,"美":914,"群":915,"義":916,"老":917,"胜":918,"胡":919,"自":920,"良":921,"色":922,"花":923,"苏":924,"苗":925,"若":926,"英":927,"茶":928,"草":929,"荣":930,"莫":931,"莲":932,"華":933,"营":934,"蒙":935,"藏":936,"虎":937,"行":938,"街":939,"西":940,"观":941,"角":942,"語":943,"谷":944,"贡":945,"赛":946,"赤":947,"赵":948,"路":949,"軍":950,"车":951,"边":952,"达":953,"连":954,"通":955,"道":956,"遗":957,"那":958,"郊":959,"郎":960,"郡":961,"部":962,"郭":963,"都":964,"里":965,"野":966,"金":967,"铁":968,"铺":969,"错":970,"镇":971,"長":972,"长":973,"門":974,"门":975,"阳":976,"阿":977,"陈":978,"院":979,"陳":980,"陵":981,"陽":982,"隆":983,"雄":984,"雅":985,"集":986,"雪":987,"青":988,"音":989,"顶":990,"顺":991,"风":992,"香":993,"馬":994,"马":995,"高":996,"鱼":997,"鲁":998,"鹿":999,"麻":1000,"黄":1001,"黑":1002,"龍":1003,"龙":1004,"##i":1005,"##r":1006,"##a":1007,"##c":1008,"##o":1009,"##l":1010,"##t":1011,"##u":1012,"##m":1013,"##s":1014,"##k":1015,"##p":1016,"##g":1017,"##e":1018,"##h":1019,"##n":1020,"##y":1021,"##v":1022,"##j":1023,"##d":1024,"##ø":1025,"##f":1026,"##b":1027,"##ی":1028,"##ز":1029,"##ج":1030,"##─":1031,"##ð":1032,"##x":1033,"##æ":1034,"##ل":1035,"##ر":1036,"##ت":1037,"##ي":1038,"##م":1039,"##ة":1040,"##き":1041,"##し":1042,"##w":1043,"##z":1044,"##0":1045,"##8":1046,"##1":1047,"##а":1048,"##н":1049,"##џ":1050,"##е":1051,"##р":1052,"##ц":1053,"##ش":1054,"##و":1055,"##6":1056,"##9":1057,"##3":1058,"##q":1059,"##5":1060,"##л":1061,"##и":1062,"##د":1063,"##ا":1064,"##4":1065,"##2":1066,"##7":1067,"##у":1068,"##в":1069,"##с":1070,"##к":1071,"##о":1072,"##ж":1073,"##ь":1074,"##ш":1075,"##т":1076,"##ف":1077,"##ن":1078,"##б":1079,"##я":1080,"##м":1081,"##ਵ":1082,"##ᅵ":1083,"##ᆫ":1084,"##ᄌ":1085,"##ᅦ":1086,"##ᄀ":1087,"##ᅮ":1088,"##υ":1089,"##λ":1090,"##ι":1091,"##α":1092,"##γ":1093,"##μ":1094,"##ν":1095,"##η":1096,"##г":1097,"##д":1098,"##غ":1099,"##پ":1100,"##ك":1101,"##ح":1102,"##ص":1103,"##ы":1104,"##ᅩ":1105,"##ᆼ":1106,"##ᄒ":1107,"##ᅪ":1108,"##ᄃ":1109,"##ک":1110,"##چ":1111,"##ه":1112,"##ρ":1113,"##σ":1114,"##τ":1115,"##ο":1116,"##δ":1117,"##ς":1118,"##´":1119,"##ᄉ":1120,"##ᆷ":1121,"##ᅢ":1122,"##ਲ":1123,"##ਾ":1124,"##ᅥ":1125,"##ᅡ":1126,"##ß":1127,"##ᆯ":1128,"##ᄋ":1129,"##ᅯ":1130,"##ᄆ":1131,"##ᅧ":1132,"##φ":1133,"##ε":1134,"##π":1135,"##ق":1136,"##κ":1137,"##ि":1138,"##द":1139,"##य":1140,"##ा":1141,"##х":1142,"##ᅲ":1143,"##ᄂ":1144,"##ᆺ":1145,"##ب":1146,"##°":1147,"##ظ":1148,"##þ":1149,"##−":1150,"##ю":1151,"##گ":1152,"##ە":1153,"##ר":1154,"##ד":1155,"##י":1156,"##ת":1157,"##ग":1158,"##स":1159,"##त":1160,"##×":1161,"##ј":1162,"##і":1163,"##ч":1164,"##ו":1165,"##ל":1166,"##מ":1167,"##ן":1168,"##ᄎ":1169,"##ᆨ":1170,"##ı":1171,"##र":1172,"##प":1173,"##β":1174,"##א":1175,"##đ":1176,"##འ":1177,"##ə":1178,"##व":1179,"##म":1180,"##ो":1181,"##خ":1182,"##ン":1183,"##イ":1184,"##シ":1185,"##ω":1186,"##э":1187,"##п":1188,"##س":1189,"##ਪ":1190,"##ى":1191,"##ʒ":1192,"##ᄑ":1193,"##ł":1194,"##ո":1195,"##ղ":1196,"##ս":1197,"##נ":1198,"##ס":1199,"##ɛ":1200,"##ʁ":1201,"##ˈ":1202,"##া":1203,"##ন":1204,"##ক":1205,"##ে":1206,"##ܬ":1207,"##ܘ":1208,"##ܝ":1209,"##ث":1210,"##ա":1211,"##դ":1212,"##ի":1213,"##ض":1214,"##ʻ":1215,"##ᄇ":1216,"##ੀ":1217,"##ਆ":1218,"##ਰ":1219,"##ع":1220,"##¨":1221,"##ー":1222,"##フ":1223,"##コ":1224,"##ル":1225,"##з":1226,"##श":1227,"##®":1228,"##ਦ":1229,"##ژ":1230,"##ᅳ":1231,"##ാ":1232,"##₂":1233,"##ह":1234,"##न":1235,"##ط":1236,"##ᄅ":1237,"##ᄐ":1238,"##ᅨ":1239,"##ᛚ":1240,"##ᚱ":1241,"##θ":1242,"##リ":1243,"##オ":1244,"##ス":1245,"##ホ":1246,"##ッ":1247,"##ク":1248,"##ラ":1249,"##ਨ":1250,"##ਿ":1251,"##の":1252,"##њ":1253,"##ք":1254,"##½":1255,"##ф":1256,"##˚":1257,"##ŋ":1258,"##ێ":1259,"##ɪ":1260,"##ː":1261,"##น":1262,"##ร":1263,"##ง":1264,"##ʔ":1265,"##ल":1266,"##ʹ":1267,"##ਇ":1268,"##±":1269,"##վ":1270,"##ն":1271,"##⋅":1272,"##ா":1273,"##ம":1274,"##ப":1275,"##ர":1276,"##²":1277,"##פ":1278,"##ე":1279,"##ც":1280,"##კ":1281,"##ვ":1282,"##ა":1283,"##რ":1284,"##ก":1285,"##า":1286,"##ะ":1287,"##ล":1288,"##ต":1289,"##ห":1290,"##ᛁ":1291,"##લ":1292,"##ף":1293,"##ང":1294,"##ᅣ":1295,"##ᆸ":1296,"##ע":1297,"##ב":1298,"##ג":1299,"##ր":1300,"##ק":1301,"##ি":1302,"##প":1303,"##র":1304,"##ъ":1305,"##ᚾ":1306,"##ɾ":1307,"##³":1308,"##ย":1309,"##ว":1310,"##เ":1311,"##ʿ":1312,"##ח":1313,"##ਤ":1314,"##ɑ":1315,"##ܪ":1316,"##љ":1317,"##כ":1318,"##ה":1319,"##ᅬ":1320,"##ʰ":1321,"##ტ":1322,"##ი":1323,"##შ":1324,"##ლ":1325,"##ਹ":1326,"##º":1327,"##œ":1328,"##ւ":1329,"##צ":1330,"##ʃ":1331,"##り":1332,"##պ":1333,"##տ":1334,"##დ":1335,"##მ":1336,"##ს":1337,"##ト":1338,"##ロ":1339,"##अ":1340,"##क":1341,"##ज":1342,"##ש":1343,"##χ":1344,"##ო":1345,"##կ":1346,"##յ":1347,"##լ":1348,"##ذ":1349,"##อ":1350,"##ם":1351,"##भ":1352,"##ष":1353,"##ե":1354,"##մ":1355,"##ɔ":1356,"##¼":1357,"##≤":1358,"##ξ":1359,"##জ":1360,"##ত":1361,"##ʾ":1362,"##ค":1363,"##ช":1364,"##ส":1365,"##ม":1366,"##ম":1367,"##দ":1368,"##ᅱ":1369,"##ζ":1370,"##ხ":1371,"##キ":1372,"##ʲ":1373,"##ᅭ":1374,"##ɒ":1375,"##უ":1376,"##თ":1377,"##च":1378,"##ཀ":1379,"##ར":1380,"##ी":1381,"##ਕ":1382,"##ქ":1383,"##բ":1384,"##ө":1385,"##ʀ":1386,"##マ":1387,"##ウ":1388,"##ψ":1389,"##ჩ":1390,"##♯":1391,"##ܐ":1392,"##շ":1393,"##ハ":1394,"##タ":1395,"##щ":1396,"##ء":1397,"##გ":1398,"##ʉ":1399,"##ท":1400,"##พ":1401,"##រ":1402,"##ា":1403,"##ड":1404,"##ɡ":1405,"##ব":1406,"##ཤ":1407,"##ག":1408,"##ས":1409,"##ᅴ":1410,"##ヒ":1411,"##թ":1412,"##հ":1413,"##ɕ":1414,"##ʊ":1415,"##ਣ":1416,"##ᛋ":1417,"##ᛏ":1418,"##ᚴ":1419,"##ᚢ":1420,"##ზ":1421,"##ფ":1422,"##խ":1423,"##স":1424,"##ல":1425,"##வ":1426,"##ி":1427,"##ச":1428,"##த":1429,"##℃":1430,"##→":1431,"##ნ":1432,"##ਜ":1433,"##ट":1434,"##ᄏ":1435,"##ு":1436,"##ɨ":1437,"##ט":1438,"##գ":1439,"##ん":1440,"##う":1441,"##ђ":1442,"##ћ":1443,"##ז":1444,"##ब":1445,"##ध":1446,"##♭":1447,"##ল":1448,"##க":1449,"##ட":1450,"##য":1451,"##ᚦ":1452,"##ბ":1453,"##ʼ":1454,"##ܕ":1455,"##サ":1456,"##პ":1457,"##є":1458,"##ਖ":1459,"##ன":1460,"##ア":1461,"##か":1462,"##ү":1463,"##ด":1464,"##ھ":1465,"##ħ":1466,"##ـ":1467,"##ण":1468,"##ہ":1469,"##མ":1470,"##ན":1471,"##と":1472,"##ძ":1473,"##ყ":1474,"##♥":1475,"##ী":1476,"##ป":1477,"##µ":1478,"##ց":1479,"##қ":1480,"##ɐ":1481,"##ә":1482,"##≥":1483,"##カ":1484,"##զ":1485,"##∈":1486,"##ਗ":1487,"##ਮ":1488,"##ਸ":1489,"##€":1490,"##བ":1491,"##¹":1492,"##ᛅ":1493,"##ˌ":1494,"##ཁ":1495,"##¾":1496,"##£":1497,"##テ":1498,"##წ":1499,"##จ":1500,"##い":1501,"##ۆ":1502,"##ռ":1503,"##∂":1504,"##ƒ":1505,"##♠":1506,"##บ":1507,"##√":1508,"##●":1509,"##པ":1510,"##ལ":1511,"##ད":1512,"##ਅ":1513,"##★":1514,"##∇":1515,"##ℓ":1516,"##ཆ":1517,"##≈":1518,"##ཕ":1519,"##∧":1520,"##∞":1521,"##en":1522,"##er":1523,"##ar":1524,"##an":1525,"##et":1526,"##or":1527,"##st":1528,"ar":1529,"##in":1530,"##ed":1531,"##at":1532,"##om":1533,"##ad":1534,"##il":1535,"##al":1536,"##el":1537,"##ch":1538,"##on":1539,"##sk":1540,"##ra":1541,"##ig":1542,"den":1543,"av":1544,"##tt":1545,"och":1546,"##kt":1547,"med":1548,"##un":1549,"en":1550,"in":1551,"##and":1552,"##ing":1553,"##es":1554,"##am":1555,"for":1556,"##re":1557,"som":1558,"##ol":1559,"##te":1560,"##ast":1561,"##ord":1562,"st":1563,"##le":1564,"##id":1565,"##li":1566,"og":1567,"##ur":1568,"##la":1569,"til":1570,"pa":1571,"##is":1572,"var":1573,"om":1574,"##ter":1575,"##eter":1576,"##og":1577,"19":1578,"##ver":1579,"det":1580,"##der":1581,"##ri":1582,"##ade":1583,"##as":1584,"li":1585,"##ro":1586,"##eg":1587,"##pp":1588,"##ag":1589,"##aden":1590,"##us":1591,"an":1592,"##lig":1593,"##aste":1594,"##av":1595,"de":1596,"##ning":1597,"ing":1598,"##ck":1599,"##ang":1600,"##eder":1601,"un":1602,"##sn":1603,"##all":1604,"##it":1605,"##kten":1606,"##per":1607,"##ud":1608,"°c":1609,"##em":1610,"##ak":1611,"##bord":1612,"han":1613,"##ik":1614,"##ederbord":1615,"##isk":1616,"##itt":1617,"##are":1618,"be":1619,"man":1620,"##art":1621,"##na":1622,"##tem":1623,"del":1624,"tra":1625,"under":1626,"sk":1627,"##ger":1628,"er":1629,"##att":1630,"##od":1631,"gen":1632,"ut":1633,"##inn":1634,"##unt":1635,"##ot":1636,"ett":1637,"till":1638,"##atur":1639,"trakten":1640,"##de":1641,"##ent":1642,"##ru":1643,"over":1644,"genom":1645,"##ler":1646,"##uv":1647,"##ste":1648,"##ber":1649,"##ul":1650,"##ia":1651,"20":1652,"##jen":1653,"lig":1654,"km":1655,"##aturen":1656,"##os":1657,"##ion":1658,"##peraturen":1659,"runt":1660,"##eltem":1661,"##eltemperaturen":1662,"##uvud":1663,"##iv":1664,"har":1665,"##lim":1666,"##snitt":1667,"manaden":1668,"mm":1669,"##land":1670,"##ran":1671,"of":1672,"genomsnitt":1673,"nederbord":1674,"##ska":1675,"##ens":1676,"huvud":1677,"ligger":1678,"##ist":1679,"reg":1680,"land":1681,"##sm":1682,"att":1683,"##um":1684,"finn":1685,"sy":1686,"sam":1687,"ingar":1688,"al":1689,"##ari":1690,"##rev":1691,"ble":1692,"sla":1693,"da":1694,"##amil":1695,"##ue":1696,"nar":1697,"##ne":1698,"finns":1699,"##ør":1700,"kom":1701,"sp":1702,"famil":1703,"##sen":1704,"fra":1705,"##ut":1706,"##ktet":1707,"meter":1708,"##fe":1709,"##op":1710,"##ilom":1711,"##ilometer":1712,"##sta":1713,"##ov":1714,"##ok":1715,"per":1716,"familjen":1717,"besk":1718,"kv":1719,"hav":1720,"##ande":1721,"##arter":1722,"pro":1723,"inga":1724,"##rat":1725,"stor":1726,"##het":1727,"##se":1728,"##be":1729,"##for":1730,"##ell":1731,"##ene":1732,"##maste":1733,"##atal":1734,"##sa":1735,"beskrev":1736,"slaktet":1737,"underarter":1738,"##ost":1739,"18":1740,"el":1741,"delen":1742,"havet":1743,"beskrevs":1744,"##ke":1745,"kall":1746,"list":1747,"mil":1748,"nor":1749,"life":1750,"##atalog":1751,"##ust":1752,"nord":1753,"catalog":1754,"catalogue":1755,"##van":1756,"at":1757,"##jon":1758,"##ic":1759,"listade":1760,"##ug":1761,"men":1762,"landet":1763,"kan":1764,"##va":1765,"##olk":1766,"fran":1767,"##staden":1768,"##ien":1769,"##ir":1770,"##ta":1771,"tor":1772,"##ek":1773,"##mer":1774,"##est":1775,"##ss":1776,"##yg":1777,"##rad":1778,"##ep":1779,"jan":1780,"regn":1781,"huvudstaden":1782,"##ann":1783,"invan":1784,"##smed":1785,"invanare":1786,"##ant":1787,"syd":1788,"##sp":1789,"##und":1790,"##ark":1791,"vid":1792,"arsmed":1793,"arsmedeltemperaturen":1794,"varmaste":1795,"medeltemperaturen":1796,"kallaste":1797,"200":1798,"janu":1799,"kvad":1800,"kvadrat":1801,"ch":1802,"##igaste":1803,"##kilometer":1804,"kvadratkilometer":1805,"##limeter":1806,"millimeter":1807,"komm":1808,"##arna":1809,"##raste":1810,"genomsnittlig":1811,"kon":1812,"arsn":1813,"arsnederbord":1814,"torraste":1815,"regnigaste":1816,"##uli":1817,"##yr":1818,"##limat":1819,"##folk":1820,"januari":1821,"or":1822,"##ala":1823,"##ser":1824,"juli":1825,"pl":1826,"opp":1827,"sv":1828,"##ster":1829,"and":1830,"ber":1831,"##im":1832,"##sak":1833,"201":1834,"##ard":1835,"##ader":1836,"eller":1837,"sin":1838,"##ft":1839,"ma":1840,"##eb":1841,"##ett":1842,"##ap":1843,"kommun":1844,"##ab":1845,"##vin":1846,"##iska":1847,"##ling":1848,"##angen":1849,"##red":1850,"tid":1851,"upp":1852,"ter":1853,"##ock":1854,"##ind":1855,"et":1856,"##vast":1857,"to":1858,"##ort":1859,"##ades":1860,"##befolk":1861,"##00":1862,"hog":1863,"##ub":1864,"##ember":1865,"##heten":1866,"vast":1867,"inn":1868,"##giv":1869,"##je":1870,"##fter":1871,"provin":1872,"mar":1873,"##ax":1874,"##skap":1875,"##ge":1876,"##ere":1877,"##ske":1878,"##net":1879,"##ac":1880,"##end":1881,"huvudsak":1882,"ku":1883,"aug":1884,"ver":1885,"##ær":1886,"mot":1887,"sj":1888,"gr":1889,"##ier":1890,"august":1891,"terr":1892,"##ly":1893,"##lag":1894,"so":1895,"##men":1896,"th":1897,"##ae":1898,"omgiv":1899,"##ks":1900,"##ka":1901,"terrangen":1902,"##ma":1903,"199":1904,"rader":1905,"pun":1906,"provinsen":1907,"##ron":1908,"##alet":1909,"##ation":1910,"##gen":1911,"narheten":1912,"##del":1913,"ant":1914,"##ikk":1915,"ny":1916,"##ry":1917,"##res":1918,"vil":1919,"##ick":1920,"sa":1921,"##man":1922,"##lo":1923,"##alt":1924,"etter":1925,"##iske":1926,"hogsta":1927,"art":1928,"le":1929,"sig":1930,"##nings":1931,"vax":1932,"der":1933,"##yn":1934,"lag":1935,"augusti":1936,"ved":1937,"hel":1938,"##den":1939,"mo":1940,"efter":1941,"##befolkat":1942,"##ikt":1943,"punkten":1944,"dar":1945,"kilometer":1946,"re":1947,"før":1948,"##ende":1949,"##son":1950,"lang":1951,"198":1952,"##ningarna":1953,"##rig":1954,"##rag":1955,"##lar":1956,"##ket":1957,"##hol":1958,"##ung":1959,"bar":1960,"des":1961,"##jar":1962,"##ionen":1963,"##ygg":1964,"##ert":1965,"##ring":1966,"##ningen":1967,"##ve":1968,"##amn":1969,"##sart":1970,"##ppen":1971,"best":1972,"##yl":1973,"##ie":1974,"##ip":1975,"197":1976,"ty":1977,"##var":1978,"oster":1979,"ha":1980,"##anska":1981,"omgivningarna":1982,"##ina":1983,"hon":1984,"##hal":1985,"bli":1986,"##if":1987,"mell":1988,"##sh":1989,"fram":1990,"##ige":1991,"berg":1992,"##radet":1993,"##uni":1994,"##les":1995,"seg":1996,"##ob":1997,"##ebru":1998,"##ød":1999,"##amp":2000,"sydost":2001,"febru":2002,"tva":2003,"196":2004,"sl":2005,"bl":2006,"hans":2007,"##ake":2008,"##entr":2009,"##unn":2010,"##ken":2011,"bor":2012,"##oh":2013,"vaster":2014,"##jer":2015,"##ib":2016,"juni":2017,"##adde":2018,"##rit":2019,"ap":2020,"##asjon":2021,"##ong":2022,"la":2023,"##me":2024,"par":2025,"vatt":2026,"17":2027,"##io":2028,"forst":2029,"ein":2030,"##øy":2031,"ogsa":2032,"##ogra":2033,"kar":2034,"pol":2035,"nordvast":2036,"my":2037,"##ats":2038,"##ruk":2039,"##rin":2040,"soder":2041,"ne":2042,"##ian":2043,"##ets":2044,"te":2045,"##vax":2046,"##kk":2047,"##klimat":2048,"februari":2049,"fors":2050,"am":2051,"fil":2052,"kl":2053,"br":2054,"storre":2055,"by":2056,"##da":2057,"##ff":2058,"aven":2059,"se":2060,"fol":2061,"gra":2062,"##uc":2063,"bland":2064,"nov":2065,"##iser":2066,"##ater":2067,"nordost":2068,"##skog":2069,"sep":2070,"##ill":2071,"hadde":2072,"sven":2073,"norr":2074,"##aten":2075,"##ans":2076,"dec":2077,"sitt":2078,"##vis":2079,"##enn":2080,"##ligen":2081,"##org":2082,"##oll":2083,"##ober":2084,"samt":2085,"195":2086,"##eng":2087,"spel":2088,"##else":2089,"ind":2090,"sen":2091,"gj":2092,"194":2093,"fin":2094,"##ou":2095,"sydvast":2096,"##ane":2097,"##sb":2098,"tre":2099,"tv":2100,"##iet":2101,"##ale":2102,"##ott":2103,"centr":2104,"##rade":2105,"blev":2106,"##kke":2107,"##ah":2108,"##ningsom":2109,"kun":2110,"the":2111,"fl":2112,"fler":2113,"val":2114,"##aren":2115,"december":2116,"mus":2117,"hade":2118,"bestar":2119,"##ligt":2120,"septem":2121,"andre":2122,"september":2123,"mang":2124,"mars":2125,"lake":2126,"inte":2127,"##ingen":2128,"##ulle":2129,"193":2130,"narmaste":2131,"##ire":2132,"##ner":2133,"kuper":2134,"kuperad":2135,"##iskt":2136,"ad":2137,"##halle":2138,"##oc":2139,"november":2140,"fod":2141,"mal":2142,"klimat":2143,"samhalle":2144,"##ata":2145,"ganska":2146,"##ore":2147,"folj":2148,"ser":2149,"mind":2150,"192":2151,"dag":2152,"##lem":2153,"sh":2154,"far":2155,"##leg":2156,"##bet":2157,"16":2158,"15":2159,"##wa":2160,"191":2161,"##ild":2162,"##ada":2163,"ann":2164,"bet":2165,"ex":2166,"##istor":2167,"toppen":2168,"centrala":2169,"mindre":2170,"##ult":2171,"##rom":2172,"##kte":2173,"##ril":2174,"##rop":2175,"her":2176,"##idae":2177,"##erna":2178,"mon":2179,"##rist":2180,"okt":2181,"tat":2182,"sver":2183,"##las":2184,"bas":2185,"##ce":2186,"oktober":2187,"##onen":2188,"##sl":2189,"##rik":2190,"gles":2191,"me":2192,"jord":2193,"##berg":2194,"ikke":2195,"##liga":2196,"ost":2197,"##akt":2198,"##alen":2199,"##edan":2200,"utb":2201,"nara":2202,"glesbefolkat":2203,"he":2204,"##itet":2205,"andra":2206,"##up":2207,"fodd":2208,"no":2209,"van":2210,"mat":2211,"rep":2212,"##ella":2213,"co":2214,"vaxer":2215,"regionen":2216,"##iver":2217,"##utt":2218,"all":2219,"sid":2220,"kommunen":2221,"##ts":2222,"##orde":2223,"##ten":2224,"##opp":2225,"kj":2226,"mer":2227,"##smark":2228,"##endrag":2229,"on":2230,"##ich":2231,"kuh":2232,"vattendrag":2233,"maj":2234,"hun":2235,"##uk":2236,"forsta":2237,"##lass":2238,"fick":2239,"##ha":2240,"##sam":2241,"##yrk":2242,"hand":2243,"##elt":2244,"platt":2245,"talet":2246,"##ara":2247,"joh":2248,"##olog":2249,"vis":2250,"gu":2251,"##rem":2252,"##ys":2253,"##pel":2254,"##riv":2255,"bra":2256,"##hor":2257,"eng":2258,"vart":2259,"foljande":2260,"omradet":2261,"##ningar":2262,"##entet":2263,"april":2264,"sm":2265,"ge":2266,"##ess":2267,"beg":2268,"##hall":2269,"##ull":2270,"san":2271,"##tart":2272,"##ow":2273,"første":2274,"kal":2275,"##øl":2276,"ste":2277,"##ja":2278,"##ris":2279,"min":2280,"ta":2281,"histor":2282,"delst":2283,"##enter":2284,"##des":2285,"##yt":2286,"##mar":2287,"tatbefolkat":2288,"hal":2289,"sch":2290,"led":2291,"##kon":2292,"stad":2293,"190":2294,"namn":2295,"form":2296,"amer":2297,"plat":2298,"mellom":2299,"utg":2300,"fly":2301,"##elsen":2302,"kra":2303,"##ret":2304,"hem":2305,"dette":2306,"##cket":2307,"##ansk":2308,"is":2309,"##ass":2310,"##tal":2311,"bygg":2312,"##her":2313,"huvudsakligen":2314,"tr":2315,"are":2316,"##ker":2317,"##ine":2318,"##he":2319,"##nas":2320,"sel":2321,"##vand":2322,"##ay":2323,"##fta":2324,"##fl":2325,"rom":2326,"dod":2327,"##alb":2328,"##holm":2329,"inter":2330,"ab":2331,"bu":2332,"rikt":2333,"##verk":2334,"gru":2335,"sav":2336,"##bar":2337,"mest":2338,"rik":2339,"ag":2340,"##ana":2341,"##old":2342,"##yd":2343,"alb":2344,"##skapet":2345,"fød":2346,"sverige":2347,"res":2348,"##tta":2349,"##jaril":2350,"##anger":2351,"##iss":2352,"skulle":2353,"##elig":2354,"##øn":2355,"mycket":2356,"##ond":2357,"##ister":2358,"##omm":2359,"##lige":2360,"##ift":2361,"hv":2362,"ord":2363,"##allet":2364,"car":2365,"##ct":2366,"omk":2367,"sedan":2368,"dei":2369,"##min":2370,"##rinningsom":2371,"##bruk":2372,"amerik":2373,"bo":2374,"ock":2375,"kor":2376,"eg":2377,"##eart":2378,"##yp":2379,"gjen":2380,"##fatt":2381,"syfta":2382,"ol":2383,"nag":2384,"##mp":2385,"eur":2386,"##vik":2387,"##sklimat":2388,"##rak":2389,"##ack":2390,"##jan":2391,"##beid":2392,"mellan":2393,"##rid":2394,"sc":2395,"##istri":2396,"##ium":2397,"##kl":2398,"##dag":2399,"rad":2400,"hen":2401,"##hus":2402,"##ogram":2403,"norra":2404,"##els":2405,"##par":2406,"mor":2407,"##ial":2408,"liv":2409,"ocksa":2410,"omkring":2411,"fri":2412,"##skland":2413,"189":2414,"storsta":2415,"bro":2416,"##befolkad":2417,"hj":2418,"inne":2419,"##igt":2420,"##hi":2421,"10":2422,"født":2423,"##odra":2424,"bak":2425,"folk":2426,"nog":2427,"##kel":2428,"##hav":2429,"polit":2430,"sjo":2431,"delt":2432,"##osa":2433,"forb":2434,"12":2435,"gar":2436,"col":2437,"obefolkad":2438,"ho":2439,"blir":2440,"##ubb":2441,"sodra":2442,"##mark":2443,"stra":2444,"##gar":2445,"utbred":2446,"##ral":2447,"sør":2448,"hov":2449,"##iller":2450,"riktning":2451,"gam":2452,"##rukt":2453,"denne":2454,"##lik":2455,"##tter":2456,"fjaril":2457,"tur":2458,"ur":2459,"##iker":2460,"##bl":2461,"##ica":2462,"dem":2463,"##sv":2464,"antalet":2465,"delstaten":2466,"ned":2467,"ph":2468,"##ius":2469,"bred":2470,"aust":2471,"##stem":2472,"fot":2473,"arten":2474,"##nar":2475,"##sson":2476,"##eld":2477,"nav":2478,"vilket":2479,"stock":2480,"##ære":2481,"##uss":2482,"person":2483,"##ivers":2484,"dess":2485,"##iga":2486,"kat":2487,"##satt":2488,"dan":2489,"##iod":2490,"konst":2491,"lov":2492,"pr":2493,"14":2494,"jordbruk":2495,"##ograf":2496,"distri":2497,"##stad":2498,"##ula":2499,"detta":2500,"##vaxter":2501,"##rike":2502,"##era":2503,"##zonen":2504,"fa":2505,"sydostra":2506,"##lighet":2507,"##før":2508,"prod":2509,"##jur":2510,"svensk":2511,"##ora":2512,"klimatzonen":2513,"##orn":2514,"##vaxtart":2515,"lan":2516,"univers":2517,"ang":2518,"##form":2519,"##ings":2520,"stockholm":2521,"band":2522,"##ii":2523,"natur":2524,"enligt":2525,"##pl":2526,"fjarilsart":2527,"grund":2528,"##int":2529,"##rod":2530,"ra":2531,"stat":2532,"##ren":2533,"##tid":2534,"13":2535,"em":2536,"##som":2537,"lac":2538,"savann":2539,"new":2540,"188":2541,"##sten":2542,"dom":2543,"stud":2544,"anvand":2545,"##aving":2546,"##by":2547,"eit":2548,"bes":2549,"platser":2550,"##ktiv":2551,"wil":2552,"os":2553,"cer":2554,"##nom":2555,"sal":2556,"kanada":2557,"tvaving":2558,"europ":2559,"##oph":2560,"##atte":2561,"##qu":2562,"##ropiskt":2563,"annat":2564,"##ært":2565,"##ym":2566,"gre":2567,"##rakt":2568,"##iz":2569,"##dom":2570,"##ile":2571,"##sj":2572,"jordbruksmark":2573,"##ola":2574,"si":2575,"##ensis":2576,"11":2577,"sta":2578,"fikk":2579,"tem":2580,"bade":2581,"part":2582,"mark":2583,"po":2584,"##med":2585,"##isjon":2586,"lar":2587,"ei":2588,"##ho":2589,"ca":2590,"tvavingeart":2591,"##sjon":2592,"vann":2593,"##stand":2594,"##nen":2595,"usa":2596,"##ukt":2597,"inom":2598,"bel":2599,"medlem":2600,"##lin":2601,"album":2602,"##ald":2603,"##ite":2604,"##ef":2605,"##slag":2606,"ham":2607,"fj":2608,"##ga":2609,"otta":2610,"##ford":2611,"##nad":2612,"krig":2613,"ottawa":2614,"nam":2615,"sol":2616,"lat":2617,"##rett":2618,"##far":2619,"##ida":2620,"nu":2621,"lu":2622,"kyrk":2623,"##hand":2624,"##elle":2625,"##th":2626,"utan":2627,"slut":2628,"ater":2629,"god":2630,"##øp":2631,"dis":2632,"##sil":2633,"##rum":2634,"off":2635,"rek":2636,"grunn":2637,"##stall":2638,"oli":2639,"finland":2640,"##ille":2641,"frank":2642,"kont":2643,"vastra":2644,"##led":2645,"di":2646,"##uder":2647,"##ide":2648,"gjennom":2649,"##ya":2650,"##gang":2651,"fle":2652,"##ativ":2653,"##our":2654,"as":2655,"cre":2656,"fem":2657,"avrinningsom":2658,"vin":2659,"##fors":2660,"##gan":2661,"##konom":2662,"hol":2663,"gall":2664,"##ern":2665,"af":2666,"000":2667,"187":2668,"##met":2669,"sammen":2670,"norsk":2671,"son":2672,"ostra":2673,"bruk":2674,"##ator":2675,"met":2676,"ly":2677,"186":2678,"##get":2679,"##over":2680,"sjon":2681,"##elen":2682,"##ity":2683,"svenska":2684,"flere":2685,"##ph":2686,"##ven":2687,"su":2688,"##au":2689,"vest":2690,"pres":2691,"bi":2692,"mel":2693,"##lingen":2694,"##iner":2695,"##ton":2696,"##øm":2697,"arbet":2698,"kvinn":2699,"##ec":2700,"end":2701,"##sf":2702,"ans":2703,"##rep":2704,"##igh":2705,"forsk":2706,"mag":2707,"##ld":2708,"##empel":2709,"arbeid":2710,"barn":2711,"plan":2712,"con":2713,"##atter":2714,"##ilt":2715,"senare":2716,"gjorde":2717,"ed":2718,"ve":2719,"period":2720,"na":2721,"flera":2722,"hos":2723,"frem":2724,"dra":2725,"bok":2726,"tro":2727,"##veck":2728,"##urg":2729,"##ote":2730,"##rar":2731,"kraft":2732,"int":2733,"stør":2734,"##agen":2735,"mid":2736,"pre":2737,"tidig":2738,"mange":2739,"blant":2740,"ga":2741,"##bygg":2742,"repres":2743,"ingen":2744,"vikt":2745,"norge":2746,"tidlig":2747,"##hold":2748,"vaxt":2749,"sn":2750,"ry":2751,"ort":2752,"##anske":2753,"ye":2754,"##ba":2755,"bil":2756,"##erade":2757,"creek":2758,"hvor":2759,"##kar":2760,"##elser":2761,"##ura":2762,"##sekt":2763,"ald":2764,"##kom":2765,"sak":2766,"##ingar":2767,"basen":2768,"sar":2769,"##partem":2770,"##of":2771,"##agg":2772,"ka":2773,"rund":2774,"ben":2775,"##borg":2776,"hus":2777,"lite":2778,"intern":2779,"##ede":2780,"sas":2781,"krist":2782,"kir":2783,"##han":2784,"ro":2785,"omgivande":2786,"bredden":2787,"ele":2788,"medel":2789,"tidigare":2790,"##cker":2791,"dock":2792,"do":2793,"samma":2794,"##ate":2795,"##arta":2796,"skrev":2797,"grupp":2798,"ak":2799,"##ytt":2800,"tropiskt":2801,"##pe":2802,"##val":2803,"slutt":2804,"##ena":2805,"denna":2806,"kand":2807,"##mans":2808,"##ca":2809,"olika":2810,"fort":2811,"##co":2812,"henn":2813,"byg":2814,"##nes":2815,"befolk":2816,"##skol":2817,"fotb":2818,"##klar":2819,"##fer":2820,"austral":2821,"høy":2822,"alle":2823,"du":2824,"hemib":2825,"sina":2826,"##sing":2827,"##erat":2828,"count":2829,"ital":2830,"tog":2831,"##oreala":2832,"hemiboreala":2833,"##ester":2834,"john":2835,"tek":2836,"##ultur":2837,"skol":2838,"##sy":2839,"hoved":2840,"red":2841,"##etter":2842,"insekt":2843,"film":2844,"kn":2845,"engel":2846,"bergig":2847,"kong":2848,"utbredningsom":2849,"sag":2850,"vara":2851,"brasil":2852,"lok":2853,"##partementet":2854,"##oss":2855,"organ":2856,"ger":2857,"##ont":2858,"vaxtlighet":2859,"##rich":2860,"##ighet":2861,"mount":2862,"##ander":2863,"##ban":2864,"##ratt":2865,"##rift":2866,"artens":2867,"trad":2868,"stort":2869,"gav":2870,"kol":2871,"pal":2872,"frankrike":2873,"vi":2874,"fun":2875,"komp":2876,"que":2877,"fyl":2878,"namnet":2879,"utbredningsomrade":2880,"gener":2881,"2010":2882,"avrinningsomradet":2883,"hennes":2884,"store":2885,"##ones":2886,"gang":2887,"##oma":2888,"blandskog":2889,"##reg":2890,"##spel":2891,"##ubli":2892,"##ham":2893,"død":2894,"musik":2895,"jam":2896,"kin":2897,"##ongen":2898,"ob":2899,"kro":2900,"##iden":2901,"lin":2902,"tok":2903,"185":2904,"##minist":2905,"eks":2906,"ek":2907,"bild":2908,"##ey":2909,"##ira":2910,"byen":2911,"##ksjon":2912,"##rer":2913,"arean":2914,"cerro":2915,"ac":2916,"skog":2917,"##ers":2918,"fast":2919,"##fly":2920,"tal":2921,"##har":2922,"region":2923,"manga":2924,"syn":2925,"tot":2926,"##yra":2927,"selv":2928,"skalb":2929,"kommer":2930,"im":2931,"pop":2932,"##ugor":2933,"samhall":2934,"kam":2935,"prof":2936,"brit":2937,"tallet":2938,"30":2939,"ov":2940,"sjal":2941,"bru":2942,"administ":2943,"25":2944,"##mal":2945,"klimatet":2946,"##bo":2947,"##let":2948,"enn":2949,"##pa":2950,"id":2951,"2008":2952,"##mann":2953,"mex":2954,"forts":2955,"stora":2956,"kommune":2957,"dal":2958,"##pt":2959,"##che":2960,"senere":2961,"##eln":2962,"2000":2963,"stads":2964,"tillsam":2965,"sek":2966,"kort":2967,"tillsammans":2968,"##lan":2969,"##kter":2970,"fred":2971,"staden":2972,"div":2973,"##gr":2974,"##flugor":2975,"2006":2976,"hø":2977,"star":2978,"kung":2979,"##ors":2980,"forsam":2981,"alla":2982,"karl":2983,"sand":2984,"dessa":2985,"start":2986,"nation":2987,"gran":2988,"ko":2989,"departementet":2990,"2007":2991,"verd":2992,"##ondon":2993,"ban":2994,"savannklimat":2995,"##band":2996,"klubb":2997,"##eller":2998,"kap":2999,"satt":3000,"moder":3001,"ba":3002,"jak":3003,"innan":3004,"tyskland":3005,"tran":3006,"vit":3007,"blitt":3008,"fer":3009,"##rang":3010,"num":3011,"##bia":3012,"tidligere":3013,"bol":3014,"kultur":3015,"siden":3016,"london":3017,"##ace":3018,"mu":3019,"##lands":3020,"riks":3021,"noen":3022,"tan":3023,"tilb":3024,"universitet":3025,"##ering":3026,"flytt":3027,"##vet":3028,"sine":3029,"vir":3030,"nya":3031,"amp":3032,"##kn":3033,"2011":3034,"stapp":3035,"##raden":3036,"sub":3037,"ekonom":3038,"styr":3039,"jar":3040,"verk":3041,"##smarker":3042,"##aget":3043,"##legg":3044,"##ley":3045,"egen":3046,"##strom":3047,"##arden":3048,"##ografi":3049,"##one":3050,"von":3051,"representer":3052,"grasmarker":3053,"ke":3054,"helsing":3055,"varld":3056,"stappklimat":3057,"##iva":3058,"kallt":3059,"filmen":3060,"nær":3061,"mann":3062,"skalbagg":3063,"skalbaggsart":3064,"carl":3065,"exempel":3066,"kjent":3067,"kop":3068,"storb":3069,"##ish":3070,"##ktor":3071,"##ins":3072,"2009":3073,"annet":3074,"være":3075,"100":3076,"##skar":3077,"oppet":3078,"oly":3079,"##ksam":3080,"natt":3081,"##ros":3082,"kr":3083,"##ekk":3084,"rundt":3085,"##jade":3086,"christ":3087,"##inger":3088,"albumet":3089,"##alis":3090,"tred":3091,"##its":3092,"sock":3093,"##cher":3094,"##ij":3095,"2005":3096,"skal":3097,"can":3098,"##za":3099,"insektsart":3100,"cir":3101,"inst":3102,"disse":3103,"pe":3104,"##ritann":3105,"##blad":3106,"storbritann":3107,"##uter":3108,"2012":3109,"184":3110,"amerikansk":3111,"inv":3112,"deb":3113,"uten":3114,"##atus":3115,"iran":3116,"kina":3117,"dav":3118,"##lott":3119,"vatten":3120,"##skrig":3121,"pers":3122,"##aster":3123,"##djur":3124,"kunne":3125,"gallande":3126,"lj":3127,"ig":3128,"forek":3129,"norske":3130,"##ota":3131,"##20":3132,"##ons":3133,"halv":3134,"##ork":3135,"program":3136,"jap":3137,"##rott":3138,"##jør":3139,"flyg":3140,"##ninger":3141,"##ops":3142,"temper":3143,"plass":3144,"utt":3145,"hver":3146,"##ette":3147,"##jord":3148,"vært":3149,"samme":3150,"##alp":3151,"sydlig":3152,"str":3153,"buskland":3154,"##kur":3155,"busklandskap":3156,"##esh":3157,"vant":3158,"port":3159,"cal":3160,"ale":3161,"##lav":3162,"##sel":3163,"lo":3164,"tim":3165,"forl":3166,"mad":3167,"tar":3168,"##orna":3169,"##ologi":3170,"##sland":3171,"##rut":3172,"slakte":3173,"##ident":3174,"fatt":3175,"stil":3176,"foret":3177,"ark":3178,"##ipp":3179,"oper":3180,"oslo":3181,"21":3182,"milit":3183,"tri":3184,"sommer":3185,"distriktet":3186,"kant":3187,"ru":3188,"##orter":3189,"##enskap":3190,"2004":3191,"##istan":3192,"sing":3193,"##sar":3194,"##ationen":3195,"ses":3196,"je":3197,"##cent":3198,"kulle":3199,"pat":3200,"##ila":3201,"qu":3202,"gul":3203,"##raft":3204,"##ice":3205,"aret":3206,"kron":3207,"##vag":3208,"olymp":3209,"##rupp":3210,"vag":3211,"##anns":3212,"##cia":3213,"indones":3214,"vm":3215,"##ition":3216,"oken":3217,"skap":3218,"char":3219,"sma":3220,"mens":3221,"##part":3222,"sydvastra":3223,"ep":3224,"sang":3225,"ja":3226,"##ix":3227,"##olf":3228,"wal":3229,"vastlig":3230,"##hel":3231,"omfatt":3232,"bri":3233,"2016":3234,"hall":3235,"ung":3236,"studer":3237,"laget":3238,"24":3239,"tysk":3240,"svamp":3241,"##ua":3242,"begyn":3243,"italien":3244,"nordostra":3245,"ofte":3246,"##spr":3247,"alt":3248,"administrat":3249,"borjade":3250,"mod":3251,"##ides":3252,"##mus":3253,"tillhor":3254,"gikk":3255,"##ellt":3256,"okenklimat":3257,"helsingfors":3258,"##lac":3259,"noe":3260,"##sd":3261,"##ico":3262,"lever":3263,"##aler":3264,"system":3265,"##ori":3266,"dire":3267,"##esp":3268,"forekom":3269,"tiden":3270,"##erte":3271,"dj":3272,"##esi":3273,"if":3274,"gun":3275,"rio":3276,"gor":3277,"russ":3278,"fisk":3279,"##landsklimat":3280,"kamp":3281,"##ona":3282,"øst":3283,"##atet":3284,"1990":3285,"sjalv":3286,"leg":3287,"il":3288,"##øre":3289,"##lagt":3290,"stracker":3291,"span":3292,"##iar":3293,"##sch":3294,"nye":3295,"cor":3296,"dam":3297,"##uvudstaden":3298,"##vi":3299,"##lassen":3300,"mas":3301,"lovskog":3302,"willi":3303,"22":3304,"##ika":3305,"eta":3306,"##och":3307,"pri":3308,"##ux":3309,"##sst":3310,"2014":3311,"sle":3312,"com":3313,"england":3314,"pass":3315,"##sfor":3316,"ros":3317,"23":3318,"ul":3319,"##inga":3320,"kjen":3321,"ofta":3322,"indonesien":3323,"gift":3324,"##tte":3325,"arg":3326,"sim":3327,"##byg":3328,"183":3329,"jos":3330,"##hj":3331,"ars":3332,"##mat":3333,"bur":3334,"##odes":3335,"utvik":3336,"fire":3337,"##heran":3338,"forsamling":3339,"los":3340,"##ith":3341,"##aka":3342,"1980":3343,"nagra":3344,"samtid":3345,"sist":3346,"bla":3347,"samhallen":3348,"jakarta":3349,"profess":3350,"##ash":3351,"ska":3352,"stekel":3353,"medelhav":3354,"##mo":3355,"kateg":3356,"##ele":3357,"stod":3358,"tav":3359,"teheran":3360,"2013":3361,"##ach":3362,"##bert":3363,"##yc":3364,"air":3365,"popul":3366,"##ffe":3367,"utveck":3368,"##set":3369,"karri":3370,"januar":3371,"helt":3372,"##tor":3373,"##tes":3374,"medan":3375,"2015":3376,"##utom":3377,"park":3378,"sprak":3379,"nordvastra":3380,"stekelart":3381,"rod":3382,"sil":3383,"sten":3384,"##ønn":3385,"johan":3386,"##iken":3387,"rh":3388,"1970":3389,"ovrig":3390,"naturlig":3391,"persiska":3392,"aktiv":3393,"organis":3394,"##ementet":3395,"fag":3396,"##ars":3397,"gl":3398,"##inne":3399,"##we":3400,"kines":3401,"##mel":3402,"føl":3403,"klad":3404,"skj":3405,"##jet":3406,"gud":3407,"##oner":3408,"##like":3409,"##br":3410,"las":3411,"full":3412,"##vit":3413,"siste":3414,"##asjonen":3415,"hot":3416,"forsvar":3417,"##hl":3418,"##bol":3419,"allt":3420,"##shuvudstaden":3421,"ganger":3422,"##vo":3423,"vanlig":3424,"ekonomiska":3425,"##otter":3426,"sant":3427,"divis":3428,"totalt":3429,"forfatt":3430,"##øk":3431,"like":3432,"##steklar":3433,"city":3434,"area":3435,"##aga":3436,"ev":3437,"##rond":3438,"##ges":3439,"ford":3440,"landskapet":3441,"vok":3442,"fyra":3443,"##andet":3444,"medelhavsklimat":3445,"william":3446,"mac":3447,"##ioner":3448,"slik":3449,"1960":3450,"##sun":3451,"ville":3452,"mart":3453,"bare":3454,"op":3455,"##øde":3456,"26":3457,"28":3458,"##heter":3459,"kval":3460,"##ns":3461,"##kes":3462,"##lade":3463,"##una":3464,"##trad":3465,"2003":3466,"inlandsklimat":3467,"##oren":3468,"##fall":3469,"ast":3470,"##aceae":3471,"bandet":3472,"fall":3473,"2002":3474,"nok":3475,"##ric":3476,"europa":3477,"##kker":3478,"##vern":3479,"personer":3480,"aren":3481,"##illa":3482,"##sker":3483,"rak":3484,"varit":3485,"spelade":3486,"sov":3487,"samman":3488,"gro":3489,"gick":3490,"##jo":3491,"27":3492,"cirka":3493,"internation":3494,"lev":3495,"island":3496,"##asta":3497,"mosa":3498,"##gard":3499,"##iro":3500,"neder":3501,"bal":3502,"rett":3503,"##inner":3504,"bety":3505,"honom":3506,"klass":3507,"serien":3508,"tilbake":3509,"##alist":3510,"kalla":3511,"musikk":3512,"##burg":3513,"peter":3514,"##lam":3515,"##esten":3516,"##este":3517,"##ført":3518,"nasjon":3519,"soc":3520,"##bler":3521,"borjan":3522,"administrativ":3523,"dare":3524,"kunde":3525,"mai":3526,"navnet":3527,"deltok":3528,"##ucer":3529,"tempererat":3530,"##fin":3531,"##sprung":3532,"2001":3533,"største":3534,"##naden":3535,"2018":3536,"viktig":3537,"bed":3538,"nytt":3539,"gard":3540,"delav":3541,"mari":3542,"danmark":3543,"tekn":3544,"kladogram":3545,"##ita":3546,"##uth":3547,"ork":3548,"ursprung":3549,"ir":3550,"kunst":3551,"navn":3552,"##ilte":3553,"##vid":3554,"##bb":3555,"delavrinningsom":3556,"mosaik":3557,"bon":3558,"##sted":3559,"##egron":3560,"tredje":3561,"stadsegron":3562,"##ago":3563,"od":3564,"verksam":3565,"ytter":3566,"1999":3567,"varier":3568,"kur":3569,"darefter":3570,"skriv":3571,"##ynd":3572,"##igheter":3573,"##yll":3574,"ligg":3575,"##ias":3576,"##lege":3577,"##lev":3578,"fotball":3579,"sted":3580,"hela":3581,"##undet":3582,"##vn":3583,"skri":3584,"bara":3585,"##ies":3586,"muse":3587,"prin":3588,"gruppen":3589,"oppr":3590,"rel":3591,"##rog":3592,"##bin":3593,"##dal":3594,"##sert":3595,"2017":3596,"plats":3597,"##lagg":3598,"ander":3599,"##uler":3600,"bron":3601,"vinter":3602,"hy":3603,"eli":3604,"##hov":3605,"fore":3606,"##jel":3607,"##kop":3608,"gote":3609,"paul":3610,"sem":3611,"sett":3612,"delavrinningsomrade":3613,"president":3614,"##fil":3615,"roman":3616,"australien":3617,"bid":3618,"##ise":3619,"vel":3620,"grad":3621,"##upp":3622,"foren":3623,"først":3624,"innen":3625,"##adem":3626,"mun":3627,"goteborg":3628,"klubben":3629,"##ben":3630,"sø":3631,"sær":3632,"##roll":3633,"hur":3634,"glo":3635,"##aria":3636,"181":3637,"##oni":3638,"forf":3639,"##album":3640,"arter":3641,"fjell":3642,"stand":3643,"##arbet":3644,"ass":3645,"konkur":3646,"socken":3647,"##sg":3648,"forekommer":3649,"chile":3650,"myr":3651,"##ider":3652,"##off":3653,"tit":3654,"paris":3655,"mont":3656,"innebar":3657,"##elige":3658,"øy":3659,"alger":3660,"##kj":3661,"kh":3662,"##lad":3663,"gunung":3664,"##oth":3665,"arkite":3666,"##udd":3667,"ratt":3668,"slapp":3669,"29":3670,"##atan":3671,"##vatt":3672,"igjen":3673,"publi":3674,"##aland":3675,"valg":3676,"##rol":3677,"##kkje":3678,"##okrat":3679,"krit":3680,"svart":3681,"##ama":3682,"fal":3683,"bj":3684,"##bil":3685,"##zz":3686,"##ure":3687,"fanns":3688,"##ustri":3689,"langs":3690,"rock":3691,"spind":3692,"go":3693,"kvar":3694,"##si":3695,"##ive":3696,"inkl":3697,"kring":3698,"lik":3699,"##arbeid":3700,"##rika":3701,"tom":3702,"ib":3703,"prakt":3704,"kust":3705,"bran":3706,"monsun":3707,"rev":3708,"tillegg":3709,"kab":3710,"##ath":3711,"50":3712,"##ationer":3713,"pse":3714,"##onia":3715,"hu":3716,"svar":3717,"ikkje":3718,"etabler":3719,"sovjet":3720,"framst":3721,"tak":3722,"##uren":3723,"##jd":3724,"##ceae":3725,"kategor":3726,"ram":3727,"historia":3728,"##ksom":3729,"johann":3730,"grav":3731,"regnskog":3732,"1992":3733,"verden":3734,"monsunklimat":3735,"bul":3736,"##ublik":3737,"##cis":3738,"bore":3739,"31":3740,"pan":3741,"##oster":3742,"##namn":3743,"##iens":3744,"1998":3745,"eld":3746,"##ward":3747,"rol":3748,"tel":3749,"##pen":3750,"2019":3751,"varm":3752,"pris":3753,"februar":3754,"fang":3755,"1994":3756,"##ølv":3757,"langt":3758,"bef":3759,"georg":3760,"elekt":3761,"ii":3762,"deras":3763,"##iko":3764,"##fordes":3765,"bry":3766,"sex":3767,"klar":3768,"ok":3769,"##eph":3770,"##kv":3771,"sty":3772,"hor":3773,"##ain":3774,"1900":3775,"desember":3776,"##iel":3777,"lind":3778,"mich":3779,"song":3780,"historie":3781,"##ktar":3782,"##ps":3783,"teg":3784,"europe":3785,"1996":3786,"vaxtart":3787,"fe":3788,"##stra":3789,"##uel":3790,"nom":3791,"ven":3792,"pseud":3793,"yt":3794,"##use":3795,"luft":3796,"##ress":3797,"tex":3798,"avg":3799,"gal":3800,"thom":3801,"##djursart":3802,"##jarn":3803,"bort":3804,"ras":3805,"##ze":3806,"##delen":3807,"ist":3808,"mak":3809,"jo":3810,"bre":3811,"finnes":3812,"west":3813,"##cer":3814,"##svar":3815,"anvands":3816,"bay":3817,"mitt":3818,"vill":3819,"##arkt":3820,"len":3821,"løp":3822,"gjort":3823,"roll":3824,"##drag":3825,"henne":3826,"pros":3827,"##iter":3828,"##veg":3829,"sasongen":3830,"##chen":3831,"skip":3832,"hele":3833,"fransk":3834,"mc":3835,"unge":3836,"pra":3837,"bod":3838,"##ommun":3839,"brukt":3840,"##meh":3841,"##orer":3842,"result":3843,"teater":3844,"delar":3845,"litter":3846,"##jerne":3847,"alex":3848,"##ino":3849,"##stil":3850,"##erne":3851,"##iat":3852,"tall":3853,"idag":3854,"hett":3855,"vet":3856,"langd":3857,"mol":3858,"ti":3859,"nummer":3860,"pet":3861,"norrut":3862,"##ani":3863,"perioden":3864,"180":3865,"regnskogsklimat":3866,"leder":3867,"skar":3868,"storbritannien":3869,"1991":3870,"kantonen":3871,"countyt":3872,"182":3873,"eftersom":3874,"##gere":3875,"general":3876,"##igen":3877,"lund":3878,"ton":3879,"##lut":3880,"##usjon":3881,"ner":3882,"##bec":3883,"1997":3884,"nagot":3885,"phil":3886,"soderut":3887,"##gende":3888,"1995":3889,"##ea":3890,"arab":3891,"##itar":3892,"##organ":3893,"sentr":3894,"york":3895,"chesh":3896,"ons":3897,"endast":3898,"##helm":3899,"##forb":3900,"boreala":3901,"##serv":3902,"vert":3903,"delstat":3904,"##ios":3905,"fotboll":3906,"flod":3907,"tatt":3908,"1993":3909,"mott":3910,"1950":3911,"pos":3912,"jarn":3913,"mø":3914,"rober":3915,"meg":3916,"menne":3917,"##eri":3918,"sur":3919,"gora":3920,"##bel":3921,"##yrka":3922,"lø":3923,"don":3924,"##orge":3925,"fest":3926,"##ruktbar":3927,"jur":3928,"uppg":3929,"##bor":3930,"##ko":3931,"sverig":3932,"ret":3933,"##ign":3934,"engelsk":3935,"lou":3936,"omrade":3937,"##uksjon":3938,"##port":3939,"avsl":3940,"bos":3941,"priv":3942,"km²":3943,"cheshmeh":3944,"uts":3945,"##ører":3946,"##kta":3947,"##ager":3948,"1988":3949,"we":3950,"nederland":3951,"redan":3952,"rekke":3953,"professor":3954,"britt":3955,"##sc":3956,"anna":3957,"ky":3958,"##iana":3959,"county":3960,"est":3961,"verdens":3962,"vol":3963,"beste":3964,"##ini":3965,"##under":3966,"dat":3967,"##ror":3968,"gull":3969,"vap":3970,"sidan":3971,"stift":3972,"antal":3973,"##erg":3974,"spec":3975,"##ockey":3976,"##que":3977,"dol":3978,"##arande":3979,"##tra":3980,"blad":3981,"##omy":3982,"slag":3983,"iuc":3984,"ofruktbar":3985,"##skri":3986,"##heim":3987,"samband":3988,"##anter":3989,"##ppet":3990,"##rav":3991,"##adi":3992,"jon":3993,"##handling":3994,"spilte":3995,"##ensen":3996,"bat":3997,"grev":3998,"colom":3999,"ster":4000,"iucn":4001,"1800":4002,"stam":4003,"liten":4004,"glob":4005,"##laget":4006,"gi":4007,"##dde":4008,"saint":4009,"aldre":4010,"##stein":4011,"veg":4012,"##elli":4013,"cent":4014,"##ht":4015,"##amot":4016,"##bro":4017,"##ept":4018,"##ney":4019,"1971":4020,"##af":4021,"gangen":4022,"##vel":4023,"1989":4024,"tjan":4025,"##landet":4026,"##pelare":4027,"##inister":4028,"ren":4029,"mexico":4030,"##amer":4031,"ungdom":4032,"lange":4033,"##vest":4034,"sna":4035,"quebec":4036,"##ng":4037,"##amen":4038,"cl":4039,"fre":4040,"matte":4041,"fr":4042,"##iserar":4043,"regjer":4044,"##hen":4045,"##alder":4046,"instit":4047,"djur":4048,"tap":4049,"##stre":4050,"40":4051,"##als":4052,"##anda":4053,"stre":4054,"ulike":4055,"dy":4056,"ni":4057,"##ram":4058,"##emp":4059,"hektar":4060,"##gj":4061,"##ria":4062,"##styr":4063,"sveriges":4064,"##iteten":4065,"vidare":4066,"arene":4067,"mur":4068,"bib":4069,"##ras":4070,"post":4071,"##seende":4072,"try":4073,"##bu":4074,"via":4075,"1984":4076,"##cus":4077,"osterut":4078,"##olit":4079,"##ood":4080,"brasilien":4081,"lam":4082,"mater":4083,"vasterut":4084,"##lis":4085,"koh":4086,"##len":4087,"unders":4088,"vik":4089,"##age":4090,"relig":4091,"george":4092,"##anden":4093,"leng":4094,"##lat":4095,"vissa":4096,"##50":4097,"fukt":4098,"stø":4099,"utd":4100,"mic":4101,"##asa":4102,"##vard":4103,"turner":4104,"##ox":4105,"gamle":4106,"##utveck":4107,"##sket":4108,"amerikanske":4109,"bakgr":4110,"##ism":4111,"guvern":4112,"und":4113,"erik":4114,"##itz":4115,"##opter":4116,"lak":4117,"robert":4118,"fyr":4119,"maria":4120,"##unkt":4121,"rec":4122,"gt":4123,"tyske":4124,"bir":4125,"arrang":4126,"##roducer":4127,"1920":4128,"##osof":4129,"spiller":4130,"brun":4131,"litt":4132,"lt":4133,"##til":4134,"##heng":4135,"moj":4136,"større":4137,"1987":4138,"offent":4139,"christian":4140,"milli":4141,"sista":4142,"vad":4143,"hum":4144,"##uan":4145,"##foren":4146,"##ole":4147,"##sprak":4148,"prob":4149,"1986":4150,"produs":4151,"strid":4152,"nagon":4153,"##kket":4154,"rum":4155,"##nade":4156,"afg":4157,"##orden":4158,"##az":4159,"arkitekt":4160,"vic":4161,"enda":4162,"##yo":4163,"topp":4164,"1940":4165,"##plass":4166,"psy":4167,"miss":4168,"##iskop":4169,"##staende":4170,"cap":4171,"##str":4172,"##eta":4173,"spar":4174,"##ifl":4175,"forbund":4176,"hast":4177,"betyd":4178,"tillb":4179,"1930":4180,"stall":4181,"gamla":4182,"reser":4183,"romer":4184,"##ete":4185,"guld":4186,"##osp":4187,"bada":4188,"begynte":4189,"ten":4190,"opprinn":4191,"hund":4192,"##øst":4193,"ansvar":4194,"##forande":4195,"1972":4196,"sym":4197,"argent":4198,"høg":4199,"prem":4200,"##eren":4201,"fas":4202,"ent":4203,"deres":4204,"døde":4205,"##ogn":4206,"inkluder":4207,"1985":4208,"stats":4209,"##sport":4210,"ovrigt":4211,"berlin":4212,"slutet":4213,"##omen":4214,"##uten":4215,"##ario":4216,"national":4217,"riket":4218,"effe":4219,"1974":4220,"##eh":4221,"mis":4222,"1968":4223,"ytterlig":4224,"pas":4225,"camp":4226,"##arktis":4227,"varje":4228,"##idler":4229,"##gor":4230,"##ima":4231,"##anth":4232,"lav":4233,"kalt":4234,"utgav":4235,"500":4236,"##rob":4237,"indiv":4238,"##uer":4239,"kyrkan":4240,"##ument":4241,"##kan":4242,"mexiko":4243,"##orp":4244,"friid":4245,"representerte":4246,"grek":4247,"blei":4248,"nil":4249,"hard":4250,"befolkningen":4251,"afghan":4252,"##nam":4253,"typ":4254,"sjuk":4255,"alf":4256,"colum":4257,"upps":4258,"rab":4259,"overt":4260,"jac":4261,"slott":4262,"##fjord":4263,"##alj":4264,"1979":4265,"betydel":4266,"infor":4267,"bog":4268,"biografi":4269,"spor":4270,"##ema":4271,"##lades":4272,"republi":4273,"sad":4274,"##plan":4275,"kategoriserar":4276,"##cken":4277,"##yttet":4278,"internasjon":4279,"179":4280,"##ode":4281,"tru":4282,"##ebel":4283,"delstatshuvudstaden":4284,"vilken":4285,"middel":4286,"hjem":4287,"1976":4288,"1982":4289,"1983":4290,"deretter":4291,"##sut":4292,"sju":4293,"##sby":4294,"dok":4295,"deltog":4296,"ferd":4297,"grand":4298,"mannisk":4299,"##rada":4300,"##uch":4301,"##bladig":4302,"sarsk":4303,"spanien":4304,"istallet":4305,"skil":4306,"forv":4307,"ide":4308,"ring":4309,"rich":4310,"dyn":4311,"kallas":4312,"##orea":4313,"pi":4314,"##ativt":4315,"les":4316,"##asjoner":4317,"dr":4318,"fortsatt":4319,"jean":4320,"david":4321,"##isen":4322,"distrikt":4323,"alder":4324,"produkt":4325,"1981":4326,"afghanistan":4327,"tyska":4328,"1945":4329,"stockholms":4330,"befolknings":4331,"##elart":4332,"##utveckling":4333,"1973":4334,"darfor":4335,"landslag":4336,"##verket":4337,"1964":4338,"pot":4339,"sum":4340,"bergen":4341,"fortsatte":4342,"lyck":4343,"fart":4344,"##isi":4345,"fab":4346,"fjer":4347,"##nader":4348,"##ank":4349,"##bild":4350,"tag":4351,"##hjart":4352,"##smann":4353,"thomas":4354,"##eland":4355,"##car":4356,"laten":4357,"filosof":4358,"2020":4359,"##isering":4360,"ror":4361,"nattfly":4362,"bror":4363,"utanfor":4364,"##andra":4365,"politiker":4366,"pla":4367,"##huset":4368,"##fal":4369,"##sminister":4370,"skades":4371,"job":4372,"##inen":4373,"stav":4374,"motor":4375,"norges":4376,"1975":4377,"1969":4378,"magn":4379,"super":4380,"nat":4381,"##inal":4382,"innbyg":4383,"1967":4384,"##vat":4385,"##rans":4386,"##ellen":4387,"kons":4388,"##ova":4389,"tol":4390,"dikt":4391,"barr":4392,"amb":4393,"uk":4394,"utgiv":4395,"bill":4396,"angel":4397,"##ski":4398,"industri":4399,"subt":4400,"lud":4401,"##ci":4402,"rid":4403,"fleste":4404,"1978":4405,"##ense":4406,"1977":4407,"##skolan":4408,"blom":4409,"tj":4410,"videre":4411,"akt":4412,"##innare":4413,"1952":4414,"long":4415,"##mos":4416,"mye":4417,"ovan":4418,"##horningar":4419,"slaget":4420,"hom":4421,"hed":4422,"nattflyn":4423,"kil":4424,"fant":4425,"60":4426,"gir":4427,"##ourn":4428,"##isten":4429,"forn":4430,"begge":4431,"##opsis":4432,"##stan":4433,"##rim":4434,"samling":4435,"landsk":4436,"jag":4437,"heter":4438,"vapen":4439,"##fekt":4440,"avvatt":4441,"utbild":4442,"gol":4443,"##joner":4444,"##icus":4445,"eksempel":4446,"spindelart":4447,"##sett":4448,"##hu":4449,"##anten":4450,"lek":4451,"øya":4452,"cup":4453,"##ruppen":4454,"##asit":4455,"egyp":4456,"bus":4457,"delas":4458,"hopp":4459,"divisionen":4460,"derfor":4461,"utgitt":4462,"handling":4463,"##jekt":4464,"enk":4465,"cast":4466,"beskriv":4467,"familien":4468,"##bart":4469,"river":4470,"university":4471,"##elp":4472,"yng":4473,"forhold":4474,"ish":4475,"disk":4476,"arbeidet":4477,"1962":4478,"1965":4479,"##iella":4480,"run":4481,"utseende":4482,"rost":4483,"bad":4484,"kvinnor":4485,"##famil":4486,"send":4487,"aut":4488,"uttry":4489,"charles":4490,"british":4491,"dri":4492,"universitetet":4493,"kry":4494,"##hjartbladig":4495,"bygget":4496,"##delt":4497,"plac":4498,"##usen":4499,"bern":4500,"brasilia":4501,"##enten":4502,"##iti":4503,"##ano":4504,"pu":4505,"sport":4506,"periodiskt":4507,"##rader":4508,"##rot":4509,"##skrift":4510,"brev":4511,"vald":4512,"##hoj":4513,"imidler":4514,"##bok":4515,"##uta":4516,"##fj":4517,"##lit":4518,"imp":4519,"##ikken":4520,"arrond":4521,"##fot":4522,"imidlertid":4523,"arrondiss":4524,"##liv":4525,"##ball":4526,"dermed":4527,"##irk":4528,"bom":4529,"pen":4530,"tillverk":4531,"##ule":4532,"titt":4533,"sesongen":4534,"insp":4535,"folket":4536,"##oden":4537,"##øen":4538,"##fi":4539,"mes":4540,"nadde":4541,"sold":4542,"nr":4543,"ont":4544,"wilhelm":4545,"##jarvi":4546,"##erad":4547,"cm":4548,"##ydd":4549,"svampart":4550,"rob":4551,"gif":4552,"inf":4553,"arm":4554,"svært":4555,"##bi":4556,"##enser":4557,"katol":4558,"##stroms":4559,"reproducer":4560,"trol":4561,"lamn":4562,"##spiller":4563,"dann":4564,"##ifor":4565,"boken":4566,"us":4567,"##isa":4568,"kallar":4569,"latin":4570,"##hamn":4571,"tilh":4572,"ljus":4573,"spelar":4574,"innehall":4575,"aller":4576,"##ji":4577,"seks":4578,"strand":4579,"cy":4580,"sos":4581,"kristian":4582,"##ystem":4583,"skiv":4584,"dotter":4585,"sat":4586,"kabul":4587,"franska":4588,"direkt":4589,"omt":4590,"matare":4591,"##skriget":4592,"befolkningsutveckling":4593,"partiet":4594,"south":4595,"egent":4596,"##bru":4597,"##fest":4598,"uppsala":4599,"1966":4600,"riksdag":4601,"sommar":4602,"colombia":4603,"##ordning":4604,"##oder":4605,"##stero":4606,"##ente":4607,"karakt":4608,"##iaceae":4609,"##ogs":4610,"fuktigt":4611,"dansk":4612,"##otten":4613,"##isert":4614,"##øya":4615,"fys":4616,"##emat":4617,"##wn":4618,"##unnet":4619,"subtropiskt":4620,"exp":4621,"medverk":4622,"tam":4623,"##cha":4624,"finalen":4625,"martin":4626,"##ev":4627,"##igheten":4628,"##iger":4629,"##edon":4630,"mand":4631,"parti":4632,"##tak":4633,"##ador":4634,"nast":4635,"madrid":4636,"178":4637,"spesi":4638,"##omyia":4639,"##kraft":4640,"startet":4641,"økonom":4642,"vers":4643,"indien":4644,"barrskog":4645,"tradisjon":4646,"alli":4647,"uppta":4648,"traf":4649,"bosn":4650,"##skaper":4651,"hitt":4652,"bag":4653,"##los":4654,"dagens":4655,"framfor":4656,"arrondissementet":4657,"skul":4658,"krav":4659,"james":4660,"just":4661,"##ckt":4662,"japan":4663,"reproducerande":4664,"##vert":4665,"prote":4666,"konf":4667,"sent":4668,"kustklimat":4669,"##opro":4670,"##skan":4671,"past":4672,"hit":4673,"fekk":4674,"sw":4675,"isra":4676,"tidleg":4677,"dor":4678,"studier":4679,"dip":4680,"war":4681,"karriar":4682,"##kor":4683,"##øver":4684,"trom":4685,"gust":4686,"columbia":4687,"vat":4688,"annan":4689,"##ugh":4690,"hill":4691,"##وه":4692,"fleire":4693,"louis":4694,"pil":4695,"##stid":4696,"sluttar":4697,"øv":4698,"##unta":4699,"framgang":4700,"provincia":4701,"##ange":4702,"##mast":4703,"forskjel":4704,"##vande":4705,"motstand":4706,"adel":4707,"fakt":4708,"177":4709,"norm":4710,"tett":4711,"##indlar":4712,"slutten":4713,"##cka":4714,"##itu":4715,"##igur":4716,"##adels":4717,"sønn":4718,"oversatt":4719,"bud":4720,"globalt":4721,"##uts":4722,"mestadels":4723,"mos":4724,"mountain":4725,"1956":4726,"herc":4727,"serie":4728,"cla":4729,"##iri":4730,"ontario":4731,"##mon":4732,"##pper":4733,"1963":4734,"##grupp":4735,"energ":4736,"ytan":4737,"hyp":4738,"amerikanska":4739,"fel":4740,"løpet":4741,"1948":4742,"##skraft":4743,"gustav":4744,"##histor":4745,"samtidigt":4746,"##ement":4747,"##ty":4748,"##sman":4749,"lys":4750,"##vist":4751,"##vig":4752,"##iy":4753,"kirke":4754,"400":4755,"az":4756,"got":4757,"##ags":4758,"fir":4759,"offic":4760,"engelska":4761,"##bas":4762,"santa":4763,"beslut":4764,"max":4765,"wor":4766,"lagt":4767,"##iste":4768,"ungefar":4769,"##eck":4770,"koud":4771,"tab":4772,"65":4773,"eget":4774,"lær":4775,"##pan":4776,"stem":4777,"vilka":4778,"mik":4779,"side":4780,"social":4781,"##bur":4782,"hjalp":4783,"1939":4784,"bildades":4785,"basta":4786,"back":4787,"##oj":4788,"vattnet":4789,"kinesiska":4790,"##hr":4791,"utgor":4792,"argentina":4793,"kre":4794,"##hund":4795,"elva":4796,"hert":4797,"fried":4798,"klassen":4799,"hold":4800,"skott":4801,"hamn":4802,"jud":4803,"byggdes":4804,"blivit":4805,"1961":4806,"##skil":4807,"##skt":4808,"sve":4809,"##bergs":4810,"jer":4811,"##rades":4812,"forfatter":4813,"minst":4814,"ze":4815,"fredrik":4816,"ali":4817,"##gt":4818,"olympiska":4819,"64":4820,"##alla":4821,"britiske":4822,"styrk":4823,"ytterligare":4824,"omraden":4825,"ox":4826,"##rov":4827,"##cho":4828,"lokal":4829,"santi":4830,"handel":4831,"##istisk":4832,"gitt":4833,"nuv":4834,"cro":4835,"allman":4836,"langhorningar":4837,"ou":4838,"krigen":4839,"##ingene":4840,"kart":4841,"300":4842,"##lden":4843,"##lov":4844,"menn":4845,"franske":4846,"savannskog":4847,"gitar":4848,"##ismen":4849,"70":4850,"jern":4851,"journ":4852,"luc":4853,"##fol":4854,"1958":4855,"represent":4856,"jes":4857,"ordet":4858,"opprett":4859,"kropp":4860,"kyrka":4861,"brukes":4862,"##usa":4863,"ibland":4864,"matt":4865,"loma":4866,"##sid":4867,"forbind":4868,"##mask":4869,"joseph":4870,"nuvarande":4871,"ped":4872,"enkel":4873,"1912":4874,"trots":4875,"alexander":4876,"inform":4877,"##isse":4878,"ker":4879,"vas":4880,"salt":4881,"deler":4882,"##jef":4883,"versjon":4884,"sund":4885,"##lund":4886,"litteratur":4887,"1936":4888,"##ions":4889,"##cke":4890,"radio":4891,"##det":4892,"hvert":4893,"kjøp":4894,"ledamot":4895,"belg":4896,"##oul":4897,"wien":4898,"kul":4899,"##ael":4900,"bost":4901,"johannes":4902,"djup":4903,"skrevet":4904,"##nevn":4905,"fur":4906,"særlig":4907,"##aggar":4908,"sab":4909,"##ocko":4910,"samf":4911,"santiago":4912,"førte":4913,"slekt":4914,"##tern":4915,"problem":4916,"##yer":4917,"stein":4918,"1938":4919,"rud":4920,"israel":4921,"tillbaka":4922,"henry":4923,"hatt":4924,"80":4925,"innbyggere":4926,"museum":4927,"##ocker":4928,"##staf":4929,"##back":4930,"##orten":4931,"chef":4932,"##ague":4933,"##stam":4934,"ordningen":4935,"##hojden":4936,"##way":4937,"dessutom":4938,"es":4939,"francis":4940,"flyttade":4941,"1910":4942,"makt":4943,"friidrett":4944,"not":4945,"##do":4946,"##agare":4947,"um":4948,"##ytor":4949,"queb":4950,"funger":4951,"vind":4952,"1957":4953,"varierad":4954,"orig":4955,"bou":4956,"1941":4957,"##ool":4958,"bergst":4959,"##jor":4960,"##sek":4961,"fordi":4962,"igen":4963,"formula":4964,"##elles":4965,"lab":4966,"mulig":4967,"vari":4968,"##isp":4969,"orden":4970,"ful":4971,"##add":4972,"##ritar":4973,"app":4974,"gym":4975,"tjen":4976,"##lek":4977,"myn":4978,"1944":4979,"hovud":4980,"##ovina":4981,"ordforande":4982,"##shus":4983,"##formen":4984,"uppstroms":4985,"horn":4986,"refer":4987,"dog":4988,"ran":4989,"beratt":4990,"studerade":4991,"##stritar":4992,"slatt":4993,"##fart":4994,"richard":4995,"1959":4996,"kanda":4997,"##erer":4998,"##isjonen":4999,"##nelsen":5000,"herceg":5001,"##olen":5002,"##oret":5003,"alp":5004,"quebrada":5005,"leon":5006,"ott":5007,"darmed":5008,"oppdag":5009,"smhi":5010,"anton":5011,"kallade":5012,"it":5013,"afrika":5014,"forskjellige":5015,"##yggor":5016,"jawa":5017,"marocko":5018,"##ju":5019,"armen":5020,"##jarnen":5021,"jab":5022,"friedrich":5023,"sein":5024,"spela":5025,"##edde":5026,"bygd":5027,"prins":5028,"##ye":5029,"farg":5030,"black":5031,"##spindlar":5032,"1918":5033,"storbritannia":5034,"##iforn":5035,"##skola":5036,"revol":5037,"kunna":5038,"##inge":5039,"1914":5040,"##ado":5041,"rabat":5042,"mare":5043,"huset":5044,"hyd":5045,"lapp":5046,"tvahjartbladig":5047,"udde":5048,"##ikker":5049,"punta":5050,"##inst":5051,"##føl":5052,"1946":5053,"##oper":5054,"1947":5055,"##oka":5056,"##gav":5057,"ax":5058,"##urt":5059,"vattenytor":5060,"alv":5061,"produksjon":5062,"##eringen":5063,"##oprocent":5064,"edward":5065,"##gren":5066,"##aris":5067,"sjoprocent":5068,"pap":5069,"inled":5070,"smith":5071,"##jas":5072,"henrik":5073,"ins":5074,"##skole":5075,"##cel":5076,"cat":5077,"eup":5078,"ori":5079,"mynd":5080,"vetenskap":5081,"minn":5082,"##ito":5083,"##inia":5084,"##smal":5085,"gron":5086,"sku":5087,"schwe":5088,"##anus":5089,"raknas":5090,"ec":5091,"fork":5092,"##oker":5093,"1928":5094,"hercegovina":5095,"gem":5096,"pin":5097,"medelhojden":5098,"vars":5099,"##komm":5100,"##ogen":5101,"vaxter":5102,"bosnien":5103,"riv":5104,"ara":5105,"tu":5106,"##ior":5107,"iii":5108,"##maren":5109,"forfattare":5110,"##plats":5111,"cam":5112,"ryska":5113,"##fte":5114,"sølv":5115,"debuter":5116,"##agn":5117,"rapp":5118,"regel":5119,"ledde":5120,"gil":5121,"league":5122,"##lingar":5123,"spilt":5124,"kas":5125,"kast":5126,"##ope":5127,"bot":5128,"eksp":5129,"livet":5130,"mask":5131,"studio":5132,"annen":5133,"##holl":5134,"godt":5135,"slapptes":5136,"##lipp":5137,"fylkes":5138,"1924":5139,"##arar":5140,"##ela":5141,"##system":5142,"1955":5143,"mester":5144,"scen":5145,"##horde":5146,"##hang":5147,"##jev":5148,"##wan":5149,"north":5150,"modern":5151,"ober":5152,"sanger":5153,"##øt":5154,"1949":5155,"parlam":5156,"##ight":5157,"avs":5158,"##bane":5159,"##organis":5160,"1954":5161,"1908":5162,"##roc":5163,"landets":5164,"nett":5165,"##ansen":5166,"##lom":5167,"buk":5168,"##out":5169,"psyk":5170,"ryss":5171,"saga":5172,"por":5173,"antarktis":5174,"1942":5175,"politisk":5176,"##ny":5177,"spe":5178,"midt":5179,"tet":5180,"verdenskrig":5181,"au":5182,"kjente":5183,"teng":5184,"fylke":5185,"##havet":5186,"##ose":5187,"silver":5188,"miljoner":5189,"##liote":5190,"behov":5191,"##oter":5192,"sall":5193,"central":5194,"konta":5195,"privat":5196,"territ":5197,"blod":5198,"##edes":5199,"gh":5200,"##60":5201,"##osten":5202,"tjanst":5203,"##ington":5204,"ain":5205,"##svaxtart":5206,"##ilis":5207,"sarskilt":5208,"##jung":5209,"##farande":5210,"bakgrunn":5211,"kvalif":5212,"##ulus":5213,"italia":5214,"garden":5215,"trond":5216,"victor":5217,"##ited":5218,"resultat":5219,"filmer":5220,"flesta":5221,"australia":5222,"cha":5223,"utover":5224,"punkt":5225,"##iere":5226,"##likt":5227,"bogota":5228,"35":5229,"akadem":5230,"nic":5231,"arbetade":5232,"moderne":5233,"demokrat":5234,"biskop":5235,"##avax":5236,"##fjaril":5237,"him":5238,"kjem":5239,"##førte":5240,"arrangert":5241,"##ideer":5242,"samtidig":5243,"neg":5244,"##rost":5245,"sovjetun":5246,"##bat":5247,"1919":5248,"1933":5249,"##edel":5250,"1917":5251,"1953":5252,"forest":5253,"gjerne":5254,"##øv":5255,"kanal":5256,"##staur":5257,"##klubb":5258,"astero":5259,"individ":5260,"##ierna":5261,"##rasjon":5262,"##alte":5263,"##hop":5264,"pav":5265,"bab":5266,"søn":5267,"ot":5268,"##oides":5269,"fiskart":5270,"stjarn":5271,"sara":5272,"1913":5273,"##essen":5274,"##fag":5275,"bek":5276,"ken":5277,"orkideer":5278,"bifl":5279,"##raket":5280,"slekten":5281,"1932":5282,"drev":5283,"1937":5284,"##aret":5285,"##fjarilar":5286,"nab":5287,"debut":5288,"tang":5289,"##skj":5290,"kraftdjursart":5291,"1911":5292,"1943":5293,"defin":5294,"##aljer":5295,"کوه":5296,"ple":5297,"##anen":5298,"flor":5299,"##øker":5300,"master":5301,"##oa":5302,"songen":5303,"anstall":5304,"historik":5305,"vux":5306,"##ckor":5307,"dre":5308,"dig":5309,"##film":5310,"øn":5311,"samarbeid":5312,"##iserte":5313,"##ville":5314,"mek":5315,"skall":5316,"saman":5317,"holl":5318,"programmet":5319,"##inus":5320,"##ment":5321,"stedet":5322,"##mester":5323,"##vers":5324,"district":5325,"##cy":5326,"##krig":5327,"lander":5328,"##loss":5329,"prest":5330,"malmo":5331,"##risk":5332,"arke":5333,"kost":5334,"1951":5335,"oft":5336,"##arer":5337,"fortfarande":5338,"##ellet":5339,"jack":5340,"##uba":5341,"bestem":5342,"##insk":5343,"slutade":5344,"langre":5345,"kri":5346,"provinshuvudstaden":5347,"1934":5348,"alltid":5349,"bestod":5350,"##cc":5351,"1700":5352,"kontroll":5353,"##fen":5354,"asp":5355,"foretag":5356,"respe":5357,"##vei":5358,"brook":5359,"1929":5360,"maur":5361,"##enner":5362,"##hora":5363,"desa":5364,"schweiz":5365,"bidrag":5366,"but":5367,"1935":5368,"numera":5369,"bergstopp":5370,"hojd":5371,"vist":5372,"astron":5373,"##ords":5374,"##espiller":5375,"algeriet":5376,"##gangen":5377,"hend":5378,"##inget":5379,"ersatt":5380,"avdel":5381,"##varg":5382,"innehaller":5383,"basert":5384,"sangen":5385,"##jø":5386,"nik":5387,"##lor":5388,"##30":5389,"ri":5390,"flyttet":5391,"avrinningsomraden":5392,"bjorn":5393,"forklar":5394,"mord":5395,"borg":5396,"orkid":5397,"noreg":5398,"1927":5399,"##ssp":5400,"90":5401,"kolon":5402,"##ni":5403,"##nat":5404,"varldskriget":5405,"dels":5406,"lett":5407,"hab":5408,"division":5409,"roy":5410,"selskapet":5411,"##ampar":5412,"gifte":5413,"gustaf":5414,"##partiet":5415,"konstnar":5416,"##istiska":5417,"##inna":5418,"##mor":5419,"##ennis":5420,"##oen":5421,"##roller":5422,"1926":5423,"varav":5424,"##plat":5425,"skild":5426,"##arken":5427,"mala":5428,"republiken":5429,"kvinner":5430,"tunn":5431,"##sund":5432,"dagen":5433,"orkideart":5434,"motsvar":5435,"##forde":5436,"delhi":5437,"##rek":5438,"angrep":5439,"maste":5440,"ovriga":5441,"1921":5442,"familj":5443,"##rent":5444,"delvis":5445,"overs":5446,"##zi":5447,"niva":5448,"##isme":5449,"##stend":5450,"##edd":5451,"test":5452,"aker":5453,"drep":5454,"eu":5455,"##spinnare":5456,"ishockey":5457,"##ulata":5458,"tidlegare":5459,"pier":5460,"avvattnar":5461,"##arp":5462,"1925":5463,"1922":5464,"##øs":5465,"ball":5466,"ident":5467,"flodar":5468,"restaur":5469,"utfor":5470,"1906":5471,"aff":5472,"varmt":5473,"##reh":5474,"##flyt":5475,"##ordes":5476,"##rys":5477,"##vok":5478,"##skip":5479,"united":5480,"##orf":5481,"areal":5482,"ole":5483,"##mes":5484,"dyr":5485,"rot":5486,"##chus":5487,"ske":5488,"samarbet":5489,"##rus":5490,"bodde":5491,"1907":5492,"student":5493,"kompon":5494,"slo":5495,"brand":5496,"biflodes":5497,"biflodesordning":5498,"behand":5499,"jabal":5500,"hær":5501,"fla":5502,"##iidae":5503,"ej":5504,"wh":5505,"1931":5506,"forskning":5507,"##ologisk":5508,"##sal":5509,"varlden":5510,"kallad":5511,"praktfjarilar":5512,"nas":5513,"##ony":5514,"resten":5515,"##onger":5516,"avslut":5517,"##dem":5518,"##ital":5519,"stab":5520,"svampar":5521,"grundades":5522,"millioner":5523,"livskraft":5524,"snabb":5525,"viser":5526,"##gte":5527,"driv":5528,"##spelen":5529,"##zo":5530,"##koping":5531,"ursprungligen":5532,"produc":5533,"##aw":5534,"inat":5535,"symbol":5536,"1905":5537,"anvandes":5538,"journalist":5539,"##star":5540,"kvart":5541,"##løp":5542,"32":5543,"fron":5544,"##iop":5545,"dvarg":5546,"russland":5547,"##wood":5548,"portug":5549,"latt":5550,"meste":5551,"saker":5552,"##lia":5553,"aldrig":5554,"arro":5555,"irland":5556,"exempelvis":5557,"iv":5558,"brok":5559,"falt":5560,"##erar":5561,"ron":5562,"##istiske":5563,"sign":5564,"##myggor":5565,"##ania":5566,"fo":5567,"michael":5568,"hust":5569,"1909":5570,"##samling":5571,"##ilus":5572,"1916":5573,"##hur":5574,"arr":5575,"##40":5576,"rog":5577,"##con":5578,"ledet":5579,"kej":5580,"stal":5581,"##sty":5582,"##zh":5583,"svenske":5584,"##illet":5585,"##delag":5586,"grupper":5587,"##fisk":5588,"utbredelse":5589,"##vend":5590,"tradition":5591,"nesten":5592,"ute":5593,"polen":5594,"##svaxter":5595,"medelt":5596,"gab":5597,"##mare":5598,"heller":5599,"##zar":5600,"hein":5601,"rub":5602,"gren":5603,"status":5604,"poang":5605,"##eth":5606,"kopp":5607,"##ylla":5608,"##omradet":5609,"##unde":5610,"arbeider":5611,"kandid":5612,"1923":5613,"va":5614,"dagar":5615,"kriget":5616,"viss":5617,"##pris":5618,"mast":5619,"stark":5620,"rit":5621,"fordel":5622,"osterrike":5623,"##ktive":5624,"melod":5625,"oftast":5626,"skole":5627,"##ots":5628,"hind":5629,"##rikt":5630,"skrift":5631,"##oda":5632,"tron":5633,"##mene":5634,"liban":5635,"##hard":5636,"##prod":5637,"spelades":5638,"finans":5639,"gruppe":5640,"##ict":5641,"gri":5642,"##enes":5643,"##onst":5644,"##fug":5645,"intres":5646,"freder":5647,"domin":5648,"airport":5649,"medlemmar":5650,"seinare":5651,"artik":5652,"##olia":5653,"herr":5654,"peak":5655,"livskraftig":5656,"##xa":5657,"##ude":5658,"stan":5659,"marie":5660,"tids":5661,"##sberg":5662,"bevar":5663,"internationella":5664,"##raff":5665,"likn":5666,"eneste":5667,"cas":5668,"snart":5669,"1915":5670,"liber":5671,"jarnvag":5672,"fi":5673,"##ugen":5674,"konser":5675,"##vene":5676,"cra":5677,"albert":5678,"landsby":5679,"keiser":5680,"relativt":5681,"fru":5682,"buen":5683,"##ike":5684,"tilf":5685,"##san":5686,"medic":5687,"diam":5688,"##ali":5689,"##aker":5690,"##elia":5691,"sjølv":5692,"anders":5693,"##kro":5694,"liksom":5695,"##aly":5696,"internasjonale":5697,"##gu":5698,"##erades":5699,"villa":5700,"##ution":5701,"##jektet":5702,"lil":5703,"nomin":5704,"##holdt":5705,"spesielt":5706,"##parasit":5707,"##onom":5708,"45":5709,"176":5710,"sasom":5711,"175":5712,"matcher":5713,"sovjetunionen":5714,"##esse":5715,"unn":5716,"idrett":5717,"brokparasit":5718,"belagen":5719,"brokparasitsteklar":5720,"##ega":5721,"jul":5722,"##ruktur":5723,"##hopp":5724,"varen":5725,"gammel":5726,"##mot":5727,"kroppen":5728,"##esen":5729,"##full":5730,"##ærende":5731,"##fri":5732,"kroat":5733,"wadi":5734,"brons":5735,"pel":5736,"kontrakt":5737,"##ute":5738,"1904":5739,"##sky":5740,"redakt":5741,"tren":5742,"erst":5743,"amerika":5744,"##stod":5745,"nem":5746,"ukra":5747,"wales":5748,"##arten":5749,"fc":5750,"gla":5751,"1600":5752,"teck":5753,"##ølge":5754,"offisi":5755,"lars":5756,"##iff":5757,"republik":5758,"##skapen":5759,"##got":5760,"tolk":5761,"byr":5762,"verksamhet":5763,"forand":5764,"forlor":5765,"lamnade":5766,"##korea":5767,"leve":5768,"harad":5769,"prefekt":5770,"##hem":5771,"##person":5772,"##urs":5773,"##own":5774,"manniskor":5775,"##ump":5776,"lager":5777,"bah":5778,"##atum":5779,"drag":5780,"##skriv":5781,"anne":5782,"##etten":5783,"folke":5784,"##eras":5785,"##rack":5786,"barne":5787,"##okk":5788,"fu":5789,"##une":5790,"##rets":5791,"gram":5792,"##atten":5793,"same":5794,"##tn":5795,"allerede":5796,"hjelp":5797,"##bj":5798,"##win":5799,"##itets":5800,"skadespelare":5801,"egna":5802,"##riks":5803,"nastan":5804,"ansl":5805,"tas":5806,"log":5807,"##akk":5808,"haft":5809,"world":5810,"enkelt":5811,"##vil":5812,"altern":5813,"sida":5814,"##isseau":5815,"foretaget":5816,"lep":5817,"##uen":5818,"systemat":5819,"mitten":5820,"##slandet":5821,"observ":5822,"gas":5823,"ill":5824,"##jorde":5825,"standard":5826,"##wer":5827,"##fatter":5828,"vide":5829,"staten":5830,"##loppet":5831,"ruisseau":5832,"##angd":5833,"dans":5834,"ore":5835,"rap":5836,"rav":5837,"##sked":5838,"##emb":5839,"bestam":5840,"vare":5841,"##sida":5842,"records":5843,"holdt":5844,"##wig":5845,"##esc":5846,"jacob":5847,"innenfor":5848,"##cip":5849,"øster":5850,"##allen":5851,"spes":5852,"avled":5853,"borger":5854,"##80":5855,"##iteter":5856,"arb":5857,"150":5858,"feder":5859,"##dar":5860,"opprinnelig":5861,"bjør":5862,"omfattar":5863,"1500":5864,"##kall":5865,"mosk":5866,"##hy":5867,"mass":5868,"##mak":5869,"##ringar":5870,"##slandor":5871,"fartyg":5872,"##tet":5873,"gje":5874,"otto":5875,"regist":5876,"prag":5877,"gjør":5878,"170":5879,"kos":5880,"magnus":5881,"##rene":5882,"arabiska":5883,"blan":5884,"visar":5885,"nig":5886,"utviklet":5887,"vek":5888,"##stav":5889,"mennesker":5890,"##10":5891,"##ophila":5892,"lut":5893,"ungar":5894,"major":5895,"vore":5896,"russisk":5897,"forsamlingen":5898,"adolf":5899,"datter":5900,"##cht":5901,"international":5902,"##omrade":5903,"##period":5904,"##holder":5905,"##ival":5906,"sankt":5907,"das":5908,"riksdelen":5909,"boh":5910,"kors":5911,"##ylt":5912,"##nene":5913,"##illing":5914,"tje":5915,"##ms":5916,"##ktene":5917,"yngre":5918,"##eleg":5919,"##ming":5920,"##ernas":5921,"##fjorden":5922,"forbindelse":5923,"##fort":5924,"##mens":5925,"##forening":5926,"rekord":5927,"1902":5928,"sik":5929,"##xamen":5930,"slakt":5931,"berre":5932,"tyn":5933,"matemat":5934,"avt":5935,"drift":5936,"##oende":5937,"ack":5938,"landskommun":5939,"gott":5940,"yta":5941,"lans":5942,"prim":5943,"grevskapet":5944,"fok":5945,"##aca":5946,"##elv":5947,"##ogon":5948,"innbygg":5949,"hev":5950,"dokument":5951,"##edal":5952,"##ransen":5953,"lista":5954,"sasong":5955,"kungliga":5956,"##ament":5957,"mør":5958,"##oba":5959,"anses":5960,"militar":5961,"##rogram":5962,"brittiska":5963,"karriere":5964,"hovedsak":5965,"##bon":5966,"37":5967,"ah":5968,"##blomm":5969,"avsnitt":5970,"##cks":5971,"cru":5972,"stader":5973,"##omet":5974,"begrav":5975,"utenfor":5976,"skuespiller":5977,"skad":5978,"##anga":5979,"forutom":5980,"##rument":5981,"avstand":5982,"##andre":5983,"batt":5984,"vanligt":5985,"##yld":5986,"lille":5987,"egypt":5988,"lept":5989,"dubb":5990,"##ttet":5991,"##terna":5992,"kinesisk":5993,"##familien":5994,"likevel":5995,"etablert":5996,"##raf":5997,"##col":5998,"frit":5999,"gatt":6000,"##fører":6001,"suc":6002,"uppgick":6003,"ghar":6004,"vard":6005,"skottland":6006,"1903":6007,"##bus":6008,"you":6009,"opprettet":6010,"##sjo":6011,"strom":6012,"##lats":6013,"orsak":6014,"##zon":6015,"##gruppen":6016,"##no":6017,"unger":6018,"##iellt":6019,"##itte":6020,"undervis":6021,"kirken":6022,"##aller":6023,"daniel":6024,"##aea":6025,"anda":6026,"##lant":6027,"gammal":6028,"soldater":6029,"forbundslandet":6030,"galler":6031,"champ":6032,"1901":6033,"##kje":6034,"byggnad":6035,"##urus":6036,"trondheim":6037,"##zer":6038,"flock":6039,"arranger":6040,"premiar":6041,"##vann":6042,"vuxna":6043,"publik":6044,"desse":6045,"semif":6046,"djebel":6047,"kombin":6048,"beteg":6049,"mi":6050,"comm":6051,"ju":6052,"##iment":6053,"##anse":6054,"##eden":6055,"##etes":6056,"glac":6057,"33":6058,"##ple":6059,"fug":6060,"##enden":6061,"artvaxter":6062,"skill":6063,"nev":6064,"regis":6065,"##21":6066,"##lement":6067,"##ktion":6068,"##jevo":6069,"utnevn":6070,"##oli":6071,"##engt":6072,"inspir":6073,"bank":6074,"king":6075,"boliv":6076,"##ringer":6077,"yr":6078,"##bra":6079,"poly":6080,"##asen":6081,"hak":6082,"lim":6083,"upptackt":6084,"##emann":6085,"sof":6086,"##ush":6087,"mj":6088,"gjekk":6089,"langa":6090,"##arie":6091,"foran":6092,"peng":6093,"byn":6094,"##mid":6095,"##anien":6096,"arv":6097,"##angel":6098,"##ppar":6099,"##slandeart":6100,"rød":6101,"##rikes":6102,"##hog":6103,"italiensk":6104,"##ales":6105,"##maskart":6106,"japansk":6107,"straff":6108,"satte":6109,"singel":6110,"kontin":6111,"kongen":6112,"##oe":6113,"procent":6114,"##lof":6115,"guvernementet":6116,"##muse":6117,"##ringen":6118,"hogre":6119,"støtte":6120,"##opa":6121,"1890":6122,"##chi":6123,"##kast":6124,"##ivalen":6125,"##gje":6126,"angeles":6127,"regi":6128,"femte":6129,"cur":6130,"hod":6131,"##huvud":6132,"bast":6133,"trich":6134,"##iale":6135,"kraftig":6136,"betrakt":6137,"dob":6138,"##nades":6139,"felles":6140,"fores":6141,"sjø":6142,"skick":6143,"uppdrag":6144,"annu":6145,"aires":6146,"##falt":6147,"##stads":6148,"##urner":6149,"sul":6150,"##havn":6151,"metal":6152,"buenos":6153,"bosatt":6154,"innbyggjar":6155,"utvid":6156,"point":6157,"troll":6158,"canada":6159,"kalles":6160,"##ink":6161,"enkelte":6162,"rov":6163,"funnet":6164,"##ologiska":6165,"neste":6166,"kommuner":6167,"##ivil":6168,"##mas":6169,"##ese":6170,"##itiv":6171,"fjar":6172,"darreh":6173,"##sla":6174,"laguna":6175,"valgt":6176,"nap":6177,"arbete":6178,"##anthus":6179,"døm":6180,"##reser":6181,"sor":6182,"##emi":6183,"##ista":6184,"lagen":6185,"tib":6186,"##unc":6187,"##sø":6188,"nan":6189,"dep":6190,"familie":6191,"atta":6192,"##otus":6193,"mig":6194,"dro":6195,"##yk":6196,"##ærer":6197,"##aner":6198,"medlemmer":6199,"ifølge":6200,"kok":6201,"insekter":6202,"utveckling":6203,"gunn":6204,"tio":6205,"fard":6206,"##spe":6207,"##okte":6208,"ash":6209,"##ands":6210,"##act":6211,"sosial":6212,"##emplar":6213,"stj":6214,"##sma":6215,"##oy":6216,"##omer":6217,"lyckades":6218,"##gick":6219,"##slaget":6220,"##kjen":6221,"emb":6222,"oscar":6223,"##pro":6224,"dub":6225,"##kester":6226,"religi":6227,"manus":6228,"org":6229,"aldri":6230,"liknande":6231,"uav":6232,"##ovis":6233,"lika":6234,"##ephal":6235,"orten":6236,"tung":6237,"##bre":6238,"##emal":6239,"sommaren":6240,"dv":6241,"indel":6242,"popular":6243,"figur":6244,"konge":6245,"##nor":6246,"##amo":6247,"brack":6248,"skot":6249,"politiska":6250,"gast":6251,"##imer":6252,"kla":6253,"omtrent":6254,"##stor":6255,"##olin":6256,"kna":6257,"##garden":6258,"##sburg":6259,"##uttet":6260,"##ifter":6261,"fokus":6262,"innsj":6263,"danske":6264,"lad":6265,"separ":6266,"##upen":6267,"##forbundet":6268,"bob":6269,"75":6270,"bebygg":6271,"sky":6272,"politiske":6273,"##derna":6274,"##vent":6275,"##iftet":6276,"massa":6277,"ryssland":6278,"arets":6279,"prot":6280,"##uda":6281,"lappland":6282,"##ces":6283,"klock":6284,"kloster":6285,"vitt":6286,"kontakt":6287,"dominer":6288,"jose":6289,"##bland":6290,"##stilling":6291,"hag":6292,"##arane":6293,"oppt":6294,"bevis":6295,"hart":6296,"respektive":6297,"seoul":6298,"moh":6299,"offentlig":6300,"##eten":6301,"##syn":6302,"##punkt":6303,"utvikling":6304,"goteborgs":6305,"klart":6306,"##kare":6307,"event":6308,"##rick":6309,"##ame":6310,"##tradde":6311,"36":6312,"forhall":6313,"##ovo":6314,"atte":6315,"1897":6316,"sjalva":6317,"match":6318,"800":6319,"forvalt":6320,"drog":6321,"##ingo":6322,"sveits":6323,"artvaxtart":6324,"veien":6325,"hack":6326,"utom":6327,"##minister":6328,"##ensjon":6329,"valk":6330,"regjering":6331,"brann":6332,"landslaget":6333,"tillhorde":6334,"1898":6335,"sentral":6336,"bis":6337,"engelske":6338,"##ften":6339,"sarajevo":6340,"little":6341,"utbredning":6342,"befolkning":6343,"utdann":6344,"lor":6345,"handels":6346,"isl":6347,"##field":6348,"tanjung":6349,"##ues":6350,"kampen":6351,"timur":6352,"##tera":6353,"ris":6354,"eldre":6355,"opphav":6356,"##bara":6357,"##sled":6358,"territor":6359,"hud":6360,"##inea":6361,"##inder":6362,"stopp":6363,"dvargstritar":6364,"tilhører":6365,"landskap":6366,"poeng":6367,"arroyo":6368,"rolle":6369,"uppfordes":6370,"##øg":6371,"##elses":6372,"divisjon":6373,"spelare":6374,"aur":6375,"stef":6376,"##ningene":6377,"set":6378,"##ato":6379,"fen":6380,"##shire":6381,"biart":6382,"nasjonal":6383,"##umenter":6384,"##gra":6385,"ank":6386,"174":6387,"##omyc":6388,"39":6389,"union":6390,"##iene":6391,"uppe":6392,"fon":6393,"arhund":6394,"ask":6395,"thor":6396,"betydelse":6397,"nordvest":6398,"##sspelare":6399,"syk":6400,"gras":6401,"regeringen":6402,"kunn":6403,"##rens":6404,"meir":6405,"dim":6406,"bibliote":6407,"##vant":6408,"apnet":6409,"sier":6410,"##ulerade":6411,"jane":6412,"lyd":6413,"##smannen":6414,"##kopings":6415,"konsert":6416,"regering":6417,"##dam":6418,"gresk":6419,"skriven":6420,"##ytte":6421,"##yth":6422,"##marker":6423,"##uell":6424,"pod":6425,"presenter":6426,"funn":6427,"pian":6428,"skydd":6429,"nils":6430,"##demokrat":6431,"juv":6432,"##unda":6433,"fli":6434,"##ologiske":6435,"strat":6436,"symp":6437,"##veien":6438,"libanon":6439,"jazz":6440,"suks":6441,"knut":6442,"walker":6443,"dur":6444,"##serien":6445,"lant":6446,"dekk":6447,"1899":6448,"fader":6449,"##stol":6450,"public":6451,"##ids":6452,"heinrich":6453,"skolan":6454,"beveg":6455,"slov":6456,"##odor":6457,"nest":6458,"tredj":6459,"##sne":6460,"tjeck":6461,"kore":6462,"rem":6463,"arme":6464,"ansprak":6465,"1896":6466,"alfred":6467,"jakt":6468,"situ":6469,"##lene":6470,"sud":6471,"##iang":6472,"##enta":6473,"##arnas":6474,"##ime":6475,"##nst":6476,"##uma":6477,"transport":6478,"tour":6479,"avl":6480,"drott":6481,"##dalen":6482,"34":6483,"foreningen":6484,"varandra":6485,"160":6486,"brom":6487,"##botten":6488,"grens":6489,"vanligvis":6490,"levde":6491,"web":6492,"##aph":6493,"ala":6494,"171":6495,"startade":6496,"##horn":6497,"skulpt":6498,"sesong":6499,"spelte":6500,"ferdig":6501,"##po":6502,"##emon":6503,"kø":6504,"grekland":6505,"feng":6506,"direkte":6507,"##esjon":6508,"bord":6509,"bit":6510,"sentrum":6511,"hustru":6512,"skand":6513,"##eda":6514,"svan":6515,"lom":6516,"##gjen":6517,"1895":6518,"manader":6519,"##ative":6520,"titeln":6521,"ljung":6522,"kirk":6523,"europeiska":6524,"verket":6525,"forsø":6526,"leuc":6527,"utstall":6528,"##ful":6529,"sjukdom":6530,"moskva":6531,"militær":6532,"olympisk":6533,"##vapen":6534,"monte":6535,"rollen":6536,"##rh":6537,"##unden":6538,"finska":6539,"valde":6540,"##inte":6541,"tittelen":6542,"vak":6543,"rym":6544,"indian":6545,"spelet":6546,"##ssk":6547,"##list":6548,"grande":6549,"##vek":6550,"##ati":6551,"eldste":6552,"##rast":6553,"pul":6554,"##tus":6555,"sydney":6556,"##lus":6557,"ettersom":6558,"medverkade":6559,"geografi":6560,"##øse":6561,"bracksteklar":6562,"beskri":6563,"wa":6564,"##osc":6565,"ges":6566,"##komst":6567,"marg":6568,"1880":6569,"forlag":6570,"##asp":6571,"last":6572,"##etts":6573,"##sons":6574,"##lie":6575,"trop":6576,"600":6577,"##dt":6578,"##sven":6579,"britisk":6580,"##kir":6581,"##mi":6582,"traff":6583,"vall":6584,"tsj":6585,"turk":6586,"##rust":6587,"viet":6588,"spraket":6589,"college":6590,"##anna":6591,"##ensam":6592,"lanet":6593,"olav":6594,"roma":6595,"##ørte":6596,"ingick":6597,"inkludert":6598,"##fa":6599,"tack":6600,"musikal":6601,"pierre":6602,"kompos":6603,"aten":6604,"bow":6605,"bakom":6606,"tolv":6607,"tyrk":6608,"hjal":6609,"kle":6610,"foddes":6611,"utnamn":6612,"che":6613,"lokale":6614,"sommarspelen":6615,"linje":6616,"tross":6617,"eric":6618,"material":6619,"##ryt":6620,"agg":6621,"ting":6622,"##ppe":6623,"statens":6624,"flertal":6625,"##ques":6626,"##70":6627,"##rest":6628,"tand":6629,"gavs":6630,"gn":6631,"mul":6632,"institut":6633,"##opus":6634,"##rattades":6635,"flo":6636,"tilldel":6637,"kamper":6638,"olympiske":6639,"ray":6640,"vansk":6641,"hil":6642,"ug":6643,"##svis":6644,"brukte":6645,"jeg":6646,"##alus":6647,"##ømmer":6648,"samfunn":6649,"##olon":6650,"##pert":6651,"##iket":6652,"##verd":6653,"mult":6654,"paverk":6655,"##oarna":6656,"real":6657,"dramat":6658,"nytta":6659,"##orum":6660,"##usten":6661,"##ape":6662,"##serte":6663,"install":6664,"##somradet":6665,"ganske":6666,"tun":6667,"musiker":6668,"##illo":6669,"##avn":6670,"##ugg":6671,"##marksam":6672,"cd":6673,"shan":6674,"##kam":6675,"lid":6676,"utbredt":6677,"##svampar":6678,"mong":6679,"##kontor":6680,"konstru":6681,"fos":6682,"sir":6683,"##gjorde":6684,"meddel":6685,"mate":6686,"diplom":6687,"beteck":6688,"former":6689,"seier":6690,"big":6691,"##rien":6692,"gjøre":6693,"begynnelsen":6694,"modell":6695,"uppmarksam":6696,"169":6697,"valet":6698,"tilsvar":6699,"systemet":6700,"cry":6701,"##former":6702,"##anes":6703,"mah":6704,"dari":6705,"##flyg":6706,"grunnlagt":6707,"##eds":6708,"##mod":6709,"##fab":6710,"##baggar":6711,"##ferd":6712,"fjerde":6713,"vul":6714,"vattendraget":6715,"##ui":6716,"junior":6717,"##pass":6718,"queens":6719,"nes":6720,"##ase":6721,"byggnaden":6722,"sørvest":6723,"fagel":6724,"##rip":6725,"hang":6726,"east":6727,"prov":6728,"##anning":6729,"flockblomm":6730,"invig":6731,"delta":6732,"##tiden":6733,"regler":6734,"antall":6735,"##kyrk":6736,"jorden":6737,"henhold":6738,"##yst":6739,"##asin":6740,"anvanda":6741,"##num":6742,"sendt":6743,"1893":6744,"yo":6745,"rut":6746,"anvandas":6747,"##elder":6748,"bev":6749,"arbets":6750,"##ations":6751,"initi":6752,"karakter":6753,"##ffer":6754,"jød":6755,"##war":6756,"laur":6757,"high":6758,"38":6759,"holm":6760,"##ivet":6761,"##utter":6762,"173":6763,"sto":6764,"starkt":6765,"rac":6766,"##albumet":6767,"top":6768,"##inav":6769,"skolen":6770,"how":6771,"##folj":6772,"##atta":6773,"##imot":6774,"kjend":6775,"##eldjur":6776,"##ksomhet":6777,"live":6778,"##mad":6779,"samhallet":6780,"##bud":6781,"fien":6782,"kopen":6783,"##uf":6784,"endte":6785,"##ativa":6786,"ving":6787,"chil":6788,"lis":6789,"kg":6790,"##alderen":6791,"##felt":6792,"elektron":6793,"up":6794,"##emot":6795,"##ther":6796,"margar":6797,"##ischer":6798,"##sor":6799,"##ical":6800,"##unnen":6801,"##ftet":6802,"##rup":6803,"##gs":6804,"##icola":6805,"svarte":6806,"bang":6807,"kommunal":6808,"1889":6809,"fotograf":6810,"1000":6811,"##iph":6812,"midten":6813,"kard":6814,"##tert":6815,"venstre":6816,"utnevnt":6817,"##lopp":6818,"vanligen":6819,"vand":6820,"innbyggjarar":6821,"tidningen":6822,"1892":6823,"##aki":6824,"##industri":6825,"historien":6826,"begre":6827,"ackum":6828,"spesial":6829,"##vagen":6830,"##asj":6831,"heg":6832,"##yllum":6833,"emil":6834,"##uz":6835,"##forbund":6836,"##makt":6837,"myt":6838,"##fra":6839,"axel":6840,"dager":6841,"##skal":6842,"betyr":6843,"filipp":6844,"nere":6845,"##board":6846,"vor":6847,"bart":6848,"trupp":6849,"1862":6850,"latar":6851,"##ois":6852,"##isc":6853,"hvis":6854,"vitenskap":6855,"kallades":6856,"1870":6857,"##vir":6858,"rosen":6859,"omfattande":6860,"##inae":6861,"strax":6862,"funksjon":6863,"##idium":6864,"##pun":6865,"minor":6866,"periode":6867,"sydkorea":6868,"tavling":6869,"1894":6870,"frukt":6871,"kopenhamn":6872,"artist":6873,"alto":6874,"irak":6875,"artene":6876,"pastor":6877,"##ikanska":6878,"##deles":6879,"opprør":6880,"inspel":6881,"parlament":6882,"##medal":6883,"special":6884,"##my":6885,"illust":6886,"tyd":6887,"bronse":6888,"din":6889,"##go":6890,"spelat":6891,"gemensam":6892,"##por":6893,"henri":6894,"statsminister":6895,"minnes":6896,"ludwig":6897,"spille":6898,"##nem":6899,"naturreser":6900,"adam":6901,"origin":6902,"##pet":6903,"##ison":6904,"fjarde":6905,"##ome":6906,"rest":6907,"##oz":6908,"komma":6909,"handlar":6910,"typer":6911,"energi":6912,"proc":6913,"spania":6914,"##ctic":6915,"naz":6916,"tving":6917,"lilla":6918,"framsta":6919,"konstant":6920,"##iell":6921,"##brid":6922,"dynast":6923,"##sol":6924,"bei":6925,"upplag":6926,"stig":6927,"jakob":6928,"india":6929,"school":6930,"##sbe":6931,"165":6932,"vei":6933,"nob":6934,"museet":6935,"##reter":6936,"mekan":6937,"##iserade":6938,"olof":6939,"##uca":6940,"virke":6941,"utbildning":6942,"parall":6943,"##skont":6944,"1891":6945,"##zhou":6946,"##kjent":6947,"##gas":6948,"togs":6949,"sterkt":6950,"tildelt":6951,"californ":6952,"##skatt":6953,"mary":6954,"ambass":6955,"55":6956,"##parten":6957,"ackumulerade":6958,"##sene":6959,"styre":6960,"viste":6961,"fotbollsspelare":6962,"simon":6963,"##uella":6964,"##kant":6965,"164":6966,"dia":6967,"tilkn":6968,"green":6969,"kommand":6970,"lenger":6971,"##tnant":6972,"##alia":6973,"grøn":6974,"##zen":6975,"foreg":6976,"heb":6977,"royal":6978,"studerte":6979,"##mere":6980,"##esel":6981,"gransen":6982,"barat":6983,"168":6984,"tekst":6985,"entiteten":6986,"sok":6987,"##olo":6988,"samtliga":6989,"##bak":6990,"utform":6991,"vaxte":6992,"##bod":6993,"elisa":6994,"dic":6995,"betyder":6996,"##test":6997,"##spass":6998,"##apt":6999,"lyn":7000,"##so":7001,"minsk":7002,"vita":7003,"indre":7004,"##aktig":7005,"wash":7006,"pak":7007,"##sbyg":7008,"##ifer":7009,"anvander":7010,"staf":7011,"##ary":7012,"##ckan":7013,"levevis":7014,"russiske":7015,"islam":7016,"##skolen":7017,"old":7018,"##umb":7019,"centrum":7020,"station":7021,"trøn":7022,"corn":7023,"stallet":7024,"may":7025,"dir":7026,"##mond":7027,"##sborg":7028,"##elin":7029,"uavheng":7030,"##hn":7031,"##dagen":7032,"##brott":7033,"##ryck":7034,"##banen":7035,"sann":7036,"lamp":7037,"nova":7038,"act":7039,"hva":7040,"ref":7041,"##idea":7042,"##ifik":7043,"sao":7044,"deltag":7045,"pek":7046,"##senter":7047,"##fold":7048,"##iets":7049,"behandling":7050,"##fang":7051,"##terade":7052,"lopp":7053,"##finn":7054,"tidigt":7055,"ekte":7056,"##idens":7057,"##ssel":7058,"##umet":7059,"kans":7060,"pter":7061,"konkurrer":7062,"hosten":7063,"##can":7064,"42":7065,"##lop":7066,"anled":7067,"##ific":7068,"opera":7069,"profession":7070,"1888":7071,"pur":7072,"finner":7073,"##kning":7074,"americ":7075,"##saker":7076,"oppl":7077,"sun":7078,"##tere":7079,"sjalvstand":7080,"stefan":7081,"dit":7082,"pon":7083,"aldsta":7084,"##kh":7085,"skadespel":7086,"1885":7087,"##asjer":7088,"sentrale":7089,"##kre":7090,"##splan":7091,"##skott":7092,"klipp":7093,"##siden":7094,"skjer":7095,"##lys":7096,"befinner":7097,"erob":7098,"##ky":7099,"##ava":7100,"normalt":7101,"felt":7102,"idrott":7103,"whi":7104,"visade":7105,"fø":7106,"doktor":7107,"##vere":7108,"bell":7109,"sib":7110,"##bour":7111,"brott":7112,"cham":7113,"##bit":7114,"arn":7115,"##spelar":7116,"##ørs":7117,"tida":7118,"##føre":7119,"fjord":7120,"##ines":7121,"##elsene":7122,"laga":7123,"bestaende":7124,"##akh":7125,"##ifolia":7126,"love":7127,"award":7128,"finne":7129,"##riar":7130,"##chy":7131,"##unnit":7132,"##sw":7133,"##icol":7134,"noko":7135,"forsok":7136,"frig":7137,"##deling":7138,"danska":7139,"muslim":7140,"religion":7141,"bruker":7142,"konserv":7143,"syl":7144,"diameter":7145,"##itionen":7146,"mit":7147,"spansk":7148,"brig":7149,"##bach":7150,"rø":7151,"mam":7152,"##blom":7153,"victoria":7154,"steder":7155,"##byggnad":7156,"bocker":7157,"kim":7158,"følgende":7159,"inneholder":7160,"ihop":7161,"sed":7162,"egne":7163,"vagen":7164,"chrys":7165,"coll":7166,"forlorade":7167,"graf":7168,"vise":7169,"##ipes":7170,"##skon":7171,"##sser":7172,"jug":7173,"byggnader":7174,"120":7175,"bergspass":7176,"kategori":7177,"talets":7178,"##edonien":7179,"publicer":7180,"##holmen":7181,"##leder":7182,"interv":7183,"kontroller":7184,"forslag":7185,"##haer":7186,"cu":7187,"syster":7188,"agde":7189,"##regionen":7190,"finst":7191,"kommunik":7192,"nm":7193,"##kamp":7194,"hvil":7195,"venn":7196,"##well":7197,"frag":7198,"produsert":7199,"48":7200,"fjellet":7201,"flott":7202,"##linjen":7203,"##nik":7204,"rygg":7205,"py":7206,"##sey":7207,"glas":7208,"klarte":7209,"spring":7210,"dist":7211,"dop":7212,"davarande":7213,"##ahl":7214,"##chef":7215,"kot":7216,"##skl":7217,"historisk":7218,"##mastare":7219,"ljud":7220,"##rover":7221,"ernst":7222,"##stant":7223,"##ssystem":7224,"##ifran":7225,"klim":7226,"##atene":7227,"saval":7228,"slike":7229,"bostad":7230,"suksess":7231,"teor":7232,"bruke":7233,"enbart":7234,"egenskaper":7235,"dron":7236,"utgang":7237,"##teck":7238,"instrument":7239,"moss":7240,"atervande":7241,"##lande":7242,"gjordes":7243,"forening":7244,"arbetar":7245,"forald":7246,"166":7247,"køben":7248,"skipet":7249,"##kap":7250,"music":7251,"forut":7252,"1860":7253,"dun":7254,"##riske":7255,"##uelle":7256,"nedre":7257,"##gaende":7258,"text":7259,"##mannen":7260,"##sforb":7261,"ves":7262,"hell":7263,"malm":7264,"dannet":7265,"washington":7266,"wood":7267,"##sack":7268,"dø":7269,"##omp":7270,"romanen":7271,"##eres":7272,"nun":7273,"spred":7274,"##acker":7275,"harald":7276,"167":7277,"omrader":7278,"viktigaste":7279,"troligen":7280,"47":7281,"carol":7282,"##mun":7283,"benyttet":7284,"utgjorde":7285,"pasir":7286,"enhet":7287,"##osus":7288,"##rykk":7289,"##hark":7290,"1887":7291,"gode":7292,"bulgar":7293,"scott":7294,"larare":7295,"##spelare":7296,"elisabet":7297,"##ppa":7298,"asteroid":7299,"lenge":7300,"##ordan":7301,"##sat":7302,"##delig":7303,"effektiv":7304,"##ره":7305,"##edøm":7306,"elv":7307,"##inska":7308,"giftet":7309,"gunnar":7310,"##sav":7311,"turne":7312,"politik":7313,"66":7314,"rapporter":7315,"die":7316,"##spart":7317,"queensland":7318,"temperatur":7319,"regnes":7320,"##olis":7321,"##øren":7322,"viktigste":7323,"pron":7324,"##slatt":7325,"##ration":7326,"gong":7327,"andersson":7328,"ski":7329,"nød":7330,"##rant":7331,"##ave":7332,"stasjon":7333,"49":7334,"##arg":7335,"hovedsakelig":7336,"let":7337,"bytte":7338,"##atar":7339,"introd":7340,"##laktet":7341,"konse":7342,"##huvudort":7343,"oc":7344,"upptacktes":7345,"##nande":7346,"version":7347,"tillgang":7348,"##itter":7349,"regiss":7350,"white":7351,"bris":7352,"tha":7353,"autom":7354,"##iae":7355,"41":7356,"soci":7357,"has":7358,"lee":7359,"senter":7360,"inntil":7361,"stadens":7362,"mog":7363,"cand":7364,"glacier":7365,"inneh":7366,"final":7367,"bukit":7368,"hap":7369,"##but":7370,"tusen":7371,"melan":7372,"isa":7373,"jesus":7374,"oh":7375,"antar":7376,"1886":7377,"abo":7378,"##verka":7379,"##adens":7380,"##ental":7381,"voksne":7382,"bolivia":7383,"1878":7384,"stol":7385,"##iret":7386,"jurid":7387,"dollar":7388,"##uva":7389,"##lans":7390,"##ston":7391,"meget":7392,"ud":7393,"##sutøver":7394,"##stiden":7395,"eurovis":7396,"skrive":7397,"solen":7398,"trafik":7399,"##vær":7400,"##olas":7401,"##taxa":7402,"##ligg":7403,"##lagd":7404,"##nende":7405,"172":7406,"##uri":7407,"tac":7408,"følge":7409,"##amin":7410,"##forsk":7411,"1884":7412,"meng":7413,"##satte":7414,"##byen":7415,"overlev":7416,"brukar":7417,"##ان":7418,"eri":7419,"faren":7420,"forel":7421,"acc":7422,"clar":7423,"okk":7424,"##arn":7425,"nokre":7426,"##inc":7427,"##landska":7428,"gon":7429,"##yet":7430,"effekt":7431,"lita":7432,"herrar":7433,"hop":7434,"hir":7435,"##ingart":7436,"omfatter":7437,"lit":7438,"minne":7439,"##oca":7440,"radi":7441,"wind":7442,"debuterade":7443,"##gitt":7444,"knyttet":7445,"afrik":7446,"forkort":7447,"##attet":7448,"rat":7449,"44":7450,"følger":7451,"alltsa":7452,"skedde":7453,"##emang":7454,"##agne":7455,"framgangs":7456,"ss":7457,"komme":7458,"design":7459,"kav":7460,"akten":7461,"allra":7462,"hotad":7463,"kronor":7464,"francisco":7465,"##chn":7466,"chic":7467,"##ards":7468,"metall":7469,"63":7470,"hoff":7471,"drottning":7472,"eurovision":7473,"mera":7474,"43":7475,"ts":7476,"hug":7477,"stavanger":7478,"zag":7479,"semifin":7480,"europeiske":7481,"advok":7482,"perman":7483,"lengre":7484,"##reb":7485,"regjeringen":7486,"##verksam":7487,"##osia":7488,"kungen":7489,"##repet":7490,"##qvist":7491,"##ifier":7492,"##ningsp":7493,"ludvig":7494,"smal":7495,"##departementet":7496,"snabbt":7497,"juan":7498,"studenter":7499,"prix":7500,"dyntaxa":7501,"turneringen":7502,"roller":7503,"etn":7504,"santo":7505,"brittisk":7506,"liste":7507,"nrk":7508,"trøndelag":7509,"##ophyllum":7510,"##ligheten":7511,"kem":7512,"administrasjon":7513,"jebel":7514,"jim":7515,"strøm":7516,"##iseringen":7517,"##stendig":7518,"føre":7519,"##rankar":7520,"oppna":7521,"svenskt":7522,"##orth":7523,"##eps":7524,"##ds":7525,"##reterare":7526,"sjoarna":7527,"mist":7528,"##anser":7529,"selskap":7530,"bilder":7531,"virg":7532,"klas":7533,"utloppet":7534,"aks":7535,"franco":7536,"mem":7537,"ach":7538,"stille":7539,"bjornspinnare":7540,"##halla":7541,"##eldjursart":7542,"jamt":7543,"orkester":7544,"##annsyn":7545,"scot":7546,"flav":7547,"hvordan":7548,"##harkrankar":7549,"1882":7550,"##ressen":7551,"pala":7552,"forsknings":7553,"##ami":7554,"##feld":7555,"##pas":7556,"shah":7557,"tekniska":7558,"##orus":7559,"##ual":7560,"sørøst":7561,"##museum":7562,"antag":7563,"varv":7564,"romersk":7565,"gjer":7566,"##vakt":7567,"egypten":7568,"brown":7569,"total":7570,"fus":7571,"##spar":7572,"cel":7573,"bolag":7574,"bygger":7575,"obl":7576,"##onym":7577,"emp":7578,"fotballspiller":7579,"##fallande":7580,"##ninga":7581,"plant":7582,"lon":7583,"varldens":7584,"##menter":7585,"gymnas":7586,"##sand":7587,"flygplan":7588,"romerske":7589,"hjel":7590,"##xi":7591,"##sats":7592,"fry":7593,"##endom":7594,"##foret":7595,"norska":7596,"hjul":7597,"produktion":7598,"##ics":7599,"gronland":7600,"lage":7601,"shu":7602,"arthur":7603,"eid":7604,"fjorden":7605,"raskt":7606,"prad":7607,"ross":7608,"##riska":7609,"##oria":7610,"##avaxter":7611,"fro":7612,"munchen":7613,"cab":7614,"sprid":7615,"eksped":7616,"asia":7617,"gymn":7618,"diale":7619,"guy":7620,"##log":7621,"bakgrund":7622,"sitter":7623,"kritik":7624,"72":7625,"##amerika":7626,"egentliga":7627,"fann":7628,"mykje":7629,"700":7630,"cop":7631,"ursprungliga":7632,"disp":7633,"platsen":7634,"##ti":7635,"beseg":7636,"sula":7637,"##rarna":7638,"stortinget":7639,"hann":7640,"hverandre":7641,"##lic":7642,"##yi":7643,"##rona":7644,"vig":7645,"##rackligt":7646,"serier":7647,"##eme":7648,"høyre":7649,"steph":7650,"##oi":7651,"borjar":7652,"##atorer":7653,"##idia":7654,"anth":7655,"46":7656,"##sattning":7657,"forvar":7658,"1881":7659,"forsv":7660,"geograf":7661,"mir":7662,"##oslav":7663,"##enez":7664,"janeiro":7665,"dens":7666,"##ilia":7667,"mangfot":7668,"erbj":7669,"producer":7670,"ledare":7671,"serv":7672,"resul":7673,"smak":7674,"media":7675,"71":7676,"dos":7677,"data":7678,"tapp":7679,"ordin":7680,"##bad":7681,"1879":7682,"##somrade":7683,"hoga":7684,"elven":7685,"##ates":7686,"sterk":7687,"reiste":7688,"##inand":7689,"western":7690,"bildade":7691,"moderna":7692,"##bruks":7693,"budd":7694,"kyst":7695,"bøker":7696,"##risen":7697,"pula":7698,"miljø":7699,"mcc":7700,"skane":7701,"mente":7702,"nordlige":7703,"1863":7704,"##skje":7705,"anger":7706,"##anc":7707,"bam":7708,"medal":7709,"52":7710,"harry":7711,"vietnam":7712,"kysten":7713,"stilling":7714,"prop":7715,"hermann":7716,"gle":7717,"##elius":7718,"##mera":7719,"tele":7720,"pave":7721,"naturreservat":7722,"had":7723,"utsatt":7724,"vanster":7725,"bind":7726,"oss":7727,"ال":7728,"nod":7729,"leker":7730,"elever":7731,"##føring":7732,"vekt":7733,"funktion":7734,"beroende":7735,"##plassen":7736,"##skij":7737,"osm":7738,"##mant":7739,"derimot":7740,"andreas":7741,"malt":7742,"1883":7743,"chal":7744,"struktur":7745,"mangd":7746,"sap":7747,"marevaxter":7748,"rein":7749,"##stone":7750,"overtok":7751,"antonio":7752,"##sle":7753,"kob":7754,"california":7755,"redus":7756,"sus":7757,"##mossart":7758,"tunnel":7759,"dessuten":7760,"##vika":7761,"steg":7762,"phou":7763,"line":7764,"sannsyn":7765,"##rix":7766,"tengah":7767,"tillfal":7768,"representant":7769,"formann":7770,"##holms":7771,"bedre":7772,"##ved":7773,"##icum":7774,"##spunkt":7775,"##agog":7776,"##urer":7777,"slottet":7778,"##gatan":7779,"prom":7780,"##ckte":7781,"tør":7782,"mynnar":7783,"hockey":7784,"##chester":7785,"hamp":7786,"arre":7787,"berak":7788,"arch":7789,"resultatet":7790,"arts":7791,"##avaxtart":7792,"bygga":7793,"##yang":7794,"bladmossart":7795,"harris":7796,"epis":7797,"##gjort":7798,"##uck":7799,"dott":7800,"prast":7801,"69":7802,"tapte":7803,"##lare":7804,"type":7805,"show":7806,"sporsack":7807,"høyeste":7808,"##ungen":7809,"tavlingen":7810,"fiske":7811,"##antarktis":7812,"sach":7813,"saledes":7814,"france":7815,"##ao":7816,"hens":7817,"##ido":7818,"sker":7819,"##stedt":7820,"holls":7821,"stiftet":7822,"brad":7823,"##emark":7824,"sporsacksvampar":7825,"ext":7826,"73":7827,"ama":7828,"koudiat":7829,"fylkesvei":7830,"##flytt":7831,"skandinav":7832,"ech":7833,"##iji":7834,"1200":7835,"##øper":7836,"51":7837,"militære":7838,"##ding":7839,"lades":7840,"##emente":7841,"kull":7842,"foljd":7843,"##rac":7844,"##boll":7845,"##bebygg":7846,"kallor":7847,"ør":7848,"drept":7849,"ferdinand":7850,"1865":7851,"##ylus":7852,"eig":7853,"rike":7854,"etiop":7855,"sr":7856,"bass":7857,"##jk":7858,"trans":7859,"cord":7860,"##retær":7861,"valdes":7862,"kaliforn":7863,"biller":7864,"khan":7865,"##omat":7866,"ler":7867,"nasjonale":7868,"rudolf":7869,"##ves":7870,"1877":7871,"pow":7872,"##jak":7873,"##ory":7874,"vilhelm":7875,"##ornis":7876,"1875":7877,"battre":7878,"##inske":7879,"vere":7880,"##zan":7881,"arbeten":7882,"pere":7883,"nøy":7884,"##stud":7885,"250":7886,"inflyt":7887,"##inter":7888,"amar":7889,"##rof":7890,"viktige":7891,"bør":7892,"##lista":7893,"dennes":7894,"seri":7895,"høsten":7896,"serra":7897,"##rert":7898,"sørlige":7899,"parad":7900,"smaland":7901,"qar":7902,"fyrste":7903,"##umen":7904,"marknad":7905,"##aksjon":7906,"##ipend":7907,"blo":7908,"heile":7909,"nak":7910,"##skold":7911,"##ampa":7912,"contest":7913,"pabor":7914,"team":7915,"##iler":7916,"kommersi":7917,"icke":7918,"jung":7919,"dong":7920,"##lot":7921,"##skriften":7922,"strateg":7923,"163":7924,"kongo":7925,"prefekturen":7926,"##legget":7927,"debuterte":7928,"##istrikt":7929,"##manland":7930,"takt":7931,"kalk":7932,"##gotland":7933,"grekiska":7934,"orebro":7935,"##isch":7936,"esp":7937,"tings":7938,"omtal":7939,"##ов":7940,"forh":7941,"club":7942,"pad":7943,"alm":7944,"allmanna":7945,"##vingene":7946,"anvande":7947,"uppkall":7948,"##nan":7949,"stral":7950,"syke":7951,"erov":7952,"grundade":7953,"##sens":7954,"dersom":7955,"myndigheter":7956,"##avnet":7957,"##biskop":7958,"##fora":7959,"##iserer":7960,"skriver":7961,"law":7962,"##beck":7963,"mongol":7964,"titel":7965,"gate":7966,"67":7967,"sec":7968,"##latt":7969,"eien":7970,"##ligheter":7971,"##oga":7972,"##tein":7973,"00":7974,"hører":7975,"malet":7976,"##ares":7977,"def":7978,"bygge":7979,"##otum":7980,"##usive":7981,"##cin":7982,"linjen":7983,"avrinningsomradena":7984,"kanskje":7985,"starten":7986,"##itat":7987,"##stedet":7988,"##elden":7989,"doc":7990,"josef":7991,"62":7992,"roda":7993,"samlet":7994,"stafett":7995,"lanser":7996,"##kalt":7997,"##sidan":7998,"center":7999,"kapit":8000,"katolske":8001,"##egaende":8002,"gutt":8003,"##sag":8004,"organisation":8005,"tsjekk":8006,"brisbane":8007,"##spun":8008,"57":8009,"turist":8010,"slog":8011,"meller":8012,"møtte":8013,"pulau":8014,"##mund":8015,"franz":8016,"nominer":8017,"##hast":8018,"chap":8019,"frederik":8020,"68":8021,"##gara":8022,"lib":8023,"##brun":8024,"##escens":8025,"pam":8026,"ola":8027,"##ension":8028,"she":8029,"elev":8030,"norden":8031,"kanalen":8032,"##uh":8033,"##instit":8034,"##iensis":8035,"sot":8036,"forsøk":8037,"miner":8038,"marevaxtart":8039,"plassert":8040,"brdo":8041,"makten":8042,"øver":8043,"##rivil":8044,"assoc":8045,"##atem":8046,"uppf":8047,"spen":8048,"##etta":8049,"##orm":8050,"##aneh":8051,"##skrifter":8052,"drabb":8053,"1874":8054,"##odon":8055,"forste":8056,"anal":8057,"ene":8058,"beirut":8059,"ivan":8060,"koping":8061,"american":8062,"helg":8063,"klassisk":8064,"larvene":8065,"##rey":8066,"sri":8067,"samarbete":8068,"##spolit":8069,"begrans":8070,"##rikk":8071,"risk":8072,"##otyp":8073,"##ningsm":8074,"kvarter":8075,"##du":8076,"tw":8077,"##egg":8078,"bong":8079,"information":8080,"spør":8081,"seb":8082,"##bes":8083,"##agna":8084,"##elvingar":8085,"##riket":8086,"##ih":8087,"reserv":8088,"ønsket":8089,"ledning":8090,"##wald":8091,"petter":8092,"kalifornien":8093,"##ennene":8094,"nep":8095,"aud":8096,"##ktes":8097,"##rollen":8098,"inc":8099,"betydelig":8100,"utstyr":8101,"emot":8102,"##sforen":8103,"sommeren":8104,"chang":8105,"beat":8106,"##uga":8107,"1850":8108,"bergsked":8109,"##ivt":8110,"1876":8111,"patri":8112,"56":8113,"lokala":8114,"aner":8115,"betydning":8116,"dend":8117,"correg":8118,"##dan":8119,"ringmaskart":8120,"oleander":8121,"##eman":8122,"##atoriet":8123,"pall":8124,"lot":8125,"kroatien":8126,"##idan":8127,"##tatt":8128,"##skomm":8129,"##abad":8130,"##dern":8131,"85":8132,"ungern":8133,"marin":8134,"riksdagen":8135,"utn":8136,"##vide":8137,"##biner":8138,"lago":8139,"syv":8140,"##rea":8141,"individer":8142,"##eles":8143,"wat":8144,"nhl":8145,"mennesk":8146,"##rata":8147,"paret":8148,"krimin":8149,"orm":8150,"direktor":8151,"aqu":8152,"##sep":8153,"øk":8154,"stadig":8155,"astronom":8156,"##ask":8157,"emeller":8158,"##skaff":8159,"skapa":8160,"mangfotingart":8161,"vanskelig":8162,"emellertid":8163,"wolf":8164,"hodet":8165,"##lost":8166,"butt":8167,"kunstner":8168,"utnamndes":8169,"##bott":8170,"deg":8171,"front":8172,"##øyene":8173,"skillnad":8174,"nordøst":8175,"juvelvingar":8176,"tyder":8177,"inklusive":8178,"##utning":8179,"pradesh":8180,"ensam":8181,"floden":8182,"flagg":8183,"nio":8184,"siv":8185,"balt":8186,"abu":8187,"##lah":8188,"##hets":8189,"storm":8190,"mats":8191,"minister":8192,"uppskatt":8193,"##iah":8194,"element":8195,"ecu":8196,"##yph":8197,"kejs":8198,"utkom":8199,"civil":8200,"za":8201,"foreld":8202,"københavn":8203,"rang":8204,"utgors":8205,"53":8206,"beskriver":8207,"barcel":8208,"kontor":8209,"##amper":8210,"##rym":8211,"54":8212,"##optera":8213,"eftertrad":8214,"reform":8215,"het":8216,"sunn":8217,"medeltida":8218,"gabri":8219,"tilldelades":8220,"##imus":8221,"socialdemokrat":8222,"venez":8223,"peru":8224,"sikker":8225,"sonen":8226,"##terte":8227,"bent":8228,"74":8229,"hæren":8230,"obser":8231,"##eli":8232,"1871":8233,"130":8234,"1866":8235,"medis":8236,"ik":8237,"##itten":8238,"fav":8239,"valgte":8240,"infl":8241,"##marna":8242,"##lip":8243,"viking":8244,"arkitektur":8245,"melodi":8246,"##ygt":8247,"utsags":8248,"##innan":8249,"varldsm":8250,"##varande":8251,"lærer":8252,"##ophora":8253,"##olax":8254,"vinn":8255,"avvattnas":8256,"##skat":8257,"##antus":8258,"##borgs":8259,"##festivalen":8260,"døy":8261,"##uras":8262,"inrattades":8263,"rus":8264,"skre":8265,"maler":8266,"skrivit":8267,"##aen":8268,"##lu":8269,"corrego":8270,"##gi":8271,"fan":8272,"greske":8273,"flat":8274,"revolusjon":8275,"mojligt":8276,"exemplar":8277,"##omus":8278,"##sang":8279,"spin":8280,"##ardo":8281,"##olonth":8282,"daremot":8283,"melolonth":8284,"##bom":8285,"socknen":8286,"ens":8287,"profesjon":8288,"nordvastlig":8289,"kari":8290,"lord":8291,"kalmar":8292,"darpa":8293,"##chia":8294,"##esund":8295,"##larna":8296,"##yx":8297,"##19":8298,"##jat":8299,"##assel":8300,"formen":8301,"parish":8302,"##ogne":8303,"unga":8304,"stang":8305,"foljde":8306,"assist":8307,"vanliga":8308,"italienska":8309,"1864":8310,"historiska":8311,"kungar":8312,"sogn":8313,"tema":8314,"gur":8315,"høyde":8316,"torn":8317,"##ship":8318,"prosent":8319,"penn":8320,"sank":8321,"farger":8322,"marks":8323,"lew":8324,"eier":8325,"##emer":8326,"##alam":8327,"serb":8328,"motiv":8329,"heder":8330,"utgjør":8331,"##lager":8332,"forfattaren":8333,"58":8334,"slags":8335,"mellersta":8336,"1868":8337,"##omraden":8338,"##igg":8339,"jones":8340,"##setning":8341,"fører":8342,"konstrukt":8343,"##teg":8344,"lagre":8345,"skop":8346,"cle":8347,"ytt":8348,"rey":8349,"finsk":8350,"##klass":8351,"klok":8352,"spelt":8353,"pyr":8354,"##ioder":8355,"isol":8356,"dekor":8357,"##serna":8358,"sagt":8359,"##cos":8360,"skepp":8361,"162":8362,"##otes":8363,"##sken":8364,"1869":8365,"original":8366,"chicago":8367,"makedon":8368,"دره":8369,"lovfallande":8370,"oarna":8371,"castle":8372,"##iral":8373,"trolig":8374,"anat":8375,"solo":8376,"endret":8377,"hyl":8378,"overfl":8379,"phyll":8380,"besok":8381,"texas":8382,"imper":8383,"oppdaget":8384,"pic":8385,"nikola":8386,"kandidat":8387,"fjader":8388,"sakalte":8389,"eksister":8390,"##namnet":8391,"holde":8392,"varde":8393,"cruz":8394,"##urn":8395,"depart":8396,"costa":8397,"##fru":8398,"svarta":8399,"aterupp":8400,"italienske":8401,"samuel":8402,"town":8403,"##ollen":8404,"##berget":8405,"##ettet":8406,"##yla":8407,"##agus":8408,"parasit":8409,"kapell":8410,"marken":8411,"tills":8412,"gruppa":8413,"##ods":8414,"lenn":8415,"verksamheten":8416,"##iteen":8417,"gom":8418,"##js":8419,"ela":8420,"flag":8421,"##slin":8422,"sette":8423,"konfli":8424,"color":8425,"atlan":8426,"##livet":8427,"ovre":8428,"##last":8429,"##sprogram":8430,"tax":8431,"skrifter":8432,"hundre":8433,"##forhall":8434,"##svag":8435,"pred":8436,"tredjep":8437,"vanleg":8438,"##ieb":8439,"##farg":8440,"##igan":8441,"hemm":8442,"slutligen":8443,"sammens":8444,"tidiga":8445,"runde":8446,"##kret":8447,"historiske":8448,"compan":8449,"initiativ":8450,"seger":8451,"1872":8452,"##platsen":8453,"artiller":8454,"59":8455,"hipp":8456,"1867":8457,"golf":8458,"##fo":8459,"stjer":8460,"##menn":8461,"sofia":8462,"##yrer":8463,"##fard":8464,"##forsamling":8465,"invigdes":8466,"gib":8467,"para":8468,"##dis":8469,"1873":8470,"telef":8471,"napole":8472,"time":8473,"##vak":8474,"##ads":8475,"hertig":8476,"orn":8477,"sadan":8478,"##bolaget":8479,"##sto":8480,"wilson":8481,"##arina":8482,"##vap":8483,"spanska":8484,"dagg":8485,"utford":8486,"flytta":8487,"##ello":8488,"140":8489,"##lemer":8490,"heim":8491,"johnson":8492,"ecuador":8493,"##rel":8494,"melolonthidae":8495,"oppført":8496,"sprin":8497,"##ledare":8498,"159":8499,"vokste":8500,"##vaxt":8501,"johansson":8502,"spill":8503,"krev":8504,"##aterna":8505,"deira":8506,"##ningens":8507,"fjarilar":8508,"110":8509,"arne":8510,"##ows":8511,"baker":8512,"snar":8513,"##fon":8514,"styrker":8515,"##gjeng":8516,"høyere":8517,"advokat":8518,"lokalt":8519,"##oten":8520,"blomster":8521,"rag":8522,"##backen":8523,"ribe":8524,"one":8525,"##ussen":8526,"1861":8527,"sats":8528,"prisen":8529,"ager":8530,"tenggara":8531,"flert":8532,"milj":8533,"##alo":8534,"informasjon":8535,"rand":8536,"dokt":8537,"aleks":8538,"portugal":8539,"renn":8540,"##sbl":8541,"##edom":8542,"variant":8543,"invol":8544,"erstattet":8545,"alternativ":8546,"varian":8547,"##avet":8548,"peder":8549,"dahl":8550,"wer":8551,"##don":8552,"japanska":8553,"utmark":8554,"##systemet":8555,"##asan":8556,"mannen":8557,"bull":8558,"##bc":8559,"parlamentet":8560,"ce":8561,"dekkvingene":8562,"driver":8563,"lanka":8564,"##faren":8565,"gat":8566,"zo":8567,"bin":8568,"##adel":8569,"starta":8570,"young":8571,"lengde":8572,"vo":8573,"priser":8574,"normal":8575,"fulgte":8576,"skjedde":8577,"##atisk":8578,"##liggande":8579,"##ulatus":8580,"grat":8581,"morro":8582,"dubbel":8583,"##landsk":8584,"permanent":8585,"kak":8586,"planer":8587,"##com":8588,"oversikt":8589,"enten":8590,"billboard":8591,"egg":8592,"drama":8593,"alko":8594,"stadion":8595,"abra":8596,"##chel":8597,"varme":8598,"##itor":8599,"##strand":8600,"##andena":8601,"##sko":8602,"fritt":8603,"##yggen":8604,"fær":8605,"##rekord":8606,"vunnet":8607,"uppgift":8608,"##iku":8609,"##bygd":8610,"##ums":8611,"bonde":8612,"artister":8613,"tip":8614,"##sha":8615,"fremst":8616,"vac":8617,"avvik":8618,"tider":8619,"inre":8620,"halla":8621,"finansier":8622,"williams":8623,"##program":8624,"flykt":8625,"nilsson":8626,"anlagg":8627,"edvard":8628,"##leis":8629,"biograf":8630,"##ikal":8631,"##bury":8632,"skargard":8633,"barcelona":8634,"##18":8635,"alg":8636,"oppkalt":8637,"planet":8638,"##jiang":8639,"##stal":8640,"##ulen":8641,"##osh":8642,"##ege":8643,"##hvert":8644,"middelsst":8645,"sasonger":8646,"kristne":8647,"##ocarp":8648,"##valg":8649,"##edet":8650,"##dad":8651,"myndighet":8652,"beij":8653,"##iansk":8654,"##ili":8655,"hertug":8656,"low":8657,"##stat":8658,"reklam":8659,"arrester":8660,"vice":8661,"savolax":8662,"##vas":8663,"##akter":8664,"comp":8665,"##uper":8666,"forsokte":8667,"grod":8668,"wall":8669,"snak":8670,"fog":8671,"bjørn":8672,"gent":8673,"##forfatt":8674,"guatem":8675,"vent":8676,"##zirk":8677,"##yan":8678,"psal":8679,"##renn":8680,"##umin":8681,"pom":8682,"maneder":8683,"lem":8684,"canad":8685,"omd":8686,"##stallning":8687,"universitets":8688,"hitler":8689,"1848":8690,"sjef":8691,"##ularis":8692,"inget":8693,"landsbyen":8694,"##nelse":8695,"spanske":8696,"trett":8697,"##iki":8698,"kryss":8699,"utred":8700,"webb":8701,"ledd":8702,"##hoe":8703,"myrten":8704,"##vald":8705,"dh":8706,"sandes":8707,"skrevs":8708,"feil":8709,"historiker":8710,"tillkom":8711,"skopje":8712,"størr":8713,"guatemala":8714,"ria":8715,"parken":8716,"water":8717,"##xt":8718,"1858":8719,"dram":8720,"erholl":8721,"underarten":8722,"jacques":8723,"##aran":8724,"vend":8725,"##iland":8726,"hob":8727,"##stift":8728,"##aktor":8729,"nusa":8730,"vunnit":8731,"formel":8732,"##mea":8733,"folkrak":8734,"jobbet":8735,"jugoslav":8736,"sound":8737,"##grad":8738,"regnet":8739,"berom":8740,"##jal":8741,"##ellus":8742,"forbundet":8743,"##omycetes":8744,"##konkur":8745,"##konst":8746,"flyt":8747,"kum":8748,"##ikan":8749,"##di":8750,"karn":8751,"pronotum":8752,"kott":8753,"skold":8754,"regisser":8755,"dhar":8756,"neb":8757,"##cen":8758,"##lok":8759,"##agon":8760,"korte":8761,"##urder":8762,"forber":8763,"tavlade":8764,"menneske":8765,"exped":8766,"hvite":8767,"##illes":8768,"fabrik":8769,"##bal":8770,"##verg":8771,"folkm":8772,"kontra":8773,"tibet":8774,"##zab":8775,"framtid":8776,"antik":8777,"fiji":8778,"senaste":8779,"tillstand":8780,"##sjt":8781,"flest":8782,"linne":8783,"gis":8784,"##tekn":8785,"katal":8786,"opprinnelige":8787,"##vikt":8788,"torel":8789,"##rand":8790,"undant":8791,"##ilien":8792,"positiv":8793,"tjeckien":8794,"fn":8795,"##litter":8796,"##unst":8797,"flygplats":8798,"scien":8799,"amt":8800,"##ctus":8801,"oar":8802,"##aro":8803,"##dera":8804,"##bladet":8805,"filosofi":8806,"##ove":8807,"ersattes":8808,"mall":8809,"flam":8810,"palest":8811,"##avling":8812,"organisasjon":8813,"trag":8814,"damp":8815,"##ytning":8816,"societ":8817,"##oke":8818,"900":8819,"eiendom":8820,"ansatt":8821,"cit":8822,"##kas":8823,"infanter":8824,"ansag":8825,"##osoma":8826,"##ernes":8827,"##ckel":8828,"flyttades":8829,"##ckning":8830,"##bs":8831,"##bolag":8832,"rug":8833,"luther":8834,"##ble":8835,"##kand":8836,"##grens":8837,"crypt":8838,"musk":8839,"1859":8840,"nad":8841,"##ademien":8842,"##wesi":8843,"arist":8844,"##viken":8845,"ay":8846,"dokumenter":8847,"##inson":8848,"fris":8849,"uttal":8850,"ukraina":8851,"sac":8852,"##ai":8853,"nedan":8854,"tempel":8855,"tub":8856,"##ylor":8857,"##skrigen":8858,"walter":8859,"bapt":8860,"chah":8861,"##atis":8862,"nattslandeart":8863,"nordmak":8864,"trekk":8865,"darlig":8866,"filippin":8867,"visa":8868,"##rane":8869,"##issen":8870,"projekt":8871,"kolle":8872,"kommit":8873,"bergskedja":8874,"##janst":8875,"##eler":8876,"jesu":8877,"extra":8878,"oppf":8879,"range":8880,"eugen":8881,"skalbaggar":8882,"##asi":8883,"skivan":8884,"honor":8885,"manit":8886,"vinner":8887,"polis":8888,"arbetet":8889,"##uden":8890,"julius":8891,"hellas":8892,"arena":8893,"kommunist":8894,"76":8895,"##sporter":8896,"offisielle":8897,"ther":8898,"nordmakedonien":8899,"gjenopp":8900,"out":8901,"blues":8902,"nærings":8903,"mandat":8904,"kinesiske":8905,"myror":8906,"atom":8907,"tai":8908,"##skop":8909,"grenser":8910,"populær":8911,"bygde":8912,"sekund":8913,"##ero":8914,"helse":8915,"##shov":8916,"likhet":8917,"beijing":8918,"##kann":8919,"lei":8920,"friidrott":8921,"##aldern":8922,"million":8923,"ogon":8924,"##jonen":8925,"##ills":8926,"##samlingen":8927,"##iddel":8928,"haug":8929,"##ray":8930,"frihet":8931,"domingo":8932,"##run":8933,"##eira":8934,"##svenskan":8935,"gord":8936,"prost":8937,"nederlanderna":8938,"nordland":8939,"##acken":8940,"##zak":8941,"forfattar":8942,"dato":8943,"human":8944,"vass":8945,"sulawesi":8946,"mw":8947,"##ijan":8948,"jackson":8949,"##snamn":8950,"##emus":8951,"skriva":8952,"ling":8953,"bisp":8954,"##æren":8955,"kroner":8956,"økonomiske":8957,"pant":8958,"hay":8959,"seder":8960,"jun":8961,"##sjtina":8962,"##agar":8963,"akk":8964,"meld":8965,"typisk":8966,"skola":8967,"spindeldjursart":8968,"bokstav":8969,"økonomisk":8970,"fars":8971,"kub":8972,"korea":8973,"finlands":8974,"øvre":8975,"##skom":8976,"reservo":8977,"gold":8978,"##eton":8979,"##oro":8980,"##erus":8981,"grasart":8982,"solgt":8983,"##bla":8984,"malv":8985,"guinea":8986,"koudyet":8987,"lære":8988,"francois":8989,"##lex":8990,"brach":8991,"99":8992,"1300":8993,"pont":8994,"mill":8995,"kret":8996,"##ktig":8997,"magnet":8998,"direktør":8999,"kvalster":9000,"##urd":9001,"karaktar":9002,"61":9003,"##beg":9004,"prog":9005,"saldes":9006,"tilsvarende":9007,"##rater":9008,"oppdrag":9009,"ng":9010,"##elis":9011,"jr":9012,"hammar":9013,"døydde":9014,"later":9015,"nationella":9016,"95":9017,"##aton":9018,"isla":9019,"studioalbum":9020,"krets":9021,"huvudstad":9022,"press":9023,"plassen":9024,"77":9025,"grunnleg":9026,"pjas":9027,"##stolen":9028,"##kort":9029,"##isere":9030,"lands":9031,"frivil":9032,"kent":9033,"153":9034,"##opt":9035,"innsp":9036,"opt":9037,"elisabeth":9038,"utbygg":9039,"plassering":9040,"##ephalus":9041,"alkohol":9042,"piz":9043,"krigs":9044,"stri":9045,"##foreningen":9046,"monten":9047,"##belt":9048,"ytre":9049,"##iven":9050,"##low":9051,"ivar":9052,"oblast":9053,"foljer":9054,"akantus":9055,"tig":9056,"##arm":9057,"estland":9058,"##sim":9059,"teksten":9060,"cyc":9061,"mim":9062,"##oken":9063,"##lanssteklar":9064,"trum":9065,"nordiska":9066,"syrien":9067,"madaga":9068,"zagreb":9069,"lunds":9070,"bulu":9071,"kli":9072,"konc":9073,"nasta":9074,"##skiftet":9075,"##sbygg":9076,"##aux":9077,"botten":9078,"reise":9079,"aph":9080,"##kvens":9081,"bengt":9082,"##vens":9083,"forret":9084,"##onde":9085,"khor":9086,"##rium":9087,"malar":9088,"##pre":9089,"hotell":9090,"bjor":9091,"innsjø":9092,"vlad":9093,"hat":9094,"##angden":9095,"evangel":9096,"##nest":9097,"78":9098,"1857":9099,"##ianus":9100,"##amento":9101,"##ubile":9102,"undersok":9103,"##forsvar":9104,"ansags":9105,"altsa":9106,"##ped":9107,"##skydd":9108,"open":9109,"betegnelsen":9110,"etablerte":9111,"spekt":9112,"tilgjeng":9113,"bolaget":9114,"bomb":9115,"matchen":9116,"tagit":9117,"arbeta":9118,"antingen":9119,"156":9120,"storting":9121,"##rah":9122,"1400":9123,"##onsin":9124,"skatt":9125,"##steg":9126,"madagaskar":9127,"##atre":9128,"baserad":9129,"yrkes":9130,"skid":9131,"omgivningen":9132,"examen":9133,"forbatt":9134,"modellen":9135,"tenn":9136,"særleg":9137,"uppfatt":9138,"sadana":9139,"##ophor":9140,"1830":9141,"company":9142,"##tag":9143,"sykdom":9144,"##ordin":9145,"erkl":9146,"##esser":9147,"sider":9148,"frid":9149,"philipp":9150,"darah":9151,"##yrt":9152,"drygt":9153,"yang":9154,"komed":9155,"hek":9156,"professionell":9157,"fril":9158,"##oly":9159,"ungdoms":9160,"vetenskapliga":9161,"bilen":9162,"hvorav":9163,"patraff":9164,"lock":9165,"finnmark":9166,"klima":9167,"mork":9168,"##alpark":9169,"teori":9170,"inledde":9171,"lob":9172,"ruf":9173,"betal":9174,"hansen":9175,"typen":9176,"##aman":9177,"##offer":9178,"beach":9179,"exper":9180,"##eldig":9181,"maskin":9182,"tittel":9183,"botan":9184,"##idi":9185,"##ume":9186,"##mis":9187,"##ologen":9188,"semifinalen":9189,"innflyt":9190,"##altet":9191,"vasa":9192,"analy":9193,"##imeter":9194,"bea":9195,"##irektor":9196,"munn":9197,"athen":9198,"##sblomm":9199,"##ular":9200,"##illverk":9201,"##kins":9202,"fak":9203,"selve":9204,"scotia":9205,"kyrkob":9206,"natten":9207,"betydande":9208,"##imb":9209,"møte":9210,"##strid":9211,"modeller":9212,"malare":9213,"guvernor":9214,"separat":9215,"##yre":9216,"monteneg":9217,"nordisk":9218,"tjanstgjorde":9219,"morg":9220,"##otrich":9221,"lux":9222,"##hag":9223,"enheter":9224,"##rins":9225,"tyng":9226,"byens":9227,"##bandet":9228,"##bek":9229,"helst":9230,"mansk":9231,"avlade":9232,"haw":9233,"chlor":9234,"deltak":9235,"##ites":9236,"mottok":9237,"##hai":9238,"##phia":9239,"konkurransen":9240,"augu":9241,"intresse":9242,"kus":9243,"anvandning":9244,"##kreis":9245,"##kvarter":9246,"##agua":9247,"##sdal":9248,"##dyr":9249,"1840":9250,"nominat":9251,"##iør":9252,"trebu":9253,"cr":9254,"##pol":9255,"states":9256,"virk":9257,"##erto":9258,"chur":9259,"manitoba":9260,"##ando":9261,"82":9262,"kairo":9263,"##musik":9264,"##kommun":9265,"##spelet":9266,"sannsynlig":9267,"##rock":9268,"##oto":9269,"dry":9270,"88":9271,"##fs":9272,"bydel":9273,"hyper":9274,"sierra":9275,"##litt":9276,"bebyggelsen":9277,"søster":9278,"precis":9279,"sande":9280,"daribland":9281,"erke":9282,"forster":9283,"pengar":9284,"##iffer":9285,"dronning":9286,"gy":9287,"portugis":9288,"##atern":9289,"lod":9290,"ambet":9291,"mort":9292,"dyp":9293,"##listan":9294,"maxim":9295,"##nare":9296,"viken":9297,"##ryp":9298,"brist":9299,"##rige":9300,"slappte":9301,"løs":9302,"ribeira":9303,"##oki":9304,"bibliotek":9305,"##vey":9306,"##amerik":9307,"squ":9308,"handball":9309,"damask":9310,"priset":9311,"##kraftverk":9312,"##figur":9313,"pans":9314,"jens":9315,"brød":9316,"utvecklades":9317,"hette":9318,"plata":9319,"redaktør":9320,"alvor":9321,"##apa":9322,"mr":9323,"##shopp":9324,"occ":9325,"konkurrerer":9326,"valen":9327,"reger":9328,"hogt":9329,"##zig":9330,"skapade":9331,"hamburg":9332,"stammer":9333,"utdannet":9334,"inrikt":9335,"orgel":9336,"talen":9337,"##frag":9338,"##elva":9339,"rekna":9340,"verkade":9341,"bandets":9342,"strang":9343,"##onis":9344,"snack":9345,"pip":9346,"wang":9347,"##vendig":9348,"##juk":9349,"lill":9350,"##vt":9351,"varia":9352,"##iation":9353,"##abet":9354,"##grunn":9355,"##iane":9356,"singelen":9357,"varianter":9358,"nedb":9359,"vestlige":9360,"grensen":9361,"rim":9362,"nue":9363,"trakk":9364,"anti":9365,"##nis":9366,"sakerhet":9367,"nominatformen":9368,"sloven":9369,"fardig":9370,"##bildning":9371,"theodor":9372,"rektor":9373,"84":9374,"syft":9375,"##fiskar":9376,"ever":9377,"lug":9378,"avse":9379,"diplomat":9380,"zar":9381,"gross":9382,"etterhvert":9383,"filip":9384,"##bare":9385,"utga":9386,"federationen":9387,"damaskus":9388,"eh":9389,"motsvarar":9390,"forhandling":9391,"##agt":9392,"##mil":9393,"tank":9394,"knapp":9395,"##ummer":9396,"departamento":9397,"##12":9398,"152":9399,"fored":9400,"fattig":9401,"##ifisert":9402,"german":9403,"##bell":9404,"conc":9405,"##avik":9406,"##kont":9407,"delarna":9408,"##arus":9409,"##tar":9410,"fylket":9411,"##kal":9412,"samle":9413,"##sval":9414,"uppgifter":9415,"officiella":9416,"1856":9417,"79":9418,"##vetenskap":9419,"stallde":9420,"lade":9421,"benamn":9422,"saken":9423,"singeln":9424,"1100":9425,"politikk":9426,"##ipennis":9427,"vera":9428,"registrer":9429,"omgang":9430,"##jes":9431,"princip":9432,"kopte":9433,"##lyst":9434,"##iba":9435,"personlig":9436,"utviklingen":9437,"supp":9438,"sz":9439,"isb":9440,"pit":9441,"kvinnliga":9442,"filosofie":9443,"valkrets":9444,"vii":9445,"##su":9446,"naværende":9447,"medaljer":9448,"utmer":9449,"##essig":9450,"nej":9451,"##moss":9452,"##ilda":9453,"parasitflugor":9454,"chi":9455,"tjeneste":9456,"##smil":9457,"card":9458,"ellers":9459,"##reformen":9460,"ført":9461,"89":9462,"myc":9463,"merc":9464,"##bul":9465,"##egard":9466,"konstantin":9467,"dirig":9468,"antarctic":9469,"utøver":9470,"##rud":9471,"befal":9472,"asteroiden":9473,"smaharkrankar":9474,"##allt":9475,"##kong":9476,"##endet":9477,"skiljer":9478,"agu":9479,"ull":9480,"kvinna":9481,"##agu":9482,"play":9483,"##pool":9484,"overfor":9485,"##brudd":9486,"fragor":9487,"group":9488,"##verks":9489,"##æring":9490,"mesterskapet":9491,"155":9492,"1855":9493,"maten":9494,"bert":9495,"##iserades":9496,"##uelt":9497,"terror":9498,"##isera":9499,"holly":9500,"##aya":9501,"veckor":9502,"##resident":9503,"avheng":9504,"house":9505,"klasse":9506,"mali":9507,"doug":9508,"attende":9509,"lamna":9510,"sic":9511,"ment":9512,"##ance":9513,"stund":9514,"florida":9515,"buss":9516,"napoleon":9517,"1852":9518,"##usal":9519,"##rodukt":9520,"bond":9521,"utdanning":9522,"oppen":9523,"sucre":9524,"metod":9525,"##roph":9526,"rose":9527,"rene":9528,"##inas":9529,"##iers":9530,"##rande":9531,"jernban":9532,"kanon":9533,"##inde":9534,"igenom":9535,"skade":9536,"##obius":9537,"kristiania":9538,"beskrivs":9539,"##sklubb":9540,"myrart":9541,"sterke":9542,"##imir":9543,"skøy":9544,"##apest":9545,"egentligen":9546,"viv":9547,"##lyck":9548,"taylor":9549,"##cupen":9550,"suva":9551,"herman":9552,"sangare":9553,"##utvik":9554,"minuter":9555,"forhallande":9556,"##gerne":9557,"wol":9558,"skreiv":9559,"astronomen":9560,"##ylon":9561,"miljo":9562,"##elly":9563,"kapp":9564,"##atra":9565,"oppos":9566,"##banan":9567,"warren":9568,"##aket":9569,"dator":9570,"##vinsen":9571,"kungariket":9572,"##edlem":9573,"##arius":9574,"##ialet":9575,"##anj":9576,"forbud":9577,"rosa":9578,"##jordes":9579,"organisasjonen":9580,"box":9581,"fullt":9582,"##verksamhet":9583,"konfer":9584,"scha":9585,"mut":9586,"reich":9587,"##yttes":9588,"festival":9589,"wik":9590,"kristen":9591,"tum":9592,"statist":9593,"disc":9594,"kjøpte":9595,"termin":9596,"noter":9597,"tror":9598,"##esa":9599,"dominikanska":9600,"##illi":9601,"##fron":9602,"kanske":9603,"##svall":9604,"innled":9605,"##arien":9606,"roger":9607,"##hea":9608,"##sjøen":9609,"##innen":9610,"omfattade":9611,"##iot":9612,"begrens":9613,"kyr":9614,"burg":9615,"get":9616,"philip":9617,"##perioden":9618,"##riere":9619,"herrarnas":9620,"medborg":9621,"##uld":9622,"fremdeles":9623,"##ante":9624,"##ellene":9625,"zealand":9626,"##ener":9627,"uppratt":9628,"høyt":9629,"tiz":9630,"friidrettsutøver":9631,"ifran":9632,"from":9633,"ena":9634,"##ahr":9635,"folker":9636,"tvingades":9637,"##anne":9638,"barnet":9639,"##natt":9640,"gabriel":9641,"niger":9642,"hoger":9643,"##idar":9644,"##skor":9645,"##endal":9646,"esc":9647,"with":9648,"##spunktet":9649,"##gift":9650,"##grupper":9651,"khal":9652,"bark":9653,"kyrkja":9654,"budapest":9655,"dru":9656,"rysk":9657,"hong":9658,"##omi":9659,"champion":9660,"framtrad":9661,"østerrike":9662,"grac":9663,"apen":9664,"ki":9665,"trin":9666,"kongelige":9667,"##strøm":9668,"blue":9669,"etterføl":9670,"tradgard":9671,"##ørt":9672,"omfattende":9673,"hond":9674,"ribeirao":9675,"86":9676,"fack":9677,"ytterligere":9678,"##resent":9679,"##elserna":9680,"##jades":9681,"premier":9682,"bun":9683,"gavle":9684,"ip":9685,"##ury":9686,"net":9687,"fylumet":9688,"dc":9689,"##visning":9690,"styrke":9691,"abd":9692,"rymd":9693,"forhind":9694,"misslyck":9695,"igar":9696,"##itis":9697,"##samma":9698,"varfor":9699,"forskj":9700,"kalen":9701,"##ssam":9702,"gruppens":9703,"##ukket":9704,"byer":9705,"bygningen":9706,"dalarna":9707,"##yah":9708,"83":9709,"uppkallad":9710,"osterrik":9711,"1851":9712,"sekunder":9713,"street":9714,"polsk":9715,"kyrkans":9716,"begreppet":9717,"kvalsterart":9718,"boy":9719,"sedermera":9720,"valget":9721,"leir":9722,"klub":9723,"moore":9724,"forteller":9725,"hegy":9726,"poet":9727,"158":9728,"kjønn":9729,"romant":9730,"atmos":9731,"tromsø":9732,"##onoma":9733,"##arch":9734,"forlot":9735,"syfte":9736,"psych":9737,"kvinne":9738,"holder":9739,"kallat":9740,"umea":9741,"hovedstaden":9742,"jonas":9743,"mach":9744,"arhundre":9745,"kraftigt":9746,"##finalen":9747,"centimeter":9748,"##nus":9749,"begrepet":9750,"utrikes":9751,"lun":9752,"svt":9753,"midler":9754,"cos":9755,"greve":9756,"hoglandsklimat":9757,"korn":9758,"utrust":9759,"##halv":9760,"nederlandsk":9761,"##kopp":9762,"monark":9763,"jarl":9764,"viktiga":9765,"verkar":9766,"monster":9767,"posisjon":9768,"##utionen":9769,"##yrkan":9770,"foraldrar":9771,"byggde":9772,"vurder":9773,"##bourne":9774,"kompl":9775,"sags":9776,"shuiku":9777,"landst":9778,"pent":9779,"unntak":9780,"ungarn":9781,"verdensmester":9782,"sager":9783,"perth":9784,"resa":9785,"lakare":9786,"eva":9787,"kuba":9788,"vinteren":9789,"organisationen":9790,"allierte":9791,"fenomen":9792,"##alven":9793,"elektrisk":9794,"basket":9795,"snackart":9796,"hurt":9797,"##naren":9798,"vulkan":9799,"hemma":9800,"1854":9801,"tatbebygg":9802,"vanligtvis":9803,"96":9804,"ath":9805,"##antha":9806,"aer":9807,"andrew":9808,"zeeland":9809,"##klubben":9810,"##edia":9811,"inner":9812,"##uellt":9813,"beskrevet":9814,"fengsel":9815,"lagene":9816,"okade":9817,"cri":9818,"stann":9819,"retning":9820,"skyld":9821,"fac":9822,"##anan":9823,"offisielt":9824,"##ei":9825,"sno":9826,"##mur":9827,"##ovic":9828,"##oslov":9829,"##adene":9830,"##rede":9831,"innsjøen":9832,"makedonska":9833,"larsson":9834,"kenya":9835,"røde":9836,"planter":9837,"blek":9838,"anim":9839,"publikum":9840,"##ibliote":9841,"##shall":9842,"populære":9843,"##vnt":9844,"portratt":9845,"konflikt":9846,"flockblommiga":9847,"offentlige":9848,"fageln":9849,"roth":9850,"##sere":9851,"hjart":9852,"jas":9853,"##bridge":9854,"arabisk":9855,"riviere":9856,"##aeus":9857,"87":9858,"manchester":9859,"arlig":9860,"rhod":9861,"inflytande":9862,"##avdel":9863,"officiellt":9864,"plate":9865,"##iev":9866,"##ار":9867,"##row":9868,"vorte":9869,"sendte":9870,"##bana":9871,"##akia":9872,"154":9873,"##mest":9874,"##fran":9875,"##aco":9876,"integ":9877,"sort":9878,"##skript":9879,"sachsen":9880,"chen":9881,"##yret":9882,"##elsens":9883,"great":9884,"vold":9885,"##ynt":9886,"konserter":9887,"boka":9888,"nit":9889,"##yen":9890,"kenn":9891,"##kul":9892,"##lever":9893,"konstit":9894,"##eslut":9895,"alber":9896,"igarape":9897,"##revet":9898,"##formis":9899,"prøv":9900,"##vart":9901,"##kkel":9902,"overgang":9903,"##16":9904,"bund":9905,"finlandsk":9906,"tennis":9907,"stylt":9908,"ix":9909,"manad":9910,"hvit":9911,"internasjonal":9912,"slakten":9913,"stadsdelen":9914,"will":9915,"ortod":9916,"##viks":9917,"##tain":9918,"kullar":9919,"1849":9920,"trod":9921,"##kyrka":9922,"pand":9923,"##wi":9924,"produkter":9925,"##mord":9926,"##mass":9927,"stater":9928,"landh":9929,"uttrykk":9930,"##skade":9931,"micro":9932,"haller":9933,"kannet":9934,"sens":9935,"##bank":9936,"kraftverk":9937,"aterfinn":9938,"bronsem":9939,"##fallen":9940,"presidenten":9941,"andreplass":9942,"country":9943,"inndeling":9944,"inng":9945,"##sfjord":9946,"fern":9947,"##lea":9948,"science":9949,"elfen":9950,"kyrkog":9951,"##wart":9952,"##krigen":9953,"nel":9954,"##ells":9955,"1853":9956,"grim":9957,"upphorde":9958,"##maskar":9959,"jobb":9960,"bildar":9961,"bakken":9962,"##vants":9963,"hevdet":9964,"##tjarnen":9965,"157":9966,"tatbebyggt":9967,"##yting":9968,"meddelade":9969,"passasjer":9970,"byrja":9971,"fordelt":9972,"##uster":9973,"##øve":9974,"utvidet":9975,"sit":9976,"did":9977,"lie":9978,"sman":9979,"##sfisk":9980,"marit":9981,"dømes":9982,"##medalj":9983,"pavir":9984,"##orh":9985,"anklag":9986,"##17":9987,"##pson":9988,"amph":9989,"otill":9990,"##rie":9991,"tros":9992,"bac":9993,"##vad":9994,"##forhallandena":9995,"##issa":9996,"nich":9997,"vr":9998,"forsøkte":9999,"##ranse":10000,"##ophagus":10001,"##fugl":10002,"jama":10003,"autonoma":10004,"cupen":10005,"kapten":10006,"kritiker":10007,"vinna":10008,"coc":10009,"koreanska":10010,"anlegget":10011,"##itioner":10012,"piper":10013,"kyrkobygg":10014,"syr":10015,"reguler":10016,"##esia":10017,"giv":10018,"lavart":10019,"mistet":10020,"foot":10021,"avsluttet":10022,"sha":10023,"forhand":10024,"##sna":10025,"##yder":10026,"tvang":10027,"good":10028,"mete":10029,"teknisk":10030,"##zel":10031,"rester":10032,"fastlandet":10033,"##usk":10034,"hoh":10035,"utført":10036,"oppret":10037,"interesse":10038,"##uela":10039,"spelas":10040,"rent":10041,"stro":10042,"##nere":10043,"sammanhang":10044,"##skild":10045,"mørk":10046,"cav":10047,"digit":10048,"kommet":10049,"mission":10050,"##real":10051,"atlant":10052,"##usalem":10053,"jbel":10054,"gamm":10055,"naturen":10056,"fortell":10057,"elit":10058,"rank":10059,"##snes":10060,"generelt":10061,"menar":10062,"levnad":10063,"##endørs":10064,"lewis":10065,"salde":10066,"##sdag":10067,"kanadens":10068,"##sgatan":10069,"##ønt":10070,"varierar":10071,"98":10072,"##eti":10073,"##parti":10074,"emer":10075,"kejsar":10076,"songar":10077,"##rul":10078,"indust":10079,"utslatt":10080,"##ogae":10081,"##lak":10082,"anvants":10083,"mob":10084,"##icornis":10085,"##ieg":10086,"key":10087,"##fabrik":10088,"##fallet":10089,"bestemt":10090,"##baltet":10091,"ff":10092,"magasin":10093,"##iflora":10094,"aukt":10095,"##arez":10096,"##ytter":10097,"timmar":10098,"##angare":10099,"vokal":10100,"##fast":10101,"militara":10102,"##enne":10103,"cont":10104,"atten":10105,"montenegro":10106,"ansatte":10107,"underfamilien":10108,"internet":10109,"jamtland":10110,"allvar":10111,"bulg":10112,"skapades":10113,"carolina":10114,"92":10115,"kod":10116,"##tek":10117,"##ekan":10118,"##ence":10119,"call":10120,"##quist":10121,"nick":10122,"##øder":10123,"studie":10124,"mastare":10125,"fangelse":10126,"bezirk":10127,"spillet":10128,"banan":10129,"##nd":10130,"##omrader":10131,"reakt":10132,"branden":10133,"vib":10134,"tver":10135,"##bajd":10136,"kristna":10137,"##loc":10138,"##etus":10139,"##ryd":10140,"lop":10141,"jerusalem":10142,"##medalje":10143,"fat":10144,"desig":10145,"kated":10146,"##ukk":10147,"##hatt":10148,"krim":10149,"##ving":10150,"##atorium":10151,"stasjonen":10152,"##alan":10153,"ekstra":10154,"mottag":10155,"##ophilus":10156,"urval":10157,"academ":10158,"linjer":10159,"##osi":10160,"tyr":10161,"##ungeb":10162,"##uft":10163,"hals":10164,"dvs":10165,"##dra":10166,"##11":10167,"jiang":10168,"charlott":10169,"##dyn":10170,"republikken":10171,"dublin":10172,"tappeh":10173,"territori":10174,"overgick":10175,"væ":10176,"avtal":10177,"vegen":10178,"valdigt":10179,"wu":10180,"diver":10181,"deltagare":10182,"##via":10183,"##smuse":10184,"bure":10185,"oversattning":10186,"pir":10187,"pac":10188,"ordfører":10189,"omtalt":10190,"spelaren":10191,"jamfor":10192,"##shoppor":10193,"97":10194,"scenen":10195,"day":10196,"hjer":10197,"fair":10198,"##kol":10199,"aktivitet":10200,"davis":10201,"bys":10202,"styret":10203,"road":10204,"##losa":10205,"speciellt":10206,"##yeong":10207,"avdeling":10208,"transporter":10209,"##jus":10210,"##ellan":10211,"dvd":10212,"ombord":10213,"hamil":10214,"publicerades":10215,"arida":10216,"##riken":10217,"muller":10218,"stabil":10219,"liver":10220,"jør":10221,"##mane":10222,"##barn":10223,"motsvarande":10224,"cec":10225,"reserve":10226,"amazon":10227,"##sbruk":10228,"aterfinns":10229,"agare":10230,"zam":10231,"marc":10232,"iris":10233,"sluttet":10234,"##aa":10235,"forlang":10236,"aktenskap":10237,"trebukker":10238,"avis":10239,"sovjetiske":10240,"service":10241,"ledelse":10242,"gjelder":10243,"##bror":10244,"perioder":10245,"bolig":10246,"representerad":10247,"##arl":10248,"kamer":10249,"telemark":10250,"forsalj":10251,"valle":10252,"rig":10253,"##yin":10254,"aland":10255,"ledande":10256,"besø":10257,"##jekter":10258,"##icip":10259,"kardinal":10260,"forskare":10261,"stemmer":10262,"undantag":10263,"olje":10264,"christop":10265,"##atak":10266,"preget":10267,"##ikon":10268,"berøm":10269,"##atser":10270,"quad":10271,"barndom":10272,"radd":10273,"ahl":10274,"gly":10275,"sult":10276,"##ktioner":10277,"##ystemet":10278,"forbj":10279,"vanlige":10280,"misjon":10281,"problemer":10282,"##vall":10283,"overra":10284,"sli":10285,"buddh":10286,"musiken":10287,"vær":10288,"##arder":10289,"kaptein":10290,"dalen":10291,"løy":10292,"##spill":10293,"##leh":10294,"publicerade":10295,"representerade":10296,"provins":10297,"tres":10298,"tillat":10299,"##ogel":10300,"opplev":10301,"georgia":10302,"tøn":10303,"harstam":10304,"bestemte":10305,"intervju":10306,"renover":10307,"synd":10308,"##ckar":10309,"##fartyg":10310,"upphov":10311,"##alli":10312,"ender":10313,"himmel":10314,"##kysten":10315,"##jing":10316,"saknar":10317,"sarbar":10318,"heilt":10319,"tokyo":10320,"thailand":10321,"tir":10322,"gett":10323,"##anni":10324,"sikt":10325,"sher":10326,"cens":10327,"##iserad":10328,"##eger":10329,"rattigheter":10330,"##nevnte":10331,"musikken":10332,"kastilien":10333,"xanth":10334,"##ygger":10335,"ub":10336,"##sin":10337,"smitt":10338,"ansvaret":10339,"##estad":10340,"tysklands":10341,"ranun":10342,"##ission":10343,"utnytt":10344,"dekker":10345,"##landske":10346,"gjeve":10347,"internationellt":10348,"sannol":10349,"renner":10350,"##enfor":10351,"##estan":10352,"genet":10353,"gilbert":10354,"##holde":10355,"teatern":10356,"stick":10357,"affar":10358,"detaljer":10359,"antennene":10360,"hier":10361,"##yne":10362,"1814":10363,"##fik":10364,"diskuter":10365,"sociala":10366,"##15":10367,"##filmen":10368,"narings":10369,"nominert":10370,"##icer":10371,"kjær":10372,"broder":10373,"sax":10374,"islands":10375,"##tering":10376,"bereg":10377,"93":10378,"mine":10379,"##rettet":10380,"brat":10381,"landkreis":10382,"omradene":10383,"michel":10384,"forsvaret":10385,"##meter":10386,"cher":10387,"versjonen":10388,"dater":10389,"##made":10390,"domstol":10391,"praks":10392,"kjende":10393,"demon":10394,"cacho":10395,"##ikkel":10396,"pach":10397,"##inis":10398,"planen":10399,"##idus":10400,"##olag":10401,"##ssons":10402,"heil":10403,"palm":10404,"##ych":10405,"##assa":10406,"##kultur":10407,"hogst":10408,"gad":10409,"##rap":10410,"honan":10411,"##eborg":10412,"kjell":10413,"lof":10414,"##ocera":10415,"siah":10416,"bayern":10417,"bøl":10418,"elect":10419,"støttet":10420,"##shand":10421,"##lander":10422,"elfenben":10423,"baserat":10424,"private":10425,"##elm":10426,"##bottens":10427,"##slagen":10428,"##unga":10429,"##jande":10430,"##givare":10431,"beror":10432,"ces":10433,"orienter":10434,"undervisning":10435,"avslo":10436,"orth":10437,"tradisjonelle":10438,"stadsdel":10439,"brother":10440,"wild":10441,"reformer":10442,"klimatforhallandena":10443,"upplagan":10444,"gum":10445,"##aust":10446,"klubbens":10447,"søra":10448,"avskaff":10449,"sankmarker":10450,"møter":10451,"utgrav":10452,"##ifera":10453,"##ikar":10454,"kommunerna":10455,"lignende":10456,"samfunnet":10457,"dokumentar":10458,"sebast":10459,"##atør":10460,"##økene":10461,"church":10462,"sprang":10463,"egentlig":10464,"##vare":10465,"##jam":10466,"paven":10467,"olj":10468,"honduras":10469,"hamilton":10470,"fremste":10471,"debatt":10472,"innført":10473,"his":10474,"parc":10475,"guyana":10476,"etiopien":10477,"vasteras":10478,"maz":10479,"##asitet":10480,"partier":10481,"##arkite":10482,"stycken":10483,"texten":10484,"##agh":10485,"fox":10486,"amster":10487,"monument":10488,"kurd":10489,"##bruket":10490,"annon":10491,"##ireg":10492,"fadern":10493,"##kin":10494,"intens":10495,"##smakten":10496,"forbi":10497,"##filmer":10498,"amsterdam":10499,"forekomm":10500,"association":10501,"##utan":10502,"schiz":10503,"##byggnaden":10504,"##akes":10505,"##viste":10506,"##hjem":10507,"xi":10508,"##pur":10509,"genomfordes":10510,"foremal":10511,"agder":10512,"94":10513,"##iano":10514,"##wick":10515,"piano":10516,"##edy":10517,"##asia":10518,"##nt":10519,"virginia":10520,"hammer":10521,"systematik":10522,"kjø":10523,"puerto":10524,"##tz":10525,"mener":10526,"##kanten":10527,"##medlem":10528,"representerer":10529,"1847":10530,"huvudbaltet":10531,"handlingen":10532,"petersburg":10533,"anledning":10534,"hk":10535,"##vari":10536,"flockblommig":10537,"##atret":10538,"care":10539,"manu":10540,"metoder":10541,"varldsmaster":10542,"bagdad":10543,"starka":10544,"##stj":10545,"dum":10546,"##ough":10547,"##oua":10548,"arkitekten":10549,"rok":10550,"synes":10551,"japanske":10552,"oued":10553,"##ryn":10554,"arkiv":10555,"kilder":10556,"scar":10557,"##ki":10558,"##ield":10559,"##shuset":10560,"arsak":10561,"##opel":10562,"##icia":10563,"vrh":10564,"bedri":10565,"flate":10566,"representanter":10567,"##uning":10568,"officer":10569,"funnits":10570,"produ":10571,"anser":10572,"nærheten":10573,"##laggning":10574,"fortsatta":10575,"observer":10576,"##alpa":10577,"projektet":10578,"khorasan":10579,"introdus":10580,"utok":10581,"angrepet":10582,"stipend":10583,"1838":10584,"main":10585,"howard":10586,"##zy":10587,"banen":10588,"bjork":10589,"plag":10590,"##wich":10591,"say":10592,"##høy":10593,"##skad":10594,"oppdaga":10595,"tronen":10596,"anstallda":10597,"ow":10598,"##orda":10599,"motte":10600,"1846":10601,"oppgav":10602,"##leks":10603,"jin":10604,"vakt":10605,"##hoven":10606,"levande":10607,"prosjektet":10608,"referenser":10609,"dich":10610,"tann":10611,"##anta":10612,"##valget":10613,"gala":10614,"liter":10615,"##vania":10616,"jav":10617,"##idd":10618,"osterbotten":10619,"##ublikken":10620,"centre":10621,"##nia":10622,"##aspis":10623,"guer":10624,"absol":10625,"##produkt":10626,"noksa":10627,"rapids":10628,"##fred":10629,"mening":10630,"uttryck":10631,"##ruz":10632,"##løpet":10633,"##ttes":10634,"korall":10635,"glad":10636,"gregor":10637,"##eby":10638,"arbetat":10639,"##ction":10640,"liverpool":10641,"##apar":10642,"tala":10643,"bøn":10644,"tranare":10645,"sja":10646,"##right":10647,"tob":10648,"joe":10649,"veget":10650,"forestall":10651,"##uro":10652,"##shan":10653,"##wang":10654,"##inidae":10655,"tegnet":10656,"fødd":10657,"kombiner":10658,"##ogloss":10659,"melbourne":10660,"buttu":10661,"røy":10662,"plast":10663,"##faglar":10664,"antas":10665,"aar":10666,"##hein":10667,"jurist":10668,"##edalen":10669,"torg":10670,"fløy":10671,"##eve":10672,"allmant":10673,"order":10674,"##elberg":10675,"##kelser":10676,"bonn":10677,"drive":10678,"cachoeira":10679,"##forfattare":10680,"varmland":10681,"narmare":10682,"##mers":10683,"produsent":10684,"schmid":10685,"prefektur":10686,"mira":10687,"strav":10688,"fakult":10689,"skarab":10690,"##jinga":10691,"##stilt":10692,"##urser":10693,"høye":10694,"##cens":10695,"teknik":10696,"##yrus":10697,"##shavet":10698,"utgavs":10699,"stru":10700,"glav":10701,"championship":10702,"##chewan":10703,"overført":10704,"alan":10705,"avgjør":10706,"damer":10707,"##endron":10708,"##alisert":10709,"##leve":10710,"##oven":10711,"kinas":10712,"##svalet":10713,"sard":10714,"##uge":10715,"##enda":10716,"cay":10717,"##maktige":10718,"##hallen":10719,"reservatet":10720,"raf":10721,"uker":10722,"##wall":10723,"way":10724,"##iten":10725,"benam":10726,"slav":10727,"fing":10728,"svav":10729,"hastighet":10730,"stanley":10731,"sydaf":10732,"ende":10733,"##ovac":10734,"brunn":10735,"##oft":10736,"rica":10737,"saskat":10738,"##cu":10739,"infordes":10740,"aik":10741,"##malm":10742,"##ique":10743,"##mater":10744,"lokaler":10745,"##idion":10746,"koppar":10747,"civ":10748,"komment":10749,"ostantarktis":10750,"##jene":10751,"kris":10752,"bortsett":10753,"listen":10754,"oppd":10755,"øyene":10756,"ordinarie":10757,"vack":10758,"overg":10759,"##vision":10760,"##fød":10761,"brid":10762,"##ogaster":10763,"##schef":10764,"##brand":10765,"1842":10766,"saskatchewan":10767,"mans":10768,"djib":10769,"##klart":10770,"sprint":10771,"rolf":10772,"sammanlagt":10773,"tjenest":10774,"##forbind":10775,"##uy":10776,"oversett":10777,"tackt":10778,"##baijan":10779,"bens":10780,"mix":10781,"zh":10782,"##oman":10783,"##havare":10784,"oskar":10785,"##sledamot":10786,"moren":10787,"dick":10788,"partik":10789,"begynner":10790,"##liggende":10791,"anom":10792,"trafikk":10793,"night":10794,"stallning":10795,"cell":10796,"##ukas":10797,"marx":10798,"phyt":10799,"##zj":10800,"cin":10801,"##amal":10802,"##eks":10803,"##itus":10804,"gyll":10805,"utforde":10806,"##spor":10807,"##ient":10808,"fotballspelar":10809,"inspirert":10810,"##valet":10811,"##øret":10812,"##formet":10813,"kvalitet":10814,"douglas":10815,"##abil":10816,"mynt":10817,"utifran":10818,"##spektiv":10819,"tegel":10820,"inde":10821,"##14":10822,"cerat":10823,"normand":10824,"##vinn":10825,"##bot":10826,"##asje":10827,"elizab":10828,"danner":10829,"fig":10830,"##oo":10831,"##usjonen":10832,"##empet":10833,"økonomi":10834,"telefon":10835,"trip":10836,"uru":10837,"##dens":10838,"##arbeidet":10839,"aktivt":10840,"tiar":10841,"regissert":10842,"colonia":10843,"internasjonalt":10844,"inbord":10845,"##ømme":10846,"rese":10847,"##haf":10848,"149":10849,"##partement":10850,"viol":10851,"trykk":10852,"##lagen":10853,"taiwan":10854,"##rare":10855,"gula":10856,"euc":10857,"##stens":10858,"rib":10859,"kongens":10860,"djibout":10861,"medeltiden":10862,"srp":10863,"forsoker":10864,"politiskt":10865,"pedro":10866,"##høg":10867,"amnen":10868,"tatort":10869,"aterigen":10870,"hugo":10871,"belgia":10872,"gods":10873,"mojlighet":10874,"mess":10875,"rust":10876,"kraftige":10877,"stiftelsen":10878,"pahar":10879,"clark":10880,"leop":10881,"vie":10882,"##sjuk":10883,"huvudort":10884,"##amat":10885,"partiets":10886,"stone":10887,"hollywood":10888,"1844":10889,"brian":10890,"katolska":10891,"##ungebin":10892,"##ellidae":10893,"beho":10894,"apost":10895,"inleddes":10896,"hakon":10897,"estero":10898,"pha":10899,"##lers":10900,"leda":10901,"signer":10902,"win":10903,"hoj":10904,"1845":10905,"turnering":10906,"##skaps":10907,"jordan":10908,"kollektiv":10909,"cli":10910,"strandlinjen":10911,"##skilt":10912,"favor":10913,"##slet":10914,"tidsskrift":10915,"hurtig":10916,"gjennomsnitt":10917,"kyrkoh":10918,"konger":10919,"reste":10920,"ink":10921,"spra":10922,"berget":10923,"østlige":10924,"##emar":10925,"doda":10926,"##inata":10927,"##entlig":10928,"storlek":10929,"##gras":10930,"##biller":10931,"##ittel":10932,"snø":10933,"##ephala":10934,"liknar":10935,"vd":10936,"frederick":10937,"korsblomm":10938,"stoff":10939,"firma":10940,"teolog":10941,"offentliga":10942,"##omia":10943,"diagn":10944,"male":10945,"politischer":10946,"committe":10947,"soph":10948,"##otis":10949,"grun":10950,"blind":10951,"manager":10952,"utvecklingen":10953,"##perm":10954,"administrativa":10955,"reis":10956,"elizabeth":10957,"##ople":10958,"komponist":10959,"##jut":10960,"##arth":10961,"romaner":10962,"##geren":10963,"kortare":10964,"gradvis":10965,"society":10966,"urban":10967,"##handel":10968,"skatte":10969,"reykj":10970,"nordaust":10971,"##rons":10972,"##fulla":10973,"agua":10974,"##satta":10975,"helik":10976,"lansert":10977,"konsul":10978,"hamnade":10979,"##shistor":10980,"steve":10981,"state":10982,"exister":10983,"pitt":10984,"likt":10985,"##ining":10986,"##platser":10987,"anord":10988,"##deb":10989,"bakkro":10990,"##sex":10991,"sade":10992,"##meb":10993,"##vol":10994,"stilte":10995,"kult":10996,"##onius":10997,"##fur":10998,"rena":10999,"republika":11000,"##itud":11001,"lakes":11002,"##etning":11003,"festivalen":11004,"##itel":11005,"svampdjursart":11006,"foreb":11007,"moral":11008,"syss":11009,"definier":11010,"bbc":11011,"bø":11012,"behover":11013,"vanner":11014,"##sforening":11015,"##skusten":11016,"##ifol":11017,"kamar":11018,"institutt":11019,"bredt":11020,"##svagen":11021,"anderson":11022,"##ан":11023,"oxford":11024,"regim":11025,"betydligt":11026,"shar":11027,"##herre":11028,"klost":11029,"allen":11030,"oppnade":11031,"crist":11032,"curt":11033,"ridder":11034,"trodde":11035,"##syk":11036,"##ationerna":11037,"##styre":11038,"avslutade":11039,"football":11040,"olsen":11041,"berattar":11042,"anerkjen":11043,"ps":11044,"##ls":11045,"uppror":11046,"expedition":11047,"##urneringen":11048,"##valt":11049,"farge":11050,"fraga":11051,"beng":11052,"cet":11053,"sammenlig":11054,"tod":11055,"motsetning":11056,"slogs":11057,"##vekt":11058,"beskrivning":11059,"samla":11060,"inngar":11061,"objekt":11062,"miljon":11063,"humor":11064,"##orpha":11065,"##resp":11066,"##sjonen":11067,"committee":11068,"lata":11069,"stu":11070,"laste":11071,"##ulas":11072,"##ratten":11073,"verda":11074,"ey":11075,"1839":11076,"befolkad":11077,"hjemme":11078,"reykjavik":11079,"spre":11080,"##ianske":11081,"##schen":11082,"colombo":11083,"regional":11084,"mytologi":11085,"##ourt":11086,"oftest":11087,"bosatte":11088,"personen":11089,"belgien":11090,"##irus":11091,"municip":11092,"romerska":11093,"avholdt":11094,"falk":11095,"avhengig":11096,"##agan":11097,"eleg":11098,"vider":11099,"aktiva":11100,"bock":11101,"mika":11102,"eksper":11103,"##bitare":11104,"##skottet":11105,"##stalldes":11106,"ceram":11107,"riacho":11108,"srpska":11109,"djibouti":11110,"uppt":11111,"omnamn":11112,"##icolor":11113,"ødel":11114,"forfatteren":11115,"ess":11116,"reist":11117,"halm":11118,"##giver":11119,"betong":11120,"utvecklade":11121,"##wal":11122,"##anum":11123,"sønnen":11124,"tredjeplass":11125,"##skontrakt":11126,"nederlandske":11127,"kyrkje":11128,"installert":11129,"uavhengig":11130,"okkup":11131,"##13":11132,"undersø":11133,"bidrog":11134,"##aba":11135,"zur":11136,"unionen":11137,"##akon":11138,"inneholl":11139,"hovedstad":11140,"sjukhus":11141,"utov":11142,"veck":11143,"labor":11144,"ordenen":11145,"##olph":11146,"fiskar":11147,"klara":11148,"##any":11149,"tenu":11150,"ekt":11151,"internationell":11152,"intresser":11153,"beet":11154,"dash":11155,"##oser":11156,"etterful":11157,"dicran":11158,"dest":11159,"bulb":11160,"kontrover":11161,"kid":11162,"tasman":11163,"ranger":11164,"betraktas":11165,"##rupper":11166,"tilknytning":11167,"innt":11168,"buset":11169,"pinyin":11170,"##iseras":11171,"stjerne":11172,"abe":11173,"##hara":11174,"##ipe":11175,"saf":11176,"omkom":11177,"datab":11178,"##vatten":11179,"##ische":11180,"anstalld":11181,"kad":11182,"1837":11183,"epid":11184,"##ularia":11185,"##oer":11186,"##ordenen":11187,"posten":11188,"dna":11189,"##breen":11190,"##furt":11191,"##entes":11192,"##skin":11193,"radet":11194,"tidlige":11195,"kjøpt":11196,"nødvendig":11197,"volley":11198,"klin":11199,"series":11200,"breuning":11201,"tryck":11202,"wel":11203,"##vor":11204,"halsing":11205,"vladimir":11206,"##ocke":11207,"yttre":11208,"europeisk":11209,"##jun":11210,"now":11211,"skon":11212,"ordning":11213,"teoret":11214,"##ifte":11215,"imot":11216,"radik":11217,"preussen":11218,"boston":11219,"##ksjonen":11220,"religiøse":11221,"eug":11222,"holland":11223,"spørsmal":11224,"##sakademien":11225,"##ophaga":11226,"triv":11227,"fria":11228,"lung":11229,"##øyer":11230,"head":11231,"cant":11232,"##char":11233,"alta":11234,"##ctor":11235,"linkoping":11236,"##fagel":11237,"formod":11238,"##ikern":11239,"sidor":11240,"kulturm":11241,"daglig":11242,"besatt":11243,"##nsyn":11244,"cass":11245,"colorado":11246,"sosiale":11247,"øverste":11248,"##aville":11249,"forholdsvis":11250,"##ylind":11251,"ayn":11252,"omfattning":11253,"qal":11254,"oka":11255,"##draget":11256,"namnas":11257,"##ego":11258,"kel":11259,"avhandling":11260,"##rere":11261,"styrkene":11262,"scoret":11263,"##essor":11264,"shang":11265,"opprinnelse":11266,"wur":11267,"kef":11268,"make":11269,"##tom":11270,"ligan":11271,"ambassad":11272,"kone":11273,"sjette":11274,"nyheter":11275,"luis":11276,"##ningss":11277,"fet":11278,"fikt":11279,"aring":11280,"##stadt":11281,"##skilda":11282,"synner":11283,"christopher":11284,"##anthes":11285,"##rute":11286,"##ione":11287,"##qi":11288,"rovflugor":11289,"beford":11290,"vinne":11291,"##bran":11292,"tverr":11293,"programmer":11294,"abraham":11295,"dobbelt":11296,"foster":11297,"tin":11298,"trig":11299,"##liste":11300,"intel":11301,"stjarna":11302,"##polit":11303,"produksjonen":11304,"tong":11305,"ingenjor":11306,"digital":11307,"soner":11308,"næring":11309,"##reng":11310,"engag":11311,"studera":11312,"pend":11313,"rott":11314,"sende":11315,"sjeld":11316,"##uka":11317,"montreal":11318,"beck":11319,"bach":11320,"##valdes":11321,"ifk":11322,"brazz":11323,"bulgarien":11324,"bott":11325,"##osphaer":11326,"sikre":11327,"##edømmet":11328,"##lon":11329,"wag":11330,"langrenn":11331,"mom":11332,"skan":11333,"grader":11334,"##standen":11335,"inslag":11336,"enhjartbladig":11337,"middelsstore":11338,"faste":11339,"pag":11340,"leonard":11341,"##opol":11342,"##vs":11343,"##ygge":11344,"##omyza":11345,"frist":11346,"##kat":11347,"##ologien":11348,"praksis":11349,"regioner":11350,"fund":11351,"##cta":11352,"enter":11353,"eksemplar":11354,"verne":11355,"mull":11356,"korta":11357,"##jørn":11358,"##amb":11359,"kronp":11360,"tilfeller":11361,"kran":11362,"##ous":11363,"##aric":11364,"pedagog":11365,"trener":11366,"tizi":11367,"skapte":11368,"omvand":11369,"##amnet":11370,"regemente":11371,"##vans":11372,"term":11373,"varlds":11374,"##hjul":11375,"cort":11376,"bibel":11377,"##lamn":11378,"skogen":11379,"cross":11380,"beatles":11381,"tilsk":11382,"##avar":11383,"upplost":11384,"##rorelsen":11385,"##fiske":11386,"vastergotland":11387,"##ocephalus":11388,"resultater":11389,"folketell":11390,"##rill":11391,"moham":11392,"##sforbund":11393,"ich":11394,"oav":11395,"##inet":11396,"##sels":11397,"##enia":11398,"trakt":11399,"##oneura":11400,"varierer":11401,"##ube":11402,"jersey":11403,"fjernsyn":11404,"wars":11405,"lagger":11406,"besto":11407,"##delige":11408,"mike":11409,"##irekt":11410,"engasj":11411,"namngje":11412,"##rana":11413,"##sbru":11414,"guds":11415,"commun":11416,"ric":11417,"##ioc":11418,"drom":11419,"jatte":11420,"##edo":11421,"damm":11422,"##ingom":11423,"##istans":11424,"heid":11425,"##ahan":11426,"skara":11427,"##elidae":11428,"##skamp":11429,"rotter":11430,"alberta":11431,"schle":11432,"operasjon":11433,"##kommer":11434,"inkluderer":11435,"gitarr":11436,"##ftea":11437,"##23":11438,"eriksson":11439,"hendelser":11440,"visst":11441,"brot":11442,"fartyget":11443,"avsnittet":11444,"introducer":11445,"stilen":11446,"##nens":11447,"mant":11448,"##ksjoner":11449,"##larare":11450,"##iction":11451,"glavica":11452,"volk":11453,"##alten":11454,"gransar":11455,"kvalific":11456,"avbild":11457,"##ologin":11458,"tul":11459,"virksomhet":11460,"##sekreterare":11461,"hyr":11462,"obe":11463,"sinn":11464,"benyttes":11465,"bronsemedal":11466,"allsvenskan":11467,"skyl":11468,"administrativt":11469,"wi":11470,"solgte":11471,"trupper":11472,"frans":11473,"##rukket":11474,"bruce":11475,"valer":11476,"østerrik":11477,"bohus":11478,"ekteskap":11479,"offiser":11480,"##urope":11481,"anfall":11482,"morne":11483,"varefter":11484,"brazzaville":11485,"server":11486,"koloni":11487,"acanth":11488,"vannet":11489,"sikkerhet":11490,"veldig":11491,"##mennene":11492,"gymnast":11493,"filippinerna":11494,"satelli":11495,"##hogskolan":11496,"##sekretær":11497,"arbeide":11498,"mørke":11499,"bryst":11500,"signal":11501,"paulo":11502,"##bun":11503,"##ienter":11504,"molek":11505,"grense":11506,"hovudsak":11507,"##dare":11508,"eb":11509,"##dene":11510,"##edag":11511,"##lere":11512,"that":11513,"base":11514,"ryggen":11515,"laurent":11516,"yor":11517,"polyp":11518,"belon":11519,"vem":11520,"##hammer":11521,"oct":11522,"attack":11523,"seil":11524,"senator":11525,"smaningom":11526,"elli":11527,"leip":11528,"pors":11529,"flyet":11530,"##stasjon":11531,"belaget":11532,"grans":11533,"bygninger":11534,"angri":11535,"windows":11536,"##cla":11537,"##ensson":11538,"oms":11539,"innflytelse":11540,"valt":11541,"drevet":11542,"##irat":11543,"medverkat":11544,"##valgt":11545,"kru":11546,"##rosophila":11547,"offer":11548,"##smedel":11549,"skaff":11550,"##ocha":11551,"##rerade":11552,"prince":11553,"hest":11554,"katarina":11555,"besøk":11556,"ekv":11557,"ekonomi":11558,"cyper":11559,"dyg":11560,"##start":11561,"kampene":11562,"pakistan":11563,"baten":11564,"skala":11565,"##chis":11566,"##lack":11567,"##sped":11568,"systematisk":11569,"gig":11570,"##oar":11571,"##dre":11572,"publisert":11573,"nunatak":11574,"##mande":11575,"uttar":11576,"gest":11577,"lap":11578,"##hm":11579,"turn":11580,"personal":11581,"fange":11582,"tanke":11583,"utgangspunkt":11584,"##skommun":11585,"mobil":11586,"senior":11587,"kerman":11588,"##ssenter":11589,"##arbetare":11590,"fed":11591,"andel":11592,"schles":11593,"##samt":11594,"olsson":11595,"chris":11596,"spets":11597,"nieder":11598,"##idaceae":11599,"graham":11600,"aj":11601,"baptiste":11602,"##jektiv":11603,"##uterade":11604,"pereval":11605,"fantas":11606,"extrem":11607,"##rina":11608,"guang":11609,"deleg":11610,"formal":11611,"fjall":11612,"invester":11613,"tecken":11614,"your":11615,"##ск":11616,"cob":11617,"halften":11618,"##smat":11619,"tvung":11620,"##olus":11621,"oppnades":11622,"otillrackligt":11623,"golden":11624,"katolsk":11625,"glest":11626,"skinn":11627,"revs":11628,"ryt":11629,"##jarne":11630,"handler":11631,"syftar":11632,"mey":11633,"myst":11634,"batter":11635,"avd":11636,"##talje":11637,"utgivet":11638,"jevn":11639,"kriminal":11640,"##mont":11641,"##gers":11642,"##dy":11643,"##omot":11644,"##rakter":11645,"protester":11646,"utdannelse":11647,"dømt":11648,"sche":11649,"pale":11650,"##oun":11651,"ansett":11652,"invader":11653,"asiat":11654,"odd":11655,"##byc":11656,"videregaende":11657,"##stoff":11658,"##istene":11659,"einar":11660,"##tur":11661,"karlek":11662,"##ulf":11663,"bour":11664,"meteor":11665,"##usent":11666,"distan":11667,"##ocarpus":11668,"sop":11669,"utgiven":11670,"kred":11671,"nass":11672,"##iao":11673,"inneheld":11674,"styrelse":11675,"kommunens":11676,"##ross":11677,"##kirke":11678,"grunnla":11679,"##edyr":11680,"pist":11681,"tradisjonelt":11682,"##result":11683,"redaktor":11684,"bevart":11685,"styltflugor":11686,"##gruppe":11687,"kiri":11688,"##worth":11689,"polska":11690,"legend":11691,"brost":11692,"tyrkia":11693,"forran":11694,"elfenbenskusten":11695,"eftertraddes":11696,"middelalderen":11697,"##lend":11698,"fungerar":11699,"grensa":11700,"partil":11701,"##cast":11702,"accep":11703,"litet":11704,"##rong":11705,"troms":11706,"forvand":11707,"##intend":11708,"menade":11709,"premiarminister":11710,"##leik":11711,"sond":11712,"faller":11713,"bath":11714,"giov":11715,"nedlagt":11716,"genombrott":11717,"##onne":11718,"##fton":11719,"fjadermyggor":11720,"##betet":11721,"ideer":11722,"kjer":11723,"partner":11724,"usas":11725,"##aring":11726,"##uensis":11727,"fynd":11728,"revolution":11729,"guad":11730,"tilgjengelig":11731,"tilt":11732,"##hald":11733,"dikter":11734,"##ylan":11735,"##produksjon":11736,"atmin":11737,"valley":11738,"##roblem":11739,"automat":11740,"mt":11741,"##imar":11742,"sjun":11743,"##sblad":11744,"##fr":11745,"invand":11746,"nagonsin":11747,"mineral":11748,"atminstone":11749,"##ivis":11750,"125":11751,"politiet":11752,"##onus":11753,"aksep":11754,"helsingborg":11755,"artiklar":11756,"hass":11757,"søraust":11758,"grashoppor":11759,"##occus":11760,"ekspedisjon":11761,"wen":11762,"##nos":11763,"chel":11764,"vartbitare":11765,"##ningst":11766,"chin":11767,"##serie":11768,"##ukta":11769,"kurs":11770,"##uther":11771,"kristiansand":11772,"framforallt":11773,"##kommande":11774,"beord":11775,"ekspedisjonen":11776,"studerad":11777,"ranunkel":11778,"xen":11779,"##iber":11780,"fullstendig":11781,"alfabet":11782,"goran":11783,"tuber":11784,"##arda":11785,"danna":11786,"##syl":11787,"##cio":11788,"barra":11789,"##enga":11790,"1841":11791,"beina":11792,"##okar":11793,"adri":11794,"##esenter":11795,"opptil":11796,"muham":11797,"##hafaz":11798,"oce":11799,"was":11800,"##kene":11801,"auster":11802,"yu":11803,"##ophylla":11804,"dialekt":11805,"pansar":11806,"pensjon":11807,"##emen":11808,"miguel":11809,"havanna":11810,"europam":11811,"medlemmene":11812,"økt":11813,"brant":11814,"asien":11815,"gordon":11816,"framleis":11817,"##ytan":11818,"##byn":11819,"##isar":11820,"adela":11821,"##espill":11822,"tomm":11823,"tony":11824,"fragan":11825,"tidskriften":11826,"1843":11827,"##oglossum":11828,"protestant":11829,"##amus":11830,"nordamerika":11831,"gifta":11832,"underhall":11833,"bratt":11834,"##forfatter":11835,"handboll":11836,"finan":11837,"##krit":11838,"tiln":11839,"avgor":11840,"nyere":11841,"##kra":11842,"mikro":11843,"minutter":11844,"rask":11845,"katt":11846,"peppar":11847,"##komp":11848,"1820":11849,"nordlig":11850,"##ree":11851,"##rekt":11852,"pupp":11853,"nepal":11854,"rykket":11855,"carlos":11856,"statt":11857,"institutet":11858,"ouadi":11859,"kvarteret":11860,"ulf":11861,"donald":11862,"nelson":11863,"##jt":11864,"##odendron":11865,"strekker":11866,"350":11867,"##kov":11868,"narvarande":11869,"sørover":11870,"bane":11871,"asa":11872,"forde":11873,"##mu":11874,"##86":11875,"##ømmet":11876,"bened":11877,"tipula":11878,"xii":11879,"tonn":11880,"cerambyc":11881,"splitt":11882,"##stallningar":11883,"ødelag":11884,"munt":11885,"##aderna":11886,"louise":11887,"sundsvall":11888,"ophi":11889,"versionen":11890,"##oland":11891,"nordover":11892,"fallet":11893,"##fram":11894,"bureau":11895,"dets":11896,"taung":11897,"edu":11898,"1815":11899,"tillfallen":11900,"##fyl":11901,"##chang":11902,"cover":11903,"power":11904,"unna":11905,"innsats":11906,"##skoldloss":11907,"##kyrkan":11908,"kritikk":11909,"position":11910,"video":11911,"erfar":11912,"legge":11913,"##vapnet":11914,"##mossor":11915,"byene":11916,"romsdal":11917,"ernest":11918,"##ysia":11919,"##skning":11920,"##neum":11921,"##hs":11922,"##dals":11923,"##takt":11924,"ile":11925,"##spartiet":11926,"##eser":11927,"geomet":11928,"begravd":11929,"pyra":11930,"##alism":11931,"arterna":11932,"##hafazat":11933,"nø":11934,"sallan":11935,"kang":11936,"##arens":11937,"narmast":11938,"##yllis":11939,"kolleg":11940,"##sspinnare":11941,"nyg":11942,"##nea":11943,"brøt":11944,"faglar":11945,"lara":11946,"##okt":11947,"##won":11948,"uppdel":11949,"##prisen":11950,"##udi":11951,"bedrift":11952,"andersen":11953,"iron":11954,"##linger":11955,"81":11956,"camer":11957,"hes":11958,"##roduksjon":11959,"broad":11960,"aktiviteter":11961,"klassiska":11962,"##ynch":11963,"tjug":11964,"##stock":11965,"opsjtina":11966,"chamber":11967,"urin":11968,"##ija":11969,"fame":11970,"##osen":11971,"goda":11972,"motiver":11973,"medalj":11974,"belag":11975,"tidning":11976,"uran":11977,"##ordningen":11978,"##kron":11979,"##dahl":11980,"forbered":11981,"haj":11982,"##haus":11983,"fylkesveg":11984,"onth":11985,"metoden":11986,"konver":11987,"khar":11988,"##hort":11989,"cambridge":11990,"tattingar":11991,"##rier":11992,"skulptur":11993,"avisen":11994,"##ithe":11995,"ledende":11996,"utp":11997,"føder":11998,"2021":11999,"natura":12000,"kyrkoher":12001,"traditionella":12002,"plante":12003,"##ioides":12004,"##ches":12005,"bandy":12006,"even":12007,"institute":12008,"stationen":12009,"spillere":12010,"gotland":12011,"carp":12012,"##liknande":12013,"##fir":12014,"grunden":12015,"##sattes":12016,"tillbring":12017,"ping":12018,"miller":12019,"ags":12020,"draa":12021,"sala":12022,"##iende":12023,"tillrackligt":12024,"mario":12025,"maja":12026,"##ingham":12027,"framat":12028,"##pal":12029,"##stag":12030,"intill":12031,"cost":12032,"param":12033,"larsen":12034,"kjelder":12035,"folkerep":12036,"bysant":12037,"externa":12038,"stephen":12039,"##gaver":12040,"nack":12041,"danne":12042,"##ikere":12043,"gjennomført":12044,"nedbør":12045,"rah":12046,"koptes":12047,"serge":12048,"profesjonell":12049,"##lapp":12050,"##odi":12051,"skape":12052,"synlig":12053,"populara":12054,"##skriver":12055,"##anken":12056,"##sme":12057,"blomm":12058,"sorter":12059,"loire":12060,"dolich":12061,"##odia":12062,"##styrelsen":12063,"cten":12064,"mora":12065,"faktisk":12066,"hampson":12067,"nejlik":12068,"skargardshavet":12069,"05":12070,"penger":12071,"nevnt":12072,"##yle":12073,"##skipet":12074,"borr":12075,"norrkoping":12076,"bist":12077,"horde":12078,"##amoter":12079,"sidi":12080,"instru":12081,"refle":12082,"utvikla":12083,"##boken":12084,"bevarade":12085,"veter":12086,"##strakt":12087,"##lings":12088,"##stekn":12089,"##ksh":12090,"##dr":12091,"auguste":12092,"##igi":12093,"##ovit":12094,"fastighet":12095,"margaret":12096,"##kningen":12097,"atervand":12098,"hugh":12099,"##latsen":12100,"nyhet":12101,"iso":12102,"pastorat":12103,"glass":12104,"##inos":12105,"potatis":12106,"##rots":12107,"mohafazat":12108,"uly":12109,"æres":12110,"vinkel":12111,"diverse":12112,"hord":12113,"borde":12114,"##lane":12115,"##eiret":12116,"leb":12117,"sich":12118,"##klare":12119,"gunt":12120,"hul":12121,"##olaget":12122,"lavere":12123,"hid":12124,"passager":12125,"##edra":12126,"##rener":12127,"##etti":12128,"beslutade":12129,"minas":12130,"inborde":12131,"bakter":12132,"sammenlagt":12133,"##kore":12134,"akershus":12135,"nærmere":12136,"##saari":12137,"sentralt":12138,"tydelig":12139,"uppstod":12140,"kunskap":12141,"henholdsvis":12142,"jødiske":12143,"tacker":12144,"landskamper":12145,"##pec":12146,"math":12147,"doktorg":12148,"batal":12149,"framgangar":12150,"edwards":12151,"vatn":12152,"kha":12153,"sattes":12154,"erem":12155,"lp":12156,"havd":12157,"tillhorande":12158,"bebyggelse":12159,"##oris":12160,"antyder":12161,"prosjekt":12162,"visades":12163,"zap":12164,"qing":12165,"spelen":12166,"kvarn":12167,"kulturen":12168,"##lede":12169,"hills":12170,"foll":12171,"##ellia":12172,"massachus":12173,"##usch":12174,"barnen":12175,"benn":12176,"patraffats":12177,"zard":12178,"##beveg":12179,"tillamp":12180,"rogaland":12181,"##ubileum":12182,"##plex":12183,"##ocer":12184,"qa":12185,"morris":12186,"anis":12187,"samarbeidet":12188,"oks":12189,"##uff":12190,"##inella":12191,"ekster":12192,"onthophagus":12193,"massachusetts":12194,"##stig":12195,"invest":12196,"##to":12197,"sorg":12198,"grus":12199,"##itze":12200,"olig":12201,"##bent":12202,"dah":12203,"##meister":12204,"anges":12205,"##fried":12206,"##ako":12207,"jordbruks":12208,"larver":12209,"##mir":12210,"##bli":12211,"##ssjef":12212,"fargen":12213,"syns":12214,"1835":12215,"##motor":12216,"##ionde":12217,"havs":12218,"heart":12219,"kommunhuvudort":12220,"prinsipp":12221,"##entyr":12222,"oleandervaxter":12223,"##ulosa":12224,"##gjør":12225,"##lika":12226,"loj":12227,"oppmer":12228,"oph":12229,"leo":12230,"eau":12231,"odont":12232,"avveck":12233,"##organisation":12234,"sannsynligvis":12235,"amf":12236,"pia":12237,"kalte":12238,"arvid":12239,"##sniva":12240,"framstaende":12241,"##elb":12242,"##unds":12243,"fonster":12244,"queen":12245,"09":12246,"##edda":12247,"vanligaste":12248,"##namnda":12249,"##rekk":12250,"skivbolaget":12251,"delades":12252,"##ovi":12253,"##okker":12254,"##delingen":12255,"hosp":12256,"innte":12257,"avtalen":12258,"##omon":12259,"##konkurransen":12260,"##jah":12261,"##odrom":12262,"herre":12263,"skogar":12264,"frik":12265,"##station":12266,"azer":12267,"tarn":12268,"posit":12269,"danmarks":12270,"##ørende":12271,"1833":12272,"charlotte":12273,"sjøen":12274,"##iza":12275,"teleg":12276,"folkerepublikken":12277,"landhockey":12278,"hentet":12279,"##øpt":12280,"##amar":12281,"kristendom":12282,"utgave":12283,"##manlands":12284,"forholdet":12285,"##repp":12286,"##nummer":12287,"##tten":12288,"##egen":12289,"pennsyl":12290,"agnade":12291,"halvt":12292,"byar":12293,"1834":12294,"ere":12295,"kvinnelige":12296,"put":12297,"##jde":12298,"leipzig":12299,"adelaide":12300,"lepid":12301,"mesterskap":12302,"##fugler":12303,"##elag":12304,"nordkorea":12305,"tornet":12306,"beethoven":12307,"gass":12308,"##arig":12309,"census":12310,"process":12311,"1836":12312,"##uset":12313,"misstan":12314,"skilt":12315,"##rats":12316,"cote":12317,"##gran":12318,"##ex":12319,"##aks":12320,"vokser":12321,"billene":12322,"gw":12323,"qol":12324,"##opogon":12325,"##iserat":12326,"##ksomheten":12327,"svara":12328,"medlemmarna":12329,"polisen":12330,"##yton":12331,"trav":12332,"##shog":12333,"nobelp":12334,"##ocar":12335,"bourg":12336,"domdes":12337,"##mit":12338,"erkebiskop":12339,"meters":12340,"##ssatt":12341,"كوه":12342,"##مه":12343,"oberoende":12344,"nay":12345,"fossil":12346,"##resentant":12347,"marcus":12348,"normandie":12349,"størrelse":12350,"samlade":12351,"innhold":12352,"##ussou":12353,"##onto":12354,"placerade":12355,"konkurs":12356,"##vitenskap":12357,"virkelig":12358,"sigurd":12359,"bidro":12360,"baron":12361,"##hallet":12362,"##varig":12363,"grunnlag":12364,"##stjarn":12365,"utstilling":12366,"coel":12367,"cot":12368,"kommunreformen":12369,"bard":12370,"felix":12371,"##festival":12372,"temperaturen":12373,"##shamn":12374,"pyong":12375,"##lø":12376,"finlandska":12377,"cape":12378,"utsp":12379,"neur":12380,"##vara":12381,"filmat":12382,"##glanssteklar":12383,"##ilj":12384,"navy":12385,"kne":12386,"arsen":12387,"schw":12388,"##alistisk":12389,"litauen":12390,"nordre":12391,"kazak":12392,"tillverkades":12393,"##skans":12394,"##bos":12395,"##qa":12396,"##sende":12397,"##ður":12398,"##atning":12399,"trygg":12400,"hoch":12401,"kunnskap":12402,"grott":12403,"america":12404,"##на":12405,"upplev":12406,"paras":12407,"upplostes":12408,"hotel":12409,"##ourg":12410,"##oks":12411,"##yu":12412,"innspel":12413,"lankar":12414,"upptrad":12415,"lagoa":12416,"##king":12417,"##abi":12418,"lincol":12419,"bernard":12420,"##ktige":12421,"##amm":12422,"eksemp":12423,"##sattningar":12424,"##ebo":12425,"morgen":12426,"starter":12427,"helic":12428,"representert":12429,"maurice":12430,"##statt":12431,"##sslaktet":12432,"stens":12433,"vestfold":12434,"##inar":12435,"listan":12436,"##iculata":12437,"staende":12438,"bh":12439,"##esprak":12440,"forbed":12441,"##kunst":12442,"hellige":12443,"##stri":12444,"karriaren":12445,"offens":12446,"1829":12447,"predik":12448,"siff":12449,"hogskolan":12450,"treng":12451,"dres":12452,"##reich":12453,"enskilda":12454,"grunnet":12455,"nodvand":12456,"folkrakningen":12457,"hull":12458,"holstein":12459,"##alum":12460,"polar":12461,"originalt":12462,"##viet":12463,"karelen":12464,"influ":12465,"buck":12466,"populært":12467,"blomst":12468,"##line":12469,"##nadde":12470,"bete":12471,"mccart":12472,"##smiljo":12473,"##igalpa":12474,"etym":12475,"##skjold":12476,"##eus":12477,"disney":12478,"sekreterare":12479,"truleg":12480,"paføl":12481,"magnitud":12482,"##cal":12483,"cours":12484,"bildas":12485,"alpes":12486,"pus":12487,"smab":12488,"petit":12489,"party":12490,"lucas":12491,"metrop":12492,"operan":12493,"##fli":12494,"##ifa":12495,"bedom":12496,"rorelsen":12497,"nut":12498,"salg":12499,"##vesen":12500,"##bei":12501,"##hera":12502,"programledare":12503,"samtida":12504,"minim":12505,"timer":12506,"giovanni":12507,"utlandet":12508,"##hias":12509,"levu":12510,"##ender":12511,"thel":12512,"freden":12513,"cheng":12514,"progress":12515,"lip":12516,"vive":12517,"podgor":12518,"##rogen":12519,"montana":12520,"##arkitekt":12521,"##ikter":12522,"gjeven":12523,"møre":12524,"fysisk":12525,"##onotus":12526,"ødelagt":12527,"dekket":12528,"kit":12529,"varte":12530,"parap":12531,"kombinert":12532,"tril":12533,"nuuk":12534,"bk":12535,"tull":12536,"cub":12537,"##ospora":12538,"zan":12539,"dil":12540,"bedrev":12541,"bif":12542,"utel":12543,"##handlingen":12544,"220":12545,"##klassen":12546,"vedtatt":12547,"europas":12548,"territoriet":12549,"##plikt":12550,"##house":12551,"erit":12552,"##anke":12553,"tvar":12554,"shi":12555,"busk":12556,"forband":12557,"##ulin":12558,"block":12559,"cong":12560,"##ucigalpa":12561,"femin":12562,"tegucigalpa":12563,"nicola":12564,"##illinger":12565,"arabiske":12566,"##sprakiga":12567,"##ofon":12568,"manniskan":12569,"##fas":12570,"psalm":12571,"marknaden":12572,"oro":12573,"spi":12574,"##vind":12575,"##lakare":12576,"3000":12577,"##plant":12578,"bibli":12579,"##edere":12580,"bekraft":12581,"aktive":12582,"forr":12583,"bodø":12584,"podgorica":12585,"shet":12586,"jorda":12587,"##institut":12588,"anlegg":12589,"sjatte":12590,"debutalbum":12591,"etapp":12592,"marine":12593,"##ер":12594,"addis":12595,"##lasser":12596,"habitat":12597,"rou":12598,"protest":12599,"peking":12600,"framgangsrika":12601,"antallet":12602,"borte":12603,"anpass":12604,"kampan":12605,"gotaland":12606,"stry":12607,"uke":12608,"pension":12609,"##arv":12610,"geolog":12611,"1809":12612,"ryd":12613,"overst":12614,"undersøk":12615,"margareta":12616,"##akadem":12617,"tilhørte":12618,"trafiker":12619,"##icta":12620,"gallmyggor":12621,"times":12622,"rør":12623,"forar":12624,"draft":12625,"begrenset":12626,"##ostoma":12627,"##jøen":12628,"##instrument":12629,"nk":12630,"eryth":12631,"økte":12632,"eftertradde":12633,"1832":12634,"anc":12635,"brygger":12636,"religiosa":12637,"ral":12638,"terreng":12639,"pt":12640,"##inda":12641,"anto":12642,"vaxjo":12643,"luften":12644,"elias":12645,"##illon":12646,"##ialis":12647,"bug":12648,"##enbar":12649,"underlagt":12650,"##istens":12651,"##æl":12652,"christiania":12653,"utenrik":12654,"sistnevnte":12655,"##ovs":12656,"anslutning":12657,"##malar":12658,"hunn":12659,"tømmer":12660,"omg":12661,"keram":12662,"minutt":12663,"tvaa":12664,"kyrkor":12665,"tale":12666,"sebastian":12667,"ombygg":12668,"##uki":12669,"poj":12670,"##ærte":12671,"koordin":12672,"##somraden":12673,"talar":12674,"skapt":12675,"##ieri":12676,"opphavleg":12677,"fordon":12678,"##reen":12679,"konflikten":12680,"illin":12681,"racing":12682,"shel":12683,"deltatt":12684,"##usjoner":12685,"jonsson":12686,"##rera":12687,"bilar":12688,"profil":12689,"storstad":12690,"##varlden":12691,"semifinal":12692,"eksempler":12693,"forsvars":12694,"bidra":12695,"tah":12696,"##raten":12697,"145":12698,"##rypare":12699,"##astro":12700,"demonst":12701,"masse":12702,"helena":12703,"halvparten":12704,"##føres":12705,"stadium":12706,"lyder":12707,"kompan":12708,"fyll":12709,"##jort":12710,"intraff":12711,"operativ":12712,"arrestert":12713,"##amas":12714,"##indust":12715,"hawa":12716,"tilhen":12717,"ønsker":12718,"##norsk":12719,"butler":12720,"##aken":12721,"oreg":12722,"rapport":12723,"tilknyttet":12724,"##okal":12725,"nouv":12726,"andrades":12727,"##befal":12728,"hjelpe":12729,"##agasin":12730,"persson":12731,"karrieren":12732,"##buk":12733,"chaet":12734,"apote":12735,"##cas":12736,"operation":12737,"##oco":12738,"coch":12739,"08":12740,"##folket":12741,"##still":12742,"##ortsvaxter":12743,"lane":12744,"##rema":12745,"tanken":12746,"løper":12747,"##omataceae":12748,"produktionen":12749,"fangen":12750,"overste":12751,"tapt":12752,"##ور":12753,"##fid":12754,"kash":12755,"hastar":12756,"##floden":12757,"##stallande":12758,"kurt":12759,"##smot":12760,"##funn":12761,"atlanta":12762,"strauss":12763,"uvan":12764,"slaver":12765,"uppmarksamhet":12766,"rick":12767,"norman":12768,"naut":12769,"fornlam":12770,"kvadratmeter":12771,"damernas":12772,"born":12773,"micros":12774,"huvudet":12775,"##isterna":12776,"nuevo":12777,"cum":12778,"hamt":12779,"##elege":12780,"##spros":12781,"besegrade":12782,"jungfru":12783,"##orget":12784,"konstnaren":12785,"##essa":12786,"pyongyang":12787,"prist":12788,"parker":12789,"dak":12790,"hundra":12791,"##huvudstaden":12792,"redusert":12793,"kilde":12794,"##yon":12795,"names":12796,"uef":12797,"##she":12798,"pennsylvania":12799,"møn":12800,"phys":12801,"øvrige":12802,"hip":12803,"##slig":12804,"##cea":12805,"jen":12806,"##adet":12807,"yamo":12808,"borja":12809,"##onn":12810,"mulighet":12811,"maleri":12812,"oliver":12813,"koret":12814,"##plet":12815,"underjord":12816,"verkt":12817,"sovjetiska":12818,"illustrat":12819,"besl":12820,"regionhuvudstaden":12821,"dynastiet":12822,"##musikk":12823,"sykehus":12824,"lincoln":12825,"karin":12826,"##aktiv":12827,"masterskapet":12828,"##odont":12829,"abeba":12830,"##burgh":12831,"##ango":12832,"tilbud":12833,"sug":12834,"norther":12835,"bilda":12836,"##etenskap":12837,"##zia":12838,"##zero":12839,"##ев":12840,"viktigt":12841,"skarp":12842,"##ussoukro":12843,"stim":12844,"##ensioner":12845,"yamoussoukro":12846,"##laren":12847,"viktor":12848,"organisert":12849,"teologi":12850,"##ters":12851,"hale":12852,"##pr":12853,"##25":12854,"vokalist":12855,"igang":12856,"##fod":12857,"##status":12858,"helhet":12859,"##day":12860,"ritningar":12861,"##foretag":12862,"tvavingar":12863,"lost":12864,"dev":12865,"homer":12866,"mounta":12867,"vinst":12868,"##astare":12869,"##tran":12870,"avsked":12871,"turkiet":12872,"ake":12873,"kjerne":12874,"##rero":12875,"observatoriet":12876,"overd":12877,"landsbyg":12878,"kw":12879,"##hof":12880,"##gene":12881,"innlem":12882,"klot":12883,"ae":12884,"tanger":12885,"##ionens":12886,"hamar":12887,"einaste":12888,"##ulu":12889,"kommunest":12890,"##løs":12891,"nielsen":12892,"##vatnet":12893,"northern":12894,"##stander":12895,"buff":12896,"akra":12897,"journal":12898,"kommunikasjon":12899,"##oidea":12900,"##urnering":12901,"##frid":12902,"##cou":12903,"parac":12904,"detalj":12905,"kommiss":12906,"bruken":12907,"1818":12908,"bladhorningar":12909,"sallsyn":12910,"heav":12911,"grunnlov":12912,"capit":12913,"lith":12914,"hitta":12915,"folkem":12916,"##smus":12917,"##sbo":12918,"dow":12919,"visse":12920,"##centrum":12921,"letter":12922,"ankom":12923,"##delar":12924,"heldt":12925,"polske":12926,"##onica":12927,"##føringen":12928,"##fjell":12929,"experiment":12930,"sammenhen":12931,"brod":12932,"kristus":12933,"taket":12934,"host":12935,"minska":12936,"##avt":12937,"##organisasjon":12938,"##endomen":12939,"visat":12940,"lh":12941,"oberst":12942,"ci":12943,"arnold":12944,"snarare":12945,"##distrikt":12946,"hant":12947,"only":12948,"frankrikes":12949,"utbildade":12950,"avtale":12951,"##jin":12952,"##rica":12953,"bygda":12954,"barna":12955,"latarna":12956,"##iceps":12957,"lott":12958,"bana":12959,"04":12960,"##imo":12961,"##ighetene":12962,"riddar":12963,"ian":12964,"##steder":12965,"allmanhet":12966,"karp":12967,"byggd":12968,"gos":12969,"broderna":12970,"##blo":12971,"avanc":12972,"laos":12973,"namns":12974,"##head":12975,"##ivan":12976,"figurer":12977,"bekre":12978,"bæ":12979,"##edømme":12980,"##mia":12981,"tjock":12982,"revis":12983,"stemme":12984,"##studier":12985,"##chter":12986,"91":12987,"##اد":12988,"statsrad":12989,"##sfjorden":12990,"jensen":12991,"banks":12992,"##stillingen":12993,"texter":12994,"flick":12995,"ohio":12996,"banglades":12997,"erobret":12998,"##melse":12999,"mikael":13000,"##ekamp":13001,"maned":13002,"##lyn":13003,"fis":13004,"crass":13005,"fritz":13006,"##oler":13007,"loven":13008,"privata":13009,"##elef":13010,"omedel":13011,"fasc":13012,"##ely":13013,"oleandervaxtart":13014,"lisa":13015,"papper":13016,"regelb":13017,"materiale":13018,"patrick":13019,"06":13020,"##ommen":13021,"skiller":13022,"milano":13023,"tingslag":13024,"##tah":13025,"midd":13026,"peg":13027,"skiftet":13028,"cano":13029,"##kot":13030,"##landa":13031,"folkets":13032,"blomflugor":13033,"skotsk":13034,"skadespelaren":13035,"reservoar":13036,"##kow":13037,"##yte":13038,"##strekk":13039,"møl":13040,"vendte":13041,"##kjør":13042,"##ures":13043,"johnny":13044,"walt":13045,"##smod":13046,"##provinsen":13047,"jenn":13048,"boris":13049,"##historia":13050,"more":13051,"torp":13052,"aterkom":13053,"karlsk":13054,"##sjoner":13055,"##illingen":13056,"bredd":13057,"mountains":13058,"vog":13059,"##bergen":13060,"##kors":13061,"##hes":13062,"hooker":13063,"##burn":13064,"forslaget":13065,"foda":13066,"##ashi":13067,"thunder":13068,"sovjetisk":13069,"forsvann":13070,"reder":13071,"tep":13072,"##raget":13073,"##tyskland":13074,"hors":13075,"##asis":13076,"folja":13077,"##ogi":13078,"##ianum":13079,"sammenheng":13080,"##avlingarna":13081,"ilha":13082,"studios":13083,"down":13084,"##resse":13085,"parv":13086,"##ifrons":13087,"flottan":13088,"cari":13089,"##fel":13090,"##ypen":13091,"høgaste":13092,"azerbajd":13093,"##edig":13094,"verker":13095,"minste":13096,"sonder":13097,"##mastaren":13098,"illinois":13099,"orient":13100,"yong":13101,"nektet":13102,"##klin":13103,"indiske":13104,"groddjursart":13105,"##strad":13106,"sparris":13107,"overtog":13108,"brandenburg":13109,"borgen":13110,"rytt":13111,"besokte":13112,"songane":13113,"gyn":13114,"##omys":13115,"overens":13116,"punct":13117,"arligen":13118,"mote":13119,"statliga":13120,"##latser":13121,"hennar":13122,"materialet":13123,"##sfull":13124,"##forord":13125,"##api":13126,"musikkalbum":13127,"planlagt":13128,"##bilden":13129,"assistent":13130,"kammar":13131,"fullstand":13132,"apne":13133,"##ouz":13134,"bilde":13135,"sjost":13136,"##arium":13137,"forlust":13138,"tillhorigheten":13139,"gemensamma":13140,"jøder":13141,"lagga":13142,"gardaneh":13143,"alexand":13144,"atmosf":13145,"repar":13146,"soldat":13147,"tabellen":13148,"vagg":13149,"##itas":13150,"overlevde":13151,"147":13152,"lax":13153,"tettstedet":13154,"nybygg":13155,"research":13156,"##varo":13157,"##feldt":13158,"##skogen":13159,"bryt":13160,"fantes":13161,"bangladesh":13162,"himm":13163,"lakem":13164,"##imp":13165,"innanfor":13166,"registrert":13167,"##ritt":13168,"##fyr":13169,"چش":13170,"praktisk":13171,"antagelig":13172,"fortsette":13173,"rodrig":13174,"liberal":13175,"folkmangden":13176,"##iso":13177,"ekst":13178,"elver":13179,"stillingen":13180,"who":13181,"begrepp":13182,"##olep":13183,"produserte":13184,"leva":13185,"rin":13186,"loch":13187,"stilla":13188,"##sarbeid":13189,"erfaren":13190,"eskil":13191,"pue":13192,"##park":13193,"venner":13194,"samlingen":13195,"lulea":13196,"tropp":13197,"##emin":13198,"vintern":13199,"nyland":13200,"##lj":13201,"meister":13202,"##hon":13203,"spek":13204,"trekke":13205,"##ners":13206,"##uil":13207,"##ffen":13208,"##jarder":13209,"##tu":13210,"sump":13211,"vatmarker":13212,"hebra":13213,"vader":13214,"mani":13215,"gray":13216,"jamfort":13217,"producent":13218,"##osum":13219,"##flode":13220,"egenskap":13221,"oppstod":13222,"reaksjon":13223,"dagh":13224,"regissor":13225,"##iblant":13226,"hovudsakleg":13227,"marshall":13228,"##fjellet":13229,"artsrike":13230,"benj":13231,"overfordes":13232,"rhone":13233,"ekonomisk":13234,"termen":13235,"moritz":13236,"administrer":13237,"quito":13238,"##styret":13239,"1824":13240,"loppet":13241,"##recht":13242,"##ness":13243,"##ahn":13244,"##alismen":13245,"television":13246,"font":13247,"##elset":13248,"fredriks":13249,"sjoar":13250,"roh":13251,"##orte":13252,"miljarder":13253,"jordens":13254,"sammanslag":13255,"rasen":13256,"styrelsen":13257,"four":13258,"##22":13259,"oppretta":13260,"utvikle":13261,"1810":13262,"##otria":13263,"rhin":13264,"##jeneste":13265,"bunt":13266,"hagen":13267,"##okan":13268,"grekisk":13269,"yngste":13270,"kass":13271,"##øne":13272,"##obia":13273,"##slangd":13274,"##lang":13275,"chia":13276,"##linge":13277,"##kjem":13278,"loren":13279,"##skjel":13280,"angola":13281,"wright":13282,"##deren":13283,"alice":13284,"raka":13285,"چشمه":13286,"##utz":13287,"##historie":13288,"gunther":13289,"indiska":13290,"levert":13291,"barb":13292,"awards":13293,"foss":13294,"etc":13295,"claude":13296,"hydra":13297,"utstra":13298,"##ici":13299,"ostergotland":13300,"torelvaxter":13301,"##bard":13302,"utspelar":13303,"##utd":13304,"lagstift":13305,"utveckla":13306,"rorelse":13307,"autonom":13308,"aw":13309,"dirigent":13310,"hex":13311,"sphaer":13312,"##dotter":13313,"foruten":13314,"forord":13315,"##umentet":13316,"myrtenvaxter":13317,"##orium":13318,"##arkar":13319,"emig":13320,"##fulle":13321,"ms":13322,"pig":13323,"svid":13324,"følg":13325,"daværende":13326,"krom":13327,"familjer":13328,"studiet":13329,"staff":13330,"bøkene":13331,"lagun":13332,"##antes":13333,"rif":13334,"##ynchus":13335,"tekster":13336,"munk":13337,"dial":13338,"##aku":13339,"##send":13340,"singlar":13341,"##usi":13342,"landene":13343,"monter":13344,"##bibliote":13345,"##idad":13346,"kravde":13347,"popularitet":13348,"kjennet":13349,"bernhard":13350,"##mig":13351,"urugu":13352,"vekst":13353,"fiction":13354,"delte":13355,"##upe":13356,"rekkje":13357,"representerar":13358,"retten":13359,"unnga":13360,"regerings":13361,"hekk":13362,"roster":13363,"marinen":13364,"##rine":13365,"vardag":13366,"halvgras":13367,"utlandska":13368,"boll":13369,"hordaland":13370,"steng":13371,"trapp":13372,"euro":13373,"##quin":13374,"endringer":13375,"grammat":13376,"rosvaxter":13377,"leopold":13378,"satur":13379,"forlaget":13380,"framstall":13381,"hardt":13382,"##ophorus":13383,"##west":13384,"skanska":13385,"middelalder":13386,"hydro":13387,"dynam":13388,"##ussel":13389,"##igenom":13390,"##immer":13391,"1828":13392,"sivile":13393,"biblioteket":13394,"##selskap":13395,"askad":13396,"tad":13397,"##sexamen":13398,"skjold":13399,"startades":13400,"evol":13401,"venezuela":13402,"non":13403,"##elat":13404,"##foljande":13405,"namligen":13406,"sporter":13407,"studioalbumet":13408,"sarskild":13409,"polyn":13410,"trær":13411,"nevnes":13412,"pafølgende":13413,"hoppspindlar":13414,"##sreg":13415,"deriblant":13416,"1821":13417,"##forma":13418,"hannen":13419,"svalb":13420,"##artist":13421,"##ryss":13422,"07":13423,"cyrt":13424,"landerna":13425,"administrative":13426,"##90":13427,"halls":13428,"tatorten":13429,"gemensamt":13430,"stewart":13431,"corpor":13432,"sparvag":13433,"oriental":13434,"##idis":13435,"##scupen":13436,"lawren":13437,"##hot":13438,"kaw":13439,"akademien":13440,"##flygplan":13441,"vav":13442,"grønn":13443,"nerv":13444,"tomas":13445,"lege":13446,"tydligt":13447,"##sikt":13448,"##arb":13449,"skrivna":13450,"uruguay":13451,"##annen":13452,"dommer":13453,"jup":13454,"##mand":13455,"##ieu":13456,"helikopter":13457,"sivil":13458,"##grav":13459,"totale":13460,"##avlingen":13461,"rain":13462,"masterskap":13463,"##oon":13464,"atlanter":13465,"gale":13466,"##vingar":13467,"##garder":13468,"global":13469,"whit":13470,"millionar":13471,"kontroversi":13472,"antatt":13473,"jules":13474,"manen":13475,"vestre":13476,"##esterskapet":13477,"zhang":13478,"##omo":13479,"cov":13480,"varg":13481,"##varen":13482,"asm":13483,"harstammar":13484,"##say":13485,"##shem":13486,"##ew":13487,"dream":13488,"werner":13489,"148":13490,"kaj":13491,"schwar":13492,"##lakt":13493,"innvand":13494,"braun":13495,"krigsf":13496,"##cess":13497,"##emoni":13498,"ersatte":13499,"##aminer":13500,"kande":13501,"##smalet":13502,"##fordel":13503,"totala":13504,"survey":13505,"lillehammer":13506,"reiser":13507,"abbor":13508,"lasi":13509,"benjamin":13510,"stup":13511,"trang":13512,"frankfurt":13513,"kongres":13514,"billed":13515,"dart":13516,"foregaende":13517,"sjelden":13518,"kontinuer":13519,"yam":13520,"##oniidae":13521,"antwer":13522,"##oce":13523,"##gaard":13524,"holmen":13525,"##orgs":13526,"esper":13527,"fischer":13528,"##ilen":13529,"##utbildning":13530,"perspektiv":13531,"smy":13532,"##itsch":13533,"jonkopings":13534,"eitt":13535,"##iktet":13536,"snor":13537,"gitarrist":13538,"administrasjonssenter":13539,"##ingenjor":13540,"docent":13541,"baden":13542,"##aj":13543,"verdenscupen":13544,"tandspinnare":13545,"##bladiga":13546,"fyrst":13547,"involvert":13548,"kommunalforbundet":13549,"iz":13550,"framtradande":13551,"lady":13552,"##rion":13553,"adrar":13554,"polyg":13555,"slar":13556,"##egarden":13557,"kompani":13558,"##die":13559,"##24":13560,"##lest":13561,"efternamn":13562,"##lich":13563,"light":13564,"##more":13565,"##ikeren":13566,"kusten":13567,"utøvere":13568,"##olla":13569,"##haug":13570,"spesielle":13571,"##ortsvaxtart":13572,"formaga":13573,"fritid":13574,"cephal":13575,"langst":13576,"gerhard":13577,"koal":13578,"harmon":13579,"doro":13580,"fell":13581,"##ligare":13582,"canal":13583,"##iren":13584,"ida":13585,"scene":13586,"##ор":13587,"teorier":13588,"##angar":13589,"skelle":13590,"nah":13591,"##gata":13592,"##smy":13593,"jeff":13594,"##uru":13595,"##sunds":13596,"beromda":13597,"taget":13598,"nordiske":13599,"opplys":13600,"celler":13601,"wy":13602,"##adelphia":13603,"municipal":13604,"patt":13605,"row":13606,"poesi":13607,"1831":13608,"medicine":13609,"hongkong":13610,"cien":13611,"cac":13612,"##kontoret":13613,"##iert":13614,"##ologer":13615,"slappt":13616,"følgje":13617,"gera":13618,"tidens":13619,"garn":13620,"regent":13621,"pals":13622,"1812":13623,"##sti":13624,"##uez":13625,"sanka":13626,"##pus":13627,"##essige":13628,"nash":13629,"vern":13630,"deltar":13631,"kanneteck":13632,"##hagen":13633,"medvet":13634,"genomforde":13635,"underart":13636,"pointe":13637,"karlskrona":13638,"brem":13639,"##alpus":13640,"##dorf":13641,"##utgav":13642,"mitch":13643,"240":13644,"erich":13645,"konig":13646,"kala":13647,"##sre":13648,"utmar":13649,"darwin":13650,"##varn":13651,"hjalmar":13652,"flertall":13653,"konsekv":13654,"##witz":13655,"formelt":13656,"tsjekkoslov":13657,"artikel":13658,"##oge":13659,"210":13660,"glava":13661,"gjev":13662,"##ird":13663,"busker":13664,"anga":13665,"speg":13666,"##linga":13667,"##ikkert":13668,"##ningsvis":13669,"finske":13670,"kalle":13671,"osak":13672,"##lock":13673,"##zin":13674,"prout":13675,"##ses":13676,"##amerikanske":13677,"230":13678,"myrtenvaxtart":13679,"blas":13680,"tsar":13681,"agent":13682,"medicin":13683,"##entris":13684,"##etia":13685,"##urat":13686,"warsza":13687,"anlades":13688,"##uller":13689,"engager":13690,"##skilde":13691,"foretrad":13692,"gris":13693,"hof":13694,"cond":13695,"tis":13696,"##kande":13697,"##vint":13698,"forble":13699,"ult":13700,"anthony":13701,"##cle":13702,"avan":13703,"tankt":13704,"##manuel":13705,"vu":13706,"enc":13707,"punktet":13708,"##jern":13709,"bygning":13710,"##yga":13711,"1825":13712,"sannolikt":13713,"dent":13714,"spil":13715,"orange":13716,"ansvarlig":13717,"nabb":13718,"aleksand":13719,"##has":13720,"pund":13721,"##itaine":13722,"##bete":13723,"huvudorten":13724,"##smenn":13725,"##berga":13726,"##skolor":13727,"forny":13728,"##skinn":13729,"135":13730,"sjunde":13731,"##skam":13732,"kirker":13733,"amazonas":13734,"varvid":13735,"jarnvagen":13736,"orch":13737,"techn":13738,"##moj":13739,"1819":13740,"##dere":13741,"alene":13742,"omfattet":13743,"##tradte":13744,"identifier":13745,"##matt":13746,"trium":13747,"fungerte":13748,"drammen":13749,"##smeister":13750,"##industrin":13751,"skov":13752,"stjarnor":13753,"##omyces":13754,"friluft":13755,"##ич":13756,"konda":13757,"bulgariska":13758,"vancou":13759,"arbeidde":13760,"1816":13761,"##ils":13762,"ic":13763,"##stral":13764,"gratis":13765,"malvavaxter":13766,"146":13767,"##rell":13768,"skotske":13769,"bronsemedalje":13770,"minnesota":13771,"foreldre":13772,"ked":13773,"delene":13774,"vastantarktis":13775,"##ways":13776,"kazakstan":13777,"fatal":13778,"gota":13779,"134":13780,"fk":13781,"##owr":13782,"##knott":13783,"##braken":13784,"hjarn":13785,"verka":13786,"shakes":13787,"##hild":13788,"##rena":13789,"litteraturen":13790,"##gus":13791,"##isjoner":13792,"dylan":13793,"reb":13794,"##stit":13795,"##jaren":13796,"innefatt":13797,"##zburg":13798,"##leiken":13799,"##hammar":13800,"mongoliet":13801,"stannade":13802,"undert":13803,"grona":13804,"robinson":13805,"bois":13806,"organisationer":13807,"augustus":13808,"ariz":13809,"##ingane":13810,"kritisk":13811,"##vannet":13812,"##hausen":13813,"studi":13814,"mojligen":13815,"svidknott":13816,"144":13817,"##oller":13818,"abb":13819,"egendom":13820,"klassiske":13821,"klockan":13822,"##vux":13823,"##rukturen":13824,"trollslandeart":13825,"aventyr":13826,"chung":13827,"##otte":13828,"fullførte":13829,"inkluderar":13830,"##jaure":13831,"##opht":13832,"mossdjursart":13833,"fond":13834,"akta":13835,"avlag":13836,"##umann":13837,"anslot":13838,"##istriktet":13839,"psychotria":13840,"##onien":13841,"kraver":13842,"bjer":13843,"philadelphia":13844,"bm":13845,"effekten":13846,"ansikt":13847,"forandringar":13848,"##fos":13849,"##enz":13850,"beseiret":13851,"svalbard":13852,"kopa":13853,"identitet":13854,"departement":13855,"nys":13856,"##foljare":13857,"inratt":13858,"nis":13859,"lufthavn":13860,"##ciata":13861,"bulbophyllum":13862,"farfar":13863,"##museet":13864,"fjordane":13865,"mata":13866,"sjalvstandighet":13867,"tend":13868,"death":13869,"langtungebin":13870,"resulterade":13871,"vancouver":13872,"##derkopp":13873,"grunnlaget":13874,"##medaljen":13875,"##givning":13876,"##upt":13877,"saknas":13878,"palats":13879,"leiar":13880,"##ال":13881,"kay":13882,"stur":13883,"neut":13884,"shakespe":13885,"kara":13886,"flen":13887,"alpin":13888,"producerades":13889,"mangler":13890,"indelning":13891,"ovanfor":13892,"kompet":13893,"##iyah":13894,"rinner":13895,"halvøya":13896,"bydelen":13897,"torelvaxtart":13898,"##oura":13899,"cho":13900,"oppstar":13901,"allmanheten":13902,"karet":13903,"##eni":13904,"medier":13905,"##ettix":13906,"nyare":13907,"sev":13908,"knud":13909,"birger":13910,"trump":13911,"ronald":13912,"##uti":13913,"raj":13914,"##vention":13915,"##fre":13916,"radhus":13917,"konkurranse":13918,"øyer":13919,"karlsson":13920,"##ileg":13921,"scop":13922,"brag":13923,"##irasjon":13924,"##skepp":13925,"sokte":13926,"daghi":13927,"hymen":13928,"##ores":13929,"##verande":13930,"avdøde":13931,"lawrence":13932,"academy":13933,"##foss":13934,"raud":13935,"halvgra":13936,"paus":13937,"vinterspelen":13938,"1826":13939,"barbara":13940,"overrask":13941,"cym":13942,"##øyane":13943,"umiddel":13944,"##bag":13945,"##rass":13946,"borjat":13947,"volleyball":13948,"hanen":13949,"argumenter":13950,"##nev":13951,"brett":13952,"redig":13953,"bayer":13954,"ukjent":13955,"frances":13956,"##acion":13957,"drap":13958,"forg":13959,"revolutionen":13960,"pict":13961,"##talte":13962,"pampa":13963,"særs":13964,"##skytt":13965,"rolling":13966,"avgjordes":13967,"maksim":13968,"blekinge":13969,"tradde":13970,"smaort":13971,"##leart":13972,"vardera":13973,"styres":13974,"##tok":13975,"insatser":13976,"##slor":13977,"cypern":13978,"hjalpa":13979,"theatre":13980,"##hra":13981,"antwerpen":13982,"meyer":13983,"cook":13984,"slovak":13985,"harj":13986,"ledamoter":13987,"tasmanien":13988,"arsj":13989,"tekniske":13990,"##schild":13991,"kriter":13992,"eduard":13993,"grundlagg":13994,"fabric":13995,"idrettslag":13996,"anstalldes":13997,"##øte":13998,"varer":13999,"halvgrasart":14000,"cyp":14001,"##anlegg":14002,"bestamde":14003,"teik":14004,"##dommer":14005,"io":14006,"libert":14007,"##sspel":14008,"orter":14009,"rival":14010,"##emia":14011,"##rio":14012,"akantusvaxter":14013,"kotal":14014,"exakt":14015,"##lunda":14016,"kommande":14017,"bene":14018,"##smedlem":14019,"verdi":14020,"##omb":14021,"finale":14022,"klasser":14023,"scener":14024,"synnerhet":14025,"høyr":14026,"megas":14027,"tubu":14028,"friidrottare":14029,"tilsyn":14030,"oliv":14031,"ridge":14032,"territorium":14033,"##munt":14034,"##eset":14035,"bronsmed":14036,"##orkester":14037,"##forsamlingen":14038,"puc":14039,"phnum":14040,"bergs":14041,"##atera":14042,"socknens":14043,"astrag":14044,"##icollis":14045,"varvades":14046,"dahr":14047,"potens":14048,"##ders":14049,"gruva":14050,"1827":14051,"143":14052,"sydafrika":14053,"tjenesteg":14054,"eus":14055,"##anmar":14056,"tillag":14057,"##lax":14058,"##uin":14059,"##saga":14060,"##eto":14061,"##ocy":14062,"godkjen":14063,"innehade":14064,"beraknas":14065,"introducerades":14066,"tidvis":14067,"aquitaine":14068,"##opar":14069,"##iew":14070,"fjellkj":14071,"problemet":14072,"paborjades":14073,"##ilum":14074,"##idat":14075,"halsingland":14076,"first":14077,"##niva":14078,"grant":14079,"##atert":14080,"##actylus":14081,"cad":14082,"vecka":14083,"sæ":14084,"wald":14085,"resp":14086,"assy":14087,"##sattningen":14088,"##ар":14089,"halle":14090,"insjo":14091,"amerikan":14092,"bly":14093,"##enberg":14094,"heliga":14095,"##alisme":14096,"aber":14097,"trev":14098,"hjør":14099,"##stalld":14100,"fungerade":14101,"field":14102,"mick":14103,"##ouri":14104,"prøvde":14105,"eugene":14106,"##anas":14107,"soul":14108,"##sas":14109,"##ол":14110,"##sis":14111,"##imen":14112,"signerte":14113,"##ally":14114,"##innes":14115,"platesel":14116,"##fotingar":14117,"pick":14118,"paverka":14119,"mottatt":14120,"traditionellt":14121,"schmidt":14122,"conne":14123,"schlechter":14124,"ded":14125,"lyse":14126,"ponta":14127,"fragorna":14128,"skolor":14129,"osta":14130,"chor":14131,"##umt":14132,"innendørs":14133,"1808":14134,"gill":14135,"##oblast":14136,"propag":14137,"##attslandor":14138,"##spro":14139,"##leden":14140,"adams":14141,"##karriar":14142,"xin":14143,"##iration":14144,"##imenter":14145,"zu":14146,"avgick":14147,"##epar":14148,"resor":14149,"inomhus":14150,"kvalifisering":14151,"framgangsrik":14152,"morgan":14153,"gruv":14154,"helge":14155,"liga":14156,"hero":14157,"magdalen":14158,"##lopare":14159,"svavflugor":14160,"billy":14161,"1823":14162,"prosessen":14163,"avgorande":14164,"kosovo":14165,"##orps":14166,"hogskola":14167,"pok":14168,"##ydda":14169,"##iodes":14170,"##revol":14171,"##usta":14172,"lover":14173,"mg":14174,"##igma":14175,"##undi":14176,"fasta":14177,"nationalpark":14178,"sadant":14179,"##ralen":14180,"##roch":14181,"bergens":14182,"hort":14183,"##zjan":14184,"shin":14185,"##skrivare":14186,"##feltet":14187,"eide":14188,"byggingen":14189,"respekt":14190,"bahia":14191,"griff":14192,"toronto":14193,"historiskt":14194,"akte":14195,"force":14196,"anvend":14197,"trog":14198,"carlo":14199,"pleur":14200,"osmanske":14201,"##lid":14202,"tore":14203,"tillverkade":14204,"aleksander":14205,"dead":14206,"##stro":14207,"gatan":14208,"myanmar":14209,"sølvmedalje":14210,"omgangen":14211,"svensson":14212,"nicholas":14213,"kemi":14214,"arendal":14215,"nederlag":14216,"molde":14217,"gand":14218,"striden":14219,"##ulium":14220,"christina":14221,"mordet":14222,"##bærer":14223,"must":14224,"søndag":14225,"bentham":14226,"fordes":14227,"flaten":14228,"uefa":14229,"avratt":14230,"##mende":14231,"manuskript":14232,"tommy":14233,"##edi":14234,"inred":14235,"dek":14236,"musikvide":14237,"##ktorer":14238,"hvilket":14239,"uh":14240,"antogs":14241,"buch":14242,"hender":14243,"kolla":14244,"##nica":14245,"kamen":14246,"tegn":14247,"drakt":14248,"##storp":14249,"personliga":14250,"konstruktion":14251,"plut":14252,"class":14253,"legger":14254,"inbland":14255,"placeras":14256,"flyr":14257,"##hay":14258,"##ipa":14259,"ordre":14260,"astragalus":14261,"##krets":14262,"syria":14263,"##sakring":14264,"##phy":14265,"##sstyr":14266,"sentralb":14267,"##arena":14268,"format":14269,"verb":14270,"indiker":14271,"nøyt":14272,"##domm":14273,"malningar":14274,"##visa":14275,"studente":14276,"##satsen":14277,"eksterne":14278,"tecknare":14279,"jom":14280,"forvarv":14281,"upptradde":14282,"bagh":14283,"##ilo":14284,"antio":14285,"hyll":14286,"##andare":14287,"kopinghuvudort":14288,"kungens":14289,"##lubb":14290,"rekt":14291,"minist":14292,"invaldes":14293,"verac":14294,"##avs":14295,"book":14296,"papp":14297,"bein":14298,"virket":14299,"kanoner":14300,"halde":14301,"cun":14302,"##melser":14303,"##fjall":14304,"betra":14305,"##svetenskap":14306,"grasvaxtart":14307,"##opez":14308,"byttet":14309,"intelle":14310,"wester":14311,"skytt":14312,"skiva":14313,"##hult":14314,"##odet":14315,"tavlingar":14316,"##lay":14317,"kinsh":14318,"obsc":14319,"robot":14320,"franc":14321,"lagets":14322,"eigen":14323,"etymologi":14324,"jor":14325,"##formede":14326,"tonsatt":14327,"dys":14328,"samisk":14329,"verdskrigen":14330,"medaljen":14331,"overvak":14332,"##ryl":14333,"forenade":14334,"republikk":14335,"scarab":14336,"kirurg":14337,"bend":14338,"fortsatter":14339,"staderna":14340,"cerambycidae":14341,"##skudd":14342,"punkter":14343,"ishockeyspelare":14344,"##staver":14345,"hittills":14346,"game":14347,"opptatt":14348,"##yta":14349,"gentian":14350,"midlertid":14351,"malade":14352,"grann":14353,"##arskontrakt":14354,"broren":14355,"nasjonalpark":14356,"hora":14357,"##rund":14358,"alc":14359,"valja":14360,"sichuan":14361,"##asc":14362,"##jol":14363,"sverd":14364,"ard":14365,"annars":14366,"gallde":14367,"sallskap":14368,"##horax":14369,"tradisjonell":14370,"blatt":14371,"naturliga":14372,"baseb":14373,"forskere":14374,"##ен":14375,"stump":14376,"##ights":14377,"rull":14378,"##asaari":14379,"##ordforande":14380,"##ardi":14381,"##mern":14382,"tv4":14383,"##verkan":14384,"drivs":14385,"opphold":14386,"prøy":14387,"##auer":14388,"serg":14389,"##svik":14390,"flora":14391,"##itert":14392,"##fun":14393,"riktig":14394,"personlige":14395,"##kjer":14396,"still":14397,"harold":14398,"sale":14399,"vagar":14400,"##ithecia":14401,"somme":14402,"##redaktor":14403,"##personer":14404,"##adder":14405,"motorer":14406,"##inton":14407,"##kogel":14408,"1822":14409,"nfl":14410,"##othe":14411,"sosi":14412,"eventyr":14413,"province":14414,"decenn":14415,"127":14416,"kirkes":14417,"luk":14418,"endring":14419,"##skrip":14420,"hackar":14421,"angermanland":14422,"tvunget":14423,"bald":14424,"skam":14425,"##otal":14426,"kapellet":14427,"##athus":14428,"fisker":14429,"panama":14430,"##fc":14431,"##ckta":14432,"deles":14433,"##inum":14434,"deh":14435,"##ilde":14436,"albanien":14437,"##opet":14438,"##kelige":14439,"piet":14440,"endelig":14441,"##gangar":14442,"varden":14443,"##ulum":14444,"stortings":14445,"lyckas":14446,"##punkten":14447,"originale":14448,"akter":14449,"elles":14450,"invas":14451,"lanserades":14452,"##linje":14453,"simp":14454,"hobart":14455,"##virk":14456,"boras":14457,"veracruz":14458,"koch":14459,"søkte":14460,"haiti":14461,"rail":14462,"##نگ":14463,"nouvelle":14464,"##water":14465,"kommunale":14466,"michigan":14467,"latinske":14468,"lennart":14469,"domsag":14470,"rasmus":14471,"gonger":14472,"avslutt":14473,"##gener":14474,"skadet":14475,"moon":14476,"105":14477,"mov":14478,"##ienne":14479,"thur":14480,"##industrien":14481,"svømmer":14482,"eupithecia":14483,"115":14484,"rosvaxtart":14485,"drosophila":14486,"ordens":14487,"jamaica":14488,"corporation":14489,"##ktionen":14490,"##splats":14491,"##essan":14492,"doub":14493,"microp":14494,"gata":14495,"kinshasa":14496,"##stalla":14497,"distrib":14498,"sjakk":14499,"pavirket":14500,"dør":14501,"chan":14502,"gule":14503,"##jov":14504,"bearbet":14505,"smalt":14506,"inbordeskriget":14507,"##smet":14508,"internett":14509,"stjarnbilden":14510,"tillbringade":14511,"##rif":14512,"##opod":14513,"sjøl":14514,"debutalbumet":14515,"bundes":14516,"hanna":14517,"upprep":14518,"uppgar":14519,"graden":14520,"##familjen":14521,"tillverkning":14522,"##organisationen":14523,"konstmuseum":14524,"hjort":14525,"kontrollen":14526,"clo":14527,"drar":14528,"befordrades":14529,"gjeld":14530,"##ulo":14531,"conf":14532,"prat":14533,"gifter":14534,"guvernør":14535,"forvaltnings":14536,"cart":14537,"angust":14538,"fjernet":14539,"jupiter":14540,"heat":14541,"husflugor":14542,"##coides":14543,"gan":14544,"sf":14545,"##steater":14546,"##see":14547,"kejsaren":14548,"kanadensisk":14549,"utman":14550,"##berger":14551,"finnas":14552,"rute":14553,"1790":14554,"cyk":14555,"##ants":14556,"##eback":14557,"##sjø":14558,"rune":14559,"##hou":14560,"atel":14561,"##ifta":14562,"akantusvaxtart":14563,"herbert":14564,"producerade":14565,"##skrit":14566,"stridsv":14567,"nivaer":14568,"formellt":14569,"##halvøya":14570,"linux":14571,"nært":14572,"pum":14573,"lamnat":14574,"##brakenvaxtart":14575,"##pere":14576,"kraftverket":14577,"glans":14578,"##ekonom":14579,"##ojtnant":14580,"##fullt":14581,"##eled":14582,"##arra":14583,"games":14584,"upper":14585,"136":14586,"teknologi":14587,"##ligan":14588,"1813":14589,"##uke":14590,"##forvalt":14591,"nomos":14592,"ress":14593,"halvdel":14594,"128":14595,"visas":14596,"sefid":14597,"malvavaxtart":14598,"læ":14599,"##ielle":14600,"placering":14601,"bala":14602,"##etningen":14603,"##syche":14604,"motorvag":14605,"forandring":14606,"mjuk":14607,"##miral":14608,"##univers":14609,"##radande":14610,"home":14611,"utstyrt":14612,"involver":14613,"erovrade":14614,"##ento":14615,"##øyet":14616,"studere":14617,"trommes":14618,"kungs":14619,"##edt":14620,"varum":14621,"lagar":14622,"karen":14623,"##ruppe":14624,"##alistiska":14625,"kjærlighet":14626,"gors":14627,"svøm":14628,"lengste":14629,"##spillet":14630,"raymond":14631,"flygvapnet":14632,"ragnar":14633,"erklærte":14634,"utvikler":14635,"fredrikstad":14636,"sarskilda":14637,"berømte":14638,"rikets":14639,"place":14640,"anhang":14641,"shir":14642,"etterfulgt":14643,"tipp":14644,"##marken":14645,"lengst":14646,"tallinn":14647,"artikeln":14648,"##neumon":14649,"forum":14650,
[...]
