[unused0]
[unused1]
[unused2]
[unused3]
[unused4]
[unused5]
[unused6]
[unused7]
[unused8]
[unused9]
[unused10]
[unused11]
[unused12]
[unused13]
[unused14]
[unused15]
[unused16]
[unused17]
[unused18]
[unused19]
[unused20]
[unused21]
[unused22]
[unused23]
[unused24]
[unused25]
[unused26]
[unused27]
[unused28]
[unused29]
[unused30]
[unused31]
[unused32]
[unused33]
[unused34]
[unused35]
[unused36]
[unused37]
[unused38]
[unused39]
[unused40]
[unused41]
[unused42]
[unused43]
[unused44]
[unused45]
[unused46]
[unused47]
[unused48]
[unused49]
[unused50]
[unused51]
[unused52]
[unused53]
[unused54]
[unused55]
[unused56]
[unused57]
[unused58]
[unused59]
[unused60]
[unused61]
[unused62]
[unused63]
[unused64]
[unused65]
[unused66]
[unused67]
[unused68]
[unused69]
[unused70]
[unused71]
[unused72]
[unused73]
[unused74]
[unused75]
[unused76]
[unused77]
[unused78]
[unused79]
[unused80]
[unused81]
[unused82]
[unused83]
[unused84]
[unused85]
[unused86]
[unused87]
[unused88]
[unused89]
[unused90]
[unused91]
[unused92]
[unused93]
[unused94]
[unused95]
[unused96]
[unused97]
[unused98]
[unused99]
[unused100]
[unused101]
[unused102]
[unused103]
[unused104]
[unused105]
[unused106]
[unused107]
[unused108]
[unused109]
[unused110]
[unused111]
[unused112]
[unused113]
[unused114]
[unused115]
[unused116]
[unused117]
[unused118]
[unused119]
[unused120]
[unused121]
[unused122]
[unused123]
[unused124]
[unused125]
[unused126]
[unused127]
[unused128]
[unused129]
[unused130]
[unused131]
[unused132]
[unused133]
[unused134]
[unused135]
[unused136]
[unused137]
[unused138]
[unused139]
[unused140]
[unused141]
[unused142]
[unused143]
[unused144]
[unused145]
[unused146]
[unused147]
[unused148]
[unused149]
[unused150]
[unused151]
[unused152]
[unused153]
[unused154]
[unused155]
[unused156]
[unused157]
[unused158]
[unused159]
[unused160]
[unused161]
[unused162]
[unused163]
[unused164]
[unused165]
[unused166]
[unused167]
[unused168]
[unused169]
[unused170]
[unused171]
[unused172]
[unused173]
[unused174]
[unused175]
[unused176]
[unused177]
[unused178]
[unused179]
[unused180]
[unused181]
[unused182]
[unused183]
[unused184]
[unused185]
[unused186]
[unused187]
[unused188]
[unused189]
[unused190]
[unused191]
[unused192]
[unused193]
[unused194]
[unused195]
[unused196]
[unused197]
[unused198]
[unused199]
[unused200]
[unused201]
[unused202]
[unused203]
[unused204]
[unused205]
[unused206]
[unused207]
[unused208]
[unused209]
[unused210]
[unused211]
[unused212]
[unused213]
[unused214]
[unused215]
[unused216]
[unused217]
[unused218]
[unused219]
[unused220]
[unused221]
[unused222]
[unused223]
[unused224]
[unused225]
[unused226]
[unused227]
[unused228]
[unused229]
[unused230]
[unused231]
[unused232]
[unused233]
[unused234]
[unused235]
[unused236]
[unused237]
[unused238]
[unused239]
[unused240]
[unused241]
[unused242]
[unused243]
[unused244]
[unused245]
[unused246]
[unused247]
[unused248]
[unused249]
[unused250]
[unused251]
[unused252]
[unused253]
[unused254]
[unused255]
[unused256]
[unused257]
[unused258]
[unused259]
[unused260]
[unused261]
[unused262]
[unused263]
[unused264]
[unused265]
[unused266]
[unused267]
[unused268]
[unused269]
[unused270]
[unused271]
[unused272]
[unused273]
[unused274]
[unused275]
[unused276]
[unused277]
[unused278]
[unused279]
[unused280]
[unused281]
[unused282]
[unused283]
[unused284]
[unused285]
[unused286]
[unused287]
[unused288]
[unused289]
[unused290]
[unused291]
[unused292]
[unused293]
[unused294]
[unused295]
[unused296]
[unused297]
[unused298]
[unused299]
[unused300]
[unused301]
[unused302]
[unused303]
[unused304]
[unused305]
[unused306]
[unused307]
[unused308]
[unused309]
[unused310]
[unused311]
[unused312]
[unused313]
[unused314]
[unused315]
[unused316]
[unused317]
[unused318]
[unused319]
[unused320]
[unused321]
[unused322]
[unused323]
[unused324]
[unused325]
[unused326]
[unused327]
[unused328]
[unused329]
[unused330]
[unused331]
[unused332]
[unused333]
[unused334]
[unused335]
[unused336]
[unused337]
[unused338]
[unused339]
[unused340]
[unused341]
[unused342]
[unused343]
[unused344]
[unused345]
[unused346]
[unused347]
[unused348]
[unused349]
[unused350]
[unused351]
[unused352]
[unused353]
[unused354]
[unused355]
[unused356]
[unused357]
[unused358]
[unused359]
[unused360]
[unused361]
[unused362]
[unused363]
[unused364]
[unused365]
[unused366]
[unused367]
[unused368]
[unused369]
[unused370]
[unused371]
[unused372]
[unused373]
[unused374]
[unused375]
[unused376]
[unused377]
[unused378]
[unused379]
[unused380]
[unused381]
[unused382]
[unused383]
[unused384]
[unused385]
[unused386]
[unused387]
[unused388]
[unused389]
[unused390]
[unused391]
[unused392]
[unused393]
[unused394]
[unused395]
[unused396]
[unused397]
[unused398]
[unused399]
[unused400]
[unused401]
[unused402]
[unused403]
[unused404]
[unused405]
[unused406]
[unused407]
[unused408]
[unused409]
[unused410]
[unused411]
[unused412]
[unused413]
[unused414]
[unused415]
[unused416]
[unused417]
[unused418]
[unused419]
[unused420]
[unused421]
[unused422]
[unused423]
[unused424]
[unused425]
[unused426]
[unused427]
[unused428]
[unused429]
[unused430]
[unused431]
[unused432]
[unused433]
[unused434]
[unused435]
[unused436]
[unused437]
[unused438]
[unused439]
[unused440]
[unused441]
[unused442]
[unused443]
[unused444]
[unused445]
[unused446]
[unused447]
[unused448]
[unused449]
[unused450]
[unused451]
[unused452]
[unused453]
[unused454]
[unused455]
[unused456]
[unused457]
[unused458]
[unused459]
[unused460]
[unused461]
[unused462]
[unused463]
[unused464]
[unused465]
[unused466]
[unused467]
[unused468]
[unused469]
[unused470]
[unused471]
[unused472]
[unused473]
[unused474]
[unused475]
[unused476]
[unused477]
[unused478]
[unused479]
[unused480]
[unused481]
[unused482]
[unused483]
[unused484]
[unused485]
[unused486]
[unused487]
[unused488]
[unused489]
[unused490]
[unused491]
[unused492]
[unused493]
[unused494]
[unused495]
[unused496]
[unused497]
[unused498]
[unused499]
[CLS]
[MASK]
[PAD]
[SEP]
[UNK]
!
"
#
$
%
&
'
(
)
*
+
,
-
.
/
0
1
2
3
4
5
6
7
8
9
:
;
=
?
@
[
\
]
^
_
`
a
b
c
d
e
f
g
h
i
j
k
l
m
n
o
p
q
r
s
t
u
v
w
x
y
z
{
|
}
~
¡
£
§
¨
«
®
°
±
²
³
´
µ
·
¹
º
»
¼
½
¾
×
ß
æ
ð
÷
ø
þ
đ
ħ
ı
ĳ
ł
ŋ
œ
ŧ
ƒ
ɐ
ɑ
ɒ
ɓ
ɔ
ɕ
ə
ɛ
ɡ
ɣ
ɨ
ɪ
ɲ
ɽ
ɾ
ʁ
ʃ
ʉ
ʊ
ʋ
ʒ
ʔ
ʰ
ʲ
ʹ
ʻ
ʼ
ʾ
ʿ
ˈ
ˌ
ː
˚
΄
α
β
γ
δ
ε
ζ
η
θ
ι
κ
λ
μ
ν
ξ
ο
π
ρ
ς
σ
τ
υ
φ
χ
ψ
ω
а
б
в
г
д
е
ж
з
и
к
л
м
н
о
п
р
с
т
у
ф
х
ц
ч
ш
щ
ъ
ы
ь
э
ю
я
ђ
є
і
ј
љ
њ
ћ
қ
ү
ӏ
ә
ө
ա
բ
գ
դ
ե
զ
թ
ի
լ
կ
հ
ղ
մ
յ
ն
շ
ո
ս
վ
տ
ր
ւ
ք
א
ב
ג
ד
ה
ו
ז
ח
ט
י
כ
ל
ם
מ
ן
נ
ס
ע
ף
פ
צ
ק
ר
ש
ת
ء
ا
ب
ة
ت
ث
ج
ح
خ
د
ذ
ر
ز
س
ش
ص
ض
ط
ظ
ع
غ
ف
ق
ك
ل
م
ن
ه
و
ى
ي
پ
چ
ک
گ
ھ
ہ
ۇ
ی
ە
ܐ
ܒ
ܕ
ܘ
ܝ
ܠ
ܡ
ܢ
ܪ
ܬ
अ
आ
क
ख
ग
च
ज
ट
ड
ण
त
थ
द
ध
न
प
ब
भ
म
य
र
ल
व
श
ष
स
ह
ा
ि
ी
ो
॥
ং
ক
জ
ত
দ
ন
প
ব
ম
য
র
ল
শ
স
হ
া
ি
ী
ে
ਅ
ਆ
ਇ
ਈ
ਉ
ਐ
ਕ
ਖ
ਗ
ਚ
ਜ
ਡ
ਣ
ਤ
ਥ
ਦ
ਧ
ਨ
ਪ
ਬ
ਭ
ਮ
ਰ
ਲ
ਵ
ਸ
ਹ
ਾ
ਿ
ੀ
લ
ા
ା
க
ச
ட
த
ன
ப
ம
ர
ல
வ
ா
ி
ு
ర
ల
ರ
ಲ
ಾ
ല
ා
ก
ค
ง
จ
ช
ณ
ด
ต
ท
ธ
น
บ
ป
พ
ภ
ม
ย
ร
ล
ว
ศ
ส
ห
อ
ะ
า
ำ
เ
แ
โ
ไ
་
།
ཀ
ཁ
ག
ང
ཅ
ཆ
ཉ
ཏ
ཐ
ད
ན
པ
ཕ
བ
མ
ཚ
ཞ
འ
ཡ
ར
ལ
ཤ
ས
ა
ბ
გ
დ
ე
ვ
თ
ი
კ
ლ
მ
ნ
ო
რ
ს
ტ
უ
ქ
ხ
ᄀ
ᄂ
ᄃ
ᄅ
ᄆ
ᄇ
ᄉ
ᄋ
ᄌ
ᄎ
ᄐ
ᄑ
ᄒ
ᅡ
ᅢ
ᅥ
ᅦ
ᅧ
ᅩ
ᅪ
ᅭ
ᅮ
ᅯ
ᅲ
ᅳ
ᅴ
ᅵ
ᆨ
ᆫ
ᆯ
ᆷ
ᆸ
ᆼ
ក
ង
ត
ទ
ន
ប
ព
ម
រ
ស
ា
‐
‑
–
—
‘
’
“
”
„
†
•
…
‰
′
″
‹
›
⁄
₁
₂
€
℃
ℓ
⅍
⅓
⅔
↑
→
∂
∇
∈
−
√
∞
∧
≈
≤
≥
⋅
─
│
└
├
●
♠
♣
♥
♦
♭
♯
⟨
⟩
ⲁ
ⴰ
、
い
う
か
き
し
た
と
の
は
り
ん
ア
イ
ウ
オ
カ
キ
ク
ケ
コ
サ
シ
ス
タ
ッ
テ
ト
ナ
ニ
ハ
ヒ
フ
ホ
マ
ム
ャ
ュ
ョ
ラ
リ
ル
ロ
ン
・
ー
一
丁
七
万
三
上
下
不
世
东
中
丰
临
丹
主
义
之
乐
九
乡
书
事
二
于
云
五
井
京
人
仁
仙
代
仲
伊
会
伯
佛
作
侯
保
信
傳
元
光
克
全
八
公
六
兰
共
关
兴
军
出
刘
利
前
劉
力
化
北
区
十
千
华
南
博
卫
原
县
口
古
台
史
司
合
吉
同
名
后
君
吳
吴
周
命
和
品
哈
唐
嘉
嚴
四
团
园
国
國
園
土
地
场
址
城
堂
塔
墓
士
夏
多
大
天
太
夫
央
头
女
子
字
孙
孝
学
孫
學
宁
安
宋
宗
官
定
宝
宮
家
富
寺
寿
小
尔
居
山
岛
岩
岭
岳
峰
島
崇
崖
川
州
工
巴
市
布
帝
師
常
平
年
广
庄
庆
店
庙
府
康
廣
建
式
张
張
徐
德
心
志
忠
思
成
战
戦
戰
所
拉
摩
政
故
教
文
斯
新
方
族
旗
日
旧
昌
明
星
春
昭
時
普
景
智
曲
書
曹
會
月
有
朝
木
本
朱
机
李
村
杨
東
松
林
株
格
桥
梁
梅
楼
歌
正
武
氏
民
水
永
汉
江
沙
河
治
泉
法
波
泰
洋
洞
津
洪
浦
海
清
港
湖
湾
源
溪
漢
爾
物
特
玄
玉
王
理
瑞
生
田
电
白
百
的
皇
相
県
真
石
社
祖
神
福
秀
秋
科
秦
空
立
站
章
筑
經
红
经
罗
羅
美
群
義
老
聖
胡
自
興
航
般
良
花
苏
若
英
茶
華
蒙
藏
藤
行
街
西
記
話
語
論
话
语
赵
趙
路
軍
达
通
道
遗
郎
郡
部
郭
都
酒
里
重
野
金
铁
镇
長
长
門
门
阳
阿
际
陈
院
陳
陵
陽
隆
雄
雅
集
電
青
韓
音
顺
馆
香
馬
马
高
魏
麻
黃
黄
龍
龙
（
）
，
00
000
01
02
03
04
05
06
07
08
09
10
100
1000
101
102
103
104
105
106
1066
107
108
109
11
110
1100
111
112
113
114
115
1150
116
117
118
119
12
120
1200
121
122
123
124
125
1250
126
127
128
129
13
130
1300
132
133
134
135
1350
136
137
138
139
14
140
1400
142
143
144
145
1450
146
147
148
149
15
150
1500
151
152
1520
1521
153
1536
1537
154
155
1550
156
1560
157
1570
158
1580
159
1590
1596
16
160
1600
1603
161
1610
162
1620
1624
1625
163
1630
164
1640
1642
1644
1645
1648
1649
165
1650
1658
166
1660
1661
1662
1665
1666
1667
167
1670
1675
1676
168
1680
1683
1685
1686
1688
1689
169
1690
1697
1699
17
170
1700
1701
1702
1703
1704
1705
1707
1708
1709
171
1710
1711
1712
1713
1714
1715
1716
1717
1718
1719
172
1720
1721
1722
1723
1724
1725
1727
1728
173
1730
1731
1733
1734
1735
1736
1737
1739
174
1740
1741
1742
1743
1744
1745
1746
1747
1748
1749
175
1750
1751
1752
1753
1754
1755
1756
1757
1758
1759
176
1760
1761
1762
1763
1764
1765
1766
1767
1768
1769
177
1770
1771
1772
1773
1774
1775
1776
1777
1778
1779
178
1780
1781
1782
1783
1784
1785
1786
1787
1788
1789
179
1790
1791
1792
1793
1794
1795
1796
1797
1798
1799
18
180
1800
1801
1802
1803
1804
1805
1806
1807
1808
1809
181
1810
1811
1812
1813
1814
1815
1816
1817
1818
1819
182
1820
1821
1822
1823
1824
1825
1826
1827
1828
1829
183
1830
1831
1832
1833
1834
1835
1836
1837
1838
1839
184
1840
1841
1842
1843
1844
1845
1846
1847
1848
1849
185
1850
1851
1852
1853
1854
1855
1856
1857
1858
1859
186
1860
1861
1862
1863
1864
1865
1866
1867
1868
1869
187
1870
1871
1872
1873
1874
1875
1876
1877
1878
1879
188
1880
1881
1882
1883
1884
1885
1886
1887
1888
1889
189
1890
1891
1892
1893
1894
1895
1896
1897
1898
1899
19
190
1900
1901
1902
1903
1904
1905
1906
1907
1908
1909
191
1910
1911
1912
1913
1914
1915
1916
1917
1918
1919
192
1920
1921
1922
1923
1924
1925
1926
1927
1928
1929
193
1930
1931
1932
1933
1934
1935
1936
1937
1938
1939
194
1940
1941
1942
1943
1944
1945
1946
1947
1948
1949
195
1950
1951
1952
1953
1954
1955
1956
1957
1958
1959
196
1960
1961
1962
1963
1964
1965
1966
1967
1968
1969
197
1970
1971
1972
1973
1974
1975
1976
1977
1978
1979
198
1980
1981
1982
1983
1984
1985
1986
1987
1988
1989
199
1990
1991
1992
1993
1994
1995
1996
1997
1998
1999
20
200
2000
2001
2002
2003
2004
2005
2006
2007
2008
2009
201
2010
2011
2012
2013
2014
2015
2016
2017
2018
2019
202
2020
2021
203
204
205
206
207
208
21
210
215
22
220
225
23
230
235
24
240
25
250
2500
26
260
27
270
275
28
280
29
290
30
300
3000
31
310
32
320
325
33
330
34
340
35
350
36
360
365
37
370
38
380
39
390
3d
40
400
4000
41
410
42
420
43
430
44
440
45
450
46
460
47
470
48
480
49
49ers
4x
50
500
5000
51
52
53
54
55
550
56
57
58
59
60
600
6000
61
62
63
64
65
650
66
67
68
680
69
70
700
7000
71
72
73
737
74
747
75
750
76
77
78
79
80
800
8000
81
82
83
84
85
850
86
87
88
89
90
900
91
92
93
94
95
950
96
97
98
99
a3
aa
aage
aal
aalborg
aales
aall
aar
aarhus
aaron
aas
aasen
ab
abb
abbas
abbed
abbey
abc
abd
abdomen
abdul
abe
abel
aber
aberde
aberdeen
abo
abonn
abort
about
abra
abraham
abs
absol
absolutt
absolutte
absor
absorber
abstrakt
abstrakte
abu
aby
ac
academ
academie
academy
acan
acc
ace
ach
act
action
ad
adal
adam
adams
add
ade
adecc
adel
adelaide
adelen
adelige
adelsmann
adelsmenn
adelss
aden
adferd
adgang
adjekt
adjektiv
adkomst
adler
adlet
admin
administ
administr
administrasjon
administrasjonen
administrasjonss
administrasjonssenter
administrasjonssenteret
administrasjonssentrum
administrat
administration
administrativ
administrative
administrativt
administrator
administrerende
administreres
administrert
admir
admiral
adolf
adolph
adop
adopt
adoptert
adopterte
adres
adresse
adressen
adresser
adri
adrian
adriater
adskilt
adskilte
advan
advar
advarte
advent
advis
advisory
advok
advokat
ae
aeg
aer
aero
aeros
af
afc
aff
affære
afg
afgh
afghan
afghanistan
afghanske
afl
afric
africa
african
afrik
afrika
afrikamesterskapet
afrikansk
afrikanske
afrikas
afro
aften
aftenposten
after
ag
aga
again
agder
age
agen
agency
agent
agenter
agg
aggress
aggressiv
aggressive
agn
agnes
agr
agri
agric
agu
ah
ahl
ahm
ahmad
ahmed
ai
aids
aik
ain
air
airbus
aircraft
aires
airlines
airport
airways
aj
aja
ajax
ak
akadem
akademi
akademiet
akademisk
akademiske
ake
aker
akerselva
akershus
akilles
aking
akk
akkomp
akkompagn
akkord
akkurat
akp
akr
aks
akse
aksel
akseler
aksen
aksent
aksept
aksepter
akseptere
akseptert
aksepterte
aksje
aksjene
aksjer
aksjeselskap
aksjon
aksjonen
aksjoner
akt
akter
aktiv
aktive
aktivist
aktivitet
aktiviteten
aktiviteter
aktivt
aktuell
aktuelle
aktuelt
aktør
aktører
akust
akustisk
akustiske
akutt
akv
akvar
al
ala
alab
alabama
alan
aland
alar
alaska
alb
alba
alban
albania
albansk
albanske
albert
alberta
alberto
albertville
albin
albion
albrecht
album
albuma
albumene
albumet
albumets
albumlista
albums
alc
ald
alder
alderen
alders
aldersbe
aldersbestemte
aldr
aldri
ale
aleine
aleks
aleksand
aleksander
aleksandr
alekse
aleksej
alen
alene
aleppo
ales
aless
alessandro
alesund
alex
alexand
alexander
alexandra
alexandre
alexandria
alexios
alf
alfa
alfab
alfabet
alfabetet
alfonso
alfred
alge
algebra
alger
algerie
algor
algorit
ali
alice
alive
alk
alko
alkohol
all
allan
alle
alleg
allen
aller
allere
allerede
allereie
allian
alliance
allianse
alliansen
allier
alliert
allierte
allikevel
allmen
allmenn
allmenne
allment
allmusic
allround
allsidig
allsvenskan
alltid
alm
alma
almen
alminn
alminnelig
alminnelige
alp
alpane
alpene
alpes
alpin
alpine
alpinist
alpint
als
alsa
alsace
alt
alta
alter
alteret
altern
alternativ
alternative
alternativer
alternativt
altert
altertav
altertavlen
altfor
altsa
alumin
aluminium
alv
alvar
alver
alvor
alvorleg
alvorlig
alvorlige
alz
am
ama
amadeus
amal
amalie
aman
amand
amanda
amar
amat
amatør
amazing
amazon
amazonas
amb
ambas
ambass
ambassa
ambassad
ambassade
ambassaden
ambassadør
ambis
ambisjoner
ambro
ambul
ambulanse
amen
amer
americ
america
american
amerik
amerika
amerikan
amerikanere
amerikaneren
amerikanerne
amerikansk
amerikanske
amerikas
amf
amfi
amfib
amfip
amfipoder
aminos
ammon
ammun
ammunisjon
amne
amot
amp
ampe
ampezzo
amsterdam
amt
amtmann
amund
amundsen
amur
amy
an
ana
anal
analog
analy
analys
analyse
analyser
analyt
anare
anark
anast
anat
anatol
anatolia
anatom
anatomi
anbe
anbef
anbefal
anbefaling
anbefalt
anbefalte
anbud
anc
and
andal
andalsnes
ande
anded
andel
andelen
andelig
andelige
anden
ander
anders
andersen
anderson
andersson
andes
andesfjell
andor
andorra
andre
andrea
andreas
andreassen
andrej
andreplass
andreplassen
andres
andresen
andrew
andrews
andro
andy
ane
aner
anerkjen
anerkjenne
anerkjennelse
anerkjenner
anerkjent
anerkjente
anfall
ang
angaende
angar
angel
angela
angeles
angelo
angelsaks
angelsaksisk
angelsaksiske
anger
angi
angir
angis
angitt
angiv
angivelig
angl
anglikanske
anglo
angola
angrep
angrepene
angrepet
angreps
angripe
angriper
angst
anhalt
anim
animal
animasjon
animerte
anita
anjou
ank
anke
anker
anklag
anklagene
anklager
anklaget
ankom
ankommer
ankomst
ankomsten
anla
anlagt
anled
anledning
anledningen
anledninger
anlegg
anlegget
anløp
anmel
anmeldelser
anmelder
anmelderne
anmod
ann
anna
annan
anne
annekt
annektert
annen
anner
annerledes
annet
annie
annon
annonsert
annonserte
anonym
another
ans
ansa
ansatt
ansatte
anse
ansees
anser
anses
ansett
ansikt
ansiktet
anska
anskaffet
ansl
anslag
anslagsvis
anslas
anslatt
anstreng
ansvar
ansvaret
ansvarleg
ansvarlig
ansvarlige
ant
anta
antag
antagelig
antak
antakelig
antall
antallet
antar
antarctic
antarkt
antarktis
antarktise
antarktisekspedisjonen
antarktiske
antas
antatt
antatte
anten
antenn
antenne
antennene
antenner
anth
anthony
anti
antib
antibiot
antig
antik
antikke
antikken
antikkens
antiok
antiokia
antiokos
antip
antis
antisem
antisemitt
anto
antoine
antok
anton
antonio
antonius
antrop
antwer
antwerpen
antyd
antyder
antydet
anven
anvende
anvendelse
anvendes
anvendt
any
ao
ap
apart
apartheid
apc
apen
apenbar
apenbart
apent
apne
apner
apnes
apnet
apning
apningen
apninger
apnings
apningsseremonien
apo
apok
apoll
apollo
apollon
apost
apostelen
apostol
apostolisk
apostoliske
apote
apotek
app
appar
apparat
appell
appels
apple
april
aq
aqu
aquitaine
ar
ara
arab
arabia
arabisk
arabiske
araf
arafat
arag
aragon
aram
arame
arb
arbe
arbeid
arbeida
arbeidar
arbeidarpartiet
arbeidd
arbeidde
arbeide
arbeidene
arbeider
arbeiderblad
arbeidere
arbeiderne
arbeidernes
arbeiderparti
arbeiderpartiet
arbeiderpartiets
arbeidet
arbeids
arbeidsgiver
arbeidskraft
arbeidsled
arbeidsplass
arbeidsplasser
arbeidst
arc
arch
archer
arct
arctic
ard
ardal
arden
are
area
areal
arealet
aren
arena
arenaen
arendal
arene
arenes
arer
aret
arets
arg
argent
argentina
argentinsk
argentinske
argum
argument
argumenter
argumenterer
argumentert
argumenterte
arh
arhund
arhundre
arhundrene
arhundrer
arhundreskiftet
arhundret
arhus
ari
arig
arige
arild
aring
arist
aristokrat
aristot
aristoteles
ariz
arizona
ark
arka
arkansas
arke
arkeolog
arkeologen
arkeologer
arkeologi
arkeologisk
arkeologiske
arkh
arkite
arkitekt
arkitekten
arkitektene
arkitekter
arkitekton
arkitektonisk
arkitektoniske
arkitektur
arkitekturen
arkiv
arkiver
arkivet
arkt
arktis
arktisk
arktiske
arleg
arlege
arlig
arlige
arm
arme
armeen
armen
armenia
armensk
armenske
armer
arms
armstrong
army
arn
arna
arne
arnes
arnold
arnt
aron
around
arr
arrang
arrangem
arrangement
arrangementer
arrangementet
arranger
arrangere
arrangerer
arrangeres
arrangert
arrangerte
arrangør
arre
arrekke
arrest
arrester
arrestert
arresterte
arrond
arrondissement
ars
arsak
arsaka
arsaken
arsakene
arsaker
arsalderen
arsdag
arsdagen
arsen
arsenal
arsj
arsjubileet
arsjubileum
arsm
arsproduksjon
arsskiftet
arstad
arstid
art
artane
artar
artem
artemis
arten
artene
artens
arter
arthur
artik
artikkel
artikkelen
artiklar
artikler
artiller
artilleri
artilleriet
artist
artistar
artisten
artistene
artister
artistnavnet
artium
arts
artsbestemmelse
artsrik
artsrike
artusen
arv
arve
arven
arver
arvet
arvid
arving
arvinger
as
asa
asane
asar
asb
asbjørn
asbjørnsen
asc
asche
aschehoug
ase
asen
aser
aserba
aserbajd
aserbajdsj
aserbajdsjan
asf
asfalt
asgard
ash
asi
asia
asialekene
asiatisk
asiatiske
ask
aske
asker
askim
askøy
asl
aslak
asm
asp
aspekt
aspekter
ass
assimil
assist
assistanse
assisten
assistent
assistentt
assistenttrener
assister
assisterende
assoc
association
assos
assosi
assosiert
assy
assyr
assyria
assyriske
ast
asta
asted
aster
astero
asteroide
asteroidefamilien
asteroiden
aston
astr
astrid
astro
astronaut
astronom
astronomen
astronomi
astronomiske
astrup
asyl
at
atak
ataket
ate
atelier
aten
atferd
ath
athen
athenerne
athens
athenske
athlet
athletic
atl
atlant
atlanta
atlanter
atlanteren
atlanterhav
atlanterhavet
atlantic
atlas
atle
atlet
atletico
atmosf
atmosfær
atmosfære
atmosfæren
atom
atomer
atomvapen
atp
att
attande
atte
attekant
atten
attend
attende
attendedel
attendedelsfinalen
attendeplass
attent
attentat
attentatet
atter
attraksjon
attrakt
au
aub
auckland
aud
audi
audun
auf
aug
auge
augsburg
august
augusta
auguste
augustin
augustus
auk
auka
aukande
aukar
auke
auksjon
aur
aurdal
aure
aurland
aurora
aurskog
aus
auschwitz
aust
auste
auster
austerrik
austerrike
austerrikske
austers
austersjøen
austin
austkysten
austlege
austover
austral
australia
australian
australias
australsk
australske
austre
austsida
aut
autent
author
authority
auto
autom
automat
automatisk
autonom
autonome
autor
autoritet
aux
av
avansert
avanserte
avant
avbild
avbildet
avbrutt
avd
avdekket
avdel
avdeling
avdelinga
avdelingen
avdelingene
avdelinger
avdu
avduket
avdø
avdøde
aven
avenue
aver
avfall
avfyr
avføring
avg
avgang
avganger
avgift
avgitt
avgjer
avgjerande
avgjorde
avgjort
avgjør
avgjøre
avgjørelse
avgjørelsen
avgjørelser
avgjørende
avgrens
avgrensa
avgrenses
avgrenset
avh
avhandling
avhandlingen
avheng
avhenger
avhengig
avhengige
avhengighet
avhold
avholdes
avholdt
aviation
avis
avisa
avisen
avisene
avisens
aviser
aviv
avklart
avkom
avkommet
avl
avla
avlang
avlange
avlangt
avle
avledet
avly
avlyst
avlø
avløp
avløst
avløste
avr
avrund
avrundede
avrundet
avsatt
avsatte
avsett
avsides
avska
avskaffet
avskj
avskjed
avsl
avslatt
avslo
avslut
avslutning
avslutningen
avslutt
avslutta
avslutte
avsluttende
avsluttes
avsluttet
avsløre
avslører
avslørt
avslørte
avsmalnende
avsnitt
avst
avsta
avstam
avstamning
avstand
avstanden
avstander
avstem
avstemning
avstemningen
avt
avtale
avtalen
avtaler
avtalt
avvik
avvikla
avviklet
avviser
avvist
avviste
aw
award
awards
away
ax
axel
ay
az
azte
ba
bab
baby
babylon
bac
bach
bachel
bachelor
bachelorg
bachelorgrad
bachs
back
bad
bade
baden
badminton
badmintonspiller
bae
bag
bagdad
bah
baham
bahamas
bahia
bahrain
bailey
bak
bakbeina
baker
bakerst
bakerste
bakgrunn
bakgrunnen
bakgrunnsstoff
bakhjør
bakk
bakkanten
bakke
bakken
bakkropp
bakkroppen
bakom
bakover
bakre
baksiden
bakt
bakter
bakterier
baku
bakvingen
bakvingene
bal
balanse
bald
baldwin
bale
balkan
ball
balla
ballade
ballen
ballet
ballett
balt
baltikum
baltimore
baltiske
bam
bamble
bambus
ban
band
banda
bandene
bandet
bandets
bandmedlem
bandy
bane
banebryt
banebrytende
banen
banene
baner
banes
banesykling
bang
bangkok
bangladesh
bank
banken
banker
banks
bann
banner
bant
bapt
baptist
baptiste
bar
barang
barangayer
barb
barbar
barbara
barber
barbra
barcel
barcelona
bard
bare
barent
barentshavet
baret
bark
barken
barn
barna
barndom
barndommen
barne
barnebarn
barnebok
barnebøker
barneh
barnehage
barnes
barneskole
barnet
barns
barokk
barokken
baron
barrett
barry
barskog
bart
bas
basalt
base
baseball
basel
basen
baser
baserer
basert
baserte
basil
basis
bask
basker
basket
basketball
basketballspiller
baskisk
bass
bassgitar
bassist
bassisten
bast
bat
bataljon
batar
batbygg
baten
batene
bater
bath
batt
batter
batteri
batteriet
battle
bau
bay
bayer
bayern
bayerske
bbc
bc
be
bea
beach
bear
bearbeid
bearbeidet
bears
beat
beatles
beau
beaut
bebo
bebodd
beboere
beboerne
bebygg
bebyggelse
bebyggelsen
beck
becker
bed
bede
bedre
bedri
bedrift
bedriften
bedrifter
bedt
bee
beet
beethoven
bef
befal
befant
befest
befestet
befinner
befolk
befolkede
befolket
befolkning
befolkninga
befolkningen
befolknings
befolkningsutvikling
befru
beg
bega
begatt
bege
begeistret
begge
begikk
begiven
begivenheter
begr
begrav
begravd
begravelse
begravelsen
begravet
begrens
begrense
begrensede
begrenset
begrensninger
begrep
begrepene
begreper
begrepet
begrunn
begrunnelse
begrunnelsen
begrunnet
begyn
begynne
begynnelse
begynnelsen
begynner
begynt
begynte
beh
behag
behand
behandle
behandler
behandles
behandlet
behandling
behandlingen
beher
beholde
beholder
beholdt
behov
behovet
bei
beij
beijing
bein
beina
beirut
beit
beite
bek
bekjemp
bekjempe
bekjen
bekjent
bekk
bekken
bekker
bekost
bekostning
bekre
bekreft
bekrefter
bekreftet
bekym
bekymret
bekymring
bel
belast
bele
beleir
beleiret
beleiring
beleiringen
belfast
belg
belgia
belgisk
belgiske
belig
beliggen
beliggende
beliggenhet
bell
bella
belle
bells
belt
belte
beltet
beløn
belønnet
belønning
beløp
bem
beman
bemannet
bemerk
bemerkelses
bemerkelsesverdig
bemerket
ben
bend
bene
bened
benedikt
benevn
benevnelsen
beng
bengal
bengt
benj
benjamin
benn
bennett
benny
bens
bensin
bensinst
bent
bentiske
benytte
benytter
benyttes
benyttet
benz
beograd
beord
beordret
ber
bere
beredskap
bereg
beregne
beregnes
beregnet
beregning
beregninger
beretning
berg
bergart
bergartar
bergarter
berge
bergen
bergenhus
bergens
bergensbanen
bergenske
berger
berget
bergg
berggrunnen
bergh
berit
berk
berkeley
berl
berlin
berliner
berlins
berm
bern
bernad
bernard
bernhard
bernt
berntsen
berre
berry
bert
bery
berøm
berømmelse
berømt
berømte
berørt
bes
besatt
bese
beseire
beseiret
besetning
besetninga
besetningen
besitt
besittelse
besittelser
besk
beskjed
beskjeden
beskjedne
beskjeft
beskrev
beskrevet
beskri
beskriv
beskrive
beskrivelse
beskrivelsen
beskrivelser
beskriver
beskrives
beskyl
beskyld
beskyldt
beskytt
beskytte
beskyttelse
beskytter
beskyttet
besl
beslag
beslekt
beslektede
beslektet
beslutning
beslutningen
beslutninger
besluttet
bess
best
besta
bestaende
bestand
bestanden
bestander
bestar
bestatt
beste
bestefar
bestem
bestemme
bestemmelser
bestemmer
bestemmes
bestemor
bestemt
bestemte
bestikk
bestilling
bestilt
bestilte
besto
bestod
bestsel
besty
bestyrer
besø
besøk
besøke
besøkende
besøker
besøkt
besøkte
bet
beta
betal
betale
betaler
betaling
betalt
betalte
beteg
betegn
betegne
betegnelse
betegnelsen
betegnelser
betegner
betegnes
betegnet
beting
betingelser
betjen
betjener
betjenes
betjent
betong
betra
betrakt
betrakte
betraktelig
betrakter
betraktes
betraktet
betre
betty
bety
betyd
betydde
betydelig
betydelige
betydning
betydningen
betydninger
betydningsf
betydningsfull
betydningsfulle
betyr
betød
beund
bev
bevar
bevare
bevaring
bevarings
bevart
bevarte
beveg
bevege
bevegelse
bevegelsen
bevegelser
bevegelses
beveger
beveget
bever
bevil
bevilget
bevis
bevise
beviser
bevisst
bevissthet
bevist
bevæp
bevæpnet
bey
bh
bhutan
bi
bia
bian
bib
bibel
bibelen
bibelske
bibl
biblio
bibliografi
bibliote
bibliotek
bibliotekar
biblioteket
bid
bidra
bidrag
bidraga
bidraget
bidragsy
bidragsyter
bidrar
bidratt
bidro
bidrog
bie
biel
bier
bif
big
bik
bil
bild
bilde
bildene
bilder
bildet
bilen
bilene
biler
bilet
bileta
bilete
biletet
bilfer
bill
billboard
bille
billed
billedhu
billedhugg
billedhugger
billedkunst
billedkunstner
billene
billens
biller
billett
billig
billigere
bills
billy
bilt
bilulykke
bin
bind
binde
binder
bing
bio
biograf
biografi
biokjem
biolog
biologi
biologien
biologisk
biologiske
biom
bip
bir
bird
birds
birg
birger
birgitte
birk
birke
birkebe
birkebein
birkeland
birmingham
birolle
bis
bish
biskop
biskopen
biskopene
biskoper
bislett
bismar
bismarck
bisp
bispe
bisped
bispedømme
bispedømmer
bispedømmet
bispes
bispeviet
bist
bista
bistand
bit
biter
bitt
bitter
biv
bivirkninger
bj
bjar
bjarne
bjel
bjelke
bjer
bjerk
bjerke
bjor
bjorn
bjøl
bjør
bjørg
bjørk
bjørke
bjørn
bjørne
bjørnson
bjørnstjerne
bk
bl
bla
black
blackburn
blad
bladbiller
bladene
blader
bladet
blag
blair
blak
blake
blan
blanc
bland
blanda
blande
blandet
blanding
blandings
blank
blanke
blankt
blant
blas
blase
blast
blat
blatt
ble
blei
bleik
blek
blekk
blev
bli
blikk
blind
blinde
blindvei
blir
blitt
blix
blo
blod
blodet
blodig
blodige
blodt
blog
blok
blokk
blokker
blom
blomstene
blomster
blomstr
blomstret
blomstring
blood
bloom
blu
blue
bluegrass
blues
bluff
bly
bløt
bm
bmw
bn
bnp
bo
board
bob
bobby
bobsleigh
boc
bod
bodd
bodde
body
bodø
boe
boeing
boende
boer
bog
boh
bohem
bohmen
bohus
boik
bok
boka
boken
bokk
bokmal
boks
bokser
boksing
bokst
bokstav
bokstavelig
bokstaven
bokstavene
bokstaver
bokt
bol
bole
bolig
boligbygg
boligbyggelag
boliger
boliv
bolivia
bolog
bologna
bolsje
bolsjevik
bolton
bom
bomb
bombar
bombardem
bombe
bombefly
bomben
bomber
bombet
bombingen
bomull
bon
bonaparte
bond
bonde
bonden
bondepartiet
bondevik
bonif
bonn
bonnie
bonus
bonusspor
book
boot
booth
bop
bor
borch
bord
borde
bordeaux
bordet
bordt
bordtennis
bore
borer
borett
borettslag
borg
borga
borgar
borgark
borgarkrigen
borge
borgen
borger
borgere
borgerkrig
borgerkrigen
borgerlig
borgerlige
borgermester
borgerne
borgerskap
borgund
boris
born
borne
borneo
borough
borre
bort
borte
bortimot
bortsett
bos
bosatt
bosatte
bosetning
bosetningen
bosetninger
bosett
bosette
bosetting
bosn
bosnia
boss
bosted
boston
bot
botan
botanisk
botaniske
botn
botnen
botsw
botswana
bott
bou
boul
boulevard
bour
bourbon
bourg
bow
bowie
bowl
box
boy
boyd
boys
br
bra
brabant
brad
bradford
bradley
brady
brag
brage
bragt
bragte
brah
brak
brakk
brakt
brakte
bram
bran
brand
branden
brandenburg
brandt
brann
brannen
brans
bransje
bransjen
brant
bras
brasil
brasiliansk
brasilianske
brasils
brass
brassband
brat
bratislav
bratislava
bratsberg
bratsj
bratt
bratte
braun
braunsch
braunschweig
braut
bre
break
bred
bredd
bredde
bredden
brede
bredere
bredt
breen
breg
brei
breid
breidda
breidde
breie
breitt
breiv
breivik
brekke
brem
bremen
bremse
bren
brend
brenn
brenne
brennende
brenner
brennevin
brensel
brenselkilden
brent
brente
bres
brest
bret
bretagne
breton
brett
brev
brevene
brevet
brevik
bri
brian
brid
bridge
brien
brig
brigade
brigaden
brighton
brikke
brikker
bring
bringe
bringer
bris
bristol
brit
britain
britane
britannia
britene
british
britisk
britiske
britt
bro
broad
broadcast
broadway
brock
broder
broen
broer
brom
bron
broncos
bronse
bronsealder
bronsealderen
bronsefinalen
bronsemedalje
bronsemedaljen
bronsemedaljer
bronsen
brook
brookl
brooklyn
brooks
bror
broren
bros
brot
brother
brothers
brow
brown
browns
bru
brua
bruce
brud
brudd
bruddet
bruer
brug
bruk
bruka
brukar
brukast
bruke
bruken
bruker
brukere
brukeren
brukerne
brukes
bruks
bruksomrade
bruksomrader
brukt
brukte
brun
brune
brung
brunlig
brunlige
brunn
bruno
brunsvart
brunt
brus
brussel
brutal
brutale
brutt
bry
bryan
brygg
brygge
brygger
bryggeri
bryggeriet
bryllup
bryllupet
bryn
bryne
bryst
brystet
brystskjoldet
bryt
bryte
bryter
brytes
bryting
brø
brød
brødre
brødrene
brøn
brønn
brørne
brøt
bu
buch
buck
buckingham
bucu
bucuresti
bud
budapest
budd
budde
buddh
buddha
buddhisme
buddhismen
buddhistisk
buddhistiske
buddy
budsj
budsjett
budskap
bue
buen
buenos
buer
bueskyting
bueskytter
buff
buffalo
bug
bugge
building
buk
buken
buks
bukser
bukt
bukta
bukten
bul
bulgar
bulgaria
bulgarsk
bulgarske
bull
bun
bund
bunde
bundes
bundesliga
bundet
bunn
bunndyr
bunnen
bup
buprest
bur
burde
bureau
burg
burgund
burke
burma
burn
burton
bus
buset
busetnad
busetnaden
busetnadene
busetnader
busett
busette
bush
business
busk
busker
buskerud
buss
bussen
bussene
busser
bust
bustad
but
butikk
butikken
butikker
butler
butt
butter
butterfly
bw
bwv
by
byane
byar
bybrannen
bydel
bydelen
bydelene
bydeler
bydistrikt
bye
byen
byene
byens
byer
byfylke
byg
bygd
bygda
bygde
bygden
bygdene
bygder
bygdøy
bygg
bygge
bygger
bygges
bygget
bygging
bygginga
byggingen
byggje
byggjer
byggmester
byggverk
byggverket
bygland
bygning
bygningane
bygningar
bygningen
bygningene
bygninger
bygnings
bygningsm
bygt
bymur
bypre
byprefekturet
byr
byra
byrad
byradet
byrak
byrakrat
byrd
byrds
byrja
byrjar
byrjinga
bys
bysant
bysantinsk
bysantinske
bystatus
bystyre
bystyret
bytt
bytte
byttedyr
bytter
byttet
bæ
bær
bære
bærekraftig
bærer
bæres
bærum
bø
bød
bøkene
bøker
bøl
bølg
bølge
bølgel
bølgen
bølger
bølgjer
bøm
bømlo
bøn
bøndene
bønder
bønn
bønner
bør
børre
børs
børster
bøy
ca
cab
cad
caes
cafe
cal
cala
caledonia
calg
calgary
califor
california
call
cam
cambridge
camel
camer
cameron
camilla
camp
campbell
camping
campus
can
canad
canada
canadas
canadian
canadisk
canadiske
canal
cand
cann
cannes
cant
canter
canterbury
cao
cap
cape
capit
capital
capitol
capp
cappelen
capr
car
carab
card
cardiff
care
carey
carl
carlo
carlos
carlsen
carmen
carn
carneg
carnegie
carol
carolina
caroline
carp
carpenter
carr
carsten
cart
carter
cas
case
cash
caspar
cass
cast
castilla
castle
castro
cat
catal
catalonia
cath
catherine
cathrine
cav
cay
cbs
cc
cd
cdu
ce
cecil
cecilia
cecilie
ced
cel
cele
cell
celle
cellene
celler
cello
cels
celt
celtic
cem
cembal
cent
center
centimeter
central
centre
century
cephal
cephalothorax
cer
ceram
cerambyc
cerambycidae
cerambycinae
cere
ces
cet
cetoniinae
cf
ch
cha
chal
challen
challenge
cham
chamber
champ
champagne
champion
champions
championship
championships
chan
chand
chang
chann
channel
chap
chapman
char
charcot
charl
charles
charlie
charlot
charlotte
chart
charter
chass
chat
chate
chateau
chau
che
chelse
chelsea
chem
chen
cheng
chengdu
cher
ches
chess
chester
chi
chiang
chic
chicago
chie
chief
chiefs
chil
child
children
chile
chilen
chilenske
chin
china
cho
chong
chop
chr
chris
christ
christen
christensen
christian
christiania
christiansen
christie
christina
christine
christmas
christoffer
christop
christoph
christopher
chrys
chrysomel
chrysomelidae
chu
chuck
church
churchill
ci
cia
cic
cicero
cin
cincinn
cir
cirka
cis
cister
cit
city
civ
civil
cl
cla
claire
clap
clapton
clar
clara
claren
clarence
clark
clarke
class
classic
claud
claude
claudius
claus
clay
cle
clear
clem
clement
cler
cleveland
cliff
clinton
cloud
club
cly
clyde
cm
cn
co
co2
coach
coast
cob
coch
cock
cod
code
codice
cog
cohen
col
cola
cold
cole
colin
coll
colle
colleg
college
collett
collins
colom
colombi
colombia
colon
color
colorado
colts
colum
columbia
columbus
com
come
comeback
comics
comm
command
commission
committe
committee
commod
common
commonwealth
commun
communic
community
comp
compan
company
computer
con
conc
concert
cond
conf
confeder
confer
conference
cong
congress
conn
conne
connectic
connecticut
conrad
cons
constan
constant
cont
contemp
contempor
contemporary
contest
contin
contr
control
convent
convention
cook
cool
cooper
cop
copa
cor
cord
core
corn
cornelis
cornelius
cornwall
corpor
corporation
corps
cort
cortina
cos
cost
costa
cot
cote
cott
coun
council
count
countr
country
county
countys
cour
court
cov
cove
covent
coventry
cover
coverversjon
covid
cow
cowbo
cowboys
cox
cr
cra
craig
craw
cray
crazy
cre
creek
cri
cric
cricket
cris
crist
cro
croix
crom
cromwell
crosby
cross
crow
cru
cruise
cruz
cry
crystal
cu
cub
cuba
cubansk
cul
cult
cum
cun
cup
cupen
cupfinalen
cur
cura
curacao
curling
curt
curtis
cut
cy
cyn
cyp
cyr
cyt
cz
cæ
cæsar
da
dab
dad
dag
dagane
dagar
dagblad
dagbladet
dagbok
dagen
dagene
dagens
dager
dagers
dagleg
daglig
daglige
dagligtale
dagligvare
dags
dagsavis
dagsavisen
dagsommer
dah
dahl
daily
daim
dak
dakota
dal
dalane
dalar
dale
dalen
daler
dall
dallas
dalmat
dalt
dam
damask
damaskus
dame
damer
damm
dammen
damp
damplokomot
dampskib
dampskibsselskab
dampskip
dan
dana
dance
dani
daniel
danielsen
danmark
danmarks
dann
danna
dannar
danne
dannebro
dannebrog
dannebrogordenen
dannelse
dannelsen
danner
dannes
dannet
danny
dans
danse
dansen
danser
danset
dansk
danske
danskene
dante
danzig
dap
dar
dare
dark
darleg
darlig
darlige
darligere
darligste
darm
darmstadt
darwin
das
dass
dat
data
datab
database
databasen
datamask
datamaskin
datamaskiner
datap
datas
dater
dateres
datering
datert
datidens
dato
datoen
datter
datteren
datterselskap
dav
dave
daverande
david
davies
davis
daværende
daw
dawn
day
days
db
dc
ddr
de
dead
dean
death
deb
debatt
debatten
debatter
debut
debutalbum
debutalbumet
debuten
debuterte
dec
decca
ded
dedikert
dee
deep
def
defens
defensive
defin
definer
definere
definerer
defineres
definert
definerte
definisjon
definisjonen
definisjoner
deg
dei
deira
dek
dekan
dekar
dekk
dekke
dekker
dekket
dekkjer
dekkvingene
dekkvinger
dekning
dekor
dekorasjon
dekorert
dekret
dekt
dekte
del
delane
delar
delaw
dele
deleg
delegasjon
delegasjonen
delen
delene
deler
deles
delfin
delgruppen
delhi
deling
delingen
dell
della
delomrader
dels
delst
delstat
delstaten
delstatene
delstatens
delstater
delt
delta
deltag
deltagelse
deltager
deltagere
deltagerne
deltak
deltakelse
deltaker
deltakere
deltakerne
deltar
deltatt
delte
delteke
deltok
delvis
dem
demetri
demning
demningen
demo
democ
democrat
demografi
demokrat
demokrati
demokratiet
demokratisk
demokratiske
demon
demonstr
demonstrasjon
demonstrasjoner
demp
den
deng
dengang
denis
denne
dennes
dennis
dens
denver
dep
depart
departem
departement
departementet
department
dependen
dependencies
deport
deportert
depot
depres
depresjon
depresjonen
der
derav
derby
dere
derek
deres
deretter
derfor
derfra
deriblant
derimot
deriv
deriverte
dermed
dersom
derved
des
desember
desert
desig
design
designer
designet
desim
desper
desperat
dess
desse
dessutan
dessuten
dessverre
destin
destinasjoner
desto
destru
det
detal
detalj
detaljene
detaljer
detaljert
detaljerte
detekt
detektiv
determin
deton
detro
detroit
dets
dette
deutsch
deutsche
dev
devel
develop
development
devil
devon
dh
dhar
di
dia
diabet
diabetes
diagn
diagnose
diagnosen
diagnost
diagon
diagram
diakon
dial
dialekt
dialekten
dialektene
dialekter
dialog
diam
diamant
diameter
diamond
diana
dic
dick
did
die
diego
dies
diesel
dieselm
dieselmotor
diet
dietrich
diff
differ
differens
differensial
difor
dig
digit
digital
digitale
digitalt
dik
dikt
dikta
diktatur
diktene
dikter
dikteren
diktet
diktning
diktsamling
diktsamlingen
dil
dim
dimensjon
dimensjoner
din
dine
ding
dinosa
dio
dion
dionys
dionysos
dip
diplom
diplomat
diplomati
diplomatisk
diplomatiske
dir
dire
direct
direkt
direkte
direktoratet
direktør
direktøren
dirig
dirigent
dis
disc
disco
discover
discovery
disiplin
disk
diskografi
diskos
diskosk
diskoskast
diskrimin
diskriminering
diskusjon
diskusjoner
diskuter
diskutere
diskutert
diskuterte
diskval
diskvalifisert
disney
disp
dispon
disposisjon
disse
dist
distanse
distansen
distanser
distin
distinkte
distri
distribu
distribuert
distribusjon
distribusjonen
distribut
district
distrikt
distriktene
distrikter
distriktet
distriktets
distrikts
dit
ditt
div
diver
diverse
division
divisjon
divisjonen
divisjoner
dix
dj
dje
djev
djevelen
dju
djup
djupt
djur
dm
dmit
dmitrij
dn
dna
dne
do
dob
dobb
dobbel
dobbelt
doble
doc
doctor
dod
dog
doha
dok
dokt
doktor
doktoren
doktorg
doktorgrad
doktorgraden
dokum
dokument
dokumentar
dokumentaren
dokumentarfilm
dokumentasjon
dokumentene
dokumenter
dokumentere
dokumentert
dokumenterte
dokumentet
dol
doll
dollar
dolph
dom
domen
domest
domin
dominans
dominer
dominerande
dominerende
dominerer
domineres
dominert
dominerte
dominikanske
domkirke
domkirken
dommar
dommen
dommer
dommere
dommeren
dommerne
domstol
domstolen
don
donald
donau
donerte
dong
donn
donovan
dop
doping
dor
dorot
dorothea
dorset
dort
dortmund
dos
dosent
dotter
dottera
dou
doub
double
doug
douglas
dov
dovre
dow
down
dr
dra
draft
drag
drage
dragon
drak
drake
drakt
drakter
dram
drama
dramaet
dramafilm
dramaser
dramat
dramatiker
dramatisk
dramatiske
drammen
drammens
drang
drap
drapene
drapet
drar
drast
drastisk
dratt
dre
dream
dreams
dreide
dreie
dreier
dreiv
dren
drener
drenerer
drep
drepe
drepen
dreper
drepne
drept
drepte
dres
dresden
drev
drevet
dri
drift
drifta
driften
drikk
drikke
drikker
drikkevann
drist
driv
driva
drive
driven
driver
drives
drivhus
drivstoff
dro
drog
dron
dronning
dronningen
dronningens
droppet
drott
dru
druk
druknet
drum
drus
dry
drø
drøbak
drøm
drømmer
drøyt
ds
du
dub
dubai
dublin
duck
dud
due
duett
duft
dug
dugnad
duke
dukka
dukke
dukker
dukket
dukketeater
dul
dum
dun
duncan
dunde
dundee
duo
duoen
dup
dur
durham
dus
dusin
duss
dusseld
dusseldorf
dust
dv
dvd
dver
dverg
dvs
dw
dy
dyb
dybde
dykker
dyktig
dyktige
dyktighet
dyl
dylan
dyn
dynam
dynamisk
dynast
dynasti
dynastiet
dynastiets
dyp
dype
dypere
dypeste
dypt
dyr
dyra
dyre
dyreliv
dyrene
dyrep
dyret
dyrk
dyrka
dyrke
dyrkes
dyrket
dyrking
dys
dz
dæ
dø
død
dødd
døde
dødelig
døden
døds
dødsf
dødsfall
dødsfallet
dødsstraff
dødt
døgn
døgnet
døm
dømd
døme
dømes
dømme
dømt
dømte
døn
døpe
døpefont
døpt
dør
døren
dørene
dører
døtre
døtrene
døve
døy
døydde
e18
e39
e6
eag
eagle
eagles
ear
earl
earth
east
eastern
easy
eb
eber
ebert
ebu
ec
ecc
eck
ecole
econom
ecu
ecuador
ed
edd
edda
edderkopp
edderkoppene
edderkoppens
edderkopper
eddie
eddy
edel
eden
edgar
edge
edin
edinburgh
edison
edith
edition
edmont
edmonton
edmund
edu
eduard
educ
education
edvard
edward
edwards
edwin
ef
effekt
effekten
effekter
effektiv
effektive
effektivt
efter
eg
ege
egeer
egeerhavet
egen
egenskap
egenskapene
egenskaper
egentlig
egentlige
eger
egersund
eget
egg
egge
eggen
eggene
egget
egil
egne
egner
egnet
ego
egyp
egypt
egyptisk
egyptiske
egypts
eh
ei
eid
eide
eidsv
eidsvoll
eie
eien
eiendeler
eiendom
eiendommen
eiendommene
eiendommer
eier
eiere
eieren
eierne
eierskap
eies
eig
eiga
eigar
eigd
eige
eigedom
eigen
eigenskapar
eigentleg
eigne
eik
eike
eiker
eil
eilert
ein
einar
einaste
eine
einer
eining
eininga
einingar
eins
einskilde
einstein
eir
eirik
eis
eisen
eit
eitt
eivind
ej
ek
ekeberg
ekl
eks
eksa
eksamen
ekse
eksemp
eksempel
eksempelet
eksempelvis
eksemplar
eksemplarer
eksempler
eksent
eksil
eksist
eksistens
eksistensen
eksister
eksistere
eksisterende
eksisterer
eksistert
eksisterte
ekskl
ekskluder
ekskludert
eksklus
eksp
ekspand
ekspanderte
ekspans
ekspansjon
eksped
ekspedisjon
ekspedisjonen
ekspedisjoner
eksper
eksperim
eksperiment
eksperimentell
eksperimentelle
eksperimenter
ekspert
eksperter
ekspl
eksplis
eksplisitt
eksploder
eksploderte
eksplos
eksplosjon
eksplosjonen
ekspon
eksport
eksportert
ekspresjon
ekst
ekster
ekstern
eksterne
ekstra
ekstraordin
ekstrem
ekstreme
ekstremt
ekte
ektef
ektefelle
ektem
ektemann
ektemannen
ekteparet
ekteskap
ekteskapet
ekv
ekvator
el
elater
elateridae
eld
eldgam
eldre
eldste
ele
elect
electr
electric
elef
elefant
eleg
elekt
elektrif
elektrisitet
elektrisk
elektriske
elektro
elektrom
elektromagnet
elektromagnetisk
elektromagnetiske
elektron
elektroner
elektronikk
elektronisk
elektroniske
elem
element
elementene
elementer
eleon
elev
elevar
eleven
elevene
elever
elfen
elfenben
elg
eli
elias
elim
elis
elisabeth
elise
elite
eliten
eliteserien
eliz
elizabeth
ell
ella
elle
ellen
eller
ellers
elles
ellev
elleve
ellevte
ellevteplass
elling
ellipt
ellis
ellsworth
elo
elsa
else
elsk
elsker
elskerinne
elsket
elton
elv
elva
elvane
elvar
elve
elvekraftverk
elvel
elven
elvene
elver
elverum
elvis
em
eman
emanuel
emb
embed
embedet
embedsmann
embet
embete
embetet
embets
embetseksamen
embetsmann
embetsmenn
emblem
emer
emeritus
emi
emigr
emigrerte
emil
emile
emily
emira
emirat
emma
emmanuel
emmy
emne
emner
emnet
emosjon
emp
empir
empire
en
ency
end
enda
endar
ende
endel
endeleg
endelege
endelig
endelige
endem
endemisk
endemiske
enden
ender
endestasjon
endra
endre
endrer
endres
endret
endring
endringar
endringen
endringene
endringer
endt
endte
ene
enebakk
ener
energ
energi
energien
energik
energis
energiselskapet
energy
enestaende
eneste
eng
engang
engas
engasjem
engasjement
engasjer
engasjert
engasjerte
enge
engel
engelsk
engelske
engelskmennene
engelskspraklige
enger
engine
engineering
england
englands
english
enhet
enheten
enhetene
enheter
enhetlig
enhver
enig
enige
enighet
enk
enke
enkel
enkelt
enkelte
enkeltpersoner
enkeltserie
enken
enkl
enkle
enklere
enkleste
enn
enna
enno
enorm
enorme
enormt
enri
ens
ensemb
ensemble
ensfar
ensfarget
enstemmig
ent
entall
enten
enter
enterprise
entertain
entertainment
entom
entrepren
entreprenør
entus
entusiast
enzy
ep
epide
epig
epigynet
epis
episke
episkop
episkopalgene
episkopalgenealogi
episode
episoden
episodene
episoder
eple
epoken
equ
er
era
ere
erem
erfar
erfaring
erfaringer
erfarne
erg
eric
erich
erik
eriksen
eriksson
erind
eritre
eritrea
erke
erkeb
erkebiskop
erkebiskopen
erkebisped
erkebispedømme
erkebispedømmet
erkjen
erkl
erklære
erklært
erklærte
erlend
erling
ern
erna
ernest
ernst
ernæring
erob
erobra
erobre
erobret
erobring
erobringen
erosjon
erst
erstat
erstatning
erstatt
erstatta
erstatte
erstatter
erstattes
erstattet
ert
erz
es
esc
esk
eskad
esp
espana
espen
esper
ess
essa
essay
essays
essens
essex
est
estad
este
ester
estim
estimert
estisk
estiske
estland
estlands
et
eta
etab
etabler
etablere
etablering
etableringen
etablert
etablerte
etapp
etappe
etappen
etappens
etapper
etas
etasje
etasjer
etat
etaten
etc
ete
eter
ethvert
etienne
etik
etikk
etiop
etiopia
etiopiske
etisk
etiske
etn
etnisk
etniske
etru
etrusk
ett
etter
etterfor
etterforsk
etterforskning
etterforskningen
etterful
etterfulgt
etterfulgte
etterføl
etterfølgd
etterfølgende
etterfølger
etterfølgere
etterfølgeren
etterhvert
etterkant
etterkom
etterkomm
etterkommer
etterkommere
etterkrig
etterkrigstiden
etterkvart
etterlatt
etterlig
etterlot
etterm
ettermid
ettermiddag
ettermiddagen
ettermæle
etternavn
etternavnet
etterpa
etterretning
etterretnings
ettersom
ettersp
etterspør
etterspørsel
etterspørselen
ettertid
ettertiden
ettertrakt
etym
etymologi
eu
euf
eufrat
eugen
eugene
eukl
euklid
eur
euras
eurasia
euro
europ
europa
europacupen
europak
europameister
europameisterskapen
europamester
europamesterskapet
europapar
europaparlamentet
europar
europas
europav
europave
europaveg
europavei
europe
european
europeere
europeisk
europeiske
eurovision
eus
ev
eva
evak
evakuer
evakuert
eval
evaluer
evangel
evangeliet
evangelisk
evans
even
event
eventuell
eventuelle
eventuelt
eventyr
ever
everton
every
evig
evne
evnen
evner
evolusjon
ex
examen
exec
execut
exped
expedition
expeditions
exper
expl
express
ext
ey
eyde
eye
eyes
ez
eøs
f1
fa
fab
fabr
fabrik
fabrikk
fabrikken
fabrikker
face
facebook
fact
facto
fad
fader
fag
fager
faget
fagfelt
fagforening
faglig
faglige
fair
faith
fakt
fakta
faktisk
faktiske
faktor
faktorer
faktum
fakult
fakultet
fakultetet
fal
falcon
falk
falken
falkland
falklands
fall
falle
faller
fallet
falls
fallskjerm
falne
falsk
falske
falt
falun
fam
fame
famil
famili
familiar
familie
familiegruppen
familiem
familien
familiene
familiens
familier
families
family
fan
fana
fane
fang
fanga
fangar
fange
fangele
fangeleir
fangen
fangene
fangenskap
fanger
fanget
fangst
fann
fanny
fans
fansen
fanst
fant
fantas
fantasi
fantast
fantastisk
fantastiske
fantasy
fantes
far
fara
farao
fare
faren
farens
farfar
farg
farga
fargar
farge
fargede
fargen
fargene
farger
fargerike
farget
farlig
farlige
farm
farmas
fars
farsgarden
farsund
fart
farten
fartøy
fartøyene
fartøyer
fartøyet
farvann
fas
fasade
fasaden
fasc
fascistiske
fase
fasen
faser
fasett
fasettøy
fasettøyne
fasettøynene
fasiliteter
fast
fastboende
faste
fastlagt
fastland
fastlandet
fastsatt
fastsla
fastslatt
fastslo
fat
fatall
fatt
fattet
fattig
fattigdom
fattige
fau
fauna
fauske
faust
fav
favor
favoritt
fbi
fc
fe
feber
febru
februar
fed
feder
federal
federation
fedora
fedr
feel
feil
feilaktig
feir
feira
feire
feires
feiret
feiring
feiringen
fekk
fekt
fekter
fekting
fel
feld
fele
felix
fell
felle
felles
fellesbet
fellesskap
fellesst
fellesstart
fellestrekk
fellow
felt
feltene
felter
feltet
feltmarskalk
feltt
felttog
felttoget
fem
femin
femkamp
femt
femte
femten
femteplass
femti
fen
feng
fengsel
fengselet
fengslet
fenomen
fenomener
fenomenet
fer
ferd
ferden
ferdig
ferdige
ferdigheter
ferdigstilt
ferdin
ferdinand
ferdsel
ferg
ferge
fergen
fergus
ferguson
feri
ferie
ferje
ferjes
fern
fernando
ferr
ferrari
ferry
fersk
ferskvann
ferskvannskreps
fest
festa
feste
festen
fester
festet
festival
festivalen
festivaler
festning
festninga
festningen
festnings
fet
fett
fetter
ff
fi
fia
fiat
fib
fiber
fiction
fid
fide
fidel
fids
field
fien
fiende
fienden
fiendens
fiender
fiendt
fiendtlig
fiendtlige
fifa
fig
figur
figuren
figurene
figurer
fiji
fik
fikk
fiksjon
fikt
fiktiv
fiktive
fil
filer
filharmon
filip
filipp
filippinene
filippinske
fill
film
filmar
filmat
filmatisert
filmen
filmene
filmens
filmer
filmet
filmfestivalen
filmin
filminstit
filmkrit
filmmusikk
filmmusikken
filmp
filmprodusent
filmregiss
filmregissør
filologi
filosof
filosofen
filosofer
filosofi
filosofiaret
filosofien
filosofisk
filosofiske
filter
fin
final
finale
finalen
finaler
finan
finans
finansdepartementet
finansiell
finansielle
finansier
finansiere
finansiering
finansiert
finansierte
finansk
finansminister
fine
fing
finger
finland
finlands
finn
finna
finne
finner
finnes
finnmark
finnmarks
fins
finsk
finske
finst
fint
fiol
fiolin
fiolinist
fir
fire
fired
firehjul
firen
firenze
firer
firk
firkant
firkantet
firma
firmaet
first
firth
fis
fischer
fish
fisher
fisk
fiskar
fiske
fisken
fisker
fiskere
fiskeri
fisket
fit
fitjar
fitz
fitzgerald
five
fj
fjeld
fjell
fjella
fjellene
fjellet
fjellkj
fjellkjeda
fjellkjede
fjellkjeden
fjellklat
fjellom
fjellt
fjelltopp
fjelltoppen
fjer
fjerd
fjerde
fjerdedel
fjerdeplass
fjerdeplassen
fjern
fjerna
fjerne
fjernes
fjernet
fjernsyn
fjernsynet
fjernsyns
fjernt
fjor
fjord
fjordane
fjordarm
fjorden
fjort
fjorten
fjær
fjærdrakt
fjære
fjø
fjør
fjørdrakt
fk
fl
fla
flag
flagg
flaggbærer
flaggermus
flagget
flak
flam
flamme
fland
flandern
flanke
flash
flaske
flat
flate
flaten
flater
flatevidd
flatt
flaum
flav
fle
fleet
fleetwood
fleir
fleire
fleirtal
flekk
flekke
flekkefjord
flekker
fleks
flem
fler
flere
flert
flertall
flertallet
flest
fleste
flet
flight
flik
flikvinger
flint
flitt
flittig
flo
flod
flokk
flom
flor
flora
floren
florett
florida
florø
flott
flotte
flow
floyd
flu
flue
fluer
flukt
flukten
fly
flyene
flyet
flyfot
flyfoto
flyg
flyge
flying
flykt
flykta
flykte
flyktet
flyktning
flyktninger
flyplass
flyplassen
flyplasser
flyr
flyselskap
flyselskapet
flyt
flytande
flyte
flytende
flyter
flytt
flytta
flyttar
flytte
flytter
flyttes
flyttet
flyv
flyvapen
flyvapenet
flyvning
flyvninger
flø
fløt
fløy
fløyen
fløyet
fløyte
fm
fn
fns
fo
fog
fogderi
fokus
fokusere
fokuserer
fokusert
fokuserte
fokuset
fol
folk
folka
folke
folkeavstem
folkeavstemning
folkeavstemningen
folked
folkegrupp
folkegrupper
folkeh
folkehøg
folkehøgskole
folkelig
folkelige
folkem
folkemengden
folkemord
folkemunne
folkemus
folkemuseum
folkemusikk
folkene
folkeparti
folker
folkereg
folkerep
folkerepublikken
folkerike
folkes
folkeset
folkesetnaden
folkeslag
folket
folketal
folketalet
folketall
folketallet
folketel
folketeljinga
folketell
folketelling
folketellingen
folketing
folketinget
folkets
folkevandring
folkrock
folks
foll
follo
fon
fond
fondet
font
foot
football
for
foran
forand
forandre
forandret
forandring
forandringer
forar
forarsa
forarsake
forarsaker
forarsaket
forb
forbe
forbed
forbedre
forbedret
forbedring
forbedringer
forbeholdt
forber
forbered
forberede
forberedelsene
forberedt
forberedte
forbetra
forbi
forbig
forbilde
forbindel
forbindelse
forbindelsen
forbindelser
forbinder
forbindes
forbl
forble
forbli
forblir
forbren
forbrenning
forbruk
forbruker
forbryt
forbrytelser
forbud
forbudet
forbudt
forbudte
forbund
forbundet
forbunds
forbundsdagen
forbundslandet
forbød
force
ford
fordamp
fordel
fordelen
fordeler
fordeling
fordelingen
fordelt
fordi
fordrevet
fordyp
fordømte
fordøy
fore
fored
foredrag
foredragsholder
foreg
foregaende
foregar
foregikk
forekom
forekomme
forekommer
forekomst
forekomster
forel
foreld
foreldr
foreldra
foreldre
foreldrene
foreles
forelesninger
forelig
foreligger
forelsket
foreløp
foreløpig
foren
forene
forening
foreningen
foreningens
foreninger
forenklet
forent
forente
fores
foreslar
foreslatt
foreslo
foresp
forest
forestilling
forestillingen
forestillinger
foret
foreta
foretak
foretatt
foretok
foretrakk
foretrekker
forf
forfal
forfall
forfalt
forfat
forfatning
forfatt
forfattar
forfattarar
forfattaren
forfatter
forfattere
forfatteren
forfatterens
forfatterne
forfatterskap
forfatterskapet
forfattet
forfed
forfedre
forfer
forfly
forflyttet
forfrem
forfremmet
forful
forfulgt
forfølg
forfølgelse
forg
forgje
forgjen
forgjenger
forgjengeren
forgjeves
forh
forhand
forhandle
forhandlet
forhandling
forhandlingene
forhandlinger
forhindre
forhindret
forhold
forholdene
forholdet
forholdsvis
forhøy
fork
forkant
forkast
forkastet
forkjemper
forkl
forklar
forklare
forklarer
forklares
forklaring
forklaringen
forklaringer
forklart
forklarte
forkort
forkorta
forkortelse
forkortet
forkropp
forkroppen
forkyn
forl
forlag
forlaget
forlagt
forlang
forlangte
forlate
forlater
forlatt
forlegg
forleng
forlengelse
forlenget
forlet
forlik
forliste
forlot
forlov
forlovet
forløp
forløper
forløperen
form
forma
formal
formalet
formann
formannskap
formannskapet
formannskapsdistrikt
formasjon
format
formatet
forme
formel
formelen
formell
formelle
formelt
formen
formene
former
formet
formid
formidle
formidler
formidlet
formidling
formod
formue
formula
formuler
formulert
forn
fornavn
forne
fornem
fornuft
forny
fornyet
fornær
fornøy
fornøyd
forp
forplant
forplikt
forpliktet
forret
forretning
forretninger
forretnings
forretningsmann
forretningsmannen
forrige
forræ
forræderi
fors
forsamling
forsamlingen
forsiden
forsik
forsikring
forsiktig
forsin
forsink
forsinket
forsk
forskarar
forsker
forskere
forskeren
forskerne
forsket
forsking
forskings
forskjell
forskjellen
forskjellene
forskjeller
forskjellig
forskjellige
forskning
forskningen
forsknings
forskningsrad
forskrift
forslag
forslaget
forson
forsoning
forst
forsta
forstad
forstaelse
forstaelsen
forstand
forstar
forstas
forstatt
forster
forsterke
forsterket
forsterkninger
forsto
forstod
forstyr
forstyrret
forstør
forstørrede
forsv
forsvann
forsvant
forsvar
forsvare
forsvarer
forsvaret
forsvarets
forsvars
forsvarsdepartementet
forsvarsminister
forsvart
forsvarte
forsvinne
forsvinner
forsvunnet
forsy
forsyning
forsyninger
forsø
forsøk
forsøke
forsøkene
forsøker
forsøket
forsøks
forsøkshe
forsøksheat
forsøksheatet
forsøkt
forsøkte
forsør
fort
fortalt
fortalte
fortel
fortell
fortelle
forteller
fortelles
fortelling
fortellingen
fortellingene
fortellinger
fortet
fortid
fortiden
fortjen
fortjenst
fortjenstmedalje
fortjenstorden
fortolk
fortr
fortrinn
fortsatt
fortsatte
fortsette
fortsettelse
fortsetter
forty
forum
forurens
forurensning
forut
foruten
foruts
forutsetning
forutsetter
forv
forvalt
forvalter
forvaltning
forvaltningen
forvaltnings
forvand
forvandlet
forvandling
forveien
forveks
forveksles
forven
forvent
forventes
forventet
forver
forverret
forvingen
forvingene
forvir
forvirring
forvist
forøvrig
fos
fosen
foss
fosse
fossen
fossil
fossile
fossiler
fossum
foster
fot
fotball
fotballag
fotballaget
fotballforbund
fotballforbundet
fotballklubb
fotballklubben
fotballkrets
fotballspelar
fotballspiller
fotballtrener
foten
foto
fotograf
fotografert
fotografi
fotografier
fotos
fots
fou
found
foundation
four
fox
fr
fra
frafly
frag
fragment
fragmenter
fraksjon
frakt
frakta
frakte
fraktet
fram
framfor
framføring
framført
framførte
framgang
framhe
framleis
framom
framover
framst
framstar
framstilling
framstilt
framtid
framtidige
framtredende
fran
franc
franca
francaise
france
frances
francesco
franch
francis
francisco
francist
franco
francois
frank
franken
franker
frankerne
frankfurt
frankiske
franklin
frankrike
frankrikes
frans
fransisk
fransk
franske
franskmennene
franz
fraser
frat
fratatt
fravær
fraværende
fre
fred
freda
fredag
freddie
fredelig
freden
freder
frederic
frederick
frederik
frederiks
frederiksberg
fredet
fredrik
fredrikshald
fredrikstad
freds
fredsavtale
fredsavtalen
fredsfor
fredspris
free
freedom
freest
freg
fregatt
frei
freista
frekvens
frekvensen
frelser
frelses
frelsesarme
frelsesarmeen
frem
fremdeles
fremfor
fremført
fremførte
fremgang
fremhe
fremme
fremmed
fremmede
fremmet
fremover
fremragende
fremre
fremskritt
fremskrittspartiet
fremst
fremstaende
fremstar
fremste
fremstille
fremstilles
fremstilling
fremstilt
fremtid
fremtiden
fremtidig
fremtidige
fremtredende
fren
french
fres
fri
frid
fridom
fridt
fridtjof
frie
fried
friedrich
friend
friends
fries
frig
frigitt
frigjort
frigjør
frigjøre
frigjøring
frigjøringen
frihet
friheten
friidrett
friidretts
friidrettsutøvar
friidrettsutøver
friis
frik
frikjent
friksjon
fril
frilans
friluft
friluftsliv
frimerke
frimurer
fris
frisk
friske
frist
fristaten
fristil
frit
fritid
fritt
frittstaende
fritz
frivil
frivillig
frivillige
fro
frod
frode
frodig
frogner
from
fron
front
fronten
frontfigur
frost
frp
fru
frue
frukt
fruktbare
fruktbarhet
frukten
frukter
fry
frykt
fryktet
frys
fryse
frø
frøy
frøya
ft
fu
fug
fugl
fuglane
fuglar
fugle
fuglen
fuglene
fugler
fuj
fujian
fuk
fukt
fuktig
fuktige
fuktighet
ful
fulgt
fulgte
full
fulle
fullføre
fullført
fullførte
fullmakt
fullmektig
fullstendig
fullstendige
fullt
fun
fund
fundam
fundament
funger
fungere
fungerende
fungerer
fungert
fungerte
funk
funksjon
funksjonen
funksjonene
funksjoner
funksjonshem
funksjonshemmede
funn
funne
funnen
funnene
funnet
fur
furu
fus
fusjon
fusjonen
fusjonert
fusjonerte
fut
fv
fvt
fy
fyl
fylke
fylkene
fylker
fylkes
fylkeskomm
fylkeskommun
fylkeskommune
fylkesmann
fylkest
fylkesting
fylkestinget
fylkesveg
fylkesvei
fylket
fylkets
fyll
fylle
fyller
fylling
fylogen
fylt
fylte
fyn
fyr
fyres
fyret
fyrst
fyrste
fyrsted
fyrstedømmet
fyrsten
fys
fysi
fysikar
fysiker
fysikk
fysiologi
fysisk
fysiske
fæ
fær
færder
færre
færøy
færøyene
færøyenes
færøysk
færøyske
fø
fødd
fødde
føde
føder
føderal
føderale
føderasjon
føderasjonen
føds
fødsel
fødselen
fødselsar
fødselsdag
født
fødte
føl
føle
følelse
følelser
følelses
føler
følg
følgde
følge
følgelig
følgende
følger
følges
følgjande
følgje
følgjer
følte
føn
fønik
før
førde
føre
førekomst
førem
føremal
fører
føreren
føres
føret
føroya
førre
først
første
førsteaman
førsteamanuensis
førsted
førstelag
førstelaget
førsteplass
førsteplassen
førstnevnte
ført
førte
førti
føttene
føtter
føy
føyd
føydal
ga
gab
gabri
gabriel
gad
gaende
gag
gal
gala
gale
galicia
galile
galilea
gall
galle
gallen
galler
galleri
galleriet
gallery
gallia
galt
galtvort
gam
gamal
gamb
game
games
gamla
gamle
gamlebyen
gamm
gammal
gammalt
gammar
gammaridea
gammel
gammeld
gammelt
gan
gand
gandhi
gang
gangen
gangene
ganger
gans
ganske
gansu
gap
gar
garant
garborg
garcia
gard
gardar
gardbrukar
gardbruker
garde
garden
gardene
gardens
garder
gardermoen
gards
gardsbruk
garm
garmisch
garn
garnis
garnison
garnisonen
gart
gartner
gary
gas
gass
gassen
gasser
gasskraftverk
gast
gat
gata
gate
gaten
gatene
gater
gates
gatt
gaul
gaulle
gaus
gausdal
gaut
gav
gave
gaver
gavle
gaz
gaza
gb
gd
ge
ged
geir
geist
geistlige
geit
geiter
gel
gem
gen
gene
gener
general
generalen
generaler
generalforsamling
generalg
generalguvern
generalguvernør
generall
generalløytnant
generalmajor
generalsekretær
generalstab
generalstaben
generasjon
generasjonen
generasjoner
generator
generell
generelle
generelt
genes
genesis
genet
genetisk
genetiske
geneve
genova
gent
geoff
geoffrey
geofys
geograf
geografi
geografisk
geografiske
geograph
geolog
geologi
geological
geologisk
geologiske
geomet
geometri
geometrisk
geometriske
georg
george
georges
georgia
georgisk
ger
gerais
gerald
gerard
gerd
gerhard
gerhardsen
geril
gerilja
germ
germain
german
germansk
germanske
gert
ges
gest
gestapo
get
gevin
gevær
gh
gha
ghana
ghost
gi
gia
gian
giants
gib
gibr
gibralt
gibraltar
gibson
gif
gift
gifta
gifte
gifter
giftet
giftig
giftige
gig
gikk
gil
gilbert
gilde
giles
gill
gilmour
gim
giorg
giov
giovanni
gir
girk
girl
girls
giro
gis
giske
git
gitar
gitaren
gitarer
gitarist
gitaristen
gitarsol
gitt
giul
gius
giuse
giuseppe
give
gj
gjaldt
gje
gjekk
gjel
gjeld
gjelde
gjeldende
gjelder
gjem
gjemt
gjen
gjenap
gjenapnet
gjenerob
gjenerobre
gjenerobret
gjenfor
gjenforening
gjenforent
gjeng
gjengen
gjengitt
gjengjeld
gjeninn
gjenkjen
gjenkjenn
gjennom
gjennombrudd
gjennombruddet
gjennomføre
gjennomføres
gjennomføring
gjennomføringen
gjennomført
gjennomførte
gjennomg
gjennomgaende
gjennomgang
gjennomgar
gjennomgatt
gjennomgikk
gjennomslag
gjennomsnitt
gjennomsnittet
gjennomsnittlig
gjennomsnittlige
gjenopp
gjenoppbygd
gjenoppdag
gjenopprette
gjenopprettet
gjenopptatt
gjenopptok
gjenreis
gjens
gjensidig
gjenskap
gjenspe
gjenspeiles
gjenstand
gjenstander
gjent
gjentatt
gjentatte
gjentok
gjenvalg
gjenvalgt
gjenværende
gjer
gjera
gjerde
gjere
gjerne
gjerning
gjert
gjest
gjeste
gjestene
gjesteopp
gjester
gjeter
gjev
gjeve
gjeven
gjevne
gjorde
gjort
gjær
gjø
gjødsel
gjør
gjøre
gjøres
gjøvik
gl
gla
glad
glade
glam
glan
glans
glas
glasgow
glass
glatt
glatte
gle
gled
glede
glem
glemt
glen
glenn
glide
glim
glimt
glob
global
globale
globalt
globe
glom
glomma
gloppen
gloria
glou
gloucester
gly
glø
gm
gn
gne
gnom
gnr
gnu
go
gob
god
gode
godkjen
godkjennelse
godkjenning
godkjent
godkjente
gods
godseier
godset
godt
godta
godtok
godwin
goe
goethe
gog
gol
gold
golden
golf
golfspiller
gom
gon
gond
gong
gongar
gongen
gonger
gonz
good
google
gor
gord
gordon
gork
gos
gospel
got
gotaland
gotalands
goteborg
gotisk
gotiske
gotland
gott
gottfried
gottingen
gover
govern
government
gp
gr
gra
grabrun
grace
grad
graden
gradene
grader
gradvis
graf
graff
grafikk
grafisk
grafiske
graham
gram
gramm
grammat
grammatikk
grammy
gran
granada
granat
grand
grande
granitt
gransk
grant
gras
grass
grat
grate
gratis
gratt
graub
graubunden
grav
grava
gravd
grave
graven
gravene
graver
gravhaug
gravid
gravitasjon
gravlagd
gravlagt
gravlund
gravplass
gray
gre
great
greatest
green
greene
greenwich
grefsen
greg
gregor
gregorianske
gregory
greide
grein
greiner
grekere
grekerne
gren
grend
grenda
grendene
grenen
grener
grenland
grenoble
grens
grensa
grensar
grense
grensen
grensene
grenser
grenset
grep
grepet
gres
gresk
greske
gress
grete
grev
greve
greven
grevinne
grevskap
grevskapet
grey
gri
grieg
griff
griffith
grig
grim
grimstad
grind
grini
gripe
gris
gro
gron
grop
gror
grorud
gros
gross
grotte
ground
group
grov
grove
groven
grovt
groß
gru
grun
grund
grunder
grundig
gruner
grunerløkka
grunn
grunna
grunne
grunnen
grunnene
grunner
grunnet
grunnfjell
grunnkretser
grunnla
grunnlag
grunnlagd
grunnlaget
grunnlagt
grunnlegg
grunnlegge
grunnleggelsen
grunnleggende
grunnlegger
grunnleggeren
grunnleggerne
grunnleggjande
grunnlov
grunnlova
grunnloven
grunnskole
grunnskolen
grunnstoff
grunt
grupp
gruppa
gruppas
gruppe
gruppen
gruppene
gruppens
grupper
grupperinger
gruppespill
gruppespillet
grus
grusom
gruve
gruved
gruvedrift
gruvene
gruver
gry
gryt
grø
grøn
grøne
grønland
grønlands
grønn
grønne
grønnsaker
grønt
gt
gu
gua
guad
guan
guang
guangdong
guangxi
guangzhou
guard
guardian
guatem
guatemala
gud
gudbrand
gudbrandsdalen
guddom
guddommelig
guddommelige
gude
guden
gudene
guder
gudinne
gudinnen
guds
gue
guer
guide
guild
guilla
guillaume
guine
guinea
guitar
gul
gulaktige
gulbrand
gulbrun
gulbrune
guld
gule
gulen
gulf
gull
gullalder
gullbas
gullbasse
gullbasser
gullet
gullmedalje
gullmedaljen
gullmedaljer
gullplate
gullruten
gullsmed
gult
gulv
gulvet
gum
gumm
gummi
gun
gunder
gundersen
gunn
gunnar
gunst
gunstig
gunt
gunther
gur
gust
gustaf
gustav
gut
guten
guth
gutt
gutte
gutten
guttene
gutter
guttorm
guvern
guvernement
guvernementet
guvernør
guvernøren
guy
guyana
gw
gwh
gy
gyl
gyld
gylden
gyldendal
gyldenlø
gyldig
gyllen
gylne
gym
gymnas
gymnaset
gymnasium
gymnast
gymnastikk
gynt
gæl
gælisk
ha
haag
haakon
haar
hab
habit
habitat
habsburg
hack
had
hadde
hadeland
hadsel
haf
hag
hage
hagen
hager
hagerup
haiti
hak
hake
hakk
hakon
hakonsson
hal
hald
halda
halde
halden
hale
halen
half
hall
halland
halle
hallen
halling
hallingdal
hallvard
halm
halog
halogaland
hals
halsen
halt
halv
halvbror
halvdan
halvdel
halvdelen
halve
halvering
halveringstid
halvk
halvkula
halvkule
halvmane
halvor
halvorsen
halvparten
halvt
halvveis
halvøy
halvøya
ham
hamar
hamas
hamburg
hamil
hamilton
hamm
hammar
hammer
hammerfest
hammond
hamn
hamna
hamne
hamp
hampshire
hamsun
han
hand
handball
handballspiller
handel
handelen
handels
handelshøy
handelshøyskole
handelshøyskolen
handelsmann
handelsmenn
handelsskip
handen
handfull
handhe
handlar
handle
handler
handlet
handling
handlinga
handlingen
handlinger
handsam
handt
handtere
handtering
handverk
handverkere
handverks
hang
hangar
hank
hann
hanna
hannah
hanne
hannen
hannene
hannens
hanner
hannibal
hannover
hans
hansa
hanse
hansen
hanssen
hansson
hap
hapet
happ
happy
har
harald
haram
harbor
harbour
hard
hardanger
hardangervidda
hardcore
harde
harding
hardingf
hardingfele
hardrock
hardt
hare
haret
harete
harfag
harfagre
harlem
harmon
harmoni
harold
harp
harper
harriet
harris
harrison
harry
harstad
hart
harvard
harvey
has
hash
hass
hassel
hast
hastighet
hastigheten
hastigheter
hastings
hat
hatt
hau
haug
hauge
haugen
hauger
haugesund
haugland
hauk
haupt
haus
haust
hausten
haute
hav
havar
havard
havbunnen
have
haven
havet
havilland
havn
havna
havne
havneby
havnebyen
havnen
havner
havnet
havniva
havre
havs
haw
hawa
hawaii
hay
hayd
haydn
hayes
haz
hb
hbw
hc
hd
he
head
health
hear
heart
hearts
heat
heath
heav
heaven
heavy
hebei
hebra
hebraisk
hebraiske
hed
hede
heden
hedenske
heder
hedmark
hedret
heft
hefte
heftig
heg
hegg
hei
heiberg
heid
heide
heidelberg
heiden
heidi
heights
heil
heilag
heilage
heile
heilt
heim
heime
heimen
heimlandet
heimskring
heimskringla
hein
heinrich
heinz
heis
heiter
heitte
hekk
hekkar
hekke
hekker
heks
hekse
hekser
hektar
hel
helbred
held
heldig
heldt
hele
helen
helena
helene
helg
helga
helge
helgeland
helgen
helhet
helik
helikopter
helikoptre
helium
hell
helland
hellas
helle
hellen
hellenistiske
heller
hellerist
hellig
hellige
helm
hels
helse
helset
helsing
helsingborg
helsingfors
helsinki
helst
helt
helten
helter
heltid
helvet
helvete
hem
hemmelig
hemmelige
hemmelighet
hemnes
hen
henan
hend
hende
hendel
hendelse
hendelsen
hendelsene
hendelser
hendene
hender
henderson
hending
hendinga
hendingar
hendri
hendrix
heng
henge
hengende
henger
hengt
henhold
henholdsvis
hennar
henne
hennes
henning
henrett
henrettelsen
henrettet
henri
henriette
henrik
henriksen
henry
hens
hensikt
hensikten
henspiller
hensyn
hent
henta
hente
henter
hentes
hentet
henven
henviser
henvisning
hep
her
hera
herad
herak
herakles
herald
herav
herbert
herc
herceg
hercegovina
here
herfra
heritage
herjet
herkomst
herm
herman
hermann
hero
herod
herodes
herodot
herr
herre
herred
herredømme
herregard
herrelandslag
herren
herrenes
herrer
hersk
herskap
hersker
herskere
herskeren
herskerne
hersket
hert
hertug
hertugd
hertugdømmet
hertugen
hertuginne
hertz
herunder
herz
herøy
hes
hesper
hesperiidae
hess
hessen
hest
heste
hestekrefter
hesten
hester
het
hete
heter
hett
hev
hevda
hevdar
hevde
hevder
hevdes
hevdet
heve
hevet
hevn
hey
heyer
heyerdahl
hhv
hi
hid
hier
hierark
hig
high
highjump
highland
highway
hil
hilde
hill
hille
hills
him
himal
himalaya
himm
himmel
himmelen
himmelske
himmler
hin
hind
hinder
hindi
hindra
hindre
hindrer
hindret
hindu
hinduismen
hip
hiphop
hipp
hir
hiro
hirosh
hiroshima
hirsch
his
hisp
histor
historia
historie
historiel
historien
historiene
historiens
historier
historiker
historikere
historikeren
historikk
historisk
historiske
history
hit
hitch
hitler
hitlers
hitlistene
hitra
hits
hitsing
hitt
hitten
hittil
hiv
hiz
hj
hja
hjal
hjalmar
hjalp
hjart
hjarte
hjel
hjelm
hjelmeland
hjelp
hjelpe
hjelpem
hjelper
hjelpte
hjem
hjemby
hjembyen
hjemland
hjemlandet
hjemme
hjemmebane
hjemmebanen
hjemmekamper
hjemmel
hjemmes
hjemmeside
hjemmet
hjer
hjerne
hjernen
hjernes
hjert
hjerte
hjertein
hjerteinfarkt
hjertet
hjort
hjorte
hjortebiller
hjul
hjulpet
hjør
hjørne
hjørnet
hk
hm
hms
ho
hoa
hob
hobb
hobby
hoc
hoch
hockey
hod
hode
hodep
hodet
hodets
hoel
hof
hoff
hoffet
hog
hohen
hok
hol
holberg
hold
holde
holdeplass
holder
holdes
holding
holdning
holdninger
holdt
hole
holger
holl
holland
holly
hollywood
holm
holme
holmen
holmenk
holmenkoll
holmenkollen
holmer
holmes
holmest
holmestrand
holoc
holocaust
holomet
holometabole
holst
holstein
holsten
holt
holter
holy
hom
home
homer
homo
homof
homofile
homoseks
hon
hond
honduras
hong
hongkong
honning
honor
hood
hop
hope
hopkins
hopp
hoppe
hopper
hoppet
hoppuka
hor
hord
hordaland
horison
horisont
horisontal
horisontale
hormon
horn
hornbiller
hornet
hors
horse
hort
horten
hos
hosp
hospital
hot
hotel
hotell
hoteller
hotellet
house
houston
hov
hovden
hove
hoved
hovedbelteasteroide
hovedbygningen
hoveddelen
hovedfag
hovedgard
hovedkontor
hovedkontoret
hovedkvarter
hovedkvarteret
hovedopp
hovedperson
hovedpersonen
hovedr
hovedrolle
hovedrollen
hovedrollene
hovedsak
hovedsakelig
hovedsete
hovedstad
hovedstaden
hovedt
hovedtrener
hovedveien
hovedverk
hovud
hovudbelteasteroide
hovudet
hovudkvarter
hovudsak
hovudsakleg
hovudsete
hovudstad
hovudstaden
hovudt
how
howard
howe
hr
hs
ht
htt
http
hu
hua
huang
hub
hubb
hubei
hubert
hud
huden
hudskjelettet
hudson
hug
hugen
hugget
hugh
hughes
hugo
huit
hukomm
hul
hule
hull
hum
human
humanistiske
humbol
humboldt
humor
humoristisk
humoristiske
humph
hun
hunan
hund
hunde
hunden
hundene
hunder
hundre
hundrear
hundrearet
hundred
hundret
hundrevis
hunger
hungersn
hunn
hunnen
hunnene
hunner
hunt
hunter
hunting
hur
hurt
hurtig
hurtigløp
hurtigrute
hurtigruten
hurum
hus
husa
husar
husdyr
huse
husene
huser
huset
hushold
husholdning
huske
husker
huskes
husket
husmann
husmor
hussein
hust
hustru
hut
hv
hva
hval
hvaler
hvalfangst
hvel
hvelv
hvelvede
hvelvet
hvem
hver
hverandre
hverdag
hverken
hvert
hvete
hvil
hvile
hvileperiode
hviler
hvilke
hvilken
hvilket
hvis
hvit
hvite
hviter
hviteruss
hviterussisk
hviterussland
hvitt
hvor
hvorav
hvordan
hvoretter
hvorfor
hvorfra
hvorpa
hvorvidt
hy
hybrid
hyd
hyder
hyderabad
hydra
hydraul
hydro
hydrogen
hyg
hyl
hylla
hyllest
hyllet
hym
hyp
hyper
hypo
hypot
hypote
hypotese
hypotesen
hypp
hyppig
hyppige
hyr
hytta
hytte
hytter
hæ
hær
hæren
hærens
hø
høeg
høg
høgare
høgaste
høgd
høgda
høgde
høge
høgre
høgskole
høgskolen
høgskulen
høgste
høgster
høgt
høj
høland
høn
høne
hønefoss
hør
høre
hører
høres
hørsel
hørt
hørte
høst
høsten
høstet
høv
høvd
høvding
høve
høves
høvesvis
høy
høyd
høyde
høydedrag
høydehopp
høyden
høydepunkt
høyder
høye
høyer
høyere
høyest
høyeste
høyester
høyesterett
høyesteretts
høyhastighet
høyland
høylandet
høyr
høyrde
høyre
høyrer
høyres
høyrte
høyskole
høyskolen
høyst
høyt
høytid
ia
iaaf
ian
ib
iber
iberiske
ibl
iblant
ibm
ibn
ibra
ibrahim
ibsen
ibsens
ibuarar
ic
ice
ich
id
ida
idag
ide
ideal
ideell
ideelle
ideen
ideene
ideer
ident
identif
identifisere
identifisert
identifiserte
identisk
identiske
identitet
identiteten
ideologi
ideologisk
ideologiske
idet
idol
idrett
idretten
idretter
idretts
idrettsforbund
idrettsforening
idrettskarriere
idrettslag
idrettslaget
idrettsutøver
if
ifk
ifra
ifølge
ifølgje
ig
igang
igangsatt
igjen
igjennom
ign
igna
ignor
igor
ii
iii
iiis
iis
ij
ik
ike
ikke
ikkje
ikon
ikt
il
ila
ild
ilden
ile
ill
illeg
illegale
illin
illinois
illusjon
illust
illustrasjon
illustrasjoner
illustrat
illustratør
illustrert
illustrerte
im
imag
imago
imellom
imidler
imidlertid
imm
immigr
immun
imot
imp
imper
imperial
imperiet
imperium
implem
implement
impon
imponer
imponerende
imponert
import
importert
impresjon
impro
improvis
impul
in
inc
ind
inde
indeks
independ
independent
inder
inderøy
india
indiahavet
indian
indiana
indianapolis
indianer
indianere
indianerne
indianske
indias
indie
indik
indikasjon
indikerer
indikerte
indire
indirekte
indisk
indiske
indiv
individ
individene
individer
individuell
individuelle
individuelt
indo
indoe
indoeuropeiske
indones
indonesia
indre
indus
indust
industri
industrial
industriell
industrielle
industrien
industris
inf
infanter
infanteri
infanteriet
infanteriregiment
infe
infeksjon
infer
infin
infl
inflasjon
influen
influert
inform
informasjon
informasjonen
information
informer
informert
infr
infra
infrar
infrastruktur
ing
inga
inge
ingeborg
ingebrigt
ingebrigtsen
ingen
ingeni
ingeniør
ingeniøren
ingenting
inger
ingr
ingrediens
ingrid
init
initi
initiativ
initiativet
initiativtak
ink
inkar
inkluder
inkludere
inkluderer
inkludert
inkluderte
inklus
inklusive
inn
innad
innan
innanfor
innb
innbe
innblanding
innbrakte
innbringende
innby
innbygg
innbygger
innbyggere
innbyggerne
innbyggertall
innbyggertallet
innbyggj
innbyggjarane
innbyggjarar
innbyr
innbyrdes
innbytter
inndeling
inndelingen
inndelt
inne
innebandy
innebar
innebærer
inneh
inneha
innehadde
innehar
innehaver
inneheld
inneheldt
inneholde
inneholder
inneholdt
innen
innendørs
innenfor
innenrik
innenriksminister
inner
innerst
innerste
innes
innfly
innflyt
innflytelse
innflytelsen
innflytelses
innflytelsesrike
innfødte
innføre
innføring
innføringen
innført
innførte
inng
innga
inngang
inngangen
inngar
inngatt
inngikk
inngrep
innh
innhald
innhold
innholdet
inni
innk
innkalt
innkjø
innkjøp
innkjøpt
innlagt
innland
innlandet
innlands
innle
innled
innledende
innledet
innledning
innlednings
innledningshe
innlegg
innlem
innlemma
innlemmet
innløp
innløpet
innoc
innom
innov
innovasjon
innover
innpass
innr
innredet
innretning
innrømmet
inns
innsa
innsam
innsamling
innsats
innsatsen
innsatt
innsatte
innsbruck
innser
innsiden
innsikt
innsjø
innsjøar
innsjøen
innsjøene
innsjøer
innskren
innskrift
innskriften
innslag
innsnev
innsp
innspel
innspeling
innspelinga
innspelingane
innspelingar
innspill
innspilling
innspillingen
innspillinger
innspilt
innst
innstiftet
innstilling
innstilt
innt
innta
inntak
inntatt
inntekt
inntektene
inntekter
inntil
inntok
inntr
inntra
inntraff
inntre
inntrykk
innv
innvalg
innvalgt
innvand
innvandrer
innvandrere
innvandret
innvandring
innvendig
innverknad
innvi
innviet
innvilget
innvirkning
ins
inse
insekt
insektene
insekter
insektet
insister
insisterte
inskripsjon
inskripsjonen
inskripsjoner
insp
inspekt
inspir
inspirasjon
inspirert
inspirerte
inst
instal
install
installasjon
installert
instit
institu
institusjon
institusjonen
institusjoner
institut
institute
institutt
instituttet
instru
instruksjon
instruksjoner
instruktør
instrum
instrument
instrumental
instrumentale
instrumentene
instrumenter
instrumentet
int
intakt
inte
integ
integr
integrasjon
integrert
intel
intell
intelle
intellekt
intellektuelle
intellig
intelligen
intelligens
inten
intens
intense
intensjon
inter
intercept
interess
interessant
interessante
interesse
interessen
interesser
interessert
interesserte
interiør
interiøret
interkommun
intern
internasjon
internasjonal
internasjonale
internasjonalt
internation
international
interne
internert
internet
internett
internt
interv
intervensjon
intervj
intervju
intervjuer
intervjuet
intet
into
intr
introduksjon
introdus
introdusert
introduserte
inu
inv
inva
invader
invadere
invadert
invaderte
invasjon
invasjonen
invent
inventar
inver
invest
invester
investering
investeringer
investig
investorer
invit
invitert
inviterte
invol
involverer
involvert
involverte
io
iok
ion
iowa
ip
ir
ira
irak
irakiske
iran
iransk
iranske
ireland
irene
iris
irish
irland
irlands
iron
ironisk
irreg
irrig
irrit
irsk
irske
irving
is
isa
isaac
isab
isabella
isak
isb
isbn
isbre
isbreen
isbreer
isbrem
isdekt
isen
isf
ish
ishockey
ishockeyklubb
ishockeyspiller
isk
isl
islam
islamsk
islamske
island
islands
islandsk
islandske
isle
isma
iso
isol
isolasjon
isolert
isolerte
isotop
isra
israel
israels
israelsk
israelske
iss
ist
istan
istanbul
isted
isteden
istedenfor
istid
især
it
ital
italia
italias
italien
italiensk
italienske
iuc
iv
ivan
ivar
ivaret
ivareta
iver
iverk
iverks
iverksatt
iversen
ivrig
ivs
iw
ix
iz
ja
jab
jac
jack
jackie
jackson
jacob
jacobsen
jacques
jag
jager
jagerfly
jaget
jagger
jaguar
jah
jahn
jak
jakob
jakobsen
jakt
jakte
jakten
jakter
jaktstart
jam
jama
jamaic
jamaica
james
jamt
jan
jane
janeiro
januar
jap
japan
japanerne
japans
japansk
japanske
jar
jarl
jarle
jarlen
jarlsberg
jarn
jarnban
jas
jason
jav
java
jay
jazz
jazzmus
je
jean
jeff
jefferson
jeg
jeger
jegere
jel
jem
jemen
jen
jenn
jennifer
jenny
jens
jensen
jenssen
jenta
jente
jentene
jenter
jer
jere
jeremy
jern
jernalder
jernalderen
jernban
jernbane
jernbanen
jernbanes
jernbanest
jernbanestasjon
jernbanestasjonen
jernbanet
jernmalm
jernverk
jerry
jersey
jerus
jerusalem
jes
jesper
jess
jesse
jessica
jesu
jesuitt
jesuittene
jesuittordenen
jesus
jet
jets
jev
jevn
jevnaker
jevnbrede
jevne
jevnlig
jevnt
jew
jf
ji
jia
jiang
jiangsu
jiangxi
jim
jimmy
jin
jing
jo
joachim
joan
joao
job
jobb
jobba
jobbe
jobben
jobber
jobbet
jod
joe
joel
joh
johan
johann
johanna
johanne
johannes
johannesburg
johannesen
johannessen
johans
johansen
johansson
john
johnny
johns
johnsen
johnson
johnston
joint
jol
jom
jomfru
jon
jonas
jonathan
jones
jong
joniske
jonsson
jor
jord
jorda
jordan
jordbru
jordbruk
jordbruket
jordbruks
jorde
jorden
jordens
jordskjel
jordskjelv
jordskjelvet
jordskor
jordsmon
jordsmonnet
jorge
jos
jose
josef
joseph
josh
jot
jotun
jotunheimen
jour
journ
journal
journalist
journalisten
journalister
journalistikk
jov
joy
joyce
jr
ju
juan
jub
jubileum
jud
judas
judea
judo
judoka
juel
jug
jugend
jugoslav
jugoslavia
jugoslaviske
jul
jula
jule
julen
jules
juli
julia
julian
julianske
julie
julius
jun
jung
juni
junior
jup
jupiter
jur
jura
jurid
juridisk
juridiske
jurij
juris
jurisdiksjon
jurist
jury
juryen
jus
juss
just
justin
justis
justisdepartementet
justisminister
juvent
juventus
jylland
jæ
jær
jæren
jø
jød
jødar
jøde
jødedom
jødedommen
jødene
jøder
jødisk
jødiske
jøl
jør
jørg
jørgen
jørgensen
jørn
ka
kaas
kab
kabel
kabul
kad
kadett
kafe
kaff
kaffe
kag
kai
kairo
kaiser
kajakk
kak
kaka
kal
kald
kalde
kaldt
kale
kalen
kalender
kalenderen
kaliber
kalif
kalium
kalk
kalkstein
kall
kalla
kallar
kallast
kalle
kallen
kallenavn
kallenavnet
kaller
kalles
kalmar
kals
kalsium
kalt
kalte
kalv
kam
kambod
kambodsja
kamer
kamera
kamerun
kammer
kammeret
kammermusikk
kamp
kampan
kampane
kampanje
kampanjen
kampar
kampen
kampene
kamper
kampf
kampsport
kamuf
kamuflas
kan
kana
kanaan
kanadisk
kanadiske
kanal
kanalen
kanalene
kanaler
kanari
kanariøyene
kand
kandid
kandidat
kandidaten
kandidatene
kandidater
kang
kann
kanon
kanonen
kanonene
kanoner
kans
kansas
kansel
kansellert
kanskje
kansler
kant
kanten
kanter
kanton
kantonen
kaos
kap
kapasitet
kapasiteten
kapell
kapellan
kapellet
kapellmester
kapit
kapital
kapitler
kapittel
kapitu
kapp
kappe
kappgang
kapte
kaptein
kapteinen
kar
kara
karab
karak
karakt
karakter
karakteren
karakterer
karakteriseres
karakterisert
karakteristisk
karakteristiske
karasj
karasjok
karate
karb
karbon
karbond
karbondioksid
kard
karde
kardin
kardinal
kardinaler
kare
karel
karen
karet
kari
karib
karibia
karibiske
karik
karikatur
karin
karl
karlsen
karm
karmøy
karn
karnten
karol
karosser
karosseri
karp
karrier
karriere
karrieren
kart
kartago
kartet
kartla
kartlagd
kartlagt
kartlegge
kartlegging
kartograf
kartografar
kas
kasakh
kasakhst
kasakhstan
kash
kashmir
kass
kassel
kast
kasta
kaste
kaster
kastet
kasus
kat
katal
katalansk
katalog
katalogen
katarina
katastro
katastrofe
katastrofen
kate
kated
katedral
katedralen
katedralskole
kateg
kategor
kategori
kategorien
kategorier
katol
katolikk
katolikker
katolisismen
katolsk
katolske
katt
katte
katter
kaukas
kaukasus
kaup
kaut
kautoke
kautokeino
kav
kavaler
kavaleri
kavaleriet
kaw
kay
kaz
ke
keep
keeper
keis
keisar
keisaren
keiser
keiserdømmet
keisere
keiseren
keiserens
keiserinne
keiserlige
keiserne
keiserriket
keith
kel
kelly
kelt
keltisk
keltiske
kem
ken
kenn
kennedy
kennet
kenneth
kenny
kent
kentucky
keny
kenya
kep
ker
keramikk
ket
ketil
kevin
key
keyboard
keynes
kf
kg
kh
kha
khal
khan
khar
khmer
khr
khrusjtsj
ki
kib
kibbut
kibbutz
kibbutzen
kick
kid
kidna
kidnappet
kiel
kiell
kielland
kiev
kikkert
kil
kilde
kilden
kildene
kilder
kile
kill
kilo
kilometer
kim
kin
kina
kinas
kind
kines
kinesere
kineserne
kinesisk
kinesiske
king
kingdom
kings
kingston
kinn
kino
kinoer
kio
kip
kir
kirch
kirgis
kirk
kirka
kirke
kirkegard
kirkegarden
kirkelig
kirkelige
kirkem
kirken
kirkene
kirkenes
kirkens
kirker
kirkes
kirkesamfunn
kirkesogn
kirkest
kirsten
kirurg
kis
kiss
kiste
kit
kitt
kiv
kj
kje
kjed
kjede
kjeden
kjegle
kjel
kjeld
kjelda
kjelde
kjeldene
kjelder
kjell
kjeller
kjelleren
kjels
kjem
kjemi
kjemikal
kjemiker
kjemisk
kjemiske
kjemp
kjempa
kjempe
kjemper
kjempet
kjen
kjend
kjende
kjendis
kjenn
kjenne
kjenner
kjennes
kjennet
kjenneteg
kjennetegn
kjennetegnes
kjennetegnet
kjenneteik
kjennskap
kjens
kjent
kjente
kjer
kjerne
kjernefys
kjernefysiske
kjernekraftverk
kjernen
kjert
kjetil
kjevene
kjever
kjæ
kjær
kjære
kjæreste
kjæresten
kjærleik
kjærlighet
kjærligheten
kjø
kjøkken
kjøl
kjøle
kjølig
kjølvannet
kjøn
kjønn
kjønnene
kjønns
kjønnsmod
kjønnsmodne
kjønnsorganer
kjøp
kjøpe
kjøper
kjøpes
kjøpesenter
kjøpmann
kjøpmenn
kjøpstad
kjøpt
kjøpte
kjør
kjøre
kjører
kjøres
kjøret
kjøretøy
kjøretøyer
kjøretøyet
kjøring
kjørt
kjørte
kjøt
kjøtt
kjøttet
kl
kla
klage
klager
klaget
klan
klanen
klang
klar
klare
klarer
klarinett
klart
klarte
klas
klass
klasse
klassekampen
klassen
klassene
klasser
klassif
klassifiseres
klassifisering
klassifisert
klassisk
klassiske
klat
klatra
klatre
klatret
klatring
klaus
klaver
kle
kledd
klede
kledt
klein
klekkes
klem
klemens
kleopatra
klepp
kler
kles
kli
klient
klim
klima
klimaendringer
klimaet
klin
klinisk
klipp
klippe
klippene
klipper
klo
kloakk
klokk
klokka
klokke
klokken
klokker
klokket
klor
kloster
klosteret
klostre
klub
klubb
klubbane
klubbe
klubben
klubbene
klubbens
klubber
kly
klæ
klær
klø
klør
kløv
km
km2
km²
kn
kna
knapp
knappe
knapt
kne
knight
kniv
knock
knop
know
knud
knudsen
knus
knuse
knust
knuste
knut
knutepunkt
knutsen
knytt
knytte
knytter
knyttes
knyttet
knø
ko
koal
koalisjon
koalisjonen
kob
kobber
koblet
koch
kod
kode
koden
kof
kog
kogn
kognitiv
koh
kok
koke
kokk
kokos
kol
kolbotn
koll
kollap
kollapset
kolleg
kollega
kolleger
kollekt
kollektiv
kollektivt
kolliderte
kollisjon
koln
kolon
koloni
kolonial
kolonien
koloniene
kolonier
kolonim
kolonit
kolstad
kom
koma
kombin
kombinasjon
kombinasjonen
kombiner
kombinere
kombinerer
kombinert
kombinerte
kome
komedie
komedien
komet
komfort
komiker
komite
komiteen
komm
kommand
kommandant
kommandanten
kommandert
kommanderte
kommando
kommandoen
kommandør
komme
kommende
komment
kommentar
kommentarer
kommentator
kommentatorer
kommenterte
kommer
kommers
kommersiell
kommersielle
kommersielt
kommet
kommisjon
kommisjonen
kommun
kommunal
kommunale
kommunaleining
kommunaleininga
kommunalt
kommunane
kommunar
kommune
kommunen
kommunene
kommunens
kommuner
kommunes
kommunesammens
kommunesenteret
kommunest
kommunesty
kommunestyre
kommunestyret
kommunestyrev
kommunevalget
kommunikasjon
kommunisere
kommunismen
kommunist
kommunistene
kommunister
kommunistisk
kommunistiske
kommunistparti
kommunistpartiet
komp
kompakt
kompan
kompani
kompaniet
kompat
kompens
kompensasjon
kompet
kompetanse
kompil
kompl
kompleks
komplekse
komplekset
komplett
komplette
komplikasjoner
komplisert
kompliserte
kompon
komponent
komponentene
komponenter
komponert
komponerte
komponist
komponisten
komponister
komposisjon
komposisjoner
komprom
kompromiss
kon
kona
kond
kondens
kone
konf
konfer
konferanse
konferansen
konferanser
konfir
konfirm
konfisk
konfl
konflikt
konflikten
konflikter
konfront
konfuc
konføder
kong
konge
konged
kongedømet
kongedømme
kongedømmet
kongefamilien
kongehuset
kongeleg
kongelege
kongelig
kongelige
kongen
kongene
kongens
kongepok
kongepokalen
konger
kongerike
kongeriket
konges
kongo
kongreg
kongregasjonen
kongres
kongress
kongressen
kongsberg
kongsgard
kongsvinger
konig
konigsberg
konigstuhl
konk
konkl
konklavet
konkluder
konkluderte
konklusjon
konkret
konkrete
konkur
konkurr
konkurrans
konkurranse
konkurransen
konkurransene
konkurranser
konkurrent
konkurrere
konkurrerende
konkurrerer
konkurrert
konkurrerte
konkurs
konrad
kons
konse
konsekvens
konsekvensene
konsekvenser
konsekvent
konsent
konsentrasjon
konsentrasjonen
konsentrasjonsleir
konsentrere
konsentrert
konsentrerte
konsept
konseptet
konser
konsern
konsernet
konsert
konsertalbum
konsertalbumet
konsertane
konsertar
konserten
konsertene
konserter
konsertopptak
konservat
konservativ
konservative
konservatoriet
konsesjon
konsilet
konsol
konson
konsonant
konsp
konspirasjon
konst
konstant
konstantin
konstantinopel
konstitu
konstituert
konstitusjon
konstru
konstruere
konstruert
konstruerte
konstruksjon
konstruksjonen
konstruksjoner
konstruktør
konsul
konsulent
konsult
kont
kontakt
kontakten
kontakter
kontaktet
kontekst
kontin
kontinent
kontinental
kontinentale
kontinentet
kontinu
kontinuer
kontinuerlig
kontor
kontorer
kontoret
kontr
kontra
kontrabass
kontrakt
kontrakten
kontrast
kontre
kontro
kontrol
kontroll
kontrollen
kontroller
kontrollere
kontrollerer
kontrollert
kontrollerte
kontrover
kontrovers
kontroversiell
kontroversielle
kontroversielt
konvensjon
konvensjonelle
konvensjonen
konver
konvert
konvertert
konverterte
konvo
koord
koordin
koordinat
kop
kopar
koper
kopi
kopier
kopp
kopper
kopt
kor
koral
korall
koranen
kore
korea
koreansk
koreanske
koreas
koreograf
koret
korg
korint
korleis
korn
koron
koronav
koronavirus
korps
korpset
korre
korrekt
korrekte
korresp
korrespond
korrespondanse
korrespondent
korresponder
korrig
korru
korrupsjon
kors
korset
korsfar
korsika
korstog
kort
kortare
kortbane
korte
kortere
kortet
kortfilm
kortform
kortvarig
kortvarige
kos
kosa
kosm
kosovo
kost
kostbare
koste
kostet
kostnad
kostnadene
kostnader
kosty
kot
kov
kr
kra
krabbe
kraft
kraften
kraftig
kraftige
kraftigere
kraftproduksjon
kraftstasjon
kraftstasjonen
kraftverk
kraftverket
krag
kragerø
kraj
krake
krakow
kram
kramer
kran
krang
krangel
krans
krasj
krasn
krater
krateret
kratt
krav
kravde
kravene
kravet
kre
kreativ
kreative
kred
kreditert
kreditt
kreert
kreft
kreftene
krefter
kreis
krem
kren
krep
krepsd
krepsdyr
kret
kreta
krets
kretsen
kretser
krev
krevde
kreve
krevende
krever
kreves
krf
kri
krig
krigen
krigene
krigens
kriger
krigere
krigføring
krigs
krigsf
krigsfanger
krigsfor
krigsforbryt
krigsforbrytelser
krigshand
krigsher
krigskorset
krigsskip
krigsut
krigsutbruddet
krim
krimin
kriminal
kriminalitet
kriminelle
kring
kringkast
kringkasteren
kringkasting
kringkastings
kris
krise
krisen
krist
kristelig
kristen
kristend
kristendom
kristendommen
kristent
kristi
kristian
kristiania
kristiansand
kristiansen
kristiansund
kristin
kristina
kristine
kristne
kristoffer
kristus
krit
kriter
kriterier
kritiker
kritikere
kritikerne
kritikk
kritikken
kritikker
kritisert
kritiserte
kritisk
kritiske
kritt
kro
kroatia
kroatisk
kroatiske
krog
krogh
krohg
krohn
krok
krom
kromos
kromosom
kron
krona
krone
kronen
kroner
kronet
kroning
kronisk
kronologisk
kronpr
kronprins
kronprinsen
kropp
kroppen
kroppens
kropps
kroppsbygning
kroppsformen
kroppsl
kross
krossfarar
kru
krum
krus
krutt
kry
kryd
krydder
kryp
krypdyr
krypt
krys
kryss
kryssa
kryssar
krysse
krysser
krysset
krystall
krøn
krønike
ku
kub
kubikk
kubikkmeter
kul
kulde
kule
kuler
kulestøt
kull
kullkraftverk
kulmin
kulminerte
kult
kultur
kulturarv
kulturell
kulturelle
kulturelt
kulturen
kulturer
kulturhistorisk
kulturhus
kulturm
kulturminne
kulturminner
kulturpris
kulturrad
kulturrevolusjonen
kum
kun
kunde
kunder
kung
kungliga
kunn
kunna
kunne
kunnet
kunngjorde
kunngjort
kunnskap
kunnskapen
kunnskaper
kunst
kunstakadem
kunstakademi
kunstakademiet
kunstaret
kunsten
kunstforening
kunstg
kunsthand
kunsthandverk
kunsthistorie
kunstig
kunstige
kunstindust
kunstindustriskole
kunstløp
kunstløper
kunstmaler
kunstmuseum
kunstn
kunstnar
kunstnarar
kunstner
kunstnere
kunstneren
kunstnerisk
kunstneriske
kunstnerne
kunstverk
kup
kupert
kupp
kuppet
kur
kurd
kurdisk
kurdiske
kurfyr
kurie
kurs
kursen
kurt
kurv
kurve
kurven
kus
kut
kutte
kuttet
kuwa
kuwait
kv
kva
kvad
kvadrat
kvadratisk
kvadratkilometer
kvadratmeter
kval
kvalif
kvalifisere
kvalifisering
kvalifiseringen
kvalifiserings
kvalifiseringskamp
kvalifiseringsrunde
kvalifisert
kvalifiserte
kvalitet
kvaliteten
kvaliteter
kvam
kvant
kvante
kvantemekan
kvar
kvarandre
kvart
kvartal
kvartalet
kvarter
kvartett
kvartfin
kvartfinale
kvartfinalen
kvarts
kve
kveg
kveite
kvel
kveld
kvelden
kven
kver
kvern
kvikk
kvinn
kvinne
kvinnelandslag
kvinnelandslaget
kvinnelege
kvinnelig
kvinnelige
kvinnen
kvinnenavn
kvinnene
kvinnenes
kvinner
kvinners
kvinnes
kvinnesak
kvinnherad
kvint
kvit
kvite
kviter
kviteseid
kvits
kvitt
kvæ
kvær
kværner
kw
ky
kyl
kylling
kyn
kyoto
kypri
kypros
kyr
kyrill
kyrk
kyrkj
kyrkja
kyrkje
kyrkjel
kyrkjer
kyrkjes
kyros
kyst
kysten
kystlinje
kø
københavn
københavns
køy
køyret
la
lab
labor
laborator
laboratorium
labour
labyr
lac
lad
lade
ladning
lady
lag
laga
lagar
lagare
lagd
lagde
lage
lagene
lager
lages
laget
lagets
lagkamer
lagkonkurranse
lagkonkurransen
lagmann
lagmannsrett
lagmedlem
lagre
lagres
lagret
lagring
lagt
lagting
lagtinget
laht
lahtis
lak
lake
laks
lakse
laksevag
lal
lam
lama
lamb
lambert
lamiinae
lamp
lan
lanc
lancash
lancashire
lancaster
land
landa
landbruk
landbruket
landbruks
lande
landemerke
landene
landes
landessternwarte
landet
landets
landeveis
landeveissykling
landeveissyklist
landfly
landgang
landh
landhockey
landhockeyspiller
landhockeyturneringen
landing
landkommune
landkommunen
landkreis
landmal
landmalingar
landomrade
landomradene
landomrader
landomradet
lands
landsby
landsbyane
landsbyar
landsbyen
landsbyene
landsbyer
landsbyg
landsbygda
landsdel
landsdelen
landsfor
landsforbund
landsforening
landsk
landskamp
landskampar
landskamper
landskap
landskapet
landskapsver
landskapsvernom
landskapsvernomrade
landslag
landslaget
landslags
landslagsmal
landslagstrener
landsm
landsmann
landsmannen
landsmøte
landsmøtet
landss
landssvik
lane
lang
langdist
langdistanse
lange
langesund
langkirke
langkyrkje
langob
langobard
langrenn
langrennsløper
langs
langsom
langsomt
langstrakt
langt
langu
langvarig
langvarige
lanka
lanord
lans
lanser
lanseringen
lansert
lanserte
lant
lante
laos
lap
lapp
lappland
lar
larene
larry
lars
larsen
larsson
larve
larven
larvene
larvens
larver
larvestad
larvestadiet
larvik
las
laser
lass
lasse
last
laste
lastebil
lastebiler
laster
lastet
lat
lata
late
laten
latene
later
latin
latinsk
latinske
latskri
latskrivar
latskriver
latt
latter
latv
latvia
latvisk
lau
laud
laug
laur
laura
laurbær
laurdag
lauren
laurent
lauritz
laus
lausanne
lauv
lav
lava
lave
lavere
lavest
laveste
lavlandet
lavt
law
lawrence
laz
le
lea
league
lec
led
leda
ledd
leddene
leddet
leddete
lede
ledelse
ledelsen
ledende
leder
ledere
lederen
lederne
lederskap
ledes
ledet
ledetrad
ledig
ledige
leds
ledsaget
lee
leeds
left
leg
legat
lege
legem
legeme
legemiddel
legemidler
legen
legend
legendariske
legende
legenden
legender
leger
legg
legge
leggene
legger
legges
legion
legit
legitim
lei
leia
leiande
leiar
leiaren
leicester
leid
leide
leiden
leie
leier
leies
leiesoldater
leif
leiing
leiinga
leik
leikane
leikanger
leil
leilighet
leiligheter
lein
leip
leipzig
leir
leire
leiren
leiv
lek
lekam
leke
lekene
leker
lekk
leks
leksikon
lektor
lem
len
lena
lene
leng
lengd
lengda
lengde
lengdehopp
lengden
lengder
lengderib
lengdestriper
lenge
lenger
lengre
lengst
lengste
lenin
leningrad
lenker
lenket
lenn
lennon
lens
lensmann
leo
leon
leonard
leonardo
leone
leop
leopard
leopold
lep
ler
lerret
les
lese
leser
lesere
leses
lesja
leslie
lest
leste
let
lete
leter
leting
lett
lettare
lette
letter
lettere
lettvekt
lev
levande
levanger
levd
levde
leve
levende
lever
leverandør
levere
leverer
leveres
levering
levert
leverte
levet
levetid
levevis
levi
levningene
levninger
lew
lewis
lex
lh
li
lia
lian
liang
lib
libanes
libanon
liber
liberal
liberale
libert
liberty
libr
library
librett
liby
libya
lic
lid
lidelse
lidelser
liden
lidenskap
lider
lie
liechten
liechtenstein
liege
lien
lier
life
lig
liga
ligac
ligaen
ligak
ligakamper
ligg
ligge
liggende
ligger
ligget
light
ligne
lignende
ligner
lignet
ligning
ligningen
lik
like
likel
likeledes
liker
likes
likesa
likesom
likest
likestilling
liket
likevekt
likevel
likhet
likheter
likhetstrekk
liknande
liknar
liknende
likner
liksom
likt
likte
likvid
lil
lill
lilla
lille
lilleasia
lillehammer
lillesand
lillestrøm
lim
lima
limited
lin
lincol
lincoln
lind
linda
linde
linder
lindes
lindesnes
line
lineær
lineære
ling
linge
lingv
lingvist
linja
linje
linjen
linjene
linjer
link
linn
linne
linux
lion
lip
lippe
lis
lisa
lisboa
lise
lisens
list
lista
liste
listen
listene
lister
listet
lit
lita
litau
litauen
litauisk
litauiske
lite
liten
liter
liters
litt
litter
litteratur
litteraturen
litteraturpris
litterær
litterære
litterært
little
liturg
liu
liv
live
liver
liverpool
livet
livets
living
livingston
livn
livs
livsl
livsstil
livssyn
livstid
livsvar
lj
ljos
ll
llo
lloyd
lo
lob
loc
loch
lock
lod
lodd
lof
lofot
lofoten
loft
log
logarit
logikk
logisk
logistikk
logo
logoen
loire
loj
lojal
lojale
lojalitet
lok
lokal
lokalbefolkningen
lokale
lokalene
lokaler
lokalisert
lokaliteter
lokallag
lokalpolit
lokalpolitiker
lokalt
loke
lokomot
lokomotiv
lokomotiver
lom
lombard
lombardia
lon
london
londons
long
longyear
longyearbyen
look
lope
lopez
lor
lord
loren
lorent
lorentz
lorentzen
lorenzo
lorra
lorraine
los
lost
lot
lothar
lotus
lou
lough
louis
louise
louisiana
lov
lova
love
loven
lovende
lovene
lover
lovet
lovgiv
lovgivende
lovgivning
lovlig
low
lp
lt
ltd
lu
lub
lubeck
luc
lucanidae
lucas
lucia
lucius
luck
lucy
lud
ludvig
ludwig
luft
lufta
luften
luftfart
luftforsvaret
lufthamn
lufthavn
lufthavnen
luftt
luftvern
luftwa
luftwaffe
lug
luigi
luis
luk
lukas
luke
lukk
lukka
lukkast
lukkede
lukket
luks
luksus
lukt
lules
lum
lun
lund
lunde
lune
lung
lunge
lungebetennelse
lup
lur
lure
lurt
lus
luster
lut
luther
luthersk
lutherske
lux
luxem
luxembourg
luz
lv
ly
lyd
lyden
lyder
lydtekn
lykk
lykke
lykkelig
lykkes
lyktes
lym
lyn
lyng
lyngdal
lyngen
lynn
lynne
lyon
lyr
lyriker
lyrikk
lys
lysar
lyse
lysere
lyset
lyst
lytter
læ
lær
læra
lærar
lærd
lærdal
lærde
lære
lærebok
lærebøker
læren
lærer
lærere
læreren
læres
læring
lærling
lært
lærte
lø
løft
løfte
løfter
løftet
løk
løkke
løn
lønn
løp
løpe
løpebiller
løpende
løpene
løper
løpere
løpet
lør
lørdag
løren
lørenskog
løs
løse
løses
løsl
løslatt
løsning
løsningen
løsninger
løst
løv
løve
løven
løvenskiold
løvtrær
løy
løypa
løys
løytnant
løyve
m2
m3
ma
maas
mac
macao
macdonald
mach
machine
mack
mad
madaga
madagaskar
madame
made
madeira
madison
madonna
madrid
mads
madsen
mafia
mag
magasin
magasiner
magasinet
magaz
magazine
magdalen
magdalena
magde
mage
magen
magi
magic
magisk
magiske
magist
magister
magn
magne
magnes
magnet
magnetfelt
magnetisk
magnetiske
magnus
magnusson
mah
mahren
mai
maiden
mail
main
maine
mainz
mais
maj
majest
major
majoritet
majoriteten
mak
make
maked
makedon
makedonia
makedonsk
makedonske
makro
maks
maksim
maksimal
maksimale
maksimalt
maksimum
makt
makta
makten
makter
maktover
mal
mala
malar
malaren
malay
malays
malaysia
malcol
malcolm
male
malene
maler
malere
maleren
maleri
maleriene
malerier
maleriet
males
malest
malet
malg
mali
maling
malinger
mall
mallag
malm
malmo
malt
malta
malte
malvakt
mam
man
manad
manaden
manader
manag
management
manager
manageren
manchester
mand
mandag
mandal
mandat
mandater
mandsj
mane
maned
maneden
manedene
maneder
maneders
manen
maner
manfred
mang
manga
mange
mangekamp
mangel
mangelen
mangfald
mangfold
manglar
manglende
mangler
manglerud
manglet
manhattan
manifest
manila
manip
mann
mannen
manning
mannlig
mannlige
manns
mannskap
mannskapet
mannsnavn
mans
mansfield
mant
manu
manuel
manus
manuset
manusforfatter
manuskri
manuskript
manuskripter
manuskriptet
manøv
mao
maori
map
mar
marath
marathon
maraton
maratonløpet
marc
marcel
march
marco
marcus
mare
maren
marg
margar
margaret
margin
margret
margrete
margrethe
mari
maria
mariak
marian
marianne
marias
marie
marien
marienlyst
marilyn
marin
marina
marine
marinen
marinens
marines
marino
mario
marion
marit
maritim
maritime
marius
mark
markant
markante
marked
markeder
markedet
markeds
markedsand
markedsføring
markedsført
marker
markere
markerer
markert
markerte
market
marknad
marknaden
marknads
markus
marl
marlborough
marmor
marne
marokk
marokko
mars
marse
marseille
marsh
marshall
marsj
marsjen
marsjerte
marskalk
mart
marta
martha
martin
martine
martinez
marty
martyr
marx
mary
maryland
mas
mask
maske
masker
maskin
maskinen
maskiner
maskinge
maskingevær
mason
mass
massa
massachus
massachusetts
massakr
massakren
masse
massen
massiv
massive
massivet
mast
master
mastergrad
masters
mat
matar
match
mate
matem
matemat
matematiker
matematikeren
matematikk
matematikken
matematisk
matematiske
maten
mater
material
materiale
materialer
materialet
materie
materiell
materielle
math
mathias
mathilde
mathisen
matlag
matlaging
matr
matrikkel
mats
matt
matte
matter
matteus
matth
matthe
matthew
matthias
matvarer
maud
maur
maurice
maurit
mauritius
maus
mausole
mawson
max
maxim
maximil
maximilian
maxwell
may
maya
mayen
mayer
maz
mb
mc
mcc
mccart
mccartney
mccl
mcd
mcdonald
mcg
mck
mcm
mcmurdo
md
me
mecklenburg
med
medal
medaljar
medalje
medaljen
medaljer
medaljev
medan
medarbeider
medarbeidere
medeier
medforfatter
medføre
medfører
medførte
media
medic
medical
medici
medie
medier
medik
medina
medis
medisin
medisiner
medisinsk
medisinske
medium
medlem
medlemmane
medlemmar
medlemmene
medlemmer
medlemmet
medlems
medlemskap
medlemsland
medley
medreg
medregnet
medv
medverk
medverka
medverkande
medvir
medvirkende
medvirker
medvirket
medvirkning
meet
meg
meget
meh
mei
meier
mein
meiner
meining
meint
meinte
meir
meister
meisterskap
meisterskapen
mekan
mekanikk
mekanis
mekanisk
mekaniske
mekka
meks
meksikansk
meksikanske
mektig
mektige
mektigste
mel
melan
melbourne
meld
melde
melding
meldinger
meldt
meldte
melhus
melk
melke
mell
mellom
mellomalder
mellomalderen
mellomdist
mellomkrig
mellomkrigstiden
mellomrom
mellomstore
mellomtiden
melod
melodi
melodien
melodier
melodifestivalen
mem
memo
memoarer
memor
memorial
memphis
men
mendel
mener
menes
meng
mengd
mengda
mengde
mengden
mengder
menighet
menigheten
menigheter
mening
meningen
meninger
meningsmal
menn
menne
mennene
mennesk
menneska
menneske
menneskeheten
menneskelig
menneskelige
menneskeliv
menneskene
mennesker
menneskerett
menneskerettighet
menneskerettigheter
menneskeskap
mennesket
menneskets
mens
ment
mental
mentale
mente
mentor
mer
meraker
merc
mercedes
mercia
mercury
mere
meritter
merk
merke
merkelig
merken
merker
merket
merksemd
merkur
mes
mesopot
mesopotamia
mess
messe
messen
messer
messing
mest
meste
mesteparten
mester
mestere
mesterligaen
mesterskap
mesterskapet
mestsel
met
metaf
metafor
metafys
metal
metall
metaller
metallisk
metam
metamorf
metamorfose
metan
mete
meteor
meteorolog
meteorologi
meter
meters
metod
metode
metoden
metoder
metro
metrop
metropolit
metropolitan
mette
metz
mex
mexic
mexico
mexicos
meyer
mf
mg
mh
mhz
mi
mia
miam
miami
mic
mich
michael
michel
michigan
mick
micro
micros
microsoft
mid
midd
middag
middel
middelalder
middelalderen
middelalderens
middelhav
middelhavet
middelhavslekene
middelhavsomradet
middels
middelsst
middelsstor
middelsstore
middle
midgard
midler
midlere
midlertid
midlertidig
midlertidige
midn
midnatt
midt
midtban
midtbane
midtbanespiller
midten
midter
midterste
midtre
midtst
midtøsten
mig
migr
migrasjon
miguel
mik
mika
mikael
mike
mikha
mikhail
mikk
mikkel
mikro
mikropros
mikroprosessor
mikroskop
mil
milan
milano
mild
milde
mile
miles
milit
military
militæ
militær
militære
militæret
militært
militærtjeneste
miljø
miljøer
miljøet
miljøvern
mill
miller
milliard
milliardar
milliarder
millimeter
million
millionar
millioner
mills
milorg
milt
milton
mim
min
minas
mind
mindre
mindret
mindretall
mine
miner
mineral
mineraler
mineralet
ming
mini
miniat
miniatyr
minim
minimal
minimum
miniser
minister
ministre
minn
minna
minne
minner
minnes
minnesmerke
minnesota
minnet
minog
minogue
minor
minoritet
minoriteter
minoritets
minsk
minst
minste
minus
minutt
minuttar
minutter
minutters
mir
mira
mirak
mis
misbruk
misfor
misforn
misjon
misjonær
misjonærer
misl
mislik
mislikte
misly
mislykkede
mislykket
mislyktes
misn
misnøye
miss
missil
missiler
mission
mississ
mississipp
mississippi
missouri
mist
mista
mistan
mistanke
miste
misten
mistenkt
mistenkte
mister
mistet
mit
mitch
mitchell
mits
mitt
mix
mixed
mj
mjø
mjøl
mjøn
mjøndalen
mjøsa
mk
ml
mm
mo
mob
mobb
mobil
mobile
mobilt
mobiltele
mobiltelefon
mod
mode
model
modell
modellen
modellene
modeller
moden
moder
moderat
moderate
modern
moderne
modernisering
modernisert
modif
modifisert
modig
modum
modus
moe
moen
mog
mogeleg
mogleg
moh
moham
mohamed
mohammed
mol
moland
mold
molde
moldova
mole
molek
molekyl
molekyler
molekylær
moll
molt
mom
moment
mon
mona
monaco
monark
monarken
monarki
monarkiet
mond
money
mong
mongol
mongolia
mongolsk
mongolske
monica
monn
monopol
monotyp
monro
monroe
mons
monster
mont
montana
monte
montene
montenegro
monter
montert
montg
montgomer
montgomery
montreal
monum
monument
monumenter
monumentet
moody
moon
moore
mor
mora
moral
moralsk
moralske
mord
mordet
more
moren
morene
morens
morf
morfologi
morg
morgan
morgen
morgenbladet
morgenen
moritz
mork
morning
morris
morrison
mors
morsmal
mort
morten
mortensen
mos
mosa
mosamb
mosambik
mose
mosebok
moses
moshav
mosjøen
mosk
moske
moskeen
moskva
moss
most
mot
motangrep
mote
mother
motion
motiv
motiver
motivert
motivet
motor
motoren
motorene
motorer
motors
motorsport
motorsykkel
motorvei
motorveien
motsatt
motsatte
motset
motsetnad
motsetning
motsetningen
motsett
motsette
motstand
motstanden
motstander
motstandere
motstanderen
motstanderne
motstands
motstandsbevegelsen
motstrid
mott
motta
mottak
mottakelse
mottaker
mottaking
mottar
mottatt
motto
mottok
motvillig
mount
mountain
mountains
mov
movie
moz
mozart
mp
mr
mrs
ms
mt
mtv
mu
mud
muham
muhammad
muhammed
mul
mulig
mulige
muligens
mulighet
muligheten
mulighetene
muligheter
muller
mult
multi
multipl
mum
mun
munch
munchen
mund
municip
munk
munke
munkene
munker
munn
munnar
munnen
munner
munning
munningen
munster
munt
munthe
muntlig
mur
muren
murene
murer
murmansk
murphy
murray
murstein
murt
mus
muse
museer
museet
museets
museum
museums
music
musik
musikal
musikalen
musikalsk
musikalske
musikar
musikarane
musikarar
musikaren
musiker
musikere
musikeren
musikerne
musikk
musikkalbum
musikken
musikkhøgskole
musikkon
musikkonservat
musikkorps
musikkvide
musikkvideo
musikkvideoen
musk
muskel
muskul
muslim
muslimar
muslimer
muslimsk
muslimske
musling
muslingkreps
mussol
mussolini
must
mut
mv
mw
my
myanmar
mye
mygg
myhre
myk
myke
mykje
mykle
myl
myn
mynd
myndighet
myndighetene
myndigheter
mynt
mynten
mynter
myr
myrdet
myrer
mys
myst
myster
mystisk
mystiske
myt
myte
myten
myter
mytiske
mytologi
mytologien
mytologiske
m²
m³
mæ
mø
møbel
møbler
møkk
møl
mølle
møller
møn
mønster
mønsteret
mønstre
mør
møre
mørk
mørke
mørkere
mørket
mørkt
møt
møte
møtene
møter
møtes
møtet
møtt
møtte
møttes
na
nab
nabo
naboer
nabok
nabol
nabolaget
naboland
nacional
nad
nadd
nadde
nade
nag
nagano
nahu
nak
naken
nakke
nakken
nakne
nal
nale
nalevende
nam
namdal
name
names
namibia
namn
namna
namnedag
namnet
namng
namngav
namngje
namngjeve
namngjeven
namsos
nan
nancy
nanjing
nansen
nap
napole
napoleon
napoleons
napoleonskrigene
napoli
nar
nark
narkot
narkotik
narkotika
narvik
nas
nasa
nash
nashville
nasjon
nasjonal
nasjonale
nasjonalfor
nasjonalforsamling
nasjonalforsamlingen
nasjonalg
nasjonalgalleriet
nasjonalisme
nasjonalistiske
nasjonalitet
nasjonalpark
nasjonalparken
nasjonalsosial
nasjonalsosialistiske
nasjonalt
nasjonen
nasjonene
nasjoner
nassau
nat
nathan
natid
nation
national
nationale
nationalthe
nationaltheatret
nations
nato
natrium
natt
natta
nattaktive
natte
natten
nattfly
natur
natural
nature
naturen
naturgass
naturleg
naturlege
naturlig
naturlige
naturreservat
naturreservatet
naturvern
naturvitenskap
naturvitenskapelige
naud
naudsynt
naust
naut
nautiske
nav
naval
navar
navig
navigasjon
navn
navne
navnedag
navnekomite
navnene
navnet
navngitt
navy
naværende
naz
nazi
nazistene
nazistiske
nb
nba
nbc
nd
ne
neb
nebb
nebbet
nebra
nebraska
ned
nedanfor
nedb
nedbr
nedbør
nedbøren
nedbørfelt
nedbørs
nede
nedenfor
neder
nederlag
nederlaget
nederland
nederlandene
nederlands
nederlandsk
nederlandske
nederlen
nederlenderne
nederst
nederste
nedgang
nedgangen
nedlagt
nedlagte
nedlast
nedlegg
nedover
nedre
nedrykk
nedsatt
nedsettende
nedslag
nedslagsfelt
nedslagsfeltet
nedstam
nedtegnelser
nedtegnet
need
neg
negativ
negative
negativt
nei
neil
neill
nekta
nektar
nekte
nekter
nektet
nel
nell
nelson
nem
nemlig
nemnd
nemnde
nemner
nemning
nemninga
nemnt
nen
neol
neot
nep
nepal
nepals
neppe
nept
neptun
ner
nero
nerv
nerve
nervesystemet
nes
nese
neset
nesodden
ness
nest
neste
nesten
nestformann
nestkommanderende
nestleder
net
nett
nettet
netto
nettopp
nettside
nettsiden
nettsider
nettsted
nettstedet
nettverk
nettverket
nettverks
network
neu
neumann
nev
nevada
never
neville
nevn
nevne
nevner
nevnes
nevnt
nevnte
nevr
nevro
nevø
new
newcastle
newfound
newfoundland
newman
newport
news
newton
newzealand
newzealandsk
newzealandske
next
nfc
nfl
nfls
ng
ngc
ngu
nh
nhl
ni
niande
nic
nicarag
nicaragua
nice
nich
nicholas
nick
nicol
nicola
nicolai
nicolas
nid
nidar
nidaros
nidarosdomen
nie
nieder
niels
nielsen
niende
niendeplass
niese
nig
niger
nigeria
night
nik
nike
nikkel
nikola
nikolai
nikolaj
nikolas
nikolaus
nil
nilen
nils
nilsen
nilsson
nim
nin
nina
ning
nintend
nintendo
nir
nis
niss
nissen
nit
nitrogen
nitt
nitten
niva
nivaer
nivaet
nixon
niz
nj
nk
nkp
nl
nm
nn
no
noah
nobel
nobelpris
nobelprisen
nobels
noct
noe
noen
noens
noensinne
noir
nok
noko
nokon
nokre
noksa
nom
nome
nomen
nomin
nominasjon
nominasjoner
nominert
nominerte
non
nonne
nor
nora
nord
nordahl
nordamerikanske
nordaust
nordby
norde
norden
nordenden
nordens
nordenskiold
norder
norderhov
nordfjord
nordhordland
nordic
nordisk
nordiske
nordkapp
nordkore
nordkysten
nordland
nordlegaste
nordlege
nordlig
nordlige
nordligste
nordmann
nordmannen
nordmenn
nordmennene
nordmøre
nordnorsk
nordover
nordpolen
nordre
nordrhein
nordsamisk
nordsida
nordsiden
nordsjøen
nordstrand
nordt
nordvest
nordvestlige
nordvestover
nordvestre
nordøst
nordøstlige
nordøstover
nordøstre
nordøstregionen
nordøya
nore
noreg
noregs
noregsmeister
noregsmeisterskapen
norfolk
norge
norges
norgesmester
norgesmesterskap
norgesmesterskapet
norm
normal
normalar
normalbakke
normalbakken
normale
normalt
norman
normand
normandie
normann
normannisk
normanniske
normer
norr
norra
norrøn
norrøne
norrønt
norsk
norske
norskekysten
norte
north
northampton
norther
northern
northumbria
norveg
norway
norweg
norwegian
norwich
not
note
noter
notert
noterte
notodden
notre
notting
nottingham
nou
nov
nova
novelle
noveller
november
noverande
novgor
novgorod
now
nr
nrk
nrk1
nrks
ns
nsb
nsd
nsdap
nt
nth
ntnu
nu
nub
nukle
null
num
numedal
numer
nummer
nummeret
nun
nunat
nunatak
nunt
nur
nurn
nurnberg
ny
nyare
nybygg
nye
nyere
nyeste
nygaard
nygard
nyh
nyhet
nyheten
nyheter
nyhets
nyinn
nyklass
nykommer
nyleg
nylig
nym
nymp
nymphal
nymphalidae
nyn
nynorsk
nyopp
nyopprettede
nyr
nyre
nyskap
nyt
nytt
nytta
nyttar
nyttast
nytte
nyttig
nyttige
nz
næ
nær
nærare
nærast
næraste
nære
nærhet
nærheten
næring
nærings
næringsliv
næringslivet
næringsmiddel
næringspl
næringsplanten
nærleiken
nærliggande
nærliggende
nærme
nærmer
nærmere
nærmest
nærmeste
nærmet
nært
nærvær
næss
nø
nød
nødt
nødv
nødvendig
nødvendige
nødvendigvis
nøkkel
nøkkelen
nør
nørre
nøtter
nøtterøy
nøy
nøyaktig
nøyaktige
nøye
nøyt
nøytr
nøytral
nøytrale
nøytralitet
nøytralt
nøytron
oak
oakland
ob
obama
ober
oberst
oberstdorf
oberstløytnant
obje
objekt
objekter
objektet
obl
oblast
oblig
obligatorisk
obligatoriske
obo
obos
obser
observ
observasjon
observasjoner
observat
observatoire
observatoriet
observatorium
observatory
observatør
observer
observere
observert
observerte
oc
occ
oce
ocean
och
oct
octav
od
odal
odd
odda
ode
odel
oden
odense
oder
odin
odysse
odyssevs
oe
of
off
offens
offensiv
offensive
offensiven
offent
offentleg
offentlege
offentlig
offentlige
offentliggjorde
offentliggjort
offentligheten
offer
offic
office
offis
offiser
offiserene
offiserer
offisiell
offisielle
offisielt
offsh
offshore
ofre
ofrene
oft
oftast
ofte
oftere
oftest
og
ogsa
oh
ohio
oil
ok
oka
okk
okkup
okkupasjon
okkupasjonen
okkupasjonsm
okkupasjonsmakten
okkupert
okkuperte
oklah
oklahoma
oks
okse
oksid
oksy
oksygen
okt
oktober
ol
ola
olaf
olav
olavs
old
olde
olden
oldenbor
oldenborrer
oldfield
oldt
oldtid
oldtiden
oldtidens
ole
olga
olig
oliv
oliven
oliver
olivier
olje
oljef
oljem
oljer
oljes
olof
olsen
olsson
oluf
oly
olymp
olympia
olympiastadion
olympic
olympisk
olympiske
om
oman
omar
ombord
ombygd
ombygget
ombygging
ombyggingen
omd
omdan
omdann
omdannet
omdisk
omdiskutert
omdø
omdømme
omdøpt
omegn
omf
omfang
omfanget
omfatt
omfatta
omfattande
omfattar
omfatte
omfattende
omfatter
omfattet
omg
omgang
omganger
omgitt
omgiv
omgivelsene
omgivelser
omgje
omgjeve
omgjort
omgrep
omgrepet
omhand
omhandlar
omhandler
omhandlet
omkom
omkomne
omkr
omkring
omkringliggende
omleir
omliggende
omløp
omn
omorgan
omorganisering
omrada
omrade
omradene
omrader
omradet
omradets
omring
omringet
oms
omset
omsetning
omsett
omsette
omsider
omsl
omslag
omslaget
omsorg
omstend
omstendigheter
omstr
omstridt
omsyn
omtala
omtale
omtaler
omtales
omtalt
omtalte
omtr
omtrent
omvendt
on
ond
onde
ondskap
one
onkel
onkelen
online
only
onlyinclude
onsdag
ontar
ontario
op
ope
open
oper
opera
operaen
operaer
operas
operasjon
operasjonen
operasjoner
operation
operativ
operative
operativsystem
operativsystemet
operatør
operere
opererer
operert
opererte
opium
opna
opne
opning
opninga
opp
oppa
opparbeidet
oppbe
oppbevar
oppbevares
oppbevart
oppbygging
oppd
oppdag
oppdaga
oppdage
oppdagelse
oppdagelsen
oppdagelser
oppdagelses
oppdager
oppdaget
oppdal
oppdater
oppdatering
oppdatert
oppdelt
oppdem
oppdrag
oppdraget
oppdrett
oppe
oppf
oppfat
oppfatning
oppfatningen
oppfatninger
oppfatt
oppfatter
oppfattes
oppfattet
oppfinn
oppfinner
oppfor
oppford
oppfordret
oppfordring
oppfunnet
oppfyl
oppfylle
oppfyller
oppfylt
oppføl
oppfølger
oppfølgeren
oppføre
oppføring
oppførsel
oppført
oppførte
oppg
oppga
oppgang
oppgav
oppgave
oppgaven
oppgavene
oppgaver
oppgi
oppgir
oppgis
oppgitt
oppgjør
oppgrader
oppgradering
oppgradert
opph
opphav
opphavet
opphavleg
opphavlege
opphavsrett
opphe
oppheng
opphevet
opphold
oppholdet
oppholdt
opphørte
opphøy
opphøyd
opphøyde
oppk
oppkalla
oppkalt
oppkjø
oppkjøp
oppl
opplag
oppland
opplev
opplevd
opplevde
oppleve
opplevelse
opplevelser
opplever
opply
opplys
opplysning
opplysninger
opplyst
opplyste
opplæring
opplø
oppløs
oppløsning
oppløsningen
oppløst
oppløste
oppløy
oppløyst
oppm
oppmer
oppmerksom
oppmerksomhet
oppmerksomheten
oppmunt
oppmuntret
oppn
oppna
oppnad
oppnadd
oppnadde
oppnar
oppnas
oppnevnt
oppom
opposisjon
opposisjonen
oppover
oppr
opprett
oppretta
opprette
opprettelse
opprettelsen
opprettet
opprettholde
opprettholdt
opprinn
opprinnelig
opprinnelige
opprinnelse
opprinnelsen
opprykk
opprør
opprørere
opprørerne
opprøret
opps
oppsetning
oppsetninger
oppsett
oppsikt
oppsl
oppslag
oppslutning
oppst
oppsta
oppstaende
oppstand
oppstar
oppstart
oppstarten
oppstatt
oppsto
oppstod
oppsummer
oppsving
oppsyn
oppsø
oppt
opptak
opptakene
opptaket
opptatt
opptil
opptr
opptradt
opptradte
opptre
opptred
opptreden
opptredener
opptrer
oppvak
oppvar
oppvarming
oppvekst
oppveksten
oppvokst
opt
optim
optisk
optiske
opus
or
ora
orak
oran
orange
oransje
orat
orb
orbison
orchest
orchestra
ord
orda
ordbok
orde
orden
ordene
ordenen
ordenens
ordener
ordens
ordensteg
ordenstegnet
order
ordet
ordfør
ordførar
ordfører
ordførere
ordføreren
ordin
ordinert
ordinær
ordinære
ordnet
ordning
ordningen
ordre
ordren
ore
orebro
oreg
oregon
org
organ
organer
organet
organis
organisasjon
organisasjonar
organisasjonen
organisasjonene
organisasjonens
organisasjoner
organisere
organiserer
organisering
organiseringen
organisert
organiserte
organisk
organiske
organismer
organist
orgel
orgelet
ori
orient
oriental
orientalske
orientering
orientert
orienterte
orig
origin
original
originale
originalen
originalt
originaltittel
ork
orkan
orkdal
orkest
orkester
orkesteret
orkla
orkn
orknøyane
orknøyene
orland
orlando
orle
orleans
orlog
orm
orn
ornam
ornit
oro
ort
ortod
ortodoks
ortodokse
os
osaka
osb
osc
oscar
ose
osean
oskar
osl
oslo
oslofjord
oslofjorden
oslos
osm
osman
osmanene
osmansk
osmanske
oss
ost
oste
osten
oster
ostergot
osterøy
ostra
osv
oswald
ot
other
ott
otta
ottar
otte
otter
otto
ou
our
out
ov
oval
ovale
ovan
ovanfor
ove
oven
ovenfor
ovenfra
over
overalt
overbe
overbevise
overbevist
overd
overens
overensstemmelse
overfl
overflata
overflate
overflaten
overfor
overføre
overføres
overføring
overført
overførte
overg
overga
overgang
overgangen
overgav
overgi
overgrep
overh
overherredømme
overhode
overhodet
overhuset
overkant
overla
overlatt
overle
overlege
overlegen
overlegne
overlev
overlevd
overlevde
overleve
overlevende
overlever
overlevert
overlot
overn
overnatt
overnatting
overnatur
overnaturlige
overord
overordnede
overordnet
overra
overrask
overraskende
overrasket
overs
oversatt
oversatte
oversett
oversettelse
oversettelsen
oversettelser
oversetter
oversettes
overside
oversiden
oversikt
oversikten
oversjøiske
overskudd
overst
oversvøm
oversyn
overt
overta
overtak
overtale
overtalte
overtatt
overtid
overtok
overv
overvak
overvake
overvaking
overvakning
overveiende
overvekt
overveld
overveldende
overvin
overvintr
overvintrer
ow
owen
ox
oxford
oy
oz
p2
p3
pa
paa
pabeg
pabegynt
pablo
pac
pacific
pack
packers
pad
padler
padling
padri
padro
pafallende
pafugl
pafuglspinnere
paføl
pafølgende
pafølgjande
paført
pag
pagaende
pagar
page
pagikk
pak
pakist
pakistan
pakistanske
pakk
pakke
pakt
pal
pala
palace
palagt
palass
palasset
pale
palearktiske
paler
palermo
palest
palestina
palestinsk
palestinske
palit
pall
palm
palma
palme
palmer
pam
pamp
pan
panama
panamerikanske
pand
panel
panikk
panne
pannen
pans
panser
pansrede
pant
paolo
pap
papa
pape
papekte
papir
papiret
papp
papua
papyr
par
para
parad
parade
paradis
paraf
parag
paragraf
paraguay
parall
parallell
parallelle
parallellsidige
parallelt
paraly
paralymp
paralympiske
param
paramil
parana
parap
paraply
paras
parasitter
parentes
paret
paris
parish
park
parken
parker
parkering
parlam
parlament
parlamentar
parlamentarisk
parlamentariske
parlamentet
parlamentsmedlem
parlamentsvalget
parma
parod
parodi
pars
parsons
part
parten
partene
partenkirchen
parter
parti
partia
partiene
partier
partiet
partiets
partik
partikkel
partiklar
partikler
partil
partileder
partipolit
partis
partner
party
pas
pascal
pasi
pasient
pasienten
pasientene
pasienter
pasif
pask
paske
pasning
pasninger
pasningsy
pasningsyards
pass
passas
passasjer
passasjerene
passasjerer
passasjerfly
passasjert
passe
passende
passer
passere
passerer
passeriformes
passert
passerte
passet
passiv
past
pastand
pastanden
pastander
pastar
pastatt
pastatte
pastor
pat
patale
patalemynd
patent
pater
patr
patri
patriark
patriarken
patric
patrick
patriot
patriots
patron
patronen
patrul
patt
pattedyr
paul
paulo
paulsen
paulus
paus
pause
pav
pave
pavel
pavelig
pavelige
paven
pavens
pavente
paverk
paverka
paverknad
pavil
pavir
pavirk
pavirke
pavirker
pavirket
pavirkning
pavist
pc
pe
peace
peak
pear
pearl
ped
pedagog
pedagogikk
pedagogisk
pedagogiske
peder
pedersen
pedip
pedipalp
pedipalpenes
pedro
peer
peg
peke
peker
pekte
pel
pelag
pele
pelle
pelop
pelopon
peloponnes
pels
pelsen
pelt
peltont
pem
pen
pend
peng
pengar
penge
pengene
penger
penins
peninsula
penn
pennsyl
pennsylvania
pens
pensjon
pensjonert
pensjonerte
pensjonist
pent
people
pepper
per
percy
pere
perez
perfekt
perform
performance
perifer
periferie
periferieininga
periferien
perio
period
periodar
periode
perioden
periodene
perioder
perkusjon
perle
perm
perman
permanent
permanente
permisjon
perry
pers
perse
perserne
persia
persisk
persiske
person
personal
personar
personell
personen
personene
personer
personleg
personlege
personlig
personlige
personlighet
personligheter
perspekt
perspektiv
pert
perth
peru
pes
pest
pesten
pet
pete
peter
peters
petersburg
petersen
petit
petra
petro
petroleum
pets
petter
pettersen
petty
pf
pfalz
pga
ph
phil
philadel
philadelphia
philip
philipp
philippe
phill
phillips
philol
philos
philosoph
pho
phoen
phoenix
phys
pi
pia
pian
pianist
pianisten
piano
pic
pick
pict
pictures
pie
piem
piemonte
pier
pierre
piet
pietro
pig
pigg
pigger
pik
pike
piken
pikt
pil
pileg
pilegri
pilegrim
pill
pilot
piloten
pin
pine
ping
pingvin
pink
pinse
pinyin
pion
pioner
pip
pipe
piper
pir
pira
pirat
pirater
pis
pisa
pist
pistol
pit
pitt
pittsburg
pittsburgh
pius
piz
pl
pla
place
placid
plag
plaget
plak
plan
planar
planen
planene
planer
planet
planeten
planeter
plankton
planla
planlagt
planlagte
planlegg
planlegge
planlegger
planlegging
planleggingen
plant
planta
plantar
plante
planteetere
planten
plantene
planter
planterøtter
plantes
planteslekt
plantet
plas
plass
plassar
plassen
plassene
plasser
plassere
plasserer
plasseres
plassering
plasseringa
plasseringen
plasseringer
plassert
plasserte
plast
plat
plata
plataet
plate
platekontrakt
platen
platene
plateom
plateomslaget
plateprodusent
plater
plateselskap
plateselskapet
platin
platina
platon
platt
plattform
plattformen
plattformer
play
player
playstation
ple
pleide
pleie
pleier
plen
plikt
plikter
plinius
plo
plu
plukke
plukket
plus
pluss
plut
pluto
pluts
plutselig
ply
plymouth
plynd
plyndret
plyndring
po
pod
poem
poeng
poengsum
poes
poesi
poet
poeten
poetiske
pog
point
poit
pok
pokemon
pol
pola
polar
polare
pole
polen
polens
police
polit
politi
politid
politidistrikt
politiet
politiets
politif
politik
politikar
politiker
politikere
politikeren
politikk
politikken
politim
politimann
politimester
politisk
politiske
politist
poll
pollen
polo
polsk
polske
poly
polyn
polynes
polynesia
pom
pommer
pommern
pompe
pompeius
pon
pont
ponte
pop
popp
popul
popular
popularitet
populariteten
populasjon
populasjonen
populær
populære
populærmusikk
populært
por
porn
pors
porsanger
porsche
porselen
porsgrunn
port
portal
porte
porten
porter
portland
porto
portrett
portretter
portsmouth
portug
portugal
portugis
portugisisk
portugisiske
pos
poseid
poseidon
posisjon
posisjonen
posisjoner
posit
positiv
positive
positivt
poss
post
posten
poster
posthum
posthumt
postkontor
pot
potens
potensial
potensialet
potensiell
potensielle
potensielt
potet
poteter
potsdam
potter
poul
pour
pow
powell
power
poz
pr
pra
prade
pradesh
prag
praha
praks
praksis
praksisen
prakt
praktbiller
praktisert
praktiserte
praktisk
praktiske
prat
pre
pred
prefekt
prefektur
prefekturet
preg
prega
preges
preget
prekest
prekestolen
prel
prem
premie
premier
premiere
premieren
prep
prepar
pres
present
presentasjon
presentere
presenterer
presentert
presenterte
presid
presiden
president
presidenten
presidentens
presidentkandidat
presidentvalget
presisjon
presist
presley
press
pressa
presse
pressen
presses
presset
prest
prestasjon
prestasjoner
preste
presteg
prestegard
prestegarden
prestegjeld
presten
prestene
prester
prestes
presteviet
prestis
prestisjef
preston
pret
preussen
prev
pri
price
priest
prim
prima
primitive
primær
primære
primærfaktor
primært
prin
princ
prince
princeton
princip
prins
prinsen
prinsesse
prinsipp
prinsippene
prinsipper
prinsippet
prior
pris
prisar
prisbel
prisen
prisene
priser
prisvinn
prisvinnere
privat
private
privatliv
privileg
privilegier
prix
prize
pro
prob
problem
problematisk
problemene
problemer
problemet
proc
prod
produ
productions
produksjon
produksjonen
produksjoner
produksjons
produksjonskapasitet
produkt
produktene
produkter
produktet
produktiv
produs
produsent
produsenten
produsentene
produsenter
produsere
produserer
produseres
produsert
produserte
prof
profesjon
profesjonell
profesjonelle
profesjonelt
professor
profet
profeten
proff
profil
prog
program
programleder
programleiar
programmene
programmer
programmerings
programmeringssprak
programmet
programvare
progress
progressiv
progressive
proje
project
proklam
prom
prominente
promot
pron
pronom
pronomen
pronotum
prop
propag
propagand
propaganda
propell
proporsjon
proporsjonal
pros
prosa
prosedyr
prosent
prosentpoeng
prosesjon
prosess
prosessen
prosesser
prosessor
prosje
prosjekt
prosjekter
prosjektet
prosjektleder
prosoma
prost
prosti
prostiet
prostitu
prot
prote
protein
proteiner
protest
protestant
protestanter
protestantisk
protestantiske
protester
protesterte
protok
protokoll
proton
protot
prototypen
prov
proven
provence
provin
provins
provinsane
provinsen
provinsene
provinsens
provinser
provis
provisoriske
provos
pryd
præ
prø
prøv
prøvd
prøvde
prøve
prøver
prøvesp
prøy
prøysen
prøyss
prøyssisk
prøyssiske
ps
pse
pseud
pseudonym
pseudonymet
psevd
psy
psych
psyk
psykedel
psykedelisk
psykiat
psykiater
psykiatrisk
psykisk
psykiske
psyko
psykolog
psykologi
psykologisk
psykologiske
pt
pter
pto
ptolema
ptolemaios
pu
pub
publ
public
publikasjon
publikasjoner
publikum
publisere
publisering
publisert
publiserte
pud
pue
puerto
pul
pulver
pum
pump
pumpe
pun
pund
punjab
punk
punkt
punktene
punkter
punktert
punkterte
punktet
punktrader
punktstriper
punt
pupp
puppe
puppestad
puppestadie
pur
purple
purpur
pus
pust
puste
put
py
pyeong
pyeongchang
pynt
pyr
pyram
pyramide
pyrene
pyt
pøl
qa
qatar
qi
qian
qin
qing
qu
quart
quarter
quarterback
que
quebec
queen
queens
queensland
quer
quest
quin
quint
quis
quisling
ra
rab
rac
race
racer
rachel
racing
rad
radar
rade
rader
radet
radgiv
radgivende
radgiver
radgivere
radgivning
radhus
radhuset
radi
radik
radikal
radikale
radikalt
radio
radioen
radiok
radiop
radioprogram
radios
radiostasjon
radiot
radius
rads
raf
rafa
rafael
raff
rag
ragn
ragnar
ragnhild
ragnvald
raid
raiders
rail
railroad
railway
rain
rainbow
raj
rajon
rak
raka
rakett
raketter
rakk
rakkestad
ral
rally
ralph
ram
ramme
rammen
rammer
rammet
ramp
rams
ran
rana
rand
randi
randy
rang
range
ranger
rangering
rangers
rangert
rangerte
rank
rant
raolje
rap
rapp
rapport
rapporten
rapporter
rapportert
rapporterte
rare
ras
rase
rasen
rasende
raser
rash
rasisme
rasjon
rask
raske
raskere
raskeste
raskt
rasmus
rasmussen
rast
raste
rat
rating
ratnende
ratt
raud
raude
raudt
rauma
rav
raven
ravens
ravn
raw
ray
raym
raymond
rc
rca
re
read
reading
ready
reag
reagan
reagerer
reagerte
reaksjon
reaksjonen
reaksjoner
reakt
reaktor
real
realisert
realisme
realistisk
realistiske
realiteten
reality
rec
rece
record
records
red
redaksjon
redaksjonen
redaktør
redaktøren
redd
redde
reddet
rede
redeg
redegjør
redegjørelse
reder
rederi
rederiet
redig
redigert
redigerte
redning
rednings
redskap
redskaper
reduksjon
redus
redusere
reduserer
reduseres
redusert
reduserte
ree
reed
reell
reelle
reelt
ref
refer
referanse
referanser
referere
refererer
referert
refererte
refle
refleksjon
reflekt
reflekterer
reform
reformasjonen
reformen
reformer
refr
refreng
refrenget
reg
regel
regelen
regelmessig
regelmessige
regent
regga
regi
regim
regime
regiment
regimentet
regimet
region
regional
regionale
regionalt
regionar
regionen
regionene
regionens
regioner
regis
regiss
regissert
regisserte
regissør
regissøren
register
registr
registrere
registrering
registrert
registrerte
regjer
regjerende
regjering
regjeringa
regjeringen
regjeringens
regjeringer
regjerings
regjeringssjef
regjeringstid
regjerte
reglar
reglene
regler
regn
regne
regner
regnes
regnet
regnskap
regnskog
reguler
regulere
regulerer
reguleres
regulering
regulert
regulerte
regulære
rehabil
rehabilitering
reich
reid
reidar
rein
reind
reindrift
reine
reins
reint
reir
reiret
reis
reisa
reise
reiseliv
reisen
reisende
reiser
reist
reiste
rek
rekk
rekke
rekkefølge
rekkefølgen
rekken
rekker
rekkevidde
rekkje
rekl
reklam
reklame
rekn
rekna
reknar
reknast
rekne
rekogn
rekognos
rekognosering
rekonstru
rekonstruert
rekonstruksjon
rekord
rekorden
rekorder
rekre
rekreasjon
rekru
rekrutter
rekruttert
rekt
rektang
rektangulært
rektor
rel
relasjon
relasjoner
relatert
relaterte
relativ
relative
relativitet
relativt
rele
relevant
relevante
relie
relieff
relig
religion
religionen
religioner
religiø
religiøs
religiøse
religiøst
relik
rem
remix
ren
rena
renault
rend
rene
reness
renessanse
renessansen
renn
renne
renner
rennes
rennet
renover
renovert
rens
rent
rente
rep
repar
reparasjon
reparert
reperto
repertoar
repl
report
reporter
repres
represent
representant
representantar
representanten
representantene
representantenes
representanter
representasjon
representere
representerer
representert
representerte
reprise
reproduksjon
republ
republikan
republikansk
republikanske
republikk
republikken
republikkens
res
rese
resear
research
resept
reser
reserv
reservat
reservatet
reserve
reservert
reservo
reservoar
reservoaret
residens
resolusjon
reson
resp
respekt
respektert
respektive
respon
respons
ress
ressur
ressurs
ressurser
rest
restaur
restaurant
restauranten
restauranter
restaurering
restaureringen
restaurert
resten
restene
rester
resterende
restriksjon
restriksjoner
resul
result
resultat
resultatene
resultater
resultatet
resulterer
resulterte
ret
retning
retninga
retningen
retninger
retningslinjer
retor
retorikk
retrett
retro
rett
retta
rettar
rette
retten
retter
rettet
rettferd
rettferdig
rettferdighet
rettighetene
rettigheter
retts
rettskriv
rettslig
rettss
rettssak
rettssaken
rettsvitenskap
retur
return
returner
returnere
returnert
returnerte
rev
rever
revers
revet
revidert
review
revis
revisjon
revisjonen
revol
revolusjon
revolusjonen
revolusjonær
revolusjonære
revolution
revy
rex
rey
reykj
reykjavik
reyn
reynolds
rh
rhein
rhin
rhinen
rho
rhod
rhodes
rhodos
rhone
rhythm
ri
rib
ribbent
ribbentrop
ric
rica
rice
rich
richard
richards
richardson
richmond
richter
rick
rico
rid
ridd
riddar
ridder
riddere
ride
ridge
rie
rif
rifle
rig
riga
right
rights
riis
rik
rikard
rikdom
rike
riker
rikeste
riket
rikets
riks
riksantik
riksantikvar
riksantikvaren
riksantikvarens
riksdag
riksdagen
riksdal
riksdaler
riksfor
riksh
rikshospitalet
riksk
riksmal
riksradet
riksvapen
riksvapenet
riksveg
riksvei
rikt
riktig
riktige
riktignok
rim
rimelig
rin
ring
ringe
ringen
ringer
ringerike
ringo
ringsaker
rio
rip
ris
rise
risik
risiko
risikoen
risør
rita
ritt
rittet
ritu
ritualer
riv
rival
rivaliserende
rive
river
rivers
rjuk
rjukan
ro
road
roald
roar
rob
robb
robert
roberto
roberts
robertson
robin
robinson
robot
roch
rock
rocke
rockeband
rockebandet
rockefeller
rocks
rocky
rod
rode
rodgers
rodrig
rodriguez
roer
rog
rogaland
roger
rogers
rogn
roing
rok
rol
roland
rolf
rolig
roll
rolla
rolle
rollefigur
rollefiguren
rollen
rollene
roller
rolling
rolls
rom
roma
roman
romanen
romanene
romaner
romania
romansk
romanske
romant
romantikken
romantisk
romantiske
romarane
romarriket
romartal
romas
rome
romeo
romer
romerike
romerne
romerriket
romersk
romerske
romfart
romfer
rommer
rommet
romsdal
romson
ron
ronald
rond
ronn
ronne
ronnie
ronny
ronstadt
room
roose
roosevelt
rop
ropte
ror
ros
rosa
rose
rosen
rosenborg
rosenkr
rosenkrantz
roses
roskilde
ross
rost
rot
rotasjon
roten
roterende
roterer
roth
rotten
rotter
rotterdam
round
rousse
rov
rovdyr
rover
rovers
row
rox
roy
royal
royce
rs
rt
ru
rub
rubin
rud
rudolf
rue
rug
rugby
ruinane
ruinene
ruiner
rull
rulle
rullebanen
rullestol
rum
rumen
rumensk
rumenske
run
rund
runde
rundede
runden
rundene
runder
rundet
rundt
rune
running
rup
rus
rush
russ
russell
russerne
russisk
russiske
russland
russlands
rust
rut
ruta
rute
ruten
rutene
ruter
ruth
ruther
rutherford
ruud
rv
rw
rwanda
ry
ryan
ryd
ryddet
ryfylke
rygg
rygge
ryggen
rykke
rykket
rykte
rykter
ryt
rytm
rytme
rytmisk
rytter
ryttere
ræ
rø
røa
rød
rødbrun
rødbrune
røde
rødlig
rødlige
rødliste
rødt
røk
røm
rømme
rømte
røn
rønne
rønt
røntgen
rør
røros
rørs
rørsla
rørsle
røst
røter
røttene
røtter
røy
røyk
røyken
røynda
røyr
sa
saa
saab
saar
sab
sabel
sabot
sabotasje
sac
sachsen
sad
sadan
saf
sag
saga
sagaen
sagbruk
sagene
sagn
sagt
sagta
sagtakkede
sahara
said
saint
sainte
saints
sak
saka
sakalla
sakalt
sakalte
saken
sakene
saker
sakk
sakprosa
sakram
saks
saksiske
saksofon
saksø
sakte
sal
sala
salam
sale
saledes
saleis
salen
salg
salget
salis
salisbury
salme
salmebok
salmed
salmen
salmer
salom
salomon
salong
salt
saltdal
salten
saltvann
salvad
salvador
salzburg
sam
saman
samanheng
samanlik
samanlikna
samansett
samansla
samar
samarbeid
samarbeide
samarbeider
samarbeidet
samarbeidspart
samband
sambandet
same
sameinte
samene
samer
samet
sametinget
samf
samferd
samferdsel
samfunn
samfunnet
samfunnets
samfunns
samfunnsk
samfunnsvitenskap
samisk
samiske
samla
samle
samlealbum
samlealbumet
samlede
samler
samles
samlet
samling
samlinga
samlingen
samlingene
samlinger
samløpet
samme
sammen
sammenbrudd
sammendrag
sammenf
sammenfaller
sammenheng
sammenhengen
sammenhengende
sammenhenger
sammenlagt
sammenlig
sammenlign
sammenlignes
sammenlignet
sammenligning
sammenlik
sammens
sammensatt
sammensatte
sammensetning
sammensetningen
sammensl
sammensla
sammenslaing
sammenslaingen
sammenslutning
sammenstøt
samoa
samp
sams
samst
samstundes
samsvar
samt
samtale
samtaler
samtid
samtida
samtiden
samtidens
samtidig
samtidige
samtidskunst
samtlige
samtykke
samuel
samv
samvel
samveldele
samveldelekene
samveldet
samvitt
san
sanchez
sanct
sand
sandberg
sande
sandefjord
sanden
sandnes
sandstein
sandvik
sandvika
sandviken
sandvolleyball
sandwich
sang
sangen
sangene
sanger
sangere
sangeren
sanitet
sank
sanksjon
sankt
sann
sanne
sannhet
sannheten
sannsyn
sannsynleg
sannsynlig
sannsynlighet
sannsynligheten
sannsynligvis
sans
sanse
sansk
sanskrit
sant
santa
santi
santiago
santo
santos
sao
sap
sapass
sape
sapp
sapporo
sar
sara
sarah
sarajevo
sarbar
sarbare
sard
sardinia
sardisk
sarede
saret
sark
sarp
sarpsborg
sars
sart
sas
sass
sat
satan
satell
satellitt
satir
satire
sats
satsar
satse
satsen
satser
satset
satsing
satt
satte
satur
saturn
sau
saud
sauda
saudi
saue
sauer
saur
sav
savel
savidt
savo
savoie
saw
sax
say
sb
sc
scand
scandinav
scar
scarab
scarabae
scarabaeidae
scarabaeoidea
scen
scene
scenen
scener
sch
scha
sche
schiz
schl
schles
schlesien
schleswig
schm
schmidt
schne
schneider
schon
school
schre
schul
schw
schwar
schwarz
schwe
scien
science
sciences
scient
scor
score
scoret
scorte
scot
scotia
scotland
scott
scottish
scre
scut
sd
se
sea
sean
seattle
seb
sebast
sebastian
sec
second
secret
secur
security
sed
sedan
sediment
see
seed
seere
seerne
seertall
sees
seg
segl
segla
segment
sei
seia
seie
seier
seiere
seieren
seil
seile
seiler
seiling
seilte
sein
seinare
seine
seinere
seint
seir
seire
seiret
seism
sek
sekretari
sekretariat
sekretær
seks
seksjon
seksjonen
seksjoner
seksk
sekst
seksten
seksuell
seksuelle
seksuelt
sektor
sekund
sekundar
sekunder
sekundær
sekundære
sekvens
sel
selbu
seld
selde
seldsj
sele
selev
selevk
selge
selger
selges
selje
seljord
selskab
selskap
selskapene
selskaper
selskapet
selskapets
selt
selv
selvbi
selvbiografi
selve
selvmord
selvstend
selvstendig
selvstendige
selvstendighet
selvstyre
sem
sement
semi
semif
semifin
semifinal
semifinale
semifinalen
semifinalene
semifinaler
semin
seminar
sen
senat
senatet
senator
send
sende
sender
sendes
sending
sendingen
sendingene
sendinger
sendt
sendte
sene
senegal
senere
senest
seneste
seng
seni
senior
senja
senke
senket
sens
sensur
sent
senter
senteret
senterpartiet
sentr
sentral
sentralamerikanske
sentralbank
sentralbanken
sentralbanksjef
sentralbyra
sentrale
sentralstyre
sentralt
sentrert
sentrum
seoul
sep
separ
separat
separate
sept
septem
september
ser
serb
serbia
serbisk
serbiske
seremon
seremoni
seremonielle
seremonien
serge
sergej
seri
serie
seriekamper
seriem
seriemeister
seriemester
serien
seriene
seriens
serier
serierunde
series
sersjant
sert
sertifisert
serv
server
serveres
servert
service
services
ses
sesong
sesongar
sesongen
sesongene
sesongens
sesonger
set
sete
seter
setesdal
setet
setje
setning
sett
sette
setter
settes
sev
seven
sever
severd
severdigheter
severin
severus
sevilla
sex
sey
seym
sf
sh
sha
shaan
shaanxi
shac
shacklet
shackleton
shad
shah
shakes
shakespe
shakespeare
shakespeares
sham
shan
shandong
shang
shanghai
shannon
shanxi
shar
sharon
shaw
she
sheffield
shel
shen
sher
sheriff
shet
shetland
shetlands
shetlandsøyane
shi
shim
shin
ship
shipping
shir
sho
short
show
showet
shu
si
sibir
sic
sichuan
sicil
sicilia
sid
sida
sidan
side
sideel
sideelv
sideelva
sideelvane
sideelvene
sideelver
sidekant
siden
sidene
sider
sidney
sie
sieg
siem
siemens
sien
sier
sierra
sies
siffer
sig
sigar
sigd
sigende
siger
sigeren
sigmund
sign
signal
signaler
signalet
signatur
signe
signere
signert
signerte
sigra
sigrid
sigur
sigurd
sigøy
sik
sikker
sikkerhet
sikkerhets
sikkert
sikra
sikre
sikret
sikring
sikt
sikte
siktet
sil
sild
silde
silke
silva
silver
sim
sime
simon
simonsen
simp
simple
simpson
sin
sind
sine
sing
singap
singapore
singel
singelen
singell
singellista
singer
singh
singlane
singlar
single
singlen
singlene
singler
singles
sink
sinn
sinne
sint
sio
sion
sioux
sip
sir
sira
siri
sirius
sirk
sirkel
sirkelen
sirkulasjon
sirkus
sis
sissel
sist
siste
sisteplass
sister
sistnemnde
sistnevnte
sit
sitat
sitert
sitje
sitt
sitte
sittende
sitteplasser
sitter
sittet
situ
situasjon
situasjonen
situasjoner
siv
sivil
sivile
sivilingeniør
sivilis
sivilisasjon
sivilisasjonen
sivilt
siviløkonom
six
sj
sja
sjafør
sjak
sjakk
sjal
sjang
sjanger
sjangeren
sjangre
sjanse
sjansen
sje
sjef
sjefen
sjefredaktør
sjel
sjeld
sjeldan
sjelden
sjeldent
sjeldne
sjeldnere
sjette
sjetteplass
sjo
sjok
sjokk
sjokolade
sju
sjuande
sjuende
sjuendeplass
sjuk
sjukamp
sjukdom
sjuke
sjukehus
sjæl
sjælland
sjø
sjøen
sjøfart
sjøfly
sjøfolk
sjøforsvaret
sjøfugl
sjøl
sjølv
sjølve
sjølvstende
sjølvstendig
sjølvstendige
sjømann
sjømenn
sjør
sjøs
sjøsatt
sjøslag
sk
ska
skad
skadd
skadde
skade
skadedyr
skaden
skadene
skader
skadet
skaffe
skaffet
skag
skagen
skager
skal
skala
skalaen
skald
skall
skallet
skam
skan
skand
skandinav
skandinavia
skandinavisk
skandinaviske
skane
skanse
skansen
skap
skapar
skape
skaper
skapt
skapte
skar
skara
skarabider
skard
skaret
skarp
skarpe
skarpt
skat
skatt
skatte
skatten
skatter
ske
sked
skeid
skept
skeptisk
ski
skib
skien
skiens
skif
skifer
skifly
skiflyging
skift
skifta
skifte
skiftende
skifter
skiftet
skihopp
skihopper
skihopping
skik
skikk
skikkelig
skikkelse
skikkelser
skikken
skikker
skil
skild
skilde
skildra
skildrar
skildre
skildrer
skildret
skildring
skilje
skille
skiller
skilles
skillet
skilling
skilnad
skilsm
skilsmisse
skilt
skilte
skin
skinn
skinnende
skinner
skip
skipa
skipene
skipet
skipets
skipper
skipre
skips
skipsfart
skipsreder
skipsver
skipsverft
skir
skis
skisk
skiskyting
skiskytter
skisser
skive
skj
skje
skjeb
skjebne
skjed
skjedd
skjedde
skjegg
skjel
skjelett
skjell
skjen
skjer
skjerm
skjermen
skjold
skjoldbiller
skjoldet
skjul
skjule
skjult
skjulte
skjær
skjære
skjø
skjøn
skjønn
skjønnhet
skjønnlitter
skjønnlitteratur
skjønt
skjør
skjøt
sko
skode
skodespel
skodespelar
skog
skogbruk
skoge
skogen
skogene
skoger
skogs
skol
skole
skolearet
skoleg
skolegang
skolem
skolen
skolene
skolens
skoler
skoles
skom
skor
skot
skotsk
skotske
skott
skottland
skottlands
skov
skr
skra
skran
skre
skred
skreiv
skrekk
skrem
skrev
skrevet
skri
skrib
skribent
skrift
skriftene
skrifter
skriftlig
skriftlige
skriftsprak
skriftspraket
skrik
skrin
skritt
skriv
skriva
skrive
skrivebord
skrivem
skrivematen
skriven
skriver
skrives
skriving
skrivne
skro
skrog
skroget
skru
skrue
sku
skud
skudd
skuesp
skuespill
skuespiller
skuespillere
skuespilleren
skuespillerinne
skuespillerinnen
skuespillerne
skuespillet
skuff
skul
skular
skuld
skulda
skulder
skuldre
skule
skulen
skulle
skulpt
skulptur
skulpturen
skulpturer
skum
skur
skutt
skvad
skvadron
skvadronen
sky
skyene
skyer
skygg
skygge
skyggen
skyl
skyld
skylden
skyldes
skyldig
skyldtes
skyt
skyte
skyter
skytevapen
skyting
skytter
skøy
skøyt
skøyte
skøyteløper
skøyter
sl
sla
slag
slagene
slaget
slagmarken
slags
slakt
slalam
slam
slang
slange
slanger
slank
slanke
slapp
slar
slas
slass
slatt
slatten
slav
slave
slaver
slaveri
slaveriet
slaviske
sle
slegge
sleggekast
slekt
slekta
slekten
slektene
slektens
slekter
slektning
slektninger
slektskap
slem
slepp
slesvig
slet
slett
sletta
slette
sletten
slettene
slid
slik
slike
slikt
slim
slip
slipp
slippe
slipper
slippes
slit
slo
slott
slottet
slov
slovak
slovakia
slovakisk
slovakiske
sloven
slovenia
slovensk
slovenske
slu
sluppet
slutt
slutta
slutte
slutten
slutter
sluttet
sluttspill
sluttspillet
slyn
sløy
sm
sma
smab
smabru
smak
smaken
smal
smaland
smale
smalere
small
smalt
smar
smart
smast
sme
smed
smel
smellere
smelt
smelte
smeltet
smerte
smerter
smith
smitt
smitte
smittet
sms
smug
smy
smygere
smykker
smør
sn
sna
snakk
snakka
snakkar
snakke
snakker
snakkes
snakket
snar
snarere
snart
snasa
sne
snekker
snik
snitt
sno
snor
snorre
snow
snu
snudd
snudde
snur
snute
snø
snøbrett
snøen
snøgg
so
sob
soc
social
socialdemokrat
societ
society
sod
soder
sodermanland
sodra
sof
sofia
sofie
soft
softball
software
sog
soga
soge
sogn
sogndal
sogne
sognefjorden
sogneprest
sognet
sok
sokkel
sokn
sokne
sokneprest
soknet
sol
sola
solberg
sold
soldat
soldatane
soldatar
soldaten
soldatene
soldater
sole
solen
solens
solgt
solgte
solheim
solid
solidar
solidaritet
solist
soll
sollys
solo
soloalbum
soloalbumet
soloartist
solog
sologitar
solok
solokarriere
solop
solov
solsystemet
solveig
som
somal
somalia
some
somer
somerset
sommar
sommaren
somme
sommer
sommeren
sommerfug
sommerfugl
sommerfuglen
sommerfuglene
sommerfugler
sommerleker
son
sona
sonden
sone
sonen
soner
song
songane
songar
songaren
songen
songs
sonja
sony
sop
soph
sophie
sopp
sopran
sor
soren
sorenskriver
sorg
sort
sorte
sorter
sortert
sortland
sos
sosi
sosial
sosialdemokrat
sosialdemokratiske
sosiale
sosialisme
sosialist
sosialistisk
sosialistiske
sosialt
sosiologi
sot
sotsji
sou
soul
sound
soundtra
south
southampton
souther
southern
sov
sove
sover
sovj
sovjet
sovjetisk
sovjetiske
sovjetun
sovjetunionen
sovjetunionens
sp
spa
space
spad
spalt
spalte
span
spania
spanias
spanjol
spanjolene
spansk
spanske
spar
spare
sparebank
spark
sparken
sparket
spart
sparta
spd
spe
spec
special
species
sped
spedbarn
speed
speider
speil
spek
spekt
spektak
spekter
spektrum
spekul
spekulasjoner
spekulert
spel
spela
spelar
spelarar
spelaren
spele
spelem
speler
spelet
spellemann
spellemannprisen
spelt
spelte
spen
spencer
spenn
spennende
spenner
spenning
spenningen
sper
sperre
spes
spesi
spesial
spesialiserer
spesialisert
spesialiserte
spesialist
spesiell
spesielle
spesielt
spesif
spesifikk
spesifikke
spesifikt
spi
spil
spill
spille
spillefilm
spillene
spiller
spillere
spilleren
spillerne
spillerstall
spilles
spillet
spilletid
spillets
spilt
spilte
spin
spink
spinkle
spinn
spinner
spion
spir
spiral
spirit
spiritu
spis
spise
spiser
spises
spiss
spisse
spissen
spist
spiste
spits
spitsbergen
spl
split
splitt
splittet
spon
spons
sponsor
spont
spor
spora
sporadisk
spore
sporene
sporer
spores
sporet
sporliste
sport
sporten
sporter
sports
sportsklubb
sportsklubben
sportsutøver
sportsutøvere
spp
spr
spra
sprak
spraka
sprakene
spraket
sprakfamilien
sprakk
spraklig
spraklige
sprang
spre
spred
spredd
spredning
spredt
spredte
spreidd
spreidde
sprekker
spreng
sprengstoff
sprengt
sprer
spring
springer
springfield
springs
springsteen
sprint
sprinten
sprintløp
sprøy
spur
spurt
spurte
spy
spyd
spydkast
spø
spøk
spøkelse
spør
spørre
spørsmal
spørsmalet
squ
squad
square
sr
sri
ss
ssb
st
sta
staande
stab
stabbur
staben
stabil
stabile
stabilitet
stabilt
stabssjef
stabæk
stad
stade
staden
stader
stadfest
stadfesta
stadiet
stadig
stadige
stadion
stadionet
stadium
stadt
staende
staf
stafett
stafetten
stafettlaget
staff
stag
stage
stakk
stal
stalin
stall
stam
stamfar
stamma
stammar
stamme
stammen
stammene
stammer
stammet
stan
stand
standard
standarden
standarder
standpunkt
stanford
stang
stange
stanis
stanley
stanse
stanset
stap
star
stark
starr
stars
start
starta
startar
starte
starten
starter
startet
stasjon
stasjonen
stasjonene
stasjoner
stasjonert
stasjonsbygningen
stat
statar
state
staten
statene
statens
stater
states
station
statist
statistikk
statistisk
statistiske
statlege
statlig
statlige
statoil
stats
statsb
statsborg
statsborger
statsborgere
statsborgerskap
statsbudsj
statsku
statskupp
statsm
statsminister
statsministeren
statsover
statsoverhode
statsrad
statssekretær
statsv
statsvitenskap
statt
stattholder
statu
statue
statuen
statuer
status
statusen
stav
stavanger
stavet
stavkirke
stavkyrkje
stavsprang
ste
sted
stede
stedene
steder
stedet
stedets
stedfor
stedsnavn
stedsnavnet
steel
steelers
steen
stef
stefan
steg
steget
steig
stein
steinalder
steinalderen
steinar
steinen
steiner
steinete
steinkjer
steins
stella
stem
stemme
stemmeberett
stemmeberettigede
stemmen
stemmene
stemmer
stemmerett
stemning
stemp
stemt
stemte
sten
stener
steng
stenge
stengt
stengte
stens
steph
stephan
stephen
ster
stere
stereo
sterk
sterke
sterkere
sterkeste
sterkt
stern
stev
steve
steven
stevens
stevne
stevnet
stewart
sti
stian
stien
stift
stifta
stifte
stiftelse
stiftelsen
stifter
stiftet
stig
stige
stigende
stiger
stigning
stik
stikk
stikke
stikker
stil
stilen
still
stille
stillehav
stillehavet
stillehavslekene
stiller
stilles
stilling
stillinga
stillingen
stillingene
stillinger
stills
stilt
stilte
stim
stipend
stipendiat
stir
stiv
stive
stjal
stjalet
stjel
stjele
stjer
stjerna
stjerne
stjernebildet
stjernen
stjernene
stjerner
stjert
stjør
stjørdal
stk
sto
stock
stockholm
stockholms
stod
stoff
stoffer
stoffet
stok
stokk
stokke
stol
stolt
stolten
stoltenberg
stone
stones
stop
stopp
stoppa
stoppe
stopper
stoppested
stoppet
stor
stora
storbakken
storband
storbrit
storbritannia
storbritannias
storby
storbyen
storbyomradet
stord
store
stores
storfe
storfyr
storhamar
storhertug
storhet
storhetstid
storkors
storleik
storleiken
storleiksklasse
storm
stormakt
stormaktene
stormen
stormester
storsl
storslalam
stort
storting
stortinget
stortingets
stortings
stortingsmann
stortingsrepresentant
stortingsrepresentanter
stortingsvalet
stortingsvalg
stortingsvalget
story
str
stra
straff
straffe
straffen
straffer
straffes
straffesp
straffespark
straffet
strake
strakk
straks
strakte
stral
strale
stralende
straling
stralingen
stram
strand
stranda
stranden
strasbourg
strat
strateg
strategi
strategien
strategisk
strategiske
straum
straumen
strauss
stre
street
streik
streis
streisand
strek
strekk
strekker
strekkjer
strekning
strekninga
strekningen
strekninger
strendene
strender
streng
strenge
strengt
stress
stri
strid
striden
stridende
stridigheter
stridsv
stridsvog
stridsvogn
stridsvogner
strind
stripe
striper
stro
strom
strong
stru
struktur
strukturen
strukturer
stry
stryke
stryn
strø
strøk
strøket
strøm
strømmen
strømmer
strømmet
strømsg
strømsgodset
stu
stuart
stub
stud
student
studentar
studentene
studenter
studentersam
studer
studere
studerer
studert
studerte
studi
studiar
studie
studien
studiene
studier
studiere
studies
studiet
studio
studioalbum
studioalbumet
studioet
studiom
studiomus
studiomusikar
studios
studium
stum
stumfilm
stund
stundom
stup
stur
sturlas
stutt
stuttgart
sty
stykk
stykke
stykker
stykket
style
styr
styre
styreformann
styreleder
styremedlem
styrer
styres
styresmaktene
styresmakter
styret
styring
styrings
styrk
styrkane
styrkar
styrke
styrkelø
styrken
styrkene
styrker
styrket
styrmann
styrt
styrte
styrtet
stø
støpe
støpt
stør
størr
større
størrelse
størrelsen
størrelser
størst
største
størsted
størstedelen
størsteparten
støt
støtt
støtta
støtte
støtten
støtter
støttes
støttespillere
støttet
støv
støy
su
sub
subjekt
subsid
subst
substant
substantiv
subt
subtropiske
sud
sudan
suez
suff
sug
suge
suger
sugesn
sukker
suks
suksess
suksessen
suksessfulle
suksessrike
sul
sula
suldal
sulit
sulitjel
sulitjelma
sull
sullivan
sult
sultan
sultanen
sum
sumatra
sumer
summen
summer
sump
sun
sund
sunday
sundby
sunde
sunderland
sundet
sundt
sung
sungen
sunget
sunn
sunndal
sunnfjord
sunnhordland
sunnmøre
sup
super
supp
support
supporter
sur
surn
surreal
surrey
survey
sus
susan
suspen
suspendert
sussex
sut
sutt
suver
suveren
suverenitet
suz
sv
sva
svak
svake
svakere
svakt
sval
svalbard
svan
svanger
svar
svarar
svare
svarer
svaret
svart
svarte
svarted
svartedau
svartedauden
svartehavet
sve
svein
sveit
sveits
sveitsisk
sveitsiske
svekket
svel
sven
svend
svendsen
svensk
svenska
svenske
svenskene
sver
sverd
sverdet
sverdrup
sverige
sveriges
sverre
sverres
sviger
svigerfar
svigers
svigersønn
svikt
svin
sving
svinger
svoger
svol
svolvær
svov
svovel
svt
svul
svært
svøm
svømm
svømme
svømmer
svømmesport
svømming
sw
swan
swe
sweet
swing
sy
syd
sydd
sydlige
sydney
sydvest
sydøst
syk
sykdom
sykdommen
sykdommer
syke
sykehus
sykehuset
sykeple
sykepleier
sykk
sykkel
sykl
sykler
syklet
sykling
syklist
syklus
syl
sylind
sylinder
sylindrisk
sylindriske
sym
symb
symbol
symboler
symbolet
symboliserer
symbolsk
symfon
symfoni
symfoniorkester
symmet
symmetrisk
symp
sympat
sympati
symph
symphony
sympt
symptom
symptomene
symptomer
syn
synd
syndrom
syne
syner
synes
synet
syng
synge
synger
synker
synkron
synleg
synlig
synlige
synn
synonym
synonymt
synspunkt
synspunkter
synt
synte
syntes
syntet
synth
synthes
synthesizer
syr
syre
syria
syrisk
syriske
syssel
syssels
system
systemat
systematikk
systematikken
systematisk
systematiske
systemer
systemet
systems
syster
sytt
sytten
syv
syvende
syvertsen
sz
sæ
sær
særdeles
særdeleshet
sære
særegen
særegne
særleg
særlig
særlige
særpreg
særs
særskild
særskilt
særskilte
sært
særtrekk
sæter
sø
søk
søke
søkel
søker
søknad
søknaden
søks
søksmal
søkt
søkte
søl
sølv
sølvmedalje
sølvmedaljen
søm
søn
søndag
sønder
sønderborg
søndre
sønn
sønnen
sønnene
sønner
sønnes
sønnesønn
søppel
sør
søra
søraf
sørafrik
sørafrikansk
sørafrikanske
søramer
søramerikanske
søraust
søre
søren
sørenden
sørensen
sørge
sørger
sørget
sørkore
sørkoreansk
sørkoreanske
sørkysten
sørland
sørlandet
sørlegaste
sørlege
sørlig
sørlige
sørligste
sørover
sørpolen
sørregionen
sørsamisk
sørsida
sørsiden
sørstatene
sørum
sørvest
sørvestlige
sørvestover
sørvestre
sørøst
sørøstlige
sørøstregionen
sørøya
søsken
søster
søsteren
søstre
søstrene
søt
søvn
søy
søyle
søyler
ta
tab
tabell
tabellen
tac
tacitus
tad
tadsjik
taekw
taekwondo
tag
tah
tai
taipe
taipei
taiwan
taj
tak
take
taket
takk
takke
takket
takle
takson
taksonom
taksonomi
taksonomien
taksonomisk
takt
taktikk
taktisk
tal
tala
tale
talen
talent
talenter
taler
tales
talet
taliban
talk
tall
tallene
tallet
tallets
tallinn
tallrike
talls
talsmann
talt
talte
tam
tamil
tampa
tan
tana
tand
tang
tangen
tangent
tanger
tank
tanke
tanken
tankene
tanker
tann
tannlege
tant
tante
tanz
tanzania
tao
tap
tape
tapende
tapene
tapet
tapp
tapper
tapt
tapte
tar
tara
tarm
tarn
tarnet
tart
tartu
tas
tasman
tast
tastatur
tat
tatar
tatt
tau
taub
taus
tav
tax
tayl
taylor
te
team
teamet
teat
teater
teateret
teatersjef
teaterstykket
teatre
teatret
tech
techn
technology
ted
tedd
teen
teg
tegl
tegn
tegne
tegner
tegneser
tegneserie
tegneserien
tegneserier
tegnet
tegning
tegningene
tegninger
teher
teheran
teigen
teik
teikn
teikna
tek
teke
teken
tekn
tekne
teknikk
teknikken
teknikker
teknisk
tekniske
teknolog
teknologi
teknologien
teknologisk
teknologiske
tekst
tekstane
tekstar
teksten
tekstene
tekster
tekstforfatter
tekstil
tekstiler
tel
tele
telef
telefon
teleg
telegraf
telegram
telekommunikasjon
telem
telemark
telen
telenor
teleskop
television
tell
telle
teller
telt
tem
tema
temaer
temaet
temmelig
temp
tempel
tempelet
temper
temperatur
temperaturar
temperaturen
temperaturer
temperert
tempererte
templ
temple
templer
tempo
tempor
ten
tenar
tenaring
tend
tendens
tene
tener
teneste
teng
tenke
tenker
tenkning
tenkt
tenkte
tenn
tennene
tenner
tennes
tennessee
tennis
tennisspiller
tennist
tennisturnering
tenor
tent
tente
teolog
teologi
teologisk
teologiske
teorem
teoret
teoretisk
teoretiske
teori
teorien
teorier
ter
terje
term
termin
terminal
termod
terning
terningkast
terr
terra
terras
terrasse
terre
terreng
terrenget
terrengløp
territor
territori
territorial
territorier
territoriet
territorium
terror
terrorangrepet
terry
tert
tes
tess
test
testam
testamen
testamente
testamentet
teste
testen
tester
testet
testing
tet
tetra
tett
tette
tettere
tetthet
tettstad
tettstaden
tettstader
tettsted
tettsteder
tettstedet
tev
tevla
tevling
tevlinga
tex
texas
th
tha
thai
thailand
than
that
the
theater
theatre
theben
them
themsen
theod
theodor
theodore
theol
ther
there
theres
therese
these
thess
thessalia
thessalon
thessaloniki
they
thi
thing
things
think
this
thom
thomas
thompson
thomson
thor
thorax
thorbjørn
thoresen
thorn
thorvald
thr
thra
three
thriller
through
thunder
thur
thuringen
thy
ti
tian
tiande
tianjin
tiar
tiara
tiarene
tiaret
tib
tiber
tiberius
tibet
tibetansk
tibetanske
tic
tid
tida
tide
tiden
tidende
tidene
tidenes
tidens
tider
tidevann
tidleg
tidlegare
tidlege
tidlig
tidlige
tidligere
tidligste
tids
tidsalder
tidspunkt
tidspunktet
tidsrom
tidsrommet
tidsskri
tidsskrift
tidsskrifter
tidsskriftet
tidvis
tie
tiende
tiendeplass
tier
tif
tig
tiger
tik
tikamp
til
tilb
tilbak
tilbake
tilbakegang
tilbaket
tilbe
tilbr
tilbragte
tilbrakte
tilbud
tilbudet
tilbudt
tilby
tilbyr
tilbys
tilbød
tildel
tildeles
tildeling
tildels
tildelt
tildelte
tilegnet
tilf
tilfeld
tilfeldig
tilfeldige
tilfelle
tilfellene
tilfeller
tilfellet
tilflukt
tilfred
tilfredsst
tilfredsstillende
tilførsel
tilført
tilgang
tilgangen
tilgjeng
tilgjengeleg
tilgjengelig
tilgjengelige
tilh
tilheng
tilhenger
tilhengere
tilhengerne
tilhold
tilholdssted
tilhør
tilhøre
tilhørende
tilhører
tilhørighet
tilhørt
tilhørte
tilhøve
tilhøy
tilkn
tilknytning
tilknytt
tilknyttet
till
tillagt
tillate
tillatelse
tillater
tillatt
tillegg
tillit
tillits
tillot
tilløp
tiln
tilnavnet
tilnær
tilnærmet
tilnærming
tilpas
tilpasning
tilpass
tilpassa
tilpasse
tilpasset
tilrett
tilrettelagt
tilretteleg
tils
tilsammen
tilsatt
tilsett
tilsette
tilsier
tilsig
tilsk
tilskod
tilskodarar
tilskrevet
tilskri
tilskrives
tilskudd
tilskuer
tilskuere
tilsl
tilslutning
tilslutt
tilsluttet
tilst
tilstand
tilstanden
tilstander
tilstede
tilstedeværelse
tilstrekk
tilstrekkelig
tilstøtende
tilsvar
tilsvarande
tilsvarende
tilsvarer
tilsvarte
tilsyn
tilsynelat
tilsynelatende
tilt
tiltak
tiltale
tiltalt
tiltalte
tiltenkt
tiltra
tiltradte
tiltrakk
tiltre
tiltrukket
tim
timar
time
timer
timers
times
timor
timot
timur
tin
tina
tind
tine
ting
tinget
tingrett
tingvoll
tinn
tip
tipp
tippelig
tippeligaen
tir
tirol
tirsdag
tis
tit
titalls
titan
titanic
titlene
titler
titt
tittel
tittelen
tittelkirke
tittelrollen
tittelsporet
titu
titus
tiv
tj
tjeld
tjen
tjene
tjener
tjenere
tjeneste
tjenesteg
tjenestegjorde
tjenestemenn
tjenesten
tjenester
tjent
tjente
tjern
tju
tjue
tjukk
tjø
tjøme
to
toal
tob
tobago
tobakk
tobias
tod
todd
todelt
toer
tog
togene
toget
tok
tokt
tokyo
tol
toledo
toler
toleranse
tolk
tolke
tolkes
tolket
tolkien
tolkiens
tolkning
tolkninger
toll
tolv
tolvte
tom
tomas
tomatoes
tomm
tomme
tommer
tommy
tomt
tomten
tomter
ton
tone
tonen
toner
tones
tong
tonight
tonn
tony
too
top
topp
toppar
toppdivisjonen
toppen
toppene
topper
toppet
toppfart
toppidrett
topps
toppscorer
toppserien
tor
tora
torbjørn
tord
torden
tore
torg
torger
torget
torino
tork
torn
tornad
torne
toronto
torp
torped
torsdag
torshavn
torstein
tort
tortur
torv
tos
toscana
tosp
tot
total
totale
totalt
toten
totten
tottenham
touch
touchd
touchdown
touchdownpas
touchdowns
toulo
toulouse
tour
touren
tours
tov
tove
tower
town
toy
tr
tra
trad
trade
tradformede
tradisjon
tradisjonar
tradisjonell
tradisjonelle
tradisjonelt
tradisjonen
tradisjoner
tradte
traf
traff
trafikk
trafikken
trafikkerte
trag
tragedie
trail
train
trak
trakk
trakt
traktat
traktaten
traktor
tram
tramp
tran
trang
trange
trans
transa
transform
transil
transilvania
transistor
transk
transkri
transl
transp
transport
transporten
transporter
transportere
transportert
trapes
trapp
trase
traseen
trass
trav
travel
tre
trebu
trebukk
trebukker
tred
tredel
tredimensjon
tredj
tredje
tredjedel
tredjedeler
tredjeplass
tredjeplassen
tredve
tree
treet
tref
treff
treffe
treffer
treg
trehus
trek
trekant
trekantet
trekk
trekke
trekker
trekkes
trekket
trekt
trekte
trelast
tren
trenar
trend
trene
trener
treng
trenge
trenger
trengs
trengte
trening
trenings
trent
trente
trer
tres
trestammer
tresteg
trett
tretten
trettende
tretti
treverk
trevor
tri
trib
tribun
trier
trig
trik
trikk
trilog
trilogien
trin
trine
trinidad
trinity
trinn
trio
trioen
trip
tripoli
trippel
trist
tristan
trium
triumf
triv
trives
tro
trodde
troen
troende
trofe
troja
trol
trolig
troll
trolldom
trom
tromm
tromme
trommer
trommeslag
trommeslagar
trommeslagaren
trommeslager
trompet
troms
tromsø
tron
trona
trond
trondheim
trondheims
trondheimsfjorden
trondhjem
trondhjems
trone
tronen
trong
trop
tropisk
tropiske
tropp
troppen
troppene
tropper
tror
tros
tross
trossamfunn
trot
tru
trua
trudde
true
truer
truet
truffet
truga
trukket
truleg
trum
truman
trump
trur
trus
trusler
trussel
trusselen
trust
try
tryg
trygg
trygge
tryggvas
trygt
trygve
trykk
trykke
trykker
trykket
trykt
trykte
tryl
trys
trysil
træ
trær
trærne
trø
trøn
trøndelag
trønder
ts
tsar
tsaren
tsj
tsjad
tsje
tsjekk
tsjekkia
tsjekkisk
tsjekkiske
tsjekkoslov
tsjekkoslovak
tsjekkoslovakia
tsjekkoslovakiske
tsjer
tsjetsjen
tsun
tu
tub
tuber
tuberkul
tuberkulose
tud
tul
tull
tum
tun
tund
tundra
tunet
tung
tunge
tungt
tungvekt
tunis
tunisia
tunn
tunnel
tunnelen
tunneler
tup
tur
turb
turbin
turbiner
turbo
turbul
turen
turer
turisme
turist
turistar
turistatt
turistattraksjon
turister
turistforening
turistmal
turk
turkmen
turn
turne
turneen
turneer
turner
turnere
turnering
turneringa
turneringen
turneringer
turnert
turnerte
tus
tusen
tusenar
tusenarssted
tusener
tusenvis
tut
tv
tv2
tv3
tvang
tvangsarbeid
tve
tved
tvedestrand
tveit
tver
tverr
tverrband
tvers
tvert
tvil
tvilling
tvinga
tvinge
tvn
tvnorge
tvun
tvungen
tvunget
tw
twh
twin
two
ty
tyd
tyde
tydeleg
tydelig
tydelige
tyder
tyding
tydinga
tykk
tykke
tyler
tyn
tyng
tyngde
tyngre
tynn
tynne
tynset
tynt
typ
typar
type
typen
typene
typer
typisk
typiske
tyr
tyrann
tyri
tyrk
tyrkerne
tyrkia
tyrkisk
tyrkiske
tysk
tyskarane
tyske
tyskere
tyskerne
tyskland
tysklands
tyve
tø
tøff
tøm
tømmer
tøn
tønne
tønneformet
tønsberg
tør
tørke
tørket
tørr
tørre
tørt
tøy
tøyen
u18
u20
u21
u23
uansett
uav
uavgjort
uavheng
uavhengig
uavhengige
uavhengighet
uavhengighetskrigen
ub
ubat
ubaten
ubater
ube
ubehag
uber
ubet
ubety
uci
ud
udø
ue
uefa
uen
uendelig
uenighet
ufc
ufor
uform
ufull
ufullstendig
ug
uganda
ugift
uh
uheldig
uhell
uio
uje
uk
uka
uke
uken
ukene
ukentlig
uker
ukjend
ukjent
ukjente
ukl
uklar
uklare
uklart
ukra
ukraina
ukrainsk
ukrainske
ul
ule
ulf
ulik
ulike
ulikt
ull
ullen
ullens
ullensaker
ullensvang
uller
ullern
ullev
ulleval
ulov
ulovlig
ulovlige
ulrich
ulrik
ulstein
ulster
ult
ultra
ulv
ulven
uly
ulykk
ulykke
ulykken
ulykker
um
umb
ume
umea
umiddel
umiddelbar
umiddelbart
umul
umulig
un
und
under
underart
underarter
underfamilie
underfamilien
undergrunn
undergrunnsbane
undergrunnsstasjon
undergruppe
undergrupper
underhold
underholdning
underhuset
underjord
underjordisk
underjordiske
underkant
underkast
underlagt
underliggende
underord
underordenen
underordnet
undersida
underside
undersiden
underslekt
understre
understreket
undersø
undersøk
undersøke
undersøkelse
undersøkelsen
undersøkelser
undersøkt
undersøkte
undert
undertegnet
undertry
undertrykk
undervann
underveis
undervis
undervise
underviser
undervisning
undervisningen
undervisnings
undervist
underviste
une
unes
unesco
unescos
ung
ungane
ungar
ungarn
ungarns
ungarsk
ungarske
ungdom
ungdommen
ungdommer
ungdoms
ungdomslag
ungdomsskole
unge
ungene
unger
unifor
uniform
uniformer
unik
unike
unikt
union
unionen
unions
unit
united
univer
univers
universal
universet
universitat
universite
universitet
universitetene
universiteter
universitetet
universitetets
universitets
universitetsbiblio
universitetssykehus
university
unix
unn
unna
unng
unnga
unngar
unngikk
unnskyld
unnslipp
unnslippe
unntak
unntaket
unntatt
unter
unødv
uoffis
uoffisielle
uoffisielt
uopp
uover
up
upon
upop
upp
uppsala
ur
ura
ural
uran
uranus
urban
urbane
urdu
ureg
uregelmessig
urett
urfolk
uri
urin
uro
urol
uropp
urt
urter
uru
urugu
uruguay
urørt
us
usa
usann
usas
usbek
usbekistan
usd
used
usedvan
usedvanlig
usgs
usikker
usikkerhet
usikkert
usikre
usk
uskyl
uss
ust
ustab
ustabil
ustabile
ut
utafor
utah
utal
utallige
utan
utanfor
utanlandske
utanom
utanrik
utarbeid
utarbeide
utarbeidet
utbed
utbet
utbre
utbred
utbredelse
utbredelsen
utbredt
utbredte
utbrei
utbreidd
utbreiing
utbrot
utbrotet
utbrudd
utbruddet
utbygd
utbygg
utbygging
utbyggingen
utc
utd
utdan
utdann
utdanna
utdannelse
utdannelsen
utdannet
utdanning
utdanningen
utdannings
utdelingen
utdelt
utdrag
utdød
utdødd
utdødde
ute
uteksam
uteksaminert
utel
utelu
utelukk
utelukkende
uten
utendørs
utenfor
utenlands
utenlandsk
utenlandske
utenom
utenrik
utenriks
utenriksdepartementet
utenriksminister
utenrikspolitikk
utest
utestengt
utfall
utfallet
utfor
utford
utfordret
utfordring
utfordringer
utform
utforma
utformet
utforming
utformingen
utforsk
utforska
utforske
utforsket
utfør
utføre
utfører
utføres
utført
utførte
utg
utga
utgang
utgangen
utgangspunkt
utgangspunktet
utgav
utgava
utgave
utgaven
utgavene
utgaver
utgi
utgift
utgifter
utgir
utgis
utgitt
utgiv
utgivelse
utgivelsen
utgivelsene
utgivelser
utgiver
utgje
utgjer
utgjev
utgjeve
utgjeven
utgjeving
utgjevinga
utgjorde
utgjør
utgjøre
utgrav
utgravninger
util
utk
utkanten
utkast
utkjempet
utkom
utlan
utland
utlandet
utle
utlend
utlendinger
utlø
utløp
utløpet
utløst
utløste
utmatt
utmer
utmerk
utmerkelse
utmerkelsen
utmerkelser
utmerket
utn
utne
utnem
utnemnd
utnev
utnevn
utnevne
utnevnelsen
utnevnt
utnevnte
utnytt
utnytte
utnyttelse
utnytter
utnyttet
utover
utpe
utpekt
utpekte
utpreget
utr
utrecht
utred
utredning
utro
utrop
utropt
utropte
utrust
utrustet
utry
utryd
utrydd
utryddet
uts
utsagn
utsatt
utsatte
utse
utseende
utseendet
utsen
utsending
utsett
utsette
utsettes
utsiden
utsikt
utsjan
utsjanad
utsk
utskift
utskilt
utsl
utslag
utslatt
utslipp
utslippene
utsmy
utsp
utspiller
utspring
utst
utstaende
utsted
utstedt
utstedte
utstilling
utstillingen
utstillinger
utstilt
utstrakt
utstrekning
utstyr
utstyret
utstyrt
utstyrte
utsyn
utt
uttak
uttal
uttale
uttalelse
uttalelser
uttalen
uttales
uttalt
uttalte
uttry
uttrykk
uttrykke
uttrykker
uttrykkes
uttrykket
uttrykt
uttrykte
utv
utval
utvalg
utvalget
utvalgt
utvalgte
utvand
utvandret
utveks
utveksling
utvekster
utvendig
utvid
utvida
utvide
utvidelse
utvidelsen
utvidelser
utvides
utvidet
utvik
utvikla
utvikle
utviklede
utvikler
utvikles
utviklet
utvikling
utviklinga
utviklingen
utvil
utvinning
utvist
utøv
utøvar
utøve
utøvende
utøver
utøvere
utøveren
utøverne
uv
uvan
uvanleg
uvanlig
uvanlige
uventet
uvisst
uøn
va
vac
vad
vade
vadsø
vag
vaga
vagan
vage
vagen
vak
vakker
vakkert
vakre
vakreste
vaks
vaksne
vakt
vakte
vakuum
val
vald
valde
valdemar
valdres
vale
valen
valencia
valent
valentin
valer
valerenga
valet
valg
valgdeltak
valgene
valget
valgkamp
valgkrets
valgkretsen
valgkretser
valgt
valgte
valkr
vall
valle
valley
valt
valte
valut
valuta
valutaen
vamp
vampyr
van
vancou
vancouver
vand
vandre
vandrer
vandring
vang
vanleg
vanlegaste
vanlege
vanlegvis
vanlig
vanlige
vanligere
vanligst
vanligste
vanligvis
vann
vannet
vannføring
vannkraft
vannkraftverk
vannpol
vannpolo
vannpolospiller
vansk
vanskeleg
vanskelig
vanskelige
vanskeligere
vanskeligheter
vant
vap
vapen
vapenet
vapenhvile
vapenskjold
vapnene
var
vara
varam
varamann
varanger
varaordfører
varare
vararepresentant
vard
vardø
vare
varemerke
varen
varer
varet
varetekt
vari
varia
variabel
variable
variant
variantar
varianten
variantene
varianter
variasjon
variasjoner
varier
variere
varierende
varierer
variert
varierte
variet
varig
varighet
varm
varme
varmekraftverk
varmen
varmere
varmet
varmland
varmt
varsel
varslet
vart
varte
vas
vasa
vasall
vasil
vasilij
vaske
vass
vassdrag
vassdraget
vast
vaster
vasterg
vastergotland
vastra
vat
vate
vatikan
vatikanet
vatmar
vatn
vatnet
vau
vaud
ve
ved
veden
vedkommende
vedlike
vedlikehold
vedr
vedrørende
vedtak
vedtaket
vedtatt
vedteke
vedtok
vedvarende
vef
vefsn
veg
vega
vegar
vegas
vegen
veget
vegetasjon
vegetasjonen
vegg
veggen
veggene
vegger
vegne
vegvesen
vei
veide
veie
veien
veiene
veiens
veier
veiforbindelse
veik
veil
veiledning
veis
veisper
veisperring
veit
veitunnel
veiv
veivalg
vek
veka
veke
veker
vekk
vekket
veks
veksel
vekselvis
vekst
veksten
vekt
vekten
vektklassen
vektlø
vektløfter
vektløfting
vektor
vel
veld
velded
veldig
velferd
velge
velger
velgere
velgerne
velges
velkjent
velkjente
velkommen
vell
velly
vellykkede
vellykket
vels
velstaende
velstand
velt
vem
ven
vend
vende
vender
vendt
vendte
vener
venet
venetianske
venez
venezia
venezuel
venezuela
veng
venn
vennen
vennene
venner
vennlig
vennskap
venst
venstre
venstrep
venstreparti
venstres
venstresiden
vent
venta
vente
venter
ventet
ventil
venus
ver
vera
verande
verb
verbet
verd
verda
verdal
verdas
verde
verden
verdens
verdensarv
verdensarvliste
verdensbasis
verdenscup
verdenscupen
verdenscuprenn
verdenskrig
verdenskrigen
verdensmester
verdensmesterskap
verdensmesterskapet
verdensom
verdensran
verdensrekord
verdensrommet
verdensutstillingen
verdi
verdien
verdiene
verdier
verdif
verdifull
verdifulle
verds
verdsarv
verdsc
verdscup
verdscupen
verdskrig
verdskrigen
verdslig
verdslige
verdsmeister
verdsmeisterskapen
verdsrekord
verdt
vere
verft
verftet
verg
verk
verka
verkar
verkeleg
verken
verkene
verker
verket
verksemd
verksemda
verksted
verktøy
vern
verna
verne
verneomrader
verneplan
verneplikt
vernet
verre
vers
versa
versailles
verset
versjon
versjonar
versjonen
versjonene
versjoner
verste
vert
verta
verte
vertik
vertikal
vertikale
vertskap
vertsn
verv
vervet
ves
vesen
vesener
vesentlig
vesentlige
vesle
vest
vestbredden
vestbreidda
vesten
vester
vesteralen
vestfold
vestfronten
vestindia
vestkysten
vestland
vestlandet
vestleg
vestlege
vestlig
vestlige
vestover
vestre
vestsida
vestsiden
vesttyske
vet
veter
veteran
veterinær
vett
vev
vg
vgs
vi
via
vib
vibe
viborg
vic
vict
victor
victoria
vid
vidar
vidare
vidaregaande
vide
viden
videnska
video
videoen
videosp
videospill
videre
videreføring
videreført
videreg
videregaende
videreutviklet
videreutvikling
vidt
vie
vier
viet
vietnam
vietnames
vietnamesisk
vietnamesiske
vietnamkrigen
vifte
vig
vigeland
vigg
viggo
vii
viii
viis
vik
vika
vikar
vike
viken
viker
viking
vikings
vikingtiden
vikt
viktig
viktigaste
viktige
viktigere
viktigste
viktor
vil
vilhelm
vilje
vilkar
vill
villa
villaen
village
ville
villig
vilnius
vilt
vin
vincent
vind
vinda
vinden
vindu
vinduer
vinduet
vindus
vinen
ving
vinge
vingen
vingene
vingenes
vinger
vingesp
vingespenn
vinje
vinkel
vinkelen
vinn
vinnar
vinnaren
vinne
vinner
vinnere
vinneren
vinnerne
vint
vinter
vinteren
vinterlekene
vinterleker
vinterstid
vintr
vinyl
vir
virgin
virginia
virk
virke
virkelig
virkelige
virkelighet
virkeligheten
virkem
virkemidler
virker
virket
virkning
virksom
virksomhet
virksomheten
virksomheter
virt
virtu
virus
viruset
virv
virveld
virveldyr
vis
visa
visdom
vise
visepresident
viser
vises
visjon
visk
viss
visse
visst
visste
visstnok
vist
viste
visual
visuell
visuelle
vit
vita
vitamin
vite
vitenskap
vitenskapelig
vitenskapelige
vitenskapen
vitenskapsakadem
vitenskapsaret
vitja
vitne
vitner
vitskap
vitskapleg
vitskaplege
vitt
viv
vl
vlad
vladimir
vm
vo
voc
vog
vogn
vognene
vogner
vogt
voice
voiv
voivod
voivodskap
vok
vokal
vokalen
vokaler
vokalist
vokalisten
voks
vokse
voksen
voksende
vokser
voksne
vokst
vokste
vokter
vol
vold
volda
voldelig
voldelige
voldemort
voldsom
voldsomme
voldsomt
voldt
voldtekt
volga
volk
volks
volkswagen
voll
volleyball
volleyballspiller
volt
volta
volum
volumet
volvo
von
vor
vore
vort
vorte
voss
voy
vr
vrak
vraket
vri
vs
vu
vul
vulk
vulkan
vulkanen
vulkansk
vulkanske
vunne
vunnet
vurder
vurdere
vurdering
vurdert
vurderte
vy
væ
væp
væpnede
væpnet
vær
være
værende
været
vært
væske
væsker
wa
wade
wadi
wag
wagner
wah
wait
wak
wake
wal
wald
walde
wales
walis
walisisk
walisiske
walk
walker
wall
walla
wallace
wallis
walsh
walt
walter
wan
wand
wanderer
wang
want
war
ward
warner
warren
warri
wars
warsza
warszawa
warwick
was
wash
washington
wat
watch
water
waterloo
waters
watson
watt
wave
way
wayne
we
web
weber
wed
wedel
week
wehr
wehrmacht
wei
weimar
wein
wel
welhaven
well
wellington
wells
welt
wemb
wembley
wen
wenche
went
wer
were
werg
wergeland
werner
wes
wesse
wessel
wessex
west
wester
western
westfalen
westminster
wh
what
whe
when
where
whit
white
who
wi
wid
wide
wider
wien
wiener
wies
wig
wii
wik
wikipedia
wil
wild
wilde
wilhelm
wilkes
will
willem
william
williams
willie
willy
wilson
wim
wimbl
wimbledon
win
winchester
wind
windows
windsor
wing
wings
winn
winst
winston
wint
winter
wir
wis
wiscons
wisconsin
wit
with
witt
witten
wo
wol
wolf
wolfgang
woll
woman
women
won
wonder
wood
woods
wor
worcester
word
work
works
world
worms
wr
wrest
wright
writ
wu
wuhan
wulf
wur
wurt
wurttem
wurttemberg
ww
www
wy
wyatt
wyl
xbox
xen
xer
xi
xia
xian
xiang
xii
xiii
xin
xinjiang
xiv
xu
xv
xvi
xx
ya
yale
yam
yan
yang
yard
yards
yas
yd
ydmy
ye
year
years
yell
yellow
yes
yi
yin
ym
ymse
yn
yng
yngling
yngre
yngste
yo
yoko
yokohama
yong
yor
york
yorks
yorkshire
you
young
your
yout
youth
youtube
ypper
ypperste
yr
yrke
yrkes
yt
yte
ytelse
ytr
ytre
ytringsf
ytter
ytterkant
ytterkanten
ytterlegare
ytterligere
ytterst
ytterste
yu
yuan
yun
yunnan
za
zach
zag
zagreb
zah
zak
zam
zambia
zap
zappa
zar
ze
zealand
zed
zedong
zeit
zen
zepp
zeppelin
zevs
zh
zhang
zhao
zhe
zhejiang
zheng
zhong
zhou
zhu
zi
zim
zimbab
zimbabwe
zimmer
zo
zu
zur
zurich
zw
°c
æl
ær
æra
ære
æren
æres
æresbe
æresdo
æresdoktor
æreslegionen
æresmedlem
ærespris
æth
æthel
ætt
øde
ødela
ødelag
ødelagt
ødeleg
ødelegg
ødelegge
ødeleggelse
ødeleggelser
ødeleggende
øg
øivind
øk
øke
økende
øker
økning
økologi
økologisk
økologiske
økonom
økonomi
økonomien
økonomisk
økonomiske
økos
økosystem
øks
økt
økte
øl
øn
ønsk
ønske
ønsker
ønsket
ønskte
ør
øre
ører
øres
øresund
ørken
ørkenen
ørland
ørn
ørret
ørsta
øst
østen
østens
østensjø
øster
østerdalen
østerrik
østerrike
østerrikes
østerriksk
østerrikske
østersjøen
østfold
østfronten
østkysten
østlandet
østlig
østlige
østover
østre
østromer
østromerriket
østsiden
øv
øvelse
øvelsen
øvelsene
øvelser
øver
øverst
øverste
øverstkommanderende
øving
øvinga
øvre
øvrig
øvrige
øvst
øvste
øy
øya
øyane
øyar
øyas
øydela
øydelag
øydelagd
øydeleg
øye
øyeblikk
øyeblikkelig
øyeblikket
øyen
øyene
øyer
øyet
øygarden
øygruppa
øygruppe
øygruppen
øyne
øynene
øystein
øyvind
łodz
алекс
ال
##0
##00
##000
##1
##10
##100
##11
##12
##13
##14
##15
##16
##17
##18
##19
##2
##20
##21
##22
##23
##24
##25
##2o
##3
##30
##35
##39
##4
##40
##45
##5
##50
##55
##6
##60
##64
##66
##7
##70
##8
##80
##86
##9
##90
##a
##aa
##aal
##aas
##ab
##aba
##abad
##abel
##abelt
##aben
##abeth
##abider
##abil
##abis
##abl
##able
##abo
##abol
##abole
##abor
##abr
##abrikk
##abru
##abukta
##aby
##ac
##ace
##aceae
##ach
##ache
##achen
##acher
##achi
##achim
##acht
##ack
##acon
##act
##ad
##ada
##adal
##adalen
##adan
##adane
##adar
##add
##adde
##ade
##adel
##aden
##adene
##ader
##adet
##adh
##adi
##adia
##adin
##adisk
##adiske
##admin
##administ
##administrasjon
##administrasjonen
##admiral
##ado
##ador
##adri
##ads
##advok
##advokat
##advokaten
##ady
##ae
##ael
##aen
##aende
##aer
##aet
##af
##afa
##aff
##afor
##afrik
##afrikanske
##aft
##ag
##aga
##agan
##agar
##agasin
##agasinet
##age
##agelse
##agen
##agende
##agene
##ager
##agere
##ages
##aget
##agh
##agi
##agn
##agne
##agnet
##ago
##agog
##agon
##agos
##agram
##ags
##agt
##ague
##ah
##ahalvøya
##ahl
##ai
##aide
##ain
##aine
##ains
##air
##aire
##ais
##aj
##aja
##ak
##aka
##akadem
##akademiet
##akar
##ake
##aken
##aker
##akere
##akers
##akes
##aket
##akh
##aki
##akia
##akim
##akis
##akk
##ako
##akom
##akon
##akrigen
##aks
##akse
##aksel
##aksen
##akser
##aksjon
##aksjonen
##aksjoner
##akt
##akta
##akte
##akten
##aktene
##akter
##aktig
##aktige
##aktighet
##aktiv
##aktive
##aktivitet
##aktivt
##aktor
##aktorer
##aktør
##aktører
##aku
##akult
##al
##ala
##alam
##aland
##alar
##alas
##album
##albumet
##ald
##alde
##alder
##alderen
##aldi
##aldirektør
##aldo
##aldt
##ale
##alem
##alen
##alene
##alens
##aler
##aleri
##ales
##alet
##alg
##algene
##alget
##ali
##alia
##alie
##alig
##alin
##aling
##alis
##alisering
##alisert
##alisme
##alismen
##alist
##alistene
##alistisk
##alitet
##aljon
##aljonen
##all
##alla
##allag
##alle
##allen
##aller
##alleri
##alleriet
##allet
##allian
##alliansen
##alls
##ally
##alm
##alo
##alog
##alogi
##alon
##alp
##als
##alsjøen
##alsveien
##alt
##alta
##alte
##alter
##alth
##althe
##alv
##alven
##alvøya
##aly
##am
##ama
##amal
##aman
##amar
##amas
##amask
##amaskin
##amb
##amba
##amband
##ambandet
##ambar
##ambarus
##ame
##ameister
##amen
##ament
##amenter
##amentet
##amer
##ameratene
##amerikan
##amerikansk
##amerikanske
##ames
##amester
##amesterskapet
##amet
##amfunn
##amfunnet
##ami
##amia
##amikk
##amil
##amin
##amisk
##amiske
##amling
##amme
##ammen
##ammens
##ammer
##amn
##amnet
##amo
##amos
##amoto
##amp
##ampa
##ampen
##amper
##ampton
##ams
##amt
##an
##ana
##anal
##analen
##analy
##analyse
##analyt
##anar
##anas
##ance
##and
##anda
##ande
##andel
##andemien
##anden
##ander
##andi
##andid
##ando
##andong
##andra
##andre
##andro
##ands
##andslaget
##andt
##andør
##andører
##andørs
##ane
##anen
##anene
##aner
##anere
##anerne
##anes
##anfor
##ang
##anga
##ange
##angel
##angeliet
##angelo
##angen
##angene
##anger
##angeren
##ango
##angrep
##angrepet
##angs
##ani
##ania
##anidae
##anis
##anisme
##anje
##ank
##anke
##anken
##anker
##anlegg
##anlegget
##anmar
##ann
##anna
##anne
##annelse
##annen
##anner
##annes
##annet
##anni
##annia
##annias
##annon
##ano
##anol
##anon
##anor
##anos
##ans
##ansar
##ansas
##anse
##anseløp
##ansen
##ansene
##ansens
##anser
##ansere
##ansert
##anserte
##anses
##ansesenter
##anset
##ansett
##ansje
##ansjen
##ansk
##anske
##ansler
##anst
##anstalt
##ansvar
##ansvaret
##ansvarlig
##ant
##anta
##antar
##ante
##anten
##antene
##anter
##antet
##anti
##antik
##antikken
##antisk
##antiske
##anto
##antrop
##ants
##antz
##anu
##anus
##any
##anz
##ao
##ap
##apa
##apar
##aparte
##ape
##apen
##aper
##apest
##apet
##apeut
##api
##apir
##apningen
##apo
##apolis
##app
##appa
##appar
##aprisen
##aps
##apt
##ar
##ara
##arab
##arag
##arane
##arar
##arat
##arate
##arbeid
##arbeide
##arbeidene
##arbeider
##arbeidere
##arbeiderne
##arbeidet
##arch
##ard
##ardal
##arden
##arder
##ardo
##ards
##are
##areal
##arealet
##arek
##aren
##arena
##arene
##arer
##ares
##aret
##arets
##arev
##arez
##arg
##ari
##aria
##arias
##ariat
##arig
##arige
##arin
##arina
##aring
##ario
##aris
##arisk
##ariske
##arit
##arius
##ark
##arka
##arken
##arker
##arki
##arkiet
##arkite
##arkitekt
##arkitektur
##arkiv
##arkivet
##arks
##arkt
##arktiske
##arl
##arm
##arme
##armen
##armer
##arn
##arnet
##aro
##arp
##arrang
##arriere
##arrieren
##arriket
##ars
##arskontrakt
##arskrigen
##art
##arta
##artal
##artar
##arte
##arten
##artene
##arter
##artet
##arth
##arti
##artiet
##artikkel
##artikler
##artiller
##artist
##artisten
##arus
##arv
##arven
##ary
##as
##asa
##asaki
##asar
##asc
##ase
##asen
##aser
##ash
##ashi
##asi
##asia
##asiatiske
##asin
##asiner
##asis
##asitet
##asiteten
##asj
##asje
##asjen
##asjer
##asjon
##asjonar
##asjonen
##asjonene
##asjoner
##asjons
##asjøen
##ason
##asp
##ass
##assdraget
##asse
##assen
##asser
##asset
##assistent
##asso
##ast
##asta
##astad
##aste
##aster
##asteroide
##astisk
##astra
##astro
##asy
##at
##ata
##atab
##atak
##atal
##atan
##atane
##atar
##ate
##ated
##atelse
##aten
##atene
##atens
##ater
##ateriale
##atert
##aterte
##ates
##atest
##atet
##ath
##atha
##athan
##ather
##athlon
##ati
##atia
##atikk
##ating
##atio
##ation
##ational
##ations
##atisk
##atiske
##atius
##ativ
##ative
##ativer
##ativt
##atl
##atlon
##atn
##atnet
##atning
##ato
##atoes
##atom
##aton
##ator
##atoren
##atorer
##atorisk
##atoriske
##atorium
##atra
##atre
##atret
##ats
##atsen
##atsu
##att
##atta
##atte
##atten
##attes
##attle
##atu
##atum
##atur
##ature
##aturen
##atus
##atz
##atør
##atøren
##atører
##au
##aud
##auer
##auge
##augen
##aur
##aus
##aust
##aux
##av
##ava
##avag
##avatnet
##avdeling
##avdelingen
##avdelinger
##ave
##aven
##avene
##aver
##aves
##avet
##avgift
##avheng
##avi
##avia
##avier
##avik
##avis
##avisa
##avisen
##avl
##avn
##avnene
##avnet
##avstand
##avstem
##avtale
##avtalen
##aw
##awi
##ax
##ay
##aya
##ayer
##az
##b
##ba
##bab
##bach
##back
##bad
##bahn
##bai
##bak
##bakgrunn
##bakk
##bakke
##bakken
##bakker
##bal
##ball
##ban
##band
##banden
##bandet
##bandy
##bane
##banen
##baner
##bank
##banken
##banks
##banksjef
##bant
##bar
##bard
##bare
##barhet
##barn
##barnet
##bart
##bas
##base
##basen
##basert
##baserte
##basis
##bass
##basseng
##bat
##batar
##baten
##batene
##bater
##batross
##batt
##batter
##bay
##bb
##bbe
##bc
##be
##bebygg
##bebyggelse
##bec
##beck
##bed
##bedrift
##befolk
##befolkningen
##beg
##behandling
##behov
##bei
##beid
##beide
##bein
##beina
##beinet
##bek
##bekk
##bekken
##bel
##bell
##bels
##belte
##belteasteroide
##beltet
##ben
##benhavn
##bens
##bent
##ber
##bere
##bered
##berett
##berg
##bergen
##berger
##berget
##bergs
##berland
##bern
##berne
##berry
##bers
##bert
##bes
##best
##bestanden
##beste
##bestem
##bestemmelse
##bet
##betegnelse
##betennelse
##betet
##beth
##beveg
##bevegelse
##bevegelsen
##bevegelser
##bey
##bi
##bia
##biblio
##bibliotek
##biblioteket
##bid
##bie
##bil
##bild
##bilde
##bilder
##bildet
##biler
##bilete
##biletet
##bill
##bille
##billene
##biller
##bin
##bind
##biner
##bing
##bir
##bird
##bis
##bisk
##biskop
##bisped
##bit
##bjel
##bjør
##bjørg
##bjørn
##bl
##bla
##blad
##bladene
##blader
##bladet
##blas
##ble
##bler
##blikk
##blo
##blod
##blokk
##blokker
##blom
##blomst
##blomster
##bo
##boa
##board
##bob
##bod
##bodd
##bodde
##body
##boe
##boende
##boer
##bog
##bok
##boka
##boken
##boks
##bokser
##bol
##bolig
##boliger
##bom
##bombe
##bon
##bone
##bonne
##book
##bor
##bord
##borg
##borger
##borgs
##born
##borough
##bos
##bot
##botn
##botnen
##bott
##botten
##bottens
##bour
##bourg
##bourne
##bow
##box
##boy
##br
##bra
##brakte
##bran
##brand
##brann
##brannen
##bransjen
##braten
##bre
##brecht
##bred
##bredden
##brede
##breen
##breidda
##brekt
##brem
##bren
##bret
##brett
##brev
##bri
##brid
##bridge
##brig
##brigade
##brigt
##bring
##bringende
##brit
##bro
##broen
##bron
##bror
##broren
##brot
##brotet
##bru
##brua
##bruck
##brudd
##bruddet
##bruk
##brukar
##bruken
##bruker
##brukere
##bruket
##bruks
##brukt
##brun
##brune
##brunt
##brutt
##bry
##bryt
##bryter
##brød
##brøt
##bs
##bu
##bud
##budet
##bue
##buen
##buk
##bukk
##bukt
##bukta
##bukten
##bul
##bum
##bun
##bund
##bunn
##bunnen
##bur
##burg
##burger
##burgh
##burn
##bury
##bus
##busjon
##buss
##bussen
##busser
##bust
##but
##buterte
##butikk
##butikker
##by
##byc
##bye
##byen
##byene
##byer
##byg
##bygd
##bygda
##bygde
##bygg
##bygge
##byggende
##bygger
##bygget
##bygging
##bygginga
##byggingen
##bygning
##bygningen
##bygninger
##byl
##byr
##byra
##byraet
##bys
##bytte
##bæk
##bær
##bærer
##bærere
##bø
##bøkene
##bøker
##bøl
##bølge
##bølger
##bøn
##bør
##bøy
##c
##ca
##cadem
##cal
##can
##cana
##cao
##car
##card
##cas
##cast
##castle
##cat
##cay
##cc
##cci
##ccia
##ccio
##ce
##ceae
##ced
##cel
##cell
##celle
##cellene
##celler
##cen
##cent
##cephal
##cept
##cer
##ces
##cester
##ch
##cha
##chan
##chang
##che
##chel
##chen
##cheng
##cher
##ches
##chest
##chester
##chez
##chi
##chin
##chmann
##cho
##chow
##chs
##chsen
##cht
##chten
##chuan
##chus
##chwitz
##chy
##ci
##cia
##cial
##cid
##cies
##cil
##cin
##cing
##cinn
##cio
##cion
##cional
##cis
##ck
##cka
##cke
##ckel
##cken
##cker
##ckers
##cket
##ckl
##ckland
##cklenburg
##cks
##cl
##cla
##clair
##cle
##cli
##clude
##co
##cock
##col
##com
##con
##cons
##cont
##cop
##core
##cos
##cot
##cott
##cou
##court
##cr
##craft
##cross
##cs
##ct
##ctic
##ction
##ctions
##ctor
##ctr
##cts
##ctus
##cu
##cuit
##cul
##cula
##cup
##cupen
##cus
##cy
##cz
##d
##da
##dad
##dag
##dagen
##dager
##dahl
##dal
##dale
##dalen
##dals
##dam
##damp
##dan
##dann
##dannelse
##dans
##dar
##dat
##data
##datter
##day
##dd
##dde
##de
##dea
##debut
##defin
##dekk
##dekke
##dekkende
##dekket
##dekt
##del
##dela
##delag
##dele
##deleg
##delege
##delen
##delene
##deler
##deles
##delig
##delige
##delighet
##deling
##delinga
##delingen
##delinger
##deller
##delse
##delsen
##delser
##delses
##delt
##deltak
##delte
##dem
##demokrat
##demokrater
##demort
##den
##dene
##denes
##dens
##departementet
##der
##dere
##deren
##deri
##derk
##derkopp
##derkopper
##derne
##ders
##dert
##derte
##derup
##des
##design
##dessa
##det
##deus
##df
##di
##die
##dig
##dige
##diksjon
##dikt
##din
##ding
##dingen
##direktoratet
##direktør
##dis
##dist
##distrikt
##distrikter
##distriktet
##div
##divisjon
##divisjonen
##do
##dog
##dom
##domen
##dommen
##dommer
##domstol
##don
##donald
##dong
##dor
##dorf
##dos
##dp
##dr
##dra
##drag
##draget
##drakt
##dre
##dres
##dress
##drev
##drevet
##drevne
##dri
##drift
##driften
##driv
##dro
##drum
##ds
##dsel
##dt
##dte
##du
##dy
##dynastiet
##dyr
##dø
##dømet
##dømmet
##e
##ea
##ear
##eater
##eb
##ec
##ed
##eda
##edag
##edagen
##edagog
##edal
##edalen
##edd
##edde
##edderkopp
##edderkopper
##ede
##edel
##eden
##edene
##edepartementet
##eder
##edes
##edet
##edi
##edia
##edie
##edien
##ediens
##edier
##edikt
##edirektør
##edlem
##edlemmer
##edning
##edo
##edom
##edommen
##edon
##edonia
##edra
##edrag
##edrakt
##edrift
##eds
##edskap
##edt
##edy
##edyr
##ee
##eff
##effekt
##eg
##ega
##egaande
##egaard
##egang
##egangen
##egard
##egarden
##egata
##ege
##egel
##egen
##egenskaper
##eger
##egg
##egitar
##egl
##egle
##egler
##egn
##egne
##egnelse
##egnelsen
##egner
##egnet
##ego
##egr
##egra
##egrass
##egren
##egrupp
##egruppa
##egruppe
##egruppen
##egrupper
##eier
##eik
##eister
##ek
##eks
##eksjon
##ekt
##ekw
##el
##ela
##elag
##elaget
##elagt
##eland
##elandet
##elandslag
##elandslaget
##elast
##elat
##elberg
##eld
##elda
##elde
##elder
##eldig
##elding
##eldt
##ele
##eled
##eleddet
##eleder
##eleg
##elege
##elekt
##element
##elen
##eler
##eles
##elet
##elever
##eley
##eli
##elia
##elier
##elig
##elige
##eliggende
##elighet
##elignende
##elik
##elin
##eline
##elinje
##elinjen
##elinjer
##elis
##elisk
##eliste
##elisten
##elius
##eliv
##elivet
##elk
##ell
##ella
##ellan
##elle
##ellen
##ellene
##eller
##elles
##ellesskap
##ellet
##elli
##elling
##ello
##ellom
##ells
##ellschaft
##ellum
##ellus
##elly
##elm
##elmessig
##elmessige
##eln
##elo
##elov
##eloven
##els
##else
##elsen
##elsene
##elsens
##elser
##elses
##elsesp
##elsess
##elskap
##elskaper
##elskapet
##elt
##elte
##eltet
##elton
##elu
##elv
##elva
##elven
##ely
##elærer
##elø
##eløp
##eløper
##eløs
##eløse
##em
##ema
##emal
##eman
##emann
##emark
##emaskin
##emat
##emb
##ember
##eme
##ement
##ementer
##ementet
##emi
##emin
##emo
##emon
##emperatur
##emun
##emus
##emy
##en
##ena
##enberg
##enburg
##ence
##end
##enda
##endal
##ende
##enden
##endene
##endeplass
##ender
##endet
##endig
##endige
##ending
##endinger
##endorf
##endra
##endring
##endringer
##endt
##endte
##endør
##endørs
##ene
##enen
##ener
##energi
##enerne
##enes
##enez
##enfor
##eng
##enga
##engd
##engde
##engden
##engder
##enge
##engel
##engelsk
##engen
##engene
##enger
##engsel
##engt
##enhet
##enheter
##ening
##enk
##enn
##ennelse
##ennene
##ennet
##ennis
##ens
##ensburg
##ensch
##ense
##ensel
##ensen
##enser
##ensis
##ensjon
##enskom
##enson
##ensson
##ensus
##ent
##enta
##ental
##entant
##entar
##ente
##enten
##entene
##enter
##enterer
##enteres
##enteret
##entering
##entert
##enterte
##entes
##entet
##enthal
##entin
##enting
##entleg
##entlege
##entlig
##entlige
##ento
##entral
##entre
##entrum
##ents
##ep
##eper
##er
##era
##erande
##ere
##ereg
##erek
##erekord
##eremon
##eren
##erende
##erep
##erer
##eres
##eret
##erg
##eri
##ering
##eringen
##eringer
##erings
##ermin
##ern
##erne
##ernes
##ero
##erob
##ers
##ert
##ertain
##ertal
##ertall
##ertallet
##erte
##erten
##erter
##ertiden
##ertil
##erto
##erton
##erty
##es
##esa
##esdal
##ese
##esen
##eser
##eset
##esh
##esi
##esia
##esiske
##esj
##esjon
##eslag
##esn
##esnitt
##eson
##esong
##esongen
##esp
##espel
##espill
##espiller
##espillet
##espor
##esport
##esprak
##ess
##essa
##esse
##essel
##essen
##esser
##essig
##essige
##ession
##essor
##essoren
##est
##esta
##estad
##estaende
##estasjon
##estat
##este
##ested
##esten
##ester
##esterskapet
##esti
##estoff
##estrand
##estre
##esund
##esy
##et
##eta
##etab
##etablerte
##etak
##ete
##eten
##eter
##etere
##eterne
##etet
##eth
##ethe
##eti
##etid
##etiden
##etikk
##etil
##etisk
##etiske
##etning
##etninga
##etningen
##etningene
##etninger
##eto
##eton
##etr
##etra
##etre
##ets
##etsjen
##etsk
##ett
##etta
##ettar
##ette
##etten
##ettene
##etter
##ettes
##ettet
##etti
##etting
##etto
##etts
##ettverk
##etty
##ety
##etz
##eus
##ev
##evne
##ey
##ez
##f
##fa
##fab
##fabr
##fabrik
##fabrikk
##fabrikken
##fag
##faget
##faglig
##faktor
##fal
##fald
##fale
##falen
##fall
##fallende
##fallet
##falt
##falz
##famil
##familie
##familien
##familier
##fang
##fangst
##far
##farar
##fare
##faren
##farga
##farge
##fargede
##fargen
##farger
##farget
##faring
##farkt
##fart
##farten
##fartøy
##fas
##fast
##faste
##fat
##fatt
##fattende
##fatter
##fattet
##fc
##fe
##fect
##feil
##feksjon
##fekt
##fekte
##fektur
##fekturet
##fel
##feld
##feldt
##fell
##felle
##feller
##felt
##feltet
##fem
##fen
##fene
##fer
##ferd
##ferden
##ferdig
##ferdige
##fessor
##fest
##feste
##festet
##festival
##festivalen
##fet
##ff
##ffa
##ffe
##ffekt
##ffekten
##ffel
##ffelse
##ffen
##ffer
##fferson
##ffes
##ffet
##ffield
##ffin
##fi
##fia
##fiber
##field
##figur
##figuren
##figurer
##fik
##fil
##film
##filmen
##filmer
##fin
##finale
##finalen
##finans
##fing
##finger
##finn
##fir
##fire
##firma
##firmaet
##fis
##fish
##fisk
##fiske
##fisker
##fisket
##fj
##fjeld
##fjeldske
##fjell
##fjella
##fjellene
##fjellet
##fjor
##fjord
##fjorden
##fjær
##fjør
##fl
##fla
##flagg
##flata
##flate
##flaten
##flater
##fle
##flekk
##flekker
##fler
##flikt
##flokk
##flokkurin
##flot
##flue
##fluer
##flukt
##fly
##flyt
##fløy
##fløyen
##fo
##fog
##fokus
##fol
##fold
##folk
##folket
##fon
##fond
##fondet
##fonen
##foner
##font
##for
##forb
##forbindel
##forbindelse
##forbindelsen
##forbindelser
##forbud
##forbund
##forbundet
##ford
##fordeling
##fordshire
##fore
##fored
##forel
##foreldre
##foren
##forening
##foreningen
##foreninger
##forenings
##forest
##forestillinger
##foretak
##forfatt
##forfattar
##forfatter
##forhold
##forholdene
##forholdet
##forlaget
##form
##forma
##formal
##formann
##formasjon
##formasjonen
##format
##formede
##formen
##formene
##former
##formes
##formet
##formid
##forretning
##fors
##forsamling
##forsamlingen
##forsk
##forsker
##forskere
##forskeren
##forskjell
##forskning
##forslag
##forster
##forsvar
##forsvaret
##forsvarets
##forsy
##forsyning
##forsøk
##fort
##fortell
##forum
##forvalt
##forvaltning
##fos
##foss
##fossen
##fot
##fotball
##fotograf
##found
##fr
##fra
##fram
##fran
##fre
##fred
##frekvens
##frem
##fri
##frid
##frie
##fried
##frihet
##fritt
##front
##fronten
##fru
##frukt
##frø
##fs
##fsen
##ft
##fta
##fte
##ften
##ftene
##fter
##ftes
##ftet
##fting
##ftt
##fu
##fug
##fugl
##fuglar
##fuglen
##fuglene
##fugler
##fuhrer
##ful
##full
##fulle
##fullmektig
##fullt
##fun
##fund
##funksjon
##funksjonen
##funn
##funnet
##fur
##furt
##fus
##fy
##fyl
##fylke
##fylling
##fylt
##fylte
##fyr
##fys
##fysikk
##fø
##fød
##fødde
##føder
##født
##fødte
##føl
##følelse
##følg
##følge
##følgen
##følgje
##før
##føra
##førar
##føre
##førelsen
##førende
##fører
##føreren
##føres
##føret
##føring
##føringa
##føringen
##føringer
##førsel
##førselen
##ført
##førte
##g
##ga
##gaande
##gaard
##gade
##gaende
##gal
##gam
##gande
##gang
##gangen
##ganger
##gar
##gard
##garde
##garden
##garder
##gart
##gas
##gass
##gaste
##gat
##gata
##gatan
##gate
##gaten
##gau
##gave
##gaven
##gaver
##gd
##gde
##ge
##gebir
##gede
##geir
##gelse
##geme
##gen
##gend
##gende
##gender
##gene
##gener
##general
##gens
##gent
##ger
##gerald
##gere
##geren
##germus
##gerne
##gernes
##gers
##gert
##gerø
##ges
##gesen
##get
##gete
##gg
##gga
##gge
##ggen
##gger
##gget
##gh
##gi
##gia
##gie
##gift
##giftning
##gin
##ging
##gio
##gionen
##gir
##gis
##gitar
##gitt
##giv
##givelse
##giver
##givning
##gj
##gja
##gjande
##gjar
##gjaren
##gje
##gjeld
##gjen
##gjeng
##gjengere
##gjennom
##gjenstander
##gjer
##gjev
##gjevar
##gjorde
##gjort
##gjør
##gjøre
##gjøring
##gl
##glans
##gn
##gne
##gner
##gnet
##go
##gods
##gon
##gor
##got
##gow
##gr
##gra
##grad
##graden
##grader
##gram
##gran
##grav
##graver
##gre
##gren
##grener
##grens
##grensa
##grense
##grensen
##grensene
##grenser
##grep
##grev
##greve
##gro
##ground
##gru
##grunn
##grunnen
##grunnlag
##grunnlaget
##grupp
##gruppa
##gruppe
##gruppen
##gruppene
##grupper
##gry
##grønn
##grønne
##gs
##gt
##gte
##gu
##gud
##guden
##gul
##gull
##gy
##h
##ha
##hab
##habil
##had
##hae
##hag
##hage
##hagen
##hai
##hal
##hald
##halde
##haldet
##hale
##hall
##hallen
##halt
##halvaret
##halvøya
##ham
##hama
##hamar
##hammer
##hamn
##han
##hand
##handball
##handel
##handelen
##handler
##handlet
##handling
##handlingen
##handlingene
##handlinger
##hao
##har
##hara
##hard
##hardt
##harina
##harmon
##hart
##has
##hast
##hastighet
##hat
##hatt
##hattan
##haug
##haugen
##hauger
##haus
##hausen
##hav
##haven
##havet
##havn
##havnen
##haw
##hawks
##hay
##hd
##he
##hea
##head
##hed
##heed
##hei
##heia
##heid
##heim
##heimen
##heimer
##hein
##heit
##heita
##hel
##hell
##helle
##helm
##helt
##hem
##hen
##heng
##hengen
##henger
##hens
##her
##herad
##here
##herine
##herre
##herred
##herredømme
##herren
##hers
##hert
##hertug
##hes
##hest
##het
##heten
##hetene
##hetens
##heter
##hf
##hg
##hi
##hib
##hic
##hil
##hild
##hill
##him
##hin
##hina
##hing
##hir
##hire
##his
##histor
##historie
##historien
##historiker
##historisk
##historiske
##hjel
##hjelp
##hjem
##hjemmet
##hjert
##hjul
##hjulet
##hjør
##hk
##hl
##hle
##hlen
##hlon
##hm
##hman
##hn
##hne
##ho
##hod
##hode
##hoder
##hodet
##hoe
##hof
##hoff
##hog
##hol
##hold
##holde
##holden
##holder
##holdes
##holdet
##holdig
##holdning
##holdt
##holm
##holmen
##holms
##holt
##hon
##hop
##hopp
##hor
##hord
##hordland
##horn
##hos
##host
##hot
##hou
##houg
##house
##hout
##hov
##hoved
##hoven
##hovud
##how
##hr
##hra
##hre
##hrer
##hs
##ht
##hu
##hua
##huang
##hud
##hui
##hul
##hull
##hum
##hund
##hunder
##hur
##hurst
##hus
##husene
##huset
##hv
##hval
##hvel
##hver
##hvert
##hvil
##hvile
##hvit
##hvite
##hy
##hyd
##hyl
##hyn
##hytta
##hytte
##hæren
##hø
##høg
##høgda
##høgskole
##høgskolen
##hør
##høv
##høy
##høyde
##høyden
##høyskole
##i
##ia
##iac
##iaceae
##iaden
##iae
##iah
##iak
##ial
##iale
##ialekene
##ialekt
##ialer
##ialet
##iam
##iamesterskapet
##ian
##iana
##iande
##iane
##ianer
##ianere
##ianerne
##iang
##iani
##ianismen
##iano
##ians
##iansk
##ianske
##iant
##ianus
##iao
##iar
##iard
##iarder
##iaret
##ias
##iast
##iat
##iater
##iation
##ib
##iba
##ibal
##iban
##ibar
##ibel
##iber
##ibia
##ibir
##ibl
##iblant
##ible
##iblio
##ibo
##iburg
##ibus
##ic
##ica
##ical
##ican
##ice
##ices
##icester
##ich
##iche
##ichen
##icher
##ichi
##icht
##ici
##icia
##icip
##ick
##icks
##ico
##icon
##ics
##ict
##iction
##icum
##icus
##icy
##icz
##id
##ida
##idad
##idae
##idan
##idane
##idar
##idas
##iday
##idd
##idda
##idde
##iddel
##ide
##idea
##iden
##idene
##idens
##ident
##idepartementet
##ider
##idere
##idert
##iderte
##ides
##idet
##idge
##idi
##idian
##idig
##idige
##idion
##idis
##idler
##ido
##idrett
##ids
##idt
##ie
##ied
##iel
##ield
##iell
##ielle
##ielt
##iem
##ien
##ience
##iendom
##iene
##ienes
##ienne
##iens
##ient
##ier
##iere
##ieren
##ieres
##ieri
##iering
##ierne
##iers
##iert
##ierte
##ierung
##ies
##iesen
##iest
##iet
##iets
##ieu
##iev
##iew
##if
##ifa
##ife
##ifer
##ifest
##ifestivalen
##iff
##ific
##ifik
##ifikasjon
##ifikat
##ifisering
##ifisert
##ifiserte
##ifjell
##ifor
##iform
##iformes
##ifra
##ift
##ifte
##ifter
##iftet
##ig
##iga
##igan
##igar
##igd
##ige
##igede
##igen
##iger
##igers
##iges
##iget
##igg
##iggs
##igh
##ighet
##igheten
##ighetene
##igheter
##ighets
##ight
##ighter
##ighton
##ights
##igi
##ign
##igna
##ignal
##igne
##igner
##ignok
##ignon
##igny
##igo
##igr
##igt
##igu
##igur
##ih
##ii
##iidae
##iii
##iinae
##iing
##ij
##ija
##iji
##ijk
##ijn
##ik
##ika
##ikaen
##ikal
##ikan
##ikaner
##ikansk
##ikanske
##ikant
##ikar
##ikarane
##ikarar
##ikaren
##ikasjon
##ikasjonen
##ikasjoner
##ikat
##ike
##iken
##ikene
##iker
##ikere
##ikeren
##ikerer
##ikerne
##ikert
##ikerte
##iket
##ikevel
##ikh
##iki
##ikk
##ikkar
##ikke
##ikkel
##ikkelen
##ikken
##ikkene
##ikkens
##ikker
##ikkerhet
##ikkert
##ikler
##iko
##ikon
##ikos
##ikre
##ikring
##iks
##iksen
##iksjon
##ikt
##ikte
##ikter
##iktet
##iktig
##iktige
##ikum
##il
##ila
##iland
##ild
##ilda
##ilde
##ilder
##ildet
##ilding
##ildsen
##ile
##ilen
##ilene
##iler
##iles
##ilet
##iley
##ilget
##ili
##ilin
##iling
##ilis
##ilitet
##iliteter
##iljø
##ill
##illa
##illand
##ille
##illen
##illende
##illene
##iller
##illere
##illes
##illet
##illing
##illinga
##illingen
##illinger
##illings
##illion
##illit
##illo
##illon
##illy
##ilo
##ilog
##ils
##ilsynet
##ilt
##iltak
##ilte
##ilton
##ilus
##ily
##ilyn
##im
##ima
##iman
##imar
##imate
##ime
##imellom
##imen
##imensjon
##iment
##imenter
##imer
##imerte
##imet
##imeter
##imi
##imil
##imir
##imo
##imon
##imore
##imot
##imp
##ims
##imus
##in
##ina
##inae
##inal
##inam
##inane
##inar
##inas
##inasjon
##inav
##include
##ind
##inda
##indal
##inde
##indel
##inden
##inder
##indes
##india
##indiske
##indre
##indret
##indust
##industri
##industrien
##ine
##inen
##inene
##inente
##iner
##inere
##inering
##inerne
##inert
##inerte
##ines
##iness
##inet
##inett
##inettet
##informasjon
##ing
##inga
##ingane
##ingar
##inge
##ingen
##ingene
##ingenes
##ingeniør
##ingens
##inger
##inget
##ingham
##ingo
##ingrad
##ings
##ingsf
##ingsomradet
##ington
##ingu
##ini
##inia
##inidae
##ining
##ininga
##iningar
##inis
##inist
##inister
##inius
##injen
##ink
##inka
##inki
##inn
##inna
##inne
##inneha
##innen
##innene
##inner
##innere
##innes
##innet
##innhold
##innholdet
##inns
##innsats
##innspill
##innspillinger
##inntekt
##inntekter
##ino
##inor
##inos
##inosa
##inov
##ins
##insar
##insen
##insk
##inske
##inski
##inson
##inspekt
##inspektør
##inst
##instit
##institusjon
##institusjoner
##institutt
##instituttet
##instrum
##instrument
##instrumenter
##int
##inte
##inten
##intend
##inter
##interesser
##intet
##into
##inton
##intosh
##inus
##inær
##io
##iocen
##iod
##iografi
##iok
##ioksid
##iol
##iolog
##iologi
##iom
##ion
##ione
##ionen
##ionens
##ioner
##ions
##iop
##ior
##ios
##iot
##iott
##ious
##ip
##ipa
##ipe
##ipedia
##ipel
##ipend
##iper
##ipl
##ipler
##iplin
##ipliner
##iplom
##ipolit
##ipp
##ippel
##ipper
##ippet
##ipping
##ipro
##ips
##ipt
##ique
##ir
##ira
##iras
##irasjon
##irat
##ird
##ire
##ireg
##iregiment
##irektoratet
##irektør
##iren
##irer
##ires
##iret
##iri
##irig
##iris
##irk
##irka
##irke
##irkelen
##irken
##irkende
##irkning
##irkninger
##irn
##iro
##iros
##irov
##irs
##irus
##is
##isa
##isasjon
##isch
##ische
##ischen
##ischer
##isches
##ise
##isen
##iser
##isera
##isere
##iserende
##iserer
##iseres
##isering
##iseringa
##iseringen
##iseringer
##iserings
##iserne
##isert
##iserte
##ises
##iset
##ish
##isha
##ishavet
##ished
##ishi
##isi
##isin
##ising
##ision
##isisme
##isismen
##isitet
##isium
##isj
##isjon
##isjonen
##isjoner
##isk
##iska
##iskap
##iske
##iskop
##iskoper
##isky
##islav
##ism
##isme
##ismen
##ismens
##ison
##isont
##isp
##isped
##iss
##issa
##isse
##issement
##issen
##issene
##isser
##ission
##issær
##ist
##ista
##istad
##istan
##istane
##istans
##istar
##iste
##isten
##istene
##istenes
##istens
##istent
##ister
##isteret
##istert
##istet
##istikk
##istikken
##istisk
##istiske
##isto
##istol
##istor
##istpartiet
##istr
##istre
##istrene
##istret
##istrikt
##istry
##ists
##it
##ita
##itage
##itaine
##ital
##italet
##itan
##itar
##itas
##itasjon
##itat
##itativ
##itch
##ite
##ited
##iteen
##iten
##itene
##itenskap
##iter
##itere
##itering
##iters
##itert
##iterte
##ites
##itet
##iteten
##iteter
##ith
##iti
##ities
##ition
##itions
##itis
##itiv
##itive
##itivt
##itler
##itne
##ito
##iton
##itor
##itori
##itra
##itre
##its
##itsa
##itsch
##itsj
##itt
##itta
##ittane
##ittar
##itte
##ittel
##ittelen
##itten
##ittene
##itter
##itteratur
##ittert
##ittet
##ittisk
##ittiske
##itu
##itude
##itur
##itus
##itusjon
##ity
##itz
##itzer
##itær
##itære
##itært
##itør
##iu
##ium
##ius
##iv
##iva
##ival
##ivalen
##ivaler
##ivan
##ive
##iven
##ivende
##ivene
##iver
##ivere
##ivers
##ivert
##iverte
##ives
##ivet
##ivind
##ivisjon
##ivitet
##ivo
##ivt
##ix
##iy
##iya
##iyah
##iz
##iza
##ization
##ize
##izer
##izhou
##ið
##iø
##iør
##iøs
##iøse
##iøst
##j
##ja
##jab
##jah
##jak
##jakk
##jakt
##jal
##jalet
##jam
##jan
##jana
##jande
##jane
##jansk
##jar
##jarane
##jarar
##jaren
##jarvi
##jas
##jast
##jat
##jav
##javri
##jaz
##jazz
##jd
##je
##jed
##jeden
##jef
##jeft
##jeg
##jeger
##jekt
##jel
##jeld
##jell
##jeller
##jem
##jemper
##jen
##jene
##jeneste
##jenesten
##jenester
##jenko
##jens
##jent
##jente
##jer
##jere
##jerg
##jering
##jeringa
##jeringen
##jern
##jerne
##jernet
##jert
##jerte
##jes
##jeselskap
##jest
##jet
##jev
##jeva
##jevitsj
##jevne
##jevo
##ji
##jia
##jiang
##jin
##jing
##jinga
##jingane
##jingar
##jk
##jn
##jo
##jobb
##jof
##joh
##johka
##jok
##jol
##jon
##jonen
##jong
##jongen
##jor
##jord
##jorde
##jorden
##jort
##jorte
##jot
##jou
##journ
##journalist
##jov
##ju
##jub
##juk
##jul
##jump
##jun
##junkt
##jut
##jutant
##jylland
##jær
##jø
##jøen
##jøl
##jøn
##jønn
##jør
##jøre
##jøres
##jøret
##jøring
##jørn
##k
##ka
##kab
##kadem
##kai
##kal
##kall
##kalle
##kalt
##kam
##kamer
##kammer
##kammeret
##kamp
##kampen
##kampene
##kamper
##kan
##kanalen
##kandid
##kandidat
##kanis
##kanon
##kant
##kanten
##kanter
##kap
##kapasitet
##kapell
##kapital
##kapp
##kaptein
##kar
##kara
##karane
##karar
##karbon
##karriere
##karrieren
##kart
##kas
##kasse
##kassen
##kast
##kaste
##kat
##katastro
##kateg
##ke
##keberg
##kede
##kee
##kefamilien
##keh
##kehus
##kehuset
##keiser
##kel
##kelen
##kem
##ken
##kende
##kene
##kenen
##kener
##kenes
##ker
##kere
##keren
##kerne
##kers
##kes
##kess
##kest
##ket
##kete
##key
##kh
##ki
##kil
##kilde
##kilden
##kilometer
##kin
##kina
##king
##kingen
##kins
##kinson
##kir
##kirchen
##kirk
##kirke
##kirken
##kirker
##kis
##kj
##kje
##kjel
##kjem
##kjemp
##kjempe
##kjemper
##kjempet
##kjen
##kjend
##kjende
##kjent
##kjente
##kjer
##kjerne
##kjernen
##kjert
##kjær
##kjø
##kjøl
##kjøling
##kjølt
##kjønn
##kjør
##kjører
##kjøret
##kjøring
##kjøringen
##kjøtt
##kk
##kka
##kkar
##kke
##kkede
##kkel
##kkelen
##kken
##kkende
##kkene
##kker
##kkere
##kkert
##kkes
##kket
##kking
##kkje
##kko
##kl
##kla
##klam
##klar
##klaring
##klart
##klass
##klasse
##klassen
##klasser
##klat
##kle
##kled
##kledd
##kledde
##klede
##kledning
##klene
##kler
##klet
##klima
##klin
##kling
##klipp
##klo
##klor
##kloster
##klosteret
##klub
##klubb
##klubben
##klubber
##kluder
##klus
##klær
##km
##kn
##kna
##knad
##knaden
##kne
##knikk
##kning
##kningen
##kninger
##ko
##kob
##kobling
##kode
##kok
##kol
##kolleg
##kolon
##kom
##kombin
##komedie
##komite
##komiteen
##komm
##kommand
##kommander
##kommanderende
##kommando
##kommen
##kommende
##komment
##kommer
##kommisjonen
##kommun
##kommune
##kommunen
##kommuner
##kommunikasjon
##komne
##kompan
##kompani
##kompetanse
##kompon
##komst
##komsten
##komster
##kon
##konfer
##konferanse
##konferansen
##kong
##konge
##kongen
##kongressen
##konkurr
##konkurranse
##konkurransen
##konkurranser
##konom
##kons
##konsert
##konservat
##konstru
##konstruksjon
##konsul
##kont
##kontin
##kontor
##kontoret
##kontr
##kontrakt
##kontrol
##kontroll
##konvensjon
##konvensjonen
##kop
##koping
##kopings
##kor
##korder
##kore
##korn
##korpor
##korps
##korpset
##kors
##korset
##kort
##kos
##kost
##kov
##kow
##kp
##kr
##kra
##kraft
##kraften
##kraftig
##kraftverk
##krav
##kre
##kreft
##krefter
##kreis
##krep
##kreps
##kret
##kretari
##krets
##kretsen
##kretsene
##kretser
##kretær
##krev
##krig
##krigen
##krigene
##krigstiden
##krike
##kring
##krit
##kritiker
##kro
##kron
##krone
##kroppen
##kry
##ks
##ksam
##ksamen
##kse
##ksen
##kser
##ksjon
##ksjonen
##ksjoner
##ksom
##ksomhet
##ksomheten
##ksomrade
##ksomrader
##kson
##ksp
##ksped
##kspedisjon
##kspedisjonen
##kst
##ksten
##kt
##kta
##ktar
##kte
##ktede
##kten
##ktene
##kter
##ktere
##ktes
##ktet
##ktig
##ktige
##ktighet
##ktiv
##kton
##ktor
##ktorat
##ktoratet
##ktoren
##ktt
##ktur
##ktør
##ktører
##ktøy
##ku
##kul
##kull
##kultur
##kulturen
##kun
##kunst
##kunsten
##kunstner
##kur
##kurr
##kurs
##kusjon
##kut
##kv
##kval
##kvalitet
##kvart
##kvarter
##kvens
##kvensen
##kvent
##ky
##kyler
##kyrk
##kyrkja
##kyrkje
##kyst
##kysten
##l
##la
##lad
##lade
##ladesh
##lag
##lagd
##lagde
##lagene
##lager
##laget
##lagg
##lagget
##lagt
##lagte
##lah
##lain
##lam
##lamentet
##lan
##land
##landa
##lande
##landet
##landing
##lands
##landsk
##landskap
##landskapet
##landske
##lane
##lang
##lant
##lar
##laren
##las
##lash
##lass
##lasse
##lassen
##lasser
##last
##lat
##late
##laten
##later
##latt
##latte
##laug
##laup
##laus
##lav
##lay
##ld
##le
##lea
##led
##ledd
##lede
##leder
##ledere
##ledes
##ledet
##ledning
##ledningen
##leg
##legare
##legaste
##lege
##legen
##leger
##legg
##legge
##legger
##legges
##legget
##legging
##leggingen
##legionen
##legne
##lei
##leiar
##leie
##leif
##leik
##leikane
##leiken
##leir
##leiren
##leis
##lek
##lekene
##leker
##leks
##lekse
##lekt
##lekta
##lekten
##lem
##lema
##leman
##lemann
##lement
##lemer
##len
##lend
##lende
##lene
##leng
##ler
##lere
##leren
##lering
##lerne
##lers
##lert
##lerte
##lerud
##les
##lesn
##less
##lest
##lestad
##let
##lete
##leton
##lett
##lette
##leum
##lev
##leva
##levard
##leve
##levende
##lever
##ley
##leyball
##leys
##li
##lia
##lich
##lid
##lie
##lien
##life
##lig
##liga
##ligaen
##lige
##ligere
##liggande
##liggende
##liggender
##liggjande
##lighet
##ligheten
##ligheter
##light
##lignende
##ligste
##lik
##likasjon
##likasjoner
##like
##lim
##limer
##lin
##line
##lines
##ling
##linga
##lingar
##lingen
##lingene
##linger
##lings
##lington
##linja
##linje
##linjen
##linjene
##linjer
##lio
##lis
##lish
##lista
##liste
##listen
##listene
##lister
##litter
##litteratur
##litz
##liv
##livet
##lo
##lob
##lock
##log
##lok
##lokomot
##lon
##loo
##los
##loster
##lot
##lov
##loven
##low
##ls
##lu
##lubb
##lubben
##luft
##lund
##lunde
##lunden
##lus
##ly
##lyd
##lys
##lyst
##lyste
##lær
##lærer
##lø
##løkka
##lønn
##løp
##løper
##løpet
##løs
##løse
##løsning
##løsningen
##løst
##løy
##løytnant
##m
##ma
##macht
##mad
##maet
##mag
##magasin
##magasinet
##main
##major
##mak
##maker
##makt
##makten
##maktene
##makter
##mal
##malar
##maler
##maleri
##malerier
##malet
##maling
##malm
##malt
##man
##mand
##mane
##mangel
##manland
##mann
##mannen
##manns
##mans
##mansk
##manske
##manuel
##mar
##mare
##mark
##marka
##marked
##markedet
##marken
##marker
##marks
##mars
##marsj
##marskalk
##mart
##mas
##mask
##maskin
##maskinen
##maskiner
##mass
##masse
##masser
##massivet
##mast
##mat
##mater
##materiale
##materialet
##matisk
##matiske
##matt
##mb
##me
##med
##medal
##medaljar
##medalje
##medaljen
##medaljer
##mede
##media
##medisin
##medlem
##meer
##meister
##mekan
##mekanis
##mektig
##mel
##meland
##meld
##meldt
##meleg
##melig
##melige
##melse
##melsen
##melsene
##melser
##men
##mende
##mene
##menes
##meng
##mengde
##mengden
##mengder
##menn
##menne
##mennene
##mens
##ment
##menter
##mentet
##mer
##mera
##mere
##merk
##merke
##merkene
##merker
##merket
##mers
##mert
##merte
##mes
##messig
##messige
##mest
##mester
##mestere
##mesteren
##mesterskap
##mesterskapet
##met
##metall
##meter
##metikk
##metri
##meyer
##mi
##mid
##middel
##middelalderen
##midler
##mien
##mil
##mila
##miljø
##miljøet
##mill
##min
##minal
##miner
##ming
##mingen
##mingham
##minister
##minne
##minnet
##minster
##minton
##mir
##miral
##mis
##misjon
##mit
##ml
##mm
##mo
##mod
##modell
##modellen
##moen
##mon
##mond
##mons
##mont
##mor
##mord
##more
##moren
##mos
##mose
##mosf
##mot
##motor
##motorer
##mott
##mour
##mouth
##mp
##mpe
##ms
##mu
##mun
##mund
##mur
##muren
##murer
##mus
##muse
##museet
##museum
##music
##musikk
##musikken
##muth
##my
##mynd
##myr
##myra
##møl
##mønster
##mør
##møre
##møte
##møtet
##n
##na
##nac
##nad
##naden
##nadene
##nader
##nam
##namn
##namnet
##nan
##nande
##nandez
##nant
##nar
##nas
##nasjon
##nast
##natt
##nav
##navn
##navnet
##nd
##nda
##nde
##ne
##nebb
##ned
##nede
##nelse
##nelsen
##nem
##nementet
##nemnde
##nen
##nende
##nene
##nenes
##nens
##ner
##nere
##neren
##nering
##ners
##nerte
##nes
##neser
##neset
##ness
##nest
##nestad
##net
##nete
##nets
##nett
##nettet
##nev
##nevn
##nevnt
##nevnte
##ney
##neys
##ng
##ni
##nia
##nik
##ning
##ninga
##ningane
##ningar
##ningen
##ningene
##ninger
##nings
##ningsm
##nis
##nitt
##nitz
##nius
##niv
##niva
##nivaet
##no
##nok
##nom
##non
##nor
##nord
##norsk
##norske
##nos
##not
##ns
##nt
##nu
##num
##nummer
##nus
##ny
##nyj
##nær
##næring
##næs
##nø
##o
##oa
##oar
##ob
##oba
##obb
##obe
##ober
##obi
##obil
##objekt
##oble
##oc
##ocen
##och
##ock
##ocke
##ockey
##ockeyt
##ockeyturneringen
##ocks
##oco
##od
##oda
##odar
##odd
##odden
##ode
##odell
##oden
##odene
##oder
##odet
##odi
##odien
##odon
##odor
##odrom
##ods
##odset
##ody
##odz
##oe
##oen
##oer
##of
##ofer
##off
##offens
##offer
##offis
##offiser
##ofil
##ofon
##oft
##ofys
##og
##oga
##oge
##ogen
##ogene
##oger
##oget
##ogie
##ogle
##ogly
##ogn
##ogne
##ogner
##ogon
##ograd
##ograf
##ografi
##ografien
##ografisk
##ografiske
##ogram
##ograph
##oh
##oi
##oid
##oide
##oidea
##oides
##oil
##oire
##ois
##oj
##ok
##oka
##okal
##oke
##oken
##oker
##oki
##okjem
##okk
##okken
##okl
##okles
##oko
##okrat
##okrater
##oks
##okse
##oksid
##okt
##oku
##okument
##okus
##ol
##ola
##olade
##oland
##olar
##olas
##old
##oldater
##olds
##ole
##olek
##olen
##oler
##olet
##olf
##oli
##olia
##olig
##oligaen
##olin
##olis
##olit
##olitt
##olje
##olk
##olket
##oll
##olla
##olle
##ollen
##ollene
##oller
##olo
##olog
##ologen
##ologer
##ologi
##ological
##ologien
##ologier
##ologisk
##ologiske
##ology
##olph
##ols
##olsk
##olt
##olusjon
##olusjonen
##oly
##om
##oma
##oman
##omb
##ome
##omel
##omen
##omene
##omener
##oment
##omer
##omet
##ometer
##omgang
##omi
##omite
##omiteen
##omm
##omme
##ommen
##ommene
##ommer
##ommet
##ommisjonen
##ommun
##omo
##omon
##omot
##omp
##omrada
##omrade
##omradene
##omrader
##omradet
##oms
##omy
##on
##ona
##onar
##onaut
##ond
##onda
##onde
##onder
##ondo
##ondon
##one
##onen
##onene
##oner
##onering
##ones
##onet
##oney
##ong
##onga
##ongar
##ongen
##onger
##oni
##onia
##onic
##onica
##oniinae
##oning
##onis
##onium
##onkurr
##onn
##onna
##onne
##onny
##onom
##onos
##ons
##onsert
##onso
##ont
##onte
##onto
##ony
##onym
##onyme
##onymet
##oo
##ood
##ool
##oon
##op
##opa
##opatra
##ope
##oped
##opel
##open
##oper
##operaen
##operasjoner
##oph
##oping
##oplan
##ople
##opol
##opolis
##opolit
##opot
##opp
##oppd
##oppdrag
##oppe
##oppen
##opper
##oppgaver
##oppgjør
##oppgjøret
##opphold
##oppl
##opplys
##opplæring
##opprør
##opprøret
##opptak
##ops
##opsis
##opt
##opter
##optera
##optre
##opus
##or
##ora
##oral
##orar
##oras
##orax
##orca
##ord
##ordan
##orde
##orden
##ordenen
##order
##ordet
##ordfører
##ordin
##ordnet
##ordning
##ordningen
##ordninger
##ordre
##ore
##oreg
##orem
##oren
##orene
##orer
##ores
##oret
##orf
##orff
##org
##organ
##organer
##organis
##organisasjon
##organisasjonen
##organisasjonene
##organisasjoner
##organisert
##orge
##orger
##orget
[...]
