{"version":"1.0","truncation":null,"padding":null,"added_tokens":[{"id":0,"special":true,"content":"[PAD]","single_word":false,"lstrip":false,"rstrip":false,"normalized":false},{"id":1,"special":true,"content":"[UNK]","single_word":false,"lstrip":false,"rstrip":false,"normalized":false},{"id":2,"special":true,"content":"[CLS]","single_word":false,"lstrip":false,"rstrip":false,"normalized":false},{"id":3,"special":true,"content":"[SEP]","single_word":false,"lstrip":false,"rstrip":false,"normalized":false},{"id":4,"special":true,"content":"[MASK]","single_word":false,"lstrip":false,"rstrip":false,"normalized":false}],"normalizer":{"type":"BertNormalizer","clean_text":true,"handle_chinese_chars":true,"strip_accents":null,"lowercase":true},"pre_tokenizer":{"type":"BertPreTokenizer"},"post_processor":null,"decoder":{"type":"WordPiece","prefix":"##","cleanup":true},"model":{"type":"WordPiece","unk_token":"[UNK]","continuing_subword_prefix":"##","max_input_chars_per_word":100,"vocab":{"[PAD]":0,"[UNK]":1,"[CLS]":2,"[SEP]":3,"[MASK]":4,"!":5,"\"":6,"#":7,"$":8,"%":9,"&":10,"'":11,"(":12,")":13,"*":14,"+":15,",":16,"-":17,".":18,"/":19,"0":20,"1":21,"2":22,"3":23,"4":24,"5":25,"6":26,"7":27,"8":28,"9":29,":":30,";":31,"<":32,"=":33,">":34,"?":35,"@":36,"[":37,"\\":38,"]":39,"^":40,"_":41,"`":42,"a":43,"b":44,"c":45,"d":46,"e":47,"f":48,"g":49,"h":50,"i":51,"j":52,"k":53,"l":54,"m":55,"n":56,"o":57,"p":58,"q":59,"r":60,"s":61,"t":62,"u":63,"v":64,"w":65,"x":66,"y":67,"z":68,"{":69,"|":70,"}":71,"~":72,"¡":73,"¢":74,"£":75,"¤":76,"¥":77,"¦":78,"§":79,"¨":80,"©":81,"ª":82,"«":83,"¬":84,"®":85,"¯":86,"°":87,"±":88,"²":89,"³":90,"´":91,"µ":92,"¶":93,"·":94,"¸":95,"¹":96,"º":97,"»":98,"¼":99,"½":100,"¾":101,"¿":102,"×":103,"ß":104,"æ":105,"ð":106,"÷":107,"ø":108,"þ":109,"đ":110,"ı":111,"ł":112,"œ":113,"ƒ":114,"ə":115,"ɛ":116,"ʹ":117,"ˆ":118,"ˇ":119,"ˈ":120,"ː":121,"˚":122,"ˮ":123,"ͼ":124,"α":125,"β":126,"γ":127,"δ":128,"ε":129,"ζ":130,"η":131,"θ":132,"ι":133,"κ":134,"λ":135,"μ":136,"ν":137,"ξ":138,"ο":139,"π":140,"ρ":141,"ς":142,"σ":143,"τ":144,"υ":145,"φ":146,"χ":147,"ψ":148,"ω":149,"ϕ":150,"а":151,"б":152,"в":153,"г":154,"д":155,"е":156,"ж":157,"з":158,"и":159,"к":160,"л":161,"м":162,"н":163,"о":164,"п":165,"р":166,"с":167,"т":168,"у":169,"ф":170,"х":171,"ц":172,"ч":173,"ш":174,"щ":175,"ъ":176,"ы":177,"ь":178,"э":179,"ю":180,"я":181,"ђ":182,"є":183,"ѕ":184,"і":185,"ј":186,"љ":187,"ґ":188,"һ":189,"ա":190,"א":191,"ב":192,"ג":193,"ד":194,"ה":195,"ו":196,"ח":197,"ט":198,"י":199,"כ":200,"ל":201,"ם":202,"מ":203,"ן":204,"נ":205,"ס":206,"ע":207,"פ":208,"ק":209,"ר":210,"ש":211,"ת":212,"،":213,"ء":214,"ا":215,"ب":216,"ة":217,"ت":218,"ث":219,"ج":220,"ح":221,"خ":222,"د":223,"ذ":224,"ر":225,"ز":226,"س":227,"ش":228,"ص":229,"ض":230,"ط":231,"ظ":232,"ع":233,"غ":234,"ـ":235,"ف":236,"ق":237,"ك":238,"ل":239,"م":240,"ن":241,"ه":242,"و":243,"ى":244,"ي":245,"پ":246,"چ":247,"ک":248,"گ":249,"ی":250,"क":251,"ग":252,"ज":253,"त":254,"द":255,"न":256,"प":257,"ब":258,"म":259,"य":260,"र":261,"ल":262,"व":263,"स":264,"ह":265,"ा":266,"ि":267,"ी":268,"ो":269,"ক":270,"ত":271,"ন":272,"ব":273,"য":274,"র":275,"ল":276,"স":277,"া":278,"ি":279,"ে":280,"க":281,"த":282,"ன":283,"ப":284,"ம":285,"ர":286,"ா":287,"ி":288,"ு":289,"ు":290,"ก":291,"ข":292,"ค":293,"ง":294,"จ":295,"ช":296,"ด":297,"ต":298,"ท":299,"น":300,"บ":301,"ป":302,"พ":303,"ม":304,"ย":305,"ร":306,"ล":307,"ว":308,"ส":309,"ห":310,"อ":311,"ะ":312,"า":313,"฿":314,"เ":315,"แ":316,"โ":317,"ไ":318,"ა":319,"ე":320,"ი":321,"რ":322,"ᄀ":323,"ᄂ":324,"ᄃ":325,"ᄅ":326,"ᄆ":327,"ᄇ":328,"ᄉ":329,"ᄋ":330,"ᄌ":331,"ᄎ":332,"ᄏ":333,"ᄐ":334,"ᄑ":335,"ᄒ":336,"ᅡ":337,"ᅢ":338,"ᅥ":339,"ᅦ":340,"ᅧ":341,"ᅩ":342,"ᅪ":343,"ᅭ":344,"ᅮ":345,"ᅳ":346,"ᅴ":347,"ᅵ":348,"ᆨ":349,"ᆫ":350,"ᆯ":351,"ᆷ":352,"ᆸ":353,"ᆼ":354,"ᐈ":355,"‐":356,"‑":357,"‒":358,"–":359,"—":360,"―":361,"‘":362,"’":363,"‚":364,"“":365,"”":366,"„":367,"†":368,"‡":369,"•":370,"…":371,"‰":372,"′":373,"″":374,"‹":375,"›":376,"₂":377,"₨":378,"€":379,"℃":380,"№":381,"™":382,"←":383,"↑":384,"→":385,"↓":386,"⇒":387,"−":388,"√":389,"≈":390,"≤":391,"≥":392,"─":393,"■":394,"□":395,"▪":396,"▫":397,"▲":398,"▶":399,"►":400,"▻":401,"▼":402,"○":403,"●":404,"☀":405,"★":406,"☆":407,"☺":408,"♀":409,"♡":410,"♣":411,"♥":412,"♦":413,"✅":414,"✌":415,"✓":416,"✔":417,"✚":418,"✨":419,"✭":420,"✰":421,"❄":422,"❑":423,"❤":424,"➔":425,"⠀":426,"⭐":427,"ⰰ":428,"、":429,"。":430,"「":431,"」":432,"【":433,"】":434,"あ":435,"い":436,"う":437,"え":438,"お":439,"か":440,"き":441,"く":442,"け":443,"こ":444,"さ":445,"し":446,"す":447,"せ":448,"そ":449,"た":450,"ち":451,"っ":452,"つ":453,"て":454,"と":455,"な":456,"に":457,"の":458,"は":459,"ひ":460,"へ":461,"ま":462,"み":463,"め":464,"も":465,"や":466,"よ":467,"ら":468,"り":469,"る":470,"れ":471,"わ":472,"を":473,"ん":474,"ア":475,"ィ":476,"イ":477,"ウ":478,"ェ":479,"エ":480,"オ":481,"カ":482,"キ":483,"ク":484,"ケ":485,"コ":486,"サ":487,"シ":488,"ス":489,"セ":490,"ソ":491,"タ":492,"チ":493,"ッ":494,"ツ":495,"テ":496,"ト":497,"ナ":498,"ニ":499,"ネ":500,"ノ":501,"ハ":502,"ヒ":503,"フ":504,"ヘ":505,"ホ":506,"マ":507,"ミ":508,"ム":509,"メ":510,"モ":511,"ャ":512,"ュ":513,"ョ":514,"ラ":515,"リ":516,"ル":517,"レ":518,"ロ":519,"ワ":520,"ン":521,"・":522,"ー":523,"䄀":524,"䈀":525,"䌀":526,"䐀":527,"䔀":528,"䜀":529,"䠀":530,"䤀":531,"䬀":532,"䰀":533,"䴀":534,"一":535,"七":536,"万":537,"三":538,"上":539,"下":540,"不":541,"与":542,"专":543,"世":544,"业":545,"东":546,"两":547,"个":548,"中":549,"为":550,"主":551,"么":552,"之":553,"乐":554,"九":555,"也":556,"买":557,"了":558,"争":559,"事":560,"二":561,"于":562,"五":563,"交":564,"产":565,"京":566,"人":567,"什":568,"今":569,"他":570,"仙":571,"代":572,"以":573,"们":574,"件":575,"任":576,"伀":577,"会":578,"传":579,"位":580,"体":581,"何":582,"作":583,"你":584,"使":585,"供":586,"保":587,"信":588,"值":589,"元":590,"先":591,"光":592,"免":593,"入":594,"全":595,"八":596,"公":597,"六":598,"关":599,"其":600,"具":601,"典":602,"内":603,"円":604,"册":605,"准":606,"出":607,"刀":608,"分":609,"划":610,"创":611,"利":612,"到":613,"制":614,"前":615,"力":616,"加":617,"务":618,"动":619,"势":620,"動":621,"匀":622,"包":623,"化":624,"北":625,"区":626,"十":627,"单":628,"南":629,"博":630,"历":631,"原":632,"县":633,"及":634,"双":635,"发":636,"取":637,"口":638,"可":639,"台":640,"号":641,"司":642,"吀":643,"合":644,"同":645,"名":646,"后":647,"吗":648,"和":649,"品":650,"哪":651,"唀":652,"商":653,"嘀":654,"器":655,"四":656,"回":657,"国":658,"图":659,"在":660,"地":661,"场":662,"址":663,"坛":664,"型":665,"城":666,"基":667,"堂":668,"場":669,"士":670,"备":671,"外":672,"多":673,"大":674,"天":675,"太":676,"奖":677,"女":678,"好":679,"如":680,"姐":681,"娱":682,"婆":683,"子":684,"字":685,"学":686,"安":687,"官":688,"定":689,"宝":690,"实":691,"客":692,"室":693,"家":694,"富":695,"对":696,"将":697,"小":698,"少":699,"就":700,"尾":701,"展":702,"山":703,"川":704,"州":705,"工":706,"巧":707,"市":708,"常":709,"平":710,"年":711,"广":712,"庆":713,"库":714,"店":715,"度":716,"建":717,"开":718,"式":719,"当":720,"录":721,"彩":722,"影":723,"律":724,"得":725,"微":726,"心":727,"必":728,"快":729,"怎":730,"思":731,"性":732,"总":733,"情":734,"意":735,"感":736,"戏":737,"成":738,"我":739,"户":740,"所":741,"手":742,"打":743,"技":744,"投":745,"报":746,"持":747,"挂":748,"指":749,"推":750,"提":751,"播":752,"教":753,"数":754,"文":755,"料":756,"斯":757,"新":758,"方":759,"无":760,"日":761,"时":762,"明":763,"星":764,"是":765,"時":766,"更":767,"最":768,"月":769,"有":770,"服":771,"期":772,"本":773,"机":774,"杀":775,"来":776,"東":777,"枚":778,"果":779,"校":780,"样":781,"格":782,"業":783,"次":784,"正":785,"比":786,"民":787,"氓":788,"気":789,"水":790,"江":791,"河":792,"法":793,"波":794,"注":795,"活":796,"流":797,"测":798,"海":799,"港":800,"游":801,"源":802,"澳":803,"点":804,"無":805,"爱":806,"片":807,"版":808,"牌":809,"牛":810,"物":811,"特":812,"狗":813,"玄":814,"王":815,"玩":816,"现":817,"球":818,"理":819,"生":820,"用":821,"田":822,"电":823,"画":824,"界":825,"登":826,"白":827,"百":828,"的":829,"皇":830,"盘":831,"目":832,"盲":833,"直":834,"相":835,"看":836,"県":837,"真":838,"着":839,"知":840,"码":841,"社":842,"神":843,"票":844,"福":845,"科":846,"程":847,"空":848,"立":849,"站":850,"第":851,"等":852,"算":853,"管":854,"精":855,"系":856,"红":857,"线":858,"组":859,"经":860,"结":861,"统":862,"网":863,"美":864,"群":865,"老":866,"者":867,"而":868,"肖":869,"育":870,"能":871,"自":872,"色":873,"花":874,"英":875,"行":876,"表":877,"装":878,"西":879,"要":880,"見":881,"规":882,"视":883,"解":884,"言":885,"語":886,"计":887,"记":888,"论":889,"设":890,"诗":891,"财":892,"费":893,"资":894,"赌":895,"赛":896,"赢":897,"走":898,"起":899,"足":900,"跑":901,"路":902,"身":903,"车":904,"软":905,"载":906,"过":907,"这":908,"进":909,"送":910,"选":911,"通":912,"道":913,"選":914,"部":915,"都":916,"里":917,"重":918,"量":919,"金":920,"钱":921,"长":922,"間":923,"门":924,"间":925,"际":926,"限":927,"院":928,"集":929,"電":930,"霸":931,"面":932,"音":933,"预":934,"食":935,"香":936,"马":937,"高":938,"黄":939,"龙":940,"ﬁ":941,"ﬂ":942,"！":943,"（":944,"）":945,"，":946,"：":947,"？":948,"ｩ":949,"ｲ":950,"ﾞ":951,"𝐞":952,"🌟":953,"🌸":954,"🍁":955,"🎉":956,"🏻":957,"🏼":958,"🏽":959,"👊":960,"👌":961,"👍":962,"👏":963,"💕":964,"💖":965,"💗":966,"💙":967,"💚":968,"💛":969,"💜":970,"💪":971,"🔥":972,"😀":973,"😁":974,"😂":975,"😃":976,"😄":977,"😅":978,"😆":979,"😉":980,"😊":981,"😋":982,"😍":983,"😎":984,"😏":985,"😘":986,"😛":987,"😜":988,"😝":989,"😢":990,"😦":991,"😬":992,"😭":993,"😱":994,"😳":995,"🙁":996,"🙂":997,"🙄":998,"🙈":999,"🙌":1000,"🙏":1001,"🤔":1002,"🤗":1003,"🤣":1004,"##l":1005,"##e":1006,"##v":1007,"##s":1008,"##a":1009,"##r":1010,"##n":1011,"##p":1012,"##o":1013,"##t":1014,"##g":1015,"##k":1016,"##w":1017,"##d":1018,"##y":1019,"##4":1020,"##8":1021,"##2":1022,"##9":1023,"##5":1024,"##ø":1025,"##f":1026,"##u":1027,"##m":1028,"##c":1029,"##i":1030,"##0":1031,"##x":1032,"##1":1033,"##h":1034,"##b":1035,"##7":1036,"##3":1037,"##j":1038,"##z":1039,"##ᅡ":1040,"##ᆫ":1041,"##ᄆ":1042,"##ᅥ":1043,"##ᄅ":1044,"##ᅵ":1045,"##æ":1046,"##6":1047,"##q":1048,"##т":1049,"##е":1050,"##р":1051,"##о":1052,"##х":1053,"##и":1054,"##м":1055,"##ν":1056,"##α":1057,"##π":1058,"##λ":1059,"##σ":1060,"##η":1061,"##у":1062,"##ф":1063,"##к":1064,"##ে":1065,"##ন":1066,"##া":1067,"##н":1068,"##с":1069,"##ж":1070,"##д":1071,"##®":1072,"##า":1073,"##แ":1074,"##ต":1075,"##ม":1076,"##°":1077,"##ย":1078,"##ท":1079,"##ว":1080,"##น":1081,"##โ":1082,"##ด":1083,"##ล":1084,"##พ":1085,"##ร":1086,"##ر":1087,"##ه":1088,"##ا":1089,"##ت":1090,"##ی":1091,"##🙂":1092,"##χ":1093,"##υ":1094,"##τ":1095,"##ς":1096,"##ე":1097,"##რ":1098,"##ა":1099,"##イ":1100,"##ク":1101,"##も":1102,"##ᄎ":1103,"##ᅢ":1104,"##ᆨ":1105,"##´":1106,"##ı":1107,"##😄":1108,"##э":1109,"##һ":1110,"##я":1111,"##ь":1112,"##¸":1113,"##●":1114,"##す":1115,"##る":1116,"##た":1117,"##け":1118,"##て":1119,"##ヒ":1120,"##タ":1121,"##ッ":1122,"##ワ":1123,"##ー":1124,"##シ":1125,"##ョ":1126,"##フ":1127,"##ʹ":1128,"##¥":1129,"##€":1130,"##љ":1131,"##л":1132,"##г":1133,"##❤":1134,"##の":1135,"##と":1136,"##し":1137,"##а":1138,"##ラ":1139,"##ค":1140,"##อ":1141,"##จ":1142,"##เ":1143,"##ห":1144,"##ง":1145,"##©":1146,"##в":1147,"##ј":1148,"##👍":1149,"##ニ":1150,"##ュ":1151,"##ス":1152,"##ח":1153,"##ב":1154,"##ר":1155,"##י":1156,"##ם":1157,"##ل":1158,"##ب":1159,"##ـ":1160,"##د":1161,"##ع":1162,"##ᅩ":1163,"##ᄋ":1164,"##ᄀ":1165,"##ᅮ":1166,"##ᅭ":1167,"##😂":1168,"##ð":1169,"##²":1170,"##ц":1171,"##ы":1172,"##♡":1173,"##і":1174,"##п":1175,"##ч":1176,"##ω":1177,"##ł":1178,"##な":1179,"##い":1180,"##よ":1181,"##う":1182,"##こ":1183,"##з":1184,"##♥":1185,"##ი":1186,"##β":1187,"##っ":1188,"##レ":1189,"##ア":1190,"##キ":1191,"##ャ":1192,"##や":1193,"##テ":1194,"##ム":1195,"##か":1196,"##¬":1197,"##ю":1198,"##б":1199,"##り":1200,"##あ":1201,"##ん":1202,"##đ":1203,"##¤":1204,"##ز":1205,"##🏼":1206,"##ο":1207,"##ρ":1208,"##γ":1209,"##щ":1210,"##ث":1211,"##ي":1212,"##ن":1213,"##ᄑ":1214,"##ᅳ":1215,"##ᆯ":1216,"##ᆷ":1217,"##ส":1218,"##¨":1219,"##🙌":1220,"##🏻":1221,"##و":1222,"##ش":1223,"##˚":1224,"##く":1225,"##は":1226,"##オ":1227,"##ン":1228,"##コ":1229,"##ル":1230,"##ト":1231,"##カ":1232,"##そ":1233,"##م":1234,"##ط":1235,"##ি":1236,"##ব":1237,"##ক":1238,"##ص":1239,"##غ":1240,"##ђ":1241,"##س":1242,"##خ":1243,"##ɛ":1244,"##ə":1245,"##に":1246,"##ة":1247,"##נ":1248,"##ה":1249,"##ш":1250,"##ق":1251,"##♀":1252,"##þ":1253,"##😍":1254,"##−":1255,"##ح":1256,"##£":1257,"##ъ":1258,"##サ":1259,"##ソ":1260,"##ไ":1261,"##ก":1262,"##ß":1263,"##💪":1264,"##👊":1265,"##מ":1266,"##ש":1267,"##ק":1268,"##ו":1269,"##さ":1270,"##ロ":1271,"##ィ":1272,"##わ":1273,"##ケ":1274,"##え":1275,"##お":1276,"##ᄇ":1277,"##ف":1278,"##μ":1279,"##چ":1280,"##گ":1281,"##💗":1282,"##🌟":1283,"##त":1284,"##न":1285,"##ा":1286,"##บ":1287,"##ะ":1288,"##き":1289,"##ウ":1290,"##ˈ":1291,"##θ":1292,"##ヘ":1293,"##リ":1294,"##ᄒ":1295,"##ᅪ":1296,"##ᅴ":1297,"##×":1298,"##ノ":1299,"##ε":1300,"##φ":1301,"##ι":1302,"##ハ":1303,"##☺":1304,"##✔":1305,"##😘":1306,"##👌":1307,"##ج":1308,"##😊":1309,"##😉":1310,"##ि":1311,"##र":1312,"##ी":1313,"##ˮ":1314,"##ま":1315,"##ψ":1316,"##¼":1317,"##½":1318,"##🌸":1319,"##✨":1320,"##™":1321,"##µ":1322,"##ƒ":1323,"##マ":1324,"##ᄌ":1325,"##れ":1326,"##ら":1327,"##³":1328,"##ェ":1329,"##😆":1330,"##𝐞":1331,"##ป":1332,"##ﬁ":1333,"##😀":1334,"##₂":1335,"##😁":1336,"##ա":1337,"##❄":1338,"##א":1339,"##פ":1340,"##ס":1341,"##☀":1342,"##🙏":1343,"##エ":1344,"##😱":1345,"##🏽":1346,"##を":1347,"##😋":1348,"##ホ":1349,"##œ":1350,"##κ":1351,"##ͼ":1352,"##ˇ":1353,"##😳":1354,"##±":1355,"##せ":1356,"##ो":1357,"##ు":1358,"##ா":1359,"##ு":1360,"##み":1361,"##ᅦ":1362,"##↓":1363,"##º":1364,"##क":1365,"##ک":1366,"##ত":1367,"##র":1368,"##پ":1369,"##ช":1370,"##→":1371,"##🎉":1372,"##ナ":1373,"##😛":1374,"##ᅧ":1375,"##ת":1376,"##ˆ":1377,"##😃":1378,"##ː":1379,"##ء":1380,"##😜":1381,"##ᄂ":1382,"##ᆼ":1383,"##ד":1384,"##ѕ":1385,"##ᄏ":1386,"##δ":1387,"##ג":1388,"##😅":1389,"##ض":1390,"##ك":1391,"##🤗":1392,"##メ":1393,"##♣":1394,"##ע":1395,"##ह":1396,"##セ":1397,"##ி":1398,"##ம":1399,"##த":1400,"##ர":1401,"##💖":1402,"##チ":1403,"##💙":1404,"##כ":1405,"##ט":1406,"##य":1407,"##प":1408,"##க":1409,"##ன":1410,"##ᄉ":1411,"##ᄐ":1412,"##ζ":1413,"##😦":1414,"##🤔":1415,"##🙄":1416,"##ξ":1417,"##ミ":1418,"##✌":1419,"##🔥":1420,"##¹":1421,"##ᄃ":1422,"##👏":1423,"##ґ":1424,"##★":1425,"##÷":1426,"##ツ":1427,"##へ":1428,"##ল":1429,"##💚":1430,"##য":1431,"##व":1432,"##☆":1433,"##ל":1434,"##є":1435,"##め":1436,"##ज":1437,"##≥":1438,"##つ":1439,"##😎":1440,"##🙈":1441,"##ן":1442,"##ネ":1443,"##स":1444,"##ल":1445,"##ذ":1446,"##ひ":1447,"##○":1448,"##▲":1449,"##ब":1450,"##স":1451,"##ᆸ":1452,"##🤣":1453,"##¢":1454,"##ち":1455,"##√":1456,"##¦":1457,"##✓":1458,"##ظ":1459,"##■":1460,"##🍁":1461,"##⭐":1462,"##💕":1463,"##✅":1464,"##ข":1465,"##😬":1466,"##ﬂ":1467,"##≈":1468,"##¯":1469,"##💛":1470,"##♦":1471,"##म":1472,"##ى":1473,"##ப":1474,"##😏":1475,"##😢":1476,"##□":1477,"##ϕ":1478,"##℃":1479,"##द":1480,"##ग":1481,"##💜":1482,"##≤":1483,"##▼":1484,"##モ":1485,"##ª":1486,"##▻":1487,"##ﾞ":1488,"##↑":1489,"##⠀":1490,"##№":1491,"##¾":1492,"##😭":1493,"##😝":1494,"##✭":1495,"##▶":1496,"##✰":1497,"##►":1498,"##←":1499,"##ｲ":1500,"##ｩ":1501,"##⇒":1502,"##🙁":1503,"##ⰰ":1504,"##▫":1505,"##▪":1506,"##฿":1507,"##─":1508,"##➔":1509,"##❑":1510,"##✚":1511,"##er":1512,"##ar":1513,"##en":1514,"##an":1515,"##or":1516,"##et":1517,"##tt":1518,"##ll":1519,"##in":1520,"##om":1521,"##ag":1522,"##st":1523,"##ig":1524,"##ch":1525,"och":1526,"for":1527,"##de":1528,"##on":1529,"##ed":1530,"##ing":1531,"##at":1532,"##al":1533,"det":1534,"att":1535,"in":1536,"ar":1537,"en":1538,"##ra":1539,"##sk":1540,"pa":1541,"ti":1542,"##el":1543,"vi":1544,"som":1545,"##te":1546,"##ck":1547,"av":1548,"sa":1549,"##na":1550,"med":1551,"##kt":1552,"var":1553,"st":1554,"sk":1555,"har":1556,"##pp":1557,"##re":1558,"##as":1559,"an":1560,"de":1561,"jag":1562,"##sa":1563,"till":1564,"##and":1565,"##un":1566,"##ning":1567,"##ter":1568,"##lig":1569,"##ad":1570,"##ro":1571,"##all":1572,"##il":1573,"##ik":1574,"##it":1575,"om":1576,"##ol":1577,"##ver":1578,"den":1579,"##der":1580,"##is":1581,"##ang":1582,"##es":1583,"ut":1584,"##ade":1585,"kan":1586,"##att":1587,"##am":1588,"bl":1589,"##iv":1590,"##em":1591,"##id":1592,"inte":1593,"og":1594,"##ast":1595,"##ur":1596,"##ot":1597,"##ss":1598,"du":1599,"##eg":1600,"##isk":1601,"ett":1602,"##ran":1603,"##ion":1604,"men":1605,"man":1606,"##for":1607,"kom":1608,"all":1609,"##ta":1610,"##are":1611,"##ok":1612,"##og":1613,"##ut":1614,"##ller":1615,"##het":1616,"##ande":1617,"er":1618,"sp":1619,"##est":1620,"##itt":1621,"##ent":1622,"##var":1623,"un":1624,"upp":1625,"##mer":1626,"##ak":1627,"##us":1628,"##od":1629,"sam":1630,"##ens":1631,"##ist":1632,"nar":1633,"##inn":1634,"##ru":1635,"##ort":1636,"se":1637,"eller":1638,"##yck":1639,"##ul":1640,"##ell":1641,"min":1642,"han":1643,"##ska":1644,"be":1645,"ska":1646,"til":1647,"pro":1648,"##ma":1649,"hel":1650,"##ri":1651,"bar":1652,"##den":1653,"##ne":1654,"##fter":1655,"fran":1656,"##os":1657,"##ir":1658,"##art":1659,"##gen":1660,"nag":1661,"fl":1662,"##igt":1663,"##sl":1664,"##ull":1665,"kl":1666,"fra":1667,"##ker":1668,"fa":1669,"kon":1670,"and":1671,"ha":1672,"##ek":1673,"over":1674,"##bb":1675,"far":1676,"##ation":1677,"##sp":1678,"under":1679,"ny":1680,"##ill":1681,"##um":1682,"##ligt":1683,"val":1684,"##op":1685,"##ant":1686,"sl":1687,"##va":1688,"##ick":1689,"##yg":1690,"##ff":1691,"dar":1692,"##ud":1693,"at":1694,"al":1695,"##ft":1696,"##je":1697,"##ans":1698,"##dag":1699,"20":1700,"##ke":1701,"vara":1702,"efter":1703,"##arna":1704,"nu":1705,"##und":1706,"sig":1707,"##se":1708,"ta":1709,"stor":1710,"pl":1711,"da":1712,"##ett":1713,"##ser":1714,"##ost":1715,"##ers":1716,"##ock":1717,"sj":1718,"gr":1719,"##del":1720,"dag":1721,"li":1722,"##ov":1723,"##ev":1724,"kommer":1725,"gor":1726,"##bl":1727,"bor":1728,"lag":1729,"##bet":1730,"##ør":1731,"mo":1732,"##sen":1733,"mer":1734,"##sta":1735,"##ger":1736,"gj":1737,"del":1738,"allt":1739,"vil":1740,"vill":1741,"finn":1742,"##da":1743,"kun":1744,"mig":1745,"ann":1746,"kr":1747,"alla":1748,"##opp":1749,"##sam":1750,"##ark":1751,"fr":1752,"mot":1753,"sin":1754,"ju":1755,"##ikt":1756,"or":1757,"##ling":1758,"kv":1759,"##ga":1760,"bra":1761,"##erna":1762,"##ika":1763,"fram":1764,"bil":1765,"##jon":1766,"##ene":1767,"ver":1768,"##ass":1769,"sv":1770,"lite":1771,"lang":1772,"tr":1773,"tid":1774,"##ycket":1775,"##kl":1776,"hon":1777,"##era":1778,"inn":1779,"##gar":1780,"##ic":1781,"vid":1782,"beh":1783,"##ann":1784,"##im":1785,"vad":1786,"##ningen":1787,"pr":1788,"##org":1789,"mycket":1790,"##aste":1791,"ex":1792,"##ka":1793,"opp":1794,"gen":1795,"finns":1796,"mang":1797,"bara":1798,"hur":1799,"##edan":1800,"sy":1801,"##iska":1802,"##ekt":1803,"##eck":1804,"##liga":1805,"din":1806,"##ord":1807,"jo":1808,"##satt":1809,"##ats":1810,"##yr":1811,"##ende":1812,"blir":1813,"sex":1814,"sen":1815,"##iga":1816,"##dr":1817,"komm":1818,"re":1819,"##la":1820,"##ja":1821,"##vand":1822,"##oll":1823,"##ligen":1824,"##ott":1825,"ock":1826,"hem":1827,"aven":1828,"ocksa":1829,"##ulle":1830,"##ier":1831,"##ber":1832,"##ket":1833,"##jt":1834,"andra":1835,"tra":1836,"##jer":1837,"##av":1838,"sag":1839,"ser":1840,"##erson":1841,"##ack":1842,"##00":1843,"skulle":1844,"gar":1845,"201":1846,"##itet":1847,"##skap":1848,"hade":1849,"##alt":1850,"ol":1851,"##pl":1852,"mat":1853,"fin":1854,"dig":1855,"samt":1856,"detta":1857,"hand":1858,"##mar":1859,"hj":1860,"##men":1861,"ma":1862,"##ningar":1863,"bet":1864,"arbet":1865,"##bil":1866,"person":1867,"##ering":1868,"ik":1869,"##ank":1870,"##vis":1871,"ber":1872,"##alv":1873,"##ere":1874,"th":1875,"ty":1876,"##hall":1877,"verk":1878,"no":1879,"##sm":1880,"dat":1881,"sm":1882,"reg":1883,"##hol":1884,"##ske":1885,"##be":1886,"##ssa":1887,"##du":1888,"##ring":1889,"##per":1890,"##stall":1891,"##ygg":1892,"satt":1893,"spel":1894,"br":1895,"ch":1896,"##ige":1897,"gang":1898,"genom":1899,"el":1900,"res":1901,"oss":1902,"utan":1903,"on":1904,"##lag":1905,"bli":1906,"barn":1907,"##som":1908,"##ara":1909,"fort":1910,"##ju":1911,"van":1912,"anvand":1913,"nat":1914,"##enn":1915,"nagon":1916,"pre":1917,"##ala":1918,"et":1919,"svar":1920,"fol":1921,"manga":1922,"##riv":1923,"fors":1924,"##orr":1925,"##yn":1926,"ikke":1927,"##ighet":1928,"##aren":1929,"helt":1930,"tro":1931,"gl":1932,"sedan":1933,"##pa":1934,"##man":1935,"##kel":1936,"##ci":1937,"sven":1938,"nagot":1939,"##jting":1940,"##ie":1941,"best":1942,"##iskt":1943,"##me":1944,"##over":1945,"sn":1946,"##ult":1947,"19":1948,"##gang":1949,"hog":1950,"gora":1951,"##atis":1952,"dem":1953,"##ets":1954,"hall":1955,"##gi":1956,"##sb":1957,"ga":1958,"##ia":1959,"god":1960,"##lighet":1961,"##ug":1962,"bes":1963,"##ster":1964,"##tal":1965,"vet":1966,"##dre":1967,"liv":1968,"mal":1969,"##asta":1970,"##form":1971,"##ken":1972,"forsta":1973,"jobb":1974,"le":1975,"per":1976,"jeg":1977,"kra":1978,"##ote":1979,"##rad":1980,"inne":1981,"fun":1982,"fick":1983,"##ær":1984,"idag":1985,"sitt":1986,"##le":1987,"sjalv":1988,"tre":1989,"der":1990,"bru":1991,"tva":1992,"##orn":1993,"##ien":1994,"ratt":1995,"so":1996,"denna":1997,"gratis":1998,"##ys":1999,"##if":2000,"fil":2001,"hitt":2002,"mell":2003,"##ilj":2004,"##ef":2005,"##land":2006,"kommun":2007,"##else":2008,"##lar":2009,"ni":2010,"##nad":2011,"##jan":2012,"##verk":2013,"vag":2014,"hela":2015,"akt":2016,"sver":2017,"##nings":2018,"blev":2019,"vis":2020,"##ress":2021,"##ater":2022,"olika":2023,"##get":2024,"mar":2025,"##amn":2026,"saker":2027,"seg":2028,"kop":2029,"##ce":2030,"##ram":2031,"int":2032,"utv":2033,"nagra":2034,"dejting":2035,"di":2036,"ro":2037,"led":2038,"land":2039,"rikt":2040,"vikt":2041,"##yd":2042,"##akt":2043,"par":2044,"##ner":2045,"maste":2046,"##ytt":2047,"inter":2048,"##nas":2049,"##app":2050,"##amp":2051,"kj":2052,"##kom":2053,"##age":2054,"##sid":2055,"las":2056,"bade":2057,"sid":2058,"##bar":2059,"nya":2060,"##pt":2061,"##ingen":2062,"ble":2063,"of":2064,"##ks":2065,"dom":2066,"##net":2067,"##kar":2068,"mann":2069,"##ativ":2070,"tv":2071,"form":2072,"##ader":2073,"vin":2074,"va":2075,"hjal":2076,"su":2077,"varit":2078,"##ge":2079,"kanske":2080,"##ont":2081,"tran":2082,"kor":2083,"inom":2084,"frag":2085,"tyck":2086,"##etag":2087,"##des":2088,"hos":2089,"nor":2090,"sna":2091,"kvinn":2092,"moj":2093,"##ste":2094,"lan":2095,"##aller":2096,"##holm":2097,"##ym":2098,"igen":2099,"te":2100,"ans":2101,"##asjon":2102,"forst":2103,"##far":2104,"tar":2105,"ord":2106,"kont":2107,"rad":2108,"kar":2109,"mark":2110,"mellan":2111,"fatt":2112,"skol":2113,"ja":2114,"pol":2115,"##dom":2116,"bok":2117,"dessa":2118,"he":2119,"produ":2120,"lik":2121,"##pel":2122,"fast":2123,"mitt":2124,"sverige":2125,"10":2126,"##ikk":2127,"##ella":2128,"##takt":2129,"fakt":2130,"veck":2131,"##ine":2132,"borj":2133,"slut":2134,"bo":2135,"eg":2136,"##unn":2137,"skal":2138,"##str":2139,"##ert":2140,"ater":2141,"##ktion":2142,"hal":2143,"##slag":2144,"ka":2145,"lig":2146,"innan":2147,"mest":2148,"vilket":2149,"to":2150,"##ades":2151,"##uk":2152,"tan":2153,"##jen":2154,"str":2155,"ingen":2156,"dess":2157,"vald":2158,"stock":2159,"##fall":2160,"am":2161,"##utom":2162,"ov":2163,"bland":2164,"##ps":2165,"##rupp":2166,"just":2167,"##atten":2168,"##yl":2169,"annat":2170,"##eb":2171,"bak":2172,"##gr":2173,"dr":2174,"##orna":2175,"##rum":2176,"lar":2177,"alltid":2178,"stockholm":2179,"tag":2180,"ner":2181,"kn":2182,"star":2183,"ek":2184,"tal":2185,"gam":2186,"##sson":2187,"##unt":2188,"beg":2189,"ant":2190,"porr":2191,"mass":2192,"##ts":2193,"na":2194,"200":2195,"##fil":2196,"##met":2197,"##iva":2198,"##ata":2199,"etter":2200,"##ære":2201,"stora":2202,"plan":2203,"foretag":2204,"hu":2205,"gra":2206,"##fr":2207,"basta":2208,"ved":2209,"ur":2210,"fot":2211,"fall":2212,"##ow":2213,"forsk":2214,"##jekt":2215,"hen":2216,"behover":2217,"##sh":2218,"##nar":2219,"##sv":2220,"forb":2221,"kall":2222,"im":2223,"##bak":2224,"fre":2225,"sina":2226,"##oj":2227,"hv":2228,"batt":2229,"##erade":2230,"dette":2231,"##enter":2232,"##stem":2233,"##ns":2234,"##ess":2235,"##fatt":2236,"the":2237,"18":2238,"##alen":2239,"svenska":2240,"inform":2241,"pen":2242,"vart":2243,"varje":2244,"kunna":2245,"lin":2246,"tje":2247,"##skar":2248,"pris":2249,"nog":2250,"red":2251,"##sc":2252,"##øy":2253,"enkel":2254,"sager":2255,"##erar":2256,"##fl":2257,"skriv":2258,"##eter":2259,"eftersom":2260,"stall":2261,"mor":2262,"fy":2263,"ger":2264,"ogsa":2265,"##pro":2266,"tank":2267,"##pe":2268,"her":2269,"pass":2270,"##jud":2271,"hans":2272,"før":2273,"kontakt":2274,"sel":2275,"samma":2276,"varl":2277,"bro":2278,"stad":2279,"##orde":2280,"##yk":2281,"gick":2282,"sol":2283,"##ial":2284,"##led":2285,"##ings":2286,"##arbet":2287,"##ha":2288,"##igare":2289,"utveck":2290,"##ratt":2291,"##kter":2292,"hus":2293,"##bild":2294,"##rekt":2295,"##iken":2296,"valdigt":2297,"##samhet":2298,"##empel":2299,"riktigt":2300,"##esta":2301,"##stand":2302,"##anska":2303,"ge":2304,"##gram":2305,"sok":2306,"egen":2307,"##vet":2308,"flera":2309,"##blem":2310,"##bo":2311,"latt":2312,"mannisk":2313,"hopp":2314,"behov":2315,"##br":2316,"sist":2317,"by":2318,"koll":2319,"##vag":2320,"vide":2321,"ne":2322,"eu":2323,"tycker":2324,"##erad":2325,"tror":2326,"sal":2327,"##borg":2328,"tur":2329,"bad":2330,"em":2331,"full":2332,"bygg":2333,"bilder":2334,"##pr":2335,"bort":2336,"##io":2337,"15":2338,"sak":2339,"##hand":2340,"kort":2341,"snabb":2342,"dock":2343,"jul":2344,"##mal":2345,"##erat":2346,"##ret":2347,"blog":2348,"we":2349,"natur":2350,"mil":2351,"lu":2352,"##min":2353,"spe":2354,"##lem":2355,"pu":2356,"##iten":2357,"tiden":2358,"la":2359,"mina":2360,"##sten":2361,"battre":2362,"##elsen":2363,"kost":2364,"mus":2365,"ung":2366,"sh":2367,"ned":2368,"##ds":2369,"galler":2370,"##øre":2371,"ly":2372,"dating":2373,"enligt":2374,"12":2375,"##tra":2376,"ligger":2377,"lever":2378,"ditt":2379,"ste":2380,"##lagg":2381,"##iske":2382,"verkligen":2383,"##samm":2384,"ak":2385,"##ellt":2386,"grund":2387,"##par":2388,"##hus":2389,"gjort":2390,"##utt":2391,"##sdag":2392,"si":2393,"aldr":2394,"nytt":2395,"konst":2396,"komma":2397,"tack":2398,"rek":2399,"ca":2400,"##tid":2401,"##ister":2402,"intress":2403,"ad":2404,"erb":2405,"kro":2406,"##ator":2407,"ab":2408,"##agen":2409,"svart":2410,"##ler":2411,"##upp":2412,"fortsatt":2413,"anda":2414,"##nade":2415,"##dig":2416,"##lek":2417,"kunde":2418,"folk":2419,"##sak":2420,"##las":2421,"forsok":2422,"fam":2423,"ev":2424,"##ars":2425,"problem":2426,"me":2427,"##xt":2428,"##skil":2429,"rel":2430,"##dan":2431,"andre":2432,"##onom":2433,"##ipp":2434,"skall":2435,"mis":2436,"namn":2437,"information":2438,"runt":2439,"tim":2440,"##stad":2441,"##rade":2442,"syn":2443,"noen":2444,"my":2445,"##mark":2446,"kvar":2447,"##olog":2448,"##pet":2449,"##istor":2450,"exempel":2451,"kvinnor":2452,"redan":2453,"bed":2454,"##by":2455,"##orgon":2456,"##iver":2457,"speci":2458,"tog":2459,"ute":2460,"aldrig":2461,"##rakt":2462,"##val":2463,"##ektiv":2464,"##vud":2465,"deras":2466,"trad":2467,"styr":2468,"##berg":2469,"manniskor":2470,"##sch":2471,"##sammans":2472,"##ubb":2473,"##sfor":2474,"gjorde":2475,"##iet":2476,"##uter":2477,"##pen":2478,"30":2479,"##adde":2480,"fi":2481,"##sn":2482,"##orter":2483,"onl":2484,"tidigare":2485,"tillsammans":2486,"##cent":2487,"##ider":2488,"ag":2489,"fler":2490,"app":2491,"mindre":2492,"esc":2493,"ra":2494,"##ationer":2495,"##gifter":2496,"milj":2497,"org":2498,"svensk":2499,"##red":2500,"##anis":2501,"annan":2502,"tillbak":2503,"stud":2504,"lok":2505,"hitta":2506,"##ultat":2507,"lat":2508,"##aget":2509,"være":2510,"##elser":2511,"art":2512,"porn":2513,"##beid":2514,"direkt":2515,"##ung":2516,"ham":2517,"dina":2518,"11":2519,"fant":2520,"##assa":2521,"##rev":2522,"##etter":2523,"##ekn":2524,"enkelt":2525,"medlem":2526,"##rar":2527,"##eras":2528,"dagen":2529,"##uss":2530,"sjuk":2531,"##gor":2532,"##ition":2533,"##iker":2534,"eng":2535,"##ester":2536,"stod":2537,"krav":2538,"part":2539,"jam":2540,"##ingar":2541,"##ina":2542,"darfor":2543,"behand":2544,"##heten":2545,"post":2546,"alle":2547,"##det":2548,"hjalp":2549,"sma":2550,"webb":2551,"##giv":2552,"tillbaka":2553,"plats":2554,"stort":2555,"beratt":2556,"hor":2557,"samtid":2558,"honom":2559,"##øl":2560,"huvud":2561,"##andet":2562,"##spl":2563,"tjan":2564,"##egg":2565,"kval":2566,"##ct":2567,"hemma":2568,"liten":2569,"kvall":2570,"lyck":2571,"##river":2572,"lo":2573,"co":2574,"##ard":2575,"online":2576,"traff":2577,"forv":2578,"##res":2579,"kron":2580,"tel":2581,"mu":2582,"##ian":2583,"ok":2584,"infor":2585,"hun":2586,"hy":2587,"selv":2588,"##anden":2589,"mojlighet":2590,"stat":2591,"##lut":2592,"##rak":2593,"##tern":2594,"vel":2595,"norg":2596,"start":2597,"off":2598,"sar":2599,"son":2600,"noe":2601,"##ært":2602,"hadde":2603,"gran":2604,"polit":2605,"titt":2606,"rak":2607,"henne":2608,"##orer":2609,"##rik":2610,"##cis":2611,"##sf":2612,"17":2613,"ih":2614,"ofta":2615,"besk":2616,"##skol":2617,"lika":2618,"##ob":2619,"##omm":2620,"bild":2621,"##asin":2622,"saga":2623,"film":2624,"##lev":2625,"fel":2626,"##sikt":2627,"dessutom":2628,"bi":2629,"escort":2630,"vann":2631,"denne":2632,"##rat":2633,"faktiskt":2634,"16":2635,"fru":2636,"##med":2637,"eff":2638,"##mo":2639,"resultat":2640,"program":2641,"##illa":2642,"##amma":2643,"##heter":2644,"tor":2645,"##ennom":2646,"##atser":2647,"kanner":2648,"sta":2649,"grupp":2650,"nast":2651,"##radet":2652,"haft":2653,"tjejer":2654,"besok":2655,"verksamhet":2656,"personer":2657,"langt":2658,"matt":2659,"##lingen":2660,"tha":2661,"##yt":2662,"tekn":2663,"kat":2664,"inv":2665,"fred":2666,"##bland":2667,"typ":2668,"ind":2669,"##dighet":2670,"##slut":2671,"vack":2672,"fem":2673,"nett":2674,"rum":2675,"massage":2676,"viktig":2677,"dra":2678,"kropp":2679,"sø":2680,"anvanda":2681,"visa":2682,"precis":2683,"vatten":2684,"glad":2685,"bel":2686,"##andel":2687,"##fin":2688,"match":2689,"##ice":2690,"14":2691,"kanns":2692,"ror":2693,"##ennes":2694,"##ong":2695,"ansvar":2696,"gjennom":2697,"ytt":2698,"##bart":2699,"##ionen":2700,"dal":2701,"##nat":2702,"beslut":2703,"##inger":2704,"kul":2705,"ren":2706,"histor":2707,"dis":2708,"kons":2709,"##sattning":2710,"soci":2711,"pengar":2712,"aktiv":2713,"##jar":2714,"##kop":2715,"##ide":2716,"fri":2717,"mon":2718,"gote":2719,"bek":2720,"kna":2721,"disk":2722,"##icka":2723,"##iter":2724,"go":2725,"klar":2726,"##istr":2727,"sc":2728,"lange":2729,"##rift":2730,"innehall":2731,"goteborg":2732,"100":2733,"hennes":2734,"ob":2735,"via":2736,"ganska":2737,"betal":2738,"##ex":2739,"ville":2740,"litt":2741,"gre":2742,"##ationen":2743,"##iner":2744,"##ivit":2745,"##ons":2746,"end":2747,"inget":2748,"euro":2749,"##inner":2750,"##elig":2751,"sett":2752,"##unkt":2753,"met":2754,"kur":2755,"##ust":2756,"##raf":2757,"##illar":2758,"dagar":2759,"##rot":2760,"13":2761,"stra":2762,"hund":2763,"##eng":2764,"knull":2765,"##kor":2766,"bill":2767,"sommar":2768,"##fol":2769,"##dar":2770,"utbild":2771,"funger":2772,"forl":2773,"##amm":2774,"kopa":2775,"##ond":2776,"utfor":2777,"varfor":2778,"mid":2779,"##stallet":2780,"storre":2781,"##saker":2782,"ang":2783,"##vid":2784,"langre":2785,"##naden":2786,"aldre":2787,"nastan":2788,"inst":2789,"vilken":2790,"##lad":2791,"lø":2792,"samtidigt":2793,"norge":2794,"kult":2795,"borjar":2796,"hoppas":2797,"nord":2798,"id":2799,"alltsa":2800,"##fekt":2801,"##nen":2802,"##este":2803,"antal":2804,"vissa":2805,"fantast":2806,"##ite":2807,"##alla":2808,"##efon":2809,"##aga":2810,"senaste":2811,"san":2812,"vax":2813,"##elt":2814,"##inna":2815,"po":2816,"istallet":2817,"is":2818,"ganger":2819,"##lla":2820,"##ille":2821,"##ioner":2822,"##sida":2823,"25":2824,"##nader":2825,"joh":2826,"##otell":2827,"##andra":2828,"blivit":2829,"##els":2830,"##jur":2831,"gener":2832,"jatt":2833,"##ve":2834,"des":2835,"##jor":2836,"snart":2837,"##rang":2838,"gott":2839,"organis":2840,"kjø":2841,"ener":2842,"com":2843,"annu":2844,"##spro":2845,"folj":2846,"vidare":2847,"if":2848,"tillgang":2849,"50":2850,"##ip":2851,"##ale":2852,"varm":2853,"##ies":2854,"garna":2855,"los":2856,"bid":2857,"##gift":2858,"egent":2859,"extra":2860,"flytt":2861,"##tag":2862,"system":2863,"##ins":2864,"yo":2865,"##farande":2866,"00":2867,"nasta":2868,"tem":2869,"familj":2870,"##edel":2871,"##lige":2872,"dan":2873,"##atsen":2874,"##jus":2875,"kontro":2876,"vilka":2877,"##als":2878,"minst":2879,"tot":2880,"##dens":2881,"igar":2882,"ibland":2883,"byg":2884,"##under":2885,"##ven":2886,"utt":2887,"innebar":2888,"papp":2889,"finans":2890,"##dagen":2891,"000":2892,"##ternativ":2893,"borjade":2894,"deg":2895,"##ift":2896,"##iss":2897,"trots":2898,"##one":2899,"##ind":2900,"ot":2901,"projekt":2902,"video":2903,"mobil":2904,"lam":2905,"##spel":2906,"uten":2907,"lak":2908,"##itu":2909,"##sker":2910,"##ever":2911,"samman":2912,"haller":2913,"pos":2914,"dejtingsa":2915,"pat":2916,"leg":2917,"forut":2918,"anal":2919,"##bud":2920,"kred":2921,"##tes":2922,"vast":2923,"##klar":2924,"##ligare":2925,"ekonom":2926,"mange":2927,"sarskil":2928,"sjal":2929,"gamla":2930,"tav":2931,"halv":2932,"rik":2933,"bas":2934,"publ":2935,"ba":2936,"aret":2937,"vir":2938,"##alj":2939,"sista":2940,"visar":2941,"ben":2942,"meg":2943,"lagen":2944,"hotell":2945,"##int":2946,"##fer":2947,"do":2948,"krist":2949,"senare":2950,"fortfarande":2951,"sitter":2952,"##juder":2953,"arbeid":2954,"##anda":2955,"halla":2956,"lov":2957,"dam":2958,"bost":2959,"##ydd":2960,"sadan":2961,"blogg":2962,"bruk":2963,"høy":2964,"##vall":2965,"bare":2966,"##drag":2967,"##kur":2968,"helst":2969,"foren":2970,"jan":2971,"klart":2972,"sang":2973,"##styr":2974,"mater":2975,"stand":2976,"##oden":2977,"natt":2978,"kap":2979,"##rott":2980,"ytter":2981,"hittar":2982,"enda":2983,"##hor":2984,"enn":2985,"kultur":2986,"##vor":2987,"endast":2988,"as":2989,"manad":2990,"inga":2991,"##tera":2992,"sw":2993,"kok":2994,"##joner":2995,"ul":2996,"##vard":2997,"kvalitet":2998,"##bel":2999,"lasa":3000,"cent":3001,"##ummer":3002,"framfor":3003,"mag":3004,"komp":3005,"##ux":3006,"ho":3007,"mamma":3008,"slik":3009,"fore":3010,"vant":3011,"bety":3012,"lek":3013,"lad":3014,"ide":3015,"##ny":3016,"risk":3017,"##ron":3018,"esk":3019,"##drar":3020,"topp":3021,"##cka":3022,"livet":3023,"##aler":3024,"##kan":3025,"tom":3026,"alt":3027,"##esten":3028,"klass":3029,"gatt":3030,"aren":3031,"bon":3032,"##sok":3033,"perfekt":3034,"gu":3035,"mode":3036,"##dt":3037,"ap":3038,"##reg":3039,"heller":3040,"##jo":3041,"fragor":3042,"hast":3043,"##ras":3044,"gjøre":3045,"vært":3046,"alternativ":3047,"bran":3048,"##ument":3049,"kraft":3050,"##okus":3051,"hvor":3052,"ihop":3053,"erbjud":3054,"but":3055,"anvander":3056,"samhall":3057,"##ember":3058,"##ari":3059,"##eringen":3060,"pla":3061,"priv":3062,"hol":3063,"##anns":3064,"spela":3065,"soker":3066,"kansl":3067,"hva":3068,"serv":3069,"mye":3070,"##tem":3071,"pop":3072,"farg":3073,"##ystem":3074,"##ocker":3075,"bast":3076,"free":3077,"##eder":3078,"telefon":3079,"vard":3080,"##vik":3081,"rapp":3082,"pros":3083,"ford":3084,"ter":3085,"ovr":3086,"frem":3087,"##sett":3088,"tyd":3089,"##ograf":3090,"##ate":3091,"##gj":3092,"##bara":3093,"gir":3094,"##anger":3095,"##nam":3096,"mojligt":3097,"procent":3098,"moder":3099,"##uta":3100,"hver":3101,"##band":3102,"rom":3103,"##sin":3104,"funktion":3105,"erot":3106,"gangen":3107,"##grupp":3108,"##bol":3109,"smak":3110,"trev":3111,"snabbt":3112,"##svar":3113,"tips":3114,"##cept":3115,"tills":3116,"2017":3117,"bol":3118,"kredit":3119,"borja":3120,"##bin":3121,"fina":3122,"storsta":3123,"##sel":3124,"vare":3125,"##enskap":3126,"##of":3127,"intern":3128,"sidan":3129,"##før":3130,"timmar":3131,"produkt":3132,"host":3133,"sjalva":3134,"##ukt":3135,"knapp":3136,"nov":3137,"##ette":3138,"##anter":3139,"skriver":3140,"gav":3141,"##dejting":3142,"gud":3143,"mø":3144,"stan":3145,"ban":3146,"flesta":3147,"log":3148,"fokus":3149,"spar":3150,"stu":3151,"varlden":3152,"##raft":3153,"##ivet":3154,"##omen":3155,"casin":3156,"##raden":3157,"nak":3158,"flyg":3159,"egentligen":3160,"##hold":3161,"fyra":3162,"kam":3163,"fordel":3164,"ps":3165,"##van":3166,"viktigt":3167,"skolan":3168,"##ryck":3169,"gillar":3170,"musik":3171,"flere":3172,"morgon":3173,"##its":3174,"desig":3175,"##ogen":3176,"super":3177,"handlar":3178,"##arer":3179,"sing":3180,"vecka":3181,"dej":3182,"jamfor":3183,"ungdom":3184,"gjør":3185,"##klart":3186,"haha":3187,"tren":3188,"##ivt":3189,"##ivers":3190,"insp":3191,"ens":3192,"##ren":3193,"stark":3194,"borde":3195,"framtid":3196,"vanligt":3197,"arbete":3198,"skapa":3199,"##rack":3200,"##gjen":3201,"les":3202,"minuter":3203,"nara":3204,"##ommen":3205,"##otter":3206,"skriva":3207,"rund":3208,"slapp":3209,"199":3210,"fo":3211,"##ruk":3212,"bada":3213,"##alis":3214,"artik":3215,"egna":3216,"produkter":3217,"##bygg":3218,"pri":3219,"##slo":3220,"test":3221,"kamp":3222,"forslag":3223,"bank":3224,"sammen":3225,"2018":3226,"##ror":3227,"##tre":3228,"skj":3229,"tak":3230,"und":3231,"skar":3232,"bred":3233,"##uell":3234,"##ander":3235,"##bor":3236,"##igheter":3237,"##ifran":3238,"##full":3239,"natet":3240,"lilla":3241,"sch":3242,"ars":3243,"##he":3244,"kunskap":3245,"cy":3246,"##dat":3247,"skad":3248,"##ry":3249,"arbets":3250,"foral":3251,"fikk":3252,"ljus":3253,"vak":3254,"##lat":3255,"##faren":3256,"registr":3257,"tu":3258,"ovan":3259,"##senter":3260,"valja":3261,"handel":3262,"ton":3263,"bostad":3264,"##so":3265,"veckan":3266,"##samma":3267,"alskar":3268,"ring":3269,"##anta":3270,"lagga":3271,"ing":3272,"bal":3273,"dro":3274,"##dera":3275,"aka":3276,"##up":3277,"brukar":3278,"##fik":3279,"##ten":3280,"##lade":3281,"event":3282,"##eln":3283,"massa":3284,"##yndighet":3285,"emot":3286,"lev":3287,"aff":3288,"medan":3289,"vit":3290,"rost":3291,"sem":3292,"##ore":3293,"rep":3294,"resp":3295,"##aa":3296,"##derar":3297,"fraga":3298,"skatt":3299,"##ninger":3300,"kal":3301,"##uella":3302,"ac":3303,"kompl":3304,"24":3305,"car":3306,"##andring":3307,"univers":3308,"sida":3309,"hot":3310,"sov":3311,"##aten":3312,"vanlig":3313,"verkar":3314,"skick":3315,"malmo":3316,"kring":3317,"valkom":3318,"##inne":3319,"##rukt":3320,"dok":3321,"prov":3322,"natdejting":3323,"samarbet":3324,"21":3325,"gol":3326,"utveckling":3327,"sagt":3328,"##ium":3329,"sek":3330,"dejta":3331,"lug":3332,"##nande":3333,"dod":3334,"##rikt":3335,"##sst":3336,"##ity":3337,"fint":3338,"install":3339,"popul":3340,"føl":3341,"list":3342,"##ng":3343,"erbjuder":3344,"favor":3345,"dy":3346,"##ive":3347,"narm":3348,"##ike":3349,"##agg":3350,"40":3351,"##iges":3352,"bud":3353,"##hl":3354,"##sidor":3355,"rev":3356,"material":3357,"ins":3358,"tanka":3359,"aktivitet":3360,"kopp":3361,"22":3362,"dags":3363,"##egor":3364,"genomfor":3365,"internet":3366,"##kes":3367,"##snitt":3368,"##sakring":3369,"jon":3370,"kronor":3371,"elever":3372,"tanker":3373,"inkl":3374,"delar":3375,"trott":3376,"jun":3377,"webbpl":3378,"##eta":3379,"##annande":3380,"##anga":3381,"##iden":3382,"borjan":3383,"jord":3384,"##oc":3385,"##gard":3386,"passar":3387,"##ida":3388,"omfatt":3389,"##isen":3390,"disse":3391,"##ags":3392,"nej":3393,"vem":3394,"energi":3395,"rod":3396,"##ningarna":3397,"prakt":3398,"##lingar":3399,"vux":3400,"##iz":3401,"fanns":3402,"##ansen":3403,"tryck":3404,"tillfall":3405,"##ksjon":3406,"sall":3407,"første":3408,"##mor":3409,"gul":3410,"##bok":3411,"##eld":3412,"talet":3413,"effekt":3414,"lor":3415,"##ona":3416,"##frag":3417,"##yll":3418,"sveriges":3419,"##delse":3420,"siden":3421,"nye":3422,"forra":3423,"bestam":3424,"mellom":3425,"##alog":3426,"##ht":3427,"##lan":3428,"kunder":3429,"##ots":3430,"fisk":3431,"##yss":3432,"data":3433,"##kost":3434,"kanna":3435,"roll":3436,"situ":3437,"2016":3438,"erfaren":3439,"ogon":3440,"##koping":3441,"filmer":3442,"sarskilt":3443,"utanfor":3444,"##batt":3445,"##juk":3446,"##pan":3447,"varandra":3448,"kommit":3449,"it":3450,"otro":3451,"##fri":3452,"last":3453,"##plan":3454,"luft":3455,"usa":3456,"kvinna":3457,"nam":3458,"ata":3459,"##film":3460,"tjej":3461,"hjalpa":3462,"mott":3463,"##lam":3464,"roligt":3465,"##skriv":3466,"omradet":3467,"text":3468,"##xx":3469,"##rag":3470,"##let":3471,"##nt":3472,"##skin":3473,"2015":3474,"prat":3475,"avtal":3476,"dagens":3477,"gem":3478,"vagen":3479,"him":3480,"djur":3481,"##uren":3482,"norr":3483,"alder":3484,"sas":3485,"anled":3486,"rekommen":3487,"##fe":3488,"posit":3489,"kunne":3490,"##alet":3491,"sakerhet":3492,"##estaur":3493,"vanner":3494,"enkl":3495,"skap":3496,"##star":3497,"ten":3498,"##vs":3499,"klock":3500,"alls":3501,"restaur":3502,"klubb":3503,"jobbet":3504,"skont":3505,"##oter":3506,"inspir":3507,"##iser":3508,"kyr":3509,"abs":3510,"yr":3511,"##mt":3512,"fyll":3513,"marknad":3514,"grunn":3515,"akte":3516,"##atta":3517,"kund":3518,"tred":3519,"mak":3520,"fe":3521,"sik":3522,"##nes":3523,"karl":3524,"rett":3525,"godk":3526,"##skapet":3527,"utvik":3528,"indiv":3529,"anstall":3530,"##aster":3531,"date":3532,"##jter":3533,"traning":3534,"unga":3535,"amer":3536,"##oende":3537,"skill":3538,"inf":3539,"viss":3540,"beskriv":3541,"##ban":3542,"##kort":3543,"miljo":3544,"fag":3545,"veta":3546,"##ordan":3547,"##emot":3548,"##legg":3549,"kolla":3550,"tankte":3551,"tagit":3552,"arbetar":3553,"laget":3554,"øn":3555,"##ish":3556,"##sport":3557,"behandling":3558,"eget":3559,"stol":3560,"##verket":3561,"##ph":3562,"##iller":3563,"##ffe":3564,"igenom":3565,"imorgon":3566,"boken":3567,"veckor":3568,"allman":3569,"annars":3570,"noj":3571,"##ue":3572,"kol":3573,"sport":3574,"mand":3575,"driv":3576,"eskort":3577,"sakert":3578,"##ash":3579,"landet":3580,"##anc":3581,"ve":3582,"spr":3583,"##rek":3584,"ytterligare":3585,"dit":3586,"##sav":3587,"upps":3588,"##skan":3589,"##ko":3590,"##fors":3591,"23":3592,"gym":3593,"engel":3594,"##samt":3595,"johan":3596,"##emang":3597,"titta":3598,"fon":3599,"pe":3600,"cl":3601,"ram":3602,"hander":3603,"upplev":3604,"##øk":3605,"service":3606,"lyss":3607,"##elle":3608,"visst":3609,"##xa":3610,"oslo":3611,"psyk":3612,"##ension":3613,"mm":3614,"satta":3615,"vol":3616,"ost":3617,"cir":3618,"##eri":3619,"##kon":3620,"offent":3621,"##otek":3622,"##spr":3623,"nation":3624,"forsoka":3625,"##sar":3626,"##ca":3627,"##olut":3628,"gro":3629,"##varr":3630,"barnen":3631,"norsk":3632,"hvordan":3633,"utbildning":3634,"eks":3635,"##bund":3636,"2014":3637,"medel":3638,"ko":3639,"liksom":3640,"gi":3641,"inlagg":3642,"tredje":3643,"igjen":3644,"##boll":3645,"tyvarr":3646,"bruker":3647,"ej":3648,"##øn":3649,"##bro":3650,"thai":3651,"karlek":3652,"##entet":3653,"##llen":3654,"aug":3655,"store":3656,"fungerar":3657,"##co":3658,"hard":3659,"##jol":3660,"kroppen":3661,"bu":3662,"ander":3663,"social":3664,"##sade":3665,"##set":3666,"maj":3667,"stund":3668,"betala":3669,"##ita":3670,"prof":3671,"anvands":3672,"godt":3673,"konkur":3674,"arets":3675,"hej":3676,"##still":3677,"sil":3678,"oav":3679,"niva":3680,"famil":3681,"sand":3682,"blod":3683,"komment":3684,"spelar":3685,"##strom":3686,"ansok":3687,"##lund":3688,"annet":3689,"max":3690,"##unch":3691,"bilden":3692,"bakom":3693,"effektiv":3694,"sep":3695,"hele":3696,"fod":3697,"digit":3698,"nedan":3699,"##æring":3700,"ifran":3701,"##atan":3702,"##sidan":3703,"##kta":3704,"forel":3705,"minn":3706,"##part":3707,"span":3708,"spannande":3709,"uppgifter":3710,"##unden":3711,"apr":3712,"##book":3713,"juni":3714,"##ise":3715,"tillverk":3716,"##lin":3717,"okt":3718,"lara":3719,"innehaller":3720,"##arn":3721,"defin":3722,"ret":3723,"indu":3724,"traffa":3725,"##dere":3726,"varde":3727,"bilen":3728,"##mel":3729,"casino":3730,"heter":3731,"##back":3732,"privat":3733,"vardag":3734,"dec":3735,"forh":3736,"grad":3737,"mi":3738,"##ena":3739,"##ern":3740,"##iella":3741,"internation":3742,"kombin":3743,"oft":3744,"##veck":3745,"stør":3746,"skog":3747,"forstar":3748,"recept":3749,"##edag":3750,"design":3751,"bedom":3752,"hjel":3753,"##ligheten":3754,"forbatt":3755,"##okrat":3756,"forhall":3757,"lon":3758,"igang":3759,"lagt":3760,"stil":3761,"##varande":3762,"fest":3763,"60":3764,"##deles":3765,"mys":3766,"helgen":3767,"kara":3768,"hov":3769,"##assage":3770,"norske":3771,"universitet":3772,"totalt":3773,"sim":3774,"undersok":3775,"stam":3776,"nav":3777,"##ral":3778,"avslut":3779,"steg":3780,"later":3781,"##ova":3782,"utom":3783,"back":3784,"manader":3785,"beror":3786,"leder":3787,"hav":3788,"face":3789,"tol":3790,"fys":3791,"jobba":3792,"##bord":3793,"##ød":3794,"dejtingsajt":3795,"##handling":3796,"kvallen":3797,"hogre":3798,"paverk":3799,"holl":3800,"glom":3801,"##skatt":3802,"arrang":3803,"##ink":3804,"aker":3805,"pres":3806,"##jell":3807,"speciellt":3808,"##oren":3809,"berg":3810,"lamp":3811,"##sg":3812,"##sut":3813,"sexiga":3814,"##enser":3815,"knulla":3816,"ass":3817,"port":3818,"##oo":3819,"ph":3820,"wh":3821,"invest":3822,"tri":3823,"sprak":3824,"ww":3825,"fly":3826,"hjalper":3827,"klader":3828,"##uppgifter":3829,"##rett":3830,"trygg":3831,"##efar":3832,"##onser":3833,"myndighet":3834,"varld":3835,"folja":3836,"sant":3837,"bj":3838,"fastighet":3839,"##dde":3840,"##tak":3841,"##ure":3842,"plac":3843,"##oder":3844,"##stri":3845,"kompet":3846,"##dering":3847,"sten":3848,"forskning":3849,"##stol":3850,"personal":3851,"fas":3852,"kre":3853,"##los":3854,"regel":3855,"sent":3856,"valjer":3857,"cm":3858,"teck":3859,"bestall":3860,"##mat":3861,"forsvar":3862,"##skad":3863,"fragan":3864,"##agar":3865,"od":3866,"forsoker":3867,"oavsett":3868,"forfatt":3869,"##alist":3870,"##leg":3871,"##namn":3872,"lank":3873,"##malt":3874,"presenter":3875,"##kr":3876,"pal":3877,"sier":3878,"mote":3879,"nok":3880,"hvis":3881,"##ativt":3882,"oppna":3883,"avsl":3884,"##ces":3885,"glas":3886,"##ateg":3887,"##tar":3888,"##pon":3889,"##urn":3890,"##splan":3891,"feb":3892,"bit":3893,"lans":3894,"bev":3895,"elekt":3896,"##betal":3897,"storlek":3898,"skrev":3899,"bakgr":3900,"##mera":3901,"2013":3902,"##isa":3903,"nr":3904,"##øm":3905,"pot":3906,"ungefar":3907,"buss":3908,"##kn":3909,"##arnas":3910,"##ient":3911,"smart":3912,"##pass":3913,"porno":3914,"vatt":3915,"lagg":3916,"##agare":3917,"www":3918,"kommunen":3919,"soder":3920,"hum":3921,"##mi":3922,"peri":3923,"pappa":3924,"facebook":3925,"vinter":3926,"skil":3927,"##sd":3928,"##but":3929,"krit":3930,"##ly":3931,"fortsatta":3932,"gri":3933,"forutom":3934,"##po":3935,"blant":3936,"##asser":3937,"gemen":3938,"tyckte":3939,"betyd":3940,"fer":3941,"lordag":3942,"##ota":3943,"filmen":3944,"snygg":3945,"##produ":3946,"kart":3947,"eta":3948,"ske":3949,"##itut":3950,"sur":3951,"spes":3952,"##stid":3953,"otroligt":3954,"kontroll":3955,"##ba":3956,"##satta":3957,"resa":3958,"mars":3959,"oper":3960,"dist":3961,"##ygga":3962,"jav":3963,"tidlig":3964,"dju":3965,"uppta":3966,"meddel":3967,"rundt":3968,"ark":3969,"skon":3970,"forvar":3971,"skul":3972,"lamna":3973,"sker":3974,"goda":3975,"##lands":3976,"new":3977,"##rans":3978,"meter":3979,"ru":3980,"hjem":3981,"varldens":3982,"vackra":3983,"##ith":3984,"##edet":3985,"##mid":3986,"deltag":3987,"##skade":3988,"##ober":3989,"skyl":3990,"bestar":3991,"26":3992,"fredag":3993,"ivag":3994,"amerik":3995,"##rust":3996,"##lo":3997,"link":3998,"bla":3999,"ovriga":4000,"vanliga":4001,"xxx":4002,"kak":4003,"anv":4004,"avs":4005,"##ongen":4006,"28":4007,"stopp":4008,"samme":4009,"27":4010,"public":4011,"jobbar":4012,"##skt":4013,"region":4014,"##komm":4015,"huset":4016,"amator":4017,"sann":4018,"##amnar":4019,"##ugg":4020,"klockan":4021,"qu":4022,"yng":4023,"kapit":4024,"##usen":4025,"oftast":4026,"fan":4027,"ingar":4028,"ljud":4029,"##ager":4030,"stallet":4031,"##rav":4032,"lop":4033,"##angen":4034,"##ork":4035,"bod":4036,"mog":4037,"damer":4038,"dejtingsidor":4039,"sla":4040,"##bi":4041,"finner":4042,"##skor":4043,"nod":4044,"##ham":4045,"hjart":4046,"##otten":4047,"dokument":4048,"sju":4049,"##vart":4050,"forandring":4051,"hud":4052,"siste":4053,"tj":4054,"janu":4055,"##isjon":4056,"##ey":4057,"dejtingsajter":4058,"##atet":4059,"delta":4060,"##ild":4061,"septem":4062,"vilja":4063,"thaim":4064,"server":4065,"##san":4066,"##terna":4067,"2012":4068,"##ement":4069,"chr":4070,"prosjekt":4071,"alldeles":4072,"tjanster":4073,"september":4074,"##asjoner":4075,"gall":4076,"spelare":4077,"arbetet":4078,"##eden":4079,"kontakta":4080,"august":4081,"##igen":4082,"massor":4083,"veg":4084,"klipp":4085,"utman":4086,"##ffa":4087,"brost":4088,"lunch":4089,"##fte":4090,"fores":4091,"arbeta":4092,"drom":4093,"##kten":4094,"sym":4095,"ting":4096,"hit":4097,"blitt":4098,"ses":4099,"con":4100,"forklar":4101,"avl":4102,"wid":4103,"##huset":4104,"##uellt":4105,"forsakring":4106,"dejt":4107,"kand":4108,"##any":4109,"##ernas":4110,"naturligt":4111,"miljoner":4112,"##ologi":4113,"behovs":4114,"##50":4115,"matte":4116,"##iteten":4117,"tilbak":4118,"november":4119,"passa":4120,"##kring":4121,"mel":4122,"slutet":4123,"darmed":4124,"betyder":4125,"198":4126,"##vent":4127,"fullt":4128,"middag":4129,"##dress":4130,"##blad":4131,"rack":4132,"##kning":4133,"framst":4134,"forsv":4135,"trafik":4136,"##arbeid":4137,"foljande":4138,"fal":4139,"delen":4140,"lager":4141,"bur":4142,"bat":4143,"informasjon":4144,"april":4145,"lokal":4146,"kopte":4147,"europa":4148,"spring":4149,"trak":4150,"##allt":4151,"begyn":4152,"helg":4153,"##isar":4154,"##port":4155,"##olit":4156,"present":4157,"hoj":4158,"kil":4159,"ros":4160,"nan":4161,"intressant":4162,"beroende":4163,"##ativa":4164,"##skott":4165,"##qu":4166,"motor":4167,"elev":4168,"anvandas":4169,"##gaende":4170,"oktober":4171,"##assen":4172,"ras":4173,"gammal":4174,"kommunik":4175,"sine":4176,"dubb":4177,"##ente":4178,"flick":4179,"veldig":4180,"##fa":4181,"profil":4182,"rut":4183,"varen":4184,"29":4185,"ry":4186,"##ane":4187,"kategor":4188,"##hj":4189,"##øtt":4190,"samband":4191,"erfarenhet":4192,"exempelvis":4193,"ir":4194,"kravs":4195,"##ista":4196,"sort":4197,"thaimassage":4198,"##skl":4199,"namligen":4200,"kontroller":4201,"antligen":4202,"##use":4203,"##end":4204,"##cess":4205,"sitta":4206,"favorit":4207,"kostnad":4208,"dare":4209,"##har":4210,"daremot":4211,"fro":4212,"kande":4213,"##person":4214,"stre":4215,"utred":4216,"tradition":4217,"##za":4218,"foto":4219,"promen":4220,"menar":4221,"##bas":4222,"uppdrag":4223,"frukost":4224,"you":4225,"##jarn":4226,"##iat":4227,"##eringar":4228,"##ften":4229,"##juta":4230,"laser":4231,"mod":4232,"sad":4233,"web":4234,"ikvall":4235,"sondag":4236,"lata":4237,"videos":4238,"ident":4239,"##sø":4240,"tanke":4241,"##bruk":4242,"prata":4243,"##ruktur":4244,"liknande":4245,"##sing":4246,"etabl":4247,"##lys":4248,"sadana":4249,"##inst":4250,"berattar":4251,"vers":4252,"##skolan":4253,"kora":4254,"anmal":4255,"finne":4256,"press":4257,"htt":4258,"absolut":4259,"##erande":4260,"tok":4261,"hom":4262,"##garder":4263,"##rande":4264,"fitt":4265,"bloggen":4266,"autom":4267,"menne":4268,"hora":4269,"forvant":4270,"##garden":4271,"##bli":4272,"##folj":4273,"##ppar":4274,"erik":4275,"ønsker":4276,"lund":4277,"##af":4278,"rapport":4279,"bocker":4280,"##tering":4281,"darefter":4282,"fotboll":4283,"##rym":4284,"tillegg":4285,"fart":4286,"katt":4287,"scen":4288,"##ora":4289,"ume":4290,"ager":4291,"hittade":4292,"tio":4293,"dri":4294,"##icin":4295,"mannen":4296,"riktig":4297,"##klader":4298,"rapporter":4299,"chat":4300,"##uten":4301,"tjen":4302,"plus":4303,"##dater":4304,"2011":4305,"##fritt":4306,"##add":4307,"##wa":4308,"bry":4309,"##sattningar":4310,"butik":4311,"frukt":4312,"2010":4313,"bef":4314,"bygga":4315,"##dem":4316,"##repp":4317,"strateg":4318,"lage":4319,"klicka":4320,"kostnader":4321,"sommaren":4322,"regler":4323,"##cke":4324,"let":4325,"trodde":4326,"##ism":4327,"interv":4328,"##her":4329,"valj":4330,"foretaget":4331,"tand":4332,"##ilt":4333,"##oret":4334,"##ach":4335,"lagger":4336,"##20":4337,"##aljer":4338,"##smal":4339,"resten":4340,"sty":4341,"fotograf":4342,"slag":4343,"##nytt":4344,"31":4345,"gron":4346,"uppf":4347,"##ega":4348,"##skydd":4349,"innen":4350,"finnas":4351,"##komst":4352,"sjalvklart":4353,"oro":4354,"##vist":4355,"uppsala":4356,"sjukdom":4357,"hemsida":4358,"80":4359,"prin":4360,"langa":4361,"brott":4362,"##slan":4363,"torsdag":4364,"semester":4365,"skicka":4366,"fantastisk":4367,"##ica":4368,"##uts":4369,"verkt":4370,"omkring":4371,"sova":4372,"teknik":4373,"##ix":4374,"frit":4375,"##kont":4376,"##ias":4377,"industri":4378,"ensam":4379,"##les":4380,"##itter":4381,"dere":4382,"km":4383,"personliga":4384,"##anser":4385,"profess":4386,"##visning":4387,"behova":4388,"tatt":4389,"parker":4390,"vanster":4391,"##inder":4392,"neg":4393,"klara":4394,"nyhet":4395,"tas":4396,"typer":4397,"##zny":4398,"dla":4399,"##ligheter":4400,"##edd":4401,"forvalt":4402,"derfor":4403,"##ocka":4404,"len":4405,"##anych":4406,"tankt":4407,"individ":4408,"##owanych":4409,"zalog":4410,"##oczny":4411,"widoczny":4412,"zalogowanych":4413,"allvar":4414,"farger":4415,"##ald":4416,"##perat":4417,"maten":4418,"500":4419,"poj":4420,"dorr":4421,"øk":4422,"nær":4423,"dyr":4424,"##ea":4425,"familjen":4426,"foljer":4427,"tall":4428,"##rig":4429,"##foretag":4430,"skade":4431,"fang":4432,"70":4433,"##vin":4434,"##ode":4435,"beste":4436,"##inar":4437,"ed":4438,"##serv":4439,"##filmer":4440,"gikk":4441,"##itar":4442,"vantar":4443,"medlemmar":4444,"##sorg":4445,"chef":4446,"misst":4447,"team":4448,"##forande":4449,"billig":4450,"##tet":4451,"skydd":4452,"engelska":4453,"nojd":4454,"##verka":4455,"##lever":4456,"diskuter":4457,"opt":4458,"##seende":4459,"##kelig":4460,"##staende":4461,"mail":4462,"krig":4463,"##enting":4464,"mulig":4465,"hogt":4466,"valkommen":4467,"lander":4468,"cirka":4469,"##mann":4470,"historia":4471,"utgang":4472,"fortsatter":4473,"##stallning":4474,"priser":4475,"bør":4476,"##ations":4477,"bruke":4478,"##ub":4479,"hant":4480,"varme":4481,"foraldrar":4482,"##stra":4483,"omraden":4484,"poang":4485,"oka":4486,"osv":4487,"borjat":4488,"klok":4489,"##skaper":4490,"90":4491,"prova":4492,"rese":4493,"andel":4494,"forek":4495,"197":4496,"forsalj":4497,"##enner":4498,"##agra":4499,"##ensen":4500,"out":4501,"##iel":4502,"##unnit":4503,"##mon":4504,"juli":4505,"regn":4506,"##ola":4507,"spill":4508,"dela":4509,"ald":4510,"dejtingsida":4511,"forber":4512,"utmar":4513,"ore":4514,"daligt":4515,"samtliga":4516,"##ifier":4517,"resultatet":4518,"enskil":4519,"##ions":4520,"##punkt":4521,"tysk":4522,"tillrack":4523,"##foren":4524,"##erne":4525,"##vam":4526,"sidor":4527,"litet":4528,"live":4529,"visade":4530,"##ab":4531,"bedre":4532,"##gjør":4533,"tex":4534,"intresse":4535,"utifran":4536,"uppe":4537,"##hav":4538,"yngre":4539,"mens":4540,"tidigt":4541,"student":4542,"inklu":4543,"dator":4544,"##garna":4545,"videre":4546,"drag":4547,"transport":4548,"tvatt":4549,"##off":4550,"hoved":4551,"anna":4552,"framgang":4553,"platser":4554,"cam":4555,"##lare":4556,"slipp":4557,"anledning":4558,"mill":4559,"integr":4560,"tavling":4561,"##skje":4562,"##ovis":4563,"ont":4564,"larare":4565,"fj":4566,"tit":4567,"rull":4568,"vas":4569,"##sj":4570,"cykel":4571,"ingenting":4572,"solen":4573,"##syn":4574,"radd":4575,"standard":4576,"rec":4577,"punkt":4578,"onsdag":4579,"sasom":4580,"rent":4581,"skyd":4582,"hart":4583,"svara":4584,"umea":4585,"band":4586,"45":4587,"##stor":4588,"##bur":4589,"not":4590,"##hang":4591,"af":4592,"motsvar":4593,"nyheter":4594,"##gn":4595,"##urer":4596,"##emal":4597,"##janst":4598,"halsa":4599,"omrade":4600,"beratta":4601,"spør":4602,"sadant":4603,"##iera":4604,"exper":4605,"febru":4606,"gode":4607,"malet":4608,"##tr":4609,"uppmark":4610,"leva":4611,"##arbete":4612,"like":4613,"##mant":4614,"drift":4615,"nodvand":4616,"sund":4617,"dels":4618,"icke":4619,"girl":4620,"jack":4621,"ital":4622,"staden":4623,"reser":4624,"underhall":4625,"tw":4626,"villkor":4627,"inled":4628,"aktiviteter":4629,"sats":4630,"uttryck":4631,"##ana":4632,"blom":4633,"##ee":4634,"##bes":4635,"##vaxt":4636,"klim":4637,"dans":4638,"tilbake":4639,"##mm":4640,"##ører":4641,"tum":4642,"mart":4643,"varmt":4644,"salt":4645,"##urser":4646,"gjel":4647,"tidligere":4648,"##aka":4649,"##ierna":4650,"kalla":4651,"guld":4652,"ulike":4653,"##press":4654,"##teck":4655,"ena":4656,"bonus":4657,"kraver":4658,"##ersom":4659,"avsnitt":4660,"kung":4661,"##ump":4662,"dalig":4663,"antalet":4664,"saval":4665,"##rader":4666,"##skning":4667,"admin":4668,"drog":4669,"januari":4670,"fir":4671,"##ssystem":4672,"fø":4673,"exakt":4674,"lju":4675,"##bilder":4676,"utveckla":4677,"au":4678,"##urs":4679,"##rummet":4680,"salj":4681,"natten":4682,"##umenter":4683,"kanskje":4684,"hang":4685,"viagra":4686,"sociala":4687,"slutt":4688,"adress":4689,"ill":4690,"##isten":4691,"##ton":4692,"kvinner":4693,"hell":4694,"##ting":4695,"allra":4696,"##cc":4697,"##ich":4698,"søker":4699,"hoga":4700,"nakna":4701,"gjen":4702,"vur":4703,"skola":4704,"jes":4705,"cook":4706,"himla":4707,"skapar":4708,"vader":4709,"sat":4710,"fu":4711,"pan":4712,"kuk":4713,"samarbete":4714,"##kant":4715,"mej":4716,"statist":4717,"##bu":4718,"##ii":4719,"##smedel":4720,"avgor":4721,"gast":4722,"jatte":4723,"35":4724,"##ektive":4725,"arg":4726,"##hem":4727,"kandes":4728,"##bru":4729,"upptack":4730,"gay":4731,"makt":4732,"##slaget":4733,"mogna":4734,"onskar":4735,"kram":4736,"are":4737,"energ":4738,"viser":4739,"skit":4740,"2009":4741,"trevlig":4742,"gravid":4743,"prø":4744,"mojligheter":4745,"##yser":4746,"møte":4747,"kaffe":4748,"##delig":4749,"char":4750,"fjar":4751,"##ight":4752,"##ips":4753,"mera":4754,"utnytt":4755,"##ienter":4756,"infl":4757,"kott":4758,"##asjonen":4759,"##arken":4760,"stalla":4761,"##resent":4762,"europe":4763,"ku":4764,"spen":4765,"marker":4766,"anvandning":4767,"##kj":4768,"##delning":4769,"aut":4770,"anser":4771,"kille":4772,"puss":4773,"amb":4774,"onsk":4775,"lagre":4776,"##pport":4777,"black":4778,"snar":4779,"##iti":4780,"viktiga":4781,"menn":4782,"konto":4783,"agg":4784,"kata":4785,"##ksom":4786,"extre":4787,"valg":4788,"enor":4789,"##fs":4790,"##spunkt":4791,"forstas":4792,"december":4793,"programmet":4794,"arbetsm":4795,"##ble":4796,"arm":4797,"brand":4798,"hø":4799,"vitt":4800,"##gende":4801,"ovrigt":4802,"lind":4803,"platt":4804,"engag":4805,"got":4806,"##rep":4807,"senast":4808,"respektive":4809,"forskjell":4810,"skratt":4811,"##ycken":4812,"fritid":4813,"##lunda":4814,"forr":4815,"trevligt":4816,"soka":4817,"erbjuda":4818,"prote":4819,"##raff":4820,"nummer":4821,"tjanst":4822,"##hov":4823,"pra":4824,"##skri":4825,"net":4826,"##program":4827,"##yp":4828,"intervju":4829,"skillnad":4830,"helsing":4831,"##utbild":4832,"berak":4833,"grader":4834,"sangen":4835,"serien":4836,"##stans":4837,"princi":4838,"##sket":4839,"##ytte":4840,"##føre":4841,"bidra":4842,"produktion":4843,"trana":4844,"##samling":4845,"##ogg":4846,"with":4847,"yt":4848,"drar":4849,"spelet":4850,"framtiden":4851,"jur":4852,"##plats":4853,"jakt":4854,"skor":4855,"satte":4856,"##okt":4857,"##kraft":4858,"vok":4859,"lana":4860,"sør":4861,"sot":4862,"rabatt":4863,"medicin":4864,"kri":4865,"kallas":4866,"plots":4867,"visste":4868,"##laggning":4869,"mandag":4870,"dusch":4871,"lattare":4872,"##oppet":4873,"bekvam":4874,"kurs":4875,"nagonsin":4876,"isl":4877,"mjol":4878,"stockholms":4879,"##bon":4880,"naken":4881,"anslut":4882,"kansla":4883,"spa":4884,"##nummer":4885,"kir":4886,"webbplats":4887,"sign":4888,"centr":4889,"ah":4890,"bolag":4891,"##ors":4892,"enbart":4893,"varier":4894,"produc":4895,"uppgift":4896,"fantastiskt":4897,"ordent":4898,"automat":4899,"finansier":4900,"mom":4901,"atgarder":4902,"sms":4903,"##di":4904,"##onen":4905,"goog":4906,"glob":4907,"skrivit":4908,"##nn":4909,"##stav":4910,"samtal":4911,"plast":4912,"etc":4913,"satter":4914,"knappt":4915,"##fort":4916,"erotisk":4917,"spesi":4918,"boende":4919,"sjukt":4920,"sikker":4921,"fix":4922,"lill":4923,"bygger":4924,"vacker":4925,"ax":4926,"dryg":4927,"uppskatt":4928,"lyckas":4929,"normalt":4930,"njuta":4931,"oster":4932,"okar":4933,"triv":4934,"verksamheten":4935,"shopp":4936,"yrkes":4937,"porrfilm":4938,"##spektiv":4939,"vind":4940,"kunn":4941,"vanta":4942,"##ftet":4943,"inb":4944,"rolig":4945,"christ":4946,"kant":4947,"dest":4948,"##anse":4949,"gymnas":4950,"ansikt":4951,"##ningsvis":4952,"##ih":4953,"##satte":4954,"##vara":4955,"gal":4956,"testa":4957,"jenter":4958,"fordi":4959,"datum":4960,"saknar":4961,"studie":4962,"reda":4963,"##bundet":4964,"stang":4965,"##fun":4966,"hoger":4967,"##ben":4968,"idrott":4969,"byta":4970,"forhold":4971,"handla":4972,"##edagog":4973,"hals":4974,"først":4975,"##verksamhet":4976,"##pris":4977,"borta":4978,"dagarna":4979,"##ansvar":4980,"hogsta":4981,"personlig":4982,"laga":4983,"rid":4984,"saken":4985,"helse":4986,"leverant":4987,"finland":4988,"dvs":4989,"196":4990,"relig":4991,"detaljer":4992,"anders":4993,"regeringen":4994,"oppen":4995,"##alitet":4996,"forbi":4997,"boka":4998,"saklart":4999,"##utveck":5000,"utmarkt":5001,"lock":5002,"barnet":5003,"drabb":5004,"##len":5005,"undrar":5006,"sjun":5007,"stress":5008,"boll":5009,"lokala":5010,"hvil":5011,"2008":5012,"medvet":5013,"augusti":5014,"pension":5015,"##ungen":5016,"maskin":5017,"inred":5018,"##hal":5019,"hd":5020,"modell":5021,"##dels":5022,"utover":5023,"##ada":5024,"##sex":5025,"##lov":5026,"kast":5027,"langs":5028,"iaf":5029,"##agn":5030,"##kast":5031,"dø":5032,"givet":5033,"lakem":5034,"namnet":5035,"vuxna":5036,"fig":5037,"brev":5038,"##gran":5039,"##ekv":5040,"smar":5041,"bus":5042,"lugn":5043,"miss":5044,"##ansk":5045,"sluta":5046,"hosten":5047,"forening":5048,"paket":5049,"##roll":5050,"##ktioner":5051,"marknaden":5052,"reklam":5053,"lyssna":5054,"partner":5055,"##unkter":5056,"mask":5057,"lagenhet":5058,"##igg":5059,"##ordning":5060,"media":5061,"info":5062,"orebro":5063,"lesb":5064,"artikel":5065,"bilar":5066,"##kat":5067,"##passa":5068,"ris":5069,"##larna":5070,"verktyg":5071,"tankar":5072,"dotter":5073,"##ila":5074,"sno":5075,"entre":5076,"frisk":5077,"mjuk":5078,"##medel":5079,"barne":5080,"bidrag":5081,"spara":5082,"starka":5083,"##gren":5084,"##jut":5085,"halso":5086,"kunnat":5087,"##ialis":5088,"tider":5089,"plotsligt":5090,"up":5091,"forn":5092,"##bell":5093,"ep":5094,"##ktar":5095,"tillrackligt":5096,"journ":5097,"miljon":5098,"syd":5099,"##pas":5100,"can":5101,"slakt":5102,"##imer":5103,"##verkan":5104,"forest":5105,"##føl":5106,"fantastiska":5107,"jor":5108,"um":5109,"tanken":5110,"##lagt":5111,"lack":5112,"##oklad":5113,"##erer":5114,"##usive":5115,"nack":5116,"fett":5117,"svært":5118,"##makt":5119,"bom":5120,"centrum":5121,"finnes":5122,"alko":5123,"vita":5124,"300":5125,"komme":5126,"##sla":5127,"kjøp":5128,"priset":5129,"vore":5130,"##oga":5131,"foret":5132,"##gas":5133,"lett":5134,"##sliv":5135,"ligga":5136,"36":5137,"valt":5138,"oke":5139,"##cy":5140,"forekom":5141,"##stre":5142,"ster":5143,"ofte":5144,"side":5145,"##ube":5146,"samhallet":5147,"varden":5148,"##orlunda":5149,"naring":5150,"ihag":5151,"tube":5152,"wor":5153,"utgor":5154,"italien":5155,"ekonomiska":5156,"hamt":5157,"sub":5158,"##lø":5159,"##lande":5160,"timme":5161,"tillhor":5162,"javla":5163,"mesta":5164,"##spekt":5165,"tillstand":5166,"naturligtvis":5167,"framat":5168,"harligt":5169,"##ose":5170,"ansokan":5171,"##givare":5172,"jak":5173,"tisdag":5174,"mol":5175,"affar":5176,"kyl":5177,"dukt":5178,"gift":5179,"##folk":5180,"##slagen":5181,"handling":5182,"nagonting":5183,"je":5184,"rygg":5185,"stats":5186,"##anske":5187,"innov":5188,"still":5189,"problemet":5190,"medarbet":5191,"utbud":5192,"cookies":5193,"01":5194,"dersom":5195,"narmare":5196,"vinna":5197,"##sor":5198,"cit":5199,"##zz":5200,"opplev":5201,"##hu":5202,"ordforande":5203,"##skon":5204,"restaurang":5205,"fored":5206,"##styrelsen":5207,"mas":5208,"antingen":5209,"##atch":5210,"##natt":5211,"##cep":5212,"politik":5213,"sum":5214,"##sad":5215,"vagar":5216,"##ført":5217,"taget":5218,"stabil":5219,"##rens":5220,"bevis":5221,"nil":5222,"eksempel":5223,"##sled":5224,"kommande":5225,"minska":5226,"##bolag":5227,"konser":5228,"urspr":5229,"kjøpe":5230,"tapp":5231,"promenad":5232,"horn":5233,"detalj":5234,"##ffan":5235,"seri":5236,"formod":5237,"flytta":5238,"vuxen":5239,"http":5240,"projektet":5241,"mangd":5242,"##shus":5243,"##usjon":5244,"##hamn":5245,"##ykk":5246,"##dal":5247,"betyg":5248,"vattnet":5249,"##inal":5250,"##aland":5251,"utrust":5252,"gruppen":5253,"##udd":5254,"frank":5255,"overra":5256,"alkohol":5257,"slar":5258,"##igheten":5259,"organisation":5260,"##rid":5261,"rim":5262,"kjent":5263,"februari":5264,"##ake":5265,"##son":5266,"vall":5267,"serie":5268,"antag":5269,"huvudet":5270,"##lle":5271,"##fiken":5272,"fitta":5273,"bransch":5274,"##skomm":5275,"okej":5276,"##erte":5277,"uppfatt":5278,"matchen":5279,"strax":5280,"tonar":5281,"nyck":5282,"sasong":5283,"##vika":5284,"forum":5285,"datorn":5286,"08":5287,"blomm":5288,"##ningsm":5289,"bibli":5290,"ladda":5291,"##ines":5292,"forhopp":5293,"##revet":5294,"finansiella":5295,"tving":5296,"muse":5297,"harlig":5298,"sexlek":5299,"##una":5300,"##ningst":5301,"ekonomi":5302,"stick":5303,"søk":5304,"slags":5305,"tillamp":5306,"sos":5307,"##skont":5308,"temperat":5309,"##slos":5310,"ursprung":5311,"gjelder":5312,"##ama":5313,"hamta":5314,"lakemedel":5315,"prior":5316,"##demokrat":5317,"fla":5318,"##varden":5319,"##ya":5320,"prem":5321,"##skola":5322,"##terar":5323,"overv":5324,"studen":5325,"##vir":5326,"kommuner":5327,"polis":5328,"##jal":5329,"eftermid":5330,"annonser":5331,"choklad":5332,"rym":5333,"spelade":5334,"##andes":5335,"betydligt":5336,"vist":5337,"utform":5338,"##stalla":5339,"vinn":5340,"##centr":5341,"utval":5342,"studier":5343,"starkt":5344,"forlor":5345,"##rike":5346,"##iment":5347,"snygga":5348,"##gangen":5349,"07":5350,"hotellet":5351,"administr":5352,"special":5353,"medier":5354,"mork":5355,"##anner":5356,"enhet":5357,"endr":5358,"##dene":5359,"##pper":5360,"betydelse":5361,"##sprogram":5362,"op":5363,"##inge":5364,"vars":5365,"fonster":5366,"tung":5367,"overt":5368,"viktigaste":5369,"diskuss":5370,"nas":5371,"mg":5372,"syk":5373,"kostar":5374,"gallande":5375,"korde":5376,"underbart":5377,"##ction":5378,"marknadsfor":5379,"##alder":5380,"forhand":5381,"bakgrund":5382,"##ula":5383,"rosa":5384,"annen":5385,"danmark":5386,"hvert":5387,"verden":5388,"tun":5389,"##kade":5390,"##edi":5391,"monster":5392,"bestalla":5393,"##pren":5394,"##fred":5395,"mennesker":5396,"##ld":5397,"##ferens":5398,"will":5399,"strand":5400,"regl":5401,"fard":5402,"##sr":5403,"##lang":5404,"##aterial":5405,"fixa":5406,"tydligt":5407,"period":5408,"##sjon":5409,"pratar":5410,"##fyll":5411,"vand":5412,"vaster":5413,"##ema":5414,"##stone":5415,"maria":5416,"ersatt":5417,"rok":5418,"relativt":5419,"mate":5420,"vari":5421,"sky":5422,"09":5423,"yout":5424,"samarbeid":5425,"uppdat":5426,"##etten":5427,"bidrar":5428,"##lor":5429,"##we":5430,"jamfort":5431,"kommentar":5432,"2007":5433,"vinst":5434,"tittar":5435,"strom":5436,"gif":5437,"deres":5438,"forskol":5439,"##ærer":5440,"##ho":5441,"demokrat":5442,"milf":5443,"##utter":5444,"##byg":5445,"##lik":5446,"regering":5447,"cre":5448,"sod":5449,"##adress":5450,"##bler":5451,"##kommer":5452,"løpet":5453,"lapp":5454,"hjelp":5455,"intens":5456,"uk":5457,"##skrift":5458,"##rip":5459,"##kopp":5460,"sikt":5461,"utland":5462,"##elige":5463,"##asje":5464,"gard":5465,"ordning":5466,"polisen":5467,"sorter":5468,"kompetens":5469,"staller":5470,"##ringar":5471,"chans":5472,"underklader":5473,"laste":5474,"##por":5475,"##ib":5476,"tusen":5477,"elektron":5478,"toppen":5479,"valde":5480,"støtt":5481,"landst":5482,"hatt":5483,"peter":5484,"tema":5485,"spra":5486,"utsikt":5487,"##laget":5488,"##bef":5489,"systemet":5490,"motstand":5491,"##farg":5492,"##oss":5493,"##kker":5494,"killar":5495,"##gruppen":5496,"##eran":5497,"##splats":5498,"modeller":5499,"##ologisk":5500,"2000":5501,"koper":5502,"roliga":5503,"bolaget":5504,"økonom":5505,"anstallda":5506,"musk":5507,"accep":5508,"##kke":5509,"skam":5510,"##30":5511,"bestem":5512,"fredrik":5513,"budget":5514,"svarta":5515,"##igh":5516,"underbara":5517,"mik":5518,"angel":5519,"offentlig":5520,"forte":5521,"##pack":5522,"oppet":5523,"morgonen":5524,"##stod":5525,"goras":5526,"##istan":5527,"##heng":5528,"pet":5529,"større":5530,"##ment":5531,"nettst":5532,"total":5533,"lyckades":5534,"forhallande":5535,"ges":5536,"cialis":5537,"orig":5538,"riksdag":5539,"##delar":5540,"konsekv":5541,"vaxt":5542,"32":5543,"park":5544,"vetenskap":5545,"##ills":5546,"personuppgifter":5547,"straff":5548,"##iljo":5549,"vansk":5550,"trenger":5551,"##iell":5552,"fyr":5553,"skrift":5554,"forutsattningar":5555,"omsorg":5556,"kg":5557,"gors":5558,"kompis":5559,"##sratt":5560,"modern":5561,"##bank":5562,"bilderna":5563,"avgift":5564,"funn":5565,"balans":5566,"fyl":5567,"visas":5568,"ialla":5569,"skjer":5570,"##ura":5571,"##aden":5572,"atmin":5573,"magen":5574,"numera":5575,"kopt":5576,"annorlunda":5577,"##endet":5578,"grupper":5579,"run":5580,"##arder":5581,"dol":5582,"##emat":5583,"utsatt":5584,"##cker":5585,"##yttet":5586,"##ood":5587,"##hy":5588,"flash":5589,"##itivt":5590,"john":5591,"dyg":5592,"djup":5593,"city":5594,"papper":5595,"respekt":5596,"##unnen":5597,"##assan":5598,"happ":5599,"klimat":5600,"##eller":5601,"##talet":5602,"lista":5603,"lakare":5604,"hamn":5605,"##fton":5606,"don":5607,"hallbar":5608,"bord":5609,"prosent":5610,"grym":5611,"##sag":5612,"##spar":5613,"bestamm":5614,"foreningen":5615,"intresserad":5616,"redovis":5617,"drygt":5618,"uppdater":5619,"objekt":5620,"brukes":5621,"inlag":5622,"singlar":5623,"site":5624,"sannol":5625,"formodligen":5626,"##kk":5627,"vat":5628,"utrym":5629,"##givning":5630,"##ivan":5631,"##pla":5632,"driver":5633,"grav":5634,"hort":5635,"real":5636,"kontor":5637,"forsikt":5638,"lamnar":5639,"rem":5640,"hogst":5641,"##vers":5642,"kommentarer":5643,"##klubb":5644,"stig":5645,"syfte":5646,"relev":5647,"givetvis":5648,"fyller":5649,"##fest":5650,"##ap":5651,"##ec":5652,"##10":5653,"orkar":5654,"konstigt":5655,"##ball":5656,"##beider":5657,"col":5658,"us":5659,"194":5660,"bag":5661,"kommunikation":5662,"patient":5663,"##ctor":5664,"kampan":5665,"##cessen":5666,"stalle":5667,"##leva":5668,"sprang":5669,"fordon":5670,"ersattning":5671,"skane":5672,"skogen":5673,"mening":5674,"ideer":5675,"rummet":5676,"##amin":5677,"personen":5678,"iallafall":5679,"atminstone":5680,"lars":5681,"##dd":5682,"comm":5683,"tunn":5684,"institut":5685,"internationella":5686,"mogen":5687,"populara":5688,"##chef":5689,"##ifik":5690,"starta":5691,"singel":5692,"falt":5693,"faktum":5694,"forsaljning":5695,"google":5696,"##phone":5697,"japan":5698,"lys":5699,"tydligen":5700,"utvikling":5701,"paverkar":5702,"##hel":5703,"##pat":5704,"tyskland":5705,"atta":5706,"os":5707,"debatt":5708,"lugnt":5709,"##organis":5710,"kjær":5711,"norges":5712,"anpassa":5713,"##ase":5714,"forbattra":5715,"##marna":5716,"helsingborg":5717,"play":5718,"##ologiska":5719,"underbar":5720,"gratt":5721,"set":5722,"profession":5723,"##agram":5724,"##ollar":5725,"anses":5726,"prest":5727,"##urt":5728,"lav":5729,"hantera":5730,"##dus":5731,"carl":5732,"##ktor":5733,"##ckar":5734,"ip":5735,"##system":5736,"leda":5737,"klarar":5738,"resept":5739,"varum":5740,"##ire":5741,"symbol":5742,"jarn":5743,"##atar":5744,"sof":5745,"mener":5746,"siff":5747,"orsa":5748,"pengarna":5749,"formaga":5750,"tala":5751,"ordentligt":5752,"skott":5753,"minns":5754,"##anen":5755,"##pos":5756,"hittat":5757,"struktur":5758,"sasongen":5759,"het":5760,"forelas":5761,"bjud":5762,"this":5763,"fire":5764,"mansk":5765,"ungdomar":5766,"talar":5767,"løs":5768,"hyp":5769,"represent":5770,"rock":5771,"stal":5772,"smid":5773,"anvant":5774,"fell":5775,"##bum":5776,"soffan":5777,"nød":5778,"analyser":5779,"forbund":5780,"##aket":5781,"2006":5782,"##ics":5783,"youtube":5784,"pedagog":5785,"inklusive":5786,"invand":5787,"salja":5788,"lant":5789,"ordet":5790,"##erades":5791,"prioriter":5792,"slog":5793,"princip":5794,"##ular":5795,"sodra":5796,"saljer":5797,"funkar":5798,"##splatsen":5799,"pap":5800,"ug":5801,"spiller":5802,"##mot":5803,"sens":5804,"sexleksaker":5805,"##rast":5806,"øy":5807,"##bert":5808,"utvecklas":5809,"##ign":5810,"havet":5811,"kem":5812,"inkop":5813,"okad":5814,"former":5815,"hojd":5816,"##eres":5817,"##gt":5818,"ven":5819,"##prov":5820,"your":5821,"perioden":5822,"33":5823,"folket":5824,"manniska":5825,"sallan":5826,"##brott":5827,"slutade":5828,"##behor":5829,"##vel":5830,"##isering":5831,"##gelig":5832,"jesus":5833,"##behandling":5834,"synd":5835,"##tok":5836,"##oker":5837,"magn":5838,"herr":5839,"##sby":5840,"##vert":5841,"enkla":5842,"05":5843,"02":5844,"master":5845,"stav":5846,"##søkel":5847,"big":5848,"bre":5849,"roda":5850,"##uft":5851,"##ior":5852,"asikt":5853,"##iven":5854,"haret":5855,"racker":5856,"##maskin":5857,"stanna":5858,"tvek":5859,"flott":5860,"definitivt":5861,"##beskriv":5862,"##handa":5863,"mult":5864,"wik":5865,"##ønn":5866,"mojligheten":5867,"olyck":5868,"bir":5869,"hann":5870,"pek":5871,"##stift":5872,"cat":5873,"##omradet":5874,"mov":5875,"ingr":5876,"bilj":5877,"malt":5878,"svang":5879,"##sken":5880,"aldri":5881,"klad":5882,"##jas":5883,"sær":5884,"alex":5885,"uppen":5886,"##entyr":5887,"##fta":5888,"coll":5889,"##ugga":5890,"oj":5891,"##ower":5892,"aktie":5893,"kjære":5894,"byggnad":5895,"##bran":5896,"vaknade":5897,"chatt":5898,"##ssk":5899,"gamle":5900,"styrelsen":5901,"swed":5902,"plass":5903,"forsokte":5904,"gett":5905,"skid":5906,"pul":5907,"##hort":5908,"##fragan":5909,"55":5910,"por":5911,"normal":5912,"varken":5913,"brun":5914,"radio":5915,"sweden":5916,"##ivare":5917,"##rom":5918,"miljø":5919,"34":5920,"lekt":5921,"ladd":5922,"##ile":5923,"samtidig":5924,"mun":5925,"##fint":5926,"vackert":5927,"mysigt":5928,"grill":5929,"brist":5930,"losningar":5931,"gladje":5932,"appar":5933,"##halla":5934,"##ante":5935,"metod":5936,"perspektiv":5937,"##ppen":5938,"amnen":5939,"allmanna":5940,"pga":5941,"uppratt":5942,"06":5943,"hjar":5944,"##niva":5945,"##ox":5946,"begran":5947,"spesielt":5948,"popular":5949,"politiska":5950,"utvecklingen":5951,"camp":5952,"##rasjon":5953,"##enten":5954,"garanter":5955,"##uer":5956,"##resenter":5957,"dack":5958,"helhet":5959,"aller":5960,"kontin":5961,"positivt":5962,"##oster":5963,"losa":5964,"##blick":5965,"##yggen":5966,"torr":5967,"naturen":5968,"rattigheter":5969,"tyst":5970,"##anten":5971,"tradgard":5972,"##akning":5973,"martin":5974,"takt":5975,"mats":5976,"fukt":5977,"mitten":5978,"springa":5979,"utgangspunkt":5980,"metoder":5981,"lond":5982,"vaxer":5983,"situation":5984,"one":5985,"overg":5986,"##eratur":5987,"##stat":5988,"##eren":5989,"bestamt":5990,"flykt":5991,"marken":5992,"04":5993,"nasjon":5994,"natverk":5995,"studenter":5996,"##barn":5997,"##ancer":5998,"genomsnitt":5999,"samling":6000,"##fan":6001,"neste":6002,"ranta":6003,"##vagen":6004,"##ivitet":6005,"##bladet":6006,"avdel":6007,"tillvaxt":6008,"##øp":6009,"impon":6010,"##adem":6011,"lust":6012,"##imul":6013,"næring":6014,"cykl":6015,"##start":6016,"75":6017,"hak":6018,"erfar":6019,"##evel":6020,"tat":6021,"befinner":6022,"##ekst":6023,"##dex":6024,"kapital":6025,"mord":6026,"pam":6027,"era":6028,"kos":6029,"tyg":6030,"inspiration":6031,"nuvarande":6032,"golf":6033,"##kv":6034,"klubben":6035,"snarare":6036,"mad":6037,"publik":6038,"##arens":6039,"##klara":6040,"karri":6041,"##kam":6042,"##handel":6043,"##oteket":6044,"parti":6045,"humor":6046,"upplevelse":6047,"resan":6048,"##ekk":6049,"400":6050,"valet":6051,"fat":6052,"planer":6053,"##deras":6054,"##ius":6055,"ky":6056,"##ometer":6057,"##th":6058,"syns":6059,"utvar":6060,"sammanhang":6061,"funktioner":6062,"happy":6063,"norra":6064,"bjuder":6065,"intro":6066,"##stru":6067,"sajt":6068,"##roende":6069,"gull":6070,"##ses":6071,"dild":6072,"##vo":6073,"##derna":6074,"omedel":6075,"##xor":6076,"sted":6077,"##ific":6078,"mota":6079,"##kall":6080,"letar":6081,"stjarn":6082,"forandra":6083,"bete":6084,"fungera":6085,"##skraft":6086,"fodd":6087,"##asa":6088,"medarbetare":6089,"paverka":6090,"mojliga":6091,"venn":6092,"##server":6093,"undant":6094,"besvar":6095,"##klag":6096,"##ikker":6097,"rekommenderar":6098,"skr":6099,"jobbigt":6100,"bergen":6101,"kunnskap":6102,"øv":6103,"kanda":6104,"##draget":6105,"syster":6106,"syss":6107,"stolt":6108,"sattet":6109,"betalar":6110,"klin":6111,"##amen":6112,"besoka":6113,"undan":6114,"##annen":6115,"hed":6116,"overfor":6117,"oer":6118,"cont":6119,"motiv":6120,"aktuella":6121,"teg":6122,"innlegg":6123,"huden":6124,"kommune":6125,"##empl":6126,"##liv":6127,"##fon":6128,"risken":6129,"##llop":6130,"##ertid":6131,"exp":6132,"##stam":6133,"##god":6134,"socker":6135,"kyrkan":6136,"losning":6137,"amerikanska":6138,"ack":6139,"##esp":6140,"platsen":6141,"jorden":6142,"stral":6143,"rot":6144,"##sle":6145,"grat":6146,"legg":6147,"redo":6148,"fritt":6149,"##sakt":6150,"##mos":6151,"##ningsb":6152,"avstand":6153,"unge":6154,"##inen":6155,"arkite":6156,"deb":6157,"eleverna":6158,"uttal":6159,"klan":6160,"##elsens":6161,"##till":6162,"skru":6163,"##spart":6164,"syke":6165,"london":6166,"195":6167,"framforallt":6168,"illa":6169,"tekniska":6170,"pack":6171,"pil":6172,"inrikt":6173,"utdan":6174,"kallade":6175,"ringa":6176,"03":6177,"begrepp":6178,"foreb":6179,"##kyl":6180,"##mala":6181,"kill":6182,"narheten":6183,"hushall":6184,"fardig":6185,"følge":6186,"##annonser":6187,"##egaende":6188,"##uc":6189,"konstru":6190,"hinner":6191,"motiver":6192,"##flikt":6193,"##skal":6194,"fakta":6195,"##slapp":6196,"harliga":6197,"##hund":6198,"dram":6199,"behovde":6200,"flickor":6201,"##onger":6202,"britt":6203,"vanskelig":6204,"enklare":6205,"##vatt":6206,"chansen":6207,"relation":6208,"garant":6209,"russ":6210,"##own":6211,"kanslor":6212,"kyrk":6213,"##bla":6214,"##df":6215,"##vax":6216,"videor":6217,"##trad":6218,"##hen":6219,"naturlig":6220,"tru":6221,"##svall":6222,"stycken":6223,"standigt":6224,"inkomst":6225,"nyligen":6226,"lyx":6227,"forskjellige":6228,"box":6229,"tabell":6230,"skada":6231,"##skat":6232,"exkl":6233,"rest":6234,"lid":6235,"jonkoping":6236,"##rer":6237,"koket":6238,"##enden":6239,"fack":6240,"##kret":6241,"##way":6242,"##serna":6243,"##elefon":6244,"vinner":6245,"air":6246,"positiv":6247,"38":6248,"##iland":6249,"##edom":6250,"oppga":6251,"vent":6252,"separ":6253,"stranden":6254,"##ford":6255,"botten":6256,"isra":6257,"##laggande":6258,"gavle":6259,"##han":6260,"hyll":6261,"##funn":6262,"mic":6263,"specif":6264,"hundar":6265,"dager":6266,"okat":6267,"dim":6268,"undvika":6269,"bjorn":6270,"##tim":6271,"##fot":6272,"hunnit":6273,"smarta":6274,"##ange":6275,"vm":6276,"aventyr":6277,"unn":6278,"##skrifter":6279,"korrekt":6280,"brollop":6281,"##cha":6282,"bodde":6283,"39":6284,"sallskap":6285,"pratade":6286,"investering":6287,"beskriver":6288,"gas":6289,"formid":6290,"domstol":6291,"nere":6292,"div":6293,"entrepren":6294,"position":6295,"tju":6296,"2005":6297,"legge":6298,"egenskaper":6299,"spørsmal":6300,"produksjon":6301,"lopp":6302,"revis":6303,"billigt":6304,"##ms":6305,"kommenter":6306,"vasteras":6307,"allere":6308,"tvungen":6309,"##stral":6310,"banan":6311,"##øker":6312,"vila":6313,"hin":6314,"##derade":6315,"presid":6316,"kanslan":6317,"erotiska":6318,"rakt":6319,"vadret":6320,"fantas":6321,"lyckats":6322,"dine":6323,"livsmedel":6324,"betrakt":6325,"wa":6326,"underl":6327,"flex":6328,"trakigt":6329,"andersson":6330,"fleste":6331,"samhalle":6332,"show":6333,"fet":6334,"##assigt":6335,"##stalld":6336,"allerede":6337,"arene":6338,"lanet":6339,"##hag":6340,"golv":6341,"##forsakring":6342,"sara":6343,"##heim":6344,"fallet":6345,"digital":6346,"rekke":6347,"politiker":6348,"kallar":6349,"synes":6350,"perfekta":6351,"mc":6352,"omoj":6353,"oversikt":6354,"gjor":6355,"##platsen":6356,"##takter":6357,"kong":6358,"interes":6359,"vest":6360,"riktiga":6361,"kors":6362,"forhoppningsvis":6363,"glass":6364,"kommunens":6365,"mast":6366,"##oda":6367,"##ingene":6368,"est":6369,"##erier":6370,"sammanfatt":6371,"##ival":6372,"personalen":6373,"fylla":6374,"kollektiv":6375,"##derat":6376,"rader":6377,"aktivt":6378,"##pi":6379,"dog":6380,"##fi":6381,"brukt":6382,"felles":6383,"vastra":6384,"kunst":6385,"ron":6386,"registrering":6387,"dubbel":6388,"##sprak":6389,"1000":6390,"forvan":6391,"effektivt":6392,"offic":6393,"berattade":6394,"hittills":6395,"kran":6396,"grundlaggande":6397,"37":6398,"gis":6399,"vd":6400,"sommer":6401,"landsting":6402,"skuld":6403,"major":6404,"##til":6405,"langsikt":6406,"##ori":6407,"plock":6408,"sover":6409,"grov":6410,"initi":6411,"tus":6412,"gjerne":6413,"brod":6414,"vardags":6415,"##ledning":6416,"resurser":6417,"##bergs":6418,"block":6419,"##mes":6420,"##stret":6421,"kunden":6422,"##istiska":6423,"##sattningen":6424,"##gene":6425,"overens":6426,"tillfalle":6427,"##brik":6428,"##imal":6429,"hunden":6430,"##nasjon":6431,"handa":6432,"cert":6433,"silver":6434,"##olen":6435,"dikt":6436,"kompletter":6437,"skull":6438,"urval":6439,"##skole":6440,"slipper":6441,"historien":6442,"diagn":6443,"bb":6444,"##aker":6445,"utro":6446,"##valt":6447,"dre":6448,"##fulla":6449,"varma":6450,"senere":6451,"##varo":6452,"kollade":6453,"listan":6454,"avsug":6455,"andras":6456,"fry":6457,"motsvarande":6458,"knullar":6459,"ryss":6460,"##ktionen":6461,"##stil":6462,"##elen":6463,"moderna":6464,"matcher":6465,"extremt":6466,"webbplatser":6467,"funderar":6468,"njut":6469,"utlan":6470,"anvandare":6471,"hansyn":6472,"staten":6473,"anpass":6474,"dermed":6475,"##ledare":6476,"kursen":6477,"time":6478,"fing":6479,"postadress":6480,"##hets":6481,"renover":6482,"hyres":6483,"utst":6484,"hjer":6485,"##betalning":6486,"begrans":6487,"allmant":6488,"##fullt":6489,"fika":6490,"langst":6491,"visat":6492,"gitt":6493,"forbin":6494,"utomhus":6495,"potent":6496,"##atter":6497,"##otta":6498,"##ycke":6499,"asiat":6500,"##varl":6501,"glada":6502,"##grupper":6503,"pas":6504,"organ":6505,"webbplatsen":6506,"##ze":6507,"planen":6508,"parkering":6509,"nødven":6510,"inc":6511,"##lats":6512,"kjem":6513,"nev":6514,"samre":6515,"##skoter":6516,"tjock":6517,"##uff":6518,"stimul":6519,"iphone":6520,"daniel":6521,"alskade":6522,"##lertid":6523,"bem":6524,"monter":6525,"rov":6526,"daliga":6527,"48":6528,"top":6529,"lagom":6530,"##falt":6531,"jobbat":6532,"##rit":6533,"centrala":6534,"aktuell":6535,"hamnar":6536,"rakna":6537,"ori":6538,"##sats":6539,"mottag":6540,"varv":6541,"faktisk":6542,"gill":6543,"frakt":6544,"##osa":6545,"##vatten":6546,"arbeidet":6547,"##lak":6548,"syftet":6549,"individer":6550,"fragade":6551,"david":6552,"blommor":6553,"vanligtvis":6554,"snabbare":6555,"skole":6556,"patienter":6557,"huvudsak":6558,"##lok":6559,"ifall":6560,"linkoping":6561,"refl":6562,"trapp":6563,"smal":6564,"thailand":6565,"sade":6566,"tillgangliga":6567,"bio":6568,"slutar":6569,"##bra":6570,"avgifter":6571,"kroner":6572,"sugen":6573,"tittade":6574,"teater":6575,"sor":6576,"enskilda":6577,"langtar":6578,"dollar":6579,"kontrollera":6580,"omfattande":6581,"sosial":6582,"150":6583,"mikro":6584,"heta":6585,"startade":6586,"##ome":6587,"has":6588,"##gatan":6589,"konflikt":6590,"statistik":6591,"##cer":6592,"grona":6593,"internasjon":6594,"faller":6595,"##delen":6596,"narvarande":6597,"##fard":6598,"snyggt":6599,"##atorer":6600,"tecken":6601,"friv":6602,"##tatt":6603,"mobilen":6604,"hjul":6605,"konstnar":6606,"bloggar":6607,"##iosa":6608,"insatser":6609,"dum":6610,"dricka":6611,"##unda":6612,"##gora":6613,"moter":6614,"##ual":6615,"gemensamma":6616,"feil":6617,"##polit":6618,"kristen":6619,"termin":6620,"hjarn":6621,"ledare":6622,"##kul":6623,"snabba":6624,"##ino":6625,"erbjudanden":6626,"erotik":6627,"klick":6628,"##sprodu":6629,"representer":6630,"billiga":6631,"avseende":6632,"metall":6633,"dorren":6634,"##hallen":6635,"tillhanda":6636,"trum":6637,"mormor":6638,"ball":6639,"hotel":6640,"afr":6641,"erfarenheter":6642,"##isert":6643,"kallt":6644,"##histor":6645,"##risk":6646,"garden":6647,"utfordr":6648,"besøk":6649,"hande":6650,"##gande":6651,"central":6652,"myndigheter":6653,"atit":6654,"##janster":6655,"bussen":6656,"##ows":6657,"eventuella":6658,"##out":6659,"likevel":6660,"kamera":6661,"fodels":6662,"musl":6663,"varan":6664,"##stallningar":6665,"##odet":6666,"##vakt":6667,"##utveckling":6668,"forstaelse":6669,"flashback":6670,"##skost":6671,"##cel":6672,"##djur":6673,"##enny":6674,"karaktar":6675,"tydlig":6676,"privata":6677,"##ges":6678,"##sper":6679,"##ellan":6680,"mamm":6681,"fjer":6682,"bestamde":6683,"instru":6684,"leta":6685,"servic":6686,"nationella":6687,"##ids":6688,"tuff":6689,"dn":6690,"oerhort":6691,"besokare":6692,"vekt":6693,"bered":6694,"##slivet":6695,"kunskaper":6696,"betyr":6697,"fuck":6698,"finansiering":6699,"vanda":6700,"##ojd":6701,"##ynd":6702,"##fallet":6703,"gn":6704,"##ytande":6705,"forandringar":6706,"neder":6707,"sval":6708,"ringde":6709,"##jobb":6710,"##ensjon":6711,"pabor":6712,"skatte":6713,"##fragor":6714,"tjansten":6715,"##king":6716,"desto":6717,"ent":6718,"skra":6719,"logga":6720,"analys":6721,"svarar":6722,"tidningen":6723,"nagonstans":6724,"##alisering":6725,"##iens":6726,"##fel":6727,"##arm":6728,"##partem":6729,"##yta":6730,"største":6731,"##ksomhet":6732,"##hop":6733,"befolk":6734,"process":6735,"##isch":6736,"##hog":6737,"##tiden":6738,"anledningen":6739,"fortsatte":6740,"lamn":6741,"micro":6742,"begar":6743,"akta":6744,"unika":6745,"fria":6746,"##fisk":6747,"version":6748,"ogonen":6749,"langd":6750,"##fly":6751,"mangder":6752,"##11":6753,"nesten":6754,"hjarta":6755,"slott":6756,"##orerna":6757,"##klapp":6758,"sale":6759,"##lost":6760,"sonder":6761,"hoppa":6762,"##tekn":6763,"nytta":6764,"anges":6765,"godis":6766,"forny":6767,"bekraft":6768,"tjenester":6769,"stift":6770,"konkurr":6771,"stallen":6772,"tilgjen":6773,"leverans":6774,"korta":6775,"kjør":6776,"##visa":6777,"tillganglig":6778,"porrfilmer":6779,"dildo":6780,"##spolit":6781,"hehe":6782,"frankrike":6783,"guds":6784,"uppfy":6785,"frivill":6786,"65":6787,"bror":6788,"konstater":6789,"##iste":6790,"fris":6791,"arsm":6792,"ein":6793,"skand":6794,"badrum":6795,"handen":6796,"##platser":6797,"2004":6798,"##gl":6799,"smor":6800,"##edde":6801,"##rem":6802,"prins":6803,"uppleva":6804,"belopp":6805,"##minister":6806,"##ensioner":6807,"bjor":6808,"hjartat":6809,"forutsattning":6810,"album":6811,"skaffa":6812,"holde":6813,"##oner":6814,"svag":6815,"antall":6816,"kombination":6817,"vapen":6818,"traffar":6819,"nodvandigt":6820,"##burg":6821,"##raning":6822,"assist":6823,"mojlig":6824,"42":6825,"ort":6826,"##sted":6827,"forran":6828,"valkomna":6829,"levande":6830,"intressanta":6831,"lagenheten":6832,"aktiver":6833,"pagar":6834,"skiv":6835,"##ratten":6836,"lankar":6837,"utav":6838,"##kere":6839,"stro":6840,"ekte":6841,"inlagget":6842,"center":6843,"##jord":6844,"##pol":6845,"sette":6846,"avsugning":6847,"tax":6848,"##punkter":6849,"kontrakt":6850,"##uro":6851,"##ningsl":6852,"mjolk":6853,"gat":6854,"##intress":6855,"bolig":6856,"lenge":6857,"lycka":6858,"tant":6859,"sexy":6860,"rej":6861,"york":6862,"thom":6863,"varsta":6864,"##ffekt":6865,"brann":6866,"orsak":6867,"barna":6868,"potatis":6869,"nyckel":6870,"forfattare":6871,"traffade":6872,"support":6873,"johansson":6874,"##losa":6875,"skan":6876,"omgiv":6877,"avanc":6878,"ryska":6879,"skickas":6880,"frasch":6881,"foljd":6882,"lamnade":6883,"marie":6884,"dor":6885,"svenskt":6886,"##rare":6887,"##sporter":6888,"sakra":6889,"unik":6890,"overallt":6891,"##icy":6892,"ke":6893,"##partiet":6894,"##vi":6895,"##legget":6896,"girls":6897,"##afil":6898,"blanda":6899,"ganske":6900,"kry":6901,"##viken":6902,"bedomning":6903,"##ima":6904,"pasta":6905,"fargen":6906,"delvis":6907,"pin":6908,"mju":6909,"beb":6910,"ledig":6911,"misstan":6912,"##eten":6913,"halften":6914,"skickar":6915,"kina":6916,"framtida":6917,"eld":6918,"##arbetet":6919,"oh":6920,"##ede":6921,"shopping":6922,"konkret":6923,"osaker":6924,"regjer":6925,"even":6926,"saknas":6927,"oppnar":6928,"vintern":6929,"pc":6930,"fullstand":6931,"trygghet":6932,"dei":6933,"slappa":6934,"##ands":6935,"varav":6936,"##iger":6937,"grann":6938,"aning":6939,"sadar":6940,"##anvand":6941,"figur":6942,"44":6943,"deler":6944,"karn":6945,"anbef":6946,"mos":6947,"befint":6948,"sjo":6949,"hjelpe":6950,"klassiska":6951,"massasje":6952,"make":6953,"romant":6954,"##asen":6955,"##skyl":6956,"ryggen":6957,"undersokning":6958,"wind":6959,"seks":6960,"forsknings":6961,"onod":6962,"tids":6963,"ledande":6964,"##terade":6965,"##mus":6966,"vardering":6967,"fn":6968,"##best":6969,"forand":6970,"uppfolj":6971,"dekor":6972,"##verse":6973,"##gangar":6974,"##ric":6975,"plocka":6976,"piz":6977,"enheter":6978,"organisationer":6979,"##ordningen":6980,"ingredi":6981,"ratta":6982,"##orte":6983,"undersøkel":6984,"tilb":6985,"sarskilda":6986,"that":6987,"tiltak":6988,"##qvist":6989,"mobilt":6990,"positiva":6991,"introdu":6992,"digitala":6993,"fordelar":6994,"##kval":6995,"fjarde":6996,"##alender":6997,"kans":6998,"brom":6999,"resor":7000,"texten":7001,"landets":7002,"villa":7003,"betalning":7004,"##vd":7005,"##gra":7006,"expl":7007,"grunden":7008,"anmalan":7009,"artiklar":7010,"##si":7011,"england":7012,"blad":7013,"butiker":7014,"deltagare":7015,"##mannen":7016,"slit":7017,"grattis":7018,"eventuell":7019,"dos":7020,"##jande":7021,"timer":7022,"ange":7023,"46":7024,"tillagg":7025,"israel":7026,"mulighet":7027,"rob":7028,"bredvid":7029,"foraldr":7030,"overtyg":7031,"sjukhus":7032,"##eda":7033,"##oven":7034,"jurid":7035,"samfunn":7036,"betalnings":7037,"##angd":7038,"narmaste":7039,"bestammelser":7040,"hens":7041,"##deringar":7042,"stem":7043,"initiativ":7044,"langivare":7045,"love":7046,"plat":7047,"beskrivning":7048,"##delsen":7049,"##behov":7050,"kik":7051,"gemensamt":7052,"hundra":7053,"sags":7054,"##namnden":7055,"slike":7056,"##smark":7057,"tacka":7058,"begge":7059,"europeiska":7060,"produkten":7061,"stack":7062,"sus":7063,"barns":7064,"##onym":7065,"julklapp":7066,"vagg":7067,"funnits":7068,"redus":7069,"resul":7070,"kjærlighet":7071,"hanga":7072,"passade":7073,"utrustning":7074,"okade":7075,"##ect":7076,"økt":7077,"##plikt":7078,"snitt":7079,"nio":7080,"genomfora":7081,"sop":7082,"startar":7083,"inner":7084,"##vok":7085,"ofor":7086,"tycka":7087,"dokumenter":7088,"framover":7089,"##beroende":7090,"##resa":7091,"minskar":7092,"bilde":7093,"stammer":7094,"##ini":7095,"##erligen":7096,"dop":7097,"mala":7098,"49":7099,"tillfallen":7100,"minsta":7101,"##ockey":7102,"anti":7103,"193":7104,"escorts":7105,"leng":7106,"jonas":7107,"hemm":7108,"ekstra":7109,"anlagg":7110,"behandlingen":7111,"avfall":7112,"motion":7113,"ratten":7114,"##utbildning":7115,"krimin":7116,"forts":7117,"##staden":7118,"journalist":7119,"##holder":7120,"##varm":7121,"allting":7122,"linje":7123,"##yra":7124,"utga":7125,"minne":7126,"kurser":7127,"##fart":7128,"vurder":7129,"##ynt":7130,"guide":7131,"premi":7132,"egne":7133,"status":7134,"jar":7135,"kyck":7136,"line":7137,"paul":7138,"forman":7139,"##ennende":7140,"##ustr":7141,"##sek":7142,"sorg":7143,"mai":7144,"##ugan":7145,"##somrade":7146,"ansatte":7147,"tilbud":7148,"lyd":7149,"##12":7150,"konsument":7151,"tyska":7152,"ledar":7153,"kreativ":7154,"sekunder":7155,"varor":7156,"hanger":7157,"##iko":7158,"##resultat":7159,"vaxa":7160,"lokaler":7161,"inkluder":7162,"lul":7163,"skot":7164,"artikeln":7165,"altsa":7166,"fysisk":7167,"troll":7168,"##000":7169,"fiske":7170,"undantag":7171,"##ah":7172,"bekym":7173,"##onn":7174,"mini":7175,"arkitekt":7176,"egentlig":7177,"repar":7178,"##entals":7179,"##aner":7180,"##bilar":7181,"storbr":7182,"##haller":7183,"##delser":7184,"litteratur":7185,"olje":7186,"svt":7187,"agare":7188,"undervisning":7189,"enkelte":7190,"from":7191,"saledes":7192,"noll":7193,"##holdet":7194,"##box":7195,"somn":7196,"emma":7197,"##itann":7198,"hag":7199,"golvet":7200,"stann":7201,"skydda":7202,"verkligheten":7203,"##tav":7204,"##drett":7205,"manaden":7206,"forre":7207,"tomt":7208,"##umer":7209,"annon":7210,"besta":7211,"socialt":7212,"varre":7213,"alltfor":7214,"grej":7215,"##sentera":7216,"fragar":7217,"##kommande":7218,"vaga":7219,"##lades":7220,"mac":7221,"99":7222,"nom":7223,"##cken":7224,"civ":7225,"jud":7226,"##digheter":7227,"bett":7228,"##tokoll":7229,"sundsvall":7230,"instagram":7231,"##ftar":7232,"forklara":7233,"motet":7234,"##ningens":7235,"reflekt":7236,"##sreg":7237,"toal":7238,"nerv":7239,"swedish":7240,"imid":7241,"paris":7242,"virkelig":7243,"henrik":7244,"vei":7245,"ei":7246,"naturliga":7247,"rekry":7248,"##vere":7249,"il":7250,"blas":7251,"##byggnad":7252,"duktig":7253,"damm":7254,"##mande":7255,"imidlertid":7256,"restauranger":7257,"##rapport":7258,"##institut":7259,"##varlden":7260,"##skam":7261,"svaret":7262,"funksjon":7263,"speg":7264,"##sbol":7265,"##olf":7266,"##forsalj":7267,"fira":7268,"##mere":7269,"##ums":7270,"##fir":7271,"##olja":7272,"frihet":7273,"moten":7274,"isol":7275,"rena":7276,"##dige":7277,"##rument":7278,"marknadsforing":7279,"national":7280,"upplever":7281,"##ep":7282,"attrakt":7283,"##schen":7284,"##service":7285,"eldre":7286,"##ykke":7287,"oblig":7288,"storbritann":7289,"dialog":7290,"##fria":7291,"matemat":7292,"bestammer":7293,"prost":7294,"##stud":7295,"##omrade":7296,"lille":7297,"akadem":7298,"##forening":7299,"prosjektet":7300,"kommunal":7301,"utfora":7302,"ventil":7303,"##forbundet":7304,"##sven":7305,"eventuellt":7306,"delt":7307,"snall":7308,"##engt":7309,"world":7310,"mall":7311,"check":7312,"uppmarksamhet":7313,"fortroende":7314,"utbildningen":7315,"arbeids":7316,"tavlingen":7317,"forskott":7318,"alsk":7319,"rapporten":7320,"halm":7321,"samla":7322,"##ris":7323,"medfor":7324,"kasin":7325,"modellen":7326,"forslaget":7327,"##inform":7328,"##indra":7329,"fen":7330,"antar":7331,"##ffar":7332,"ref":7333,"##ebra":7334,"rant":7335,"##ringen":7336,"brett":7337,"fundera":7338,"hastar":7339,"appen":7340,"særlig":7341,"sortiment":7342,"verdens":7343,"champ":7344,"mek":7345,"bot":7346,"inre":7347,"rora":7348,"##ivalen":7349,"radda":7350,"satsa":7351,"arbetsmark":7352,"butiken":7353,"mine":7354,"##avtal":7355,"luften":7356,"##savgift":7357,"øst":7358,"bestamma":7359,"##lagen":7360,"hyr":7361,"generisk":7362,"stads":7363,"angaende":7364,"##matt":7365,"kandid":7366,"redig":7367,"osters":7368,"aktier":7369,"hinna":7370,"vise":7371,"##speri":7372,"kampen":7373,"domin":7374,"sexig":7375,"##riter":7376,"invan":7377,"190":7378,"inl":7379,"##sbruk":7380,"sota":7381,"##yer":7382,"sock":7383,"behovet":7384,"skador":7385,"forestall":7386,"minim":7387,"stedet":7388,"##sse":7389,"arv":7390,"##skyd":7391,"##ners":7392,"perio":7393,"more":7394,"##mail":7395,"registrera":7396,"posted":7397,"##amal":7398,"sd":7399,"##indu":7400,"aktiva":7401,"##iot":7402,"strategi":7403,"##js":7404,"##rarna":7405,"typen":7406,"cro":7407,"milit":7408,"blick":7409,"president":7410,"produs":7411,"lære":7412,"raknas":7413,"avgorande":7414,"##ølge":7415,"##mode":7416,"ment":7417,"vander":7418,"observer":7419,"diskutera":7420,"sikre":7421,"beslutet":7422,"anger":7423,"##sman":7424,"##ementer":7425,"lasare":7426,"pask":7427,"##40":7428,"##sform":7429,"reserv":7430,"horde":7431,"intell":7432,"thomas":7433,"##lysning":7434,"##jansten":7435,"illustr":7436,"nik":7437,"nyss":7438,"##anken":7439,"uppna":7440,"støtte":7441,"##rick":7442,"lart":7443,"kompisar":7444,"tillbehor":7445,"##somradet":7446,"47":7447,"skadespel":7448,"forekommer":7449,"192":7450,"turk":7451,"automatiskt":7452,"kvinne":7453,"anslutning":7454,"felakt":7455,"##demokraterna":7456,"rekt":7457,"##ivande":7458,"##bit":7459,"utok":7460,"##strin":7461,"##besok":7462,"sahar":7463,"##føring":7464,"stefan":7465,"handelser":7466,"sammant":7467,"demon":7468,"tillfallet":7469,"##bad":7470,"##læring":7471,"situationen":7472,"##spill":7473,"foll":7474,"hyra":7475,"aterigen":7476,"##mask":7477,"kalmar":7478,"høyere":7479,"noggran":7480,"distri":7481,"##ios":7482,"lokalt":7483,"43":7484,"offentliga":7485,"##anal":7486,"gaster":7487,"banken":7488,"kameran":7489,"exklus":7490,"lamnat":7491,"fik":7492,"2003":7493,"kines":7494,"nyfiken":7495,"ii":7496,"avvik":7497,"tip":7498,"##skrav":7499,"kryss":7500,"kategorier":7501,"poker":7502,"iv":7503,"arkiv":7504,"forsvinner":7505,"nojda":7506,"##juter":7507,"foregaende":7508,"karlstad":7509,"behandlas":7510,"gren":7511,"lj":7512,"##taget":7513,"millioner":7514,"utseende":7515,"##18":7516,"refer":7517,"avser":7518,"##landet":7519,"bjod":7520,"ansiktet":7521,"##irt":7522,"jer":7523,"prag":7524,"##kas":7525,"hypotek":7526,"latar":7527,"hemmet":7528,"utenfor":7529,"diverse":7530,"engagemang":7531,"gjenopp":7532,"##kurat":7533,"##irekt":7534,"eien":7535,"efterat":7536,"tillat":7537,"power":7538,"apple":7539,"##ela":7540,"ell":7541,"banker":7542,"lim":7543,"informationen":7544,"single":7545,"##ffer":7546,"##skom":7547,"cafe":7548,"venner":7549,"arbetst":7550,"søn":7551,"spelat":7552,"##fører":7553,"##umm":7554,"bedriv":7555,"turen":7556,"sun":7557,"islam":7558,"lese":7559,"##gere":7560,"behor":7561,"##kontakt":7562,"ledam":7563,"##rimin":7564,"strack":7565,"daglig":7566,"medveten":7567,"ull":7568,"ki":7569,"slang":7570,"##ves":7571,"##radd":7572,"faktorer":7573,"akkurat":7574,"##stallningen":7575,"##andre":7576,"hypotekslan":7577,"miljarder":7578,"austral":7579,"##got":7580,"original":7581,"##skog":7582,"fodelsedag":7583,"##60":7584,"##pre":7585,"inse":7586,"##erats":7587,"legger":7588,"kontinuer":7589,"forbindelse":7590,"kvinnan":7591,"klassen":7592,"tranings":7593,"##varor":7594,"sprid":7595,"magnus":7596,"##wn":7597,"##satter":7598,"bostader":7599,"##former":7600,"##øs":7601,"sec":7602,"##skj":7603,"framsta":7604,"bygge":7605,"##schef":7606,"arbetat":7607,"pigg":7608,"utrymme":7609,"##atisk":7610,"ryssland":7611,"##kro":7612,"uttr":7613,"indik":7614,"planering":7615,"forlag":7616,"pepp":7617,"##vn":7618,"##hjal":7619,"underlag":7620,"nilsson":7621,"tranar":7622,"reakt":7623,"dryck":7624,"nødvendig":7625,"##pot":7626,"tillfor":7627,"surf":7628,"undervis":7629,"sovrum":7630,"order":7631,"obe":7632,"franska":7633,"deltar":7634,"loss":7635,"tonaring":7636,"torg":7637,"tallet":7638,"##forbund":7639,"##linjer":7640,"noga":7641,"smitt":7642,"##sked":7643,"boras":7644,"rorelse":7645,"##ysning":7646,"##dra":7647,"norrkoping":7648,"pojk":7649,"stadig":7650,"##upplev":7651,"##gitt":7652,"ansvarig":7653,"mr":7654,"presentation":7655,"eva":7656,"##beskrivning":7657,"navn":7658,"garder":7659,"datings":7660,"##kande":7661,"enlighet":7662,"onskemal":7663,"##ros":7664,"himmel":7665,"familje":7666,"forskare":7667,"forsam":7668,"##byte":7669,"sannolikt":7670,"lulea":7671,"##rel":7672,"dia":7673,"skillnaden":7674,"utbildnings":7675,"salg":7676,"##vide":7677,"sarskild":7678,"##boken":7679,"grejer":7680,"ledning":7681,"rott":7682,"musikk":7683,"finna":7684,"skolor":7685,"turn":7686,"teen":7687,"##ikal":7688,"##fen":7689,"kompon":7690,"kristna":7691,"darlig":7692,"kaff":7693,"ansvarar":7694,"relationer":7695,"snack":7696,"##produkter":7697,"##etar":7698,"##80":7699,"##somraden":7700,"##hi":7701,"lamnas":7702,"rø":7703,"arbetsgiv":7704,"omfattar":7705,"cell":7706,"spennende":7707,"andelen":7708,"##illkor":7709,"##slyck":7710,"##nare":7711,"gom":7712,"driva":7713,"##klass":7714,"ike":7715,"windows":7716,"##ative":7717,"traffas":7718,"##opa":7719,"forsokt":7720,"penis":7721,"tolv":7722,"teknisk":7723,"apen":7724,"##ikke":7725,"##siden":7726,"##fam":7727,"##ikken":7728,"pir":7729,"##briken":7730,"vaxjo":7731,"reag":7732,"##aret":7733,"cup":7734,"gram":7735,"skolen":7736,"##inav":7737,"samverkan":7738,"fasta":7739,"politisk":7740,"omstand":7741,"gammel":7742,"fond":7743,"##aterna":7744,"##splatser":7745,"omedelbart":7746,"upptacka":7747,"koncentr":7748,"totala":7749,"ekonomisk":7750,"ola":7751,"##pac":7752,"obs":7753,"##huvud":7754,"temperatur":7755,"formed":7756,"##15":7757,"medborg":7758,"framgar":7759,"baten":7760,"##skrig":7761,"klas":7762,"jamn":7763,"kilometer":7764,"##partementet":7765,"##ortt":7766,"bakt":7767,"apotek":7768,"##ladd":7769,"##ley":7770,"bull":7771,"##omraden":7772,"##botten":7773,"eftermiddag":7774,"##domen":7775,"halva":7776,"svarare":7777,"mobiltelefon":7778,"https":7779,"##istisk":7780,"##sbygg":7781,"pann":7782,"##oper":7783,"rejalt":7784,"##sfri":7785,"##flytt":7786,"##maktige":7787,"inser":7788,"forpack":7789,"##smak":7790,"lagstift":7791,"flyttade":7792,"klassisk":7793,"handlade":7794,"##sene":7795,"##rass":7796,"##ple":7797,"innenfor":7798,"skiljer":7799,"oxa":7800,"marked":7801,"##aning":7802,"##øte":7803,"##itionen":7804,"ful":7805,"##vida":7806,"lesbisk":7807,"##sommar":7808,"protokoll":7809,"mysig":7810,"vær":7811,"emil":7812,"sti":7813,"hemsidan":7814,"intresserade":7815,"retur":7816,"ringer":7817,"arlig":7818,"skoj":7819,"##jet":7820,"##bal":7821,"##teras":7822,"exist":7823,"stri":7824,"##kal":7825,"sjon":7826,"styrka":7827,"bostadsratt":7828,"pers":7829,"misslyck":7830,"hjemme":7831,"cas":7832,"##tryck":7833,"spille":7834,"island":7835,"besl":7836,"skram":7837,"uts":7838,"sug":7839,"penger":7840,"optim":7841,"lagar":7842,"mont":7843,"svenskar":7844,"hverandre":7845,"hinder":7846,"intill":7847,"##edda":7848,"high":7849,"##tan":7850,"flexi":7851,"kortare":7852,"##inister":7853,"gun":7854,"komplett":7855,"utstyr":7856,"##ac":7857,"avlon":7858,"affars":7859,"forhallanden":7860,"bock":7861,"situationer":7862,"turist":7863,"baby":7864,"ifølge":7865,"##skort":7866,"evenemang":7867,"##cir":7868,"forteller":7869,"andreas":7870,"tradgar":7871,"traningen":7872,"lyssnar":7873,"##komma":7874,"pyss":7875,"##evis":7876,"leksaker":7877,"juster":7878,"##skvall":7879,"##ørt":7880,"inredning":7881,"amnet":7882,"ker":7883,"omojligt":7884,"alternativt":7885,"trang":7886,"##bby":7887,"faststall":7888,"##play":7889,"familjer":7890,"etik":7891,"ler":7892,"lax":7893,"wall":7894,"utdanning":7895,"nick":7896,"##icera":7897,"gru":7898,"asikter":7899,"##formen":7900,"rengor":7901,"religion":7902,"##mas":7903,"troligen":7904,"cancer":7905,"nem":7906,"diskussion":7907,"##unds":7908,"eiendom":7909,"bordet":7910,"skona":7911,"rekord":7912,"bandet":7913,"jattebra":7914,"##umt":7915,"##stu":7916,"innehallet":7917,"erbjudande":7918,"##bring":7919,"praktisk":7920,"foran":7921,"##ls":7922,"##arden":7923,"verd":7924,"kla":7925,"##go":7926,"bott":7927,"pi":7928,"antagligen":7929,"trevliga":7930,"##antering":7931,"jamt":7932,"kontakter":7933,"##gatt":7934,"plasser":7935,"##astro":7936,"tidig":7937,"leverantorer":7938,"vanligaste":7939,"##ingsdag":7940,"utvalg":7941,"leka":7942,"amne":7943,"fattar":7944,"lut":7945,"byen":7946,"fjor":7947,"##fag":7948,"flicka":7949,"overen":7950,"##vards":7951,"tyng":7952,"søke":7953,"eleven":7954,"blek":7955,"##inter":7956,"mika":7957,"pdf":7958,"41":7959,"dyker":7960,"sykdom":7961,"visserligen":7962,"skulder":7963,"##skop":7964,"250":7965,"gifta":7966,"utomlands":7967,"knappast":7968,"eskorter":7969,"født":7970,"eleg":7971,"varlds":7972,"presentera":7973,"anord":7974,"kallad":7975,"hellre":7976,"##vern":7977,"hvilke":7978,"##problem":7979,"##pit":7980,"imp":7981,"##oth":7982,"twitter":7983,"format":7984,"narmast":7985,"##ime":7986,"gunn":7987,"tillag":7988,"##ingarna":7989,"##li":7990,"bist":7991,"##savtal":7992,"varmen":7993,"startet":7994,"trond":7995,"##undersok":7996,"##øring":7997,"ekonomiskt":7998,"koncept":7999,"skapat":8000,"benen":8001,"trivs":8002,"##pend":8003,"##ege":8004,"rutiner":8005,"##angel":8006,"##oten":8007,"kollar":8008,"##hast":8009,"gemensam":8010,"##ettet":8011,"##rekte":8012,"planera":8013,"##ksjoner":8014,"##tere":8015,"##kket":8016,"##ians":8017,"tvart":8018,"kristian":8019,"lost":8020,"planerar":8021,"likt":8022,"kvitt":8023,"mkt":8024,"starten":8025,"##gjort":8026,"statens":8027,"sinn":8028,"##ytter":8029,"nt":8030,"59":8031,"foreslar":8032,"##material":8033,"##personer":8034,"##70":8035,"munnen":8036,"##garen":8037,"inomhus":8038,"rog":8039,"syr":8040,"kris":8041,"halmstad":8042,"rit":8043,"instit":8044,"52":8045,"forresten":8046,"kassa":8047,"##platt":8048,"index":8049,"manniskan":8050,"uke":8051,"##bs":8052,"effekter":8053,"allmanhet":8054,"fora":8055,"vakt":8056,"laten":8057,"jobbade":8058,"600":8059,"vanligen":8060,"lordagen":8061,"##sjekt":8062,"eier":8063,"overvag":8064,"##uch":8065,"fjall":8066,"##mun":8067,"terror":8068,"markt":8069,"axel":8070,"smatt":8071,"motesplatsen":8072,"arab":8073,"##gin":8074,"##ekul":8075,"snur":8076,"diam":8077,"taket":8078,"befolkningen":8079,"eneste":8080,"byggnader":8081,"##sbyg":8082,"##fast":8083,"2001":8084,"ago":8085,"kritik":8086,"wil":8087,"olja":8088,"ovanligt":8089,"behalla":8090,"invol":8091,"haper":8092,"oppr":8093,"##cam":8094,"##orp":8095,"utmaningar":8096,"##bat":8097,"pool":8098,"deretter":8099,"stannar":8100,"##kanna":8101,"fasc":8102,"##sas":8103,"jamfora":8104,"redakt":8105,"billigare":8106,"avslapp":8107,"forf":8108,"##mak":8109,"impl":8110,"ansl":8111,"utredning":8112,"konsekvenser":8113,"##skudd":8114,"kanal":8115,"darifran":8116,"##osof":8117,"##ney":8118,"hold":8119,"trening":8120,"karriar":8121,"##jejer":8122,"blogga":8123,"reha":8124,"tutt":8125,"cool":8126,"sikkerhet":8127,"2002":8128,"##klan":8129,"ikea":8130,"engelsk":8131,"##con":8132,"##landa":8133,"##agan":8134,"miner":8135,"##øv":8136,"ansvaret":8137,"idrett":8138,"veien":8139,"blond":8140,"cum":8141,"advok":8142,"avloningsdag":8143,"kyckling":8144,"gyn":8145,"høyre":8146,"angest":8147,"identitet":8148,"189":8149,"##elding":8150,"funnet":8151,"##ml":8152,"møter":8153,"hvem":8154,"tam":8155,"uppstar":8156,"ica":8157,"eftermiddagen":8158,"lou":8159,"løp":8160,"##hengig":8161,"##gu":8162,"jobber":8163,"aspekt":8164,"liker":8165,"liter":8166,"##ikte":8167,"##umin":8168,"glomt":8169,"##inarie":8170,"inkom":8171,"tradgarden":8172,"##atte":8173,"vardagen":8174,"##elses":8175,"##sfull":8176,"transporter":8177,"troligt":8178,"wal":8179,"petter":8180,"##isin":8181,"sluts":8182,"begynte":8183,"ferdig":8184,"##osen":8185,"tjana":8186,"##isera":8187,"grymt":8188,"koppla":8189,"##iled":8190,"betalas":8191,"identif":8192,"erbjuds":8193,"raka":8194,"read":8195,"tycks":8196,"war":8197,"##fo":8198,"relater":8199,"inslag":8200,"hvorfor":8201,"spark":8202,"cu":8203,"##amer":8204,"##arch":8205,"##log":8206,"summa":8207,"samm":8208,"house":8209,"linne":8210,"down":8211,"karin":8212,"fril":8213,"##drom":8214,"##iellt":8215,"kne":8216,"verksamheter":8217,"##biliter":8218,"##delningen":8219,"missa":8220,"##sne":8221,"atgard":8222,"##ografi":8223,"kategori":8224,"hack":8225,"doda":8226,"materialet":8227,"coach":8228,"mots":8229,"lic":8230,"ever":8231,"insats":8232,"victor":8233,"##peri":8234,"styrelse":8235,"##forvalt":8236,"##skill":8237,"gusta":8238,"##kod":8239,"arena":8240,"##au":8241,"uppenbar":8242,"##munt":8243,"knappen":8244,"spins":8245,"##ismen":8246,"tillsatt":8247,"front":8248,"speciella":8249,"rekommendera":8250,"sjek":8251,"##rost":8252,"prøve":8253,"bevilj":8254,"knut":8255,"vibr":8256,"##fit":8257,"konfer":8258,"manskliga":8259,"følger":8260,"knyttet":8261,"sto":8262,"mata":8263,"rida":8264,"strid":8265,"##ordin":8266,"emellan":8267,"##ents":8268,"kull":8269,"##rats":8270,"##sbrev":8271,"lediga":8272,"##stiden":8273,"hamnade":8274,"skjut":8275,"svarade":8276,"tusentals":8277,"sjukvard":8278,"utvikle":8279,"flyttar":8280,"##cus":8281,"partiet":8282,"sve":8283,"##fod":8284,"professor":8285,"ask":8286,"enormt":8287,"imor":8288,"##vær":8289,"processen":8290,"berom":8291,"garanti":8292,"sko":8293,"spraket":8294,"##agande":8295,"stallning":8296,"##vete":8297,"##bered":8298,"linda":8299,"forlang":8300,"stannade":8301,"storst":8302,"##lass":8303,"vandring":8304,"velge":8305,"papek":8306,"##ogon":8307,"gjøres":8308,"seger":8309,"##sil":8310,"konferens":8311,"mur":8312,"##ymer":8313,"##iam":8314,"formen":8315,"##rop":8316,"parad":8317,"##ningss":8318,"fysiska":8319,"cd":8320,"skinn":8321,"##rona":8322,"3d":8323,"get":8324,"traditionella":8325,"anvandar":8326,"##iler":8327,"informer":8328,"orden":8329,"sjalvstand":8330,"##lit":8331,"ox":8332,"west":8333,"verklighet":8334,"kraftigt":8335,"anvande":8336,"##smed":8337,"##losning":8338,"bibel":8339,"speciell":8340,"bibliotek":8341,"ple":8342,"##ationerna":8343,"roman":8344,"bedrift":8345,"andro":8346,"oberoende":8347,"umgas":8348,"120":8349,"slutligen":8350,"trend":8351,"forsamling":8352,"foton":8353,"plugga":8354,"##itor":8355,"have":8356,"ostra":8357,"lyfta":8358,"rus":8359,"suc":8360,"##16":8361,"medlemskap":8362,"goteborgs":8363,"runda":8364,"hantverk":8365,"##yndigheten":8366,"##ppa":8367,"##bolaget":8368,"##grund":8369,"andring":8370,"gront":8371,"slippa":8372,"høyt":8373,"##sna":8374,"##liggande":8375,"utgar":8376,"##ete":8377,"##do":8378,"##14":8379,"##freds":8380,"uppman":8381,"95":8382,"spanien":8383,"telefonnummer":8384,"texter":8385,"##gick":8386,"utrolig":8387,"gymnasie":8388,"paus":8389,"kod":8390,"argument":8391,"##sprodukter":8392,"##varme":8393,"posten":8394,"praktiskt":8395,"foljde":8396,"formul":8397,"##kopings":8398,"kus":8399,"stader":8400,"anstr":8401,"gutt":8402,"holder":8403,"##rades":8404,"larsson":8405,"ec":8406,"lane":8407,"faktur":8408,"medlemmer":8409,"jente":8410,"##tack":8411,"##fakt":8412,"suger":8413,"pag":8414,"korr":8415,"utstrack":8416,"bryr":8417,"kjøre":8418,"trom":8419,"tabl":8420,"appl":8421,"##que":8422,"##usk":8423,"insag":8424,"##nast":8425,"##mod":8426,"robert":8427,"green":8428,"85":8429,"tillsyn":8430,"hat":8431,"##rin":8432,"##banan":8433,"fjell":8434,"##ved":8435,"hamtade":8436,"mix":8437,"##ele":8438,"veckans":8439,"##oppa":8440,"yta":8441,"##itra":8442,"##ordet":8443,"skara":8444,"exempl":8445,"lagenheter":8446,"movies":8447,"landskap":8448,"strøm":8449,"bekant":8450,"bjuda":8451,"uc":8452,"beteende":8453,"##annes":8454,"betalt":8455,"mp":8456,"isa":8457,"expert":8458,"egendom":8459,"##klad":8460,"##rifter":8461,"fott":8462,"besoker":8463,"##asy":8464,"##ripande":8465,"180":8466,"##gubb":8467,"glomma":8468,"##sstil":8469,"absol":8470,"lask":8471,"forskolan":8472,"doft":8473,"rekommenderas":8474,"sende":8475,"stoppa":8476,"##samtal":8477,"sekund":8478,"certifier":8479,"eskil":8480,"olof":8481,"##estad":8482,"sambo":8483,"word":8484,"dagligen":8485,"diskrimin":8486,"tavla":8487,"##ansett":8488,"##bryt":8489,"distrikt":8490,"##varde":8491,"tap":8492,"bubb":8493,"kommet":8494,"opprett":8495,"avst":8496,"skape":8497,"ye":8498,"scenen":8499,"##porr":8500,"arbeider":8501,"56":8502,"avgjør":8503,"paga":8504,"bang":8505,"##foreningen":8506,"##ppe":8507,"irriter":8508,"bestallning":8509,"ordinarie":8510,"gronsaker":8511,"karleken":8512,"bens":8513,"atmos":8514,"mobler":8515,"ran":8516,"klokker":8517,"##jent":8518,"##ally":8519,"inbjud":8520,"bygget":8521,"generellt":8522,"kapitel":8523,"tilgjengelig":8524,"spelas":8525,"følgende":8526,"meddelande":8527,"forsak":8528,"##old":8529,"aud":8530,"syssel":8531,"##ubl":8532,"body":8533,"larande":8534,"kontaktannonser":8535,"##projekt":8536,"imorse":8537,"54":8538,"foremal":8539,"byn":8540,"somnade":8541,"relevant":8542,"asyl":8543,"liber":8544,"##lu":8545,"##hals":8546,"##17":8547,"utlaning":8548,"##spol":8549,"uansett":8550,"tradisjon":8551,"##rut":8552,"selskap":8553,"##vark":8554,"aks":8555,"trav":8556,"lamplig":8557,"lenger":8558,"pussy":8559,"kaka":8560,"##ski":8561,"micha":8562,"ledsen":8563,"fann":8564,"result":8565,"internett":8566,"instrument":8567,"meny":8568,"vr":8569,"jamforelse":8570,"intakter":8571,"pod":8572,"begynner":8573,"forvaltning":8574,"ht":8575,"##ards":8576,"bif":8577,"solid":8578,"traffat":8579,"overrask":8580,"pic":8581,"aw":8582,"##ani":8583,"lade":8584,"aktorer":8585,"##menn":8586,"biljetter":8587,"minnes":8588,"##iteter":8589,"kraftig":8590,"velat":8591,"53":8592,"##kvall":8593,"hev":8594,"##lysninger":8595,"upplevelser":8596,"sutt":8597,"##fragas":8598,"##ssp":8599,"svett":8600,"riksdagen":8601,"overlev":8602,"forvand":8603,"##bana":8604,"avsloj":8605,"malin":8606,"pavir":8607,"belon":8608,"##core":8609,"##tjanst":8610,"##skaff":8611,"lær":8612,"lone":8613,"maskiner":8614,"lei":8615,"call":8616,"nomin":8617,"morse":8618,"upphov":8619,"temat":8620,"##wood":8621,"kniv":8622,"losen":8623,"charl":8624,"##beratt":8625,"intraff":8626,"halsen":8627,"minut":8628,"skoter":8629,"fokusera":8630,"statt":8631,"hug":8632,"kontant":8633,"lena":8634,"good":8635,"stj":8636,"64":8637,"##ampa":8638,"utnyttja":8639,"##ited":8640,"gjord":8641,"##uelt":8642,"lyft":8643,"borg":8644,"##kje":8645,"ri":8646,"ski":8647,"kveld":8648,"##shem":8649,"flertal":8650,"##foring":8651,"andamal":8652,"##jning":8653,"##lista":8654,"gb":8655,"1800":8656,"fredags":8657,"saaa":8658,"leverantor":8659,"##gjøre":8660,"springer":8661,"alvor":8662,"##meddel":8663,"##ission":8664,"hastighet":8665,"tillater":8666,"##agt":8667,"##unk":8668,"femin":8669,"upplag":8670,"verkade":8671,"flest":8672,"personligt":8673,"forstark":8674,"##aldern":8675,"kostnaden":8676,"##ares":8677,"##verkt":8678,"dru":8679,"harda":8680,"##pporter":8681,"##osex":8682,"konsult":8683,"angiv":8684,"club":8685,"##sprojekt":8686,"styra":8687,"stallde":8688,"elin":8689,"hanna":8690,"selskapet":8691,"batter":8692,"##roller":8693,"ork":8694,"kompetanse":8695,"##egang":8696,"direkte":8697,"gubb":8698,"starkare":8699,"anonym":8700,"##sperson":8701,"andas":8702,"##isere":8703,"##cesser":8704,"element":8705,"brut":8706,"vaggen":8707,"yoga":8708,"##utvik":8709,"##imm":8710,"##ansvart":8711,"hasten":8712,"annons":8713,"sjukdomar":8714,"civil":8715,"regelbundet":8716,"telefonen":8717,"##pad":8718,"vite":8719,"barneh":8720,"voksne":8721,"karlsson":8722,"##istik":8723,"storbritannien":8724,"fagel":8725,"nyar":8726,"riv":8727,"sjukskoter":8728,"##dage":8729,"tunga":8730,"infrast":8731,"2019":8732,"historie":8733,"undersoka":8734,"##vetenskap":8735,"nivaer":8736,"favoriter":8737,"koka":8738,"plugg":8739,"##bordet":8740,"christian":8741,"lisa":8742,"belast":8743,"anlaggning":8744,"##onde":8745,"afton":8746,"ress":8747,"roligare":8748,"aga":8749,"pren":8750,"latta":8751,"orienter":8752,"handlingar":8753,"prop":8754,"android":8755,"gustav":8756,"tenke":8757,"##bri":8758,"brudar":8759,"konsert":8760,"praktik":8761,"##sre":8762,"##asjer":8763,"##agaren":8764,"##folkning":8765,"##uld":8766,"affarer":8767,"lør":8768,"sakerstalla":8769,"##19":8770,"look":8771,"museum":8772,"##iets":8773,"##agning":8774,"express":8775,"##acka":8776,"galla":8777,"avtalet":8778,"kannas":8779,"##fang":8780,"800":8781,"stada":8782,"gitar":8783,"farmor":8784,"djupt":8785,"kvad":8786,"home":8787,"##reter":8788,"phot":8789,"ovant":8790,"farre":8791,"##cia":8792,"regionen":8793,"avses":8794,"shem":8795,"definition":8796,"amerikansk":8797,"overenskomm":8798,"##shand":8799,"levitra":8800,"nettsteder":8801,"riktlinjer":8802,"livsstil":8803,"handler":8804,"insattning":8805,"protein":8806,"journal":8807,"genast":8808,"likad":8809,"kann":8810,"tuttar":8811,"abo":8812,"##vast":8813,"##fla":8814,"attack":8815,"##otika":8816,"pizza":8817,"invanare":8818,"final":8819,"betong":8820,"verket":8821,"##ones":8822,"intressen":8823,"konkurran":8824,"##rog":8825,"bomull":8826,"##iness":8827,"opplæring":8828,"##talje":8829,"halls":8830,"##sspel":8831,"gjennomføre":8832,"synner":8833,"kjenner":8834,"##ament":8835,"utslapp":8836,"gjenopprett":8837,"hockey":8838,"fara":8839,"veter":8840,"inspel":8841,"utstrackning":8842,"musiken":8843,"cla":8844,"##ogn":8845,"skarm":8846,"januar":8847,"gjorts":8848,"dygnet":8849,"gemenskap":8850,"melod":8851,"anne":8852,"recensioner":8853,"bytte":8854,"uker":8855,"beskriva":8856,"basert":8857,"utgifter":8858,"cor":8859,"konsumenter":8860,"midsommar":8861,"strum":8862,"##inska":8863,"raknar":8864,"##skurs":8865,"farligt":8866,"##entlig":8867,"regul":8868,"suttit":8869,"##onomi":8870,"apne":8871,"spons":8872,"handelse":8873,"##eks":8874,"jac":8875,"##otet":8876,"lot":8877,"##sforen":8878,"motte":8879,"##hr":8880,"praktiska":8881,"klatt":8882,"verkliga":8883,"sanna":8884,"##holmen":8885,"behandlar":8886,"dygn":8887,"loj":8888,"##cm":8889,"phil":8890,"jos":8891,"uppat":8892,"elit":8893,"##skra":8894,"tang":8895,"##uu":8896,"overst":8897,"##oppen":8898,"##rika":8899,"##ektion":8900,"shemale":8901,"fotball":8902,"storm":8903,"offer":8904,"##ykket":8905,"##atur":8906,"datorer":8907,"tera":8908,"##elden":8909,"##arbeider":8910,"##esjon":8911,"placering":8912,"premiar":8913,"foljt":8914,"goran":8915,"##edia":8916,"##sbes":8917,"##uppgift":8918,"framme":8919,"##agna":8920,"raskt":8921,"foretagets":8922,"somna":8923,"tvar":8924,"hatar":8925,"hammar":8926,"tempo":8927,"blu":8928,"hakan":8929,"ansikte":8930,"##uth":8931,"viktigste":8932,"snalla":8933,"moln":8934,"##stekn":8935,"ess":8936,"##hamt":8937,"##rustning":8938,"tidning":8939,"kim":8940,"motsvarar":8941,"vo":8942,"besikt":8943,"##ffs":8944,"trosor":8945,"innebara":8946,"baserat":8947,"##iftet":8948,"lanken":8949,"organisationen":8950,"market":8951,"##elsene":8952,"tør":8953,"eric":8954,"politiet":8955,"##bildning":8956,"##ked":8957,"fine":8958,"ugnen":8959,"lita":8960,"kyrka":8961,"forebygg":8962,"##vare":8963,"##fikk":8964,"##sjuk":8965,"trondheim":8966,"midt":8967,"psykisk":8968,"rosen":8969,"befintliga":8970,"bilaga":8971,"mojligen":8972,"##sall":8973,"##24":8974,"##kak":8975,"bin":8976,"tungt":8977,"##ksis":8978,"rette":8979,"##innande":8980,"medverk":8981,"##strand":8982,"tranare":8983,"styret":8984,"sekret":8985,"signal":8986,"##iering":8987,"##mene":8988,"navig":8989,"krev":8990,"mage":8991,"kjente":8992,"personlighet":8993,"arbetsgivare":8994,"days":8995,"##emid":8996,"##ningene":8997,"legat":8998,"act":8999,"gjordes":9000,"arenden":9001,"skonhet":9002,"##kok":9003,"julen":9004,"fordju":9005,"serios":9006,"fur":9007,"poeng":9008,"duktiga":9009,"svamp":9010,"leverera":9011,"minutter":9012,"##rikes":9013,"##vention":9014,"planerat":9015,"para":9016,"serier":9017,"obligator":9018,"prenumer":9019,"##dagar":9020,"57":9021,"anhor":9022,"##fat":9023,"##varna":9024,"aring":9025,"møtt":9026,"##vikt":9027,"forbud":9028,"##jef":9029,"##terat":9030,"grand":9031,"##behand":9032,"stycket":9033,"##sniva":9034,"lokale":9035,"rekommend":9036,"norden":9037,"tilbyr":9038,"levereras":9039,"harom":9040,"uppmunt":9041,"syftar":9042,"##iljø":9043,"##iene":9044,"lycklig":9045,"lung":9046,"kriter":9047,"our":9048,"georg":9049,"##ence":9050,"vardet":9051,"samlar":9052,"ud":9053,"kreditkort":9054,"varierar":9055,"hp":9056,"aterstall":9057,"annonsen":9058,"uppfattning":9059,"##ultur":9060,"##soft":9061,"forkyl":9062,"tvartom":9063,"gillade":9064,"##bruks":9065,"ukra":9066,"##13":9067,"inkluderar":9068,"##nads":9069,"spor":9070,"johanna":9071,"watch":9072,"øke":9073,"konsekvens":9074,"##emon":9075,"agen":9076,"attra":9077,"vett":9078,"vitamin":9079,"begrav":9080,"smidigt":9081,"kika":9082,"ert":9083,"##enta":9084,"tavlingar":9085,"negativa":9086,"varenda":9087,"nordiska":9088,"ledde":9089,"arbetslos":9090,"kalender":9091,"moss":9092,"##olution":9093,"dyrt":9094,"filosof":9095,"##ese":9096,"##och":9097,"bjør":9098,"hors":9099,"58":9100,"bakat":9101,"akut":9102,"##hjul":9103,"skje":9104,"livs":9105,"stott":9106,"reduc":9107,"##shop":9108,"stek":9109,"fastigheten":9110,"historiska":9111,"hr":9112,"smink":9113,"resultaten":9114,"station":9115,"1990":9116,"kollegor":9117,"lyst":9118,"##holde":9119,"jamstalld":9120,"diabet":9121,"##rater":9122,"muskel":9123,"asa":9124,"forklarar":9125,"##spa":9126,"mikael":9127,"##glas":9128,"lott":9129,"atervand":9130,"num":9131,"##atera":9132,"internationell":9133,"slapper":9134,"trist":9135,"parall":9136,"##dagens":9137,"##com":9138,"styrke":9139,"perman":9140,"forelig":9141,"aktenskap":9142,"##vagn":9143,"kass":9144,"landsbyg":9145,"##stjarn":9146,"##ikring":9147,"##ingo":9148,"##orten":9149,"skett":9150,"##jun":9151,"kabel":9152,"##illing":9153,"##eland":9154,"sympt":9155,"##giver":9156,"volym":9157,"bengt":9158,"bis":9159,"tenn":9160,"smaning":9161,"osc":9162,"rank":9163,"fenomen":9164,"69":9165,"arter":9166,"eme":9167,"valp":9168,"rask":9169,"sakta":9170,"verka":9171,"specifika":9172,"integritet":9173,"takk":9174,"ungdoms":9175,"bik":9176,"anlegg":9177,"##annsyn":9178,"studien":9179,"##park":9180,"##ye":9181,"##ojligheter":9182,"lovar":9183,"praktiken":9184,"##vig":9185,"skillnader":9186,"siffror":9187,"##alternativ":9188,"overlag":9189,"partier":9190,"feber":9191,"skala":9192,"behandla":9193,"##ifi":9194,"hjalpte":9195,"forandras":9196,"ink":9197,"inriktning":9198,"##grader":9199,"enheten":9200,"tvang":9201,"personligen":9202,"tydliga":9203,"poly":9204,"uppfor":9205,"fastigheter":9206,"##light":9207,"##ologiskt":9208,"##sland":9209,"gransen":9210,"##anna":9211,"what":9212,"pall":9213,"hygg":9214,"reise":9215,"##efte":9216,"que":9217,"snon":9218,"##ccin":9219,"foredrar":9220,"##ming":9221,"kvadrat":9222,"beach":9223,"utmaning":9224,"vantade":9225,"##vil":9226,"##our":9227,"##skottet":9228,"planet":9229,"femte":9230,"ingredienser":9231,"foretagen":9232,"kulture":9233,"berattelser":9234,"frig":9235,"innhold":9236,"trett":9237,"##ssons":9238,"bryta":9239,"stanga":9240,"frid":9241,"##ness":9242,"##sjo":9243,"masse":9244,"fattig":9245,"bri":9246,"tunnel":9247,"vaxter":9248,"steder":9249,"tekst":9250,"##center":9251,"##skick":9252,"intryck":9253,"##pacitet":9254,"foreldre":9255,"##estall":9256,"kvinnliga":9257,"rand":9258,"##appar":9259,"riskerar":9260,"##iox":9261,"##sler":9262,"sexuella":9263,"sondagen":9264,"##jam":9265,"reis":9266,"sentr":9267,"lopande":9268,"oppmer":9269,"naringsliv":9270,"ljuset":9271,"dagis":9272,"erfaring":9273,"stadens":9274,"kanon":9275,"utvecklar":9276,"speed":9277,"##mast":9278,"sorts":9279,"badoo":9280,"##bilitet":9281,"tilgang":9282,"smaningom":9283,"##formaga":9284,"##beide":9285,"##ianter":9286,"omt":9287,"ikkje":9288,"transa":9289,"##slin":9290,"##stuna":9291,"##slosa":9292,"mam":9293,"separat":9294,"halvar":9295,"slot":9296,"##formed":9297,"skrive":9298,"##itch":9299,"##isterna":9300,"##domar":9301,"##ifest":9302,"levererar":9303,"torn":9304,"kopen":9305,"kjønn":9306,"morka":9307,"##ath":9308,"##kun":9309,"plant":9310,"hundrat":9311,"his":9312,"past":9313,"insikt":9314,"drabbas":9315,"ogonblick":9316,"minnen":9317,"stressa":9318,"register":9319,"jula":9320,"katastro":9321,"fonder":9322,"##shandel":9323,"budsj":9324,"##anmark":9325,"##tas":9326,"ovre":9327,"storlekar":9328,"databas":9329,"faktura":9330,"teknologi":9331,"##offer":9332,"uppdraget":9333,"##sutveck":9334,"##meter":9335,"offentlige":9336,"global":9337,"galet":9338,"kalas":9339,"##essig":9340,"tillbring":9341,"vakna":9342,"grus":9343,"tapet":9344,"##line":9345,"##sko":9346,"drivs":9347,"spot":9348,"foder":9349,"life":9350,"dato":9351,"emeller":9352,"tvingas":9353,"##cial":9354,"blandning":9355,"avsluta":9356,"krydd":9357,"forvaltnings":9358,"sosiale":9359,"skrevet":9360,"klanning":9361,"emellertid":9362,"##zon":9363,"jarnvag":9364,"##ison":9365,"eskilstuna":9366,"homo":9367,"primar":9368,"##aks":9369,"tek":9370,"sed":9371,"delas":9372,"lun":9373,"spendera":9374,"##plass":9375,"uppfyller":9376,"omvand":9377,"pum":9378,"paverkas":9379,"webben":9380,"##esel":9381,"omrader":9382,"sanningen":9383,"##departementet":9384,"##holl":9385,"lærer":9386,"##vat":9387,"gotland":9388,"fragorna":9389,"##alten":9390,"kommunala":9391,"falla":9392,"forhandling":9393,"analy":9394,"##sgatan":9395,"tvatta":9396,"##artik":9397,"setter":9398,"enorm":9399,"anmala":9400,"1999":9401,"##mans":9402,"forlust":9403,"##konto":9404,"luk":9405,"troja":9406,"##programmet":9407,"##casin":9408,"tagg":9409,"##kommen":9410,"##yper":9411,"ig":9412,"minuters":9413,"rollen":9414,"effekten":9415,"##disk":9416,"pojkar":9417,"gatan":9418,"##forsk":9419,"##fig":9420,"gig":9421,"negativt":9422,"yrke":9423,"##varen":9424,"##ffektiv":9425,"##ssystemet":9426,"sajten":9427,"observera":9428,"##lene":9429,"##25":9430,"rutin":9431,"##inspekt":9432,"handerna":9433,"sci":9434,"dress":9435,"riktning":9436,"alumin":9437,"jordgubb":9438,"##uen":9439,"komplex":9440,"viste":9441,"##bba":9442,"##ansvarig":9443,"##ool":9444,"oppnade":9445,"business":9446,"webblas":9447,"manniskors":9448,"tjejerna":9449,"garderob":9450,"works":9451,"framgangs":9452,"##maskiner":9453,"interesser":9454,"bestille":9455,"##skommun":9456,"charm":9457,"##ano":9458,"recension":9459,"klag":9460,"branschen":9461,"hallet":9462,"innlegget":9463,"sannsyn":9464,"kraven":9465,"hette":9466,"type":9467,"hoppade":9468,"forfattaren":9469,"internationellt":9470,"debatten":9471,"##kong":9472,"gjennomført":9473,"drommar":9474,"andringar":9475,"trycka":9476,"sank":9477,"senior":9478,"foddes":9479,"uppgifterna":9480,"bbw":9481,"barnens":9482,"michael":9483,"erk":9484,"leag":9485,"##orth":9486,"##pten":9487,"dagliga":9488,"kond":9489,"##bile":9490,"beakt":9491,"gymnasiet":9492,"soll":9493,"ideal":9494,"##smet":9495,"##bocker":9496,"##skydds":9497,"##ico":9498,"forvir":9499,"viktige":9500,"##sned":9501,"inneholder":9502,"##pri":9503,"priserna":9504,"von":9505,"rehabiliter":9506,"yog":9507,"presenteras":9508,"publiken":9509,"forbru":9510,"bakgrunn":9511,"##ero":9512,"bd":9513,"##oser":9514,"rop":9515,"fatta":9516,"##splanen":9517,"batteri":9518,"hantering":9519,"radi":9520,"tings":9521,"##issar":9522,"packa":9523,"forskola":9524,"selvføl":9525,"skandinav":9526,"vikten":9527,"infekt":9528,"styre":9529,"##aring":9530,"programmer":9531,"forstor":9532,"bokstav":9533,"høre":9534,"prom":9535,"kick":9536,"vinster":9537,"bytt":9538,"aterf":9539,"oppett":9540,"tekniken":9541,"maned":9542,"##ktorn":9543,"##orier":9544,"spri":9545,"deltagarna":9546,"overnatt":9547,"samlat":9548,"##varda":9549,"budskap":9550,"utstallning":9551,"ivar":9552,"medans":9553,"cal":9554,"foreningens":9555,"avkast":9556,"utviklet":9557,"##information":9558,"tross":9559,"eskorte":9560,"befolkning":9561,"##ettere":9562,"##ned":9563,"skjul":9564,"##stilling":9565,"sites":9566,"farsk":9567,"døde":9568,"behag":9569,"ifragas":9570,"solna":9571,"hjarnan":9572,"##attan":9573,"begransad":9574,"mangf":9575,"lader":9576,"##essen":9577,"byggt":9578,"pagaende":9579,"betalningsanmark":9580,"jattef":9581,"ped":9582,"redov":9583,"cur":9584,"sprut":9585,"tad":9586,"forbed":9587,"identifier":9588,"aluminium":9589,"##enhet":9590,"kopenhamn":9591,"rika":9592,"bestaende":9593,"muslim":9594,"fredagen":9595,"barnets":9596,"sprida":9597,"malm":9598,"##ioxid":9599,"report":9600,"dun":9601,"##hør":9602,"ytan":9603,"##ikon":9604,"ønsket":9605,"delakt":9606,"baka":9607,"sider":9608,"konstant":9609,"67":9610,"book":9611,"##omb":9612,"##kommit":9613,"larm":9614,"oppettider":9615,"uppdatera":9616,"lordags":9617,"reglerna":9618,"fotter":9619,"##alte":9620,"bitar":9621,"forstod":9622,"##uel":9623,"##ical":9624,"armen":9625,"hallen":9626,"##okl":9627,"nyhetsbrev":9628,"spekt":9629,"dynam":9630,"pasient":9631,"##rollen":9632,"bredd":9633,"##lada":9634,"gunnar":9635,"##aaaa":9636,"fjarr":9637,"finaste":9638,"anstallning":9639,"kampanj":9640,"progn":9641,"##job":9642,"jobbe":9643,"nark":9644,"bul":9645,"cop":9646,"sparar":9647,"forsvann":9648,"forbjud":9649,"##atiska":9650,"nm":9651,"aktuellt":9652,"broder":9653,"holm":9654,"rast":9655,"##koppling":9656,"##budet":9657,"problemer":9658,"##ole":9659,"vek":9660,"##vardighet":9661,"1900":9662,"##22":9663,"##opt":9664,"##uttet":9665,"##station":9666,"granser":9667,"testat":9668,"morgen":9669,"endre":9670,"vinden":9671,"##skolen":9672,"##su":9673,"utbildningar":9674,"ast":9675,"oron":9676,"mem":9677,"kortet":9678,"mangden":9679,"##ati":9680,"eriksson":9681,"##ivna":9682,"marke":9683,"##esh":9684,"188":9685,"jenny":9686,"##litt":9687,"abonn":9688,"nøy":9689,"ida":9690,"konkurrens":9691,"unikt":9692,"human":9693,"dalarna":9694,"##iserade":9695,"##spris":9696,"rorelser":9697,"##urg":9698,"effektiva":9699,"misstag":9700,"forklaring":9701,"uppfyll":9702,"##sy":9703,"##hydr":9704,"stilla":9705,"velger":9706,"unna":9707,"##stein":9708,"jeans":9709,"fyllt":9710,"sexfilm":9711,"class":9712,"elva":9713,"garn":9714,"redovisning":9715,"volvo":9716,"slots":9717,"league":9718,"samord":9719,"virus":9720,"kronika":9721,"persson":9722,"##styrelsens":9723,"rosta":9724,"orolig":9725,"gustaf":9726,"studera":9727,"spin":9728,"utbetal":9729,"historier":9730,"arliga":9731,"arbetsplats":9732,"trag":9733,"silden":9734,"klasser":9735,"klær":9736,"begrens":9737,"##post":9738,"swing":9739,"beraknas":9740,"valuta":9741,"##storp":9742,"sikkert":9743,"homosex":9744,"samlet":9745,"##assiga":9746,"day":9747,"##øren":9748,"forvantningar":9749,"bebis":9750,"hyresg":9751,"applik":9752,"sildenafil":9753,"forsen":9754,"tt":9755,"vunnit":9756,"praksis":9757,"familie":9758,"mjuka":9759,"muligheter":9760,"gymmet":9761,"##funnet":9762,"vision":9763,"reson":9764,"foreskrifter":9765,"rester":9766,"katter":9767,"yttre":9768,"dyra":9769,"bolagets":9770,"##rod":9771,"fiber":9772,"anton":9773,"##byggd":9774,"endringer":9775,"uppfoljning":9776,"smslan":9777,"bind":9778,"flor":9779,"moment":9780,"##cks":9781,"dott":9782,"##resor":9783,"etn":9784,"##inns":9785,"##bt":9786,"vurdering":9787,"nemlig":9788,"spelautom":9789,"##teckning":9790,"rich":9791,"sallad":9792,"origin":9793,"migr":9794,"betydande":9795,"##kken":9796,"minus":9797,"efterfragan":9798,"innehalla":9799,"game":9800,"meningen":9801,"hyd":9802,"##erings":9803,"karakt":9804,"rat":9805,"##ugh":9806,"##ebror":9807,"ml":9808,"##stallda":9809,"vider":9810,"medisin":9811,"##opro":9812,"passion":9813,"##morgon":9814,"##skrona":9815,"chil":9816,"##finans":9817,"##ningsfor":9818,"teori":9819,"##skapen":9820,"hallbarhet":9821,"grepp":9822,"brasil":9823,"frida":9824,"forvag":9825,"laggs":9826,"##rigt":9827,"##igaste":9828,"holdt":9829,"small":9830,"lider":9831,"##kons":9832,"##yo":9833,"##ision":9834,"orgas":9835,"##fraga":9836,"økonomi":9837,"##idan":9838,"stavanger":9839,"##ystemet":9840,"danska":9841,"##alg":9842,"beveg":9843,"uppvarm":9844,"sthl":9845,"sjuka":9846,"orter":9847,"premium":9848,"##spass":9849,"olj":9850,"##nitt":9851,"omgang":9852,"skapade":9853,"harmon":9854,"shop":9855,"finalen":9856,"##ws":9857,"##atiskt":9858,"føre":9859,"##svagen":9860,"harry":9861,"kommunfull":9862,"##duk":9863,"##last":9864,"hvilken":9865,"talt":9866,"##produktion":9867,"##tain":9868,"inbland":9869,"dansk":9870,"klokke":9871,"hih":9872,"avlopp":9873,"##che":9874,"regnet":9875,"##stolen":9876,"utsatta":9877,"lis":9878,"forstatt":9879,"smuts":9880,"muligheten":9881,"tech":9882,"sofia":9883,"##leder":9884,"bekvamt":9885,"jakla":9886,"finska":9887,"enten":9888,"tidpunkt":9889,"##tagen":9890,"hardcore":9891,"tillgod":9892,"metoden":9893,"adam":9894,"bildet":9895,"66":9896,"##mart":9897,"utlandska":9898,"##ira":9899,"##dring":9900,"moms":9901,"##90":9902,"paborj":9903,"godkant":9904,"##strateg":9905,"blank":9906,"multi":9907,"langsamt":9908,"stodja":9909,"besø":9910,"representanter":9911,"hoja":9912,"presenterar":9913,"infrastruktur":9914,"sannolik":9915,"##øyd":9916,"ande":9917,"kvaliteten":9918,"nærmere":9919,"steget":9920,"underlatta":9921,"tull":9922,"medborgare":9923,"##rull":9924,"##følg":9925,"kilo":9926,"microsoft":9927,"jap":9928,"##isser":9929,"iden":9930,"skydds":9931,"##sbel":9932,"placera":9933,"ledarskap":9934,"vaknar":9935,"norrland":9936,"agera":9937,"lønn":9938,"elektr":9939,"tacksam":9940,"##emed":9941,"uppmarksamm":9942,"oppdrag":9943,"ist":9944,"##vas":9945,"##text":9946,"##idrag":9947,"##pool":9948,"orsaken":9949,"##idens":9950,"passer":9951,"involver":9952,"hamna":9953,"fader":9954,"togs":9955,"ytterst":9956,"##cell":9957,"risiko":9958,"lørdag":9959,"1998":9960,"norska":9961,"simon":9962,"##sagare":9963,"sva":9964,"##fra":9965,"oliv":9966,"negativ":9967,"sonen":9968,"##jd":9969,"##kurs":9970,"uppehall":9971,"##steg":9972,"william":9973,"dame":9974,"investeringar":9975,"ryck":9976,"spesial":9977,"ulf":9978,"universitetet":9979,"##enfor":9980,"dricker":9981,"roy":9982,"affaren":9983,"utredningen":9984,"fynd":9985,"dj":9986,"smaken":9987,"##ute":9988,"##arium":9989,"gammalt":9990,"fabrik":9991,"debut":9992,"bearbet":9993,"##gym":9994,"paverkan":9995,"dras":9996,"##skostnader":9997,"vild":9998,"nybor":9999,"advokat":10000,"livsl":10001,"varianter":10002,"utbr":10003,"##sig":10004,"63":10005,"føler":10006,"ovningar":10007,"intresset":10008,"##kra":10009,"besokte":10010,"##reterare":10011,"studio":10012,"##peut":10013,"alska":10014,"sakerhets":10015,"karta":10016,"innovation":10017,"##annan":10018,"##beth":10019,"esp":10020,"##position":10021,"foraldrarna":10022,"karakter":10023,"grun":10024,"sidorna":10025,"tillganglighet":10026,"alternativet":10027,"king":10028,"kvalite":10029,"gum":10030,"##verkets":10031,"foredrag":10032,"forsiktigt":10033,"##forsaljare":10034,"omtal":10035,"kvalific":10036,"internasjonale":10037,"belysning":10038,"staende":10039,"spont":10040,"suga":10041,"general":10042,"dahl":10043,"starter":10044,"cra":10045,"##75":10046,"cle":10047,"tillfreds":10048,"forsvars":10049,"anstalld":10050,"##sbo":10051,"bockerna":10052,"mobb":10053,"forhindra":10054,"##cing":10055,"latin":10056,"##entene":10057,"psykolog":10058,"munt":10059,"luck":10060,"biblioteket":10061,"kjæreste":10062,"##utrym":10063,"##ance":10064,"installation":10065,"51":10066,"##sbr":10067,"##hopp":10068,"variant":10069,"samlas":10070,"naz":10071,"##redovis":10072,"##ave":10073,"##parten":10074,"skrack":10075,"regeringens":10076,"##eftea":10077,"kommentera":10078,"##arke":10079,"backen":10080,"##trafik":10081,"##itten":10082,"myst":10083,"roster":10084,"advent":10085,"##tur":10086,"##spelet":10087,"##esen":10088,"traden":10089,"veckorna":10090,"beskrivs":10091,"forsiktig":10092,"nils":10093,"risker":10094,"endelig":10095,"##strid":10096,"doktor":10097,"##stin":10098,"observ":10099,"synpunkter":10100,"overfl":10101,"##inget":10102,"##beg":10103,"lod":10104,"hop":10105,"symptom":10106,"afrik":10107,"hungr":10108,"organisasjon":10109,"hundarna":10110,"##priset":10111,"bryter":10112,"ovanfor":10113,"##skador":10114,"##stillstand":10115,"foss":10116,"international":10117,"##bjud":10118,"flack":10119,"##kamp":10120,"paminner":10121,"tilldel":10122,"specifik":10123,"bollen":10124,"carol":10125,"##barhet":10126,"bron":10127,"mans":10128,"ellers":10129,"oppdater":10130,"##ytning":10131,"kas":10132,"##kelen":10133,"berattelse":10134,"larar":10135,"sticka":10136,"##kontroll":10137,"vegetar":10138,"##ykker":10139,"##just":10140,"leker":10141,"rea":10142,"##uktor":10143,"##visningar":10144,"ked":10145,"allmanheten":10146,"forvaring":10147,"##butik":10148,"rens":10149,"##nere":10150,"vaccin":10151,"brister":10152,"##massigt":10153,"losenord":10154,"forvantas":10155,"##issionen":10156,"krediter":10157,"maxim":10158,"premier":10159,"##fru":10160,"krever":10161,"##saken":10162,"deltog":10163,"sjø":10164,"mex":10165,"uppskattar":10166,"72":10167,"group":10168,"johannes":10169,"venstre":10170,"uppdatering":10171,"avsikt":10172,"##ylar":10173,"deleg":10174,"##pens":10175,"valgt":10176,"byter":10177,"fonstret":10178,"festival":10179,"##planen":10180,"rakar":10181,"ara":10182,"##uti":10183,"ledd":10184,"white":10185,"sammenlig":10186,"foreningar":10187,"kategorin":10188,"62":10189,"moral":10190,"himlen":10191,"fartyg":10192,"action":10193,"diabetes":10194,"pratat":10195,"stalls":10196,"private":10197,"halvt":10198,"regjeringen":10199,"sovit":10200,"##paket":10201,"lyser":10202,"plattform":10203,"##fold":10204,"##dags":10205,"tjanste":10206,"patienten":10207,"nic":10208,"installning":10209,"sthlm":10210,"1500":10211,"godkand":10212,"spanska":10213,"dvd":10214,"##´s":10215,"ene":10216,"opptatt":10217,"##design":10218,"forberedel":10219,"narings":10220,"herre":10221,"filter":10222,"forbruk":10223,"kollega":10224,"pant":10225,"frustr":10226,"medbor":10227,"symt":10228,"##eve":10229,"virksomhet":10230,"fortjan":10231,"inatt":10232,"varda":10233,"acceptera":10234,"afrika":10235,"open":10236,"##dack":10237,"kasta":10238,"restaurangen":10239,"aldsta":10240,"spann":10241,"avse":10242,"punkter":10243,"arrangemang":10244,"##marken":10245,"##blogg":10246,"##enne":10247,"interess":10248,"gotaland":10249,"kontoret":10250,"flyttat":10251,"meddela":10252,"##hh":10253,"ramen":10254,"enorma":10255,"byte":10256,"forsøk":10257,"tjejen":10258,"astad":10259,"arbetsuppgifter":10260,"synlig":10261,"##smalet":10262,"funktionsned":10263,"##gg":10264,"gilla":10265,"opprinn":10266,"ansoka":10267,"brittiska":10268,"party":10269,"##redning":10270,"overgripande":10271,"sana":10272,"lansstyrelsen":10273,"maneder":10274,"filer":10275,"borger":10276,"vik":10277,"boksta":10278,"korkort":10279,"auktor":10280,"upptackte":10281,"videon":10282,"utfly":10283,"pamin":10284,"linn":10285,"bondage":10286,"fac":10287,"##funktion":10288,"spis":10289,"##don":10290,"##løs":10291,"brukere":10292,"vantat":10293,"detsamma":10294,"henta":10295,"kvarter":10296,"omfattas":10297,"bakgrunden":10298,"morkt":10299,"besviken":10300,"skickade":10301,"timmars":10302,"tilsvar":10303,"##bare":10304,"email":10305,"##kamera":10306,"gras":10307,"missat":10308,"samlade":10309,"##sfall":10310,"høst":10311,"vistelse":10312,"lud":10313,"##alafil":10314,"fotterna":10315,"temperaturen":10316,"700":10317,"tø":10318,"okning":10319,"##dell":10320,"størr":10321,"jakob":10322,"variera":10323,"datingside":10324,"hil":10325,"##bod":10326,"rante":10327,"kenn":10328,"bos":10329,"forbereda":10330,"overgang":10331,"inneb":10332,"komfort":10333,"wi":10334,"##tals":10335,"##sproblem":10336,"may":10337,"tilf":10338,"roller":10339,"vedtak":10340,"skapas":10341,"tadalafil":10342,"kold":10343,"##kte":10344,"##akar":10345,"burde":10346,"automatisk":10347,"asiatiska":10348,"demokrati":10349,"##alism":10350,"killen":10351,"workshop":10352,"forlorade":10353,"konsul":10354,"##hn":10355,"##sbest":10356,"##hult":10357,"##grad":10358,"kommunikasjon":10359,"##varer":10360,"slett":10361,"kvart":10362,"destin":10363,"kaj":10364,"konver":10365,"##oom":10366,"ordna":10367,"##ript":10368,"tjanstem":10369,"access":10370,"##sug":10371,"fardiga":10372,"##ener":10373,"innefatt":10374,"kommunerna":10375,"skov":10376,"##tran":10377,"loppet":10378,"fanga":10379,"##branschen":10380,"dele":10381,"she":10382,"wikip":10383,"upphandling":10384,"rag":10385,"##smode":10386,"##okk":10387,"chatta":10388,"##slutning":10389,"obehag":10390,"##yrer":10391,"selvfølgelig":10392,"distans":10393,"ljung":10394,"##osta":10395,"losningen":10396,"tantra":10397,"begreppet":10398,"alv":10399,"##eth":10400,"##byggda":10401,"spelarna":10402,"fulla":10403,"mør":10404,"jobben":10405,"individuell":10406,"musikal":10407,"populart":10408,"##backen":10409,"##sbok":10410,"brygg":10411,"njuter":10412,"##imin":10413,"krang":10414,"##usi":10415,"kontra":10416,"##side":10417,"##itim":10418,"skiva":10419,"##dende":10420,"allvarligt":10421,"pens":10422,"perioder":10423,"##sbolag":10424,"forekomm":10425,"godkanner":10426,"##day":10427,"kommers":10428,"brud":10429,"##uggar":10430,"nedre":10431,"referens":10432,"##ydda":10433,"kvant":10434,"netta":10435,"trans":10436,"##ielle":10437,"avlag":10438,"oppdag":10439,"kompens":10440,"antik":10441,"##plassen":10442,"enskild":10443,"natter":10444,"nervos":10445,"##arbeidet":10446,"avgora":10447,"foralder":10448,"menyn":10449,"hensyn":10450,"kreditupp":10451,"##celler":10452,"forplikt":10453,"##felt":10454,"uav":10455,"##verktyg":10456,"citron":10457,"skatter":10458,"inspirerande":10459,"berlin":10460,"blatt":10461,"ostersund":10462,"##halsa":10463,"camping":10464,"virksom":10465,"alexander":10466,"traditionell":10467,"##øt":10468,"##bandet":10469,"##blog":10470,"snor":10471,"##tekt":10472,"saljs":10473,"erkanna":10474,"loser":10475,"ledamoter":10476,"ombord":10477,"fruktansvart":10478,"lampligt":10479,"stream":10480,"billigaste":10481,"iran":10482,"trykk":10483,"##hallanden":10484,"##enes":10485,"##porn":10486,"##cern":10487,"folke":10488,"skarp":10489,"tander":10490,"pump":10491,"olsson":10492,"##gjor":10493,"avsnittet":10494,"##65":10495,"escortt":10496,"buk":10497,"webcam":10498,"parter":10499,"grans":10500,"resultater":10501,"massan":10502,"##statt":10503,"tidningar":10504,"##innan":10505,"68":10506,"enst":10507,"teamet":10508,"prog":10509,"how":10510,"kin":10511,"##hoj":10512,"forloss":10513,"##asten":10514,"##lock":10515,"kapacitet":10516,"politiskt":10517,"gjorda":10518,"tomm":10519,"garanterat":10520,"skik":10521,"minskat":10522,"sammanfattning":10523,"klare":10524,"palit":10525,"informera":10526,"old":10527,"##emark":10528,"vav":10529,"nettopp":10530,"arbetsmiljo":10531,"utforska":10532,"##jare":10533,"aringen":10534,"##bbe":10535,"seminar":10536,"portug":10537,"lur":10538,"##jack":10539,"vagbeskrivning":10540,"sav":10541,"skift":10542,"##kna":10543,"friluft":10544,"skum":10545,"##jente":10546,"bevar":10547,"halvtim":10548,"##dorr":10549,"tillampas":10550,"utvecklings":10551,"fullstandigt":10552,"huru":10553,"##igar":10554,"orsaker":10555,"kropps":10556,"komplic":10557,"legen":10558,"søndag":10559,"##hantering":10560,"seriosa":10561,"miljoer":10562,"banklan":10563,"vaxande":10564,"##bost":10565,"jev":10566,"tydelig":10567,"##sling":10568,"tele":10569,"chock":10570,"##stran":10571,"balkong":10572,"læring":10573,"fardigt":10574,"ledningen":10575,"vg":10576,"bh":10577,"sammanlagt":10578,"oscar":10579,"##agarna":10580,"strang":10581,"prøver":10582,"repl":10583,"##sminister":10584,"reseptfritt":10585,"tillgangar":10586,"##mord":10587,"blomster":10588,"drack":10589,"fyllde":10590,"kanaler":10591,"bemot":10592,"muskler":10593,"##etøy":10594,"kollat":10595,"kostnads":10596,"##eman":10597,"count":10598,"taxi":10599,"kud":10600,"brit":10601,"operation":10602,"##ou":10603,"levde":10604,"jess":10605,"##boende":10606,"##oler":10607,"hjelper":10608,"morfar":10609,"##atgarder":10610,"##ymp":10611,"kladd":10612,"unnga":10613,"##frihet":10614,"dl":10615,"yttrande":10616,"##ous":10617,"soft":10618,"##belt":10619,"##bev":10620,"88":10621,"##ografiska":10622,"firma":10623,"produkterna":10624,"##temot":10625,"globala":10626,"##feller":10627,"tillit":10628,"##ømme":10629,"##centrum":10630,"spillet":10631,"nettet":10632,"slanga":10633,"parf":10634,"fungerande":10635,"vinnare":10636,"stille":10637,"slo":10638,"kru":10639,"##lopp":10640,"##visor":10641,"toalett":10642,"marks":10643,"##pert":10644,"skolans":10645,"oskar":10646,"##dalen":10647,"fysiskt":10648,"desember":10649,"usb":10650,"##usten":10651,"##een":10652,"ott":10653,"forlora":10654,"vold":10655,"nude":10656,"##svik":10657,"pred":10658,"1980":10659,"##speriod":10660,"etablering":10661,"##iserad":10662,"sej":10663,"##banken":10664,"fit":10665,"##sledare":10666,"##klipp":10667,"##imeter":10668,"panik":10669,"statliga":10670,"98":10671,"oversatt":10672,"skarmen":10673,"##iljon":10674,"##oci":10675,"vice":10676,"satsar":10677,"##spelare":10678,"virt":10679,"##etta":10680,"##sdagen":10681,"bea":10682,"krafter":10683,"enstaka":10684,"aterstar":10685,"##sforetag":10686,"kust":10687,"nodvandiga":10688,"utvardering":10689,"##stark":10690,"diskriminering":10691,"snacka":10692,"fota":10693,"lektion":10694,"##forsvar":10695,"##like":10696,"bruks":10697,"nærm":10698,"torka":10699,"##anmal":10700,"amnes":10701,"##hard":10702,"skyldig":10703,"meget":10704,"polen":10705,"kombinera":10706,"vasent":10707,"anstrang":10708,"versionen":10709,"byggnaden":10710,"viktigare":10711,"term":10712,"jazz":10713,"kontanter":10714,"well":10715,"valk":10716,"teoret":10717,"vaxte":10718,"##skriften":10719,"øye":10720,"outfit":10721,"grek":10722,"spanning":10723,"##21":10724,"##sprocessen":10725,"begynn":10726,"talat":10727,"begav":10728,"plag":10729,"grabb":10730,"fransk":10731,"licens":10732,"nyans":10733,"##sajter":10734,"februar":10735,"maltid":10736,"smaka":10737,"efterhand":10738,"anvandarna":10739,"##skall":10740,"sjukhuset":10741,"##orget":10742,"bdsm":10743,"cel":10744,"ib":10745,"deltagande":10746,"bredband":10747,"expon":10748,"anl":10749,"narhet":10750,"kunderna":10751,"##erende":10752,"##slok":10753,"##andan":10754,"##sprogrammet":10755,"kampar":10756,"aterkommer":10757,"##eksjon":10758,"##foljande":10759,"squ":10760,"arligt":10761,"policy":10762,"lyk":10763,"put":10764,"pojkvan":10765,"erhall":10766,"skylt":10767,"jacob":10768,"xx":10769,"kriget":10770,"dick":10771,"##rige":10772,"alm":10773,"skyddar":10774,"manniskorna":10775,"street":10776,"identifiera":10777,"merke":10778,"##slar":10779,"brad":10780,"overhuvud":10781,"snø":10782,"arig":10783,"##usjoner":10784,"##legging":10785,"barndom":10786,"smyg":10787,"hihi":10788,"##bj":10789,"permanent":10790,"tekniker":10791,"utvalda":10792,"skin":10793,"pappers":10794,"tjanar":10795,"heltid":10796,"##ooth":10797,"morsom":10798,"bistand":10799,"mekan":10800,"##rol":10801,"hyre":10802,"pig":10803,"sektor":10804,"mennesk":10805,"usch":10806,"##rov":10807,"plagg":10808,"fylkes":10809,"handika":10810,"kosta":10811,"aterupp":10812,"rav":10813,"drott":10814,"sokande":10815,"implementer":10816,"løsninger":10817,"langvar":10818,"##ils":10819,"79":10820,"stallt":10821,"upprep":10822,"revider":10823,"vilt":10824,"vager":10825,"kirke":10826,"matlag":10827,"suck":10828,"anmark":10829,"vanilj":10830,"kravet":10831,"##iff":10832,"##øst":10833,"legges":10834,"husk":10835,"##ssjuk":10836,"undersokningen":10837,"tendens":10838,"japanska":10839,"omstandigheter":10840,"cr":10841,"arendet":10842,"undvik":10843,"baserad":10844,"invig":10845,"rejal":10846,"diskret":10847,"97":10848,"##alu":10849,"##taket":10850,"foten":10851,"familien":10852,"bereg":10853,"resen":10854,"begag":10855,"##hjalp":10856,"fangelse":10857,"besked":10858,"##laren":10859,"forrige":10860,"##splikt":10861,"manus":10862,"fører":10863,"sr":10864,"74":10865,"kapp":10866,"konstatera":10867,"gissa":10868,"svensson":10869,"kva":10870,"inflytande":10871,"##data":10872,"demonstr":10873,"schwe":10874,"troligtvis":10875,"samle":10876,"provat":10877,"##ily":10878,"framja":10879,"helger":10880,"##visar":10881,"##lex":10882,"##skriget":10883,"vitlok":10884,"##lage":10885,"leverand":10886,"lastbil":10887,"klippa":10888,"room":10889,"mick":10890,"galen":10891,"klickar":10892,"forvarva":10893,"rengoring":10894,"svarigheter":10895,"nut":10896,"##bott":10897,"junior":10898,"navnet":10899,"misstank":10900,"utgiv":10901,"##jakt":10902,"##lander":10903,"##vest":10904,"parlam":10905,"intervjuer":10906,"josef":10907,"ipad":10908,"formular":10909,"##omet":10910,"redovisas":10911,"##ratter":10912,"tilby":10913,"utmark":10914,"larde":10915,"1970":10916,"studer":10917,"kolon":10918,"finger":10919,"##betyg":10920,"verktøy":10921,"##ospel":10922,"biljett":10923,"##supp":10924,"omfattning":10925,"1997":10926,"bøker":10927,"ves":10928,"rubriken":10929,"lyfter":10930,"gilt":10931,"titel":10932,"varderingar":10933,"byxor":10934,"omsattning":10935,"rektor":10936,"syri":10937,"73":10938,"##malm":10939,"##repet":10940,"radgivning":10941,"lagring":10942,"##smid":10943,"gjennomsnitt":10944,"##annet":10945,"militar":10946,"hentai":10947,"##stig":10948,"##koll":10949,"##hyr":10950,"##inlagg":10951,"nyttig":10952,"mattias":10953,"slappte":10954,"##flyg":10955,"skell":10956,"##bre":10957,"summer":10958,"##organ":10959,"majoriteten":10960,"ana":10961,"klassiker":10962,"utfors":10963,"swe":10964,"professionell":10965,"tolk":10966,"mist":10967,"centralt":10968,"##olv":10969,"##smannen":10970,"smaker":10971,"##ygger":10972,"parken":10973,"slutten":10974,"tviv":10975,"auto":10976,"meld":10977,"arende":10978,"lagstiftning":10979,"##jej":10980,"klarade":10981,"##blom":10982,"##ax":10983,"lettere":10984,"jas":10985,"##ruppen":10986,"spets":10987,"bratt":10988,"sken":10989,"##kansla":10990,"##regler":10991,"kampa":10992,"blott":10993,"##iviteter":10994,"import":10995,"utviklingen":10996,"labor":10997,"gransk":10998,"textil":10999,"utspel":11000,"syskon":11001,"##fram":11002,"##kyr":11003,"ursprungligen":11004,"oppgaver":11005,"slutat":11006,"utvecklats":11007,"utvecklat":11008,"sterk":11009,"##ush":11010,"fylld":11011,"##fre":11012,"##jk":11013,"##avgift":11014,"europas":11015,"fixade":11016,"intensiv":11017,"##deling":11018,"hahaha":11019,"immun":11020,"matematik":11021,"klima":11022,"overl":11023,"##nor":11024,"downlo":11025,"##rund":11026,"graviditet":11027,"78":11028,"plikt":11029,"arbetade":11030,"##gir":11031,"aterforsaljare":11032,"kalle":11033,"forbattring":11034,"privatpersoner":11035,"varumarken":11036,"##igheterna":11037,"fokuserar":11038,"bero":11039,"oppfølg":11040,"##skr":11041,"gest":11042,"##ovan":11043,"lockar":11044,"kommunfullmaktige":11045,"malen":11046,"##profil":11047,"peppar":11048,"trycker":11049,"##sser":11050,"vert":11051,"cykla":11052,"elegant":11053,"##etts":11054,"##miljo":11055,"head":11056,"##orts":11057,"forbl":11058,"producera":11059,"smaland":11060,"ts":11061,"eit":11062,"slump":11063,"utlandet":11064,"ersatta":11065,"prestand":11066,"##kanten":11067,"gitarr":11068,"vig":11069,"onska":11070,"forbundet":11071,"mull":11072,"installningar":11073,"tillverkad":11074,"serveras":11075,"##lakare":11076,"byggdes":11077,"titeln":11078,"sper":11079,"manag":11080,"vana":11081,"hangde":11082,"inlogg":11083,"##gorande":11084,"ambition":11085,"tyder":11086,"##yttes":11087,"lasning":11088,"##cykel":11089,"pensjon":11090,"gallde":11091,"nasjonal":11092,"foreligger":11093,"artister":11094,"medie":11095,"first":11096,"studi":11097,"tester":11098,"pick":11099,"pressa":11100,"begaran":11101,"##lon":11102,"prøv":11103,"##ced":11104,"korv":11105,"tenker":11106,"hemskt":11107,"grunder":11108,"madde":11109,"lukt":11110,"majoritet":11111,"publiceras":11112,"##ove":11113,"lakaren":11114,"##iør":11115,"##ydde":11116,"urin":11117,"julia":11118,"museet":11119,"maskinen":11120,"##file":11121,"##valla":11122,"varumark":11123,"##okument":11124,"samarbetet":11125,"lagsta":11126,"##datum":11127,"delarna":11128,"vaggar":11129,"##verre":11130,"add":11131,"elevene":11132,"casinon":11133,"##mn":11134,"oppnas":11135,"forlat":11136,"aftonbladet":11137,"engang":11138,"pay":11139,"egy":11140,"work":11141,"modul":11142,"pojke":11143,"##sbas":11144,"##stang":11145,"##ygien":11146,"##spir":11147,"grunnlag":11148,"elisa":11149,"foretagare":11150,"overklag":11151,"meng":11152,"76":11153,"##zy":11154,"fungerade":11155,"avsk":11156,"opplysninger":11157,"james":11158,"aik":11159,"jattem":11160,"malar":11161,"hobby":11162,"week":11163,"##otte":11164,"cock":11165,"forsø":11166,"koppar":11167,"##ely":11168,"tjeneste":11169,"tryg":11170,"marin":11171,"nei":11172,"sentrum":11173,"##stal":11174,"varumarke":11175,"satts":11176,"##spe":11177,"##sep":11178,"apoteket":11179,"tankarna":11180,"dart":11181,"tart":11182,"marcus":11183,"##ytan":11184,"skaff":11185,"kolleg":11186,"nike":11187,"##sakerhet":11188,"undervisningen":11189,"normala":11190,"potential":11191,"potens":11192,"##setning":11193,"##kelse":11194,"nordic":11195,"kjell":11196,"dagbladet":11197,"inge":11198,"kvinnorna":11199,"vie":11200,"utsl":11201,"bjork":11202,"specialist":11203,"nettstedet":11204,"experter":11205,"##verksamheten":11206,"vurdere":11207,"handikapp":11208,"##prosjekt":11209,"##øver":11210,"##ilte":11211,"ahl":11212,"##dating":11213,"maken":11214,"prosjekter":11215,"##inerande":11216,"forutsattningarna":11217,"##iansen":11218,"alene":11219,"kvm":11220,"adult":11221,"fungerer":11222,"snakke":11223,"organisasjoner":11224,"##hver":11225,"enter":11226,"pak":11227,"##ikan":11228,"##medlem":11229,"elsker":11230,"panc":11231,"kontinuerligt":11232,"schweiz":11233,"vedlike":11234,"omdom":11235,"italienska":11236,"koppling":11237,"wikipedia":11238,"medi":11239,"##forandring":11240,"##papper":11241,"##zer":11242,"bab":11243,"gula":11244,"foretags":11245,"rullar":11246,"vaska":11247,"jonsson":11248,"vande":11249,"myndigheten":11250,"forank":11251,"gur":11252,"minor":11253,"pian":11254,"##hs":11255,"anteck":11256,"brot":11257,"light":11258,"herren":11259,"satsning":11260,"innebærer":11261,"dubbla":11262,"arkitektur":11263,"spelen":11264,"77":11265,"##bruket":11266,"##ulette":11267,"noveller":11268,"galopp":11269,"fm":11270,"uttag":11271,"forsor":11272,"tidiga":11273,"##bek":11274,"stunder":11275,"onodigt":11276,"kandidat":11277,"webs":11278,"makten":11279,"trump":11280,"jenn":11281,"inkludert":11282,"mari":11283,"nederland":11284,"kaos":11285,"namna":11286,"klarer":11287,"flyt":11288,"tja":11289,"##chel":11290,"##isjoner":11291,"tipsa":11292,"##spra":11293,"gruppe":11294,"generation":11295,"flakt":11296,"##plat":11297,"sakna":11298,"firar":11299,"funktionsh":11300,"dagars":11301,"orkade":11302,"kristianstad":11303,"granskning":11304,"hormon":11305,"sjunga":11306,"bam":11307,"typiskt":11308,"underlatt":11309,"skjuta":11310,"odds":11311,"skyld":11312,"##pal":11313,"elektronisk":11314,"utvid":11315,"win":11316,"søknad":11317,"diskussioner":11318,"##ykte":11319,"hekt":11320,"gradde":11321,"voksen":11322,"fak":11323,"markligt":11324,"sykehus":11325,"##ify":11326,"sendt":11327,"iii":11328,"##oli":11329,"kjæresten":11330,"huruvida":11331,"kallor":11332,"tram":11333,"guid":11334,"overhuvudtaget":11335,"sovjet":11336,"rakade":11337,"##sagt":11338,"jamstalldhet":11339,"##oman":11340,"##vagar":11341,"oand":11342,"##ifte":11343,"høsten":11344,"##rapporter":11345,"brans":11346,"ekologisk":11347,"allvarliga":11348,"beslutade":11349,"minnas":11350,"##smat":11351,"aterv":11352,"avslutade":11353,"##everket":11354,"united":11355,"##ago":11356,"##ljus":11357,"myr":11358,"katol":11359,"##isjonen":11360,"##ware":11361,"glatt":11362,"sanger":11363,"komponenter":11364,"ekonomin":11365,"##grens":11366,"redd":11367,"profesjon":11368,"skepp":11369,"skivor":11370,"delade":11371,"vardenafil":11372,"anta":11373,"officiella":11374,"##issa":11375,"##stallande":11376,"##rim":11377,"formal":11378,"anfall":11379,"##sand":11380,"mynt":11381,"australien":11382,"død":11383,"##skiftet":11384,"innbyg":11385,"cyklar":11386,"tilsyn":11387,"mv":11388,"##inga":11389,"flask":11390,"vardera":11391,"thor":11392,"narmar":11393,"ensamstaende":11394,"heldig":11395,"##forbruk":11396,"palest":11397,"kock":11398,"tron":11399,"assa":11400,"realist":11401,"##wh":11402,"skjønn":11403,"uv":11404,"swingers":11405,"##no":11406,"nice":11407,"py":11408,"dyl":11409,"anslag":11410,"seb":11411,"sodertalje":11412,"##undersokning":11413,"farlig":11414,"tjugo":11415,"gla":11416,"julafton":11417,"aja":11418,"tillfalligt":11419,"fixat":11420,"##skval":11421,"grønn":11422,"anvants":11423,"kontakten":11424,"900":11425,"medlemmarna":11426,"genomfors":11427,"smycken":11428,"høye":11429,"hap":11430,"sjunger":11431,"missade":11432,"vardagsrum":11433,"##etch":11434,"jordbruk":11435,"vint":11436,"ado":11437,"##knipp":11438,"alg":11439,"flickvan":11440,"ambassa":11441,"profiler":11442,"lararna":11443,"omgaende":11444,"blue":11445,"funktionen":11446,"##strek":11447,"planerade":11448,"##circa":11449,"tumbl":11450,"adcirca":11451,"sorters":11452,"games":11453,"mora":11454,"asiatisk":11455,"##eled":11456,"kommunicera":11457,"##pul":11458,"##ado":11459,"##pis":11460,"sokt":11461,"installera":11462,"kampanjer":11463,"kjøper":11464,"##holds":11465,"##øse":11466,"kostnaderna":11467,"overenskommelse":11468,"avdelning":11469,"##mote":11470,"exklusiva":11471,"##ruta":11472,"supp":11473,"tett":11474,"##eror":11475,"formiddagen":11476,"uppfylla":11477,"tvekan":11478,"egenskap":11479,"leve":11480,"185":11481,"hogskole":11482,"gentemot":11483,"missbruk":11484,"download":11485,"##kjent":11486,"faste":11487,"beslutar":11488,"stjarnor":11489,"##kland":11490,"flertalet":11491,"breda":11492,"knep":11493,"##delige":11494,"saa":11495,"##utrustning":11496,"nad":11497,"lakar":11498,"bekymmer":11499,"fornøyd":11500,"##slig":11501,"##gjorde":11502,"konstruktion":11503,"robot":11504,"##utval":11505,"pur":11506,"klam":11507,"dansa":11508,"flotte":11509,"slatt":11510,"artist":11511,"estet":11512,"lenn":11513,"##bilj":11514,"atervin":11515,"ogat":11516,"tillslut":11517,"was":11518,"livets":11519,"manaderna":11520,"##omal":11521,"##ekte":11522,"kritisk":11523,"socialdemokrat":11524,"individuella":11525,"hmm":11526,"belaget":11527,"faktor":11528,"##systemet":11529,"riktar":11530,"ama":11531,"##potek":11532,"hogskolan":11533,"uppsk":11534,"gluten":11535,"hør":11536,"betydning":11537,"tacker":11538,"fans":11539,"socialdemokraterna":11540,"alp":11541,"##pade":11542,"opin":11543,"regi":11544,"##sokt":11545,"110":11546,"øker":11547,"glommer":11548,"##ualitet":11549,"mojligheterna":11550,"verdi":11551,"strategier":11552,"friska":11553,"hjalpmedel":11554,"##drene":11555,"pon":11556,"professionella":11557,"96":11558,"testade":11559,"89":11560,"187":11561,"forord":11562,"ekologiska":11563,"oftare":11564,"formagan":11565,"justin":11566,"selve":11567,"skedde":11568,"vantan":11569,"##svenskan":11570,"partners":11571,"##forn":11572,"##nende":11573,"hei":11574,"jatteg":11575,"magnet":11576,"ovning":11577,"kjøkken":11578,"imponerande":11579,"behall":11580,"processer":11581,"##bed":11582,"##iere":11583,"##jonen":11584,"aterbetal":11585,"##hallare":11586,"vaxel":11587,"adressen":11588,"abb":11589,"kolhydr":11590,"vaken":11591,"passet":11592,"virker":11593,"lof":11594,"godkjent":11595,"##ington":11596,"nj":11597,"cha":11598,"##istret":11599,"186":11600,"amat":11601,"montering":11602,"lakt":11603,"##juka":11604,"drikke":11605,"anvandes":11606,"##oty":11607,"presenterade":11608,"skri":11609,"ljusa":11610,"magasin":11611,"wo":11612,"uteslut":11613,"##iserar":11614,"psykiat":11615,"moderne":11616,"##ckande":11617,"84":11618,"victoria":11619,"godkannande":11620,"##bling":11621,"flygplatsen":11622,"investera":11623,"balkon":11624,"##sajt":11625,"##tro":11626,"##hallning":11627,"nationell":11628,"høyde":11629,"tumblr":11630,"finansinstitut":11631,"analysera":11632,"statsminister":11633,"##ages":11634,"commun":11635,"##vens":11636,"brukte":11637,"talade":11638,"arke":11639,"forvanad":11640,"##agne":11641,"1994":11642,"sannsynlig":11643,"ze":11644,"##ary":11645,"vindkraft":11646,"mental":11647,"##ecken":11648,"penn":11649,"##sliga":11650,"##juden":11651,"bay":11652,"koncern":11653,"##hallet":11654,"storleken":11655,"bære":11656,"narvaro":11657,"blyg":11658,"utføre":11659,"jern":11660,"who":11661,"ønske":11662,"lyssnade":11663,"flagg":11664,"##isse":11665,"bog":11666,"gna":11667,"leende":11668,"hoppar":11669,"forordning":11670,"bestod":11671,"tackar":11672,"##kram":11673,"sokte":11674,"hanterar":11675,"drive":11676,"##skarm":11677,"##naren":11678,"kondom":11679,"wow":11680,"##ussen":11681,"##kostnader":11682,"mt":11683,"ond":11684,"##hd":11685,"decenn":11686,"underteck":11687,"sir":11688,"##stjanst":11689,"tomas":11690,"undersokningar":11691,"##esser":11692,"ledigt":11693,"rang":11694,"besluta":11695,"##kene":11696,"seriost":11697,"mia":11698,"interesse":11699,"hogtal":11700,"definier":11701,"hastarna":11702,"##alisera":11703,"skradd":11704,"##dy":11705,"lugna":11706,"riks":11707,"##rutt":11708,"skelleftea":11709,"telefoner":11710,"allerg":11711,"##sty":11712,"ursprungliga":11713,"tomten":11714,"sunn":11715,"eksempl":11716,"synnerhet":11717,"##ullar":11718,"bestallde":11719,"tomma":11720,"koordin":11721,"likasa":11722,"rehabilitering":11723,"tagits":11724,"styrels":11725,"##jenester":11726,"##staller":11727,"tilfeller":11728,"linjer":11729,"avtale":11730,"##ywood":11731,"ken":11732,"barcel":11733,"liknar":11734,"ursakt":11735,"arligen":11736,"##makten":11737,"amanda":11738,"krava":11739,"tabellen":11740,"trafiken":11741,"sukker":11742,"##teknik":11743,"##sang":11744,"vardagsrummet":11745,"amerikanske":11746,"##oppga":11747,"afg":11748,"grunnleg":11749,"##shistor":11750,"aterbetalning":11751,"bun":11752,"glomde":11753,"odd":11754,"bokning":11755,"##livet":11756,"lengre":11757,"lands":11758,"bensin":11759,"uppenbart":11760,"tour":11761,"##etid":11762,"placeras":11763,"##pers":11764,"miljop":11765,"mobile":11766,"kup":11767,"servera":11768,"##kaka":11769,"##upplevelse":11770,"night":11771,"extrem":11772,"##ated":11773,"##itz":11774,"##sorganis":11775,"forknipp":11776,"aterkommande":11777,"##direkt":11778,"upphor":11779,"north":11780,"dessuten":11781,"##ni":11782,"##skolor":11783,"##sha":11784,"samrad":11785,"varna":11786,"drev":11787,"aldern":11788,"##plom":11789,"inviter":11790,"##shamn":11791,"kasino":11792,"distribut":11793,"katten":11794,"dyka":11795,"##meddelande":11796,"##ffel":11797,"cru":11798,"##oped":11799,"division":11800,"##rafik":11801,"muslimer":11802,"paret":11803,"filmerna":11804,"extern":11805,"mandat":11806,"talas":11807,"fantasi":11808,"smalt":11809,"arbetsmarknaden":11810,"atl":11811,"odling":11812,"hi":11813,"hemliga":11814,"here":11815,"ordin":11816,"viking":11817,"armar":11818,"##ocke":11819,"1995":11820,"vivan":11821,"skriftlig":11822,"neut":11823,"aspekter":11824,"budsjett":11825,"##amet":11826,"##olyck":11827,"depress":11828,"hallbart":11829,"turer":11830,"dragit":11831,"ljuv":11832,"skovde":11833,"gigant":11834,"uppenbarligen":11835,"utstallningen":11836,"website":11837,"middagen":11838,"flyga":11839,"##fund":11840,"frista":11841,"skratta":11842,"##knytning":11843,"##bilen":11844,"##ican":11845,"utfordringer":11846,"omhand":11847,"bonusar":11848,"bana":11849,"##perioden":11850,"##rakning":11851,"undra":11852,"lesbiska":11853,"##istiskt":11854,"gifte":11855,"##ikat":11856,"betting":11857,"long":11858,"##estene":11859,"talets":11860,"kopet":11861,"arne":11862,"viktor":11863,"medborgar":11864,"94":11865,"noter":11866,"digitalt":11867,"##ionens":11868,"kakor":11869,"beslutat":11870,"arbetsgivaren":11871,"##istens":11872,"##radare":11873,"##laggningar":11874,"laggas":11875,"bedoma":11876,"##sborg":11877,"lr":11878,"##serien":11879,"avhengig":11880,"1996":11881,"##okan":11882,"upphand":11883,"vans":11884,"##imot":11885,"sha":11886,"hjalpt":11887,"samfunnet":11888,"forvarv":11889,"nyan":11890,"ambul":11891,"beman":11892,"nodvandig":11893,"##ogs":11894,"##splas":11895,"tappar":11896,"kokos":11897,"havdar":11898,"beredskap":11899,"forbe":11900,"saft":11901,"##smaterial":11902,"damp":11903,"symtom":11904,"tryggt":11905,"vivanza":11906,"mangfald":11907,"spekul":11908,"skota":11909,"ff":11910,"##shuset":11911,"problemen":11912,"##berget":11913,"diesel":11914,"cou":11915,"fristaende":11916,"##33":11917,"##elie":11918,"college":11919,"hundratals":11920,"starte":11921,"skamt":11922,"##muse":11923,"markedet":11924,"glem":11925,"kje":11926,"løn":11927,"teknolog":11928,"stracker":11929,"wild":11930,"##ratta":11931,"##ickor":11932,"##styrka":11933,"##arbeten":11934,"kassan":11935,"interna":11936,"lagret":11937,"interakt":11938,"namnda":11939,"produktionen":11940,"kemikal":11941,"about":11942,"radsla":11943,"##entre":11944,"uppgiften":11945,"##bul":11946,"content":11947,"intellig":11948,"bekre":11949,"sjong":11950,"uppdaterad":11951,"skickat":11952,"pekar":11953,"glede":11954,"spillere":11955,"mins":11956,"##sutveckling":11957,"bedrag":11958,"stanger":11959,"##platta":11960,"orka":11961,"##familj":11962,"kjøtt":11963,"exemplar":11964,"utbudet":11965,"touch":11966,"##ights":11967,"varierande":11968,"farfar":11969,"erf":11970,"flykting":11971,"##cancer":11972,"##ssel":11973,"nrk":11974,"spir":11975,"eksp":11976,"syl":11977,"hm":11978,"lavere":11979,"norm":11980,"representant":11981,"ovanstaende":11982,"tillhorande":11983,"jens":11984,"baksidan":11985,"##jed":11986,"domstolen":11987,"institutionen":11988,"rytt":11989,"##iskop":11990,"nasjonale":11991,"glid":11992,"##bunden":11993,"uni":11994,"##middel":11995,"flag":11996,"##sal":11997,"hagen":11998,"sykkel":11999,"##pital":12000,"kusin":12001,"margar":12002,"any":12003,"salu":12004,"cer":12005,"kontrollen":12006,"panel":12007,"redigera":12008,"nettapotek":12009,"skur":12010,"matta":12011,"##ssitu":12012,"helena":12013,"gasterna":12014,"regionala":12015,"mejl":12016,"sit":12017,"##sem":12018,"scand":12019,"trafikk":12020,"notera":12021,"robin":12022,"exam":12023,"dumt":12024,"##ures":12025,"##stider":12026,"hallas":12027,"##øtet":12028,"avancerade":12029,"relevanta":12030,"##chen":12031,"ultim":12032,"##umtion":12033,"tillgangligt":12034,"darav":12035,"begynne":12036,"##ua":12037,"landslag":12038,"bidr":12039,"citat":12040,"fixar":12041,"sevard":12042,"sandra":12043,"ordentlig":12044,"killarna":12045,"##eliv":12046,"##svag":12047,"##forslag":12048,"send":12049,"##vapen":12050,"apnet":12051,"##ynda":12052,"intim":12053,"##industrin":12054,"saks":12055,"behandlingar":12056,"##lager":12057,"adel":12058,"quiz":12059,"mobila":12060,"opplever":12061,"jaja":12062,"##sband":12063,"##givande":12064,"avslutas":12065,"##elp":12066,"menade":12067,"bring":12068,"##dam":12069,"##splaner":12070,"konstaterar":12071,"disc":12072,"hustru":12073,"redusere":12074,"kommunstyrelsen":12075,"ansikts":12076,"blixt":12077,"fylke":12078,"utse":12079,"analyt":12080,"registrert":12081,"school":12082,"##lyst":12083,"##sperioden":12084,"##marknad":12085,"##infl":12086,"inuti":12087,"lampliga":12088,"flygplats":12089,"##emedlem":12090,"slagit":12091,"arbetsformed":12092,"gyll":12093,"rust":12094,"biverk":12095,"stugan":12096,"samarbetar":12097,"##srika":12098,"sku":12099,"locka":12100,"respons":12101,"##sklass":12102,"made":12103,"##varon":12104,"skriven":12105,"stok":12106,"fien":12107,"legitim":12108,"lova":12109,"nud":12110,"lina":12111,"fornuft":12112,"agna":12113,"ytterlig":12114,"gala":12115,"university":12116,"##figur":12117,"butikk":12118,"##ugen":12119,"remiss":12120,"sjukvarden":12121,"kreativa":12122,"##itte":12123,"avkastning":12124,"##skada":12125,"lady":12126,"forelasning":12127,"##istrasjon":12128,"bow":12129,"spise":12130,"tann":12131,"86":12132,"road":12133,"##pra":12134,"hamtar":12135,"utsatts":12136,"skjøn":12137,"##trykk":12138,"##iserte":12139,"arbeten":12140,"kontaktuppgifter":12141,"stralande":12142,"brak":12143,"##havare":12144,"##sbar":12145,"##havet":12146,"gbg":12147,"historisk":12148,"kristus":12149,"anvandningen":12150,"radet":12151,"beredd":12152,"regiss":12153,"meddelanden":12154,"##ule":12155,"jakten":12156,"fortsette":12157,"##esson":12158,"angr":12159,"celler":12160,"##aktig":12161,"patrik":12162,"##ksjonen":12163,"ytor":12164,"begr":12165,"pancake":12166,"blan":12167,"studenten":12168,"oppleve":12169,"tarta":12170,"skugg":12171,"tillverkning":12172,"tilsvarende":12173,"##forsor":12174,"siv":12175,"byggnads":12176,"trygga":12177,"##cs":12178,"trotta":12179,"##elly":12180,"havs":12181,"specialis":12182,"slip":12183,"besvik":12184,"##elserna":12185,"##test":12186,"bekvama":12187,"sanka":12188,"doden":12189,"##ømmer":12190,"populære":12191,"smakar":12192,"iron":12193,"sanning":12194,"medicinsk":12195,"dubbelt":12196,"sticker":12197,"##gb":12198,"mammas":12199,"behorighet":12200,"##slet":12201,"hogskola":12202,"avslutar":12203,"tranat":12204,"##alogen":12205,"way":12206,"che":12207,"##vandring":12208,"hvit":12209,"##riga":12210,"flaska":12211,"betale":12212,"anlaggningar":12213,"kallat":12214,"tillverkare":12215,"hensikt":12216,"onskan":12217,"introduktion":12218,"##eringer":12219,"fritids":12220,"##anne":12221,"##namnda":12222,"arbetsmarknad":12223,"dorrar":12224,"##resan":12225,"##aksjon":12226,"flit":12227,"forsikring":12228,"vardnad":12229,"forverk":12230,"otill":12231,"langden":12232,"avdelningen":12233,"foreg":12234,"mjukt":12235,"økonomisk":12236,"gel":12237,"bostaden":12238,"oppos":12239,"falun":12240,"rimligt":12241,"fair":12242,"##ørene":12243,"##stugan":12244,"salde":12245,"tonaringar":12246,"sajter":12247,"upptacker":12248,"##edig":12249,"borgen":12250,"langsiktigt":12251,"agaren":12252,"torra":12253,"##musik":12254,"alders":12255,"dagslaget":12256,"dessverre":12257,"##laddning":12258,"sams":12259,"lyn":12260,"skikkelig":12261,"rekrytering":12262,"##byxor":12263,"bedriva":12264,"spelaren":12265,"vilda":12266,"##laggare":12267,"forebyggande":12268,"oppfølging":12269,"tittat":12270,"generelt":12271,"##tral":12272,"berattelsen":12273,"kreativitet":12274,"forfall":12275,"huvudvark":12276,"##skontroll":12277,"stackars":12278,"kid":12279,"meste":12280,"krets":12281,"##motor":12282,"anpassade":12283,"women":12284,"##tillverk":12285,"wifi":12286,"holland":12287,"mojliggor":12288,"sjekke":12289,"rumpa":12290,"badrummet":12291,"bestemt":12292,"##jav":12293,"mack":12294,"##regl":12295,"1960":12296,"ariga":12297,"160":12298,"etablert":12299,"anledningar":12300,"tappa":12301,"##skvallen":12302,"forsakringsk":12303,"snick":12304,"##industri":12305,"##natur":12306,"landerna":12307,"rummen":12308,"accepterar":12309,"##ulin":12310,"kinesiska":12311,"shoppa":12312,"##stopp":12313,"forlorar":12314,"overdr":12315,"forskningen":12316,"kundtjanst":12317,"norway":12318,"##bilden":12319,"garage":12320,"##rus":12321,"dire":12322,"upplevt":12323,"dottern":12324,"hett":12325,"balt":12326,"receptet":12327,"bm":12328,"82":12329,"symboler":12330,"spok":12331,"slappt":12332,"##agor":12333,"sexfilmer":12334,"##parken":12335,"stein":12336,"tradgards":12337,"avbr":12338,"##utvikling":12339,"##bundna":12340,"##holms":12341,"minnet":12342,"greit":12343,"##fj":12344,"##entar":12345,"kompa":12346,"##lamp":12347,"bond":12348,"##bileum":12349,"140":12350,"stru":12351,"##ementet":12352,"inntil":12353,"fremtid":12354,"stipend":12355,"enhver":12356,"turkiet":12357,"bokstaver":12358,"##central":12359,"japansk":12360,"margin":12361,"tobak":12362,"lesbian":12363,"##analys":12364,"ending":12365,"sakerna":12366,"brinner":12367,"##forskning":12368,"##hotell":12369,"ødel":12370,"duschen":12371,"orsaka":12372,"dokumentation":12373,"##not":12374,"motorn":12375,"proffs":12376,"frivillig":12377,"aner":12378,"kanten":12379,"##yter":12380,"grundades":12381,"##sakra":12382,"kore":12383,"finansiell":12384,"non":12385,"dyrare":12386,"forskrift":12387,"anbud":12388,"kav":12389,"grovt":12390,"##ningslin":12391,"sesong":12392,"##lagga":12393,"passande":12394,"83":12395,"kryp":12396,"comments":12397,"fog":12398,"fortjanar":12399,"kladerna":12400,"##radets":12401,"##ikern":12402,"61":12403,"vanskap":12404,"blin":12405,"strek":12406,"missar":12407,"mysiga":12408,"nyborjare":12409,"tabletter":12410,"##vux":12411,"kvadratmeter":12412,"miljovan":12413,"kvalitets":12414,"fund":12415,"djuren":12416,"narmsta":12417,"prim":12418,"sondags":12419,"prestanda":12420,"regional":12421,"wel":12422,"hjerte":12423,"tappat":12424,"undersøkelse":12425,"virk":12426,"##shav":12427,"forlorat":12428,"##igenom":12429,"asf":12430,"93":12431,"externa":12432,"beteck":12433,"ljudet":12434,"ansluta":12435,"mandagen":12436,"smer":12437,"slapps":12438,"forvis":12439,"asp":12440,"after":12441,"infora":12442,"##antor":12443,"enklere":12444,"underhallning":12445,"scan":12446,"aggress":12447,"dartill":12448,"flyger":12449,"diplom":12450,"sjalvklar":12451,"grekland":12452,"ode":12453,"##pg":12454,"medicinska":12455,"photos":12456,"##sbru":12457,"succe":12458,"lil":12459,"drick":12460,"øvrige":12461,"kali":12462,"nedanfor":12463,"smidig":12464,"##sforbund":12465,"nackdelar":12466,"##casino":12467,"jamna":12468,"bedoms":12469,"html":12470,"indien":12471,"##ugor":12472,"cash":12473,"ping":12474,"##kunn":12475,"##iew":12476,"skrattade":12477,"konkurren":12478,"barcelona":12479,"prast":12480,"##cl":12481,"##yft":12482,"2020":12483,"kreditvardighet":12484,"favoritter":12485,"varldskriget":12486,"genomforande":12487,"display":12488,"tilltal":12489,"##trade":12490,"slikt":12491,"##inspektionen":12492,"hogkval":12493,"terrang":12494,"samarbeta":12495,"skrek":12496,"irland":12497,"##rorelsen":12498,"trakasser":12499,"avtalen":12500,"alskling":12501,"##stan":12502,"torsdagen":12503,"graf":12504,"tatu":12505,"##unge":12506,"glans":12507,"1993":12508,"politiske":12509,"varmland":12510,"bildene":12511,"romantisk":12512,"blaser":12513,"økonomiske":12514,"ansvarlig":12515,"skraddars":12516,"##klubben":12517,"##dret":12518,"##asj":12519,"skrap":12520,"130":12521,"##maren":12522,"##usjonen":12523,"udde":12524,"forenkl":12525,"orange":12526,"##junkt":12527,"vegas":12528,"##rukturen":12529,"##laggningen":12530,"kommunene":12531,"kalt":12532,"92":12533,"175":12534,"isen":12535,"baseras":12536,"stuga":12537,"##front":12538,"##esc":12539,"berorda":12540,"##iro":12541,"categor":12542,"verkstad":12543,"kret":12544,"fortelle":12545,"examen":12546,"##video":12547,"bestemm":12548,"vedtatt":12549,"rulla":12550,"rød":12551,"cross":12552,"mn":12553,"djupare":12554,"fax":12555,"##cket":12556,"webblasare":12557,"vandrar":12558,"heder":12559,"rh":12560,"uttrycka":12561,"manliga":12562,"##viker":12563,"##komsten":12564,"medic":12565,"bekanta":12566,"agent":12567,"gutter":12568,"mums":12569,"##fora":12570,"romer":12571,"##sack":12572,"ake":12573,"##ulen":12574,"sjekk":12575,"##marker":12576,"tennis":12577,"foraldra":12578,"rolle":12579,"##sider":12580,"##ferd":12581,"##seln":12582,"overtygad":12583,"1700":12584,"buff":12585,"frist":12586,"avancerad":12587,"klack":12588,"ce":12589,"inkomster":12590,"racka":12591,"##etenskap":12592,"omgivning":12593,"##peratur":12594,"eksister":12595,"bastu":12596,"##skande":12597,"tillkommer":12598,"sterkt":12599,"utd":12600,"##aganden":12601,"klient":12602,"##cast":12603,"intervall":12604,"##dahl":12605,"blow":12606,"arbetsdag":12607,"kjøpt":12608,"karol":12609,"chanser":12610,"##centralen":12611,"fjol":12612,"forsvinna":12613,"##kommun":12614,"##alar":12615,"leif":12616,"##vanlig":12617,"forelasningar":12618,"mammor":12619,"engasjer":12620,"##lapp":12621,"noje":12622,"funderingar":12623,"funderat":12624,"##innen":12625,"skym":12626,"klapp":12627,"##kott":12628,"frammande":12629,"republ":12630,"management":12631,"##ollen":12632,"##stock":12633,"##skriven":12634,"synas":12635,"redog":12636,"uppger":12637,"vanlige":12638,"lotta":12639,"hardare":12640,"##stak":12641,"deklar":12642,"storstad":12643,"spet":12644,"##imentet":12645,"##bag":12646,"skjedde":12647,"direktiv":12648,"##asjonene":12649,"lotter":12650,"##promen":12651,"retro":12652,"utgjør":12653,"katastrof":12654,"oroa":12655,"reaktion":12656,"stravar":12657,"##førte":12658,"rein":12659,"##faltet":12660,"spelautomater":12661,"stjer":12662,"chefer":12663,"mess":12664,"julklappar":12665,"##arv":12666,"svenske":12667,"pm":12668,"anhoriga":12669,"nedsatt":12670,"##samlingen":12671,"export":12672,"poster":12673,"##cal":12674,"stamning":12675,"konsol":12676,"tolkning":12677,"##ylt":12678,"introduc":12679,"ving":12680,"byggs":12681,"valgte":12682,"noggrant":12683,"testet":12684,"##dor":12685,"##forvaltningen":12686,"medlemsst":12687,"tagen":12688,"##oklipp":12689,"##nats":12690,"##rette":12691,"moll":12692,"personuppgift":12693,"feed":12694,"vetenskapliga":12695,"##skur":12696,"##aterade":12697,"skilja":12698,"lokalen":12699,"intyg":12700,"allvarlig":12701,"entreprenor":12702,"skip":12703,"redskap":12704,"nivan":12705,"varannan":12706,"jacka":12707,"##agda":12708,"mum":12709,"##vit":12710,"kvartalet":12711,"møtet":12712,"vagn":12713,"tradgardar":12714,"beund":12715,"svin":12716,"annika":12717,"haug":12718,"##stedt":12719,"tufft":12720,"natverket":12721,"lila":12722,"##underlag":12723,"lch":12724,"helvete":12725,"betraff":12726,"##cle":12727,"oppdat":12728,"##ads":12729,"ostergot":12730,"bestallt":12731,"sesongen":12732,"helsingfors":12733,"irak":12734,"sinne":12735,"##stendig":12736,"kartan":12737,"##priser":12738,"landstinget":12739,"math":12740,"frekv":12741,"cv":12742,"obeg":12743,"hemifran":12744,"roulette":12745,"wester":12746,"170":12747,"forekommande":12748,"fatal":12749,"now":12750,"semestern":12751,"klikk":12752,"xn":12753,"##chat":12754,"tommy":12755,"framgangsrika":12756,"utru":12757,"provade":12758,"politiken":12759,"##passet":12760,"provning":12761,"vattent":12762,"besluts":12763,"fortsetter":12764,"videoer":12765,"farliga":12766,"genu":12767,"page":12768,"vuxit":12769,"##rock":12770,"noggrann":12771,"reserver":12772,"xd":12773,"foster":12774,"##produkt":12775,"frys":12776,"ole":12777,"diagram":12778,"manager":12779,"oral":12780,"vagnen":12781,"vekst":12782,"##traff":12783,"##løp":12784,"##wer":12785,"innanfor":12786,"semin":12787,"skivan":12788,"184":12789,"diagnos":12790,"jimm":12791,"hytt":12792,"tv4":12793,"stiger":12794,"foreslas":12795,"##svillkor":12796,"upptackt":12797,"##ondition":12798,"forutsatt":12799,"##jenesten":12800,"forsaljningen":12801,"init":12802,"lednings":12803,"##foretaget":12804,"administration":12805,"##oppar":12806,"jessica":12807,"funktionsnedsattning":12808,"pastar":12809,"##ippa":12810,"gt":12811,"situasjonen":12812,"beaut":12813,"sne":12814,"##idor":12815,"startat":12816,"rensa":12817,"##tagna":12818,"bakterier":12819,"##zen":12820,"fremst":12821,"##uck":12822,"handlingen":12823,"##deln":12824,"##date":12825,"ifk":12826,"logg":12827,"##gav":12828,"87":12829,"##ife":12830,"grunnleggende":12831,"farska":12832,"konflikter":12833,"forfl":12834,"kvallens":12835,"kriterier":12836,"forret":12837,"##board":12838,"begara":12839,"fisken":12840,"avdrag":12841,"##fy":12842,"ordfor":12843,"##oen":12844,"minsann":12845,"##svin":12846,"skritt":12847,"personerna":12848,"bedrifter":12849,"drommer":12850,"##yren":12851,"rapporterar":12852,"framtidens":12853,"##gam":12854,"birgitt":12855,"ombud":12856,"skyldighet":12857,"jf":12858,"utrikes":12859,"inledning":12860,"forne":12861,"ukraina":12862,"##rorna":12863,"paminn":12864,"stel":12865,"snabblan":12866,"hungrig":12867,"flygplan":12868,"oversattning":12869,"analsex":12870,"protest":12871,"visning":12872,"anbefal":12873,"##gte":12874,"ugn":12875,"rorande":12876,"tillverkade":12877,"maila":12878,"halvlek":12879,"lyckad":12880,"filip":12881,"nettsted":12882,"iso":12883,"skrivbord":12884,"##pes":12885,"alice":12886,"##gel":12887,"uthyr":12888,"journalister":12889,"registrerade":12890,"##omer":12891,"anklag":12892,"##ict":12893,"evalu":12894,"##ides":12895,"forar":12896,"##aktt":12897,"festen":12898,"lekte":12899,"vanligvis":12900,"stamp":12901,"rakningar":12902,"aldrar":12903,"##kontor":12904,"saljare":12905,"##hagen":12906,"villkoren":12907,"forvantar":12908,"##ølv":12909,"conta":12910,"##ods":12911,"tappade":12912,"##ssaker":12913,"namnden":12914,"likhet":12915,"##ders":12916,"videoklipp":12917,"##villkor":12918,"skogs":12919,"padd":12920,"ling":12921,"syntes":12922,"##ankande":12923,"forebygga":12924,"##km":12925,"##ekonom":12926,"anvandaren":12927,"konkurs":12928,"##listan":12929,"medvetna":12930,"##itativ":12931,"ash":12932,"##ij":12933,"##panel":12934,"firade":12935,"bransle":12936,"prylar":12937,"##rygg":12938,"anpassad":12939,"mkr":12940,"stolta":12941,"##marknaden":12942,"viner":12943,"##unnet":12944,"##hamtning":12945,"sentral":12946,"##entr":12947,"fodda":12948,"arbetssatt":12949,"paketet":12950,"seier":12951,"haromdagen":12952,"cec":12953,"samtalet":12954,"##poang":12955,"nettverk":12956,"hamnat":12957,"instruktioner":12958,"##byra":12959,"kundens":12960,"narkotika":12961,"kanada":12962,"skadespelare":12963,"knack":12964,"konkl":12965,"##skrivna":12966,"lchf":12967,"sexuellt":12968,"bonde":12969,"##elset":12970,"##skrivning":12971,"indian":12972,"ish":12973,"allih":12974,"motesplats":12975,"##onto":12976,"##garant":12977,"tjansteman":12978,"##23":12979,"##tio":12980,"feta":12981,"niklas":12982,"##anas":12983,"fordelen":12984,"##flode":12985,"##otekn":12986,"laborator":12987,"skaper":12988,"byggde":12989,"hyggelig":12990,"blind":12991,"##entuna":12992,"filt":12993,"kongress":12994,"sjukdomen":12995,"bedomer":12996,"##stro":12997,"ekteskap":12998,"story":12999,"1992":13000,"minskade":13001,"insidan":13002,"bell":13003,"gos":13004,"##stuga":13005,"koldioxid":13006,"##ektionen":13007,"cos":13008,"##nos":13009,"forholdet":13010,"##stjanster":13011,"atal":13012,"hornet":13013,"flat":13014,"ggr":13015,"##vad":13016,"faglar":13017,"scener":13018,"##middag":13019,"hallbara":13020,"hallow":13021,"innefattar":13022,"betraktas":13023,"bagge":13024,"tir":13025,"##evin":13026,"producerar":13027,"vakre":13028,"hamnen":13029,"hjarna":13030,"vs":13031,"oppdatert":13032,"##ierade":13033,"retningslin":13034,"ebon":13035,"presentkort":13036,"genomforas":13037,"klubbens":13038,"vass":13039,"toner":13040,"forbered":13041,"##stren":13042,"##iar":13043,"meet":13044,"lappar":13045,"ljust":13046,"pel":13047,"varst":13048,"utl":13049,"lyckligt":13050,"loven":13051,"##mjol":13052,"onsdagen":13053,"##stick":13054,"find":13055,"specifikt":13056,"servicen":13057,"##grunn":13058,"utel":13059,"vaskan":13060,"epis":13061,"upplevelsen":13062,"samarbetspart":13063,"piller":13064,"utbygg":13065,"grannar":13066,"idol":13067,"dnr":13068,"myn":13069,"turister":13070,"science":13071,"ms":13072,"##ssen":13073,"##drift":13074,"##mers":13075,"gd":13076,"solo":13077,"programvara":13078,"color":13079,"lampor":13080,"lennart":13081,"aa":13082,"plockade":13083,"##holdt":13084,"undersø":13085,"##gs":13086,"cast":13087,"91":13088,"oppfor":13089,"repet":13090,"gator":13091,"typisk":13092,"forflytt":13093,"absolutt":13094,"##gjennom":13095,"chefen":13096,"##ekon":13097,"titlar":13098,"##journ":13099,"##irasjon":13100,"sjalvfort":13101,"##syk":13102,"##undersøkel":13103,"gøy":13104,"uppgick":13105,"korn":13106,"stry":13107,"underhallande":13108,"tjocka":13109,"rantor":13110,"tjeck":13111,"underlattar":13112,"innsats":13113,"##fron":13114,"##strad":13115,"oga":13116,"kvartal":13117,"filen":13118,"##ebo":13119,"kontaktann":13120,"##brid":13121,"##elin":13122,"nevnt":13123,"tillatet":13124,"hallit":13125,"javligt":13126,"##ward":13127,"befri":13128,"fargerna":13129,"hanteras":13130,"##komligt":13131,"tillhandahaller":13132,"##utdan":13133,"evangel":13134,"strumpor":13135,"avgjørende":13136,"menings":13137,"fordr":13138,"anlaggningen":13139,"vinkel":13140,"selvsagt":13141,"m2":13142,"minskning":13143,"bevara":13144,"##objekt":13145,"katalog":13146,"stoff":13147,"##ytor":13148,"there":13149,"ingang":13150,"##cernen":13151,"tillbaks":13152,"rantan":13153,"ordningen":13154,"##atsas":13155,"##ogra":13156,"##spolicy":13157,"fiskar":13158,"nasan":13159,"##gjord":13160,"gata":13161,"gummi":13162,"ensamma":13163,"bedriver":13164,"kle":13165,"øyebl":13166,"atmosfar":13167,"konkurrenskraft":13168,"##utna":13169,"virke":13170,"##annat":13171,"njot":13172,"##maskinen":13173,"##unna":13174,"bortsett":13175,"somras":13176,"berattat":13177,"##uru":13178,"virkel":13179,"ettersom":13180,"kriminal":13181,"endring":13182,"##rud":13183,"##ningssatt":13184,"##karna":13185,"##elever":13186,"ebony":13187,"5000":13188,"uppsta":13189,"kostnadsfritt":13190,"sokning":13191,"sexuell":13192,"kommissionen":13193,"##sklader":13194,"periode":13195,"lada":13196,"beton":13197,"##hallande":13198,"##skamp":13199,"##teringen":13200,"ytterligere":13201,"forsakringen":13202,"bege":13203,"trakig":13204,"senter":13205,"##akk":13206,"##vind":13207,"utby":13208,"kannet":13209,"##svikt":13210,"##reen":13211,"skadestand":13212,"ingrediens":13213,"forsvara":13214,"1950":13215,"##span":13216,"regjering":13217,"feng":13218,"##etr":13219,"##idrott":13220,"sola":13221,"ic":13222,"poolen":13223,"grata":13224,"mellanrum":13225,"##varu":13226,"genet":13227,"gava":13228,"valut":13229,"forstora":13230,"##vitt":13231,"tranade":13232,"abonnemang":13233,"pirat":13234,"escorter":13235,"gps":13236,"varsin":13237,"halland":13238,"klarte":13239,"forhallandet":13240,"hardt":13241,"alternativa":13242,"besokt":13243,"gris":13244,"henhold":13245,"ystad":13246,"mandags":13247,"##inci":13248,"utført":13249,"##cher":13250,"huvudsakligen":13251,"sound":13252,"instrukt":13253,"importer":13254,"kreditupplysning":13255,"laddar":13256,"orsakar":13257,"landskapet":13258,"forhin":13259,"jordgubbar":13260,"applic":13261,"arsredovis":13262,"hallon":13263,"pase":13264,"fakult":13265,"glim":13266,"##ammation":13267,"erfaringer":13268,"male":13269,"##namnet":13270,"diet":13271,"##venn":13272,"varat":13273,"nationellt":13274,"##baserade":13275,"talam":13276,"skatteverket":13277,"##ki":13278,"sopp":13279,"varer":13280,"tavlar":13281,"spørsmalet":13282,"inspirerad":13283,"##dsel":13284,"musiker":13285,"ansag":13286,"mandel":13287,"##fjord":13288,"lillebror":13289,"##vetet":13290,"betydelig":13291,"##lack":13292,"cons":13293,"kjører":13294,"##handeln":13295,"##glad":13296,"degen":13297,"hill":13298,"##ittel":13299,"oc":13300,"appel":13301,"kroppens":13302,"##gards":13303,"##fallen":13304,"##ttill":13305,"uttrykk":13306,"hamburg":13307,"##sti":13308,"az":13309,"oratt":13310,"##sbeslut":13311,"##ating":13312,"byra":13313,"slapptes":13314,"baren":13315,"350":13316,"##ident":13317,"tillverkas":13318,"raknat":13319,"aktivera":13320,"misstankt":13321,"forsvaret":13322,"chic":13323,"parag":13324,"mach":13325,"klev":13326,"rita":13327,"afghan":13328,"jean":13329,"71":13330,"forare":13331,"flytande":13332,"halt":13333,"##uelle":13334,"##rediter":13335,"samtycke":13336,"arhund":13337,"lex":13338,"ventilation":13339,"es":13340,"onan":13341,"pier":13342,"aktiebolag":13343,"stabilitet":13344,"vagrar":13345,"invandrare":13346,"utstall":13347,"ligg":13348,"bilda":13349,"folkets":13350,"bosatt":13351,"##sforvalt":13352,"tromsø":13353,"tunna":13354,"lamm":13355,"ss":13356,"##fsat":13357,"wiki":13358,"putt":13359,"##ony":13360,"hodet":13361,"##amnen":13362,"know":13363,"signer":13364,"sommeren":13365,"normer":13366,"frukosten":13367,"reste":13368,"marg":13369,"camilla":13370,"morkret":13371,"kvelden":13372,"mission":13373,"##deltag":13374,"##work":13375,"godkanda":13376,"nina":13377,"prisen":13378,"kyss":13379,"dykt":13380,"##sbeg":13381,"skrattar":13382,"fremme":13383,"progress":13384,"jackp":13385,"honung":13386,"andrar":13387,"##aton":13388,"markte":13389,"##adet":13390,"modernt":13391,"office":13392,"drottning":13393,"trolig":13394,"1991":13395,"smorg":13396,"ihjal":13397,"rose":13398,"suver":13399,"##avstand":13400,"soldater":13401,"##arbetare":13402,"ign":13403,"publicerat":13404,"effektivitet":13405,"##skas":13406,"samsung":13407,"##apper":13408,"ovrig":13409,"bygglov":13410,"##marke":13411,"innom":13412,"orgasm":13413,"tekniskt":13414,"##kvar":13415,"gleder":13416,"stryk":13417,"spotify":13418,"latina":13419,"##usion":13420,"insamling":13421,"##berga":13422,"##serie":13423,"##kvalitet":13424,"##xy":13425,"doma":13426,"sallsyn":13427,"derimot":13428,"grens":13429,"##rettel":13430,"korrig":13431,"##nede":13432,"avslo":13433,"reiser":13434,"##veien":13435,"##pump":13436,"raddningst":13437,"belagen":13438,"##ital":13439,"beskatt":13440,"skrivande":13441,"høg":13442,"kontrast":13443,"uppmarksam":13444,"lararen":13445,"farge":13446,"bokat":13447,"ratter":13448,"antibi":13449,"##organisation":13450,"omtr":13451,"akade":13452,"norw":13453,"tummarna":13454,"kjer":13455,"##stroms":13456,"rutan":13457,"##speg":13458,"hass":13459,"cecil":13460,"partik":13461,"batar":13462,"frost":13463,"pals":13464,"music":13465,"##rant":13466,"vinsten":13467,"sykl":13468,"##sbanken":13469,"beloppet":13470,"kanslig":13471,"search":13472,"individuellt":13473,"##bibli":13474,"handlat":13475,"##sokande":13476,"##plac":13477,"linnea":13478,"utsikten":13479,"klarat":13480,"luktar":13481,"ova":13482,"sf":13483,"##atorn":13484,"designer":13485,"onskade":13486,"arbetsloshet":13487,"sliter":13488,"klaga":13489,"##cos":13490,"blot":13491,"casinot":13492,"american":13493,"##kg":13494,"kulturen":13495,"servering":13496,"##ay":13497,"publisert":13498,"dur":13499,"##bror":13500,"##stillinger":13501,"##sklubb":13502,"halloween":13503,"tilrettel":13504,"ansoker":13505,"vistas":13506,"##fyllda":13507,"##adels":13508,"invester":13509,"##smiljo":13510,"meta":13511,"hemsidor":13512,"konkreta":13513,"integration":13514,"overgrepp":13515,"framsteg":13516,"##vardet":13517,"soldat":13518,"##insatser":13519,"diskuterar":13520,"diagnost":13521,"sønn":13522,"arskurs":13523,"mild":13524,"sovrummet":13525,"djupa":13526,"kasinon":13527,"##politik":13528,"##gro":13529,"lege":13530,"placerade":13531,"vintage":13532,"begransat":13533,"kontinuerlig":13534,"##uster":13535,"avslutning":13536,"utdelning":13537,"revolution":13538,"cykeln":13539,"skriker":13540,"belgi":13541,"##ppet":13542,"forvanta":13543,"rekommendationer":13544,"styck":13545,"benyttes":13546,"spell":13547,"##slost":13548,"flyttet":13549,"platta":13550,"kiss":13551,"intakt":13552,"minuten":13553,"undrade":13554,"etiketter":13555,"##99":13556,"ada":13557,"sprider":13558,"baserade":13559,"vaggarna":13560,"##itiv":13561,"inneha":13562,"brukade":13563,"##forum":13564,"##anmalan":13565,"##lange":13566,"kjærligheten":13567,"malgrupp":13568,"bt":13569,"aktuelle":13570,"visby":13571,"bibe":13572,"wordpress":13573,"nyt":13574,"deilig":13575,"##slen":13576,"##vaska":13577,"##mis":13578,"forklarade":13579,"favoritt":13580,"vell":13581,"bestammelserna":13582,"##snummer":13583,"##veis":13584,"varning":13585,"found":13586,"tig":13587,"okanda":13588,"minimum":13589,"hollywood":13590,"konkurranse":13591,"marknader":13592,"##bane":13593,"##delag":13594,"tanderna":13595,"3000":13596,"genomfort":13597,"##vision":13598,"høyeste":13599,"borte":13600,"tanter":13601,"projektledare":13602,"fula":13603,"forskar":13604,"albumet":13605,"##fran":13606,"kvallarna":13607,"videospel":13608,"vul":13609,"glasogon":13610,"passager":13611,"##mott":13612,"tydligare":13613,"jung":13614,"##spolitik":13615,"##terad":13616,"had":13617,"##itation":13618,"##block":13619,"opplevelse":13620,"##itativa":13621,"##kerne":13622,"administrasjon":13623,"lacker":13624,"omtrent":13625,"missn":13626,"svull":13627,"moderaterna":13628,"representerar":13629,"formedla":13630,"portratt":13631,"cirk":13632,"years":13633,"elect":13634,"regnskap":13635,"skak":13636,"expans":13637,"##allen":13638,"bokar":13639,"festivalen":13640,"##ryss":13641,"##skolans":13642,"byggas":13643,"explo":13644,"tidspunkt":13645,"nyheterna":13646,"plug":13647,"##hojd":13648,"handelsen":13649,"##hammar":13650,"mestadels":13651,"utnyttjar":13652,"rattvis":13653,"tvil":13654,"stiftelsen":13655,"##akes":13656,"flod":13657,"arbetsplatser":13658,"opera":13659,"orientering":13660,"fron":13661,"veteran":13662,"bebygg":13663,"vilkar":13664,"coop":13665,"##yder":13666,"uppdateras":13667,"##ilda":13668,"blodet":13669,"komplettera":13670,"spred":13671,"udda":13672,"cap":13673,"##forfatt":13674,"south":13675,"genomsnittet":13676,"recens":13677,"foreslag":13678,"enkle":13679,"jobbig":13680,"##moder":13681,"viet":13682,"unger":13683,"##ellen":13684,"avsloja":13685,"##iseras":13686,"gratul":13687,"basket":13688,"##smatch":13689,"1600":13690,"##plattor":13691,"missfor":13692,"teor":13693,"pad":13694,"##sgran":13695,"utb":13696,"mangler":13697,"kunskapen":13698,"revol":13699,"indiska":13700,"offens":13701,"##storlek":13702,"trøn":13703,"skorna":13704,"##pum":13705,"##oe":13706,"miljopart":13707,"##kjøp":13708,"##ifer":13709,"hygien":13710,"kjenn":13711,"oppgave":13712,"rike":13713,"kanel":13714,"manniskans":13715,"bildas":13716,"vip":13717,"##chester":13718,"bildar":13719,"blivande":13720,"regelverk":13721,"stilling":13722,"miljom":13723,"allas":13724,"holls":13725,"##visningen":13726,"gaming":13727,"christer":13728,"##ami":13729,"##stallt":13730,"handled":13731,"møtte":13732,"gh":13733,"sørge":13734,"##resultatet":13735,"##boy":13736,"bedomningen":13737,"kyla":13738,"size":13739,"varmare":13740,"maltider":13741,"markedsf":13742,"nadde":13743,"##ords":13744,"pite":13745,"dead":13746,"gjenoppretting":13747,"apner":13748,"betraffande":13749,"gold":13750,"biverkningar":13751,"lunds":13752,"nja":13753,"alfa":13754,"amerika":13755,"hundre":13756,"tisdagen":13757,"relaterade":13758,"##batten":13759,"##kann":13760,"klokt":13761,"overleva":13762,"kostade":13763,"great":13764,"snakker":13765,"parterna":13766,"overvakning":13767,"terrass":13768,"sammenheng":13769,"##cen":13770,"##vill":13771,"torget":13772,"##drer":13773,"fattas":13774,"apel":13775,"##esund":13776,"klubbar":13777,"##langd":13778,"##35":13779,"##punkten":13780,"beromda":13781,"agde":13782,"utformning":13783,"news":13784,"hyfsat":13785,"##halt":13786,"stodjer":13787,"isb":13788,"linjen":13789,"dimension":13790,"nylig":13791,"##skrid":13792,"tes":13793,"##fet":13794,"veterin":13795,"see":13796,"stangt":13797,"vagledning":13798,"##check":13799,"##jde":13800,"xnxx":13801,"elast":13802,"##asyster":13803,"##brod":13804,"##registr":13805,"##tradande":13806,"##rill":13807,"hjartan":13808,"ravaror":13809,"##prom":13810,"##stationen":13811,"pict":13812,"pyssel":13813,"slick":13814,"valfard":13815,"neuro":13816,"##dren":13817,"forma":13818,"roligaste":13819,"##jerna":13820,"motivation":13821,"##fordon":13822,"pasienter":13823,"lit":13824,"tomat":13825,"##trader":13826,"interessant":13827,"aland":13828,"passform":13829,"resurs":13830,"tillforlit":13831,"vitam":13832,"ledamot":13833,"elimin":13834,"##veg":13835,"overlat":13836,"renovering":13837,"halsar":13838,"360":13839,"letade":13840,"orn":13841,"bildades":13842,"overraskning":13843,"pix":13844,"##hvert":13845,"saknade":13846,"spik":13847,"skrammande":13848,"ferie":13849,"valkanda":13850,"rykte":13851,"antas":13852,"likadant":13853,"##sund":13854,"ressurser":13855,"##gjorda":13856,"flo":13857,"halvtimme":13858,"riket":13859,"young":13860,"skept":13861,"revisor":13862,"balkongen":13863,"rommet":13864,"benytte":13865,"dream":13866,"schema":13867,"rakning":13868,"##skyld":13869,"##estyr":13870,"skilda":13871,"vackraste":13872,"##plasser":13873,"bladd":13874,"##vice":13875,"videregaende":13876,"retten":13877,"rick":13878,"cirkel":13879,"string":13880,"##ialt":13881,"tillhandahalla":13882,"imot":13883,"##kalla":13884,"ern":13885,"##svatten":13886,"nordmenn":13887,"instruktion":13888,"125":13889,"tinder":13890,"tuffa":13891,"pilot":13892,"fug":13893,"styrket":13894,"sannolikhet":13895,"ansvariga":13896,"kandis":13897,"##hattan":13898,"tals":13899,"##arbeide":13900,"bibliote":13901,"meddelar":13902,"sverigedemokraterna":13903,"komplement":13904,"hiv":13905,"##opol":13906,"spray":13907,"offentligt":13908,"kafe":13909,"pok":13910,"##jarna":13911,"vacka":13912,"latex":13913,"tillverkar":13914,"##come":13915,"trakiga":13916,"##ikop":13917,"##astaende":13918,"nordisk":13919,"kungs":13920,"soffa":13921,"##ekom":13922,"rotter":13923,"ganget":13924,"valdtakt":13925,"uken":13926,"gardagens":13927,"berget":13928,"sentrale":13929,"betalningar":13930,"tiot":13931,"fb":13932,"lover":13933,"mj":13934,"##søk":13935,"birgitta":13936,"mysa":13937,"industr":13938,"erfarna":13939,"fastan":13940,"##tex":13941,"gjer":13942,"torrt":13943,"fordelarna":13944,"forsakringskassan":13945,"passerar":13946,"uavhengig":13947,"kolhydrater":13948,"fittor":13949,"every":13950,"skoll":13951,"buller":13952,"mira":13953,"jordbruks":13954,"ags":13955,"##ople":13956,"felt":13957,"##fas":13958,"fascin":13959,"folks":13960,"kampanjen":13961,"elisabeth":13962,"nek":13963,"##espiller":13964,"##lur":13965,"pluts":13966,"desp":13967,"koden":13968,"richard":13969,"##ji":13970,"vagade":13971,"kristians":13972,"spektak":13973,"kontaktar":13974,"peppark":13975,"lom":13976,"argumenter":13977,"next":13978,"utnyttj":13979,"arsmote":13980,"røy":13981,"##samman":13982,"##¤r":13983,"roger":13984,"langsiktig":13985,"##visas":13986,"avsedd":13987,"herreg":13988,"plutselig":13989,"konstiga":13990,"##øpet":13991,"meriter":13992,"skadade":13993,"##sveck":13994,"drama":13995,"slottet":13996,"##smassigt":13997,"sankt":13998,"kansliga":13999,"maxi":14000,"genomfordes":14001,"##verkar":14002,"##lop":14003,"ohalsa":14004,"myt":14005,"ekstre":14006,"mega":14007,"matcha":14008,"keram":14009,"##arter":14010,"pend":14011,"floden":14012,"papir":14013,"##cht":14014,"sommarlov":14015,"cigar":14016,"##ledes":14017,"begynnelsen":14018,"designen":14019,"veiled":14020,"pics":14021,"##savgiften":14022,"stamningen":14023,"rabattkod":14024,"prestation":14025,"onani":14026,"armband":14027,"##renover":14028,"anim":14029,"ub":14030,"fotografering":14031,"konvention":14032,"##bete":14033,"lasse":14034,"flickan":14035,"##redakt":14036,"##kommende":14037,"ai":14038,"dir":14039,"skruv":14040,"konserter":14041,"felaktig":14042,"##alerna":14043,"##vald":14044,"##emidler":14045,"##famil":14046,"utvikler":14047,"tilstand":14048,"m²":14049,"liver":14050,"tillata":14051,"rapportering":14052,"inblandade":14053,"##legge":14054,"trinn":14055,"vaxthus":14056,"##gjøring":14057,"bekost":14058,"montera":14059,"situasjon":14060,"##45":14061,"##sprosjekt":14062,"treng":14063,"spare":14064,"stenar":14065,"vikar":14066,"optimal":14067,"shirt":14068,"research":14069,"endret":14070,"lagst":14071,"vises":14072,"verdt":14073,"ryd":14074,"ankomst":14075,"##butikk":14076,"##bilda":14077,"anbefaler":14078,"smek":14079,"russiske":14080,"##tips":14081,"resultatene":14082,"uppmarksamma":14083,"nacka":14084,"konserv":14085,"klasse":14086,"skarpa":14087,"##vader":14088,"assistans":14089,"sande":14090,"publicera":14091,"fattiga":14092,"die":14093,"onda":14094,"husdjur":14095,"vagarna":14096,"contin":14097,"valfar":14098,"rider":14099,"sparas":14100,"ingrid":14101,"trenden":14102,"##bottens":14103,"##otyp":14104,"kk":14105,"##skiv":14106,"mamman":14107,"bestemte":14108,"kvinnors":14109,"idiot":14110,"diskuteras":14111,"##anvandning":14112,"matlagning":14113,"expressen":14114,"##slov":14115,"prostitu":14116,"##kapp":14117,"bn":14118,"kostnadsfri":14119,"##pedagog":14120,"##byn":14121,"pont":14122,"heldigvis":14123,"##pension":14124,"examens":14125,"omdome":14126,"##ikket":14127,"##langt":14128,"blandat":14129,"##glom":14130,"##samnen":14131,"pedagogisk":14132,"begransningar":14133,"begransa":14134,"umiddel":14135,"potentiella":14136,"bifog":14137,"##iserer":14138,"must":14139,"blabar":14140,"dari":14141,"##stjarnor":14142,"godkjen":14143,"kompos":14144,"absoluta":14145,"##pir":14146,"skader":14147,"##mass":14148,"anden":14149,"varia":14150,"aksep":14151,"##imenter":14152,"##allet":14153,"ovantat":14154,"innovasjon":14155,"blekinge":14156,"jattekul":14157,"reagerar":14158,"regioner":14159,"tilstrek":14160,"batterier":14161,"##brev":14162,"biskop":14163,"uddevalla":14164,"uppvarmning":14165,"burk":14166,"skrivet":14167,"bemotande":14168,"##idering":14169,"##ovning":14170,"##tell":14171,"langsiktiga":14172,"harifran":14173,"##inerna":14174,"##atik":14175,"principer":14176,"selger":14177,"smin":14178,"##ftt":14179,"##rap":14180,"inspirasjon":14181,"card":14182,"medium":14183,"bjørn":14184,"loner":14185,"forkort":14186,"venter":14187,"portugal":14188,"##eep":14189,"enskilt":14190,"forvisso":14191,"schemat":14192,"##feldt":14193,"##ellet":14194,"##varre":14195,"##emar":14196,"oppmerksom":14197,"genomgang":14198,"uppvaxt":14199,"##ankar":14200,"stracka":14201,"norweg":14202,"suks":14203,"borlange":14204,"##rene":14205,"interiør":14206,"lopning":14207,"energik":14208,"midler":14209,"name":14210,"##dragen":14211,"medvetet":14212,"##lagda":14213,"garanterar":14214,"stov":14215,"popularitet":14216,"upplys":14217,"migrations":14218,"care":14219,"##penning":14220,"palm":14221,"##sarbeid":14222,"nost":14223,"maja":14224,"asien":14225,"debiter":14226,"##ørende":14227,"kristina":14228,"ll":14229,"punkten":14230,"pp":14231,"religiosa":14232,"##angs":14233,"diameter":14234,"sling":14235,"kvallar":14236,"seni":14237,"publikum":14238,"sitte":14239,"farten":14240,"gifter":14241,"stressad":14242,"associ":14243,"break":14244,"snap":14245,"##arten":14246,"utforas":14247,"matcherna":14248,"armarna":14249,"justera":14250,"arbetskraft":14251,"framgangsrik":14252,"nobel":14253,"manaders":14254,"stemmer":14255,"testar":14256,"dokumentar":14257,"nyte":14258,"socken":14259,"intellekt":14260,"sikte":14261,"madrid":14262,"gass":14263,"use":14264,"##dafr":14265,"sess":14266,"bevisst":14267,"grasm":14268,"tallrik":14269,"arbetstid":14270,"lignende":14271,"corn":14272,"generell":14273,"hyresgast":14274,"shit":14275,"verklig":14276,"##zo":14277,"gy":14278,"netto":14279,"herregud":14280,"depression":14281,"rabatter":14282,"please":14283,"drakt":14284,"ekologiskt":14285,"marknads":14286,"##viv":14287,"merket":14288,"##ssyn":14289,"attraktiv":14290,"geograf":14291,"forvaltningen":14292,"##ansokan":14293,"omfattende":14294,"løsning":14295,"##blas":14296,"resur":14297,"sjutt":14298,"##bom":14299,"nø":14300,"globalt":14301,"##ersen":14302,"ryt":14303,"utbyte":14304,"kopare":14305,"vanligare":14306,"##stalle":14307,"##bot":14308,"##tagning":14309,"dobb":14310,"stir":14311,"nordland":14312,"##delt":14313,"##skiva":14314,"alltmer":14315,"komfor":14316,"olag":14317,"rymmer":14318,"##utbildningen":14319,"eur":14320,"##sskydd":14321,"olle":14322,"##beller":14323,"##utik":14324,"avklar":14325,"konstig":14326,"personlige":14327,"jose":14328,"fos":14329,"sjalvstandigt":14330,"motsatt":14331,"badkar":14332,"iaktt":14333,"napp":14334,"grafik":14335,"amerikan":14336,"##brand":14337,"try":14338,"loper":14339,"##sformer":14340,"talamod":14341,"utrymmen":14342,"teckna":14343,"trekke":14344,"##edal":14345,"brutt":14346,"vardagar":14347,"kyrkans":14348,"nyfik":14349,"##skot":14350,"utrustad":14351,"lyder":14352,"formiddag":14353,"stot":14354,"areal":14355,"vingar":14356,"onskat":14357,"taggad":14358,"penning":14359,"##eby":14360,"lovat":14361,"##modellen":14362,"tirsdag":14363,"kommand":14364,"##register":14365,"stunden":14366,"lt":14367,"prinsipp":14368,"samhallets":14369,"##instit":14370,"rulle":14371,"##massan":14372,"##skud":14373,"##sky":14374,"radik":14375,"krypa":14376,"forfar":14377,"uppror":14378,"##bostad":14379,"##vav":14380,"erbjudandet":14381,"kundservice":14382,"##finansiering":14383,"##ection":14384,"beseg":14385,"fasad":14386,"slappna":14387,"##utbildningar":14388,"##konst":14389,"overvak":14390,"variation":14391,"##sberg":14392,"##ungna":14393,"##cipl":14394,"##struktur":14395,"halsade":14396,"flu":14397,"people":14398,"enk":14399,"##jacka":14400,"foresla":14401,"filtr":14402,"##skons":14403,"cred":14404,"sagas":14405,"most":14406,"agar":14407,"##aaa":14408,"##ifikat":14409,"##skul":14410,"louise":14411,"operativ":14412,"kakel":14413,"sammantrade":14414,"pia":14415,"hemlighet":14416,"kreft":14417,"tilbakem":14418,"##lyser":14419,"nedenfor":14420,"##ilja":14421,"skrivs":14422,"internt":14423,"tarar":14424,"sjunker":14425,"kvinnlig":14426,"##yke":14427,"italiensk":14428,"##regel":14429,"theres":14430,"##onder":14431,"nul":14432,"##ladan":14433,"besøke":14434,"##ffen":14435,"##halls":14436,"tillracklig":14437,"##yrk":14438,"##format":14439,"food":14440,"statlig":14441,"sprit":14442,"##sbyggnad":14443,"mossa":14444,"obek":14445,"morker":14446,"##ungit":14447,"##ters":14448,"##orden":14449,"uppskatta":14450,"fastighets":14451,"erotiske":14452,"forandrats":14453,"forekomma":14454,"olymp":14455,"landsbygden":14456,"rettigheter":14457,"juridiska":14458,"webbsida":14459,"ungar":14460,"usikker":14461,"vaning":14462,"imorr":14463,"eventuelt":14464,"omedelbar":14465,"øver":14466,"only":14467,"varg":14468,"bilarna":14469,"astadkomma":14470,"stadning":14471,"##forvar":14472,"betalningsanmarkningar":14473,"dessvarre":14474,"fremover":14475,"##krit":14476,"karlskrona":14477,"kum":14478,"##effekt":14479,"compan":14480,
[...]
