{"version":"1.0","truncation":null,"padding":null,"added_tokens":[{"id":0,"special":true,"content":"[PAD]","single_word":false,"lstrip":false,"rstrip":false,"normalized":false},{"id":1,"special":true,"content":"[UNK]","single_word":false,"lstrip":false,"rstrip":false,"normalized":false},{"id":2,"special":true,"content":"[CLS]","single_word":false,"lstrip":false,"rstrip":false,"normalized":false},{"id":3,"special":true,"content":"[SEP]","single_word":false,"lstrip":false,"rstrip":false,"normalized":false},{"id":4,"special":true,"content":"[MASK]","single_word":false,"lstrip":false,"rstrip":false,"normalized":false}],"normalizer":{"type":"BertNormalizer","clean_text":true,"handle_chinese_chars":true,"strip_accents":null,"lowercase":true},"pre_tokenizer":{"type":"BertPreTokenizer"},"post_processor":null,"decoder":{"type":"WordPiece","prefix":"##","cleanup":true},"model":{"type":"WordPiece","unk_token":"[UNK]","continuing_subword_prefix":"##","max_input_chars_per_word":100,"vocab":{"[PAD]":0,"[UNK]":1,"[CLS]":2,"[SEP]":3,"[MASK]":4,"!":5,"\"":6,"#":7,"$":8,"%":9,"&":10,"'":11,"(":12,")":13,"*":14,"+":15,",":16,"-":17,".":18,"/":19,"0":20,"1":21,"2":22,"3":23,"4":24,"5":25,"6":26,"7":27,"8":28,"9":29,":":30,";":31,"=":32,"?":33,"@":34,"[":35,"\\":36,"]":37,"^":38,"_":39,"`":40,"a":41,"b":42,"c":43,"d":44,"e":45,"f":46,"g":47,"h":48,"i":49,"j":50,"k":51,"l":52,"m":53,"n":54,"o":55,"p":56,"q":57,"r":58,"s":59,"t":60,"u":61,"v":62,"w":63,"x":64,"y":65,"z":66,"{":67,"|":68,"}":69,"~":70,"¡":71,"£":72,"§":73,"¨":74,"«":75,"®":76,"°":77,"±":78,"²":79,"³":80,"´":81,"µ":82,"·":83,"¹":84,"º":85,"»":86,"¼":87,"½":88,"¾":89,"×":90,"ß":91,"æ":92,"ð":93,"÷":94,"ø":95,"þ":96,"đ":97,"ħ":98,"ı":99,"ĳ":100,"ł":101,"ŋ":102,"œ":103,"ŧ":104,"ƒ":105,"ɐ":106,"ɑ":107,"ɒ":108,"ɓ":109,"ɔ":110,"ɕ":111,"ə":112,"ɛ":113,"ɡ":114,"ɣ":115,"ɨ":116,"ɪ":117,"ɲ":118,"ɽ":119,"ɾ":120,"ʁ":121,"ʃ":122,"ʉ":123,"ʊ":124,"ʋ":125,"ʒ":126,"ʔ":127,"ʰ":128,"ʲ":129,"ʹ":130,"ʻ":131,"ʼ":132,"ʾ":133,"ʿ":134,"ˈ":135,"ˌ":136,"ː":137,"˚":138,"΄":139,"α":140,"β":141,"γ":142,"δ":143,"ε":144,"ζ":145,"η":146,"θ":147,"ι":148,"κ":149,"λ":150,"μ":151,"ν":152,"ξ":153,"ο":154,"π":155,"ρ":156,"ς":157,"σ":158,"τ":159,"υ":160,"φ":161,"χ":162,"ψ":163,"ω":164,"а":165,"б":166,"в":167,"г":168,"д":169,"е":170,"ж":171,"з":172,"и":173,"к":174,"л":175,"м":176,"н":177,"о":178,"п":179,"р":180,"с":181,"т":182,"у":183,"ф":184,"х":185,"ц":186,"ч":187,"ш":188,"щ":189,"ъ":190,"ы":191,"ь":192,"э":193,"ю":194,"я":195,"ђ":196,"є":197,"і":198,"ј":199,"љ":200,"њ":201,"ћ":202,"қ":203,"ү":204,"ӏ":205,"ә":206,"ө":207,"ա":208,"բ":209,"գ":210,"դ":211,"ե":212,"զ":213,"թ":214,"ի":215,"լ":216,"կ":217,"հ":218,"ղ":219,"մ":220,"յ":221,"ն":222,"շ":223,"ո":224,"ս":225,"վ":226,"տ":227,"ր":228,"ւ":229,"ք":230,"א":231,"ב":232,"ג":233,"ד":234,"ה":235,"ו":236,"ז":237,"ח":238,"ט":239,"י":240,"כ":241,"ל":242,"ם":243,"מ":244,"ן":245,"נ":246,"ס":247,"ע":248,"ף":249,"פ":250,"צ":251,"ק":252,"ר":253,"ש":254,"ת":255,"ء":256,"ا":257,"ب":258,"ة":259,"ت":260,"ث":261,"ج":262,"ح":263,"خ":264,"د":265,"ذ":266,"ر":267,"ز":268,"س":269,"ش":270,"ص":271,"ض":272,"ط":273,"ظ":274,"ع":275,"غ":276,"ف":277,"ق":278,"ك":279,"ل":280,"م":281,"ن":282,"ه":283,"و":284,"ى":285,"ي":286,"پ":287,"چ":288,"ک":289,"گ":290,"ھ":291,"ہ":292,"ۇ":293,"ی":294,"ە":295,"ܐ":296,"ܒ":297,"ܕ":298,"ܘ":299,"ܝ":300,"ܠ":301,"ܡ":302,"ܢ":303,"ܪ":304,"ܬ":305,"अ":306,"आ":307,"क":308,"ख":309,"ग":310,"च":311,"ज":312,"ट":313,"ड":314,"ण":315,"त":316,"थ":317,"द":318,"ध":319,"न":320,"प":321,"ब":322,"भ":323,"म":324,"य":325,"र":326,"ल":327,"व":328,"श":329,"ष":330,"स":331,"ह":332,"ा":333,"ि":334,"ी":335,"ो":336,"॥":337,"ং":338,"ক":339,"জ":340,"ত":341,"দ":342,"ন":343,"প":344,"ব":345,"ম":346,"য":347,"র":348,"ল":349,"শ":350,"স":351,"হ":352,"া":353,"ি":354,"ী":355,"ে":356,"ਅ":357,"ਆ":358,"ਇ":359,"ਈ":360,"ਉ":361,"ਐ":362,"ਕ":363,"ਖ":364,"ਗ":365,"ਚ":366,"ਜ":367,"ਡ":368,"ਣ":369,"ਤ":370,"ਥ":371,"ਦ":372,"ਧ":373,"ਨ":374,"ਪ":375,"ਬ":376,"ਭ":377,"ਮ":378,"ਰ":379,"ਲ":380,"ਵ":381,"ਸ":382,"ਹ":383,"ਾ":384,"ਿ":385,"ੀ":386,"લ":387,"ા":388,"ା":389,"க":390,"ச":391,"ட":392,"த":393,"ன":394,"ப":395,"ம":396,"ர":397,"ல":398,"வ":399,"ா":400,"ி":401,"ு":402,"ర":403,"ల":404,"ರ":405,"ಲ":406,"ಾ":407,"ല":408,"ා":409,"ก":410,"ค":411,"ง":412,"จ":413,"ช":414,"ณ":415,"ด":416,"ต":417,"ท":418,"ธ":419,"น":420,"บ":421,"ป":422,"พ":423,"ภ":424,"ม":425,"ย":426,"ร":427,"ล":428,"ว":429,"ศ":430,"ส":431,"ห":432,"อ":433,"ะ":434,"า":435,"ำ":436,"เ":437,"แ":438,"โ":439,"ไ":440,"་":441,"།":442,"ཀ":443,"ཁ":444,"ག":445,"ང":446,"ཅ":447,"ཆ":448,"ཉ":449,"ཏ":450,"ཐ":451,"ད":452,"ན":453,"པ":454,"ཕ":455,"བ":456,"མ":457,"ཚ":458,"ཞ":459,"འ":460,"ཡ":461,"ར":462,"ལ":463,"ཤ":464,"ས":465,"ა":466,"ბ":467,"გ":468,"დ":469,"ე":470,"ვ":471,"თ":472,"ი":473,"კ":474,"ლ":475,"მ":476,"ნ":477,"ო":478,"რ":479,"ს":480,"ტ":481,"უ":482,"ქ":483,"ხ":484,"ᄀ":485,"ᄂ":486,"ᄃ":487,"ᄅ":488,"ᄆ":489,"ᄇ":490,"ᄉ":491,"ᄋ":492,"ᄌ":493,"ᄎ":494,"ᄐ":495,"ᄑ":496,"ᄒ":497,"ᅡ":498,"ᅢ":499,"ᅥ":500,"ᅦ":501,"ᅧ":502,"ᅩ":503,"ᅪ":504,"ᅭ":505,"ᅮ":506,"ᅯ":507,"ᅲ":508,"ᅳ":509,"ᅴ":510,"ᅵ":511,"ᆨ":512,"ᆫ":513,"ᆯ":514,"ᆷ":515,"ᆸ":516,"ᆼ":517,"ក":518,"ង":519,"ត":520,"ទ":521,"ន":522,"ប":523,"ព":524,"ម":525,"រ":526,"ស":527,"ា":528,"‐":529,"‑":530,"–":531,"—":532,"‘":533,"’":534,"“":535,"”":536,"„":537,"†":538,"•":539,"…":540,"‰":541,"′":542,"″":543,"‹":544,"›":545,"⁄":546,"₁":547,"₂":548,"€":549,"℃":550,"ℓ":551,"⅍":552,"⅓":553,"⅔":554,"↑":555,"→":556,"∂":557,"∇":558,"∈":559,"−":560,"√":561,"∞":562,"∧":563,"≈":564,"≤":565,"≥":566,"⋅":567,"─":568,"│":569,"└":570,"├":571,"●":572,"♠":573,"♣":574,"♥":575,"♦":576,"♭":577,"♯":578,"⟨":579,"⟩":580,"ⲁ":581,"ⴰ":582,"、":583,"い":584,"う":585,"か":586,"き":587,"し":588,"た":589,"と":590,"の":591,"は":592,"り":593,"ん":594,"ア":595,"イ":596,"ウ":597,"オ":598,"カ":599,"キ":600,"ク":601,"ケ":602,"コ":603,"サ":604,"シ":605,"ス":606,"タ":607,"ッ":608,"テ":609,"ト":610,"ナ":611,"ニ":612,"ハ":613,"ヒ":614,"フ":615,"ホ":616,"マ":617,"ム":618,"ャ":619,"ュ":620,"ョ":621,"ラ":622,"リ":623,"ル":624,"ロ":625,"ン":626,"・":627,"ー":628,"一":629,"丁":630,"七":631,"万":632,"三":633,"上":634,"下":635,"不":636,"世":637,"东":638,"中":639,"丰":640,"临":641,"丹":642,"主":643,"义":644,"之":645,"乐":646,"九":647,"乡":648,"书":649,"事":650,"二":651,"于":652,"云":653,"五":654,"井":655,"京":656,"人":657,"仁":658,"仙":659,"代":660,"仲":661,"伊":662,"会":663,"伯":664,"佛":665,"作":666,"侯":667,"保":668,"信":669,"傳":670,"元":671,"光":672,"克":673,"全":674,"八":675,"公":676,"六":677,"兰":678,"共":679,"关":680,"兴":681,"军":682,"出":683,"刘":684,"利":685,"前":686,"劉":687,"力":688,"化":689,"北":690,"区":691,"十":692,"千":693,"华":694,"南":695,"博":696,"卫":697,"原":698,"县":699,"口":700,"古":701,"台":702,"史":703,"司":704,"合":705,"吉":706,"同":707,"名":708,"后":709,"君":710,"吳":711,"吴":712,"周":713,"命":714,"和":715,"品":716,"哈":717,"唐":718,"嘉":719,"嚴":720,"四":721,"团":722,"园":723,"国":724,"國":725,"園":726,"土":727,"地":728,"场":729,"址":730,"城":731,"堂":732,"塔":733,"墓":734,"士":735,"夏":736,"多":737,"大":738,"天":739,"太":740,"夫":741,"央":742,"头":743,"女":744,"子":745,"字":746,"孙":747,"孝":748,"学":749,"孫":750,"學":751,"宁":752,"安":753,"宋":754,"宗":755,"官":756,"定":757,"宝":758,"宮":759,"家":760,"富":761,"寺":762,"寿":763,"小":764,"尔":765,"居":766,"山":767,"岛":768,"岩":769,"岭":770,"岳":771,"峰":772,"島":773,"崇":774,"崖":775,"川":776,"州":777,"工":778,"巴":779,"市":780,"布":781,"帝":782,"師":783,"常":784,"平":785,"年":786,"广":787,"庄":788,"庆":789,"店":790,"庙":791,"府":792,"康":793,"廣":794,"建":795,"式":796,"张":797,"張":798,"徐":799,"德":800,"心":801,"志":802,"忠":803,"思":804,"成":805,"战":806,"戦":807,"戰":808,"所":809,"拉":810,"摩":811,"政":812,"故":813,"教":814,"文":815,"斯":816,"新":817,"方":818,"族":819,"旗":820,"日":821,"旧":822,"昌":823,"明":824,"星":825,"春":826,"昭":827,"時":828,"普":829,"景":830,"智":831,"曲":832,"書":833,"曹":834,"會":835,"月":836,"有":837,"朝":838,"木":839,"本":840,"朱":841,"机":842,"李":843,"村":844,"杨":845,"東":846,"松":847,"林":848,"株":849,"格":850,"桥":851,"梁":852,"梅":853,"楼":854,"歌":855,"正":856,"武":857,"氏":858,"民":859,"水":860,"永":861,"汉":862,"江":863,"沙":864,"河":865,"治":866,"泉":867,"法":868,"波":869,"泰":870,"洋":871,"洞":872,"津":873,"洪":874,"浦":875,"海":876,"清":877,"港":878,"湖":879,"湾":880,"源":881,"溪":882,"漢":883,"爾":884,"物":885,"特":886,"玄":887,"玉":888,"王":889,"理":890,"瑞":891,"生":892,"田":893,"电":894,"白":895,"百":896,"的":897,"皇":898,"相":899,"県":900,"真":901,"石":902,"社":903,"祖":904,"神":905,"福":906,"秀":907,"秋":908,"科":909,"秦":910,"空":911,"立":912,"站":913,"章":914,"筑":915,"經":916,"红":917,"经":918,"罗":919,"羅":920,"美":921,"群":922,"義":923,"老":924,"聖":925,"胡":926,"自":927,"興":928,"航":929,"般":930,"良":931,"花":932,"苏":933,"若":934,"英":935,"茶":936,"華":937,"蒙":938,"藏":939,"藤":940,"行":941,"街":942,"西":943,"記":944,"話":945,"語":946,"論":947,"话":948,"语":949,"赵":950,"趙":951,"路":952,"軍":953,"达":954,"通":955,"道":956,"遗":957,"郎":958,"郡":959,"部":960,"郭":961,"都":962,"酒":963,"里":964,"重":965,"野":966,"金":967,"铁":968,"镇":969,"長":970,"长":971,"門":972,"门":973,"阳":974,"阿":975,"际":976,"陈":977,"院":978,"陳":979,"陵":980,"陽":981,"隆":982,"雄":983,"雅":984,"集":985,"電":986,"青":987,"韓":988,"音":989,"顺":990,"馆":991,"香":992,"馬":993,"马":994,"高":995,"魏":996,"麻":997,"黃":998,"黄":999,"龍":1000,"龙":1001,"（":1002,"）":1003,"，":1004,"##e":1005,"##t":1006,"##s":1007,"##a":1008,"##m":1009,"##f":1010,"##u":1011,"##n":1012,"##o":1013,"##v":1014,"##d":1015,"##b":1016,"##k":1017,"##j":1018,"##r":1019,"##i":1020,"##l":1021,"##p":1022,"##y":1023,"##ø":1024,"##g":1025,"##h":1026,"##æ":1027,"##c":1028,"##1":1029,"##4":1030,"##6":1031,"##z":1032,"##0":1033,"##འ":1034,"##о":1035,"##н":1036,"##к":1037,"##и":1038,"##w":1039,"##ས":1040,"##đ":1041,"##3":1042,"##2":1043,"##9":1044,"##7":1045,"##ρ":1046,"##α":1047,"##χ":1048,"##ω":1049,"##β":1050,"##x":1051,"##י":1052,"##ה":1053,"##ו":1054,"##8":1055,"##5":1056,"##е":1057,"##с":1058,"##т":1059,"##р":1060,"##в":1061,"##ћ":1062,"##q":1063,"##а":1064,"##ھ":1065,"##ل":1066,"##ک":1067,"##ا":1068,"##η":1069,"##τ":1070,"##ο":1071,"##π":1072,"##λ":1073,"##ς":1074,"##ε":1075,"##φ":1076,"##υ":1077,"##і":1078,"##л":1079,"##ч":1080,"##ł":1081,"##と":1082,"##り":1083,"##し":1084,"##い":1085,"##ב":1086,"##ר":1087,"##ν":1088,"##х":1089,"##д":1090,"##м":1091,"##ь":1092,"##ཕ":1093,"##ན":1094,"##ð":1095,"##ж":1096,"##ʾ":1097,"##κ":1098,"##ι":1099,"##σ":1100,"##↑":1101,"##ם":1102,"##я":1103,"##´":1104,"##ß":1105,"##ф":1106,"##ɔ":1107,"##у":1108,"##з":1109,"##μ":1110,"##γ":1111,"##ы":1112,"##र":1113,"##ל":1114,"##δ":1115,"##¨":1116,"##ш":1117,"##ː":1118,"##ŋ":1119,"##г":1120,"##ц":1121,"##ي":1122,"##س":1123,"##و":1124,"##ղ":1125,"##կ":1126,"##ա":1127,"##ע":1128,"##ق":1129,"##م":1130,"##フ":1131,"##ー":1132,"##ड":1133,"##ी":1134,"##ק":1135,"##א":1136,"##°":1137,"##ب":1138,"##ع":1139,"##э":1140,"##ه":1141,"##θ":1142,"##ر":1143,"##ہ":1144,"##×":1145,"##া":1146,"##র":1147,"##জ":1148,"##ী":1149,"##ı":1150,"##ხ":1151,"##ა":1152,"##რ":1153,"##ტ":1154,"##ი":1155,"##ვ":1156,"##ლ":1157,"##ю":1158,"##מ":1159,"##צ":1160,"##ח":1161,"##ন":1162,"##প":1163,"##ত":1164,"##ʿ":1165,"##ɕ":1166,"##ʰ":1167,"##น":1168,"##อ":1169,"##ง":1170,"##บ":1171,"##ว":1172,"##ล":1173,"##ำ":1174,"##ภ":1175,"##د":1176,"##ի":1177,"##յ":1178,"##ն":1179,"##ی":1180,"##ਾ":1181,"##ਹ":1182,"##ਿ":1183,"##ा":1184,"##क":1185,"##б":1186,"##ج":1187,"##ਖ":1188,"##ਸ":1189,"##±":1190,"##ர":1191,"##ன":1192,"##ி":1193,"##வ":1194,"##ா":1195,"##ッ":1196,"##ハ":1197,"##ز":1198,"##ى":1199,"##♥":1200,"##ζ":1201,"##ة":1202,"##ت":1203,"##ح":1204,"##п":1205,"##ə":1206,"##ਚ":1207,"##ᅴ":1208,"##ᄅ":1209,"##ᄆ":1210,"##ᅩ":1211,"##ᆨ":1212,"##ᄉ":1213,"##ᅥ":1214,"##ᆼ":1215,"##−":1216,"##ष":1217,"##ि":1218,"##ण":1219,"##म":1220,"##य":1221,"##ن":1222,"##œ":1223,"##ј":1224,"##ן":1225,"##ณ":1226,"##เ":1227,"##ค":1228,"##ย":1229,"##า":1230,"##ห":1231,"##ส":1232,"##ม":1233,"##ξ":1234,"##þ":1235,"##ে":1236,"##ਉ":1237,"##স":1238,"##ম":1239,"##ি":1240,"##ং":1241,"##ो":1242,"##ص":1243,"##ʃ":1244,"##ˈ":1245,"##ɪ":1246,"##ਰ":1247,"##ਦ":1248,"##ਪ":1249,"##¹":1250,"##प":1251,"##व":1252,"##त":1253,"##ᅮ":1254,"##ᄀ":1255,"##ᅧ":1256,"##ŧ":1257,"##մ":1258,"##գ":1259,"##ր":1260,"##ɑ":1261,"##ե":1262,"##լ":1263,"##ᅵ":1264,"##ᆫ":1265,"##ᄌ":1266,"##ᄐ":1267,"##ᄒ":1268,"##ᅡ":1269,"##ᆸ":1270,"##ᄃ":1271,"##द":1272,"##は":1273,"##ल":1274,"##न":1275,"##ट":1276,"##მ":1277,"##ე":1278,"##ო":1279,"##ბ":1280,"##ᄎ":1281,"##£":1282,"##є":1283,"##ف":1284,"##ᅢ":1285,"##נ":1286,"##ש":1287,"##ת":1288,"##♭":1289,"##ᄇ":1290,"##ᆷ":1291,"##ン":1292,"##シ":1293,"##ョ":1294,"##ɣ":1295,"##פ":1296,"##ħ":1297,"##ɛ":1298,"##ᄋ":1299,"##ᅳ":1300,"##ん":1301,"##か":1302,"##®":1303,"##ס":1304,"##ד":1305,"##ਨ":1306,"##ਵ":1307,"##щ":1308,"##خ":1309,"##ψ":1310,"##ヒ":1311,"##ロ":1312,"##դ":1313,"##ս":1314,"##テ":1315,"##コ":1316,"##ク":1317,"##ʼ":1318,"##ش":1319,"##ス":1320,"##マ":1321,"##カ":1322,"##ป":1323,"##ก":1324,"##ཀ":1325,"##½":1326,"##ร":1327,"##ด":1328,"##হ":1329,"##দ":1330,"##ಾ":1331,"##ە":1332,"##ਤ":1333,"##ར":1334,"##ʋ":1335,"##΄":1336,"##ਲ":1337,"##ช":1338,"##ט":1339,"##ъ":1340,"##ط":1341,"##う":1342,"##տ":1343,"##ʹ":1344,"##─":1345,"##ʉ":1346,"##ག":1347,"##²":1348,"##ء":1349,"##য":1350,"##ह":1351,"##ז":1352,"##き":1353,"##ャ":1354,"##ச":1355,"##ப":1356,"##ג":1357,"##כ":1358,"##མ":1359,"##ს":1360,"##љ":1361,"##ك":1362,"##ज":1363,"##ध":1364,"##स":1365,"##ʻ":1366,"##オ":1367,"##ต":1368,"##غ":1369,"##ਮ":1370,"##श":1371,"##ল":1372,"##ᄂ":1373,"##ᅯ":1374,"##ۇ":1375,"##چ":1376,"##º":1377,"##ܝ":1378,"##վ":1379,"##ರ":1380,"##♣":1381,"##រ":1382,"##ា":1383,"##ស":1384,"##ទ":1385,"##ប":1386,"##ន":1387,"##≥":1388,"##ث":1389,"##³":1390,"##ض":1391,"##リ":1392,"##ム":1393,"##ब":1394,"##ਣ":1395,"##ʔ":1396,"##ᅲ":1397,"##ᆯ":1398,"##ท":1399,"##พ":1400,"##ɲ":1401,"##བ":1402,"##⋅":1403,"##♦":1404,"##ნ":1405,"##च":1406,"##თ":1407,"##ਗ":1408,"##ธ":1409,"##њ":1410,"##ɾ":1411,"##բ":1412,"##ウ":1413,"##ケ":1414,"##ュ":1415,"##ө":1416,"##ո":1417,"##ᅪ":1418,"##ラ":1419,"##ル":1420,"##ɒ":1421,"##∂":1422,"##ਇ":1423,"##ܪ":1424,"##ܕ":1425,"##ܐ":1426,"##た":1427,"##の":1428,"##ੀ":1429,"##ʲ":1430,"##ల":1431,"##ర":1432,"##ˌ":1433,"##ਡ":1434,"##ʒ":1435,"##ཚ":1436,"##ལ":1437,"##უ":1438,"##ා":1439,"##ਥ":1440,"##ਈ":1441,"##ਐ":1442,"##հ":1443,"##♯":1444,"##ʊ":1445,"##ᄑ":1446,"##ә":1447,"##ட":1448,"##ல":1449,"##گ":1450,"##ല":1451,"##ү":1452,"##ಲ":1453,"##ქ":1454,"##დ":1455,"##イ":1456,"##キ":1457,"##ᅭ":1458,"##ւ":1459,"##қ":1460,"##ு":1461,"##ܠ":1462,"##ܢ":1463,"##پ":1464,"##タ":1465,"##ظ":1466,"##ਕ":1467,"##ニ":1468,"##ะ":1469,"##ܘ":1470,"##ख":1471,"##ト":1472,"##ા":1473,"##ܡ":1474,"##ग":1475,"##ذ":1476,"##ɡ":1477,"##µ":1478,"##ம":1479,"##ホ":1480,"##კ":1481,"##ᅦ":1482,"##จ":1483,"##ព":1484,"##भ":1485,"##ɐ":1486,"##ʁ":1487,"##ਆ":1488,"##ਭ":1489,"##ਜ":1490,"##अ":1491,"##ਬ":1492,"##ไ":1493,"##サ":1494,"##ཞ":1495,"##ⴰ":1496,"##გ":1497,"##→":1498,"##ক":1499,"##ਧ":1500,"##ཆ":1501,"##℃":1502,"##ア":1503,"##ɨ":1504,"##₂":1505,"##ཤ":1506,"##ក":1507,"##โ":1508,"##թ":1509,"##զ":1510,"##ɽ":1511,"##ା":1512,"##แ":1513,"##ӏ":1514,"##க":1515,"##ម":1516,"##ף":1517,"##ត":1518,"##ង":1519,"##ܬ":1520,"##ཏ":1521,"##ナ":1522,"##⁄":1523,"##ব":1524,"##ศ":1525,"##ང":1526,"##थ":1527,"##♠":1528,"##ད":1529,"##শ":1530,"##ք":1531,"##€":1532,"##ܒ":1533,"##ਅ":1534,"##ཐ":1535,"##த":1536,"##√":1537,"##շ":1538,"##ཅ":1539,"##¾":1540,"##⅓":1541,"##ⲁ":1542,"##ƒ":1543,"##∧":1544,"##˚":1545,"##ཉ":1546,"##ђ":1547,"##∞":1548,"##ɓ":1549,"##લ":1550,"##¼":1551,"##⅔":1552,"##₁":1553,"##ℓ":1554,"##≤":1555,"##ཁ":1556,"##∇":1557,"##ཡ":1558,"##པ":1559,"##÷":1560,"##≈":1561,"##ĳ":1562,"##आ":1563,"##er":1564,"##en":1565,"##an":1566,"##et":1567,"##ar":1568,"##or":1569,"##in":1570,"##st":1571,"og":1572,"##el":1573,"##il":1574,"##om":1575,"##ed":1576,"##sk":1577,"##le":1578,"##on":1579,"##al":1580,"##re":1581,"##ra":1582,"##te":1583,"av":1584,"for":1585,"##tt":1586,"##ig":1587,"##ing":1588,"som":1589,"til":1590,"en":1591,"er":1592,"##ik":1593,"##de":1594,"pa":1595,"##un":1596,"st":1597,"##es":1598,"##is":1599,"##ol":1600,"##id":1601,"##am":1602,"##at":1603,"det":1604,"var":1605,"den":1606,"med":1607,"han":1608,"##ør":1609,"19":1610,"##as":1611,"##and":1612,"##ene":1613,"##it":1614,"##ver":1615,"##eg":1616,"de":1617,"in":1618,"##pp":1619,"##ag":1620,"ble":1621,"##ne":1622,"##isk":1623,"##kt":1624,"##ler":1625,"##ste":1626,"##kk":1627,"fra":1628,"##der":1629,"ut":1630,"an":1631,"##ro":1632,"##ent":1633,"##ad":1634,"##us":1635,"sk":1636,"ar":1637,"##jon":1638,"##ang":1639,"##ist":1640,"20":1641,"##se":1642,"##ur":1643,"##ul":1644,"har":1645,"##tter":1646,"##est":1647,"##ru":1648,"##sa":1649,"##ot":1650,"##ere":1651,"om":1652,"##av":1653,"at":1654,"##ri":1655,"et":1656,"nor":1657,"un":1658,"##ok":1659,"##ell":1660,"##ir":1661,"##ens":1662,"opp":1663,"##ning":1664,"##ert":1665,"sp":1666,"##ett":1667,"##ær":1668,"##lig":1669,"##ikk":1670,"##ap":1671,"##ak":1672,"al":1673,"bl":1674,"inn":1675,"##mer":1676,"##ske":1677,"##iv":1678,"##je":1679,"kom":1680,"sam":1681,"etter":1682,"##iske":1683,"##ant":1684,"##ia":1685,"##sen":1686,"el":1687,"##all":1688,"men":1689,"ved":1690,"før":1691,"##ge":1692,"##net":1693,"##art":1694,"##itt":1695,"##um":1696,"##ks":1697,"##ov":1698,"##dre":1699,"##dt":1700,"re":1701,"##os":1702,"##for":1703,"##ende":1704,"by":1705,"kon":1706,"under":1707,"##em":1708,"over":1709,"##ann":1710,"der":1711,"##og":1712,"##del":1713,"##jen":1714,"##att":1715,"200":1716,"##ch":1717,"##øy":1718,"##asjon":1719,"##den":1720,"##ber":1721,"be":1722,"##ter":1723,"del":1724,"##kke":1725,"##sl":1726,"ogsa":1727,"##adde":1728,"ein":1729,"seg":1730,"18":1731,"sl":1732,"##yr":1733,"##gg":1734,"201":1735,"##ft":1736,"##men":1737,"tid":1738,"pro":1739,"##ke":1740,"hadde":1741,"##sp":1742,"##ort":1743,"##00":1744,"##ut":1745,"##ill":1746,"to":1747,"sin":1748,"br":1749,"##im":1750,"##ve":1751,"kr":1752,"fø":1753,"##land":1754,"##inn":1755,"##yn":1756,"ver":1757,"##be":1758,"##unn":1759,"##ser":1760,"##od":1761,"##gen":1762,"##jer":1763,"##ien":1764,"tr":1765,"gr":1766,"eller":1767,"##ger":1768,"da":1769,"##ud":1770,"kan":1771,"##ion":1772,"fr":1773,"se":1774,"##skap":1775,"##me":1776,"mot":1777,"andre":1778,"##ige":1779,"ma":1780,"##het":1781,"##las":1782,"##jø":1783,"##res":1784,"##ane":1785,"stor":1786,"##ust":1787,"##ic":1788,"##he":1789,"ikke":1790,"land":1791,"##ie":1792,"##ly":1793,"hun":1794,"##ab":1795,"##ff":1796,"le":1797,"mar":1798,"##by":1799,"ny":1800,"komm":1801,"##rad":1802,"199":1803,"or":1804,"nord":1805,"første":1806,"##ike":1807,"##ker":1808,"##ingen":1809,"hv":1810,"bru":1811,"##alt":1812,"##ier":1813,"##ellom":1814,"##ug":1815,"##per":1816,"##elt":1817,"vart":1818,"mellom":1819,"dette":1820,"##eng":1821,"##ub":1822,"##ast":1823,"per":1824,"reg":1825,"##are":1826,"##ikt":1827,"no":1828,"lag":1829,"ty":1830,"##ss":1831,"##ord":1832,"##ale":1833,"##else":1834,"##eter":1835,"kl":1836,"kommun":1837,"##op":1838,"##iser":1839,"##hol":1840,"##ard":1841,"dei":1842,"##ner":1843,"dø":1844,"sv":1845,"##sv":1846,"lig":1847,"198":1848,"hans":1849,"gjen":1850,"##yl":1851,"tre":1852,"sa":1853,"##mp":1854,"kun":1855,"ba":1856,"##io":1857,"##ire":1858,"sel":1859,"sør":1860,"født":1861,"##und":1862,"kv":1863,"##beid":1864,"##ange":1865,"ha":1866,"##ob":1867,"##ansk":1868,"##anske":1869,"197":1870,"##la":1871,"ch":1872,"##rem":1873,"##lag":1874,"##ket":1875,"##ip":1876,"##eder":1877,"man":1878,"te":1879,"##øn":1880,"##elig":1881,"of":1882,"##ære":1883,"##sm":1884,"si":1885,"##lere":1886,"##enter":1887,"denne":1888,"##na":1889,"##son":1890,"ber":1891,"sen":1892,"beg":1893,"hen":1894,"##br":1895,"196":1896,"##iden":1897,"##lem":1898,"##ster":1899,"##lige":1900,"the":1901,"mo":1902,"##før":1903,"sy":1904,"ne":1905,"dag":1906,"kj":1907,"##ling":1908,"##vis":1909,"ol":1910,"eit":1911,"he":1912,"##lass":1913,"##iet":1914,"pol":1915,"##ært":1916,"nav":1917,"min":1918,"ei":1919,"##isjon":1920,"##akt":1921,"##nes":1922,"##iller":1923,"fikk":1924,"##ret":1925,"##ater":1926,"hov":1927,"##rev":1928,"##utt":1929,"lang":1930,"##ark":1931,"##nom":1932,"gj":1933,"##rett":1934,"##if":1935,"##tem":1936,"##kl":1937,"##alen":1938,"ant":1939,"fil":1940,"17":1941,"grunn":1942,"##ede":1943,"jo":1944,"##ille":1945,"##rupp":1946,"mus":1947,"##elle":1948,"gjennom":1949,"sammen":1950,"##ian":1951,"##ong":1952,"##ck":1953,"##leg":1954,"fly":1955,"##vik":1956,"##jell":1957,"pl":1958,"hel":1959,"her":1960,"##ull":1961,"flere":1962,"##kte":1963,"##itet":1964,"##met":1965,"##istor":1966,"ap":1967,"##ess":1968,"utg":1969,"fe":1970,"##ult":1971,"mange":1972,"fin":1973,"bet":1974,"vest":1975,"##end":1976,"194":1977,"##bru":1978,"frem":1979,"stør":1980,"la":1981,"##lekt":1982,"høy":1983,"blant":1984,"##elsen":1985,"##ningen":1986,"bar":1987,"##iver":1988,"tidlig":1989,"kar":1990,"##allet":1991,"##ans":1992,"ho":1993,"##alg":1994,"##atte":1995,"##amp":1996,"##tr":1997,"hvor":1998,"rom":1999,"##øl":2000,"norsk":2001,"195":2002,"arbeid":2003,"##olog":2004,"art":2005,"far":2006,"pr":2007,"##ite":2008,"me":2009,"delt":2010,"##ma":2011,"##pe":2012,"##legg":2013,"##rik":2014,"blir":2015,"ned":2016,"##ester":2017,"ve":2018,"fol":2019,"15":2020,"16":2021,"rep":2022,"##tid":2023,"par":2024,"##amil":2025,"mer":2026,"##anger":2027,"##org":2028,"amer":2029,"run":2030,"##ister":2031,"hoved":2032,"##ina":2033,"stat":2034,"eng":2035,"##irk":2036,"##sh":2037,"sitt":2038,"alle":2039,"mid":2040,"##inger":2041,"##oll":2042,"##bum":2043,"##ksjon":2044,"##ys":2045,"histor":2046,"##kr":2047,"fort":2048,"##sjon":2049,"##ember":2050,"##ond":2051,"inter":2052,"eu":2053,"fram":2054,"##øm":2055,"dis":2056,"##ets":2057,"død":2058,"##ighet":2059,"ro":2060,"gar":2061,"byen":2062,"des":2063,"lø":2064,"ser":2065,"store":2066,"km":2067,"##sten":2068,"selv":2069,"amerik":2070,"##opp":2071,"##ram":2072,"##bygg":2073,"form":2074,"193":2075,"tallet":2076,"øy":2077,"##ib":2078,"mal":2079,"##rep":2080,"kommune":2081,"senere":2082,"hol":2083,"##ind":2084,"meter":2085,"ad":2086,"##eld":2087,"byg":2088,"enn":2089,"##ande":2090,"verd":2091,"norge":2092,"##ball":2093,"##stad":2094,"polit":2095,"fle":2096,"##hold":2097,"fa":2098,"ligger":2099,"##ja":2100,"##raf":2101,"##ulle":2102,"grupp":2103,"van":2104,"##yt":2105,"##atur":2106,"ek":2107,"##ener":2108,"blitt":2109,"##set":2110,"##kon":2111,"tidligere":2112,"best":2113,"##skapet":2114,"ind":2115,"##enn":2116,"noen":2117,"10":2118,"ra":2119,"tok":2120,"##ttet":2121,"sine":2122,"192":2123,"siden":2124,"gam":2125,"##ift":2126,"bruk":2127,"euro":2128,"##elen":2129,"##ide":2130,"tilb":2131,"##va":2132,"nær":2133,"sol":2134,"finn":2135,"kra":2136,"tysk":2137,"fl":2138,"kjent":2139,"##edet":2140,"##ake":2141,"##ry":2142,"kor":2143,"ga":2144,"bade":2145,"ham":2146,"være":2147,"fot":2148,"##jør":2149,"annet":2150,"##up":2151,"rundt":2152,"##over":2153,"##ven":2154,"##aten":2155,"prod":2156,"hø":2157,"##ilt":2158,"12":2159,"dem":2160,"jan":2161,"bak":2162,"##jem":2163,"##stem":2164,"disse":2165,"ul":2166,"th":2167,"fri":2168,"liv":2169,"##les":2170,"##ow":2171,"uten":2172,"##hav":2173,"ge":2174,"##dom":2175,"kunne":2176,"##erte":2177,"forsk":2178,"##kom":2179,"joh":2180,"vil":2181,"##med":2182,"##sf":2183,"##sb":2184,"##ce":2185,"191":2186,"##sel":2187,"##radet":2188,"hver":2189,"vært":2190,"##ninger":2191,"fran":2192,"fyl":2193,"##rat":2194,"norske":2195,"samme":2196,"##ole":2197,"eks":2198,"##svar":2199,"medlem":2200,"hal":2201,"kong":2202,"##let":2203,"##pt":2204,"##kker":2205,"na":2206,"mil":2207,"repres":2208,"##yrk":2209,"album":2210,"##tal":2211,"my":2212,"lu":2213,"##da":2214,"skulle":2215,"eg":2216,"sommer":2217,"##ine":2218,"##ivers":2219,"##uar":2220,"rus":2221,"##ial":2222,"##etter":2223,"sent":2224,"##ød":2225,"##ass":2226,"mest":2227,"ste":2228,"##yd":2229,"ofte":2230,"krig":2231,"##jor":2232,"##sø":2233,"mens":2234,"famil":2235,"##ida":2236,"gikk":2237,"begyn":2238,"##gjen":2239,"##gr":2240,"##slo":2241,"aug":2242,"noe":2243,"jun":2244,"dan":2245,"tur":2246,"øst":2247,"forb":2248,"##dag":2249,"##ral":2250,"vant":2251,"##jel":2252,"##berg":2253,"##slag":2254,"jul":2255,"part":2256,"slutt":2257,"##kket":2258,"univers":2259,"##inga":2260,"am":2261,"off":2262,"skal":2263,"##ubb":2264,"##rak":2265,"##ongen":2266,"11":2267,"##tes":2268,"ta":2269,"gang":2270,"##øt":2271,"person":2272,"##ga":2273,"14":2274,"august":2275,"po":2276,"tek":2277,"utvik":2278,"nye":2279,"sh":2280,"oslo":2281,"##form":2282,"##min":2283,"nar":2284,"##asjonen":2285,"go":2286,"co":2287,"gra":2288,"usa":2289,"##fa":2290,"##nen":2291,"13":2292,"januar":2293,"all":2294,"gre":2295,"##ins":2296,"##satt":2297,"##ikken":2298,"res":2299,"ord":2300,"juni":2301,"fire":2302,"band":2303,"su":2304,"##ilte":2305,"ang":2306,"rad":2307,"aust":2308,"##ont":2309,"føl":2310,"vikt":2311,"vin":2312,"##iker":2313,"mars":2314,"im":2315,"brit":2316,"pres":2317,"sm":2318,"##ue":2319,"##skri":2320,"li":2321,"hav":2322,"pre":2323,"vis":2324,"str":2325,"slik":2326,"fem":2327,"##ore":2328,"##ive":2329,"bygg":2330,"start":2331,"siste":2332,"##var":2333,"tilbake":2334,"##ings":2335,"kn":2336,"##els":2337,"vid":2338,"##ich":2339,"000":2340,"kal":2341,"##lø":2342,"slekt":2343,"##verk":2344,"bare":2345,"nov":2346,"##gar":2347,"##ubl":2348,"bo":2349,"hand":2350,"sjø":2351,"##uder":2352,"sep":2353,"rett":2354,"stud":2355,"sj":2356,"##old":2357,"valg":2358,"##stand":2359,"##kkje":2360,"##ført":2361,"sc":2362,"nok":2363,"fer":2364,"##sland":2365,"ses":2366,"kjen":2367,"##ha":2368,"fotball":2369,"plass":2370,"nasjon":2371,"navnet":2372,"fjell":2373,"kjø":2374,"deltok":2375,"tro":2376,"##pa":2377,"##rig":2378,"største":2379,"perio":2380,"org":2381,"##str":2382,"like":2383,"ligg":2384,"vok":2385,"##unkt":2386,"##lagt":2387,"navn":2388,"##erne":2389,"##elige":2390,"##sy":2391,"krist":2392,"##pet":2393,"##alet":2394,"juli":2395,"mai":2396,"em":2397,"skrev":2398,"oppr":2399,"##rakt":2400,"##irke":2401,"stort":2402,"190":2403,"##som":2404,"innbygg":2405,"##rag":2406,"bli":2407,"ca":2408,"##kur":2409,"søn":2410,"skri":2411,"##vn":2412,"##anis":2413,"##hand":2414,"mor":2415,"bas":2416,"##ald":2417,"bok":2418,"først":2419,"##fer":2420,"##elser":2421,"##ka":2422,"nam":2423,"fun":2424,"intern":2425,"##inner":2426,"##ken":2427,"innen":2428,"ka":2429,"##vin":2430,"sær":2431,"##iten":2432,"##arbeid":2433,"##entet":2434,"##oc":2435,"red":2436,"kunst":2437,"##sker":2438,"##ultur":2439,"gu":2440,"##istr":2441,"omradet":2442,"spes":2443,"vi":2444,"tv":2445,"kont":2446,"vann":2447,"##ril":2448,"igjen":2449,"septem":2450,"september":2451,"okt":2452,"lok":2453,"end":2454,"##dal":2455,"##ober":2456,"plan":2457,"tillegg":2458,"mill":2459,"##bu":2460,"##ograf":2461,"##arar":2462,"ikkje":2463,"new":2464,"##ring":2465,"##fatter":2466,"##ation":2467,"sver":2468,"##ekt":2469,"oktober":2470,"april":2471,"gener":2472,"##fl":2473,"##føl":2474,"##ou":2475,"verden":2476,"##hus":2477,"engel":2478,"ital":2479,"##int":2480,"##ile":2481,"bor":2482,"febru":2483,"##esp":2484,"februar":2485,"##gang":2486,"kraft":2487,"##mann":2488,"bil":2489,"desember":2490,"##ris":2491,"##aler":2492,"##of":2493,"ekse":2494,"met":2495,"sø":2496,"kamp":2497,"##iner":2498,"##rum":2499,"##kurr":2500,"musikk":2501,"sak":2502,"##lege":2503,"laget":2504,"styr":2505,"albumet":2506,"akt":2507,"bra":2508,"sch":2509,"inst":2510,"komp":2511,"syn":2512,"pri":2513,"##ban":2514,"eksemp":2515,"##ges":2516,"##olk":2517,"finnes":2518,"november":2519,"sven":2520,"inne":2521,"stad":2522,"viktig":2523,"alt":2524,"as":2525,"folk":2526,"rik":2527,"##jerne":2528,"brukt":2529,"is":2530,"skip":2531,"##mar":2532,"enk":2533,"leg":2534,"landet":2535,"hele":2536,"lar":2537,"##bo":2538,"bes":2539,"##isert":2540,"##ipp":2541,"ben":2542,"##ct":2543,"##unt":2544,"sn":2545,"##gram":2546,"hos":2547,"historie":2548,"##mark":2549,"samt":2550,"nytt":2551,"##vat":2552,"##enterte":2553,"and":2554,"189":2555,"##usjon":2556,"mindre":2557,"hus":2558,"##ba":2559,"##orde":2560,"arr":2561,"##her":2562,"##ionen":2563,"##urg":2564,"##elte":2565,"##veg":2566,"##bred":2567,"##man":2568,"kultur":2569,"menne":2570,"##lert":2571,"##jene":2572,"gje":2573,"##uksjon":2574,"30":2575,"##iss":2576,"##sje":2577,"##ører":2578,"rekke":2579,"af":2580,"##sj":2581,"verdens":2582,"beste":2583,"##sst":2584,"id":2585,"klubb":2586,"##plass":2587,"##esten":2588,"dom":2589,"##ten":2590,"vert":2591,"ja":2592,"2008":2593,"led":2594,"gjorde":2595,"spilte":2596,"ter":2597,"kat":2598,"chr":2599,"##pro":2600,"kort":2601,"mag":2602,"ke":2603,"25":2604,"film":2605,"##heng":2606,"lov":2607,"100":2608,"2010":2609,"##vest":2610,"##ele":2611,"kil":2612,"dr":2613,"aret":2614,"regjer":2615,"kro":2616,"slag":2617,"ulike":2618,"kin":2619,"universitet":2620,"##red":2621,"vm":2622,"len":2623,"arene":2624,"halv":2625,"kons":2626,"##ppen":2627,"##anter":2628,"utbred":2629,"car":2630,"kirk":2631,"mann":2632,"bu":2633,"pop":2634,"di":2635,"2011":2636,"##stre":2637,"##sta":2638,"bef":2639,"ville":2640,"##ata":2641,"vanlig":2642,"tyskland":2643,"gl":2644,"du":2645,"##ern":2646,"lever":2647,"##ium":2648,"2007":2649,"##dd":2650,"tred":2651,"##arte":2652,"##rade":2653,"##bl":2654,"##part":2655,"større":2656,"mul":2657,"##ette":2658,"2006":2659,"##ativ":2660,"##ummer":2661,"##mel":2662,"sto":2663,"natur":2664,"##kken":2665,"leng":2666,"gull":2667,"produs":2668,"##get":2669,"jord":2670,"sta":2671,"##ity":2672,"matte":2673,"##este":2674,"##kes":2675,"##olen":2676,"mon":2677,"##aren":2678,"##kn":2679,"2012":2680,"dri":2681,"lin":2682,"fred":2683,"begynte":2684,"##ologi":2685,"opprinn":2686,"døde":2687,"trad":2688,"russ":2689,"john":2690,"##asjoner":2691,"##alla":2692,"ara":2693,"sid":2694,"ster":2695,"deres":2696,"ir":2697,"188":2698,"gamle":2699,"##ham":2700,"etab":2701,"##vel":2702,"ly":2703,"##lassen":2704,"##ondon":2705,"##sam":2706,"ven":2707,"##ius":2708,"##skrig":2709,"##eren":2710,"london":2711,"##idler":2712,"ab":2713,"christ":2714,"##late":2715,"representerte":2716,"ko":2717,"ev":2718,"blei":2719,"ti":2720,"ford":2721,"##ise":2722,"##ild":2723,"tem":2724,"##lin":2725,"middel":2726,"2005":2727,"internasjon":2728,"sig":2729,"tyske":2730,"##ott":2731,"sang":2732,"ingen":2733,"kalt":2734,"sett":2735,"deretter":2736,"milit":2737,"prof":2738,"##sby":2739,"##konom":2740,"##ay":2741,"##vet":2742,"konkurr":2743,"##par":2744,"##jorden":2745,"##yttet":2746,"##pl":2747,"forskjell":2748,"hjem":2749,"##ident":2750,"lik":2751,"tor":2752,"amerikanske":2753,"perioden":2754,"god":2755,"2009":2756,"oper":2757,"utd":2758,"##øtte":2759,"ed":2760,"##jord":2761,"##sak":2762,"##erer":2763,"barn":2764,"kam":2765,"tatt":2766,"arrang":2767,"song":2768,"##omm":2769,"fjer":2770,"##enes":2771,"##grunn":2772,"ii":2773,"tilh":2774,"ry":2775,"##sett":2776,"kap":2777,"moder":2778,"##kter":2779,"stra":2780,"sprak":2781,"##dem":2782,"kommer":2783,"tra":2784,"hennes":2785,"full":2786,"fleste":2787,"videre":2788,"##ton":2789,"egen":2790,"##rasjon":2791,"sverige":2792,"filmen":2793,"sal":2794,"kol":2795,"##au":2796,"##iftet":2797,"##sn":2798,"begge":2799,"neder":2800,"##ielt":2801,"bestar":2802,"rol":2803,"##fatt":2804,"##des":2805,"sty":2806,"ky":2807,"eksempel":2808,"øya":2809,"utt":2810,"jap":2811,"##ansen":2812,"europa":2813,"derfor":2814,"vel":2815,"organis":2816,"##gende":2817,"spiller":2818,"opprett":2819,"utv":2820,"familien":2821,"##jet":2822,"tredje":2823,"program":2824,"utgitt":2825,"##syn":2826,"arbeidet":2827,"##spiller":2828,"##one":2829,"forhold":2830,"21":2831,"mye":2832,"side":2833,"##krike":2834,"seks":2835,"##eller":2836,"##lev":2837,"ban":2838,"187":2839,"veg":2840,"frankrike":2841,"22":2842,"##illing":2843,"##reg":2844,"langs":2845,"2004":2846,"imidler":2847,"imidlertid":2848,"##isten":2849,"tar":2850,"dermed":2851,"sesongen":2852,"høg":2853,"##delt":2854,"##kra":2855,"dire":2856,"helt":2857,"2000":2858,"sing":2859,"amerikansk":2860,"bandet":2861,"svært":2862,"##co":2863,"hjel":2864,"fast":2865,"col":2866,"ung":2867,"##iste":2868,"lat":2869,"##lasser":2870,"luft":2871,"bro":2872,"##ped":2873,"star":2874,"million":2875,"leder":2876,"mø":2877,"##sted":2878,"inns":2879,"do":2880,"oly":2881,"tap":2882,"##obb":2883,"24":2884,"##rader":2885,"##heim":2886,"norges":2887,"olymp":2888,"##istrikt":2889,"startet":2890,"tiden":2891,"vinter":2892,"tradisjon":2893,"samtid":2894,"sma":2895,"fatt":2896,"økonom":2897,"val":2898,"##nings":2899,"##unnet":2900,"##heten":2901,"sku":2902,"##ikker":2903,"fekk":2904,"tidleg":2905,"##satte":2906,"vir":2907,"forsø":2908,"rek":2909,"##øver":2910,"besk":2911,"##øya":2912,"##ers":2913,"england":2914,"fleire":2915,"mark":2916,"sov":2917,"2016":2918,"popul":2919,"##isen":2920,"admin":2921,"186":2922,"con":2923,"##its":2924,"tett":2925,"slutten":2926,"##ph":2927,"##ktet":2928,"sos":2929,"##tak":2930,"øv":2931,"sønn":2932,"##idrett":2933,"mel":2934,"##anse":2935,"so":2936,"nummer":2937,"##20":2938,"engelsk":2939,"att":2940,"##ley":2941,"il":2942,"skj":2943,"bygget":2944,"nasjonal":2945,"løpet":2946,"##bar":2947,"##pen":2948,"##ork":2949,"##ca":2950,"##ingene":2951,"ark":2952,"gav":2953,"##kluder":2954,"sted":2955,"teg":2956,"sve":2957,"##ij":2958,"##styr":2959,"ganger":2960,"##dig":2961,"bergen":2962,"##ana":2963,"##fly":2964,"##uk":2965,"2013":2966,"ob":2967,"23":2968,"##ærer":2969,"##teg":2970,"##lingen":2971,"##iserte":2972,"2014":2973,"mat":2974,"stre":2975,"gi":2976,"president":2977,"satt":2978,"##sfor":2979,"fest":2980,"on":2981,"britiske":2982,"forfatter":2983,"##lar":2984,"dy":2985,"port":2986,"##iz":2987,"kommunen":2988,"bel":2989,"provin":2990,"fyr":2991,"can":2992,"##ania":2993,"folket":2994,"##oss":2995,"brukes":2996,"##inne":2997,"##det":2998,"##ung":2999,"##ho":3000,"##brit":3001,"##nene":3002,"##annia":3003,"##ht":3004,"1990":3005,"##alder":3006,"##rer":3007,"storbrit":3008,"versjon":3009,"deler":3010,"hvert":3011,"##vert":3012,"##nevn":3013,"##kj":3014,"##ksom":3015,"bed":3016,"kval":3017,"skrevet":3018,"særlig":3019,"##ons":3020,"førte":3021,"skole":3022,"##øst":3023,"aktiv":3024,"kirke":3025,"elekt":3026,"aller":3027,"##ori":3028,"2015":3029,"innbyggere":3030,"##ensen":3031,"krigen":3032,"##ym":3033,"dat":3034,"san":3035,"gruppen":3036,"ret":3037,"##oner":3038,"gitt":3039,"##sket":3040,"friidrett":3041,"dav":3042,"##dri":3043,"inkluder":3044,"bill":3045,"je":3046,"##alte":3047,"fransk":3048,"klubben":3049,"fordi":3050,"##delig":3051,"##fin":3052,"##rom":3053,"us":3054,"ep":3055,"##riere":3056,"jern":3057,"søl":3058,"hell":3059,"##isjonen":3060,"result":3061,"##stru":3062,"##ias":3063,"##kv":3064,"grad":3065,"##mal":3066,"##oren":3067,"##ustri":3068,"kalla":3069,"##kene":3070,"sovjet":3071,"bi":3072,"kines":3073,"sand":3074,"##ves":3075,"##orn":3076,"28":3077,"oppdag":3078,"publ":3079,"forskjellige":3080,"##urt":3081,"1980":3082,"tru":3083,"##band":3084,"##use":3085,"storbritannia":3086,"##ara":3087,"26":3088,"##fø":3089,"hovud":3090,"##apen":3091,"##istiske":3092,"titt":3093,"mester":3094,"produksjon":3095,"amp":3096,"tot":3097,"langt":3098,"sein":3099,"2003":3100,"delen":3101,"##kret":3102,"talet":3103,"##album":3104,"##nelsen":3105,"##iva":3106,"##ng":3107,"stem":3108,"bron":3109,"##famil":3110,"27":3111,"godt":3112,"##isme":3113,"##atet":3114,"sølv":3115,"gud":3116,"handel":3117,"represent":3118,"##far":3119,"lange":3120,"2001":3121,"forsvar":3122,"##idae":3123,"ur":3124,"franske":3125,"##landet":3126,"##urn":3127,"menn":3128,"1970":3129,"midt":3130,"##grupp":3131,"185":3132,"sjøl":3133,"##indel":3134,"dra":3135,"##stein":3136,"skap":3137,"##ete":3138,"spilt":3139,"mott":3140,"annen":3141,"##uten":3142,"fylkes":3143,"ni":3144,"stein":3145,"nederland":3146,"##olig":3147,"##iene":3148,"ett":3149,"distrikt":3150,"gjort":3151,"verdenskrig":3152,"kjente":3153,"##terte":3154,"##aland":3155,"afrik":3156,"krit":3157,"##entlig":3158,"ale":3159,"##ider":3160,"bakgrunn":3161,"50":3162,"##inister":3163,"##nad":3164,"are":3165,"##kar":3166,"2002":3167,"bus":3168,"##ave":3169,"anna":3170,"##rike":3171,"bygd":3172,"pros":3173,"##ren":3174,"delst":3175,"bid":3176,"##førte":3177,"arrangert":3178,"##ska":3179,"##qu":3180,"ag":3181,"inv":3182,"gjerne":3183,"rø":3184,"klo":3185,"kina":3186,"ren":3187,"int":3188,"provinsen":3189,"befolk":3190,"saman":3191,"administ":3192,"##ielle":3193,"samtidig":3194,"##mester":3195,"##onen":3196,"gir":3197,"##deling":3198,"##iar":3199,"bred":3200,"moderne":3201,"samf":3202,"nett":3203,"songen":3204,"bø":3205,"##medal":3206,"try":3207,"nr":3208,"øn":3209,"1960":3210,"##ala":3211,"serien":3212,"litt":3213,"grav":3214,"kvinner":3215,"island":3216,"2017":3217,"stedet":3218,"elva":3219,"gro":3220,"##ator":3221,"2019":3222,"ak":3223,"pas":3224,"gjø":3225,"bestem":3226,"div":3227,"sag":3228,"##isering":3229,"forl":3230,"russland":3231,"topp":3232,"##sd":3233,"fag":3234,"##vei":3235,"##itenskap":3236,"stand":3237,"bre":3238,"italia":3239,"##hen":3240,"liten":3241,"##jøen":3242,"##ada":3243,"pe":3244,"will":3245,"##off":3246,"basert":3247,"##mene":3248,"##undet":3249,"flyttet":3250,"spor":3251,"universitetet":3252,"##byg":3253,"noreg":3254,"##ford":3255,"##sminister":3256,"##havet":3257,"hatt":3258,"selskapet":3259,"2018":3260,"studer":3261,"rob":3262,"##itu":3263,"##skole":3264,"rel":3265,"184":3266,"tri":3267,"bronse":3268,"##slaget":3269,"##kring":3270,"##gt":3271,"skuesp":3272,"##ost":3273,"##itar":3274,"romer":3275,"landsby":3276,"sentral":3277,"antar":3278,"tidlegare":3279,"##ith":3280,"trond":3281,"29":3282,"dar":3283,"forv":3284,"tekn":3285,"##ies":3286,"austral":3287,"unn":3288,"##ffekt":3289,"##ula":3290,"stav":3291,"kyrk":3292,"vol":3293,"##arane":3294,"##øv":3295,"dann":3296,"ph":3297,"lys":3298,"##ah":3299,"##sut":3300,"danmark":3301,"europe":3302,"klass":3303,"##ukt":3304,"##ogn":3305,"##til":3306,"millioner":3307,"svensk":3308,"##spel":3309,"samarbeid":3310,"arbeider":3311,"1999":3312,"kontr":3313,"##orden":3314,"##jef":3315,"##endig":3316,"viser":3317,"italien":3318,"lite":3319,"##skip":3320,"##led":3321,"paris":3322,"##vene":3323,"##istisk":3324,"##igheter":3325,"##ingar":3326,"berg":3327,"##aen":3328,"##ben":3329,"##ografi":3330,"meste":3331,"slekten":3332,"hær":3333,"trom":3334,"angrep":3335,"konge":3336,"rev":3337,"gruppe":3338,"ru":3339,"utbredelse":3340,"system":3341,"nesten":3342,"ungdom":3343,"com":3344,"muse":3345,"meg":3346,"skog":3347,"##ica":3348,"##tok":3349,"##atene":3350,"ledet":3351,"##eleg":3352,"mulig":3353,"gren":3354,"omkring":3355,"ska":3356,"avsl":3357,"tjene":3358,"litter":3359,"hy":3360,"lev":3361,"lagt":3362,"idrett":3363,"##ktur":3364,"##erg":3365,"stam":3366,"##tre":3367,"mod":3368,"seinare":3369,"##fter":3370,"##anser":3371,"##kan":3372,"##ollen":3373,"ass":3374,"##delag":3375,"bod":3376,"kvinn":3377,"##iam":3378,"eneste":3379,"##iter":3380,"bla":3381,"##sil":3382,"fant":3383,"##essor":3384,"##holdt":3385,"christian":3386,"jam":3387,"general":3388,"##ometer":3389,"mang":3390,"lokal":3391,"arten":3392,"##ista":3393,"##burg":3394,"##partem":3395,"sjølv":3396,"##kje":3397,"tilf":3398,"##familien":3399,"##følge":3400,"gift":3401,"internasjonale":3402,"##ening":3403,"##rod":3404,"mas":3405,"spesielt":3406,"ten":3407,"utse":3408,"keiser":3409,"utdan":3410,"namnet":3411,"##iskop":3412,"bry":3413,"spel":3414,"##ærende":3415,"##th":3416,"##komm":3417,"##ynd":3418,"arter":3419,"bort":3420,"peter":3421,"lo":3422,"1992":3423,"støtte":3424,"offis":3425,"##ick":3426,"betyd":3427,"##len":3428,"personer":3429,"31":3430,"##revet":3431,"storting":3432,"relig":3433,"##siden":3434,"orden":3435,"sidan":3436,"1996":3437,"konsert":3438,"##holm":3439,"mart":3440,"##ron":3441,"leve":3442,"makt":3443,"cl":3444,"karl":3445,"verk":3446,"##handling":3447,"##bin":3448,"##kjen":3449,"1994":3450,"##atisk":3451,"utseende":3452,"##laget":3453,"##sson":3454,"allerede":3455,"##stemet":3456,"kjem":3457,"felle":3458,"##aret":3459,"40":3460,"we":3461,"##spill":3462,"##eland":3463,"fylke":3464,"mennesker":3465,"##drag":3466,"slaget":3467,"##tatt":3468,"havet":3469,"##fug":3470,"##ice":3471,"slo":3472,"holdt":3473,"kristian":3474,"same":3475,"innenfor":3476,"##havn":3477,"sem":3478,"km²":3479,"omfatt":3480,"henne":3481,"##fil":3482,"opprinnelig":3483,"pos":3484,"dyr":3485,"ram":3486,"arkite":3487,"##fe":3488,"roman":3489,"##zz":3490,"##anten":3491,"##sc":3492,"fo":3493,"183":3494,"##spunkt":3495,"##sikt":3496,"1998":3497,"russisk":3498,"forbindel":3499,"utviklet":3500,"mun":3501,"##oen":3502,"øster":3503,"gammel":3504,"##gte":3505,"##test":3506,"gard":3507,"##under":3508,"datter":3509,"##smann":3510,"partiet":3511,"##van":3512,"hjelp":3513,"kre":3514,"##che":3515,"##okk":3516,"york":3517,"slatt":3518,"vik":3519,"##holder":3520,"region":3521,"prest":3522,"karriere":3523,"fortsatt":3524,"181":3525,"katol":3526,"##ule":3527,"##elm":3528,"berre":3529,"dikt":3530,"omrade":3531,"paul":3532,"eld":3533,"tom":3534,"##sport":3535,"erst":3536,"mater":3537,"barne":3538,"kart":3539,"##akter":3540,"hovedsak":3541,"familie":3542,"utenfor":3543,"##igen":3544,"##oret":3545,"1997":3546,"##bet":3547,"##gj":3548,"mør":3549,"etablert":3550,"likevel":3551,"1991":3552,"##cc":3553,"##fører":3554,"##staden":3555,"##han":3556,"bud":3557,"##borg":3558,"opprettet":3559,"grøn":3560,"pal":3561,"spille":3562,"##kraft":3563,"sky":3564,"##ima":3565,"vari":3566,"sik":3567,"tan":3568,"pass":3569,"svenske":3570,"char":3571,"hev":3572,"beteg":3573,"aut":3574,"##ona":3575,"##ime":3576,"oppst":3577,"desse":3578,"innbyggj":3579,"##onn":3580,"stil":3581,"utnevn":3582,"punkt":3583,"##age":3584,"1995":3585,"##arter":3586,"##bok":3587,"1988":3588,"terr":3589,"##ash":3590,"##po":3591,"gjekk":3592,"finalen":3593,"500":3594,"##ander":3595,"##uer":3596,"bjør":3597,"##servat":3598,"##tale":3599,"1993":3600,"##mb":3601,"##rest":3602,"delstaten":3603,"##ish":3604,"kompon":3605,"##adet":3606,"prob":3607,"regionen":3608,"##uttet":3609,"plasser":3610,"##ument":3611,"##ats":3612,"##ktor":3613,"count":3614,"atte":3615,"pav":3616,"kongen":3617,"vise":3618,"brasil":3619,"afrika":3620,"##wa":3621,"tran":3622,"##iale":3623,"motor":3624,"##usen":3625,"fal":3626,"effekt":3627,"##olit":3628,"vore":3629,"##alist":3630,"##syk":3631,"tak":3632,"tekst":3633,"enkelte":3634,"kilometer":3635,"ansvar":3636,"##ola":3637,"##mes":3638,"turner":3639,"valgt":3640,"kring":3641,"##ress":3642,"brun":3643,"teater":3644,"funnet":3645,"##hl":3646,"neste":3647,"ifølge":3648,"kvalif":3649,"medlemmer":3650,"##ensjon":3651,"kalles":3652,"isra":3653,"drep":3654,"##andre":3655,"dre":3656,"aldri":3657,"1989":3658,"##ps":3659,"##vern":3660,"##ational":3661,"sold":3662,"foran":3663,"hu":3664,"kirken":3665,"industri":3666,"oppg":3667,"1800":3668,"nadde":3669,"##mon":3670,"omtr":3671,"##ibl":3672,"grens":3673,"uav":3674,"##fjorden":3675,"rask":3676,"professor":3677,"##verket":3678,"sosial":3679,"innv":3680,"##ino":3681,"wil":3682,"##bane":3683,"lær":3684,"##fra":3685,"##bruk":3686,"ann":3687,"skuespiller":3688,"##lo":3689,"rolle":3690,"##50":3691,"##menn":3692,"##ypt":3693,"musik":3694,"deb":3695,"##stra":3696,"republ":3697,"##ktør":3698,"1984":3699,"uttry":3700,"utvikling":3701,"##olusjon":3702,"direkte":3703,"politiske":3704,"ger":3705,"##okrat":3706,"sveits":3707,"folke":3708,"##sty":3709,"poeng":3710,"##ac":3711,"lett":3712,"spill":3713,"##rene":3714,"60":3715,"eldre":3716,"##ningene":3717,"veien":3718,"qu":3719,"lille":3720,"##ytt":3721,"##ign":3722,"omtrent":3723,"regjering":3724,"ras":3725,"dekk":3726,"ide":3727,"##ager":3728,"johann":3729,"trondheim":3730,"lav":3731,"2020":3732,"##aste":3733,"kjøp":3734,"amerika":3735,"opphav":3736,"arab":3737,"tilhører":3738,"##kor":3739,"ytter":3740,"fre":3741,"##bre":3742,"instit":3743,"fug":3744,"politisk":3745,"##lene":3746,"##igur":3747,"kur":3748,"tal":3749,"##itz":3750,"##ico":3751,"1900":3752,"latin":3753,"rock":3754,"medan":3755,"tol":3756,"lan":3757,"divisjon":3758,"dess":3759,"cal":3760,"1950":3761,"sann":3762,"##nar":3763,"apnet":3764,"##prod":3765,"dagens":3766,"##iell":3767,"##lands":3768,"##ksomhet":3769,"stø":3770,"nordvest":3771,"gresk":3772,"motstand":3773,"##amer":3774,"gjør":3775,"les":3776,"##key":3777,"##pris":3778,"medal":3779,"##løp":3780,"fisk":3781,"jon":3782,"byr":3783,"##olf":3784,"mich":3785,"bety":3786,"beveg":3787,"via":3788,"meir":3789,"bur":3790,"##ward":3791,"##ya":3792,"suks":3793,"arg":3794,"prosje":3795,"voks":3796,"##ologiske":3797,"vanligvis":3798,"##itte":3799,"vansk":3800,"dansk":3801,"organ":3802,"ferdig":3803,"sesong":3804,"ful":3805,"william":3806,"university":3807,"sport":3808,"dist":3809,"##fjell":3810,"##rale":3811,"vit":3812,"county":3813,"##bert":3814,"jur":3815,"##kast":3816,"israel":3817,"400":3818,"sek":3819,"areal":3820,"##inen":3821,"thom":3822,"pat":3823,"energ":3824,"##uss":3825,"spelte":3826,"ekte":3827,"tittelen":3828,"eldste":3829,"engelske":3830,"sentrum":3831,"ettersom":3832,"sangen":3833,"##lov":3834,"fas":3835,"don":3836,"##kka":3837,"##avn":3838,"gul":3839,"beskri":3840,"##aks":3841,"militær":3842,"##forb":3843,"utan":3844,"##esse":3845,"britisk":3846,"##dde":3847,"bos":3848,"von":3849,"radio":3850,"##lerte":3851,"vei":3852,"1972":3853,"1987":3854,"##partementet":3855,"inkludert":3856,"##lam":3857,"##ørte":3858,"##abr":3859,"bruker":3860,"besø":3861,"1986":3862,"##iro":3863,"##tor":3864,"dok":3865,"##ars":3866,"hj":3867,"samfunn":3868,"brukte":3869,"ex":3870,"##elses":3871,"vapen":3872,"1945":3873,"jobb":3874,"avg":3875,"fall":3876,"super":3877,"gitar":3878,"##ften":3879,"mont":3880,"##tte":3881,"selskap":3882,"##ppe":3883,"olympiske":3884,"##bas":3885,"stod":3886,"1985":3887,"kamper":3888,"ganske":3889,"lokale":3890,"##veien":3891,"utbredt":3892,"bom":3893,"konst":3894,"##li":3895,"##essen":3896,"dro":3897,"fjerde":3898,"park":3899,"##mo":3900,"kvart":3901,"##mens":3902,"gjøre":3903,"angel":3904,"tilsvar":3905,"nom":3906,"georg":3907,"seier":3908,"kinesisk":3909,"grunnlagt":3910,"##ment":3911,"##partiet":3912,"livet":3913,"litteratur":3914,"moh":3915,"##ivet":3916,"##ama":3917,"begynnelsen":3918,"prins":3919,"fir":3920,"##svis":3921,"henhold":3922,"antall":3923,"robert":3924,"fys":3925,"1968":3926,"nev":3927,"bon":3928,"jac":3929,"svart":3930,"sørvest":3931,"forbindelse":3932,"##odet":3933,"insp":3934,"spr":3935,"sendt":3936,"enkelt":3937,"##ns":3938,"kjend":3939,"fortsatte":3940,"##ismen":3941,"skolen":3942,"ungar":3943,"bis":3944,"180":3945,"gal":3946,"op":3947,"endte":3948,"ju":3949,"hall":3950,"##sida":3951,"##alderen":3952,"spesial":3953,"1940":3954,"##jorde":3955,"##heter":3956,"periode":3957,"egypt":3958,"jød":3959,"midten":3960,"utnevnt":3961,"##ømmer":3962,"vitenskap":3963,"innbyggjarar":3964,"yng":3965,"##smal":3966,"stock":3967,"pen":3968,"hum":3969,"##ologisk":3970,"minst":3971,"plate":3972,"##ood":3973,"riks":3974,"rest":3975,"##aden":3976,"1920":3977,"##esjon":3978,"eget":3979,"japan":3980,"mad":3981,"blom":3982,"betyr":3983,"##mus":3984,"mis":3985,"##imot":3986,"jeg":3987,"##ika":3988,"ordet":3989,"tyrk":3990,"funksjon":3991,"hvis":3992,"artene":3993,"danske":3994,"##ze":3995,"berlin":3996,"ander":3997,"kje":3998,"bat":3999,"##ativt":4000,"wh":4001,"nest":4002,"##fjord":4003,"##dene":4004,"mu":4005,"##ørs":4006,"post":4007,"vat":4008,"miljø":4009,"##aende":4010,"##ninga":4011,"##ach":4012,"sju":4013,"##inert":4014,"##osof":4015,"roma":4016,"spania":4017,"##elder":4018,"##nende":4019,"jar":4020,"kolon":4021,"alder":4022,"##insk":4023,"##ftet":4024,"300":4025,"##punkt":4026,"##ita":4027,"indre":4028,"1964":4029,"tross":4030,"dram":4031,"dager":4032,"##we":4033,"tildelt":4034,"sterkt":4035,"##ta":4036,"##gje":4037,"wor":4038,"pra":4039,"1976":4040,"##kjent":4041,"est":4042,"fakt":4043,"##hu":4044,"ele":4045,"##ode":4046,"disk":4047,"tilkn":4048,"182":4049,"hot":4050,"svarte":4051,"##ini":4052,"imp":4053,"ze":4054,"resten":4055,"##føre":4056,"studerte":4057,"##hov":4058,"feng":4059,"1973":4060,"bay":4061,"##pper":4062,"syk":4063,"jose":4064,"kø":4065,"##bro":4066,"##banen":4067,"##har":4068,"1983":4069,"sist":4070,"##ringer":4071,"levevis":4072,"viste":4073,"russiske":4074,"refer":4075,"##histor":4076,"erob":4077,"##rop":4078,"lenger":4079,"nytta":4080,"borger":4081,"skul":4082,"uavheng":4083,"inform":4084,"venstre":4085,"##delen":4086,"##ora":4087,"opprør":4088,"##ix":4089,"siv":4090,"1979":4091,"1982":4092,"##enteret":4093,"kampen":4094,"##skog":4095,"finne":4096,"##uth":4097,"##fr":4098,"hert":4099,"##vok":4100,"hva":4101,"##vær":4102,"##hal":4103,"##ii":4104,"1975":4105,"##ame":4106,"mate":4107,"1974":4108,"##ming":4109,"##ira":4110,"sentrale":4111,"##valg":4112,"##upen":4113,"##asjer":4114,"hit":4115,"1981":4116,"##ering":4117,"##peratur":4118,"felles":4119,"olav":4120,"kron":4121,"fremst":4122,"ku":4123,"bev":4124,"sat":4125,"1969":4126,"johan":4127,"##kst":4128,"##tta":4129,"##angen":4130,"skjer":4131,"noko":4132,"kroppen":4133,"##iteten":4134,"eksp":4135,"au":4136,"##za":4137,"wal":4138,"##sar":4139,"##ømmet":4140,"##klubb":4141,"tids":4142,"kraftig":4143,"vekt":4144,"bror":4145,"##dte":4146,"##try":4147,"sla":4148,"styrk":4149,"følgende":4150,"steder":4151,"inneholder":4152,"indiv":4153,"brann":4154,"rød":4155,"##fold":4156,"stockholm":4157,"egne":4158,"##sch":4159,"##jar":4160,"##ney":4161,"india":4162,"david":4163,"fjellet":4164,"virke":4165,"##øyt":4166,"1978":4167,"trøn":4168,"heller":4169,"carl":4170,"los":4171,"##skolen":4172,"suksess":4173,"produsert":4174,"spe":4175,"skrive":4176,"canada":4177,"air":4178,"##rim":4179,"belg":4180,"##ios":4181,"##ae":4182,"finst":4183,"natt":4184,"slike":4185,"##fest":4186,"bruke":4187,"felt":4188,"lyd":4189,"##vann":4190,"anlegg":4191,"fore":4192,"##allen":4193,"mur":4194,"skipet":4195,"##lasse":4196,"betydning":4197,"##huset":4198,"##atiske":4199,"dannet":4200,"##bil":4201,"1977":4202,"orig":4203,"##ight":4204,"##sg":4205,"rec":4206,"##sberg":4207,"##agen":4208,"omrader":4209,"##aker":4210,"1967":4211,"kombin":4212,"##ivt":4213,"benyttet":4214,"sovjetun":4215,"tyn":4216,"psyk":4217,"##inal":4218,"##spro":4219,"erstatt":4220,"tall":4221,"arh":4222,"sil":4223,"garden":4224,"##ømme":4225,"tida":4226,"politiker":4227,"cor":4228,"##kning":4229,"##benhavn":4230,"klarte":4231,"##illa":4232,"regnes":4233,"viktigste":4234,"bygge":4235,"dyn":4236,"##ago":4237,"hovedsakelig":4238,"##deles":4239,"##ytte":4240,"lenge":4241,"##repet":4242,"vind":4243,"1971":4244,"føre":4245,"distriktet":4246,"##rafikk":4247,"hvil":4248,"ski":4249,"unge":4250,"city":4251,"##igheten":4252,"stasjon":4253,"##orge":4254,"handling":4255,"##inst":4256,"inntil":4257,"##radene":4258,"henrik":4259,"##kamp":4260,"kommand":4261,"københavn":4262,"pla":4263,"##skje":4264,"sanger":4265,"mand":4266,"1930":4267,"##uelle":4268,"voksne":4269,"kir":4270,"sur":4271,"##sutøver":4272,"fi":4273,"##ockey":4274,"følge":4275,"kore":4276,"meget":4277,"##iø":4278,"rot":4279,"##illingen":4280,"pris":4281,"virk":4282,"utvid":4283,"biskop":4284,"till":4285,"##ordan":4286,"fredrik":4287,"nokre":4288,"##medalje":4289,"rich":4290,"omfatter":4291,"europ":4292,"##ko":4293,"##onom":4294,"knyttet":4295,"##amen":4296,"80":4297,"##isere":4298,"følger":4299,"sub":4300,"nem":4301,"oppk":4302,"sim":4303,"hard":4304,"alp":4305,"##slatt":4306,"komme":4307,"pan":4308,"skar":4309,"okk":4310,"##ferd":4311,"lengre":4312,"regjeringen":4313,"journ":4314,"utst":4315,"europeiske":4316,"bal":4317,"maler":4318,"##skj":4319,"1948":4320,"sterk":4321,"giftet":4322,"son":4323,"1965":4324,"liste":4325,"antarkt":4326,"mm":4327,"##stendig":4328,"administrasjon":4329,"thomas":4330,"cm":4331,"dagen":4332,"australia":4333,"fork":4334,"faren":4335,"gode":4336,"##eden":4337,"samling":4338,"sna":4339,"##plassen":4340,"sja":4341,"##ju":4342,"comm":4343,"##istan":4344,"studio":4345,"##ffet":4346,"nm":4347,"filosof":4348,"norm":4349,"hvordan":4350,"##brudd":4351,"##vil":4352,"##ifor":4353,"##ky":4354,"totalt":4355,"##oler":4356,"##ffe":4357,"flag":4358,"tel":4359,"##aven":4360,"undersø":4361,"venn":4362,"##entlige":4363,"##fi":4364,"aker":4365,"##ales":4366,"1956":4367,"løp":4368,"fru":4369,"west":4370,"##istene":4371,"parlam":4372,"##eth":4373,"lt":4374,"høyre":4375,"##nia":4376,"skjed":4377,"eksped":4378,"oppf":4379,"niva":4380,"1966":4381,"##ellen":4382,"museum":4383,"##buterte":4384,"alf":4385,"trøndelag":4386,"alex":4387,"offentlig":4388,"mynd":4389,"mykje":4390,"hjemme":4391,"sar":4392,"##aktør":4393,"70":4394,"befolkningen":4395,"forskning":4396,"##helm":4397,"kontroll":4398,"hverandre":4399,"##orte":4400,"kunn":4401,"kant":4402,"##vere":4403,"##orer":4404,"dron":4405,"blad":4406,"hem":4407,"tsje":4408,"##bel":4409,"nrk":4410,"grunnlegg":4411,"fotballspiller":4412,"35":4413,"##igh":4414,"##iserer":4415,"##elsene":4416,"##iere":4417,"kry":4418,"reiste":4419,"raskt":4420,"bøker":4421,"gjer":4422,"##avnet":4423,"##rav":4424,"va":4425,"##kre":4426,"nordlige":4427,"##ytter":4428,"mente":4429,"hendel":4430,"arkitekt":4431,"syd":4432,"kysten":4433,"elven":4434,"##ffer":4435,"##føring":4436,"karakter":4437,"jes":4438,"satte":4439,"regiss":4440,"##ival":4441,"derimot":4442,"##ors":4443,"##etten":4444,"##jøn":4445,"##delige":4446,"mask":4447,"##une":4448,"landets":4449,"##fall":4450,"overtok":4451,"##our":4452,"##iel":4453,"##anen":4454,"##inge":4455,"##ikere":4456,"toppen":4457,"formann":4458,"ene":4459,"pin":4460,"##felt":4461,"redus":4462,"##my":4463,"typ":4464,"dessuten":4465,"##ierte":4466,"##raket":4467,"erik":4468,"stavanger":4469,"jer":4470,"sannsyn":4471,"##sette":4472,"lou":4473,"portug":4474,"##parten":4475,"##stid":4476,"bedre":4477,"fjorden":4478,"##kta":4479,"##organis":4480,"symb":4481,"tør":4482,"sovjetunionen":4483,"rog":4484,"tapte":4485,"høyeste":4486,"phil":4487,"gt":4488,"kyst":4489,"##ria":4490,"defin":4491,"1963":4492,"##tein":4493,"##enten":4494,"##jev":4495,"dal":4496,"nasjonale":4497,"styre":4498,"##isa":4499,"stats":4500,"finland":4501,"##elø":4502,"hundre":4503,"meng":4504,"##iendom":4505,"romerske":4506,"militære":4507,"ars":4508,"mik":4509,"cap":4510,"møtte":4511,"drept":4512,"##arer":4513,"aks":4514,"eid":4515,"fylkesvei":4516,"nød":4517,"eig":4518,"##risk":4519,"##kretær":4520,"##oder":4521,"finner":4522,"179":4523,"alv":4524,"##vingene":4525,"not":4526,"elv":4527,"##giv":4528,"##rich":4529,"##iddel":4530,"stab":4531,"##ital":4532,"mc":4533,"viktige":4534,"høsten":4535,"##ath":4536,"stortinget":4537,"sørlige":4538,"sant":4539,"fyrste":4540,"##ikasjon":4541,"gate":4542,"statsminister":4543,"borg":4544,"fjord":4545,"heile":4546,"##bra":4547,"##aksjon":4548,"mex":4549,"frank":4550,"##uler":4551,"##fart":4552,"debuterte":4553,"foren":4554,"##leik":4555,"strøm":4556,"boken":4557,"administrat":4558,"fj":4559,"næring":4560,"##inske":4561,"##urner":4562,"dersom":4563,"nil":4564,"grupper":4565,"fart":4566,"asia":4567,"grand":4568,"##nam":4569,"##iger":4570,"1962":4571,"##ited":4572,"stille":4573,"biller":4574,"##dø":4575,"##rens":4576,"hører":4577,"##ose":4578,"kanskje":4579,"martin":4580,"##ld":4581,"tsjekk":4582,"samlet":4583,"leker":4584,"##ønn":4585,"ves":4586,"transport":4587,"james":4588,"ident":4589,"##agn":4590,"##skaper":4591,"record":4592,"##anda":4593,"syke":4594,"##samling":4595,"##ran":4596,"##inae":4597,"ør":4598,"prim":4599,"plassert":4600,"set":4601,"##udd":4602,"um":4603,"##ikum":4604,"øver":4605,"individ":4606,"bør":4607,"nes":4608,"##fon":4609,"serie":4610,"##eres":4611,"larvene":4612,"##setning":4613,"olympisk":4614,"døy":4615,"enda":4616,"##unst":4617,"##verd":4618,"spør":4619,"ønsket":4620,"helse":4621,"##stedet":4622,"programmet":4623,"sørøst":4624,"betydelig":4625,"##ikke":4626,"katolske":4627,"privat":4628,"sommeren":4629,"mount":4630,"george":4631,"namn":4632,"instrum":4633,"##ena":4634,"forsv":4635,"##kadem":4636,"roy":4637,"vic":4638,"##itter":4639,"##sprak":4640,"##øren":4641,"stiftet":4642,"skild":4643,"vanskelig":4644,"##chen":4645,"skott":4646,"hodet":4647,"##mere":4648,"foret":4649,"##ligere":4650,"##unnen":4651,"skre":4652,"1952":4653,"##øyene":4654,"##gjeng":4655,"mol":4656,"##ure":4657,"vere":4658,"italiensk":4659,"##bia":4660,"lærer":4661,"syv":4662,"fc":4663,"##ugh":4664,"dokument":4665,"alter":4666,"parti":4667,"##delingen":4668,"##iret":4669,"kloster":4670,"konstru":4671,"bol":4672,"##omradet":4673,"event":4674,"franc":4675,"hæren":4676,"sikker":4677,"nab":4678,"hom":4679,"iii":4680,"avl":4681,"valgte":4682,"it":4683,"resultat":4684,"aner":4685,"skrift":4686,"medis":4687,"staten":4688,"profesjon":4689,"##skar":4690,"rapp":4691,"relativt":4692,"##kel":4693,"##way":4694,"##sing":4695,"type":4696,"##omrade":4697,"real":4698,"greske":4699,"revolusjon":4700,"1958":4701,"32":4702,"1961":4703,"forkl":4704,"alltid":4705,"polen":4706,"høyde":4707,"##sund":4708,"bodde":4709,"landslaget":4710,"prem":4711,"kunstner":4712,"egg":4713,"##ses":4714,"fører":4715,"gen":4716,"##ano":4717,"ish":4718,"staf":4719,"##pres":4720,"prosent":4721,"utstyr":4722,"utfor":4723,"norr":4724,"##retning":4725,"nøy":4726,"maria":4727,"stadig":4728,"menneske":4729,"45":4730,"melod":4731,"##dalen":4732,"eier":4733,"student":4734,"lengde":4735,"##ighetene":4736,"##aner":4737,"hor":4738,"##ura":4739,"##utter":4740,"krav":4741,"iv":4742,"##ye":4743,"figur":4744,"##ella":4745,"##rid":4746,"drift":4747,"##uel":4748,"eiendom":4749,"sannsynlig":4750,"app":4751,"##ova":4752,"endret":4753,"##deleg":4754,"##unde":4755,"90":4756,"##bø":4757,"oppdaget":4758,"sogn":4759,"##flyt":4760,"sakalte":4761,"eksister":4762,"kvar":4763,"1946":4764,"delvis":4765,"strid":4766,"holde":4767,"fiske":4768,"stift":4769,"kropp":4770,"dobb":4771,"##illere":4772,"##aur":4773,"gruppa":4774,"formula":4775,"stopp":4776,"##tek":4777,"skyl":4778,"spelt":4779,"vanleg":4780,"runde":4781,"##iteen":4782,"hens":4783,"##ipl":4784,"kas":4785,"ting":4786,"funger":4787,"atl":4788,"skil":4789,"sette":4790,"ris":4791,"lit":4792,"rid":4793,"gatt":4794,"forsøk":4795,"##wn":4796,"##aget":4797,"##shus":4798,"##albumet":4799,"stru":4800,"##talt":4801,"registr":4802,"fro":4803,"salt":4804,"##byen":4805,"sign":4806,"##ank":4807,"oppført":4808,"kontin":4809,"vokste":4810,"##anlegg":4811,"##ctic":4812,"problem":4813,"bul":4814,"##als":4815,"##iment":4816,"##snitt":4817,"kast":4818,"finans":4819,"kvinne":4820,"demokrat":4821,"prakt":4822,"styrker":4823,"33":4824,"1936":4825,"historiske":4826,"huset":4827,"##iteter":4828,"deira":4829,"##lemer":4830,"tver":4831,"##aka":4832,"utgjør":4833,"fang":4834,"##ppet":4835,"##pan":4836,"informasjon":4837,"##øg":4838,"##orten":4839,"erstattet":4840,"vas":4841,"temperatur":4842,"symbol":4843,"øk":4844,"høyere":4845,"##gjort":4846,"1500":4847,"dekkvingene":4848,"ring":4849,"##vig":4850,"##otum":4851,"kjemp":4852,"tit":4853,"fjern":4854,"##illinger":4855,"kontakt":4856,"##aly":4857,"fulgte":4858,"nat":4859,"skjedde":4860,"pet":4861,"klart":4862,"prisen":4863,"##ington":4864,"japansk":4865,"semif":4866,"vist":4867,"rike":4868,"test":4869,"tim":4870,"##vir":4871,"bern":4872,"##beide":4873,"united":4874,"##andid":4875,"trolig":4876,"##steg":4877,"##pr":4878,"regel":4879,"pron":4880,"rio":4881,"oppkalt":4882,"dens":4883,"cup":4884,"##hvert":4885,"middelsst":4886,"vunnet":4887,"enten":4888,"direktør":4889,"debut":4890,"##val":4891,"ukra":4892,"døm":4893,"1957":4894,"gong":4895,"1947":4896,"##ari":4897,"prov":4898,"fær":4899,"you":4900,"bolig":4901,"1939":4902,"skot":4903,"tele":4904,"feil":4905,"reise":4906,"1944":4907,"records":4908,"maneder":4909,"bir":4910,"##ase":4911,"landsbyen":4912,"hertug":4913,"johannes":4914,"##dyr":4915,"##iblio":4916,"##okus":4917,"##rek":4918,"##lest":4919,"1959":4920,"ute":4921,"##yting":4922,"##istet":4923,"størr":4924,"jazz":4925,"sjef":4926,"##akon":4927,"##ikanske":4928,"178":4929,"ferd":4930,"177":4931,"religiø":4932,"mexico":4933,"hvite":4934,"utgiv":4935,"ball":4936,"##kraftverk":4937,"dynast":4938,"lam":4939,"##asen":4940,"##ative":4941,"pronotum":4942,"retning":4943,"ib":4944,"kristne":4945,"##urder":4946,"italienske":4947,"##saker":4948,"##renn":4949,"##kant":4950,"utdann":4951,"forf":4952,"forn":4953,"##stil":4954,"gru":4955,"opprinnelige":4956,"mak":4957,"national":4958,"36":4959,"arke":4960,"##osisjon":4961,"##leder":4962,"##hopp":4963,"matem":4964,"##hr":4965,"califor":4966,"##ael":4967,"cent":4968,"kateg":4969,"organisasjon":4970,"##arken":4971,"irland":4972,"##oide":4973,"amb":4974,"bjørn":4975,"mosk":4976,"bass":4977,"##gangen":4978,"##angel":4979,"mennesk":4980,"forel":4981,"dronning":4982,"##iti":4983,"klasse":4984,"lud":4985,"ork":4986,"innan":4987,"##enterer":4988,"800":4989,"##edal":4990,"trekk":4991,"ført":4992,"anne":4993,"##oven":4994,"##que":4995,"##imeter":4996,"regnet":4997,"redaktør":4998,"##iens":4999,"richard":5000,"offisielle":5001,"gjenopp":5002,"pot":5003,"populær":5004,"konfl":5005,"##nelse":5006,"bevis":5007,"grenser":5008,"junior":5009,"##gard":5010,"varen":5011,"øvre":5012,"just":5013,"##itor":5014,"##orter":5015,"hed":5016,"kle":5017,"spred":5018,"korte":5019,"##ate":5020,"røy":5021,"mos":5022,"konse":5023,"utgang":5024,"tren":5025,"##leis":5026,"##folk":5027,"1949":5028,"standard":5029,"malt":5030,"økonomiske":5031,"bidrag":5032,"nordøst":5033,"him":5034,"økonomisk":5035,"fengsel":5036,"solgt":5037,"inspir":5038,"tjeneste":5039,"##ikar":5040,"##edes":5041,"bygde":5042,"oversikt":5043,"world":5044,"1941":5045,"snø":5046,"kop":5047,"oppdrag":5048,"tilsvarende":5049,"forekom":5050,"##lighet":5051,"##æren":5052,"sykdom":5053,"##ade":5054,"spanske":5055,"døydde":5056,"grev":5057,"lære":5058,"akadem":5059,"##engt":5060,"beij":5061,"##spelar":5062,"california":5063,"pil":5064,"kinesiske":5065,"ansatt":5066,"pave":5067,"freder":5068,"myt":5069,"tu":5070,"kroner":5071,"innsjø":5072,"klar":5073,"teksten":5074,"1700":5075,"##pel":5076,"##ony":5077,"##fot":5078,"##bat":5079,"##ros":5080,"skottland":5081,"elem":5082,"okkup":5083,"hellas":5084,"ytre":5085,"##kkel":5086,"historisk":5087,"##sle":5088,"klima":5089,"dato":5090,"##nem":5091,"ill":5092,"nap":5093,"varier":5094,"##biller":5095,"altsa":5096,"kost":5097,"lyn":5098,"etablerte":5099,"tilgjeng":5100,"##iør":5101,"##vid":5102,"bot":5103,"epis":5104,"obser":5105,"##ague":5106,"særleg":5107,"femte":5108,"varme":5109,"##lagd":5110,"##talen":5111,"magn":5112,"##eldig":5113,"erkl":5114,"##ury":5115,"stjer":5116,"##konkurr":5117,"hvorav":5118,"##vne":5119,"arts":5120,"harald":5121,"##ennene":5122,"staden":5123,"##aust":5124,"tittel":5125,"##aster":5126,"fan":5127,"##af":5128,"##oper":5129,"innflyt":5130,"restaur":5131,"##vs":5132,"1955":5133,"##ues":5134,"##onger":5135,"1954":5136,"dia":5137,"##jert":5138,"gram":5139,"##ric":5140,"senter":5141,"##skrigen":5142,"##sav":5143,"mac":5144,"selve":5145,"vide":5146,"byens":5147,"beijing":5148,"møte":5149,"mottok":5150,"reser":5151,"myr":5152,"1942":5153,"##edlem":5154,"##dan":5155,"##rodus":5156,"##ding":5157,"trebu":5158,"minne":5159,"blod":5160,"##ilde":5161,"##kam":5162,"jobbet":5163,"fokus":5164,"##iseringen":5165,"1938":5166,"astr":5167,"linje":5168,"metall":5169,"publikum":5170,"kjøn":5171,"##undre":5172,"soldater":5173,"##uelt":5174,"kontrakt":5175,"angeles":5176,"##asin":5177,"##mest":5178,"deltak":5179,"##yer":5180,"søster":5181,"##sem":5182,"##rift":5183,"##sand":5184,"handball":5185,"##vo":5186,"##ifisert":5187,"##ski":5188,"##ante":5189,"betegnelsen":5190,"kard":5191,"1928":5192,"jane":5193,"##ansert":5194,"konkurrerer":5195,"bydel":5196,"utdannet":5197,"league":5198,"tog":5199,"##lav":5200,"erke":5201,"lista":5202,"bow":5203,"rekna":5204,"##pas":5205,"##uts":5206,"1912":5207,"tusen":5208,"gran":5209,"##vision":5210,"##cher":5211,"singelen":5212,"##standen":5213,"vestlige":5214,"trakk":5215,"historien":5216,"grensen":5217,"sende":5218,"##aga":5219,"cer":5220,"michael":5221,"samle":5222,"##bi":5223,"##departementet":5224,"##iler":5225,"etterhvert":5226,"##ivalen":5227,"34":5228,"bøl":5229,"##bruks":5230,"war":5231,"bland":5232,"utdanning":5233,"##industri":5234,"løs":5235,"##orf":5236,"##ssel":5237,"##krig":5238,"laga":5239,"nordland":5240,"stilling":5241,"bib":5242,"rygg":5243,"politikk":5244,"##æring":5245,"semifin":5246,"alvor":5247,"begrens":5248,"##riske":5249,"riket":5250,"argent":5251,"##bart":5252,"utviklingen":5253,"1918":5254,"nødv":5255,"vare":5256,"naværende":5257,"sog":5258,"utmer":5259,"ole":5260,"##ms":5261,"##ettet":5262,"##vard":5263,"utøver":5264,"sun":5265,"pap":5266,"sammens":5267,"lande":5268,"krev":5269,"journalist":5270,"isl":5271,"##fekt":5272,"##ary":5273,"pu":5274,"kh":5275,"renn":5276,"cro":5277,"##prisen":5278,"foreg":5279,"##stat":5280,"ellers":5281,"mesterskapet":5282,"attende":5283,"##ellet":5284,"avheng":5285,"fabr":5286,"fylket":5287,"rh":5288,"37":5289,"status":5290,"rekord":5291,"##aktig":5292,"anton":5293,"befolkning":5294,"##ful":5295,"gas":5296,"##rar":5297,"##essig":5298,"but":5299,"munn":5300,"spansk":5301,"tunn":5302,"##rige":5303,"##øk":5304,"charles":5305,"##bygging":5306,"##spunktet":5307,"##uren":5308,"bad":5309,"bob":5310,"##ions":5311,"skreiv":5312,"jak":5313,"sider":5314,"lot":5315,"##ikkel":5316,"##entene":5317,"organisasjonen":5318,"##esser":5319,"representant":5320,"plassen":5321,"origin":5322,"##lys":5323,"utenrik":5324,"black":5325,"1953":5326,"kjøpte":5327,"brev":5328,"uttrykk":5329,"konstant":5330,"ac":5331,"fordel":5332,"1924":5333,"##ikeren":5334,"1943":5335,"##hn":5336,"darlig":5337,"systemet":5338,"##forening":5339,"fremdeles":5340,"##kysten":5341,"situ":5342,"friidrettsutøver":5343,"arhundre":5344,"stafett":5345,"##hi":5346,"##ory":5347,"fry":5348,"##sper":5349,"akk":5350,"##forsk":5351,"høyt":5352,"inng":5353,"dam":5354,"##visning":5355,"horn":5356,"kg":5357,"marker":5358,"fores":5359,"##ving":5360,"##film":5361,"østerrike":5362,"gri":5363,"kyrkja":5364,"turne":5365,"omfattende":5366,"antarctic":5367,"ytterligere":5368,"##ek":5369,"fur":5370,"het":5371,"tun":5372,"##gren":5373,"##ssy":5374,"lage":5375,"##ink":5376,"apen":5377,"konkurransen":5378,"hovedr":5379,"yngre":5380,"##onia":5381,"bygningen":5382,"150":5383,"##oden":5384,"altern":5385,"osc":5386,"1919":5387,"600":5388,"1600":5389,"valget":5390,"meld":5391,"sier":5392,"viet":5393,"##selskap":5394,"##port":5395,"byer":5396,"##kvens":5397,"got":5398,"stal":5399,"##sdag":5400,"bygning":5401,"##osf":5402,"forlot":5403,"##person":5404,"røde":5405,"unntak":5406,"king":5407,"##ikter":5408,"grense":5409,"##ux":5410,"begrepet":5411,"moskva":5412,"##yttes":5413,"tab":5414,"folkem":5415,"##skapen":5416,"tolv":5417,"##mesterskapet":5418,"##ua":5419,"posisjon":5420,"vurder":5421,"38":5422,"##høy":5423,"176":5424,"1000":5425,"allierte":5426,"##ones":5427,"##ras":5428,"##inder":5429,"ungarn":5430,"konged":5431,"cla":5432,"vinteren":5433,"yo":5434,"##utvik":5435,"miss":5436,"##edel":5437,"soc":5438,"##bare":5439,"forteller":5440,"beskrevet":5441,"klassen":5442,"1933":5443,"ori":5444,"##arbeidet":5445,"lagene":5446,"##krigen":5447,"offisielt":5448,"##dres":5449,"sav":5450,"mw":5451,"hind":5452,"##sdal":5453,"drev":5454,"innsjøen":5455,"1951":5456,"telem":5457,"##ical":5458,"##elv":5459,"##vnt":5460,"populære":5461,"besl":5462,"##lik":5463,"##cy":5464,"mørk":5465,"fel":5466,"log":5467,"##mennene":5468,"leir":5469,"holder":5470,"internasjonal":5471,"tyder":5472,"flyt":5473,"styrke":5474,"##ktig":5475,"opptr":5476,"kri":5477,"snart":5478,"vorte":5479,"verket":5480,"##wood":5481,"sendte":5482,"sterke":5483,"##ool":5484,"##ani":5485,"##bygd":5486,"offentlige":5487,"inndeling":5488,"hyd":5489,"##ain":5490,"athen":5491,"##ugen":5492,"college":5493,"damp":5494,"undersøk":5495,"vak":5496,"##ifte":5497,"inse":5498,"job":5499,"victor":5500,"##skl":5501,"##ple":5502,"gangen":5503,"##ørt":5504,"delta":5505,"ros":5506,"landslag":5507,"##jo":5508,"utover":5509,"##egrupp":5510,"##beveg":5511,"##own":5512,"etterføl":5513,"neg":5514,"filmer":5515,"knut":5516,"##uc":5517,"1932":5518,"frig":5519,"bestod":5520,"flate":5521,"##ynt":5522,"amt":5523,"opplø":5524,"##wer":5525,"##atikk":5526,"##staende":5527,"omg":5528,"##fugl":5529,"##ytning":5530,"##cupen":5531,"##uch":5532,"front":5533,"##asje":5534,"hevdet":5535,"avdeling":5536,"tema":5537,"cam":5538,"byrja":5539,"marked":5540,"ishockey":5541,"##pekt":5542,"bakk":5543,"provins":5544,"fordelt":5545,"zealand":5546,"utvidet":5547,"louis":5548,"stadion":5549,"flagg":5550,"sunn":5551,"vul":5552,"dømes":5553,"hopp":5554,"pian":5555,"spraket":5556,"jø":5557,"starten":5558,"vill":5559,"##nere":5560,"camp":5561,"eta":5562,"forsøkte":5563,"bakken":5564,"modell":5565,"passasjer":5566,"##ksjonen":5567,"##iplom":5568,"##issen":5569,"jakt":5570,"##skrift":5571,"##uther":5572,"##endørs":5573,"interesse":5574,"sikkerhet":5575,"mistet":5576,"anlegget":5577,"avsluttet":5578,"##strøm":5579,"hust":5580,"##iang":5581,"utført":5582,"##arden":5583,"1937":5584,"##ds":5585,"ansatte":5586,"religion":5587,"fortell":5588,"generelt":5589,"falt":5590,"forest":5591,"passer":5592,"liber":5593,"bulgar":5594,"utslatt":5595,"kommet":5596,"songar":5597,"##iem":5598,"75":5599,"andreplass":5600,"bestemt":5601,"dj":5602,"##lan":5603,"tromsø":5604,"rikt":5605,"##fag":5606,"ott":5607,"farge":5608,"##bed":5609,"##ringen":5610,"osm":5611,"posit":5612,"##omet":5613,"konflikt":5614,"underfamilien":5615,"patri":5616,"##30":5617,"##board":5618,"regn":5619,"rund":5620,"ober":5621,"sommar":5622,"hurt":5623,"boka":5624,"hvit":5625,"virksomhet":5626,"##rieren":5627,"syl":5628,"hovedstaden":5629,"##orsk":5630,"cast":5631,"cat":5632,"ekstra":5633,"stasjonen":5634,"##umen":5635,"royal":5636,"max":5637,"republikken":5638,"adel":5639,"dig":5640,"ent":5641,"vegen":5642,"heilt":5643,"39":5644,"spillet":5645,"diplom":5646,"hjer":5647,"namng":5648,"##ved":5649,"##oph":5650,"##sla":5651,"erkeb":5652,"omtalt":5653,"stammer":5654,"ordfører":5655,"##iert":5656,"korea":5657,"kyrkje":5658,"finnmark":5659,"##vist":5660,"##tten":5661,"##vekt":5662,"1934":5663,"rollen":5664,"skjøn":5665,"maten":5666,"rør":5667,"##10":5668,"sluttet":5669,"jacob":5670,"##bor":5671,"##rykk":5672,"##meister":5673,"trebukker":5674,"trans":5675,"hill":5676,"##jekt":5677,"lind":5678,"gjelder":5679,"ledelse":5680,"##stend":5681,"heter":5682,"##øve":5683,"thor":5684,"preget":5685,"antarktis":5686,"##sid":5687,"##former":5688,"millimeter":5689,"arets":5690,"typisk":5691,"væ":5692,"problemer":5693,"kaptein":5694,"elektron":5695,"skand":5696,"opplev":5697,"arrest":5698,"spen":5699,"jernban":5700,"instal":5701,"misjon":5702,"bestemte":5703,"##ville":5704,"##elva":5705,"oscar":5706,"musikal":5707,"olje":5708,"stemmer":5709,"##makt":5710,"musikken":5711,"1910":5712,"##nevnte":5713,"##irka":5714,"lib":5715,"vanlige":5716,"eurovision":5717,"utvalg":5718,"fien":5719,"gjeve":5720,"cd":5721,"jean":5722,"sw":5723,"utga":5724,"nik":5725,"##skom":5726,"inneh":5727,"##holde":5728,"midler":5729,"##pre":5730,"antennene":5731,"fors":5732,"matt":5733,"energi":5734,"berøm":5735,"lad":5736,"nominert":5737,"plant":5738,"##cel":5739,"##enta":5740,"dokt":5741,"omradene":5742,"versjonen":5743,"##entar":5744,"lab":5745,"##skomm":5746,"kjende":5747,"levde":5748,"arme":5749,"##iven":5750,"behand":5751,"elev":5752,"##løpet":5753,"##asitet":5754,"##endte":5755,"##iat":5756,"praks":5757,"struktur":5758,"behandling":5759,"former":5760,"invol":5761,"##40":5762,"##omen":5763,"##vers":5764,"sum":5765,"1935":5766,"##lim":5767,"støttet":5768,"##edag":5769,"##ktes":5770,"flor":5771,"union":5772,"1908":5773,"48":5774,"forfatt":5775,"##serien":5776,"##gruppen":5777,"kob":5778,"##abeth":5779,"1917":5780,"prøv":5781,"tradisjonelle":5782,"strand":5783,"##fri":5784,"##uen":5785,"international":5786,"dekker":5787,"studier":5788,"vær":5789,"1914":5790,"akse":5791,"##ute":5792,"straff":5793,"konsent":5794,"##produksjon":5795,"lignende":5796,"samfunnet":5797,"forst":5798,"saint":5799,"mob":5800,"##21":5801,"fremste":5802,"innført":5803,"vera":5804,"wilhelm":5805,"møter":5806,"spela":5807,"avis":5808,"##enfor":5809,"##gruppe":5810,"##veks":5811,"normalt":5812,"bøn":5813,"north":5814,"saken":5815,"school":5816,"trykk":5817,"statens":5818,"kull":5819,"bab":5820,"##ental":5821,"personlig":5822,"##ese":5823,"viss":5824,"##cke":5825,"##stander":5826,"##skamp":5827,"bri":5828,"representerer":5829,"sjel":5830,"sammenheng":5831,"beskriv":5832,"trener":5833,"overlev":5834,"renner":5835,"mener":5836,"##istar":5837,"##omrader":5838,"##sky":5839,"bind":5840,"##breen":5841,"diam":5842,"1929":5843,"kilder":5844,"##ai":5845,"bank":5846,"singel":5847,"##bandet":5848,"haug":5849,"##riket":5850,"gust":5851,"oppt":5852,"nærheten":5853,"nø":5854,"##alam":5855,"arranger":5856,"##atar":5857,"47":5858,"introdus":5859,"angrepet":5860,"tøn":5861,"oppdaga":5862,"##por":5863,"##rit":5864,"live":5865,"od":5866,"kjær":5867,"##sene":5868,"marie":5869,"søra":5870,"55":5871,"albert":5872,"vo":5873,"høye":5874,"protest":5875,"##ublikken":5876,"##orien":5877,"##etning":5878,"##bon":5879,"noksa":5880,"ing":5881,"##illet":5882,"lars":5883,"##gene":5884,"##slø":5885,"##kjente":5886,"##dam":5887,"data":5888,"sentr":5889,"avvik":5890,"tegnet":5891,"fødd":5892,"##melig":5893,"banen":5894,"magnus":5895,"bereg":5896,"##vate":5897,"##rettet":5898,"##hald":5899,"##aw":5900,"1922":5901,"##leve":5902,"##spart":5903,"##hou":5904,"nedre":5905,"##ksjoner":5906,"overført":5907,"dog":5908,"kongelige":5909,"##stilt":5910,"##ava":5911,"trafikk":5912,"arabisk":5913,"##sburg":5914,"hovedstad":5915,"##nas":5916,"##dsel":5917,"##jinga":5918,"gjeld":5919,"plassering":5920,"dobbelt":5921,"##landske":5922,"uker":5923,"yr":5924,"##polit":5925,"klassisk":5926,"agder":5927,"kontrol":5928,"##formet":5929,"kraftverk":5930,"atom":5931,"coun":5932,"behov":5933,"##raft":5934,"170":5935,"øyene":5936,"janeiro":5937,"østerrik":5938,"1921":5939,"parall":5940,"minn":5941,"##sken":5942,"private":5943,"que":5944,"##pal":5945,"##liggende":5946,"begynner":5947,"prosjektet":5948,"##dere":5949,"forbund":5950,"sivil":5951,"økonomi":5952,"##60":5953,"fotballspelar":5954,"inspirert":5955,"utn":5956,"##inav":5957,"##cht":5958,"##hjem":5959,"fen":5960,"telemark":5961,"arm":5962,"hekk":5963,"politiet":5964,"smith":5965,"##alitet":5966,"nic":5967,"##formen":5968,"sit":5969,"oppd":5970,"regissert":5971,"##blad":5972,"internasjonalt":5973,"metal":5974,"##irken":5975,"sovjetiske":5976,"##stoff":5977,"1931":5978,"cirka":5979,"vass":5980,"frukt":5981,"sprint":5982,"##inene":5983,"islam":5984,"vinner":5985,"##field":5986,"love":5987,"belgia":5988,"danner":5989,"##vapen":5990,"pak":5991,"las":5992,"kraftige":5993,"trakt":5994,"sok":5995,"##ifer":5996,"blomster":5997,"##ement":5998,"##gn":5999,"bane":6000,"gyl":6001,"gjennomsnitt":6002,"biblio":6003,"##fang":6004,"østlige":6005,"dialekt":6006,"##ards":6007,"##bus":6008,"high":6009,"##edyr":6010,"nedb":6011,"##fors":6012,"1927":6013,"##full":6014,"isb":6015,"starta":6016,"##organ":6017,"motsetning":6018,"heim":6019,"lis":6020,"etn":6021,"lansert":6022,"##forbund":6023,"contest":6024,"##ila":6025,"vokal":6026,"##ittel":6027,"stilte":6028,"stjerne":6029,"##yp":6030,"verds":6031,"##eslag":6032,"##eta":6033,"salg":6034,"##fisk":6035,"1925":6036,"##ente":6037,"francis":6038,"frederik":6039,"##ep":6040,"arne":6041,"delar":6042,"finsk":6043,"listen":6044,"65":6045,"hurtig":6046,"##spekt":6047,"nordaust":6048,"##sjøen":6049,"japanske":6050,"bredt":6051,"##sol":6052,"inngar":6053,"##garden":6054,"pers":6055,"175":6056,"sammenlig":6057,"landskapet":6058,"##inget":6059,"ort":6060,"wien":6061,"42":6062,"budd":6063,"##ude":6064,"oftest":6065,"avhengig":6066,"avholdt":6067,"##latt":6068,"romersk":6069,"##anke":6070,"##selskapet":6071,"maur":6072,"##utte":6073,"sund":6074,"##inter":6075,"kongens":6076,"verda":6077,"tilknytning":6078,"##høg":6079,"forfatteren":6080,"distri":6081,"egentlig":6082,"sønnen":6083,"minutter":6084,"installert":6085,"uavhengig":6086,"##veis":6087,"time":6088,"konger":6089,"sirk":6090,"møt":6091,"skje":6092,"ordenen":6093,"uk":6094,"##elin":6095,"nødvendig":6096,"etterful":6097,"##kap":6098,"reist":6099,"##chester":6100,"offiser":6101,"illust":6102,"institutt":6103,"##øyer":6104,"##ereg":6105,"driv":6106,"buset":6107,"tidlige":6108,"##ologien":6109,"dels":6110,"kjøpt":6111,"vannet":6112,"##maet":6113,"spørsmal":6114,"##plasser":6115,"gol":6116,"bidro":6117,"konservat":6118,"gis":6119,"aleks":6120,"tverr":6121,"rosen":6122,"mass":6123,"avgjør":6124,"ankom":6125,"##gu":6126,"religiøse":6127,"sab":6128,"geograf":6129,"##ston":6130,"mesterskap":6131,"prosjekt":6132,"##uell":6133,"sosiale":6134,"øverste":6135,"es":6136,"daglig":6137,"##idd":6138,"ekteskap":6139,"joseph":6140,"tonn":6141,"##tiden":6142,"forholdsvis":6143,"henry":6144,"styrkene":6145,"##setter":6146,"##gere":6147,"##ordenen":6148,"scoret":6149,"ner":6150,"opprinnelse":6151,"##øret":6152,"planter":6153,"vidare":6154,"inf":6155,"##æl":6156,"veks":6157,"##ikler":6158,"imot":6159,"##akia":6160,"skol":6161,"tredjeplass":6162,"sjette":6163,"detal":6164,"doll":6165,"def":6166,"kandid":6167,"bach":6168,"##edd":6169,"produksjonen":6170,"kab":6171,"##elag":6172,"##sekretær":6173,"vinne":6174,"##gin":6175,"sjeld":6176,"hustru":6177,"langrenn":6178,"arbeide":6179,"##sens":6180,"##finalen":6181,"lund":6182,"beat":6183,"##lek":6184,"sikre":6185,"middelsstore":6186,"1923":6187,"fotograf":6188,"kunnskap":6189,"styret":6190,"##iana":6191,"tilsk":6192,"praksis":6193,"eksemplar":6194,"naz":6195,"##bord":6196,"##atør":6197,"tilfeller":6198,"kryss":6199,"##mund":6200,"kristiania":6201,"kone":6202,"strateg":6203,"tour":6204,"territor":6205,"sagt":6206,"mcc":6207,"ken":6208,"folketell":6209,"oppl":6210,"skapte":6211,"##dagen":6212,"resultater":6213,"##ader":6214,"base":6215,"institusjon":6216,"domin":6217,"ce":6218,"1916":6219,"##eten":6220,"arlig":6221,"engas":6222,"arn":6223,"1926":6224,"##stiden":6225,"flert":6226,"varierer":6227,"studenter":6228,"namngje":6229,"krys":6230,"besto":6231,"hjelpe":6232,"vold":6233,"scen":6234,"ref":6235,"music":6236,"dynastiet":6237,"inkluderer":6238,"ungdoms":6239,"hendelser":6240,"turist":6241,"operasjon":6242,"##annen":6243,"ledd":6244,"##gaende":6245,"41":6246,"benyttes":6247,"fjernsyn":6248,"kommuner":6249,"##trykk":6250,"solgte":6251,"##spolit":6252,"wash":6253,"##vare":6254,"guvern":6255,"veldig":6256,"fløy":6257,"nederlandske":6258,"##atret":6259,"sle":6260,"##uro":6261,"reform":6262,"fritt":6263,"##etts":6264,"1905":6265,"canad":6266,"##iljø":6267,"bygninger":6268,"hovudsak":6269,"##cker":6270,"flyet":6271,"##vokat":6272,"bryst":6273,"innflytelse":6274,"##kkes":6275,"##stasjon":6276,"##indre":6277,"##add":6278,"##stilling":6279,"##urd":6280,"master":6281,"brød":6282,"tj":6283,"arkitektur":6284,"##urer":6285,"kampene":6286,"##bud":6287,"publisert":6288,"##innen":6289,"pasi":6290,"overfl":6291,"tung":6292,"mørke":6293,"1911":6294,"##rada":6295,"andreas":6296,"interv":6297,"opera":6298,"##uta":6299,"##fyl":6300,"##yre":6301,"##øre":6302,"drevet":6303,"jud":6304,"oversett":6305,"##yo":6306,"interess":6307,"typer":6308,"##kunst":6309,"jør":6310,"49":6311,"168":6312,"seil":6313,"peder":6314,"##idens":6315,"##ogen":6316,"funn":6317,"171":6318,"##eremon":6319,"##oke":6320,"material":6321,"utdannelse":6322,"##cia":6323,"norden":6324,"700":6325,"foss":6326,"##jes":6327,"hoff":6328,"dømt":6329,"award":6330,"turneringen":6331,"##kjemp":6332,"videreg":6333,"##ny":6334,"kanal":6335,"##ior":6336,"klipp":6337,"ker":6338,"scott":6339,"skøy":6340,"##orm":6341,"##yin":6342,"handler":6343,"hap":6344,"kommers":6345,"##oer":6346,"##utning":6347,"jevn":6348,"romsdal":6349,"pensjon":6350,"kos":6351,"##oli":6352,"lands":6353,"1913":6354,"##win":6355,"##sey":6356,"roll":6357,"##mir":6358,"##lad":6359,"grunnla":6360,"tradisjonelt":6361,"verne":6362,"bevart":6363,"tyrkia":6364,"videregaende":6365,"##kirke":6366,"grensa":6367,"produsent":6368,"##kjø":6369,"##enez":6370,"##but":6371,"##tekt":6372,"manus":6373,"blues":6374,"middelalderen":6375,"sym":6376,"usas":6377,"tilgjengelig":6378,"##produs":6379,"resultatet":6380,"##kningen":6381,"##kont":6382,"ekspedisjon":6383,"##atten":6384,"43":6385,"økt":6386,"hansen":6387,"armen":6388,"jarl":6389,"up":6390,"søraust":6391,"##park":6392,"##ock":6393,"fullstendig":6394,"jorden":6395,"##foren":6396,"##svalg":6397,"ekspedisjonen":6398,"south":6399,"opptil":6400,"forsta":6401,"beina":6402,"jens":6403,"##jørn":6404,"##iket":6405,"##byc":6406,"initi":6407,"##sborg":6408,"ceram":6409,"show":6410,"harry":6411,"medlemmene":6412,"muslim":6413,"ving":6414,"orkester":6415,"##erep":6416,"framleis":6417,"64":6418,"kapp":6419,"viking":6420,"spre":6421,"dominer":6422,"timer":6423,"drive":6424,"washington":6425,"romanen":6426,"##idge":6427,"danna":6428,"##bb":6429,"tiln":6430,"stund":6431,"rykket":6432,"glas":6433,"likhet":6434,"##uf":6435,"##anden":6436,"strekker":6437,"gunn":6438,"plante":6439,"elektrisk":6440,"sørover":6441,"##forfatter":6442,"##etta":6443,"##ison":6444,"##gde":6445,"brøt":6446,"øye":6447,"antag":6448,"##ota":6449,"nyere":6450,"sykl":6451,"enhet":6452,"odd":6453,"ødelag":6454,"biografi":6455,"tale":6456,"nordover":6457,"hann":6458,"##mannen":6459,"cerambyc":6460,"##vi":6461,"kritikk":6462,"44":6463,"demon":6464,"kvad":6465,"160":6466,"1904":6467,"##nd":6468,"##ther":6469,"byene":6470,"##uba":6471,"forkort":6472,"ank":6473,"##erende":6474,"betrakt":6475,"dets":6476,"##naden":6477,"##stemer":6478,"##deren":6479,"trop":6480,"gab":6481,"##uan":6482,"##giver":6483,"##vent":6484,"unna":6485,"forster":6486,"kla":6487,"hab":6488,"##olin":6489,"formal":6490,"overfor":6491,"##udt":6492,"committe":6493,"##entert":6494,"kristiansand":6495,"skade":6496,"foreld":6497,"solo":6498,"##gaver":6499,"jakob":6500,"##roduksjon":6501,"symp":6502,"prix":6503,"fylkesveg":6504,"bord":6505,"ivar":6506,"##bard":6507,"legge":6508,"##atning":6509,"1906":6510,"ledende":6511,"komponist":6512,"føder":6513,"spillere":6514,"##side":6515,"tex":6516,"synes":6517,"champ":6518,"kul":6519,"bonde":6520,"committee":6521,"wa":6522,"##ukk":6523,"semifinalen":6524,"kjelder":6525,"ludvig":6526,"##fte":6527,"profesjonell":6528,"46":6529,"ola":6530,"gjennomført":6531,"##stall":6532,"skape":6533,"bisped":6534,"##pros":6535,"obl":6536,"leon":6537,"##ssjef":6538,"##fugler":6539,"flytta":6540,"landskap":6541,"folkerep":6542,"##yret":6543,"nevnt":6544,"penger":6545,"pavir":6546,"##opper":6547,"##saken":6548,"serv":6549,"glob":6550,"flat":6551,"utvikla":6552,"##well":6553,"vietnam":6554,"##iop":6555,"grunnlov":6556,"174":6557,"hold":6558,"##skipet":6559,"##ty":6560,"normal":6561,"cand":6562,"##psjon":6563,"##estad":6564,"##beg":6565,"mog":6566,"skandinav":6567,"hast":6568,"avisen":6569,"tydelig":6570,"sentralt":6571,"52":6572,"dalen":6573,"venez":6574,"nærmere":6575,"bokst":6576,"henholdsvis":6577,"jødiske":6578,"sammenlagt":6579,"##lot":6580,"nedlagt":6581,"fange":6582,"bortsett":6583,"##roppen":6584,"##gger":6585,"sed":6586,"##idar":6587,"doktorg":6588,"##osp":6589,"hud":6590,"she":6591,"aktivitet":6592,"eksper":6593,"long":6594,"120":6595,"stol":6596,"hode":6597,"##sti":6598,"besøk":6599,"pinyin":6600,"lavere":6601,"samarbeidet":6602,"pi":6603,"##aket":6604,"tempel":6605,"ekster":6606,"nas":6607,"##inte":6608,"1907":6609,"##valget":6610,"prinsipp":6611,"##kjør":6612,"forretning":6613,"oppmer":6614,"sannsynligvis":6615,"miner":6616,"hydro":6617,"palest":6618,"##itusjon":6619,"##unne":6620,"priser":6621,"dor":6622,"retts":6623,"prin":6624,"sekund":6625,"1915":6626,"sjøen":6627,"##era":6628,"innsats":6629,"ec":6630,"folkerepublikken":6631,"hentet":6632,"utgave":6633,"##bod":6634,"faktisk":6635,"nordre":6636,"anti":6637,"medaljer":6638,"forlag":6639,"forholdet":6640,"kanalen":6641,"kvinnelige":6642,"kalte":6643,"administrasjonss":6644,"##mat":6645,"edward":6646,"##mot":6647,"##systemet":6648,"billene":6649,"vokser":6650,"edvard":6651,"erkebiskop":6652,"##viste":6653,"løy":6654,"samband":6655,"hyl":6656,"past":6657,"mary":6658,"##mas":6659,"erfar":6660,"rein":6661,"slott":6662,"treng":6663,"##ksomheten":6664,"kardinal":6665,"innhold":6666,"hitler":6667,"størrelse":6668,"grunnlag":6669,"forvalt":6670,"bese":6671,"##entant":6672,"astronom":6673,"##skilt":6674,"virkelig":6675,"##ørende":6676,"##stjene":6677,"mem":6678,"##tet":6679,"krimin":6680,"fødsel":6681,"ansett":6682,"##etet":6683,"tolk":6684,"##vey":6685,"##riper":6686,"jim":6687,"marine":6688,"dollar":6689,"museet":6690,"os":6691,"rang":6692,"##oni":6693,"representert":6694,"utmerk":6695,"produ":6696,"##kommun":6697,"anled":6698,"vatn":6699,"mikro":6700,"forbed":6701,"saledes":6702,"magnet":6703,"kjer":6704,"lege":6705,"ts":6706,"##iod":6707,"##sliv":6708,"green":6709,"rekkje":6710,"##parti":6711,"##versjon":6712,"##muse":6713,"krigs":6714,"helsing":6715,"design":6716,"dir":6717,"##hur":6718,"populært":6719,"grunnet":6720,"tider":6721,"##aton":6722,"##irasjon":6723,"##yen":6724,"tromm":6725,"1909":6726,"##az":6727,"truleg":6728,"gall":6729,"paføl":6730,"##olle":6731,"finale":6732,"1890":6733,"masse":6734,"hellige":6735,"troms":6736,"olsen":6737,"##igg":6738,"##idt":6739,"departementet":6740,"1200":6741,"chic":6742,"kombinert":6743,"sitter":6744,"stemme":6745,"skriven":6746,"hakon":6747,"##nant":6748,"avtalen":6749,"##arten":6750,"173":6751,"gjeven":6752,"kjønn":6753,"irak":6754,"##ratt":6755,"innspel":6756,"##shire":6757,"oblast":6758,"##oslav":6759,"systematisk":6760,"ødelagt":6761,"ug":6762,"##ines":6763,"team":6764,"stig":6765,"##vatnet":6766,"dekket":6767,"innled":6768,"##yll":6769,"##elege":6770,"stral":6771,"##gor":6772,"naturlig":6773,"##konkurransen":6774,"##ife":6775,"vedtatt":6776,"rogaland":6777,"portugal":6778,"oks":6779,"moren":6780,"##hard":6781,"##vd":6782,"##ningar":6783,"##ripe":6784,"skriver":6785,"##mod":6786,"##ics":6787,"malet":6788,"administr":6789,"##mosf":6790,"##ов":6791,"oss":6792,"filipp":6793,"antallet":6794,"##bc":6795,"##grens":6796,"tropp":6797,"##una":6798,"##70":6799,"major":6800,"munchen":6801,"luc":6802,"##ærte":6803,"typen":6804,"tilhørte":6805,"borte":6806,"##ction":6807,"begrenset":6808,"kjerne":6809,"nedbør":6810,"##omot":6811,"58":6812,"økte":6813,"has":6814,"arabiske":6815,"smal":6816,"compan":6817,"fav":6818,"maned":6819,"bilde":6820,"colum":6821,"sistnevnte":6822,"innsp":6823,"aktive":6824,"plata":6825,"##sende":6826,"##leyball":6827,"51":6828,"underlagt":6829,"opphavleg":6830,"avtale":6831,"tilpas":6832,"vinn":6833,"deltatt":6834,"##stam":6835,"terreng":6836,"handels":6837,"eksempler":6838,"##radte":6839,"rod":6840,"skapt":6841,"##hm":6842,"##ifter":6843,"arrestert":6844,"halvparten":6845,"ønsker":6846,"##elly":6847,"##illes":6848,"##endal":6849,"uly":6850,"##styre":6851,"tilknyttet":6852,"##system":6853,"ender":6854,"##nerte":6855,"kilde":6856,"otto":6857,"##skul":6858,"00":6859,"karrieren":6860,"billboard":6861,"eigen":6862,"if":6863,"uke":6864,"last":6865,"##skin":6866,"akershus":6867,"jorda":6868,"tapt":6869,"##mun":6870,"##cus":6871,"media":6872,"##itten":6873,"vet":6874,"##stene":6875,"##skriver":6876,"kommunes":6877,"##ict":6878,"jesu":6879,"ment":6880,"##aller":6881,"bilder":6882,"##vesen":6883,"169":6884,"##merke":6885,"blo":6886,"redusert":6887,"kategori":6888,"##ican":6889,"møre":6890,"driver":6891,"anders":6892,"##zen":6893,"eksist":6894,"øvrige":6895,"vestfold":6896,"##23":6897,"adam":6898,"autom":6899,"##mor":6900,"line":6901,"slags":6902,"##dist":6903,"##arn":6904,"varm":6905,"utgjorde":6906,"hest":6907,"innlem":6908,"##eløp":6909,"fried":6910,"##fektur":6911,"formen":6912,"##omer":6913,"organisert":6914,"sykehus":6915,"magasin":6916,"club":6917,"allian":6918,"tang":6919,"##sfjorden":6920,"##ønster":6921,"##bakken":6922,"##jøre":6923,"dim":6924,"jug":6925,"##oe":6926,"bæ":6927,"storm":6928,"scar":6929,"varte":6930,"einaste":6931,"brat":6932,"forh":6933,"variant":6934,"uvan":6935,"skilt":6936,"kommunest":6937,"nederlandsk":6938,"kommunikasjon":6939,"ske":6940,"##øytnant":6941,"##føringen":6942,"164":6943,"##apt":6944,"63":6945,"ri":6946,"tømmer":6947,"parlamentet":6948,"##oppen":6949,"forekommer":6950,"napole":6951,"dekor":6952,"prote":6953,"##ips":6954,"66":6955,"##vende":6956,"mong":6957,"##ining":6958,"fu":6959,"##ulert":6960,"##spor":6961,"heldt":6962,"bell":6963,"gutt":6964,"gym":6965,"bygda":6966,"##ubber":6967,"alexander":6968,"geografi":6969,"gil":6970,"##nande":6971,"bekre":6972,"lee":6973,"##ids":6974,"lom":6975,"ton":6976,"materiale":6977,"85":6978,"erobret":6979,"166":6980,"##gaste":6981,"anten":6982,"##strekk":6983,"##gra":6984,"endring":6985,"jernbane":6986,"løv":6987,"##unden":6988,"##oter":6989,"##hammer":6990,"vendte":6991,"bodø":6992,"morgen":6993,"skiller":6994,"##back":6995,"56":6996,"reis":6997,"##eler":6998,"isol":6999,"jesus":7000,"inneheld":7001,"hag":7002,"ambass":7003,"omtale":7004,"1902":7005,"massa":7006,"##samlingen":7007,"##musikk":7008,"##akh":7009,"kanon":7010,"filosofi":7011,"fann":7012,"rat":7013,"165":7014,"open":7015,"##alem":7016,"elever":7017,"mes":7018,"1903":7019,"##aring":7020,"høgaste":7021,"##derk":7022,"nektet":7023,"nils":7024,"nt":7025,"##taler":7026,"turn":7027,"songane":7028,"initiativ":7029,"visse":7030,"verker":7031,"##spl":7032,"minste":7033,"koll":7034,"hennar":7035,"musikkalbum":7036,"skulpt":7037,"fos":7038,"##undes":7039,"##organisasjon":7040,"##ela":7041,"jøder":7042,"##ropp":7043,"53":7044,"##figur":7045,"##kontor":7046,"##historie":7047,"##sforb":7048,"imper":7049,"tettstedet":7050,"names":7051,"##stan":7052,"fantes":7053,"atmosf":7054,"sus":7055,"oversatt":7056,"registrert":7057,"antagelig":7058,"apne":7059,"etabler":7060,"oppstod":7061,"##sr":7062,"produserte":7063,"fortsette":7064,"wind":7065,"stillingen":7066,"british":7067,"hon":7068,"atlant":7069,"fugl":7070,"christiania":7071,"forbundet":7072,"pier":7073,"##neser":7074,"##amper":7075,"trekke":7076,"##ikkert":7077,"planlagt":7078,"##føres":7079,"1901":7080,"54":7081,"reaksjon":7082,"hovudsakleg":7083,"##iblant":7084,"artsrike":7085,"flest":7086,"hord":7087,"sko":7088,"##øne":7089,"overgang":7090,"produkt":7091,"bevar":7092,"finske":7093,"oppretta":7094,"utvikle":7095,"utsatt":7096,"korn":7097,"##fen":7098,"norrøn":7099,"presteg":7100,"##egg":7101,"##bladet":7102,"dur":7103,"ære":7104,"##bryt":7105,"fla":7106,"##bir":7107,"kontor":7108,"argentina":7109,"rand":7110,"##ikal":7111,"##ussen":7112,"indiske":7113,"venner":7114,"musiker":7115,"minister":7116,"##løs":7117,"hunn":7118,"##skjel":7119,"landh":7120,"##ubile":7121,"##ati":7122,"kommunist":7123,"prop":7124,"##fabr":7125,"##itsj":7126,"foruten":7127,"luther":7128,"ukraina":7129,"bruken":7130,"68":7131,"vekst":7132,"daværende":7133,"bøkene":7134,"frivil":7135,"tekster":7136,"##zo":7137,"##vag":7138,"landene":7139,"troll":7140,"manu":7141,"danne":7142,"maks":7143,"##no":7144,"##iansk":7145,"kjennet":7146,"bys":7147,"tjen":7148,"##fru":7149,"unnga":7150,"##olket":7151,"forut":7152,"arv":7153,"emb":7154,"endringer":7155,"##fød":7156,"##bevegelsen":7157,"auster":7158,"57":7159,"ekst":7160,"merk":7161,"lake":7162,"tam":7163,"teknisk":7164,"kim":7165,"ple":7166,"##forsvar":7167,"##perio":7168,"bosatt":7169,"sivile":7170,"assist":7171,"mi":7172,"##usikk":7173,"afg":7174,"62":7175,"dans":7176,"##kyrk":7177,"sul":7178,"nevnes":7179,"pafølgende":7180,"company":7181,"##sbe":7182,"kapell":7183,"trær":7184,"deriblant":7185,"portugis":7186,"##gjer":7187,"rocke":7188,"middelalder":7189,"##skij":7190,"##urne":7191,"georgia":7192,"delte":7193,"##tred":7194,"##steder":7195,"1880":7196,"fisker":7197,"##oslov":7198,"jack":7199,"hebra":7200,"elver":7201,"##spillet":7202,"mekan":7203,"##alp":7204,"teori":7205,"##gge":7206,"##saks":7207,"nordisk":7208,"faste":7209,"900":7210,"forsvaret":7211,"bedri":7212,"61":7213,"##spr":7214,"poly":7215,"totale":7216,"antatt":7217,"##funn":7218,"##grad":7219,"millionar":7220,"##itert":7221,"konkurranse":7222,"sten":7223,"1898":7224,"gradvis":7225,"aur":7226,"konstantin":7227,"##ear":7228,"total":7229,"east":7230,"sjelden":7231,"drama":7232,"atlanter":7233,"forslag":7234,"kvadrat":7235,"administrative":7236,"retten":7237,"desig":7238,"laur":7239,"59":7240,"verdenscupen":7241,"##front":7242,"involvert":7243,"eitt":7244,"inge":7245,"##eltet":7246,"##ato":7247,"indian":7248,"##grupper":7249,"reiser":7250,"befinner":7251,"##slin":7252,"barcel":7253,"observat":7254,"utøvere":7255,"spesielle":7256,"deg":7257,"##pool":7258,"æres":7259,"chicago":7260,"hardt":7261,"lokalt":7262,"tann":7263,"##nu":7264,"##pon":7265,"nan":7266,"billed":7267,"graf":7268,"sir":7269,"dommer":7270,"white":7271,"litau":7272,"gustav":7273,"##esterskapet":7274,"meister":7275,"utel":7276,"skiftet":7277,"##bøker":7278,"##pol":7279,"innvand":7280,"følgje":7281,"wales":7282,"serier":7283,"##cks":7284,"##ingane":7285,"##arat":7286,"forhand":7287,"##oks":7288,"gamm":7289,"avstand":7290,"levert":7291,"kompl":7292,"foreldre":7293,"##col":7294,"##ligste":7295,"skjold":7296,"ende":7297,"bestaende":7298,"##kvarter":7299,"tsjekkoslov":7300,"##rud":7301,"formelt":7302,"navy":7303,"kors":7304,"maked":7305,"inte":7306,"##bygget":7307,"jurid":7308,"respekt":7309,"tib":7310,"alene":7311,"minutt":7312,"farger":7313,"tvun":7314,"santa":7315,"mala":7316,"##alene":7317,"bronsemedalje":7318,"pow":7319,"ødeleg":7320,"##gitt":7321,"old":7322,"gass":7323,"##program":7324,"##fjellet":7325,"peng":7326,"ansvarlig":7327,"##rette":7328,"##iland":7329,"arbeiderpartiet":7330,"##ts":7331,"##ittet":7332,"##isse":7333,"forble":7334,"analy":7335,"lei":7336,"harris":7337,"##ianske":7338,"##essige":7339,"punktet":7340,"##klubben":7341,"ron":7342,"##kanten":7343,"opplys":7344,"##merket":7345,"kalk":7346,"avdø":7347,"polske":7348,"tidsskri":7349,"##arbeider":7350,"hensikt":7351,"##tekn":7352,"aud":7353,"flertall":7354,"omfattet":7355,"grønn":7356,"fungerte":7357,"##uft":7358,"sjakk":7359,"minnes":7360,"kated":7361,"ansvaret":7362,"arbeidde":7363,"polsk":7364,"vilhelm":7365,"##amerikanske":7366,"##imer":7367,"##anes":7368,"elis":7369,"##anserte":7370,"delene":7371,"advokat":7372,"kirker":7373,"hamar":7374,"##leiken":7375,"young":7376,"##kil":7377,"dun":7378,"vestre":7379,"kristen":7380,"##ksped":7381,"alko":7382,"lyse":7383,"##styret":7384,"utford":7385,"terror":7386,"fullførte":7387,"##ipend":7388,"fv":7389,"makten":7390,"##ogner":7391,"isa":7392,"sud":7393,"##vinn":7394,"overra":7395,"##iseres":7396,"##skol":7397,"und":7398,"beseiret":7399,"tvang":7400,"arhund":7401,"utanfor":7402,"nordiske":7403,"petter":7404,"##vøya":7405,"##smannen":7406,"hund":7407,"##esen":7408,"##struktur":7409,"jugoslav":7410,"grunnlaget":7411,"##kest":7412,"bele":7413,"had":7414,"kret":7415,"sida":7416,"ok":7417,"takt":7418,"78":7419,"lim":7420,"##ces":7421,"halvøya":7422,"klassiske":7423,"bein":7424,"løper":7425,"##draget":7426,"forand":7427,"ridder":7428,"##ci":7429,"oppstar":7430,"portrett":7431,"sølvmedalje":7432,"##cer":7433,"##barn":7434,"##ome":7435,"hordaland":7436,"melodi":7437,"ss":7438,"avdøde":7439,"##plan":7440,"busker":7441,"umiddel":7442,"tenn":7443,"øyer":7444,"##rede":7445,"vg":7446,"simon":7447,"hannen":7448,"mult":7449,"##iken":7450,"forber":7451,"korre":7452,"heil":7453,"volleyball":7454,"barcelona":7455,"bydelen":7456,"helst":7457,"særs":7458,"mangler":7459,"##slet":7460,"##ordin":7461,"carol":7462,"##ktige":7463,"##lie":7464,"bag":7465,"##kong":7466,"coll":7467,"ukjent":7468,"##haug":7469,"let":7470,"##ommen":7471,"250":7472,"lufthavn":7473,"scene":7474,"##irektør":7475,"nyn":7476,"fyrst":7477,"99":7478,"varer":7479,"bull":7480,"rapport":7481,"tilsyn":7482,"tegn":7483,"anat":7484,"enkel":7485,"tjenesteg":7486,"teik":7487,"maskin":7488,"lie":7489,"167":7490,"74":7491,"river":7492,"1896":7493,"american":7494,"##chsen":7495,"##stud":7496,"ekspl":7497,"fjellkj":7498,"88":7499,"mit":7500,"##lever":7501,"republikk":7502,"##øyane":7503,"eventyr":7504,"jerus":7505,"##zhou":7506,"parken":7507,"innendørs":7508,"##strand":7509,"kantonen":7510,"##ows":7511,"##skon":7512,"texas":7513,"point":7514,"cre":7515,"stan":7516,"##fort":7517,"##jonen":7518,"prøvde":7519,"signerte":7520,"alternativ":7521,"cra":7522,"karet":7523,"mottatt":7524,"##kjer":7525,"##flate":7526,"##kson":7527,"eide":7528,"premier":7529,"idrettslag":7530,"vand":7531,"##tra":7532,"##hy":7533,"ub":7534,"enheter":7535,"##bærer":7536,"##etisk":7537,"manchester":7538,"##vad":7539,"reguler":7540,"##ansett":7541,"##sons":7542,"programmer":7543,"fjordane":7544,"play":7545,"##elet":7546,"mulighet":7547,"##kkene":7548,"##verande":7549,"##inde":7550,"rak":7551,"byggingen":7552,"bart":7553,"overv":7554,"##medaljen":7555,"kristend":7556,"##formede":7557,"67":7558,"festival":7559,"##vensjon":7560,"famili":7561,"1899":7562,"ask":7563,"##rast":7564,"nomin":7565,"##king":7566,"nærings":7567,"dør":7568,"°c":7569,"##sbyg":7570,"victoria":7571,"73":7572,"##anna":7573,"##brun":7574,"slov":7575,"søndag":7576,"scien":7577,"cas":7578,"integr":7579,"##iko":7580,"legger":7581,"nation":7582,"forhandling":7583,"klat":7584,"##rere":7585,"presidenten":7586,"forar":7587,"die":7588,"modern":7589,"isbre":7590,"representanter":7591,"eksterne":7592,"##oul":7593,"##dr":7594,"##amin":7595,"kinas":7596,"sort":7597,"stu":7598,"loven":7599,"spl":7600,"##liste":7601,"##ace":7602,"byttet":7603,"ox":7604,"perioder":7605,"##nede":7606,"lun":7607,"foot":7608,"##onym":7609,"rud":7610,"bek":7611,"opphold":7612,"##kultur":7613,"##urs":7614,"verdskrigen":7615,"utgangspunkt":7616,"insekter":7617,"##orier":7618,"hvilket":7619,"##srett":7620,"##foss":7621,"opptatt":7622,"tradisjonell":7623,"midlertid":7624,"##alog":7625,"broren":7626,"cerambycidae":7627,"vig":7628,"##aktige":7629,"##uter":7630,"##serte":7631,"##nik":7632,"##lund":7633,"sosi":7634,"wood":7635,"ern":7636,"##kkede":7637,"brig":7638,"##repres":7639,"forskere":7640,"liver":7641,"##legge":7642,"##gaard":7643,"infanter":7644,"##ition":7645,"dyp":7646,"male":7647,"##skraft":7648,"1870":7649,"tarn":7650,"syria":7651,"verdi":7652,"##atert":7653,"fullt":7654,"##etningen":7655,"##tar":7656,"skotske":7657,"95":7658,"##hel":7659,"##ikan":7660,"tilst":7661,"kav":7662,"endelig":7663,"69":7664,"71":7665,"##sprogram":7666,"plat":7667,"model":7668,"osmanske":7669,"##fal":7670,"søkte":7671,"buddh":7672,"beskriver":7673,"pad":7674,"halde":7675,"alkohol":7676,"tw":7677,"##gi":7678,"bratt":7679,"gonger":7680,"##ao":7681,"tekniske":7682,"oberst":7683,"##jan":7684,"havn":7685,"originale":7686,"guvernør":7687,"maksim":7688,"##fyr":7689,"kommunale":7690,"may":7691,"myndigheter":7692,"friedrich":7693,"flytte":7694,"prosess":7695,"pavirket":7696,"##xi":7697,"opptak":7698,"napoleon":7699,"ordre":7700,"spele":7701,"dyrk":7702,"laste":7703,"skadet":7704,"kirkes":7705,"##liv":7706,"oppn":7707,"prøy":7708,"##industrien":7709,"##øte":7710,"stoff":7711,"##ble":7712,"country":7713,"latinske":7714,"##cl":7715,"hjør":7716,"artist":7717,"72":7718,"##stol":7719,"fjernet":7720,"potens":7721,"##eda":7722,"deles":7723,"jerusalem":7724,"skatt":7725,"##akult":7726,"py":7727,"##jul":7728,"drammen":7729,"brede":7730,"halvdel":7731,"møl":7732,"marg":7733,"lager":7734,"##sos":7735,"##prest":7736,"nært":7737,"sande":7738,"##marks":7739,"pun":7740,"##kerne":7741,"elite":7742,"##ioner":7743,"##bruket":7744,"send":7745,"##vekst":7746,"fattig":7747,"dyre":7748,"che":7749,"##istikk":7750,"human":7751,"utstyrt":7752,"parlament":7753,"personlige":7754,"studere":7755,"sult":7756,"##værende":7757,"##bild":7758,"landhockey":7759,"dvs":7760,"lengste":7761,"1897":7762,"erklærte":7763,"larsen":7764,"dokum":7765,"gule":7766,"##vitenskap":7767,"etterfulgt":7768,"vald":7769,"##enger":7770,"rute":7771,"berømte":7772,"heng":7773,"flaten":7774,"hammer":7775,"utvikler":7776,"##gjør":7777,"##bol":7778,"##wan":7779,"##bot":7780,"##rock":7781,"lengst":7782,"##ellene":7783,"mongol":7784,"esp":7785,"geolog":7786,"survey":7787,"molde":7788,"##verks":7789,"forleng":7790,"##verg":7791,"herr":7792,"klosteret":7793,"##kas":7794,"##lede":7795,"starter":7796,"##cil":7797,"##fs":7798,"leiar":7799,"kule":7800,"##vakt":7801,"ortod":7802,"heid":7803,"##forbundet":7804,"##feltet":7805,"##sjø":7806,"kjærlighet":7807,"##bank":7808,"alfred":7809,"definert":7810,"with":7811,"hop":7812,"tha":7813,"internett":7814,"hevder":7815,"dit":7816,"lillehammer":7817,"159":7818,"sønner":7819,"forening":7820,"##melse":7821,"myndighetene":7822,"iran":7823,"oppnadde":7824,"fersk":7825,"##biner":7826,"76":7827,"patr":7828,"festning":7829,"##stab":7830,"baten":7831,"aster":7832,"regi":7833,"utgaven":7834,"krevde":7835,"tynne":7836,"grunnen":7837,"kjempet":7838,"viktigaste":7839,"##oy":7840,"beholdt":7841,"grat":7842,"arendal":7843,"##forhold":7844,"beatles":7845,"europeisk":7846,"tyskerne":7847,"##demokrat":7848,"##vise":7849,"##ystemet":7850,"kommunene":7851,"muligens":7852,"##linger":7853,"andersen":7854,"rette":7855,"##handler":7856,"##blikk":7857,"veier":7858,"##verne":7859,"##see":7860,"planet":7861,"jones":7862,"konsept":7863,"##iges":7864,"##ump":7865,"##hai":7866,"corn":7867,"nærmest":7868,"naut":7869,"1895":7870,"##abider":7871,"##oritet":7872,"apning":7873,"elleve":7874,"##ois":7875,"embet":7876,"mengder":7877,"alm":7878,"##antiske":7879,"besøkte":7880,"styres":7881,"fastlandet":7882,"organisasjoner":7883,"liverpool":7884,"##irkning":7885,"##snes":7886,"tilgang":7887,"kvalitet":7888,"høgd":7889,"1860":7890,"oldt":7891,"az":7892,"holly":7893,"mottak":7894,"oh":7895,"153":7896,"studie":7897,"1300":7898,"roller":7899,"belig":7900,"##ito":7901,"daniel":7902,"##do":7903,"172":7904,"innspill":7905,"presse":7906,"skipa":7907,"##dommer":7908,"##skjold":7909,"##reservat":7910,"tvunget":7911,"##zon":7912,"lak":7913,"##teket":7914,"nk":7915,"one":7916,"##oten":7917,"arthur":7918,"rekl":7919,"kvalifisering":7920,"uttalte":7921,"katolsk":7922,"##vek":7923,"flekker":7924,"keiseren":7925,"##delinger":7926,"##urneringen":7927,"holm":7928,"inneholdt":7929,"top":7930,"##ipe":7931,"høyrer":7932,"eksempelvis":7933,"street":7934,"##ance":7935,"spesif":7936,"saker":7937,"##idde":7938,"tilfelle":7939,"nedenfor":7940,"utsp":7941,"tiar":7942,"kreft":7943,"flyktet":7944,"vekk":7945,"hvem":7946,"bang":7947,"##orp":7948,"hunnen":7949,"##asjonene":7950,"##igr":7951,"besluttet":7952,"sakalt":7953,"løpe":7954,"tønsberg":7955,"gor":7956,"##jing":7957,"skisk":7958,"1100":7959,"flykt":7960,"##rekk":7961,"linjen":7962,"oven":7963,"hjul":7964,"sval":7965,"##rafikken":7966,"##rekord":7967,"ingeniør":7968,"smak":7969,"##sto":7970,"##ship":7971,"jag":7972,"##instrum":7973,"forsy":7974,"mesteparten":7975,"starte":7976,"tegneser":7977,"##sre":7978,"omkom":7979,"selvstendig":7980,"frø":7981,"merke":7982,"prosessen":7983,"sæ":7984,"sogne":7985,"##gre":7986,"marit":7987,"flam":7988,"resul":7989,"big":7990,"##kons":7991,"##urat":7992,"virket":7993,"stortings":7994,"sekretær":7995,"##nader":7996,"elektriske":7997,"fredrikstad":7998,"papir":7999,"valer":8000,"skikk":8001,"konser":8002,"folketellingen":8003,"gunnar":8004,"tiltak":8005,"øyane":8006,"water":8007,"kortere":8008,"vulkan":8009,"læ":8010,"##sperio":8011,"##ove":8012,"98":8013,"##svik":8014,"ambassad":8015,"foreningen":8016,"##hv":8017,"##delse":8018,"mannen":8019,"110":8020,"virgin":8021,"tyr":8022,"anmel":8023,"rektor":8024,"nu":8025,"hein":8026,"balt":8027,"161":8028,"##bry":8029,"##smalet":8030,"colom":8031,"##bs":8032,"96":8033,"tettsted":8034,"markerte":8035,"uavhengighet":8036,"##skil":8037,"##orth":8038,"sec":8039,"planer":8040,"sara":8041,"1814":8042,"##mi":8043,"individuelle":8044,"knytt":8045,"kok":8046,"misly":8047,"anerkjen":8048,"strekk":8049,"uttrykket":8050,"ranger":8051,"##ev":8052,"verdensmesterskapet":8053,"cru":8054,"enden":8055,"oppmerksomhet":8056,"barna":8057,"##oller":8058,"##skont":8059,"spekt":8060,"kongedømmet":8061,"etterfølger":8062,"svøm":8063,"helsingfors":8064,"østfold":8065,"returner":8066,"84":8067,"82":8068,"instrument":8069,"##su":8070,"##øyet":8071,"flyfot":8072,"oppna":8073,"tyrkiske":8074,"fukt":8075,"ress":8076,"kva":8077,"his":8078,"##entering":8079,"grader":8080,"romania":8081,"lenker":8082,"kjenner":8083,"nasjonalpark":8084,"isted":8085,"planlegg":8086,"spilles":8087,"trening":8088,"from":8089,"##ado":8090,"undervisning":8091,"klassif":8092,"##app":8093,"elles":8094,"bren":8095,"svak":8096,"baker":8097,"hull":8098,"##iy":8099,"fungerer":8100,"##sdepartementet":8101,"polar":8102,"platt":8103,"evangel":8104,"fab":8105,"back":8106,"158":8107,"verdensmester":8108,"##hem":8109,"objekt":8110,"1889":8111,"konsul":8112,"town":8113,"golf":8114,"vokalist":8115,"konserter":8116,"trommeslag":8117,"sete":8118,"lid":8119,"skarabider":8120,"##ollene":8121,"sof":8122,"brødrene":8123,"doktorgrad":8124,"skad":8125,"svømmer":8126,"medisin":8127,"##vald":8128,"lagkonkurransen":8129,"##plikt":8130,"##lende":8131,"flo":8132,"sverd":8133,"beskrivelse":8134,"##hund":8135,"societ":8136,"##ging":8137,"spart":8138,"bevegelsen":8139,"bibel":8140,"tilheng":8141,"regionale":8142,"piano":8143,"##minister":8144,"kringkast":8145,"spar":8146,"ran":8147,"enkle":8148,"##iation":8149,"tronen":8150,"interesser":8151,"hamburg":8152,"opt":8153,"gaten":8154,"skoler":8155,"##medlem":8156,"##østre":8157,"revet":8158,"dagar":8159,"bokstav":8160,"aksept":8161,"scarab":8162,"paven":8163,"perman":8164,"grønland":8165,"opptrer":8166,"##edie":8167,"mytologi":8168,"utgrav":8169,"beskrev":8170,"##bruddet":8171,"##rey":8172,"##urch":8173,"163":8174,"opprøret":8175,"cr":8176,"bulgaria":8177,"77":8178,"##asjonar":8179,"vag":8180,"slu":8181,"gitarist":8182,"anim":8183,"bilen":8184,"wolf":8185,"bert":8186,"rose":8187,"nobel":8188,"sot":8189,"sap":8190,"kulturm":8191,"##bukta":8192,"fødte":8193,"ligaen":8194,"beskytt":8195,"situasjonen":8196,"bergens":8197,"stader":8198,"1892":8199,"prot":8200,"popular":8201,"namngjeven":8202,"still":8203,"utenlandske":8204,"ross":8205,"##utvikling":8206,"##ji":8207,"house":8208,"utgangspunktet":8209,"fn":8210,"##bur":8211,"1893":8212,"frist":8213,"gammal":8214,"scenen":8215,"gjent":8216,"elisabeth":8217,"inspirasjon":8218,"86":8219,"lør":8220,"ektem":8221,"kammer":8222,"velge":8223,"manager":8224,"scarabae":8225,"kne":8226,"kartlagd":8227,"sens":8228,"##medaljer":8229,"##utan":8230,"ekstrem":8231,"##asjons":8232,"lover":8233,"##du":8234,"takson":8235,"jackson":8236,"bbc":8237,"##unnelen":8238,"spelar":8239,"hog":8240,"uen":8241,"##vas":8242,"tilbud":8243,"kjenneteg":8244,"1894":8245,"##yk":8246,"roger":8247,"klare":8248,"##spris":8249,"skriv":8250,"utform":8251,"introdusert":8252,"##oget":8253,"ath":8254,"service":8255,"##fekturet":8256,"irsk":8257,"skøyter":8258,"herred":8259,"football":8260,"97":8261,"stykke":8262,"williams":8263,"fler":8264,"##jeld":8265,"hemmelig":8266,"81":8267,"dru":8268,"##komiteen":8269,"##ussel":8270,"landbruks":8271,"##rin":8272,"anlagt":8273,"veget":8274,"djup":8275,"##byggingen":8276,"formel":8277,"inva":8278,"økende":8279,"størst":8280,"annan":8281,"law":8282,"##kal":8283,"rov":8284,"senteret":8285,"serb":8286,"elementer":8287,"identif":8288,"prøve":8289,"##olis":8290,"##skab":8291,"sidene":8292,"dirig":8293,"##jern":8294,"slottet":8295,"eksemplarer":8296,"artar":8297,"bærer":8298,"ligner":8299,"styrte":8300,"naturreservat":8301,"medvir":8302,"##dann":8303,"lord":8304,"svar":8305,"130":8306,"##sjef":8307,"styrt":8308,"lyst":8309,"manuskri":8310,"asker":8311,"lux":8312,"hensyn":8313,"arrangem":8314,"grim":8315,"meldte":8316,"komposisjon":8317,"francisco":8318,"overbe":8319,"##iform":8320,"spring":8321,"pul":8322,"prog":8323,"yngste":8324,"group":8325,"artikler":8326,"1400":8327,"lor":8328,"kjøret":8329,"barnet":8330,"riksvei":8331,"bærum":8332,"statt":8333,"blan":8334,"91":8335,"sekunder":8336,"sigurd":8337,"##hjel":8338,"planen":8339,"fakult":8340,"drag":8341,"1891":8342,"mccart":8343,"stjerner":8344,"##holmen":8345,"jom":8346,"##cu":8347,"spir":8348,"vitenskapelige":8349,"skule":8350,"##elles":8351,"dukket":8352,"afghan":8353,"##iarder":8354,"79":8355,"syr":8356,"pors":8357,"nærme":8358,"frihet":8359,"sloven":8360,"fat":8361,"trukket":8362,"ordfør":8363,"journal":8364,"oppløst":8365,"skille":8366,"##istol":8367,"varianter":8368,"83":8369,"politi":8370,"emil":8371,"trommer":8372,"##enden":8373,"sommaren":8374,"##omi":8375,"kastet":8376,"road":8377,"nasjoner":8378,"joe":8379,"kvinnen":8380,"ash":8381,"tir":8382,"vannkraftverk":8383,"strekningen":8384,"dyl":8385,"programleder":8386,"radgiver":8387,"##opter":8388,"##wig":8389,"press":8390,"statsb":8391,"selvstend":8392,"artister":8393,"gw":8394,"glass":8395,"forsknings":8396,"etablere":8397,"jobber":8398,"milliarder":8399,"drap":8400,"##voll":8401,"##esund":8402,"##drift":8403,"villa":8404,"tradisjonen":8405,"##cadem":8406,"night":8407,"penn":8408,"##gruppa":8409,"islands":8410,"peru":8411,"pse":8412,"##skop":8413,"##atnet":8414,"motiv":8415,"hindre":8416,"revolusjonen":8417,"##skjer":8418,"##atelse":8419,"sikret":8420,"egenskaper":8421,"tunnel":8422,"gjest":8423,"hvilken":8424,"vanlegvis":8425,"tidspunkt":8426,"mic":8427,"noregs":8428,"steph":8429,"gjev":8430,"levende":8431,"##punktet":8432,"opph":8433,"cupen":8434,"##forma":8435,"festivalen":8436,"sene":8437,"##bury":8438,"##kul":8439,"supp":8440,"1850":8441,"fabrikk":8442,"fril":8443,"##oma":8444,"##ender":8445,"fysisk":8446,"tilnær":8447,"heg":8448,"##vika":8449,"##kampen":8450,"klokken":8451,"##sterdam":8452,"svalbard":8453,"adolf":8454,"rut":8455,"##kol":8456,"anbe":8457,"amsterdam":8458,"##kop":8459,"legem":8460,"##gjorde":8461,"ordin":8462,"##iks":8463,"period":8464,"regim":8465,"artikkel":8466,"##remedlem":8467,"saga":8468,"##vannet":8469,"arist":8470,"lørdag":8471,"ønske":8472,"nynorsk":8473,"##fjella":8474,"original":8475,"aleksander":8476,"demokratiske":8477,"##bøl":8478,"natten":8479,"dahl":8480,"kalde":8481,"87":8482,"##iot":8483,"tibet":8484,"inntekt":8485,"##hab":8486,"instru":8487,"fjerne":8488,"##skal":8489,"##kurs":8490,"modellen":8491,"##nev":8492,"##øye":8493,"rødt":8494,"okkupasjon":8495,"##fir":8496,"##øyd":8497,"begrep":8498,"##partement":8499,"jernbanen":8500,"einar":8501,"##bær":8502,"##sleder":8503,"tidene":8504,"mete":8505,"1885":8506,"spissen":8507,"britene":8508,"bygger":8509,"##egruppen":8510,"samisk":8511,"fremme":8512,"godkjent":8513,"barndom":8514,"alger":8515,"pur":8516,"##mord":8517,"ombord":8518,"vent":8519,"ales":8520,"rav":8521,"##gs":8522,"bene":8523,"##verka":8524,"lenn":8525,"vers":8526,"blanding":8527,"hotell":8528,"diameter":8529,"cur":8530,"##ininga":8531,"##uper":8532,"##iets":8533,"oppsto":8534,"produserer":8535,"irske":8536,"tegninger":8537,"nfl":8538,"##rommet":8539,"jule":8540,"nordlege":8541,"galler":8542,"oppføl":8543,"##cha":8544,"høst":8545,"sørlege":8546,"oppgaver":8547,"arena":8548,"overtatt":8549,"kraftverket":8550,"##iff":8551,"##edt":8552,"rag":8553,"grov":8554,"observ":8555,"fremtid":8556,"amf":8557,"##øp":8558,"##rie":8559,"##ologen":8560,"france":8561,"##astro":8562,"##cup":8563,"medalje":8564,"valde":8565,"tayl":8566,"##like":8567,"sachsen":8568,"forskjellig":8569,"##egard":8570,"himm":8571,"##vling":8572,"fullført":8573,"utlandet":8574,"alb":8575,"math":8576,"##bjørn":8577,"karib":8578,"publiserte":8579,"drepte":8580,"wilson":8581,"mr":8582,"89":8583,"øke":8584,"156":8585,"kult":8586,"tilstand":8587,"pakistan":8588,"1888":8589,"perifer":8590,"basis":8591,"middelhavet":8592,"##wich":8593,"etterpa":8594,"vakt":8595,"skyldes":8596,"tidsskriftet":8597,"tone":8598,"avgjørende":8599,"kalen":8600,"komite":8601,"steve":8602,"##hver":8603,"##jed":8604,"##ello":8605,"##amo":8606,"##ilen":8607,"trygg":8608,"rem":8609,"eksport":8610,"stykket":8611,"vingesp":8612,"##angrep":8613,"##konstru":8614,"##sko":8615,"fjellene":8616,"sporter":8617,"##amask":8618,"inner":8619,"firmaet":8620,"opna":8621,"bayern":8622,"smab":8623,"larver":8624,"##slipp":8625,"##komst":8626,"ideen":8627,"##oka":8628,"representere":8629,"skader":8630,"alvorlig":8631,"mord":8632,"jordbruk":8633,"konsekvens":8634,"##etiske":8635,"hau":8636,"bit":8637,"##sveg":8638,"155":8639,"shang":8640,"eksisterte":8641,"rester":8642,"##maler":8643,"betale":8644,"science":8645,"##bal":8646,"##lend":8647,"##leks":8648,"brand":8649,"##lah":8650,"brown":8651,"##oritt":8652,"saud":8653,"sideelv":8654,"fysikk":8655,"johnson":8656,"arkeologiske":8657,"vaks":8658,"##elli":8659,"##ensis":8660,"3000":8661,"gn":8662,"##forbindel":8663,"rim":8664,"tas":8665,"rettigheter":8666,"adres":8667,"petro":8668,"##formann":8669,"alban":8670,"merc":8671,"element":8672,"##løper":8673,"rammet":8674,"holmen":8675,"delstat":8676,"rulle":8677,"ringer":8678,"hellig":8679,"senior":8680,"assoc":8681,"seieren":8682,"##leir":8683,"##bourg":8684,"span":8685,"##ksamen":8686,"keis":8687,"norrøne":8688,"bysant":8689,"høgre":8690,"pom":8691,"##edy":8692,"##jøl":8693,"eies":8694,"preussen":8695,"monark":8696,"##skudd":8697,"føde":8698,"aar":8699,"##ovo":8700,"fortsetter":8701,"kontro":8702,"fantas":8703,"inngikk":8704,"93":8705,"eliz":8706,"nag":8707,"##bein":8708,"skihopp":8709,"rab":8710,"##kirken":8711,"##ittiske":8712,"flyplassen":8713,"din":8714,"samla":8715,"##sreg":8716,"##fel":8717,"nikola":8718,"vende":8719,"##hor":8720,"ledelsen":8721,"eksamen":8722,"kent":8723,"oster":8724,"##vide":8725,"slipp":8726,"undergrunn":8727,"##svalget":8728,"##gro":8729,"utry":8730,"##strom":8731,"##anon":8732,"basket":8733,"92":8734,"sankt":8735,"##pes":8736,"artiller":8737,"stilen":8738,"lew":8739,"##brand":8740,"forlate":8741,"##søk":8742,"nasjonalt":8743,"militært":8744,"moss":8745,"innbyggerne":8746,"oft":8747,"ild":8748,"##erter":8749,"ms":8750,"##teborg":8751,"emp":8752,"##ressen":8753,"formid":8754,"ell":8755,"kurs":8756,"begynne":8757,"##vatn":8758,"1884":8759,"aften":8760,"ast":8761,"##vingen":8762,"oppgave":8763,"tilbyr":8764,"foreslatt":8765,"fenomen":8766,"sjanger":8767,"henrettet":8768,"bowl":8769,"out":8770,"162":8771,"nøytr":8772,"skyte":8773,"aer":8774,"##knad":8775,"vitenskapelig":8776,"sic":8777,"academ":8778,"ever":8779,"statsrad":8780,"stabil":8781,"dol":8782,"forbi":8783,"fulgt":8784,"blokk":8785,"spredt":8786,"truet":8787,"konsentrasjon":8788,"haust":8789,"feltet":8790,"later":8791,"nak":8792,"prøver":8793,"##klassen":8794,"gott":8795,"ost":8796,"##omradene":8797,"forfattere":8798,"eksisterer":8799,"##asset":8800,"kjell":8801,"pel":8802,"##øs":8803,"bombe":8804,"rettet":8805,"kjøpe":8806,"##deler":8807,"klim":8808,"##via":8809,"premiere":8810,"eksperiment":8811,"anerkjent":8812,"flyfoto":8813,"jødisk":8814,"matematikk":8815,"columbia":8816,"##skamper":8817,"##row":8818,"little":8819,"##mede":8820,"##ament":8821,"produsere":8822,"94":8823,"##elat":8824,"estland":8825,"##miral":8826,"##ystem":8827,"symfon":8828,"##skilde":8829,"markedet":8830,"viken":8831,"foregar":8832,"inndelt":8833,"mah":8834,"nautiske":8835,"kub":8836,"##dar":8837,"ama":8838,"##sopp":8839,"regissør":8840,"konservative":8841,"høyester":8842,"marin":8843,"bog":8844,"ukl":8845,"##iga":8846,"##bygningen":8847,"vestover":8848,"##oster":8849,"regjeringa":8850,"østre":8851,"kommunistiske":8852,"familier":8853,"bredere":8854,"1883":8855,"slaver":8856,"alesund":8857,"##datter":8858,"champion":8859,"##real":8860,"##foreningen":8861,"spesiell":8862,"israelske":8863,"##sler":8864,"##esi":8865,"doug":8866,"##krets":8867,"walter":8868,"ube":8869,"dylan":8870,"leia":8871,"sveriges":8872,"##akadem":8873,"somme":8874,"steng":8875,"##derne":8876,"kjøre":8877,"skytter":8878,"##uv":8879,"kred":8880,"radik":8881,"1848":8882,"goteborg":8883,"frie":8884,"sydney":8885,"nærmeste":8886,"##zig":8887,"mønster":8888,"bladet":8889,"naturlige":8890,"ull":8891,"slalam":8892,"tilhørende":8893,"##ulf":8894,"autonom":8895,"burg":8896,"preste":8897,"aktivt":8898,"rug":8899,"vedlike":8900,"apost":8901,"hebraisk":8902,"fusjon":8903,"##odor":8904,"jugoslavia":8905,"hovedrollen":8906,"yrkes":8907,"##filmen":8908,"betraktet":8909,"hat":8910,"mig":8911,"##aling":8912,"konfer":8913,"##bridge":8914,"##okse":8915,"tjenestegjorde":8916,"##edrag":8917,"endre":8918,"filmene":8919,"##president":8920,"returnerte":8921,"teorien":8922,"taylor":8923,"act":8924,"endra":8925,"tsjekkoslovakia":8926,"##jd":8927,"##imen":8928,"litterære":8929,"tilsvarer":8930,"marinen":8931,"lese":8932,"##con":8933,"##offer":8934,"sportsutøver":8935,"##funnet":8936,"skudd":8937,"tokyo":8938,"innanfor":8939,"intervju":8940,"##eliv":8941,"døden":8942,"gjennomførte":8943,"gold":8944,"##ots":8945,"##ggen":8946,"handlingen":8947,"blue":8948,"##svitenskap":8949,"cape":8950,"seremon":8951,"##belte":8952,"##lyst":8953,"marx":8954,"##klet":8955,"krever":8956,"stater":8957,"##isch":8958,"##ulære":8959,"##antene":8960,"spare":8961,"grunnlagd":8962,"knud":8963,"1886":8964,"gabri":8965,"skutt":8966,"lod":8967,"østover":8968,"teknologi":8969,"mess":8970,"havne":8971,"hval":8972,"abd":8973,"##chus":8974,"lyktes":8975,"lens":8976,"##zer":8977,"thailand":8978,"tsj":8979,"##lement":8980,"##utdan":8981,"##byra":8982,"##zi":8983,"vog":8984,"##rut":8985,"vedtok":8986,"skyld":8987,"herre":8988,"næringsliv":8989,"forret":8990,"temperaturen":8991,"leil":8992,"##gionen":8993,"skaffe":8994,"1882":8995,"anal":8996,"ler":8997,"opplag":8998,"uansett":8999,"1881":9000,"kollekt":9001,"utgivelsen":9002,"##arm":9003,"fund":9004,"josef":9005,"##aki":9006,"avisa":9007,"rene":9008,"grunnleggende":9009,"lette":9010,"mike":9011,"fiolin":9012,"turneen":9013,"filip":9014,"##ikerne":9015,"assos":9016,"alfab":9017,"##ralen":9018,"hong":9019,"ud":9020,"##gift":9021,"##arbeide":9022,"##oidea":9023,"stone":9024,"elve":9025,"140":9026,"innlemmet":9027,"##fulle":9028,"##kten":9029,"brutt":9030,"diktet":9031,"##order":9032,"##itat":9033,"##ansje":9034,"trett":9035,"sesonger":9036,"brø":9037,"##øtet":9038,"skjel":9039,"unntatt":9040,"##rog":9041,"hvitt":9042,"##ques":9043,"studioalbumet":9044,"##snavn":9045,"flyr":9046,"cy":9047,"framført":9048,"øverst":9049,"dokumentar":9050,"##nis":9051,"vennskap":9052,"enna":9053,"christop":9054,"reness":9055,"skien":9056,"##oth":9057,"forfattar":9058,"omgang":9059,"parker":9060,"##verdig":9061,"omfattar":9062,"##distrikt":9063,"termin":9064,"ryggen":9065,"##urope":9066,"##isjoner":9067,"##ides":9068,"##leker":9069,"etiop":9070,"batter":9071,"alexand":9072,"patt":9073,"tidspunktet":9074,"fortalte":9075,"engasjert":9076,"##busjon":9077,"gravlagt":9078,"##trener":9079,"fjerdeplass":9080,"upp":9081,"overg":9082,"utspring":9083,"afghanistan":9084,"idag":9085,"life":9086,"ryt":9087,"umiddelbart":9088,"jr":9089,"##fo":9090,"medvirket":9091,"##selva":9092,"samtlige":9093,"sad":9094,"nytte":9095,"##varer":9096,"virksomheten":9097,"himmel":9098,"##festivalen":9099,"brudd":9100,"##18":9101,"mening":9102,"ulik":9103,"kombinasjon":9104,"svein":9105,"vite":9106,"##zy":9107,"cont":9108,"##send":9109,"datteren":9110,"handt":9111,"gongen":9112,"bedrift":9113,"##serie":9114,"skips":9115,"drikke":9116,"krim":9117,"##idene":9118,"bevegelse":9119,"##to":9120,"overflate":9121,"ue":9122,"utgivelser":9123,"nyttar":9124,"##stillingen":9125,"##aldt":9126,"##status":9127,"kulturelle":9128,"halvt":9129,"frit":9130,"sender":9131,"slav":9132,"hur":9133,"venst":9134,"batt":9135,"oversiden":9136,"guine":9137,"samferd":9138,"##spartiet":9139,"fortel":9140,"johansen":9141,"spilleren":9142,"##splass":9143,"##vind":9144,"hedmark":9145,"kenn":9146,"##erto":9147,"##handel":9148,"biler":9149,"##bergs":9150,"##serne":9151,"sor":9152,"feltt":9153,"##kin":9154,"derfra":9155,"myn":9156,"bandets":9157,"sjølve":9158,"##atorer":9159,"hersker":9160,"samst":9161,"margar":9162,"##sha":9163,"flyplass":9164,"##tegnet":9165,"institu":9166,"eidsv":9167,"nepal":9168,"##talte":9169,"eric":9170,"society":9171,"##halvøya":9172,"##ando":9173,"utbre":9174,"velger":9175,"cle":9176,"hovedkvarter":9177,"cuba":9178,"##sal":9179,"effektiv":9180,"##eleder":9181,"kome":9182,"praktisk":9183,"hollywood":9184,"##ikon":9185,"##edom":9186,"hart":9187,"church":9188,"stef":9189,"skotsk":9190,"##vinger":9191,"##sdalen":9192,"bevisst":9193,"hug":9194,"sangene":9195,"betydningen":9196,"omrada":9197,"154":9198,"offent":9199,"1878":9200,"##hjul":9201,"gruppene":9202,"franco":9203,"forarsa":9204,"##ikkelen":9205,"day":9206,"grønne":9207,"##stasjonen":9208,"dep":9209,"##yrer":9210,"##henger":9211,"vesentlig":9212,"##møre":9213,"strekkjer":9214,"florida":9215,"samstundes":9216,"annon":9217,"anven":9218,"elizabeth":9219,"ov":9220,"harmon":9221,"eksil":9222,"##somt":9223,"markert":9224,"religiøs":9225,"##derkopp":9226,"##parken":9227,"##wald":9228,"sykkel":9229,"pala":9230,"aser":9231,"##bakk":9232,"net":9233,"##prosje":9234,"burde":9235,"brad":9236,"linjer":9237,"fis":9238,"bunn":9239,"##bul":9240,"##lemann":9241,"partier":9242,"bidra":9243,"diver":9244,"tju":9245,"##com":9246,"state":9247,"ressur":9248,"##chi":9249,"##enga":9250,"versjoner":9251,"trenger":9252,"deltakere":9253,"152":9254,"middelsstor":9255,"budde":9256,"basketball":9257,"##ote":9258,"innførte":9259,"innvalg":9260,"vlad":9261,"utstilling":9262,"finan":9263,"primær":9264,"##fun":9265,"##nt":9266,"bildet":9267,"##sku":9268,"hagen":9269,"rust":9270,"beord":9271,"resear":9272,"tørr":9273,"ins":9274,"gene":9275,"uh":9276,"tysklands":9277,"trykket":9278,"apent":9279,"tettstaden":9280,"mengde":9281,"gy":9282,"havnet":9283,"##samisk":9284,"kvalifiseringen":9285,"hvilke":9286,"velly":9287,"prost":9288,"##rang":9289,"volum":9290,"##navn":9291,"monte":9292,"regler":9293,"hovudstaden":9294,"##prins":9295,"foreldrene":9296,"musk":9297,"luxem":9298,"##amesterskapet":9299,"mobil":9300,"uru":9301,"grus":9302,"sjuk":9303,"tanke":9304,"fed":9305,"saks":9306,"tarnet":9307,"##olas":9308,"sammensla":9309,"##fødte":9310,"1875":9311,"##aser":9312,"venezia":9313,"##representant":9314,"that":9315,"arkiv":9316,"gjaldt":9317,"sandnes":9318,"opptradte":9319,"kapasitet":9320,"##somradet":9321,"1871":9322,"bibelen":9323,"##følg":9324,"ortodokse":9325,"##ernes":9326,"arsak":9327,"tunnelen":9328,"antwer":9329,"dominerende":9330,"lyr":9331,"niger":9332,"##itasjon":9333,"paret":9334,"##skiftet":9335,"nokon":9336,"moral":9337,"ped":9338,"helg":9339,"folkes":9340,"innledende":9341,"omtales":9342,"kall":9343,"krets":9344,"falk":9345,"##uck":9346,"revis":9347,"skildra":9348,"##brune":9349,"good":9350,"##ations":9351,"olavs":9352,"research":9353,"##ikansk":9354,"##aktiv":9355,"ørken":9356,"##ubileum":9357,"utendørs":9358,"##sammen":9359,"##miljø":9360,"demningen":9361,"tore":9362,"##mane":9363,"kvalifiserte":9364,"vises":9365,"fjellt":9366,"held":9367,"benytter":9368,"fugler":9369,"fare":9370,"betegnelse":9371,"ledere":9372,"##rert":9373,"##oro":9374,"larvik":9375,"##lane":9376,"innb":9377,"tvil":9378,"##posten":9379,"cover":9380,"ernst":9381,"ey":9382,"merket":9383,"och":9384,"##ykke":9385,"pag":9386,"invest":9387,"diagn":9388,"seb":9389,"betydelige":9390,"##ains":9391,"trondhjem":9392,"wester":9393,"skjønt":9394,"skatte":9395,"tror":9396,"beleir":9397,"##ush":9398,"lem":9399,"##vold":9400,"1887":9401,"kavaler":9402,"##elskap":9403,"østerrikske":9404,"##rup":9405,"##elberg":9406,"stiftelsen":9407,"brian":9408,"uvanlig":9409,"prøyss":9410,"bjer":9411,"##grensa":9412,"vingene":9413,"tipp":9414,"rekru":9415,"tropper":9416,"##blom":9417,"guang":9418,"##rand":9419,"kommunesenteret":9420,"##sforbund":9421,"invader":9422,"157":9423,"sonen":9424,"oppland":9425,"##ofon":9426,"beslekt":9427,"humor":9428,"damer":9429,"kvel":9430,"vii":9431,"stev":9432,"offens":9433,"##anset":9434,"franz":9435,"##karriere":9436,"beregnet":9437,"##strasjon":9438,"schw":9439,"##vegen":9440,"rolf":9441,"styremedlem":9442,"who":9443,"subst":9444,"amerikan":9445,"profesjonelle":9446,"jem":9447,"pseud":9448,"##viser":9449,"##varig":9450,"center":9451,"storsl":9452,"færøy":9453,"christopher":9454,"##somrade":9455,"##ssted":9456,"##shov":9457,"your":9458,"##æs":9459,"drepe":9460,"stillehavet":9461,"##adel":9462,"verv":9463,"riktig":9464,"##pass":9465,"1877":9466,"nøyaktig":9467,"##kore":9468,"##kspedisjonen":9469,"oppford":9470,"##на":9471,"oppe":9472,"##skogen":9473,"##horn":9474,"malte":9475,"funne":9476,"##espillet":9477,"operativ":9478,"torg":9479,"##skild":9480,"brune":9481,"borgerkrigen":9482,"tide":9483,"telefon":9484,"nun":9485,"##ttene":9486,"stilt":9487,"##ikasjoner":9488,"innvalgt":9489,"touch":9490,"##hode":9491,"landhockeyspiller":9492,"slikt":9493,"fame":9494,"gh":9495,"utlø":9496,"invasjonen":9497,"##skor":9498,"fotballklubb":9499,"1879":9500,"datert":9501,"skinn":9502,"##si":9503,"lærte":9504,"##agasin":9505,"geomet":9506,"slekter":9507,"opplevde":9508,"hage":9509,"aviser":9510,"resulterte":9511,"wall":9512,"sex":9513,"midlertidig":9514,"##ledet":9515,"lokalisert":9516,"spis":9517,"passasjerer":9518,"overrask":9519,"minim":9520,"antwerpen":9521,"eige":9522,"##agt":9523,"betong":9524,"deltag":9525,"forsvant":9526,"pale":9527,"bære":9528,"graham":9529,"davis":9530,"##kins":9531,"vara":9532,"##edagog":9533,"ray":9534,"danse":9535,"bibliotek":9536,"##smedlem":9537,"halden":9538,"bakgrunnen":9539,"aring":9540,"jensen":9541,"ambassadør":9542,"##antisk":9543,"frik":9544,"##hild":9545,"forveks":9546,"indones":9547,"bygging":9548,"place":9549,"brem":9550,"##umin":9551,"bens":9552,"gjens":9553,"zh":9554,"##ular":9555,"##sor":9556,"klubbens":9557,"mannskapet":9558,"kampan":9559,"##bach":9560,"frigjør":9561,"##ape":9562,"stry":9563,"invasjon":9564,"##ardo":9565,"framfor":9566,"serbia":9567,"hjerte":9568,"fasc":9569,"vatnet":9570,"smale":9571,"stemmene":9572,"oxford":9573,"##ffen":9574,"##ope":9575,"##melige":9576,"##endeplass":9577,"##sklubb":9578,"##krit":9579,"bekreftet":9580,"agg":9581,"##amisk":9582,"absol":9583,"konvensjon":9584,"dob":9585,"fysiske":9586,"ifra":9587,"harde":9588,"kongelig":9589,"zo":9590,"ax":9591,"ling":9592,"##kort":9593,"##atia":9594,"lettere":9595,"151":9596,"nylig":9597,"sports":9598,"ansikt":9599,"uv":9600,"madrid":9601,"ala":9602,"nettopp":9603,"inkluderte":9604,"##yder":9605,"obje":9606,"verdsmeister":9607,"høre":9608,"hunder":9609,"seriem":9610,"matemat":9611,"skjønn":9612,"##denes":9613,"##hag":9614,"lof":9615,"straks":9616,"overlevde":9617,"##hall":9618,"skjø":9619,"##semb":9620,"antas":9621,"##cos":9622,"##reis":9623,"##nest":9624,"##eman":9625,"bebygg":9626,"fjella":9627,"drives":9628,"dum":9629,"muligheten":9630,"antikken":9631,"festningen":9632,"komment":9633,"forbud":9634,"kandidat":9635,"naturen":9636,"video":9637,"##gass":9638,"søndre":9639,"##flaten":9640,"normann":9641,"nyhet":9642,"mccartney":9643,"association":9644,"lønn":9645,"##furt":9646,"tech":9647,"opprettelsen":9648,"##osjon":9649,"historia":9650,"##amn":9651,"begrav":9652,"##ient":9653,"arch":9654,"##bruker":9655,"##fabrikk":9656,"##iki":9657,"kompet":9658,"magasinet":9659,"makedonia":9660,"rommet":9661,"guddom":9662,"bue":9663,"##star":9664,"##ulær":9665,"andrew":9666,"##onsert":9667,"egyptiske":9668,"designet":9669,"tettstad":9670,"sher":9671,"##ares":9672,"atlanterhavet":9673,"jørgen":9674,"##atre":9675,"chris":9676,"##messig":9677,"nemlig":9678,"##dy":9679,"fine":9680,"petersburg":9681,"##maktene":9682,"virginia":9683,"selde":9684,"sverre":9685,"nettverk":9686,"kjempe":9687,"seint":9688,"##worth":9689,"enhver":9690,"oksy":9691,"##opel":9692,"##brua":9693,"rolling":9694,"musikalske":9695,"sats":9696,"etym":9697,"kongeriket":9698,"plater":9699,"squ":9700,"##aktor":9701,"definer":9702,"win":9703,"times":9704,"##søy":9705,"kvit":9706,"##kamper":9707,"fabrikken":9708,"##iserings":9709,"larven":9710,"fjær":9711,"arrangeres":9712,"interessert":9713,"utførte":9714,"takket":9715,"mangel":9716,"bytte":9717,"lewis":9718,"teknikk":9719,"reklame":9720,"yt":9721,"##dømmet":9722,"administrasjonssenteret":9723,"##ensel":9724,"bin":9725,"farg":9726,"sukker":9727,"krysset":9728,"forma":9729,"jomfru":9730,"fon":9731,"trass":9732,"modeller":9733,"satell":9734,"gymnas":9735,"elvene":9736,"heart":9737,"stadium":9738,"tene":9739,"tjenester":9740,"central":9741,"staende":9742,"tyrkisk":9743,"##ittene":9744,"##sforening":9745,"##rør":9746,"myndighet":9747,"døme":9748,"##bygde":9749,"stoppet":9750,"detaljer":9751,"linux":9752,"main":9753,"sicil":9754,"##skule":9755,"sympt":9756,"libanon":9757,"historikk":9758,"steg":9759,"hil":9760,"allmenn":9761,"dannar":9762,"opphe":9763,"##geren":9764,"forsker":9765,"##asteroide":9766,"##rakte":9767,"høve":9768,"##uere":9769,"diskusjon":9770,"nedover":9771,"##skan":9772,"middelhav":9773,"num":9774,"1865":9775,"sarp":9776,"tabellen":9777,"##sarbeid":9778,"sammenlignet":9779,"tilbak":9780,"episode":9781,"##abel":9782,"produkter":9783,"klubber":9784,"debatt":9785,"ivan":9786,"##inist":9787,"helgen":9788,"selskaper":9789,"meteor":9790,"##ск":9791,"##inar":9792,"mannlige":9793,"kapit":9794,"muslimske":9795,"anker":9796,"konkurrerte":9797,"##tredende":9798,"##rust":9799,"kona":9800,"gjøres":9801,"tilhengere":9802,"1876":9803,"sørget":9804,"arlige":9805,"rytter":9806,"tilsynelat":9807,"##navnet":9808,"##akten":9809,"##iok":9810,"blind":9811,"øyeblikk":9812,"oppfatt":9813,"munt":9814,"deleg":9815,"paus":9816,"##kkar":9817,"norrønt":9818,"liknande":9819,"vitskap":9820,"etniske":9821,"##arv":9822,"##skyl":9823,"dele":9824,"forsvars":9825,"comp":9826,"##gjande":9827,"australske":9828,"skogen":9829,"tidsskrift":9830,"forny":9831,"familiegruppen":9832,"##verdige":9833,"oversettelse":9834,"##hire":9835,"slett":9836,"henri":9837,"løn":9838,"solen":9839,"bøy":9840,"ds":9841,"taler":9842,"plast":9843,"1864":9844,"foreslo":9845,"##dekket":9846,"opplæring":9847,"lederen":9848,"angelsaks":9849,"godkjen":9850,"golden":9851,"##seier":9852,"##aman":9853,"innebærer":9854,"røn":9855,"##sproduksjon":9856,"rif":9857,"##gata":9858,"bille":9859,"øl":9860,"uavhengige":9861,"digital":9862,"manuskript":9863,"ye":9864,"kvite":9865,"partiets":9866,"##out":9867,"vanligste":9868,"usikker":9869,"##iano":9870,"kunstnere":9871,"virker":9872,"røtter":9873,"toll":9874,"utkom":9875,"##belteasteroide":9876,"politikken":9877,"nederlag":9878,"way":9879,"streng":9880,"utelukk":9881,"##ih":9882,"##jeneste":9883,"##gande":9884,"##jorte":9885,"##ema":9886,"fugle":9887,"##skapasitet":9888,"##familie":9889,"forsamling":9890,"##don":9891,"##kere":9892,"framtid":9893,"kjøl":9894,"buss":9895,"faller":9896,"advis":9897,"spredte":9898,"##sfjord":9899,"ntnu":9900,"##lagte":9901,"##holdning":9902,"buskerud":9903,"non":9904,"heste":9905,"robin":9906,"kvarandre":9907,"##odden":9908,"vestsida":9909,"##oft":9910,"1840":9911,"kirkens":9912,"dos":9913,"##rikter":9914,"ah":9915,"khan":9916,"femt":9917,"##varen":9918,"##spros":9919,"konstruksjon":9920,"kritisk":9921,"power":9922,"##veren":9923,"pierre":9924,"oppover":9925,"##sma":9926,"bakter":9927,"##mont":9928,"149":9929,"lave":9930,"dikter":9931,"##ual":9932,"sommerfugler":9933,"brother":9934,"##ypen":9935,"høyr":9936,"##ctor":9937,"##dens":9938,"##arene":9939,"trin":9940,"leddet":9941,"datab":9942,"grevskapet":9943,"queen":9944,"hul":9945,"helik":9946,"lj":9947,"motoren":9948,"jordbruks":9949,"1861":9950,"##jest":9951,"##cast":9952,"legend":9953,"andel":9954,"jordan":9955,"jernbanest":9956,"##fos":9957,"##veld":9958,"##shistor":9959,"utenriksminister":9960,"##litter":9961,"signal":9962,"bispedømme":9963,"næ":9964,"ferskvann":9965,"mir":9966,"ukrainsk":9967,"##gers":9968,"sveitsiske":9969,"jurist":9970,"##tekter":9971,"talent":9972,"##organisasjonen":9973,"##ega":9974,"alta":9975,"konflikten":9976,"pabeg":9977,"omd":9978,"oksygen":9979,"aff":9980,"soldat":9981,"avlange":9982,"eksisterende":9983,"kommunal":9984,"##stadt":9985,"chile":9986,"fylt":9987,"heime":9988,"fasett":9989,"##jent":9990,"##car":9991,"munningen":9992,"anledning":9993,"09":9994,"ettertid":9995,"angripe":9996,"tilstede":9997,"##bildet":9998,"beskytte":9999,"traktaten":10000,"dvd":10001,"hender":10002,"raske":10003,"redaksjon":10004,"akkurat":10005,"##somme":10006,"advisory":10007,"pund":10008,"clar":10009,"##otiske":10010,"##østregionen":10011,"kongsberg":10012,"prinsesse":10013,"reder":10014,"sound":10015,"antonio":10016,"gun":10017,"osv":10018,"1873":10019,"arve":10020,"##liga":10021,"tidvis":10022,"soldatene":10023,"positiv":10024,"ded":10025,"vidt":10026,"salme":10027,"invester":10028,"##vernement":10029,"hørte":10030,"kulturminner":10031,"05":10032,"reag":10033,"1868":10034,"sard":10035,"innslag":10036,"garder":10037,"bredde":10038,"##hamn":10039,"tony":10040,"##uz":10041,"##komite":10042,"mountains":10043,"rumen":10044,"arrangør":10045,"franskmennene":10046,"utgaver":10047,"1866":10048,"##skoler":10049,"studiet":10050,"##elde":10051,"##førsel":10052,"##settes":10053,"haugesund":10054,"musikere":10055,"##verte":10056,"bakke":10057,"selvmord":10058,"sovjetisk":10059,"wis":10060,"beordret":10061,"innbyggjarane":10062,"forsøker":10063,"hitt":10064,"sies":10065,"kontrovers":10066,"##ough":10067,"peak":10068,"hotel":10069,"##asi":10070,"hovedrollene":10071,"##antar":10072,"dessutan":10073,"##ikkens":10074,"forbudt":10075,"kyr":10076,"landmal":10077,"flukt":10078,"great":10079,"arsaken":10080,"rent":10081,"hannene":10082,"korleis":10083,"125":10084,"møttes":10085,"null":10086,"rival":10087,"menighet":10088,"sibir":10089,"##egarden":10090,"musikalsk":10091,"snor":10092,"ferdin":10093,"avr":10094,"##atak":10095,"pok":10096,"difor":10097,"sao":10098,"krigsf":10099,"seinere":10100,"australsk":10101,"flagget":10102,"herrer":10103,"kaller":10104,"gifte":10105,"tron":10106,"teoret":10107,"ulov":10108,"orgel":10109,"forkortet":10110,"##iction":10111,"##eds":10112,"varia":10113,"pedagog":10114,"##ism":10115,"sarpsborg":10116,"##fred":10117,"##anne":10118,"##bak":10119,"##støt":10120,"inc":10121,"klasser":10122,"plu":10123,"hero":10124,"beach":10125,"##ifa":10126,"trodde":10127,"kulturen":10128,"##ni":10129,"##aria":10130,"yards":10131,"barbar":10132,"nielsen":10133,"offisiell":10134,"wat":10135,"styrken":10136,"digit":10137,"##jal":10138,"vingespenn":10139,"##atl":10140,"benytte":10141,"undersøkelser":10142,"ungarske":10143,"cov":10144,"##forsker":10145,"skrifter":10146,"komponert":10147,"markeds":10148,"nkp":10149,"sebast":10150,"##uene":10151,"innlandet":10152,"##gate":10153,"guvernement":10154,"luxembourg":10155,"##unen":10156,"##verden":10157,"søke":10158,"##sosial":10159,"permanent":10160,"synd":10161,"hk":10162,"##kanis":10163,"erling":10164,"argum":10165,"ekteskapet":10166,"samferdsel":10167,"##olo":10168,"teke":10169,"kveld":10170,"##ertall":10171,"broen":10172,"##ssam":10173,"##uperte":10174,"guinea":10175,"visst":10176,"institute":10177,"fanger":10178,"aktiviteter":10179,"douglas":10180,"##sas":10181,"selskapets":10182,"##reps":10183,"erstatta":10184,"bowie":10185,"vedtak":10186,"##sjan":10187,"1874":10188,"avviklet":10189,"ønsk":10190,"wars":10191,"##øyen":10192,"hausten":10193,"formet":10194,"igjennom":10195,"metode":10196,"trag":10197,"##akes":10198,"trinn":10199,"motset":10200,"heinrich":10201,"riv":10202,"marokk":10203,"hosp":10204,"forente":10205,"eik":10206,"pont":10207,"bypre":10208,"##ømte":10209,"party":10210,"kna":10211,"jordskjel":10212,"forsøks":10213,"##asser":10214,"brenn":10215,"##høgskole":10216,"##ence":10217,"spyd":10218,"krysser":10219,"asp":10220,"1830":10221,"1872":10222,"##anni":10223,"##lia":10224,"eventuelt":10225,"eir":10226,"1863":10227,"kobber":10228,"øker":10229,"glad":10230,"erstatte":10231,"oppgrader":10232,"geografisk":10233,"##bes":10234,"##arl":10235,"utgav":10236,"byrjinga":10237,"oms":10238,"lister":10239,"tilsl":10240,"##haugen":10241,"miljøet":10242,"stri":10243,"kapital":10244,"frans":10245,"kontra":10246,"skarp":10247,"laten":10248,"##och":10249,"##itiv":10250,"##bygning":10251,"noens":10252,"##last":10253,"stridsv":10254,"radet":10255,"nabo":10256,"##kandid":10257,"raud":10258,"musikkvide":10259,"1867":10260,"liberal":10261,"hersk":10262,"##kser":10263,"##lager":10264,"prestegjeld":10265,"08":10266,"##nde":10267,"romerne":10268,"forfrem":10269,"oppfyl":10270,"##jande":10271,"innr":10272,"konstruert":10273,"##syl":10274,"##ision":10275,"sakalla":10276,"administrativ":10277,"justis":10278,"butikk":10279,"gjennombrudd":10280,"storslalam":10281,"##oga":10282,"veter":10283,"##vania":10284,"personar":10285,"##bla":10286,"primært":10287,"frykt":10288,"stundom":10289,"wer":10290,"avgrens":10291,"##fta":10292,"kjørte":10293,"tai":10294,"##skapene":10295,"nilsen":10296,"medisinsk":10297,"sluppet":10298,"beskyttelse":10299,"avskj":10300,"arsaker":10301,"##merker":10302,"hviter":10303,"greg":10304,"pedersen":10305,"byar":10306,"bened":10307,"uts":10308,"redusere":10309,"labor":10310,"hardanger":10311,"utføre":10312,"setter":10313,"5000":10314,"##eser":10315,"##spør":10316,"hja":10317,"medførte":10318,"lufta":10319,"filippinene":10320,"lyng":10321,"##ος":10322,"##brett":10323,"kallen":10324,"##plate":10325,"sola":10326,"skuespill":10327,"##æk":10328,"overvin":10329,"tvers":10330,"titler":10331,"##kh":10332,"litauen":10333,"preg":10334,"##alia":10335,"##ege":10336,"kamer":10337,"gjenværende":10338,"tennis":10339,"##iktet":10340,"mam":10341,"brua":10342,"prosjekter":10343,"oppløs":10344,"øvrig":10345,"kru":10346,"lita":10347,"herman":10348,"monument":10349,"minner":10350,"visepresident":10351,"lekene":10352,"heat":10353,"##iers":10354,"teologi":10355,"parallell":10356,"forvaltning":10357,"##drakt":10358,"medaljen":10359,"seter":10360,"etterm":10361,"amund":10362,"##nadene":10363,"slapp":10364,"girl":10365,"##rende":10366,"##ires":10367,"turnering":10368,"atter":10369,"##atra":10370,"johnny":10371,"##ktoratet":10372,"hoffet":10373,"danmarks":10374,"##ili":10375,"##usa":10376,"##ason":10377,"passerer":10378,"##vol":10379,"repar":10380,"grensar":10381,"kommandør":10382,"atlanta":10383,"##wick":10384,"rosa":10385,"partner":10386,"germ":10387,"overflaten":10388,"##right":10389,"vinneren":10390,"platen":10391,"##adiske":10392,"lokomot":10393,"etappe":10394,"utmerkelser":10395,"progress":10396,"##cen":10397,"alan":10398,"bygges":10399,"stengt":10400,"noensinne":10401,"##mater":10402,"katastro":10403,"##ally":10404,"erfaring":10405,"skipene":10406,"tunge":10407,"por":10408,"##dahl":10409,"tank":10410,"bønder":10411,"##befolk":10412,"straling":10413,"nark":10414,"1862":10415,"sving":10416,"forvand":10417,"gjere":10418,"erklært":10419,"social":10420,"##skomiteen":10421,"distribusjon":10422,"rekrutter":10423,"kvelden":10424,"analyse":10425,"mort":10426,"##østen":10427,"byane":10428,"utenom":10429,"atmosfæren":10430,"##ield":10431,"effekten":10432,"ferdinand":10433,"##raden":10434,"undervis":10435,"underviste":10436,"debutalbumet":10437,"hale":10438,"statlige":10439,"gjeste":10440,"1859":10441,"voss":10442,"bruce":10443,"ekskl":10444,"jødene":10445,"##ustad":10446,"sitte":10447,"##ross":10448,"trengte":10449,"tort":10450,"##økonom":10451,"fox":10452,"pant":10453,"vestland":10454,"urugu":10455,"##fast":10456,"oppvar":10457,"kasakh":10458,"austerrike":10459,"gratis":10460,"tekne":10461,"teleg":10462,"kommunane":10463,"avledet":10464,"anbef":10465,"##kir":10466,"##pter":10467,"##prob":10468,"##kyrkje":10469,"##styrk":10470,"bryter":10471,"fell":10472,"tillatelse":10473,"skiskyting":10474,"uruguay":10475,"undersiden":10476,"gjenstand":10477,"##osh":10478,"guy":10479,"broad":10480,"synlig":10481,"##utningen":10482,"fris":10483,"mari":10484,"øyne":10485,"##yllup":10486,"##mond":10487,"arbeids":10488,"folketel":10489,"redde":10490,"latskriver":10491,"intens":10492,"reich":10493,"skandinavia":10494,"etableringen":10495,"heidelberg":10496,"misten":10497,"opposisjon":10498,"meinte":10499,"uro":10500,"samtidige":10501,"hypp":10502,"brasiliansk":10503,"##oa":10504,"maraton":10505,"bah":10506,"##linjen":10507,"bakkroppen":10508,"##ritt":10509,"maud":10510,"geir":10511,"biograf":10512,"belgiske":10513,"nivaet":10514,"søy":10515,"##etil":10516,"##tting":10517,"##olje":10518,"unes":10519,"bast":10520,"nordmenn":10521,"##ublin":10522,"innspelinga":10523,"bun":10524,"range":10525,"jobben":10526,"lede":10527,"fog":10528,"jiang":10529,"##ravet":10530,"omstr":10531,"tsjekkia":10532,"klin":10533,"vilkar":10534,"kolleg":10535,"avstanden":10536,"inde":10537,"##ppel":10538,"##iber":10539,"innledet":10540,"foster":10541,"meks":10542,"parad":10543,"slutta":10544,"boliv":10545,"nasjonalsosial":10546,"samlingen":10547,"spec":10548,"gammelt":10549,"firk":10550,"##inna":10551,"arabia":10552,"diverse":10553,"stamme":10554,"dobbel":10555,"nordsida":10556,"##synet":10557,"##asjen":10558,"disc":10559,"menneskerett":10560,"juridisk":10561,"fasettøy":10562,"karbon":10563,"aleksand":10564,"vinger":10565,"innviet":10566,"global":10567,"sandefjord":10568,"##ique":10569,"##wart":10570,"utgjer":10571,"koordin":10572,"originalt":10573,"fond":10574,"vor":10575,"##holt":10576,"botan":10577,"gjennomg":10578,"##ømt":10579,"##ierne":10580,"gruppens":10581,"presset":10582,"liter":10583,"høgskolen":10584,"boy":10585,"omf":10586,"hjalp":10587,"stipend":10588,"isen":10589,"bakover":10590,"##regionen":10591,"hyper":10592,"##cent":10593,"##utert":10594,"chrys":10595,"force":10596,"##ische":10597,"ali":10598,"fargen":10599,"undersøkelse":10600,"geografiske":10601,"##pat":10602,"##iande":10603,"automatisk":10604,"overgangen":10605,"leip":10606,"katedral":10607,"##press":10608,"##banken":10609,"##inus":10610,"##ssenter":10611,"##dela":10612,"##aux":10613,"beløn":10614,"folketal":10615,"guds":10616,"kommando":10617,"mall":10618,"##olia":10619,"##filmer":10620,"munner":10621,"##enge":10622,"baron":10623,"dramat":10624,"##ан":10625,"holdes":10626,"bryte":10627,"omgitt":10628,"##jeller":10629,"##løse":10630,"fk":10631,"tilby":10632,"situasjon":10633,"engasjem":10634,"##nast":10635,"##agnet":10636,"komiteen":10637,"##skriv":10638,"kvartfinalen":10639,"##instit":10640,"soph":10641,"koret":10642,"##kammer":10643,"wol":10644,"færøyene":10645,"veker":10646,"skaper":10647,"rub":10648,"##senter":10649,"seilte":10650,"##opol":10651,"fylkeskomm":10652,"##jiang":10653,"##igan":10654,"samuel":10655,"verken":10656,"##adisk":10657,"##klin":10658,"julius":10659,"arealet":10660,"##festival":10661,"rangert":10662,"bedrifter":10663,"##iinae":10664,"sper":10665,"kontinent":10666,"##ray":10667,"##idda":10668,"##shand":10669,"bachel":10670,"##artar":10671,"##ovic":10672,"redig":10673,"nato":10674,"slanke":10675,"kroatia":10676,"tradte":10677,"middels":10678,"jama":10679,"assistent":10680,"tend":10681,"bevarte":10682,"likt":10683,"##19":10684,"##kommer":10685,"##museum":10686,"studert":10687,"cross":10688,"##pok":10689,"indust":10690,"##etninger":10691,"dater":10692,"panser":10693,"##imir":10694,"##utta":10695,"verdenscup":10696,"onkel":10697,"innst":10698,"##ylon":10699,"metoden":10700,"insekt":10701,"##iane":10702,"organiserte":10703,"generalsekretær":10704,"episoder":10705,"mynt":10706,"bam":10707,"##kle":10708,"##asa":10709,"valley":10710,"tilstrekk":10711,"skjell":10712,"games":10713,"vestlandet":10714,"##kamer":10715,"##ansene":10716,"storby":10717,"observert":10718,"##uma":10719,"##bourne":10720,"##asse":10721,"spillerne":10722,"2021":10723,"dream":10724,"medie":10725,"##slivet":10726,"forbered":10727,"04":10728,"fns":10729,"##ksam":10730,"sosialdemokrat":10731,"##bent":10732,"feir":10733,"##sete":10734,"myst":10735,"prom":10736,"##orterte":10737,"##utg":10738,"bukta":10739,"##æringen":10740,"bygningene":10741,"dverg":10742,"personen":10743,"nabol":10744,"kardin":10745,"opprette":10746,"##ktar":10747,"jersey":10748,"zur":10749,"stortingsrepresentant":10750,"##oto":10751,"##icus":10752,"artistar":10753,"##stykke":10754,"rib":10755,"landskamp":10756,"##enda":10757,"østerriksk":10758,"utelukkende":10759,"##ui":10760,"politikar":10761,"windows":10762,"fikt":10763,"##aljon":10764,"konstitusjon":10765,"tevling":10766,"sluttspillet":10767,"bladene":10768,"straum":10769,"##sprosje":10770,"cir":10771,"løse":10772,"kypros":10773,"konserten":10774,"take":10775,"wang":10776,"tilsammen":10777,"parlamentar":10778,"##fle":10779,"seoul":10780,"##bror":10781,"kvalifisert":10782,"##fronten":10783,"##ilet":10784,"##atus":10785,"kid":10786,"##assen":10787,"key":10788,"sære":10789,"##ali":10790,"gjennomføre":10791,"##sbanen":10792,"kartlagt":10793,"##forskning":10794,"##hs":10795,"paraly":10796,"møtt":10797,"okkuperte":10798,"forrige":10799,"brei":10800,"import":10801,"auka":10802,"##ures":10803,"anth":10804,"estim":10805,"06":10806,"##niva":10807,"##sselskap":10808,"ritu":10809,"evak":10810,"##bom":10811,"##ligaen":10812,"arkt":10813,"jenter":10814,"tørre":10815,"rana":10816,"konstantinopel":10817,"##sled":10818,"klaver":10819,"feder":10820,"penge":10821,"##otor":10822,"brensel":10823,"bryllup":10824,"##anlegget":10825,"america":10826,"148":10827,"jup":10828,"spur":10829,"produksjonskapasitet":10830,"##stida":10831,"tidligste":10832,"##sfelt":10833,"spesialiserer":10834,"funksjoner":10835,"sportsutøvere":10836,"kjære":10837,"individuelt":10838,"##fys":10839,"##hop":10840,"##ness":10841,"##skripsjon":10842,"fanget":10843,"forsik":10844,"##alis":10845,"##uset":10846,"##bren":10847,"##amikk":10848,"##ologer":10849,"##kommander":10850,"##rov":10851,"arsj":10852,"oppbe":10853,"wen":10854,"folker":10855,"##stin":10856,"kongo":10857,"dies":10858,"##botn":10859,"well":10860,"avdelinger":10861,"landeveis":10862,"nede":10863,"##avet":10864,"light":10865,"boston":10866,"hastighet":10867,"##vart":10868,"hovedperson":10869,"tropiske":10870,"jemen":10871,"lennon":10872,"rune":10873,"##result":10874,"##kretser":10875,"posisjonen":10876,"edd":10877,"gjøvik":10878,"rail":10879,"reflekt":10880,"væp":10881,"studios":10882,"evne":10883,"kristendommen":10884,"##ktøy":10885,"canadisk":10886,"alderen":10887,"navnene":10888,"dannes":10889,"sommerfugl":10890,"jen":10891,"pic":10892,"grande":10893,"donau":10894,"##opt":10895,"avska":10896,"frag":10897,"##emann":10898,"profil":10899,"høgt":10900,"gabriel":10901,"##yrene":10902,"##aya":10903,"personene":10904,"molek":10905,"klimaet":10906,"spesialiserte":10907,"lisens":10908,"bruka":10909,"manglende":10910,"organer":10911,"dimensjon":10912,"##sji":10913,"gards":10914,"aserba":10915,"touchd":10916,"qing":10917,"##stolen":10918,"1857":10919,"gjeldende":10920,"exped":10921,"betre":10922,"økonomien":10923,"##fallende":10924,"krep":10925,"fortjen":10926,"generasjon":10927,"isf":10928,"utbygging":10929,"kontinuer":10930,"maxim":10931,"tomm":10932,"kritisert":10933,"mennesket":10934,"tjue":10935,"molekyl":10936,"nære":10937,"##folket":10938,"##sporet":10939,"##strup":10940,"darleg":10941,"sjeldne":10942,"##orger":10943,"spellemann":10944,"##nummer":10945,"##elsens":10946,"##spolitikk":10947,"##16":10948,"118":10949,"graden":10950,"##risen":10951,"aserbajd":10952,"##klass":10953,"endelige":10954,"medv":10955,"ordens":10956,"brygger":10957,"##spraket":10958,"jarn":10959,"##pson":10960,"krefter":10961,"born":10962,"abra":10963,"leo":10964,"##historisk":10965,"xi":10966,"##oriet":10967,"konf":10968,"lærar":10969,"##resjon":10970,"1869":10971,"bladbiller":10972,"tag":10973,"wel":10974,"plynd":10975,"veit":10976,"paralymp":10977,"##iev":10978,"106":10979,"osl":10980,"##arig":10981,"fakultet":10982,"##best":10983,"##linje":10984,"romaner":10985,"leipzig":10986,"bater":10987,"egentlige":10988,"##skyting":10989,"øvelsen":10990,"##ssystem":10991,"down":10992,"tilsynelatende":10993,"blu":10994,"##ittisk":10995,"ibsen":10996,"mektig":10997,"bosatte":10998,"plateselskapet":10999,"institusjoner":11000,"##vinner":11001,"metoder":11002,"fattige":11003,"vast":11004,"overle":11005,"lek":11006,"helge":11007,"##sniva":11008,"hier":11009,"ot":11010,"divisjonen":11011,"størrelsen":11012,"##kjempet":11013,"##veier":11014,"senatet":11015,"nedslag":11016,"snar":11017,"rekorden":11018,"avhandling":11019,"##ittelen":11020,"afrikanske":11021,"omdø":11022,"leop":11023,"07":11024,"høge":11025,"mind":11026,"utgje":11027,"##day":11028,"spiser":11029,"apoll":11030,"mannskap":11031,"kontrollen":11032,"##ræ":11033,"tilt":11034,"ingr":11035,"##seid":11036,"gjenstander":11037,"studioalbum":11038,"lovgiv":11039,"kommersielle":11040,"bard":11041,"katal":11042,"jobbe":11043,"embed":11044,"koal":11045,"##svir":11046,"kw":11047,"nick":11048,"dekke":11049,"##rot":11050,"##risitet":11051,"farens":11052,"muham":11053,"##runn":11054,"##elskapet":11055,"spørsmalet":11056,"eidsvoll":11057,"pall":11058,"arsen":11059,"colombia":11060,"##ype":11061,"forsvare":11062,"carolina":11063,"##instrument":11064,"##weg":11065,"brent":11066,"vern":11067,"sha":11068,"blandet":11069,"##sja":11070,"fair":11071,"##chest":11072,"svømming":11073,"shanghai":11074,"mellomalderen":11075,"asi":11076,"115":11077,"grun":11078,"motiver":11079,"etymologi":11080,"##vering":11081,"##redaktør":11082,"massachus":11083,"eirik":11084,"sne":11085,"reformer":11086,"konkl":11087,"chang":11088,"innebar":11089,"rase":11090,"##ordfører":11091,"aktuelle":11092,"settes":11093,"##gd":11094,"bent":11095,"##user":11096,"malays":11097,"105":11098,"tilpasset":11099,"rap":11100,"##rel":11101,"##ariske":11102,"##oria":11103,"definisjon":11104,"##smod":11105,"separat":11106,"dominert":11107,"gres":11108,"kjøtt":11109,"lane":11110,"##cing":11111,"##blo":11112,"manen":11113,"grensene":11114,"hend":11115,"spiss":11116,"##cken":11117,"legges":11118,"1837":11119,"konkurs":11120,"brødre":11121,"##odene":11122,"aqu":11123,"ruten":11124,"historikeren":11125,"figurer":11126,"gramm":11127,"bølg":11128,"350":11129,"helhet":11130,"presentert":11131,"shet":11132,"free":11133,"generelle":11134,"erstatning":11135,"autor":11136,"##øvar":11137,"##still":11138,"##lers":11139,"##enting":11140,"nei":11141,"cambridge":11142,"massachusetts":11143,"##ansvar":11144,"##olusjonen":11145,"##ador":11146,"kommunens":11147,"sokn":11148,"mineral":11149,"##fu":11150,"vogn":11151,"navne":11152,"strøk":11153,"ddr":11154,"vestlege":11155,"nova":11156,"systemat":11157,"motsatt":11158,"narvik":11159,"dokumenter":11160,"friluft":11161,"bh":11162,"##agne":11163,"foregikk":11164,"##museet":11165,"skulptur":11166,"##iom":11167,"foten":11168,"prester":11169,"forlatt":11170,"##feld":11171,"##espiller":11172,"forbindelser":11173,"selge":11174,"lincol":11175,"handlinger":11176,"##livet":11177,"##stillinger":11178,"anses":11179,"høyden":11180,"1815":11181,"ungarsk":11182,"##bell":11183,"innspilt":11184,"nærleiken":11185,"nel":11186,"ryd":11187,"##ktiv":11188,"cham":11189,"folketeljinga":11190,"ufor":11191,"midtøsten":11192,"tempelet":11193,"endem":11194,"skift":11195,"uttalt":11196,"##vokst":11197,"byprefekturet":11198,"##natt":11199,"kjøpmann":11200,"hir":11201,"utsikt":11202,"##svinger":11203,"operatør":11204,"portugisisk":11205,"deltar":11206,"juan":11207,"doc":11208,"##seth":11209,"forsøkt":11210,"ovenfor":11211,"aksjon":11212,"prinsippet":11213,"##artist":11214,"konig":11215,"marc":11216,"skala":11217,"femteplass":11218,"vakre":11219,"kelt":11220,"formalet":11221,"arrangerte":11222,"##landsk":11223,"kanoner":11224,"indisk":11225,"shar":11226,"austsida":11227,"demonstrasjon":11228,"##vass":11229,"kjemiske":11230,"antarktise":11231,"gord":11232,"gutter":11233,"##ikerer":11234,"##kommende":11235,"regner":11236,"##krigstiden":11237,"favoritt":11238,"mao":11239,"gur":11240,"costa":11241,"presten":11242,"jonas":11243,"innspillingen":11244,"##endige":11245,"##elmessig":11246,"##saka":11247,"##able":11248,"##smessig":11249,"##skrifter":11250,"tilhenger":11251,"snakket":11252,"vestkysten":11253,"malmo":11254,"flatt":11255,"scarabaeoidea":11256,"dop":11257,"##espill":11258,"stefan":11259,"teken":11260,"##so":11261,"##iterte":11262,"1854":11263,"xii":11264,"turisme":11265,"luften":11266,"pabegynt":11267,"##melser":11268,"landskamper":11269,"##perioden":11270,"head":11271,"##kontr":11272,"offer":11273,"fredag":11274,"rasmus":11275,"spenning":11276,"parallelt":11277,"##paret":11278,"sikte":11279,"beliggende":11280,"eiendommen":11281,"prøyssiske":11282,"konkluder":11283,"fortellingen":11284,"verdier":11285,"##berget":11286,"allere":11287,"sørsida":11288,"pred":11289,"offiserer":11290,"basen":11291,"rosenborg":11292,"metrop":11293,"frivillig":11294,"##ansjen":11295,"##lekten":11296,"##opptak":11297,"##lat":11298,"gruppespillet":11299,"##say":11300,"tenner":11301,"was":11302,"utpekt":11303,"fremmed":11304,"fylkest":11305,"driften":11306,"allereie":11307,"statistikk":11308,"hendelsen":11309,"avlang":11310,"##ely":11311,"##ordning":11312,"championship":11313,"sebastian":11314,"##ringa":11315,"slave":11316,"prosti":11317,"verte":11318,"steiner":11319,"##edia":11320,"omfang":11321,"frankfurt":11322,"fartøy":11323,"##ømet":11324,"infra":11325,"##veit":11326,"##ferdig":11327,"anerkjente":11328,"dublin":11329,"annonserte":11330,"forholdene":11331,"demonstr":11332,"flykte":11333,"##ific":11334,"identitet":11335,"##otte":11336,"hovedkontor":11337,"##skarriere":11338,"sicilia":11339,"morten":11340,"infl":11341,"egnet":11342,"brannen":11343,"skode":11344,"disp":11345,"angiv":11346,"##arbeidere":11347,"leiren":11348,"skjeb":11349,"forgjen":11350,"behandlet":11351,"##tegn":11352,"eigne":11353,"admiral":11354,"##bolig":11355,"landbruk":11356,"bestemmer":11357,"ragn":11358,"##di":11359,"spise":11360,"partiene":11361,"venezuel":11362,"vall":11363,"budsj":11364,"liberale":11365,"##smark":11366,"apningen":11367,"framover":11368,"territorium":11369,"##ku":11370,"donald":11371,"fortellinger":11372,"satur":11373,"potter":11374,"køy":11375,"##bestem":11376,"refererer":11377,"web":11378,"##egler":11379,"##rus":11380,"##head":11381,"anklaget":11382,"dødsf":11383,"klubbene":11384,"giov":11385,"dyb":11386,"mangfold":11387,"##inia":11388,"##kongen":11389,"reservo":11390,"mt":11391,"positive":11392,"fraktet":11393,"##merte":11394,"##antet":11395,"lp":11396,"##moen":11397,"møtet":11398,"##faren":11399,"##dele":11400,"pasienter":11401,"foredrag":11402,"dres":11403,"##venn":11404,"128":11405,"smy":11406,"namngjeve":11407,"systemer":11408,"muligheter":11409,"oppnad":11410,"flytende":11411,"sotsji":11412,"##oda":11413,"get":11414,"utgjev":11415,"ordnet":11416,"tegne":11417,"vurdert":11418,"individer":11419,"##itive":11420,"likest":11421,"alpint":11422,"lamiinae":11423,"##kontoret":11424,"fiendt":11425,"inndelingen":11426,"mach":11427,"klarer":11428,"latskri":11429,"portugisiske":11430,"oppnadd":11431,"brag":11432,"avstem":11433,"milano":11434,"referanser":11435,"utøv":11436,"luftfart":11437,"gjem":11438,"lanserte":11439,"##umb":11440,"##heit":11441,"konkurranser":11442,"frekvens":11443,"armeen":11444,"##orkester":11445,"##urens":11446,"administrerende":11447,"alminn":11448,"##svatnet":11449,"gjenvalg":11450,"sørkore":11451,"haw":11452,"fremfor":11453,"typiske":11454,"##ods":11455,"fremført":11456,"kriminal":11457,"##forsvaret":11458,"states":11459,"vannpol":11460,"##alo":11461,"##adi":11462,"tallrike":11463,"corpor":11464,"##avstem":11465,"komponisten":11466,"##utsch":11467,"##øyst":11468,"##idea":11469,"##sfar":11470,"ektemann":11471,"løpebiller":11472,"##ynes":11473,"trib":11474,"verksted":11475,"billy":11476,"##sde":11477,"##rogram":11478,"##brig":11479,"regjerings":11480,"festet":11481,"akust":11482,"hertugen":11483,"hester":11484,"sees":11485,"kristus":11486,"hugh":11487,"##finn":11488,"skyt":11489,"##ways":11490,"108":11491,"stockholms":11492,"medisinske":11493,"academy":11494,"##ingeniør":11495,"##legaste":11496,"pig":11497,"dreiv":11498,"nidar":11499,"##nor":11500,"mennene":11501,"##klus":11502,"##kvart":11503,"##øvrig":11504,"kald":11505,"##boken":11506,"allianse":11507,"rundet":11508,"etterkomm":11509,"snakker":11510,"reserve":11511,"grund":11512,"avdelingen":11513,"artikkelen":11514,"gods":11515,"##ido":11516,"begravet":11517,"uefa":11518,"liga":11519,"napoli":11520,"##can":11521,"døgn":11522,"problemet":11523,"##elius":11524,"##kron":11525,"##ceae":11526,"ruter":11527,"##spraklige":11528,"strat":11529,"hay":11530,"reddet":11531,"skulen":11532,"##ич":11533,"##reen":11534,"##sloven":11535,"maleri":11536,"##orks":11537,"knapt":11538,"1851":11539,"gon":11540,"forøvrig":11541,"lincoln":11542,"##juk":11543,"##jort":11544,"forstyr":11545,"sea":11546,"come":11547,"abraham":11548,"##rier":11549,"chap":11550,"##stjeneste":11551,"forbedret":11552,"slovakia":11553,"##arkite":11554,"søsken":11555,"##offiser":11556,"kjemisk":11557,"torino":11558,"ishockeyspiller":11559,"forlaget":11560,"##liggande":11561,"##brede":11562,"skrives":11563,"1856":11564,"kontinentet":11565,"##konkurranse":11566,"introduserte":11567,"befest":11568,"##cao":11569,"færre":11570,"lagets":11571,"trekant":11572,"amatør":11573,"taket":11574,"##virksomhet":11575,"145":11576,"borgermester":11577,"foretatt":11578,"wu":11579,"voksen":11580,"##skrevet":11581,"schles":11582,"traff":11583,"##stekn":11584,"imago":11585,"1855":11586,"skilte":11587,"historikere":11588,"sundet":11589,"##arder":11590,"##kse":11591,"##elighet":11592,"fremmet":11593,"1858":11594,"grammy":11595,"parag":11596,"orientering":11597,"##gner":11598,"blanke":11599,"1849":11600,"stede":11601,"eine":11602,"color":11603,"nevner":11604,"##institusjon":11605,"jager":11606,"##retten":11607,"drog":11608,"okkupasjonen":11609,"##erty":11610,"verb":11611,"##talende":11612,"slekta":11613,"kara":11614,"sikkert":11615,"##got":11616,"ideer":11617,"forarsaket":11618,"edderkopp":11619,"tanker":11620,"myrdet":11621,"##pset":11622,"utnem":11623,"verdien":11624,"troppen":11625,"guden":11626,"nasjonalfor":11627,"frivillige":11628,"##rø":11629,"##stø":11630,"##ynene":11631,"terje":11632,"beck":11633,"##minne":11634,"møtes":11635,"nevø":11636,"reformasjonen":11637,"brothers":11638,"hits":11639,"##viet":11640,"skuespilleren":11641,"##ahl":11642,"oppgitt":11643,"nad":11644,"##rigen":11645,"administrativt":11646,"boys":11647,"umul":11648,"fangst":11649,"##sleir":11650,"regimet":11651,"drakt":11652,"##ulus":11653,"howard":11654,"københavns":11655,"##hallen":11656,"kommunestyret":11657,"fangen":11658,"plag":11659,"topps":11660,"ohio":11661,"fengslet":11662,"##ев":11663,"##shall":11664,"intelle":11665,"autonome":11666,"sf":11667,"etasje":11668,"iron":11669,"##kton":11670,"01":11671,"##entrum":11672,"tykk":11673,"rig":11674,"darlige":11675,"##produsent":11676,"dev":11677,"arre":11678,"arbeidar":11679,"malm":11680,"betydningsf":11681,"bystatus":11682,"særskilt":11683,"##iing":11684,"heav":11685,"##spillere":11686,"vanlege":11687,"greve":11688,"praha":11689,"elsker":11690,"dypt":11691,"kompleks":11692,"bøndene":11693,"utløp":11694,"freden":11695,"##fre":11696,"høgare":11697,"dotter":11698,"erobra":11699,"støtter":11700,"##useum":11701,"stoppe":11702,"antarktisekspedisjonen":11703,"tig":11704,"programvare":11705,"okkupert":11706,"skjedd":11707,"##hein":11708,"fars":11709,"##hum":11710,"##shavn":11711,"popularitet":11712,"taksonom":11713,"##cou":11714,"omgiv":11715,"##ordet":11716,"redning":11717,"istedenfor":11718,"##meng":11719,"planten":11720,"melbourne":11721,"kristiansund":11722,"##ukter":11723,"division":11724,"##edalen":11725,"atferd":11726,"rykte":11727,"protester":11728,"##jering":11729,"idet":11730,"slar":11731,"single":11732,"dype":11733,"vulk":11734,"jus":11735,"inskripsjon":11736,"mulige":11737,"gruve":11738,"bm":11739,"skaffet":11740,"munnar":11741,"høyesterett":11742,"oppvekst":11743,"##veksling":11744,"øystein":11745,"følte":11746,"##lok":11747,"awards":11748,"støy":11749,"fortid":11750,"disney":11751,"øvelser":11752,"sylind":11753,"boe":11754,"kino":11755,"##fuglar":11756,"faktor":11757,"ال":11758,"##uster":11759,"sykdommen":11760,"dna":11761,"indonesia":11762,"109":11763,"##pene":11764,"esk":11765,"##ec":11766,"##verknad":11767,"##rell":11768,"##burgh":11769,"nash":11770,"stjør":11771,"utslipp":11772,"##presentant":11773,"##ningsm":11774,"##ants":11775,"skildring":11776,"folkemusikk":11777,"mom":11778,"adri":11779,"jeff":11780,"hydrogen":11781,"##utdanning":11782,"book":11783,"ric":11784,"##ais":11785,"##ox":11786,"##atoren":11787,"vinkel":11788,"oppdager":11789,"barneh":11790,"##stedt":11791,"kronprins":11792,"##ppa":11793,"##ruten":11794,"##sseremon":11795,"etterfulgte":11796,"##stjer":11797,"samiske":11798,"tredj":11799,"propag":11800,"##elaget":11801,"hamna":11802,"ramme":11803,"low":11804,"skane":11805,"kongressen":11806,"diplomat":11807,"ki":11808,"fortr":11809,"##beck":11810,"laborator":11811,"dec":11812,"marcus":11813,"egil":11814,"sterkere":11815,"beslektet":11816,"svenska":11817,"##vit":11818,"utformet":11819,"geological":11820,"cow":11821,"glem":11822,"wild":11823,"skøyt":11824,"gjeng":11825,"##skritt":11826,"baserte":11827,"sveitsisk":11828,"elevene":11829,"birk":11830,"forstand":11831,"##arth":11832,"##sfart":11833,"field":11834,"zim":11835,"##ikarar":11836,"kunstakadem":11837,"##inas":11838,"motstander":11839,"referanse":11840,"avskjed":11841,"nadd":11842,"rekorder":11843,"massakr":11844,"corporation":11845,"bær":11846,"##strakt":11847,"vitja":11848,"provinsene":11849,"ng":11850,"nit":11851,"##domen":11852,"capp":11853,"inngatt":11854,"##sau":11855,"greide":11856,"glim":11857,"grunnloven":11858,"##kninger":11859,"etterkommere":11860,"avsatt":11861,"klær":11862,"eksperim":11863,"unionen":11864,"order":11865,"hvorfor":11866,"##cal":11867,"karakt":11868,"##esn":11869,"opphavet":11870,"119":11871,"personell":11872,"breen":11873,"materialet":11874,"lil":11875,"##klasse":11876,"skvad":11877,"niels":11878,"tekstil":11879,"##jak":11880,"##chang":11881,"##ikevel":11882,"pennsyl":11883,"##ampton":11884,"##sfil":11885,"generell":11886,"##orme":11887,"medlemskap":11888,"##edning":11889,"moz":11890,"fredet":11891,"fint":11892,"artium":11893,"sommerfug":11894,"femten":11895,"tungt":11896,"sas":11897,"##etra":11898,"allikevel":11899,"sev":11900,"##ipper":11901,"##vand":11902,"verdsc":11903,"senterpartiet":11904,"skjær":11905,"omgjort":11906,"alumin":11907,"statsborger":11908,"harrison":11909,"navig":11910,"berømt":11911,"suksessen":11912,"lady":11913,"fase":11914,"elect":11915,"##apar":11916,"leks":11917,"havnen":11918,"gave":11919,"busett":11920,"##lista":11921,"##isi":11922,"albuma":11923,"hjemmebane":11924,"##skulen":11925,"rekn":11926,"stephen":11927,"kurt":11928,"##ki":11929,"perm":11930,"engasjer":11931,"leverte":11932,"uavgjort":11933,"argument":11934,"1842":11935,"departement":11936,"storleik":11937,"##engde":11938,"beskjed":11939,"1845":11940,"##fjellene":11941,"bist":11942,"lyden":11943,"paralympiske":11944,"adresse":11945,"class":11946,"herunder":11947,"montert":11948,"##vesenet":11949,"eva":11950,"##ous":11951,"besøkende":11952,"aas":11953,"cann":11954,"##øse":11955,"styreleder":11956,"miller":11957,"##raph":11958,"##yth":11959,"##løst":11960,"endel":11961,"##veksten":11962,"doub":11963,"return":11964,"pattedyr":11965,"forfremmet":11966,"østsiden":11967,"graver":11968,"##manns":11969,"hospital":11970,"opptreden":11971,"montreal":11972,"føderale":11973,"##elling":11974,"regiment":11975,"plasserte":11976,"ludwig":11977,"##feldt":11978,"ip":11979,"enorme":11980,"pod":11981,"tilbrakte":11982,"hyp":11983,"##periode":11984,"##osen":11985,"##anken":11986,"antyder":11987,"oppdater":11988,"overta":11989,"oftast":11990,"dial":11991,"kapittel":11992,"elektronisk":11993,"##atan":11994,"##snavnet":11995,"1852":11996,"volleyballspiller":11997,"begynt":11998,"elektrisitet":11999,"anderson":12000,"##skytter":12001,"indikerer":12002,"vesle":12003,"tilskuere":12004,"gest":12005,"##cs":12006,"hoc":12007,"alvorlige":12008,"##forbindelse":12009,"tilstrekkelig":12010,"nedgang":12011,"##smed":12012,"trium":12013,"beskrives":12014,"##smy":12015,"##wall":12016,"bret":12017,"noverande":12018,"konkurrert":12019,"relativ":12020,"grunner":12021,"127":12022,"australian":12023,"##itch":12024,"bidratt":12025,"eliteserien":12026,"##12":12027,"##dommen":12028,"michel":12029,"betjen":12030,"##shem":12031,"fleir":12032,"soren":12033,"landa":12034,"##ledes":12035,"krepsd":12036,"1820":12037,"##svapen":12038,"vegne":12039,"dave":12040,"forsvarets":12041,"##kow":12042,"flyg":12043,"lokaler":12044,"stillehav":12045,"signert":12046,"mogleg":12047,"warsza":12048,"intellekt":12049,"ingenting":12050,"vernet":12051,"147":12052,"##kehus":12053,"benj":12054,"forsvarte":12055,"##eløper":12056,"##kne":12057,"##anner":12058,"##ology":12059,"hovedtrener":12060,"midtre":12061,"kontrakten":12062,"sultan":12063,"forum":12064,"hang":12065,"army":12066,"nevn":12067,"arkitekten":12068,"alaska":12069,"##yton":12070,"walis":12071,"mov":12072,"derav":12073,"ligge":12074,"stewart":12075,"temper":12076,"uran":12077,"ay":12078,"enige":12079,"##fore":12080,"##akk":12081,"bea":12082,"gla":12083,"lant":12084,"flytt":12085,"vilje":12086,"tretten":12087,"vester":12088,"olaf":12089,"kardinaler":12090,"##søkonom":12091,"135":12092,"visa":12093,"nestleder":12094,"tjente":12095,"engasjement":12096,"##obe":12097,"##biblio":12098,"##kkende":12099,"manader":12100,"gib":12101,"nordsjøen":12102,"tradisjoner":12103,"firma":12104,"wo":12105,"høne":12106,"løytnant":12107,"krøn":12108,"margret":12109,"##uropeiske":12110,"##norsk":12111,"##eri":12112,"##rennet":12113,"forvingen":12114,"arkeologi":12115,"bassist":12116,"lagde":12117,"##sstra":12118,"straffe":12119,"##brot":12120,"fortalt":12121,"kalle":12122,"filmat":12123,"##omp":12124,"nærliggende":12125,"bosetning":12126,"heavy":12127,"intell":12128,"western":12129,"##mak":12130,"##vang":12131,"vestsiden":12132,"makta":12133,"##leum":12134,"samsvar":12135,"regulert":12136,"albania":12137,"stim":12138,"eter":12139,"##sex":12140,"##etting":12141,"##speriode":12142,"omdøpt":12143,"aluminium":12144,"oransje":12145,"haakon":12146,"katedralen":12147,"##post":12148,"stang":12149,"##osisjonen":12150,"giovanni":12151,"sje":12152,"##hof":12153,"enorm":12154,"##ego":12155,"ns":12156,"##egen":12157,"statlig":12158,"morris":12159,"##ruter":12160,"regioner":12161,"##illy":12162,"turen":12163,"##kreis":12164,"gylden":12165,"kommersiell":12166,"asb":12167,"utmerket":12168,"pioner":12169,"##mur":12170,"østlandet":12171,"finansier":12172,"##ands":12173,"##rute":12174,"pennsylvania":12175,"ll":12176,"##smo":12177,"utviklinga":12178,"##savtale":12179,"svake":12180,"129":12181,"##insen":12182,"gjeninn":12183,"elvis":12184,"jacobsen":12185,"##hara":12186,"cha":12187,"lillestrøm":12188,"igang":12189,"vidar":12190,"lastebil":12191,"forretnings":12192,"frisk":12193,"vegg":12194,"sporet":12195,"134":12196,"utnevnte":12197,"grieg":12198,"dak":12199,"##yg":12200,"sittende":12201,"wright":12202,"##striper":12203,"veil":12204,"strø":12205,"montene":12206,"europas":12207,"dagbladet":12208,"mora":12209,"kai":12210,"dub":12211,"jente":12212,"elektro":12213,"tsar":12214,"visste":12215,"planene":12216,"fjør":12217,"slutte":12218,"##ukas":12219,"bidrar":12220,"tillatt":12221,"melodien":12222,"##jeg":12223,"##svig":12224,"##semd":12225,"ballen":12226,"138":12227,"##ocke":12228,"vassdrag":12229,"fiction":12230,"meters":12231,"##sfl":12232,"kravet":12233,"kolonien":12234,"card":12235,"soder":12236,"cass":12237,"vinterleker":12238,"stillinger":12239,"firen":12240,"##kommanderende":12241,"nich":12242,"##smenn":12243,"##temp":12244,"deport":12245,"vancou":12246,"fungere":12247,"##følgje":12248,"lapp":12249,"tilfellet":12250,"##okl":12251,"risik":12252,"opphørte":12253,"margaret":12254,"klubbane":12255,"jesuitt":12256,"paras":12257,"term":12258,"home":12259,"##kandidat":12260,"øynene":12261,"##mad":12262,"partil":12263,"tau":12264,"##lett":12265,"distrikter":12266,"normand":12267,"restaurert":12268,"innenrik":12269,"differ":12270,"norgesmesterskapet":12271,"juridiske":12272,"aus":12273,"krom":12274,"grønt":12275,"vladimir":12276,"fortjenst":12277,"kvinnene":12278,"##isser":12279,"auk":12280,"forslaget":12281,"utgava":12282,"referere":12283,"figuren":12284,"##sala":12285,"francois":12286,"techn":12287,"vancouver":12288,"walt":12289,"philipp":12290,"valerenga":12291,"fulle":12292,"cæ":12293,"hamil":12294,"beskrive":12295,"bilete":12296,"negative":12297,"##stone":12298,"imm":12299,"##høyde":12300,"utarbeidet":12301,"handverk":12302,"##romer":12303,"kriger":12304,"opphavlege":12305,"innsjøer":12306,"motsatte":12307,"alpane":12308,"arsproduksjon":12309,"##major":12310,"sjangeren":12311,"medier":12312,"rekonstru":12313,"european":12314,"german":12315,"petroleum":12316,"lunde":12317,"##avik":12318,"##ops":12319,"##ialet":12320,"ferg":12321,"hypo":12322,"##yeong":12323,"malerier":12324,"etterretning":12325,"##smiljø":12326,"seri":12327,"shakes":12328,"##handlingen":12329,"instrumenter":12330,"bei":12331,"korresp":12332,"bunnen":12333,"ff":12334,"wik":12335,"##mende":12336,"##middel":12337,"##nett":12338,"orchest":12339,"konseptet":12340,"##zar":12341,"##rip":12342,"stemte":12343,"sjetteplass":12344,"font":12345,"##utz":12346,"brussel":12347,"gammar":12348,"aftenposten":12349,"sosialistisk":12350,"identifisert":12351,"jimmy":12352,"stikk":12353,"innom":12354,"##svøm":12355,"##ianus":12356,"historiker":12357,"hongkong":12358,"##verv":12359,"boh":12360,"tanken":12361,"pyram":12362,"##iplin":12363,"temp":12364,"##ikaren":12365,"##apest":12366,"##setninger":12367,"metro":12368,"dynasti":12369,"tredjedel":12370,"dick":12371,"##ubert":12372,"gregor":12373,"soul":12374,"1839":12375,"ungdomsskole":12376,"##ammer":12377,"skru":12378,"biskopen":12379,"utforming":12380,"##asj":12381,"##boka":12382,"handballspiller":12383,"manag":12384,"##vinne":12385,"##ulere":12386,"##verdi":12387,"himmelen":12388,"benjamin":12389,"##enburg":12390,"historier":12391,"ammun":12392,"pileg":12393,"hak":12394,"sop":12395,"##sform":12396,"##zzo":12397,"datamask":12398,"##rater":12399,"shakespe":12400,"##itre":12401,"inngang":12402,"##delser":12403,"syner":12404,"##kov":12405,"omhandler":12406,"variere":12407,"snorre":12408,"christensen":12409,"varierende":12410,"##ulerte":12411,"##savis":12412,"tropisk":12413,"abu":12414,"##burn":12415,"clark":12416,"henta":12417,"##lis":12418,"##imar":12419,"fremover":12420,"104":12421,"##stog":12422,"utbygd":12423,"vannkraft":12424,"operasjoner":12425,"elektrom":12426,"##sun":12427,"##rium":12428,"cher":12429,"kamera":12430,"1853":12431,"distribu":12432,"##bater":12433,"blatt":12434,"komedie":12435,"regional":12436,"forstaelse":12437,"nidaros":12438,"##uka":12439,"handelen":12440,"dirigent":12441,"halvor":12442,"grunnlegger":12443,"karakteristiske":12444,"tunis":12445,"cub":12446,"cab":12447,"##kat":12448,"overord":12449,"1838":12450,"##hog":12451,"lyset":12452,"bekym":12453,"conc":12454,"##feksjon":12455,"arhundret":12456,"enke":12457,"##usj":12458,"##ifik":12459,"infrastruktur":12460,"##ulasjon":12461,"vitne":12462,"castle":12463,"forsking":12464,"##ylland":12465,"presley":12466,"silke":12467,"gwh":12468,"##iserende":12469,"utgivelse":12470,"hills":12471,"cecil":12472,"##sang":12473,"maskiner":12474,"mitt":12475,"xian":12476,"##jol":12477,"##rerte":12478,"nevnte":12479,"##løytnant":12480,"##ер":12481,"##edde":12482,"para":12483,"poet":12484,"dukker":12485,"##sselskapet":12486,"##rol":12487,"berl":12488,"legg":12489,"fjellom":12490,"nøkkel":12491,"bonn":12492,"iver":12493,"##hast":12494,"inntrykk":12495,"##rikes":12496,"forventet":12497,"saret":12498,"blomstr":12499,"sammenhengende":12500,"vegetasjon":12501,"varare":12502,"hawa":12503,"tekstene":12504,"ose":12505,"##yang":12506,"##mask":12507,"narkot":12508,"beskyttet":12509,"virkeligheten":12510,"##onne":12511,"game":12512,"present":12513,"##marka":12514,"kretsen":12515,"##selen":12516,"tenkt":12517,"mekaniske":12518,"##buss":12519,"sinn":12520,"gent":12521,"##artet":12522,"##bec":12523,"pac":12524,"##slov":12525,"handlet":12526,"nelson":12527,"cos":12528,"more":12529,"##vak":12530,"liby":12531,"rasen":12532,"væske":12533,"##verker":12534,"gat":12535,"##iget":12536,"koloni":12537,"strømmen":12538,"nordsiden":12539,"forhindre":12540,"ege":12541,"pitt":12542,"##sykl":12543,"europamesterskapet":12544,"kalenderen":12545,"radikale":12546,"##messige":12547,"variert":12548,"firenze":12549,"##bad":12550,"##temperatur":12551,"poesi":12552,"ekspert":12553,"##iew":12554,"##gow":12555,"newton":12556,"kommunistpartiet":12557,"dame":12558,"mum":12559,"##aktive":12560,"charlie":12561,"furu":12562,"jevnbrede":12563,"##ор":12564,"norway":12565,"etterlot":12566,"seksjon":12567,"gullmedalje":12568,"kronologisk":12569,"gale":12570,"wy":12571,"funksjonen":12572,"forklaring":12573,"kunsten":12574,"ledes":12575,"tilbaket":12576,"pavirkning":12577,"oppfattet":12578,"bjor":12579,"sansk":12580,"resultatene":12581,"mona":12582,"kontrollerte":12583,"bedriften":12584,"venstres":12585,"jin":12586,"skall":12587,"philip":12588,"alfabetet":12589,"marokko":12590,"##delinga":12591,"ventet":12592,"saudi":12593,"##api":12594,"holmenk":12595,"utvida":12596,"stammen":12597,"karakteristisk":12598,"frogner":12599,"uppsala":12600,"gjester":12601,"studiene":12602,"them":12603,"innholdet":12604,"03":12605,"cop":12606,"##spe":12607,"louise":12608,"borgere":12609,"##log":12610,"##itære":12611,"axel":12612,"invaderte":12613,"tos":12614,"werg":12615,"avanserte":12616,"myster":12617,"samlinger":12618,"assosiert":12619,"befolknings":12620,"regulering":12621,"hamilton":12622,"plut":12623,"periferie":12624,"bond":12625,"##vogn":12626,"##deri":12627,"##legging":12628,"torv":12629,"tilfred":12630,"hunnene":12631,"ig":12632,"orle":12633,"dyrket":12634,"brukere":12635,"grovt":12636,"call":12637,"##vor":12638,"konson":12639,"bulgarsk":12640,"landmalingar":12641,"##utgiv":12642,"døtre":12643,"vokst":12644,"##flukt":12645,"##egn":12646,"konver":12647,"kjernen":12648,"helikopter":12649,"hod":12650,"borgen":12651,"banken":12652,"kjemi":12653,"balkan":12654,"pink":12655,"løsning":12656,"claud":12657,"##iformes":12658,"##pterte":12659,"motorer":12660,"sunnmøre":12661,"##gh":12662,"##ested":12663,"liggende":12664,"persiske":12665,"tendens":12666,"austlege":12667,"etiopia":12668,"benn":12669,"##stjerne":12670,"##seksamen":12671,"palmer":12672,"forstad":12673,"ult":12674,"##intend":12675,"vanskelige":12676,"nebb":12677,"minoritet":12678,"urban":12679,"##eringen":12680,"vek":12681,"alternative":12682,"brant":12683,"betra":12684,"biologisk":12685,"hjert":12686,"keisar":12687,"moske":12688,"invitert":12689,"rudolf":12690,"tat":12691,"høv":12692,"episoden":12693,"##hagen":12694,"##elast":12695,"foreløp":12696,"##født":12697,"sirkel":12698,"verka":12699,"teatret":12700,"stykker":12701,"latvia":12702,"wergeland":12703,"krum":12704,"nym":12705,"uteksam":12706,"gjennomsnittlig":12707,"mold":12708,"##yper":12709,"first":12710,"1821":12711,"dyktig":12712,"bosnia":12713,"hør":12714,"##rine":12715,"##sløper":12716,"cell":12717,"##æle":12718,"snitt":12719,"antarktiske":12720,"tsjekkisk":12721,"sone":12722,"paverka":12723,"##bruck":12724,"hof":12725,"##shøy":12726,"biblioteket":12727,"antenner":12728,"hes":12729,"flyv":12730,"arrangement":12731,"vang":12732,"##eper":12733,"##bille":12734,"teorier":12735,"##etere":12736,"levet":12737,"##sfjell":12738,"##tsj":12739,"##omel":12740,"opptre":12741,"bebo":12742,"chart":12743,"søraf":12744,"folkeavstem":12745,"avvist":12746,"146":12747,"##div":12748,"likte":12749,"punk":12750,"##ografiske":12751,"halvøy":12752,"frances":12753,"tommy":12754,"normandie":12755,"sørafrik":12756,"##neset":12757,"viii":12758,"##settelse":12759,"zu":12760,"##direktør":12761,"reisen":12762,"blokker":12763,"mista":12764,"jordens":12765,"bjar":12766,"krone":12767,"##vator":12768,"soft":12769,"gerhard":12770,"folkeparti":12771,"##17":12772,"monro":12773,"jury":12774,"##fc":12775,"krigens":12776,"02":12777,"mix":12778,"##amb":12779,"117":12780,"stalin":12781,"patrick":12782,"hms":12783,"trekker":12784,"krem":12785,"pent":12786,"##skirken":12787,"tildeles":12788,"this":12789,"belgisk":12790,"bratte":12791,"sanskrit":12792,"##skysten":12793,"##motor":12794,"innspilling":12795,"##meter":12796,"##dad":12797,"##itus":12798,"grunne":12799,"hockey":12800,"ansa":12801,"beting":12802,"illustrasjon":12803,"##alter":12804,"innov":12805,"antik":12806,"##grensen":12807,"##osa":12808,"##urnering":12809,"mektige":12810,"aren":12811,"orleans":12812,"##ution":12813,"revol":12814,"forsøkshe":12815,"##ikert":12816,"vektor":12817,"dc":12818,"tres":12819,"##bjør":12820,"##iard":12821,"touren":12822,"##uda":12823,"lade":12824,"##sgiver":12825,"krystall":12826,"yu":12827,"##ivind":12828,"##brutt":12829,"laus":12830,"vellykket":12831,"skjøt":12832,"rum":12833,"##irat":12834,"##line":12835,"##lings":12836,"samanheng":12837,"##hjelp":12838,"126":12839,"klassifisert":12840,"1836":12841,"statsministeren":12842,"kjøpes":12843,"selvstendighet":12844,"##sin":12845,"##kob":12846,"tidlege":12847,"familiens":12848,"##15":12849,"instituttet":12850,"hindu":12851,"ringerike":12852,"##low":12853,"forstør":12854,"##amentet":12855,"snakke":12856,"sogneprest":12857,"mika":12858,"beholde":12859,"##bey":12860,"moon":12861,"antikke":12862,"veksel":12863,"forlenget":12864,"stjørdal":12865,"action":12866,"ruta":12867,"engasjerte":12868,"##lu":12869,"##ussland":12870,"øyen":12871,"mandag":12872,"savel":12873,"sever":12874,"navngitt":12875,"kilo":12876,"gitaristen":12877,"bevare":12878,"homof":12879,"##zan":12880,"##ifest":12881,"kompan":12882,"budapest":12883,"kunstig":12884,"betydninger":12885,"nicola":12886,"helgeland":12887,"##rane":12888,"##ffa":12889,"synet":12890,"kjører":12891,"vinden":12892,"vapenet":12893,"sykehuset":12894,"uklart":12895,"valen":12896,"mario":12897,"beng":12898,"rekt":12899,"byrd":12900,"stro":12901,"loj":12902,"armenia":12903,"gult":12904,"hipp":12905,"##jerte":12906,"interiør":12907,"102":12908,"stoffet":12909,"turnerte":12910,"eiendommer":12911,"##plater":12912,"##atsen":12913,"vanskeleg":12914,"kullkraftverk":12915,"rockebandet":12916,"daglige":12917,"punktert":12918,"menneskene":12919,"tegneserie":12920,"stur":12921,"##cle":12922,"energien":12923,"utdød":12924,"henger":12925,"have":12926,"lokalpolit":12927,"kad":12928,"##witz":12929,"##stor":12930,"death":12931,"##alls":12932,"nordsamisk":12933,"##start":12934,"domstol":12935,"rovdyr":12936,"##ен":12937,"fremskritt":12938,"plateselskap":12939,"##vapenet":12940,"##isont":12941,"venet":12942,"illin":12943,"ringen":12944,"ektef":12945,"##oman":12946,"trent":12947,"konsesjon":12948,"røk":12949,"##zj":12950,"kurd":12951,"sprang":12952,"sivilis":12953,"systematikken":12954,"hjerne":12955,"siger":12956,"slovenia":12957,"skra":12958,"politim":12959,"gem":12960,"uken":12961,"vedlikehold":12962,"ressurser":12963,"vad":12964,"##seng":12965,"enno":12966,"europave":12967,"umulig":12968,"forkast":12969,"deutsch":12970,"##veggen":12971,"menneskelig":12972,"##fab":12973,"##gget":12974,"##smet":12975,"kongepok":12976,"forløper":12977,"hunde":12978,"treet":12979,"dekkjer":12980,"bataljon":12981,"##uste":12982,"holland":12983,"holstein":12984,"bakkropp":12985,"##kjøring":12986,"gig":12987,"##inden":12988,"fremtredende":12989,"drø":12990,"hovudstad":12991,"blader":12992,"##ulering":12993,"##onder":12994,"##avene":12995,"betalte":12996,"ødelegg":12997,"katt":12998,"bestand":12999,"virkelige":13000,"##slekene":13001,"tilfeldig":13002,"##edon":13003,"minnesota":13004,"amundsen":13005,"originaltittel":13006,"orchestra":13007,"illinois":13008,"forplikt":13009,"bridge":13010,"arbeidere":13011,"karibiske":13012,"striden":13013,"utvand":13014,"only":13015,"passet":13016,"##how":13017,"drar":13018,"lavt":13019,"1847":13020,"industrien":13021,"ordførar":13022,"##more":13023,"##idig":13024,"besøker":13025,"flekk":13026,"##herre":13027,"munch":13028,"sale":13029,"##bek":13030,"136":13031,"##elandslag":13032,"jacques":13033,"omstridt":13034,"nyare":13035,"nyopp":13036,"stanley":13037,"dresden":13038,"utløpet":13039,"##behandling":13040,"bomb":13041,"psykologi":13042,"##vidde":13043,"buen":13044,"gæl":13045,"korps":13046,"gum":13047,"##lagg":13048,"##kretsen":13049,"##mouth":13050,"aksepterte":13051,"##kers":13052,"anerkjennelse":13053,"##antik":13054,"##svin":13055,"144":13056,"vokse":13057,"hjelper":13058,"sophie":13059,"cit":13060,"cant":13061,"##idet":13062,"innhald":13063,"verdif":13064,"utstillinger":13065,"austerrik":13066,"spellemannprisen":13067,"fetter":13068,"wag":13069,"##erek":13070,"kari":13071,"statistisk":13072,"##vendt":13073,"edin":13074,"gifta":13075,"##skilte":13076,"oliv":13077,"ekspans":13078,"##vileg":13079,"kongsvinger":13080,"nunatak":13081,"perspekt":13082,"dokumentert":13083,"kollap":13084,"vararepresentant":13085,"mørkt":13086,"risiko":13087,"babylon":13088,"brigade":13089,"ges":13090,"##srad":13091,"underholdning":13092,"kunngjorde":13093,"sykdommer":13094,"##aft":13095,"##dis":13096,"pause":13097,"util":13098,"##ynast":13099,"theatre":13100,"jung":13101,"aspekt":13102,"gater":13103,"endres":13104,"inger":13105,"bakvingen":13106,"##base":13107,"mastergrad":13108,"senator":13109,"ordene":13110,"produsenten":13111,"hoppet":13112,"strenge":13113,"bidraget":13114,"##anene":13115,"##gener":13116,"universiteter":13117,"forbryt":13118,"##offis":13119,"tennes":13120,"anledninger":13121,"pc":13122,"talte":13123,"bokser":13124,"restaurant":13125,"gos":13126,"mist":13127,"astero":13128,"skr":13129,"##ians":13130,"negativ":13131,"harstad":13132,"##ningane":13133,"lengdehopp":13134,"etnisk":13135,"symfoni":13136,"tette":13137,"##arina":13138,"ande":13139,"##rukket":13140,"drapet":13141,"kvinnelig":13142,"opplysninger":13143,"personlighet":13144,"hemmelige":13145,"kjøretøy":13146,"latinsk":13147,"akseptert":13148,"##amfunn":13149,"reduserte":13150,"ibn":13151,"##dannelse":13152,"smelte":13153,"agent":13154,"##skiold":13155,"cæsar":13156,"hip":13157,"##hord":13158,"støv":13159,"see":13160,"tempo":13161,"palasset":13162,"##sum":13163,"##røret":13164,"asteroide":13165,"jupiter":13166,"heder":13167,"must":13168,"##edien":13169,"beh":13170,"##phia":13171,"vesten":13172,"maling":13173,"##velt":13174,"##menne":13175,"sørøstlige":13176,"##kun":13177,"planeten":13178,"strategisk":13179,"##mass":13180,"##hed":13181,"##iao":13182,"prince":13183,"kategorien":13184,"zurich":13185,"angivelig":13186,"sammenhenger":13187,"besitt":13188,"##strekning":13189,"##afor":13190,"##cons":13191,"behovet":13192,"administrasjonssenter":13193,"tippelig":13194,"seire":13195,"referert":13196,"##uller":13197,"bush":13198,"boliger":13199,"judoka":13200,"450":13201,"inntekter":13202,"filmp":13203,"kapellet":13204,"svenskene":13205,"what":13206,"objekter":13207,"leie":13208,"gullmedaljer":13209,"galt":13210,"##bind":13211,"singell":13212,"1844":13213,"keiserlige":13214,"materialer":13215,"kum":13216,"fylker":13217,"##kors":13218,"verktøy":13219,"norgesmester":13220,"1841":13221,"tillit":13222,"mørkere":13223,"##sforhold":13224,"bysantinske":13225,"##zel":13226,"framst":13227,"bukt":13228,"1846":13229,"toget":13230,"ulykken":13231,"nobelprisen":13232,"107":13233,"##sbane":13234,"motta":13235,"jet":13236,"løst":13237,"##steinen":13238,"langdist":13239,"persia":13240,"mozart":13241,"##rist":13242,"##ione":13243,"betegner":13244,"dreier":13245,"pius":13246,"##brukar":13247,"karen":13248,"kaste":13249,"serbisk":13250,"univer":13251,"schm":13252,"slovak":13253,"protot":13254,"uteksaminert":13255,"dall":13256,"grep":13257,"talt":13258,"plattform":13259,"##splassen":13260,"torped":13261,"##aer":13262,"##isped":13263,"ekstremt":13264,"vib":13265,"##steins":13266,"runden":13267,"korru":13268,"##raten":13269,"##skriften":13270,"adams":13271,"ian":13272,"pga":13273,"tilsett":13274,"grant":13275,"rhinen":13276,"markerer":13277,"bug":13278,"cav":13279,"emer":13280,"##polen":13281,"utnytter":13282,"##æp":13283,"madaga":13284,"omset":13285,"demografi":13286,"riksveg":13287,"forfatterskap":13288,"butikker":13289,"##befolkningen":13290,"##cket":13291,"betegnet":13292,"rapporter":13293,"menneskelige":13294,"##asia":13295,"atak":13296,"svømme":13297,"feiret":13298,"raskere":13299,"etapp":13300,"oppvokst":13301,"tvilling":13302,"##bygda":13303,"mine":13304,"omgrepet":13305,"micros":13306,"das":13307,"leif":13308,"demning":13309,"orkn":13310,"hente":13311,"113":13312,"fvt":13313,"avviste":13314,"103":13315,"naturgass":13316,"tegl":13317,"sparta":13318,"##tekst":13319,"oppstatt":13320,"helle":13321,"utsk":13322,"found":13323,"vatikan":13324,"frankrikes":13325,"patriark":13326,"##rande":13327,"menigheten":13328,"##cho":13329,"##heimen":13330,"framstilt":13331,"prega":13332,"tynn":13333,"verste":13334,"##sher":13335,"positivt":13336,"##rick":13337,"##neren":13338,"partis":13339,"bølge":13340,"rick":13341,"##uks":13342,"metod":13343,"carlos":13344,"henrett":13345,"##harmon":13346,"##eli":13347,"høgde":13348,"hertugdømmet":13349,"did":13350,"kare":13351,"stiller":13352,"theodor":13353,"kildene":13354,"operaen":13355,"stemmerett":13356,"diamond":13357,"collins":13358,"##nda":13359,"##apo":13360,"132":13361,"ida":13362,"##sver":13363,"alice":13364,"solberg":13365,"søker":13366,"discover":13367,"##svirksomhet":13368,"pia":13369,"akademiet":13370,"hittil":13371,"svend":13372,"sche":13373,"kvalifiserings":13374,"møller":13375,"fristil":13376,"ming":13377,"##hert":13378,"utle":13379,"charlot":13380,"periferieininga":13381,"##utstyr":13382,"dance":13383,"##limer":13384,"philadel":13385,"##him":13386,"##avis":13387,"hvile":13388,"beliggen":13389,"##usk":13390,"tilbød":13391,"oppfinn":13392,"expedition":13393,"tus":13394,"kode":13395,"##bilde":13396,"forhandlinger":13397,"hyppig":13398,"uoffis":13399,"##adene":13400,"##iba":13401,"vassdraget":13402,"isolert":13403,"malaysia":13404,"microsoft":13405,"##sig":13406,"##13":13407,"##arme":13408,"##rekning":13409,"##univers":13410,"##stadion":13411,"omfatta":13412,"forklare":13413,"arnold":13414,"øydelag":13415,"sendes":13416,"##habil":13417,"hønefoss":13418,"m³":13419,"landkreis":13420,"ammunisjon":13421,"##yle":13422,"##rimin":13423,"##umann":13424,"oppdatert":13425,"serierunde":13426,"gress":13427,"1843":13428,"stortingsmann":13429,"beveger":13430,"server":13431,"svekket":13432,"glasgow":13433,"hager":13434,"##onte":13435,"røros":13436,"##fossen":13437,"eksistens":13438,"ens":13439,"##ami":13440,"meiner":13441,"kongene":13442,"coast":13443,"produseres":13444,"singap":13445,"taiwan":13446,"##dra":13447,"depres":13448,"bj":13449,"oversetter":13450,"antikkens":13451,"vestlig":13452,"turbiner":13453,"koln":13454,"fuglar":13455,"##stal":13456,"opprykk":13457,"1818":13458,"innflytelses":13459,"piet":13460,"falle":13461,"varaordfører":13462,"##ingsf":13463,"139":13464,"buff":13465,"ix":13466,"midd":13467,"co2":13468,"teateret":13469,"canadiske":13470,"folkeset":13471,"konsernet":13472,"skif":13473,"##strene":13474,"bevegelser":13475,"##itas":13476,"##attes":13477,"palestina":13478,"begiven":13479,"sosialt":13480,"##vari":13481,"##penden":13482,"generalmajor":13483,"oppvarming":13484,"sert":13485,"regelmessig":13486,"trase":13487,"slesvig":13488,"morgenen":13489,"presenterte":13490,"emner":13491,"kunstnerisk":13492,"##sseremonien":13493,"warszawa":13494,"bapt":13495,"##celler":13496,"solid":13497,"kosm":13498,"pistol":13499,"absolutt":13500,"##egang":13501,"##admin":13502,"allen":13503,"felttoget":13504,"morg":13505,"økning":13506,"shan":13507,"forretningsmann":13508,"##kelen":13509,"##otisk":13510,"oppm":13511,"fritz":13512,"usikkert":13513,"tryg":13514,"overlevende":13515,"posten":13516,"horisont":13517,"beleiringen":13518,"omtalte":13519,"raude":13520,"afro":13521,"##kvensen":13522,"emigr":13523,"gullbas":13524,"antrop":13525,"tapet":13526,"sudan":13527,"mg":13528,"biologiske":13529,"effektivt":13530,"hendelsene":13531,"##organisasjoner":13532,"##ssystemet":13533,"eksistert":13534,"vinge":13535,"##ommer":13536,"nybygg":13537,"anthony":13538,"##kking":13539,"##bransjen":13540,"##formasjon":13541,"##veland":13542,"kommandant":13543,"busetnad":13544,"splitt":13545,"hob":13546,"mellomtiden":13547,"kommunar":13548,"herfra":13549,"kaukas":13550,"oblig":13551,"asa":13552,"##eles":13553,"michigan":13554,"isteden":13555,"mandat":13556,"kompetanse":13557,"##cion":13558,"##skaps":13559,"ulikt":13560,"ragnar":13561,"##kjem":13562,"deep":13563,"høyest":13564,"brukast":13565,"flora":13566,"forbinder":13567,"regjerende":13568,"doktor":13569,"drivstoff":13570,"sug":13571,"ødela":13572,"moderat":13573,"##korps":13574,"hotellet":13575,"rapporterte":13576,"sau":13577,"kjeld":13578,"116":13579,"##house":13580,"##smedal":13581,"garn":13582,"nordvestlige":13583,"dramatisk":13584,"borgerkrig":13585,"lunge":13586,"utbruddet":13587,"etasjer":13588,"kansas":13589,"##hausen":13590,"kjønns":13591,"føres":13592,"planla":13593,"konflikter":13594,"ik":13595,"##fol":13596,"##bab":13597,"##stykket":13598,"avgjer":13599,"chi":13600,"neil":13601,"##ible":13602,"islandske":13603,"erobre":13604,"foretok":13605,"fronten":13606,"jordskjelv":13607,"##kost":13608,"hals":13609,"havner":13610,"spreng":13611,"pilot":13612,"cry":13613,"##bler":13614,"stjernen":13615,"sank":13616,"commun":13617,"arsenal":13618,"charlotte":13619,"rele":13620,"absor":13621,"forklar":13622,"princ":13623,"##entral":13624,"bemerket":13625,"autoritet":13626,"elef":13627,"##sse":13628,"##relse":13629,"gudbrand":13630,"demokrati":13631,"alpene":13632,"kenya":13633,"digitale":13634,"bolivia":13635,"møn":13636,"kjeller":13637,"basil":13638,"vektlø":13639,"kommandoen":13640,"philadelphia":13641,"ess":13642,"jos":13643,"heiter":13644,"varianten":13645,"sosialistiske":13646,"baby":13647,"##shuset":13648,"grimstad":13649,"sammenslaing":13650,"madagaskar":13651,"##æra":13652,"branden":13653,"øyar":13654,"124":13655,"fylkene":13656,"fiender":13657,"budsjett":13658,"utnemnd":13659,"forurens":13660,"##kommunen":13661,"##lærer":13662,"norweg":13663,"svakt":13664,"steen":13665,"prosesser":13666,"innløpet":13667,"holoc":13668,"halvdelen":13669,"kreert":13670,"matematisk":13671,"##sdagen":13672,"##byr":13673,"##ла":13674,"steinkjer":13675,"##bei":13676,"ekvator":13677,"folketalet":13678,"ltd":13679,"billedkunst":13680,"overraskende":13681,"##brev":13682,"##wen":13683,"anner":13684,"kommisjonen":13685,"roer":13686,"##lekse":13687,"revisjon":13688,"chrysomel":13689,"##any":13690,"##trær":13691,"greiner":13692,"kjenn":13693,"naturvitenskap":13694,"##bergen":13695,"knytte":13696,"##bakke":13697,"##orax":13698,"##fiske":13699,"hunt":13700,"venezuela":13701,"asen":13702,"avgrensa":13703,"##iksjon":13704,"flyktninger":13705,"beit":13706,"partik":13707,"floyd":13708,"kasakhstan":13709,"efter":13710,"##rence":13711,"##versjonen":13712,"skyting":13713,"##ume":13714,"underveis":13715,"betaling":13716,"islandsk":13717,"kass":13718,"##raks":13719,"##etty":13720,"akter":13721,"##lines":13722,"##hjør":13723,"##stral":13724,"##bers":13725,"##lema":13726,"protestantiske":13727,"trommeslager":13728,"kollektiv":13729,"hjorte":13730,"mjø":13731,"sikt":13732,"geist":13733,"scener":13734,"substant":13735,"omsorg":13736,"cel":13737,"moore":13738,"jerry":13739,"##splan":13740,"seld":13741,"folkets":13742,"##rasjonen":13743,"lederne":13744,"centimeter":13745,"satellitt":13746,"##ograd":13747,"betalt":13748,"112":13749,"##owns":13750,"pluts":13751,"hermann":13752,"##ukta":13753,"militæret":13754,"arrangementet":13755,"regne":13756,"##sfolk":13757,"##været":13758,"avgang":13759,"morf":13760,"centre":13761,"regjeringens":13762,"apple":13763,"innbyggertall":13764,"verdensrekord":13765,"##sstyr":13766,"semifinale":13767,"koalisjon":13768,"iber":13769,"##ilget":13770,"##oken":13771,"olden":13772,"assister":13773,"tanz":13774,"misjonær":13775,"arrangementer":13776,"teller":13777,"##hatt":13778,"tiende":13779,"yrke":13780,"nødvendigvis":13781,"##kjempe":13782,"plutselig":13783,"ronn":13784,"##ilitet":13785,"##sperson":13786,"fortelling":13787,"gordon":13788,"fut":13789,"klem":13790,"##bels":13791,"##ree":13792,"utlend":13793,"sammensatt":13794,"roten":13795,"kontrollert":13796,"bibl":13797,"gunst":13798,"##uert":13799,"leger":13800,"eag":13801,"##round":13802,"oppholdt":13803,"##ograph":13804,"tortur":13805,"samlede":13806,"##føder":13807,"##skjoldet":13808,"germanske":13809,"serge":13810,"##samfunn":13811,"turneringer":13812,"##kulturen":13813,"##etak":13814,"søk":13815,"age":13816,"##omrada":13817,"stones":13818,"innk":13819,"bringe":13820,"senket":13821,"befant":13822,"valle":13823,"##basert":13824,"bonus":13825,"sykeple":13826,"oppsta":13827,"synge":13828,"bokstaven":13829,"yang":13830,"##erob":13831,"ensemb":13832,"detro":13833,"sektor":13834,"123":13835,"imperiet":13836,"##hon":13837,"selvbi":13838,"##hengen":13839,"quarter":13840,"##historiske":13841,"administrasjonen":13842,"ørn":13843,"##light":13844,"banks":13845,"virkning":13846,"tilnavnet":13847,"kontinuerlig":13848,"edinburgh":13849,"samarbeide":13850,"persisk":13851,"##gru":13852,"##orium":13853,"##cept":13854,"evig":13855,"pum":13856,"##leiar":13857,"143":13858,"##plant":13859,"stasjonert":13860,"eksplos":13861,"oppløsning":13862,"haugen":13863,"##brid":13864,"vap":13865,"oppsl":13866,"inngangen":13867,"europavei":13868,"##ungen":13869,"leik":13870,"natural":13871,"kjøkken":13872,"##ayer":13873,"opererer":13874,"spelet":13875,"mane":13876,"blank":13877,"munk":13878,"alexandria":13879,"##agasinet":13880,"hi":13881,"stutt":13882,"skro":13883,"##ners":13884,"rittet":13885,"forlet":13886,"##oker":13887,"klø":13888,"politikere":13889,"##sklubben":13890,"za":13891,"##dorf":13892,"##egra":13893,"drøm":13894,"1833":13895,"faktum":13896,"brakte":13897,"støtta":13898,"trondhjems":13899,"spenn":13900,"rundene":13901,"baseball":13902,"ion":13903,"overlever":13904,"nordøstlige":13905,"kennedy":13906,"hinder":13907,"kiev":13908,"##revolusjonen":13909,"attent":13910,"skolens":13911,"cappelen":13912,"##utepunkt":13913,"embets":13914,"annerledes":13915,"##staten":13916,"##rets":13917,"##aterte":13918,"farget":13919,"eriksen":13920,"##skrev":13921,"buck":13922,"motstandere":13923,"##produksjonen":13924,"hekke":13925,"##ringene":13926,"folkegrupp":13927,"spraka":13928,"opprettholde":13929,"konsertar":13930,"instrumental":13931,"demokratisk":13932,"hesten":13933,"hanner":13934,"##ulen":13935,"kreves":13936,"oldtidens":13937,"estimert":13938,"##inett":13939,"##raksjon":13940,"leopold":13941,"sz":13942,"##ads":13943,"ytterst":13944,"mengden":13945,"krepsdyr":13946,"avdekket":13947,"child":13948,"kontrast":13949,"sprakene":13950,"praktiske":13951,"##ogram":13952,"kontorer":13953,"krok":13954,"neset":13955,"git":13956,"##valt":13957,"##hre":13958,"##mektig":13959,"angriper":13960,"##ights":13961,"kontrollere":13962,"mongolia":13963,"ukjente":13964,"videosp":13965,"abo":13966,"##uge":13967,"##øys":13968,"##ugene":13969,"kung":13970,"virt":13971,"inspirerte":13972,"herc":13973,"betraktes":13974,"##14":13975,"##ammen":13976,"dion":13977,"nintend":13978,"utpe":13979,"##onto":13980,"tennessee":13981,"even":13982,"##stu":13983,"##rogen":13984,"protok":13985,"litteraturen":13986,"overvintr":13987,"discovery":13988,"cook":13989,"##rakk":13990,"##styrke":13991,"komponerte":13992,"##ressur":13993,"finansiert":13994,"mobilt":13995,"aserbajdsjan":13996,"aga":13997,"veld":13998,"##ople":13999,"misfor":14000,"##pur":14001,"tiltre":14002,"prø":14003,"antiok":14004,"122":14005,"mut":14006,"innover":14007,"sorte":14008,"##ned":14009,"##irus":14010,"rakk":14011,"komplekse":14012,"##sve":14013,"##legger":14014,"bokmal":14015,"utvide":14016,"vingen":14017,"velstaende":14018,"sylinder":14019,"##faktor":14020,"skjult":14021,"bernard":14022,"konsentrasjonsleir":14023,"special":14024,"kem":14025,"mere":14026,"##reise":14027,"pater":14028,"##kontrakt":14029,"underarter":14030,"##indret":14031,"fienden":14032,"hypote":14033,"##rings":14034,"innkjø":14035,"##illo":14036,"##ffel":14037,"##analy":14038,"##drevet":14039,"##øyde":14040,"innsbruck":14041,"regjeringstid":14042,"##appa":14043,"sunde":14044,"##baten":14045,"##ws":14046,"##ero":14047,"##uls":14048,"undertegnet":14049,"##uga":14050,"fjorten":14051,"here":14052,"##sveien":14053,"ferdigstilt":14054,"lakse":14055,"resterende":14056,"##unge":14057,"utbyggingen":14058,"arvet":14059,"##castle":14060,"bundes":14061,"swe":14062,"##æn":14063,"uttal":14064,"romerriket":14065,"dn":14066,"tav":14067,"##sverk":14068,"##pi":14069,"##gjøre":14070,"##ар":14071,"##anses":14072,"følgde":14073,"hytte":14074,"yorks":14075,"pafallende":14076,"enklere":14077,"##sstasjon":14078,"presidentvalget":14079,"vakte":14080,"yn":14081,"rehabil":14082,"thur":14083,"integrert":14084,"mant":14085,"brønn":14086,"whit":14087,"lofoten":14088,"##cz":14089,"anatolia":14090,"hugo":14091,"##mand":14092,"minor":14093,"dronningen":14094,"bernt":14095,"forg":14096,"##agon":14097,"gamal":14098,"##skalk":14099,"mjøl":14100,"##tran":14101,"forskjeller":14102,"beskyl":14103,"tyngde":14104,"vesen":14105,"eie":14106,"kommende":14107,"final":14108,"garant":14109,"114":14110,"137":14111,"sandvik":14112,"brunlige":14113,"##fangst":14114,"finansminister":14115,"evolusjon":14116,"##ouri":14117,"dominerte":14118,"øde":14119,"tydelige":14120,"##oldater":14121,"##stjenesten":14122,"optim":14123,"rugby":14124,"moll":14125,"marknad":14126,"##sbo":14127,"landsbyer":14128,"korrekt":14129,"selvstendige":14130,"fett":14131,"konkret":14132,"steinen":14133,"forfølg":14134,"##rise":14135,"altert":14136,"mississ":14137,"tverrband":14138,"ecu":14139,"benedikt":14140,"ikon":14141,"britannia":14142,"hjort":14143,"##banks":14144,"##arate":14145,"kriter":14146,"electric":14147,"dialog":14148,"chrysomelidae":14149,"space":14150,"1832":14151,"campbell":14152,"##kilometer":14153,"bensin":14154,"bredden":14155,"makedon":14156,"brenne":14157,"geneve":14158,"##artene":14159,"landsm":14160,"bou":14161,"linjene":14162,"fyret":14163,"1812":14164,"acan":14165,"mitch":14166,"##sperioden":14167,"adelen":14168,"avla":14169,"høyres":14170,"urbane":14171,"levanger":14172,"pus":14173,"transk":14174,"##smiddel":14175,"fellesskap":14176,"oppdraget":14177,"rakett":14178,"detroit":14179,"##gam":14180,"hjemmet":14181,"##amaskin":14182,"pastor":14183,"mississipp":14184,"døpt":14185,"celler":14186,"omdan":14187,"moham":14188,"##ils":14189,"##alth":14190,"typar":14191,"halling":14192,"tilgjengelige":14193,"varmt":14194,"dov":14195,"tell":14196,"##ии":14197,"metallisk":14198,"##utsche":14199,"##jøres":14200,"minnet":14201,"løslatt":14202,"lukket":14203,"akademi":14204,"##stendige":14205,"elektromagnet":14206,"##etre":14207,"##allian":14208,"terrenget":14209,"##kilden":14210,"burn":14211,"##jenester":14212,"fysi":14213,"botn":14214,"aggress":14215,"##fallet":14216,"##idert":14217,"dennes":14218,"utsmy":14219,"##osser":14220,"derby":14221,"langvarig":14222,"##oi":14223,"ef":14224,"##rykket":14225,"forskjellen":14226,"galile":14227,"dap":14228,"spion":14229,"airlines":14230,"opphevet":14231,"baden":14232,"##mans":14233,"seie":14234,"plikt":14235,"augustus":14236,"amfip":14237,"##uld":14238,"##ifisering":14239,"herad":14240,"skuespillere":14241,"offentliggjort":14242,"ønskte":14243,"##odi":14244,"##plata":14245,"republikanske":14246,"pyeong":14247,"##unnel":14248,"##irektoratet":14249,"rain":14250,"jenn":14251,"##skala":14252,"##sven":14253,"##ytta":14254,"##ionens":14255,"antis":14256,"braut":14257,"besetning":14258,"sørsiden":14259,"series":14260,"forsterket":14261,"marian":14262,"chen":14263,"lengd":14264,"four":14265,"hevda":14266,"dekorert":14267,"oppfordret":14268,"##gne":14269,"##sakadem":14270,"##regiss":14271,"lærere":14272,"##strakte":14273,"algerie":14274,"##rær":14275,"##roner":14276,"##ørene":14277,"dead":14278,"konsp":14279,"##ameister":14280,"##skomite":14281,"sokne":14282,"##skontrakt":14283,"acc":14284,"gjenerob":14285,"##endene":14286,"resolusjon":14287,"fritid":14288,"##arige":14289,"##ismens":14290,"barokk":14291,"formelle":14292,"kjennes":14293,"phill":14294,"##berger":14295,"daverande":14296,"stifta":14297,"malta":14298,"##uin":14299,"##xt":14300,"##oser":14301,"overvak":14302,"sopp":14303,"##turneringen":14304,"harvard":14305,"fremgang":14306,"valent":14307,"souther":14308,"enheten":14309,"lagd":14310,"shah":14311,"hjemlandet":14312,"israelsk":14313,"industrial":14314,"utanom":14315,"##vogner":14316,"skara":14317,"dale":14318,"advent":14319,"hald":14320,"singler":14321,"forvir":14322,"##entes":14323,"##klar":14324,"133":14325,"lyon":14326,"bispe":14327,"##skjær":14328,"busetnaden":14329,"revolusjonære":14330,"bore":14331,"tinn":14332,"kevin":14333,"ign":14334,"##skyt":14335,"samler":14336,"reglene":14337,"##hers":14338,"##vidt":14339,"opplysning":14340,"radhus":14341,"slektene":14342,"separate":14343,"velges":14344,"skandinaviske":14345,"##aturen":14346,"byggverket":14347,"gua":14348,"kross":14349,"1810":14350,"mountain":14351,"utnytte":14352,"##anga":14353,"mekanis":14354,"worms":14355,"boeing":14356,"fland":14357,"nordligste":14358,"grunnstoff":14359,"temaet":14360,"komplisert":14361,"stup":14362,"kvadratkilometer":14363,"##administ":14364,"wi":14365,"verna":14366,"kupp":14367,"##kirk":14368,"statene":14369,"testamen":14370,"ulovlig":14371,"##forsy":14372,"rotter":14373,"johnsen":14374,"laveste":14375,"sørvestlige":14376,"bobby":14377,"ødelegge":14378,"fangenskap":14379,"fig":14380,"regent":14381,"berge":14382,"mose":14383,"neb":14384,"mf":14385,"##teater":14386,"##planter":14387,"altertav":14388,"##falen":14389,"avfall":14390,"segl":14391,"prior":14392,"utbrudd":14393,"alliert":14394,"##aken":14395,"evner":14396,"bestemme":14397,"##areal":14398,"##tida":14399,"##organer":14400,"##strid":14401,"folketallet":14402,"##orene":14403,"ombygd":14404,"manad":14405,"herbert":14406,"voksende":14407,"metam":14408,"pavist":14409,"fjelltopp":14410,"##ums":14411,"begrunn":14412,"##issær":14413,"pels":14414,"hei":14415,"vev":14416,"kledt":14417,"deltakerne":14418,"granitt":14419,"territoriet":14420,"amazon":14421,"hawaii":14422,"pyeongchang":14423,"##ders":14424,"##boa":14425,"riksdagen":14426,"utdanna":14427,"illustrat":14428,"telegraf":14429,"hare":14430,"bly":14431,"langrennsløper":14432,"tilfredsst":14433,"loc":14434,"tower":14435,"frp":14436,"annonsert":14437,"bebyggelsen":14438,"bald":14439,"cath":14440,"##gl":14441,"kulturminne":14442,"lengden":14443,"##loven":14444,"##fond":14445,"ferge":14446,"bildene":14447,"stortingets":14448,"forandret":14449,"porsgrunn":14450,"horten":14451,"vamp":14452,"##gitar":14453,"tildel":14454,"##issa":14455,"kven":14456,"sakte":14457,"tillot":14458,"industrielle":14459,"##kreft":14460,"kostet":14461,"gustaf":14462,"sorenskriver":14463,"bio":14464,"gand":14465,"##sbet":14466,"##baner":14467,"muller":14468,"russell":14469,"##sløs":14470,"##leng":14471,"##annias":14472,"fortet":14473,"datidens":14474,"egyptisk":14475,"curt":14476,"##murer":14477,"løfte":14478,"##sfly":14479,"##staver":14480,"##farge":14481,"1808":14482,"celle":14483,"gut":14484,"##emb":14485,"bae":14486,"##uo":14487,"##stedene":14488,"versjonar":14489,
[...]
