{"version":"1.0","truncation":null,"padding":null,"added_tokens":[{"id":0,"special":true,"content":"[PAD]","single_word":false,"lstrip":false,"rstrip":false,"normalized":false},{"id":1,"special":true,"content":"[UNK]","single_word":false,"lstrip":false,"rstrip":false,"normalized":false},{"id":2,"special":true,"content":"[CLS]","single_word":false,"lstrip":false,"rstrip":false,"normalized":false},{"id":3,"special":true,"content":"[SEP]","single_word":false,"lstrip":false,"rstrip":false,"normalized":false},{"id":4,"special":true,"content":"[MASK]","single_word":false,"lstrip":false,"rstrip":false,"normalized":false}],"normalizer":{"type":"BertNormalizer","clean_text":true,"handle_chinese_chars":true,"strip_accents":null,"lowercase":true},"pre_tokenizer":{"type":"BertPreTokenizer"},"post_processor":null,"decoder":{"type":"WordPiece","prefix":"##","cleanup":true},"model":{"type":"WordPiece","unk_token":"[UNK]","continuing_subword_prefix":"##","max_input_chars_per_word":100,"vocab":{"[PAD]":0,"[UNK]":1,"[CLS]":2,"[SEP]":3,"[MASK]":4,"!":5,"\"":6,"#":7,"$":8,"%":9,"&":10,"'":11,"(":12,")":13,"*":14,"+":15,",":16,"-":17,".":18,"/":19,"0":20,"1":21,"2":22,"3":23,"4":24,"5":25,"6":26,"7":27,"8":28,"9":29,":":30,";":31,"<":32,"=":33,">":34,"?":35,"@":36,"[":37,"\\":38,"]":39,"^":40,"_":41,"`":42,"a":43,"b":44,"c":45,"d":46,"e":47,"f":48,"g":49,"h":50,"i":51,"j":52,"k":53,"l":54,"m":55,"n":56,"o":57,"p":58,"q":59,"r":60,"s":61,"t":62,"u":63,"v":64,"w":65,"x":66,"y":67,"z":68,"{":69,"|":70,"}":71,"~":72,"¡":73,"¢":74,"£":75,"¤":76,"¥":77,"¦":78,"§":79,"¨":80,"©":81,"«":82,"¬":83,"®":84,"¯":85,"°":86,"±":87,"²":88,"³":89,"´":90,"µ":91,"¶":92,"·":93,"¸":94,"¹":95,"º":96,"»":97,"¼":98,"½":99,"¾":100,"¿":101,"×":102,"ß":103,"æ":104,"ð":105,"÷":106,"ø":107,"þ":108,"đ":109,"ı":110,"ł":111,"œ":112,"ƒ":113,"ə":114,"ɛ":115,"ʹ":116,"ˆ":117,"ˈ":118,"˚":119,"ˮ":120,"ͼ":121,"α":122,"β":123,"γ":124,"δ":125,"ε":126,"ζ":127,"η":128,"θ":129,"ι":130,"κ":131,"λ":132,"μ":133,"ν":134,"ξ":135,"ο":136,"π":137,"ρ":138,"ς":139,"σ":140,"τ":141,"υ":142,"φ":143,"χ":144,"ω":145,"ϕ":146,"а":147,"б":148,"в":149,"г":150,"д":151,"е":152,"ж":153,"з":154,"и":155,"к":156,"л":157,"м":158,"н":159,"о":160,"п":161,"р":162,"с":163,"т":164,"у":165,"ф":166,"х":167,"ц":168,"ч":169,"ш":170,"щ":171,"ъ":172,"ы":173,"ь":174,"э":175,"ю":176,"я":177,"ђ":178,"є":179,"ѕ":180,"і":181,"ј":182,"љ":183,"ґ":184,"һ":185,"ա":186,"א":187,"ב":188,"ד":189,"ה":190,"ו":191,"ח":192,"ט":193,"י":194,"כ":195,"ל":196,"ם":197,"מ":198,"נ":199,"ס":200,"ע":201,"פ":202,"ק":203,"ר":204,"ש":205,"ת":206,"،":207,"ء":208,"ا":209,"ب":210,"ة":211,"ت":212,"ث":213,"ج":214,"ح":215,"خ":216,"د":217,"ذ":218,"ر":219,"ز":220,"س":221,"ش":222,"ص":223,"ض":224,"ط":225,"ظ":226,"ع":227,"غ":228,"ـ":229,"ف":230,"ق":231,"ك":232,"ل":233,"م":234,"ن":235,"ه":236,"و":237,"ى":238,"ي":239,"پ":240,"چ":241,"ک":242,"گ":243,"ی":244,"क":245,"ग":246,"ज":247,"त":248,"द":249,"न":250,"प":251,"ब":252,"म":253,"य":254,"र":255,"ल":256,"व":257,"स":258,"ह":259,"ा":260,"ि":261,"ी":262,"ो":263,"ক":264,"ত":265,"ন":266,"ব":267,"য":268,"র":269,"ল":270,"স":271,"া":272,"ি":273,"ে":274,"க":275,"த":276,"ன":277,"ப":278,"ம":279,"ர":280,"வ":281,"ா":282,"ி":283,"ு":284,"ก":285,"ข":286,"ค":287,"ง":288,"จ":289,"ช":290,"ด":291,"ต":292,"ท":293,"น":294,"บ":295,"ป":296,"พ":297,"ม":298,"ย":299,"ร":300,"ล":301,"ว":302,"ส":303,"ห":304,"อ":305,"ะ":306,"า":307,"เ":308,"แ":309,"โ":310,"ไ":311,"ა":312,"ე":313,"ი":314,"რ":315,"ს":316,"ᄀ":317,"ᄂ":318,"ᄃ":319,"ᄅ":320,"ᄆ":321,"ᄇ":322,"ᄉ":323,"ᄋ":324,"ᄌ":325,"ᄎ":326,"ᄏ":327,"ᄐ":328,"ᄑ":329,"ᄒ":330,"ᅡ":331,"ᅢ":332,"ᅥ":333,"ᅦ":334,"ᅧ":335,"ᅩ":336,"ᅪ":337,"ᅬ":338,"ᅭ":339,"ᅮ":340,"ᅳ":341,"ᅴ":342,"ᅵ":343,"ᆨ":344,"ᆫ":345,"ᆯ":346,"ᆷ":347,"ᆸ":348,"ᆼ":349,"ᐈ":350,"‐":351,"‑":352,"‒":353,"–":354,"—":355,"―":356,"‘":357,"’":358,"‚":359,"“":360,"”":361,"„":362,"†":363,"‡":364,"•":365,"…":366,"‰":367,"′":368,"″":369,"‹":370,"›":371,"₨":372,"€":373,"℃":374,"№":375,"™":376,"←":377,"↑":378,"→":379,"↓":380,"⇒":381,"−":382,"√":383,"≤":384,"≥":385,"─":386,"■":387,"□":388,"▪":389,"▫":390,"▲":391,"▶":392,"▸":393,"►":394,"▻":395,"▼":396,"○":397,"●":398,"☀":399,"★":400,"☆":401,"☺":402,"♀":403,"♡":404,"♣":405,"♥":406,"♦":407,"✅":408,"✌":409,"✓":410,"✔":411,"✚":412,"✨":413,"✭":414,"✰":415,"❄":416,"❑":417,"❣":418,"❤":419,"➔":420,"⠀":421,"⭐":422,"ⰰ":423,"、":424,"。":425,"》":426,"「":427,"」":428,"【":429,"】":430,"あ":431,"い":432,"う":433,"え":434,"お":435,"か":436,"き":437,"く":438,"け":439,"こ":440,"さ":441,"し":442,"す":443,"せ":444,"そ":445,"た":446,"ち":447,"っ":448,"つ":449,"て":450,"と":451,"な":452,"に":453,"の":454,"は":455,"ひ":456,"へ":457,"ま":458,"み":459,"め":460,"も":461,"や":462,"よ":463,"ら":464,"り":465,"る":466,"れ":467,"わ":468,"を":469,"ん":470,"ア":471,"ィ":472,"イ":473,"ウ":474,"ェ":475,"エ":476,"オ":477,"カ":478,"キ":479,"ク":480,"ケ":481,"コ":482,"サ":483,"シ":484,"ス":485,"セ":486,"ソ":487,"タ":488,"チ":489,"ッ":490,"ツ":491,"テ":492,"ト":493,"ナ":494,"ニ":495,"ネ":496,"ノ":497,"ハ":498,"ヒ":499,"フ":500,"ヘ":501,"ホ":502,"マ":503,"ミ":504,"ム":505,"メ":506,"モ":507,"ャ":508,"ュ":509,"ョ":510,"ラ":511,"リ":512,"ル":513,"レ":514,"ロ":515,"ワ":516,"ン":517,"・":518,"ー":519,"䄀":520,"䈀":521,"䌀":522,"䐀":523,"䔀":524,"䜀":525,"䠀":526,"䤀":527,"䬀":528,"䰀":529,"䴀":530,"一":531,"万":532,"三":533,"上":534,"下":535,"不":536,"与":537,"专":538,"世":539,"业":540,"东":541,"个":542,"中":543,"为":544,"主":545,"么":546,"之":547,"乐":548,"九":549,"也":550,"买":551,"了":552,"争":553,"事":554,"二":555,"于":556,"五":557,"亚":558,"交":559,"产":560,"京":561,"人":562,"什":563,"今":564,"他":565,"仙":566,"代":567,"以":568,"们":569,"件":570,"任":571,"伀":572,"会":573,"传":574,"位":575,"体":576,"何":577,"作":578,"你":579,"使":580,"供":581,"保":582,"信":583,"值":584,"元":585,"先":586,"光":587,"免":588,"入":589,"全":590,"八":591,"公":592,"六":593,"关":594,"其":595,"具":596,"典":597,"内":598,"円":599,"册":600,"准":601,"出":602,"刀":603,"分":604,"划":605,"创":606,"利":607,"到":608,"制":609,"前":610,"力":611,"加":612,"务":613,"动":614,"势":615,"動":616,"匀":617,"包":618,"化":619,"北":620,"区":621,"十":622,"单":623,"南":624,"博":625,"历":626,"原":627,"县":628,"及":629,"双":630,"发":631,"取":632,"口":633,"可":634,"台":635,"号":636,"司":637,"吀":638,"合":639,"同":640,"名":641,"后":642,"吗":643,"和":644,"品":645,"哪":646,"唀":647,"商":648,"嘀":649,"器":650,"四":651,"回":652,"国":653,"图":654,"在":655,"地":656,"场":657,"址":658,"坛":659,"城":660,"基":661,"堂":662,"場":663,"士":664,"备":665,"外":666,"多":667,"大":668,"天":669,"太":670,"奖":671,"女":672,"好":673,"如":674,"姐":675,"威":676,"娱":677,"婆":678,"子":679,"字":680,"学":681,"安":682,"官":683,"定":684,"宝":685,"实":686,"客":687,"室":688,"家":689,"富":690,"对":691,"将":692,"小":693,"少":694,"就":695,"尾":696,"展":697,"山":698,"川":699,"州":700,"工":701,"巧":702,"市":703,"常":704,"平":705,"年":706,"广":707,"庆":708,"库":709,"店":710,"度":711,"建":712,"开":713,"式":714,"当":715,"录":716,"彩":717,"影":718,"律":719,"得":720,"微":721,"心":722,"必":723,"快":724,"怎":725,"思":726,"性":727,"总":728,"情":729,"意":730,"感":731,"戏":732,"成":733,"我":734,"户":735,"所":736,"手":737,"打":738,"技":739,"投":740,"报":741,"持":742,"挂":743,"指":744,"推":745,"提":746,"播":747,"教":748,"数":749,"文":750,"料":751,"斯":752,"新":753,"方":754,"无":755,"日":756,"时":757,"明":758,"星":759,"是":760,"時":761,"更":762,"最":763,"月":764,"有":765,"服":766,"期":767,"本":768,"机":769,"杀":770,"村":771,"来":772,"東":773,"林":774,"枚":775,"果":776,"校":777,"样":778,"格":779,"業":780,"次":781,"正":782,"比":783,"民":784,"氓":785,"気":786,"水":787,"江":788,"河":789,"法":790,"波":791,"注":792,"活":793,"流":794,"测":795,"海":796,"港":797,"游":798,"源":799,"澳":800,"点":801,"無":802,"爱":803,"片":804,"版":805,"牌":806,"牛":807,"物":808,"特":809,"狗":810,"玄":811,"王":812,"玩":813,"现":814,"球":815,"理":816,"生":817,"用":818,"田":819,"电":820,"画":821,"界":822,"登":823,"白":824,"百":825,"的":826,"皇":827,"盘":828,"目":829,"盲":830,"直":831,"相":832,"看":833,"県":834,"真":835,"着":836,"知":837,"码":838,"社":839,"神":840,"票":841,"福":842,"科":843,"程":844,"空":845,"立":846,"站":847,"第":848,"等":849,"算":850,"管":851,"精":852,"系":853,"红":854,"线":855,"组":856,"经":857,"结":858,"统":859,"网":860,"美":861,"群":862,"老":863,"者":864,"而":865,"肖":866,"育":867,"能":868,"自":869,"色":870,"花":871,"英":872,"葡":873,"行":874,"表":875,"装":876,"西":877,"要":878,"見":879,"规":880,"视":881,"解":882,"語":883,"计":884,"记":885,"论":886,"设":887,"诗":888,"财":889,"费":890,"资":891,"赌":892,"赛":893,"赢":894,"走":895,"起":896,"足":897,"跑":898,"路":899,"身":900,"车":901,"软":902,"载":903,"过":904,"这":905,"进":906,"送":907,"选":908,"通":909,"道":910,"選":911,"部":912,"都":913,"里":914,"重":915,"量":916,"金":917,"钱":918,"长":919,"間":920,"门":921,"间":922,"际":923,"限":924,"院":925,"集":926,"霸":927,"青":928,"面":929,"音":930,"预":931,"食":932,"香":933,"马":934,"高":935,"黄":936,"龙":937,"ﬁ":938,"ﬂ":939,"！":940,"（":941,"）":942,"，":943,"：":944,"？":945,"ｩ":946,"ｲ":947,"ﾞ":948,"𝐞":949,"𝐨":950,"🌟":951,"🌸":952,"🍁":953,"🎉":954,"🏻":955,"🏼":956,"🏽":957,"👊":958,"👌":959,"👍":960,"👏":961,"💕":962,"💖":963,"💗":964,"💙":965,"💚":966,"💛":967,"💜":968,"💞":969,"💪":970,"🔥":971,"😀":972,"😁":973,"😂":974,"😃":975,"😄":976,"😅":977,"😆":978,"😉":979,"😊":980,"😋":981,"😍":982,"😎":983,"😏":984,"😘":985,"😛":986,"😜":987,"😝":988,"😢":989,"😦":990,"😬":991,"😭":992,"😮":993,"😱":994,"😳":995,"🙁":996,"🙂":997,"🙄":998,"🙈":999,"🙌":1000,"🙏":1001,"🤔":1002,"🤗":1003,"🤣":1004,"##x":1005,"##t":1006,"##r":1007,"##a":1008,"##m":1009,"##o":1010,"##n":1011,"##g":1012,"##e":1013,"##l":1014,"##f":1015,"##d":1016,"##u":1017,"##b":1018,"##i":1019,"##y":1020,"##s":1021,"##w":1022,"##j":1023,"##k":1024,"##p":1025,"##0":1026,"##2":1027,"##7":1028,"##1":1029,"##8":1030,"##v":1031,"##h":1032,"##c":1033,"##4":1034,"##6":1035,"##°":1036,"##3":1037,"##5":1038,"##ح":1039,"##ج":1040,"##ر":1041,"##ا":1042,"##💖":1043,"##´":1044,"##9":1045,"##ه":1046,"##ز":1047,"##ي":1048,"##ة":1049,"##у":1050,"##л":1051,"##т":1052,"##о":1053,"##в":1054,"##а":1055,"##z":1056,"##あ":1057,"##る":1058,"##と":1059,"##ト":1060,"##ラ":1061,"##フ":1062,"##ル":1063,"##は":1064,"##い":1065,"##く":1066,"##つ":1067,"##か":1068,"##て":1069,"##し":1070,"##う":1071,"##¥":1072,"##€":1073,"##²":1074,"##µ":1075,"##д":1076,"##е":1077,"##и":1078,"##з":1079,"##р":1080,"##п":1081,"##ч":1082,"##с":1083,"##к":1084,"##х":1085,"##ł":1086,"##া":1087,"##ল":1088,"##ব":1089,"##ন":1090,"##¦":1091,"##ø":1092,"##ل":1093,"##ع":1094,"##ق":1095,"##ب":1096,"##¤":1097,"##ν":1098,"##θ":1099,"##ρ":1100,"##ω":1101,"##π":1102,"##ι":1103,"##ʹ":1104,"##q":1105,"##æ":1106,"##®":1107,"##😊":1108,"##м":1109,"##г":1110,"##ม":1111,"##น":1112,"##แ":1113,"##ค":1114,"##ว":1115,"##ห":1116,"##ा":1117,"##र":1118,"##म":1119,"##ि":1120,"##क":1121,"##ο":1122,"##υ":1123,"##α":1124,"##κ":1125,"##λ":1126,"##ε":1127,"##▼":1128,"##і":1129,"##た":1130,"##🏻":1131,"##ы":1132,"##б":1133,"##н":1134,"##ð":1135,"##よ":1136,"##に":1137,"##ま":1138,"##त":1139,"##ᅩ":1140,"##ᄂ":1141,"##ᅧ":1142,"##ᆫ":1143,"##ᄎ":1144,"##ᅥ":1145,"##ᄌ":1146,"##ᅵ":1147,"##ᅢ":1148,"##ß":1149,"##э":1150,"##ъ":1151,"##ц":1152,"##س":1153,"##❤":1154,"##ı":1155,"##ت":1156,"##ف":1157,"##د":1158,"##♥":1159,"##っ":1160,"##ك":1161,"##ス":1162,"##ー":1163,"##ヘ":1164,"##ッ":1165,"##わ":1166,"##ん":1167,"##щ":1168,"##ь":1169,"##β":1170,"##я":1171,"##タ":1172,"##リ":1173,"##ン":1174,"##ロ":1175,"##コ":1176,"##¬":1177,"##ن":1178,"##😘":1179,"##テ":1180,"##エ":1181,"##ヒ":1182,"##ク":1183,"##ς":1184,"##ی":1185,"##😀":1186,"##💛":1187,"##ш":1188,"##±":1189,"##ᅳ":1190,"##ᄆ":1191,"##ᅡ":1192,"##😃":1193,"##™":1194,"##ф":1195,"##ר":1196,"##ס":1197,"##י":1198,"##ャ":1199,"##イ":1200,"##ニ":1201,"##ա":1202,"##ュ":1203,"##ィ":1204,"##☺":1205,"##な":1206,"##の":1207,"##😎":1208,"##☀":1209,"##お":1210,"##ひ":1211,"##👏":1212,"##ю":1213,"##ˆ":1214,"##−":1215,"##ノ":1216,"##ѕ":1217,"##カ":1218,"##ハ":1219,"##ж":1220,"##ᄀ":1221,"##า":1222,"##ร":1223,"##ு":1224,"##ர":1225,"##ா":1226,"##ன":1227,"##ґ":1228,"##♡":1229,"##م":1230,"##も":1231,"##を":1232,"##👍":1233,"##キ":1234,"##セ":1235,"##ら":1236,"##ウ":1237,"##サ":1238,"##و":1239,"##き":1240,"##ش":1241,"##🎉":1242,"##シ":1243,"##½":1244,"##ᆨ":1245,"##ᄋ":1246,"##ᆸ":1247,"##ᅦ":1248,"##¸":1249,"##×":1250,"##💕":1251,"##γ":1252,"##μ":1253,"##𝐞":1254,"##こ":1255,"##ﬁ":1256,"##ђ":1257,"##れ":1258,"##ص":1259,"##ल":1260,"##व":1261,"##द":1262,"##💜":1263,"##ط":1264,"##🤣":1265,"##ி":1266,"##க":1267,"##σ":1268,"##ᆯ":1269,"##ी":1270,"##τ":1271,"##ワ":1272,"##ͼ":1273,"##œ":1274,"##δ":1275,"##😍":1276,"##¨":1277,"##ล":1278,"##อ":1279,"##เ":1280,"##ย":1281,"##ד":1282,"##ו":1283,"##ث":1284,"##ƒ":1285,"##א":1286,"##🏽":1287,"##🙏":1288,"##פ":1289,"##ע":1290,"##ם":1291,"##😅":1292,"##प":1293,"##🌸":1294,"##ק":1295,"##ᄉ":1296,"##ᄏ":1297,"##さ":1298,"##り":1299,"##す":1300,"##ส":1301,"##โ":1302,"##ᅮ":1303,"##ᄅ":1304,"##ᄃ":1305,"##せ":1306,"##ᆷ":1307,"##ᅴ":1308,"##ด":1309,"##ก":1310,"##ะ":1311,"##һ":1312,"##ה":1313,"##ต":1314,"##จ":1315,"##บ":1316,"##ک":1317,"##🤗":1318,"##©":1319,"##ミ":1320,"##த":1321,"##ம":1322,"##ไ":1323,"##ช":1324,"##ェ":1325,"##ソ":1326,"##け":1327,"##≤":1328,"##♀":1329,"##র":1330,"##ত":1331,"##ি":1332,"##😆":1333,"##そ":1334,"##チ":1335,"##ი":1336,"##ე":1337,"##რ":1338,"##ა":1339,"##✨":1340,"##נ":1341,"##ת":1342,"##ケ":1343,"##ᄒ":1344,"##ᆼ":1345,"##レ":1346,"##ᄇ":1347,"##ᄐ":1348,"##ს":1349,"##🙈":1350,"##😂":1351,"##þ":1352,"##χ":1353,"##ל":1354,"##מ":1355,"##ء":1356,"##😏":1357,"##み":1358,"##ᅪ":1359,"##พ":1360,"##ข":1361,"##ง":1362,"##ो":1363,"##स":1364,"##य":1365,"##ち":1366,"##÷":1367,"##🙌":1368,"##🏼":1369,"##љ":1370,"##ј":1371,"##ى":1372,"##や":1373,"##😭":1374,"##ब":1375,"##ב":1376,"##گ":1377,"##º":1378,"##ム":1379,"##マ":1380,"##ツ":1381,"##😄":1382,"##ᄑ":1383,"##ᅭ":1384,"##ह":1385,"##ض":1386,"##💪":1387,"##ท":1388,"##ア":1389,"##🍁":1390,"##😬":1391,"##ـ":1392,"##👌":1393,"##ज":1394,"##💙":1395,"##כ":1396,"##η":1397,"##غ":1398,"##オ":1399,"##メ":1400,"##ネ":1401,"##پ":1402,"##↓":1403,"##ɛ":1404,"##○":1405,"##ζ":1406,"##😁":1407,"##ে":1408,"##خ":1409,"##ט":1410,"##💗":1411,"##য":1412,"##ক":1413,"##ホ":1414,"##😳":1415,"##வ":1416,"##ذ":1417,"##め":1418,"##ə":1419,"##モ":1420,"##ξ":1421,"##¢":1422,"##স":1423,"##ป":1424,"##न":1425,"##🔥":1426,"##❄":1427,"##³":1428,"##φ":1429,"##đ":1430,"##✌":1431,"##😜":1432,"##へ":1433,"##→":1434,"##√":1435,"##ח":1436,"##😉":1437,"##˚":1438,"##ˈ":1439,"##💞":1440,"##ש":1441,"##😋":1442,"##🌟":1443,"##🙂":1444,"##💚":1445,"##ظ":1446,"##ப":1447,"##£":1448,"##🤔":1449,"##😢":1450,"##ナ":1451,"##ˮ":1452,"##¹":1453,"##є":1454,"##ⰰ":1455,"##ョ":1456,"##¯":1457,"##ᅬ":1458,"##●":1459,"##🙄":1460,"##□":1461,"##¾":1462,"##▸":1463,"##😱":1464,"##ﬂ":1465,"##👊":1466,"##⭐":1467,"##ﾞ":1468,"##ｲ":1469,"##♣":1470,"##↑":1471,"##№":1472,"##❣":1473,"##😛":1474,"##¼":1475,"##✔":1476,"##≥":1477,"##─":1478,"##ϕ":1479,"##⠀":1480,"##😝":1481,"##★":1482,"##℃":1483,"##■":1484,"##♦":1485,"##▲":1486,"##ｩ":1487,"##𝐨":1488,"##چ":1489,"##え":1490,"##▶":1491,"##☆":1492,"##ग":1493,"##✅":1494,"##←":1495,"##✓":1496,"##🙁":1497,"##▫":1498,"##►":1499,"##▪":1500,"##▻":1501,"##😮":1502,"##😦":1503,"##⇒":1504,"##✰":1505,"##✭":1506,"##➔":1507,"##❑":1508,"##✚":1509,"##ar":1510,"##er":1511,"##an":1512,"##en":1513,"##or":1514,"##tt":1515,"##et":1516,"##ll":1517,"##in":1518,"##ag":1519,"##om":1520,"##ch":1521,"##st":1522,"och":1523,"##ig":1524,"for":1525,"##ad":1526,"##on":1527,"##at":1528,"att":1529,"##ed":1530,"##ing":1531,"##al":1532,"ar":1533,"in":1534,"en":1535,"##sk":1536,"pa":1537,"det":1538,"##ck":1539,"##el":1540,"##ill":1541,"##ra":1542,"##and":1543,"som":1544,"sa":1545,"##na":1546,"av":1547,"##te":1548,"vi":1549,"med":1550,"var":1551,"##kt":1552,"jag":1553,"sk":1554,"till":1555,"har":1556,"de":1557,"st":1558,"an":1559,"##as":1560,"##pp":1561,"##sa":1562,"##ning":1563,"##ade":1564,"##all":1565,"##lig":1566,"##re":1567,"##un":1568,"##it":1569,"##ro":1570,"##ter":1571,"##id":1572,"om":1573,"##il":1574,"den":1575,"##ang":1576,"##ol":1577,"##ver":1578,"##att":1579,"inte":1580,"##ss":1581,"##am":1582,"##ik":1583,"kan":1584,"ut":1585,"##ast":1586,"##iv":1587,"##der":1588,"##is":1589,"##em":1590,"##ion":1591,"##ot":1592,"##ran":1593,"##es":1594,"bl":1595,"du":1596,"ett":1597,"##ur":1598,"man":1599,"##are":1600,"##isk":1601,"all":1602,"kom":1603,"##de":1604,"##for":1605,"##ut":1606,"men":1607,"##og":1608,"##ande":1609,"##ok":1610,"upp":1611,"##var":1612,"be":1613,"##itt":1614,"##het":1615,"##ller":1616,"sp":1617,"##yck":1618,"un":1619,"komm":1620,"se":1621,"##od":1622,"##ent":1623,"nar":1624,"##ort":1625,"##ak":1626,"##us":1627,"ska":1628,"##mm":1629,"min":1630,"eller":1631,"fran":1632,"##ens":1633,"##fter":1634,"##sta":1635,"nag":1636,"##ta":1637,"##igt":1638,"##ul":1639,"##inn":1640,"##ska":1641,"bar":1642,"re":1643,"han":1644,"##ri":1645,"hel":1646,"##la":1647,"##ru":1648,"##ation":1649,"##ell":1650,"##ligt":1651,"##os":1652,"pro":1653,"##art":1654,"##ull":1655,"##ick":1656,"##gen":1657,"##da":1658,"nu":1659,"dar":1660,"val":1661,"##bb":1662,"##op":1663,"vara":1664,"far":1665,"fa":1666,"efter":1667,"##arna":1668,"##le":1669,"sig":1670,"under":1671,"kon":1672,"##va":1673,"ha":1674,"sam":1675,"##ir":1676,"##ram":1677,"kl":1678,"##ans":1679,"##dag":1680,"##yg":1681,"##ant":1682,"##ock":1683,"##ff":1684,"##erna":1685,"ny":1686,"over":1687,"li":1688,"##sp":1689,"##ud":1690,"##und":1691,"gor":1692,"ta":1693,"##ft":1694,"##jal":1695,"##era":1696,"##ats":1697,"and":1698,"##tta":1699,"##bet":1700,"##je":1701,"gr":1702,"kommer":1703,"fl":1704,"stor":1705,"al":1706,"##ist":1707,"bor":1708,"##els":1709,"##ark":1710,"##ost":1711,"da":1712,"##sl":1713,"mig":1714,"##ers":1715,"alla":1716,"allt":1717,"20":1718,"mo":1719,"tid":1720,"##um":1721,"lag":1722,"vill":1723,"dag":1724,"##ank":1725,"ju":1726,"##ga":1727,"##ika":1728,"##ne":1729,"##ass":1730,"##ma":1731,"##ycket":1732,"hon":1733,"##gar":1734,"lite":1735,"pl":1736,"finn":1737,"bra":1738,"vid":1739,"ann":1740,"##ju":1741,"##ov":1742,"vad":1743,"sl":1744,"fram":1745,"mycket":1746,"##est":1747,"ex":1748,"finns":1749,"bara":1750,"##opp":1751,"##bl":1752,"##aste":1753,"##edan":1754,"hur":1755,"fr":1756,"tr":1757,"lang":1758,"##iska":1759,"del":1760,"##eck":1761,"##liga":1762,"mot":1763,"or":1764,"mer":1765,"##ger":1766,"##ikt":1767,"sin":1768,"bil":1769,"sv":1770,"beh":1771,"gen":1772,"kun":1773,"##ling":1774,"##iga":1775,"##cksa":1776,"##ningen":1777,"##ic":1778,"##vand":1779,"kv":1780,"##ligen":1781,"aven":1782,"kr":1783,"ver":1784,"hem":1785,"ocksa":1786,"##ja":1787,"##jt":1788,"vil":1789,"##den":1790,"##ka":1791,"andra":1792,"##stall":1793,"er":1794,"##im":1795,"##kl":1796,"##ann":1797,"sag":1798,"din":1799,"hade":1800,"sen":1801,"hand":1802,"pr":1803,"##oll":1804,"sex":1805,"detta":1806,"##ker":1807,"skull":1808,"##ott":1809,"dig":1810,"mang":1811,"##ningar":1812,"##nad":1813,"##ack":1814,"skulle":1815,"arbet":1816,"ol":1817,"##org":1818,"jo":1819,"verk":1820,"##dr":1821,"le":1822,"##hall":1823,"##ber":1824,"blir":1825,"##erson":1826,"sy":1827,"fin":1828,"gar":1829,"samt":1830,"ser":1831,"##ssa":1832,"spel":1833,"sjal":1834,"##aren":1835,"##ord":1836,"genom":1837,"##00":1838,"sm":1839,"utan":1840,"##ering":1841,"anvand":1842,"##yr":1843,"##bil":1844,"nagon":1845,"##sam":1846,"mat":1847,"##ara":1848,"ber":1849,"##ekt":1850,"person":1851,"bet":1852,"ty":1853,"manga":1854,"##itet":1855,"th":1856,"##ala":1857,"##ilj":1858,"##orr":1859,"##ket":1860,"##ev":1861,"##satt":1862,"ch":1863,"on":1864,"201":1865,"sedan":1866,"##lag":1867,"##alt":1868,"nat":1869,"##av":1870,"nagot":1871,"##jting":1872,"svar":1873,"##ek":1874,"##per":1875,"##iskt":1876,"##ci":1877,"sven":1878,"gora":1879,"hog":1880,"##gi":1881,"##ress":1882,"barn":1883,"##pa":1884,"van":1885,"##jer":1886,"##omm":1887,"fors":1888,"satt":1889,"hall":1890,"##pl":1891,"gang":1892,"##du":1893,"##ygg":1894,"oss":1895,"##riv":1896,"##rad":1897,"fol":1898,"fort":1899,"tro":1900,"##asta":1901,"##ce":1902,"tank":1903,"res":1904,"##vis":1905,"##nings":1906,"ma":1907,"at":1908,"bli":1909,"##amn":1910,"##ster":1911,"helt":1912,"fick":1913,"##ring":1914,"##form":1915,"sjalv":1916,"forsta":1917,"##over":1918,"idag":1919,"sn":1920,"tva":1921,"##som":1922,"ratt":1923,"vet":1924,"vis":1925,"##eras":1926,"denna":1927,"gl":1928,"##ett":1929,"##del":1930,"##atis":1931,"##mma":1932,"br":1933,"##gang":1934,"hitt":1935,"##ende":1936,"tra":1937,"pre":1938,"ni":1939,"so":1940,"bes":1941,"##jan":1942,"##ighet":1943,"##ilm":1944,"##ys":1945,"##ug":1946,"hela":1947,"##lar":1948,"##kar":1949,"blev":1950,"dem":1951,"olika":1952,"##skap":1953,"##ets":1954,"##tal":1955,"vag":1956,"dat":1957,"inne":1958,"ga":1959,"##ef":1960,"##ote":1961,"##sm":1962,"gj":1963,"kop":1964,"##verig":1965,"hal":1966,"liv":1967,"##hol":1968,"nagra":1969,"dejting":1970,"jobb":1971,"sverig":1972,"##ult":1973,"##erade":1974,"saker":1975,"mal":1976,"##eri":1977,"fun":1978,"sitt":1979,"maste":1980,"##ske":1981,"##orn":1982,"gratis":1983,"##ia":1984,"int":1985,"19":1986,"##yd":1987,"##ader":1988,"##lighet":1989,"##ktion":1990,"nya":1991,"rikt":1992,"ro":1993,"##eg":1994,"##sb":1995,"inn":1996,"tre":1997,"las":1998,"##yn":1999,"ti":2000,"form":2001,"hjal":2002,"##ida":2003,"##if":2004,"reg":2005,"varit":2006,"##ie":2007,"##oj":2008,"##land":2009,"##ellan":2010,"kanske":2011,"slut":2012,"frag":2013,"va":2014,"inom":2015,"##bar":2016,"tyck":2017,"##holm":2018,"##etag":2019,"di":2020,"akt":2021,"##age":2022,"##else":2023,"kra":2024,"mark":2025,"dom":2026,"##nas":2027,"moj":2028,"##ken":2029,"te":2030,"##amm":2031,"igen":2032,"##jar":2033,"su":2034,"kann":2035,"##ars":2036,"ans":2037,"led":2038,"ja":2039,"##tern":2040,"##erar":2041,"kommun":2042,"##verk":2043,"mellan":2044,"per":2045,"dessa":2046,"tran":2047,"am":2048,"##amp":2049,"##veck":2050,"forst":2051,"lan":2052,"tv":2053,"god":2054,"mann":2055,"##get":2056,"veck":2057,"vin":2058,"##ades":2059,"##enter":2060,"hen":2061,"sna":2062,"##iva":2063,"##ella":2064,"##ont":2065,"ater":2066,"ner":2067,"of":2068,"vald":2069,"vikt":2070,"land":2071,"vilket":2072,"innan":2073,"mitt":2074,"##dre":2075,"##man":2076,"##ier":2077,"sverige":2078,"stock":2079,"kar":2080,"kor":2081,"hos":2082,"##aller":2083,"fast":2084,"##kel":2085,"lat":2086,"annat":2087,"##sson":2088,"##orna":2089,"rad":2090,"bland":2091,"par":2092,"just":2093,"bade":2094,"ov":2095,"stockholm":2096,"tag":2097,"##far":2098,"##utom":2099,"porr":2100,"ord":2101,"bok":2102,"##atten":2103,"tar":2104,"dess":2105,"sju":2106,"##str":2107,"stora":2108,"foretag":2109,"##nar":2110,"##erad":2111,"##aka":2112,"##ts":2113,"film":2114,"fakt":2115,"##fall":2116,"basta":2117,"##mar":2118,"##ingen":2119,"##lin":2120,"##ser":2121,"fatt":2122,"behover":2123,"ka":2124,"##pt":2125,"##pel":2126,"##takt":2127,"##unt":2128,"sina":2129,"##ej":2130,"kont":2131,"produ":2132,"skol":2133,"10":2134,"##ow":2135,"tal":2136,"svenska":2137,"ur":2138,"varje":2139,"batt":2140,"kall":2141,"kunna":2142,"kvinn":2143,"we":2144,"##vag":2145,"mass":2146,"tje":2147,"fall":2148,"alltid":2149,"##skar":2150,"##ien":2151,"nog":2152,"lig":2153,"sager":2154,"##gr":2155,"pol":2156,"eftersom":2157,"##ps":2158,"stall":2159,"##slag":2160,"##iss":2161,"ger":2162,"lin":2163,"ra":2164,"ingen":2165,"milj":2166,"##igare":2167,"##ym":2168,"##erat":2169,"plats":2170,"samma":2171,"varl":2172,"str":2173,"gick":2174,"bort":2175,"utveck":2176,"mar":2177,"##arbet":2178,"##ratt":2179,"##be":2180,"dr":2181,"valdigt":2182,"fy":2183,"lar":2184,"##dom":2185,"riktigt":2186,"##iken":2187,"kn":2188,"##bild":2189,"##anska":2190,"si":2191,"##samhet":2192,"##ativ":2193,"flera":2194,"bro":2195,"eg":2196,"ant":2197,"##se":2198,"bo":2199,"mannisk":2200,"pen":2201,"pass":2202,"##borg":2203,"sok":2204,"##ppen":2205,"##sc":2206,"tycker":2207,"hu":2208,"##kon":2209,"latt":2210,"skriv":2211,"fot":2212,"el":2213,"vart":2214,"##orde":2215,"##fr":2216,"##hand":2217,"snabb":2218,"inform":2219,"##sten":2220,"dock":2221,"##ada":2222,"hopp":2223,"grund":2224,"star":2225,"##fatt":2226,"best":2227,"the":2228,"ge":2229,"##eter":2230,"mina":2231,"##ha":2232,"battre":2233,"kort":2234,"plan":2235,"koll":2236,"##rekt":2237,"##alen":2238,"bak":2239,"enligt":2240,"##samm":2241,"##led":2242,"lik":2243,"##lagg":2244,"##komm":2245,"##sid":2246,"spe":2247,"hans":2248,"##ata":2249,"verkligen":2250,"200":2251,"stad":2252,"##stem":2253,"##rum":2254,"pris":2255,"exem":2256,"##br":2257,"##ytt":2258,"##ellt":2259,"hus":2260,"aldr":2261,"kontakt":2262,"##stand":2263,"tror":2264,"komp":2265,"komma":2266,"sak":2267,"18":2268,"anda":2269,"erb":2270,"intress":2271,"mest":2272,"tillb":2273,"red":2274,"##yl":2275,"behov":2276,"sal":2277,"##xt":2278,"forsok":2279,"la":2280,"##pro":2281,"##hus":2282,"galler":2283,"forb":2284,"mor":2285,"vide":2286,"##sak":2287,"##bo":2288,"sid":2289,"ok":2290,"em":2291,"im":2292,"skall":2293,"blog":2294,"##jud":2295,"sol":2296,"namn":2297,"##upp":2298,"sad":2299,"runt":2300,"information":2301,"##sen":2302,"konst":2303,"bilder":2304,"eu":2305,"svart":2306,"kunde":2307,"exempel":2308,"##vud":2309,"kvinnor":2310,"redan":2311,"##kom":2312,"##blem":2313,"##orgon":2314,"ad":2315,"##skil":2316,"aldrig":2317,"speci":2318,"enkel":2319,"sh":2320,"tiden":2321,"deras":2322,"##rakt":2323,"ditt":2324,"sla":2325,"##vet":2326,"manniskor":2327,"ung":2328,"##jekt":2329,"##sammans":2330,"jul":2331,"##ds":2332,"full":2333,"egen":2334,"he":2335,"lu":2336,"kvar":2337,"ligger":2338,"##iten":2339,"tog":2340,"tidigare":2341,"##val":2342,"tillsammans":2343,"##fl":2344,"tack":2345,"natur":2346,"##cent":2347,"15":2348,"##ationer":2349,"ag":2350,"##kter":2351,"annan":2352,"ele":2353,"hitta":2354,"fler":2355,"ab":2356,"##mark":2357,"##min":2358,"##ator":2359,"kost":2360,"##akt":2361,"##sch":2362,"##nes":2363,"trad":2364,"ak":2365,"svensk":2366,"dina":2367,"##by":2368,"##gor":2369,"gjort":2370,"bygg":2371,"pu":2372,"varm":2373,"sjuk":2374,"ly":2375,"##las":2376,"hjalp":2377,"by":2378,"##tra":2379,"12":2380,"##gifter":2381,"mus":2382,"##ings":2383,"kro":2384,"darfor":2385,"gra":2386,"##skol":2387,"##lut":2388,"ca":2389,"##pr":2390,"tur":2391,"bru":2392,"##ition":2393,"tillbaka":2394,"webb":2395,"to":2396,"beratt":2397,"##io":2398,"huvud":2399,"##ung":2400,"##stad":2401,"direkt":2402,"##par":2403,"esc":2404,"honom":2405,"stod":2406,"borj":2407,"tjan":2408,"lever":2409,"##uter":2410,"##plats":2411,"##agen":2412,"hemma":2413,"jam":2414,"kvall":2415,"lyck":2416,"gjorde":2417,"##rupp":2418,"fam":2419,"opp":2420,"intern":2421,"lo":2422,"folk":2423,"problem":2424,"##elsen":2425,"stud":2426,"traff":2427,"##berg":2428,"mojlighet":2429,"##lem":2430,"##ingar":2431,"typ":2432,"##ektiv":2433,"hor":2434,"##andet":2435,"##kv":2436,"##rat":2437,"##tter":2438,"##slut":2439,"##rar":2440,"gam":2441,"ute":2442,"##med":2443,"syn":2444,"nor":2445,"##aget":2446,"##anden":2447,"ofta":2448,"##orter":2449,"lika":2450,"##red":2451,"rel":2452,"##sh":2453,"##ubb":2454,"##rade":2455,"##illa":2456,"bild":2457,"##cis":2458,"dessutom":2459,"saga":2460,"##line":2461,"faktiskt":2462,"##iker":2463,"30":2464,"##giv":2465,"ih":2466,"##mmet":2467,"##sv":2468,"##tid":2469,"kanner":2470,"dagen":2471,"##ultat":2472,"##lek":2473,"##res":2474,"##dagen":2475,"sar":2476,"son":2477,"timm":2478,"titt":2479,"nast":2480,"haft":2481,"tjejer":2482,"gran":2483,"besok":2484,"fore":2485,"verksamhet":2486,"##rist":2487,"##ipp":2488,"samm":2489,"ste":2490,"mindre":2491,"##idigt":2492,"vack":2493,"hy":2494,"##bland":2495,"anvanda":2496,"vatten":2497,"precis":2498,"##nat":2499,"art":2500,"##amma":2501,"##ret":2502,"beslut":2503,"krav":2504,"##mal":2505,"escort":2506,"kanns":2507,"##ob":2508,"##rack":2509,"##istor":2510,"##ina":2511,"hund":2512,"ror":2513,"##nen":2514,"##iver":2515,"enkelt":2516,"prog":2517,"massage":2518,"##kop":2519,"fru":2520,"ev":2521,"11":2522,"##ct":2523,"##sfor":2524,"co":2525,"liten":2526,"##vard":2527,"sma":2528,"##sattning":2529,"online":2530,"pengar":2531,"##net":2532,"##lan":2533,"gote":2534,"##icka":2535,"##orer":2536,"##mo":2537,"##illar":2538,"soci":2539,"innehall":2540,"fant":2541,"styr":2542,"##rak":2543,"goteborg":2544,"forv":2545,"dal":2546,"ganska":2547,"rak":2548,"##olog":2549,"fel":2550,"##ationen":2551,"##ivit":2552,"henne":2553,"match":2554,"inget":2555,"##assa":2556,"##sn":2557,"part":2558,"post":2559,"fi":2560,"lok":2561,"tha":2562,"##ana":2563,"##heten":2564,"##asin":2565,"dagar":2566,"##skriv":2567,"##ekn":2568,"app":2569,"eng":2570,"familj":2571,"fre":2572,"medlem":2573,"nytt":2574,"stort":2575,"##river":2576,"##uss":2577,"tel":2578,"kul":2579,"##nade":2580,"infor":2581,"kron":2582,"porn":2583,"utbild":2584,"fle":2585,"##elser":2586,"##end":2587,"knull":2588,"##ydd":2589,"behand":2590,"kopa":2591,"##bart":2592,"varfor":2593,"storre":2594,"##kor":2595,"##rev":2596,"##inna":2597,"langre":2598,"##stallet":2599,"lange":2600,"nastan":2601,"vilken":2602,"samtidigt":2603,"##eln":2604,"borjar":2605,"ang":2606,"hoppas":2607,"##add":2608,"aldre":2609,"sj":2610,"##eb":2611,"alltsa":2612,"personer":2613,"resultat":2614,"org":2615,"##ater":2616,"antal":2617,"##anis":2618,"kna":2619,"vissa":2620,"end":2621,"tor":2622,"##vid":2623,"ned":2624,"senaste":2625,"vax":2626,"kval":2627,"##ny":2628,"##heter":2629,"istallet":2630,"fri":2631,"bi":2632,"##ard":2633,"start":2634,"ind":2635,"##int":2636,"##ionen":2637,"mon":2638,"blivit":2639,"##rik":2640,"sta":2641,"##ry":2642,"eff":2643,"jatt":2644,"##jur":2645,"##sf":2646,"via":2647,"##lingen":2648,"folj":2649,"vard":2650,"erbju":2651,"kat":2652,"fem":2653,"##des":2654,"annu":2655,"tillgang":2656,"langt":2657,"gott":2658,"##ons":2659,"##ea":2660,"17":2661,"##aga":2662,"16":2663,"vidare":2664,"garna":2665,"##andra":2666,"ob":2667,"hennes":2668,"##ice":2669,"fred":2670,"##lla":2671,"##naden":2672,"bel":2673,"disk":2674,"##film":2675,"nasta":2676,"##farande":2677,"##ister":2678,"##sida":2679,"##fekt":2680,"##sikt":2681,"ren":2682,"vilka":2683,"##jus":2684,"klass":2685,"##ste":2686,"beg":2687,"ibland":2688,"extra":2689,"igar":2690,"los":2691,"##raf":2692,"trots":2693,"##ender":2694,"innebar":2695,"vann":2696,"borjade":2697,"off":2698,"##lev":2699,"betal":2700,"varld":2701,"pres":2702,"##tag":2703,"projekt":2704,"##radet":2705,"stat":2706,"forl":2707,"haller":2708,"tekn":2709,"dejtingsa":2710,"##konom":2711,"##ong":2712,"100":2713,"##rot":2714,"##ust":2715,"vast":2716,"ekonom":2717,"na":2718,"##ligare":2719,"##yt":2720,"kons":2721,"sarskil":2722,"ot":2723,"gamla":2724,"14":2725,"##satta":2726,"tu":2727,"forsk":2728,"og":2729,"sista":2730,"tav":2731,"visar":2732,"id":2733,"##oner":2734,"lagen":2735,"papp":2736,"senare":2737,"##spel":2738,"fortfarande":2739,"snart":2740,"me":2741,"halla":2742,"##yk":2743,"##ian":2744,"samman":2745,"kur":2746,"ansvar":2747,"bill":2748,"##alj":2749,"##amt":2750,"kand":2751,"glad":2752,"##saker":2753,"euro":2754,"matt":2755,"sc":2756,"bed":2757,"##jut":2758,"##mmer":2759,"dra":2760,"inv":2761,"fantast":2762,"hittar":2763,"kred":2764,"##als":2765,"##inner":2766,"bost":2767,"met":2768,"bad":2769,"endast":2770,"gre":2771,"histor":2772,"manad":2773,"##hor":2774,"inga":2775,"##gift":2776,"##iet":2777,"lasa":2778,"##otell":2779,"13":2780,"po":2781,"kredit":2782,"und":2783,"pat":2784,"##ip":2785,"framfor":2786,"##igheter":2787,"gu":2788,"##han":2789,"lak":2790,"ne":2791,"farg":2792,"cent":2793,"##drar":2794,"dating":2795,"mil":2796,"finans":2797,"risk":2798,"##ux":2799,"##rott":2800,"yo":2801,"klar":2802,"##ider":2803,"rum":2804,"bank":2805,"com":2806,"##one":2807,"miss":2808,"fragor":2809,"25":2810,"is":2811,"##bara":2812,"##ygga":2813,"ihop":2814,"anvander":2815,"polit":2816,"samhall":2817,"sitter":2818,"50":2819,"##sok":2820,"blogg":2821,"spela":2822,"egent":2823,"kok":2824,"##unn":2825,"sang":2826,"##ocker":2827,"soker":2828,"##iner":2829,"##klar":2830,"##of":2831,"spr":2832,"ville":2833,"helst":2834,"ganger":2835,"sw":2836,"00":2837,"mamma":2838,"ener":2839,"bast":2840,"ovr":2841,"fortsatt":2842,"ytter":2843,"##ari":2844,"##kten":2845,"##ester":2846,"##oter":2847,"##ind":2848,"aktiv":2849,"##pen":2850,"ben":2851,"tyd":2852,"inst":2853,"forut":2854,"utfor":2855,"mojligt":2856,"hast":2857,"procent":2858,"natt":2859,"tot":2860,"bon":2861,"stark":2862,"sett":2863,"funktion":2864,"##ies":2865,"if":2866,"##erial":2867,"snabbt":2868,"mobil":2869,"##istr":2870,"trev":2871,"tills":2872,"##ternativ":2873,"hotell":2874,"##sdag":2875,"anal":2876,"borja":2877,"pla":2878,"storsta":2879,"fina":2880,"##lad":2881,"##cept":2882,"foren":2883,"perfekt":2884,"minst":2885,"##fe":2886,"##pe":2887,"her":2888,"sjalva":2889,"##its":2890,"##jo":2891,"##spro":2892,"##cka":2893,"rik":2894,"##dat":2895,"sidan":2896,"do":2897,"flesta":2898,"vant":2899,"system":2900,"bestall":2901,"klart":2902,"##lats":2903,"varlden":2904,"000":2905,"halv":2906,"##dejting":2907,"egentligen":2908,"##ynd":2909,"##gard":2910,"fyra":2911,"aret":2912,"##fol":2913,"##kan":2914,"viktigt":2915,"skolan":2916,"kult":2917,"visa":2918,"##ryck":2919,"gillar":2920,"bol":2921,"##band":2922,"flyg":2923,"san":2924,"##efon":2925,"morgon":2926,"publ":2927,"handlar":2928,"vecka":2929,"##alla":2930,"dej":2931,"jamfor":2932,"##ner":2933,"##nam":2934,"##ojd":2935,"ba":2936,"##ins":2937,"tem":2938,"mag":2939,"grupp":2940,"##cess":2941,"fann":2942,"vanligt":2943,"arbete":2944,"skapa":2945,"##edel":2946,"##drag":2947,"esk":2948,"minuter":2949,"nara":2950,"##bol":2951,"borde":2952,"free":2953,"ring":2954,"skriva":2955,"inter":2956,"bada":2957,"##sig":2958,"fod":2959,"dod":2960,"dan":2961,"tom":2962,"egna":2963,"kontro":2964,"fil":2965,"host":2966,"##ena":2967,"##under":2968,"enda":2969,"##sla":2970,"##ift":2971,"##ert":2972,"funger":2973,"utt":2974,"haha":2975,"##ona":2976,"tips":2977,"pos":2978,"video":2979,"##jor":2980,"hals":2981,"spar":2982,"##klart":2983,"##ite":2984,"kap":2985,"gangen":2986,"foral":2987,"natet":2988,"gatt":2989,"kund":2990,"##omen":2991,"##nader":2992,"ljus":2993,"##men":2994,"##ifran":2995,"valja":2996,"##lat":2997,"lilla":2998,"##orit":2999,"mode":3000,"lam":3001,"ens":3002,"bostad":3003,"##ension":3004,"veckan":3005,"hj":3006,"ho":3007,"alskar":3008,"ovan":3009,"ru":3010,"ide":3011,"##faren":3012,"musik":3013,"lagga":3014,"##rans":3015,"ku":3016,"##itu":3017,"##ograf":3018,"arbets":3019,"stand":3020,"aka":3021,"ins":3022,"casin":3023,"##fin":3024,"brukar":3025,"emot":3026,"go":3027,"moder":3028,"jan":3029,"massa":3030,"mid":3031,"organis":3032,"tjej":3033,"slapp":3034,"stra":3035,"timmar":3036,"medan":3037,"##arer":3038,"##lade":3039,"et":3040,"fraga":3041,"##ogen":3042,"bas":3043,"##ate":3044,"##ument":3045,"##uella":3046,"skar":3047,"##samma":3048,"alternativ":3049,"gav":3050,"serv":3051,"##varande":3052,"##fil":3053,"##sin":3054,"bid":3055,"skick":3056,"verkar":3057,"livet":3058,"##ander":3059,"malmo":3060,"##ots":3061,"natdejting":3062,"but":3063,"samarbet":3064,"aff":3065,"sida":3066,"##ond":3067,"utveckling":3068,"##agg":3069,"dejta":3070,"##alis":3071,"##fik":3072,"ing":3073,"##oder":3074,"##ystem":3075,"kring":3076,"kraft":3077,"lug":3078,"priv":3079,"##nande":3080,"##otter":3081,"##fors":3082,"erbjuder":3083,"erot":3084,"narm":3085,"pop":3086,"super":3087,"prov":3088,"##anda":3089,"gener":3090,"tanka":3091,"betyd":3092,"##ember":3093,"##bel":3094,"##anga":3095,"##ivet":3096,"sch":3097,"##ppar":3098,"##sakring":3099,"##sidor":3100,"kronor":3101,"##enskap":3102,"kvalitet":3103,"skriver":3104,"delar":3105,"cy":3106,"heller":3107,"sommar":3108,"borjan":3109,"internet":3110,"##annande":3111,"webbplats":3112,"##bin":3113,"##okus":3114,"##andring":3115,"passar":3116,"kopp":3117,"##aa":3118,"##bor":3119,"produkter":3120,"kultur":3121,"ter":3122,"##ivt":3123,"topp":3124,"##unda":3125,"nej":3126,"##bygg":3127,"##ningarna":3128,"stan":3129,"##amer":3130,"vux":3131,"dags":3132,"##lingar":3133,"##oden":3134,"fanns":3135,"log":3136,"vem":3137,"tryck":3138,"##kost":3139,"tillfall":3140,"ac":3141,"rod":3142,"sall":3143,"telefon":3144,"##ras":3145,"gol":3146,"##anta":3147,"bred":3148,"##raft":3149,"##reg":3150,"##uld":3151,"lor":3152,"sem":3153,"rapp":3154,"##bud":3155,"##frag":3156,"##sst":3157,"##ler":3158,"talet":3159,"forra":3160,"sveriges":3161,"insp":3162,"gud":3163,"##ine":3164,"##anter":3165,"aren":3166,"##anger":3167,"ogon":3168,"program":3169,"kanna":3170,"bal":3171,"sarskilt":3172,"##juk":3173,"dro":3174,"hot":3175,"viktig":3176,"varandra":3177,"utanfor":3178,"test":3179,"##koping":3180,"2018":3181,"nak":3182,"erfaren":3183,"##full":3184,"smak":3185,"kommit":3186,"##oc":3187,"otro":3188,"artik":3189,"sagt":3190,"as":3191,"kvinna":3192,"sov":3193,"tanker":3194,"ata":3195,"hjalpa":3196,"fordel":3197,"roligt":3198,"install":3199,"finansi":3200,"kal":3201,"##raden":3202,"resp":3203,"text":3204,"##aler":3205,"##ore":3206,"##unkt":3207,"fokus":3208,"ps":3209,"nord":3210,"##xa":3211,"car":3212,"rost":3213,"um":3214,"ry":3215,"rekomm":3216,"vagen":3217,"djur":3218,"##sett":3219,"ton":3220,"##ven":3221,"gem":3222,"sakerhet":3223,"##anc":3224,"marknad":3225,"##rikt":3226,"##ron":3227,"##ns":3228,"vanner":3229,"##ror":3230,"jon":3231,"sas":3232,"##olut":3233,"klock":3234,"norr":3235,"skap":3236,"desig":3237,"skont":3238,"alls":3239,"genomfor":3240,"sing":3241,"lov":3242,"knapp":3243,"##atta":3244,"ars":3245,"##tem":3246,"trott":3247,"forslag":3248,"##eta":3249,"akte":3250,"prat":3251,"fav":3252,"nam":3253,"elever":3254,"##ivers":3255,"nov":3256,"anstall":3257,"##splats":3258,"##jter":3259,"##jarn":3260,"unga":3261,"bu":3262,"##jol":3263,"##alog":3264,"skatt":3265,"##oende":3266,"##ille":3267,"kyr":3268,"miljo":3269,"material":3270,"veta":3271,"tankte":3272,"vit":3273,"tagit":3274,"arbetar":3275,"##egor":3276,"##ity":3277,"traning":3278,"##ankt":3279,"bef":3280,"igenom":3281,"avslut":3282,"imorgon":3283,"sek":3284,"pri":3285,"veckor":3286,"kolla":3287,"polis":3288,"annars":3289,"park":3290,"##rift":3291,"allman":3292,"24":3293,"rep":3294,"fisk":3295,"sakert":3296,"lamn":3297,"fint":3298,"##tre":3299,"199":3300,"ytterligare":3301,"flytt":3302,"ek":3303,"##van":3304,"skill":3305,"eskort":3306,"##vs":3307,"upps":3308,"last":3309,"karl":3310,"bran":3311,"##emang":3312,"titta":3313,"reger":3314,"##snitt":3315,"hander":3316,"upplev":3317,"framtid":3318,"##pass":3319,"##ren":3320,"##stid":3321,"kunskap":3322,"satta":3323,"##rag":3324,"##kort":3325,"2017":3326,"energi":3327,"##iz":3328,"lyss":3329,"##hl":3330,"40":3331,"forsoka":3332,"##varr":3333,"21":3334,"##emot":3335,"ost":3336,"event":3337,"barnen":3338,"vak":3339,"kunder":3340,"##staur":3341,"##bund":3342,"##rang":3343,"##fer":3344,"##xx":3345,"inlagg":3346,"hud":3347,"##rukt":3348,"##verket":3349,"tyvarr":3350,"popul":3351,"prakt":3352,"##ium":3353,"##tera":3354,"mis":3355,"ungdom":3356,"effekt":3357,"##batt":3358,"##mat":3359,"fly":3360,"##boll":3361,"##ng":3362,"ej":3363,"##ruk":3364,"fungerar":3365,"##samt":3366,"##ioner":3367,"fon":3368,"anled":3369,"jord":3370,"jobbet":3371,"nation":3372,"medel":3373,"gamm":3374,"##pan":3375,"##ex":3376,"betala":3377,"anvands":3378,"inspir":3379,"22":3380,"dit":3381,"hej":3382,"stund":3383,"cir":3384,"social":3385,"oav":3386,"##eringen":3387,"univers":3388,"erbjud":3389,"##styr":3390,"##ke":3391,"##ht":3392,"mand":3393,"ham":3394,"mys":3395,"maj":3396,"##skatt":3397,"##sg":3398,"ansok":3399,"spelar":3400,"slag":3401,"registr":3402,"bakom":3403,"omfatt":3404,"##up":3405,"##star":3406,"fyll":3407,"johan":3408,"liksom":3409,"nedan":3410,"ifran":3411,"dec":3412,"##bro":3413,"abs":3414,"utbildning":3415,"spannande":3416,"gall":3417,"uppgifter":3418,"it":3419,"roll":3420,"##bok":3421,"innehaller":3422,"##kur":3423,"kamp":3424,"lara":3425,"##strom":3426,"traffa":3427,"skal":3428,"##yll":3429,"viss":3430,"kansl":3431,"visst":3432,"vardag":3433,"##ova":3434,"hamn":3435,"##atan":3436,"restaur":3437,"indiv":3438,"lank":3439,"##tes":3440,"yr":3441,"fard":3442,"##ork":3443,"##ash":3444,"##los":3445,"funder":3446,"kol":3447,"##sidan":3448,"oft":3449,"varde":3450,"bek":3451,"##unch":3452,"recept":3453,"##kvall":3454,"bedom":3455,"forbatt":3456,"forhall":3457,"usa":3458,"##vik":3459,"boken":3460,"inf":3461,"max":3462,"skad":3463,"luft":3464,"favorit":3465,"##spr":3466,"jun":3467,"##skin":3468,"lek":3469,"sadan":3470,"dok":3471,"produkt":3472,"##plan":3473,"filmer":3474,"##aster":3475,"undersok":3476,"##assage":3477,"##skolan":3478,"lugn":3479,"rekommender":3480,"fra":3481,"hard":3482,"manader":3483,"utom":3484,"##uren":3485,"internation":3486,"##ish":3487,"##ab":3488,"beskriv":3489,"bud":3490,"presenter":3491,"kvallen":3492,"dejtingsajt":3493,"hogre":3494,"beror":3495,"##ph":3496,"inkl":3497,"chans":3498,"jobba":3499,"##mt":3500,"kropp":3501,"vanlig":3502,"fredag":3503,"speciellt":3504,"##mor":3505,"##back":3506,"sexiga":3507,"dagens":3508,"aktivitet":3509,"##uder":3510,"knulla":3511,"##bord":3512,"bit":3513,"##skan":3514,"##gaende":3515,"##uell":3516,"mots":3517,"##grund":3518,"##okrat":3519,"posit":3520,"##ernas":3521,"hjalper":3522,"klader":3523,"##uppgifter":3524,"folja":3525,"igang":3526,"fu":3527,"fastighet":3528,"mm":3529,"later":3530,"ford":3531,"steg":3532,"lamp":3533,"gro":3534,"tred":3535,"##staende":3536,"plac":3537,"##efar":3538,"lad":3539,"##aten":3540,"valjer":3541,"teck":3542,"thai":3543,"mak":3544,"fragan":3545,"##namn":3546,"forsoker":3547,"oavsett":3548,"ander":3549,"situ":3550,"pe":3551,"holl":3552,"back":3553,"date":3554,"stol":3555,"krist":3556,"rom":3557,"forh":3558,"njut":3559,"##osa":3560,"bety":3561,"##ital":3562,"my":3563,"driv":3564,"sport":3565,"somm":3566,"omradet":3567,"##fri":3568,"bilden":3569,"gemen":3570,"sand":3571,"hav":3572,"porrfilm":3573,"alder":3574,"ungefar":3575,"##dar":3576,"##sav":3577,"engel":3578,"lagg":3579,"##arnas":3580,"centr":3581,"##ruppen":3582,"uppdat":3583,"helgen":3584,"##oo":3585,"heter":3586,"soder":3587,"peri":3588,"mi":3589,"amer":3590,"casino":3591,"fortsatta":3592,"forutom":3593,"##agare":3594,"tyckte":3595,"personal":3596,"23":3597,"##ten":3598,"lordag":3599,"snygg":3600,"##ive":3601,"sten":3602,"tillverk":3603,"##ink":3604,"vatt":3605,"skydd":3606,"forstar":3607,"otroligt":3608,"##okt":3609,"##eringar":3610,"komment":3611,"##ita":3612,"service":3613,"resa":3614,"##itut":3615,"lon":3616,"2015":3617,"2016":3618,"lev":3619,"eget":3620,"uppta":3621,"qu":3622,"klubb":3623,"skon":3624,"##ey":3625,"dy":3626,"goda":3627,"kroppen":3628,"wh":3629,"##ca":3630,"dju":3631,"mott":3632,"sker":3633,"varldens":3634,"##edag":3635,"vackra":3636,"exp":3637,"##co":3638,"gym":3639,"meddel":3640,"jav":3641,"him":3642,"##qu":3643,"glas":3644,"port":3645,"fest":3646,"mu":3647,"od":3648,"ivag":3649,"forvar":3650,"##ffe":3651,"blod":3652,"ovriga":3653,"wid":3654,"vanliga":3655,"bilen":3656,"privat":3657,"##skydd":3658,"##stol":3659,"##kla":3660,"jobbar":3661,"kara":3662,"##kr":3663,"avtal":3664,"##ifi":3665,"absolut":3666,"##erande":3667,"ljud":3668,"sant":3669,"klockan":3670,"##ota":3671,"no":3672,"##deles":3673,"avs":3674,"link":3675,"arets":3676,"oftast":3677,"ww":3678,"amator":3679,"kombin":3680,"stallet":3681,"ingar":3682,"public":3683,"pati":3684,"landet":3685,"kostnad":3686,"##otek":3687,"dejtingsidor":3688,"lamna":3689,"totalt":3690,"cl":3691,"transp":3692,"lop":3693,"karlek":3694,"nod":3695,"krit":3696,"hjart":3697,"##book":3698,"##vart":3699,"pappa":3700,"##rust":3701,"##orl":3702,"psyk":3703,"dejtingsajter":3704,"smart":3705,"berg":3706,"tjanster":3707,"##ugg":3708,"ram":3709,"##skor":3710,"##ktioner":3711,"tol":3712,"60":3713,"vilja":3714,"##dde":3715,"godk":3716,"mog":3717,"massor":3718,"komple":3719,"ap":3720,"##agar":3721,"alldeles":3722,"spelare":3723,"##ure":3724,"mote":3725,"sil":3726,"arbetet":3727,"behandling":3728,"kontakta":3729,"##skade":3730,"cm":3731,"utman":3732,"glom":3733,"thaim":3734,"brost":3735,"aug":3736,"defin":3737,"arbeta":3738,"##emal":3739,"aker":3740,"swed":3741,"##llen":3742,"paver":3743,"lunch":3744,"##ffa":3745,"forsakring":3746,"behovs":3747,"##uellt":3748,"##otten":3749,"skog":3750,"lans":3751,"dejt":3752,"juni":3753,"ass":3754,"naturligt":3755,"miljoner":3756,"##lands":3757,"##yndighet":3758,"span":3759,"tak":3760,"effektiv":3761,"##skaper":3762,"www":3763,"2014":3764,"##betal":3765,"buss":3766,"darmed":3767,"slutet":3768,"betyder":3769,"deltag":3770,"##skad":3771,"##he":3772,"face":3773,"##any":3774,"skrev":3775,"mod":3776,"foljande":3777,"##rammet":3778,"##ide":3779,"niva":3780,"##ativa":3781,"rack":3782,"##bruk":3783,"##folj":3784,"kopte":3785,"ph":3786,"mars":3787,"##allt":3788,"forandring":3789,"kram":3790,"sur":3791,"intressant":3792,"##stor":3793,"anvandas":3794,"##met":3795,"vol":3796,"norm":3797,"##isar":3798,"apr":3799,"beroende":3800,"tredje":3801,"dubb":3802,"xxx":3803,"gammal":3804,"erfarenhet":3805,"sep":3806,"exempelvis":3807,"flick":3808,"design":3809,"kravs":3810,"gron":3811,"framst":3812,"##ktig":3813,"namligen":3814,"thaimassage":3815,"antligen":3816,"helg":3817,"hora":3818,"poang":3819,"##enn":3820,"vari":3821,"sitta":3822,"samband":3823,"okt":3824,"##oren":3825,"daremot":3826,"ko":3827,"kande":3828,"tri":3829,"universitet":3830,"##ern":3831,"dare":3832,"tradition":3833,"menar":3834,"prin":3835,"spring":3836,"##kommen":3837,"uppdrag":3838,"frukost":3839,"promen":3840,"##ko":3841,"fan":3842,"##skott":3843,"sprak":3844,"oppna":3845,"ikvall":3846,"sondag":3847,"filmen":3848,"tj":3849,"nan":3850,"##huset":3851,"fys":3852,"stil":3853,"##komst":3854,"invest":3855,"forfatt":3856,"##part":3857,"prata":3858,"sadana":3859,"##ations":3860,"berattar":3861,"##ferens":3862,"liknande":3863,"##iden":3864,"anmal":3865,"kora":3866,"ske":3867,"trygg":3868,"lata":3869,"##garder":3870,"forvant":3871,"##garden":3872,"tankt":3873,"bocker":3874,"darefter":3875,"##urn":3876,"##klader":3877,"fotboll":3878,"pal":3879,"##imm":3880,"tand":3881,"hittade":3882,"tio":3883,"laser":3884,"##icin":3885,"fas":3886,"##utveck":3887,"fla":3888,"##alist":3889,"klipp":3890,"##sattningar":3891,"##bered":3892,"##tering":3893,"##ge":3894,"klicka":3895,"uppf":3896,"##kta":3897,"bygga":3898,"##ativt":3899,"##nu":3900,"kam":3901,"##me":3902,"trafik":3903,"hit":3904,"sommaren":3905,"##tar":3906,"foretaget":3907,"gal":3908,"##but":3909,"valj":3910,"##cke":3911,"lagger":3912,"##bi":3913,"##skl":3914,"##foretag":3915,"##kring":3916,"##ild":3917,"interv":3918,"laget":3919,"##isa":3920,"sjalvklart":3921,"finnas":3922,"hemsida":3923,"analys":3924,"facebook":3925,"data":3926,"##itta":3927,"pot":3928,"oro":3929,"uppsala":3930,"plus":3931,"langa":3932,"##skr":3933,"skicka":3934,"huset":3935,"brott":3936,"##sel":3937,"videos":3938,"semester":3939,"##handling":3940,"sova":3941,"##yss":3942,"##ammer":3943,"vanster":3944,"##har":3945,"sjukdom":3946,"trak":3947,"regel":3948,"forsvar":3949,"##splan":3950,"present":3951,"middag":3952,"hum":3953,"varder":3954,"rut":3955,"personliga":3956,"fal":3957,"ensam":3958,"behova":3959,"##vin":3960,"sort":3961,"##jen":3962,"avl":3963,"##zny":3964,"dla":3965,"meter":3966,"##ober":3967,"klara":3968,"##produ":3969,"dist":3970,"##ith":3971,"##anych":3972,"bestar":3973,"##owanych":3974,"zalog":3975,"##oczny":3976,"widoczny":3977,"zalogowanych":3978,"allvar":3979,"process":3980,"poj":3981,"dorr":3982,"utred":3983,"delen":3984,"new":3985,"familjen":3986,"foljer":3987,"bj":3988,"##ongen":3989,"##hang":3990,"vantar":3991,"##ktyg":3992,"misst":3993,"##ocka":3994,"bla":3995,"##yld":3996,"con":3997,"chef":3998,"nojd":3999,"server":4000,"engelska":4001,"##ovis":4002,"26":4003,"##po":4004,"anslut":4005,"##grupp":4006,"##forande":4007,"lund":4008,"valkommen":4009,"dans":4010,"28":4011,"27":4012,"##af":4013,"fullt":4014,"besk":4015,"fortsatter":4016,"sim":4017,"katt":4018,"##utbild":4019,"amerik":4020,"grad":4021,"foraldrar":4022,"hant":4023,"##irl":4024,"historia":4025,"yng":4026,"##fess":4027,"lander":4028,"borjat":4029,"medlemmar":4030,"offent":4031,"num":4032,"vare":4033,"oka":4034,"dri":4035,"prova":4036,"ark":4037,"##ba":4038,"konkur":4039,"forsalj":4040,"teknik":4041,"reda":4042,"guld":4043,"##unnit":4044,"##verkan":4045,"##sd":4046,"##vent":4047,"##igen":4048,"ros":4049,"##stallning":4050,"htt":4051,"##repp":4052,"ul":4053,"jar":4054,"ban":4055,"byg":4056,"dejtingsida":4057,"daligt":4058,"samtliga":4059,"anv":4060,"dela":4061,"bod":4062,"vinter":4063,"fir":4064,"kri":4065,"au":4066,"rull":4067,"enskil":4068,"##fte":4069,"forsv":4070,"tillrack":4071,"lju":4072,"scen":4073,"forklar":4074,"ore":4075,"##garna":4076,"restaurang":4077,"feb":4078,"lagt":4079,"sidor":4080,"intresse":4081,"litet":4082,"visade":4083,"2013":4084,"tanke":4085,"lager":4086,"uppe":4087,"utifran":4088,"you":4089,"kommunen":4090,"stopp":4091,"##ktor":4092,"samtal":4093,"tidigt":4094,"##skt":4095,"bolag":4096,"##50":4097,"##skola":4098,"hogt":4099,"##stans":4100,"varen":4101,"region":4102,"cirka":4103,"tvatt":4104,"septem":4105,"dator":4106,"##rav":4107,"august":4108,"trodde":4109,"tavling":4110,"##lare":4111,"september":4112,"kontroller":4113,"larare":4114,"sist":4115,"umea":4116,"let":4117,"ont":4118,"radd":4119,"janu":4120,"tim":4121,"##ikation":4122,"##itar":4123,"##san":4124,"sasom":4125,"##mi":4126,"##inne":4127,"motor":4128,"svara":4129,"##ften":4130,"dokument":4131,"ras":4132,"##enten":4133,"omkring":4134,"drag":4135,"##janst":4136,"beratta":4137,"tex":4138,"framgang":4139,"##pol":4140,"dis":4141,"##raff":4142,"##sing":4143,"sadant":4144,"imp":4145,"##ora":4146,"uppmark":4147,"out":4148,"november":4149,"utmar":4150,"indu":4151,"nodvand":4152,"begrans":4153,"skillnad":4154,"leva":4155,"cykel":4156,"icke":4157,"inled":4158,"underhall":4159,"##ism":4160,"frukt":4161,"villkor":4162,"skit":4163,"halsa":4164,"oper":4165,"uttryck":4166,"hamt":4167,"fotograf":4168,"hart":4169,"##iel":4170,"erik":4171,"##ly":4172,"mail":4173,"profess":4174,"##vaxt":4175,"##fs":4176,"##imat":4177,"staden":4178,"fe":4179,"europa":4180,"29":4181,"oktober":4182,"tus":4183,"##arbete":4184,"kategor":4185,"##teck":4186,"##etens":4187,"##terna":4188,"exper":4189,"april":4190,"##fa":4191,"bakgrund":4192,"rec":4193,"kraver":4194,"kung":4195,"##iteten":4196,"sym":4197,"elekt":4198,"##urs":4199,"dalig":4200,"##ligheten":4201,"antalet":4202,"saval":4203,"drog":4204,"vas":4205,"skan":4206,"je":4207,"sociala":4208,"##bes":4209,"individ":4210,"##iat":4211,"kalla":4212,"bju":4213,"januari":4214,"dels":4215,"exakt":4216,"insats":4217,"##ach":4218,"utveckla":4219,"##seende":4220,"##rummet":4221,"ena":4222,"##ions":4223,"ret":4224,"bat":4225,"bloggen":4226,"leg":4227,"arrang":4228,"forel":4229,"ir":4230,"##ktionen":4231,"allra":4232,"##erades":4233,"##vall":4234,"engag":4235,"##slan":4236,"hoga":4237,"fores":4238,"salj":4239,"##bli":4240,"##mid":4241,"nakna":4242,"mej":4243,"skola":4244,"##blad":4245,"fjar":4246,"vader":4247,"vers":4248,"solen":4249,"samarbete":4250,"himla":4251,"skapar":4252,"fo":4253,"nyhet":4254,"avgor":4255,"joh":4256,"forek":4257,"kandes":4258,"upptack":4259,"sats":4260,"##medel":4261,"trevlig":4262,"fro":4263,"2012":4264,"mogna":4265,"onskar":4266,"autom":4267,"##person":4268,"mojligheter":4269,"##ton":4270,"##ruktur":4271,"kontroll":4272,"##ias":4273,"mera":4274,"##oms":4275,"##her":4276,"##pris":4277,"bonus":4278,"##ix":4279,"kuk":4280,"onsk":4281,"stalla":4282,"198":4283,"##20":4284,"anna":4285,"gast":4286,"80":4287,"diskuter":4288,"avsnitt":4289,"##aljer":4290,"ident":4291,"hang":4292,"kille":4293,"vir":4294,"kott":4295,"jatte":4296,"viktiga":4297,"500":4298,"##ktar":4299,"##centr":4300,"jack":4301,"mannen":4302,"##ban":4303,"fart":4304,"frit":4305,"sann":4306,"rent":4307,"##kont":4308,"31":4309,"##stri":4310,"rapporter":4311,"##kade":4312,"ed":4313,"##ommer":4314,"arbetsm":4315,"##gram":4316,"##ica":4317,"kata":4318,"ovrigt":4319,"##ips":4320,"##hem":4321,"##vara":4322,"butik":4323,"extre":4324,"##ement":4325,"senast":4326,"priser":4327,"december":4328,"stress":4329,"skra":4330,"tit":4331,"##ycken":4332,"tas":4333,"trevligt":4334,"##nytt":4335,"##perat":4336,"soka":4337,"erbjuda":4338,"##kes":4339,"##ump":4340,"rek":4341,"kart":4342,"tjanst":4343,"forskning":4344,"##bur":4345,"upple":4346,"##ald":4347,"profil":4348,"varmt":4349,"hoger":4350,"berak":4351,"##cc":4352,"##etter":4353,"seg":4354,"storlek":4355,"##ommar":4356,"lokal":4357,"brand":4358,"vitt":4359,"70":4360,"##ula":4361,"fang":4362,"princi":4363,"press":4364,"les":4365,"forstas":4366,"girl":4367,"trana":4368,"##kn":4369,"typer":4370,"bord":4371,"##still":4372,"helsing":4373,"dam":4374,"leder":4375,"##inar":4376,"medicin":4377,"resten":4378,"anser":4379,"##inder":4380,"got":4381,"##ektive":4382,"lana":4383,"##endet":4384,"kallas":4385,"platser":4386,"bekv":4387,"plots":4388,"stockholms":4389,"spelet":4390,"90":4391,"anledning":4392,"mun":4393,"##erier":4394,"lattare":4395,"respektive":4396,"##iens":4397,"dusch":4398,"##lex":4399,"nagonsin":4400,"mjol":4401,"kansla":4402,"kak":4403,"forvalt":4404,"##za":4405,"tab":4406,"##vagen":4407,"##use":4408,"enbart":4409,"km":4410,"list":4411,"bev":4412,"uppgift":4413,"##delning":4414,"fantastiskt":4415,"live":4416,"kaffe":4417,"mandag":4418,"atgarder":4419,"infl":4420,"ager":4421,"skrivit":4422,"##hal":4423,"natten":4424,"pension":4425,"knappt":4426,"satter":4427,"##trad":4428,"opt":4429,"anpass":4430,"##ting":4431,"sot":4432,"vacker":4433,"uppskatt":4434,"skor":4435,"cit":4436,"##oppet":4437,"lyckas":4438,"dryg":4439,"okar":4440,"njuta":4441,"verksamheten":4442,"sjukt":4443,"framtiden":4444,"##laggning":4445,"gay":4446,"produc":4447,"reser":4448,"lind":4449,"vanta":4450,"snar":4451,"sund":4452,"##ierna":4453,"sangen":4454,"fantastisk":4455,"juli":4456,"fix":4457,"agg":4458,"##mme":4459,"web":4460,"lokala":4461,"2010":4462,"bre":4463,"ladd":4464,"krig":4465,"saknar":4466,"oster":4467,"testa":4468,"osv":4469,"puss":4470,"hom":4471,"gymnas":4472,"tw":4473,"rapport":4474,"##hamn":4475,"##hu":4476,"lagre":4477,"syft":4478,"datum":4479,"byta":4480,"##oret":4481,"##verksamhet":4482,"regler":4483,"##enting":4484,"nr":4485,"dagarna":4486,"char":4487,"##yp":4488,"handla":4489,"hogsta":4490,"tis":4491,"leverant":4492,"arm":4493,"stang":4494,"ax":4495,"##ight":4496,"chat":4497,"resultatet":4498,"ah":4499,"integr":4500,"salt":4501,"regeringen":4502,"borta":4503,"45":4504,"##bon":4505,"oppen":4506,"utmarkt":4507,"##ningsvis":4508,"drabb":4509,"##igg":4510,"##skapet":4511,"##nos":4512,"undrar":4513,"##serv":4514,"sjun":4515,"##eller":4516,"ingenting":4517,"2011":4518,"augusti":4519,"medvet":4520,"##varder":4521,"yngre":4522,"bestam":4523,"os":4524,"inred":4525,"saklart":4526,"##rip":4527,"band":4528,"iaf":4529,"not":4530,"cook":4531,"##bolag":4532,"givet":4533,"inb":4534,"laga":4535,"lakem":4536,"omrade":4537,"##ager":4538,"lock":4539,"ital":4540,"omraden":4541,"vuxna":4542,"varme":4543,"cam":4544,"team":4545,"##skning":4546,"black":4547,"##fritt":4548,"stre":4549,"hosten":4550,"sat":4551,"paket":4552,"kostnader":4553,"marknaden":4554,"##vist":4555,"idrott":4556,"lyssna":4557,"lagenhet":4558,"##larna":4559,"af":4560,"##iment":4561,"boende":4562,"rid":4563,"##ii":4564,"verktyg":4565,"foto":4566,"spa":4567,"sign":4568,"hol":4569,"bilar":4570,"orebro":4571,"sluta":4572,"namnet":4573,"mjuk":4574,"##bilder":4575,"##iti":4576,"tankar":4577,"spara":4578,"##lam":4579,"neg":4580,"rabatt":4581,"##foren":4582,"dotter":4583,"starka":4584,"##orge":4585,"##entligt":4586,"kunnat":4587,"plotsligt":4588,"drar":4589,"boll":4590,"anvandning":4591,"##ologi":4592,"repres":4593,"platt":4594,"artikel":4595,"stam":4596,"tillrackligt":4597,"##onen":4598,"billig":4599,"eta":4600,"##kat":4601,"##varden":4602,"fantastiska":4603,"adress":4604,"bry":4605,"pan":4606,"##ssystem":4607,"##ogg":4608,"##ids":4609,"mart":4610,"kompetens":4611,"sno":4612,"nack":4613,"lack":4614,"digit":4615,"##isen":4616,"damer":4617,"##wa":4618,"##ckar":4619,"centrum":4620,"modern":4621,"tysk":4622,"kant":4623,"##visning":4624,"##ib":4625,"shopp":4626,"##onser":4627,"ligga":4628,"sms":4629,"arg":4630,"ses":4631,"##fort":4632,"197":4633,"blomm":4634,"naring":4635,"##ich":4636,"bur":4637,"halso":4638,"##oklad":4639,"samhallet":4640,"priset":4641,"special":4642,"finland":4643,"##orlunda":4644,"ihag":4645,"##enti":4646,"valt":4647,"utgor":4648,"vita":4649,"##givare":4650,"ekonomiska":4651,"##rit":4652,"timme":4653,"miljon":4654,"konto":4655,"tillhor":4656,"javla":4657,"tillstand":4658,"##eder":4659,"naturligtvis":4660,"slipp":4661,"##stav":4662,"harligt":4663,"framat":4664,"##hov":4665,"aktiviteter":4666,"ansokan":4667,"##ama":4668,"febru":4669,"enor":4670,"##edd":4671,"nyheter":4672,"##omma":4673,"mesta":4674,"standard":4675,"sasong":4676,"##klam":4677,"##itter":4678,"##ffan":4679,"##emokrat":4680,"andel":4681,"nagonting":4682,"utbud":4683,"forbered":4684,"medarbet":4685,"kil":4686,"##pport":4687,"##estall":4688,"narmare":4689,"##cep":4690,"vinna":4691,"##mer":4692,"antingen":4693,"##inst":4694,"klimat":4695,"kurs":4696,"visste":4697,"##ungen":4698,"##istik":4699,"35":4700,"##enta":4701,"rolig":4702,"##mon":4703,"##gran":4704,"enkl":4705,"vagar":4706,"taget":4707,"##ette":4708,"##slaget":4709,"valkom":4710,"stann":4711,"ordforande":4712,"minska":4713,"##lor":4714,"kommande":4715,"urspr":4716,"##uten":4717,"vuxen":4718,"##lande":4719,"tradgard":4720,"##spektiv":4721,"utnytt":4722,"fj":4723,"##mann":4724,"ersatt":4725,"promenad":4726,"skade":4727,"##sar":4728,"##inal":4729,"mangd":4730,"erotisk":4731,"##mmen":4732,"##bundet":4733,"projektet":4734,"vore":4735,"mad":4736,"##ue":4737,"##gren":4738,"betyg":4739,"vattnet":4740,"kyl":4741,"passa":4742,"##lo":4743,"formod":4744,"torsdag":4745,"##yra":4746,"serien":4747,"djup":4748,"bidrag":4749,"nummer":4750,"##len":4751,"##ista":4752,"februari":4753,"##iter":4754,"flytta":4755,"##ills":4756,"bygger":4757,"hd":4758,"##nummer":4759,"huvudet":4760,"##hav":4761,"##cy":4762,"##fiken":4763,"bransch":4764,"forening":4765,"bus":4766,"okej":4767,"malet":4768,"##gas":4769,"uppfatt":4770,"##ve":4771,"strax":4772,"utrust":4773,"nyck":4774,"kla":4775,"etc":4776,"datorn":4777,"##ors":4778,"##ansen":4779,"ladda":4780,"ekonomi":4781,"forbi":4782,"forhopp":4783,"anders":4784,"matchen":4785,"finansiella":4786,"##ammar":4787,"harlig":4788,"##usive":4789,"affar":4790,"fitta":4791,"tonar":4792,"tillamp":4793,"info":4794,"ursprung":4795,"dvs":4796,"##let":4797,"yt":4798,"hamta":4799,"myndighet":4800,"with":4801,"organisation":4802,"ill":4803,"##ee":4804,"##oga":4805,"##ppa":4806,"##ub":4807,"plast":4808,"vind":4809,"europe":4810,"stick":4811,"prote":4812,"eftermid":4813,"redovis":4814,"rev":4815,"##slagen":4816,"satte":4817,"yrkes":4818,"spelade":4819,"betydligt":4820,"arbetsl":4821,"triv":4822,"farger":4823,"##vens":4824,"##stalla":4825,"##ih":4826,"##atet":4827,"tube":4828,"italien":4829,"regl":4830,"kre":4831,"mork":4832,"starkt":4833,"hell":4834,"forlor":4835,"##ode":4836,"jur":4837,"intervju":4838,"snygga":4839,"horn":4840,"mask":4841,"##adress":4842,"komplett":4843,"strack":4844,"choklad":4845,"##edagog":4846,"tanken":4847,"maten":4848,"aut":4849,"ug":4850,"fonster":4851,"diskuss":4852,"programmet":4853,"##sdagen":4854,"korde":4855,"jes":4856,"underbart":4857,"kostar":4858,"gallande":4859,"##port":4860,"automat":4861,"amb":4862,"vall":4863,"marknadsfor":4864,"gravid":4865,"delta":4866,"##jon":4867,"viktigaste":4868,"glob":4869,"##lang":4870,"##pun":4871,"dest":4872,"bestalla":4873,"transport":4874,"tving":4875,"##una":4876,"fixa":4877,"##ila":4878,"tydligt":4879,"##ube":4880,"regn":4881,"mel":4882,"antag":4883,"pratar":4884,"studer":4885,"vinst":4886,"##ric":4887,"energ":4888,"##kant":4889,"vaster":4890,"skyd":4891,"grader":4892,"ansikt":4893,"frisk":4894,"normalt":4895,"jamfort":4896,"##slapp":4897,"tittar":4898,"entre":4899,"##vika":4900,"##ordning":4901,"riktig":4902,"smar":4903,"kast":4904,"skratt":4905,"lesb":4906,"##ros":4907,"##stone":4908,"##skon":4909,"##lov":4910,"goog":4911,"vars":4912,"dubbel":4913,"http":4914,"polisen":4915,"##farg":4916,"##kopp":4917,"##rast":4918,"##inge":4919,"underklader":4920,"are":4921,"staller":4922,"modell":4923,"rok":4924,"##ringar":4925,"up":4926,"sod":4927,"forsam":4928,"2009":4929,"monster":4930,"killar":4931,"roliga":4932,"##varl":4933,"bolaget":4934,"##erings":4935,"spender":4936,"veg":4937,"anstallda":4938,"accep":4939,"sexlek":4940,"cookies":4941,"brev":4942,"##spekt":4943,"##sex":4944,"maskin":4945,"landst":4946,"lage":4947,"koper":4948,"##gangen":4949,"##asa":4950,"media":4951,"underbara":4952,"##onom":4953,"reklam":4954,"svarta":4955,"fag":4956,"ytt":4957,"goras":4958,"makt":4959,"smal":4960,"morgonen":4961,"budget":4962,"lyckades":4963,"oppet":4964,"##pack":4965,"forhallande":4966,"##styrelsen":4967,"porno":4968,"period":4969,"vaxt":4970,"##uts":4971,"personuppgifter":4972,"##ben":4973,"##atch":4974,"##iljo":4975,"onsdag":4976,"forutsattningar":4977,"rygg":4978,"detaljer":4979,"gors":4980,"alko":4981,"bilderna":4982,"##bank":4983,"syd":4984,"ialla":4985,"visas":4986,"##rande":4987,"##utveckling":4988,"atmin":4989,"sub":4990,"numera":4991,"##uta":4992,"annorlunda":4993,"kopt":4994,"forr":4995,"##bas":4996,"vetenskap":4997,"vinn":4998,"##we":4999,"byggnad":5000,"skjut":5001,"dyg":5002,"##ligheter":5003,"dyr":5004,"inlag":5005,"##umark":5006,"##umenter":5007,"fored":5008,"lakare":5009,"norge":5010,"produktion":5011,"hallbar":5012,"fett":5013,"ges":5014,"##kast":5015,"300":5016,"jor":5017,"skul":5018,"##dern":5019,"bestamm":5020,"jak":5021,"studie":5022,"intresserad":5023,"##sratt":5024,"##ansvar":5025,"drygt":5026,"isl":5027,"etabl":5028,"slar":5029,"valde":5030,"rejal":5031,"sannol":5032,"formodligen":5033,"papper":5034,"singlar":5035,"vand":5036,"36":5037,"##assan":5038,"##fton":5039,"##sled":5040,"boka":5041,"lamnar":5042,"politik":5043,"##ola":5044,"begar":5045,"syfte":5046,"skil":5047,"drom":5048,"givetvis":5049,"##ele":5050,"konstigt":5051,"kompis":5052,"orkar":5053,"##ivan":5054,"##zz":5055,"naken":5056,"noj":5057,"ordning":5058,"##urser":5059,"jarn":5060,"punkt":5061,"##stod":5062,"01":5063,"stalle":5064,"mol":5065,"##kraft":5066,"relig":5067,"##utt":5068,"fordon":5069,"07":5070,"rosa":5071,"hogst":5072,"rummet":5073,"iallafall":5074,"##igh":5075,"varden":5076,"atminstone":5077,"##urer":5078,"##talet":5079,"internationella":5080,"populara":5081,"##leken":5082,"mg":5083,"skane":5084,"##lund":5085,"08":5086,"mogen":5087,"##ios":5088,"dol":5089,"balans":5090,"alkohol":5091,"langs":5092,"tydligen":5093,"gard":5094,"##aden":5095,"paverkar":5096,"institut":5097,"forsaljning":5098,"lugnt":5099,"personlig":5100,"##sorg":5101,"utover":5102,"##ologiska":5103,"underbar":5104,"atta":5105,"cre":5106,"##chef":5107,"helsingborg":5108,"nil":5109,"angel":5110,"hantera":5111,"konstat":5112,"christ":5113,"detalj":5114,"can":5115,"##ilt":5116,"serie":5117,"##roll":5118,"maria":5119,"problemet":5120,"flash":5121,"leda":5122,"klarar":5123,"##fard":5124,"minns":5125,"196":5126,"mamm":5127,"hort":5128,"bruk":5129,"pengarna":5130,"formaga":5131,"##anner":5132,"ordentligt":5133,"hittat":5134,"##ategi":5135,"sasongen":5136,"industri":5137,"overt":5138,"garanter":5139,"##xi":5140,"tala":5141,"noter":5142,"varumark":5143,"ungdomar":5144,"##skal":5145,"##terar":5146,"mansk":5147,"strand":5148,"anvant":5149,"talar":5150,"starta":5151,"herr":5152,"##lys":5153,"siff":5154,"soffan":5155,"tisdag":5156,"konkurr":5157,"salja":5158,"invand":5159,"princip":5160,"hojd":5161,"yout":5162,"forbattra":5163,"profession":5164,"##skri":5165,"kapital":5166,"peter":5167,"slog":5168,"##ase":5169,"##enden":5170,"##bu":5171,"saljer":5172,"sodra":5173,"funkar":5174,"fing":5175,"kommunikation":5176,"sorter":5177,"stabil":5178,"##kommer":5179,"##splatsen":5180,"##por":5181,"##ake":5182,"svang":5183,"##punkt":5184,"mik":5185,"milf":5186,"2008":5187,"utvecklas":5188,"lista":5189,"slakt":5190,"framt":5191,"partner":5192,"utry":5193,"inkop":5194,"##anen":5195,"okad":5196,"##brott":5197,"journ":5198,"orsa":5199,"ersattning":5200,"sexleksaker":5201,"forum":5202,"bibli":5203,"sent":5204,"##ise":5205,"aktie":5206,"enkla":5207,"manniska":5208,"##ction":5209,"sallan":5210,"skr":5211,"slutade":5212,"admin":5213,"##ori":5214,"##ansk":5215,"gif":5216,"##ular":5217,"betydelse":5218,"kem":5219,"inklusive":5220,"##kans":5221,"##elat":5222,"brod":5223,"asikt":5224,"ref":5225,"roda":5226,"foreningen":5227,"racker":5228,"##prov":5229,"forelas":5230,"##gj":5231,"lant":5232,"stanna":5233,"##ands":5234,"##ment":5235,"mojligheten":5236,"rem":5237,"olyck":5238,"##atar":5239,"##handa":5240,"##istiska":5241,"##klass":5242,"gratt":5243,"op":5244,"uppen":5245,"##spol":5246,"klad":5247,"##kning":5248,"##behor":5249,"temperat":5250,"modeller":5251,"##pren":5252,"gruppen":5253,"##ugga":5254,"vaknade":5255,"gladje":5256,"demokrat":5257,"styrelsen":5258,"utform":5259,"forsokte":5260,"bri":5261,"gjord":5262,"gett":5263,"finner":5264,"##mot":5265,"##hort":5266,"##fragan":5267,"varken":5268,"fyller":5269,"##ood":5270,"sprang":5271,"tun":5272,"will":5273,"##pla":5274,"patienter":5275,"##skont":5276,"singel":5277,"oj":5278,"vackert":5279,"mysigt":5280,"##itivt":5281,"##ivare":5282,"frank":5283,"losningar":5284,"avgift":5285,"skyld":5286,"##entyr":5287,"##amen":5288,"kommentar":5289,"amnen":5290,"magen":5291,"allmanna":5292,"leverans":5293,"##ec":5294,"studier":5295,"hotellet":5296,"##son":5297,"##stift":5298,"politiska":5299,"utvecklingen":5300,"##gt":5301,"dack":5302,"##fest":5303,"##halla":5304,"barnet":5305,"diag":5306,"##blick":5307,"losa":5308,"bom":5309,"city":5310,"livsm":5311,"09":5312,"rattigheter":5313,"play":5314,"##si":5315,"##ici":5316,"##skomm":5317,"sweden":5318,"mitten":5319,"##givning":5320,"tyst":5321,"stjarn":5322,"tunn":5323,"springa":5324,"litt":5325,"vaxer":5326,"hyp":5327,"konsek":5328,"total":5329,"tum":5330,"##press":5331,"mats":5332,"inkluder":5333,"ik":5334,"##ollar":5335,"andre":5336,"bestamt":5337,"torr":5338,"brist":5339,"genomsnitt":5340,"sammanhang":5341,"##gl":5342,"##oss":5343,"natverk":5344,"situation":5345,"ranta":5346,"tillvaxt":5347,"spra":5348,"funn":5349,"##ige":5350,"marken":5351,"comm":5352,"lust":5353,"tung":5354,"carl":5355,"##jas":5356,"faktum":5357,"kommuner":5358,"skid":5359,"enhet":5360,"laste":5361,"##ancer":5362,"nuvarande":5363,"##ower":5364,"skott":5365,"snarare":5366,"##ual":5367,"##ura":5368,"site":5369,"fung":5370,"##klara":5371,"sof":5372,"skogen":5373,"nik":5374,"resan":5375,"lars":5376,"utgang":5377,"tyg":5378,"grill":5379,"upplevelse":5380,"##hy":5381,"happ":5382,"##amin":5383,"##pet":5384,"vat":5385,"funktioner":5386,"bjuder":5387,"bete":5388,"sajt":5389,"norra":5390,"##phone":5391,"##pat":5392,"inspiration":5393,"##igheten":5394,"utsikt":5395,"orig":5396,"kamer":5397,"hann":5398,"valet":5399,"##server":5400,"omedel":5401,"##xor":5402,"mota":5403,"##delar":5404,"letar":5405,"kg":5406,"fodd":5407,"muse":5408,"##emat":5409,"lill":5410,"fungera":5411,"objekt":5412,"betalar":5413,"era":5414,"medarbetare":5415,"mojliga":5416,"##rom":5417,"undant":5418,"kill":5419,"grav":5420,"nas":5421,"hoj":5422,"hed":5423,"paverka":5424,"rekommenderar":5425,"jobbigt":5426,"socker":5427,"##fan":5428,"recension":5429,"##own":5430,"anses":5431,"kanda":5432,"utvarder":5433,"sattet":5434,"##les":5435,"syster":5436,"bilje":5437,"innov":5438,"musk":5439,"##agaren":5440,"##maskin":5441,"##klubb":5442,"allm":5443,"besoka":5444,"this":5445,"regering":5446,"##god":5447,"mord":5448,"pet":5449,"##arens":5450,"##llop":5451,"aktuella":5452,"oer":5453,"ack":5454,"youtube":5455,"rea":5456,"##ho":5457,"redo":5458,"stig":5459,"risken":5460,"synd":5461,"##aket":5462,"kyrkan":5463,"amerikanska":5464,"relativt":5465,"platsen":5466,"popular":5467,"##angen":5468,"##akning":5469,"kommentarer":5470,"utland":5471,"##hel":5472,"eleverna":5473,"32":5474,"##skrivning":5475,"ep":5476,"framforallt":5477,"illa":5478,"tekniska":5479,"inrikt":5480,"strom":5481,"kallade":5482,"ringa":5483,"narheten":5484,"hushall":5485,"personen":5486,"##roende":5487,"sikt":5488,"harliga":5489,"student":5490,"hinner":5491,"##30":5492,"##istan":5493,"slags":5494,"behovde":5495,"##osition":5496,"flickor":5497,"rock":5498,"kanslor":5499,"chansen":5500,"##natt":5501,"stal":5502,"kampan":5503,"motstand":5504,"##svall":5505,"enklare":5506,"brun":5507,"orsak":5508,"##elserna":5509,"handling":5510,"hjar":5511,"stycken":5512,"standigt":5513,"ideer":5514,"appar":5515,"don":5516,"nyligen":5517,"overra":5518,"tat":5519,"lyx":5520,"inkomst":5521,"##vax":5522,"drift":5523,"hyres":5524,"fardig":5525,"videor":5526,"gavle":5527,"##grad":5528,"skada":5529,"tapp":5530,"definitivt":5531,"exkl":5532,"undan":5533,"kors":5534,"##vatt":5535,"fack":5536,"jonkoping":5537,"##10":5538,"besvar":5539,"big":5540,"optim":5541,"2000":5542,"klan":5543,"botten":5544,"net":5545,"paverk":5546,"koket":5547,"grat":5548,"##laggande":5549,"intens":5550,"ip":5551,"pack":5552,"col":5553,"##omradet":5554,"aventyr":5555,"hundar":5556,"okat":5557,"grym":5558,"metod":5559,"undvika":5560,"##ctor":5561,"minim":5562,"systemet":5563,"##bran":5564,"hunnit":5565,"smarta":5566,"toppen":5567,"specif":5568,"brollop":5569,"havet":5570,"##elsens":5571,"##bler":5572,"pratade":5573,"respekt":5574,"##dex":5575,"##liggor":5576,"your":5577,"fredrik":5578,"##uc":5579,"bjorn":5580,"symbol":5581,"befol":5582,"relation":5583,"forsikt":5584,"sallskap":5585,"##lle":5586,"danmark":5587,"##aner":5588,"fig":5589,"forbund":5590,"nere":5591,"initi":5592,"##vatten":5593,"vasteras":5594,"02":5595,"chatt":5596,"##rike":5597,"##stalld":5598,"kanslan":5599,"erotiska":5600,"nav":5601,"forandra":5602,"vadret":5603,"mom":5604,"lyckats":5605,"##eriet":5606,"##forsakring":5607,"vila":5608,"pedagog":5609,"trakigt":5610,"struktur":5611,"vardags":5612,"##ral":5613,"billigt":5614,"kontor":5615,"rakt":5616,"samhalle":5617,"05":5618,"##betalning":5619,"box":5620,"kompl":5621,"losning":5622,"underl":5623,"##skat":5624,"position":5625,"bevis":5626,"tvungen":5627,"kallar":5628,"perfekta":5629,"##platsen":5630,"omoj":5631,"golv":5632,"hittills":5633,"uts":5634,"##off":5635,"rim":5636,"hjarn":5637,"perspektiv":5638,"riktiga":5639,"##skoter":5640,"falt":5641,"##barn":5642,"forhoppningsvis":5643,"##sor":5644,"sammanfatt":5645,"personalen":5646,"cat":5647,"##ssatt":5648,"debatt":5649,"##oker":5650,"john":5651,"andersson":5652,"gift":5653,"vastra":5654,"berattade":5655,"##sut":5656,"forvan":5657,"grundlaggande":5658,"wik":5659,"golf":5660,"##iven":5661,"famil":5662,"##edom":5663,"skatte":5664,"##demokrat":5665,"vd":5666,"appl":5667,"one":5668,"##bert":5669,"fylla":5670,"plock":5671,"##ledare":5672,"takt":5673,"##sked":5674,"fallet":5675,"pun":5676,"##sr":5677,"rym":5678,"##park":5679,"tillfalle":5680,"overv":5681,"dild":5682,"konferens":5683,"##bergs":5684,"jakt":5685,"lopp":5686,"2007":5687,"##ox":5688,"silver":5689,"##utbildning":5690,"urval":5691,"ingr":5692,"##assigt":5693,"sky":5694,"##erats":5695,"04":5696,"mjolk":5697,"japan":5698,"##sattningen":5699,"skuld":5700,"landsting":5701,"varma":5702,"55":5703,"##fta":5704,"gun":5705,"kollade":5706,"syss":5707,"avsl":5708,"mov":5709,"coll":5710,"listan":5711,"studenter":5712,"andras":5713,"grupper":5714,"straff":5715,"humor":5716,"motsvarande":5717,"knullar":5718,"avsug":5719,"fat":5720,"##varo":5721,"06":5722,"extremt":5723,"moderna":5724,"ryss":5725,"tider":5726,"funderar":5727,"##edes":5728,"anvandare":5729,"##till":5730,"hansyn":5731,"##bum":5732,"##delningen":5733,"##gatan":5734,"##takter":5735,"ordet":5736,"##niva":5737,"blom":5738,"kin":5739,"##hog":5740,"allmant":5741,"skrift":5742,"##pas":5743,"haret":5744,"fika":5745,"visat":5746,"block":5747,"##ics":5748,"glada":5749,"stranden":5750,"##ham":5751,"betalnings":5752,"##ycke":5753,"webbplatsen":5754,"##system":5755,"lanet":5756,"hyll":5757,"33":5758,"alex":5759,"britt":5760,"real":5761,"sortiment":5762,"annons":5763,"##ya":5764,"tjock":5765,"samre":5766,"matte":5767,"##fred":5768,"kapit":5769,"fodels":5770,"alskade":5771,"##hets":5772,"##ere":5773,"utomhus":5774,"##gav":5775,"lys":5776,"bidra":5777,"daliga":5778,"bir":5779,"##cker":5780,"##sats":5781,"fyr":5782,"utsatt":5783,"rund":5784,"langst":5785,"lagom":5786,"##bit":5787,"jobbat":5788,"centrala":5789,"mult":5790,"##stret":5791,"##arder":5792,"hamnar":5793,"pga":5794,"frakt":5795,"lakemedel":5796,"##ickar":5797,"tyskland":5798,"jorden":5799,"##ific":5800,"syftet":5801,"fragade":5802,"tju":5803,"blommor":5804,"skilj":5805,"vanligtvis":5806,"varv":5807,"parti":5808,"snabbare":5809,"huvudsak":5810,"handa":5811,"##pper":5812,"sank":5813,"befinner":5814,"akade":5815,"ifall":5816,"master":5817,"cert":5818,"overens":5819,"##ningst":5820,"tillgangliga":5821,"slutar":5822,"linkoping":5823,"sade":5824,"begrepp":5825,"vist":5826,"fork":5827,"tittade":5828,"uppratt":5829,"radio":5830,"ledare":5831,"langtar":5832,"sugen":5833,"enskilda":5834,"matcher":5835,"##fyll":5836,"mening":5837,"kontrollera":5838,"webbplatser":5839,"google":5840,"magn":5841,"metoder":5842,"##yggen":5843,"pool":5844,"sara":5845,"gill":5846,"startade":5847,"heta":5848,"lid":5849,"omfattande":5850,"##sse":5851,"grona":5852,"stral":5853,"renover":5854,"bidrar":5855,"##orerna":5856,"snyggt":5857,"tecken":5858,"narvarande":5859,"potenti":5860,"medier":5861,"hun":5862,"##ruv":5863,"dricka":5864,"ran":5865,"##df":5866,"gemensamma":5867,"strategi":5868,"bloggar":5869,"##skraft":5870,"75":5871,"vintern":5872,"pul":5873,"gas":5874,"konsekvens":5875,"snabba":5876,"martin":5877,"erotik":5878,"prem":5879,"erbjudanden":5880,"sens":5881,"korrekt":5882,"billiga":5883,"avseende":5884,"utlan":5885,"34":5886,"##ford":5887,"dorren":5888,"tillhanda":5889,"camp":5890,"central":5891,"garant":5892,"erfarenheter":5893,"stats":5894,"kallt":5895,"normal":5896,"##skole":5897,"naturen":5898,"moter":5899,"##janster":5900,"atit":5901,"##falt":5902,"banan":5903,"eventuella":5904,"##lak":5905,"mast":5906,"varan":5907,"##stallningar":5908,"03":5909,"het":5910,"##cha":5911,"rakna":5912,"positivt":5913,"pam":5914,"karaktar":5915,"##oteket":5916,"privata":5917,"cont":5918,"mangder":5919,"bestamde":5920,"nationella":5921,"leta":5922,"##ynt":5923,"separ":5924,"##fun":5925,"tuff":5926,"oerhort":5927,"besokare":5928,"##strack":5929,"folket":5930,"##entera":5931,"##draget":5932,"kunskaper":5933,"##hund":5934,"foraldr":5935,"##edels":5936,"hande":5937,"400":5938,"vanda":5939,"fakta":5940,"forandringar":5941,"sonder":5942,"driver":5943,"revis":5944,"ringde":5945,"pabor":5946,"tjansten":5947,"##shop":5948,"##omrade":5949,"kran":5950,"##uk":5951,"##ratten":5952,"nagonstans":5953,"forhand":5954,"major":5955,"tidningen":5956,"logga":5957,"svarar":5958,"jesus":5959,"##stral":5960,"wa":5961,"##fragor":5962,"##rim":5963,"konser":5964,"##djur":5965,"##gangar":5966,"domstol":5967,"##mos":5968,"omsorg":5969,"##valt":5970,"karri":5971,"##losa":5972,"##sport":5973,"unika":5974,"ogonen":5975,"akta":5976,"fria":5977,"##set":5978,"##imul":5979,"##filmer":5980,"anges":5981,"bekraft":5982,"fritid":5983,"flashback":5984,"politiker":5985,"hjarta":5986,"lond":5987,"ron":5988,"huden":5989,"##maktig":5990,"prest":5991,"damm":5992,"uppfy":5993,"mormor":5994,"kombination":5995,"##verka":5996,"##yta":5997,"##ytande":5998,"version":5999,"syns":6000,"##iteter":6001,"##organis":6002,"overg":6003,"hoppa":6004,"uppleva":6005,"belopp":6006,"forutsattning":6007,"hjartat":6008,"##intress":6009,"svag":6010,"resurser":6011,"godis":6012,"traffar":6013,"nodvandigt":6014,"betrakt":6015,"elektron":6016,"##oda":6017,"##issa":6018,"2006":6019,"lankar":6020,"kursen":6021,"skaffa":6022,"korta":6023,"handel":6024,"avgifter":6025,"##amal":6026,"##ometer":6027,"intressanta":6028,"lagenheten":6029,"daniel":6030,"##ior":6031,"fet":6032,"##laget":6033,"##fisk":6034,"langd":6035,"##andes":6036,"nytta":6037,"##ledning":6038,"##anvand":6039,"inlagget":6040,"##dens":6041,"hak":6042,"##fon":6043,"##program":6044,"stolt":6045,"avsugning":6046,"levande":6047,"##oster":6048,"undantag":6049,"porrfilmer":6050,"lycka":6051,"rov":6052,"##ologisk":6053,"postadress":6054,"bjor":6055,"statistik":6056,"##raning":6057,"##pi":6058,"smor":6059,"varsta":6060,"forran":6061,"forfattare":6062,"nyckel":6063,"seger":6064,"utav":6065,"kontin":6066,"traffade":6067,"##sform":6068,"foljd":6069,"skickas":6070,"avanc":6071,"lamnade":6072,"frasch":6073,"konstru":6074,"##eratur":6075,"por":6076,"dram":6077,"ryska":6078,"tvek":6079,"kollektiv":6080,"svenskt":6081,"##fora":6082,"mic":6083,"##lok":6084,"happy":6085,"overallt":6086,"##iland":6087,"##cken":6088,"194":6089,"##gande":6090,"##vo":6091,"air":6092,"grann":6093,"skiv":6094,"##spar":6095,"utbildnings":6096,"stallen":6097,"entrepren":6098,"premi":6099,"bedomning":6100,"##isch":6101,"##ess":6102,"potatis":6103,"stads":6104,"rot":6105,"valkomna":6106,"##verkar":6107,"administr":6108,"halften":6109,"blanda":6110,"beskriver":6111,"skickar":6112,"sakra":6113,"##sprak":6114,"osaker":6115,"##fly":6116,"##rodu":6117,"inc":6118,"mju":6119,"konstnar":6120,"saknas":6121,"sjo":6122,"fullstand":6123,"johansson":6124,"motiver":6125,"##ius":6126,"varav":6127,"##brik":6128,"##iosa":6129,"slappa":6130,"sadar":6131,"bb":6132,"aning":6133,"##stru":6134,"oh":6135,"befint":6136,"klassiska":6137,"karn":6138,"pek":6139,"38":6140,"onod":6141,"grov":6142,"##klag":6143,"ledande":6144,"##ile":6145,"##viken":6146,"##kall":6147,"##skrifter":6148,"vardering":6149,"badrum":6150,"former":6151,"39":6152,"uppfolj":6153,"betalning":6154,"bio":6155,"plocka":6156,"sover":6157,"organisationer":6158,"digitala":6159,"priorit":6160,"inre":6161,"##ange":6162,"ratta":6163,"##arbetet":6164,"show":6165,"##entet":6166,"##uga":6167,"sarskilda":6168,"positiv":6169,"##varlden":6170,"positiva":6171,"##eten":6172,"ort":6173,"fordelar":6174,"tillganglig":6175,"hunden":6176,"texten":6177,"resor":6178,"##fulla":6179,"anmalan":6180,"grunden":6181,"butiker":6182,"##agning":6183,"beb":6184,"undersokning":6185,"rader":6186,"deltagare":6187,"london":6188,"tusen":6189,"##sken":6190,"avstand":6191,"malt":6192,"artiklar":6193,"foret":6194,"anledningen":6195,"anm":6196,"fantas":6197,"anlagg":6198,"##lyck":6199,"##irekt":6200,"kans":6201,"##sliv":6202,"tillagg":6203,"dollar":6204,"tok":6205,"bredvid":6206,"overtyg":6207,"##visa":6208,"sjukhus":6209,"desto":6210,"relev":6211,"top":6212,"effektivt":6213,"##anten":6214,"narmaste":6215,"egenskaper":6216,"##ze":6217,"grattis":6218,"##angd":6219,"langivare":6220,"##gruppen":6221,"dog":6222,"planer":6223,"##qvist":6224,"##start":6225,"##arm":6226,"bussen":6227,"beskrivning":6228,"sags":6229,"gemensamt":6230,"lasare":6231,"##namnden":6232,"fuck":6233,"##lost":6234,"tacka":6235,"sval":6236,"uttal":6237,"europeiska":6238,"maxim":6239,"julkla":6240,"ange":6241,"flykt":6242,"funnits":6243,"iphone":6244,"produkten":6245,"pagar":6246,"run":6247,"framtida":6248,"mobilen":6249,"hanga":6250,"##jande":6251,"bodde":6252,"vagg":6253,"passade":6254,"misstank":6255,"okade":6256,"vr":6257,"genomfora":6258,"##th":6259,"##erligen":6260,"##opa":6261,"utrustning":6262,"nio":6263,"est":6264,"##ival":6265,"tycka":6266,"##vers":6267,"langsikt":6268,"insatser":6269,"##out":6270,"##cer":6271,"artikeln":6272,"minskar":6273,"##sprodu":6274,"stack":6275,"fritt":6276,"tillfallen":6277,"motiv":6278,"termin":6279,"minsta":6280,"##fot":6281,"rengor":6282,"##teras":6283,"bekvam":6284,"david":6285,"startar":6286,"arkite":6287,"samling":6288,"##ensen":6289,"dor":6290,"##resa":6291,"klin":6292,"##polit":6293,"ratten":6294,"1000":6295,"##ela":6296,"##rare":6297,"kommunens":6298,"kyck":6299,"asiat":6300,"##institut":6301,"##sakt":6302,"##derna":6303,"allting":6304,"sor":6305,"bag":6306,"work":6307,"##beroende":6308,"pil":6309,"##atorer":6310,"slott":6311,"##etten":6312,"tyska":6313,"##icy":6314,"varor":6315,"vaxa":6316,"hanger":6317,"digital":6318,"##smal":6319,"somn":6320,"glass":6321,"##lagen":6322,"expl":6323,"##ks":6324,"hundra":6325,"##hallen":6326,"thailand":6327,"support":6328,"37":6329,"##pon":6330,"motion":6331,"socialdemokrat":6332,"kurser":6333,"##grammet":6334,"##ose":6335,"ledig":6336,"konsument":6337,"pasta":6338,"##ugan":6339,"ofor":6340,"tacksa":6341,"##uer":6342,"##punkter":6343,"bytt":6344,"oppnar":6345,"agare":6346,"handen":6347,"##bilar":6348,"original":6349,"##ene":6350,"noll":6351,"lul":6352,"##stat":6353,"##olja":6354,"##hjal":6355,"vm":6356,"##ateg":6357,"kunden":6358,"verkligheten":6359,"skydda":6360,"##okoll":6361,"even":6362,"saken":6363,"duktig":6364,"slipper":6365,"individer":6366,"manaden":6367,"socialt":6368,"svt":6369,"48":6370,"varre":6371,"##entals":6372,"grej":6373,"alltfor":6374,"##fullt":6375,"fragar":6376,"ent":6377,"rekry":6378,"##forsalj":6379,"golvet":6380,"##burg":6381,"bror":6382,"national":6383,"##varm":6384,"lapp":6385,"##kommande":6386,"villa":6387,"forklara":6388,"hehe":6389,"offici":6390,"dildo":6391,"##alys":6392,"sundsvall":6393,"aktivt":6394,"tabell":6395,"sked":6396,"naturliga":6397,"finansiering":6398,"##varor":6399,"##fallet":6400,"##sprocess":6401,"motsvar":6402,"vent":6403,"tranings":6404,"restauranger":6405,"##haller":6406,"##pac":6407,"##edda":6408,"der":6409,"##skost":6410,"##lim":6411,"150":6412,"##inen":6413,"klubben":6414,"##hag":6415,"marknadsforing":6416,"vaga":6417,"speg":6418,"represent":6419,"##sbe":6420,"mikro":6421,"tydlig":6422,"familje":6423,"##uff":6424,"##flikt":6425,"mala":6426,"irrit":6427,"civ":6428,"upplever":6429,"##ows":6430,"varlds":6431,"jamn":6432,"aktiver":6433,"dn":6434,"teater":6435,"perioden":6436,"handels":6437,"kik":6438,"pin":6439,"patient":6440,"bestammer":6441,"##lades":6442,"swedish":6443,"##cel":6444,"div":6445,"##ams":6446,"metall":6447,"motet":6448,"utfora":6449,"##ockey":6450,"##isten":6451,"bem":6452,"bett":6453,"make":6454,"snall":6455,"##juter":6456,"eventuellt":6457,"##kra":6458,"uppmarksamhet":6459,"utbildningen":6460,"moten":6461,"tavlingen":6462,"##foring":6463,"##rarna":6464,"forskott":6465,"##platser":6466,"##ebra":6467,"identifi":6468,"fargen":6469,"stimul":6470,"hastar":6471,"fundera":6472,"volym":6473,"##ep":6474,"jud":6475,"rora":6476,"radda":6477,"arbetsmark":6478,"##vetenskap":6479,"butiken":6480,"alsk":6481,"fodelsedag":6482,"skyl":6483,"bestamma":6484,"fris":6485,"arbetsplats":6486,"##11":6487,"##byte":6488,"##jung":6489,"nerv":6490,"##umm":6491,"##fel":6492,"aktier":6493,"hemm":6494,"shopping":6495,"invan":6496,"affars":6497,"sexig":6498,"##ekonom":6499,"satsa":6500,"##stiden":6501,"girls":6502,"emma":6503,"skador":6504,"forestall":6505,"turk":6506,"##histor":6507,"osters":6508,"halvt":6509,"hotel":6510,"escorts":6511,"tru":6512,"sota":6513,"rena":6514,"##besok":6515,"##tekn":6516,"registrera":6517,"mc":6518,"elev":6519,"fastighets":6520,"alt":6521,"servic":6522,"assist":6523,"##sjuk":6524,"hinna":6525,"piz":6526,"##jobb":6527,"york":6528,"hjul":6529,"raknas":6530,"##vakt":6531,"fukt":6532,"65":6533,"kli":6534,"##kas":6535,"parkering":6536,"diskutera":6537,"beslutet":6538,"##yndigheter":6539,"##uv":6540,"avgorande":6541,"rant":6542,"vander":6543,"ledar":6544,"##ffekt":6545,"##matt":6546,"ingred":6547,"dekor":6548,"prot":6549,"stammer":6550,"##rades":6551,"##jansten":6552,"anslutning":6553,"##indra":6554,"samla":6555,"halm":6556,"sus":6557,"uppna":6558,"##speri":6559,"##staden":6560,"tillbehor":6561,"kompisar":6562,"horde":6563,"##irt":6564,"hyr":6565,"lart":6566,"##box":6567,"skadespel":6568,"forand":6569,"aktiva":6570,"automatiskt":6571,"felakt":6572,"195":6573,"balkon":6574,"##spa":6575,"utok":6576,"nyss":6577,"dos":6578,"##varde":6579,"sahar":6580,"sammant":6581,"tillfallet":6582,"##byggnad":6583,"situationen":6584,"##strin":6585,"fortroende":6586,"##liv":6587,"aterigen":6588,"##onger":6589,"hyra":6590,"fortsatte":6591,"noggran":6592,"doft":6593,"garden":6594,"unik":6595,"##ign":6596,"offentliga":6597,"jonas":6598,"check":6599,"##schen":6600,"exklus":6601,"sock":6602,"kameran":6603,"gaster":6604,"lamnat":6605,"ingrediens":6606,"anger":6607,"tant":6608,"amne":6609,"nyfiken":6610,"sd":6611,"##skrift":6612,"##ikationer":6613,"##vel":6614,"hypotek":6615,"gy":6616,"nojda":6617,"##ingarna":6618,"##schef":6619,"sty":6620,"behandlas":6621,"ky":6622,"##onym":6623,"##huvud":6624,"bjod":6625,"avser":6626,"faller":6627,"##agra":6628,"that":6629,"##uro":6630,"2005":6631,"engagemang":6632,"##bladet":6633,"latar":6634,"blas":6635,"introdu":6636,"efterat":6637,"informationen":6638,"##oft":6639,"karlstad":6640,"spelat":6641,"isra":6642,"##agram":6643,"behor":6644,"hemmet":6645,"angest":6646,"##risk":6647,"medveten":6648,"ledam":6649,"gat":6650,"##orld":6651,"##stallningen":6652,"prag":6653,"##ivande":6654,"organ":6655,"##hj":6656,"domin":6657,"hypotekslan":6658,"miljarder":6659,"mall":6660,"inner":6661,"onskemal":6662,"trygghet":6663,"##ris":6664,"##lu":6665,"stro":6666,"##ningens":6667,"kvinnan":6668,"##nare":6669,"sprid":6670,"center":6671,"utrymme":6672,"ig":6673,"##bra":6674,"bostader":6675,"helhet":6676,"skand":6677,"arbetat":6678,"bedriv":6679,"##kul":6680,"stefan":6681,"handelser":6682,"vinner":6683,"##fir":6684,"ryssland":6685,"##agande":6686,"##annonser":6687,"prop":6688,"42":6689,"love":6690,"tranar":6691,"franska":6692,"staten":6693,"kyrk":6694,"noga":6695,"sop":6696,"sarskild":6697,"##slos":6698,"##ema":6699,"##tel":6700,"##resultat":6701,"tall":6702,"##satter":6703,"dryck":6704,"fjarde":6705,"ansvarig":6706,"riktlin":6707,"boras":6708,"##upplev":6709,"presid":6710,"##kande":6711,"##fria":6712,"wind":6713,"##got":6714,"norrkoping":6715,"grans":6716,"ryggen":6717,"##mannen":6718,"presentation":6719,"enlighet":6720,"sorg":6721,"planen":6722,"forskare":6723,"framsta":6724,"sannolikt":6725,"skillnaden":6726,"loss":6727,"##omraden":6728,"fn":6729,"##mode":6730,"grejer":6731,"saledes":6732,"##indu":6733,"lulea":6734,"##mus":6735,"##ffar":6736,"skolor":6737,"##iot":6738,"totala":6739,"framover":6740,"anim":6741,"nilsson":6742,"mas":6743,"##ome":6744,"registrering":6745,"##ttar":6746,"slang":6747,"sel":6748,"ansvarar":6749,"lokaler":6750,"mos":6751,"##stra":6752,"relationer":6753,"kristna":6754,"##ladd":6755,"kris":6756,"lamnas":6757,"arbetsgiv":6758,"forsokt":6759,"frankrike":6760,"##ners":6761,"minne":6762,"##tryck":6763,"##fi":6764,"kry":6765,"##illkor":6766,"##tjanst":6767,"##ikte":6768,"andring":6769,"rob":6770,"##formation":6771,"44":6772,"##kningen":6773,"traffas":6774,"##rument":6775,"fira":6776,"omfattar":6777,"obe":6778,"tonaring":6779,"kristen":6780,"posted":6781,"marie":6782,"finna":6783,"angaende":6784,"blad":6785,"driva":6786,"##partiet":6787,"album":6788,"kalmar":6789,"##briken":6790,"##aterna":6791,"##terade":6792,"ekonomisk":6793,"vaxjo":6794,"forstark":6795,"fasta":6796,"forre":6797,"omstand":6798,"46":6799,"omedelbart":6800,"upptacka":6801,"koncentr":6802,"##ustr":6803,"rorelse":6804,"troll":6805,"##kval":6806,"snitt":6807,"formed":6808,"medborg":6809,"slit":6810,"##samling":6811,"toal":6812,"tomt":6813,"##ums":6814,"pask":6815,"##taget":6816,"49":6817,"summ":6818,"omgiv":6819,"##rep":6820,"regi":6821,"##mask":6822,"bull":6823,"hov":6824,"##lagt":6825,"kasin":6826,"eftermiddag":6827,"##ordningen":6828,"##kontakt":6829,"jurid":6830,"forekommer":6831,"svarare":6832,"rejalt":6833,"veter":6834,"##anser":6835,"gull":6836,"##handel":6837,"##savgift":6838,"forpack":6839,"lagstift":6840,"konflikt":6841,"flyttade":6842,"handlade":6843,"luften":6844,"foregaende":6845,"surf":6846,"sovrum":6847,"skiljer":6848,"oxa":6849,"halva":6850,"##cks":6851,"cafe":6852,"mysig":6853,"inser":6854,"hemsidan":6855,"##verse":6856,"##asen":6857,"##lekar":6858,"delvis":6859,"pigg":6860,"intresserade":6861,"pann":6862,"antar":6863,"skoj":6864,"strateg":6865,"afr":6866,"hag":6867,"##mmande":6868,"##spart":6869,"##maktige":6870,"##botten":6871,"rott":6872,"refle":6873,"bostadsratt":6874,"misslyck":6875,"exist":6876,"##ortt":6877,"##bak":6878,"##radd":6879,"styrka":6880,"##material":6881,"myndigheter":6882,"andamal":6883,"kommunal":6884,"kina":6885,"##sprogram":6886,"##vards":6887,"historien":6888,"resul":6889,"plat":6890,"##ripande":6891,"lagar":6892,"pra":6893,"intill":6894,"##12":6895,"avlon":6896,"forhallanden":6897,"situationer":6898,"diskussion":6899,"kortare":6900,"##urt":6901,"sjon":6902,"instru":6903,"evenemang":6904,"traningen":6905,"dikt":6906,"sekunder":6907,"dop":6908,"pyss":6909,"observer":6910,"cykl":6911,"lyssnar":6912,"##komma":6913,"##skvall":6914,"bock":6915,"inredning":6916,"amnet":6917,"omojligt":6918,"##go":6919,"faststall":6920,"redig":6921,"ledning":6922,"##000":6923,"underlag":6924,"##aning":6925,"riksdag":6926,"romant":6927,"99":6928,"belys":6929,"kamera":6930,"##domen":6931,"##icera":6932,"framgar":6933,"asikter":6934,"trapp":6935,"forsknings":6936,"barns":6937,"forny":6938,"troligen":6939,"##gards":6940,"##sbol":6941,"trivs":6942,"brett":6943,"jattebra":6944,"skona":6945,"##umt":6946,"set":6947,"innehallet":6948,"##mail":6949,"##kanna":6950,"jamt":6951,"erbjudande":6952,"##ley":6953,"thom":6954,"eld":6955,"##annen":6956,"rese":6957,"antagligen":6958,"trevliga":6959,"goteborgs":6960,"leverantorer":6961,"vanligaste":6962,"lott":6963,"avst":6964,"lax":6965,"svenskar":6966,"fattar":6967,"reserv":6968,"tidig":6969,"##bror":6970,"flicka":6971,"champ":6972,"cancer":6973,"vapen":6974,"##hi":6975,"instagram":6976,"us":6977,"dyker":6978,"visserligen":6979,"utomlands":6980,"knappast":6981,"guide":6982,"foll":6983,"enheter":6984,"kallad":6985,"presentera":6986,"hellre":6987,"bjud":6988,"inbjud":6989,"gi":6990,"anti":6991,"leka":6992,"narmast":6993,"line":6994,"arbetst":6995,"##tr":6996,"ris":6997,"initiativ":6998,"anord":6999,"gifta":7000,"ekonomiskt":7001,"skapat":7002,"benen":7003,"from":7004,"##ini":7005,"##ssk":7006,"##undersok":7007,"koncept":7008,"##ktiga":7009,"kollar":7010,"linje":7011,"planera":7012,"tvart":7013,"hin":7014,"planerar":7015,"##ommen":7016,"gemensam":7017,"mkt":7018,"##delen":7019,"akadem":7020,"samverkan":7021,"mac":7022,"kalen":7023,"##agan":7024,"svaret":7025,"behandlingen":7026,"sjukvard":7027,"inomhus":7028,"atgard":7029,"foremal":7030,"stift":7031,"##ble":7032,"##garen":7033,"order":7034,"##ingsdag":7035,"##klad":7036,"2004":7037,"manniskan":7038,"guds":7039,"##kal":7040,"##nor":7041,"allmanhet":7042,"tillsatt":7043,"jobbade":7044,"lordagen":7045,"vanligen":7046,"halmstad":7047,"##enskomm":7048,"appen":7049,"ald":7050,"##vide":7051,"overvag":7052,"definition":7053,"bott":7054,"england":7055,"forstaelse":7056,"tema":7057,"bot":7058,"linn":7059,"planering":7060,"paris":7061,"neder":7062,"eva":7063,"markt":7064,"motesplatsen":7065,"cro":7066,"##olf":7067,"frys":7068,"pepp":7069,"kontrakt":7070,"gul":7071,"arv":7072,"cyk":7073,"power":7074,"leksaker":7075,"eskorter":7076,"##omin":7077,"avfall":7078,"ovanligt":7079,"behalla":7080,"formid":7081,"annon":7082,"teen":7083,"raka":7084,"ventil":7085,"##brit":7086,"utmaningar":7087,"##stud":7088,"illustr":7089,"poker":7090,"stannar":7091,"pers":7092,"jamfora":7093,"mika":7094,"##boken":7095,"familjer":7096,"kass":7097,"more":7098,"olja":7099,"billigare":7100,"fjall":7101,"muslim":7102,"offentlig":7103,"##ese":7104,"##play":7105,"darifran":7106,"rit":7107,"prost":7108,"banken":7109,"henrik":7110,"paul":7111,"##jejer":7112,"##hast":7113,"landets":7114,"still":7115,"forsvinner":7116,"world":7117,"##bad":7118,"avloningsdag":7119,"##rog":7120,"ki":7121,"storst":7122,"kyckling":7123,"etik":7124,"ci":7125,"blogga":7126,"##forbundet":7127,"##minister":7128,"##ssons":7129,"osk":7130,"##sven":7131,"frihet":7132,"uppstar":7133,"klatt":7134,"##beskrivning":7135,"eftermiddagen":7136,"##landa":7137,"journalist":7138,"glomt":7139,"tradgarden":7140,"vardagen":7141,"karriar":7142,"troligt":7143,"alternativt":7144,"magnus":7145,"kassa":7146,"tjana":7147,"sec":7148,"##platt":7149,"grymt":7150,"koppla":7151,"axel":7152,"betalas":7153,"erbjuds":7154,"relat":7155,"##inarie":7156,"tycks":7157,"##40":7158,"##orget":7159,"##elle":7160,"inslag":7161,"##isera":7162,"annonser":7163,"##rig":7164,"fond":7165,"##lever":7166,"fora":7167,"wall":7168,"##vark":7169,"verksamheter":7170,"kritik":7171,"elin":7172,"tolv":7173,"summa":7174,"doda":7175,"##losning":7176,"modellen":7177,"##osof":7178,"repar":7179,"gyn":7180,"ansiktet":7181,"investering":7182,"obs":7183,"paus":7184,"##skort":7185,"progra":7186,"uppenbar":7187,"storbrit":7188,"##iller":7189,"##ms":7190,"##fod":7191,"speciella":7192,"rekommendera":7193,"##bla":7194,"##80":7195,"##spolit":7196,"bevilj":7197,"arkitekt":7198,"##ega":7199,"##behandling":7200,"manskliga":7201,"styrelse":7202,"blank":7203,"missa":7204,"##tiden":7205,"ica":7206,"vik":7207,"hinder":7208,"storbritann":7209,"emellan":7210,"lediga":7211,"hamnade":7212,"spark":7213,"svarade":7214,"pir":7215,"lost":7216,"tusentals":7217,"trend":7218,"laten":7219,"mata":7220,"referens":7221,"##rost":7222,"193":7223,"intell":7224,"slippa":7225,"apple":7226,"ler":7227,"##ino":7228,"##ikal":7229,"##ampa":7230,"cool":7231,"processen":7232,"lic":7233,"flyttar":7234,"index":7235,"##umer":7236,"stallning":7237,"##bal":7238,"stannade":7239,"dia":7240,"litteratur":7241,"##way":7242,"##rikes":7243,"##kopings":7244,"ker":7245,"ever":7246,"##rats":7247,"##grupper":7248,"oblig":7249,"##drade":7250,"smid":7251,"fysiska":7252,"##ogon":7253,"##batten":7254,"##onn":7255,"arsm":7256,"reag":7257,"traditionella":7258,"status":7259,"gren":7260,"##ikat":7261,"##smat":7262,"mids":7263,"sjalvstand":7264,"##fit":7265,"##bolaget":7266,"sug":7267,"##smark":7268,"anvande":7269,"verklighet":7270,"kraftigt":7271,"##projekt":7272,"speciell":7273,"##fu":7274,"umgas":7275,"##dal":7276,"slutligen":7277,"oberoende":7278,"trang":7279,"plugga":7280,"krimin":7281,"rida":7282,"##smak":7283,"lyfta":7284,"fen":7285,"marker":7286,"##ents":7287,"##ifier":7288,"gusta":7289,"faktorer":7290,"##rop":7291,"ostra":7292,"himm":7293,"##60":7294,"gymnasie":7295,"foton":7296,"bestallning":7297,"gront":7298,"emil":7299,"##ivalen":7300,"##lik":7301,"##ial":7302,"isol":7303,"##ads":7304,"runda":7305,"##kod":7306,"##erie":7307,"krydd":7308,"uppman":7309,"##gick":7310,"texter":7311,"##liggande":7312,"spanien":7313,"43":7314,"utstrack":7315,"blond":7316,"##sman":7317,"##rass":7318,"##sfri":7319,"##fart":7320,"praktiskt":7321,"foljde":7322,"forlang":7323,"moln":7324,"format":7325,"##js":7326,"##etar":7327,"dim":7328,"anvandar":7329,"iv":7330,"##banan":7331,"utseende":7332,"nick":7333,"yta":7334,"hors":7335,"viagra":7336,"smatt":7337,"##orse":7338,"insag":7339,"inkom":7340,"plattform":7341,"inl":7342,"##orp":7343,"aktuell":7344,"tillsyn":7345,"##lit":7346,"##ire":7347,"hamtade":7348,"veckans":7349,"jen":7350,"##xid":7351,"utgangsp":7352,"skulder":7353,"matemat":7354,"lagenheter":7355,"bekant":7356,"##sspel":7357,"##hals":7358,"bjuda":7359,"thomas":7360,"##valda":7361,"kos":7362,"slutsats":7363,"47":7364,"##vi":7365,"##een":7366,"dum":7367,"stader":7368,"lyft":7369,"utgar":7370,"lask":7371,"egendom":7372,"##sjo":7373,"##rek":7374,"besoker":7375,"##produkter":7376,"##oci":7377,"skara":7378,"https":7379,"flexi":7380,"varmen":7381,"forskolan":7382,"##gubb":7383,"rekommenderas":7384,"##otta":7385,"##fam":7386,"attrakt":7387,"dagligen":7388,"lut":7389,"apotek":7390,"##oppa":7391,"##kret":7392,"##porr":7393,"##lass":7394,"ikea":7395,"kines":7396,"syr":7397,"forslaget":7398,"spins":7399,"exempl":7400,"garder":7401,"sekund":7402,"uppm":7403,"##gra":7404,"kandid":7405,"snur":7406,"nyhetsb":7407,"forsak":7408,"overenskomm":7409,"karin":7410,"##kam":7411,"windows":7412,"ordinarie":7413,"##vagn":7414,"olof":7415,"karleken":7416,"##ssan":7417,"stoppa":7418,"##tog":7419,"publik":7420,"##hamt":7421,"##service":7422,"##orda":7423,"kus":7424,"mobler":7425,"uc":7426,"tavla":7427,"spelas":7428,"bibliotek":7429,"diverse":7430,"bubb":7431,"##meddel":7432,"gumm":7433,"##varme":7434,"##sbygg":7435,"imorse":7436,"cell":7437,"generellt":7438,"somnade":7439,"tillag":7440,"##skrav":7441,"lone":7442,"##byg":7443,"##oth":7444,"utlaning":7445,"undervis":7446,"meddelande":7447,"##skurs":7448,"##pacitet":7449,"kaff":7450,"down":7451,"##sfull":7452,"mr":7453,"lamplig":7454,"##rimin":7455,"##yer":7456,"forsamling":7457,"hantverk":7458,"##oten":7459,"ledsen":7460,"eskil":7461,"israel":7462,"intakter":7463,"rest":7464,"kapitel":7465,"gn":7466,"kontakter":7467,"##marna":7468,"rekord":7469,"alli":7470,"traffat":7471,"##bryt":7472,"mont":7473,"high":7474,"transporter":7475,"austral":7476,"sun":7477,"##passa":7478,"aktorer":7479,"fagel":7480,"eleg":7481,"velat":7482,"typen":7483,"imm":7484,"swing":7485,"aller":7486,"##fragas":7487,"##skop":7488,"##kro":7489,"lesbisk":7490,"avsloj":7491,"ringer":7492,"##ah":7493,"glomma":7494,"tacksam":7495,"##beratt":7496,"ting":7497,"blick":7498,"belon":7499,"kreativ":7500,"upphov":7501,"forlag":7502,"expert":7503,"representer":7504,"##pot":7505,"intraff":7506,"minut":7507,"fokusera":7508,"skoter":7509,"utnyttja":7510,"morse":7511,"##15":7512,"forest":7513,"##18":7514,"byn":7515,"flertal":7516,"##alisering":7517,"losen":7518,"riksdagen":7519,"##ationerna":7520,"livsmedel":7521,"##astro":7522,"##forvalt":7523,"linda":7524,"verkade":7525,"besked":7526,"upplag":7527,"personligt":7528,"tids":7529,"uppmarksamm":7530,"##nads":7531,"vandring":7532,"il":7533,"##aldern":7534,"##tack":7535,"harda":7536,"suger":7537,"kontinuer":7538,"leverantor":7539,"stallde":7540,"styra":7541,"temperatur":7542,"femin":7543,"##istisk":7544,"starkare":7545,"##rapport":7546,"klassisk":7547,"##forbund":7548,"house":7549,"vaggen":7550,"kod":7551,"beteende":7552,"##ap":7553,"##uu":7554,"figur":7555,"hasten":7556,"andas":7557,"##ekul":7558,"##skill":7559,"sjukdomar":7560,"spets":7561,"##osex":7562,"latta":7563,"regelbundet":7564,"konkret":7565,"storbritannien":7566,"bered":7567,"sutt":7568,"##anken":7569,"stav":7570,"##ansvart":7571,"sjukskoter":7572,"distri":7573,"##bana":7574,"ii":7575,"##mak":7576,"##sbyg":7577,"undersoka":7578,"svett":7579,"##vd":7580,"munnen":7581,"forresten":7582,"250":7583,"snack":7584,"##peri":7585,"bakt":7586,"anstr":7587,"roligare":7588,"ment":7589,"andelen":7590,"diam":7591,"##asy":7592,"klassen":7593,"pc":7594,"handlingar":7595,"juster":7596,"fott":7597,"##orj":7598,"ull":7599,"dialog":7600,"protokoll":7601,"suc":7602,"mell":7603,"hack":7604,"effekter":7605,"kanal":7606,"##lista":7607,"minnen":7608,"telefonnummer":7609,"##vete":7610,"affarer":7611,"sakerstalla":7612,"brudar":7613,"stada":7614,"lille":7615,"##rut":7616,"pren":7617,"avslapp":7618,"kannas":7619,"skonhet":7620,"syssel":7621,"##sprodukter":7622,"ago":7623,"pi":7624,"malin":7625,"pdf":7626,"##con":7627,"movies":7628,"##inav":7629,"##udd":7630,"hass":7631,"tyng":7632,"mix":7633,"##ision":7634,"ovant":7635,"avses":7636,"##inska":7637,"##isering":7638,"##bby":7639,"biljett":7640,"seri":7641,"192":7642,"riktlinjer":7643,"##idan":7644,"farre":7645,"likad":7646,"varier":7647,"djupt":7648,"larande":7649,"genast":7650,"##oja":7651,"##uch":7652,"halls":7653,"kull":7654,"tuttar":7655,"kompon":7656,"mobiltel":7657,"war":7658,"pap":7659,"springer":7660,"avtalet":7661,"galla":7662,"invanare":7663,"afton":7664,"##talje":7665,"##vast":7666,"kaka":7667,"deltar":7668,"##aks":7669,"vibr":7670,"mp":7671,"59":7672,"ult":7673,"intressen":7674,"jordbruk":7675,"andreas":7676,"plugg":7677,"##tav":7678,"##skam":7679,"190":7680,"tunga":7681,"kategorier":7682,"enormt":7683,"##70":7684,"blek":7685,"mini":7686,"##nast":7687,"tillfor":7688,"##vikt":7689,"synner":7690,"gubb":7691,"utstrackning":7692,"##yndigheten":7693,"musiken":7694,"##ummer":7695,"##omp":7696,"tidning":7697,"inspel":7698,"##ission":7699,"adv":7700,"gjorts":7701,"dygnet":7702,"dygn":7703,"recensioner":7704,"##och":7705,"denne":7706,"beskriva":7707,"koka":7708,"berom":7709,"##skrig":7710,"attack":7711,"raknar":7712,"temat":7713,"behovet":7714,"##alet":7715,"lim":7716,"suttit":7717,"saaa":7718,"lena":7719,"praktiska":7720,"##ney":7721,"verkliga":7722,"##ence":7723,"##ance":7724,"motte":7725,"strum":7726,"upplevelser":7727,"jamforelse":7728,"medfor":7729,"##sas":7730,"uppat":7731,"aspekt":7732,"behandlar":7733,"##reter":7734,"##gu":7735,"600":7736,"##spl":7737,"coach":7738,"civil":7739,"konsumenter":7740,"friv":7741,"twitter":7742,"##umin":7743,"nyar":7744,"bordet":7745,"utredning":7746,"datorer":7747,"demon":7748,"get":7749,"foljt":7750,"tvar":7751,"ell":7752,"cum":7753,"##stig":7754,"##uppgift":7755,"somna":7756,"sanna":7757,"lokalt":7758,"foretagets":7759,"gb":7760,"fredags":7761,"snalla":7762,"hatar":7763,"##sprojekt":7764,"ansikte":7765,"larsson":7766,"##log":7767,"motsvarar":7768,"lou":7769,"praktik":7770,"anlaggning":7771,"innebara":7772,"trosor":7773,"baserat":7774,"organisationen":7775,"anpassa":7776,"lanken":7777,"##rick":7778,"skarm":7779,"ugnen":7780,"fara":7781,"kyrka":7782,"til":7783,"shemal":7784,"goran":7785,"kilometer":7786,"mek":7787,"farligt":7788,"41":7789,"farmor":7790,"befintliga":7791,"premiar":7792,"island":7793,"hakan":7794,"bilaga":7795,"mojligen":7796,"##jun":7797,"##bef":7798,"samhalls":7799,"2003":7800,"##ned":7801,"bestammelser":7802,"pussy":7803,"##innande":7804,"##isterna":7805,"garanti":7806,"gemenskap":7807,"tranare":7808,"fasc":7809,"body":7810,"##skog":7811,"serios":7812,"lycklig":7813,"##rod":7814,"arbetsgivare":7815,"gjordes":7816,"arenden":7817,"duktiga":7818,"leverera":7819,"##rika":7820,"hockey":7821,"##dagar":7822,"planerat":7823,"fordju":7824,"gustav":7825,"##skyd":7826,"aterstall":7827,"handelse":7828,"anhor":7829,"forvand":7830,"rekommend":7831,"time":7832,"##otet":7833,"green":7834,"miner":7835,"hanna":7836,"stycket":7837,"##mast":7838,"##gin":7839,"arab":7840,"##our":7841,"levereras":7842,"cup":7843,"have":7844,"uppmunt":7845,"syftar":7846,"##avtal":7847,"besikt":7848,"##insats":7849,"undervisning":7850,"kreditkort":7851,"52":7852,"prenumer":7853,"varierar":7854,"##core":7855,"uppfattning":7856,"##flytt":7857,"skam":7858,"omvand":7859,"lisa":7860,"baten":7861,"gillade":7862,"tvartom":7863,"##fast":7864,"bandet":7865,"ask":7866,"vardet":7867,"##varna":7868,"samlar":7869,"inkluderar":7870,"legat":7871,"eric":7872,"foreslar":7873,"##bs":7874,"akut":7875,"##alternativ":7876,"smidigt":7877,"nad":7878,"charm":7879,"tillfred":7880,"tavlingar":7881,"kika":7882,"negativa":7883,"varenda":7884,"##rustning":7885,"arbetslos":7886,"cd":7887,"byggnader":7888,"ledde":7889,"nordiska":7890,"vett":7891,"##rin":7892,"##ares":7893,"##sna":7894,"svamp":7895,"aga":7896,"konsult":7897,"##forening":7898,"fastigheten":7899,"jamstalld":7900,"historiska":7901,"##skans":7902,"##skande":7903,"kollegor":7904,"bakat":7905,"##aktor":7906,"pod":7907,"reduc":7908,"taket":7909,"paga":7910,"framme":7911,"stott":7912,"arkiv":7913,"karlsson":7914,"atervand":7915,"express":7916,"##kak":7917,"harom":7918,"##lett":7919,"internationell":7920,"rank":7921,"forklarar":7922,"##ination":7923,"islam":7924,"##skolor":7925,"##bordet":7926,"aktenskap":7927,"##ked":7928,"pojkv":7929,"eventuell":7930,"##angel":7931,"resultaten":7932,"##stjarn":7933,"skett":7934,"final":7935,"smink":7936,"##formaga":7937,"penis":7938,"smaning":7939,"3d":7940,"##glas":7941,"##ismen":7942,"##dition":7943,"##ratta":7944,"ball":7945,"sakta":7946,"specifika":7947,"store":7948,"##ivna":7949,"ud":7950,"instrument":7951,"wal":7952,"himmel":7953,"halsen":7954,"minnes":7955,"turn":7956,"##ojligheter":7957,"##sall":7958,"fynd":7959,"bif":7960,"ambition":7961,"praktiken":7962,"siffror":7963,"pic":7964,"bryr":7965,"ye":7966,"skru":7967,"hjalpte":7968,"forandras":7969,"borg":7970,"read":7971,"west":7972,"victor":7973,"personligen":7974,"tydliga":7975,"fysisk":7976,"##emon":7977,"verka":7978,"overlag":7979,"hat":7980,"angiv":7981,"privatperson":7982,"fastigheter":7983,"fitt":7984,"##ologiskt":7985,"formul":7986,"lovar":7987,"materialet":7988,"gransen":7989,"##uf":7990,"ert":7991,"days":7992,"likt":7993,"##bat":7994,"snon":7995,"losenord":7996,"kategori":7997,"foredrar":7998,"foretags":7999,"##li":8000,"vantade":8001,"utmaning":8002,"##itim":8003,"diagnos":8004,"120":8005,"tatt":8006,"behandla":8007,"trum":8008,"has":8009,"##gg":8010,"kontant":8011,"##skottet":8012,"##pre":8013,"mur":8014,"bengt":8015,"foretagen":8016,"isa":8017,"##ero":8018,"bryta":8019,"dramat":8020,"##agna":8021,"vaxter":8022,"fonder":8023,"intryck":8024,"##familj":8025,"eskilst":8026,"##ografi":8027,"president":8028,"knappen":8029,"##somradet":8030,"baby":8031,"kvinnliga":8032,"riskerar":8033,"argument":8034,"inriktning":8035,"sondagen":8036,"sexuella":8037,"favoriter":8038,"religion":8039,"lopande":8040,"ht":8041,"##enhet":8042,"wil":8043,"dagis":8044,"ljuset":8045,"##elt":8046,"naringsliv":8047,"##ani":8048,"cialis":8049,"utvecklar":8050,"stadens":8051,"omt":8052,"spraket":8053,"##bocker":8054,"framgangs":8055,"smaningom":8056,"##anmark":8057,"##usk":8058,"frivill":8059,"##tet":8060,"sorts":8061,"kvitt":8062,"slapper":8063,"ec":8064,"##90":8065,"word":8066,"##syn":8067,"gronsaker":8068,"johanna":8069,"rapporten":8070,"levererar":8071,"##formed":8072,"bang":8073,"andro":8074,"##olution":8075,"morka":8076,"##domar":8077,"hundrat":8078,"kopen":8079,"foder":8080,"placering":8081,"95":8082,"##arch":8083,"mikael":8084,"drabbas":8085,"ogonblick":8086,"insikt":8087,"trav":8088,"aw":8089,"##fla":8090,"##rid":8091,"##hyr":8092,"robert":8093,"pum":8094,"storlekar":8095,"##butik":8096,"uppdraget":8097,"stanga":8098,"eleven":8099,"##jet":8100,"kniv":8101,"call":8102,"galet":8103,"tillbring":8104,"bomull":8105,"##ml":8106,"drivs":8107,"landsbyg":8108,"kladd":8109,"blandning":8110,"emeller":8111,"ovre":8112,"##sgatan":8113,"klanning":8114,"tvingas":8115,"parad":8116,"##itor":8117,"emellertid":8118,"avsluta":8119,"hammar":8120,"tings":8121,"jarnvag":8122,"micha":8123,"klick":8124,"kalas":8125,"rutiner":8126,"bik":8127,"##holmen":8128,"85":8129,"spendera":8130,"uppfyller":8131,"torn":8132,"##nades":8133,"delas":8134,"eskilstuna":8135,"paverkas":8136,"##pad":8137,"sanningen":8138,"##ansvarig":8139,"kommunala":8140,"good":8141,"vakna":8142,"lur":8143,"fragorna":8144,"##skick":8145,"##agarna":8146,"brut":8147,"tvatta":8148,"webben":8149,"##mans":8150,"##16":8151,"##ness":8152,"anmala":8153,"naturlig":8154,"forlust":8155,"minuters":8156,"##odet":8157,"mojliggor":8158,"pojkar":8159,"gatan":8160,"annonsen":8161,"riktning":8162,"forf":8163,"liber":8164,"cu":8165,"##varda":8166,"##ringen":8167,"sajten":8168,"observera":8169,"falla":8170,"troja":8171,"uteslut":8172,"badoo":8173,"medlemskap":8174,"handerna":8175,"tagg":8176,"jordgubb":8177,"gotland":8178,"##sil":8179,"cha":8180,"oppnade":8181,"abo":8182,"##job":8183,"kristian":8184,"manniskors":8185,"tjejerna":8186,"webblas":8187,"##unds":8188,"lade":8189,"##verkets":8190,"##ssam":8191,"brad":8192,"branschen":8193,"##spris":8194,"ken":8195,"hallet":8196,"larm":8197,"##problem":8198,"tillt":8199,"hoppade":8200,"nomin":8201,"internationellt":8202,"##ektion":8203,"kraven":8204,"trycka":8205,"andringar":8206,"hastighet":8207,"##upplys":8208,"foddes":8209,"melod":8210,"uppgifterna":8211,"landskap":8212,"barnens":8213,"dagliga":8214,"skot":8215,"ank":8216,"beakt":8217,"tang":8218,"##ones":8219,"##beln":8220,"priserna":8221,"hug":8222,"gymnasiet":8223,"presenteras":8224,"publiken":8225,"##ew":8226,"56":8227,"bens":8228,"##sstil":8229,"hantering":8230,"##ally":8231,"lita":8232,"forfattaren":8233,"nett":8234,"##kok":8235,"packa":8236,"##roller":8237,"fatta":8238,"forskola":8239,"integritet":8240,"station":8241,"infekt":8242,"stek":8243,"impon":8244,"market":8245,"lane":8246,"##ktorn":8247,"##koppling":8248,"skydds":8249,"jos":8250,"oppett":8251,"tekniken":8252,"##ioxid":8253,"cas":8254,"vinster":8255,"deltagarna":8256,"samlat":8257,"##landet":8258,"medans":8259,"##bru":8260,"##holl":8261,"sexfilm":8262,"vikten":8263,"slot":8264,"##center":8265,"##aker":8266,"korr":8267,"strid":8268,"vacc":8269,"reha":8270,"turist":8271,"##branschen":8272,"##igaste":8273,"cla":8274,"filosof":8275,"scenen":8276,"##efte":8277,"##pten":8278,"anstallning":8279,"##analys":8280,"farsk":8281,"ifragas":8282,"##ac":8283,"hjarnan":8284,"##opt":8285,"##ards":8286,"begransad":8287,"##vention":8288,"gitar":8289,"betalningsanmark":8290,"##skydds":8291,"##inspekt":8292,"jattef":8293,"formen":8294,"kvad":8295,"diskrimin":8296,"yoga":8297,"solna":8298,"kopenhamn":8299,"sed":8300,"rika":8301,"tillater":8302,"##ffs":8303,"sprida":8304,"baka":8305,"ytan":8306,"mangf":8307,"##cia":8308,"ox":8309,"##kommit":8310,"jer":8311,"##ivitet":8312,"uppdatera":8313,"reglerna":8314,"lordags":8315,"tip":8316,"54":8317,"fik":8318,"fotter":8319,"byggt":8320,"##fru":8321,"skinn":8322,"bitar":8323,"ved":8324,"##ingo":8325,"fjarr":8326,"##jarna":8327,"sinn":8328,"pall":8329,"##somrade":8330,"sexy":8331,"##sforen":8332,"feber":8333,"club":8334,"##slo":8335,"##stallda":8336,"64":8337,"look":8338,"tam":8339,"##det":8340,"##issar":8341,"orden":8342,"finaste":8343,"##14":8344,"biljetter":8345,"##light":8346,"marc":8347,"##dra":8348,"aktuellt":8349,"smitt":8350,"bredd":8351,"hp":8352,"ork":8353,"forsvann":8354,"hette":8355,"##unskap":8356,"##que":8357,"home":8358,"sparar":8359,"ideal":8360,"lett":8361,"testat":8362,"53":8363,"utbildningar":8364,"broder":8365,"oron":8366,"sakerhets":8367,"fiske":8368,"##storp":8369,"kanon":8370,"mangden":8371,"fritids":8372,"tillat":8373,"drommar":8374,"partiet":8375,"misstag":8376,"konkurrens":8377,"posten":8378,"uppfoljning":8379,"##bba":8380,"add":8381,"##ifest":8382,"##hantering":8383,"effektiva":8384,"rosta":8385,"uppfyll":8386,"##foreningen":8387,"mage":8388,"android":8389,"##cm":8390,"orolig":8391,"##text":8392,"begrav":8393,"##iserade":8394,"kronika":8395,"marke":8396,"##komp":8397,"##wood":8398,"##karna":8399,"cor":8400,"verket":8401,"stilla":8402,"our":8403,"arliga":8404,"atmos":8405,"studera":8406,"##attan":8407,"##behov":8408,"asp":8409,"granser":8410,"beraknas":8411,"##information":8412,"##17":8413,"##assiga":8414,"forvantningar":8415,"livs":8416,"dalarna":8417,"hyresg":8418,"julklapp":8419,"##best":8420,"##terat":8421,"smslan":8422,"vunnit":8423,"##stam":8424,"2001":8425,"mjuka":8426,"homosex":8427,"##bjud":8428,"##alder":8429,"utstallning":8430,"foreskrifter":8431,"nivaer":8432,"kryss":8433,"##sklass":8434,"##station":8435,"phot":8436,"arlig":8437,"yttre":8438,"delakt":8439,"mill":8440,"##jord":8441,"forvaltnings":8442,"bolagets":8443,"##bilit":8444,"watch":8445,"##skrona":8446,"##morgon":8447,"##teckning":8448,"teknisk":8449,"erk":8450,"serier":8451,"julen":8452,"bebis":8453,"avlopp":8454,"frid":8455,"shemale":8456,"gymmet":8457,"spelautom":8458,"osc":8459,"180":8460,"liter":8461,"garderob":8462,"betydande":8463,"##iff":8464,"##resor":8465,"efterfragan":8466,"innehalla":8467,"beach":8468,"gustaf":8469,"ve":8470,"protein":8471,"2002":8472,"konsekvenser":8473,"lader":8474,"##strand":8475,"##byggd":8476,"laggs":8477,"forvag":8478,"uppvarm":8479,"eriksson":8480,"alv":8481,"fyllt":8482,"grepp":8483,"800":8484,"terror":8485,"persson":8486,"danska":8487,"##sned":8488,"vo":8489,"telefonen":8490,"sjuka":8491,"phil":8492,"orter":8493,"impl":8494,"##fraga":8495,"dott":8496,"milit":8497,"##spass":8498,"skapade":8499,"separat":8500,"sthl":8501,"##produktion":8502,"fredagen":8503,"utga":8504,"##rigt":8505,"hallbarhet":8506,"kvadrat":8507,"kommunfull":8508,"##skra":8509,"act":8510,"##ubl":8511,"licens":8512,"##sfall":8513,"inbland":8514,"sprut":8515,"utsatta":8516,"ingredienser":8517,"##esh":8518,"front":8519,"##arium":8520,"bekvamt":8521,"##tas":8522,"##pporter":8523,"jakla":8524,"##aaaa":8525,"forman":8526,"finska":8527,"##bri":8528,"tillgod":8529,"identitet":8530,"kir":8531,"asa":8532,"vision":8533,"paborj":8534,"utlandska":8535,"godkant":8536,"malm":8537,"offer":8538,"kommersi":8539,"stodja":8540,"##inter":8541,"langsamt":8542,"sannolik":8543,"hoja":8544,"presenterar":8545,"passion":8546,"livsstil":8547,"forstod":8548,"underlatta":8549,"medborgare":8550,"##ransle":8551,"##chen":8552,"##iness":8553,"redovisning":8554,"##efoner":8555,"##kons":8556,"jeans":8557,"poly":8558,"signal":8559,"dokumenter":8560,"dyrt":8561,"placera":8562,"planet":8563,"spann":8564,"ledarskap":8565,"anonym":8566,"##iera":8567,"2019":8568,"##makt":8569,"agera":8570,"kampanj":8571,"##otika":8572,"1800":8573,"##anmal":8574,"midsommar":8575,"moms":8576,"##no":8577,"foreningens":8578,"##utry":8579,"vaknar":8580,"slots":8581,"trett":8582,"orsaken":8583,"karakt":8584,"fer":8585,"##smed":8586,"##do":8587,"togs":8588,"##aret":8589,"skala":8590,"tilldel":8591,"oppettider":8592,"##alism":8593,"fril":8594,"##vav":8595,"uppehall":8596,"paverkan":8597,"dyra":8598,"rosen":8599,"norrland":8600,"##sand":8601,"ryck":8602,"batteri":8603,"##yft":8604,"dricker":8605,"investeringar":8606,"norska":8607,"iden":8608,"affaren":8609,"holm":8610,"##ges":8611,"bearbet":8612,"##hen":8613,"uppfor":8614,"##ags":8615,"cal":8616,"##ison":8617,"##so":8618,"##vagar":8619,"##ited":8620,"nybor":8621,"vitamin":8622,"timmars":8623,"ovningar":8624,"##ancake":8625,"intresset":8626,"besokte":8627,"reson":8628,"##erien":8629,"##reterare":8630,"jap":8631,"alska":8632,"ke":8633,"pizza":8634,"##orts":8635,"foraldrarna":8636,"gammalt":8637,"diabet":8638,"kostnaden":8639,"##elen":8640,"yog":8641,"forbjud":8642,"sidorna":8643,"tillganglighet":8644,"kne":8645,"##paket":8646,"karta":8647,"spot":8648,"##entlig":8649,"##ij":8650,"professor":8651,"kvalite":8652,"arena":8653,"forsiktigt":8654,"##skaff":8655,"anstalld":8656,"insattning":8657,"aring":8658,"##forsaljare":8659,"##redovis":8660,"kvalific":8661,"hamna":8662,"kommunik":8663,"tillfreds":8664,"ink":8665,"bockerna":8666,"utmark":8667,"suga":8668,"##sted":8669,"rutin":8670,"life":8671,"gri":8672,"bd":8673,"##sbes":8674,"##hjul":8675,"brann":8676,"norden":8677,"samlas":8678,"kud":8679,"statt":8680,"hungr":8681,"klag":8682,"forhindra":8683,"##annan":8684,"skrack":8685,"regeringens":8686,"betalt":8687,"para":8688,"tunnel":8689,"##oppen":8690,"kommentera":8691,"##eftea":8692,"veckorna":8693,"##ament":8694,"beskrivs":8695,"misstankt":8696,"obligator":8697,"spons":8698,"##gym":8699,"##zon":8700,"sofia":8701,"risker":8702,"synpunkter":8703,"forvarv":8704,"larar":8705,"##visningar":8706,"dras":8707,"hundarna":8708,"ori":8709,"small":8710,"##dagens":8711,"##skador":8712,"##omb":8713,"tera":8714,"roster":8715,"##fre":8716,"specifik":8717,"##disk":8718,"partier":8719,"halvar":8720,"tt":8721,"##stillstand":8722,"radi":8723,"##19":8724,"faktura":8725,"hallen":8726,"dun":8727,"##idrag":8728,"ked":8729,"sticka":8730,"tram":8731,"berattelse":8732,"backen":8733,"allmanheten":8734,"57":8735,"personlighet":8736,"grand":8737,"amerikansk":8738,"paminner":8739,"ovanfor":8740,"sallad":8741,"forvantas":8742,"maskiner":8743,"##issionen":8744,"deltog":8745,"sthlm":8746,"berattelser":8747,"uppskattar":8748,"inse":8749,"##24":8750,"##priset":8751,"##hult":8752,"jenny":8753,"uppdatering":8754,"onlin":8755,"forsen":8756,"##ale":8757,"katastro":8758,"konsert":8759,"fonstret":8760,"##punkten":8761,"avsikt":8762,"##iam":8763,"soll":8764,"rakar":8765,"byter":8766,"foreningar":8767,"kategorin":8768,"##rull":8769,"fartyg":8770,"grek":8771,"bbw":8772,"legitim":8773,"##vardighet":8774,"stalls":8775,"pratat":8776,"##rycket":8777,"installning":8778,"sovit":8779,"patienten":8780,"von":8781,"dress":8782,"lung":8783,"brister":8784,"spanska":8785,"godkand":8786,"##hr":8787,"distans":8788,"##lott":8789,"himlen":8790,"##vald":8791,"##styrelsens":8792,"##spelet":8793,"aud":8794,"blu":8795,"migr":8796,"bollen":8797,"##meter":8798,"##kyl":8799,"perman":8800,"##akar":8801,"miljop":8802,"##ffektiv":8803,"##pool":8804,"gotal":8805,"##oped":8806,"fortjan":8807,"bist":8808,"acceptera":8809,"distrikt":8810,"symt":8811,"valk":8812,"##okl":8813,"restaurangen":8814,"valp":8815,"forsvars":8816,"aldsta":8817,"varda":8818,"betong":8819,"##handlingar":8820,"flyttat":8821,"ml":8822,"arrangemang":8823,"meddela":8824,"foretrad":8825,"##sket":8826,"enorma":8827,"inatt":8828,"##savtal":8829,"58":8830,"innovation":8831,"arbetsuppgifter":8832,"funktionsned":8833,"kim":8834,"##entering":8835,"tjejen":8836,"gilla":8837,"hih":8838,"sambo":8839,"##wn":8840,"ansoka":8841,"brittiska":8842,"overgripande":8843,"mans":8844,"trist":8845,"ramen":8846,"ven":8847,"avse":8848,"##casin":8849,"astad":8850,"korkort":8851,"installation":8852,"upptackte":8853,"lansstyrelsen":8854,"frida":8855,"jula":8856,"galleri":8857,"utfly":8858,"ansvaret":8859,"##bt":8860,"sonen":8861,"sci":8862,"class":8863,"pag":8864,"past":8865,"vantat":8866,"jac":8867,"detsamma":8868,"riv":8869,"videon":8870,"sana":8871,"omfattas":8872,"forvaring":8873,"bakgrunden":8874,"storm":8875,"besviken":8876,"morkt":8877,"skickade":8878,"oliv":8879,"ms":8880,"##ssjuk":8881,"infrast":8882,"missat":8883,"##arden":8884,"##duk":8885,"samlade":8886,"narings":8887,"sne":8888,"##cam":8889,"fotterna":8890,"gig":8891,"volvo":8892,"vistelse":8893,"guid":8894,"doktor":8895,"enorm":8896,"##stekn":8897,"##ira":8898,"okning":8899,"##kostnad":8900,"fader":8901,"##ool":8902,"pagaende":8903,"luck":8904,"variera":8905,"datab":8906,"hr":8907,"rast":8908,"forbereda":8909,"yrke":8910,"medbor":8911,"pamin":8912,"##konto":8913,"##dorr":8914,"ulf":8915,"##slin":8916,"##stolen":8917,"skapas":8918,"samord":8919,"##kram":8920,"asiatiska":8921,"moment":8922,"forlorade":8923,"##sby":8924,"##jort":8925,"##maskiner":8926,"advok":8927,"##antor":8928,"rante":8929,"lass":8930,"tjanstem":8931,"chatta":8932,"killen":8933,"fardiga":8934,"kommunerna":8935,"regelbund":8936,"innefatt":8937,"kasta":8938,"kold":8939,"##ydda":8940,"obehag":8941,"##former":8942,"##uti":8943,"meny":8944,"##massigt":8945,"##drom":8946,"varian":8947,"upphandling":8948,"mack":8949,"tjanste":8950,"loppet":8951,"parall":8952,"##funktion":8953,"losningen":8954,"##usen":8955,"##banken":8956,"##programmet":8957,"begreppet":8958,"spelarna":8959,"##artik":8960,"populart":8961,"armen":8962,"njuter":8963,"hardcore":8964,"##vig":8965,"##centrum":8966,"nyhetsbrev":8967,"knut":8968,"element":8969,"tungt":8970,"fulla":8971,"##istiskt":8972,"starten":8973,"ake":8974,"##13":8975,"politisk":8976,"##gol":8977,"befolkningen":8978,"fanga":8979,"cur":8980,"allvarligt":8981,"drack":8982,"agen":8983,"##tur":8984,"##verktyg":8985,"godkanner":8986,"##ath":8987,"##byggda":8988,"alumin":8989,"utredningen":8990,"enskild":8991,"##uggar":8992,"ljung":8993,"tempo":8994,"nervos":8995,"katter":8996,"avgora":8997,"##tals":8998,"overlev":8999,"menyn":9000,"budskap":9001,"byte":9002,"like":9003,"oversikt":9004,"##cern":9005,"rand":9006,"##22":9007,"gram":9008,"traditionell":9009,"kreditupplys":9010,"avkast":9011,"##halsa":9012,"skov":9013,"##sgrupp":9014,"##gatt":9015,"natter":9016,"spin":9017,"meningen":9018,"##eteck":9019,"transa":9020,"enst":9021,"navig":9022,"##´s":9023,"skots":9024,"roman":9025,"erkanna":9026,"##belt":9027,"##cir":9028,"inspirerande":9029,"michael":9030,"ledamoter":9031,"##sliga":9032,"##hydr":9033,"fruktansvart":9034,"69":9035,"avlag":9036,"cop":9037,"lampligt":9038,"billigaste":9039,"##hallanden":9040,"rorelser":9041,"ytterst":9042,"attra":9043,"##ces":9044,"lektion":9045,"tander":9046,"ostersund":9047,"invig":9048,"escortt":9049,"##stark":9050,"klas":9051,"##ylar":9052,"forekomm":9053,"forloss":9054,"journal":9055,"pappers":9056,"##sug":9057,"tidningar":9058,"saljs":9059,"##egrans":9060,"massan":9061,"game":9062,"fur":9063,"kapacitet":9064,"politiskt":9065,"sekret":9066,"gjorda":9067,"upptrad":9068,"garanterat":9069,"sammanfattning":9070,"minskat":9071,"lakemedels":9072,"negativt":9073,"retur":9074,"##kna":9075,"informera":9076,"##eman":9077,"faktur":9078,"fenomen":9079,"ana":9080,"enheten":9081,"forvir":9082,"skiva":9083,"loser":9084,"indik":9085,"leds":9086,"ri":9087,"vagbeskrivning":9088,"utforska":9089,"arbetsmiljo":9090,"##mod":9091,"##gjord":9092,"materi":9093,"##hoj":9094,"##innan":9095,"tillampas":9096,"fullstandigt":9097,"komplic":9098,"##slivet":9099,"miljoer":9100,"vaxande":9101,"chock":9102,"##radena":9103,"##varen":9104,"##dan":9105,"seriosa":9106,"praktisk":9107,"panik":9108,"fardigt":9109,"utslapp":9110,"##rov":9111,"aluminium":9112,"sammanlagt":9113,"banklan":9114,"vav":9115,"museum":9116,"##ili":9117,"tillgangar":9118,"##edia":9119,"##regler":9120,"banker":9121,"fyllde":9122,"bemot":9123,"lider":9124,"kollat":9125,"spanning":9126,"lyd":9127,"##alitet":9128,"nic":9129,"##lopp":9130,"what":9131,"riks":9132,"##iserad":9133,"yttrande":9134,"##ografiska":9135,"produkterna":9136,"globala":9137,"##orten":9138,"##uel":9139,"slanga":9140,"vinnare":9141,"skolans":9142,"##trafik":9143,"fungerande":9144,"fysiskt":9145,"business":9146,"sej":9147,"##oper":9148,"forlora":9149,"##lock":9150,"regionen":9151,"##lapp":9152,"minus":9153,"bestaende":9154,"steget":9155,"skamt":9156,"bind":9157,"##kvens":9158,"muskel":9159,"##jare":9160,"belast":9161,"##ningss":9162,"oslo":9163,"##temot":9164,"##backen":9165,"strang":9166,"statliga":9167,"rag":9168,"studien":9169,"##sarbete":9170,"petter":9171,"global":9172,"livsmedels":9173,"skarmen":9174,"skank":9175,"kick":9176,"olsson":9177,"##atgarder":9178,"trag":9179,"##igheterna":9180,"##fig":9181,"enstaka":9182,"##dt":9183,"remiss":9184,"krafter":9185,"aterstar":9186,"nodvandiga":9187,"unikt":9188,"asyl":9189,"snacka":9190,"mottag":9191,"torka":9192,"vinden":9193,"fota":9194,"fiber":9195,"register":9196,"utgangspunkt":9197,"byggnaden":9198,"kombinera":9199,"anstrang":9200,"satsar":9201,"versionen":9202,"##alten":9203,"##ugh":9204,"kust":9205,"##fym":9206,"##don":9207,"##oty":9208,"##fet":9209,"bondag":9210,"##somraden":9211,"##andan":9212,"efterhand":9213,"kong":9214,"talat":9215,"##bost":9216,"viktigare":9217,"konstant":9218,"ledningen":9219,"tull":9220,"kalender":9221,"smaka":9222,"anvandarna":9223,"certifi":9224,"narhet":9225,"sjukhuset":9226,"anmark":9227,"##amman":9228,"rog":9229,"smaken":9230,"##jam":9231,"##dack":9232,"kunderna":9233,"##orier":9234,"harry":9235,"deltagande":9236,"forstor":9237,"##formen":9238,"aterkommer":9239,"mobiltelefon":9240,"marks":9241,"arligt":9242,"##foljande":9243,"anl":9244,"erhall":9245,"cap":9246,"kortet":9247,"##regl":9248,"##sprocessen":9249,"rop":9250,"antik":9251,"mull":9252,"ida":9253,"vegetar":9254,"bea":9255,"pojkvan":9256,"skyddar":9257,"tig":9258,"manniskorna":9259,"overhuvud":9260,"identifiera":9261,"elit":9262,"grabb":9263,"sav":9264,"##anna":9265,"livsl":9266,"##ou":9267,"##prak":9268,"spont":9269,"prim":9270,"avsnittet":9271,"utvalda":9272,"##annes":9273,"tjanar":9274,"kulture":9275,"##com":9276,"##speriod":9277,"kampar":9278,"##25":9279,"##oka":9280,"kriget":9281,"##vardet":9282,"belysning":9283,"aterupp":9284,"motesplats":9285,"begag":9286,"usch":9287,"day":9288,"operation":9289,"##blogg":9290,"##staller":9291,"##ultur":9292,"sokande":9293,"mem":9294,"##ical":9295,"ordna":9296,"forvaltning":9297,"##rem":9298,"##hopp":9299,"skylt":9300,"utvardering":9301,"grus":9302,"vice":9303,"kvarter":9304,"##plikt":9305,"undersokningen":9306,"access":9307,"##visar":9308,"report":9309,"japanska":9310,"omstandigheter":9311,"arendet":9312,"undvik":9313,"baserad":9314,"stallt":9315,"##idens":9316,"##lage":9317,"drott":9318,"anton":9319,"forstatt":9320,"kosta":9321,"kommenter":9322,"##usten":9323,"cle":9324,"resen":9325,"##ssystemet":9326,"##imin":9327,"1990":9328,"konstatera":9329,"##rant":9330,"expon":9331,"##attar":9332,"gissa":9333,"##just":9334,"provat":9335,"inflytande":9336,"troligtvis":9337,"vaxte":9338,"citron":9339,"framja":9340,"##ikapp":9341,"vitlok":9342,"##skriget":9343,"rollen":9344,"balkong":9345,"forn":9346,"elva":9347,"simon":9348,"klickar":9349,"forvarva":9350,"lastbil":9351,"##ordet":9352,"##hjalp":9353,"outfit":9354,"variant":9355,"klippa":9356,"smyg":9357,"carol":9358,"rich":9359,"svarigheter":9360,"suck":9361,"##cial":9362,"jess":9363,"##marken":9364,"##ike":9365,"amnes":9366,"redovisas":9367,"traden":9368,"##ano":9369,"monter":9370,"##nitt":9371,"galen":9372,"begav":9373,"##sstyr":9374,"ess":9375,"larde":9376,"gunnar":9377,"##betyg":9378,"ukra":9379,"shop":9380,"##ye":9381,"omfattning":9382,"##tain":9383,"forbann":9384,"rubriken":9385,"missbruk":9386,"##ratter":9387,"fangelse":9388,"varderingar":9389,"lyfter":9390,"##ningsfor":9391,"byxor":9392,"##75":9393,"##skift":9394,"tax":9395,"##laren":9396,"gilt":9397,"##sajter":9398,"formular":9399,"##urg":9400,"##kansla":9401,"peppar":9402,"fac":9403,"mobila":9404,"##spelare":9405,"utfors":9406,"slappte":9407,"##inlagg":9408,"tekniker":9409,"##iew":9410,"svensson":9411,"##jej":9412,"##riska":9413,"##hh":9414,"rengoring":9415,"##industrin":9416,"alg":9417,"korv":9418,"##evis":9419,"speed":9420,"professionell":9421,"##bott":9422,"henta":9423,"skell":9424,"harmon":9425,"sken":9426,"##anke":9427,"centralt":9428,"rat":9429,"dimension":9430,"##lander":9431,"##kamera":9432,"tviv":9433,"klarade":9434,"auktor":9435,"party":9436,"##cell":9437,"utgifter":9438,"garn":9439,"lagstiftning":9440,"nyans":9441,"skri":9442,"hv":9443,"##ovan":9444,"titeln":9445,"##bell":9446,"textil":9447,"syskon":9448,"slutat":9449,"ursprungligen":9450,"utvecklats":9451,"utvecklat":9452,"dvd":9453,"fylld":9454,"kampa":9455,"schwe":9456,"white":9457,"utspel":9458,"krediter":9459,"relevant":9460,"##byggande":9461,"olje":9462,"mattias":9463,"fixade":9464,"##ikanska":9465,"forklaring":9466,"kj":9467,"omsattning":9468,"##di":9469,"nark":9470,"vanilj":9471,"tenn":9472,"arbetade":9473,"uppsk":9474,"aterforsaljare":9475,"##iering":9476,"forbattring":9477,"matematik":9478,"varumarken":9479,"pump":9480,"fokuserar":9481,"programm":9482,"hogskole":9483,"gras":9484,"lockar":9485,"##olver":9486,"kiss":9487,"skift":9488,"##stil":9489,"femte":9490,"titel":9491,"sveriged":9492,"cykla":9493,"kontaktannonser":9494,"##uft":9495,"##betalningar":9496,"bul":9497,"nut":9498,"dre":9499,"producera":9500,"##fen":9501,"ersatta":9502,"fabrik":9503,"##ikon":9504,"bondage":9505,"kommunfullmaktige":9506,"onska":9507,"dl":9508,"ock":9509,"avvik":9510,"##boende":9511,"##kyr":9512,"prestand":9513,"byggdes":9514,"installningar":9515,"##lakare":9516,"tillverkad":9517,"serveras":9518,"inlogg":9519,"jattem":9520,"##jack":9521,"##malm":9522,"hangde":9523,"##day":9524,"virus":9525,"vana":9526,"advent":9527,"##finans":9528,"##bildning":9529,"talt":9530,"##che":9531,"myst":9532,"gallde":9533,"militar":9534,"dynam":9535,"tumm":9536,"lasning":9537,"kostnads":9538,"##jorda":9539,"189":9540,"tele":9541,"##utrustning":9542,"tech":9543,"rester":9544,"pant":9545,"##sland":9546,"begaran":9547,"1900":9548,"arende":9549,"blatt":9550,"##klipp":9551,"hemskt":9552,"skandinav":9553,"toalett":9554,"##sakerhet":9555,"lakaren":9556,"##asten":9557,"premium":9558,"##resent":9559,"samarbetet":9560,"lagsta":9561,"delarna":9562,"mick":9563,"slump":9564,"vaggar":9565,"kru":9566,"##inns":9567,"statens":9568,"kaj":9569,"boksta":9570,"##ospel":9571,"sverigedemokrat":9572,"madde":9573,"frustr":9574,"foretagare":9575,"casinon":9576,"##rollen":9577,"debatten":9578,"overklag":9579,"orgas":9580,"##valla":9581,"fry":9582,"##cykel":9583,"##miljo":9584,"##ary":9585,"fungerade":9586,"##skall":9587,"##flyg":9588,"publiceras":9589,"vild":9590,"##jd":9591,"taxi":9592,"krang":9593,"##fo":9594,"pojke":9595,"email":9596,"term":9597,"##bandet":9598,"dru":9599,"normala":9600,"smuts":9601,"skarp":9602,"kontanter":9603,"pred":9604,"varumarke":9605,"alternativet":9606,"koppar":9607,"ast":9608,"aik":9609,"tankarna":9610,"barnets":9611,"naz":9612,"hyfs":9613,"##sback":9614,"satts":9615,"gest":9616,"##oom":9617,"##ampan":9618,"regiss":9619,"varianter":9620,"papek":9621,"uttag":9622,"kvinnorna":9623,"hihi":9624,"##redit":9625,"skyldig":9626,"styrels":9627,"mari":9628,"experter":9629,"aterbetalning":9630,"##verksamheten":9631,"king":9632,"rus":9633,"mex":9634,"##ils":9635,"abonn":9636,"forutsattningarna":9637,"bin":9638,"lot":9639,"diabetes":9640,"##kurs":9641,"##iljon":9642,"arter":9643,"negativ":9644,"biblioteket":9645,"##papper":9646,"##mote":9647,"vager":9648,"kontinuerligt":9649,"handikapp":9650,"prognos":9651,"lyser":9652,"italienska":9653,"kvant":9654,"boj":9655,"##inerande":9656,"##stal":9657,"koppling":9658,"arig":9659,"colle":9660,"##splanen":9661,"hop":9662,"##sattnings":9663,"hahaha":9664,"##cing":9665,"##bull":9666,"brud":9667,"rullar":9668,"action":9669,"gula":9670,"dubbla":9671,"1999":9672,"spelen":9673,"ten":9674,"bis":9675,"##iler":9676,"anteck":9677,"tidiga":9678,"kabel":9679,"##ytan":9680,"vande":9681,"dagars":9682,"prom":9683,"specialist":9684,"onodigt":9685,"schweiz":9686,"63":9687,"utrikes":9688,"##smedel":9689,"aftonbladet":9690,"diskret":9691,"tart":9692,"cra":9693,"##onerande":9694,"roy":9695,"##ljus":9696,"##ikan":9697,"forlat":9698,"66":9699,"majoriteten":9700,"##bre":9701,"##plat":9702,"upplys":9703,"##datum":9704,"ts":9705,"funktionsh":9706,"firar":9707,"##gora":9708,"orkade":9709,"vaska":9710,"sjunga":9711,"typiskt":9712,"dick":9713,"huruv":9714,"lil":9715,"effekten":9716,"usb":9717,"diskussioner":9718,"kristianstad":9719,"skaff":9720,"omdom":9721,"##tran":9722,"bron":9723,"gradde":9724,"##visor":9725,"namna":9726,"markligt":9727,"oand":9728,"huruvida":9729,"well":9730,"kallor":9731,"rakade":9732,"overhuvudtaget":9733,"leag":9734,"skjuta":9735,"jamstalldhet":9736,"aterv":9737,"ekologisk":9738,"malen":9739,"##samtal":9740,"allvarliga":9741,"##litt":9742,"tipsa":9743,"beslutade":9744,"minnas":9745,"debut":9746,"##effekt":9747,"##sperson":9748,"avslutade":9749,"hentai":9750,"##spark":9751,"berlin":9752,"dart":9753,"gom":9754,"trans":9755,"blott":9756,"tan":9757,"bytte":9758,"##bilitet":9759,"ekonomin":9760,"behag":9761,"arskurs":9762,"skivor":9763,"skillnader":9764,"##arn":9765,"officiella":9766,"repl":9767,"vint":9768,"lud":9769,"pig":9770,"generation":9771,"delade":9772,"##stallande":9773,"cyklar":9774,"##imeter":9775,"vardera":9776,"solid":9777,"australien":9778,"skepp":9779,"##peut":9780,"narmar":9781,"##shem":9782,"jonsson":9783,"potential":9784,"group":9785,"##rus":9786,"majoritet":9787,"sodertalje":9788,"malar":9789,"##stin":9790,"ensamstaende":9791,"kock":9792,"##skas":9793,"##steg":9794,"##ipend":9795,"##itch":9796,"resurs":9797,"72":9798,"##elar":9799,"tjugo":9800,"##kland":9801,"##emed":9802,"rektor":9803,"fixat":9804,"bh":9805,"tillfalligt":9806,"myndigheten":9807,"anvants":9808,"##stjanst":9809,"policy":9810,"julafton":9811,"micros":9812,"##ikern":9813,"medlemmarna":9814,"smycken":9815,"genomfors":9816,"##ole":9817,"konver":9818,"##undersokning":9819,"##atter":9820,"sjunger":9821,"workshop":9822,"##atiska":9823,"missade":9824,"teg":9825,"parfym":9826,"nude":9827,"##porn":9828,"komfort":9829,"67":9830,"##onde":9831,"lararna":9832,"kilo":9833,"badd":9834,"planerade":9835,"sva":9836,"metoden":9837,"funktionen":9838,"demokrati":9839,"flickvan":9840,"heltid":9841,"##ystemet":9842,"51":9843,"beky":9844,"sorters":9845,"kommunicera":9846,"##ygien":9847,"maken":9848,"punkter":9849,"filer":9850,"sokt":9851,"tillslut":9852,"installera":9853,"josef":9854,"kostnaderna":9855,"##orth":9856,"overenskommelse":9857,"exklusiva":9858,"julia":9859,"##sko":9860,"uppfylla":9861,"bredband":9862,"tvekan":9863,"##rater":9864,"gentemot":9865,"breda":9866,"##eled":9867,"##erv":9868,"skatter":9869,"beslutar":9870,"finalen":9871,"flertalet":9872,"1500":9873,"latin":9874,"bjork":9875,"open":9876,"stjarnor":9877,"ombord":9878,"##handeln":9879,"##knipp":9880,"vaxel":9881,"filter":9882,"christian":9883,"how":9884,"multi":9885,"konstruktion":9886,"bero":9887,"##kap":9888,"##rol":9889,"vakt":9890,"dep":9891,"dansk":9892,"mangfald":9893,"##grar":9894,"maltid":9895,"##mn":9896,"atervin":9897,"pay":9898,"galopp":9899,"##agor":9900,"sites":9901,"influ":9902,"ogat":9903,"manaderna":9904,"astr":9905,"international":9906,"legen":9907,"individuella":9908,"##celler":9909,"trycker":9910,"flor":9911,"riktar":9912,"lakar":9913,"belaget":9914,"##eka":9915,"stunder":9916,"rens":9917,"tacker":9918,"##bilje":9919,"##atur":9920,"hogskolan":9921,"##slok":9922,"##alisera":9923,"brasil":9924,"mojligheterna":9925,"##span":9926,"mojlig":9927,"tja":9928,"jas":9929,"friska":9930,"professionella":9931,"vardagsrum":9932,"testade":9933,"formagan":9934,"ekologiska":9935,"glommer":9936,"lod":9937,"temperaturen":9938,"koncern":9939,"pens":9940,"socialdemokraterna":9941,"skedde":9942,"##ssen":9943,"vantan":9944,"extrem":9945,"##yo":9946,"plagg":9947,"700":9948,"##hallare":9949,"avdelning":9950,"oftare":9951,"behall":9952,"ple":9953,"stream":9954,"##omal":9955,"microsoft":9956,"sr":9957,"granskning":9958,"intensiv":9959,"torg":9960,"kolhydr":9961,"foredrag":9962,"konsol":9963,"bdsm":9964,"squ":9965,"##marknad":9966,"##forandring":9967,"jatteg":9968,"##lon":9969,"kontoret":9970,"redov":9971,"tantra":9972,"brot":9973,"alexander":9974,"omgaende":9975,"anvandes":9976,"presenterade":9977,"imponerande":9978,"##hallning":9979,"foralder":9980,"ljusa":9981,"##dags":9982,"##meddelande":9983,"oscar":9984,"morfar":9985,"skruv":9986,"aja":9987,"##juka":9988,"##iserar":9989,"flygplatsen":9990,"investera":9991,"##sbolag":9992,"nationell":9993,"finansinstitut":9994,"roller":9995,"analysera":9996,"##old":9997,"muskler":9998,"talade":9999,"etn":10000,"league":10001,"##ane":10002,"skin":10003,"framtrad":10004,"##aring":10005,"brygg":10006,"marcus":10007,"##blog":10008,"mynt":10009,"storleken":10010,"matlag":10011,"narvaro":10012,"flygplats":10013,"lyssnade":10014,"##hallet":10015,"rehabilit":10016,"she":10017,"tackar":10018,"##skarm":10019,"godkannande":10020,"sokte":10021,"hanterar":10022,"jenn":10023,"privatpersoner":10024,"##ckande":10025,"bokning":10026,"processer":10027,"hoppar":10028,"##naren":10029,"teori":10030,"dansa":10031,"ful":10032,"skradd":10033,"##ous":10034,"##bbe":10035,"underteck":10036,"undersokningar":10037,"kvm":10038,"soft":10039,"ledigt":10040,"besluta":10041,"associ":10042,"##ati":10043,"decenn":10044,"gna":10045,"##teknik":10046,"xx":10047,"##pra":10048,"seriost":10049,"##agge":10050,"ratte":10051,"hogtal":10052,"forkyl":10053,"dyl":10054,"hastarna":10055,"##stran":10056,"valut":10057,"bevar":10058,"festival":10059,"##kott":10060,"##spe":10061,"##ico":10062,"kunn":10063,"blyg":10064,"fattig":10065,"tvang":10066,"blixt":10067,"lugna":10068,"ursprungliga":10069,"skelleftea":10070,"##tagna":10071,"synnerhet":10072,"bestallde":10073,"likasa":10074,"pick":10075,"##bile":10076,"tagits":10077,"leende":10078,"##atiskt":10079,"forvanad":10080,"ursakt":10081,"62":10082,"virt":10083,"arligen":10084,"ovning":10085,"##slar":10086,"jakob":10087,"vanskap":10088,"trafiken":10089,"##hs":10090,"tomma":10091,"vardagsrummet":10092,"kompens":10093,"portug":10094,"tap":10095,"##process":10096,"1998":10097,"liknar":10098,"glomde":10099,"tillverkar":10100,"besluts":10101,"uppenbart":10102,"##skolans":10103,"swe":10104,"placeras":10105,"servera":10106,"##bod":10107,"##stick":10108,"bryter":10109,"##ax":10110,"intellig":10111,"anfall":10112,"samrad":10113,"##upplevelse":10114,"##rund":10115,"dies":10116,"tomm":10117,"##itten":10118,"lof":10119,"forknipp":10120,"aterkommande":10121,"upphor":10122,"##jot":10123,"88":10124,"manus":10125,"snor":10126,"aldern":10127,"allsven":10128,"nils":10129,"##ooth":10130,"avsk":10131,"dyka":10132,"##supp":10133,"oversatt":10134,"auto":10135,"krets":10136,"gitarr":10137,"vaccin":10138,"filmerna":10139,"##givande":10140,"krava":10141,"68":10142,"arbetsmarknaden":10143,"talas":10144,"##sajt":10145,"symtom":10146,"##gjort":10147,"hemliga":10148,"kanaler":10149,"fit":10150,"odling":10151,"formiddagen":10152,"flex":10153,"ljuv":10154,"medverk":10155,"##ocke":10156,"##kaka":10157,"hallbart":10158,"lenn":10159,"moral":10160,"98":10161,"gry":10162,"armar":10163,"##65":10164,"mora":10165,"dragit":10166,"extern":10167,"##ymp":10168,"bokstav":10169,"sexual":10170,"uppenbarligen":10171,"utstallningen":10172,"befolkning":10173,"flyga":10174,"musikal":10175,"skratta":10176,"brotts":10177,"adult":10178,"##jav":10179,"##hn":10180,"bonusar":10181,"lesbiska":10182,"##olyck":10183,"ara":10184,"rav":10185,"##hop":10186,"satsning":10187,"talets":10188,"skovde":10189,"kopet":10190,"##sbok":10191,"nice":10192,"undra":10193,"##sniva":10194,"##laggningar":10195,"flask":10196,"medi":10197,"beslutat":10198,"kakor":10199,"bransle":10200,"arbetsgivaren":10201,"aterf":10202,"laggas":10203,"ola":10204,"bedoma":10205,"primar":10206,"##ago":10207,"neut":10208,"uppre":10209,"##ski":10210,"studio":10211,"##mord":10212,"##elie":10213,"spekt":10214,"##last":10215,"forskole":10216,"##sproblem":10217,"linne":10218,"skogs":10219,"reflekt":10220,"medborgar":10221,"perioder":10222,"##usi":10223,"havdar":10224,"tappar":10225,"nodvandig":10226,"bana":10227,"tryggt":10228,"##platta":10229,"skota":10230,"hmm":10231,"problemen":10232,"##rakning":10233,"overfor":10234,"fristaende":10235,"hundratals":10236,"street":10237,"##rafik":10238,"demonstr":10239,"dahl":10240,"human":10241,"varna":10242,"marin":10243,"stracker":10244,"##byxor":10245,"##ript":10246,"##styrka":10247,"elegant":10248,"ahl":10249,"79":10250,"##kontroll":10251,"kassan":10252,"intervjuer":10253,"namnda":10254,"salu":10255,"skugg":10256,"produktionen":10257,"tradgards":10258,"kemikal":10259,"uppgiften":10260,"##sforetag":10261,"radsla":10262,"seb":10263,"opin":10264,"##byra":10265,"##cancer":10266,"uppdaterad":10267,"##holms":10268,"foten":10269,"skickat":10270,"psykisk":10271,"pekar":10272,"bekymmer":10273,"188":10274,"sevard":10275,"exemplar":10276,"radgivning":10277,"may":10278,"byggnads":10279,"mins":10280,"vilt":10281,"vans":10282,"utbudet":10283,"oppnas":10284,"flest":10285,"varierande":10286,"flykting":10287,"##frihet":10288,"hjalpt":10289,"tillhorande":10290,"partners":10291,"cock":10292,"ovanstaende":10293,"ado":10294,"brom":10295,"baksidan":10296,"ugn":10297,"##21":10298,"institutionen":10299,"pon":10300,"studi":10301,"interna":10302,"book":10303,"##agne":10304,"wikip":10305,"orka":10306,"##sbo":10307,"mejl":10308,"##ege":10309,"##ogs":10310,"redigera":10311,"levde":10312,"infrastruktur":10313,"stanger":10314,"regionala":10315,"##enterna":10316,"gasterna":10317,"involver":10318,"##havare":10319,"##umtion":10320,"notera":10321,"kusin":10322,"hallas":10323,"diskriminering":10324,"egenskap":10325,"vardcentr":10326,"division":10327,"##ni":10328,"##elin":10329,"avancerade":10330,"relevanta":10331,"##ify":10332,"munt":10333,"##su":10334,"tillgangligt":10335,"##letter":10336,"darav":10337,"parlam":10338,"camping":10339,"tomas":10340,"##laddning":10341,"anne":10342,"##kanten":10343,"old":10344,"forordning":10345,"citat":10346,"##hard":10347,"killarna":10348,"hjalpmedel":10349,"knep":10350,"win":10351,"count":10352,"fixar":10353,"rekrytering":10354,"behandlingar":10355,"saa":10356,"ext":10357,"avslutas":10358,"menade":10359,"##uth":10360,"konstaterar":10361,"inrednings":10362,"kommunstyrelsen":10363,"##aganden":10364,"inuti":10365,"lampliga":10366,"sjong":10367,"##partem":10368,"slagit":10369,"halvtimm":10370,"##ynda":10371,"arbetsformed":10372,"samarbetar":10373,"kollega":10374,"stugan":10375,"week":10376,"permanent":10377,"betting":10378,"##srika":10379,"lr":10380,"locka":10381,"nike":10382,"##fund":10383,"depress":10384,"##varon":10385,"##fakt":10386,"kampen":10387,"##planen":10388,"tillverkning":10389,"sjukvarden":10390,"kreativa":10391,"##beth":10392,"matta":10393,"##leva":10394,"hamtar":10395,"utsatts":10396,"##unge":10397,"light":10398,"uppgrad":10399,"kvart":10400,"74":10401,"arbeten":10402,"kontaktuppgifter":10403,"europas":10404,"##sty":10405,"##vas":10406,"##km":10407,"##barhet":10408,"##okan":10409,"gbg":10410,"anvandningen":10411,"beredd":10412,"##koll":10413,"meddelanden":10414,"##oli":10415,"besokt":10416,"forelasning":10417,"skriven":10418,"specialis":10419,"ytor":10420,"birg":10421,"##sbel":10422,"utse":10423,"##annons":10424,"tarta":10425,"len":10426,"trotta":10427,"trygga":10428,"##ordin":10429,"anslag":10430,"besvik":10431,"bekvama":10432,"first":10433,"forord":10434,"amanda":10435,"stralande":10436,"##skare":10437,"doden":10438,"skrap":10439,"lantbruk":10440,"sanka":10441,"medicinsk":10442,"behorighet":10443,"##afil":10444,"##tillverk":10445,"avslutar":10446,"pancake":10447,"##zy":10448,"tranat":10449,"hogskola":10450,"forekom":10451,"merit":10452,"smakar":10453,"##iets":10454,"sticker":10455,"##bygga":10456,"anlaggningar":10457,"sympt":10458,"kallat":10459,"grafik":10460,"his":10461,"##pul":10462,"flod":10463,"huvudvark":10464,"tillverkare":10465,"onskan":10466,"introduktion":10467,"##pers":10468,"tron":10469,"vaken":10470,"##namnda":10471,"##fat":10472,"##resan":10473,"dorrar":10474,"##sledare":10475,"tumbl":10476,"flit":10477,"viktor":10478,"teoret":10479,"langden":10480,"psykolog":10481,"otill":10482,"avdelningen":10483,"kaos":10484,"bostaden":10485,"agaren":10486,"blue":10487,"sondags":10488,"73":10489,"rimligt":10490,"patrik":10491,"##stugan":10492,"##etch":10493,"78":10494,"tonaringar":10495,"upptacker":10496,"##stang":10497,"##profil":10498,"salde":10499,"##jakt":10500,"sajter":10501,"langsiktigt":10502,"helena":10503,"mjukt":10504,"prast":10505,"torra":10506,"dagslaget":10507,"tomten":10508,"smalt":10509,"##laggare":10510,"forverk":10511,"##sprogrammet":10512,"bedriva":10513,"forebyggande":10514,"tittat":10515,"berattelsen":10516,"vilda":10517,"stackars":10518,"##arbeten":10519,"parken":10520,"gur":10521,"biverk":10522,"anpassade":10523,"ib":10524,"ande":10525,"regnet":10526,"##pert":10527,"nyan":10528,"badrummet":10529,"vindkraft":10530,"parker":10531,"spelaren":10532,"forhandling":10533,"robot":10534,"vattent":10535,"ariga":10536,"##gb":10537,"##istiken":10538,"distribut":10539,"##skvallen":10540,"anledningar":10541,"##idor":10542,"landerna":10543,"accepterar":10544,"kinesiska":10545,"wow":10546,"enter":10547,"tappa":10548,"97":10549,"palit":10550,"kundtjanst":10551,"rummen":10552,"forlorar":10553,"##ages":10554,"forsakringsk":10555,"upplevt":10556,"##riga":10557,"marknads":10558,"flaska":10559,"##bilden":10560,"dottern":10561,"##oppar":10562,"olj":10563,"lednings":10564,"receptet":10565,"lova":10566,"slappt":10567,"gluten":10568,"##ulette":10569,"fm":10570,"##forsvar":10571,"befri":10572,"##site":10573,"graviditet":10574,"varu":10575,"shoppa":10576,"downlo":10577,"mia":10578,"py":10579,"lina":10580,"pian":10581,"altern":10582,"reaktion":10583,"nob":10584,"glid":10585,"nordic":10586,"apoteket":10587,"succe":10588,"sekretess":10589,"##politik":10590,"turkiet":10591,"buk":10592,"##gorande":10593,"lukt":10594,"sakerna":10595,"brinner":10596,"noje":10597,"duschen":10598,"ombud":10599,"orsaka":10600,"manag":10601,"grundades":10602,"adam":10603,"##kningar":10604,"gos":10605,"leker":10606,"parter":10607,"dokumentation":10608,"motorn":10609,"dubbelt":10610,"##ute":10611,"hyre":10612,"##lagga":10613,"introduc":10614,"iran":10615,"##vux":10616,"dyrare":10617,"tumblr":10618,"fortjanar":10619,"kladerna":10620,"mysiga":10621,"missar":10622,"passande":10623,"nyborjare":10624,"##ulla":10625,"jazz":10626,"miljovan":10627,"djuren":10628,"underhallning":10629,"narmsta":10630,"76":10631,"kraftig":10632,"##nost":10633,"grunder":10634,"tappat":10635,"staende":10636,"prestanda":10637,"forlorat":10638,"nedre":10639,"bedrag":10640,"beteck":10641,"was":10642,"ljudet":10643,"slapps":10644,"ansluta":10645,"mekan":10646,"infora":10647,"##atsen":10648,"externa":10649,"garage":10650,"kokos":10651,"dartill":10652,"gyll":10653,"mammas":10654,"##ican":10655,"sjalvklar":10656,"##ente":10657,"##foretaget":10658,"medicinska":10659,"##orjning":10660,"smaker":10661,"grekland":10662,"makten":10663,"##sakra":10664,"klassiker":10665,"sko":10666,"byggs":10667,"langvar":10668,"bestod":10669,"##igenom":10670,"james":10671,"padd":10672,"##motor":10673,"nackdelar":10674,"bedoms":10675,"cash":10676,"forbud":10677,"falun":10678,"indien":10679,"bekan":10680,"##musik":10681,"##ugor":10682,"games":10683,"ff":10684,"##ador":10685,"skrattade":10686,"mega":10687,"kampanjer":10688,"noggrann":10689,"##alerna":10690,"ond":10691,"varldskriget":10692,"konkurren":10693,"ped":10694,"tilltal":10695,"##stan":10696,"immun":10697,"##jorn":10698,"##inspektionen":10699,"##agda":10700,"hogkval":10701,"drick":10702,"tatu":10703,"##unna":10704,"skilja":10705,"samarbeta":10706,"##arv":10707,"##ekonomi":10708,"havs":10709,"##rorelsen":10710,"alskling":10711,"wo":10712,"skraddars":10713,"sandra":10714,"finger":10715,"buff":10716,"lakt":10717,"kvaliteten":10718,"ipad":10719,"frig":10720,"nedanfor":10721,"erf":10722,"##nats":10723,"##tagen":10724,"##laggningen":10725,"forskar":10726,"genomforande":10727,"##fang":10728,"flyger":10729,"##stock":10730,"##smode":10731,"bastu":10732,"baseras":10733,"middagen":10734,"jamna":10735,"hett":10736,"diff":10737,"berorda":10738,"justin":10739,"smaland":10740,"##nan":10741,"stuga":10742,"##iske":10743,"bab":10744,"halsb":10745,"hm":10746,"##board":10747,"herre":10748,"historier":10749,"##fram":10750,"terrang":10751,"webblasare":10752,"uttrycka":10753,"verkstad":10754,"manliga":10755,"robin":10756,"kontra":10757,"udde":10758,"djupare":10759,"##lager":10760,"1980":10761,"bekanta":10762,"stamning":10763,"##work":10764,"hyd":10765,"vandrar":10766,"##makten":10767,"assa":10768,"##anmalan":10769,"##offer":10770,"##rel":10771,"##inkar":10772,"arbetsmarknad":10773,"##teringen":10774,"jaja":10775,"overtygad":10776,"##skriven":10777,"avancerad":10778,"inkomster":10779,"##jod":10780,"varmland":10781,"skjort":10782,"hobby":10783,"tillkommer":10784,"morg":10785,"##ilda":10786,"spok":10787,"##atte":10788,"racka":10789,"sinne":10790,"##lack":10791,"arbetsdag":10792,"kreditvardighet":10793,"skur":10794,"chanser":10795,"mums":10796,"##atisk":10797,"artister":10798,"representanter":10799,"examen":10800,"##veckan":10801,"livets":10802,"forsvinna":10803,"seminar":10804,"900":10805,"##valet":10806,"forelasningar":10807,"rulla":10808,"idol":10809,"mammor":10810,"funderat":10811,"funderingar":10812,"sexfilmer":10813,"labor":10814,"johannes":10815,"polen":10816,"##eland":10817,"redog":10818,"uppger":10819,"moss":10820,"synas":10821,"bun":10822,"frammande":10823,"kondom":10824,"fjol":10825,"rytt":10826,"vig":10827,"abb":10828,"margar":10829,"hardare":10830,"omgivning":10831,"prins":10832,"oroa":10833,"holland":10834,"wi":10835,"fog":10836,"stravar":10837,"##ado":10838,"##istret":10839,"julklappar":10840,"spelautomater":10841,"chefer":10842,"vagn":10843,"fantasi":10844,"##spir":10845,"##sal":10846,"anhoriga":10847,"teamet":10848,"palm":10849,"##infl":10850,"commun":10851,"##faltet":10852,"wild":10853,"ungdoms":10854,"barndom":10855,"exam":10856,"##oman":10857,"appel":10858,"noggrant":10859,"katten":10860,"89":10861,"##sbest":10862,"tapet":10863,"##skomp":10864,"torsdagen":10865,"allvarlig":10866,"ale":10867,"mandagen":10868,"ping":10869,"personuppgift":10870,"cer":10871,"##uck":10872,"##jall":10873,"vetenskapliga":10874,"77":10875,"asiatisk":10876,"intyg":10877,"undervisningen":10878,"nivan":10879,"varannan":10880,"jacka":10881,"kontakten":10882,"desp":10883,"ze":10884,"fans":10885,"##ki":10886,"senior":10887,"##given":10888,"##edig":10889,"##skiftet":10890,"tradgardar":10891,"herren":10892,"lokalen":10893,"tufft":10894,"##anpass":10895,"natverket":10896,"tagen":10897,"##ektionen":10898,"betraff":10899,"##villkor":10900,"##skrivna":10901,"bestallt":10902,"##ced":10903,"mt":10904,"##omet":10905,"tredj":10906,"##hd":10907,"bostads":10908,"ostergot":10909,"lotta":10910,"##ilja":10911,"sper":10912,"kartan":10913,"hemifran":10914,"alm":10915,"semestern":10916,"forekommande":10917,"adressen":10918,"here":10919,"framgangsrika":10920,"provade":10921,"lats":10922,"overdr":10923,"ther":10924,"landstinget":10925,"##varu":10926,"provning":10927,"lit":10928,"##ionens":10929,"##ifierad":10930,"farliga":10931,"##skostnader":10932,"vuxit":10933,"myt":10934,"agna":10935,"ama":10936,"##stjanster":10937,"bund":10938,"##ball":10939,"urin":10940,"jacob":10941,"lch":10942,"##ights":10943,"110":10944,"fax":10945,"borgen":10946,"vagnen":10947,"gala":10948,"skivan":10949,"##ifik":10950,"##heim":10951,"politiken":10952,"syri":10953,"##marknaden":10954,"aspekter":10955,"egy":10956,"##butiker":10957,"##smet":10958,"sling":10959,"##cen":10960,"upptackt":10961,"lila":10962,"forsaljningen":10963,"put":10964,"night":10965,"96":10966,"comments":10967,"hustru":10968,"ling":10969,"plag":10970,"funktionsnedsattning":10971,"startat":10972,"annika":10973,"advokat":10974,"fatal":10975,"##ely":10976,"##promen":10977,"elisa":10978,"engelsk":10979,"kjol":10980,"spir":10981,"##ickor":10982,"nud":10983,"tv4":10984,"1970":10985,"utbyte":10986,"farska":10987,"##ektorn":10988,"##listan":10989,"kvallens":10990,"begara":10991,"helsingfors":10992,"inledning":10993,"##stedt":10994,"minsann":10995,"koldioxid":10996,"kas":10997,"personerna":10998,"rapporterar":10999,"any":11000,"odds":11001,"gru":11002,"who":11003,"utstall":11004,"##sack":11005,"snabblan":11006,"hungrig":11007,"uthyr":11008,"maila":11009,"rorande":11010,"tillverkade":11011,"stel":11012,"lyckad":11013,"ifk":11014,"konsul":11015,"skrivbord":11016,"registrerade":11017,"##rorna":11018,"content":11019,"mobb":11020,"##entliga":11021,"kw":11022,"84":11023,"drommer":11024,"rakningar":11025,"victoria":11026,"saljare":11027,"arkitektur":11028,"##itz":11029,"villkoren":11030,"ordfor":11031,"forvantar":11032,"##vert":11033,"##hamtning":11034,"head":11035,"tappade":11036,"namnden":11037,"##grans":11038,"aldrar":11039,"barcel":11040,"forebygga":11041,"##ankande":11042,"anvandaren":11043,"##poang":11044,"bay":11045,"medvetna":11046,"sams":11047,"##elsef":11048,"firade":11049,"anpassad":11050,"knack":11051,"prylar":11052,"##ove":11053,"stolta":11054,"deklar":11055,"##hotell":11056,"##dell":11057,"fodda":11058,"arbetssatt":11059,"paketet":11060,"haromdagen":11061,"tjansteman":11062,"xd":11063,"##forbruk":11064,"instruktioner":11065,"##rapporter":11066,"##tio":11067,"hamnat":11068,"innanfor":11069,"kav":11070,"##oritet":11071,"skadespelare":11072,"website":11073,"##enderar":11074,"##ippa":11075,"sexuellt":11076,"wifi":11077,"glatt":11078,"allih":11079,"##rister":11080,"gigant":11081,"##komsten":11082,"##traff":11083,"valfard":11084,"hiss":11085,"##ington":11086,"administration":11087,"valuta":11088,"hogkvalit":11089,"varst":11090,"##okument":11091,"orange":11092,"##33":11093,"anbud":11094,"museet":11095,"##svillkor":11096,"byggde":11097,"bedomer":11098,"##cted":11099,"minskade":11100,"xn":11101,"insidan":11102,"##rustad":11103,"##eas":11104,"##entuna":11105,"katastrof":11106,"mkr":11107,"modul":11108,"sjukdomen":11109,"gd":11110,"##akade":11111,"##kad":11112,"ljust":11113,"atal":11114,"foraldra":11115,"kanada":11116,"faglar":11117,"brak":11118,"hallbara":11119,"lchf":11120,"storstad":11121,"##eda":11122,"innefattar":11123,"betraktas":11124,"junior":11125,"##ywood":11126,"domstolen":11127,"smidig":11128,"producerar":11129,"telefoner":11130,"plant":11131,"rensa":11132,"lamm":11133,"##lamn":11134,"mandat":11135,"hjarna":11136,"genu":11137,"genomforas":11138,"varning":11139,"presentkort":11140,"hamnen":11141,"pur":11142,"##delningar":11143,"jimm":11144,"tend":11145,"##fallen":11146,"komplex":11147,"flygplan":11148,"ggr":11149,"slip":11150,"##berget":11151,"lappar":11152,"bagge":11153,"observ":11154,"##mjol":11155,"lyckligt":11156,"aktiebolag":11157,"##ures":11158,"##sbar":11159,"bensin":11160,"scand":11161,"specifikt":11162,"general":11163,"##langt":11164,"feta":11165,"psykiat":11166,"upprep":11167,"strategier":11168,"vaskan":11169,"upplevelsen":11170,"samarbetspart":11171,"##lada":11172,"samtalet":11173,"sanning":11174,"##smannen":11175,"balt":11176,"touch":11177,"realist":11178,"long":11179,"lampor":11180,"programvara":11181,"plockade":11182,"iii":11183,"categor":11184,"##stuga":11185,"saft":11186,"artist":11187,"turen":11188,"dnr":11189,"sjalvfort":11190,"kvartalet":11191,"94":11192,"borger":11193,"chefen":11194,"maskinen":11195,"disc":11196,"uppgick":11197,"kompa":11198,"estet":11199,"##junkt":11200,"tjocka":11201,"underhallande":11202,"##iled":11203,"underlattar":11204,"rantor":11205,"##ily":11206,"##parken":11207,"bergen":11208,"hornet":11209,"titlar":11210,"##ransa":11211,"akl":11212,"tillatet":11213,"stipend":11214,"##olen":11215,"javligt":11216,"hallit":11217,"noveller":11218,"fargerna":11219,"mist":11220,"tjeck":11221,"##forvaltningen":11222,"##konst":11223,"download":11224,"oversattning":11225,"hanteras":11226,"kolon":11227,"##komligt":11228,"tillhandahaller":11229,"avbr":11230,"strumpor":11231,"tidpunkt":11232,"kalle":11233,"anlaggningen":11234,"passager":11235,"gator":11236,"afrika":11237,"jessica":11238,"oga":11239,"bevara":11240,"forbruk":11241,"enk":11242,"##cernen":11243,"rantan":11244,"tillbaks":11245,"##viker":11246,"ingang":11247,"kasino":11248,"1997":11249,"nasan":11250,"swingers":11251,"wikipedia":11252,"##igger":11253,"ensamma":11254,"gla":11255,"##alar":11256,"fras":11257,"niklas":11258,"##sag":11259,"framtidens":11260,"webcam":11261,"konsum":11262,"konkurrenskraft":11263,"##iro":11264,"leksak":11265,"##data":11266,"finansiell":11267,"##ergi":11268,"about":11269,"lennart":11270,"somras":11271,"berattat":11272,"##underlag":11273,"kali":11274,"minskning":11275,"entreprenor":11276,"databas":11277,"##iviteter":11278,"njot":11279,"stamp":11280,"##amnen":11281,"##redning":11282,"kvadratmeter":11283,"uppsta":11284,"medic":11285,"##skrivningar":11286,"kommissionen":11287,"dumt":11288,"##sklader":11289,"arr":11290,"forsakringen":11291,"##figur":11292,"montering":11293,"##hallande":11294,"medlemsst":11295,"ryk":11296,"##pade":11297,"trakig":11298,"##eld":11299,"find":11300,"onsdagen":11301,"##ytor":11302,"skadestand":11303,"##garant":11304,"atmosfar":11305,"after":11306,"rumpa":11307,"katol":11308,"bam":11309,"forsvara":11310,"forstora":11311,"tranade":11312,"##natur":11313,"##bonus":11314,"abonnemang":11315,"varsin":11316,"forhallandet":11317,"sexuell":11318,"grata":11319,"##utbildningar":11320,"huvudsakligen":11321,"kanneteck":11322,"sokning":11323,"glans":11324,"lada":11325,"kungs":11326,"alternativa":11327,"lady":11328,"feed":11329,"##baserade":11330,"orsakar":11331,"ving":11332,"gava":11333,"jordgubbar":11334,"arsredovis":11335,"kreditupplysning":11336,"bos":11337,"##gjorda":11338,"lesbian":11339,"kard":11340,"##pg":11341,"nationellt":11342,"poolen":11343,"moll":11344,"hallon":11345,"favor":11346,"women":11347,"blaser":11348,"lagring":11349,"tavlar":11350,"utbr":11351,"talam":11352,"tanter":11353,"ikon":11354,"varat":11355,"inspirerad":11356,"ansag":11357,"iron":11358,"##inci":11359,"lav":11360,"ystad":11361,"##rock":11362,"celler":11363,"grannar":11364,"bilda":11365,"direktiv":11366,"laddar":11367,"escorter":11368,"##glad":11369,"oratt":11370,"filt":11371,"slapptes":11372,"halland":11373,"digitalt":11374,"alice":11375,"tillverkas":11376,"##namnet":11377,"raknat":11378,"display":11379,"aktivera":11380,"inflamm":11381,"anklag":11382,"##flode":11383,"unge":11384,"forare":11385,"hekt":11386,"ng":11387,"##ffel":11388,"studenten":11389,"forsiktig":11390,"avkastning":11391,"##atorn":11392,"##utbud":11393,"##vetet":11394,"avdrag":11395,"##ulin":11396,"kropps":11397,"handled":11398,"##utbildningen":11399,"##arbetare":11400,"vagrar":11401,"invandrare":11402,"##hojd":11403,"flytande":11404,"bokstaver":11405,"##smin":11406,"ihjal":11407,"##idrott":11408,"pizz":11409,"##plom":11410,"##emi":11411,"cirk":11412,"frukosten":11413,"morkret":11414,"way":11415,"myr":11416,"##bilen":11417,"godkanda":11418,"##not":11419,"inge":11420,"mich":11421,"symboler":11422,"##ttill":11423,"forank":11424,"grovt":11425,"must":11426,"##ligaste":11427,"##kann":11428,"skrattar":11429,"honung":11430,"tunna":11431,"andrar":11432,"semin":11433,"##organisation":11434,"##kalla":11435,"forviss":11436,"modernt":11437,"lands":11438,"sve":11439,"etablering":11440,"markte":11441,"magnet":11442,"##esp":11443,"smorg":11444,"mellanrum":11445,"bedriver":11446,"##cos":11447,"bow":11448,"##anas":11449,"farfar":11450,"publicerat":11451,"che":11452,"snick":11453,"bog":11454,"ambass":11455,"ovrig":11456,"bygglov":11457,"##lop":11458,"karol":11459,"##stroms":11460,"##plac":11461,"tekniskt":11462,"##adels":11463,"insamling":11464,"##klubben":11465,"story":11466,"##strad":11467,"sovjet":11468,"united":11469,"fransk":11470,"drottning":11471,"dire":11472,"az":11473,"##ituation":11474,"flagg":11475,"belagen":11476,"raddningst":11477,"proffs":11478,"lararen":11479,"overgang":11480,"##pump":11481,"ratter":11482,"kryp":11483,"##flod":11484,"linjer":11485,"##elaterade":11486,"tals":11487,"bokat":11488,"##ariga":11489,"tummarna":11490,"flag":11491,"skrivande":11492,"reste":11493,"##utvecklingen":11494,"bert":11495,"spekul":11496,"rutan":11497,"##cs":11498,"implem":11499,"kit":11500,"##alogen":11501,"beloppet":11502,"photos":11503,"vinsten":11504,"view":11505,"ending":11506,"##anslut":11507,"kostnadsfritt":11508,"##ibla":11509,"handlat":11510,"individuellt":11511,"klarat":11512,"ish":11513,"##sokande":11514,"samtycke":11515,"onskade":11516,"fiskar":11517,"analsex":11518,"##bete":11519,"##berga":11520,"##speg":11521,"luktar":11522,"##amet":11523,"lekte":11524,"bibeln":11525,"forbundet":11526,"beton":11527,"vegas":11528,"ansoker":11529,"kostym":11530,"redskap":11531,"hemsidor":11532,"konkreta":11533,"kvalitets":11534,"applic":11535,"diskuterar":11536,"degen":11537,"vistas":11538,"visby":11539,"##emedlem":11540,"skytt":11541,"html":11542,"kasinon":11543,"defini":11544,"sovrummet":11545,"reserver":11546,"tobak":11547,"batar":11548,"##bag":11549,"giss":11550,"pals":11551,"ova":11552,"##test":11553,"komponenter":11554,"djupa":11555,"klaga":11556,"recens":11557,"placerade":11558,"orsaker":11559,"begransat":11560,"##nyt":11561,"cykeln":11562,"sha":11563,"##elly":11564,"forvanta":11565,"rekommendationer":11566,"blot":11567,"platta":11568,"orgasm":11569,"lun":11570,"##lur":11571,"undrade":11572,"styck":11573,"##tagande":11574,"minuten":11575,"sprider":11576,"vaggarna":11577,"baserade":11578,"brukade":11579,"berattig":11580,"ambul":11581,"casinot":11582,"##skjut":11583,"##anne":11584,"##operat":11585,"##skningen":11586,"forklarade":11587,"now":11588,"klev":11589,"pm":11590,"bestammelserna":11591,"##iser":11592,"road":11593,"sanger":11594,"86":11595,"okanda":11596,"##position":11597,"oral":11598,"mandags":11599,"arbetsloshet":11600,"projektledare":11601,"##pal":11602,"forfl":11603,"tanderna":11604,"genomfort":11605,"##sy":11606,"school":11607,"beskatt":11608,"fula":11609,"diet":11610,"1994":11611,"kvallarna":11612,"uk":11613,"diesel":11614,"pastar":11615,"##borgs":11616,"fordr":11617,"##oklipp":11618,"glasogon":11619,"##cal":11620,"tydligare":11621,"bibe":11622,"##sforbund":11623,"revid":11624,"##ima":11625,"##vaska":11626,"##handlingen":11627,"integration":11628,"simm":11629,"que":11630,"william":11631,"verksamhets":11632,"damp":11633,"##muse":11634,"140":11635,"lacker":11636,"formedla":11637,"##peratur":11638,"videospel":11639,"##xamen":11640,"representerar":11641,"kjell":11642,"portratt":11643,"kross":11644,"doma":11645,"##kostnader":11646,"kanten":11647,"##iskop":11648,"expans":11649,"##forslag":11650,"panel":11651,"byggas":11652,"tabellen":11653,"bokar":11654,"##skval":11655,"nm":11656,"nyheterna":11657,"friluft":11658,"mess":11659,"handelsen":11660,"utnyttjar":11661,"##bek":11662,"mestadels":11663,"160":11664,"rattvis":11665,"helvete":11666,"##skada":11667,"##skur":11668,"faktor":11669,"##ami":11670,"nederland":11671,"##usion":11672,"trump":11673,"moderaterna":11674,"##ave":11675,"graf":11676,"overst":11677,"##uran":11678,"##systemet":11679,"##plattor":11680,"##ware":11681,"ventilation":11682,"##opol":11683,"kanslig":11684,"uppdateras":11685,"komplettera":11686,"tyder":11687,"roulette":11688,"alle":11689,"udda":11690,"genomsnittet":11691,"bryt":11692,"jobbig":11693,"##tten":11694,"toner":11695,"foreslag":11696,"##utna":11697,"avsloja":11698,"linnea":11699,"##iseras":11700,"wester":11701,"##emar":11702,"##ammare":11703,"##eden":11704,"kunskapen":11705,"##check":11706,"skorna":11707,"foss":11708,"svull":11709,"heder":11710,"##stallt":11711,"idrotts":11712,"manniskans":11713,"##emin":11714,"##onto":11715,"bildas":11716,"##nuft":11717,"paret":11718,"gt":11719,"miljopart":11720,"blow":11721,"indiska":11722,"bildar":11723,"vagledning":11724,"blivande":11725,"passet":11726,"halt":11727,"##ussen":11728,"allas":11729,"holls":11730,"minnet":11731,"##block":11732,"viner":11733,"bedomningen":11734,"kyla":11735,"uni":11736,"##stro":11737,"tester":11738,"revolution":11739,"betraffande":11740,"forrad":11741,"##langd":11742,"ebon":11743,"beaut":11744,"##uster":11745,"kontrollen":11746,"borlang":11747,"##anvandning":11748,"tisdagen":11749,"kid":11750,"tommy":11751,"relaterade":11752,"varmare":11753,"jackp":11754,"kostade":11755,"parterna":11756,"overleva":11757,"irland":11758,"##brod":11759,"##orin":11760,"fattas":11761,"83":11762,"arbetstid":11763,"beromda":11764,"hamburg":11765,"japansk":11766,"barcelona":11767,"hyfsat":11768,"##opro":11769,"##splatser":11770,"##pension":11771,"stodjer":11772,"utformning":11773,"##stationen":11774,"##skyld":11775,"kreativitet":11776,"non":11777,"##ikar":11778,"skym":11779,"##asyster":11780,"##okta":11781,"lunds":11782,"skrivs":11783,"forbl":11784,"nt":11785,"klubbar":11786,"pite":11787,"aggress":11788,"ravaror":11789,"verklig":11790,"stangt":11791,"missfor":11792,"hjartan":11793,"pyssel":11794,"leif":11795,"roligaste":11796,"##cl":11797,"##raget":11798,"bell":11799,"bm":11800,"stryk":11801,"wel":11802,"cross":11803,"ode":11804,"tillforlit":11805,"halsar":11806,"afg":11807,"bildades":11808,"ledamot":11809,"93":11810,"saknade":11811,"individuell":11812,"##gjorde":11813,"skrammande":11814,"hallow":11815,"valkanda":11816,"motivation":11817,"letade":11818,"kore":11819,"likadant":11820,"halvtimme":11821,"##sskydd":11822,"mental":11823,"rakning":11824,"130":11825,"rita":11826,"utdelning":11827,"##halt":11828,"skilda":11829,"##slen":11830,"##visas":11831,"vackraste":11832,"intakt":11833,"beund":11834,"##enser":11835,"export":11836,"##fordon":11837,"185":11838,"82":11839,"tillhandahalla":11840,"renovering":11841,"intim":11842,"##splaner":11843,"tuffa":11844,"bond":11845,"ansvariga":11846,"schema":11847,"instruktion":11848,"##ush":11849,"##ule":11850,"forne":11851,"nja":11852,"##ede":11853,"meddelar":11854,"agde":11855,"servicen":11856,"room":11857,"##gro":11858,"offentligt":11859,"sannolikhet":11860,"vacka":11861,"trakiga":11862,"jaha":11863,"##ningssatt":11864,"valdtakt":11865,"##okning":11866,"folkets":11867,"##astaende":11868,"##erierna":11869,"betalningar":11870,"kondition":11871,"##ict":11872,"##cast":11873,"tiot":11874,"paminn":11875,"sis":11876,"erfarna":11877,"amerikan":11878,"torrt":11879,"##cle":11880,"fordelarna":11881,"import":11882,"fastan":11883,"##idning":11884,"##uppdrag":11885,"forsakringskassan":11886,"kolhydrater":11887,"passerar":11888,"soffa":11889,"fittor":11890,"##maskinen":11891,"##stopp":11892,"92":11893,"##ningsm":11894,"pirat":11895,"lagret":11896,"mysa":11897,"utnyttj":11898,"##¤r":11899,"buller":11900,"ganget":11901,"ebony":11902,"skoll":11903,"##sang":11904,"ags":11905,"aland":11906,"palest":11907,"##dring":11908,"##itation":11909,"alp":11910,"vagade":11911,"peppark":11912,"gardagens":11913,"##livet":11914,"arsmote":11915,"##cher":11916,"##inerna":11917,"avsedd":11918,"konkurs":11919,"##skiv":11920,"konstiga":11921,"skadade":11922,"##syr":11923,"##anning":11924,"##tte":11925,"sverigedemokraterna":11926,"kontaktar":11927,"##scent":11928,"tour":11929,"kansliga":11930,"genomfordes":11931,"anta":11932,"skriker":11933,"##jerna":11934,"ohalsa":11935,"##omer":11936,"biverkningar":11937,"1995":11938,"##radets":11939,"61":11940,"186":11941,"mission":11942,"retro":11943,"sommarlov":11944,"tolkning":11945,"##fron":11946,"had":11947,"##tto":11948,"##fukt":11949,"birgitta":11950,"##osten":11951,"stamningen":11952,"trender":11953,"kandis":11954,"forma":11955,"konvention":11956,"vardnad":11957,"felaktig":11958,"##vader":11959,"flickan":11960,"lagst":11961,"##atik":11962,"stenar":11963,"matcha":11964,"inblandade":11965,"tillata":11966,"rabattkod":11967,"cos":11968,"##varld":11969,"vaxthus":11970,"komplement":11971,"montera":11972,"##fattare":11973,"repet":11974,"assistans":11975,"prestation":11976,"page":11977,"nacka":11978,"orn":11979,"175":11980,"##ilia":11981,"##ningsmedel":11982,"analyt":11983,"##zen":11984,"uppmarksamma":11985,"russ":11986,"##ologin":11987,"oc":11988,"diplom":11989,"sold":11990,"publicera":11991,"##itra":11992,"sektor":11993,"##eds":11994,"husdjur":11995,"science":11996,"fattiga":11997,"trakass":11998,"##bidrag":11999,"sparas":12000,"skarpa":12001,"vagarna":12002,"kvinnors":12003,"fornuft":12004,"##bilda":12005,"##ordes":12006,"omgang":12007,"diskuteras":12008,"festen":12009,"intervall":12010,"videoklipp":12011,"management":12012,"##mastare":12013,"##byn":12014,"onda":12015,"university":12016,"isen":12017,"margin":12018,"cv":12019,"##bottens":12020,"##vision":12021,"examens":12022,"##bul":12023,"stiger":12024,"##havaren":12025,"omdome":12026,"medie":12027,"187":12028,"begransningar":12029,"##samnen":12030,"blandat":12031,"skrek":12032,"matlagning":12033,"overraskning":12034,"bifog":12035,"potentiella":12036,"loner":12037,"##registr":12038,"##spra":12039,"sound":12040,"overlat":12041,"##stjarnor":12042,"hygien":12043,"##sperioden":12044,"blabar":12045,"ovantat":12046,"##enterade":12047,"radet":12048,"jattekul":12049,"1996":12050,"blekinge":12051,"reagerar":12052,"socken":12053,"omhand":12054,"migrations":12055,"rehabilitering":12056,"##vat":12057,"balkongen":12058,"adel":12059,"syl":12060,"kristus":12061,"christer":12062,"langsiktiga":12063,"uppvarmning":12064,"harifran":12065,"principer":12066,"bemotande":12067,"##tex":12068,"borlange":12069,"absoluta":12070,"onan":12071,"forskningen":12072,"tennis":12073,"##skytt":12074,"aringen":12075,"overgrepp":12076,"katalog":12077,"dari":12078,"enskilt":12079,"forvisso":12080,"respons":12081,"uppvaxt":12082,"schemat":12083,"genomgang":12084,"stracka":12085,"string":12086,"##lagda":12087,"##casino":12088,"solo":12089,"lopning":12090,"medvetet":12091,"garanterar":12092,"uddevalla":12093,"ash":12094,"##spolitik":12095,"asien":12096,"punkten":12097,"##smaterial":12098,"1700":12099,"magasin":12100,"skord":12101,"kvallar":12102,"religiosa":12103,"##scen":12104,"cirkel":12105,"stressad":12106,"matcherna":12107,"utforas":12108,"armarna":12109,"kongress":12110,"arbetskraft":12111,"latina":12112,"justera":12113,"drev":12114,"##vc":12115,"manaders":12116,"kundens":12117,"burk":12118,"utby":12119,"framgangsrik":12120,"##stalle":12121,"mamman":12122,"91":12123,"##side":12124,"gh":12125,"##tips":12126,"##slosa":12127,"##fars":12128,"spotify":12129,"##dragen":12130,"debit":12131,"hyresgast":12132,"testar":12133,"kostnadsfri":12134,"##varre":12135,"##kg":12136,"klokt":12137,"##design":12138,"ekologiskt":12139,"##oler":12140,"##renover":12141,"north":12142,"forkort":12143,"##strategi":12144,"##produkt":12145,"conta":12146,"##hattan":12147,"##massan":12148,"sankt":12149,"grasm":12150,"kravet":12151,"##kvar":12152,"##ekv":12153,"comp":12154,"##sbyggnad":12155,"##ansokan":12156,"sjutt":12157,"kopare":12158,"vintage":12159,"bakterier":12160,"vanligare":12161,"##ekreterare":12162,"college":12163,"87":12164,"size":12165,"m2":12166,"depression":12167,"etikett":12168,"fordelen":12169,"##dafr":12170,"there":12171,"premier":12172,"mater":12173,"meet":12174,"alltmer":12175,"rymmer":12176,"olag":12177,"tallrik":12178,"##ydde":12179,"klasser":12180,"##vit":12181,"neuro":12182,"talamod":12183,"konstig":12184,"##byggnaden":12185,"sjalvstandigt":12186,"##penning":12187,"badkar":12188,"vass":12189,"halloween":12190,"framsteg":12191,"##insatser":12192,"designen":12193,"##skiva":12194,"stot":12195,"shirt":12196,"laddning":12197,"forutsatt":12198,"visning":12199,"skjuts":12200,"vardagar":12201,"kyrkans":12202,"utrustad":12203,"penning":12204,"##vapen":12205,"bosatt":12206,"color":12207,"loper":12208,"opposition":12209,"onskat":12210,"##halls":12211,"taggad":12212,"nyfik":12213,"baren":12214,"samhallets":12215,"daglig":12216,"olle":12217,"expressen":12218,"xnxx":12219,"skrivet":12220,"##blomm":12221,"kanel":12222,"loj":12223,"krypa":12224,"##emark":12225,"erbjudandet":12226,"##mass":12227,"##gs":12228,"##ife":12229,"slappna":12230,"tredjedel":12231,"##ulen":12232,"##ovning":12233,"halsade":12234,"skogsb":12235,"##pati":12236,"spegel":12237,"review":12238,"floden":12239,"cel":12240,"years":12241,"##hogskolan":12242,"##dy":12243,"kundservice":12244,"overnatt":12245,"##front":12246,"variation":12247,"verifi":12248,"##skapen":12249,"##ankar":12250,"##itte":12251,"cec":12252,"latex":12253,"##jacka":12254,"##vor":12255,"##ward":12256,"gotaland":12257,"##marke":12258,"##ladan":12259,"##vaningen":12260,"##estad":12261,"lovat":12262,"##smassigt":12263,"sjunker":12264,"tarar":12265,"pix":12266,"kvinnlig":12267,"170":12268,"stjal":12269,"hemlighet":12270,"sagas":12271,"spill":12272,"beseg":12273,"1960":12274,"##viv":12275,"tillracklig":12276,"##brid":12277,"samsung":12278,"##mott":12279,"##come":12280,"##bileum":12281,"sammantrade":12282,"##ends":12283,"begransa":12284,"##massa":12285,"##cipl":12286,"irak":12287,"uppskatta":12288,"ce":12289,"##uru":12290,"fien":12291,"iak":12292,"forandrats":12293,"es":12294,"tes":12295,"uppror":12296,"karlskrona":12297,"forekomma":12298,"##ovlar":12299,"##perioden":12300,"piller":12301,"##gie":12302,"##handlare":12303,"fortsattning":12304,"##skontroll":12305,"sakna":12306,"juridiska":12307,"webbsida":12308,"imorr":12309,"##esc":12310,"omedelbar":12311,"##xy":12312,"##ungit":12313,"kakel":12314,"bilarna":12315,"astadkomma":12316,"##sorganis":12317,"ultim":12318,"know":12319,"stadning":12320,"mossa":12321,"##provning":12322,"betalningsanmarkningar":12323,"mach":12324,"##ungna":12325,"dessvarre":12326,"progress":12327,"passform":12328,"deg":12329,"nul":12330,"bestaller":12331,"##sluter":12332,"##avstand":12333,"##bind":12334,"doften":12335,"otal":12336,"stok":12337,"hill":12338,"##ampor":12339,"foretradare":12340,"romantisk":12341,"##hagen":12342,"##atser":12343,"##objekt":12344,"producent":12345,"iso":12346,"fotbolls":12347,"misstanker":12348,"wiki":12349,"kompet":12350,"haftigt":12351,"##ionde":12352,"landsbygden":12353,"agar":12354,"upphovsratt":12355,"card":12356,"fasad":12357,"##arp":12358,"uppratthalla":12359,"filip":12360,"republ":12361,"arbetsformedlingen":12362,"##akes":12363,"##kontor":12364,"promenader":12365,"resterande":12366,"##nis":12367,"forhallningssatt":12368,"ss":12369,"agerar":12370,"omdomen":12371,"##skorna":12372,"micro":12373,"stu":12374,"forfar":12375,"skyldighet":12376,"maximal":12377,"##mman":12378,"##dalen":12379,"rackte":12380,"oronen":12381,"engagerade":12382,"quiz":12383,"allerg":12384,"kallare":12385,"vs":12386,"dolda":12387,"rick":12388,"kopplade":12389,"partierna":12390,"profiler":12391,"pont":12392,"droj":12393,"##andare":12394,"refer":12395,"cirkul":12396,"esp":12397,"foreslas":12398,"hi":12399,"slutandan":12400,"allians":12401,"##partementet":12402,"##istens":12403,"broms":12404,"funnit":12405,"##amning":12406,"overvikt":12407,"shit":12408,"stry":12409,"##alm":12410,"stunden":12411,"##slost":12412,"pase":12413,"sjukskoterska":12414,"##gan":12415,"rang":12416,"torget":12417,"vantas":12418,"cast":12419,"##svar":12420,"##ryss":12421,"uppdateringar":12422,"##forvar":12423,"kvarn":12424,"vinet":12425,"##45":12426,"##ofs":12427,"mobl":12428,"##arig":12429,"monstret":12430,"dead":12431,"##modellen":12432,"rotter":12433,"naglar":12434,"##manland":12435,"utmarkta":12436,"betyda":12437,"##malt":12438,"dj":12439,"landslag":12440,"##vad":12441,"blandade":12442,"lanade":12443,"##splikt":12444,"talang":12445,"handtag":12446,"##23":12447,"utvardera":12448,"valkomst":12449,"hogtid":12450,"stamma":12451,"overvakning":12452,"jattes":12453,"1993":12454,"markera":12455,"sakerheten":12456,"vandra":12457,"aterbetal":12458,"besta":12459,"symptom":12460,"taby":12461,"rh":12462,"aa":12463,"lysande":12464,"##chefen":12465,"musiker":12466,"atervanda":12467,"runtom":12468,"maklare":12469,"flexibel":12470,"every":12471,"pier":12472,"gata":12473,"andrade":12474,"##umpen":12475,"jamtland":12476,"ic":12477,"handlingen":12478,"asf":12479,"##journ":12480,"narliggande":12481,"##produc":12482,"##ogn":12483,"tabletter":12484,"kommuns":12485,"namns":12486,"lillebror":12487,"dejten":12488,"faltet":12489,"granne":12490,"kungen":12491,"m²":12492,"aterfinns":12493,"forfall":12494,"fortro":12495,"natterna":12496,"kk":12497,"##ginal":12498,"garantera":12499,"starker":12500,"##sforsakring":12501,"narkotika":12502,"resonemang":12503,"miljom":12504,"herreg":12505,"food":12506,"##ding":12507,"##sbeslut":12508,"##stallen":12509,"oklart":12510,"chic":12511,"kitt":12512,"efterlangt":12513,"rider":12514,"nos":12515,"frost":12516,"ordentlig":12517,"detaljplan":12518,"klagomal":12519,"##etid":12520,"funka":12521,"##amerika":12522,"kristina":12523,"sevardheter":12524,"##gna":12525,"kliva":12526,"##sborg":12527,"ada":12528,"vinkel":12529,"##byggt":12530,"regerings":12531,"5000":12532,"sjalvfortroende":12533,"universitetet":12534,"forsaljnings":12535,"##svatten":12536,"kopplas":12537,"##bruket":12538,"##innor":12539,"berget":12540,"##vagnar":12541,"##tvatt":12542,"##agt":12543,"##addra":12544,"nacken":12545,"##adet":12546,"vispa":12547,"existerar":12548,"maja":12549,"##panel":12550,"historiskt":12551,"tenderar":12552,"found":12553,"cru":12554,"jean":12555,"##innar":12556,"##aaa":12557,"kroppens":12558,"##oat":12559,"snubb":12560,"##pengar":12561,"apels":12562,"torsdags":12563,"blogginlagg":12564,"##idering":12565,"##vackande":12566,"##inv":12567,"varg":12568,"##istrat":12569,"atl":12570,"##ption":12571,"nyckeln":12572,"morker":12573,"##smatch":12574,"##foljer":12575,"##aken":12576,"konsten":12577,"fullstandig":12578,"partiled":12579,"invester":12580,"##skostnad":12581,"##video":12582,"##avgift":12583,"##brist":12584,"gaming":12585,"duscha":12586,"##ityd":12587,"numret":12588,"grekiska":12589,"klok":12590,"belgi":12591,"##forn":12592,"summan":12593,"ovanpa":12594,"poster":12595,"industrin":12596,"besoket":12597,"##givaren":12598,"##savgiften":12599,"ratts":12600,"##ervice":12601,"sele":12602,"##brad":12603,"##nojd":12604,"wordpress":12605,"micke":12606,"##boy":12607,"resur":12608,"rose":12609,"##kapp":12610,"##foder":12611,"search":12612,"hemmag":12613,"camilla":12614,"##xis":12615,"uppfod":12616,"##otyp":12617,"isb":12618,"antibi":12619,"##historia":12620,"tomat":12621,"konsumtion":12622,"loppis":12623,"brunett":12624,"whisk":12625,"foreligger":12626,"flakt":12627,"tankas":12628,"muslimer":12629,"##stider":12630,"##glom":12631,"stodet":12632,"##stamm":12633,"pict":12634,"fund":12635,"smek":12636,"##briker":12637,"dejtingsidan":12638,"drabbade":12639,"amm":12640,"latsas":12641,"barnmor":12642,"casinospel":12643,"##byran":12644,"klocka":12645,"experim":12646,"350":12647,"##skrid":12648,"njur":12649,"engang":12650,"vingar":12651,"coop":12652,"blomster":12653,"vip":12654,"partik":12655,"##bedom":12656,"glod":12657,"varas":12658,"rattvisa":12659,"arbetsplatsen":12660,"jung":12661,"lektioner":12662,"sena":12663,"##ords":12664,"sovmorgon":12665,"##rukturen":12666,"regional":12667,"##date":12668,"parag":12669,"kopia":12670,"fororen":12671,"mild":12672,"kontot":12673,"institution":12674,"ursa":12675,"##plock":12676,"filen":12677,"utgora":12678,"idiot":12679,"kriminal":12680,"konflikter":12681,"explos":12682,"varberg":12683,"benny":12684,"omgivningen":12685,"##stadiet":12686,"plockar":12687,"utmaningen":12688,"utflykt":12689,"elect":12690,"##irektor":12691,"##vill":12692,"lasse":12693,"##icer":12694,"##espel":12695,"2020":12696,"##personal":12697,"snarast":12698,"##massage":12699,"##arten":12700,"##resultatet":12701,"domare":12702,"diskussionen":12703,"vatska":12704,"regelbundna":12705,"##gade":12706,"rymd":12707,"tent":12708,"terrass":12709,"anpassas":12710,"protest":12711,"fragestall":12712,"veterinar":12713,"resulterade":12714,"tankande":12715,"malade":12716,"cou":12717,"uppkopp":12718,"teckna":12719,"skidor":12720,"bruna":12721,"herregud":12722,"manat":12723,"##statt":12724,"blomma":12725,"poll":12726,"hostens":12727,"ukraina":12728,"##edi":12729,"##sgran":12730,"spray":12731,"bt":12732,"##sbas":12733,"elektronisk":12734,"kottet":12735,"flyt":12736,"##cket":12737,"falken":12738,"stolar":12739,"desperat":12740,"##skyl":12741,"naja":12742,"spridning":12743,"indirekt":12744,"bratt":12745,"rabatter":12746,"sf":12747,"arbetsplatser":12748,"experiment":12749,"skatteverket":12750,"##lampa":12751,"vaning":12752,"pend":12753,"stotta":12754,"bidragit":12755,"##lav":12756,"chips":12757,"##shistor":12758,"lex":12759,"##ple":12760,"koks":12761,"##ime":12762,"mobile":12763,"politikerna":12764,"utmanande":12765,"surfa":12766,"poangen":12767,"naringslivet":12768,"tillverka":12769,"hogra":12770,"great":12771,"iordning":12772,"hemmaplan":12773,"kontrast":12774,"genomsnittliga":12775,"ersatter":12776,"please":12777,"##iserat":12778,"utfard":12779,"hindrar":12780,"huvudsakliga":12781,"anvandnings":12782,"fisken":12783,"stallas":12784,"71":12785,"varnar":12786,"##sign":12787,"motverka":12788,"anknyt":12789,"fingrar":12790,"flog":12791,"less":12792,"drakt":12793,"kammar":12794,"see":12795,"##snummer":12796,"##grader":12797,"american":12798,"##feldt":12799,"##ilen":12800,"##eve":12801,"funderade":12802,"skadad":12803,"##ield":12804,"gold":12805,"##oe":12806,"##yren":12807,"##havet":12808,"##koden":12809,"##format":12810,"##etts":12811,"gris":12812,"##fran":12813,"kusten":12814,"elast":12815,"##deltag":12816,"konton":12817,"supp":12818,"traningspass":12819,"sprit":12820,"viking":12821,"psykiska":12822,"##bitar":12823,"sparet":12824,"melodifest":12825,"math":12826,"svarat":12827,"sakerligen":12828,"hamtat":12829,"nost":12830,"##asc":12831,"latit":12832,"gps":12833,"valda":12834,"bredare":12835,"onani":12836,"inneholl":12837,"fb":12838,"levitra":12839,"anvandarnamn":12840,"##steknik":12841,"##dahl":12842,"analyser":12843,"relationen":12844,"inhand":12845,"vinnaren":12846,"##reserv":12847,"##cht":12848,"emelie":12849,"stabilitet":12850,"arke":12851,"##terad":12852,"amatorer":12853,"##svikt":12854,"kvalit":12855,"##99":12856,"individen":12857,"mottes":12858,"statistiken":12859,"styrning":12860,"fotografera":12861,"hollywood":12862,"louise":12863,"##atern":12864,"manlig":12865,"armband":12866,"drabbats":12867,"##priser":12868,"blind":12869,"ostergotland":12870,"unger":12871,"resenarer":12872,"##kamer":12873,"##anting":12874,"fron":12875,"fire":12876,"manads":12877,"##yder":12878,"planeras":12879,"dopp":12880,"prick":12881,"ai":12882,"blondin":12883,"fortsattningen":12884,"trivas":12885,"plug":12886,"sammanstallning":12887,"##hamm":12888,"darigenom":12889,"kandidat":12890,"jens":12891,"##yssel":12892,"##shav":12893,"##skningar":12894,"lampa":12895,"name":12896,"##vardig":12897,"riket":12898,"kulturella":12899,"importer":12900,"nyttigt":12901,"##intresse":12902,"##spolicy":12903,"##plic":12904,"##omi":12905,"givande":12906,"klam":12907,"norsk":12908,"mandel":12909,"husen":12910,"miljok":12911,"ront":12912,"langiv":12913,"seni":12914,"spad":12915,"underratt":12916,"energin":12917,"kopplat":12918,"##ando":12919,"##lot":12920,"irriterad":12921,"attityd":12922,"avslutades":12923,"##vecka":12924,"360":12925,"menings":12926,"proposition":12927,"patag":12928,"kapp":12929,"forbe":12930,"vitam":12931,"statsminister":12932,"##artiklar":12933,"##onder":12934,"etablerade":12935,"alliansen":12936,"jakten":12937,"toppar":12938,"bortom":12939,"##tagning":12940,"##kakor":12941,"oskar":12942,"linjen":12943,"##alken":12944,"office":12945,"forenings":12946,"meta":12947,"kulturen":12948,"eur":12949,"kramar":12950,"karaktarer":12951,"bistand":12952,"elimin":12953,"kollektivavtal":12954,"behovas":12955,"##skran":12956,"gods":12957,"upply":12958,"##entar":12959,"try":12960,"blandar":12961,"metro":12962,"intensivt":12963,"homosexuella":12964,"rust":12965,"manager":12966,"traditionellt":12967,"ll":12968,"##dit":12969,"pitea":12970,"lunchen":12971,"institutet":12972,"styrelsens":12973,"samvete":12974,"delaktighet":12975,"fattade":12976,"carlsson":12977,"allergi":12978,"##konstru":12979,"pedagogiska":12980,"music":12981,"svd":12982,"pressmeddelande":12983,"myndigheterna":12984,"valfri":12985,"malgrupp":12986,"##krets":12987,"rubrik":12988,"industr":12989,"##stalls":12990,"narstaende":12991,"slottet":12992,"ligg":12993,"monteras":12994,"serverar":12995,"fingrarna":12996,"hammarby":12997,"vilar":12998,"vaningen":12999,"novell":13000,"die":13001,"125":13002,"break":13003,"forfragan":13004,"vaskor":13005,"fotografering":13006,"genomforts":13007,"turister":13008,"trettio":13009,"valfar":13010,"diameter":13011,"##smorgon":13012,"##dukar":13013,"darpa":13014,"fysik":13015,"hittas":13016,"##35":13017,"##ppade":13018,"deleg":13019,"bladdra":13020,"rykte":13021,"##ydlig":13022,"##agd":13023,"katar":13024,"kommersiella":13025,"batter":13026,"##skyddet":13027,"intraffar":13028,"portfolj":13029,"##ygger":13030,"latarna":13031,"avveck":13032,"lanar":13033,"stir":13034,"sommarens":13035,"slat":13036,"spelande":13037,"deltagit":13038,"tvungna":13039,"ngt":13040,"pics":13041,"keram":13042,"basket":13043,"##inrikt":13044,"##helg":13045,"mineral":13046,"utbildad":13047,"##file":13048,"svaren":13049,"branscher":13050,"aro":13051,"afghan":13052,"utbetal":13053,"tiderna":13054,"drink":13055,"##krit":13056,"landskapet":13057,"overd":13058,"oppnat":13059,"##lakt":13060,"okand":13061,"provet":13062,"##°c":13063,"delat":13064,"inbrott":13065,"##eger":13066,"maximalt":13067,"##traning":13068,"tryckt":13069,"journalister":13070,"##adem":13071,"inneband":13072,"##natet":13073,"nobel":13074,"scener":13075,"raden":13076,"trupp":13077,"effektivitet":13078,"andrat":13079,"young":13080,"flyktingar":13081,"teman":13082,"fak":13083,"engagera":13084,"kritisk":13085,"spell":13086,"reportage":13087,"##blom":13088,"forbattringar":13089,"innovativa":13090,"bege":13091,"##blas":13092,"gatu":13093,"##ree":13094,"bromma":13095,"ersatts":13096,"##bibli":13097,"return":13098,"gronsak":13099,"tegel":13100,"hemat":13101,"fastnade":13102,"##liggora":13103,"ataganden":13104,"minskad":13105,"1992":13106,"trafikverket":13107,"##klund":13108,"def":13109,"tanda":13110,"pettersson":13111,"fardigheter":13112,"operator":13113,"militara":13114,"utreda":13115,"synes":13116,"byra":13117,"news":13118,"levt":13119,"evangel":13120,"fyllda":13121,"kontaktperson":13122,"skalet":13123,"emellanat":13124,"##ppe":13125,"efterfrag":13126,"studerar":13127,"generisk":13128,"forbind":13129,"gel":13130,"servering":13131,"des":13132,"ansprak":13133,"laborator":13134,"langtan":13135,"3000":13136,"adoos":13137,"dran":13138,"thor":13139,"akademiker":13140,"tad":13141,"##stolar":13142,"firma":13143,"sortera":13144,"##fett":13145,"##nivan":13146,"##reen":13147,"anden":13148,"enkat":13149,"##effektiv":13150,"##vagnen":13151,"mv":13152,"biograf":13153,"befann":13154,"feder":13155,"uppdel":13156,"movie":13157,"bebygg":13158,"postades":13159,"framgangsrikt":13160,"skold":13161,"##ovningar":13162,"ingaende":13163,"eftert":13164,"race":13165,"##sklerna":13166,"skum":13167,"motstandare":13168,"konceptet":13169,"##pedagog":13170,"##kvist":13171,"##sklubb":13172,"imorn":13173,"##eback":13174,"lojal":13175,"rinner":13176,"##skons":13177,"kylskap":13178,"##ssaker":13179,"1950":13180,"arbetslosa":13181,"smala":13182,"##ated":13183,"forutsatter":13184,"##verige":13185,"inspirera":13186,"utat":13187,"sammanhanget":13188,"vansterpartiet":13189,"avgiften":13190,"sill":13191,"grot":13192,"ersattare":13193,"alfa":13194,"##hm":13195,"##kommun":13196,"marknader":13197,"##anlaggning":13198,"ladan":13199,"tidskrift":13200,"besoks":13201,"begransade":13202,"lugnare":13203,"kriterier":13204,"receptfritt":13205,"enklaste":13206,"vark":13207,"spektak":13208,"verkligt":13209,"intag":13210,"blicken":13211,"bekraftelse":13212,"##ynn":13213,"richard":13214,"trycket":13215,"nojes":13216,"christina":13217,"ming":13218,"svenskarna":13219,"##emester":13220,"1600":13221,"forestallningar":13222,"little":13223,"klanningar":13224,"frascha":13225,"##vagg":13226,"veder":13227,"##visningen":13228,"uppskattat":13229,"klimatet":13230,"rapportera":13231,"##smojligheter":13232,"hembyg":13233,"kenn":13234,"skiss":13235,"avslojar":13236,"femton":13237,"kallades":13238,"##sprov":13239,"vul":13240,"##rygg":13241,"##bias":13242,"##speci":13243,"samsta":13244,"betalningsanmarkning":13245,"prel":13246,"##bullar":13247,"njutning":13248,"##unskaper":13249,"stilar":13250,"quote":13251,"hindra":13252,"hemt":13253,"angivna":13254,"matning":13255,"##ves":13256,"mira":13257,"##elever":13258,"feedback":13259,"##ckare":13260,"forestalla":13261,"bristande":13262,"fordonet":13263,"##gorelse":13264,"koden":13265,"tyngd":13266,"##nastik":13267,"##beck":13268,"strikt":13269,"tillfallig":13270,"##ople":13271,"##ifikat":13272,"##ekter":13273,"##unnen":13274,"skotsel":13275,"##ters":13276,"##zo":13277,"utbetalning":13278,"soff":13279,"inbjudan":13280,"svan":13281,"##foral":13282,"samlag":13283,"misslyckas":13284,"##eng":13285,"mum":13286,"##hing":13287,"begagnade":13288,"yttersta":13289,"##nt":13290,"popularitet":13291,"elektroniska":13292,"forbattras":13293,"familjemedlem":13294,"sess":13295,"klassiskt":13296,"attraktiva":13297,"energik":13298,"pia":13299,"nina":13300,"##ete":13301,"elektronik":13302,"##ulara":13303,"##ross":13304,"beredskap":13305,"slakten":13306,"next":13307,"flyttas":13308,"##jning":13309,"slap":13310,"saljaren":13311,"informations":13312,"##angar":13313,"batterier":13314,"##hart":13315,"betalat":13316,"laskigt":13317,"sax":13318,"cons":13319,"genet":13320,"franvaro":13321,"stapel":13322,"rorelsen":13323,"postat":13324,"##quist":13325,"logistik":13326,"arsmotet":13327,"##forhallanden":13328,"stina":13329,"##sforvalt":13330,"##lings":13331,"intera":13332,"##rap":13333,"success":13334,"portugal":13335,"arabiska":13336,"korrig":13337,"tveka":13338,"krok":13339,"segern":13340,"backar":13341,"##lorna":13342,"foda":13343,"##period":13344,"fortjust":13345,"login":13346,"##sters":13347,"levnad":13348,"fangar":13349,"##rr":13350,"dyk":13351,"georg":13352,"naked":13353,"blanc":13354,"auktion":13355,"blandas":13356,"gifter":13357,"avslappnad":13358,"arrangeras":13359,"nyanser":13360,"kent":13361,"##vant":13362,"pp":13363,"##strar":13364,"##runa":13365,"##immar":13366,"##rea":13367,"timma":13368,"avslutning":13369,"vap":13370,"##skapande":13371,"apt":13372,"##olin":13373,"gummi":13374,"nadde":13375,"blodet":13376,"##bjorn":13377,"##beller":13378,"##blar":13379,"generationer":13380,"sjost":13381,"##formular":13382,"annanstans":13383,"granska":13384,"stri":13385,"hbt":13386,"##baserad":13387,"nedanstaende":13388,"sexstallningar":13389,"##dren":13390,"spis":13391,"klubbens":13392,"##hammar":13393,"##vind":13394,"fods":13395,"magiska":13396,"##ysning":13397,"siffrorna":13398,"koparen":13399,"##omsorg":13400,"utfort":13401,"care":13402,"##ses":13403,"utforande":13404,"anstallnings":13405,"forsvunnit":13406,"bonder":13407,"helger":13408,"category":13409,"##llt":13410,"skargard":13411,"lis":13412,"only":13413,"##sverket":13414,"sott":13415,"stjarna":13416,"hudvard":13417,"use":13418,"##atts":13419,"contin":13420,"enastaende":13421,"hands":13422,"boendet":13423,"##shot":13424,"##koder":13425,"rostade":13426,"valkomnar":13427,"namner":13428,"hojer":13429,"##socker":13430,"lt":13431,"irriterande":13432,"##eria":13433,"charlott":13434,"handeln":13435,"##regionen":13436,"jaga":13437,"stadat":13438,"##fyllda":13439,"south":13440,"forbattrar":13441,"valbered":13442,"##akim":13443,"vasterbotten":13444,"##belopp":13445,"creamp":13446,"huvudstad":13447,"offens":13448,"utmana":13449,"##ssnitt":13450,"roger":13451,"kosten":13452,"slutsatser":13453,"kartor":13454,"##lust":13455,"intellekt":13456,"tangent":13457,"uppr":13458,"za":13459,"platserna":13460,"##panna":13461,"konstnarer":13462,"##unk":13463,"arbetsliv":13464,"knappar":13465,"automatisk":13466,"##ty":13467,"insett":13468,"fliken":13469,"reflex":13470,"hostas":13471,"instrukt":13472,"historisk":13473,"droger":13474,"byx":13475,"##yrer":13476,"utsikten":13477,"livslangd":13478,"pussel":13479,"upplagg":13480,"##inka":13481,"cecilia":13482,"behovt":13483,"slass":13484,"bedrivs":13485,"flug":13486,"sydafr":13487,"bloggare":13488,"tolka":13489,"suver":13490,"passerat":13491,"anime":13492,"medium":13493,"karnkraft":13494,"sysselsattning":13495,"origin":13496,"trojor":13497,"funkade":13498,"olycka":13499,"husse":13500,"##helst":13501,"bomb":13502,"hiv":13503,"arrangerar":13504,"overvaga":13505,"anlita":13506,"##rer":13507,"givit":13508,"krankande":13509,"uppgar":13510,"##fattning":13511,"tandlak":13512,"imponerad":13513,"rattegang":13514,"mir":13515,"falska":13516,"bankkonto":13517,"##savgifter":13518,"inverkan":13519,"##ingenjor":13520,"##ikansk":13521,"formar":13522,"utgors":13523,"##ared":13524,"##stora":13525,"drommen":13526,"blast":13527,"fair":13528,"stamm":13529,"regioner":13530,"1991":13531,"##husen":13532,"bikini":13533,"ordnar":13534,"timmen":13535,"tillvag":13536,"##papp":13537,"slanger":13538,"##sbolaget":13539,"vasentligt":13540,"classic":13541,"rostfritt":13542,"##aton":13543,"varumarket":13544,"##tankt":13545,"##kalen":13546,"placerad":13547,"##alismen":13548,"byggd":13549,"##akare":13550,"satsningar":13551,"kroppar":13552,"svin":13553,"faster":13554,"tystnad":13555,"prostitu":13556,"kungliga":13557,"flackar":13558,"sydost":13559,"##jta":13560,"utarbet":13561,"publicerad":13562,"ordforanden":13563,"ingick":13564,"typiska":13565,"##stens":13566,"nedladdning":13567,"##varan":13568,"##sfullt":13569,"##medlem":13570,"forsvarsmakten":13571,"revolut":13572,"##artan":13573,"wars":13574,"meddelade":13575,"kastar":13576,"##smarknaden":13577,"jordens":13578,"rein":13579,"belagg":13580,"sommark":13581,"sektion":13582,"kemikalier":13583,"lyckliga":13584,"kombinerar":13585,"grava":13586,"strunt":13587,"utrymmen":13588,"##finansiering":13589,"disp":13590,"champagne":13591,"stretch":13592,"most":13593,"supers":13594,"##givna":13595,"##register":13596,"skanska":13597,"royal":13598,"trenden":13599,"jobbiga":13600,"##mel":13601,"##modell":13602,"##esen":13603,"utvid":13604,"##akor":13605,"kej":13606,"##illgang":13607,"privatlan":13608,"uppskattade":13609,"odla":13610,"finare":13611,"landstings":13612,"##ria":13613,"##ops":13614,"saab":13615,"maz":13616,"inleds":13617,"##umpar":13618,"##overket":13619,"dromma":13620,"spelades":13621,"##foretagen":13622,"##horde":13623,"##salj":13624,"vattenfall":13625,"fastnar":13626,"torde":13627,"spik":13628,"xl":13629,"osterrike":13630,"utbilda":13631,"sjalvmord":13632,"omradena":13633,"lasaren":13634,"ade":13635,"pjas":13636,"klassific":13637,"arlanda":13638,"##chat":13639,"joakim":13640,"rostar":13641,"biten":13642,"tankbara":13643,"prostata":13644,"uppsagning":13645,"cr":13646,"##ст":13647,"itu":13648,"kanslom":13649,"kylan":13650,"expand":13651,"##roja":13652,"framgangar":13653,"##dotter":13654,"syre":13655,"##sspar":13656,"##straning":13657,"fascinerande":13658,"gestalt":13659,"tvill":13660,"##vattnet":13661,"tvivel":13662,"hormon":13663,"lonsamhet":13664,"kemi":13665,"nass":13666,"anmalt":13667,"kollektivtrafik":13668,"kyrkor":13669,"##yrkan":13670,"anhorig":13671,"##ony":13672,"jattemycket":13673,"lejon":13674,"##sper":13675,"##drat":13676,"utdrag":13677,"##hlin":13678,"revision":13679,"jose":13680,"singles":13681,"utvecklings":13682,"ohl":13683,"tingsratt":13684,"##77":13685,"engagerad":13686,"##kron":13687,"frack":13688,"otrolig":13689,"bingo":13690,"##lasning":13691,"utspelar":13692,"provar":13693,"##gat":13694,"hult":13695,"uv":13696,"elevernas":13697,"narma":13698,"kraftfull":13699,"socialstyrelsen":13700,"nedsatt":13701,"kraftiga":13702,"smeten":13703,"blowjob":13704,"##shavare":13705,"##smiljo":13706,"jonkopings":13707,"tranga":13708,"valdes":13709,"romer":13710,"poliser":13711,"demokratiska":13712,"behovdes":13713,"smartan":13714,"konstaterade":13715,"unders":13716,"grejen":13717,"konserv":13718,"lidande":13719,"omvard":13720,"intraffade":13721,"##vardering":13722,"##hyll":13723,"graset":13724,"##iko":13725,"avsedda":13726,"forfog":13727,"koncernen":13728,"okande":13729,"studerande":13730,"hariga":13731,"##sidorna":13732,"bokade":13733,"##hts":13734,"funktionshinder":13735,"synonym":13736,"dolj":13737,"patri":13738,"foster":13739,"proje":13740,"stiftelsen":13741,"escorttjej":13742,"kyss":13743,"people":13744,"extrema":13745,"lador":13746,"billan":13747,"overskott":13748,"##ay":13749,"##vanliga":13750,"transaktion":13751,"##kondition":13752,"accept":13753,"kannedom":13754,"yes":13755,"faktiska":13756,"kalkyl":13757,"smartphone":13758,"##oplan":13759,"filtr":13760,"##slov":13761,"charl":13762,"huvudperson":13763,"##korning":13764,"##videos":13765,"##sallad":13766,"visit":13767,"##idas":13768,"spor":13769,"lampan":13770,"##rafta":13771,"kampanjen":13772,"lyssnat":13773,"##hurt":13774,"nyanlanda":13775,"telia":13776,"##skikt":13777,"medverka":13778,"##rent":13779,"oliver":13780,"heliga":13781,"##ory":13782,"##brand":13783,"pad":13784,"mastare":13785,"katarina":13786,"##innen":13787,"agnar":13788,"strackan":13789,"kerstin":13790,"overforing":13791,"utvecklade":13792,"konvers":13793,"##medicin":13794,"inledde":13795,"reaktioner":13796,"sakrare":13797,"rol":13798,"veckors":13799,"compan":13800,"single":13801,"paj":13802,"brunn":13803,"##linjen":13804,"entusi":13805,"italiensk":13806,"lagras":13807,"##stiger":13808,"bonde":13809,"japp":13810,"##loss":13811,"inratt":13812,"low":13813,"brostet":13814,"kompakt":13815,"mobel":13816,"morr":13817,"##eledam":13818,"##skonferens":13819,"bespar":13820,"genus":13821,"diagnost":13822,"kemiska":13823,"utstallningar":13824,"##umma":13825,"ignor":13826,"bokfor":13827,"##angden":13828,"##cykl":13829,"matchar":13830,"tillfalliga":13831,"konferensen":13832,"designer":13833,"##sele":13834,"##uls":13835,"gdpr":13836,"forestallningen":13837,"##dinge":13838,"##usch":13839,"nostal":13840,"drycker":13841,"chi":13842,"smut":13843,"kiruna":13844,"##kedja":13845,"markus":13846,"##stest":13847,"aj":13848,"paradis":13849,"##ledaren":13850,"##metoder":13851,"##sammare":13852,"felaktigt":13853,"forbattrad":13854,"##stre":13855,"##loppet":13856,"trojan":13857,"foresla":13858,"farten":13859,"bollar":13860,"antas":13861,"river":13862,"salong":13863,"ankomst":13864,"##odde":13865,"second":13866,"##pes":13867,"series":13868,"gifte":13869,"##69":13870,"biskop":13871,"##inas":13872,"##ckit":13873,"##pulver":13874,"upplevde":13875,"sangar":13876,"tvinga":13877,"paragraf":13878,"simma":13879,"foraren":13880,"hamtad":13881,"utfall":13882,"##ious":13883,"olyckor":13884,"##nation":13885,"albumet":13886,"##plar":13887,"odd":13888,"varandras":13889,"forlangning":13890,"stiga":13891,"##idningen":13892,"##dam":13893,"kostnadse":13894,"##forum":13895,"##intresserade":13896,"vasa":13897,"psy":13898,"vitaminer":13899,"tarm":13900,"##ordforande":13901,"namnd":13902,"dressyr":13903,"vikar":13904,"pok":13905,"soldat":13906,"marka":13907,"namnde":13908,"##bock":13909,"mangsid":13910,"corn":13911,"utk":13912,"attraktiv":13913,"sodermalm":13914,"##reger":13915,"vidta":13916,"forvaltningen":13917,"jamnt":13918,"meg":13919,"##ulera":13920,"publish":13921,"##ktorer":13922,"kastade":13923,"scenar":13924,"##stein":13925,"korning":13926,"skrevs":13927,"forkylning":13928,"viktigast":13929,"bekraftar":13930,"##oon":13931,"avsevart":13932,"##mas":13933,"orten":13934,"lux":13935,"blodtryck":13936,"harddisk":13937,"onsdags":13938,"vardefulla":13939,"##ofog":13940,"year":13941,"sopp":13942,"sammank":13943,"##fc":13944,"sjalen":13945,"oland":13946,"ungdomarna":13947,"tobias":13948,"seminarium":13949,"reform":13950,"dennes":13951,"ks":13952,"arom":13953,"##utrymmet":13954,"barnbarn":13955,"trekant":13956,"nodvandigtvis":13957,"askad":13958,"kritiska":13959,"kakade":13960,"tillskott":13961,"pressa":13962,"miljob":13963,"substans":13964,"laddas":13965,"sou":13966,"jesper":13967,"halvlek":13968,"norde":13969,"##kapital":13970,"svaga":13971,"erhalla":13972,"fortryck":13973,"batteriet":13974,"varmer":13975,"gruv":13976,"escorttjejer":13977,"amate":13978,"ultra":13979,"welcome":13980,"kontaktannons":13981,"##modeller":13982,"mediciner":13983,"lovade":13984,"bussar":13985,"forflytt":13986,"##bers":13987,"tej":13988,"##fag":13989,"##chester":13990,"staffan":13991,"##edition":13992,"bokforing":13993,"sortimentet":13994,"foljs":13995,"##struktur":13996,"forse":13997,"nyfikna":13998,"forpackning":13999,"##essa":14000,"tisdags":14001,"vel":14002,"##fy":14003,"##fas":14004,"hatt":14005,"##domstolen":14006,"dejtar":14007,"omvarlden":14008,"tillampa":14009,"##myndigheten":14010,"avn":14011,"gradd":14012,"##golv":14013,"oskyld":14014,"##skommun":14015,"psykiskt":14016,"##saret":14017,"##kvalitet":14018,"festivalen":14019,"publicerade":14020,"lanka":14021,"##alk":14022,"utov":14023,"infektion":14024,"optimal":14025,"turne":14026,"frascht":14027,"##ftt":14028,"skept":14029,"exakta":14030,"nedat":14031,"syrien":14032,"osyn":14033,"##oarer":14034,"##entre":14035,"##itution":14036,"engl":14037,"globalt":14038,"fallen":14039,"tavlor":14040,"##klassen":14041,"norrbotten":14042,"##brev":14043,"kronofog":14044,"stycke":14045,"dods":14046,"effekterna":14047,"##ektor":14048,"##univers":14049,"villiga":14050,"officiellt":14051,"snusk":14052,"speglar":14053,"halsband":14054,"kravande":14055,"betydelsen":14056,"djurgarden":14057,"##forbud":14058,"gabri":14059,"elits":14060,"research":14061,"transf":14062,"arbetslivet":14063,"forsakringar":14064,"jansson":14065,"ringen":14066,"syrran":14067,"##genom":14068,"belgien":14069,"fos":14070,"opera":14071,"forvara":14072,"##itiv":14073,"boy":14074,"##bis":14075,"lyckat":14076,"flesh":14077,"##bolagen":14078,"malsattning":14079,"##arerna":14080,"utova":14081,"##bom":14082,"##industri":14083,"tik":14084,"uppfattas":14085,"medfora":14086,"##ipa":14087,"mn":14088,"##oa":14089,"##vandring":14090,"##able":14091,"cyklade":14092,"stilen":14093,"skrik":14094,"skyddas":14095,"formiddag":14096,"##icia":14097,"ey":14098,"institutioner":14099,"##evin":14100,"kapten":14101,"familjens":14102,"##uen":14103,"skiner":14104,"discipl":14105,"vackte":14106,"varia":14107,"smorgas":14108,"##oven":14109,"taggar":14110,"nyfikenhet":14111,"##vanlig":14112,"forvaras":14113,"arige":14114,"##kit":14115,"##astning":14116,"anstalla":14117,"landskrona":14118,"##kategor":14119,"traffades":14120,"utmatt":14121,"##enheter":14122,"diagram":14123,"key":14124,"produceras":14125,"agnet":14126,"babe":14127,"##fylld":14128,"protester":14129,"allsvenskan":14130,"##sfest":14131,"kommenterar":14132,"cart":14133,"sander":14134,"kylen":14135,"##hastighet":14136,"valbef":14137,"skrib":14138,"revisor":14139,"brosch":14140,"tyngre":14141,"fullkomligt":14142,"##trafiken":14143,"uttalande":14144,"##34":14145,"odm":14146,"them":14147,"slangde":14148,"kyrkog":14149,"##ative":14150,"reparation":14151,"##rader":14152,"##ventionen":14153,"##kladd":14154,"tripp":14155,"upplosning":14156,"undviker":14157,"vagled":14158,"utoka":14159,"malvakt":14160,"sektorn":14161,"##27":14162,"skiten":14163,"##hc":14164,"hotels":14165,"##esi":14166,"frekvens":14167,"somnar":14168,"slav":14169,"##spapper":14170,"nagorlunda":14171,"kva":14172,"##ropp":14173,"##grunder":14174,"ebba":14175,"##arrang":14176,"bekamp":14177,"beloning":14178,"cc":14179,"##lunda":14180,"skadar":14181,"indian":14182,"asian":14183,"##ycker":14184,"ingrid":14185,"foretagande":14186,"pojken":14187,"komplexa":14188,"galna":14189,"##stren":14190,"##isol":14191,"sjatte":14192,"wood":14193,"##sgruppen":14194,"##ji":14195,"##ating":14196,"sattas":14197,"##ugen":14198,"##forsorjning":14199,"ray":14200,"other":14201,"arvid":14202,"dm":14203,"##dubb":14204,"akti":14205,"representant":14206,"##samlingen":14207,"forvantat":14208,"arbetare":14209,"##ration":14210,"inflytt":14211,"finlands":14212,"some":14213,"illama":14214,"kunskaps":14215,"##fack":14216,"fungerat":14217,"pappas":14218,"tina":14219,"letat":14220,"mattan":14221,"bekrafta":14222,"mul":14223,"dir":14224,"qual":14225,"##luft":14226,"##allen":14227,"puls":14228,"parallellt":14229,"normer":14230,"trail":14231,"##parlam":14232,"charlotte":14233,"nanting":14234,"##syra":14235,"hugo":14236,"maskerad":14237,"namnt":14238,"vardel":14239,"trotthet":14240,"##spersonal":14241,"tendens":14242,"miljopartiet":14243,"fjort":14244,"fusk":14245,"godkann":14246,"age":14247,"swinger":14248,"omtal":14249,"adhd":14250,"tyckt":14251,"saljas":14252,"mona":14253,"operativ":14254,"centimeter":14255,"anknytning":14256,"froken":14257,"tvaa":14258,"konserter":14259,"datingsidor":14260,"fantasy":14261,"uthall":14262,"techn":14263,"disken":14264,"sekreterare":14265,"xbox":14266,"vamp":14267,"sho":14268,"porslin":14269,"gissar":14270,"umgang":14271,"leveranser":14272,"leon":14273,"skyldigheter":14274,"##denafil":14275,"lapparna":14276,"snallt":14277,"luc":14278,"bk":14279,"##flodet":14280,"##nick":14281,"184":14282,"sanda":14283,"butt":14284,"inbyggd":14285,"##frisk":14286,"easy":14287,"fattat":14288,"##asongen":14289,"lagade":14290,"anpassat":14291,"##ws":14292,"beviljas":14293,"avsked":14294,"roka":14295,"styrs":14296,"sambon":14297,"leverantoren":14298,"nyttig":14299,"sildenafil":14300,"konsekvenserna":14301,"pt":14302,"##illverk":14303,"bitt":14304,"sul":14305,"##sstod":14306,"hyper":14307,"##vir":14308,"forskarna":14309,"forde":14310,"huvudstaden":14311,"erbjod":14312,"##rens":14313,"liver":14314,"##sforening":14315,"##ways":14316,"inleddes":14317,"smakade":14318,"forhin":14319,"grod":14320,"skjuter":14321,"toaletten":14322,"jattet":14323,"urban":14324,"utsidan":14325,"horsel":14326,"madrid":14327,"veterin":14328,"regnar":14329,"redovisa":14330,"070":14331,"##smote":14332,"pappan":14333,"ljusare":14334,"uppdaterade":14335,"##less":14336,"granny":14337,"otrogen":14338,"tamligen":14339,"##runda":14340,"##kass":14341,"coolt":14342,"lampar":14343,"dna":14344,"radik":14345,"tilltrade":14346,"##forskning":14347,"forfattar":14348,"chill":14349,"##inger":14350,"inakt":14351,"proport":14352,"exklusiv":14353,"scb":14354,"etablera":14355,"malat":14356,"##ofta":14357,"english":14358,"##ningsl":14359,"##straff":14360,"##sprinci":14361,"tras":14362,"##kunn":14363,"ryt":14364,"##angt":14365,"sebast":14366,"fotot":14367,"spenderat":14368,"domen":14369,"salen":14370,"stimulera":14371,"##garda":14372,"kompletter":14373,
[...]
