{"version":"1.0","truncation":null,"padding":null,"added_tokens":[{"id":0,"special":true,"content":"[PAD]","single_word":false,"lstrip":false,"rstrip":false,"normalized":false},{"id":1,"special":true,"content":"[UNK]","single_word":false,"lstrip":false,"rstrip":false,"normalized":false},{"id":2,"special":true,"content":"[CLS]","single_word":false,"lstrip":false,"rstrip":false,"normalized":false},{"id":3,"special":true,"content":"[SEP]","single_word":false,"lstrip":false,"rstrip":false,"normalized":false},{"id":4,"special":true,"content":"[MASK]","single_word":false,"lstrip":false,"rstrip":false,"normalized":false}],"normalizer":{"type":"BertNormalizer","clean_text":true,"handle_chinese_chars":true,"strip_accents":null,"lowercase":true},"pre_tokenizer":{"type":"BertPreTokenizer"},"post_processor":null,"decoder":{"type":"WordPiece","prefix":"##","cleanup":true},"model":{"type":"WordPiece","unk_token":"[UNK]","continuing_subword_prefix":"##","max_input_chars_per_word":100,"vocab":{"[PAD]":0,"[UNK]":1,"[CLS]":2,"[SEP]":3,"[MASK]":4,"!":5,"\"":6,"#":7,"$":8,"%":9,"&":10,"'":11,"(":12,")":13,"*":14,"+":15,",":16,"-":17,".":18,"/":19,"0":20,"1":21,"2":22,"3":23,"4":24,"5":25,"6":26,"7":27,"8":28,"9":29,":":30,";":31,"<":32,"=":33,">":34,"?":35,"@":36,"[":37,"\\":38,"]":39,"^":40,"_":41,"`":42,"a":43,"b":44,"c":45,"d":46,"e":47,"f":48,"g":49,"h":50,"i":51,"j":52,"k":53,"l":54,"m":55,"n":56,"o":57,"p":58,"q":59,"r":60,"s":61,"t":62,"u":63,"v":64,"w":65,"x":66,"y":67,"z":68,"{":69,"|":70,"}":71,"~":72,"¡":73,"¢":74,"£":75,"¤":76,"¥":77,"¦":78,"§":79,"¨":80,"©":81,"ª":82,"«":83,"¬":84,"®":85,"°":86,"±":87,"²":88,"³":89,"´":90,"µ":91,"¶":92,"·":93,"¸":94,"¹":95,"º":96,"»":97,"¼":98,"½":99,"¾":100,"¿":101,"×":102,"ß":103,"æ":104,"ð":105,"÷":106,"ø":107,"þ":108,"đ":109,"ı":110,"ł":111,"ŋ":112,"œ":113,"ƒ":114,"ɑ":115,"ə":116,"ɛ":117,"ˆ":118,"ˇ":119,"ˈ":120,"ː":121,"˚":122,"˜":123,"α":124,"β":125,"γ":126,"δ":127,"ε":128,"ζ":129,"η":130,"θ":131,"ι":132,"κ":133,"λ":134,"μ":135,"ν":136,"ξ":137,"ο":138,"π":139,"ρ":140,"ς":141,"σ":142,"τ":143,"υ":144,"φ":145,"χ":146,"ψ":147,"ω":148,"а":149,"б":150,"в":151,"г":152,"д":153,"е":154,"ж":155,"з":156,"и":157,"к":158,"л":159,"м":160,"н":161,"о":162,"п":163,"р":164,"с":165,"т":166,"у":167,"ф":168,"х":169,"ц":170,"ч":171,"ш":172,"щ":173,"ъ":174,"ы":175,"ь":176,"э":177,"ю":178,"я":179,"ѕ":180,"і":181,"ј":182,"ґ":183,"ա":184,"א":185,"ב":186,"ג":187,"ד":188,"ה":189,"ו":190,"ז":191,"ח":192,"ט":193,"י":194,"כ":195,"ל":196,"ם":197,"מ":198,"ן":199,"נ":200,"ס":201,"ע":202,"פ":203,"צ":204,"ק":205,"ר":206,"ש":207,"ת":208,"،":209,"ء":210,"ا":211,"ب":212,"ة":213,"ت":214,"ث":215,"ج":216,"ح":217,"خ":218,"د":219,"ذ":220,"ر":221,"ز":222,"س":223,"ش":224,"ص":225,"ض":226,"ط":227,"ظ":228,"ع":229,"غ":230,"ـ":231,"ف":232,"ق":233,"ك":234,"ل":235,"م":236,"ن":237,"ه":238,"و":239,"ى":240,"ي":241,"ٱ":242,"پ":243,"ک":244,"گ":245,"ہ":246,"ی":247,"क":248,"त":249,"द":250,"न":251,"प":252,"म":253,"य":254,"र":255,"ल":256,"व":257,"स":258,"ह":259,"ा":260,"ि":261,"ी":262,"ক":263,"ত":264,"ন":265,"ব":266,"ম":267,"য":268,"র":269,"ল":270,"স":271,"া":272,"ি":273,"ে":274,"க":275,"த":276,"ி":277,"ం":278,"క":279,"గ":280,"చ":281,"డ":282,"త":283,"ద":284,"న":285,"ప":286,"మ":287,"ర":288,"ల":289,"వ":290,"స":291,"ు":292,"ก":293,"ค":294,"ง":295,"ช":296,"ด":297,"ต":298,"ท":299,"น":300,"บ":301,"ป":302,"พ":303,"ม":304,"ย":305,"ร":306,"ล":307,"ว":308,"ส":309,"ห":310,"อ":311,"ะ":312,"า":313,"฿":314,"เ":315,"แ":316,"ไ":317,"ა":318,"ე":319,"ი":320,"მ":321,"ო":322,"რ":323,"ს":324,"ღ":325,"ᄀ":326,"ᄂ":327,"ᄃ":328,"ᄅ":329,"ᄆ":330,"ᄇ":331,"ᄉ":332,"ᄋ":333,"ᄌ":334,"ᄎ":335,"ᄏ":336,"ᄐ":337,"ᄑ":338,"ᄒ":339,"ᅡ":340,"ᅢ":341,"ᅥ":342,"ᅦ":343,"ᅧ":344,"ᅩ":345,"ᅪ":346,"ᅬ":347,"ᅭ":348,"ᅮ":349,"ᅲ":350,"ᅳ":351,"ᅴ":352,"ᅵ":353,"ᆨ":354,"ᆫ":355,"ᆯ":356,"ᆷ":357,"ᆸ":358,"ᆻ":359,"ᆼ":360,"‐":361,"‑":362,"‒":363,"–":364,"—":365,"―":366,"‘":367,"’":368,"‚":369,"“":370,"”":371,"„":372,"†":373,"•":374,"…":375,"‰":376,"′":377,"″":378,"‹":379,"›":380,"※":381,"⁄":382,"₂":383,"₨":384,"₪":385,"€":386,"℃":387,"℉":388,"™":389,"←":390,"↑":391,"→":392,"↓":393,"⇒":394,"−":395,"∙":396,"√":397,"≈":398,"≤":399,"≥":400,"⋅":401,"─":402,"━":403,"├":404,"╕":405,"■":406,"□":407,"▪":408,"▫":409,"▶":410,"▷":411,"►":412,"▻":413,"◆":414,"○":415,"●":416,"◦":417,"☀":418,"★":419,"☆":420,"☺":421,"♀":422,"♂":423,"♡":424,"♢":425,"♣":426,"♥":427,"♦":428,"✅":429,"✌":430,"✓":431,"✔":432,"✚":433,"✨":434,"❄":435,"❤":436,"❾":437,"➜":438,"➢":439,"➧":440,"⠀":441,"⭐":442,"、":443,"。":444,"《":445,"》":446,"「":447,"」":448,"【":449,"】":450,"あ":451,"い":452,"う":453,"え":454,"お":455,"か":456,"き":457,"く":458,"け":459,"こ":460,"さ":461,"し":462,"す":463,"せ":464,"そ":465,"た":466,"ち":467,"っ":468,"つ":469,"て":470,"と":471,"な":472,"に":473,"の":474,"は":475,"ひ":476,"へ":477,"ま":478,"み":479,"め":480,"も":481,"や":482,"よ":483,"ら":484,"り":485,"る":486,"れ":487,"ろ":488,"わ":489,"を":490,"ん":491,"ア":492,"ィ":493,"イ":494,"ウ":495,"ェ":496,"エ":497,"オ":498,"カ":499,"キ":500,"ク":501,"ケ":502,"コ":503,"サ":504,"シ":505,"ス":506,"セ":507,"ソ":508,"タ":509,"チ":510,"ッ":511,"ツ":512,"テ":513,"ト":514,"ナ":515,"ニ":516,"ヌ":517,"ネ":518,"ノ":519,"ハ":520,"ヒ":521,"フ":522,"ヘ":523,"ホ":524,"マ":525,"ミ":526,"ム":527,"メ":528,"モ":529,"ャ":530,"ュ":531,"ョ":532,"ラ":533,"リ":534,"ル":535,"レ":536,"ロ":537,"ワ":538,"ン":539,"・":540,"ー":541,"一":542,"七":543,"万":544,"三":545,"上":546,"下":547,"不":548,"与":549,"世":550,"业":551,"东":552,"两":553,"个":554,"中":555,"为":556,"主":557,"么":558,"之":559,"九":560,"也":561,"买":562,"了":563,"事":564,"二":565,"于":566,"五":567,"些":568,"交":569,"产":570,"京":571,"人":572,"今":573,"他":574,"仙":575,"代":576,"以":577,"们":578,"件":579,"任":580,"企":581,"会":582,"传":583,"位":584,"体":585,"何":586,"作":587,"你":588,"使":589,"供":590,"保":591,"信":592,"做":593,"像":594,"元":595,"先":596,"光":597,"免":598,"入":599,"全":600,"八":601,"公":602,"六":603,"关":604,"其":605,"具":606,"典":607,"内":608,"円":609,"准":610,"凤":611,"出":612,"分":613,"创":614,"利":615,"到":616,"制":617,"前":618,"力":619,"加":620,"务":621,"动":622,"動":623,"包":624,"化":625,"北":626,"区":627,"十":628,"半":629,"单":630,"南":631,"历":632,"原":633,"县":634,"及":635,"双":636,"发":637,"取":638,"受":639,"口":640,"句":641,"可":642,"台":643,"史":644,"号":645,"司":646,"各":647,"合":648,"同":649,"名":650,"后":651,"和":652,"品":653,"商":654,"啊":655,"啥":656,"器":657,"四":658,"回":659,"因":660,"国":661,"图":662,"圓":663,"在":664,"地":665,"场":666,"址":667,"坛":668,"型":669,"城":670,"基":671,"堂":672,"報":673,"場":674,"士":675,"外":676,"多":677,"大":678,"天":679,"太":680,"头":681,"奇":682,"奖":683,"女":684,"好":685,"如":686,"姐":687,"婆":688,"子":689,"字":690,"学":691,"安":692,"官":693,"定":694,"宝":695,"实":696,"客":697,"室":698,"家":699,"容":700,"密":701,"富":702,"对":703,"将":704,"小":705,"少":706,"就":707,"尾":708,"展":709,"山":710,"川":711,"州":712,"工":713,"市":714,"布":715,"师":716,"常":717,"平":718,"年":719,"广":720,"库":721,"店":722,"府":723,"度":724,"建":725,"开":726,"式":727,"当":728,"录":729,"彩":730,"影":731,"很":732,"律":733,"後":734,"得":735,"心":736,"必":737,"忙":738,"快":739,"思":740,"性":741,"总":742,"情":743,"想":744,"意":745,"感":746,"成":747,"我":748,"所":749,"手":750,"技":751,"报":752,"持":753,"挂":754,"指":755,"接":756,"提":757,"播":758,"政":759,"救":760,"教":761,"数":762,"文":763,"料":764,"新":765,"方":766,"无":767,"日":768,"时":769,"明":770,"星":771,"是":772,"時":773,"更":774,"書":775,"曾":776,"最":777,"月":778,"有":779,"服":780,"期":781,"木":782,"本":783,"机":784,"杀":785,"村":786,"来":787,"東":788,"果":789,"校":790,"格":791,"業":792,"樂":793,"機":794,"次":795,"正":796,"比":797,"民":798,"氓":799,"气":800,"気":801,"水":802,"求":803,"江":804,"法":805,"波":806,"注":807,"活":808,"流":809,"海":810,"温":811,"港":812,"源":813,"澳":814,"点":815,"無":816,"然":817,"片":818,"版":819,"牌":820,"牛":821,"物":822,"特":823,"狗":824,"玄":825,"率":826,"王":827,"玩":828,"现":829,"球":830,"理":831,"生":832,"用":833,"田":834,"电":835,"町":836,"画":837,"界":838,"発":839,"白":840,"百":841,"的":842,"目":843,"直":844,"相":845,"看":846,"県":847,"真":848,"着":849,"知":850,"石":851,"码":852,"示":853,"社":854,"神":855,"禁":856,"福":857,"科":858,"程":859,"空":860,"立":861,"站":862,"童":863,"第":864,"等":865,"算":866,"管":867,"精":868,"系":869,"红":870,"线":871,"经":872,"结":873,"绝":874,"网":875,"美":876,"老":877,"者":878,"而":879,"肖":880,"能":881,"自":882,"色":883,"花":884,"英":885,"蓝":886,"行":887,"表":888,"装":889,"西":890,"要":891,"見":892,"规":893,"解":894,"言":895,"語":896,"计":897,"记":898,"论":899,"设":900,"诗":901,"说":902,"财":903,"费":904,"资":905,"赌":906,"赛":907,"起":908,"跑":909,"路":910,"身":911,"车":912,"过":913,"运":914,"近":915,"这":916,"进":917,"送":918,"选":919,"透":920,"通":921,"道":922,"選":923,"部":924,"都":925,"酶":926,"里":927,"重":928,"野":929,"量":930,"金":931,"钱":932,"铁":933,"错":934,"長":935,"长":936,"開":937,"間":938,"门":939,"间":940,"阳":941,"限":942,"院":943,"集":944,"電":945,"面":946,"音":947,"食":948,"香":949,"马":950,"高":951,"黄":952,"龙":953,"ﬀ":954,"ﬁ":955,"ﬂ":956,"！":957,"（":958,"）":959,"，":960,"：":961,"？":962,"ﾆ":963,"ﾊ":964,"ﾟ":965,"￼":966,"🍁":967,"🎉":968,"🏻":969,"🏼":970,"👌":971,"👍":972,"👏":973,"👨":974,"👩":975,"💕":976,"💙":977,"💛":978,"💪":979,"💲":980,"😀":981,"😁":982,"😂":983,"😃":984,"😄":985,"😅":986,"😆":987,"😉":988,"😊":989,"😍":990,"😎":991,"😘":992,"😛":993,"😜":994,"😦":995,"🙁":996,"🙂":997,"🙄":998,"🙈":999,"🙌":1000,"🙏":1001,"🤔":1002,"🤗":1003,"🤩":1004,"##o":1005,"##d":1006,"##u":1007,"##m":1008,"##i":1009,"##n":1010,"##g":1011,"##e":1012,"##r":1013,"##c":1014,"##h":1015,"##l":1016,"##8":1017,"##a":1018,"##t":1019,"##s":1020,"##k":1021,"##v":1022,"##b":1023,"##f":1024,"##3":1025,"##9":1026,"##4":1027,"##0":1028,"##ø":1029,"##p":1030,"##z":1031,"##y":1032,"##æ":1033,"##x":1034,"##ρ":1035,"##μ":1036,"##ε":1037,"##ν":1038,"##ι":1039,"##ο":1040,"##j":1041,"##6":1042,"##w":1043,"##π":1044,"##κ":1045,"##φ":1046,"##α":1047,"##λ":1048,"##η":1049,"##ς":1050,"##™":1051,"##5":1052,"##7":1053,"##ש":1054,"##י":1055,"##נ":1056,"##ם":1057,"##×":1058,"##2":1059,"##д":1060,"##у":1061,"##в":1062,"##а":1063,"##н":1064,"##ч":1065,"##и":1066,"##к":1067,"##е":1068,"##1":1069,"##л":1070,"##о":1071,"##¢":1072,"##q":1073,"##р":1074,"##з":1075,"##ы":1076,"##な":1077,"##ア":1078,"##ル":1079,"##ハ":1080,"##イ":1081,"##ト":1082,"##ъ":1083,"##т":1084,"##→":1085,"##¬":1086,"##ర":1087,"##ు":1088,"##ప":1089,"##ద":1090,"##°":1091,"##б":1092,"##ッ":1093,"##リ":1094,"##ー":1095,"##シ":1096,"##ェ":1097,"##ン":1098,"##ł":1099,"##і":1100,"##ю":1101,"##ф":1102,"##ı":1103,"##ی":1104,"##م":1105,"##ا":1106,"##ر":1107,"##ن":1108,"##پ":1109,"##ک":1110,"##س":1111,"##с":1112,"##я":1113,"##х":1114,"##υ":1115,"##γ":1116,"##´":1117,"##¸":1118,"##ラ":1119,"##ク":1120,"##ز":1121,"##ض":1122,"##ш":1123,"##ь":1124,"##😄":1125,"##🙌":1126,"##🏻":1127,"##👏":1128,"##💪":1129,"##✨":1130,"##г":1131,"##³":1132,"##ц":1133,"##χ":1134,"##σ":1135,"##ð":1136,"##ж":1137,"##¤":1138,"##м":1139,"##ソ":1140,"##ャ":1141,"##τ":1142,"##−":1143,"##ə":1144,"##ɑ":1145,"##®":1146,"##♀":1147,"##🏼":1148,"##♂":1149,"##マ":1150,"##ヘ":1151,"##キ":1152,"##サ":1153,"##タ":1154,"##フ":1155,"##п":1156,"##ѕ":1157,"##ß":1158,"##ј":1159,"##ম":1160,"##ন":1161,"##ব":1162,"##য":1163,"##ل":1164,"##ف":1165,"##ي":1166,"##ة":1167,"##¥":1168,"##ニ":1169,"##ュ":1170,"##を":1171,"##ワ":1172,"##వ":1173,"##గ":1174,"##న":1175,"##క":1176,"##ح":1177,"##า":1178,"##ว":1179,"##ม":1180,"##เ":1181,"##ง":1182,"##น":1183,"##ช":1184,"##ห":1185,"##ด":1186,"##ش":1187,"##は":1188,"##く":1189,"##た":1190,"##け":1191,"##て":1192,"##い":1193,"##ま":1194,"##す":1195,"##ం":1196,"##చ":1197,"##€":1198,"##đ":1199,"##か":1200,"##つ":1201,"##と":1202,"##の":1203,"##も":1204,"##あ":1205,"##り":1206,"##כ":1207,"##ל":1208,"##ᅧ":1209,"##ᄌ":1210,"##ᅥ":1211,"##ᆫ":1212,"##ᄒ":1213,"##ᅵ":1214,"##ه":1215,"##ת":1216,"##ח":1217,"##ב":1218,"##ר":1219,"##ب":1220,"##ت":1221,"##♥":1222,"##ん":1223,"##و":1224,"##ك":1225,"##こ":1226,"##ᅦ":1227,"##ᄉ":1228,"##گ":1229,"##😜":1230,"##ᅡ":1231,"##ᅮ":1232,"##щ":1233,"##ᅢ":1234,"##ᆼ":1235,"##ᄃ":1236,"##ᅬ":1237,"##ᄆ":1238,"##ق":1239,"##🙂":1240,"##❤":1241,"##¨":1242,"##ص":1243,"##د":1244,"##☺":1245,"##≈":1246,"##র":1247,"##ত":1248,"##ি":1249,"##া":1250,"##ᅩ":1251,"##ᄋ":1252,"##ᅴ":1253,"##ª":1254,"##⋅":1255,"##మ":1256,"##స":1257,"##œ":1258,"##±":1259,"##э":1260,"##ᄅ":1261,"##ᅲ":1262,"##ᄀ":1263,"##ᅳ":1264,"##ᆯ":1265,"##ع":1266,"##ノ":1267,"##ホ":1268,"##©":1269,"##😊":1270,"##ג":1271,"##🙄":1272,"##ﬁ":1273,"##る":1274,"##ス":1275,"##ツ":1276,"##テ":1277,"##ィ":1278,"##ᄏ":1279,"##ᄐ":1280,"##¦":1281,"##ˇ":1282,"##ల":1283,"##ム":1284,"##カ":1285,"##メ":1286,"##さ":1287,"##ケ":1288,"##に":1289,"##β":1290,"##ᆨ":1291,"##😉":1292,"##🙏":1293,"##レ":1294,"##お":1295,"##せ":1296,"##き":1297,"##θ":1298,"##δ":1299,"##ע":1300,"##ט":1301,"##غ":1302,"##ω":1303,"##よ":1304,"##っ":1305,"##ᆸ":1306,"##ヒ":1307,"##ら":1308,"##☆":1309,"##😂":1310,"##😃":1311,"##÷":1312,"##エ":1313,"##ョ":1314,"##ᄂ":1315,"##מ":1316,"##ƒ":1317,"##צ":1318,"##😁":1319,"##モ":1320,"##˚":1321,"##ː":1322,"##チ":1323,"##💛":1324,"##❄":1325,"##⠀":1326,"##😍":1327,"##や":1328,"##し":1329,"##ป":1330,"##อ":1331,"##ร":1332,"##ส":1333,"##স":1334,"##ก":1335,"##ล":1336,"##డ":1337,"##บ":1338,"##ต":1339,"##ท":1340,"##พ":1341,"##ย":1342,"##み":1343,"##う":1344,"##ظ":1345,"##ξ":1346,"##ζ":1347,"##れ":1348,"##²":1349,"##ち":1350,"##व":1351,"##ह":1352,"##ा":1353,"##µ":1354,"##ו":1355,"##خ":1356,"##ে":1357,"##ذ":1358,"##¾":1359,"##¼":1360,"##ि":1361,"##क":1362,"##र":1363,"##ी":1364,"##½":1365,"##त":1366,"##₂":1367,"##ᄇ":1368,"##ᅪ":1369,"##˜":1370,"##▪":1371,"##ロ":1372,"##😆":1373,"##º":1374,"##ث":1375,"##😎":1376,"##⁄":1377,"##త":1378,"##ס":1379,"##♡":1380,"##👌":1381,"##ᄑ":1382,"##😀":1383,"##ŋ":1384,"##ᄎ":1385,"##♦":1386,"##ᆷ":1387,"##ᆻ":1388,"##そ":1389,"##ナ":1390,"##🎉":1391,"##ი":1392,"##ს":1393,"##ა":1394,"##მ":1395,"##რ":1396,"##🤩":1397,"##ᅭ":1398,"##ネ":1399,"##ק":1400,"##य":1401,"##コ":1402,"##ה":1403,"##ল":1404,"##🤗":1405,"##め":1406,"##ウ":1407,"##─":1408,"##ٱ":1409,"##ˈ":1410,"##ო":1411,"##ე":1412,"##↓":1413,"##√":1414,"##ן":1415,"##セ":1416,"##ى":1417,"##😅":1418,"##ґ":1419,"##א":1420,"##🤔":1421,"##👍":1422,"##ط":1423,"##ա":1424,"##£":1425,"##😘":1426,"##ء":1427,"##ד":1428,"##ψ":1429,"##ﬂ":1430,"##ﬀ":1431,"##ミ":1432,"##ल":1433,"##ج":1434,"##แ":1435,"##へ":1436,"##פ":1437,"##ろ":1438,"##þ":1439,"##□":1440,"##💙":1441,"##♢":1442,"##✓":1443,"##ক":1444,"##⭐":1445,"##ไ":1446,"##✌":1447,"##ـ":1448,"##ひ":1449,"##わ":1450,"##💕":1451,"##ヌ":1452,"##¹":1453,"##म":1454,"##प":1455,"##स":1456,"##∙":1457,"##न":1458,"##ะ":1459,"##え":1460,"##☀":1461,"##ค":1462,"##ɛ":1463,"##ז":1464,"##🙈":1465,"##▷":1466,"##├":1467,"##╕":1468,"##❾":1469,"##♣":1470,"##ہ":1471,"##◆":1472,"##ˆ":1473,"##◦":1474,"##✅":1475,"##≥":1476,"##オ":1477,"##●":1478,"##द":1479,"##ღ":1480,"##த":1481,"##க":1482,"##ி":1483,"##▶":1484,"##ﾊ":1485,"##ﾟ":1486,"##ﾆ":1487,"##🍁":1488,"##■":1489,"##℃":1490,"##★":1491,"##━":1492,"##⇒":1493,"##►":1494,"##←":1495,"##👨":1496,"##▫":1497,"##👩":1498,"##↑":1499,"##✔":1500,"##￼":1501,"##😛":1502,"##○":1503,"##💲":1504,"##≤":1505,"##▻":1506,"##🙁":1507,"##₪":1508,"##฿":1509,"##➜":1510,"##✚":1511,"##er":1512,"##en":1513,"##et":1514,"##or":1515,"##in":1516,"##ar":1517,"##an":1518,"##el":1519,"##il":1520,"og":1521,"##st":1522,"##om":1523,"##ed":1524,"for":1525,"##ing":1526,"##ig":1527,"##re":1528,"##le":1529,"##tt":1530,"##sk":1531,"det":1532,"##on":1533,"##al":1534,"til":1535,"##eg":1536,"##kk":1537,"er":1538,"##te":1539,"##ra":1540,"en":1541,"av":1542,"pa":1543,"##es":1544,"som":1545,"##id":1546,"##nn":1547,"##is":1548,"st":1549,"##de":1550,"med":1551,"##kt":1552,"##pp":1553,"##ene":1554,"##ør":1555,"##at":1556,"##ol":1557,"##as":1558,"##ver":1559,"##ag":1560,"##ler":1561,"sk":1562,"sa":1563,"##li":1564,"at":1565,"ut":1566,"har":1567,"de":1568,"vi":1569,"##ne":1570,"##nd":1571,"##ent":1572,"##jon":1573,"##se":1574,"##lig":1575,"##ri":1576,"##ru":1577,"##kke":1578,"##ere":1579,"##ett":1580,"den":1581,"om":1582,"##and":1583,"##ro":1584,"var":1585,"##ste":1586,"opp":1587,"gj":1588,"##ke":1589,"##it":1590,"##ning":1591,"##ge":1592,"men":1593,"##sa":1594,"ar":1595,"ikke":1596,"##ær":1597,"inn":1598,"no":1599,"fra":1600,"al":1601,"##mm":1602,"##ur":1603,"##ad":1604,"##ks":1605,"kan":1606,"et":1607,"##un":1608,"##isk":1609,"##tter":1610,"jeg":1611,"in":1612,"hv":1613,"##je":1614,"##for":1615,"sp":1616,"##us":1617,"##ikk":1618,"##ul":1619,"##het":1620,"du":1621,"##iv":1622,"##ik":1623,"be":1624,"man":1625,"##ap":1626,"##ter":1627,"##ens":1628,"nor":1629,"##ende":1630,"ble":1631,"##der":1632,"kom":1633,"##ang":1634,"##ot":1635,"##att":1636,"##asjon":1637,"el":1638,"##be":1639,"kj":1640,"##am":1641,"##gg":1642,"seg":1643,"##ker":1644,"##enn":1645,"bli":1646,"##itt":1647,"pro":1648,"##od":1649,"##elig":1650,"##ss":1651,"hel":1652,"etter":1653,"an":1654,"vil":1655,"##ist":1656,"##est":1657,"se":1658,"over":1659,"##øy":1660,"##ert":1661,"20":1662,"eller":1663,"##ære":1664,"##ak":1665,"bar":1666,"##ok":1667,"##eng":1668,"##av":1669,"tr":1670,"##ell":1671,"bru":1672,"##mer":1673,"dette":1674,"der":1675,"ved":1676,"ma":1677,"##inn":1678,"ogsa":1679,"##sen":1680,"kon":1681,"før":1682,"han":1683,"##ort":1684,"##ling":1685,"ny":1686,"##lo":1687,"##ut":1688,"##ir":1689,"##ser":1690,"##art":1691,"skal":1692,"##sp":1693,"##ft":1694,"##beid":1695,"re":1696,"fa":1697,"sel":1698,"##ud":1699,"##old":1700,"sam":1701,"and":1702,"##øre":1703,"##ier":1704,"##ske":1705,"##nder":1706,"##ant":1707,"##øp":1708,"##unn":1709,"##yr":1710,"##ve":1711,"##skap":1712,"##elt":1713,"##else":1714,"noen":1715,"mer":1716,"##gen":1717,"tid":1718,"##os":1719,"##eld":1720,"da":1721,"##ord":1722,"##all":1723,"##ff":1724,"sy":1725,"være":1726,"##ann":1727,"dag":1728,"##iske":1729,"kl":1730,"##gj":1731,"min":1732,"kv":1733,"##øl":1734,"andre":1735,"dat":1736,"ha":1737,"alle":1738,"##var":1739,"##adde":1740,"##legg":1741,"na":1742,"##end":1743,"##ov":1744,"nar":1745,"komm":1746,"##ært":1747,"noe":1748,"hadde":1749,"##og":1750,"201":1751,"under":1752,"##und":1753,"pl":1754,"##ob":1755,"samm":1756,"selv":1757,"##ennom":1758,"her":1759,"god":1760,"##ale":1761,"blir":1762,"##ger":1763,"le":1764,"nett":1765,"##hold":1766,"##ktig":1767,"##um":1768,"##ine":1769,"gjennom":1770,"to":1771,"##ers":1772,"sø":1773,"##jer":1774,"##sm":1775,"##enter":1776,"by":1777,"##im":1778,"##em":1779,"sli":1780,"denne":1781,"##sl":1782,"##erd":1783,"far":1784,"##ass":1785,"my":1786,"reg":1787,"bl":1788,"##lere":1789,"##itet":1790,"##lige":1791,"mot":1792,"arbeid":1793,"##tte":1794,"##rø":1795,"stor":1796,"##iser":1797,"##alt":1798,"bil":1799,"ann":1800,"ba":1801,"gru":1802,"##ksjon":1803,"##ingen":1804,"sid":1805,"##rem":1806,"##vik":1807,"ta":1808,"##ly":1809,"or":1810,"##jel":1811,"##tid":1812,"si":1813,"høy":1814,"##sker":1815,"##rad":1816,"##inger":1817,"##ster":1818,"mange":1819,"##vis":1820,"##alg":1821,"li":1822,"enn":1823,"##ek":1824,"dating":1825,"uten":1826,"##elle":1827,"##eder":1828,"lag":1829,"sl":1830,"##ry":1831,"hun":1832,"deg":1833,"bare":1834,"mu":1835,"##opp":1836,"fort":1837,"19":1838,"##del":1839,"##før":1840,"##00":1841,"##ber":1842,"##net":1843,"##mp":1844,"ek":1845,"##ede":1846,"del":1847,"fin":1848,"kunn":1849,"vært":1850,"gjøre":1851,"##ans":1852,"hvor":1853,"##rat":1854,"##ød":1855,"mye":1856,"hva":1857,"##ie":1858,"litt":1859,"##ess":1860,"meg":1861,"beg":1862,"tilb":1863,"norge":1864,"pros":1865,"##dr":1866,"inter":1867,"##ige":1868,"un":1869,"hver":1870,"bruk":1871,"##res":1872,"kont":1873,"##ater":1874,"##per":1875,"##yl":1876,"ser":1877,"##ket":1878,"sv":1879,"##akt":1880,"##ab":1881,"##form":1882,"##ic":1883,"flere":1884,"dis":1885,"gjør":1886,"##ult":1887,"##ill":1888,"##si":1889,"##eb":1890,"mø":1891,"##ken":1892,"##inner":1893,"##ien":1894,"##kl":1895,"vid":1896,"mar":1897,"gang":1898,"##øk":1899,"fikk":1900,"##dag":1901,"sammen":1902,"##utt":1903,"bet":1904,"ap":1905,"oss":1906,"leg":1907,"sm":1908,"##ings":1909,"res":1910,"##he":1911,"ve":1912,"##red":1913,"##erson":1914,"##lighet":1915,"alt":1916,"##jø":1917,"frem":1918,"##omm":1919,"##hand":1920,"slik":1921,"##yn":1922,"##kker":1923,"sin":1924,"##ette":1925,"forsk":1926,"vel":1927,"##ninger":1928,"gar":1929,"kjøp":1930,"ga":1931,"##stil":1932,"##du":1933,"##ighet":1934,"##ost":1935,"##arbeid":1936,"første":1937,"tre":1938,"sex":1939,"verd":1940,"land":1941,"##ellom":1942,"grunn":1943,"føl":1944,"bade":1945,"disse":1946,"##kter":1947,"viktig":1948,"ra":1949,"nye":1950,"##pe":1951,"ne":1952,"##ia":1953,"##ets":1954,"mellom":1955,"##ktiv":1956,"##ner":1957,"##dre":1958,"##ull":1959,"##mmer":1960,"eg":1961,"##na":1962,"kr":1963,"siden":1964,"hand":1965,"##jene":1966,"rett":1967,"##if":1968,"##enger":1969,"beste":1970,"ned":1971,"la":1972,"kunne":1973,"##ningen":1974,"##elsen":1975,"##gang":1976,"mil":1977,"person":1978,"os":1979,"##ub":1980,"ly":1981,"igj":1982,"vir":1983,"jo":1984,"##lem":1985,"bed":1986,"utvik":1987,"##kj":1988,"øn":1989,"enk":1990,"##by":1991,"##elser":1992,"lø":1993,"##ordan":1994,"nær":1995,"pr":1996,"##sten":1997,"##ion":1998,"##land":1999,"##ch":2000,"##rett":2001,"##som":2002,"dem":2003,"ty":2004,"##ial":2005,"hvordan":2006,"van":2007,"##pt":2008,"##ente":2009,"igjen":2010,"##pl":2011,"helt":2012,"ber":2013,"pol":2014,"lang":2015,"##rift":2016,"kommer":2017,"##ust":2018,"annet":2019,"##ode":2020,"liv":2021,"##lag":2022,"forb":2023,"fors":2024,"hele":2025,"##ener":2026,"##riv":2027,"##ulle":2028,"din":2029,"per":2030,"mal":2031,"stør":2032,"##op":2033,"godt":2034,"##ire":2035,"##ast":2036,"##isjon":2037,"200":2038,"hjel":2039,"norsk":2040,"oslo":2041,"norske":2042,"##tak":2043,"##ret":2044,"job":2045,"##rav":2046,"##nes":2047,"form":2048,"fol":2049,"##rev":2050,"gi":2051,"mat":2052,"kommun":2053,"##den":2054,"##ran":2055,"gir":2056,"##ake":2057,"##els":2058,"##etter":2059,"store":2060,"##ille":2061,"like":2062,"##iver":2063,"hvis":2064,"rund":2065,"##satt":2066,"##kket":2067,"he":2068,"vis":2069,"par":2070,"##ga":2071,"##formasjon":2072,"sier":2073,"bruker":2074,"##rol":2075,"blant":2076,"##oner":2077,"##jekt":2078,"barn":2079,"of":2080,"mo":2081,"spes":2082,"tidlig":2083,"##gan":2084,"##eldig":2085,"##jem":2086,"##lev":2087,"løp":2088,"nok":2089,"##atur":2090,"kri":2091,"all":2092,"vare":2093,"##kon":2094,"ad":2095,"samme":2096,"les":2097,"gl":2098,"stat":2099,"##erne":2100,"##like":2101,"fri":2102,"kun":2103,"rundt":2104,"ch":2105,"##asjoner":2106,"bes":2107,"##ug":2108,"18":2109,"##mme":2110,"br":2111,"##ip":2112,"polit":2113,"##edet":2114,"plan":2115,"blitt":2116,"ev":2117,"##let":2118,"##føl":2119,"nord":2120,"##sid":2121,"produ":2122,"ind":2123,"##ytt":2124,"informasjon":2125,"red":2126,"sj":2127,"##sb":2128,"mest":2129,"##elige":2130,"##over":2131,"fil":2132,"siste":2133,"10":2134,"skulle":2135,"hen":2136,"veldig":2137,"##atte":2138,"tek":2139,"##set":2140,"fly":2141,"sine":2142,"##orn":2143,"tilbake":2144,"##ikker":2145,"##fil":2146,"mor":2147,"stud":2148,"##amp":2149,"##rer":2150,"##ole":2151,"##are":2152,"##ges":2153,"tillegg":2154,"##svar":2155,"##di":2156,"##aler":2157,"##ativ":2158,"fatt":2159,"forhold":2160,"finn":2161,"lig":2162,"menne":2163,"ønsker":2164,"##ffe":2165,"sn":2166,"##eller":2167,"##ring":2168,"finne":2169,"##dom":2170,"##olog":2171,"##alen":2172,"grat":2173,"ord":2174,"kn":2175,"ingen":2176,"tar":2177,"##sy":2178,"ten":2179,"star":2180,"sitt":2181,"su":2182,"innen":2183,"tur":2184,"hov":2185,"videre":2186,"##hol":2187,"dere":2188,"##alitet":2189,"##la":2190,"ste":2191,"##ind":2192,"##ark":2193,"styr":2194,"##gra":2195,"##sel":2196,"derfor":2197,"gikk":2198,"##nings":2199,"tjene":2200,"##este":2201,"##ppen":2202,"mulig":2203,"hos":2204,"hol":2205,"delt":2206,"##iet":2207,"bruke":2208,"bør":2209,"##slag":2210,"ant":2211,"##kte":2212,"end":2213,"##sta":2214,"egen":2215,"mid":2216,"##pper":2217,"valg":2218,"##ele":2219,"##valg":2220,"gratis":2221,"hoved":2222,"møte":2223,"bedre":2224,"##styr":2225,"##ister":2226,"##gru":2227,"fun":2228,"##eter":2229,"##ksom":2230,"fot":2231,"ver":2232,"des":2233,"intern":2234,"ekse":2235,"##nad":2236,"##usjon":2237,"##pro":2238,"##handling":2239,"##min":2240,"spør":2241,"##bru":2242,"on":2243,"fag":2244,"##anse":2245,"##stem":2246,"samt":2247,"##ten":2248,"##pet":2249,"prosjekt":2250,"bra":2251,"bak":2252,"##skje":2253,"venn":2254,"gener":2255,"mann":2256,"rad":2257,"lever":2258,"##ard":2259,"mulighet":2260,"eksemp":2261,"tidligere":2262,"ulike":2263,"##føre":2264,"##ha":2265,"##oks":2266,"##kken":2267,"organ":2268,"eks":2269,"kanskje":2270,"##sjon":2271,"##hus":2272,"##ører":2273,"##iller":2274,"fram":2275,"kvinner":2276,"off":2277,"skj":2278,"sol":2279,"##les":2280,"nav":2281,"##heten":2282,"tro":2283,"porn":2284,"kar":2285,"##ond":2286,"##far":2287,"try":2288,"ri":2289,"##entlig":2290,"mens":2291,"prø":2292,"##rag":2293,"viser":2294,"helse":2295,"15":2296,"sen":2297,"led":2298,"##anske":2299,"menn":2300,"sør":2301,"##mid":2302,"gode":2303,"te":2304,"best":2305,"vur":2306,"fyl":2307,"##elen":2308,"ting":2309,"##entet":2310,"##unkt":2311,"##asjonen":2312,"##raf":2313,"##ma":2314,"##gjør":2315,"full":2316,"##elder":2317,"lu":2318,"byg":2319,"folk":2320,"##yd":2321,"aktiv":2322,"nytt":2323,"##istor":2324,"##iner":2325,"fle":2326,"##søk":2327,"klo":2328,"søker":2329,"##skapet":2330,"##vend":2331,"kjø":2332,"stø":2333,"tv":2334,"##ise":2335,"##smal":2336,"##gi":2337,"ei":2338,"##esten":2339,"kontakt":2340,"ti":2341,"12":2342,"fe":2343,"fj":2344,"besk":2345,"vin":2346,"lok":2347,"utvikling":2348,"inst":2349,"##une":2350,"spesi":2351,"bygg":2352,"##raft":2353,"fordi":2354,"##ren":2355,"ung":2356,"dam":2357,"##under":2358,"pres":2359,"lov":2360,"fl":2361,"pris":2362,"the":2363,"##ppe":2364,"##olig":2365,"sett":2366,"##men":2367,"##stilling":2368,"##me":2369,"gjen":2370,"jenter":2371,"##ultur":2372,"bid":2373,"fakt":2374,"beh":2375,"natur":2376,"bok":2377,"samarbeid":2378,"jobb":2379,"aller":2380,"##stand":2381,"##ck":2382,"##ester":2383,"lær":2384,"hans":2385,"ville":2386,"##fri":2387,"##funn":2388,"barne":2389,"ol":2390,"##ib":2391,"##ført":2392,"eu":2393,"skri":2394,"eng":2395,"innlegg":2396,"lik":2397,"svært":2398,"unn":2399,"##vn":2400,"tatt":2401,"først":2402,"##heng":2403,"ofte":2404,"fant":2405,"hvil":2406,"komme":2407,"vann":2408,"result":2409,"start":2410,"klar":2411,"rom":2412,"dersom":2413,"utd":2414,"sent":2415,"pre":2416,"mate":2417,"spill":2418,"prob":2419,"po":2420,"##amil":2421,"hø":2422,"kjøpe":2423,"eksempel":2424,"stort":2425,"finnes":2426,"##ynn":2427,"mus":2428,"plass":2429,"lett":2430,"part":2431,"##anger":2432,"##ven":2433,"##jør":2434,"ben":2435,"17":2436,"kjent":2437,"##sj":2438,"inv":2439,"fr":2440,"ro":2441,"oppd":2442,"##vir":2443,"hal":2444,"blo":2445,"mark":2446,"bilder":2447,"gjelder":2448,"##satte":2449,"endr":2450,"skap":2451,"##radet":2452,"kli":2453,"forskjel":2454,"##par":2455,"##stre":2456,"hje":2457,"mindre":2458,"##ian":2459,"hjelp":2460,"##ys":2461,"int":2462,"##kelig":2463,"##kes":2464,"slutt":2465,"sik":2466,"##olen":2467,"##inne":2468,"##ate":2469,"##orte":2470,"##det":2471,"as":2472,"kultur":2473,"histor":2474,"di":2475,"11":2476,"##vel":2477,"øy":2478,"hvert":2479,"annen":2480,"arbeids":2481,"vide":2482,"##rakt":2483,"mennesker":2484,"kre":2485,"nød":2486,"##kur":2487,"spørsmal":2488,"vart":2489,"rese":2490,"##sikt":2491,"organis":2492,"tilf":2493,"##agra":2494,"tekn":2495,"ele":2496,"matte":2497,"verden":2498,"##asser":2499,"løpet":2500,"deres":2501,"forv":2502,"##ide":2503,"inne":2504,"##ont":2505,"##pa":2506,"##iva":2507,"##asje":2508,"famil":2509,"vurder":2510,"##ite":2511,"##konom":2512,"økonom":2513,"##bygg":2514,"gam":2515,"kommune":2516,"##verk":2517,"16":2518,"##io":2519,"pass":2520,"ja":2521,"##gre":2522,"større":2523,"2017":2524,"##med":2525,"ansvar":2526,"nettst":2527,"##ign":2528,"utfor":2529,"trenger":2530,"begynn":2531,"vet":2532,"fre":2533,"gre":2534,"tok":2535,"##tek":2536,"##tidig":2537,"skjer":2538,"tall":2539,"syn":2540,"art":2541,"##skelig":2542,"##stad":2543,"##asse":2544,"ban":2545,"enkelt":2546,"hus":2547,"##utter":2548,"svar":2549,"##rasjon":2550,"alltid":2551,"porno":2552,"krav":2553,"kort":2554,"prosent":2555,"##øs":2556,"skole":2557,"stil":2558,"##erer":2559,"##org":2560,"##atter":2561,"søk":2562,"tem":2563,"brukes":2564,"ju":2565,"##ikken":2566,"14":2567,"gjort":2568,"ferd":2569,"dri":2570,"sc":2571,"##rens":2572,"finner":2573,"##iten":2574,"30":2575,"##kning":2576,"##dri":2577,"side":2578,"ster":2579,"ute":2580,"lo":2581,"krist":2582,"behov":2583,"sos":2584,"##oll":2585,"sje":2586,"##fe":2587,"sann":2588,"##sn":2589,"##tem":2590,"##itu":2591,"##sdag":2592,"løs":2593,"dra":2594,"enkel":2595,"##vet":2596,"##enge":2597,"resept":2598,"##roll":2599,"samfunn":2600,"mener":2601,"sna":2602,"##led":2603,"##sket":2604,"kjær":2605,"##mmet":2606,"##rader":2607,"mass":2608,"progra":2609,"##bo":2610,"kal":2611,"ligger":2612,"ca":2613,"voks":2614,"dø":2615,"th":2616,"##gav":2617,"bo":2618,"ham":2619,"am":2620,"tiden":2621,"fast":2622,"kvalitet":2623,"kamp":2624,"viagra":2625,"##syn":2626,"##sett":2627,"kunnskap":2628,"kro":2629,"milli":2630,"ekst":2631,"post":2632,"dy":2633,"sær":2634,"utt":2635,"aldri":2636,"##sf":2637,"##isert":2638,"effe":2639,"hot":2640,"tren":2641,"norges":2642,"13":2643,"sikker":2644,"ka":2645,"##assen":2646,"kjære":2647,"spesielt":2648,"##ka":2649,"##jen":2650,"##mt":2651,"langt":2652,"felle":2653,"##heter":2654,"bas":2655,"video":2656,"fortsatt":2657,"##lys":2658,"kjærlighet":2659,"fred":2660,"##øker":2661,"opplev":2662,"vanskelig":2663,"hy":2664,"hold":2665,"nasjon":2666,"##igheter":2667,"##age":2668,"neste":2669,"satt":2670,"##reg":2671,"sette":2672,"avt":2673,"sma":2674,"trad":2675,"##yttet":2676,"laget":2677,"##spl":2678,"sh":2679,"##gende":2680,"lan":2681,"veg":2682,"syke":2683,"##tes":2684,"hap":2685,"syk":2686,"##ensjon":2687,"##ct":2688,"leder":2689,"sted":2690,"regist":2691,"is":2692,"##fter":2693,"kor":2694,"kir":2695,"miljø":2696,"fø":2697,"rus":2698,"samtidig":2699,"sak":2700,"øv":2701,"##fer":2702,"flo":2703,"##ilt":2704,"hjem":2705,"hav":2706,"erfar":2707,"vanlig":2708,"co":2709,"##ong":2710,"##dus":2711,"jan":2712,"følge":2713,"##pres":2714,"ganger":2715,"##veg":2716,"##ubb":2717,"##anning":2718,"mod":2719,"##ksjoner":2720,"##dd":2721,"##udd":2722,"hatt":2723,"ter":2724,"forskjellige":2725,"##olle":2726,"euro":2727,"mang":2728,"tror":2729,"##off":2730,"stand":2731,"##spro":2732,"tor":2733,"ret":2734,"##line":2735,"##ive":2736,"##uler":2737,"##rak":2738,"lite":2739,"##okum":2740,"produksjon":2741,"legge":2742,"##revet":2743,"##agt":2744,"##grunn":2745,"tan":2746,"##aten":2747,"oppt":2748,"grad":2749,"##ce":2750,"heller":2751,"##berg":2752,"##isering":2753,"ungdom":2754,"arene":2755,"fleste":2756,"mater":2757,"allerede":2758,"indust":2759,"gamle":2760,"rekke":2761,"virkelig":2762,"##midler":2763,"dine":2764,"met":2765,"akt":2766,"##ingene":2767,"##enner":2768,"sta":2769,"ett":2770,"konkur":2771,"brukt":2772,"##mann":2773,"hu":2774,"dager":2775,"##elef":2776,"app":2777,"##entene":2778,"pos":2779,"blogg":2780,"##bef":2781,"##atet":2782,"##uder":2783,"##tet":2784,"##spunkt":2785,"##ina":2786,"##ice":2787,"bry":2788,"gjerne":2789,"kunst":2790,"##gjeng":2791,"bolig":2792,"behandling":2793,"liten":2794,"##meld":2795,"##okus":2796,"ditt":2797,"fød":2798,"senere":2799,"##bar":2800,"ab":2801,"##føring":2802,"kveld":2803,"fem":2804,"nr":2805,"199":2806,"dermed":2807,"dire":2808,"aktivitet":2809,"##ering":2810,"nødvend":2811,"##ay":2812,"mob":2813,"kur":2814,"online":2815,"ko":2816,"##up":2817,"rapp":2818,"000":2819,"fire":2820,"##kv":2821,"##følg":2822,"sty":2823,"arbeidet":2824,"so":2825,"100":2826,"2016":2827,"ener":2828,"forn":2829,"sommer":2830,"problem":2831,"##sfor":2832,"feil":2833,"undersøk":2834,"kap":2835,"internasjon":2836,"bort":2837,"##ball":2838,"gitt":2839,"##ager":2840,"dar":2841,"##rykk":2842,"besøk":2843,"rask":2844,"kroner":2845,"riktig":2846,"##mark":2847,"vest":2848,"kost":2849,"##ksomhet":2850,"sing":2851,"nærm":2852,"tru":2853,"utvalg":2854,"utfordr":2855,"pub":2856,"##vert":2857,"##orde":2858,"##rig":2859,"##syk":2860,"likevel":2861,"lav":2862,"##ron":2863,"##ral":2864,"##enes":2865,"fjer":2866,"skjø":2867,"tiltak":2868,"betyr":2869,"dagen":2870,"##lær":2871,"kat":2872,"##kom":2873,"send":2874,"25":2875,"etab":2876,"betyd":2877,"livet":2878,"minst":2879,"##ferd":2880,"##iale":2881,"##ses":2882,"fokus":2883,"nesten":2884,"felles":2885,"kjør":2886,"tjenester":2887,"##bil":2888,"avsl":2889,"lar":2890,"rel":2891,"tilgjeng":2892,"##ktor":2893,"dokum":2894,"tran":2895,"##bl":2896,"største":2897,"##gt":2898,"holde":2899,"##ris":2900,"lagt":2901,"##erte":2902,"system":2903,"##ow":2904,"antall":2905,"##lik":2906,"inkl":2907,"##ennes":2908,"##ori":2909,"bel":2910,"##oden":2911,"ris":2912,"lenge":2913,"##sh":2914,"##orter":2915,"##ivers":2916,"##mmel":2917,"damer":2918,"##sam":2919,"ekte":2920,"##sv":2921,"##gge":2922,"ganske":2923,"##fall":2924,"hjelpe":2925,"faktisk":2926,"2015":2927,"foreld":2928,"regjer":2929,"økt":2930,"##get":2931,"deler":2932,"##rukt":2933,"personer":2934,"##drett":2935,"tilbud":2936,"anbef":2937,"omf":2938,"kraft":2939,"##komm":2940,"##sd":2941,"##agen":2942,"godkj":2943,"##likt":2944,"ob":2945,"henne":2946,"industri":2947,"kompet":2948,"##holder":2949,"stad":2950,"forskning":2951,"##ade":2952,"mott":2953,"lin":2954,"##mmen":2955,"##sport":2956,"massasje":2957,"##vid":2958,"innhold":2959,"##sette":2960,"akk":2961,"##fører":2962,"##uelle":2963,"spille":2964,"grø":2965,"va":2966,"priv":2967,"pri":2968,"slike":2969,"enda":2970,"begge":2971,"redus":2972,"it":2973,"begyn":2974,"jun":2975,"##tre":2976,"##følge":2977,"##ane":2978,"funn":2979,"stre":2980,"##bruk":2981,"fer":2982,"medle":2983,"tot":2984,"##rist":2985,"##sø":2986,"bor":2987,"##heim":2988,"##rige":2989,"##jell":2990,"kart":2991,"bidra":2992,"##iene":2993,"ekstra":2994,"kontroll":2995,"ses":2996,"##ennende":2997,"selskap":2998,"ansatte":2999,"ein":3000,"lønn":3001,"event":3002,"##yld":3003,"##andre":3004,"ge":3005,"gud":3006,"jord":3007,"##ue":3008,"50":3009,"aret":3010,"søke":3011,"situ":3012,"bud":3013,"joh":3014,"##ftet":3015,"##rit":3016,"tra":3017,"##rum":3018,"univers":3019,"00":3020,"enkelte":3021,"kvinne":3022,"pop":3023,"but":3024,"spiller":3025,"##lagt":3026,"ry":3027,"##ialis":3028,"me":3029,"##vere":3030,"##gar":3031,"##ansen":3032,"øst":3033,"seks":3034,"lage":3035,"egne":3036,"stra":3037,"bek":3038,"imidler":3039,"komp":3040,"hens":3041,"drift":3042,"##afil":3043,"imidlertid":3044,"serv":3045,"##sc":3046,"funksjon":3047,"støtte":3048,"disk":3049,"leng":3050,"bilde":3051,"##eren":3052,"altsa":3053,"##atene":3054,"oppf":3055,"data":3056,"gjorde":3057,"prosjektet":3058,"tim":3059,"pasi":3060,"##kar":3061,"##isere":3062,"salg":3063,"oppr":3064,"medlem":3065,"##iden":3066,"##ttet":3067,"verdens":3068,"særlig":3069,"##lene":3070,"saken":3071,"lev":3072,"##jekter":3073,"##alte":3074,"kil":3075,"##bud":3076,"em":3077,"omradet":3078,"kvinn":3079,"##orer":3080,"synes":3081,"meld":3082,"stedet":3083,"##utvik":3084,"elekt":3085,"bergen":3086,"##urat":3087,"eldre":3088,"forslag":3089,"topp":3090,"lære":3091,"##ummer":3092,"produs":3093,"unge":3094,"egentlig":3095,"##ile":3096,"##part":3097,"##side":3098,"foret":3099,"dan":3100,"film":3101,"anal":3102,"halv":3103,"cialis":3104,"timer":3105,"elev":3106,"strø":3107,"##liv":3108,"##rene":3109,"##adet":3110,"##lingen":3111,"##kene":3112,"##elefon":3113,"bur":3114,"alder":3115,"lese":3116,"høyere":3117,"dess":3118,"sikkerhet":3119,"aut":3120,"str":3121,"mine":3122,"##ningene":3123,"##mal":3124,"navn":3125,"##esp":3126,"##ats":3127,"##ips":3128,"vekt":3129,"utenfor":3130,"imp":3131,"gjenopp":3132,"innt":3133,"sikre":3134,"repres":3135,"ho":3136,"2014":3137,"##ologi":3138,"eiend":3139,"dyr":3140,"vise":3141,"##skudd":3142,"##ærer":3143,"id":3144,"mai":3145,"##fin":3146,"kons":3147,"##fol":3148,"bygge":3149,"utdanning":3150,"kje":3151,"millioner":3152,"landet":3153,"barneh":3154,"oper":3155,"legger":3156,"venner":3157,"akkurat":3158,"peri":3159,"##ino":3160,"musikk":3161,"##løp":3162,"dom":3163,"vei":3164,"nødvendig":3165,"##lert":3166,"tallet":3167,"risik":3168,"dre":3169,"søknad":3170,"##bet":3171,"ide":3172,"##sted":3173,"##elses":3174,"region":3175,"##spill":3176,"##ikt":3177,"forsta":3178,"prof":3179,"darlig":3180,"##van":3181,"bestil":3182,"##elsene":3183,"tap":3184,"interess":3185,"anlegg":3186,"spennende":3187,"hennes":3188,"nak":3189,"interes":3190,"tilgjengelig":3191,"barna":3192,"22":3193,"inkluder":3194,"tak":3195,"apen":3196,"##one":3197,"dig":3198,"##star":3199,"##ons":3200,"mitt":3201,"innenfor":3202,"utgang":3203,"##va":3204,"##tern":3205,"død":3206,"21":3207,"fisk":3208,"com":3209,"klubb":3210,"sep":3211,"marked":3212,"opple":3213,"##dt":3214,"idrett":3215,"hverandre":3216,"fantast":3217,"ifølge":3218,"penger":3219,"sver":3220,"forteller":3221,"psyk":3222,"erot":3223,"popul":3224,"vær":3225,"hund":3226,"##otek":3227,"hjer":3228,"rø":3229,"##anter":3230,"kjønn":3231,"pra":3232,"okt":3233,"##deling":3234,"omt":3235,"tradisjon":3236,"##ps":3237,"##minist":3238,"##oen":3239,"spil":3240,"##sjett":3241,"fran":3242,"insp":3243,"##urt":3244,"født":3245,"teg":3246,"klart":3247,"byen":3248,"eget":3249,"forut":3250,"hvilke":3251,"startet":3252,"niva":3253,"gatt":3254,"instit":3255,"##linger":3256,"ak":3257,"utstyr":3258,"##oler":3259,"hør":3260,"amer":3261,"##ation":3262,"##gaver":3263,"gu":3264,"uke":3265,"##kkes":3266,"##ider":3267,"prøve":3268,"bakgrunn":3269,"lille":3270,"bu":3271,"##ital":3272,"aug":3273,"delta":3274,"##vil":3275,"##holde":3276,"eneste":3277,"##po":3278,"2013":3279,"##giver":3280,"##giv":3281,"haper":3282,"kompetanse":3283,"ul":3284,"utrol":3285,"deretter":3286,"opplys":3287,"opprett":3288,"##indelse":3289,"##usen":3290,"skolen":3291,"il":3292,"poeng":3293,"luft":3294,"##kkel":3295,"test":3296,"24":3297,"##ator":3298,"posit":3299,"fav":3300,"veien":3301,"maten":3302,"forsvar":3303,"##rik":3304,"hotell":3305,"design":3306,"skjønn":3307,"##hengig":3308,"##ograf":3309,"##aller":3310,"ferdig":3311,"##entlige":3312,"mag":3313,"nærings":3314,"##arer":3315,"funnet":3316,"foto":3317,"yo":3318,"liker":3319,"##atisk":3320,"##int":3321,"dagens":3322,"ven":3323,"##ht":3324,"##yt":3325,"skriver":3326,"hvem":3327,"##dig":3328,"##vær":3329,"hvorfor":3330,"go":3331,"tema":3332,"møter":3333,"begynte":3334,"##ym":3335,"lokal":3336,"##ktet":3337,"##dal":3338,"##isin":3339,"##fl":3340,"høyre":3341,"følger":3342,"jobber":3343,"forbindelse":3344,"##lemer":3345,"fo":3346,"tred":3347,"jul":3348,"##orten":3349,"høyt":3350,"forf":3351,"knyttet":3352,"##ikasjon":3353,"kam":3354,"gjøres":3355,"mel":3356,"velge":3357,"##ytte":3358,"##rade":3359,"apr":3360,"mon":3361,"ag":3362,"40":3363,"via":3364,"##delig":3365,"slag":3366,"drø":3367,"trening":3368,"utvikle":3369,"hjemme":3370,"skrive":3371,"tø":3372,"##ore":3373,"##rert":3374,"utrolig":3375,"effektiv":3376,"fjell":3377,"altern":3378,"kjøre":3379,"fest":3380,"telefon":3381,"maned":3382,"##rar":3383,"##anser":3384,"date":3385,"trond":3386,"rette":3387,"oppgav":3388,"##rifter":3389,"us":3390,"##føres":3391,"##ative":3392,"medlemmer":3393,"##fra":3394,"fall":3395,"jente":3396,"##kret":3397,"uans":3398,"##ete":3399,"ark":3400,"tør":3401,"alv":3402,"skape":3403,"avgjør":3404,"usa":3405,"##anen":3406,"holder":3407,"takk":3408,"natt":3409,"##vern":3410,"minutter":3411,"klokker":3412,"følgende":3413,"fordel":3414,"fjor":3415,"##skin":3416,"##alet":3417,"2018":3418,"hj":3419,"nov":3420,"2012":3421,"kommunen":3422,"uansett":3423,"je":3424,"behand":3425,"administ":3426,"##rere":3427,"cas":3428,"forkl":3429,"ars":3430,"lenger":3431,"skjed":3432,"kommet":3433,"##øte":3434,"sil":3435,"im":3436,"mynd":3437,"amerik":3438,"begynner":3439,"dokument":3440,"eier":3441,"bla":3442,"##iljø":3443,"ang":3444,"pavir":3445,"##ksis":3446,"##siden":3447,"universitet":3448,"##lø":3449,"##ja":3450,"##ader":3451,"ing":3452,"direkte":3453,"##urer":3454,"##uelt":3455,"esk":3456,"##vin":3457,"##ca":3458,"stadig":3459,"fint":3460,"##ies":3461,"tenke":3462,"##jord":3463,"service":3464,"selskapet":3465,"arr":3466,"##essur":3467,"feb":3468,"stav":3469,"nem":3470,"val":3471,"gra":3472,"vold":3473,"aks":3474,"##ommet":3475,"##sst":3476,"forel":3477,"juni":3478,"beveg":3479,"gjenopprett":3480,"sla":3481,"chat":3482,"##skrift":3483,"voksne":3484,"23":3485,"spe":3486,"##plass":3487,"pe":3488,"transport":3489,"krig":3490,"grav":3491,"reise":3492,"rest":3493,"program":3494,"##kn":3495,"forbru":3496,"lør":3497,"fotball":3498,"##but":3499,"bedrift":3500,"sto":3501,"##rom":3502,"##rateg":3503,"internett":3504,"kjemp":3505,"##partem":3506,"opplær":3507,"##ktige":3508,"ressur":3509,"reis":3510,"##isten":3511,"##rafikk":3512,"alvor":3513,"kjenner":3514,"bred":3515,"##fritt":3516,"spesial":3517,"basert":3518,"##pass":3519,"uker":3520,"nettsteder":3521,"detal":3522,"##fag":3523,"kjente":3524,"##fold":3525,"gutt":3526,"##ommen":3527,"##gift":3528,"foran":3529,"fas":3530,"utgangspunkt":3531,"do":3532,"regn":3533,"##menn":3534,"konkurran":3535,"##ktøy":3536,"konse":3537,"sku":3538,"barnet":3539,"apne":3540,"oppdag":3541,"tilgang":3542,"viktigste":3543,"handler":3544,"krit":3545,"inns":3546,"sand":3547,"sky":3548,"sport":3549,"lys":3550,"kry":3551,"moder":3552,"oppdrag":3553,"eksp":3554,"tu":3555,"regel":3556,"oversikt":3557,"##verket":3558,"##bin":3559,"##hør":3560,"vedtak":3561,"politiet":3562,"esc":3563,"vedt":3564,"vak":3565,"ren":3566,"grønn":3567,"##setter":3568,"web":3569,"##ikkert":3570,"bi":3571,"prøv":3572,"midt":3573,"##uar":3574,"##sider":3575,"##snitt":3576,"##loven":3577,"grunnlag":3578,"sykehus":3579,"tips":3580,"finans":3581,"arets":3582,"tilbyr":3583,"eiendom":3584,"198":3585,"energi":3586,"##organ":3587,"prakt":3588,"##avn":3589,"øke":3590,"##onser":3591,"inneb":3592,"skje":3593,"generisk":3594,"##nt":3595,"stille":3596,"##eres":3597,"mis":3598,"##arbeidet":3599,"sønd":3600,"kund":3601,"att":3602,"lokale":3603,"##ink":3604,"##ksjonen":3605,"##dere":3606,"##kkje":3607,"bod":3608,"2011":3609,"vinter":3610,"flott":3611,"represent":3612,"present":3613,"##ivt":3614,"##uten":3615,"retning":3616,"ex":3617,"##ppet":3618,"##olit":3619,"sjø":3620,"##kningen":3621,"##mat":3622,"##vne":3623,"single":3624,"naturlig":3625,"##dene":3626,"##pen":3627,"profil":3628,"##ba":3629,"arbeider":3630,"##sland":3631,"##løs":3632,"##use":3633,"##denafil":3634,"sist":3635,"registrer":3636,"##uss":3637,"fine":3638,"##landet":3639,"mand":3640,"##unt":3641,"steder":3642,"oppmer":3643,"bjør":3644,"sykdom":3645,"legg":3646,"##sav":3647,"ref":3648,"gr":3649,"lørdag":3650,"ikkje":3651,"##enten":3652,"stopp":3653,"sverige":3654,"pu":3655,"##bu":3656,"##ppene":3657,"engas":3658,"##iste":3659,"##skaper":3660,"masse":3661,"##sli":3662,"offentlige":3663,"sosiale":3664,"hom":3665,"erfaring":3666,"##ata":3667,"##essig":3668,"##kont":3669,"##anlegg":3670,"fornøy":3671,"ep":3672,"tha":3673,"##ju":3674,"##bart":3675,"praksis":3676,"##ativt":3677,"##vnt":3678,"##saker":3679,"omrader":3680,"##omme":3681,"##sak":3682,"##gjøre":3683,"##stend":3684,"##fo":3685,"##utvalg":3686,"innlegget":3687,"##inst":3688,"sannsyn":3689,"bestille":3690,"gjennomført":3691,"##ega":3692,"slett":3693,"skrevet":3694,"komment":3695,"##co":3696,"##jef":3697,"foren":3698,"##ebo":3699,"inneholder":3700,"sprak":3701,"prosjekter":3702,"tom":3703,"viktige":3704,"kroppen":3705,"##bok":3706,"høre":3707,"medisin":3708,"##urn":3709,"hend":3710,"utviklet":3711,"tredje":3712,"##ike":3713,"januar":3714,"fac":3715,"##ment":3716,"fys":3717,"trom":3718,"gammel":3719,"fores":3720,"##oret":3721,"skog":3722,"trondheim":3723,"##man":3724,"raskt":3725,"brann":3726,"forbed":3727,"funger":3728,"ønsket":3729,"pot":3730,"sve":3731,"offentlig":3732,"bø":3733,"log":3734,"norw":3735,"styret":3736,"mobil":3737,"lyst":3738,"bon":3739,"sal":3740,"foreldre":3741,"##ity":3742,"##kten":3743,"setter":3744,"nøy":3745,"##iere":3746,"sven":3747,"##kvens":3748,"##visjon":3749,"##ress":3750,"folke":3751,"problemer":3752,"are":3753,"##her":3754,"san":3755,"lyd":3756,"viste":3757,"##kraft":3758,"##ingsm":3759,"2010":3760,"glad":3761,"velger":3762,"jobbe":3763,"daglig":3764,"##ktene":3765,"##br":3766,"blod":3767,"trø":3768,"##uell":3769,"##skole":3770,"samlet":3771,"sko":3772,"klær":3773,"familie":3774,"sikkert":3775,"muligheter":3776,"##ium":3777,"endringer":3778,"##pros":3779,"klokke":3780,"##vem":3781,"##za":3782,"nemlig":3783,"##ves":3784,"vite":3785,"##ppa":3786,"eskorte":3787,"till":3788,"fry":3789,"billig":3790,"##utvikling":3791,"##uttet":3792,"morgen":3793,"sterk":3794,"holdt":3795,"##ild":3796,"##visning":3797,"vit":3798,"##stene":3799,"##enne":3800,"kostnad":3801,"føre":3802,"tri":3803,"##ho":3804,"tross":3805,"budsjett":3806,"vant":3807,"##ifter":3808,"muligheten":3809,"økonomi":3810,"virksomhet":3811,"nærmere":3812,"bildet":3813,"yn":3814,"produkter":3815,"enten":3816,"facebo":3817,"##king":3818,"##akter":3819,"##ongen":3820,"bal":3821,"##ssy":3822,"gro":3823,"##mte":3824,"##nen":3825,"26":3826,"##lit":3827,"dist":3828,"bevis":3829,"pal":3830,"gav":3831,"##øren":3832,"føler":3833,"fremtid":3834,"real":3835,"tun":3836,"septem":3837,"besø":3838,"##person":3839,"publ":3840,"vek":3841,"motor":3842,"internasjonale":3843,"##ns":3844,"ytter":3845,"dro":3846,"rek":3847,"september":3848,"dei":3849,"##gitt":3850,"døde":3851,"new":3852,"mars":3853,"endelig":3854,"organisasjon":3855,"##iserte":3856,"ur":3857,"kjæreste":3858,"##sler":3859,"stri":3860,"##da":3861,"##skolen":3862,"##stid":3863,"trykk":3864,"ellers":3865,"28":3866,"##abil":3867,"##atert":3868,"lærer":3869,"valgt":3870,"snart":3871,"stavanger":3872,"prin":3873,"sider":3874,"historie":3875,"august":3876,"27":3877,"##partementet":3878,"regjeringen":3879,"krever":3880,"skyld":3881,"høst":3882,"sønn":3883,"##følgelig":3884,"197":3885,"sammenlig":3886,"tilsvar":3887,"rød":3888,"##mmene":3889,"vurdering":3890,"##kjent":3891,"gul":3892,"bib":3893,"band":3894,"strateg":3895,"april":3896,"helst":3897,"ski":3898,"##kant":3899,"bat":3900,"forskjell":3901,"opprinn":3902,"forsik":3903,"passer":3904,"##ighetene":3905,"mør":3906,"hvilken":3907,"##ruktur":3908,"brukere":3909,"fantastisk":3910,"maneder":3911,"selvfølgelig":3912,"##ember":3913,"sar":3914,"kval":3915,"##istikk":3916,"facebook":3917,"##stru":3918,"##agn":3919,"##ald":3920,"##ansk":3921,"engel":3922,"##vember":3923,"opptatt":3924,"størr":3925,"kommunikasjon":3926,"60":3927,"privat":3928,"burde":3929,"##elag":3930,"hverdag":3931,"artikk":3932,"forhand":3933,"norm":3934,"kurs":3935,"##ober":3936,"##jema":3937,"konf":3938,"november":3939,"ident":3940,"forsøk":3941,"felt":3942,"##produ":3943,"hin":3944,"turen":3945,"nasjonal":3946,"søndag":3947,"vers":3948,"kombin":3949,"tydelig":3950,"styrke":3951,"sosial":3952,"brans":3953,"yr":3954,"fu":3955,"super":3956,"datingside":3957,"trygg":3958,"jer":3959,"##bund":3960,"neg":3961,"kirke":3962,"klass":3963,"##veien":3964,"##ko":3965,"meter":3966,"##ytter":3967,"ru":3968,"defin":3969,"gjeld":3970,"2009":3971,"##tert":3972,"fro":3973,"dele":3974,"ku":3975,"dato":3976,"uav":3977,"##mmes":3978,"##akere":3979,"resultater":3980,"invit":3981,"##str":3982,"nettopp":3983,"##ban":3984,"hev":3985,"##ase":3986,"car":3987,"##grep":3988,"##ologisk":3989,"tusen":3990,"fiske":3991,"europa":3992,"arbeidsm":3993,"vist":3994,"prøver":3995,"bestar":3996,"standard":3997,"reseptfritt":3998,"klare":3999,"tett":4000,"juli":4001,"bilen":4002,"hum":4003,"bygget":4004,"begrens":4005,"unnga":4006,"olje":4007,"ky":4008,"kampen":4009,"malet":4010,"avtale":4011,"befol":4012,"sitter":4013,"kong":4014,"dame":4015,"midler":4016,"##esjon":4017,"##iss":4018,"medier":4019,"hjelper":4020,"ass":4021,"plasser":4022,"fig":4023,"desember":4024,"team":4025,"fart":4026,"##øv":4027,"##kjøp":4028,"kunder":4029,"spillet":4030,"fredag":4031,"tysk":4032,"prem":4033,"##jed":4034,"und":4035,"nettet":4036,"##fjord":4037,"##vare":4038,"resten":4039,"ph":4040,"tjeneste":4041,"uk":4042,"##vand":4043,"fylkes":4044,"veil":4045,"leve":4046,"##bare":4047,"##orit":4048,"hud":4049,"##bel":4050,"##lov":4051,"verktøy":4052,"##late":4053,"ledd":4054,"grens":4055,"bro":4056,"skikk":4057,"pensjon":4058,"venstre":4059,"oktober":4060,"##spe":4061,"meget":4062,"russ":4063,"##middel":4064,"løsninger":4065,"##sorg":4066,"opplæring":4067,"rele":4068,"legges":4069,"merke":4070,"interv":4071,"##siktig":4072,"brø":4073,"##plan":4074,"time":4075,"naken":4076,"##ellen":4077,"forrige":4078,"##igheten":4079,"bereg":4080,"fører":4081,"fi":4082,"##kkelig":4083,"familien":4084,"##range":4085,"leverand":4086,"navnet":4087,"forsø":4088,"sammenheng":4089,"ford":4090,"##somt":4091,"henhold":4092,"selve":4093,"##isen":4094,"##aling":4095,"bøker":4096,"kolle":4097,"##sg":4098,"virksom":4099,"gjennomsnitt":4100,"29":4101,"##setning":4102,"christ":4103,"##nere":4104,"planlegg":4105,"slutten":4106,"kateg":4107,"tilby":4108,"hygg":4109,"oppfølg":4110,"lettere":4111,"##odet":4112,"utviklingen":4113,"nt":4114,"mannen":4115,"oppgaver":4116,"##vann":4117,"free":4118,"##kka":4119,"##uer":4120,"alene":4121,"##iør":4122,"øk":4123,"ene":4124,"##leie":4125,"trafikk":4126,"##plassen":4127,"##usjoner":4128,"##enning":4129,"##hver":4130,"##lin":4131,"saks":4132,"ring":4133,"##ringer":4134,"eit":4135,"kropp":4136,"kob":4137,"totalt":4138,"bord":4139,"##aks":4140,"proses":4141,"tenker":4142,"saker":4143,"elektron":4144,"kjem":4145,"jakt":4146,"elevene":4147,"gangen":4148,"##rivil":4149,"press":4150,"snø":4151,"opplysninger":4152,"nø":4153,"autom":4154,"innbygg":4155,"##foren":4156,"##dat":4157,"betale":4158,"##iz":4159,"sat":4160,"##nær":4161,"##bas":4162,"innte":4163,"##sse":4164,"vurdere":4165,"##behandling":4166,"sentrum":4167,"krev":4168,"##egn":4169,"organisasjoner":4170,"snakke":4171,"tekst":4172,"hensyn":4173,"bidrar":4174,"sende":4175,"nettstedet":4176,"vedlike":4177,"##sol":4178,"##50":4179,"##ith":4180,"innov":4181,"stol":4182,"fungerer":4183,"2008":4184,"innebærer":4185,"##verre":4186,"profesjon":4187,"##eleg":4188,"##uts":4189,"klarer":4190,"sign":4191,"fylke":4192,"##allen":4193,"##varer":4194,"##ama":4195,"##ielle":4196,"gruppe":4197,"rev":4198,"elsker":4199,"##fort":4200,"##aland":4201,"formid":4202,"##inget":4203,"vari":4204,"sexy":4205,"##mma":4206,"forvalt":4207,"sendt":4208,"høsten":4209,"nei":4210,"kos":4211,"##fte":4212,"##deles":4213,"meng":4214,"omfatt":4215,"##irk":4216,"stein":4217,"##varet":4218,"##ikere":4219,"pap":4220,"resultat":4221,"skjul":4222,"##sty":4223,"##livet":4224,"##isjonen":4225,"perioden":4226,"inkludert":4227,"##yttes":4228,"196":4229,"indiv":4230,"høye":4231,"heldig":4232,"nyheter":4233,"markeds":4234,"flotte":4235,"drikke":4236,"personlig":4237,"##enting":4238,"omsorg":4239,"strøm":4240,"bank":4241,"vok":4242,"deil":4243,"##splan":4244,"ska":4245,"##aret":4246,"overra":4247,"gull":4248,"kjæresten":4249,"##utd":4250,"virke":4251,"besl":4252,"ves":4253,"fornøyd":4254,"##styret":4255,"##verd":4256,"versjon":4257,"svart":4258,"##leder":4259,"langs":4260,"betydning":4261,"elever":4262,"##felt":4263,"punkt":4264,"forfatter":4265,"interesse":4266,"øker":4267,"pat":4268,"escort":4269,"##aget":4270,"utvid":4271,"##forhold":4272,"##vnte":4273,"##slin":4274,"##eland":4275,"godkjent":4276,"perfe":4277,"analy":4278,"##ensen":4279,"risiko":4280,"##ena":4281,"##era":4282,"gis":4283,"etabler":4284,"virker":4285,"stoff":4286,"##urnal":4287,"frivil":4288,"##spros":4289,"brukte":4290,"sannsynlig":4291,"resta":4292,"febru":4293,"dr":4294,"starter":4295,"grunnlegg":4296,"km":4297,"bære":4298,"februar":4299,"qu":4300,"##itra":4301,"##kjør":4302,"type":4303,"##øse":4304,"##enterer":4305,"##radene":4306,"##edag":4307,"kjøkken":4308,"deb":4309,"##enta":4310,"butikk":4311,"31":4312,"tilfeller":4313,"opphold":4314,"##nende":4315,"##jenester":4316,"##iker":4317,"forl":4318,"høyde":4319,"formal":4320,"rapporter":4321,"typer":4322,"lengre":4323,"smak":4324,"terr":4325,"moderne":4326,"gjeng":4327,"##enfor":4328,"dessuten":4329,"##venn":4330,"jf":4331,"##itte":4332,"lun":4333,"##ph":4334,"tab":4335,"##gene":4336,"oppfyl":4337,"##gifter":4338,"##organis":4339,"bus":4340,"partner":4341,"tvil":4342,"fir":4343,"oppdater":4344,"jule":4345,"##fly":4346,"##rives":4347,"##oder":4348,"invester":4349,"194":4350,"##enet":4351,"utfordringer":4352,"##stat":4353,"##stein":4354,"thai":4355,"rolle":4356,"##likk":4357,"##eby":4358,"lager":4359,"##aker":4360,"tol":4361,"##forsk":4362,"avhengig":4363,"samfunnet":4364,"mennesk":4365,"energ":4366,"huset":4367,"aktiviteter":4368,"arrange":4369,"publik":4370,"##mu":4371,"##stillinger":4372,"##ifte":4373,"sjekke":4374,"konsekvens":4375,"sesong":4376,"markedet":4377,"jes":4378,"##melding":4379,"relig":4380,"restaur":4381,"##len":4382,"##stet":4383,"bekre":4384,"varme":4385,"boken":4386,"##20":4387,"spillere":4388,"##ekte":4389,"endre":4390,"##apotek":4391,"lavere":4392,"nasjonale":4393,"##mar":4394,"forh":4395,"nettapotek":4396,"ir":4397,"gjennomføre":4398,"##rent":4399,"##skl":4400,"integ":4401,"sjeld":4402,"begynne":4403,"skatt":4404,"private":4405,"filmen":4406,"apnet":4407,"spise":4408,"##sut":4409,"opt":4410,"##mb":4411,"hvit":4412,"sti":4413,"reguler":4414,"opplever":4415,"redusere":4416,"bloggen":4417,"anled":4418,"uttrykk":4419,"alternativ":4420,"utover":4421,"rut":4422,"##rike":4423,"sjekk":4424,"ori":4425,"registrert":4426,"##rapp":4427,"##bladet":4428,"starte":4429,"ønske":4430,"##gn":4431,"fortsette":4432,"programmet":4433,"sterke":4434,"fortelle":4435,"refer":4436,"blom":4437,"##istisk":4438,"##tering":4439,"sig":4440,"2007":4441,"lange":4442,"##isme":4443,"oppleve":4444,"osv":4445,"##pris":4446,"tilsvarende":4447,"sagt":4448,"##plikt":4449,"glede":4450,"slags":4451,"stilling":4452,"##iserer":4453,"##ros":4454,"##xx":4455,"enkle":4456,"populære":4457,"##met":4458,"##ktør":4459,"##fest":4460,"økonomisk":4461,"##asen":4462,"sch":4463,"priorit":4464,"##ish":4465,"skikkelig":4466,"##ittel":4467,"##huset":4468,"##ska":4469,"##ligere":4470,"##ote":4471,"dessverre":4472,"potens":4473,"sukker":4474,"80":4475,"hi":4476,"tal":4477,"##sagt":4478,"europe":4479,"##egaende":4480,"vedlikehold":4481,"generelt":4482,"etablert":4483,"bestemt":4484,"fal":4485,"skade":4486,"##til":4487,"##oritter":4488,"oppst":4489,"sle":4490,"arrang":4491,"##mon":4492,"resultatet":4493,"muse":4494,"ful":4495,"sentral":4496,"spor":4497,"nrk":4498,"greit":4499,"##øtet":4500,"##vek":4501,"inntil":4502,"enhver":4503,"ke":4504,"boka":4505,"forskrift":4506,"##hjel":4507,"ødel":4508,"teknologi":4509,"distri":4510,"kontrol":4511,"##kort":4512,"undersøkelse":4513,"overfor":4514,"##hvert":4515,"##ins":4516,"rør":4517,"can":4518,"70":4519,"hei":4520,"oppfølging":4521,"##skomm":4522,"yngre":4523,"##synet":4524,"glo":4525,"##uft":4526,"levitra":4527,"farge":4528,"fyr":4529,"perfekt":4530,"fritid":4531,"berg":4532,"##kkene":4533,"enklere":4534,"##hav":4535,"avvik":4536,"kjøper":4537,"##gangen":4538,"##forbund":4539,"øvrige":4540,"tas":4541,"##førte":4542,"farger":4543,"homo":4544,"##vant":4545,"jobben":4546,"tver":4547,"meste":4548,"skol":4549,"##mor":4550,"casino":4551,"favoritter":4552,"##ynd":4553,"hensikt":4554,"##rale":4555,"##gere":4556,"økonomiske":4557,"straff":4558,"bildene":4559,"ansvarlig":4560,"##usjonen":4561,"kommunene":4562,"##ah":4563,"sw":4564,"##eri":4565,"bestemm":4566,"##øst":4567,"slo":4568,"slikt":4569,"studenter":4570,"##ales":4571,"##srett":4572,"##imot":4573,"##emid":4574,"##vok":4575,"utsatt":4576,"individ":4577,"##mannen":4578,"gutter":4579,"##isjoner":4580,"sterkt":4581,"eksister":4582,"overt":4583,"innvand":4584,"rim":4585,"kjøpt":4586,"material":4587,"seier":4588,"foresl":4589,"dob":4590,"##dde":4591,"akse":4592,"mart":4593,"engelsk":4594,"##runn":4595,"skjedde":4596,"utgjør":4597,"malt":4598,"rob":4599,"##ix":4600,"##arder":4601,"driver":4602,"mic":4603,"hopp":4604,"##vist":4605,"##onn":4606,"riks":4607,"journal":4608,"studie":4609,"valgte":4610,"student":4611,"aker":4612,"##fyl":4613,"møtet":4614,"rapport":4615,"treff":4616,"konkurranse":4617,"##lende":4618,"##mod":4619,"heter":4620,"##stendig":4621,"##apen":4622,"vekst":4623,"inspir":4624,"##gaende":4625,"varen":4626,"forber":4627,"##full":4628,"politiske":4629,"vg":4630,"jobbet":4631,"fortsetter":4632,"##rid":4633,"hjerte":4634,"skrift":4635,"klikk":4636,"##of":4637,"styre":4638,"##jenesten":4639,"situasjonen":4640,"##øyt":4641,"##rense":4642,"##engt":4643,"mandag":4644,"##fordr":4645,"pc":4646,"grunnleggende":4647,"##bygging":4648,"voksen":4649,"not":4650,"grupper":4651,"regjering":4652,"##ørene":4653,"absol":4654,"##stoff":4655,"ed":4656,"goog":4657,"danmark":4658,"##imal":4659,"vanlige":4660,"videoer":4661,"kalt":4662,"##iell":4663,"nettsted":4664,"kvalif":4665,"##veis":4666,"unna":4667,"torsdag":4668,"jern":4669,"port":4670,"##iteten":4671,"##ften":4672,"fullt":4673,"vanligvis":4674,"figur":4675,"regler":4676,"øyeb":4677,"oppna":4678,"forret":4679,"##ologiske":4680,"hyggelig":4681,"##leg":4682,"##irasjon":4683,"##iter":4684,"forholdet":4685,"datter":4686,"##serv":4687,"retningslin":4688,"ekteskap":4689,"##ølv":4690,"oppdatert":4691,"##asjons":4692,"aner":4693,"##drag":4694,"lands":4695,"vakre":4696,"##asjonene":4697,"##ork":4698,"vinner":4699,"35":4700,"tilsyn":4701,"gøy":4702,"omrade":4703,"tilpass":4704,"nevnt":4705,"##eliv":4706,"gift":4707,"spesif":4708,"disp":4709,"bom":4710,"utø":4711,"avgjørende":4712,"cm":4713,"ivaret":4714,"digit":4715,"milit":4716,"selvsagt":4717,"utform":4718,"##spart":4719,"match":4720,"undert":4721,"##ania":4722,"##aen":4723,"prote":4724,"bedrifter":4725,"ingenting":4726,"handling":4727,"2006":4728,"##aring":4729,"skrev":4730,"##undersøk":4731,"varm":4732,"ettersom":4733,"##stemer":4734,"##unde":4735,"vedtatt":4736,"##kost":4737,"klubben":4738,"mist":4739,"sang":4740,"ytterligere":4741,"##ssel":4742,"##legge":4743,"sek":4744,"195":4745,"##kast":4746,"klasse":4747,"arbeidsgiver":4748,"utført":4749,"500":4750,"periode":4751,"makt":4752,"norway":4753,"arsm":4754,"sesongen":4755,"##sken":4756,"produkt":4757,"endring":4758,"##ange":4759,"eli":4760,"##ure":4761,"##utvalget":4762,"spørsmalet":4763,"##ogn":4764,"kategor":4765,"betydelig":4766,"kjører":4767,"intervju":4768,"sunn":4769,"parker":4770,"amerikanske":4771,"##itter":4772,"##riks":4773,"erfaringer":4774,"invol":4775,"##onom":4776,"senter":4777,"sykkel":4778,"utn":4779,"utdan":4780,"eval":4781,"##ved":4782,"fla":4783,"##ose":4784,"##stemet":4785,"90":4786,"varer":4787,"prinsi":4788,"##kerne":4789,"klarte":4790,"##gave":4791,"skip":4792,"##atten":4793,"##app":4794,"##ident":4795,"konkl":4796,"prest":4797,"tilkn":4798,"kvelden":4799,"sommeren":4800,"maskin":4801,"##rep":4802,"vind":4803,"hodet":4804,"underhold":4805,"##ians":4806,"lege":4807,"normalt":4808,"##etøy":4809,"skaper":4810,"pen":4811,"derimot":4812,"reiser":4813,"gleder":4814,"##stander":4815,"rygg":4816,"isra":4817,"##delingen":4818,"nordmenn":4819,"detalj":4820,"attra":4821,"tilrett":4822,"tir":4823,"ni":4824,"konkret":4825,"filmer":4826,"##strø":4827,"røy":4828,"con":4829,"##ime":4830,"bre":4831,"stjer":4832,"##oren":4833,"##klær":4834,"##somme":4835,"##ple":4836,"##sopp":4837,"kol":4838,"##ssk":4839,"elem":4840,"##qu":4841,"trener":4842,"flyttet":4843,"benyttes":4844,"ras":4845,"##laget":4846,"##punkt":4847,"slu":4848,"tann":4849,"##edning":4850,"toppen":4851,"opplevelse":4852,"##istiske":4853,"cl":4854,"##resse":4855,"opps":4856,"høyeste":4857,"administrasjon":4858,"##inister":4859,"klima":4860,"bland":4861,"feng":4862,"leil":4863,"##stø":4864,"##vs":4865,"kna":4866,"kjøtt":4867,"##alder":4868,"sant":4869,"prisen":4870,"vilkar":4871,"politisk":4872,"borte":4873,"historien":4874,"skil":4875,"##utning":4876,"sildenafil":4877,"regnskap":4878,"brit":4879,"seri":4880,"bist":4881,"kjærligheten":4882,"##sle":4883,"ment":4884,"##ørt":4885,"##aktig":4886,"fysisk":4887,"##merket":4888,"##beh":4889,"tillit":4890,"yt":4891,"respe":4892,"tanke":4893,"##ønn":4894,"##ssen":4895,"deilig":4896,"omtrent":4897,"vider":4898,"glob":4899,"##engene":4900,"satte":4901,"tilstre":4902,"innsats":4903,"tidspunkt":4904,"ww":4905,"bef":4906,"utenland":4907,"sørge":4908,"##skont":4909,"##avt":4910,"##kal":4911,"ital":4912,"##oritt":4913,"møtte":4914,"pluts":4915,"spar":4916,"onsdag":4917,"jon":4918,"gjenoppretting":4919,"##dem":4920,"ill":4921,"apner":4922,"tromsø":4923,"##iks":4924,"##instit":4925,"wh":4926,"gruppen":4927,"mangler":4928,"forsknings":4929,"kjempe":4930,"karakter":4931,"oppgave":4932,"snakker":4933,"##annet":4934,"aktuelle":4935,"tilfred":4936,"tyskland":4937,"absolutt":4938,"husk":4939,"bekym":4940,"45":4941,"##saken":4942,"musk":4943,"sim":4944,"stund":4945,"google":4946,"##ms":4947,"rep":4948,"overv":4949,"##stemm":4950,"forsikring":4951,"treng":4952,"beskriv":4953,"##tteratur":4954,"systemet":4955,"ressurser":4956,"nylig":4957,"##polit":4958,"##gram":4959,"amb":4960,"male":4961,"siv":4962,"tj":4963,"##skri":4964,"spr":4965,"forvent":4966,"##holdt":4967,"##adal":4968,"2005":4969,"retten":4970,"kommuner":4971,"digital":4972,"tilt":4973,"asi":4974,"##slaget":4975,"tel":4976,"selger":4977,"utsli":4978,"statens":4979,"sentrale":4980,"rommet":4981,"##ansvar":4982,"publikum":4983,"##parten":4984,"opply":4985,"interessant":4986,"uken":4987,"gard":4988,"uavhengig":4989,"merk":4990,"frank":4991,"##gatt":4992,"##atør":4993,"trinn":4994,"##stillingen":4995,"avtalen":4996,"##nummer":4997,"menneske":4998,"##byg":4999,"strand":5000,"kontaktann":5001,"høg":5002,"kjenn":5003,"plutselig":5004,"hard":5005,"pasienter":5006,"just":5007,"##atelse":5008,"##alene":5009,"##ana":5010,"motiv":5011,"læring":5012,"191":5013,"benytte":5014,"##omradet":5015,"##ansert":5016,"you":5017,"utvikler":5018,"foreby":5019,"hundre":5020,"relativt":5021,"dagbladet":5022,"hardt":5023,"##uter":5024,"videregaende":5025,"nyhet":5026,"##ettet":5027,"endret":5028,"ekstrem":5029,"verdt":5030,"resultatene":5031,"fang":5032,"##iler":5033,"møtt":5034,"anbefaler":5035,"##onse":5036,"##handel":5037,"pasient":5038,"bestemte":5039,"##cc":5040,"vente":5041,"2000":5042,"mening":5043,"løsning":5044,"viten":5045,"politi":5046,"heldigvis":5047,"priser":5048,"##asjer":5049,"innom":5050,"##urder":5051,"##andid":5052,"##ollen":5053,"umiddel":5054,"##iger":5055,"##tekn":5056,"##prosjekt":5057,"interiør":5058,"inspirasjon":5059,"##ash":5060,"rik":5061,"russiske":5062,"fremst":5063,"sja":5064,"temper":5065,"haug":5066,"presse":5067,"egg":5068,"beskjed":5069,"tirsdag":5070,"##kjente":5071,"pan":5072,"##okrat":5073,"##mo":5074,"enhet":5075,"##butikk":5076,"suks":5077,"##kommen":5078,"sit":5079,"##ight":5080,"stemmer":5081,"anne":5082,"bevisst":5083,"beskri":5084,"sitte":5085,"venter":5086,"live":5087,"##erv":5088,"situasjon":5089,"www":5090,"with":5091,"bunn":5092,"lignende":5093,"##gte":5094,"omfattende":5095,"vises":5096,"merket":5097,"middel":5098,"refle":5099,"yrkes":5100,"middag":5101,"##departementet":5102,"trekke":5103,"nordland":5104,"aust":5105,"oven":5106,"##ben":5107,"imot":5108,"##irca":5109,"glass":5110,"##ias":5111,"kreft":5112,"##skj":5113,"jesus":5114,"lek":5115,"##prø":5116,"politikk":5117,"##rings":5118,"ansikt":5119,"problemet":5120,"hente":5121,"besøke":5122,"lei":5123,"nedenfor":5124,"tilskudd":5125,"mamma":5126,"fotograf":5127,"##ham":5128,"møt":5129,"papir":5130,"interesser":5131,"##lever":5132,"set":5133,"##skriv":5134,"jur":5135,"medarbeid":5136,"##ikkerhet":5137,"rettigheter":5138,"kron":5139,"nummer":5140,"praktisk":5141,"fremover":5142,"john":5143,"gran":5144,"ole":5145,"supp":5146,"##stri":5147,"unntak":5148,"##kring":5149,"eventuelt":5150,"helg":5151,"tadal":5152,"rapporten":5153,"bjørn":5154,"##ach":5155,"nærheten":5156,"##allet":5157,"tadalafil":5158,"##plasser":5159,"personlige":5160,"kristians":5161,"folket":5162,"arg":5163,"gli":5164,"arbeidspl":5165,"##oter":5166,"faglig":5167,"alb":5168,"##ines":5169,"oppdaget":5170,"utgangspunktet":5171,"skad":5172,"forstaelse":5173,"bad":5174,"##ffet":5175,"ii":5176,"oppmerksomhet":5177,"favoritt":5178,"##skiner":5179,"adc":5180,"uh":5181,"##des":5182,"serien":5183,"nyte":5184,"gjeldende":5185,"##dating":5186,"kle":5187,"jentene":5188,"inform":5189,"innovasjon":5190,"##attet":5191,"nes":5192,"##byen":5193,"ledelse":5194,"##redning":5195,"##lede":5196,"adcirca":5197,"tenkt":5198,"seng":5199,"smer":5200,"øver":5201,"maks":5202,"spesielle":5203,"vinne":5204,"##ls":5205,"delen":5206,"stortinget":5207,"kop":5208,"dagene":5209,"effekt":5210,"##opplys":5211,"##eler":5212,"lat":5213,"vennskap":5214,"apent":5215,"##ante":5216,"informasjonen":5217,"##bord":5218,"nettverk":5219,"we":5220,"vert":5221,"slatt":5222,"cam":5223,"eksempler":5224,"##ktive":5225,"ferie":5226,"##olf":5227,"tw":5228,"##essige":5229,"erotiske":5230,"##selen":5231,"verdi":5232,"prosessen":5233,"mote":5234,"stab":5235,"spørre":5236,"##ski":5237,"hjemmes":5238,"kraftig":5239,"begynnelsen":5240,"homofil":5241,"hentet":5242,"spilte":5243,"nev":5244,"##øn":5245,"fremdeles":5246,"løse":5247,"##ikler":5248,"annonser":5249,"wor":5250,"alvorlig":5251,"tids":5252,"kompl":5253,"kjenne":5254,"bidrag":5255,"helhet":5256,"israel":5257,"##als":5258,"fylkeskomm":5259,"sur":5260,"193":5261,"nat":5262,"modell":5263,"foreldrene":5264,"##jeneste":5265,"vol":5266,"vardenafil":5267,"fett":5268,"jap":5269,"neder":5270,"##iteter":5271,"##sto":5272,"leser":5273,"##omrader":5274,"##standen":5275,"36":5276,"hil":5277,"samle":5278,"velkommen":5279,"##ande":5280,"redusert":5281,"vitenskap":5282,"sjef":5283,"##former":5284,"symp":5285,"fug":5286,"vannet":5287,"arbeide":5288,"undersøkelsen":5289,"af":5290,"300":5291,"innholdet":5292,"##høy":5293,"##unst":5294,"##mmelig":5295,"identif":5296,"##ars":5297,"odd":5298,"desig":5299,"temperatur":5300,"##uren":5301,"interessert":5302,"varier":5303,"##aksjon":5304,"##messig":5305,"##mester":5306,"afri":5307,"forsker":5308,"studier":5309,"tilp":5310,"prosess":5311,"##samling":5312,"dial":5313,"##kkende":5314,"avdeling":5315,"ungdoms":5316,"beløp":5317,"kryss":5318,"vent":5319,"##øya":5320,"##smessig":5321,"kontin":5322,"status":5323,"nakne":5324,"##entering":5325,"tilstrekkelig":5326,"sens":5327,"sov":5328,"føle":5329,"hotellet":5330,"fantastiske":5331,"drive":5332,"##th":5333,"##iti":5334,"rimelig":5335,"ale":5336,"størrelse":5337,"##sord":5338,"##ærende":5339,"nettsiden":5340,"kast":5341,"##anten":5342,"skjedd":5343,"##vei":5344,"sats":5345,"##pr":5346,"sub":5347,"internasjonal":5348,"##ac":5349,"tog":5350,"foreg":5351,"teknisk":5352,"kristne":5353,"vivan":5354,"bibli":5355,"vivanza":5356,"trolig":5357,"##hjelp":5358,"##stud":5359,"total":5360,"media":5361,"##ledes":5362,"mc":5363,"ukjent":5364,"tegn":5365,"digitale":5366,"planen":5367,"gjennomføring":5368,"barnehage":5369,"uly":5370,"div":5371,"staten":5372,"hed":5373,"##tere":5374,"forest":5375,"foreløp":5376,"intro":5377,"atte":5378,"##iseres":5379,"russland":5380,"##niva":5381,"stiller":5382,"oppmerksom":5383,"arkiv":5384,"##svis":5385,"##tom":5386,"salt":5387,"virksomheten":5388,"trenings":5389,"enna":5390,"hjert":5391,"##abel":5392,"##ming":5393,"biler":5394,"##kommende":5395,"eksisterende":5396,"##likter":5397,"org":5398,"##klam":5399,"nil":5400,"flest":5401,"enor":5402,"stress":5403,"fremme":5404,"hvite":5405,"kirken":5406,"tenkte":5407,"forand":5408,"hor":5409,"revisjon":5410,"fredrik":5411,"artikkelen":5412,"arkite":5413,"##atiske":5414,"master":5415,"brev":5416,"son":5417,"##apt":5418,"kontrakt":5419,"omfatter":5420,"internasjonalt":5421,"fritt":5422,"hører":5423,"##settes":5424,"oppe":5425,"planer":5426,"up":5427,"au":5428,"lesb":5429,"len":5430,"pil":5431,"##sminister":5432,"undersø":5433,"forbruker":5434,"trønd":5435,"fjerne":5436,"starten":5437,"##rans":5438,"løy":5439,"forum":5440,"vindu":5441,"plast":5442,"klin":5443,"##edagog":5444,"tjenesten":5445,"kunde":5446,"col":5447,"skjema":5448,"andel":5449,"01":5450,"konser":5451,"server":5452,"##ørs":5453,"##yen":5454,"##bed":5455,"ryd":5456,"mente":5457,"spilt":5458,"sektor":5459,"mill":5460,"handle":5461,"rekru":5462,"president":5463,"dokumentasjon":5464,"bill":5465,"##kob":5466,"kjøretøy":5467,"##shus":5468,"forbud":5469,"spis":5470,"##fun":5471,"positive":5472,"32":5473,"verk":5474,"##ika":5475,"evalu":5476,"##ors":5477,"møn":5478,"##skriften":5479,"tanker":5480,"kamera":5481,"flytte":5482,"anledning":5483,"kred":5484,"opprettet":5485,"svenske":5486,"myndigheter":5487,"##nevnte":5488,"indre":5489,"gjer":5490,"skuesp":5491,"##iat":5492,"benytter":5493,"##ank":5494,"##delt":5495,"##tok":5496,"##informasjon":5497,"##gruppen":5498,"former":5499,"2004":5500,"ara":5501,"igjennom":5502,"oppfordr":5503,"##tten":5504,"guds":5505,"##ktoratet":5506,"##urte":5507,"forbund":5508,"##sko":5509,"funksjoner":5510,"ordin":5511,"kjøpte":5512,"gri":5513,"trøndelag":5514,"##ung":5515,"##zz":5516,"apning":5517,"##asitet":5518,"##inter":5519,"##dommen":5520,"ansatt":5521,"skader":5522,"tale":5523,"##its":5524,"##natt":5525,"##aut":5526,"publisert":5527,"##agelig":5528,"ok":5529,"##ick":5530,"svarte":5531,"##fot":5532,"general":5533,"rog":5534,"##brudd":5535,"mm":5536,"jevn":5537,"##staende":5538,"##borg":5539,"øvrig":5540,"##budet":5541,"befolkningen":5542,"typ":5543,"skul":5544,"utarbeid":5545,"selskaper":5546,"evne":5547,"skyldes":5548,"##iering":5549,"##rekk":5550,"kommentar":5551,"##revisjon":5552,"##risk":5553,"tekniske":5554,"##utstyr":5555,"nettsider":5556,"skjønnhet":5557,"etc":5558,"verdier":5559,"forplikt":5560,"uttry":5561,"konsent":5562,"##ita":5563,"##iteen":5564,"levere":5565,"automatisk":5566,"grunnen":5567,"settes":5568,"forbedre":5569,"laste":5570,"##produksjon":5571,"smart":5572,"samsvar":5573,"##etten":5574,"##stedet":5575,"##son":5576,"##ssp":5577,"pengene":5578,"33":5579,"##gjort":5580,"vm":5581,"gjest":5582,"arranger":5583,"alko":5584,"undervisning":5585,"##henger":5586,"##mot":5587,"falt":5588,"dav":5589,"universitetet":5590,"tenk":5591,"##unkter":5592,"spania":5593,"ramme":5594,"institutt":5595,"##ørende":5596,"arrangem":5597,"gjennomføres":5598,"cont":5599,"##istene":5600,"overrask":5601,"skriv":5602,"illust":5603,"##ior":5604,"erik":5605,"komfort":5606,"##ica":5607,"økte":5608,"detaljer":5609,"frisk":5610,"diagn":5611,"##savt":5612,"suksess":5613,"ordet":5614,"##ada":5615,"gravid":5616,"lond":5617,"frukt":5618,"organisasjonen":5619,"##miljø":5620,"mi":5621,"##økene":5622,"posisjon":5623,"alkohol":5624,"trene":5625,"prim":5626,"sendes":5627,"##elefoner":5628,"revol":5629,"bio":5630,"kvart":5631,"##skom":5632,"arlig":5633,"fare":5634,"##fa":5635,"##mas":5636,"umu":5637,"christian":5638,"kul":5639,"ventet":5640,"gjent":5641,"##ommene":5642,"##ics":5643,"##ikal":5644,"##aking":5645,"ball":5646,"##bane":5647,"utvalget":5648,"trygt":5649,"flykt":5650,"fru":5651,"anner":5652,"velg":5653,"tilhør":5654,"nasjonalt":5655,"utlandet":5656,"olav":5657,"retningslinjer":5658,"førte":5659,"dikt":5660,"##æren":5661,"##kor":5662,"reklam":5663,"hovedsak":5664,"##bruks":5665,"profess":5666,"##sbe":5667,"solid":5668,"mad":5669,"titt":5670,"##stin":5671,"##histor":5672,"ki":5673,"xxx":5674,"##yttelse":5675,"htt":5676,"begrunn":5677,"helgen":5678,"spra":5679,"##oven":5680,"09":5681,"aktører":5682,"lis":5683,"konstru":5684,"##vekst":5685,"vedlegg":5686,"##utdanning":5687,"nm":5688,"##inga":5689,"##edrag":5690,"batter":5691,"##aket":5692,"kristian":5693,"underholdning":5694,"litteratur":5695,"kjend":5696,"hau":5697,"lover":5698,"##beg":5699,"##formen":5700,"##verks":5701,"##riske":5702,"##yrk":5703,"##sstil":5704,"minim":5705,"grader":5706,"bruken":5707,"##fart":5708,"løpe":5709,"##ich":5710,"fær":5711,"røde":5712,"omgang":5713,"##enterte":5714,"ør":5715,"bærekraft":5716,"##band":5717,"##veks":5718,"gass":5719,"endte":5720,"##samfunn":5721,"##ordin":5722,"tilretteleg":5723,"utføre":5724,"forny":5725,"synd":5726,"snakket":5727,"##mming":5728,"dialog":5729,"lurt":5730,"driv":5731,"##ction":5732,"##struktur":5733,"##iens":5734,"utsikt":5735,"ledere":5736,"listen":5737,"##sson":5738,"##uen":5739,"##ningsm":5740,"rent":5741,"redd":5742,"undersøkelser":5743,"aktive":5744,"offis":5745,"musli":5746,"reng":5747,"skoler":5748,"##nem":5749,"vesentlig":5750,"øyn":5751,"innkjøp":5752,"deltok":5753,"etterhvert":5754,"skatte":5755,"tider":5756,"##abet":5757,"plu":5758,"institusjon":5759,"hit":5760,"advok":5761,"bygger":5762,"økning":5763,"london":5764,"leie":5765,"forbered":5766,"annerledes":5767,"cook":5768,"krigen":5769,"veier":5770,"benyttet":5771,"behovet":5772,"##fjell":5773,"umiddelbart":5774,"steg":5775,"melding":5776,"opprinnelig":5777,"sentr":5778,"vell":5779,"lars":5780,"tilpasset":5781,"runde":5782,"lest":5783,"begrenset":5784,"##skv":5785,"faste":5786,"ført":5787,"kandid":5788,"trodde":5789,"rot":5790,"drept":5791,"##ape":5792,"##ual":5793,"kapittel":5794,"eld":5795,"ple":5796,"trekk":5797,"invest":5798,"##ffer":5799,"ær":5800,"stod":5801,"##bry":5802,"ufor":5803,"foreløpig":5804,"34":5805,"##rettet":5806,"demokrat":5807,"nu":5808,"ansvaret":5809,"wil":5810,"##arked":5811,"190":5812,"nyttig":5813,"pet":5814,"visste":5815,"kra":5816,"valget":5817,"sender":5818,"etterpa":5819,"kjørte":5820,"##føringen":5821,"festiv":5822,"##gruppe":5823,"dyre":5824,"krimin":5825,"psykisk":5826,"klokken":5827,"nettdating":5828,"##aser":5829,"orig":5830,"inntekt":5831,"##kamp":5832,"barnehagen":5833,"##grupper":5834,"datama":5835,"samarbeidet":5836,"sosi":5837,"##urs":5838,"gave":5839,"aktivt":5840,"net":5841,"bransje":5842,"##hund":5843,"##lan":5844,"synlig":5845,"kamper":5846,"##angen":5847,"understre":5848,"situasjoner":5849,"entre":5850,"kne":5851,"vekk":5852,"positiv":5853,"opplevelser":5854,"struktur":5855,"##ometer":5856,"##ius":5857,"##nader":5858,"##etil":5859,"forelig":5860,"positivt":5861,"tilfelle":5862,"relasjoner":5863,"konst":5864,"##vide":5865,"landets":5866,"don":5867,"eid":5868,"oppbe":5869,"artikkel":5870,"eventuelle":5871,"sort":5872,"##omrade":5873,"planlagt":5874,"angrep":5875,"næring":5876,"vapen":5877,"motstand":5878,"cup":5879,"avis":5880,"ekster":5881,"butikken":5882,"opprette":5883,"2003":5884,"##akelse":5885,"##ssjef":5886,"omkring":5887,"##ekom":5888,"milliarder":5889,"øynene":5890,"##ura":5891,"last":5892,"nødvendige":5893,"knut":5894,"sjelden":5895,"pus":5896,"##yrer":5897,"relevant":5898,"##psjon":5899,"engasjem":5900,"camp":5901,"informasjonskap":5902,"minste":5903,"kontor":5904,"erotisk":5905,"england":5906,"forvente":5907,"liste":5908,"tradisjonelle":5909,"materiale":5910,"symptom":5911,"samling":5912,"bonus":5913,"##enteret":5914,"erotikk":5915,"kontaktannonser":5916,"munn":5917,"støtter":5918,"kunstner":5919,"##skapene":5920,"flert":5921,"##egg":5922,"##stede":5923,"minne":5924,"marker":5925,"umulig":5926,"mangel":5927,"gal":5928,"lykkes":5929,"mult":5930,"forsiktig":5931,"bakken":5932,"mol":5933,"##nor":5934,"gled":5935,"##antene":5936,"lokalt":5937,"fortalte":5938,"datingsider":5939,"teknolog":5940,"park":5941,"##oc":5942,"##haug":5943,"behandlet":5944,"bydel":5945,"##stav":5946,"##grepet":5947,"kg":5948,"naturen":5949,"##grader":5950,"konfer":5951,"vond":5952,"##sels":5953,"##lege":5954,"grund":5955,"næringsliv":5956,"##ligheter":5957,"##ulere":5958,"følelser":5959,"kalles":5960,"##rening":5961,"##middag":5962,"fremm":5963,"utslipp":5964,"##inge":5965,"##post":5966,"##bred":5967,"analyse":5968,"resp":5969,"##arn":5970,"##slige":5971,"studentene":5972,"opptak":5973,"##ellet":5974,"##indu":5975,"##lemmer":5976,"økende":5977,"##ekan":5978,"syns":5979,"begynt":5980,"europeiske":5981,"underveis":5982,"tyske":5983,"##belt":5984,"##ykke":5985,"oppstar":5986,"radio":5987,"argum":5988,"sikt":5989,"godkjenning":5990,"tilnær":5991,"##gging":5992,"respekt":5993,"##ringen":5994,"mottatt":5995,"dvs":5996,"bodde":5997,"kristiansand":5998,"selge":5999,"forskjellig":6000,"##annes":6001,"leverer":6002,"religion":6003,"opplevd":6004,"##folk":6005,"demon":6006,"karri":6007,"##inke":6008,"##sreg":6009,"origin":6010,"idag":6011,"begre":6012,"##jet":6013,"formann":6014,"##gir":6015,"##sessen":6016,"##havn":6017,"##sleder":6018,"rettet":6019,"fortell":6020,"##inder":6021,"kilde":6022,"##ellene":6023,"handverk":6024,"utbet":6025,"sjel":6026,"vurdert":6027,"##sbru":6028,"##verdi":6029,"##sled":6030,"##skog":6031,"##steder":6032,"bygd":6033,"nest":6034,"innbyggere":6035,"amatør":6036,"forsv":6037,"stem":6038,"forstar":6039,"##terer":6040,"isl":6041,"etablere":6042,"engasj":6043,"kurset":6044,"svensk":6045,"veiledning":6046,"##ott":6047,"##ertif":6048,"##kkert":6049,"vedkommende":6050,"bol":6051,"sju":6052,"initi":6053,"192":6054,"inkluderer":6055,"boks":6056,"foredrag":6057,"##forening":6058,"##skrav":6059,"manglende":6060,"agder":6061,"johan":6062,"hørt":6063,"forsøker":6064,"innspill":6065,"plassert":6066,"##sniva":6067,"stemme":6068,"kvinnen":6069,"egnet":6070,"firma":6071,"gen":6072,"fremtiden":6073,"hevder":6074,"solgt":6075,"gjens":6076,"leke":6077,"avfall":6078,"motiver":6079,"slekt":6080,"logistikk":6081,"pape":6082,"støy":6083,"stim":6084,"martin":6085,"##innet":6086,"glem":6087,"mester":6088,"reiseliv":6089,"hvilket":6090,"##legging":6091,"styrem":6092,"##mus":6093,"smar":6094,"nærmeste":6095,"nytte":6096,"kjed":6097,"snakk":6098,"list":6099,"myk":6100,"landbruk":6101,"direktør":6102,"pul":6103,"akershus":6104,"skru":6105,"##endørs":6106,"##gjer":6107,"avsluttet":6108,"##enen":6109,"dommer":6110,"symb":6111,"bytte":6112,"melde":6113,"##ese":6114,"inntrykk":6115,"##skil":6116,"##hl":6117,"banen":6118,"08":6119,"loven":6120,"##ynt":6121,"skar":6122,"##bilder":6123,"##handler":6124,"utdannings":6125,"kategorier":6126,"##ua":6127,"sannsynligvis":6128,"anmeld":6129,"norweg":6130,"skjønner":6131,"##mper":6132,"levert":6133,"##pene":6134,"sentralt":6135,"formalet":6136,"handel":6137,"spesiell":6138,"butikker":6139,"mangfold":6140,"omradene":6141,"viss":6142,"helset":6143,"##virksomhet":6144,"lærere":6145,"konto":6146,"##tiden":6147,"##ton":6148,"##han":6149,"##kninger":6150,"korre":6151,"innb":6152,"ske":6153,"sakalte":6154,"##ld":6155,"##fi":6156,"undervis":6157,"huske":6158,"##ingsmid":6159,"##sad":6160,"fleks":6161,"##30":6162,"ledende":6163,"hverdagen":6164,"ovenfor":6165,"kampan":6166,"ideer":6167,"moro":6168,"utel":6169,"##habil":6170,"ferdigheter":6171,"taler":6172,"##anal":6173,"##klubb":6174,"arne":6175,"##kap":6176,"dekke":6177,"189":6178,"dør":6179,"thom":6180,"##gger":6181,"nøyaktig":6182,"##irektoratet":6183,"innstilling":6184,"##stilt":6185,"legemid":6186,"skriftlig":6187,"enheter":6188,"eventyr":6189,"##slig":6190,"nydelig":6191,"jenta":6192,"##edes":6193,"husker":6194,"produsert":6195,"pavirke":6196,"eksper":6197,"raskere":6198,"blomster":6199,"ligge":6200,"forhandling":6201,"##esel":6202,"37":6203,"faller":6204,"400":6205,"##sar":6206,"mistet":6207,"statsb":6208,"oppstart":6209,"platt":6210,"##spektiv":6211,"sag":6212,"install":6213,"konsert":6214,"svø":6215,"stabil":6216,"turer":6217,"personopplys":6218,"##meldinger":6219,"##ida":6220,"mik":6221,"kommunens":6222,"##kre":6223,"##ennelse":6224,"fril":6225,"sms":6226,"##sarbeid":6227,"sold":6228,"lurer":6229,"færre":6230,"##uksjon":6231,"##vent":6232,"stats":6233,"##ctor":6234,"tide":6235,"egenskaper":6236,"brukerne":6237,"petter":6238,"løsningen":6239,"opptil":6240,"debatt":6241,"penis":6242,"fullstendig":6243,"##spolit":6244,"##løsning":6245,"##sti":6246,"##virkning":6247,"følg":6248,"kravene":6249,"spre":6250,"følte":6251,"kommentarer":6252,"##annen":6253,"kirk":6254,"arsaken":6255,"matt":6256,"##osisjon":6257,"##sik":6258,"anders":6259,"forst":6260,"tit":6261,"##spør":6262,"velferd":6263,"##spil":6264,"##jøring":6265,"trans":6266,"sof":6267,"beskrivelse":6268,"kreditt":6269,"programmer":6270,"frig":6271,"##kking":6272,"album":6273,"oppgjør":6274,"##akte":6275,"fleksib":6276,"38":6277,"arena":6278,"##ll":6279,"kjøpes":6280,"##vante":6281,"ettermiddag":6282,"slipper":6283,"nabo":6284,"frankrike":6285,"sølv":6286,"utgitt":6287,"hell":6288,"vo":6289,"areal":6290,"nam":6291,"##aner":6292,"##hel":6293,"hjemmel":6294,"operasjon":6295,"terror":6296,"##terte":6297,"norwegian":6298,"forvaltning":6299,"lab":6300,"arbeidsta":6301,"nøye":6302,"typen":6303,"maler":6304,"##arm":6305,"##sprosjekt":6306,"farlig":6307,"##ta":6308,"fab":6309,"minner":6310,"ledet":6311,"pedagog":6312,"##oteket":6313,"drammen":6314,"partene":6315,"utmerket":6316,"hurt":6317,"parkering":6318,"##nu":6319,"1000":6320,"repar":6321,"forslaget":6322,"2001":6323,"##øver":6324,"preget":6325,"enige":6326,"##løse":6327,"##ander":6328,"##nene":6329,"frykt":6330,"svare":6331,"kostnader":6332,"skille":6333,"rol":6334,"islam":6335,"innh":6336,"stal":6337,"nærmest":6338,"##fisk":6339,"konsekvenser":6340,"normal":6341,"passe":6342,"##møte":6343,"ip":6344,"myndighetene":6345,"slar":6346,"romant":6347,"##imensjon":6348,"mulige":6349,"iv":6350,"planlegging":6351,"fungere":6352,"tilstede":6353,"forbi":6354,"grenser":6355,"ytre":6356,"metoder":6357,"asyl":6358,"rab":6359,"fitte":6360,"##rende":6361,"##press":6362,"hyl":6363,"omgiv":6364,"delvis":6365,"kina":6366,"tillatelse":6367,"olsen":6368,"oppgaven":6369,"huden":6370,"##strøm":6371,"deltakere":6372,"nede":6373,"##aliteten":6374,"pga":6375,"ekskl":6376,"forskere":6377,"fylle":6378,"kaller":6379,"trav":6380,"2002":6381,"møtes":6382,"forventet":6383,"bredt":6384,"##bon":6385,"##illa":6386,"kyst":6387,"vondt":6388,"hindre":6389,"ntb":6390,"##industri":6391,"representerer":6392,"arkitekt":6393,"markedsføring":6394,"nettbutikk":6395,"75":6396,"arbeidst":6397,"hd":6398,"melder":6399,"paul":6400,"rolig":6401,"tvang":6402,"senior":6403,"sterkere":6404,"merker":6405,"personen":6406,"trekker":6407,"herlig":6408,"opprettholde":6409,"erst":6410,"garden":6411,"hode":6412,"turist":6413,"presentere":6414,"##isse":6415,"verken":6416,"myndighet":6417,"##ielt":6418,"kjørt":6419,"##sil":6420,"stikk":6421,"utarbeidet":6422,"lanser":6423,"##nok":6424,"##nett":6425,"##oper":6426,"flytt":6427,"betaling":6428,"##kkelen":6429,"##enhet":6430,"##10":6431,"pavirker":6432,"leverandør":6433,"professor":6434,"hjemm":6435,"##che":6436,"##gaven":6437,"skaffe":6438,"kombinasjon":6439,"hjul":6440,"fan":6441,"konflikt":6442,"faren":6443,"tilgjengelige":6444,"entrep":6445,"linje":6446,"##edskap":6447,"39":6448,"hull":6449,"frp":6450,"ac":6451,"##rel":6452,"skjerm":6453,"uttal":6454,"spare":6455,"utenlandske":6456,"aksept":6457,"gjennomgang":6458,"beskrevet":6459,"##vendig":6460,"tilfeldig":6461,"fantas":6462,"##ging":6463,"##unnet":6464,"giftet":6465,"dobbelt":6466,"##pan":6467,"fjern":6468,"besøkende":6469,"##skrig":6470,"galt":6471,"anvend":6472,"##bur":6473,"skilt":6474,"bedriften":6475,"##anner":6476,"grunner":6477,"##setninger":6478,"lid":6479,"koselig":6480,"sikrer":6481,"aringen":6482,"vinteren":6483,"peder":6484,"feltet":6485,"lot":6486,"diskusjon":6487,"midten":6488,"dans":6489,"enig":6490,"##itering":6491,"kundene":6492,"epis":6493,"dus":6494,"play":6495,"##settelse":6496,"##banen":6497,"sav":6498,"kristen":6499,"dyp":6500,"dit":6501,"singel":6502,"levende":6503,"baby":6504,"brudd":6505,"tvers":6506,"##etning":6507,"entrepren":6508,"innled":6509,"tilknyt":6510,"##indel":6511,"##bes":6512,"foreninger":6513,"##mmende":6514,"##fulle":6515,"##komst":6516,"garant":6517,"leter":6518,"innrø":6519,"##inen":6520,"overnatt":6521,"terreng":6522,"##able":6523,"##ativer":6524,"##hjem":6525,"virksomheter":6526,"ander":6527,"##duksjon":6528,"mobilt":6529,"strategi":6530,"##bruket":6531,"vurderes":6532,"188":6533,"visst":6534,"frist":6535,"deltar":6536,"artikler":6537,"kø":6538,"fjerde":6539,"kunden":6540,"pappa":6541,"uka":6542,"##verdig":6543,"vurderer":6544,"##feltet":6545,"##rest":6546,"tilbudet":6547,"samfunns":6548,"##oo":6549,"sammens":6550,"cat":6551,"baten":6552,"gate":6553,"##være":6554,"engasjement":6555,"##kontroll":6556,"##nr":6557,"kommunale":6558,"dog":6559,"jød":6560,"##kjø":6561,"dokumenter":6562,"historier":6563,"bistand":6564,"##kser":6565,"##øpt":6566,"hagen":6567,"fler":6568,"def":6569,"kapasitet":6570,"rekrutter":6571,"herunder":6572,"østfold":6573,"show":6574,"##skjer":6575,"55":6576,"air":6577,"##sser":6578,"morsomt":6579,"syv":6580,"medarbeidere":6581,"reglene":6582,"##vest":6583,"velly":6584,"##iseringen":6585,"##løpet":6586,"##makt":6587,"utgifter":6588,"wik":6589,"serie":6590,"bir":6591,"turner":6592,"lyn":6593,"administrat":6594,"##tatt":6595,"##rapport":6596,"storb":6597,"praktiske":6598,"medlemmene":6599,"jør":6600,"##jo":6601,"takket":6602,"if":6603,"##bevis":6604,"konkurransen":6605,"##ligheten":6606,"milf":6607,"relevante":6608,"handtere":6609,"troms":6610,"##sene":6611,"kreve":6612,"flink":6613,"forsøke":6614,"motta":6615,"##ament":6616,"korte":6617,"kaffe":6618,"isol":6619,"##ubber":6620,"fysiske":6621,"miljøet":6622,"diver":6623,"minimum":6624,"##drer":6625,"bodø":6626,"feir":6627,"sambo":6628,"prøvde":6629,"observ":6630,"kreves":6631,"oblig":6632,"gje":6633,"##grammet":6634,"sammenlignet":6635,"##setting":6636,"matemat":6637,"##we":6638,"bri":6639,"sykehuset":6640,"behandlingen":6641,"york":6642,"##amin":6643,"nettside":6644,"lykke":6645,"fordeler":6646,"##au":6647,"##dommer":6648,"##port":6649,"religi":6650,"støtt":6651,"deltakerne":6652,"faglige":6653,"hendelser":6654,"skre":6655,"hjør":6656,"##foret":6657,"frivillig":6658,"##øter":6659,"cookies":6660,"utføres":6661,"fengsel":6662,"halvparten":6663,"##vesen":6664,"##annelse":6665,"arm":6666,"instru":6667,"##sje":6668,"##liggende":6669,"frivillige":6670,"skand":6671,"fylkeskommun":6672,"øl":6673,"hjertet":6674,"##opplev":6675,"marit":6676,"departementet":6677,"lind":6678,"museum":6679,"##ktivt":6680,"statistikk":6681,"##lement":6682,"produksjonen":6683,"##oritet":6684,"stasjon":6685,"intens":6686,"modeller":6687,"velvære":6688,"##df":6689,"##mpe":6690,"forklar":6691,"##sund":6692,"frokost":6693,"tabell":6694,"byer":6695,"nom":6696,"overfl":6697,"##prob":6698,"belast":6699,"dekker":6700,"kunnskaps":6701,"##stol":6702,"##eleder":6703,"kontra":6704,"fulgt":6705,"##lend":6706,"##gard":6707,"##behov":6708,"registrering":6709,"forster":6710,"juster":6711,"skiller":6712,"bokstav":6713,"kontroller":6714,"##urens":6715,"ulov":6716,"naturlige":6717,"henger":6718,"hag":6719,"tilstand":6720,"beskriver":6721,"##she":6722,"rutiner":6723,"##kere":6724,"ledelsen":6725,"##own":6726,"##skjema":6727,"informasjonskapsler":6728,"kilder":6729,"sosialt":6730,"##vekt":6731,"omfang":6732,"##atning":6733,"##eier":6734,"##minn":6735,"##ensasjon":6736,"kas":6737,"##rud":6738,"verne":6739,"unike":6740,"##peri":6741,"##ketøy":6742,"mønster":6743,"likte":6744,"island":6745,"størst":6746,"spiser":6747,"alex":6748,"samtale":6749,"sliter":6750,"eksa":6751,"kontinuer":6752,"produktene":6753,"##egru":6754,"ram":6755,"48":6756,"##bøker":6757,"innskudd":6758,"sene":6759,"overgang":6760,"retur":6761,"rike":6762,"op":6763,"kriter":6764,"##yre":6765,"##ikke":6766,"generelle":6767,"vat":6768,"utvidet":6769,"altfor":6770,"##oppgaver":6771,"syntes":6772,"vennlig":6773,"grønne":6774,"deltag":6775,"##igere":6776,"char":6777,"søknaden":6778,"hotel":6779,"bær":6780,"hansen":6781,"kritikk":6782,"storbrit":6783,"##har":6784,"42":6785,"##sent":6786,"produktet":6787,"##ismen":6788,"##bær":6789,"kapital":6790,"ballen":6791,"klim":6792,"##orene":6793,"fulgte":6794,"##ube":6795,"betal":6796,"##jøen":6797,"##kobling":6798,"teater":6799,"##jørn":6800,"frihet":6801,"##øye":6802,"triv":6803,"effektivt":6804,"plassen":6805,"##slet":6806,"hovedsa":6807,"øya":6808,"forskjellen":6809,"##vidt":6810,"doll":6811,"##anke":6812,"dekket":6813,"konkrete":6814,"##rafikken":6815,"anna":6816,"indik":6817,"løper":6818,"##kel":6819,"storbritann":6820,"##autom":6821,"lad":6822,"##gjøring":6823,"kvinnene":6824,"##edal":6825,"grunnlaget":6826,"hytt":6827,"ent":6828,"møteplassen":6829,"garder":6830,"06":6831,"##hi":6832,"tingene":6833,"byr":6834,"stede":6835,"representanter":6836,"kravet":6837,"05":6838,"foreligger":6839,"negative":6840,"##elighet":6841,"##ving":6842,"slippe":6843,"barnehag":6844,"befinner":6845,"treffe":6846,"arbeidsmiljø":6847,"ødeleg":6848,"##uddet":6849,"visse":6850,"likestilling":6851,"fortj":6852,"konsept":6853,"##rop":6854,"##emark":6855,"##arden":6856,"##boks":6857,"smerte":6858,"vill":6859,"avde":6860,"arbeidstaker":6861,"bevil":6862,"anlegget":6863,"##skraft":6864,"sykdommer":6865,"forklarer":6866,"trend":6867,"jac":6868,"øyebli":6869,"elektronikk":6870,"mas":6871,"rettferd":6872,"svarer":6873,"##idrett":6874,"arbeidsmarked":6875,"aksjon":6876,"selskapets":6877,"##ksen":6878,"behandle":6879,"foregar":6880,"##etting":6881,"##oft":6882,"avstand":6883,"betalt":6884,"oppgrader":6885,"thomas":6886,"utstilling":6887,"opplysningene":6888,"vansk":6889,"bøkene":6890,"pluss":6891,"##sløs":6892,"inge":6893,"vokser":6894,"øyeblikk":6895,"bøl":6896,"##ule":6897,"##opplær":6898,"engang":6899,"flyt":6900,"teksten":6901,"avgift":6902,"mail":6903,"fylt":6904,"overord":6905,"##aren":6906,"boliger":6907,"##løst":6908,"krevende":6909,"kjemisk":6910,"##inde":6911,"danske":6912,"##vakt":6913,"klat":6914,"150":6915,"bos":6916,"antallet":6917,"##partiet":6918,"kilometer":6919,"afrika":6920,"arrangert":6921,"out":6922,"47":6923,"##vensjon":6924,"massage":6925,"evaluering":6926,"anon":6927,"##rus":6928,"hovedsakelig":6929,"landene":6930,"agent":6931,"nevne":6932,"##aktiv":6933,"site":6934,"##nne":6935,"daglige":6936,"##arene":6937,"legen":6938,"besøker":6939,"pupper":6940,"forklare":6941,"bob":6942,"ton":6943,"sertif":6944,"profesjonelle":6945,"bedt":6946,"##akk":6947,"##tr":6948,"leverandører":6949,"initiativ":6950,"##akon":6951,"paris":6952,"systemer":6953,"##fød":6954,"escorte":6955,"##produs":6956,"alvorlige":6957,"##wer":6958,"hemmelig":6959,"##ep":6960,"aud":6961,"44":6962,"mos":6963,"pause":6964,"rart":6965,"##skol":6966,"##mos":6967,"tyrk":6968,"havet":6969,"finnmark":6970,"##yp":6971,"##aa":6972,"anbefales":6973,"trygge":6974,"lavt":6975,"##petanse":6976,"uv":6977,"##ain":6978,"rene":6979,"friluft":6980,"fjellet":6981,"aften":6982,"##nede":6983,"gjester":6984,"##bol":6985,"avtaler":6986,"adresse":6987,"regne":6988,"meldinger":6989,"natten":6990,"skapt":6991,"utfordring":6992,"øyne":6993,"dreier":6994,"##ational":6995,"##leser":6996,"##skilt":6997,"temaet":6998,"##dyr":6999,"tanken":7000,"menneskene":7001,"187":7002,"austral":7003,"stral":7004,"kone":7005,"fond":7006,"kvaliteten":7007,"veter":7008,"##rim":7009,"søte":7010,"kines":7011,"arter":7012,"lette":7013,"oppbevar":7014,"##flyt":7015,"naværende":7016,"utforske":7017,"##dø":7018,"metode":7019,"hurtig":7020,"borger":7021,"leveres":7022,"fortsatte":7023,"opprinnelige":7024,"##kjøring":7025,"haret":7026,"regionen":7027,"undersøke":7028,"garanter":7029,"city":7030,"forestil":7031,"dyn":7032,"mengder":7033,"advokat":7034,"dens":7035,"skjermen":7036,"your":7037,"beslut":7038,"seil":7039,"##tokoll":7040,"registrere":7041,"human":7042,"##ood":7043,"marg":7044,"##last":7045,"aksep":7046,"##rimin":7047,"yout":7048,"diverse":7049,"jub":7050,"##ya":7051,"ordfører":7052,"spillerne":7053,"##rede":7054,"##iel":7055,"tverr":7056,"oppover":7057,"##inet":7058,"02":7059,"riksrevisjon":7060,"stoppe":7061,"black":7062,"forlag":7063,"deltakelse":7064,"tilknytning":7065,"tildelt":7066,"##yk":7067,"demonst":7068,"koster":7069,"##speri":7070,"kompon":7071,"erstat":7072,"186":7073,"ulik":7074,"##lagte":7075,"##angel":7076,"milj":7077,"søt":7078,"drar":7079,"##rut":7080,"mulighetene":7081,"forar":7082,"tjenestene":7083,"##ogen":7084,"sykeple":7085,"##alender":7086,"bygges":7087,"##bler":7088,"prøvd":7089,"elektronisk":7090,"utenom":7091,"nevnte":7092,"orientering":7093,"spurte":7094,"##ley":7095,"sæ":7096,"##navn":7097,"ult":7098,"obser":7099,"rehabil":7100,"sove":7101,"##yse":7102,"leir":7103,"##liste":7104,"##ec":7105,"##ingsmiddel":7106,"innsikt":7107,"##likevel":7108,"##udsjett":7109,"samarbeidspart":7110,"oftest":7111,"##ørte":7112,"avkl":7113,"##minister":7114,"##itenskap":7115,"##ona":7116,"kontinuerlig":7117,"klage":7118,"bag":7119,"##asjen":7120,"##personer":7121,"esp":7122,"hast":7123,"oppgitt":7124,"forholdene":7125,"##skyld":7126,"rogaland":7127,"##ilde":7128,"forskjeller":7129,"partiet":7130,"fordelt":7131,"involvert":7132,"risikoen":7133,"##osof":7134,"konkurrans":7135,"avgjøre":7136,"henvend":7137,"kjer":7138,"kritisk":7139,"lave":7140,"reser":7141,"presentert":7142,"info":7143,"hjemmet":7144,"mac":7145,"thor":7146,"hest":7147,"comm":7148,"føles":7149,"gunn":7150,"ntnu":7151,"logg":7152,"grense":7153,"slit":7154,"optim":7155,"aka":7156,"italia":7157,"andelen":7158,"stolt":7159,"sjansen":7160,"wind":7161,"karl":7162,"##utte":7163,"vilje":7164,"fylkesmannen":7165,"perf":7166,"beskytte":7167,"##stra":7168,"storbritannia":7169,"fellesskap":7170,"servic":7171,"##avgift":7172,"inngar":7173,"##førsel":7174,"reiste":7175,"bryll":7176,"pasienten":7177,"kommende":7178,"##grens":7179,"regnet":7180,"kate":7181,"strid":7182,"##inene":7183,"svak":7184,"##sesjon":7185,"regionale":7186,"##hengige":7187,"##skrifter":7188,"mørke":7189,"bestemmer":7190,"vurderinger":7191,"britiske":7192,"lært":7193,"designet":7194,"igang":7195,"bandet":7196,"tekster":7197,"mikro":7198,"##sprogram":7199,"modellen":7200,"tyn":7201,"utenriks":7202,"farmas":7203,"##blo":7204,"##verktøy":7205,"lam":7206,"barnevern":7207,"hyd":7208,"##grad":7209,"##lek":7210,"interessante":7211,"##egj":7212,"bransjen":7213,"buss":7214,"speed":7215,"samliv":7216,"lunsj":7217,"##frastruktur":7218,"skuespiller":7219,"forekom":7220,"fredrikstad":7221,"gamm":7222,"gifte":7223,"menneskerett":7224,"folkeh":7225,"appen":7226,"jurid":7227,"framtid":7228,"likt":7229,"##su":7230,"reag":7231,"07":7232,"beredskap":7233,"ekstremt":7234,"scan":7235,"##ykker":7236,"vakt":7237,"##bytte":7238,"avdel":7239,"utelu":7240,"inspirert":7241,"fisker":7242,"ukra":7243,"front":7244,"kvinnelige":7245,"klokka":7246,"##barn":7247,"restaurant":7248,"aksje":7249,"eldste":7250,"generell":7251,"##hører":7252,"##urdering":7253,"kore":7254,"studiet":7255,"foss":7256,"følelse":7257,"stift":7258,"##nus":7259,"utro":7260,"plikt":7261,"instrum":7262,"utse":7263,"##ford":7264,"##inert":7265,"##hr":7266,"brukeren":7267,"41":7268,"testet":7269,"##kam":7270,"medisinsk":7271,"kastet":7272,"innsat":7273,"##still":7274,"##ktoren":7275,"perfekte":7276,"lim":7277,"regnes":7278,"opphav":7279,"##aksjoner":7280,"##iment":7281,"sørger":7282,"##øt":7283,"bursdag":7284,"##viser":7285,"trygghet":7286,"##esund":7287,"motsetning":7288,"dimensjon":7289,"fen":7290,"historiske":7291,"stig":7292,"rammer":7293,"usikker":7294,"riktige":7295,"gjennomsnittlig":7296,"grep":7297,"malg":7298,"##anda":7299,"peter":7300,"flag":7301,"rulle":7302,"##byra":7303,"definit":7304,"skogen":7305,"##delige":7306,"tørr":7307,"arrangement":7308,"vestfold":7309,"line":7310,"##sinn":7311,"##inav":7312,"darlige":7313,"symbol":7314,"seksjon":7315,"03":7316,"medfører":7317,"mom":7318,"fjord":7319,"beregnet":7320,"oppn":7321,"mont":7322,"kosthold":7323,"world":7324,"ola":7325,"dollar":7326,"##skip":7327,"redde":7328,"kreativ":7329,"prosed":7330,"engros":7331,"semin":7332,"46":7333,"big":7334,"tonn":7335,"##apir":7336,"hoteller":7337,"##jul":7338,"allmenn":7339,"sivil":7340,"innført":7341,"mg":7342,"verdenskrig":7343,"##ulering":7344,"famili":7345,"virk":7346,"##ions":7347,"43":7348,"apenbart":7349,"divisjon":7350,"##øpet":7351,"sover":7352,"sidene":7353,"elementer":7354,"snar":7355,"bakgrunnen":7356,"##elet":7357,"##erende":7358,"##kan":7359,"familier":7360,"##stall":7361,"sjekket":7362,"forventninger":7363,"engasjer":7364,"kant":7365,"øye":7366,"##ulerer":7367,"##ioder":7368,"##isp":7369,"##ikerne":7370,"anses":7371,"konge":7372,"institusjoner":7373,"anbefale":7374,"##vennlig":7375,"##legget":7376,"dekk":7377,"##start":7378,"##attes":7379,"tallene":7380,"mak":7381,"ryggen":7382,"regulering":7383,"million":7384,"##atere":7385,"sirk":7386,"hunder":7387,"sies":7388,"gutta":7389,"grundig":7390,"ivareta":7391,"##sky":7392,"fn":7393,"sykdommen":7394,"bestemmelser":7395,"##eloven":7396,"imponer":7397,"datamaskin":7398,"shopp":7399,"minutt":7400,"samler":7401,"karriere":7402,"maria":7403,"nedover":7404,"perm":7405,"tusenvis":7406,"##stekn":7407,"prop":7408,"begrepet":7409,"##somhet":7410,"##ionen":7411,"##igh":7412,"overgrep":7413,"besøkte":7414,"arab":7415,"analys":7416,"maling":7417,"##film":7418,"identitet":7419,"haha":7420,"hunden":7421,"smil":7422,"bestemme":7423,"statsminister":7424,"##add":7425,"muslim":7426,"søvn":7427,"##edd":7428,"vedr":7429,"bit":7430,"skogbruk":7431,"mr":7432,"johannes":7433,"null":7434,"trump":7435,"levering":7436,"gyld":7437,"fortalt":7438,"bortsett":7439,"ess":7440,"vag":7441,"marie":7442,"vaks":7443,"glade":7444,"##sloven":7445,"##ttene":7446,"personopplysninger":7447,"##vernet":7448,"representant":7449,"styring":7450,"motivasjon":7451,"forurens":7452,"produsere":7453,"ekspert":7454,"allikevel":7455,"biotekn":7456,"##ari":7457,"##espør":7458,"##ilsynet":7459,"##skuddet":7460,"iph":7461,"passasjer":7462,"opplevde":7463,"fak":7464,"forsøkt":7465,"nærmer":7466,"sum":7467,"tant":7468,"bæ":7469,"innføring":7470,"revid":7471,"##istan":7472,"aksjer":7473,"##stjenester":7474,"vand":7475,"##iland":7476,"##sevne":7477,"innkal":7478,"##agram":7479,"rav":7480,"kok":7481,"##alinger":7482,"ektef":7483,"lengde":7484,"##drift":7485,"##okk":7486,"gevin":7487,"opplyser":7488,"klassen":7489,"##barhet":7490,"##ansene":7491,"##elde":7492,"fabri":7493,"##fs":7494,"##ype":7495,"##wa":7496,"##rering":7497,"##val":7498,"##dagen":7499,"atferd":7500,"1990":7501,"verre":7502,"apotek":7503,"pi":7504,"oppdrett":7505,"##vo":7506,"optimal":7507,"spørsmalene":7508,"orden":7509,"plag":7510,"hender":7511,"bibliotek":7512,"pakke":7513,"##kretær":7514,"##stiltak":7515,"bass":7516,"flertall":7517,"mekan":7518,"kommunestyret":7519,"04":7520,"##ds":7521,"##merk":7522,"ender":7523,"ende":7524,"kommersi":7525,"militær":7526,"mun":7527,"teste":7528,"sus":7529,"nødvendigvis":7530,"##elling":7531,"youtube":7532,"forhap":7533,"gay":7534,"fy":7535,"utgave":7536,"løfte":7537,"ordningen":7538,"600":7539,"##følgende":7540,"##presjon":7541,"por":7542,"døgn":7543,"varmt":7544,"##vi":7545,"øvre":7546,"profiler":7547,"forhin":7548,"posten":7549,"##posten":7550,"harald":7551,"##forbundet":7552,"misten":7553,"prost":7554,"farmasøyt":7555,"prosesser":7556,"##uk":7557,"etterspør":7558,"65":7559,"##sprak":7560,"effekten":7561,"##present":7562,"one":7563,"statt":7564,"##isteret":7565,"##brans":7566,"180":7567,"mottar":7568,"forvaltnings":7569,"##merker":7570,"oppfordrer":7571,"fjernet":7572,"##holm":7573,"utfører":7574,"mengde":7575,"hjemmeside":7576,"sites":7577,"organisering":7578,"befolkning":7579,"spred":7580,"##uta":7581,"handels":7582,"##personell":7583,"tend":7584,"cal":7585,"##stiden":7586,"innga":7587,"hovedstad":7588,"viktigere":7589,"fravær":7590,"regi":7591,"##result":7592,"##retning":7593,"styrker":7594,"##bi":7595,"lansert":7596,"##ella":7597,"vellykket":7598,"akadem":7599,"inf":7600,"takt":7601,"david":7602,"##omen":7603,"##sre":7604,"næringsmiddel":7605,"behandles":7606,"inngatt":7607,"populært":7608,"stoppet":7609,"##elset":7610,"kjerne":7611,"jens":7612,"##ktighet":7613,"tenn":7614,"##pping":7615,"stilte":7616,"##hal":7617,"kjøkkenet":7618,"infrastruktur":7619,"eksklus":7620,"rust":7621,"##mmede":7622,"programvare":7623,"##ria":7624,"seksuelle":7625,"kors":7626,"1999":7627,"sinn":7628,"matematikk":7629,"##biler":7630,"ner":7631,"kult":7632,"forbe":7633,"bind":7634,"grov":7635,"sekunder":7636,"svaret":7637,"##valt":7638,"bordet":7639,"molde":7640,"##egnet":7641,"nys":7642,"##ows":7643,"##ze":7644,"utforming":7645,"totale":7646,"##ansvarlig":7647,"bestilling":7648,"gulv":7649,"##skoler":7650,"sjanse":7651,"stillinger":7652,"alli":7653,"analyser":7654,"##skost":7655,"nært":7656,"følelsen":7657,"##ato":7658,"fartøy":7659,"fransk":7660,"japan":7661,"kull":7662,"konsul":7663,"##api":7664,"grupp":7665,"magen":7666,"##givning":7667,"##wn":7668,"betrakt":7669,"leker":7670,"holdes":7671,"dn":7672,"##inerer":7673,"drømmer":7674,"evt":7675,"betaler":7676,"andreas":7677,"franske":7678,"alternativer":7679,"vars":7680,"drevet":7681,"assist":7682,"arbeidslivet":7683,"this":7684,"##ordning":7685,"møteplass":7686,"sem":7687,"imm":7688,"colle":7689,"pale":7690,"bruks":7691,"foreslar":7692,"##spiller":7693,"##svalg":7694,"##pix":7695,"slutte":7696,"telemark":7697,"samtlige":7698,"noens":7699,"morsom":7700,"utbygging":7701,"likhet":7702,"ros":7703,"undertøy":7704,"radgiver":7705,"##rommet":7706,"forholde":7707,"arsmøtet":7708,"rock":7709,"mv":7710,"##ute":7711,"pum":7712,"hytte":7713,"utvalgte":7714,"dømt":7715,"utøver":7716,"##ited":7717,"fattig":7718,"##basert":7719,"klassisk":7720,"pak":7721,"##øg":7722,"yog":7723,"bot":7724,"tøff":7725,"leag":7726,"liksom":7727,"tilpasse":7728,"##send":7729,"##job":7730,"perspektiv":7731,"##forn":7732,"vanskelige":7733,"unik":7734,"personal":7735,"##ii":7736,"oppvar":7737,"##rasjoner":7738,"gle":7739,"nettleser":7740,"spenning":7741,"morten":7742,"global":7743,"arlige":7744,"##renn":7745,"##ating":7746,"##veksling":7747,"##arbeider":7748,"inde":7749,"prosjektleder":7750,"##ola":7751,"overraskende":7752,"sapass":7753,"engasjert":7754,"utfordrende":7755,"oppsummer":7756,"virket":7757,"faktum":7758,"bærekraftig":7759,"andres":7760,"##vise":7761,"sne":7762,"##rerende":7763,"##ace":7764,"vakker":7765,"eksamen":7766,"##sfri":7767,"ikt":7768,"canada":7769,"##poeng":7770,"##enser":7771,"apple":7772,"##leve":7773,"effektive":7774,"politikere":7775,"medie":7776,"varierer":7777,"sendte":7778,"##ilitet":7779,"##isser":7780,"datab":7781,"iphone":7782,"##lad":7783,"##behør":7784,"sikret":7785,"##aterte":7786,"##foreningen":7787,"telefoni":7788,"involver":7789,"scanpix":7790,"##splikt":7791,"rosa":7792,"fakta":7793,"beholde":7794,"tempo":7795,"49":7796,"separ":7797,"parti":7798,"las":7799,"været":7800,"##sidene":7801,"##ora":7802,"historisk":7803,"##cy":7804,"##siktige":7805,"organisert":7806,"musikken":7807,"adre":7808,"##abri":7809,"##ilder":7810,"presentasjon":7811,"hensikten":7812,"rødt":7813,"nøkkel":7814,"fornuft":7815,"##arch":7816,"##datter":7817,"##skar":7818,"##litt":7819,"jam":7820,"##rur":7821,"væ":7822,"anska":7823,"league":7824,"aktuelt":7825,"##bø":7826,"tillate":7827,"døpt":7828,"##pas":7829,"##kende":7830,"samarbeide":7831,"##tekter":7832,"##hop":7833,"##ppel":7834,"##irektør":7835,"lane":7836,"regner":7837,"grønnsaker":7838,"forfatteren":7839,"hels":7840,"##ely":7841,"materialer":7842,"malene":7843,"##foretak":7844,"ærlig":7845,"##kr":7846,"psykiske":7847,"inntekter":7848,"mobile":7849,"bevegelse":7850,"##ukt":7851,"virkeligheten":7852,"##smid":7853,"avløp":7854,"##inerte":7855,"##40":7856,"fakult":7857,"vegne":7858,"fersk":7859,"riksrevisjonens":7860,"##omradene":7861,"##odene":7862,"oppdage":7863,"foreta":7864,"overrasket":7865,"agentur":7866,"##smøte":7867,"##ggen":7868,"trengte":7869,"retter":7870,"forsvaret":7871,"##yer":7872,"##saktiv":7873,"##edlemmer":7874,"bekl":7875,"lund":7876,"##edia":7877,"verste":7878,"skudd":7879,"52":7880,"sluttet":7881,"##holdes":7882,"##organisasjon":7883,"metall":7884,"bryst":7885,"ran":7886,"dep":7887,"vaske":7888,"fulle":7889,"samtykke":7890,"##aden":7891,"halvt":7892,"konsesjon":7893,"handlinger":7894,"##alb":7895,"bb":7896,"##ssystem":7897,"##sig":7898,"vegg":7899,"kjennet":7900,"hapet":7901,"los":7902,"engroshandel":7903,"samhandling":7904,"farmasøytisk":7905,"gjestene":7906,"##tur":7907,"faktorer":7908,"arsaker":7909,"slette":7910,"filosof":7911,"ideen":7912,"slapp":7913,"tøy":7914,"scene":7915,"kongen":7916,"##sdal":7917,"spen":7918,"has":7919,"##økonom":7920,"##illet":7921,"vanskeligere":7922,"stu":7923,"høres":7924,"resul":7925,"tone":7926,"klasser":7927,"rum":7928,"kab":7929,"bygninger":7930,"tungt":7931,"oppført":7932,"yng":7933,"##vold":7934,"betong":7935,"##aken":7936,"malgru":7937,"finansiering":7938,"##beveg":7939,"gradvis":7940,"##ave":7941,"##ittet":7942,"##ye":7943,"##æring":7944,"nb":7945,"nødt":7946,"støv":7947,"##spillet":7948,"##forskning":7949,"infe":7950,"##bør":7951,"##iko":7952,"tenar":7953,"spesialist":7954,"##inerende":7955,"http":7956,"planlegge":7957,"spilleautom":7958,"frø":7959,"##tekt":7960,"skadet":7961,"##ggende":7962,"cre":7963,"##brett":7964,"##utere":7965,"sakalt":7966,"trist":7967,"prisene":7968,"##chel":7969,"##samlingen":7970,"taket":7971,"miste":7972,"1800":7973,"klager":7974,"##fjorden":7975,"brutt":7976,"##veier":7977,"formen":7978,"krf":7979,"##iert":7980,"##skon":7981,"plate":7982,"karet":7983,"søster":7984,"andersen":7985,"begrav":7986,"##cke":7987,"tyder":7988,"typisk":7989,"##faglig":7990,"kaste":7991,"##messige":7992,"gaver":7993,"misjon":7994,"koble":7995,"finan":7996,"instal":7997,"systematisk":7998,"utvide":7999,"darligere":8000,"reduksjon":8001,"##blad":8002,"lyse":8003,"skinn":8004,"##dige":8005,"homofile":8006,"plassering":8007,"tester":8008,"##fond":8009,"tung":8010,"presset":8011,"studer":8012,"tilbakemeldinger":8013,"nødnummer":8014,"vidt":8015,"more":8016,"blad":8017,"profesjonell":8018,"##cel":8019,"twitter":8020,"sving":8021,"premier":8022,"samtaler":8023,"utendørs":8024,"##alderen":8025,"##system":8026,"golf":8027,"sistnevnte":8028,"løpende":8029,"##planen":8030,"utnytte":8031,"busker":8032,"amerikansk":8033,"foretatt":8034,"stillingen":8035,"bane":8036,"fing":8037,"##mosf":8038,"bærer":8039,"bekreftet":8040,"##delen":8041,"grensen":8042,"muskel":8043,"##aktør":8044,"utfør":8045,"rente":8046,"##ransport":8047,"snu":8048,"arhund":8049,"##edlem":8050,"sund":8051,"forventer":8052,"bioteknologisk":8053,"##com":8054,"søkte":8055,"##rinn":8056,"rammet":8057,"##vitt":8058,"mes":8059,"tida":8060,"inngang":8061,"##xt":8062,"henge":8063,"debatten":8064,"vokse":8065,"##inske":8066,"handball":8067,"midlertidig":8068,"het":8069,"innflyt":8070,"deleg":8071,"forkant":8072,"book":8073,"tillatt":8074,"##lant":8075,"##way":8076,"sønnen":8077,"skyl":8078,"anti":8079,"jorden":8080,"##ico":8081,"vib":8082,"##ini":8083,"sandnes":8084,"moren":8085,"muligens":8086,"balanse":8087,"skred":8088,"industi":8089,"kjøle":8090,"##fre":8091,"detaljvarer":8092,"##hammer":8093,"statlige":8094,"solberg":8095,"anerkj":8096,"laks":8097,"max":8098,"populær":8099,"forhapentlig":8100,"haugesund":8101,"sande":8102,"hob":8103,"bebo":8104,"##vene":8105,"øvelser":8106,"ulovlig":8107,"sola":8108,"symptomer":8109,"papeker":8110,"svein":8111,"noensinne":8112,"back":8113,"etablering":8114,"forretnings":8115,"videreutvik":8116,"##stasjon":8117,"nysgjer":8118,"##gress":8119,"passord":8120,"biv":8121,"teamet":8122,"hall":8123,"studi":8124,"deles":8125,"prat":8126,"stilt":8127,"lagre":8128,"from":8129,"##undersøkelse":8130,"atmosf":8131,"meldt":8132,"dukker":8133,"##vanlig":8134,"barnehager":8135,"##vart":8136,"99":8137,"windows":8138,"definitivt":8139,"bidratt":8140,"lete":8141,"ventil":8142,"##gd":8143,"plikter":8144,"trukket":8145,"##taket":8146,"##user":8147,"parad":8148,"##ksjonene":8149,"beskyttelse":8150,"innvil":8151,"ubeh":8152,"eiendommen":8153,"utbygg":8154,"studien":8155,"##sendt":8156,"danse":8157,"ukene":8158,"##cial":8159,"##offer":8160,"ps":8161,"fat":8162,"skifte":8163,"temaer":8164,"leger":8165,"basis":8166,"fokusere":8167,"forretning":8168,"##istri":8169,"##rykket":8170,"teknikk":8171,"hedmark":8172,"india":8173,"cor":8174,"rand":8175,"jensen":8176,"##sakene":8177,"##fug":8178,"##vd":8179,"hamar":8180,"maneden":8181,"helga":8182,"##ally":8183,"frust":8184,"##onger":8185,"##hu":8186,"##ørr":8187,"link":8188,"bratt":8189,"##bing":8190,"forbundet":8191,"søkemot":8192,"##cam":8193,"perioder":8194,"eventuell":8195,"arsmøte":8196,"that":8197,"##splass":8198,"etn":8199,"##visor":8200,"revolusjon":8201,"tilbehør":8202,"fasc":8203,"love":8204,"poker":8205,"reaksjon":8206,"##spar":8207,"ull":8208,"kontrollere":8209,"innvandrere":8210,"##mater":8211,"investeringer":8212,"##støtte":8213,"##car":8214,"tiltre":8215,"ast":8216,"ødelagt":8217,"ungdommer":8218,"##lesund":8219,"forening":8220,"import":8221,"studio":8222,"italien":8223,"virkning":8224,"##vilkar":8225,"herre":8226,"tils":8227,"kvartal":8228,"oppgavene":8229,"51":8230,"##igen":8231,"diskutere":8232,"henholdsvis":8233,"mister":8234,"fastsatt":8235,"øyeblikket":8236,"vinn":8237,"##hengighet":8238,"nettverket":8239,"kortere":8240,"knappen":8241,"forsøkte":8242,"##ala":8243,"tube":8244,"munt":8245,"lesbisk":8246,"vedtaket":8247,"kommunal":8248,"epost":8249,"##atikk":8250,"##rerte":8251,"peker":8252,"##lyst":8253,"medlemskap":8254,"oppdatere":8255,"humor":8256,"##ance":8257,"hvitt":8258,"søknader":8259,"##lir":8260,"arv":8261,"lesere":8262,"skam":8263,"hjelpemid":8264,"##fakt":8265,"belig":8266,"følges":8267,"brun":8268,"offisielle":8269,"##endal":8270,"##resten":8271,"##filmer":8272,"ifra":8273,"parørende":8274,"foretre":8275,"omtalt":8276,"planlegger":8277,"nordiske":8278,"ungd":8279,"ansett":8280,"lovlig":8281,"##festiv":8282,"latter":8283,"knulle":8284,"800":8285,"ansiktet":8286,"##mynd":8287,"rid":8288,"høgskolen":8289,"cru":8290,"mur":8291,"##vask":8292,"maksim":8293,"bj":8294,"amerika":8295,"framover":8296,"skandinav":8297,"instagram":8298,"pent":8299,"forleng":8300,"kjøring":8301,"tunn":8302,"##pert":8303,"##prisen":8304,"raske":8305,"storm":8306,"bønn":8307,"selvstendig":8308,"tilhører":8309,"jak":8310,"##risen":8311,"bryllup":8312,"ask":8313,"næringslivet":8314,"thailand":8315,"avslutt":8316,"##iness":8317,"motsatt":8318,"arbeidsplasser":8319,"##sbas":8320,"##skader":8321,"diskrimin":8322,"##prosjektet":8323,"lagene":8324,"pleier":8325,"##egard":8326,"##lf":8327,"##onsen":8328,"inneholde":8329,"brasil":8330,"tapt":8331,"flyktninger":8332,"trengs":8333,"verdif":8334,"##idig":8335,"alders":8336,"smab":8337,"##kurs":8338,"larsen":8339,"kategori":8340,"##ssenter":8341,"##førings":8342,"tilhørende":8343,"registrerte":8344,"##hild":8345,"beskrive":8346,"##bal":8347,"##rister":8348,"satse":8349,"russisk":8350,"alesund":8351,"isted":8352,"bryte":8353,"unød":8354,"geograf":8355,"##sikring":8356,"##rette":8357,"kjønnsle":8358,"1998":8359,"sanger":8360,"komite":8361,"blogger":8362,"ringer":8363,"##sforsk":8364,"##onert":8365,"kristin":8366,"##ingelser":8367,"kjennskap":8368,"vunnet":8369,"hage":8370,"borg":8371,"hord":8372,"annons":8373,"oppvekst":8374,"still":8375,"heg":8376,"##ipl":8377,"fork":8378,"##innen":8379,"nederland":8380,"bygnings":8381,"##ela":8382,"alf":8383,"morsomme":8384,"##legger":8385,"akutt":8386,"inc":8387,"leste":8388,"1997":8389,"##gde":8390,"##okol":8391,"komplett":8392,"magas":8393,"reklame":8394,"##isiner":8395,"sakene":8396,"kose":8397,"flat":8398,"opplevelsen":8399,"identifisere":8400,"##orier":8401,"intel":8402,"ler":8403,"##systemet":8404,"##styre":8405,"kolon":8406,"eøs":8407,"volum":8408,"skjel":8409,"tankene":8410,"lede":8411,"utfordringene":8412,"barnets":8413,"##bak":8414,"bærum":8415,"presenterer":8416,"etablerte":8417,"dansk":8418,"stilles":8419,"introdus":8420,"barns":8421,"byens":8422,"jakten":8423,"##ryt":8424,"ib":8425,"endres":8426,"##ffen":8427,"dru":8428,"nedre":8429,"##ric":8430,"##kommer":8431,"##ipend":8432,"##splanen":8433,"##sperson":8434,"##18":8435,"vask":8436,"2019":8437,"tunge":8438,"arbeidstakere":8439,"tore":8440,"vass":8441,"##moen":8442,"maskiner":8443,"same":8444,"##inere":8445,"happ":8446,"materialet":8447,"spurt":8448,"##rerer":8449,"##regn":8450,"brønn":8451,"prosjektene":8452,"rehabilitering":8453,"##yper":8454,"##bransjen":8455,"utøvere":8456,"kollega":8457,"56":8458,"##ova":8459,"cir":8460,"##nsberg":8461,"##program":8462,"omtale":8463,"##politikk":8464,"ug":8465,"##olje":8466,"invitert":8467,"rekord":8468,"down":8469,"##entert":8470,"pdf":8471,"parter":8472,"kalle":8473,"high":8474,"satser":8475,"utseende":8476,"ule":8477,"forespør":8478,"agg":8479,"##teres":8480,"minn":8481,"##maskin":8482,"berø":8483,"##abelt":8484,"est":8485,"finland":8486,"trakk":8487,"friske":8488,"potensielle":8489,"##sliv":8490,"endringene":8491,"##sjef":8492,"stoffer":8493,"tittelen":8494,"strekker":8495,"syd":8496,"sikte":8497,"romer":8498,"dyktige":8499,"kjendiser":8500,"forebygge":8501,"##opplæring":8502,"##pensjon":8503,"eksempelvis":8504,"søkere":8505,"sikkerhets":8506,"applik":8507,"##sprosessen":8508,"##kultur":8509,"høyest":8510,"##illere":8511,"spraket":8512,"kjedelig":8513,"henrik":8514,"##ssitu":8515,"##knings":8516,"##fatt":8517,"##rasjonen":8518,"beslutning":8519,"neppe":8520,"dron":8521,"alderen":8522,"##selskap":8523,"##stur":8524,"fremmed":8525,"seksuell":8526,"cent":8527,"##sku":8528,"bost":8529,"kjell":8530,"erstatning":8531,"staende":8532,"dypt":8533,"geir":8534,"hørte":8535,"stopper":8536,"arrangementer":8537,"##sdatter":8538,"##reng":8539,"lærings":8540,"scenen":8541,"termin":8542,"fremfor":8543,"ingred":8544,"knapt":8545,"forsvarlig":8546,"robert":8547,"##beskriv":8548,"tilfellet":8549,"kret":8550,"nedsatt":8551,"hvorvidt":8552,"teknologien":8553,"##dring":8554,"graf":8555,"rollen":8556,"##kkede":8557,"sjøen":8558,"co2":8559,"read":8560,"forutsetninger":8561,"forhapentligvis":8562,"fanget":8563,"sammenligne":8564,"uen":8565,"enheten":8566,"##bildet":8567,"##stilbud":8568,"understreker":8569,"guide":8570,"jevnt":8571,"##kkere":8572,"skyte":8573,"hjernen":8574,"54":8575,"oppdatering":8576,"hem":8577,"dynam":8578,"klikke":8579,"moral":8580,"militære":8581,"##dret":8582,"swing":8583,"straks":8584,"##ware":8585,"utdannet":8586,"oppleves":8587,"67":8588,"##ssyke":8589,"galler":8590,"heng":8591,"dyb":8592,"jacob":8593,"foretak":8594,"##uller":8595,"stren":8596,"finalen":8597,"##vind":8598,"##sstill":8599,"##eten":8600,"tønsberg":8601,"hendene":8602,"bygde":8603,"generasjon":8604,"##strid":8605,"kommunisere":8606,"studere":8607,"sunt":8608,"fund":8609,"girls":8610,"oppfatning":8611,"utstyrt":8612,"guttene":8613,"apps":8614,"iran":8615,"klubber":8616,"##itar":8617,"veget":8618,"##omet":8619,"teori":8620,"oft":8621,"micros":8622,"##verdige":8623,"fakultet":8624,"medføre":8625,"veggen":8626,"##chat":8627,"miner":8628,"##lar":8629,"jø":8630,"##opper":8631,"landskap":8632,"overskudd":8633,"##gget":8634,"support":8635,"##vesenet":8636,"##øvrig":8637,"##atorer":8638,"øre":8639,"utred":8640,"utgiv":8641,"telefonen":8642,"##ullet":8643,"utgift":8644,"##our":8645,"stakk":8646,"nyeste":8647,"top":8648,"utbred":8649,"##bilde":8650,"##dra":8651,"helsepersonell":8652,"##organisasjoner":8653,"grunnet":8654,"hon":8655,"59":8656,"microsoft":8657,"##perioden":8658,"sorter":8659,"##gikk":8660,"185":8661,"regjeringens":8662,"rune":8663,"forutsetning":8664,"bakter":8665,"adgang":8666,"forarsa":8667,"regelverket":8668,"senest":8669,"##oer":8670,"##ktes":8671,"53":8672,"blu":8673,"west":8674,"depresjon":8675,"##deler":8676,"katt":8677,"lagring":8678,"##24":8679,"dekor":8680,"tilbakemelding":8681,"oppfylle":8682,"nære":8683,"støttet":8684,"konvensjon":8685,"oppm":8686,"ger":8687,"stengt":8688,"##klar":8689,"bygning":8690,"lyset":8691,"##arkedet":8692,"slutter":8693,"##edy":8694,"##lie":8695,"##uro":8696,"##bat":8697,"##cks":8698,"##14":8699,"fyller":8700,"ære":8701,"##busjon":8702,"##akse":8703,"foreslatt":8704,"##ikon":8705,"pedersen":8706,"selskapene":8707,"##ness":8708,"##jøre":8709,"klassiske":8710,"rh":8711,"australia":8712,"plante":8713,"forøvrig":8714,"dukket":8715,"##imer":8716,"##vinning":8717,"fullført":8718,"høring":8719,"##søker":8720,"naturligvis":8721,"##sberg":8722,"banken":8723,"##istikken":8724,"grønt":8725,"tjener":8726,"holdninger":8727,"øverste":8728,"øverst":8729,"##kurran":8730,"etterl":8731,"egner":8732,"eleven":8733,"sjølv":8734,"##innhold":8735,"1980":8736,"landbruks":8737,"beina":8738,"##avnet":8739,"oppskrift":8740,"fange":8741,"brem":8742,"kule":8743,"later":8744,"bygging":8745,"himmel":8746,"tilfredsstil":8747,"mere":8748,"oppdrags":8749,"tilknyttet":8750,"asker":8751,"veileder":8752,"anonym":8753,"##oppen":8754,"intensjon":8755,"bachel":8756,"handlet":8757,"videos":8758,"polen":8759,"##ssystemet":8760,"##foss":8761,"imponerende":8762,"250":8763,"maj":8764,"vig":8765,"hydro":8766,"##penger":8767,"buskerud":8768,"personvern":8769,"##helset":8770,"##lands":8771,"hordaland":8772,"bein":8773,"byttet":8774,"hoppe":8775,"##elagt":8776,"parall":8777,"langsiktig":8778,"##kle":8779,"##oppgjør":8780,"##produkter":8781,"leilighet":8782,"penge":8783,"pavirket":8784,"produserer":8785,"##legges":8786,"##sor":8787,"inviterer":8788,"oppfylt":8789,"alternative":8790,"ordentlig":8791,"58":8792,"funksjonen":8793,"nils":8794,"##hen":8795,"forsvinner":8796,"planter":8797,"korn":8798,"livsstil":8799,"dild":8800,"che":8801,"døg":8802,"globale":8803,"arbeidsliv":8804,"kartlegging":8805,"menighet":8806,"##unget":8807,"forelsket":8808,"signal":8809,"##tra":8810,"bevege":8811,"enorme":8812,"##ulert":8813,"angrepet":8814,"glemme":8815,"terje":8816,"foster":8817,"##ikasjoner":8818,"styrket":8819,"regelverk":8820,"besøkt":8821,"hitt":8822,"champ":8823,"##sla":8824,"##ekont":8825,"##kir":8826,"##klass":8827,"aktiver":8828,"netto":8829,"endrer":8830,"radi":8831,"##gas":8832,"kontakte":8833,"jevnlig":8834,"smerter":8835,"slappe":8836,"krefter":8837,"magnus":8838,"aftenposten":8839,"tradisjonell":8840,"hørings":8841,"korrekt":8842,"vedrørende":8843,"kalender":8844,"kvinners":8845,"roman":8846,"bens":8847,"helhetlig":8848,"johansen":8849,"##raden":8850,"##krav":8851,"57":8852,"flinke":8853,"blikk":8854,"##engde":8855,"tinder":8856,"##stolen":8857,"ec":8858,"##prosjekter":8859,"metoden":8860,"bryter":8861,"beliggen":8862,"holm":8863,"begrep":8864,"viking":8865,"##savtale":8866,"prom":8867,"let":8868,"koste":8869,"85":8870,"formidle":8871,"##appar":8872,"relasjon":8873,"##ney":8874,"elite":8875,"riktignok":8876,"lytte":8877,"garantert":8878,"investering":8879,"##eltet":8880,"##spr":8881,"##butikken":8882,"lokaler":8883,"reist":8884,"engelske":8885,"sjokol":8886,"##verden":8887,"kjønns":8888,"komb":8889,"##flate":8890,"##ism":8891,"varsel":8892,"##smessige":8893,"produsenter":8894,"grand":8895,"annonse":8896,"##anna":8897,"boligen":8898,"##skontroll":8899,"ingrediens":8900,"##markedet":8901,"faget":8902,"emp":8903,"##ble":8904,"##avtale":8905,"##oth":8906,"vilkarene":8907,"skolene":8908,"nivaet":8909,"##bit":8910,"anbefalt":8911,"drev":8912,"##bjørn":8913,"forventes":8914,"tiar":8915,"fornøyde":8916,"eksplo":8917,"95":8918,"pin":8919,"##udere":8920,"mig":8921,"##ement":8922,"dispensasjon":8923,"deltaker":8924,"riv":8925,"##ystem":8926,"garn":8927,"gulvet":8928,"glemt":8929,"62":8930,"ordinære":8931,"landslag":8932,"koordin":8933,"##sex":8934,"##dalen":8935,"trykke":8936,"gren":8937,"lillehammer":8938,"vend":8939,"barnd":8940,"hytta":8941,"tilgjengelighet":8942,"1900":8943,"##iken":8944,"kino":8945,"himm":8946,"beveger":8947,"##ordningen":8948,"behandler":8949,"kaldt":8950,"kari":8951,"##ati":8952,"størrelsen":8953,"##fullt":8954,"stock":8955,"versjonen":8956,"kundes":8957,"gn":8958,"##ialet":8959,"carl":8960,"samboer":8961,"https":8962,"bater":8963,"irri":8964,"palit":8965,"samarbeider":8966,"toal":8967,"hehe":8968,"stk":8969,"luks":8970,"personlighet":8971,"nh":8972,"anskaff":8973,"##reise":8974,"smartt":8975,"paske":8976,"##oda":8977,"##ilbud":8978,"##haver":8979,"##isa":8980,"##industrien":8981,"religiøse":8982,"##15":8983,"innk":8984,"##slatt":8985,"rig":8986,"brød":8987,"##sanlegg":8988,"referanse":8989,"##sikkerhet":8990,"##eth":8991,"ott":8992,"laveste":8993,"##klæring":8994,"destin":8995,"1970":8996,"##atører":8997,"arrangementet":8998,"##sborg":8999,"business":9000,"##spor":9001,"villig":9002,"utløp":9003,"hf":9004,"##havet":9005,"utfyl":9006,"##setningen":9007,"stjerne":9008,"##unnskap":9009,"havnet":9010,"##12":9011,"forstyr":9012,"vr":9013,"##mmens":9014,"fris":9015,"##selskapet":9016,"##sprosjekter":9017,"##elsens":9018,"sovjet":9019,"svanger":9020,"hr":9021,"##lister":9022,"gjennomførte":9023,"statsbudsjett":9024,"cd":9025,"apnes":9026,"vitne":9027,"tilfredsstill":9028,"koll":9029,"visjon":9030,"elektriske":9031,"phil":9032,"omsetning":9033,"liggende":9034,"trær":9035,"##matisk":9036,"stiftet":9037,"##cas":9038,"##sesser":9039,"eiere":9040,"##nda":9041,"##drene":9042,"utvikles":9043,"partnere":9044,"64":9045,"overlev":9046,"##atch":9047,"##legen":9048,"problemene":9049,"##astro":9050,"eksist":9051,"ali":9052,"##merke":9053,"vokste":9054,"##eper":9055,"##kapital":9056,"reaksjoner":9057,"##sper":9058,"rosen":9059,"vakkert":9060,"##ary":9061,"solen":9062,"##kreft":9063,"##ssik":9064,"søkt":9065,"##baserte":9066,"##arter":9067,"gress":9068,"nivaer":9069,"bror":9070,"dal":9071,"styrings":9072,"66":9073,"##oris":9074,"finansier":9075,"stralende":9076,"jar":9077,"funksjonshe":9078,"barnas":9079,"morgenen":9080,"ønsk":9081,"##værende":9082,"kombinert":9083,"junior":9084,"college":9085,"##ampen":9086,"skritt":9087,"tynn":9088,"##hau":9089,"##kvalitet":9090,"bestand":9091,"medisiner":9092,"##enteres":9093,"medisinske":9094,"##anserte":9095,"##stille":9096,"produsent":9097,"pasientene":9098,"besluttet":9099,"##cker":9100,"120":9101,"nyttar":9102,"innbyggerne":9103,"##følelse":9104,"døren":9105,"united":9106,"konkluder":9107,"##gruppa":9108,"times":9109,"kostnadene":9110,"cro":9111,"reduserer":9112,"trives":9113,"quiz":9114,"intervjuet":9115,"gleden":9116,"##leverand":9117,"reisen":9118,"enstemm":9119,"overnatting":9120,"veks":9121,"foreningen":9122,"##ommer":9123,"søkes":9124,"integrert":9125,"kunnskapen":9126,"mørk":9127,"iverks":9128,"sakte":9129,"sees":9130,"nyere":9131,"hypp":9132,"maskinen":9133,"3d":9134,"##ira":9135,"løst":9136,"##partement":9137,"##kta":9138,"billige":9139,"bul":9140,"gjelde":9141,"##krig":9142,"overføring":9143,"util":9144,"fargen":9145,"hilsen":9146,"##mord":9147,"fødsel":9148,"##stoffer":9149,"belønn":9150,"mennesket":9151,"andro":9152,"##osen":9153,"rute":9154,"soldater":9155,"shopping":9156,"kreative":9157,"endel":9158,"syl":9159,"behagelig":9160,"tillitsvalg":9161,"kilo":9162,"##varen":9163,"etasje":9164,"gutten":9165,"##vende":9166,"##itusjon":9167,"bekje":9168,"hape":9169,"rens":9170,"##wood":9171,"forskerne":9172,"##orm":9173,"angst":9174,"strikke":9175,"sykl":9176,"hittil":9177,"senteret":9178,"jordbær":9179,"abon":9180,"##abeth":9181,"##ano":9182,"##boka":9183,"hevdet":9184,"preg":9185,"fase":9186,"wikip":9187,"es":9188,"##ards":9189,"tiltakene":9190,"mengden":9191,"samarbeidspartnere":9192,"snitt":9193,"begrense":9194,"tilbys":9195,"konklusjon":9196,"singler":9197,"flyplassen":9198,"##mund":9199,"entreprenør":9200,"variasjon":9201,"##jenter":9202,"sykepleier":9203,"##odd":9204,"rester":9205,"tapte":9206,"##pal":9207,"##vika":9208,"styrer":9209,"feste":9210,"##aksjonen":9211,"skapte":9212,"gas":9213,"forberedt":9214,"##ervice":9215,"##institusjoner":9216,"spesifikke":9217,"##elin":9218,"administrasjonen":9219,"forbudt":9220,"handtering":9221,"##iven":9222,"sjanser":9223,"##ddet":9224,"##rot":9225,"drives":9226,"sec":9227,"opprør":9228,"avholdt":9229,"oppsta":9230,"alminn":9231,"kalk":9232,"møre":9233,"##feil":9234,"##spra":9235,"introduksjon":9236,"##hv":9237,"bredde":9238,"spiste":9239,"utdannelse":9240,"##park":9241,"gry":9242,"fullmakt":9243,"passet":9244,"kapit":9245,"utstillingen":9246,"kim":9247,"omgivelser":9248,"plattform":9249,"individuelle":9250,"##listen":9251,"falle":9252,"folkehelse":9253,"geb":9254,"##øyd":9255,"power":9256,"psykolog":9257,"isa":9258,"skra":9259,"##aldt":9260,"hjemmelaget":9261,"kafe":9262,"petro":9263,"##rør":9264,"regional":9265,"okk":9266,"tilpas":9267,"klem":9268,"avtalt":9269,"variere":9270,"jack":9271,"eriks":9272,"intellig":9273,"obligator":9274,"tyrkia":9275,"offer":9276,"avdelingen":9277,"utarbeide":9278,"##pot":9279,"billett":9280,"speil":9281,"effekter":9282,"oks":9283,"flørt":9284,"myr":9285,"innflytelse":9286,"##oil":9287,"nyt":9288,"##ypt":9289,"sandefjord":9290,"postad":9291,"bringe":9292,"piz":9293,"fns":9294,"##egler":9295,"nordisk":9296,"kla":9297,"beløpet":9298,"styrets":9299,"pyn":9300,"flyet":9301,"sanne":9302,"##nev":9303,"##somrader":9304,"deilige":9305,"munnen":9306,"driften":9307,"bety":9308,"stolte":9309,"##alp":9310,"rabatt":9311,"transa":9312,"varslet":9313,"##arkiv":9314,"1996":9315,"##virke":9316,"##16":9317,"##stider":9318,"avisen":9319,"rengjøring":9320,"sekund":9321,"liden":9322,"kysten":9323,"##elat":9324,"utstyret":9325,"dekning":9326,"184":9327,"moss":9328,"oftere":9329,"gammelt":9330,"døgnet":9331,"streng":9332,"gjennomsiktig":9333,"stemning":9334,"tilrettelegging":9335,"tob":9336,"vokst":9337,"fylkeskommune":9338,"bygningen":9339,"##date":9340,"mari":9341,"snap":9342,"##meter":9343,"restauranter":9344,"club":9345,"fortjener":9346,"øster":9347,"##bill":9348,"##senter":9349,"harde":9350,"ungene":9351,"##uligheter":9352,"##frie":9353,"hensiktsmessig":9354,"troll":9355,"kampene":9356,"jazz":9357,"wikipedia":9358,"##sens":9359,"verdien":9360,"smør":9361,"stykke":9362,"##fang":9363,"takke":9364,"pamelding":9365,"utry":9366,"##trykk":9367,"atom":9368,"oppgir":9369,"drap":9370,"pilot":9371,"bekrefter":9372,"rapportering":9373,"gunnar":9374,"##iff":9375,"reduseres":9376,"mobilen":9377,"evner":9378,"tidspunktet":9379,"##ringe":9380,"##bestemm":9381,"kjeller":9382,"avv":9383,"selges":9384,"traff":9385,"forsvant":9386,"distribusjon":9387,"##burg":9388,"act":9389,"past":9390,"##øyer":9391,"will":9392,"innsatsen":9393,"##irkninger":9394,"##vannet":9395,"spilles":9396,"elver":9397,"##gu":9398,"betydningen":9399,"##nevnt":9400,"phot":9401,"rec":9402,"diskuter":9403,"##lass":9404,"fed":9405,"kyl":9406,"oppdragsgiver":9407,"museet":9408,"forbruk":9409,"heim":9410,"interne":9411,"utlend":9412,"primært":9413,"forresten":9414,"plant":9415,"politid":9416,"shem":9417,"aspe":9418,"representert":9419,"meninger":9420,"##ystemet":9421,"##øyte":9422,"1995":9423,"skolens":9424,"tiltaket":9425,"helge":9426,"nark":9427,"elektroniske":9428,"ambas":9429,"uts":9430,"avgjørelse":9431,"kjendis":9432,"forhindre":9433,"sexle":9434,"mnd":9435,"baks":9436,"perman":9437,"rekruttering":9438,"eksterne":9439,"war":9440,"ressurs":9441,"asia":9442,"gjenstander":9443,"uend":9444,"##do":9445,"##nte":9446,"##osjon":9447,"sogn":9448,"prinsippet":9449,"fekk":9450,"badet":9451,"victor":9452,"enstemmig":9453,"ringe":9454,"servert":9455,"selvtil":9456,"kontakter":9457,"700":9458,"##gjorde":9459,"virkelighet":9460,"fel":9461,"storting":9462,"tillater":9463,"protokoll":9464,"##itiv":9465,"bunnen":9466,"tendens":9467,"wal":9468,"sveits":9469,"personell":9470,"element":9471,"may":9472,"##problemer":9473,"forlate":9474,"kode":9475,"evnen":9476,"##veil":9477,"telen":9478,"agen":9479,"fremtidige":9480,"##falt":9481,"##faring":9482,"debut":9483,"forbedring":9484,"berlin":9485,"##stjer":9486,"vegvesen":9487,"##undersøkelsen":9488,"flytter":9489,"kirur":9490,"##norsk":9491,"##byr":9492,"videoen":9493,"##sforhold":9494,"foretrekker":9495,"happy":9496,"tøffe":9497,"##selskaper":9498,"##ianter":9499,"negativ":9500,"##umin":9501,"leiligheten":9502,"sykehjem":9503,"camping":9504,"stortings":9505,"tilnærming":9506,"internt":9507,"dannet":9508,"gjennomfører":9509,"gjenstar":9510,"##mi":9511,"romsdal":9512,"elektrisk":9513,"##orge":9514,"radmann":9515,"innføre":9516,"generalfor":9517,"##ografi":9518,"##styring":9519,"krem":9520,"##seth":9521,"navig":9522,"lisens":9523,"dramat":9524,"##kunst":9525,"noveller":9526,"formidling":9527,"##smater":9528,"offent":9529,"virkelige":9530,"##esterett":9531,"budsjettet":9532,"von":9533,"utfordringen":9534,"liber":9535,"aff":9536,"kald":9537,"sult":9538,"##funksjon":9539,"samlinger":9540,"##dringer":9541,"afg":9542,"##back":9543,"overalt":9544,"oppdraget":9545,"kjekt":9546,"tradisjoner":9547,"kopi":9548,"149":9549,"hyggelige":9550,"gruppene":9551,"maltid":9552,"##ky":9553,"bun":9554,"overført":9555,"hellige":9556,"##yting":9557,"lønns":9558,"definert":9559,"noko":9560,"97":9561,"orgas":9562,"oppfyller":9563,"##menne":9564,"##interes":9565,"##æl":9566,"samlede":9567,"gunst":9568,"sannheten":9569,"melk":9570,"arrest":9571,"bivirkninger":9572,"radmannen":9573,"regelmessig":9574,"høyesterett":9575,"jernbane":9576,"android":9577,"pkt":9578,"##uth":9579,"##iserings":9580,"nevnes":9581,"katol":9582,"cum":9583,"ins":9584,"##ineres":9585,"bibel":9586,"aring":9587,"old":9588,"journalist":9589,"kandidater":9590,"##muse":9591,"mov":9592,"tørre":9593,"sarp":9594,"bosatt":9595,"tilfredsstillende":9596,"international":9597,"##ualitet":9598,"langvar":9599,"##parti":9600,"##resjon":9601,"skutt":9602,"##ipp":9603,"salgs":9604,"spons":9605,"samferd":9606,"saledes":9607,"fet":9608,"nektet":9609,"forklaring":9610,"ordene":9611,"manedene":9612,"kameraet":9613,"ytelse":9614,"##skop":9615,"arsak":9616,"kvalitetssik":9617,"hvile":9618,"tilsier":9619,"festival":9620,"frie":9621,"innvandrer":9622,"##veksten":9623,"acc":9624,"mennene":9625,"tilsl":9626,"viet":9627,"2020":9628,"rektor":9629,"##andel":9630,"karakt":9631,"innledning":9632,"##samfunnet":9633,"##ani":9634,"skjær":9635,"dildo":9636,"stry":9637,"diam":9638,"webcam":9639,"##pes":9640,"##pte":9641,"havn":9642,"statoil":9643,"##bert":9644,"##bro":9645,"##besk":9646,"kulturelle":9647,"swingers":9648,"underlagt":9649,"##lovens":9650,"##ekn":9651,"##que":9652,"word":9653,"trafikken":9654,"datas":9655,"usikkerhet":9656,"##11":9657,"lidenskap":9658,"apenhet":9659,"##ful":9660,"##rete":9661,"møbler":9662,"gjenkj":9663,"skjemaet":9664,"uvanlig":9665,"informere":9666,"skuff":9667,"##smod":9668,"gy":9669,"##forsta":9670,"forbruks":9671,"formannskapet":9672,"kriterier":9673,"ah":9674,"helseforetak":9675,"sexleketøy":9676,"mobbing":9677,"himmelen":9678,"fordeling":9679,"arrangeres":9680,"evig":9681,"undersøkt":9682,"##run":9683,"##kampen":9684,"advar":9685,"deltatt":9686,"ruter":9687,"kjærester":9688,"##data":9689,"eksport":9690,"vestlige":9691,"tenaring":9692,"##ibli":9693,"##smed":9694,"oppvarming":9695,"1994":9696,"##onering":9697,"##ical":9698,"idrettslag":9699,"havne":9700,"hvorav":9701,"samleie":9702,"rettferdig":9703,"skiftet":9704,"##ara":9705,"ekteskapet":9706,"asiatiske":9707,"pafølgende":9708,"##sats":9709,"barnevernet":9710,"ukjente":9711,"handen":9712,"##fir":9713,"musikal":9714,"##vig":9715,"##lingene":9716,"syria":9717,"##hallen":9718,"avhenger":9719,"byene":9720,"uøn":9721,"sopp":9722,"ssb":9723,"personalet":9724,"spareb":9725,"sjokolade":9726,"##ids":9727,"ot":9728,"nakenbilder":9729,"make":9730,"sjøl":9731,"gruppa":9732,"protein":9733,"ettertid":9734,"erkj":9735,"rein":9736,"gram":9737,"##forsvar":9738,"##hy":9739,"scoret":9740,"utgangen":9741,"##aton":9742,"##bor":9743,"bibelen":9744,"utredning":9745,"fremgang":9746,"##uri":9747,"billetter":9748,"##otika":9749,"sper":9750,"##avisen":9751,"hms":9752,"##stjenesten":9753,"solgte":9754,"rak":9755,"tradisjonelt":9756,"##bot":9757,"od":9758,"forskriften":9759,"køben":9760,"##forvalt":9761,"havner":9762,"##utdan":9763,"gjaldt":9764,"definisjon":9765,"##voll":9766,"utbytte":9767,"oppskriften":9768,"erfarne":9769,"##versjon":9770,"etterkant":9771,"finger":9772,"veiled":9773,"opplæringen":9774,"home":9775,"##af":9776,"arbeiderpartiet":9777,"##mail":9778,"##vag":9779,"retts":9780,"##reis":9781,"legemidler":9782,"kva":9783,"vri":9784,"##ums":9785,"forutsetter":9786,"delte":9787,"##ool":9788,"forfatt":9789,"automat":9790,"treffer":9791,"mørket":9792,"##sbrev":9793,"vik":9794,"timen":9795,"##leks":9796,"##brø":9797,"stoffet":9798,"etiske":9799,"redaktør":9800,"##cup":9801,"##con":9802,"gjengen":9803,"bis":9804,"gig":9805,"inni":9806,"mannlige":9807,"hushold":9808,"utgaven":9809,"unnskyld":9810,"sjafør":9811,"elsket":9812,"##vard":9813,"appar":9814,"mottok":9815,"hobby":9816,"poly":9817,"helses":9818,"spillene":9819,"##iskap":9820,"sor":9821,"aktørene":9822,"##apeut":9823,"tykk":9824,"nilsen":9825,"sammenhenger":9826,"##strand":9827,"prinsipper":9828,"samles":9829,"##sforbund":9830,"##agene":9831,"oppland":9832,"lykkelig":9833,"hendelsen":9834,"øvelse":9835,"hakon":9836,"negativt":9837,"scor":9838,"##odt":9839,"sliten":9840,"jakob":9841,"relatert":9842,"larvik":9843,"sarpsborg":9844,"klubbens":9845,"##brev":9846,"##ras":9847,"dels":9848,"bussen":9849,"##uch":9850,"##garden":9851,"teoret":9852,"##famil":9853,"lærte":9854,"tingrett":9855,"##jent":9856,"velges":9857,"##smann":9858,"##my":9859,"##undersøkelser":9860,"##armer":9861,"##load":9862,"elis":9863,"merkelig":9864,"##stilsynet":9865,"egypt":9866,"femte":9867,"bryr":9868,"lengst":9869,"skilsm":9870,"##abler":9871,"gjø":9872,"fos":9873,"københavn":9874,"lukket":9875,"nic":9876,"bang":9877,"delene":9878,"##stikk":9879,"sørg":9880,"##aga":9881,"##klart":9882,"##innlegg":9883,"tax":9884,"skuffet":9885,"##ts":9886,"##smøtet":9887,"mottak":9888,"hundrevis":9889,"snill":9890,"argument":9891,"derfra":9892,"strategisk":9893,"labor":9894,"skien":9895,"##esen":9896,"##ath":9897,"##ommere":9898,"##eldige":9899,"søket":9900,"sjakk":9901,"tilsynelat":9902,"kunstnere":9903,"drifts":9904,"tabellen":9905,"trykket":9906,"regiss":9907,"##onen":9908,"##60":9909,"##sammen":9910,"konkurranser":9911,"elske":9912,"69":9913,"hek":9914,"langrenn":9915,"vurderingen":9916,"##ugh":9917,"ferdige":9918,"##cer":9919,"kalde":9920,"##forslag":9921,"##etid":9922,"røyk":9923,"roy":9924,"konstant":9925,"sed":9926,"##bakken":9927,"##ktivitet":9928,"mottaker":9929,"forebyggende":9930,"bekreft":9931,"behøver":9932,"##rul":9933,"antar":9934,"grill":9935,"fokuserer":9936,"kanal":9937,"anbefalinger":9938,"klipp":9939,"heldige":9940,"flor":9941,"1500":9942,"##fallet":9943,"nedgang":9944,"henvendelser":9945,"forpliktelser":9946,"talt":9947,"dug":9948,"konsekvensene":9949,"beliggenhet":9950,"##stasjonen":9951,"nik":9952,"fyll":9953,"skipet":9954,"ødelegge":9955,"likes":9956,"##kro":9957,"irak":9958,"##elever":9959,"##vegen":9960,"##løpende":9961,"paret":9962,"tech":9963,"##følger":9964,"fylket":9965,"tilsynelatende":9966,"tlf":9967,"lista":9968,"problemstillinger":9969,"strøk":9970,"kontoret":9971,"##befol":9972,"##amet":9973,"oppkobling":9974,"##box":9975,"##strateg":9976,"cap":9977,"72":9978,"##sprob":9979,"##kommun":9980,"runder":9981,"##sløp":9982,"##næring":9983,"variert":9984,"##gjøres":9985,"sammenlik":9986,"##etningen":9987,"##skade":9988,"##tm":9989,"datteren":9990,"tilsvarer":9991,"ker":9992,"micha":9993,"grei":9994,"vennene":9995,"infl":9996,"kategorien":9997,"medal":9998,"sekret":9999,"gjenstand":10000,"##represent":10001,"fysi":10002,"math":10003,"1960":10004,"##mmere":10005,"##betaling":10006,"##making":10007,"avanserte":10008,"nettbrett":10009,"63":10010,"blanding":10011,"blind":10012,"emil":10013,"##kkelt":10014,"elva":10015,"bonde":10016,"apningen":10017,"sittende":10018,"oppnad":10019,"hammer":10020,"arbeidstid":10021,"kond":10022,"dokumentert":10023,"utal":10024,"##arbeidere":10025,"interessen":10026,"norden":10027,"tildeling":10028,"overh":10029,"arbeidsplass":10030,"tegne":10031,"##bunn":10032,"##jesel":10033,"##sretten":10034,"journalister":10035,"utk":10036,"##arar":10037,"veterin":10038,"fattige":10039,"ankom":10040,"vanligste":10041,"styres":10042,"##enga":10043,"tittel":10044,"oppnadd":10045,"##ting":10046,"einar":10047,"##mmeb":10048,"cirka":10049,"##ux":10050,"friluftsliv":10051,"cy":10052,"baker":10053,"kunnskaper":10054,"##ktere":10055,"##nam":10056,"##anset":10057,"poenget":10058,"møtested":10059,"legit":10060,"treningen":10061,"hverken":10062,"vitamin":10063,"møl":10064,"spist":10065,"ledige":10066,"lesbiske":10067,"avansert":10068,"partier":10069,"størrelser":10070,"keeper":10071,"billigere":10072,"group":10073,"høytt":10074,"jubile":10075,"##ition":10076,"svake":10077,"banker":10078,"68":10079,"##rapporter":10080,"##spolitikk":10081,"##fødte":10082,"##forum":10083,"##ations":10084,"##historie":10085,"mess":10086,"avslutter":10087,"lagret":10088,"avdelinger":10089,"manager":10090,"meir":10091,"analyt":10092,"fad":10093,"yoga":10094,"sære":10095,"##seier":10096,"bidro":10097,"rov":10098,"intet":10099,"kamer":10100,"tilsynet":10101,"eta":10102,"hat":10103,"##13":10104,"##finans":10105,"que":10106,"forberede":10107,"dokumentere":10108,"##ws":10109,"tegnet":10110,"bekymret":10111,"ivar":10112,"gjentatte":10113,"bachelor":10114,"strikk":10115,"høyden":10116,"trekkes":10117,"##ci":10118,"kristus":10119,"ankl":10120,"sørget":10121,"godkjente":10122,"arbeidsoppgaver":10123,"angitt":10124,"iii":10125,"##gjørelse":10126,"##dato":10127,"vassdrag":10128,"elektro":10129,"##smidler":10130,"forbindel":10131,"tolv":10132,"hjerne":10133,"avsnitt":10134,"fremgar":10135,"tvunget":10136,"##gjennom":10137,"palestin":10138,"##orteføl":10139,"##ønster":10140,"##somradet":10141,"##anlegget":10142,"bjer":10143,"university":10144,"innrømme":10145,"willi":10146,"nydelige":10147,"konkurr":10148,"radet":10149,"poster":10150,"gjennomgatt":10151,"##miljøet":10152,"levde":10153,"count":10154,"fremstar":10155,"vedtok":10156,"bestemmelsen":10157,"hekte":10158,"had":10159,"##stjeneste":10160,"reserv":10161,"danner":10162,"##itive":10163,"spilleren":10164,"takknem":10165,"fullføre":10166,"##forskriften":10167,"##søkonom":10168,"mem":10169,"kutt":10170,"hovedstaden":10171,"oppdager":10172,"gratulerer":10173,"lande":10174,"aktiviteten":10175,"dop":10176,"fortid":10177,"hellig":10178,"saksbehandling":10179,"##irm":10180,"berre":10181,"##utviklingen":10182,"##frihet":10183,"lene":10184,"grunnlagt":10185,"humør":10186,"utle":10187,"hastighet":10188,"##ages":10189,"spekter":10190,"omstend":10191,"generasjoner":10192,"##møtet":10193,"urin":10194,"stadion":10195,"fortløpende":10196,"183":10197,"##samt":10198,"filter":10199,"noksa":10200,"##vnen":10201,"terra":10202,"valer":10203,"holdning":10204,"uro":10205,"##formid":10206,"muntlig":10207,"alp":10208,"##sprogrammet":10209,"##go":10210,"##avtalen":10211,"##hard":10212,"##brukere":10213,"vere":10214,"utelukkende":10215,"rydde":10216,"konferansen":10217,"##analyse":10218,"##25":10219,"jose":10220,"lederen":10221,"pad":10222,"usas":10223,"tomt":10224,"videreutvikle":10225,"premie":10226,"fortsett":10227,"pleie":10228,"##sperioden":10229,"##søkere":10230,"meldingen":10231,"##gis":10232,"modern":10233,"særskilt":10234,"##pos":10235,"kenn":10236,"##pleie":10237,"##ents":10238,"jula":10239,"forvir":10240,"arrangerer":10241,"installasjon":10242,"døden":10243,"##21":10244,"korrig":10245,"petrole":10246,"venninne":10247,"danne":10248,"lade":10249,"ekstraordin":10250,"##jes":10251,"virkemidler":10252,"have":10253,"ye":10254,"##ravær":10255,"verdiskap":10256,"##tein":10257,"planene":10258,"##sutvikling":10259,"bakke":10260,"##opt":10261,"ama":10262,"sammenhengen":10263,"stipend":10264,"innbygger":10265,"liter":10266,"##anne":10267,"anerkjente":10268,"istedenfor":10269,"fore":10270,"tariff":10271,"##vat":10272,"works":10273,"##bus":10274,"##jern":10275,"emner":10276,"tegnes":10277,"##øyet":10278,"hjalp":10279,"spa":10280,"kona":10281,"##punkter":10282,"kartet":10283,"##fast":10284,"77":10285,"1992":10286,"shemale":10287,"mestring":10288,"spent":10289,"sengen":10290,"##ulen":10291,"##skritt":10292,"flyktning":10293,"kredittkort":10294,"falske":10295,"##spunkter":10296,"konsentrasjon":10297,"1993":10298,"##fen":10299,"lure":10300,"coach":10301,"livs":10302,"arkitektur":10303,"brett":10304,"##ome":10305,"##splasser":10306,"utformet":10307,"ingeniør":10308,"diabet":10309,"seriøst":10310,"pig":10311,"toget":10312,"open":10313,"artig":10314,"alta":10315,"eide":10316,"##lam":10317,"base":10318,"##valget":10319,"##pool":10320,"klassif":10321,"oversett":10322,"skjen":10323,"nabol":10324,"hang":10325,"##aritet":10326,"flagg":10327,"opphe":10328,"ragn":10329,"innsyn":10330,"legemiddel":10331,"##parken":10332,"smaker":10333,"regnskaps":10334,"garanti":10335,"##boken":10336,"lomm":10337,"skjult":10338,"varianter":10339,"##edyr":10340,"tomm":10341,"profilen":10342,"hellas":10343,"forferd":10344,"##somrade":10345,"dører":10346,"##tekst":10347,"##ssels":10348,"##prøve":10349,"ønskelig":10350,"run":10351,"ranger":10352,"##amer":10353,"standarder":10354,"roller":10355,"komiteen":10356,"kontrollutvalget":10357,"unntatt":10358,"overvak":10359,"motsatte":10360,"intim":10361,"implem":10362,"økningen":10363,"##core":10364,"overordnet":10365,"skjulte":10366,"foretaket":10367,"kjøl":10368,"bedriftene":10369,"##øyene":10370,"distrikt":10371,"testen":10372,"innslag":10373,"##oppgave":10374,"forskrifter":10375,"##vitenskap":10376,"sog":10377,"##bygd":10378,"blogge":10379,"hunde":10380,"##spes":10381,"dagers":10382,"innle":10383,"north":10384,"utøv":10385,"skrives":10386,"tredjepart":10387,"foreles":10388,"overtok":10389,"##komne":10390,"kritiske":10391,"dets":10392,"stimulere":10393,"##oline":10394,"oppbevaring":10395,"##organisasjonen":10396,"kartlegge":10397,"samspill":10398,"festivalen":10399,"høydepunkt":10400,"stemp":10401,"dataene":10402,"jonas":10403,"##vennlige":10404,"kortet":10405,"##lipp":10406,"##bruker":10407,"skjønte":10408,"motoren":10409,"arendal":10410,"innblikk":10411,"telenor":10412,"individuell":10413,"fargene":10414,"arrangere":10415,"##cm":10416,"##egjør":10417,"pers":10418,"##musikk":10419,"dir":10420,"detaljert":10421,"levet":10422,"diagnost":10423,"##essen":10424,"william":10425,"sjefen":10426,"marine":10427,"gjennomføringen":10428,"##banken":10429,"##sbrudd":10430,"konver":10431,"hjerter":10432,"veksten":10433,"##aende":10434,"##hjul":10435,"eidsv":10436,"sykler":10437,"##gaard":10438,"uttalelse":10439,"dusj":10440,"scen":10441,"##hn":10442,"##utsli":10443,"teknikker":10444,"undervisningen":10445,"salget":10446,"##skift":10447,"avgjørelsen":10448,"##ila":10449,"##ødre":10450,"tømmer":10451,"good":10452,"bevare":10453,"styreleder":10454,"glatt":10455,"tank":10456,"administrative":10457,"nestleder":10458,"sau":10459,"instrukt":10460,"hende":10461,"tag":10462,"opplegg":10463,"faktura":10464,"uri":10465,"##80":10466,"angel":10467,"luften":10468,"##forbruk":10469,"døra":10470,"mobiltelefon":10471,"nyttige":10472,"##eled":10473,"trenere":10474,"fungerte":10475,"nederst":10476,"ks":10477,"##føringer":10478,"##deren":10479,"strenge":10480,"lit":10481,"espen":10482,"fantes":10483,"ille":10484,"ped":10485,"##komiteen":10486,"##dy":10487,"##fravær":10488,"konfirm":10489,"mage":10490,"pameld":10491,"arbeidskraft":10492,"pavirkning":10493,"pepper":10494,"nærhet":10495,"akseptere":10496,"innkalling":10497,"kin":10498,"aviser":10499,"oppskrifter":10500,"dødsf":10501,"savnet":10502,"##ttere":10503,"designer":10504,"fødsels":10505,"ida":10506,"bergens":10507,"kristend":10508,"fuktighet":10509,"ens":10510,"brand":10511,"nedlast":10512,"plukket":10513,"##begynn":10514,"##dager":10515,"##angrep":10516,"albumet":10517,"samisk":10518,"snøen":10519,"##pli":10520,"##ota":10521,"løft":10522,"##butikker":10523,"##tting":10524,"##grunnlag":10525,"##sbruk":10526,"damene":10527,"respons":10528,"moden":10529,"mykje":10530,"tekstil":10531,"jæ":10532,"alternativet":10533,"loj":10534,"stockholm":10535,"eus":10536,"##idens":10537,"seieren":10538,"statlig":10539,"##uminium":10540,"vitenskapelig":10541,"klø":10542,"slipp":10543,"##savgift":10544,"michael":10545,"##marks":10546,"biblioteket":10547,"scener":10548,"oppsig":10549,"valuta":10550,"##iljøet":10551,"daniel":10552,"beslutninger":10553,"##skrevet":10554,"overbe":10555,"##regel":10556,"gitar":10557,"fisken":10558,"modne":10559,"lou":10560,"trakt":10561,"##alisering":10562,"gjeste":10563,"look":10564,"blei":10565,"nedbør":10566,"grøn":10567,"##ikeren":10568,"temp":10569,"##ferie":10570,"omgivelsene":10571,"selvmord":10572,"stole":10573,"drag":10574,"reagerer":10575,"juridisk":10576,"mobiltelefoner":10577,"ud":10578,"skjøt":10579,"##chester":10580,"overflate":10581,"matchmaking":10582,"emne":10583,"strømmen":10584,"ts":10585,"diskusjoner":10586,"##anny":10587,"muslimske":10588,"kompetansen":10589,"##enden":10590,"oly":10591,"svikt":10592,"gyldig":10593,"lesing":10594,"bodd":10595,"romantisk":10596,"estet":10597,"forfall":10598,"ordning":10599,"##urd":10600,"##oser":10601,"##¸ˇ":10602,"ost":10603,"bestaende":10604,"##vapen":10605,"stedene":10606,"refusjon":10607,"retningslinjene":10608,"statistisk":10609,"uttak":10610,"##kontakt":10611,"kvad":10612,"sterkeste":10613,"aw":10614,"##areal":10615,"undervisnings":10616,"##sfag":10617,"##inasjon":10618,"toll":10619,"##sjekk":10620,"smarte":10621,"genet":10622,"kinesiske":10623,"##egen":10624,"##prøver":10625,"sannsynlighet":10626,"halvor":10627,"rich":10628,"immun":10629,"menyen":10630,"kniv":10631,"linjer":10632,"##19":10633,"ordinær":10634,"##kat":10635,"etikk":10636,"avslutte":10637,"kutte":10638,"dekkes":10639,"utleie":10640,"##kompetanse":10641,"fremhe":10642,"innvandring":10643,"##alere":10644,"pizza":10645,"midlene":10646,"plassere":10647,"##bordet":10648,"faktiske":10649,"temperaturen":10650,"##ordet":10651,"##æringen":10652,"angi":10653,"syssels":10654,"krise":10655,"tenner":10656,"betydelige":10657,"##stendige":10658,"##ces":10659,"timers":10660,"erstattet":10661,"entus":10662,"apper":10663,"filer":10664,"vinduer":10665,"##urser":10666,"revidert":10667,"tantra":10668,"knall":10669,"tiltaks":10670,"omhandler":10671,"##ots":10672,"feire":10673,"økologisk":10674,"politidistri":10675,"1991":10676,"shop":10677,"ze":10678,"spilleautomater":10679,"##løk":10680,"forskningen":10681,"dyrt":10682,"##reen":10683,"potet":10684,"##bia":10685,"tape":10686,"skjeb":10687,"latin":10688,"forhandlinger":10689,"vinduet":10690,"179":10691,"satsing":10692,"##skvalitet":10693,"herren":10694,"##øtte":10695,"##cher":10696,"##entre":10697,"lofot":10698,"jorda":10699,"tus":10700,"avl":10701,"enorm":10702,"elisabeth":10703,"ferien":10704,"gold":10705,"##utert":10706,"troen":10707,"materiell":10708,"attraktive":10709,"evangel":10710,"olymp":10711,"registrerer":10712,"ond":10713,"vog":10714,"dobbel":10715,"inntak":10716,"##smet":10717,"leketøy":10718,"##ulator":10719,"##bibli":10720,"referat":10721,"##haugen":10722,"datert":10723,"pøl":10724,"fremste":10725,"##chen":10726,"fremmer":10727,"##ekort":10728,"##usa":10729,"bestilt":10730,"cra":10731,"lagres":10732,"kundeservice":10733,"green":10734,"gym":10735,"permanent":10736,"##rand":10737,"##edel":10738,"tapet":10739,"aluminium":10740,"ns":10741,"avgang":10742,"sjekker":10743,"##play":10744,"##egrens":10745,"original":10746,"oppløsning":10747,"turn":10748,"avslutning":10749,"##virksom":10750,"tour":10751,"helsed":10752,"gjenspe":10753,"samtid":10754,"##elding":10755,"##ulasjon":10756,"fisket":10757,"suver":10758,"vinden":10759,"sofaen":10760,"kake":10761,"##fu":10762,"enighet":10763,"roma":10764,"passende":10765,"kontrollen":10766,"kjempet":10767,"opplyst":10768,"##feranse":10769,"##sverk":10770,"ukraina":10771,"##foreld":10772,"prioriter":10773,"iver":10774,"administrerende":10775,"forelsk":10776,"oppholdet":10777,"##problem":10778,"ded":10779,"langtid":10780,"bevegelser":10781,"hester":10782,"##ack":10783,"gule":10784,"eksperter":10785,"hær":10786,"naz":10787,"ferske":10788,"kolleger":10789,"aur":10790,"##olusjon":10791,"tillitsvalgte":10792,"jfr":10793,"##eløs":10794,"##undet":10795,"afghan":10796,"get":10797,"pedagogisk":10798,"kru":10799,"ambisjoner":10800,"kombinere":10801,"##spital":10802,"halden":10803,"operasjoner":10804,"##yo":10805,"late":10806,"##holt":10807,"jørgen":10808,"##imellom":10809,"##egang":10810,"femin":10811,"##værelse":10812,"##saktiviteter":10813,"##rater":10814,"konflikter":10815,"personene":10816,"unikt":10817,"##esenter":10818,"partiene":10819,"##sstud":10820,"prioritere":10821,"oppgi":10822,"##syke":10823,"stranden":10824,"meldte":10825,"turister":10826,"oppsett":10827,"innendørs":10828,"kontrakten":10829,"##odden":10830,"sivile":10831,"vinneren":10832,"basseng":10833,"ordre":10834,"kasino":10835,"##17":10836,"forfattere":10837,"finale":10838,"##bøl":10839,"##skostnader":10840,"##helsetjenesten":10841,"truet":10842,"inger":10843,"nas":10844,"oppsummering":10845,"revisor":10846,"gjøvik":10847,"##sfjord":10848,"##cing":10849,"oppførsel":10850,"##yren":10851,"cli":10852,"harmon":10853,"meny":10854,"##yme":10855,"episode":10856,"##elte":10857,"urett":10858,"drama":10859,"menings":10860,"jernban":10861,"kriminalitet":10862,"nevner":10863,"##sting":10864,"herlige":10865,"1950":10866,"fristen":10867,"kanaler":10868,"betegn":10869,"##eist":10870,"##erten":10871,"uheldig":10872,"tydeligvis":10873,"##vikt":10874,"anbud":10875,"dyrene":10876,"øyet":10877,"liver":10878,"sorg":10879,"soft":10880,"investere":10881,"foruten":10882,"bevissthet":10883,"stjerner":10884,"tilstanden":10885,"##insi":10886,"datamaskiner":10887,"forhandler":10888,"blomst":10889,"linn":10890,"farlige":10891,"nato":10892,"selvtillit":10893,"spek":10894,"##givende":10895,"sun":10896,"verksted":10897,"wa":10898,"##jev":10899,"utvidelse":10900,"datoen":10901,"lidelser":10902,"bekymring":10903,"##instituttet":10904,"portug":10905,"utroskap":10906,"muslimer":10907,"skjønne":10908,"inspirere":10909,"strategier":10910,"firmaet":10911,"##programmet":10912,"lister":10913,"glipp":10914,"##aka":10915,"luksus":10916,"hjemmeb":10917,"##oppdrag":10918,"73":10919,"sinte":10920,"##gri":10921,"yrke":10922,"lyder":10923,"godkjennes":10924,"##fabri":10925,"kongsberg":10926,"##orgrad":10927,"illustrasjon":10928,"stiler":10929,"##bolig":10930,"dommen":10931,"frakt":10932,"kollektiv":10933,"74":10934,"sykefravær":10935,"stiv":10936,"gravide":10937,"endelige":10938,"oversikten":10939,"skredder":10940,"teller":10941,"analysere":10942,"dugnad":10943,"##ump":10944,"##srad":10945,"innimellom":10946,"katal":10947,"apenbar":10948,"fingrene":10949,"bilene":10950,"forstatt":10951,"kommunes":10952,"##alle":10953,"opplærings":10954,"savner":10955,"leiligheter":10956,"katastro":10957,"##vekkende":10958,"greier":10959,"emosjon":10960,"iverksette":10961,"angri":10962,"menneskelige":10963,"lut":10964,"klinisk":10965,"begrunnelse":10966,"anm":10967,"##høyde":10968,"harstad":10969,"forsvare":10970,"politiets":10971,"innsiden":10972,"##edø":10973,"repub":10974,"pors":10975,"##las":10976,"heft":10977,"avkast":10978,"lillestrøm":10979,"tilrettelagt":10980,"##lund":10981,"##prosessen":10982,"atmosfære":10983,"##ftes":10984,"##fru":10985,"omd":10986,"##strekk":10987,"##¸ˇ¸ˇ":10988,"utsted":10989,"action":10990,"fødselen":10991,"sikkerheten":10992,"julen":10993,"##splaner":10994,"fron":10995,"lyden":10996,"stammer":10997,"borett":10998,"overordnede":10999,"anim":11000,"kommand":11001,"differ":11002,"artister":11003,"kren":11004,"##egnes":11005,"##skogen":11006,"utbed":11007,"graviditet":11008,"bestemmelsene":11009,"smarttelefoner":11010,"okkup":11011,"eksisterer":11012,"##jeld":11013,"lærerne":11014,"##iskop":11015,"utgjøre":11016,"nif":11017,"engasjere":11018,"kjøttet":11019,"butikkene":11020,"##grammer":11021,"##engen":11022,"parken":11023,"inkludere":11024,"stiftelsen":11025,"##sal":11026,"demokrati":11027,"##ulære":11028,"økonomien":11029,"##mmelige":11030,"##lic":11031,"skept":11032,"girl":11033,"assos":11034,"talent":11035,"##000":11036,"begrensninger":11037,"statsbudsjettet":11038,"##dokum":11039,"oppdateringer":11040,"miljøer":11041,"konserter":11042,"ektefelle":11043,"##verdier":11044,"forpliktet":11045,"bevar":11046,"europeisk":11047,"alexander":11048,"evaluer":11049,"odds":11050,"brut":11051,"kirkens":11052,"##størr":11053,"frid":11054,"flate":11055,"foresatte":11056,"manag":11057,"prosjektering":11058,"download":11059,"##innene":11060,"##anere":11061,"##leis":11062,"varsling":11063,"##sma":11064,"skift":11065,"stev":11066,"diabetes":11067,"utsikten":11068,"rang":11069,"konstruksjon":11070,"vilt":11071,"foretas":11072,"villa":11073,"##brand":11074,"margin":11075,"søppel":11076,"universitetssyke":11077,"dype":11078,"##ict":11079,"##esn":11080,"utveksling":11081,"fou":11082,"tørke":11083,"##anken":11084,"obje":11085,"##preg":11086,"##opplevelse":11087,"##ipro":11088,"revolusjonen":11089,"plager":11090,"antatt":11091,"kvalifisert":11092,"##slene":11093,"siktet":11094,"konseptet":11095,"fit":11096,"søsken":11097,"innhente":11098,"sjeldne":11099,"##alla":11100,"bista":11101,"omfattet":11102,"svømme":11103,"eksperiment":11104,"disipl":11105,"dokt":11106,"##sprosess":11107,"hjelpemidler":11108,"##eden":11109,"koblet":11110,"sone":11111,"##skr":11112,"tv2":11113,"begeist":11114,"trang":11115,"##avis":11116,"##konstru":11117,"##bank":11118,"##seffe":11119,"avgrens":11120,"kylling":11121,"berømte":11122,"heve":11123,"##gavene":11124,"taus":11125,"knytte":11126,"register":11127,"##revende":11128,"løftet":11129,"##spunktet":11130,"ansvarlige":11131,"##ssyn":11132,"forbedret":11133,"ube":11134,"minoritet":11135,"##pat":11136,"##serien":11137,"rekker":11138,"heid":11139,"##kanten":11140,"filmene":11141,"##nement":11142,"mini":11143,"major":11144,"normale":11145,"##fasen":11146,"nina":11147,"festet":11148,"fylte":11149,"korea":11150,"ombudet":11151,"øyvind":11152,"medvirkning":11153,"format":11154,"gjensidig":11155,"##terende":11156,"straffe":11157,"##mf":11158,"sluppet":11159,"belg":11160,"anerkjent":11161,"trent":11162,"bestill":11163,"88":11164,"eva":11165,"##shistor":11166,"tilfreds":11167,"##22":11168,"forbrukere":11169,"trag":11170,"torg":11171,"lagmann":11172,"house":11173,"forutsig":11174,"greie":11175,"plukke":11176,"##roller":11177,"serier":11178,"juridiske":11179,"samtalen":11180,"##isi":11181,"bevilg":11182,"##sselskap":11183,"##snes":11184,"fornuftig":11185,"##ørsmal":11186,"utdanningen":11187,"##rator":11188,"##mis":11189,"varighet":11190,"##kveld":11191,"76":11192,"dramatisk":11193,"##aktige":11194,"##pon":11195,"flertallet":11196,"oppslag":11197,"ambul":11198,"##øtek":11199,"vitenskapelige":11200,"uttrykket":11201,"##vol":11202,"ektem":11203,"##ansere":11204,"tilrettelegge":11205,"kjøpet":11206,"smake":11207,"##arige":11208,"##ymer":11209,"psykiat":11210,"teen":11211,"forholdsvis":11212,"seriøse":11213,"james":11214,"tildel":11215,"møttes":11216,"afrik":11217,"stam":11218,"79":11219,"##endring":11220,"##zon":11221,"##oph":11222,"belys":11223,"nit":11224,"sug":11225,"##egner":11226,"##behandler":11227,"tysker":11228,"98":11229,"report":11230,"market":11231,"opprinnelse":11232,"hundene":11233,"##casino":11234,"veit":11235,"##orien":11236,"drømme":11237,"budskap":11238,"vie":11239,"##tektene":11240,"enormt":11241,"matvarer":11242,"overgangen":11243,"drøm":11244,"kaff":11245,"forlot":11246,"vennligst":11247,"day":11248,"idet":11249,"nadd":11250,"drakt":11251,"manchester":11252,"innsamling":11253,"asfalt":11254,"pens":11255,"varmen":11256,"elg":11257,"faktor":11258,"bam":11259,"svindel":11260,"domstol":11261,"lil":11262,"##bra":11263,"funksjonalitet":11264,"punkter":11265,"##faglige":11266,"##cus":11267,"bestiller":11268,"strikket":11269,"overføres":11270,"ingrid":11271,"dipl":11272,"##relser":11273,"rasjon":11274,"skilsmisse":11275,"kvitt":11276,"miljøp":11277,"##priser":11278,"##spris":11279,"lufthavn":11280,"forsink":11281,"trak":11282,"rense":11283,"##fjellet":11284,"##sprosesser":11285,"##rukket":11286,"flytende":11287,"##bygget":11288,"tryg":11289,"klærne":11290,"##ax":11291,"##ago":11292,"brukernavn":11293,"flyplass":11294,"eriksen":11295,"tvert":11296,"chil":11297,"liverpool":11298,"brenner":11299,"presenteres":11300,"mex":11301,"##ahl":11302,"##ianne":11303,"steng":11304,"koord":11305,"refleksjon":11306,"nybegynn":11307,"desto":11308,"imponert":11309,"fjernes":11310,"pakket":11311,"##sset":11312,"##handtering":11313,"endt":11314,"vegger":11315,"##speriode":11316,"artist":11317,"seriøs":11318,"permisjon":11319,"ulykker":11320,"formannskap":11321,"bosted":11322,"høyst":11323,"beklager":11324,"gps":11325,"king":11326,"##vinner":11327,"spekt":11328,"aas":11329,"vitner":11330,"##undervisning":11331,"interesserte":11332,"redaksjon":11333,"diesel":11334,"tidsskrift":11335,"reddet":11336,"operasjonen":11337,"1989":11338,"landskapet":11339,"##stisk":11340,"##firma":11341,"oli":11342,"ef":11343,"##sesongen":11344,"gjød":11345,"trykker":11346,"##fiske":11347,"##elles":11348,"grave":11349,"fleire":11350,"##ous":11351,"datamaskinen":11352,"dypere":11353,"##seks":11354,"varsler":11355,"rettes":11356,"restauranten":11357,"pla":11358,"uttrykke":11359,"##gruppene":11360,"fordelene":11361,"##kontor":11362,"overføre":11363,"politikken":11364,"##endringer":11365,"anledninger":11366,"yngste":11367,"##skurs":11368,"sannhet":11369,"##levering":11370,"nerv":11371,"prev":11372,"##uset":11373,"barber":11374,"spansk":11375,"##onder":11376,"justis":11377,"linken":11378,"organisere":11379,"##zen":11380,"imøtek":11381,"abo":11382,"antas":11383,"glas":11384,"##sprosjektet":11385,"ken":11386,"eirik":11387,"avsk":11388,"##engden":11389,"asylsøkere":11390,"mesteparten":11391,"##ettig":11392,"venst":11393,"##sem":11394,"##ame":11395,"##skiftet":11396,"tele":11397,"synet":11398,"montering":11399,"long":11400,"pagrepet":11401,"##grø":11402,"industrien":11403,"besøket":11404,"investerings":11405,"palegg":11406,"progn":11407,"bearbeid":11408,"synlige":11409,"bygda":11410,"kvadrat":11411,"##esøk":11412,"##jening":11413,"sykkelen":11414,"fangst":11415,"harry":11416,"spredt":11417,"ungdommene":11418,"anser":11419,"lagde":11420,"78":11421,"protest":11422,"verdifull":11423,"asa":11424,"forandret":11425,"##grunnlaget":11426,"byra":11427,"##sbet":11428,"arbeidsplassen":11429,"workshop":11430,"brøt":11431,"fuck":11432,"dyktig":11433,"konsernet":11434,"voksende":11435,"øystein":11436,"ms":11437,"jesu":11438,"##arets":11439,"##partementets":11440,"##skifte":11441,"skatter":11442,"tegneser":11443,"natta":11444,"pressemelding":11445,"##ience":11446,"##uli":11447,"politikerne":11448,"##eløp":11449,"drivstoff":11450,"oppi":11451,"furu":11452,"##ralen":11453,"##smynd":11454,"##farge":11455,"##ferien":11456,"innspil":11457,"kombinasjonen":11458,"lages":11459,"##sos":11460,"##orden":11461,"##skede":11462,"clo":11463,"begj":11464,"##skjerm":11465,"unødvendig":11466,"redegjør":11467,"jøder":11468,"føres":11469,"##splassen":11470,"skr":11471,"skremmende":11472,"##driv":11473,"hindrer":11474,"pavist":11475,"videok":11476,"advent":11477,"##hagen":11478,"##stemt":11479,"##cia":11480,"handlingen":11481,"dahl":11482,"forutsatt":11483,"buk":11484,"##eiere":11485,"objekt":11486,"aktuell":11487,"traf":11488,"bronse":11489,"##ij":11490,"svalb":11491,"eieren":11492,"finansielle":11493,"høyres":11494,"##ox":11495,"høytid":11496,"sjanger":11497,"##mes":11498,"eierskap":11499,"vore":11500,"fagfolk":11501,"metod":11502,"prioritert":11503,"##ettene":11504,"dags":11505,"endringen":11506,"##reiser":11507,"##skamp":11508,"talmod":11509,"##aktivitet":11510,"damp":11511,"##savis":11512,"radgivning":11513,"##papir":11514,"##gata":11515,"##agas":11516,"nettsidene":11517,"##urit":11518,"##elva":11519,"##treff":11520,"partneren":11521,"61":11522,"##veit":11523,"##jeller":11524,"lovet":11525,"##vendt":11526,"beskrives":11527,"##ifi":11528,"observert":11529,"oppfattet":11530,"mette":11531,"fornybar":11532,"grafikk":11533,"##sdagen":11534,"digitalt":11535,"strengt":11536,"seinere":11537,"etterforsk":11538,"street":11539,"school":11540,"ekstern":11541,"beskytter":11542,"flyr":11543,"kjøres":11544,"sykle":11545,"oppdaterte":11546,"##lubb":11547,"smitte":11548,"##jert":11549,"oversatt":11550,"langsiktige":11551,"sammenligning":11552,"##mel":11553,"fremmet":11554,"##vurdering":11555,"##ula":11556,"diplom":11557,"eig":11558,"erstatte":11559,"malrettet":11560,"##fokus":11561,"kaster":11562,"komplisert":11563,"slitt":11564,"ringte":11565,"##wh":11566,"##savtalen":11567,"##forsikring":11568,"gjenta":11569,"##øvere":11570,"dukke":11571,"uttalte":11572,"##billetter":11573,"hur":11574,"##obe":11575,"##lest":11576,"innse":11577,"##grav":11578,"legitim":11579,"begravet":11580,"inngrep":11581,"##otiske":11582,"kulturer":11583,"peke":11584,"##ighets":11585,"haugen":11586,"##kjøtt":11587,"fløy":11588,"kjetil":11589,"##smenn":11590,"hinder":11591,"cop":11592,"foreslas":11593,"grunnskole":11594,"informer":11595,"inspe":11596,"sjeldent":11597,"she":11598,"eiendomsm":11599,"øyen":11600,"koke":11601,"##høg":11602,"##bad":11603,"komplek":11604,"86":11605,"##oten":11606,"presid":11607,"##retter":11608,"stykker":11609,"reparasjon":11610,"slite":11611,"punktet":11612,"ane":11613,"batt":11614,"sangen":11615,"1940":11616,"kontakten":11617,"##bul":11618,"##sikter":11619,"##ods":11620,"kontaktet":11621,"flu":11622,"bekjent":11623,"##alls":11624,"##sbehandling":11625,"##ee":11626,"varig":11627,"kjole":11628,"##bb":11629,"dokumentet":11630,"kontaktannonse":11631,"##interesser":11632,"##forsker":11633,"nve":11634,"##kje":11635,"ivaretatt":11636,"myke":11637,"kyr":11638,"watch":11639,"deling":11640,"what":11641,"rengjør":11642,"følelses":11643,"pene":11644,"telefoner":11645,"kvar":11646,"sjekking":11647,"attraksjoner":11648,"##az":11649,"sele":11650,"forandring":11651,"stasjonen":11652,"virus":11653,"revet":11654,"pasta":11655,"nøyt":11656,"palagt":11657,"rutine":11658,"##ners":11659,"inspirerende":11660,"##drende":11661,"##iserende":11662,"arhundre":11663,"##inket":11664,"##iliteter":11665,"omfanget":11666,"frode":11667,"##ington":11668,"bake":11669,"lyng":11670,"hekt":11671,"definere":11672,"inse":11673,"informert":11674,"inner":11675,"mellomrom":11676,"96":11677,"tverrfaglig":11678,"installert":11679,"82":11680,"research":11681,"##formal":11682,"##saks":11683,"cla":11684,"takle":11685,"##estad":11686,"tis":11687,"ombord":11688,"uavhengige":11689,"økes":11690,"originale":11691,"gardermoen":11692,"diagnose":11693,"##økt":11694,"postadresse":11695,"senga":11696,"fattigdom":11697,"fiber":11698,"##stasjoner":11699,"svi":11700,"nettbutikken":11701,"svalbard":11702,"vekten":11703,"##ones":11704,"mediene":11705,"sparer":11706,"jevne":11707,"oppmerksomheten":11708,"knapp":11709,"polar":11710,"agenda":11711,"stang":11712,"##handlet":11713,"avgjørelser":11714,"##maling":11715,"##sarbeidet":11716,"severd":11717,"##produksjonen":11718,"betalings":11719,"lakse":11720,"horn":11721,"##usk":11722,"utsettes":11723,"komfortabel":11724,"##idar":11725,"institusjonen":11726,"ipad":11727,"spanske":11728,"samvitt":11729,"brede":11730,"kommersielle":11731,"betra":11732,"177":11733,"karen":11734,"avdekket":11735,"vesentlige":11736,"nærliggende":11737,"angrer":11738,"skjev":11739,"foten":11740,"##celler":11741,"billed":11742,"eie":11743,"arn":11744,"##klassen":11745,"innvilget":11746,"trusler":11747,"stikke":11748,"henter":11749,"renhold":11750,"trett":11751,"##orger":11752,"##so":11753,"vidar":11754,"forsy":11755,"verktøyet":11756,"##rund":11757,"engasjerte":11758,"vaknet":11759,"isb":11760,"bringer":11761,"eik":11762,"##regist":11763,"kris":11764,"celle":11765,"avgifter":11766,"bøy":11767,"virt":11768,"montert":11769,"folketry":11770,"##slutning":11771,"ub":11772,"enden":11773,"rakk":11774,"kreativitet":11775,"viktigheten":11776,"løfter":11777,"fokuset":11778,"##low":11779,"plak":11780,"støtten":11781,"premium":11782,"##itten":11783,"glimt":11784,"regulert":11785,"kirker":11786,"oppgradering":11787,"funksjonshemmede":11788,"forebygging":11789,"primær":11790,"##spillere":11791,"georg":11792,"utkast":11793,"utmerk":11794,"sminke":11795,"logge":11796,"dok":11797,"tast":11798,"##fare":11799,"plus":11800,"##ebok":11801,"planlagte":11802,"hanne":11803,"dybde":11804,"rede":11805,"##elaget":11806,"##yser":11807,"læreren":11808,"versjoner":11809,"truffet":11810,"drømmen":11811,"vende":11812,"lurte":11813,"##forsy":11814,"langvarig":11815,"dj":11816,"miljøvennlig":11817,"##kler":11818,"##profil":11819,"seksuelt":11820,"menneskelig":11821,"tette":11822,"bif":11823,"invitere":11824,"antagelig":11825,"seksualitet":11826,"opplysning":11827,"orgasme":11828,"flash":11829,"aktør":11830,"innover":11831,"utallige":11832,"sjansene":11833,"##vete":11834,"brennende":11835,"typiske":11836,"forsøket":11837,"##itor":11838,"snapchat":11839,"##cont":11840,"tum":11841,"put":11842,"anmeldelser":11843,"redning":11844,"hovedmal":11845,"skit":11846,"1700":11847,"skum":11848,"korru":11849,"ever":11850,"##sykdom":11851,"forskjellene":11852,"overleve":11853,"klatre":11854,"apoteket":11855,"##endt":11856,"gebyr":11857,"rat":11858,"avslag":11859,"spissen":11860,"statistikken":11861,"uttalt":11862,"leverte":11863,"filip":11864,"elevenes":11865,"170":11866,"head":11867,"sok":11868,"arild":11869,"angaende":11870,"##sforen":11871,"eksklusive":11872,"##sutvalget":11873,"##sprodu":11874,"##ikkel":11875,"funksjonene":11876,"frekvens":11877,"leses":11878,"##amper":11879,"reell":11880,"løpere":11881,"kalte":11882,"##forholdet":11883,"trivsel":11884,"asiatisk":11885,"rose":11886,"detaljerte":11887,"muskler":11888,"afghanistan":11889,"universiteter":11890,"nho":11891,"our":11892,"kjønnslepper":11893,"misly":11894,"kommentere":11895,"##kart":11896,"##imet":11897,"effektivitet":11898,"vikar":11899,"rop":11900,"gjennomga":11901,"skuespillere":11902,"kh":11903,"obs":11904,"mannlig":11905,"implement":11906,"distribu":11907,"etisk":11908,"##ynet":11909,"cali":11910,"tenaringer":11911,"bladet":11912,"bryster":11913,"befolknings":11914,"sitater":11915,"trenge":11916,"life":11917,"##kons":11918,"##orno":11919,"overflaten":11920,"victoria":11921,"fortrinn":11922,"tilbudt":11923,"triks":11924,"84":11925,"##oli":11926,"overtid":11927,"##espill":11928,"utkikk":11929,"lise":11930,"resepsjon":11931,"dnb":11932,"##sselskapet":11933,"##ado":11934,"##stillatelse":11935,"kontant":11936,"##inering":11937,"fik":11938,"europas":11939,"##sbasert":11940,"uføre":11941,"escorts":11942,"ligget":11943,"##faget":11944,"keiser":11945,"antak":11946,"logo":11947,"organer":11948,"##fla":11949,"bakover":11950,"jæv":11951,"diskusjonen":11952,"jødiske":11953,"semester":11954,"call":11955,"##ned":11956,"friidrett":11957,"isen":11958,"##yst":11959,"##institusjon":11960,"##ikop":11961,"skjære":11962,"kid":11963,"##fylt":11964,"signaler":11965,"nordic":11966,"dun":11967,"tilbringe":11968,"stemningen":11969,"skif":11970,"was":11971,"desper":11972,"forlagets":11973,"melod":11974,"livssyn":11975,"dørene":11976,"kontrollert":11977,"ledig":11978,"møtene":11979,"plasseres":11980,"fleksibilitet":11981,"bekjempe":11982,"##board":11983,"sjo":11984,"fremmede":11985,"filen":11986,"innstillinger":11987,"kontoen":11988,"mattilsynet":11989,"##iblant":11990,"skjønt":11991,"##muligheter":11992,"maksimal":11993,"grus":11994,"feiret":11995,"pur":11996,"malsett":11997,"##hot":11998,"utsette":11999,"ethvert":12000,"##nadene":12001,"##aturen":12002,"1945":12003,"add":12004,"prosedyrer":12005,"tennene":12006,"barndom":12007,"nettverks":12008,"offisielt":12009,"makten":12010,"krets":12011,"diskutert":12012,"nis":12013,"##estil":12014,"##egne":12015,"##paret":12016,"amm":12017,"pst":12018,"kraftige":12019,"baserer":12020,"##23":12021,"kampanjen":12022,"sha":12023,"ulikt":12024,"##sektoren":12025,"kommisjonen":12026,"enslige":12027,"hvertfall":12028,"arke":12029,"##aktive":12030,"beskytt":12031,"drepe":12032,"øve":12033,"disposisjon":12034,"fylkeskommunen":12035,"bensin":12036,"omtaler":12037,"belastning":12038,"ild":12039,"omfatte":12040,"##irekte":12041,"110":12042,"nordre":12043,"siri":12044,"betingelser":12045,"anton":12046,"kampanje":12047,"seminar":12048,"##ssikkerhet":12049,"##act":12050,"lengden":12051,"how":12052,"rommene":12053,"vap":12054,"uni":12055,"førsteklass":12056,"##dretter":12057,"irrit":12058,"##bevegelsen":12059,"uttale":12060,"kropps":12061,"##stiller":12062,"bd":12063,"spredning":12064,"levetid":12065,"##avdelingen":12066,"tip":12067,"drikker":12068,"##hall":12069,"##brid":12070,"##virksomheten":12071,"krim":12072,"sparebank":12073,"stjør":12074,"##lid":12075,"etterretning":12076,"return":12077,"emnet":12078,"ankomst":12079,"gumm":12080,"##minner":12081,"900":12082,"forval":12083,"##gle":12084,"arbeidsled":12085,"justere":12086,"politim":12087,"rolf":12088,"medarbeider":12089,"jenn":12090,"##rollen":12091,"filt":12092,"175":12093,"##tta":12094,"bønder":12095,"bredere":12096,"##komite":12097,"julet":12098,"##fet":12099,"##no":12100,"timene":12101,"##asiteten":12102,"særdeles":12103,"snur":12104,"##akten":12105,"gaten":12106,"gol":12107,"bestatt":12108,"87":12109,"regionalt":12110,"oppnar":12111,"samiske":12112,"takker":12113,"ypper":12114,"lenke":12115,"ulykken":12116,"vestlandet":12117,"##edato":12118,"##umet":12119,"telt":12120,"##kortet":12121,"dronning":12122,"verket":12123,"nekter":12124,"bm":12125,"markert":12126,"nyhets":12127,"passasjerer":12128,"##itasjon":12129,"##kode":12130,"##annonser":12131,"blodet":12132,"hesten":12133,"nyhetsbrev":12134,"bene":12135,"forstand":12136,"who":12137,"##spekt":12138,"squ":12139,"omstilling":12140,"game":12141,"kunsten":12142,"halvar":12143,"flaske":12144,"peng":12145,"medi":12146,"sas":12147,"tøft":12148,"##sete":12149,"##lywood":12150,"samlingen":12151,"hill":12152,"kare":12153,"stj":12154,"overst":12155,"karbon":12156,"kollektivt":12157,"##kkelige":12158,"##fr":12159,"##utslipp":12160,"offens":12161,"##ining":12162,"##skene":12163,"øyene":12164,"varam":12165,"deriblant":12166,"##oke":12167,"pod":12168,"narvik":12169,"konkurrere":12170,"##befolkningen":12171,"cel":12172,"fineste":12173,"varene":12174,"##klæringen":12175,"##fatter":12176,"varierte":12177,"nettleseren":12178,"##ooth":12179,"ihvert":12180,"##ledere":12181,"##edde":12182,"ressursene":12183,"minus":12184,"##rog":12185,"hust":12186,"beskyttet":12187,"sten":12188,"taushet":12189,"halsen":12190,"innvendig":12191,"forumet":12192,"arrestert":12193,"vul":12194,"##skur":12195,"mørkt":12196,"asp":12197,"##klo":12198,"obligatorisk":12199,"rammen":12200,"strategiske":12201,"lie":12202,"tydelige":12203,"##kontoret":12204,"organisasjonene":12205,"hormon":12206,"##agraf":12207,"span":12208,"utførelse":12209,"grim":12210,"93":12211,"##ndal":12212,"pagaende":12213,"konsulent":12214,"mjø":12215,"89":12216,"megler":12217,"##ti":12218,"forandre":12219,"tillat":12220,"roll":12221,"hilde":12222,"intervjuer":12223,"dress":12224,"ike":12225,"stas":12226,"kristiansund":12227,"helsedirektoratet":12228,"##sykkel":12229,"##sling":12230,"frykter":12231,"center":12232,"besta":12233,"ihvertfall":12234,"innovative":12235,"utforsk":12236,"stjørdal":12237,"uform":12238,"##egnede":12239,"integrering":12240,"##mpet":12241,"##ssenteret":12242,"##plate":12243,"universell":12244,"innby":12245,"kompens":12246,"gjennomsnittet":12247,"fascinerende":12248,"brevet":12249,"potensial":12250,"pav":12251,"etterspørsel":12252,"indirekte":12253,"forespørsel":12254,"oksy":12255,"pynt":12256,"halvdel":12257,"##hyd":12258,"tradisjonen":12259,"marianne":12260,"svarene":12261,"fylles":12262,"##forvaltning":12263,"omega":12264,"##anu":12265,"##ungen":12266,"##utdanningen":12267,"##endrag":12268,"##ory":12269,"hevde":12270,"##naden":12271,"fjorarets":12272,"bedø":12273,"##fyr":12274,"klubbene":12275,"krysset":12276,"##fig":12277,"samlivsbrudd":12278,"first":12279,"bik":12280,"##festet":12281,"politidistrikt":12282,"sikring":12283,"glid":12284,"ork":12285,"##ican":12286,"cle":12287,"yte":12288,"vern":12289,"utbredt":12290,"marius":12291,"##ison":12292,"boksen":12293,"##elem":12294,"slaget":12295,"stemmerett":12296,"##deb":12297,"ic":12298,"ravarer":12299,"tang":12300,"##lok":12301,"sykt":12302,"##ssystemer":12303,"infeksjon":12304,"operativ":12305,"kjemper":12306,"britisk":12307,"avisa":12308,"adam":12309,"travel":12310,"californ":12311,"utgiftene":12312,"ikon":12313,"fremtidig":12314,"testing":12315,"prate":12316,"individer":12317,"##ortert":12318,"##salg":12319,"ligg":12320,"vannkraft":12321,"md":12322,"##sjetter":12323,"oppsø":12324,"bring":12325,"medhold":12326,"##hje":12327,"lenker":12328,"take":12329,"japanske":12330,"pant":12331,"standarden":12332,"##ordninger":12333,"##interv":12334,"##ktivet":12335,"83":12336,"erver":12337,"leverandøren":12338,"palitelig":12339,"lofoten":12340,"laser":12341,"##sordningen":12342,"fugler":12343,"wi":12344,"konferanse":12345,"maksimalt":12346,"tipp":12347,"##omer":12348,"barri":12349,"følelsene":12350,"uriktige":12351,"gh":12352,"##bbe":12353,"tilpasses":12354,"forarsaket":12355,"##sutstyr":12356,"##vidde":12357,"fans":12358,"##planer":12359,"japansk":12360,"##spensjon":12361,"tjenest":12362,"##opptak":12363,"178":12364,"kai":12365,"statsborger":12366,"non":12367,"spot":12368,"minnet":12369,"veggene":12370,"games":12371,"tilfredsstille":12372,"jav":12373,"universitetssykehus":12374,"vs":12375,"inten":12376,"konkurransedy":12377,"##vises":12378,"deltagere":12379,"forbehold":12380,"varierende":12381,"##km":12382,"reelle":12383,"state":12384,"stabilitet":12385,"##dder":12386,"trodd":12387,"##medisin":12388,"signert":12389,"hp":12390,"##jente":12391,"##ami":12392,"reisende":12393,"dratt":12394,"avvist":12395,"management":12396,"middels":12397,"71":12398,"tsjekk":12399,"##ivind":12400,"##skjær":12401,"##rapporten":12402,"sammensla":12403,"##ty":12404,"anledningen":12405,"melke":12406,"nadde":12407,"visning":12408,"hytter":12409,"avslut":12410,"biter":12411,"##light":12412,"##ights":12413,"avsluttes":12414,"pust":12415,"##etta":12416,"##ikre":12417,"##stilte":12418,"posted":12419,"svel":12420,"pastand":12421,"østlandet":12422,"pian":12423,"##lia":12424,"##vurder":12425,"##manning":12426,"##lønn":12427,"blokker":12428,"adressen":12429,"forekommer":12430,"news":12431,"##skomiteen":12432,"sjokk":12433,"sup":12434,"##eremon":12435,"arsakene":12436,"fm":12437,"hæ":12438,"erkl":12439,"fattet":12440,"installere":12441,"løses":12442,"##ografiske":12443,"inneby":12444,"etableres":12445,"##besøk":12446,"dna":12447,"massevis":12448,"føttene":12449,"##støt":12450,"budskapet":12451,"##festivalen":12452,"utstillinger":12453,"##marked":12454,"betales":12455,"eksped":12456,"##liten":12457,"oppmunt":12458,"liknende":12459,"oscar":12460,"##sidig":12461,"rekkefølge":12462,"risikov":12463,"isolasjon":12464,"##ror":12465,"doser":12466,"jag":12467,"##onere":12468,"løk":12469,"nynorsk":12470,"helsen":12471,"##rukturer":12472,"sir":12473,"informasjons":12474,"beholder":12475,"160":12476,"##ding":12477,"nyter":12478,"##bedrift":12479,"saman":12480,"##sgrens":12481,"ingredienser":12482,"gjennomgaende":12483,"overbevis":12484,"forhandlingene":12485,"##edager":12486,"##budsjett":12487,"##fred":12488,"##ulær":12489,"##lings":12490,"pas":12491,"trussel":12492,"voldtekt":12493,"##nettet":12494,"miljøvern":12495,"repet":12496,"kjemikal":12497,"reflekter":12498,"##møter":12499,"cu":12500,"1988":12501,"##meldingen":12502,"##øvelse":12503,"##pri":12504,"##sløsninger":12505,"armer":12506,"##smiljø":12507,"offsh":12508,"3000":12509,"toalett":12510,"litter":12511,"##avtaler":12512,"##lyn":12513,"lod":12514,"##sskjema":12515,"eies":12516,"tryggere":12517,"##administ":12518,"##klet":12519,"cv":12520,"pakken":12521,"##iend":12522,"##akken":12523,"kompleks":12524,"kjemiske":12525,"johnsen":12526,"begreper":12527,"oppfattes":12528,"##vedtak":12529,"vev":12530,"minnes":12531,"avdekke":12532,"styrt":12533,"fysioter":12534,"utenlandsk":12535,"fanger":12536,"##anker":12537,"age":12538,"bh":12539,"##gner":12540,"førsteklasses":12541,"særlige":12542,"rub":12543,"akseptert":12544,"sfo":12545,"reflektere":12546,"merverdi":12547,"realisere":12548,"brenn":12549,"føde":12550,"94":12551,"##sordning":12552,"saft":12553,"kabel":12554,"dap":12555,"opera":12556,"øyer":12557,"hjulpet":12558,"fenomen":12559,"hemmelige":12560,"eierne":12561,"globalt":12562,"kvinnelig":12563,"##radets":12564,"utfordre":12565,"oppfatter":12566,"fremskritt":12567,"farg":12568,"ligner":12569,"fugl":12570,"formiddag":12571,"villige":12572,"##ima":12573,"##gate":12574,"bbw":12575,"luftfart":12576,"kristiansen":12577,"##ssøk":12578,"##endes":12579,"office":12580,"sjømat":12581,"bekrefte":12582,"romanen":12583,"hoppet":12584,"overraskelse":12585,"folker":12586,"biskop":12587,"fjerning":12588,"nap":12589,"puste":12590,"kristine":12591,"internet":12592,"skjule":12593,"##assasje":12594,"tilsett":12595,"fenom":12596,"mva":12597,"##akes":12598,"armen":12599,"handlingsplan":12600,"indikerer":12601,"##hyl":12602,"barcel":12603,"observasjon":12604,"verdip":12605,"kjøret":12606,"latt":12607,"##leir":12608,"frat":12609,"##dage":12610,"telle":12611,"##planlegg":12612,"##skultur":12613,"idretts":12614,"light":12615,"italienske":12616,"eidsvoll":12617,"doktorgrad":12618,"flørte":12619,"##litter":12620,"etterful":12621,"landsby":12622,"stolten":12623,"about":12624,"aksepterer":12625,"prestasjon":12626,"wash":12627,"stoler":12628,"##orium":12629,"##armerende":12630,"kristoffer":12631,"tørket":12632,"overvaking":12633,"observasjoner":12634,"##nivaet":12635,"elven":12636,"##renes":12637,"referer":12638,"##litteratur":12639,"ort":12640,"pikk":12641,"##ordane":12642,"##jelp":12643,"ultral":12644,"regning":12645,"sammendrag":12646,"opptrer":12647,"føringer":12648,"unngar":12649,"forek":12650,"tilhørighet":12651,"presenterte":12652,"##vendige":12653,"tidlige":12654,"individuelt":12655,"##pum":12656,"gatene":12657,"##kas":12658,"nyskap":12659,"polske":12660,"aktivitetene":12661,"skreddersy":12662,"##visningen":12663,"##ikopter":12664,"leken":12665,"##mmelse":12666,"aggress":12667,"##frem":12668,"fabrikk":12669,"ubehag":12670,"detaljene":12671,"sporet":12672,"##menter":12673,"nøkkelen":12674,"fjerner":12675,"dødsfall":12676,"heste":12677,"##konkurran":12678,"##500":12679,"fiks":12680,"notat":12681,"ullev":12682,"dedik":12683,"vera":12684,"opphavsrett":12685,"laborator":12686,"brenne":12687,"##protokoll":12688,"fester":12689,"sans":12690,"california":12691,"tabl":12692,"kinesisk":12693,"ventilasjon":12694,"##oversikt":12695,"1600":12696,"gunstig":12697,"zo":12698,"cur":12699,"##opphold":12700,"fjordane":12701,"komponenter":12702,"stoltenberg":12703,"foregikk":12704,"##ansatte":12705,"fres":12706,"lider":12707,"instrumenter":12708,"hiv":12709,"posisjoner":12710,"##site":12711,"ivrig":12712,"onde":12713,"kaptein":12714,"##riksen":12715,"drøft":12716,"yd":12717,"##svitenskap":12718,"kriminelle":12719,"forferdelig":12720,"saud":12721,"rem":12722,"george":12723,"##likasjoner":12724,"samferdsel":12725,"pornofilmer":12726,"mandat":12727,"vegen":12728,"publisering":12729,"cub":12730,"ubehagelig":12731,"bekken":12732,"##spartiet":12733,"room":12734,"synge":12735,"fundament":12736,"##vinn":12737,"antib":12738,"##feransen":12739,"livets":12740,"egenkapital":12741,"##geren":12742,"dyrere":12743,"anta":12744,"ron":12745,"rapportert":12746,"party":12747,"rase":12748,"##ript":12749,"##forfatter":12750,"tegninger":12751,"##ssent":12752,"##skriter":12753,"israelske":12754,"medvir":12755,"##øysund":12756,"kjapt":12757,"##emal":12758,"brygg":12759,"konserv":12760,"ytrings":12761,"byggher":12762,"##kjøl":12763,"1985":12764,"##etaten":12765,"176":12766,"##dren":12767,"white":12768,"##kna":12769,"amund":12770,"##prosess":12771,"1920":12772,"blandet":12773,"##sbil":12774,"avsløre":12775,"symptomene":12776,"lastet":12777,"##flaten":12778,"indian":12779,"##book":12780,"tegning":12781,"fellesskapet":12782,"studiene":12783,"diskriminering":12784,"veterinær":12785,"##sekretær":12786,"provin":12787,"løypa":12788,"næringen":12789,"##jar":12790,"venstres":12791,"##renning":12792,"tersk":12793,"##opol":12794,"avh":12795,"kaker":12796,"##steknologi":12797,"##lis":12798,"##sspørsmal":12799,"cit":12800,"gjekk":12801,"redig":12802,"bakterier":12803,"##hast":12804,"servere":12805,"vennlige":12806,"porsjon":12807,"stian":12808,"92":12809,"stikker":12810,"score":12811,"email":12812,"tine":12813,"##forbruket":12814,"menneskerettigheter":12815,"regnskapet":12816,"##otisk":12817,"mors":12818,"flom":12819,"##aming":12820,"steink":12821,"batteri":12822,"avhengige":12823,"stord":12824,"folks":12825,"konserten":12826,"filosofi":12827,"abort":12828,"##stemning":12829,"##skort":12830,"utsiden":12831,"forelskelse":12832,"##savdelingen":12833,"##dres":12834,"mexico":12835,"kring":12836,"##klubben":12837,"venne":12838,"kvalifiserte":12839,"##cket":12840,"##ommens":12841,"class":12842,"anerkjennelse":12843,"beregning":12844,"elverum":12845,"drepte":12846,"kompetans":12847,"##gs":12848,"##unge":12849,"terrenget":12850,"road":12851,"minutters":12852,"##aku":12853,"rally":12854,"##ransjen":12855,"##flo":12856,"grunnskolen":12857,"afp":12858,"tod":12859,"##kne":12860,"heilt":12861,"fagmiljø":12862,"fremtidens":12863,"bnr":12864,"##mott":12865,"##sapp":12866,"protok":12867,"prester":12868,"fjær":12869,"salen":12870,"kulturen":12871,"samord":12872,"uttalelser":12873,"##uste":12874,"kvant":12875,"um":12876,"mestre":12877,"coug":12878,"##oster":12879,"betalte":12880,"anvendelse":12881,"erna":12882,"bransjer":12883,"knytter":12884,"vestre":12885,"##utgifter":12886,"forne":12887,"skry":12888,"styremedlem":12889,"##ai":12890,"bestemor":12891,"even":12892,"##gden":12893,"##mate":12894,"traden":12895,"kostnads":12896,"##klasse":12897,"farten":12898,"pakker":12899,"heis":12900,"130":12901,"lud":12902,"##verker":12903,"##styrke":12904,"verdig":12905,"ign":12906,"##hs":12907,"##ologien":12908,"##marka":12909,"cec":12910,"1930":12911,"verdiene":12912,"solide":12913,"avhengighet":12914,"avhør":12915,"produseres":12916,"familiem":12917,"smith":12918,"børs":12919,"strekk":12920,"herfra":12921,"##bre":12922,"ungdomsskole":12923,"instrument":12924,"donald":12925,"##gjenger":12926,"##lu":12927,"lita":12928,"##ikasjonen":12929,"menes":12930,"husdyr":12931,"risikerer":12932,"gid":12933,"##været":12934,"væske":12935,"dol":12936,"signer":12937,"hjørnet":12938,"nedt":12939,"ambisjon":12940,"##øyter":12941,"oppdateres":12942,"flytting":12943,"##por":12944,"##setningene":12945,"autor":12946,"lunge":12947,"røtter":12948,"sakk":12949,"pressen":12950,"##los":12951,"rhf":12952,"malinger":12953,"mistanke":12954,"forvaltningen":12955,"##ifin":12956,"attraktiv":12957,"ving":12958,"##ariske":12959,"##elønn":12960,"varte":12961,"datingt":12962,"arbeidsgivere":12963,"##una":12964,"datoer":12965,"nøtter":12966,"##strakt":12967,"##design":12968,"##ema":12969,"##filmen":12970,"##atib":12971,"forp":12972,"sørøst":12973,"##ikket":12974,"vedtekter":12975,"løsningene":12976,"##foreldre":12977,"bytt":12978,"##urg":12979,"stortingets":12980,"biologisk":12981,"markeder":12982,"##visninger":12983,"aa":12984,"lens":12985,"linker":12986,"fugle":12987,"host":12988,"prestasjoner":12989,"##ifisert":12990,"fortvil":12991,"sjette":12992,"strekke":12993,"##født":12994,"inntektene":12995,"turneringen":12996,"biologiske":12997,"virkemiddel":12998,"spreng":12999,"adop":13000,"ce":13001,"##hrine":13002,"jom":13003,"straffes":13004,"fryktelig":13005,"nysgjerrig":13006,"budd":13007,"1986":13008,"tilnærmet":13009,"##fas":13010,"forretningsm":13011,"cruise":13012,"angiv":13013,"valerenga":13014,"barcelona":13015,"leiet":13016,"##østen":13017,"bekreftelse":13018,"fremdrift":13019,"140":13020,"snarere":13021,"katolske":13022,"spart":13023,"dumt":13024,"ideelle":13025,"chic":13026,"smitt":13027,"nad":13028,"sannsynligheten":13029,"jess":13030,"apningstider":13031,"##omi":13032,"arrangør":13033,"lovens":13034,"resulterte":13035,"nordover":13036,"prinsipp":13037,"jent":13038,"1987":13039,"skala":13040,"drøyt":13041,"kf":13042,"uthold":13043,"##gin":13044,"##øyen":13045,"presidenten":13046,"##artikler":13047,"jubileum":13048,"5000":13049,"##assering":13050,"##beskrivelse":13051,"institusjonene":13052,"somal":13053,"viktigst":13054,"renn":13055,"##mg":13056,"manglet":13057,"nords":13058,"konklusjonen":13059,"dvd":13060,"##funksjoner":13061,"helene":13062,"verdipapir":13063,"modellene":13064,"##ressurser":13065,"elimin":13066,"beting":13067,"ekstreme":13068,"hjørne":13069,"stabilt":13070,"sviger":13071,"hæren":13072,"konflikten":13073,"traum":13074,"kompatib":13075,"hop":13076,"bekymringer":13077,"oksygen":13078,"##stig":13079,"##venner":13080,"tau":13081,"spesialisert":13082,"oppfat":13083,"frigjøre":13084,"##maker":13085,"##atoren":13086,"glemmer":13087,"undertegnede":13088,"cast":13089,"sverre":13090,"350":13091,"temaene":13092,"forandringer":13093,"etterfulgt":13094,"##oni":13095,"samvittighet":13096,"techn":13097,"##systemer":13098,"##itz":13099,"##oto":13100,"##icy":13101,"##reden":13102,"utslag":13103,"##organisasjonene":13104,"arrangerte":13105,"opptre":13106,"berørte":13107,"lønner":13108,"sjal":13109,"##aria":13110,"##raten":13111,"oppmøte":13112,"klimag":13113,"fusjon":13114,"##bered":13115,"utskrift":13116,"overta":13117,"lengste":13118,"##vers":13119,"beach":13120,"metal":13121,"##øpe":13122,"gavekort":13123,"utbetaling":13124,"ink":13125,"##politikken":13126,"national":13127,"##kester":13128,"inneholdt":13129,"vietnam":13130,"ofre":13131,"kronisk":13132,"lastebil":13133,"##slø":13134,"kanten":13135,"krevde":13136,"forløp":13137,"opererer":13138,"dec":13139,"gata":13140,"vokal":13141,"pagar":13142,"rasmus":13143,"livmor":13144,"##forholdene":13145,"mødre":13146,"medlems":13147,"tørt":13148,"ubet":13149,"vgs":13150,"##bs":13151,"spesifikt":13152,"utgjorde":13153,"jammen":13154,"oppuss":13155,"fornær":13156,"personale":13157,"oh":13158,"utnyttelse":13159,"manu":13160,"flinkere":13161,"eas":13162,"arkt":13163,"kandidat":13164,"##ikat":13165,"univer":13166,"oppsikt":13167,"forsiden":13168,"music":13169,"##sbed":13170,"smaken":13171,"stue":13172,"irland":13173,"##skad":13174,"realistisk":13175,"lekk":13176,"arsregn":13177,"xx":13178,"guid":13179,"øvelsen":13180,"dry":13181,"hallo":13182,"##altern":13183,"grove":13184,"##fugl":13185,"##ærne":13186,"gun":13187,"steget":13188,"##armen":13189,"katter":13190,"##hov":13191,"tyngre":13192,"##gjen":13193,"sunne":13194,"kartlegg":13195,"stua":13196,"deltid":13197,"##ures":13198,"sextreff":13199,"##stopp":13200,"stige":13201,"treet":13202,"##ville":13203,"##status":13204,"bundet":13205,"##snivaet":13206,"trer":13207,"merknader":13208,"vester":13209,"##registeret":13210,"estim":13211,"restri":13212,"studenten":13213,"##arena":13214,"svangerskap":13215,"iso":13216,"semifin":13217,"elbil":13218,"fjorden":13219,"##annede":13220,"forlatt":13221,"kaos":13222,"oppkjøp":13223,"legend":13224,"abonnement":13225,"stater":13226,"hensynet":13227,"sintef":13228,"heile":13229,"forblir":13230,"hjemmesiden":13231,"commun":13232,"##vang":13233,"##fta":13234,"##sign":13235,"##navnet":13236,"lytter":13237,"##ther":13238,"grensene":13239,"##bøkene":13240,"installasjoner":13241,"aar":13242,"ruten":13243,"short":13244,"legevakt":13245,"bestilte":13246,"variasjoner":13247,"##utvalgets":13248,"##bakgrunn":13249,"avkastning":13250,"uio":13251,"##ioner":13252,"svend":13253,"oppgjøret":13254,"armene":13255,"mt":13256,"renter":13257,"sho":13258,"gjenopprette":13259,"silje":13260,"utfl":13261,"inkluderende":13262,"##smak":13263,"##lærer":13264,"formidler":13265,"##stiske":13266,"trøtt":13267,"ørret":13268,"kvalitets":13269,"##jønn":13270,"knyttes":13271,"tilfellene":13272,"##nø":13273,"opplegget":13274,"petroleum":13275,"##staver":13276,"fukt":13277,"flybilletter":13278,"kampanjer":13279,"utnevnt":13280,"##slar":13281,"porsgrunn":13282,"##ny":13283,"menigheten":13284,"lufta":13285,"##ndene":13286,"jud":13287,"toler":13288,"overn":13289,"komplekse":13290,"egil":13291,"forbedringer":13292,"##bod":13293,"##pakke":13294,"skarp":13295,"kopp":13296,"eksam":13297,"mek":13298,"lukt":13299,"vedlagt":13300,"teknologiske":13301,"kostet":13302,"cecil":13303,"livskvalitet":13304,"inviterte":13305,"allerg":13306,"moderat":13307,"##elys":13308,"spont":13309,"stemte":13310,"trenden":13311,"##skir":13312,"males":13313,"##kamer":13314,"tynne":13315,"fastsettes":13316,"innebære":13317,"##frist":13318,"rap":13319,"##ient":13320,"##jenestene":13321,"løv":13322,"teat":13323,"song":13324,"##coin":13325,"##utfordr":13326,"##stab":13327,"smal":13328,"eleg":13329,"ari":13330,"trine":13331,"##ferdig":13332,"domin":13333,"tekstene":13334,"##dan":13335,"bondage":13336,"tell":13337,"juryen":13338,"##avdeling":13339,"statsrad":13340,"kaja":13341,"##store":13342,"innlo":13343,"page":13344,"jødene":13345,"spenn":13346,"fair":13347,"##jeg":13348,"ikea":13349,"seo":13350,"veiene":13351,"naboer":13352,"essens":13353,"bomull":13354,"##ology":13355,"##partner":13356,"##stinget":13357,"forestillingen":13358,"tipping":13359,"database":13360,"##fle":13361,"roger":13362,"sørlandet":13363,"gater":13364,"koser":13365,"dagsord":13366,"bdsm":13367,"heidi":13368,"##entrep":13369,"##onsult":13370,"##smuligheter":13371,"##wi":13372,"nyheten":13373,"overbevist":13374,"tilnærm":13375,"modul":13376,"bena":13377,"tilsendt":13378,"utan":13379,"gyl":13380,"funksjonsevne":13381,"##vilt":13382,"##srom":13383,"american":13384,"##estaende":13385,"involverte":13386,"##ksp":13387,"penn":13388,"matri":13389,"alminnelig":13390,"kuk":13391,"landbruket":13392,"##cs":13393,"hollywood":13394,"fortellinger":13395,"oppfordret":13396,"tunnel":13397,"valp":13398,"brygge":13399,"diagnosen":13400,"stiger":13401,"kursen":13402,"kles":13403,"malsetting":13404,"gevinst":13405,"ivaretar":13406,"hug":13407,"installer":13408,"strekningen":13409,"forkynn":13410,"høyder":13411,"beregne":13412,"manip":13413,"mask":13414,"eneb":13415,"##sfull":13416,"egenskapene":13417,"helgeland":13418,"##how":13419,"##sand":13420,"hemmelighet":13421,"ryddet":13422,"separat":13423,"rosenborg":13424,"##iltak":13425,"utlø":13426,"virksomhetens":13427,"rettighetene":13428,"lidelse":13429,"avgjøres":13430,"offshore":13431,"##stilles":13432,"##veggen":13433,"##gje":13434,"##pende":13435,"halve":13436,"tidene":13437,"krang":13438,"##dis":13439,"forsvars":13440,"##øper":13441,"opphør":13442,"##punktet":13443,"##ram":13444,"union":13445,"##ship":13446,"potensielt":13447,"utland":13448,"##varme":13449,"sarbare":13450,"sjarmerende":13451,"##cast":13452,"flatt":13453,"nettcasino":13454,"markere":13455,"eiendeler":13456,"##skompetanse":13457,"night":13458,"ovennevnte":13459,"forklart":13460,"subst":13461,"##feranser":13462,"redigere":13463,"sentralbyra":13464,"iron":13465,"utvil":13466,"midlertid":13467,"referanser":13468,"utsatte":13469,"uforplikt":13470,"klit":13471,"bull":13472,"kroppens":13473,"syndrom":13474,"utveks":13475,"angir":13476,"avsla":13477,"##opplysninger":13478,"avd":13479,"foretar":13480,"forbruket":13481,"krydder":13482,"eksplosjon":13483,"body":13484,"##inker":13485,"erob":13486,"landslaget":13487,"tilpasning":13488,"belysning":13489,"anbefaling":13490,"##finn":13491,"##styrets":13492,"nettavisen":13493,"##vald":13494,"##smo":13495,"vesten":13496,"enkeltpersoner":13497,"svind":13498,"slettet":13499,"kopiere":13500,"søkemotor":13501,"steiner":13502,"kogn":13503,"##ords":13504,"slet":13505,"para":13506,"justin":13507,"narkotika":13508,"elegant":13509,"redskap":13510,"lederne":13511,"usikre":13512,"sammensatt":13513,"lady":13514,"flørting":13515,"adm":13516,"ere":13517,"##ero":13518,"forega":13519,"##real":13520,"taper":13521,"##forslaget":13522,"hare":13523,"##strene":13524,"domstolen":13525,"sammenhengende":13526,"kjennetegn":13527,"celler":13528,"touch":13529,"##sbolig":13530,"forbrukslan":13531,"##ail":13532,"##rogen":13533,"gjengjeld":13534,"##æk":13535,"resterende":13536,"auto":13537,"##sklubb":13538,"mesterskap":13539,"kanalen":13540,"bow":13541,"##usalem":13542,"fokusert":13543,"##rekke":13544,"formelt":13545,"htm":13546,"radmannens":13547,"baksiden":13548,"tante":13549,"soverom":13550,"dalen":13551,"##70":13552,"##skriver":13553,"##gro":13554,"fantasier":13555,"##bryt":13556,"bestillinger":13557,"nike":13558,"##elærer":13559,"babyen":13560,"fordelen":13561,"overnattings":13562,"##ople":13563,"##reres":13564,"datat":13565,"summen":13566,"registreres":13567,"ettermiddagen":13568,"sports":13569,"løser":13570,"innvirkning":13571,"brosj":13572,"kliniske":13573,"##kunnskap":13574,"blande":13575,"meningen":13576,"##kommet":13577,"jordbruks":13578,"gripe":13579,"seter":13580,"anbefalte":13581,"py":13582,"undersøker":13583,"comp":13584,"bing":13585,"##lett":13586,"stevne":13587,"##jan":13588,"##stua":13589,"pakistan":13590,"fortjent":13591,"eiendommer":13592,"##sutgifter":13593,"skilte":13594,"aldre":13595,"jerusalem":13596,"##ktorat":13597,"##spraksis":13598,"arabiske":13599,"rana":13600,"mektig":13601,"garasje":13602,"##ssituasjon":13603,"konsult":13604,"##annelsen":13605,"blatt":13606,"##handlinger":13607,"fleksibel":13608,"##berget":13609,"bokmal":13610,"##bruken":13611,"##blikk":13612,"rednings":13613,"gresk":13614,"kraftverk":13615,"gjem":13616,"prostitu":13617,"døds":13618,"styremøte":13619,"mannskap":13620,"møtedato":13621,"samvær":13622,"klinikk":13623,"magne":13624,"oppa":13625,"##jakt":13626,"1200":13627,"stjel":13628,"utfordrer":13629,"hvitløk":13630,"nærme":13631,"omfattes":13632,"syr":13633,"objekter":13634,"tettere":13635,"zaland":13636,"farget":13637,"topper":13638,"must":13639,"orient":13640,"innrømmer":13641,"beboere":13642,"høyskole":13643,"##eliste":13644,"flyttes":13645,"theres":13646,"##ou":13647,"##ated":13648,"redegj":13649,"##relaterte":13650,"tyskerne":13651,"##ender":13652,"kjempeg":13653,"tig":13654,"bevegelsen":13655,"seni":13656,"tat":13657,"erg":13658,"##giene":13659,"tiltrekke":13660,"spir":13661,"##90":13662,"musikere":13663,"forbrukerne":13664,"falsk":13665,"oppfører":13666,"realitet":13667,"##øster":13668,"oljen":13669,"samfunnsøkonom":13670,"##sformer":13671,"gigant":13672,"##situ":13673,"##ystemer":13674,"fasiliteter":13675,"grunder":13676,"##hor":13677,"##skart":13678,"##skjel":13679,"satel":13680,"matlag":13681,"saksbehandler":13682,"representere":13683,"##skinn":13684,"malgruppen":13685,"foresla":13686,"analysen":13687,"ellen":13688,"ya":13689,"week":13690,"##bygda":13691,"camilla":13692,"reduserte":13693,"e6":13694,"novelle":13695,"##mennene":13696,"##varende":13697,"rammene":13698,"porteføl":13699,"forsinket":13700,"##funksjonen":13701,"sigurd":13702,"blue":13703,"moh":13704,"pels":13705,"blød":13706,"overhodet":13707,"bydelen":13708,"##36":13709,"formelle":13710,"steinar":13711,"##ipe":13712,"korrupsjon":13713,"stien":13714,"omsorgs":13715,"##kjørt":13716,"daværende":13717,"kundens":13718,"##ift":13719,"##verdien":13720,"brystet":13721,"inngangen":13722,"aksjonen":13723,"forestillinger":13724,"bidragsy":13725,"levd":13726,"sakkynd":13727,"overvekt":13728,"dominerende":13729,"lier":13730,"##itch":13731,"hyper":13732,"##ject":13733,"##iører":13734,"arve":13735,"##rek":13736,"storby":13737,"trønder":13738,"blikket":13739,"problemstilling":13740,"foregaende":13741,"dritt":13742,"synliggjøre":13743,"berit":13744,"humanit":13745,"komfortabelt":13746,"adferd":13747,"##isitet":13748,"enkleste":13749,"føtter":13750,"skulder":13751,"##festival":13752,"nominert":13753,"tenkelige":13754,"sint":13755,"kvalifisering":13756,"løping":13757,"sinne":13758,"ordinært":13759,"##repet":13760,"##istens":13761,"##ckey":13762,"bay":13763,"ih":13764,"alarm":13765,"forklarte":13766,"next":13767,"isk":13768,"##urene":13769,"antakelig":13770,"synspunkter":13771,"##bere":13772,"tex":13773,"##sikker":13774,"##mene":13775,"##revne":13776,"washington":13777,"rare":13778,"arsverk":13779,"##fyll":13780,"glemte":13781,"river":13782,"forbindelser":13783,"filipp":13784,"##holdere":13785,"trivelig":13786,"richard":13787,"##erto":13788,"rikelig":13789,"gevinster":13790,"##egning":13791,"servering":13792,"kondom":13793,"magnet":13794,"##ieren":13795,"bankene":13796,"fli":13797,"##rang":13798,"introdusert":13799,"##kalt":13800,"##hamm":13801,"trender":13802,"##retninger":13803,"innred":13804,"utenriksminister":13805,"sjang":13806,"binde":13807,"zalando":13808,"##klin":13809,"mental":13810,"følgelig":13811,"oppsøke":13812,"brannen":13813,"spøk":13814,"iverk":13815,"desse":13816,"realiteten":13817,"støt":13818,"medik":13819,"nude":13820,"overkant":13821,"knull":13822,"omdø":13823,"etterspørselen":13824,"##iklene":13825,"leif":13826,"kloster":13827,"tilbudene":13828,"tenarings":13829,"karakterer":13830,"sprer":13831,"oppstatt":13832,"gust":13833,"hann":13834,"##misjon":13835,"##atering":13836,"bjar":13837,"##not":13838,"##forstaelse":13839,"##osisjonen":13840,"madrid":13841,"mamm":13842,"##ssprak":13843,"hyppig":13844,"##apet":13845,"enestaende":13846,"meet":13847,"1984":13848,"##holmen":13849,"applikasjoner":13850,"smiler":13851,"besto":13852,"##skveld":13853,"deltagelse":13854,"##jeden":13855,"alternativt":13856,"framfor":13857,"lunde":13858,"ml":13859,"plattformen":13860,"##umer":13861,"rengjøre":13862,"##funnet":13863,"##skilte":13864,"##valgte":13865,"aksjesel":13866,"scand":13867,"##løsninger":13868,"##samarbeid":13869,"elektris":13870,"oversettelse":13871,"møteplasser":13872,"vurderte":13873,"##ji":13874,"teoretisk":13875,"fins":13876,"##egrunn":13877,"teorien":13878,"paradise":13879,"studiepoeng":13880,"##jort":13881,"spore":13882,"utbetalt":13883,"##egarden":13884,"regioner":13885,"attraktivt":13886,"rekruttere":13887,"##sykdommer":13888,"##esi":13889,"elend":13890,"smykker":13891,"videreutdanning":13892,"impul":13893,"##hengere":13894,"utvilsomt":13895,"anse":13896,"edvard":13897,"kontrast":13898,"tastatur":13899,"##vog":13900,"brødrene":13901,"access":13902,"eb":13903,"tort":13904,"figuren":13905,"koden":13906,"##effe":13907,"##sproblemer":13908,"##ason":13909,"##arig":13910,"telefonnummer":13911,"helseforetakene":13912,"##list":13913,"fikse":13914,"##mest":13915,"skinner":13916,"kriteriene":13917,"##vogn":13918,"##attra":13919,"utøve":13920,"mosk":13921,"##lete":13922,"rettferdighet":13923,"holmen":13924,"velkjente":13925,"##direktør":13926,"bond":13927,"veder":13928,"plagg":13929,"##ario":13930,"senke":13931,"smert":13932,"##savtaler":13933,"##edagen":13934,"##merter":13935,"forlater":13936,"kriminal":13937,"kvele":13938,"rud":13939,"oppsto":13940,"tolke":13941,"##bun":13942,"returner":13943,"##slo":13944,"skapet":13945,"øvelsene":13946,"stanse":13947,"kronpr":13948,"##statt":13949,"manif":13950,"bedriftens":13951,"forventningene":13952,"beregnes":13953,"hod":13954,"radhus":13955,"##ansvaret":13956,"##ulin":13957,"tilstander":13958,"skapes":13959,"kulturminner":13960,"karbo":13961,"alternativene":13962,"internkontroll":13963,"læringsm":13964,"##sstat":13965,"vogn":13966,"doping":13967,"merc":13968,"bebygg":13969,"bonuser":13970,"milliard":13971,"gjerd":13972,"geografisk":13973,"##lima":13974,"røros":13975,"krone":13976,"hauge":13977,"magasinet":13978,"ending":13979,"ruller":13980,"normer":13981,"elementene":13982,"forsvarets":13983,"##søy":13984,"idretten":13985,"##sap":13986,"harete":13987,"##gitte":13988,"levanger":13989,"oslos":13990,"østerrike":13991,"##sber":13992,"tilsku":13993,"svangerskapet":13994,"##esign":13995,"erfaringene":13996,"bn":13997,"##umm":13998,"feri":13999,"bern":14000,"postboks":14001,"berørt":14002,"##levelse":14003,"klikker":14004,"aspekter":14005,"##mh":14006,"ordnet":14007,"term":14008,"pase":14009,"oppsigelse":14010,"fortelling":14011,"helikopter":14012,"bly":14013,"##usive":14014,"##bruddet":14015,"budsjetter":14016,"figurer":14017,"leserne":14018,"rapportere":14019,"##zy":14020,"beregninger":14021,"ss":14022,"##fett":14023,"sekretær":14024,"sara":14025,"religiøs":14026,"rapporterer":14027,"care":14028,"tes":14029,"##andelen":14030,"fargerike":14031,"eksempl":14032,"##fordeling":14033,"avslørt":14034,"hoff":14035,"avslapp":14036,"oppføring":14037,"##veiene":14038,"finansiert":14039,"sammenlign":14040,"reform":14041,"optimalt":14042,"wild":14043,"forhandlere":14044,"##75":14045,"funker":14046,"kvalitetssikring":14047,"debu":14048,"##bygning":14049,"##svik":14050,"##øring":14051,"mattet":14052,"indiske":14053,"tidenes":14054,"greske":14055,"landsmøtet":14056,"robust":14057,"nyhetene":14058,"##fotball":14059,"##sorgen":14060,"##pter":14061,"blodtrykk":14062,"underlag":14063,"ambassad":14064,"bruksom":14065,"funnene":14066,"pedagogiske":14067,"##sfond":14068,"vasker":14069,"skoene":14070,"##espiller":14071,"##direktoratet":14072,"lokall":14073,"##ssyk":14074,"reagere":14075,"##verdenen":14076,"borgere":14077,"aksjene":14078,"vedtar":14079,"oppnas":14080,"##faren":14081,"klient":14082,"utslippene":14083,"slott":14084,"konsum":14085,"##pad":14086,"##alens":14087,"##andres":14088,"##spot":14089,"besøks":14090,"argent":14091,"bard":14092,"storeb":14093,"tobakk":14094,"##periode":14095,"frigjør":14096,"ulv":14097,"infeksjoner":14098,"kompensasjon":14099,"klippe":14100,"barnehagene":14101,"festen":14102,"angar":14103,"astrid":14104,"ernæring":14105,"nokre":14106,"pettersen":14107,"kongsv":14108,"prot":14109,"tannlege":14110,"sidan":14111,"##størrelse":14112,"user":14113,"##ular":14114,"wall":14115,"##fal":14116,"dater":14117,"utarbeides":14118,"##cle":14119,"##versi":14120,"spin":14121,"mp":14122,"vene":14123,"foreslo":14124,"amp":14125,"now":14126,"arsen":14127,"kunstig":14128,"antibi":14129,"svekket":14130,"eksperim":14131,"ios":14132,"contin":14133,"kjønnsleppene":14134,"sf":14135,"observer":14136,"spark":14137,"digitalisering":14138,"beund":14139,"ungdommen":14140,"imellom":14141,"##opplevelsen":14142,"skriftlige":14143,"kopier":14144,"174":14145,"presentasjonen":14146,"##sbudsjett":14147,"nade":14148,"town":14149,"dokumentar":14150,"##forskjell":14151,"##kamera":14152,"kontorer":14153,"##retten":14154,"##agte":14155,"invitasjon":14156,"people":14157,"ax":14158,"##aps":14159,"elleve":14160,"flukt":14161,"kompis":14162,"runden":14163,"##mmek":14164,"summer":14165,"##ikant":14166,"hals":14167,"sertifisert":14168,"ambassa":14169,"##stegn":14170,"samarbeidspartner":14171,"gong":14172,"visstnok":14173,"søkeren":14174,"pussy":14175,"takknemlig":14176,"hopper":14177,"##vit":14178,"sorte":14179,"pier":14180,"##egrupper":14181,"orientert":14182,"romantiske":14183,"##stro":14184,"##ologer":14185,"merverdiavgift":14186,"spas":14187,"pt":14188,"hater":14189,"brid":14190,"dama":14191,"fv":14192,"utskift":14193,"##farlig":14194,"produsenten":14195,"ordne":14196,"tilhenger":14197,"søndre":14198,"temmelig":14199,"found":14200,"sykling":14201,"transp":14202,"fuktig":14203,"spektak":14204,"ultim":14205,"publisere":14206,"rykket":14207,"retninger":14208,"##esult":14209,"##work":14210,"search":14211,"synon":14212,"tull":14213,"erling":14214,"opposisjon":14215,"1917":14216,"oppford":14217,"umiddelbar":14218,"breiv":14219,"##spesif":14220,"##engder":14221,"##kalling":14222,"fau":14223,"kortene":14224,"maneders":14225,"uklart":14226,"##synlig":14227,"##ytta":14228,"forvand":14229,"##out":14230,"reder":14231,"hendelse":14232,"##ledet":14233,"##sforskning":14234,"##byggingen":14235,"sofie":14236,"tjenestem":14237,"##demokrat":14238,"##oller":14239,
[...]
