{"version":"1.0","truncation":null,"padding":null,"added_tokens":[{"id":0,"special":true,"content":"[PAD]","single_word":false,"lstrip":false,"rstrip":false,"normalized":false},{"id":1,"special":true,"content":"[UNK]","single_word":false,"lstrip":false,"rstrip":false,"normalized":false},{"id":2,"special":true,"content":"[CLS]","single_word":false,"lstrip":false,"rstrip":false,"normalized":false},{"id":3,"special":true,"content":"[SEP]","single_word":false,"lstrip":false,"rstrip":false,"normalized":false},{"id":4,"special":true,"content":"[MASK]","single_word":false,"lstrip":false,"rstrip":false,"normalized":false}],"normalizer":{"type":"BertNormalizer","clean_text":true,"handle_chinese_chars":true,"strip_accents":null,"lowercase":true},"pre_tokenizer":{"type":"BertPreTokenizer"},"post_processor":null,"decoder":{"type":"WordPiece","prefix":"##","cleanup":true},"model":{"type":"WordPiece","unk_token":"[UNK]","continuing_subword_prefix":"##","max_input_chars_per_word":100,"vocab":{"[PAD]":0,"[UNK]":1,"[CLS]":2,"[SEP]":3,"[MASK]":4,"!":5,"\"":6,"#":7,"$":8,"%":9,"&":10,"'":11,"(":12,")":13,"*":14,"+":15,",":16,"-":17,".":18,"/":19,"0":20,"1":21,"2":22,"3":23,"4":24,"5":25,"6":26,"7":27,"8":28,"9":29,":":30,";":31,"<":32,"=":33,">":34,"?":35,"@":36,"[":37,"\\":38,"]":39,"^":40,"_":41,"`":42,"a":43,"b":44,"c":45,"d":46,"e":47,"f":48,"g":49,"h":50,"i":51,"j":52,"k":53,"l":54,"m":55,"n":56,"o":57,"p":58,"q":59,"r":60,"s":61,"t":62,"u":63,"v":64,"w":65,"x":66,"y":67,"z":68,"{":69,"|":70,"}":71,"~":72,"¡":73,"¢":74,"£":75,"¤":76,"¥":77,"¦":78,"§":79,"¨":80,"©":81,"ª":82,"«":83,"¬":84,"®":85,"¯":86,"°":87,"±":88,"²":89,"³":90,"´":91,"µ":92,"¶":93,"·":94,"¸":95,"¹":96,"º":97,"»":98,"¼":99,"½":100,"¾":101,"¿":102,"×":103,"ß":104,"æ":105,"ð":106,"÷":107,"ø":108,"þ":109,"đ":110,"ı":111,"ł":112,"œ":113,"ƒ":114,"ɑ":115,"ɔ":116,"ə":117,"ɛ":118,"ʹ":119,"ʺ":120,"ʿ":121,"ˆ":122,"ˇ":123,"ˈ":124,"ː":125,"˚":126,"˜":127,"ˮ":128,"ͼ":129,"α":130,"β":131,"γ":132,"δ":133,"ε":134,"ζ":135,"η":136,"θ":137,"ι":138,"κ":139,"λ":140,"μ":141,"ν":142,"ξ":143,"ο":144,"π":145,"ρ":146,"ς":147,"σ":148,"τ":149,"υ":150,"φ":151,"χ":152,"ψ":153,"ω":154,"а":155,"б":156,"в":157,"г":158,"д":159,"е":160,"ж":161,"з":162,"и":163,"к":164,"л":165,"м":166,"н":167,"о":168,"п":169,"р":170,"с":171,"т":172,"у":173,"ф":174,"х":175,"ц":176,"ч":177,"ш":178,"щ":179,"ъ":180,"ы":181,"ь":182,"э":183,"ю":184,"я":185,"ђ":186,"є":187,"ѕ":188,"і":189,"ј":190,"љ":191,"ґ":192,"һ":193,"ա":194,"ն":195,"ո":196,"ր":197,"א":198,"ב":199,"ג":200,"ד":201,"ה":202,"ו":203,"ז":204,"ח":205,"ט":206,"י":207,"כ":208,"ל":209,"ם":210,"מ":211,"ן":212,"נ":213,"ס":214,"ע":215,"פ":216,"צ":217,"ק":218,"ר":219,"ש":220,"ת":221,"،":222,"ء":223,"ا":224,"ب":225,"ة":226,"ت":227,"ث":228,"ج":229,"ح":230,"خ":231,"د":232,"ذ":233,"ر":234,"ز":235,"س":236,"ش":237,"ص":238,"ض":239,"ط":240,"ظ":241,"ع":242,"غ":243,"ـ":244,"ف":245,"ق":246,"ك":247,"ل":248,"م":249,"ن":250,"ه":251,"و":252,"ى":253,"ي":254,"پ":255,"چ":256,"ک":257,"گ":258,"ی":259,"ە":260,"क":261,"ग":262,"ज":263,"त":264,"द":265,"न":266,"प":267,"ब":268,"म":269,"य":270,"र":271,"ल":272,"व":273,"स":274,"ह":275,"ा":276,"ि":277,"ी":278,"ो":279,"ক":280,"ন":281,"ব":282,"য":283,"র":284,"ল":285,"া":286,"ি":287,"ে":288,"க":289,"த":290,"ப":291,"ம":292,"ர":293,"ா":294,"ி":295,"ு":296,"ാ":297,"ി":298,"ก":299,"ข":300,"ค":301,"ง":302,"จ":303,"ช":304,"ด":305,"ต":306,"ท":307,"น":308,"บ":309,"ป":310,"พ":311,"ม":312,"ย":313,"ร":314,"ล":315,"ว":316,"ส":317,"ห":318,"อ":319,"ะ":320,"า":321,"เ":322,"แ":323,"โ":324,"ไ":325,"་":326,"ა":327,"ე":328,"ი":329,"ლ":330,"მ":331,"ნ":332,"ო":333,"რ":334,"ს":335,"ᄀ":336,"ᄂ":337,"ᄃ":338,"ᄅ":339,"ᄆ":340,"ᄇ":341,"ᄉ":342,"ᄋ":343,"ᄌ":344,"ᄎ":345,"ᄏ":346,"ᄐ":347,"ᄑ":348,"ᄒ":349,"ᅡ":350,"ᅢ":351,"ᅥ":352,"ᅦ":353,"ᅧ":354,"ᅩ":355,"ᅪ":356,"ᅬ":357,"ᅭ":358,"ᅮ":359,"ᅲ":360,"ᅳ":361,"ᅴ":362,"ᅵ":363,"ᆨ":364,"ᆫ":365,"ᆯ":366,"ᆷ":367,"ᆸ":368,"ᆼ":369,"ᐈ":370,"‐":371,"‑":372,"‒":373,"–":374,"—":375,"‘":376,"’":377,"‚":378,"“":379,"”":380,"„":381,"†":382,"‡":383,"•":384,"…":385,"‰":386,"′":387,"″":388,"‹":389,"›":390,"₂":391,"₨":392,"€":393,"℃":394,"№":395,"™":396,"←":397,"↑":398,"→":399,"↓":400,"⇒":401,"−":402,"√":403,"≈":404,"≤":405,"≥":406,"─":407,"■":408,"□":409,"▪":410,"▫":411,"▲":412,"▶":413,"►":414,"▻":415,"▼":416,"◊":417,"○":418,"●":419,"☀":420,"★":421,"☆":422,"☺":423,"♀":424,"♡":425,"♣":426,"♥":427,"♦":428,"✅":429,"✌":430,"✓":431,"✔":432,"✚":433,"✨":434,"✭":435,"✰":436,"❄":437,"❑":438,"❗":439,"❤":440,"➔":441,"⠀":442,"⭐":443,"ⰰ":444,"、":445,"。":446,"「":447,"」":448,"【":449,"】":450,"あ":451,"い":452,"う":453,"え":454,"お":455,"か":456,"き":457,"く":458,"け":459,"こ":460,"さ":461,"し":462,"す":463,"せ":464,"そ":465,"た":466,"ち":467,"っ":468,"つ":469,"て":470,"と":471,"な":472,"に":473,"の":474,"は":475,"へ":476,"ま":477,"み":478,"め":479,"も":480,"や":481,"よ":482,"ら":483,"り":484,"る":485,"れ":486,"わ":487,"を":488,"ん":489,"ア":490,"ィ":491,"イ":492,"ウ":493,"ェ":494,"エ":495,"オ":496,"カ":497,"キ":498,"ク":499,"ケ":500,"コ":501,"サ":502,"シ":503,"ス":504,"セ":505,"タ":506,"チ":507,"ッ":508,"ツ":509,"テ":510,"ト":511,"ナ":512,"ニ":513,"ネ":514,"ハ":515,"ヒ":516,"フ":517,"ヘ":518,"ホ":519,"マ":520,"ミ":521,"ム":522,"メ":523,"モ":524,"ャ":525,"ュ":526,"ョ":527,"ラ":528,"リ":529,"ル":530,"レ":531,"ロ":532,"ワ":533,"ン":534,"・":535,"ー":536,"䄀":537,"䈀":538,"䔀":539,"䜀":540,"䠀":541,"䤀":542,"䬀":543,"䰀":544,"䴀":545,"一":546,"七":547,"万":548,"三":549,"上":550,"下":551,"不":552,"与":553,"专":554,"世":555,"业":556,"东":557,"两":558,"个":559,"中":560,"为":561,"主":562,"么":563,"之":564,"乐":565,"九":566,"也":567,"乡":568,"买":569,"了":570,"争":571,"事":572,"二":573,"于":574,"五":575,"亚":576,"交":577,"产":578,"京":579,"人":580,"什":581,"今":582,"他":583,"仙":584,"代":585,"以":586,"们":587,"件":588,"伀":589,"会":590,"传":591,"位":592,"体":593,"何":594,"作":595,"你":596,"使":597,"供":598,"保":599,"信":600,"元":601,"光":602,"免":603,"入":604,"全":605,"八":606,"公":607,"六":608,"关":609,"其":610,"内":611,"円":612,"册":613,"准":614,"出":615,"刀":616,"分":617,"划":618,"创":619,"利":620,"到":621,"制":622,"前":623,"力":624,"加":625,"务":626,"动":627,"势":628,"動":629,"匀":630,"化":631,"北":632,"区":633,"十":634,"华":635,"单":636,"南":637,"博":638,"原":639,"县":640,"及":641,"双":642,"发":643,"取":644,"口":645,"古":646,"可":647,"台":648,"号":649,"司":650,"吀":651,"合":652,"同":653,"名":654,"后":655,"吗":656,"和":657,"品":658,"哪":659,"唀":660,"商":661,"器":662,"四":663,"回":664,"国":665,"图":666,"在":667,"地":668,"场":669,"址":670,"坛":671,"城":672,"堂":673,"場":674,"外":675,"多":676,"大":677,"天":678,"太":679,"头":680,"奖":681,"女":682,"好":683,"如":684,"姐":685,"娱":686,"婆":687,"子":688,"字":689,"学":690,"安":691,"官":692,"定":693,"宝":694,"实":695,"客":696,"家":697,"富":698,"对":699,"将":700,"小":701,"少":702,"就":703,"尾":704,"展":705,"山":706,"島":707,"川":708,"州":709,"工":710,"巧":711,"市":712,"布":713,"平":714,"年":715,"广":716,"庆":717,"库":718,"店":719,"度":720,"建":721,"开":722,"式":723,"当":724,"录":725,"彩":726,"影":727,"律":728,"得":729,"微":730,"心":731,"必":732,"忙":733,"快":734,"怎":735,"思":736,"性":737,"情":738,"意":739,"感":740,"戏":741,"成":742,"我":743,"户":744,"所":745,"手":746,"打":747,"技":748,"投":749,"报":750,"拉":751,"持":752,"挂":753,"指":754,"推":755,"提":756,"播":757,"教":758,"数":759,"文":760,"料":761,"斯":762,"新":763,"方":764,"无":765,"日":766,"时":767,"明":768,"星":769,"是":770,"時":771,"更":772,"最":773,"月":774,"有":775,"服":776,"期":777,"木":778,"未":779,"本":780,"机":781,"杀":782,"村":783,"来":784,"東":785,"林":786,"枚":787,"果":788,"校":789,"样":790,"格":791,"業":792,"次":793,"正":794,"比":795,"民":796,"氓":797,"気":798,"水":799,"江":800,"河":801,"法":802,"波":803,"注":804,"活":805,"流":806,"测":807,"海":808,"清":809,"港":810,"游":811,"湖":812,"源":813,"澳":814,"点":815,"爱":816,"片":817,"版":818,"牌":819,"牛":820,"物":821,"特":822,"狗":823,"玄":824,"王":825,"玩":826,"现":827,"球":828,"理":829,"生":830,"用":831,"田":832,"电":833,"画":834,"界":835,"登":836,"白":837,"百":838,"的":839,"皇":840,"目":841,"盲":842,"直":843,"相":844,"看":845,"県":846,"真":847,"着":848,"知":849,"石":850,"码":851,"社":852,"神":853,"票":854,"福":855,"科":856,"程":857,"空":858,"立":859,"站":860,"第":861,"等":862,"算":863,"管":864,"精":865,"系":866,"红":867,"线":868,"组":869,"经":870,"结":871,"网":872,"美":873,"群":874,"老":875,"者":876,"肖":877,"能":878,"自":879,"色":880,"花":881,"英":882,"行":883,"表":884,"西":885,"要":886,"見":887,"规":888,"视":889,"解":890,"語":891,"计":892,"记":893,"论":894,"设":895,"诗":896,"财":897,"费":898,"资":899,"赌":900,"赛":901,"赢":902,"走":903,"超":904,"足":905,"跑":906,"路":907,"身":908,"车":909,"软":910,"载":911,"过":912,"这":913,"进":914,"送":915,"选":916,"通":917,"道":918,"部":919,"都":920,"酶":921,"里":922,"重":923,"量":924,"金":925,"钱":926,"镇":927,"长":928,"間":929,"门":930,"阳":931,"际":932,"限":933,"院":934,"集":935,"霸":936,"青":937,"面":938,"音":939,"预":940,"频":941,"食":942,"香":943,"马":944,"高":945,"黄":946,"龙":947,"ﬁ":948,"ﬂ":949,"！":950,"（":951,"）":952,"，":953,"：":954,"？":955,"ｩ":956,"ﾞ":957,"￼":958,"🌟":959,"🌸":960,"🎉":961,"🏻":962,"🏼":963,"🏽":964,"👊":965,"👌":966,"👍":967,"👏":968,"💕":969,"💖":970,"💗":971,"💙":972,"💚":973,"💛":974,"💜":975,"💪":976,"🔥":977,"😀":978,"😁":979,"😂":980,"😃":981,"😄":982,"😅":983,"😆":984,"😉":985,"😊":986,"😋":987,"😍":988,"😎":989,"😘":990,"😛":991,"😜":992,"😦":993,"😬":994,"😱":995,"😳":996,"🙁":997,"🙂":998,"🙄":999,"🙈":1000,"🙌":1001,"🙏":1002,"🤔":1003,"🤗":1004,"##o":1005,"##s":1006,"##t":1007,"##a":1008,"##d":1009,"##r":1010,"##e":1011,"##h":1012,"##i":1013,"##c":1014,"##m":1015,"##ø":1016,"##p":1017,"##b":1018,"##l":1019,"##k":1020,"##n":1021,"##u":1022,"##g":1023,"##v":1024,"##j":1025,"##2":1026,"##0":1027,"##1":1028,"##y":1029,"##z":1030,"##q":1031,"##f":1032,"##8":1033,"##æ":1034,"##x":1035,"##w":1036,"##3":1037,"##7":1038,"##5":1039,"##9":1040,"##4":1041,"##ι":1042,"##κ":1043,"##ο":1044,"##υ":1045,"##е":1046,"##г":1047,"##о":1048,"##в":1049,"##м":1050,"##ا":1051,"##گ":1052,"##و":1053,"##ي":1054,"##ه":1055,"##6":1056,"##ᅩ":1057,"##´":1058,"##т":1059,"##с":1060,"##а":1061,"##л":1062,"##я":1063,"##ˈ":1064,"##€":1065,"##¤":1066,"##ل":1067,"##ر":1068,"##م":1069,"##ن":1070,"##ج":1071,"##ͼ":1072,"##ю":1073,"##ч":1074,"##и":1075,"##😍":1076,"##™":1077,"##¬":1078,"##た":1079,"##し":1080,"##ち":1081,"##か":1082,"##р":1083,"##н":1084,"##к":1085,"##¹":1086,"##¦":1087,"##ض":1088,"##ب":1089,"##ع":1090,"##ت":1091,"##π":1092,"##λ":1093,"##ε":1094,"##σ":1095,"##τ":1096,"##η":1097,"##α":1098,"##ν":1099,"##х":1100,"##д":1101,"##у":1102,"##ร":1103,"##ะ":1104,"##เ":1105,"##ท":1106,"##จ":1107,"##น":1108,"##る":1109,"##の":1110,"##を":1111,"##б":1112,"##🤗":1113,"##ж":1114,"##ा":1115,"##ल":1116,"##ш":1117,"##ᄎ":1118,"##ᅢ":1119,"##ь":1120,"##ח":1121,"##ש":1122,"##ב":1123,"##י":1124,"##ם":1125,"##ช":1126,"##ð":1127,"##¨":1128,"##φ":1129,"##ω":1130,"##β":1131,"##ц":1132,"##ᅥ":1133,"##ᆼ":1134,"##ᄉ":1135,"##ᅡ":1136,"##ᆫ":1137,"##ᄋ":1138,"##ᅳ":1139,"##ᆸ":1140,"##°":1141,"##と":1142,"##め":1143,"##れ":1144,"##¸":1145,"##ی":1146,"##п":1147,"##і":1148,"##ı":1149,"##よ":1150,"##く":1151,"##あ":1152,"##د":1153,"##ق":1154,"##て":1155,"##お":1156,"##こ":1157,"##す":1158,"##º":1159,"##÷":1160,"##ə":1161,"##ה":1162,"##ת":1163,"##פ":1164,"##ו":1165,"##ρ":1166,"##γ":1167,"##ς":1168,"##♥":1169,"##💗":1170,"##ʹ":1171,"##س":1172,"##غ":1173,"##さ":1174,"##は":1175,"##ി":1176,"##ാ":1177,"##ハ":1178,"##ー":1179,"##ト":1180,"##®":1181,"##ᄃ":1182,"##メ":1183,"##ン":1184,"##タ":1185,"##ム":1186,"##з":1187,"##×":1188,"##っ":1189,"##า":1190,"##ย":1191,"##ด":1192,"##ค":1193,"##い":1194,"##χ":1195,"##ы":1196,"##œ":1197,"##ف":1198,"##ᄌ":1199,"##わ":1200,"##り":1201,"##に":1202,"##ـ":1203,"##پ":1204,"##ە":1205,"##ł":1206,"##💜":1207,"##❤":1208,"##💛":1209,"##💚":1210,"##👌":1211,"##え":1212,"##ʺ":1213,"##💪":1214,"##🏼":1215,"##ま":1216,"##ル":1217,"##フ":1218,"##²":1219,"##😉":1220,"##ˇ":1221,"##−":1222,"##😱":1223,"##😜":1224,"##ล":1225,"##พ":1226,"##บ":1227,"##ห":1228,"##ข":1229,"##อ":1230,"##ว":1231,"##ม":1232,"##ต":1233,"##ก":1234,"##แ":1235,"##シ":1236,"##カ":1237,"##ß":1238,"##🌟":1239,"##✓":1240,"##ᄀ":1241,"##þ":1242,"##ง":1243,"##ส":1244,"##😄":1245,"##🌸":1246,"##£":1247,"##う":1248,"##も":1249,"##な":1250,"##ら":1251,"##¥":1252,"##ة":1253,"##ґ":1254,"##щ":1255,"##👏":1256,"##ᆯ":1257,"##ᄐ":1258,"##ᄆ":1259,"##ᄂ":1260,"##ᅵ":1261,"##き":1262,"##ო":1263,"##ح":1264,"##ᄅ":1265,"##ᅦ":1266,"##✨":1267,"##ز":1268,"##💕":1269,"##け":1270,"##ป":1271,"##ן":1272,"##ф":1273,"##ᅮ":1274,"##ᄇ":1275,"##ワ":1276,"##מ":1277,"##ל":1278,"##ᅪ":1279,"##ᄒ":1280,"##ᆨ":1281,"##ᄑ":1282,"##ᄏ":1283,"##ˆ":1284,"##ᆷ":1285,"##サ":1286,"##イ":1287,"##ク":1288,"##ョ":1289,"##ッ":1290,"##क":1291,"##स":1292,"##ी":1293,"##μ":1294,"##ᅧ":1295,"##โ":1296,"##ไ":1297,"##ɔ":1298,"##ე":1299,"##რ":1300,"##მ":1301,"##ნ":1302,"##म":1303,"##न":1304,"##🔥":1305,"##ר":1306,"##ホ":1307,"##コ":1308,"##ј":1309,"##♀":1310,"##ি":1311,"##ে":1312,"##া":1313,"##র":1314,"##せ":1315,"##ん":1316,"##テ":1317,"##🙂":1318,"##һ":1319,"##ک":1320,"##😃":1321,"##ア":1322,"##レ":1323,"##ス":1324,"##ע":1325,"##👍":1326,"##🎉":1327,"##ল":1328,"##ª":1329,"##🏻":1330,"##つ":1331,"##ヘ":1332,"##ா":1333,"##ி":1334,"##ص":1335,"##خ":1336,"##ء":1337,"##ד":1338,"##ס":1339,"##リ":1340,"##δ":1341,"##オ":1342,"##ロ":1343,"##モ":1344,"##ك":1345,"##😊":1346,"##ъ":1347,"##र":1348,"##►":1349,"##😛":1350,"##ப":1351,"##³":1352,"##🙏":1353,"##ィ":1354,"##ネ":1355,"##😘":1356,"##©":1357,"##ش":1358,"##ѕ":1359,"##є":1360,"##チ":1361,"##ナ":1362,"##א":1363,"##צ":1364,"##נ":1365,"##ラ":1366,"##đ":1367,"##≈":1368,"##¼":1369,"##ウ":1370,"##э":1371,"##ﬁ":1372,"##マ":1373,"##க":1374,"##ு":1375,"##ம":1376,"##ヒ":1377,"##💖":1378,"##¯":1379,"##ケ":1380,"##½":1381,"##😂":1382,"##त":1383,"##🏽":1384,"##キ":1385,"##ন":1386,"##ব":1387,"##য":1388,"##ュ":1389,"##ა":1390,"##ს":1391,"##ი":1392,"##द":1393,"##த":1394,"##→":1395,"##ミ":1396,"##ャ":1397,"##ो":1398,"##य":1399,"##😳":1400,"##ब":1401,"##エ":1402,"##ツ":1403,"##😎":1404,"##ƒ":1405,"##ʿ":1406,"##☺":1407,"##ז":1408,"##🙄":1409,"##ա":1410,"##ն":1411,"##✔":1412,"##ﬂ":1413,"##ニ":1414,"##ि":1415,"##ث":1416,"##ى":1417,"##☀":1418,"##😅":1419,"##ψ":1420,"##ξ":1421,"##ᅬ":1422,"##ᅭ":1423,"##ェ":1424,"##そ":1425,"##⠀":1426,"##ᅲ":1427,"##µ":1428,"##ր":1429,"##љ":1430,"##😋":1431,"##や":1432,"##ர":1433,"##♡":1434,"##💙":1435,"##ᅴ":1436,"##ظ":1437,"##ط":1438,"##ђ":1439,"##🙈":1440,"##¢":1441,"##ذ":1442,"##כ":1443,"##व":1444,"##ק":1445,"##˜":1446,"##ո":1447,"##ज":1448,"##❗":1449,"##چ":1450,"##♦":1451,"##♣":1452,"##😀":1453,"##み":1454,"##↓":1455,"##■":1456,"##ɑ":1457,"##ː":1458,"##☆":1459,"##±":1460,"##ग":1461,"##ˮ":1462,"##😁":1463,"##θ":1464,"##🙁":1465,"##ט":1466,"##ლ":1467,"##セ":1468,"##ג":1469,"##ɛ":1470,"##○":1471,"##へ":1472,"##😦":1473,"##ক":1474,"##●":1475,"##✌":1476,"##¾":1477,"##प":1478,"##ζ":1479,"##👊":1480,"##ह":1481,"##🙌":1482,"##⭐":1483,"##˚":1484,"##≤":1485,"##😬":1486,"##ﾞ":1487,"##√":1488,"##￼":1489,"##❄":1490,"##№":1491,"##😆":1492,"##▶":1493,"##₂":1494,"##✚":1495,"##🤔":1496,"##↑":1497,"##□":1498,"##✅":1499,"##℃":1500,"##←":1501,"##★":1502,"##⇒":1503,"##─":1504,"##▪":1505,"##≥":1506,"##◊":1507,"##▼":1508,"##▻":1509,"##▫":1510,"##✭":1511,"##ｩ":1512,"##▲":1513,"##✰":1514,"##ⰰ":1515,"##➔":1516,"##❑":1517,"##er":1518,"##en":1519,"##ar":1520,"##an":1521,"##or":1522,"##et":1523,"##in":1524,"##ll":1525,"##tt":1526,"##st":1527,"##ig":1528,"##om":1529,"##ed":1530,"##ag":1531,"##de":1532,"for":1533,"##on":1534,"##ing":1535,"##al":1536,"##ch":1537,"##at":1538,"##el":1539,"##sk":1540,"en":1541,"och":1542,"ti":1543,"det":1544,"##ra":1545,"ar":1546,"pa":1547,"in":1548,"vi":1549,"som":1550,"##es":1551,"med":1552,"att":1553,"sa":1554,"##te":1555,"og":1556,"st":1557,"##kt":1558,"##re":1559,"av":1560,"sk":1561,"##un":1562,"##der":1563,"##ck":1564,"har":1565,"var":1566,"##as":1567,"an":1568,"##ol":1569,"##and":1570,"den":1571,"##na":1572,"##ter":1573,"de":1574,"##ning":1575,"##ver":1576,"##pp":1577,"##il":1578,"##lig":1579,"##ik":1580,"##sa":1581,"er":1582,"##is":1583,"om":1584,"##ad":1585,"##it":1586,"##eg":1587,"##ro":1588,"till":1589,"##em":1590,"##ang":1591,"jag":1592,"til":1593,"bl":1594,"##iv":1595,"kan":1596,"at":1597,"##id":1598,"##all":1599,"##am":1600,"##ade":1601,"##ur":1602,"du":1603,"##ion":1604,"ut":1605,"##isk":1606,"##att":1607,"##ne":1608,"##ast":1609,"##og":1610,"men":1611,"##ot":1612,"##for":1613,"##ller":1614,"man":1615,"kom":1616,"##den":1617,"af":1618,"##se":1619,"##ke":1620,"##est":1621,"fr":1622,"##ok":1623,"inte":1624,"##ør":1625,"##are":1626,"##us":1627,"ett":1628,"sp":1629,"##ent":1630,"all":1631,"##ut":1632,"der":1633,"un":1634,"##od":1635,"##ist":1636,"sam":1637,"##mer":1638,"##av":1639,"##ru":1640,"##ul":1641,"han":1642,"##ens":1643,"eller":1644,"##ta":1645,"##itt":1646,"se":1647,"##var":1648,"##igt":1649,"##ort":1650,"##het":1651,"##ande":1652,"be":1653,"##le":1654,"##ell":1655,"##ill":1656,"##ser":1657,"nar":1658,"min":1659,"fra":1660,"##ak":1661,"##fter":1662,"##gen":1663,"pro":1664,"##ær":1665,"over":1666,"##kke":1667,"fin":1668,"##ss":1669,"##ska":1670,"upp":1671,"hel":1672,"##ker":1673,"##ger":1674,"##art":1675,"##ir":1676,"hv":1677,"fl":1678,"##ud":1679,"##sp":1680,"al":1681,"##ri":1682,"##sen":1683,"kl":1684,"kon":1685,"##ation":1686,"under":1687,"##ov":1688,"##um":1689,"et":1690,"##ende":1691,"##yg":1692,"ny":1693,"##sl":1694,"sig":1695,"fa":1696,"and":1697,"##und":1698,"##ft":1699,"##ma":1700,"ikke":1701,"20":1702,"sl":1703,"tr":1704,"efter":1705,"##yck":1706,"##op":1707,"##ej":1708,"##ord":1709,"gr":1710,"ska":1711,"##ev":1712,"##ere":1713,"##os":1714,"bar":1715,"##ant":1716,"##ns":1717,"jeg":1718,"fran":1719,"far":1720,"##ull":1721,"pr":1722,"vil":1723,"##ligt":1724,"##ff":1725,"##del":1726,"kun":1727,"##ge":1728,"stor":1729,"da":1730,"pl":1731,"per":1732,"del":1733,"nag":1734,"##bb":1735,"nu":1736,"ud":1737,"##ige":1738,"val":1739,"dag":1740,"##ett":1741,"ha":1742,"##bl":1743,"##ek":1744,"##ost":1745,"kr":1746,"##im":1747,"op":1748,"##dag":1749,"gen":1750,"##ans":1751,"##ick":1752,"dar":1753,"##yr":1754,"##ber":1755,"##je":1756,"##bet":1757,"kv":1758,"##ark":1759,"##ene":1760,"li":1761,"##dr":1762,"##ic":1763,"##ling":1764,"##yn":1765,"sj":1766,"##ede":1767,"sin":1768,"##ner":1769,"mo":1770,"##arna":1771,"kommer":1772,"or":1773,"tid":1774,"vara":1775,"##sta":1776,"mig":1777,"ta":1778,"##ock":1779,"##ske":1780,"##per":1781,"##son":1782,"mang":1783,"lag":1784,"komm":1785,"##ste":1786,"##ga":1787,"ma":1788,"bor":1789,"##hol":1790,"##ier":1791,"##aste":1792,"##kl":1793,"sv":1794,"##ass":1795,"din":1796,"gj":1797,"br":1798,"##ess":1799,"##else":1800,"##gar":1801,"ver":1802,"vill":1803,"hj":1804,"##sm":1805,"lang":1806,"19":1807,"##eder":1808,"##opp":1809,"##men":1810,"gor":1811,"##be":1812,"mot":1813,"ind":1814,"##va":1815,"##ningen":1816,"##tid":1817,"tra":1818,"mer":1819,"##ket":1820,"jo":1821,"##sam":1822,"ann":1823,"##ks":1824,"beh":1825,"reg":1826,"##me":1827,"##da":1828,"##itet":1829,"ved":1830,"skal":1831,"bil":1832,"##00":1833,"##ikt":1834,"dig":1835,"##ust":1836,"201":1837,"##jon":1838,"sex":1839,"væ":1840,"vid":1841,"sen":1842,"re":1843,"alla":1844,"##ken":1845,"##ann":1846,"bet":1847,"finns":1848,"##ika":1849,"bra":1850,"##pl":1851,"##alt":1852,"fram":1853,"sm":1854,"blev":1855,"##ater":1856,"##æn":1857,"ser":1858,"god":1859,"##age":1860,"hon":1861,"opp":1862,"hur":1863,"##ka":1864,"##ulle":1865,"gar":1866,"bru":1867,"##oll":1868,"lite":1869,"##ycket":1870,"ex":1871,"inn":1872,"##ekt":1873,"##iska":1874,"sag":1875,"sy":1876,"##ats":1877,"ch":1878,"th":1879,"##ie":1880,"skulle":1881,"##org":1882,"##satt":1883,"##vis":1884,"##ott":1885,"##jer":1886,"mycket":1887,"bli":1888,"##edan":1889,"##iga":1890,"gang":1891,"hav":1892,"ty":1893,"##ring":1894,"person":1895,"##ia":1896,"##era":1897,"##kel":1898,"bara":1899,"ogsa":1900,"##eck":1901,"##tal":1902,"##la":1903,"##ien":1904,"ber":1905,"vad":1906,"##hed":1907,"##det":1908,"nog":1909,"##eter":1910,"blir":1911,"ol":1912,"genom":1913,"##net":1914,"hand":1915,"##ering":1916,"best":1917,"##ug":1918,"##ja":1919,"gl":1920,"hem":1921,"nor":1922,"##liga":1923,"aven":1924,"##jt":1925,"res":1926,"ock":1927,"##du":1928,"her":1929,"fort":1930,"##ive":1931,"##ligen":1932,"##ster":1933,"dem":1934,"ocksa":1935,"andra":1936,"##bil":1937,"anv":1938,"van":1939,"##jen":1940,"##ack":1941,"##gang":1942,"helt":1943,"##atur":1944,"lig":1945,"sel":1946,"##ci":1947,"fors":1948,"dat":1949,"hade":1950,"hvor":1951,"##som":1952,"fol":1953,"##lag":1954,"##tr":1955,"##alv":1956,"##ygg":1957,"##akt":1958,"sid":1959,"allt":1960,"mal":1961,"##ys":1962,"##far":1963,"detta":1964,"##dre":1965,"bes":1966,"##kar":1967,"##hall":1968,"##ult":1969,"##ningar":1970,"før":1971,"være":1972,"kommun":1973,"vis":1974,"##ler":1975,"##ds":1976,"no":1977,"##skap":1978,"##iske":1979,"##ce":1980,"##mar":1981,"##dt":1982,"##ets":1983,"arbet":1984,"land":1985,"des":1986,"ga":1987,"##over":1988,"on":1989,"##stall":1990,"tan":1991,"par":1992,"mell":1993,"of":1994,"##gi":1995,"##rem":1996,"##get":1997,"##uk":1998,"spel":1999,"##land":2000,"ju":2001,"svar":2002,"##sb":2003,"kvin":2004,"mat":2005,"satt":2006,"##ytt":2007,"por":2008,"dan":2009,"##form":2010,"##pa":2011,"##rev":2012,"##riv":2013,"samt":2014,"##ala":2015,"##des":2016,"hen":2017,"tro":2018,"##ram":2019,"mar":2020,"##if":2021,"utan":2022,"##man":2023,"sn":2024,"vin":2025,"##erna":2026,"##atis":2027,"selv":2028,"##dig":2029,"##æl":2030,"fil":2031,"liv":2032,"le":2033,"##enter":2034,"oss":2035,"##pr":2036,"akt":2037,"inter":2038,"lan":2039,"##unkt":2040,"di":2041,"bade":2042,"##sn":2043,"tj":2044,"sven":2045,"to":2046,"hog":2047,"##ingen":2048,"form":2049,"nagon":2050,"##bar":2051,"##io":2052,"##erne":2053,"##yl":2054,"so":2055,"##amp":2056,"manga":2057,"barn":2058,"##nings":2059,"el":2060,"##bej":2061,"##ale":2062,"sedan":2063,"##øl":2064,"##iskt":2065,"##gr":2066,"verk":2067,"alle":2068,"kra":2069,"str":2070,"forsta":2071,"kar":2072,"beg":2073,"##lige":2074,"##kom":2075,"hu":2076,"##aget":2077,"dette":2078,"##nas":2079,"mil":2080,"vær":2081,"tv":2082,"forsk":2083,"##yd":2084,"gratis":2085,"##br":2086,"su":2087,"nagot":2088,"##ap":2089,"##ings":2090,"hall":2091,"gra":2092,"mu":2093,"meg":2094,"##ader":2095,"##aden":2096,"dr":2097,"18":2098,"gora":2099,"hun":2100,"igen":2101,"ble":2102,"##ine":2103,"##lighet":2104,"##unt":2105,"hos":2106,"##dom":2107,"sitt":2108,"produ":2109,"##kon":2110,"ans":2111,"##ret":2112,"tva":2113,"pol":2114,"##asta":2115,"##nes":2116,"##agen":2117,"##yk":2118,"inne":2119,"fick":2120,"##elsen":2121,"200":2122,"jobb":2123,"kor":2124,"hø":2125,"##eb":2126,"forb":2127,"ligger":2128,"##lar":2129,"10":2130,"##app":2131,"##ote":2132,"idag":2133,"vet":2134,"end":2135,"##amil":2136,"##øn":2137,"sver":2138,"seg":2139,"andre":2140,"anvand":2141,"hvis":2142,"sjalv":2143,"##ef":2144,"dejt":2145,"led":2146,"ni":2147,"##iver":2148,"##elser":2149,"te":2150,"##tem":2151,"##ide":2152,"denna":2153,"ratt":2154,"tre":2155,"##ab":2156,"rad":2157,"mest":2158,"skol":2159,"bed":2160,"kop":2161,"##fr":2162,"hitt":2163,"kont":2164,"##elig":2165,"denne":2166,"besk":2167,"bland":2168,"##rupp":2169,"##nar":2170,"##øre":2171,"dom":2172,"olika":2173,"fast":2174,"utv":2175,"##ym":2176,"mange":2177,"##pt":2178,"mass":2179,"hela":2180,"famil":2181,"va":2182,"borj":2183,"##ativ":2184,"forst":2185,"rikt":2186,"im":2187,"saker":2188,"am":2189,"##æg":2190,"bo":2191,"mark":2192,"eg":2193,"ingen":2194,"ad":2195,"lar":2196,"vikt":2197,"kall":2198,"##van":2199,"nagra":2200,"fakt":2201,"star":2202,"hans":2203,"by":2204,"frem":2205,"##pe":2206,"las":2207,"##aren":2208,"##jekt":2209,"gam":2210,"##els":2211,"##hus":2212,"##stem":2213,"##lev":2214,"fun":2215,"##ager":2216,"slut":2217,"ab":2218,"##min":2219,"plan":2220,"##takt":2221,"tal":2222,"sna":2223,"vir":2224,"maste":2225,"##inger":2226,"jul":2227,"##pel":2228,"mor":2229,"##holm":2230,"pen":2231,"##iser":2232,"##fatt":2233,"##ighet":2234,"##ow":2235,"##ten":2236,"kj":2237,"##ikk":2238,"nya":2239,"runt":2240,"##sker":2241,"foret":2242,"##mark":2243,"##ille":2244,"##ades":2245,"##ju":2246,"ned":2247,"##fil":2248,"sal":2249,"##vud":2250,"lin":2251,"##øb":2252,"la":2253,"ro":2254,"##asjon":2255,"##nen":2256,"##ister":2257,"##ød":2258,"ja":2259,"meget":2260,"##fl":2261,"##ioner":2262,"##ninger":2263,"##utt":2264,"ant":2265,"hjal":2266,"##met":2267,"##aller":2268,"inom":2269,"##val":2270,"kn":2271,"grund":2272,"natur":2273,"tar":2274,"ham":2275,"##lem":2276,"varit":2277,"produkt":2278,"##cer":2279,"##giv":2280,"frag":2281,"sol":2282,"##verk":2283,"enkel":2284,"##atten":2285,"##rum":2286,"tran":2287,"##ven":2288,"##led":2289,"eu":2290,"nat":2291,"##ps":2292,"##ts":2293,"kanske":2294,"##str":2295,"vag":2296,"mellan":2297,"lik":2298,"##hand":2299,"hal":2300,"##tra":2301,"the":2302,"fatt":2303,"bok":2304,"ly":2305,"tilb":2306,"moj":2307,"##sc":2308,"etter":2309,"sverige":2310,"##sten":2311,"alt":2312,"huvud":2313,"tyck":2314,"hol":2315,"ord":2316,"syn":2317,"red":2318,"tor":2319,"15":2320,"behov":2321,"##pro":2322,"##bord":2323,"##este":2324,"hus":2325,"##kte":2326,"##ella":2327,"na":2328,"##blem":2329,"##ionen":2330,"##elt":2331,"##enn":2332,"he":2333,"dessa":2334,"just":2335,"fot":2336,"##digt":2337,"sø":2338,"##utom":2339,"kunne":2340,"bill":2341,"##olog":2342,"##yll":2343,"omra":2344,"##ider":2345,"tur":2346,"mitt":2347,"##heten":2348,"mod":2349,"##borg":2350,"ur":2351,"##dan":2352,"vide":2353,"##ont":2354,"##alen":2355,"##før":2356,"nord":2357,"##istor":2358,"sh":2359,"ater":2360,"nam":2361,"bak":2362,"vilket":2363,"arbej":2364,"##vik":2365,"##iner":2366,"vor":2367,"##hold":2368,"##ata":2369,"stock":2370,"12":2371,"kort":2372,"veck":2373,"##iet":2374,"spe":2375,"##bo":2376,"mann":2377,"innan":2378,"egen":2379,"lø":2380,"lever":2381,"kontakt":2382,"##æk":2383,"hver":2384,"dess":2385,"##fall":2386,"mere":2387,"em":2388,"##idt":2389,"##rekt":2390,"##orde":2391,"##stand":2392,"stockholm":2393,"annat":2394,"##empel":2395,"inform":2396,"sammen":2397,"dis":2398,"ner":2399,"##gram":2400,"##nad":2401,"stad":2402,"ek":2403,"bro":2404,"godt":2405,"tag":2406,"##ator":2407,"##ran":2408,"##ara":2409,"##ial":2410,"##sv":2411,"##ha":2412,"##ard":2413,"pris":2414,"##iva":2415,"mindre":2416,"alltid":2417,"tiden":2418,"##ationer":2419,"ge":2420,"##rakt":2421,"##nem":2422,"vel":2423,"problem":2424,"stora":2425,"##orna":2426,"##sson":2427,"ev":2428,"##ian":2429,"kro":2430,"##ida":2431,"##oj":2432,"lu":2433,"##med":2434,"fall":2435,"vart":2436,"lok":2437,"batt":2438,"porr":2439,"mus":2440,"ca":2441,"flere":2442,"##sak":2443,"tek":2444,"##esta":2445,"dejting":2446,"go":2447,"sina":2448,"ger":2449,"basta":2450,"##skar":2451,"speci":2452,"bør":2453,"kvinn":2454,"##kten":2455,"##aka":2456,"styr":2457,"##sh":2458,"tror":2459,"ban":2460,"svenska":2461,"##par":2462,"medlem":2463,"##yt":2464,"##ander":2465,"massage":2466,"behover":2467,"##di":2468,"polit":2469,"aldr":2470,"folk":2471,"##snitt":2472,"##gt":2473,"##igare":2474,"##ert":2475,"##fol":2476,"##anden":2477,"mm":2478,"°c":2479,"##anska":2480,"##cent":2481,"behand":2482,"art":2483,"sager":2484,"##slag":2485,"komp":2486,"##ue":2487,"sik":2488,"kost":2489,"##tter":2490,"porn":2491,"koll":2492,"ville":2493,"bad":2494,"##mal":2495,"##rat":2496,"we":2497,"##jo":2498,"varje":2499,"off":2500,"eftersom":2501,"pre":2502,"##ind":2503,"##ester":2504,"17":2505,"skriv":2506,"kval":2507,"kunna":2508,"bare":2509,"11":2510,"bygg":2511,"konst":2512,"føl":2513,"tog":2514,"30":2515,"stall":2516,"org":2517,"eng":2518,"varm":2519,"jan":2520,"samma":2521,"varl":2522,"##delse":2523,"##ct":2524,"km":2525,"##ffekt":2526,"##ederbord":2527,"##ina":2528,"havde":2529,"co":2530,"esc":2531,"ret":2532,"##ære":2533,"##ari":2534,"ste":2535,"bort":2536,"blog":2537,"fant":2538,"første":2539,"aldrig":2540,"onl":2541,"##jud":2542,"gick":2543,"fi":2544,"gjort":2545,"##rik":2546,"##vær":2547,"utveck":2548,"samtid":2549,"##arbet":2550,"tjej":2551,"##elle":2552,"sak":2553,"hor":2554,"##red":2555,"##ipp":2556,"##vet":2557,"lo":2558,"flera":2559,"##ve":2560,"vores":2561,"histor":2562,"##ubb":2563,"##bild":2564,"##oker":2565,"16":2566,"stort":2567,"sist":2568,"nye":2569,"hopp":2570,"sma":2571,"byg":2572,"##by":2573,"stat":2574,"part":2575,"##berg":2576,"ele":2577,"deres":2578,"##uter":2579,"hjem":2580,"bliver":2581,"##unn":2582,"##peratur":2583,"##dens":2584,"com":2585,"##kv":2586,"lov":2587,"mis":2588,"dating":2589,"##fin":2590,"pass":2591,"##skil":2592,"##konom":2593,"latt":2594,"valdigt":2595,"start":2596,"hele":2597,"##tag":2598,"full":2599,"is":2600,"forv":2601,"mannisk":2602,"dock":2603,"riktigt":2604,"gener":2605,"inga":2606,"##ratt":2607,"trad":2608,"##rift":2609,"intr":2610,"gjorde":2611,"have":2612,"enligt":2613,"##etter":2614,"list":2615,"##heter":2616,"##alog":2617,"##øg":2618,"result":2619,"hvad":2620,"##iken":2621,"##skol":2622,"bilder":2623,"##las":2624,"tycker":2625,"app":2626,"##edel":2627,"##iten":2628,"rel":2629,"kunde":2630,"eks":2631,"stør":2632,"sc":2633,"snabb":2634,"online":2635,"ka":2636,"grupp":2637,"mø":2638,"##ip":2639,"information":2640,"##rang":2641,"store":2642,"galler":2643,"##orter":2644,"##adde":2645,"##iker":2646,"foretag":2647,"##under":2648,"film":2649,"##upp":2650,"inv":2651,"14":2652,"##anis":2653,"##andet":2654,"tel":2655,"##ars":2656,"pres":2657,"enkelt":2658,"ben":2659,"escort":2660,"##fe":2661,"nytt":2662,"##ob":2663,"##samm":2664,"ag":2665,"##heder":2666,"mina":2667,"battre":2668,"##lut":2669,"meter":2670,"rek":2671,"##river":2672,"##ember":2673,"##olig":2674,"kvar":2675,"noget":2676,"soci":2677,"fortsatt":2678,"##ordan":2679,"##hav":2680,"ter":2681,"##lagg":2682,"##ellt":2683,"tha":2684,"leg":2685,"##ice":2686,"kat":2687,"##orer":2688,"##raf":2689,"##ung":2690,"##rad":2691,"ditt":2692,"langt":2693,"##ite":2694,"tim":2695,"mon":2696,"##gifter":2697,"##atte":2698,"jam":2699,"##istr":2700,"mas":2701,"dagen":2702,"##ksom":2703,"bel":2704,"ren":2705,"my":2706,"vax":2707,"kron":2708,"##lingen":2709,"tekn":2710,"ne":2711,"bi":2712,"post":2713,"##øj":2714,"sadan":2715,"aktiv":2716,"##aler":2717,"effekt":2718,"##nade":2719,"øn":2720,"verkligen":2721,"##aster":2722,"euro":2723,"klar":2724,"##spl":2725,"krav":2726,"##ift":2727,"ingar":2728,"##iller":2729,"lat":2730,"##øm":2731,"svart":2732,"direkt":2733,"siden":2734,"sta":2735,"tillb":2736,"##oka":2737,"13":2738,"##sel":2739,"##vin":2740,"forl":2741,"stod":2742,"komma":2743,"hvordan":2744,"sit":2745,"uden":2746,"met":2747,"landet":2748,"ung":2749,"##jar":2750,"##mel":2751,"##ationen":2752,"lev":2753,"san":2754,"erb":2755,"svensk":2756,"##vag":2757,"anda":2758,"typ":2759,"os":2760,"læ":2761,"noen":2762,"haft":2763,"stu":2764,"disse":2765,"rum":2766,"tack":2767,"po":2768,"program":2769,"trakten":2770,"##arbej":2771,"ov":2772,"derfor":2773,"pu":2774,"skall":2775,"exempel":2776,"fem":2777,"##ukt":2778,"kur":2779,"ven":2780,"projekt":2781,"##stad":2782,"##dere":2783,"fler":2784,"lam":2785,"as":2786,"100":2787,"personer":2788,"##edet":2789,"mulig":2790,"inst":2791,"##ingar":2792,"hadde":2793,"##styr":2794,"redan":2795,"tidigare":2796,"##sammans":2797,"##bru":2798,"kvinnor":2799,"mid":2800,"nett":2801,"ansvar":2802,"##peraturen":2803,"int":2804,"tillsammans":2805,"##iter":2806,"deras":2807,"fred":2808,"##nat":2809,"cent":2810,"##beid":2811,"##orgon":2812,"son":2813,"##rade":2814,"##dent":2815,"genomsnitt":2816,"##mo":2817,"resultat":2818,"##sdag":2819,"##uss":2820,"##cis":2821,"hvil":2822,"manniskor":2823,"kult":2824,"##reg":2825,"via":2826,"##ition":2827,"##sfor":2828,"##spro":2829,"stra":2830,"manaden":2831,"##slut":2832,"bas":2833,"sar":2834,"##fer":2835,"##kes":2836,"pas":2837,"199":2838,"ener":2839,"##rukt":2840,"25":2841,"##rar":2842,"tem":2843,"##ren":2844,"bety":2845,"vand":2846,"dit":2847,"do":2848,"annan":2849,"##gor":2850,"##yra":2851,"omk":2852,"ok":2853,"##æt":2854,"##uld":2855,"lav":2856,"##jor":2857,"ang":2858,"ob":2859,"pat":2860,"##skab":2861,"beslut":2862,"antal":2863,"hjalp":2864,"lidt":2865,"vatten":2866,"fantast":2867,"##tte":2868,"##efon":2869,"##atser":2870,"hitta":2871,"kropp":2872,"hov":2873,"##rak":2874,"sjuk":2875,"video":2876,"##gende":2877,"kvalitet":2878,"stud":2879,"dam":2880,"disk":2881,"samme":2882,"nov":2883,"000":2884,"dina":2885,"##illa":2886,"køb":2887,"##oligt":2888,"##res":2889,"darfor":2890,"mand":2891,"##asin":2892,"##føl":2893,"##iden":2894,"joh":2895,"plats":2896,"##still":2897,"nær":2898,"fre":2899,"##of":2900,"gennem":2901,"honom":2902,"nogle":2903,"infor":2904,"lige":2905,"system":2906,"##temperaturen":2907,"##up":2908,"glad":2909,"ide":2910,"stand":2911,"##let":2912,"tillbaka":2913,"webb":2914,"ra":2915,"##bart":2916,"tjan":2917,"næ":2918,"beratt":2919,"ap":2920,"halv":2921,"##tern":2922,"danmark":2923,"##ald":2924,"liten":2925,"sov":2926,"familjen":2927,"ih":2928,"lyck":2929,"mag":2930,"noe":2931,"##leg":2932,"ak":2933,"funger":2934,"##ron":2935,"rund":2936,"medel":2937,"50":2938,"##fekt":2939,"regn":2940,"kna":2941,"ganska":2942,"ute":2943,"gav":2944,"verksam":2945,"høj":2946,"##drag":2947,"betal":2948,"vej":2949,"dra":2950,"henne":2951,"lange":2952,"gre":2953,"traff":2954,"kvall":2955,"storre":2956,"hemma":2957,"flytt":2958,"##ometer":2959,"unders":2960,"delen":2961,"kap":2962,"##kor":2963,"##stra":2964,"janu":2965,"ars":2966,"fø":2967,"nederbord":2968,"##kur":2969,"ofta":2970,"ul":2971,"##ies":2972,"##one":2973,"match":2974,"mojlighet":2975,"været":2976,"nok":2977,"menne":2978,"##læg":2979,"##ate":2980,"kul":2981,"##okus":2982,"titt":2983,"##jan":2984,"syd":2985,"brug":2986,"priv":2987,"bild":2988,"litt":2989,"hund":2990,"##ban":2991,"fan":2992,"##bland":2993,"##ond":2994,"##æng":2995,"##ay":2996,"##ellige":2997,"kal":2998,"ho":2999,"##sade":3000,"mater":3001,"saga":3002,"mill":3003,"gjenn":3004,"bid":3005,"jun":3006,"kultur":3007,"##ivt":3008,"##ads":3009,"gjennom":3010,"##lek":3011,"##ummer":3012,"dessutom":3013,"lika":3014,"##ograf":3015,"namn":3016,"##ins":3017,"##iss":3018,"##anter":3019,"##amma":3020,"##xt":3021,"foren":3022,"serv":3023,"dal":3024,"rom":3025,"##ilometer":3026,"##esten":3027,"egent":3028,"gu":3029,"aug":3030,"nast":3031,"viktig":3032,"krist":3033,"##ligere":3034,"##klar":3035,"dej":3036,"anal":3037,"faktiskt":3038,"kamp":3039,"topp":3040,"##spel":3041,"00":3042,"super":3043,"kraft":3044,"erfar":3045,"dog":3046,"omkring":3047,"##omm":3048,"rak":3049,"fokus":3050,"norge":3051,"##old":3052,"kanner":3053,"##sf":3054,"sang":3055,"mobil":3056,"##esser":3057,"##folk":3058,"pos":3059,"tjejer":3060,"folj":3061,"mellem":3062,"slakt":3063,"##eng":3064,"musik":3065,"##ons":3066,"unge":3067,"ror":3068,"fel":3069,"##ivet":3070,"snart":3071,"##kop":3072,"kø":3073,"hennes":3074,"sett":3075,"heller":3076,"intern":3077,"##erar":3078,"organis":3079,"##kan":3080,"nav":3081,"##erade":3082,"moder":3083,"funkt":3084,"inden":3085,"blive":3086,"anvanda":3087,"yo":3088,"aret":3089,"##gift":3090,"##ras":3091,"gote":3092,"##smal":3093,"##pet":3094,"##hor":3095,"tot":3096,"precis":3097,"##lad":3098,"##bel":3099,"goteborg":3100,"havet":3101,"fri":3102,"pop":3103,"cat":3104,"desig":3105,"##vand":3106,"kanns":3107,"##ags":3108,"bred":3109,"##kr":3110,"finans":3111,"##fors":3112,"ps":3113,"##ystem":3114,"sikker":3115,"innehall":3116,"##ivit":3117,"telefon":3118,"##ivers":3119,"vack":3120,"dy":3121,"##sch":3122,"pri":3123,"##jur":3124,"##otell":3125,"samhall":3126,"pengar":3127,"##entet":3128,"##grupp":3129,"lad":3130,"##illar":3131,"##saker":3132,"kontro":3133,"samtidigt":3134,"spør":3135,"##sattning":3136,"fordel":3137,"##icka":3138,"publ":3139,"##bro":3140,"klass":3141,"##dende":3142,"sommar":3143,"##arter":3144,"##ac":3145,"##bud":3146,"##dar":3147,"sæ":3148,"dk":3149,"dagar":3150,"sch":3151,"but":3152,"hin":3153,"##æll":3154,"mode":3155,"inget":3156,"livet":3157,"sw":3158,"und":3159,"innebar":3160,"cy":3161,"rik":3162,"begyn":3163,"##vid":3164,"##cept":3165,"gør":3166,"##stallet":3167,"gud":3168,"utbild":3169,"aldre":3170,"bag":3171,"##naden":3172,"omradet":3173,"kred":3174,"##gere":3175,"##eret":3176,"klart":3177,"tak":3178,"##dagen":3179,"hjæl":3180,"ting":3181,"##ub":3182,"vilken":3183,"juli":3184,"knull":3185,"side":3186,"bon":3187,"sand":3188,"fod":3189,"ganger":3190,"tom":3191,"langre":3192,"##gj":3193,"ram":3194,"##øy":3195,"##ænd":3196,"kopa":3197,"nastan":3198,"fordi":3199,"varfor":3200,"rigt":3201,"træ":3202,"##iger":3203,"dansk":3204,"##he":3205,"##alla":3206,"vissa":3207,"beskrev":3208,"##orn":3209,"insp":3210,"##atsen":3211,"kam":3212,"car":3213,"##ært":3214,"gode":3215,"##imat":3216,"extra":3217,"bud":3218,"borjar":3219,"##edes":3220,"##aga":3221,"august":3222,"juni":3223,"##end":3224,"istallet":3225,"helst":3226,"##ise":3227,"ring":3228,"rev":3229,"alltsa":3230,"fag":3231,"2017":3232,"omfatt":3233,"virksom":3234,"##ital":3235,"hot":3236,"artik":3237,"ko":3238,"##undet":3239,"produkter":3240,"##ium":3241,"hoppas":3242,"event":3243,"hoved":3244,"##jø":3245,"hotell":3246,"##int":3247,"##cc":3248,"##heden":3249,"##nader":3250,"##radet":3251,"tav":3252,"##kelig":3253,"univers":3254,"##iz":3255,"behandling":3256,"##ører":3257,"aller":3258,"senaste":3259,"##inn":3260,"annu":3261,"blivit":3262,"##atter":3263,"samman":3264,"##ternativ":3265,"perfekt":3266,"##aten":3267,"utfor":3268,"kons":3269,"dec":3270,"##ry":3271,"gott":3272,"procent":3273,"vidare":3274,"##rag":3275,"##als":3276,"punkt":3277,"##essen":3278,"aktivitet":3279,"fo":3280,"utt":3281,"senare":3282,"24":3283,"##erat":3284,"rapp":3285,"offent":3286,"##lys":3287,"##bygg":3288,"##fik":3289,"borjade":3290,"forhold":3291,"log":3292,"let":3293,"forskellige":3294,"jord":3295,"lj":3296,"slik":3297,"21":3298,"lak":3299,"ekonom":3300,"##anger":3301,"ønsker":3302,"##ong":3303,"##ph":3304,"##yndig":3305,"nem":3306,"ens":3307,"##ux":3308,"tillgang":3309,"##eringen":3310,"2018":3311,"ibland":3312,"##rett":3313,"udvik":3314,"##dann":3315,"skriver":3316,"##sikt":3317,"fik":3318,"##farande":3319,"sep":3320,"##ogen":3321,"dok":3322,"vilka":3323,"##staden":3324,"lille":3325,"test":3326,"minst":3327,"##ningarna":3328,"arbeid":3329,"uten":3330,"amer":3331,"##ument":3332,"erot":3333,"igar":3334,"life":3335,"maj":3336,"garna":3337,"skj":3338,"luft":3339,"prakt":3340,"sær":3341,"##gør":3342,"##ansk":3343,"skrev":3344,"##ich":3345,"nasta":3346,"##elses":3347,"deg":3348,"bek":3349,"##ank":3350,"mens":3351,"trots":3352,"sarskil":3353,"papp":3354,"elever":3355,"enn":3356,"komme":3357,"##ure":3358,"##raft":3359,"##ib":3360,"22":3361,"vant":3362,"hast":3363,"##ral":3364,"andet":3365,"gamla":3366,"bol":3367,"##ny":3368,"##nam":3369,"sagt":3370,"registr":3371,"sista":3372,"forut":3373,"ytter":3374,"net":3375,"okt":3376,"storsta":3377,"fore":3378,"haller":3379,"##band":3380,"nara":3381,"feb":3382,"##spunkt":3383,"spar":3384,"bost":3385,"##lø":3386,"##sid":3387,"##joner":3388,"sjal":3389,"hende":3390,"popul":3391,"198":3392,"vært":3393,"bal":3394,"##ham":3395,"40":3396,"lagen":3397,"##ders":3398,"anden":3399,"januari":3400,"fly":3401,"sing":3402,"##erad":3403,"##its":3404,"##smedel":3405,"dejtingsa":3406,"visar":3407,"##dater":3408,"fer":3409,"ungdom":3410,"rett":3411,"fortfarande":3412,"rundt":3413,"prø":3414,"##ity":3415,"skar":3416,"##ers":3417,"enda":3418,"ofte":3419,"##plan":3420,"##ffe":3421,"dine":3422,"præ":3423,"me":3424,"sitter":3425,"##ko":3426,"endast":3427,"##bol":3428,"##set":3429,"apr":3430,"usa":3431,"bev":3432,"aren":3433,"halla":3434,"børn":3435,"vare":3436,"##ække":3437,"narm":3438,"##ydd":3439,"##au":3440,"##juder":3441,"##pen":3442,"alternativ":3443,"##nads":3444,"forand":3445,"verden":3446,"##ledning":3447,"##esse":3448,"sine":3449,"##ions":3450,"##ht":3451,"dro":3452,"##alj":3453,"bedre":3454,"thai":3455,"##cka":3456,"gøre":3457,"kjø":3458,"free":3459,"##oc":3460,"blogg":3461,"natt":3462,"##egor":3463,"slaktet":3464,"norr":3465,"##lam":3466,"hy":3467,"kir":3468,"prof":3469,"fisk":3470,"danske":3471,"framfor":3472,"##rikt":3473,"gjør":3474,"hittar":3475,"gir":3476,"underarter":3477,"fal":3478,"energi":3479,"inkl":3480,"##drar":3481,"gangen":3482,"esk":3483,"beskrevs":3484,"##omen":3485,"besok":3486,"posit":3487,"resp":3488,"##hj":3489,"##handling":3490,"nr":3491,"sim":3492,"flyg":3493,"##gav":3494,"catalog":3495,"porno":3496,"bestam":3497,"tidligere":3498,"lasa":3499,"##pas":3500,"##sett":3501,"giver":3502,"##isen":3503,"2016":3504,"##sport":3505,"bestar":3506,"risk":3507,"##gjen":3508,"situ":3509,"##bin":3510,"ovr":3511,"mamma":3512,"gatt":3513,"inde":3514,"##ocker":3515,"##af":3516,"##ges":3517,"roll":3518,"##vs":3519,"listade":3520,"2015":3521,"først":3522,"tips":3523,"catalogue":3524,"##unden":3525,"inspir":3526,"##otter":3527,"jer":3528,"dejtings":3529,"knapp":3530,"##øde":3531,"##hl":3532,"pros":3533,"mye":3534,"klubb":3535,"fint":3536,"gro":3537,"psyk":3538,"kredit":3539,"##mor":3540,"##anske":3541,"invan":3542,"los":3543,"##igaste":3544,"##sin":3545,"lek":3546,"høy":3547,"197":3548,"casin":3549,"##gte":3550,"sund":3551,"fragor":3552,"ton":3553,"hva":3554,"bast":3555,"spela":3556,"##vard":3557,"##ligare":3558,"slapp":3559,"##fri":3560,"ihop":3561,"les":3562,"social":3563,"stø":3564,"##slo":3565,"anvander":3566,"nation":3567,"nej":3568,"væl":3569,"##kter":3570,"tred":3571,"kunder":3572,"chr":3573,"mel":3574,"##sted":3575,"engel":3576,"install":3577,"rej":3578,"fikk":3579,"altid":3580,"erbjud":3581,"##ober":3582,"nak":3583,"##estaur":3584,"##arer":3585,"##hver":3586,"sil":3587,"ry":3588,"kok":3589,"##nt":3590,"host":3591,"bu":3592,"visa":3593,"septem":3594,"tyd":3595,"##spr":3596,"dod":3597,"finde":3598,"grad":3599,"september":3600,"kommunen":3601,"skr":3602,"si":3603,"talet":3604,"restaur":3605,"soker":3606,"stan":3607,"it":3608,"delt":3609,"vok":3610,"fyra":3611,"##ly":3612,"sem":3613,"set":3614,"sidan":3615,"lær":3616,"kansl":3617,"##æv":3618,"stil":3619,"##eras":3620,"leder":3621,"dyr":3622,"fav":3623,"##eln":3624,"mennesker":3625,"eget":3626,"23":3627,"blevet":3628,"konkur":3629,"spr":3630,"mojligt":3631,"berg":3632,"handel":3633,"##lade":3634,"regler":3635,"matt":3636,"##ike":3637,"##sat":3638,"betyder":3639,"##anda":3640,"trev":3641,"material":3642,"##skin":3643,"vard":3644,"snabbt":3645,"##svar":3646,"##vej":3647,"fys":3648,"service":3649,"##gre":3650,"mellom":3651,"##lin":3652,"##sæ":3653,"##dejt":3654,"kvad":3655,"bry":3656,"tills":3657,"##uta":3658,"sport":3659,"lokal":3660,"##ender":3661,"##lo":3662,"##skriv":3663,"november":3664,"borde":3665,"farg":3666,"borja":3667,"flesta":3668,"sjalva":3669,"##delig":3670,"##sol":3671,"sør":3672,"invanare":3673,"tanker":3674,"2014":3675,"varlden":3676,"internet":3677,"internation":3678,"fina":3679,"timmar":3680,"##full":3681,"##film":3682,"sek":3683,"##nande":3684,"##lan":3685,"fyll":3686,"##aa":3687,"##ommen":3688,"kvadrat":3689,"web":3690,"verksamhet":3691,"skad":3692,"gem":3693,"##bor":3694,"##ikker":3695,"indiv":3696,"cir":3697,"##itut":3698,"skolan":3699,"oktober":3700,"ph":3701,"handlar":3702,"##til":3703,"forh":3704,"febru":3705,"blod":3706,"egentligen":3707,"##so":3708,"##nu":3709,"morgon":3710,"ku":3711,"bada":3712,"tank":3713,"##klart":3714,"haha":3715,"oster":3716,"##kort":3717,"##star":3718,"viktigt":3719,"##use":3720,"sted":3721,"kol":3722,"vanligt":3723,"stark":3724,"forbin":3725,"##igheter":3726,"arrang":3727,"privat":3728,"omgiv":3729,"##mes":3730,"tilf":3731,"amerik":3732,"vigt":3733,"sverig":3734,"jon":3735,"pe":3736,"ac":3737,"gillar":3738,"arbete":3739,"vaster":3740,"##imeter":3741,"sym":3742,"vecka":3743,"##skapet":3744,"jamfor":3745,"vak":3746,"ej":3747,"##her":3748,"##len":3749,"framtid":3750,"ljus":3751,"##sst":3752,"fest":3753,"forslag":3754,"april":3755,"##lex":3756,"rod":3757,"eta":3758,"skapa":3759,"skyl":3760,"##agg":3761,"beskriv":3762,"data":3763,"egna":3764,"deb":3765,"lilla":3766,"gol":3767,"mad":3768,"minuter":3769,"medan":3770,"favor":3771,"lug":3772,"læn":3773,"videre":3774,"skriva":3775,"tilbage":3776,"sker":3777,"##anser":3778,"tæn":3779,"##oter":3780,"rost":3781,"##dejting":3782,"ovan":3783,"cm":3784,"repr":3785,"port":3786,"dags":3787,"arbejde":3788,"perio":3789,"ins":3790,"##onen":3791,"vit":3792,"huvudstaden":3793,"##ca":3794,"universitet":3795,"##gard":3796,"##ifran":3797,"stol":3798,"made":3799,"##agt":3800,"##ksjon":3801,"større":3802,"norm":3803,"##ensen":3804,"opt":3805,"##elige":3806,"kyr":3807,"vanlig":3808,"hej":3809,"fas":3810,"alder":3811,"gerne":3812,"##ona":3813,"eventu":3814,"kring":3815,"##ix":3816,"##lever":3817,"tu":3818,"##lat":3819,"##ansen":3820,"bestem":3821,"##alet":3822,"hurt":3823,"ses":3824,"##kn":3825,"smak":3826,"brukar":3827,"hard":3828,"gjøre":3829,"viser":3830,"natet":3831,"196":3832,"##kning":3833,"soder":3834,"##oder":3835,"nød":3836,"##bara":3837,"##rer":3838,"##ror":3839,"funktion":3840,"him":3841,"##spekt":3842,"valja":3843,"##part":3844,"inf":3845,"tysk":3846,"design":3847,"emot":3848,"fe":3849,"##ologi":3850,"arbets":3851,"kroppen":3852,"aka":3853,"veckan":3854,"dagens":3855,"matte":3856,"ba":3857,"##co":3858,"massa":3859,"##rig":3860,"##ført":3861,"alskar":3862,"forfatt":3863,"december":3864,"##ish":3865,"maske":3866,"##ore":3867,"lagga":3868,"ark":3869,"malmo":3870,"ing":3871,"betyd":3872,"##les":3873,"proc":3874,"pal":3875,"sten":3876,"##raste":3877,"60":3878,"con":3879,"sok":3880,"gym":3881,"sida":3882,"##dte":3883,"elekt":3884,"sidste":3885,"samarbet":3886,"kvinder":3887,"##lla":3888,"borjan":3889,"bedste":3890,"vur":3891,"fraga":3892,"kopp":3893,"##enhav":3894,"skick":3895,"ten":3896,"karl":3897,"new":3898,"##ots":3899,"bur":3900,"delar":3901,"mars":3902,"utveckling":3903,"kompl":3904,"recept":3905,"skil":3906,"verkar":3907,"##off":3908,"2013":3909,"##oms":3910,"##huset":3911,"##nal":3912,"##vir":3913,"##enskap":3914,"##dene":3915,"##xx":3916,"stam":3917,"##ygt":3918,"yn":3919,"##visning":3920,"tage":3921,"id":3922,"##iel":3923,"last":3924,"vinter":3925,"valkom":3926,"prov":3927,"forel":3928,"fanns":3929,"##mid":3930,"spill":3931,"##ane":3932,"##plats":3933,"bank":3934,"kompet":3935,"bus":3936,"##annande":3937,"##andra":3938,"ifr":3939,"deltag":3940,"##llen":3941,"##kta":3942,"varmaste":3943,"dejta":3944,"region":3945,"##ash":3946,"##anga":3947,"dist":3948,"sommer":3949,"##samma":3950,"lagt":3951,"norsk":3952,"##kende":3953,"##produ":3954,"##sakring":3955,"hogsta":3956,"sall":3957,"alls":3958,"##verket":3959,"københav":3960,"sveriges":3961,"fj":3962,"##ytte":3963,"erbjuder":3964,"##po":3965,"søn":3966,"natdejting":3967,"komment":3968,"kallaste":3969,"rader":3970,"respekt":3971,"arsmedel":3972,"##enser":3973,"millimeter":3974,"##grund":3975,"##ateg":3976,"intress":3977,"roligt":3978,"medeltemperaturen":3979,"##dering":3980,"kronor":3981,"##rin":3982,"krig":3983,"samtidig":3984,"arsmedeltemperaturen":3985,"##bok":3986,"tredje":3987,"tanka":3988,"##sper":3989,"hum":3990,"vann":3991,"fon":3992,"26":3993,"profess":3994,"##port":3995,"##stid":3996,"vux":3997,"motor":3998,"stadig":3999,"##pon":4000,"##syn":4001,"annon":4002,"fantastisk":4003,"##kilometer":4004,"djur":4005,"vem":4006,"arets":4007,"forsvar":4008,"tillfall":4009,"eksempel":4010,"hander":4011,"augusti":4012,"##book":4013,"##ient":4014,"##uren":4015,"æn":4016,"indust":4017,"##deles":4018,"genomsnittlig":4019,"are":4020,"28":4021,"kvadratkilometer":4022,"oplev":4023,"krit":4024,"lun":4025,"trott":4026,"økonom":4027,"##ækker":4028,"##ension":4029,"ve":4030,"klas":4031,"##juk":4032,"øv":4033,"etabl":4034,"##stre":4035,"passar":4036,"##betal":4037,"forra":4038,"vol":4039,"jatt":4040,"27":4041,"utanfor":4042,"tri":4043,"vast":4044,"virkelig":4045,"##punkt":4046,"foral":4047,"##ement":4048,"##holder":4049,"vanner":4050,"##byg":4051,"max":4052,"##enhet":4053,"siger":4054,"laget":4055,"gamle":4056,"filmer":4057,"ass":4058,"gi":4059,"date":4060,"ske":4061,"##imer":4062,"mart":4063,"cl":4064,"myndig":4065,"grunn":4066,"ford":4067,"sarskilt":4068,"casino":4069,"johan":4070,"regel":4071,"##50":4072,"2012":4073,"hvert":4074,"##koping":4075,"christ":4076,"glas":4077,"bilen":4078,"##qu":4079,"utvik":4080,"##idor":4081,"sort":4082,"##eds":4083,"aktu":4084,"tren":4085,"arsn":4086,"miljo":4087,"torraste":4088,"igjen":4089,"kre":4090,"regnigaste":4091,"huvudsak":4092,"jobbet":4093,"##ode":4094,"arsnederbord":4095,"##skaper":4096,"allerede":4097,"sat":4098,"##utter":4099,"##ega":4100,"kommune":4101,"tjen":4102,"manader":4103,"omrade":4104,"oslo":4105,"mail":4106,"bruk":4107,"##splan":4108,"##komm":4109,"rigtig":4110,"avtal":4111,"centr":4112,"##derar":4113,"invest":4114,"pot":4115,"kanna":4116,"##ativt":4117,"##lagt":4118,"bruger":4119,"ris":4120,"kommit":4121,"face":4122,"##olit":4123,"vagen":4124,"##dera":4125,"skill":4126,"absol":4127,"arbejd":4128,"kvinna":4129,"ww":4130,"løs":4131,"fjer":4132,"##vast":4133,"##atta":4134,"tol":4135,"wh":4136,"fyl":4137,"frit":4138,"dere":4139,"forskning":4140,"ru":4141,"begr":4142,"ata":4143,"hvilket":4144,"lord":4145,"##ikation":4146,"synes":4147,"hjalpa":4148,"qu":4149,"##itter":4150,"bla":4151,"annet":4152,"##tre":4153,"avslut":4154,"can":4155,"stopp":4156,"gul":4157,"huset":4158,"mine":4159,"holl":4160,"genomfor":4161,"prat":4162,"##sd":4163,"forklar":4164,"forbindelse":4165,"##stol":4166,"##icin":4167,"presenter":4168,"##ach":4169,"uddann":4170,"##erer":4171,"filmen":4172,"yr":4173,"klock":4174,"varme":4175,"sakerhet":4176,"europa":4177,"##ild":4178,"span":4179,"teg":4180,"give":4181,"rekommen":4182,"ir":4183,"anstall":4184,"samtal":4185,"##oren":4186,"igang":4187,"sent":4188,"nogen":4189,"still":4190,"mak":4191,"norske":4192,"##tera":4193,"bruge":4194,"smart":4195,"forstar":4196,"##boll":4197,"##skan":4198,"##oende":4199,"##ink":4200,"##allet":4201,"##assage":4202,"boken":4203,"##za":4204,"mulighed":4205,"##atet":4206,"od":4207,"affar":4208,"##foren":4209,"##rack":4210,"tit":4211,"senere":4212,"##rav":4213,"##emot":4214,"lej":4215,"##ton":4216,"varandra":4217,"29":4218,"##20":4219,"skont":4220,"##sida":4221,"bord":4222,"##back":4223,"allman":4224,"2010":4225,"familj":4226,"##kk":4227,"akte":4228,"##arn":4229,"real":4230,"##oo":4231,"kategor":4232,"unga":4233,"narheten":4234,"taget":4235,"194":4236,"##satte":4237,"arbetar":4238,"##sad":4239,"upps":4240,"www":4241,"driv":4242,"##lands":4243,"bolig":4244,"dor":4245,"blandt":4246,"spiller":4247,"utr":4248,"foljande":4249,"ytterligare":4250,"svært":4251,"##ita":4252,"##sket":4253,"2011":4254,"##bef":4255,"##fte":4256,"totalt":4257,"##inge":4258,"##aljer":4259,"spørg":4260,"kunst":4261,"sur":4262,"##fa":4263,"skog":4264,"##jter":4265,"##samling":4266,"special":4267,"fir":4268,"faktisk":4269,"tagit":4270,"##sav":4271,"syg":4272,"##anta":4273,"##ith":4274,"sason":4275,"##ienter":4276,"##ias":4277,"##isering":4278,"##slaget":4279,"admin":4280,"tryck":4281,"##iteten":4282,"##edag":4283,"igenom":4284,"veta":4285,"veckor":4286,"interv":4287,"##isten":4288,"fores":4289,"##skl":4290,"##inst":4291,"tankte":4292,"##egg":4293,"##befolk":4294,"##atisk":4295,"ras":4296,"elev":4297,"eskort":4298,"anvands":4299,"hud":4300,"facebook":4301,"noj":4302,"skap":4303,"annars":4304,"barnet":4305,"traning":4306,"##legg":4307,"passer":4308,"utbildning":4309,"imorgon":4310,"mit":4311,"server":4312,"##ette":4313,"altsa":4314,"##ey":4315,"sakert":4316,"meddel":4317,"fredag":4318,"back":4319,"##itar":4320,"saledes":4321,"##ses":4322,"liksom":4323,"karakt":4324,"##har":4325,"defin":4326,"lyss":4327,"enkl":4328,"prin":4329,"##mon":4330,"spelar":4331,"ital":4332,"rent":4333,"stund":4334,"##ruktur":4335,"upplev":4336,"stk":4337,"##samt":4338,"hold":4339,"hom":4340,"profil":4341,"bruker":4342,"holde":4343,"damer":4344,"##chen":4345,"##eden":4346,"##serv":4347,"billig":4348,"fleste":4349,"satta":4350,"autom":4351,"31":4352,"resten":4353,"heter":4354,"len":4355,"manad":4356,"pla":4357,"bod":4358,"nødven":4359,"titta":4360,"hjel":4361,"forsoka":4362,"mott":4363,"barnen":4364,"slag":4365,"kand":4366,"trafik":4367,"kilometer":4368,"kund":4369,"fix":4370,"otr":4371,"niva":4372,"##veck":4373,"##ica":4374,"fro":4375,"##gaende":4376,"##iella":4377,"##gelig":4378,"vers":4379,"##lund":4380,"##blad":4381,"##frag":4382,"kart":4383,"visst":4384,"##varr":4385,"##lighed":4386,"blant":4387,"spørgsmal":4388,"kunskap":4389,"steg":4390,"mind":4391,"sant":4392,"nj":4393,"##ism":4394,"samf":4395,"drift":4396,"##eld":4397,"klader":4398,"##kant":4399,"ekstra":4400,"varde":4401,"##tes":4402,"inlagg":4403,"provin":4404,"fire":4405,"kolla":4406,"blom":4407,"##blik":4408,"fungerar":4409,"tex":4410,"##ighed":4411,"tyvarr":4412,"oper":4413,"##æm":4414,"##pass":4415,"tus":4416,"##ada":4417,"dokument":4418,"ident":4419,"sad":4420,"veg":4421,"neg":4422,"stem":4423,"##ange":4424,"##ations":4425,"københavn":4426,"bakom":4427,"innehaller":4428,"vist":4429,"betala":4430,"##oret":4431,"oav":4432,"lager":4433,"oft":4434,"besø":4435,"##smark":4436,"lamp":4437,"stedet":4438,"sprak":4439,"##sar":4440,"mænd":4441,"adr":4442,"skade":4443,"nedan":4444,"anbef":4445,"vest":4446,"sla":4447,"priser":4448,"aut":4449,"##atan":4450,"fær":4451,"ifran":4452,"##sing":4453,"##ork":4454,"##arbejde":4455,"##isjon":4456,"strateg":4457,"##bered":4458,"##isa":4459,"uppgifter":4460,"nyt":4461,"##agra":4462,"gall":4463,"tilbud":4464,"ed":4465,"##jol":4466,"##angen":4467,"##ælles":4468,"##ota":4469,"individ":4470,"##eligt":4471,"muligt":4472,"##ema":4473,"anvende":4474,"foto":4475,"lara":4476,"pan":4477,"grøn":4478,"forsok":4479,"link":4480,"##orden":4481,"forhall":4482,"største":4483,"spannande":4484,"handling":4485,"endnu":4486,"team":4487,"lys":4488,"##lysninger":4489,"personal":4490,"##ikke":4491,"række":4492,"##strom":4493,"##agare":4494,"februari":4495,"##ana":4496,"vardag":4497,"energ":4498,"80":4499,"klipp":4500,"toppen":4501,"klimat":4502,"traffa":4503,"spring":4504,"pra":4505,"typer":4506,"##staende":4507,"gæl":4508,"##æss":4509,"##namn":4510,"##vist":4511,"finder":4512,"##person":4513,"##tak":4514,"forbatt":4515,"##idler":4516,"fig":4517,"forandring":4518,"aktiviteter":4519,"mys":4520,"lon":4521,"##ola":4522,"193":4523,"##eta":4524,"##sex":4525,"helgen":4526,"aker":4527,"utom":4528,"andel":4529,"##iote":4530,"##ikken":4531,"ander":4532,"##ora":4533,"forek":4534,"##hov":4535,"tun":4536,"##lse":4537,"##gs":4538,"##agar":4539,"tradition":4540,"##ii":4541,"scen":4542,"later":4543,"##skri":4544,"hogre":4545,"500":4546,"ons":4547,"##dringer":4548,"##skade":4549,"##rott":4550,"##komst":4551,"industri":4552,"hjælp":4553,"##tering":4554,"##amm":4555,"70":4556,"##samhet":4557,"##ckt":4558,"parker":4559,"peter":4560,"##kvall":4561,"##mere":4562,"repres":4563,"miljø":4564,"##ligheten":4565,"jav":4566,"sty":4567,"analy":4568,"gange":4569,"rut":4570,"##dige":4571,"kontroller":4572,"cykel":4573,"fart":4574,"band":4575,"faet":4576,"teck":4577,"sier":4578,"##skud":4579,"isl":4580,"brand":4581,"enkelte":4582,"naturligt":4583,"erik":4584,"valg":4585,"spes":4586,"jobba":4587,"2009":4588,"speciellt":4589,"kvallen":4590,"stre":4591,"nummer":4592,"bø":4593,"public":4594,"transport":4595,"##lle":4596,"chat":4597,"dejtingsajt":4598,"##eren":4599,"rapport":4600,"rab":4601,"##varande":4602,"kry":4603,"prem":4604,"normalt":4605,"timer":4606,"hit":4607,"##asser":4608,"tager":4609,"rol":4610,"absolut":4611,"dermed":4612,"partner":4613,"begge":4614,"skatt":4615,"medicin":4616,"##umenter":4617,"glom":4618,"fyr":4619,"kil":4620,"##iat":4621,"##emang":4622,"##skatt":4623,"sexiga":4624,"varen":4625,"##ansvar":4626,"blitt":4627,"##igen":4628,"##platsen":4629,"platt":4630,"ungefar":4631,"fastighet":4632,"xxx":4633,"knulla":4634,"ful":4635,"følge":4636,"hjalper":4637,"##ften":4638,"folja":4639,"osv":4640,"##but":4641,"viagra":4642,"oppna":4643,"##derne":4644,"varier":4645,"mun":4646,"guld":4647,"195":4648,"##uppgifter":4649,"##pan":4650,"##ruk":4651,"##dring":4652,"terrang":4653,"naturlig":4654,"##bruk":4655,"##rust":4656,"dels":4657,"##mat":4658,"ein":4659,"dire":4660,"bat":4661,"mener":4662,"fotograf":4663,"jes":4664,"tok":4665,"##otten":4666,"standard":4667,"fragan":4668,"varld":4669,"bestall":4670,"siste":4671,"forsoker":4672,"mær":4673,"##ktion":4674,"middag":4675,"##mann":4676,"valjer":4677,"kombin":4678,"##bur":4679,"##bas":4680,"##okrat":4681,"191":4682,"mog":4683,"oavsett":4684,"##uden":4685,"##kret":4686,"cirka":4687,"##ifier":4688,"uppta":4689,"45":4690,"gemen":4691,"cam":4692,"plus":4693,"kontroll":4694,"##inde":4695,"sav":4696,"dju":4697,"##bes":4698,"##føre":4699,"fælles":4700,"text":4701,"forutom":4702,"kin":4703,"you":4704,"foretaget":4705,"integr":4706,"lund":4707,"##ugg":4708,"tilby":4709,"tand":4710,"bilden":4711,"kurs":4712,"90":4713,"uppdater":4714,"bog":4715,"milj":4716,"##arta":4717,"out":4718,"##sent":4719,"tab":4720,"ogon":4721,"vatt":4722,"supp":4723,"##unde":4724,"##derna":4725,"tanke":4726,"##seende":4727,"2008":4728,"##ake":4729,"givet":4730,"##tryk":4731,"forvar":4732,"##kont":4733,"trygg":4734,"char":4735,"##bliote":4736,"torsdag":4737,"kri":4738,"byen":4739,"sju":4740,"fortsatta":4741,"hvorfor":4742,"befin":4743,"##dde":4744,"slutt":4745,"thaim":4746,"tjanster":4747,"jap":4748,"##los":4749,"##ba":4750,"live":4751,"##ktor":4752,"35":4753,"lave":4754,"##dat":4755,"pappa":4756,"hjemmes":4757,"ovriga":4758,"læg":4759,"reser":4760,"##pper":4761,"gift":4762,"befolk":4763,"##skrift":4764,"muse":4765,"park":4766,"##bum":4767,"##satta":4768,"##asjoner":4769,"tyckte":4770,"arm":4771,"htt":4772,"findes":4773,"resa":4774,"##gene":4775,"##evel":4776,"navn":4777,"##andel":4778,"lamna":4779,"skon":4780,"slags":4781,"kaffe":4782,"platser":4783,"varldens":4784,"##otek":4785,"##vent":4786,"tavling":4787,"chef":4788,"væk":4789,"detaljer":4790,"goda":4791,"bedom":4792,"snygg":4793,"##uten":4794,"##sut":4795,"##delige":4796,"antalet":4797,"##sidan":4798,"otroligt":4799,"##aret":4800,"lop":4801,"oftast":4802,"##yttet":4803,"jour":4804,"##gn":4805,"nemlig":4806,"langs":4807,"italien":4808,"effektiv":4809,"arg":4810,"dage":4811,"##fyl":4812,"tillverk":4813,"not":4814,"viss":4815,"##arbeid":4816,"##delser":4817,"nan":4818,"spil":4819,"brev":4820,"vanliga":4821,"##stil":4822,"##skor":4823,"##valg":4824,"##gangen":4825,"skole":4826,"fang":4827,"resultatet":4828,"sasom":4829,"finner":4830,"salt":4831,"rapporter":4832,"gik":4833,"varmt":4834,"inklu":4835,"##eres":4836,"##ygga":4837,"uttr":4838,"##mær":4839,"##sg":4840,"##hen":4841,"stallet":4842,"ljud":4843,"##verkar":4844,"##skabet":4845,"længere":4846,"forsø":4847,"##ista":4848,"hør":4849,"##ule":4850,"##san":4851,"bygger":4852,"slutet":4853,"bem":4854,"##sæt":4855,"konse":4856,"dare":4857,"##itu":4858,"favorit":4859,"framst":4860,"thaimassage":4861,"udvikling":4862,"amator":4863,"nod":4864,"##orm":4865,"kræ":4866,"sikre":4867,"fjar":4868,"beror":4869,"forvalt":4870,"jobbar":4871,"##oven":4872,"hjart":4873,"klockan":4874,"bostad":4875,"##garden":4876,"ivag":4877,"##ante":4878,"politik":4879,"provinsen":4880,"##ben":4881,"##gas":4882,"prosjekt":4883,"spelare":4884,"administr":4885,"##agn":4886,"terrangen":4887,"miljoner":4888,"##giver":4889,"marker":4890,"##ych":4891,"forest":4892,"##hu":4893,"##foret":4894,"serien":4895,"trak":4896,"malet":4897,"frukt":4898,"samband":4899,"brun":4900,"darmed":4901,"bloggen":4902,"##ment":4903,"##tet":4904,"hoj":4905,"##oden":4906,"artikel":4907,"##gangspunkt":4908,"dejtingsidor":4909,"arbetet":4910,"##skaber":4911,"darefter":4912,"##ific":4913,"hens":4914,"jak":4915,"##skad":4916,"gravid":4917,"yngre":4918,"offentlig":4919,"godk":4920,"seks":4921,"fu":4922,"vilja":4923,"##ep":4924,"##iale":4925,"##fyll":4926,"diskuter":4927,"sann":4928,"##erte":4929,"tat":4930,"dejtingsajter":4931,"brost":4932,"princi":4933,"##raden":4934,"ill":4935,"ost":4936,"##iens":4937,"vas":4938,"##lede":4939,"billeder":4940,"arbeta":4941,"morgen":4942,"alldeles":4943,"gron":4944,"##cy":4945,"drom":4946,"utman":4947,"prote":4948,"født":4949,"##otte":4950,"##nytt":4951,"##øv":4952,"helsing":4953,"##jarn":4954,"##ativa":4955,"kontakta":4956,"massor":4957,"tillegg":4958,"##rog":4959,"bonus":4960,"fotboll":4961,"##we":4962,"glob":4963,"organ":4964,"slipp":4965,"søger":4966,"##ius":4967,"alv":4968,"ref":4969,"forbi":4970,"##tere":4971,"##ight":4972,"ep":4973,"##ho":4974,"ager":4975,"laser":4976,"top":4977,"profession":4978,"projektet":4979,"teknik":4980,"tilfæl":4981,"anna":4982,"hendes":4983,"dubb":4984,"hyr":4985,"##isar":4986,"##rige":4987,"##skolan":4988,"frisk":4989,"forsakring":4990,"exempelvis":4991,"innen":4992,"gammal":4993,"informasjon":4994,"gikk":4995,"behovs":4996,"##gaver":4997,"solen":4998,"##ftet":4999,"fullt":5000,"##skon":5001,"##ld":5002,"klok":5003,"kant":5004,"cre":5005,"natten":5006,"anvandas":5007,"##dret":5008,"anledning":5009,"ot":5010,"relig":5011,"vind":5012,"jur":5013,"bit":5014,"institut":5015,"present":5016,"beroende":5017,"statist":5018,"##skott":5019,"kopte":5020,"forekom":5021,"##skog":5022,"hvilke":5023,"##wa":5024,"##ningsm":5025,"medier":5026,"##kast":5027,"##ettet":5028,"##iod":5029,"erhver":5030,"veldig":5031,"##por":5032,"tatt":5033,"wid":5034,"2007":5035,"flick":5036,"##ffa":5037,"##bu":5038,"##følge":5039,"gran":5040,"relev":5041,"##allt":5042,"brans":5043,"je":5044,"fy":5045,"##ssystem":5046,"##bler":5047,"##kken":5048,"##mera":5049,"punkten":5050,"##cke":5051,"rack":5052,"##ls":5053,"##ingsl":5054,"press":5055,"dvs":5056,"programmet":5057,"direkte":5058,"##fra":5059,"medlemmer":5060,"tør":5061,"##eri":5062,"##ids":5063,"fruk":5064,"##ire":5065,"beste":5066,"##ama":5067,"hell":5068,"satte":5069,"##ppar":5070,"intressant":5071,"uppdrag":5072,"##sigt":5073,"cook":5074,"liknande":5075,"skul":5076,"finne":5077,"daremot":5078,"kande":5079,"delta":5080,"dav":5081,"##folj":5082,"finansier":5083,"bab":5084,"##ørende":5085,"##bred":5086,"modt":5087,"helg":5088,"##ands":5089,"butik":5090,"hed":5091,"medarbej":5092,"##press":5093,"kravs":5094,"intresser":5095,"piger":5096,"placer":5097,"hjemme":5098,"##urer":5099,"ganske":5100,"namligen":5101,"erfarenhet":5102,"avl":5103,"tas":5104,"finland":5105,"nø":5106,"##rader":5107,"##gave":5108,"uppsala":5109,"tilbake":5110,"um":5111,"foræl":5112,"menar":5113,"##skt":5114,"##klader":5115,"konsekv":5116,"rec":5117,"##hæng":5118,"##urs":5119,"tyskland":5120,"oka":5121,"overra":5122,"sod":5123,"kommuner":5124,"avsl":5125,"drag":5126,"penge":5127,"##ance":5128,"ryg":5129,"plads":5130,"sub":5131,"sikkert":5132,"samhalle":5133,"##redning":5134,"reklam":5135,"bocker":5136,"ken":5137,"antligen":5138,"fej":5139,"promen":5140,"##cep":5141,"lander":5142,"blot":5143,"lage":5144,"sitta":5145,"tio":5146,"sige":5147,"##emal":5148,"##kost":5149,"sadana":5150,"historia":5151,"tale":5152,"##ologisk":5153,"##holdet":5154,"kjen":5155,"lata":5156,"ansok":5157,"vackra":5158,"##ordning":5159,"hurtigt":5160,"konto":5161,"##esp":5162,"##iko":5163,"##slan":5164,"berattar":5165,"##add":5166,"fuld":5167,"staden":5168,"vaxer":5169,"semester":5170,"##ya":5171,"##øs":5172,"plast":5173,"frank":5174,"sondag":5175,"frukost":5176,"##ual":5177,"kora":5178,"følgende":5179,"personlig":5180,"sommaren":5181,"jack":5182,"pap":5183,"##ikring":5184,"##terna":5185,"##ementer":5186,"bj":5187,"mandag":5188,"##ils":5189,"cit":5190,"##fort":5191,"medlemmar":5192,"goog":5193,"mannen":5194,"hora":5195,"ikvall":5196,"prata":5197,"eneste":5198,"ume":5199,"anmal":5200,"mik":5201,"langa":5202,"##hal":5203,"fitt":5204,"36":5205,"ky":5206,"2000":5207,"skrift":5208,"##inister":5209,"kast":5210,"##ura":5211,"forvant":5212,"##kker":5213,"næste":5214,"##stor":5215,"##vaxt":5216,"##holde":5217,"grav":5218,"##enting":5219,"##sj":5220,"##forande":5221,"studen":5222,"black":5223,"bygga":5224,"riktig":5225,"192":5226,"##ile":5227,"dest":5228,"sjukdom":5229,"##ancer":5230,"##iste":5231,"bjor":5232,"like":5233,"##cker":5234,"hotel":5235,"##fritt":5236,"brott":5237,"triv":5238,"viden":5239,"##ena":5240,"vanster":5241,"musk":5242,"hittade":5243,"##æde":5244,"dri":5245,"##sattningar":5246,"ensam":5247,"trodde":5248,"rull":5249,"wor":5250,"investering":5251,"##ierna":5252,"##ips":5253,"selvføl":5254,"plac":5255,"col":5256,"journal":5257,"regering":5258,"engelska":5259,"190":5260,"300":5261,"##sorg":5262,"gymnas":5263,"dre":5264,"mej":5265,"##zz":5266,"kostnader":5267,"##stat":5268,"##ump":5269,"lagger":5270,"gruppen":5271,"centrala":5272,"dans":5273,"##iti":5274,"ont":5275,"##hel":5276,"john":5277,"##forb":5278,"##remt":5279,"##dem":5280,"historie":5281,"##assen":5282,"klicka":5283,"lyst":5284,"maskin":5285,"##ærer":5286,"kommunikation":5287,"narmaste":5288,"lunch":5289,"##bi":5290,"steder":5291,"##una":5292,"##alder":5293,"##styrelsen":5294,"##kraft":5295,"ordent":5296,"##ialis":5297,"##bon":5298,"finnas":5299,"fodd":5300,"##ball":5301,"holder":5302,"anders":5303,"valj":5304,"bom":5305,"##iteter":5306,"##øver":5307,"foraldrar":5308,"kvinde":5309,"##bert":5310,"verkt":5311,"##ase":5312,"forening":5313,"##adem":5314,"ellers":5315,"vore":5316,"hemsida":5317,"uk":5318,"farger":5319,"##stan":5320,"##skydd":5321,"læs":5322,"regeringen":5323,"##inar":5324,"will":5325,"skicka":5326,"sjalvklart":5327,"rim":5328,"gal":5329,"klara":5330,"##deling":5331,"##umm":5332,"##owan":5333,"us":5334,"hart":5335,"##hi":5336,"kg":5337,"personliga":5338,"##tiden":5339,"rese":5340,"poang":5341,"maten":5342,"alko":5343,"2006":5344,"##pris":5345,"allvar":5346,"##iveau":5347,"##rapp":5348,"up":5349,"poj":5350,"skyd":5351,"sova":5352,"foljer":5353,"købe":5354,"refer":5355,"tankt":5356,"nyhet":5357,"infl":5358,"ore":5359,"##uts":5360,"snar":5361,"##behandling":5362,"##verka":5363,"##leks":5364,"##filmer":5365,"##iven":5366,"kalla":5367,"lind":5368,"behova":5369,"løn":5370,"selvfølgelig":5371,"##rike":5372,"##cen":5373,"ald":5374,"ingenting":5375,"##zny":5376,"##nit":5377,"onsdag":5378,"vælge":5379,"undersok":5380,"##garder":5381,"##befolkat":5382,"##rup":5383,"##program":5384,"dla":5385,"anslut":5386,"##ssel":5387,"digit":5388,"sundhed":5389,"bruke":5390,"europe":5391,"yder":5392,"forhand":5393,"studie":5394,"##omradet":5395,"##asjonen":5396,"næsten":5397,"familie":5398,"##han":5399,"##stallning":5400,"hvem":5401,"vigtigt":5402,"##ved":5403,"##owanych":5404,"zalog":5405,"##oczny":5406,"tw":5407,"widoczny":5408,"zalogowanych":5409,"##verkan":5410,"serie":5411,"##elsens":5412,"midt":5413,"størr":5414,"undersø":5415,"sadant":5416,"ple":5417,"entre":5418,"##platser":5419,"samling":5420,"folket":5421,"sats":5422,"aust":5423,"intresse":5424,"stær":5425,"ah":5426,"lock":5427,"##fta":5428,"##smil":5429,"begre":5430,"gay":5431,"ulike":5432,"namnet":5433,"studer":5434,"maneder":5435,"vantar":5436,"##centr":5437,"##hem":5438,"chok":5439,"samtliga":5440,"##rummet":5441,"erotisk":5442,"overt":5443,"strand":5444,"centrum":5445,"hant":5446,"kvinner":5447,"innov":5448,"##mm":5449,"##kede":5450,"fortsatter":5451,"nojd":5452,"if":5453,"##eller":5454,"forsalj":5455,"uppe":5456,"##dena":5457,"sms":5458,"##urser":5459,"##vax":5460,"##istan":5461,"exper":5462,"patient":5463,"visade":5464,"dator":5465,"borjat":5466,"stabil":5467,"valkommen":5468,"stress":5469,"støtte":5470,"grader":5471,"forskj":5472,"##nummer":5473,"bibliote":5474,"##dning":5475,"got":5476,"rid":5477,"karlek":5478,"vari":5479,"kram":5480,"##ykker":5481,"mask":5482,"borger":5483,"skydd":5484,"##ræ":5485,"egne":5486,"tidigt":5487,"marknads":5488,"handler":5489,"framgang":5490,"enskil":5491,"##skole":5492,"motsvar":5493,"aftal":5494,"##hang":5495,"don":5496,"særlig":5497,"budget":5498,"dela":5499,"virksomhed":5500,"##landet":5501,"hang":5502,"shopp":5503,"prova":5504,"januar":5505,"tillrack":5506,"utmar":5507,"især":5508,"sky":5509,"herunder":5510,"##lare":5511,"##stilling":5512,"lokale":5513,"##igg":5514,"alkohol":5515,"##ningsom":5516,"daligt":5517,"sidor":5518,"kollekt":5519,"masse":5520,"##fører":5521,"##ligheter":5522,"litet":5523,"forbered":5524,"larare":5525,"camp":5526,"prior":5527,"stats":5528,"problemet":5529,"##skje":5530,"cialis":5531,"utifran":5532,"##fær":5533,"hjælpe":5534,"ax":5535,"yt":5536,"vaxt":5537,"with":5538,"stig":5539,"vald":5540,"øst":5541,"dejtingsida":5542,"skrive":5543,"videos":5544,"tema":5545,"lære":5546,"problemer":5547,"##inal":5548,"digital":5549,"sodra":5550,"bidrag":5551,"##laget":5552,"vansk":5553,"32":5554,"uans":5555,"modeller":5556,"accep":5557,"sangen":5558,"##okt":5559,"virksomheder":5560,"elektron":5561,"##best":5562,"hogt":5563,"general":5564,"etc":5565,"##ovis":5566,"kør":5567,"uppmark":5568,"forbru":5569,"vent":5570,"gjen":5571,"forn":5572,"sor":5573,"ifølge":5574,"sydost":5575,"gast":5576,"arbejder":5577,"##mus":5578,"kapital":5579,"amb":5580,"arbejds":5581,"bevis":5582,"mindst":5583,"##lov":5584,"nyheter":5585,"jorden":5586,"##rip":5587,"##givning":5588,"orig":5589,"avs":5590,"##vart":5591,"info":5592,"klin":5593,"gard":5594,"spæn":5595,"perioden":5596,"ster":5597,"former":5598,"##mant":5599,"makt":5600,"icke":5601,"##vn":5602,"avsnitt":5603,"svara":5604,"##etten":5605,"##ima":5606,"time":5607,"##enta":5608,"sej":5609,"venner":5610,"##empl":5611,"foran":5612,"hotellet":5613,"skit":5614,"##ielt":5615,"tvatt":5616,"individu":5617,"##anen":5618,"penis":5619,"spa":5620,"organisation":5621,"##istisk":5622,"ovrigt":5623,"##iment":5624,"gjel":5625,"##ting":5626,"patienter":5627,"##delsen":5628,"##usive":5629,"grupper":5630,"karri":5631,"kontor":5632,"respektive":5633,"hd":5634,"forstas":5635,"vurder":5636,"##arbete":5637,"arkite":5638,"album":5639,"lordag":5640,"bir":5641,"norra":5642,"halsa":5643,"##rop":5644,"##kendt":5645,"underhall":5646,"vader":5647,"##sla":5648,"umea":5649,"plock":5650,"leva":5651,"nodvand":5652,"menn":5653,"##dal":5654,"omgivningarna":5655,"fored":5656,"dele":5657,"##iar":5658,"saval":5659,"##ætt":5660,"33":5661,"samlet":5662,"trans":5663,"##oster":5664,"mol":5665,"##garna":5666,"regionen":5667,"beratta":5668,"almin":5669,"hamt":5670,"hæn":5671,"01":5672,"##æller":5673,"villkor":5674,"air":5675,"igennem":5676,"kroner":5677,"##andes":5678,"##gruppen":5679,"prøve":5680,"##sr":5681,"kanskje":5682,"aften":5683,"##gren":5684,"##vall":5685,"##aterna":5686,"kommet":5687,"lars":5688,"kak":5689,"##nede":5690,"fla":5691,"anser":5692,"##orda":5693,"barne":5694,"##sor":5695,"tanken":5696,"salg":5697,"produktion":5698,"ene":5699,"eftermid":5700,"klubben":5701,"allra":5702,"ena":5703,"lyd":5704,"lade":5705,"gammel":5706,"##ctor":5707,"national":5708,"ideer":5709,"rolig":5710,"læse":5711,"##ytter":5712,"kraver":5713,"hoga":5714,"kallas":5715,"##aner":5716,"##bev":5717,"##oppet":5718,"drog":5719,"pul":5720,"##our":5721,"vitt":5722,"lond":5723,"egentlig":5724,"litter":5725,"lesb":5726,"samarbete":5727,"sociala":5728,"lavet":5729,"stockholms":5730,"konkret":5731,"##sø":5732,"##hop":5733,"##øren":5734,"skola":5735,"##ycken":5736,"systemet":5737,"elsker":5738,"##ppe":5739,"##igh":5740,"oplysninger":5741,"##ident":5742,"##sken":5743,"undersøg":5744,"exakt":5745,"cookies":5746,"salj":5747,"utveckla":5748,"##ilt":5749,"##anten":5750,"dalig":5751,"##ningsl":5752,"##bt":5753,"ara":5754,"kem":5755,"laver":5756,"kuk":5757,"løb":5758,"##edd":5759,"##yp":5760,"bekv":5761,"maria":5762,"city":5763,"##janst":5764,"kjent":5765,"##teck":5766,"overv":5767,"ug":5768,"skøn":5769,"pension":5770,"avgor":5771,"mera":5772,"tillhor":5773,"##ood":5774,"rock":5775,"katt":5776,"2005":5777,"lagre":5778,"##ila":5779,"studier":5780,"mich":5781,"vise":5782,"skabe":5783,"samarbejde":5784,"stal":5785,"demokrat":5786,"skapar":5787,"##ikter":5788,"udfor":5789,"enten":5790,"søker":5791,"gun":5792,"dø":5793,"møte":5794,"selvom":5795,"hvilken":5796,"##gjør":5797,"div":5798,"overfor":5799,"nakna":5800,"foreningen":5801,"##rede":5802,"struktur":5803,"friv":5804,"mening":5805,"##utveck":5806,"pin":5807,"##asen":5808,"carl":5809,"##kat":5810,"##ifte":5811,"##mun":5812,"mojligheter":5813,"bestyr":5814,"intro":5815,"##delning":5816,"##ielle":5817,"luk":5818,"##ative":5819,"ude":5820,"undervis":5821,"fat":5822,"##skomm":5823,"189":5824,"situation":5825,"##melser":5826,"##ula":5827,"ekonomiska":5828,"##rid":5829,"##hund":5830,"##utbild":5831,"##fly":5832,"##vers":5833,"kott":5834,"jakt":5835,"helse":5836,"##ube":5837,"viktiga":5838,"kandes":5839,"##urt":5840,"miss":5841,"onskar":5842,"##ex":5843,"mogna":5844,"himla":5845,"##ose":5846,"bruges":5847,"seri":5848,"##ustr":5849,"stalla":5850,"cykl":5851,"sende":5852,"##sakt":5853,"trevlig":5854,"boll":5855,"straff":5856,"diskuss":5857,"slar":5858,"spelet":5859,"kas":5860,"æl":5861,"##inder":5862,"producer":5863,"##kommen":5864,"london":5865,"##ction":5866,"berak":5867,"##ringar":5868,"relativt":5869,"total":5870,"job":5871,"radio":5872,"hoger":5873,"spille":5874,"##ppen":5875,"##fest":5876,"voks":5877,"skillnad":5878,"tider":5879,"milf":5880,"sjo":5881,"kille":5882,"##ior":5883,"forum":5884,"##imal":5885,"finnes":5886,"skrevet":5887,"maned":5888,"verdens":5889,"tæt":5890,"senast":5891,"sot":5892,"hals":5893,"onsk":5894,"konkurr":5895,"##bilder":5896,"ordet":5897,"undervisning":5898,"skor":5899,"stav":5900,"##histor":5901,"##æder":5902,"##teret":5903,"##ykk":5904,"tidspunkt":5905,"##own":5906,"tru":5907,"soka":5908,"kata":5909,"bygge":5910,"revis":5911,"vall":5912,"dotter":5913,"##ente":5914,"intervju":5915,"enbart":5916,"http":5917,"minutter":5918,"gallande":5919,"yrkes":5920,"frivill":5921,"netop":5922,"urspr":5923,"grann":5924,"skratt":5925,"kung":5926,"lagg":5927,"martin":5928,"##sprogram":5929,"kommentar":5930,"tum":5931,"skam":5932,"##erede":5933,"lett":5934,"erbjuda":5935,"jatte":5936,"symbol":5937,"stang":5938,"sum":5939,"inspiration":5940,"korrekt":5941,"bidra":5942,"sno":5943,"tall":5944,"trevligt":5945,"offic":5946,"##stans":5947,"##vi":5948,"##center":5949,"##ppet":5950,"##chef":5951,"##sætt":5952,"drar":5953,"##ningsvis":5954,"##phone":5955,"##kommer":5956,"forbed":5957,"boende":5958,"uppgift":5959,"omrader":5960,"sider":5961,"##jendom":5962,"##ms":5963,"skrivit":5964,"thom":5965,"google":5966,"##føres":5967,"kunn":5968,"utgor":5969,"##laggning":5970,"mjol":5971,"uttryck":5972,"liges":5973,"garanter":5974,"sign":5975,"fork":5976,"media":5977,"værd":5978,"rus":5979,"framtiden":5980,"nagonsin":5981,"visste":5982,"##spektiv":5983,"utover":5984,"##anse":5985,"intens":5986,"uppskatt":5987,"##sled":5988,"antag":5989,"##ole":5990,"plots":5991,"neder":5992,"trana":5993,"nordvast":5994,"##ungen":5995,"##emat":5996,"verksamheten":5997,"##freds":5998,"lana":5999,"##out":6000,"34":6001,"ext":6002,"##roll":6003,"lattare":6004,"##uer":6005,"nettet":6006,"konser":6007,"alene":6008,"oppet":6009,"##arken":6010,"##ah":6011,"##æring":6012,"##stod":6013,"lill":6014,"dum":6015,"##nare":6016,"lokala":6017,"tant":6018,"##klubb":6019,"dusch":6020,"##sminister":6021,"webbplats":6022,"08":6023,"laga":6024,"kansla":6025,"##deligt":6026,"naturen":6027,"modell":6028,"desuden":6029,"tube":6030,"sos":6031,"##cher":6032,"indtil":6033,"ursprung":6034,"kapit":6035,"ori":6036,"lyckas":6037,"okar":6038,"spelade":6039,"følger":6040,"vm":6041,"##skrifter":6042,"mør":6043,"muligheder":6044,"forvent":6045,"##edagog":6046,"satter":6047,"omraden":6048,"saknar":6049,"fantastiskt":6050,"analyser":6051,"vuxna":6052,"75":6053,"sku":6054,"vacker":6055,"mult":6056,"##holdt":6057,"stille":6058,"##ffer":6059,"tilfælde":6060,"drabb":6061,"##pren":6062,"objekt":6063,"##ykke":6064,"sorter":6065,"ansikt":6066,"saken":6067,"sjukt":6068,"død":6069,"konfer":6070,"gælder":6071,"funktioner":6072,"vanta":6073,"##værk":6074,"utnytt":6075,"jenter":6076,"njuta":6077,"##10":6078,"adgang":6079,"porrfilm":6080,"foreb":6081,"##organis":6082,"vigtig":6083,"datum":6084,"storlek":6085,"historien":6086,"formid":6087,"##dighet":6088,"##stav":6089,"fru":6090,"naken":6091,"##iell":6092,"reda":6093,"##liv":6094,"testa":6095,"idrott":6096,"blad":6097,"boka":6098,"##stæn":6099,"hosten":6100,"fantas":6101,"student":6102,"##erande":6103,"##ec":6104,"##ømme":6105,"ip":6106,"##isse":6107,"angel":6108,"konstater":6109,"##usjon":6110,"byta":6111,"##bak":6112,"folke":6113,"pavir":6114,"coll":6115,"prioriter":6116,"besvar":6117,"nas":6118,"servic":6119,"vattnet":6120,"##delen":6121,"borta":6122,"##mod":6123,"alvor":6124,"handla":6125,"pil":6126,"møde":6127,"ox":6128,"##ival":6129,"teater":6130,"##jet":6131,"##ox":6132,"##ukke":6133,"play":6134,"##makt":6135,"dagarna":6136,"tallet":6137,"slog":6138,"master":6139,"##spar":6140,"07":6141,"medvet":6142,"orebro":6143,"fx":6144,"vita":6145,"leverant":6146,"alex":6147,"##sjon":6148,"##mot":6149,"omsorg":6150,"##amin":6151,"mg":6152,"utmarkt":6153,"jesus":6154,"##snit":6155,"potent":6156,"retur":6157,"oven":6158,"skolen":6159,"09":6160,"publik":6161,"skov":6162,"ordforande":6163,"knappt":6164,"##ylland":6165,"##larna":6166,"400":6167,"##vok":6168,"afsl":6169,"fritid":6170,"2004":6171,"tyn":6172,"##fon":6173,"pga":6174,"##mærksom":6175,"##beh":6176,"lakem":6177,"tjanst":6178,"saklart":6179,"##fal":6180,"ejendom":6181,"55":6182,"pens":6183,"dersom":6184,"##kal":6185,"smal":6186,"##aterial":6187,"kong":6188,"løbet":6189,"bolag":6190,"kommentarer":6191,"##orten":6192,"##ledningen":6193,"interesser":6194,"hygg":6195,"metoder":6196,"tviv":6197,"undrar":6198,"sof":6199,"bilar":6200,"lim":6201,"##orges":6202,"afgør":6203,"vastra":6204,"nordost":6205,"kjøp":6206,"kontrakt":6207,"erfaring":6208,"ei":6209,"marknaden":6210,"forp":6211,"##lunda":6212,"rød":6213,"##ower":6214,"anses":6215,"huden":6216,"ældre":6217,"garant":6218,"rem":6219,"normal":6220,"##skning":6221,"anvandning":6222,"##omrade":6223,"##igheten":6224,"opmærksom":6225,"spra":6226,"formal":6227,"iaf":6228,"##system":6229,"hjemmeside":6230,"tids":6231,"##lande":6232,"##spart":6233,"starka":6234,"mjuk":6235,"samhallet":6236,"##ellen":6237,"tankar":6238,"##ris":6239,"##brott":6240,"paket":6241,"ingr":6242,"bre":6243,"øje":6244,"overens":6245,"##vel":6246,"##illing":6247,"definit":6248,"sagde":6249,"valgt":6250,"verktyg":6251,"##sats":6252,"skatte":6253,"tillrackligt":6254,"##alg":6255,"##rit":6256,"lyssna":6257,"##ding":6258,"sluta":6259,"##løs":6260,"lagenhet":6261,"188":6262,"kunnat":6263,"pet":6264,"miljon":6265,"##hy":6266,"brugt":6267,"hinanden":6268,"priset":6269,"period":6270,"##agram":6271,"38":6272,"##brug":6273,"atgarder":6274,"sæl":6275,"##holds":6276,"ort":6277,"plotsligt":6278,"figur":6279,"halso":6280,"masser":6281,"spara":6282,"impon":6283,"buss":6284,"inkluder":6285,"##fang":6286,"lærer":6287,"imidler":6288,"pige":6289,"##oga":6290,"yout":6291,"formod":6292,"arene":6293,"imidlertid":6294,"##ugt":6295,"rest":6296,"grill":6297,"##uc":6298,"##rom":6299,"##isert":6300,"sens":6301,"nack":6302,"teor":6303,"##skraft":6304,"sikkerhed":6305,"hurtig":6306,"##fald":6307,"enorm":6308,"planer":6309,"tillstand":6310,"site":6311,"forsvin":6312,"##dels":6313,"37":6314,"##givare":6315,"##mest":6316,"##ics":6317,"stift":6318,"skru":6319,"lake":6320,"##ksis":6321,"fantastiska":6322,"dialog":6323,"##skola":6324,"bestille":6325,"sjov":6326,"parti":6327,"sydvast":6328,"engelsk":6329,"big":6330,"##medel":6331,"ros":6332,"##klimat":6333,"isra":6334,"##skyl":6335,"##uell":6336,"ordning":6337,"ligga":6338,"##pos":6339,"kyl":6340,"##ira":6341,"driver":6342,"##melse":6343,"spændende":6344,"freder":6345,"rygg":6346,"mic":6347,"##kere":6348,"##ful":6349,"opplev":6350,"framat":6351,"##start":6352,"antingen":6353,"##orlunda":6354,"golf":6355,"oke":6356,"strax":6357,"##offer":6358,"##æft":6359,"enhver":6360,"vinna":6361,"lapp":6362,"##ffan":6363,"mesta":6364,"mangd":6365,"narmare":6366,"fry":6367,"positiv":6368,"lækker":6369,"gas":6370,"takt":6371,"ihag":6372,"##fot":6373,"##ekn":6374,"længe":6375,"##dus":6376,"bereg":6377,"timme":6378,"##ygge":6379,"attrakt":6380,"rosa":6381,"##cel":6382,"39":6383,"medarbet":6384,"monster":6385,"kina":6386,"tving":6387,"flytta":6388,"##pat":6389,"##uel":6390,"rummet":6391,"oppen":6392,"england":6393,"syk":6394,"ansokan":6395,"##erier":6396,"udvalg":6397,"##ign":6398,"##føring":6399,"fredrik":6400,"naturligtvis":6401,"litteratur":6402,"konfl":6403,"modern":6404,"giv":6405,"austral":6406,"##tel":6407,"fortæller":6408,"aar":6409,"javla":6410,"center":6411,"uge":6412,"tisdag":6413,"lekt":6414,"valde":6415,"offentlige":6416,"##pu":6417,"stick":6418,"annen":6419,"##ete":6420,"##fir":6421,"dukt":6422,"harligt":6423,"##inen":6424,"##arm":6425,"herr":6426,"vagar":6427,"central":6428,"nagonting":6429,"formul":6430,"bestemt":6431,"restaurang":6432,"##rustning":6433,"arbejdet":6434,"##onom":6435,"minska":6436,"børne":6437,"utbud":6438,"kjøpe":6439,"komb":6440,"forlor":6441,"forud":6442,"##jas":6443,"voksne":6444,"##heng":6445,"kommande":6446,"endelig":6447,"hjul":6448,"##bolag":6449,"##digvis":6450,"lack":6451,"##ors":6452,"personen":6453,"rav":6454,"hatt":6455,"##kopp":6456,"henrik":6457,"##vika":6458,"matchen":6459,"fett":6460,"løpet":6461,"##uella":6462,"##ogg":6463,"##partem":6464,"gri":6465,"radd":6466,"bekym":6467,"##klag":6468,"##mos":6469,"##oner":6470,"dim":6471,"##værende":6472,"rym":6473,"magn":6474,"inb":6475,"##imul":6476,"ansatte":6477,"besøg":6478,"uppfatt":6479,"##uttet":6480,"starkt":6481,"##natt":6482,"##ningst":6483,"vat":6484,"dokumenter":6485,"##30":6486,"vuxen":6487,"vars":6488,"aktiver":6489,"forte":6490,"passa":6491,"kos":6492,"ges":6493,"arkitekt":6494,"pag":6495,"skjer":6496,"##kade":6497,"utform":6498,"##stone":6499,"rette":6500,"betyg":6501,"fysisk":6502,"##jerg":6503,"millioner":6504,"##grupper":6505,"blomm":6506,"##rigt":6507,"##okr":6508,"positivt":6509,"ekonomi":6510,"kunden":6511,"##fiken":6512,"riksdag":6513,"hak":6514,"beskriver":6515,"##nere":6516,"betydelse":6517,"huvudet":6518,"ski":6519,"hyp":6520,"##che":6521,"stranden":6522,"##ele":6523,"gruppe":6524,"status":6525,"ønske":6526,"##forening":6527,"tilbyder":6528,"##ern":6529,"plat":6530,"show":6531,"kirke":6532,"mate":6533,"##oss":6534,"##ple":6535,"representer":6536,"hensyn":6537,"##foring":6538,"doll":6539,"kommunens":6540,"gjelder":6541,"fed":6542,"kontin":6543,"polis":6544,"samarbeid":6545,"valt":6546,"##draget":6547,"##ills":6548,"døde":6549,"##egar":6550,"nyck":6551,"##nende":6552,"##annon":6553,"##way":6554,"##istiska":6555,"vanskelig":6556,"tillamp":6557,"prøv":6558,"##kam":6559,"forstaelse":6560,"##bladet":6561,"kær":6562,"##beskriv":6563,"##ou":6564,"øy":6565,"enhet":6566,"viktigaste":6567,"hjelp":6568,"norges":6569,"ordentligt":6570,"fonster":6571,"kæm":6572,"høre":6573,"##terar":6574,"føler":6575,"strøm":6576,"version":6577,"sætte":6578,"mote":6579,"sasongen":6580,"il":6581,"sjun":6582,"okej":6583,"##handel":6584,"##ea":6585,"##farg":6586,"generisk":6587,"##inget":6588,"motiv":6589,"##skrig":6590,"ladda":6591,"annonser":6592,"sasong":6593,"motes":6594,"##beider":6595,"christian":6596,"##løb":6597,"##gjort":6598,"utred":6599,"vap":6600,"forhopp":6601,"finansiella":6602,"bakgrund":6603,"betydligt":6604,"02":6605,"kab":6606,"##lor":6607,"motiver":6608,"risiko":6609,"05":6610,"fald":6611,"##drer":6612,"dram":6613,"##vara":6614,"est":6615,"introdu":6616,"lans":6617,"renover":6618,"ferie":6619,"moderne":6620,"fitta":6621,"ersatt":6622,"holdt":6623,"##ongen":6624,"kig":6625,"##slagen":6626,"milit":6627,"prest":6628,"harlig":6629,"mom":6630,"indeholder":6631,"pik":6632,"landst":6633,"faktum":6634,"##stalla":6635,"##brik":6636,"tonar":6637,"hamta":6638,"forældre":6639,"tapp":6640,"betydning":6641,"landets":6642,"##lik":6643,"resultater":6644,"##egaende":6645,"tunn":6646,"relation":6647,"##enden":6648,"spor":6649,"48":6650,"køre":6651,"run":6652,"##fisk":6653,"karakter":6654,"kjær":6655,"##skont":6656,"sygdom":6657,"##sil":6658,"##falt":6659,"virker":6660,"puss":6661,"koncer":6662,"##arnas":6663,"temperatur":6664,"spørsmal":6665,"one":6666,"##skj":6667,"##fag":6668,"ligesom":6669,"##hamn":6670,"forret":6671,"bygget":6672,"vetenskap":6673,"februar":6674,"korde":6675,"brukes":6676,"06":6677,"appar":6678,"##djur":6679,"##leder":6680,"kyrk":6681,"numera":6682,"lanser":6683,"##fart":6684,"djup":6685,"your":6686,"##th":6687,"fyn":6688,"##varden":6689,"forr":6690,"##spolit":6691,"186":6692,"##brit":6693,"type":6694,"##edi":6695,"##ogn":6696,"lyckades":6697,"kombiner":6698,"forvan":6699,"agg":6700,"laste":6701,"thomas":6702,"##rast":6703,"##ifik":6704,"##service":6705,"187":6706,"##elen":6707,"##ekk":6708,"##stam":6709,"registrering":6710,"##skift":6711,"snygga":6712,"##denafil":6713,"forkl":6714,"aktivt":6715,"kurser":6716,"tydligt":6717,"lant":6718,"this":6719,"hyll":6720,"kampen":6721,"##polit":6722,"kend":6723,"tusen":6724,"forsv":6725,"150":6726,"sammenlig":6727,"jarn":6728,"##tok":6729,"##smed":6730,"##lysning":6731,"skiv":6732,"lande":6733,"akadem":6734,"kines":6735,"##givet":6736,"##ekan":6737,"65":6738,"idr":6739,"bedst":6740,"skift":6741,"flash":6742,"kostar":6743,"##olut":6744,"parkering":6745,"danmarks":6746,"derefter":6747,"nasjon":6748,"##osa":6749,"papper":6750,"inklusive":6751,"dato":6752,"familien":6753,"diagn":6754,"##ee":6755,"kuper":6756,"rejse":6757,"datorn":6758,"kommunal":6759,"underbart":6760,"jamfort":6761,"##vig":6762,"##ble":6763,"fortsatte":6764,"instrukt":6765,"##dage":6766,"studenter":6767,"inse":6768,"##verse":6769,"besta":6770,"private":6771,"##rika":6772,"opfyl":6773,"separ":6774,"##fan":6775,"ball":6776,"sikt":6777,"bidrar":6778,"##fs":6779,"anbefal":6780,"gull":6781,"lista":6782,"bolaget":6783,"mov":6784,"##skede":6785,"billigt":6786,"##kul":6787,"##skal":6788,"bestalla":6789,"automat":6790,"comp":6791,"plass":6792,"initi":6793,"jf":6794,"##ologiska":6795,"youtube":6796,"##atorer":6797,"højt":6798,"svarta":6799,"skane":6800,"bran":6801,"rabatt":6802,"##aning":6803,"sprang":6804,"polisen":6805,"##elles":6806,"bakgr":6807,"rot":6808,"##asje":6809,"##rettet":6810,"##iam":6811,"lju":6812,"oro":6813,"effektivt":6814,"1000":6815,"pratar":6816,"humor":6817,"fixa":6818,"paris":6819,"frankrike":6820,"##ukker":6821,"sus":6822,"prim":6823,"##trol":6824,"haret":6825,"smid":6826,"##former":6827,"fardig":6828,"42":6829,"anstallda":6830,"wik":6831,"utsikt":6832,"york":6833,"underklader":6834,"##olen":6835,"represent":6836,"mikro":6837,"tittar":6838,"stolt":6839,"starten":6840,"ress":6841,"killar":6842,"##alitet":6843,"##god":6844,"forhallande":6845,"2003":6846,"besl":6847,"##heim":6848,"princip":6849,"falt":6850,"guide":6851,"marie":6852,"paul":6853,"##iland":6854,"staten":6855,"gæ":6856,"stads":6857,"storbrit":6858,"erfaren":6859,"staller":6860,"pamin":6861,"kors":6862,"kamera":6863,"internationella":6864,"kompetens":6865,"hat":6866,"motstand":6867,"erhverv":6868,"omgang":6869,"##øst":6870,"politisk":6871,"mord":6872,"cert":6873,"inled":6874,"mangler":6875,"04":6876,"happ":6877,"##foretag":6878,"sara":6879,"##sag":6880,"ytt":6881,"musl":6882,"cor":6883,"##burg":6884,"kostnad":6885,"fortæll":6886,"storbritann":6887,"mac":6888,"utsatt":6889,"ejer":6890,"hyres":6891,"##taget":6892,"##jent":6893,"##talet":6894,"mc":6895,"##mens":6896,"##egn":6897,"lab":6898,"##do":6899,"spender":6900,"koper":6901,"lugn":6902,"venstre":6903,"##ric":6904,"##anning":6905,"kære":6906,"##assan":6907,"trenger":6908,"bekvam":6909,"##ismen":6910,"dild":6911,"pc":6912,"britt":6913,"roliga":6914,"velkommen":6915,"morgonen":6916,"allig":6917,"synd":6918,"goras":6919,"prosent":6920,"sexlek":6921,"engang":6922,"dol":6923,"daglig":6924,"##skat":6925,"##ægt":6926,"aktie":6927,"hemm":6928,"praksis":6929,"gors":6930,"##læ":6931,"atmin":6932,"##unds":6933,"amerikansk":6934,"##ografi":6935,"prins":6936,"utvikling":6937,"##rande":6938,"singel":6939,"styrke":6940,"##institut":6941,"kallt":6942,"politiker":6943,"spise":6944,"promenad":6945,"smukke":6946,"visas":6947,"domstol":6948,"##ford":6949,"strom":6950,"##stø":6951,"turen":6952,"handen":6953,"py":6954,"underbara":6955,"dyg":6956,"acc":6957,"drygt":6958,"forutsattningar":6959,"lust":6960,"avgift":6961,"uanset":6962,"bror":6963,"popular":6964,"periode":6965,"##valget":6966,"##steder":6967,"atta":6968,"##alender":6969,"##andt":6970,"magen":6971,"tøj":6972,"von":6973,"betale":6974,"##ino":6975,"anmel":6976,"eksister":6977,"køkken":6978,"syns":6979,"hojd":6980,"rigtige":6981,"personuppgifter":6982,"##inne":6983,"kompis":6984,"bilderna":6985,"##sproc":6986,"lakare":6987,"kopt":6988,"inc":6989,"rig":6990,"ott":6991,"isol":6992,"annorlunda":6993,"sannol":6994,"specif":6995,"##annen":6996,"vold":6997,"love":6998,"nemt":6999,"fremtid":7000,"##gra":7001,"bergen":7002,"søk":7003,"slutade":7004,"deler":7005,"detalj":7006,"##esen":7007,"helsingborg":7008,"myndighet":7009,"here":7010,"##stift":7011,"syfte":7012,"ye":7013,"lør":7014,"ialla":7015,"##ckar":7016,"##ledes":7017,"david":7018,"styrelsen":7019,"##varer":7020,"garden":7021,"niveau":7022,"rø":7023,"##ley":7024,"week":7025,"kampan":7026,"ii":7027,"singlar":7028,"givetvis":7029,"ægte":7030,"alligevel":7031,"##sby":7032,"engag":7033,"iphone":7034,"fiske":7035,"##asa":7036,"##skom":7037,"##indust":7038,"hunden":7039,"44":7040,"vedr":7041,"03":7042,"fukt":7043,"##risk":7044,"apotek":7045,"##tar":7046,"sko":7047,"formodligen":7048,"kandid":7049,"vinst":7050,"generelt":7051,"intresserad":7052,"succ":7053,"viste":7054,"hogst":7055,"utrym":7056,"guds":7057,"datings":7058,"##vo":7059,"##elserne":7060,"hallbar":7061,"##sok":7062,"##slos":7063,"navnet":7064,"kuperad":7065,"##ave":7066,"grunden":7067,"skogen":7068,"ersattning":7069,"entrepren":7070,"forsikt":7071,"##arbejdet":7072,"lamnar":7073,"grym":7074,"uger":7075,"redovis":7076,"midler":7077,"##ows":7078,"vik":7079,"##leva":7080,"het":7081,"inlag":7082,"dei":7083,"##valt":7084,"atminstone":7085,"fordon":7086,"##amen":7087,"stimul":7088,"hann":7089,"##aket":7090,"##kall":7091,"aldri":7092,"populara":7093,"spillet":7094,"gles":7095,"ron":7096,"##ønn":7097,"##ligheder":7098,"bemær":7099,"skand":7100,"overfl":7101,"##ones":7102,"konstrukt":7103,"##mail":7104,"fyller":7105,"##leken":7106,"riktning":7107,"##bold":7108,"anvant":7109,"##endet":7110,"israel":7111,"konstnar":7112,"##ningsb":7113,"planen":7114,"hort":7115,"##mil":7116,"marken":7117,"forsikring":7118,"flot":7119,"orsa":7120,"stalle":7121,"##bergs":7122,"##dd":7123,"teen":7124,"distrikt":7125,"##skolen":7126,"##uddann":7127,"##maskin":7128,"bio":7129,"##klus":7130,"leda":7131,"gren":7132,"kyrkan":7133,"øvrige":7134,"tekst":7135,"skær":7136,"chans":7137,"konstigt":7138,"nærmere":7139,"orkar":7140,"##varm":7141,"starta":7142,"##df":7143,"tala":7144,"nom":7145,"stral":7146,"kristen":7147,"paverkar":7148,"mogen":7149,"anpas":7150,"regul":7151,"forny":7152,"##vikling":7153,"smer":7154,"darlig":7155,"##mas":7156,"##ros":7157,"forbattra":7158,"nuvarande":7159,"uddannelse":7160,"##jord":7161,"lanet":7162,"fac":7163,"##gress":7164,"slet":7165,"##ress":7166,"##delar":7167,"iallafall":7168,"mansk":7169,"spesielt":7170,"##server":7171,"##aker":7172,"##entyr":7173,"box":7174,"varum":7175,"selve":7176,"kræver":7177,"choklad":7178,"formaga":7179,"linje":7180,"minim":7181,"##funkt":7182,"##æns":7183,"talar":7184,"lod":7185,"##kas":7186,"fine":7187,"starter":7188,"##smæss":7189,"nøg":7190,"krimin":7191,"matcher":7192,"firma":7193,"lou":7194,"syster":7195,"46":7196,"##angd":7197,"tydligen":7198,"##sart":7199,"gratt":7200,"utgangspunkt":7201,"organisationer":7202,"pedagog":7203,"baby":7204,"sags":7205,"roda":7206,"stjarn":7207,"hantera":7208,"cop":7209,"brukt":7210,"perspektiv":7211,"lugnt":7212,"forsaljning":7213,"tax":7214,"underbar":7215,"fakta":7216,"sæson":7217,"indenfor":7218,"##gaard":7219,"ri":7220,"##ffar":7221,"##følgende":7222,"behandlingen":7223,"repar":7224,"klarar":7225,"##hæn":7226,"##gu":7227,"kombination":7228,"kanda":7229,"##stret":7230,"##sprodu":7231,"##ffet":7232,"homo":7233,"rekke":7234,"##bla":7235,"brit":7236,"ungdomar":7237,"resept":7238,"##terne":7239,"intet":7240,"##olver":7241,"sallan":7242,"mitten":7243,"trum":7244,"##cken":7245,"kommenter":7246,"sjon":7247,"pengarna":7248,"gitt":7249,"sidst":7250,"hittat":7251,"husk":7252,"anlæg":7253,"##stændig":7254,"##revet":7255,"politiska":7256,"minns":7257,"fejl":7258,"##vagen":7259,"##vatt":7260,"kamer":7261,"cup":7262,"amerikanska":7263,"bjud":7264,"##ringen":7265,"løsning":7266,"##ime":7267,"##adser":7268,"gett":7269,"##rasjon":7270,"salja":7271,"bryster":7272,"##isme":7273,"aben":7274,"placering":7275,"særligt":7276,"##øse":7277,"##køb":7278,"næv":7279,"##partementet":7280,"island":7281,"russ":7282,"##sig":7283,"neste":7284,"orden":7285,"utvecklas":7286,"##iets":7287,"ker":7288,"##isere":7289,"ostra":7290,"turner":7291,"happy":7292,"reakt":7293,"monter":7294,"##udover":7295,"vurdering":7296,"kender":7297,"udtryk":7298,"ryggen":7299,"misstan":7300,"praktisk":7301,"line":7302,"okad":7303,"fungerer":7304,"fing":7305,"forekommer":7306,"vælger":7307,"##skill":7308,"evt":7309,"konkurren":7310,"president":7311,"soffan":7312,"saljer":7313,"##barn":7314,"inkop":7315,"##hets":7316,"2002":7317,"huvudsakligen":7318,"49":7319,"thailand":7320,"##oper":7321,"2001":7322,"brist":7323,"##kval":7324,"forsokte":7325,"##lekt":7326,"unn":7327,"resul":7328,"##bra":7329,"stri":7330,"daniel":7331,"##ness":7332,"##spill":7333,"diverse":7334,"romant":7335,"fris":7336,"enkla":7337,"slott":7338,"indlæg":7339,"eksp":7340,"funkar":7341,"lopp":7342,"manniska":7343,"##ned":7344,"søndag":7345,"##enten":7346,"olyck":7347,"##uen":7348,"metod":7349,"kallade":7350,"flykt":7351,"klasse":7352,"allmanna":7353,"sover":7354,"sexleksaker":7355,"vejen":7356,"##cks":7357,"##sprak":7358,"##vende":7359,"##ordin":7360,"##inner":7361,"definitivt":7362,"forskjellige":7363,"bb":7364,"##lader":7365,"siff":7366,"intra":7367,"nev":7368,"stammer":7369,"##atch":7370,"##ørn":7371,"jurid":7372,"arv":7373,"##behor":7374,"wind":7375,"forelas":7376,"kold":7377,"bostads":7378,"oden":7379,"uppratt":7380,"##ologiske":7381,"kompon":7382,"underl":7383,"##gl":7384,"##tning":7385,"##hort":7386,"##ini":7387,"##ege":7388,"baggrund":7389,"svamp":7390,"skott":7391,"uppen":7392,"dæk":7393,"stanna":7394,"typisk":7395,"##ome":7396,"##ski":7397,"swed":7398,"øj":7399,"civ":7400,"mojligheten":7401,"slipper":7402,"villa":7403,"##unda":7404,"oj":7405,"kjære":7406,"befinner":7407,"swinger":7408,"anvendes":7409,"mur":7410,"debatt":7411,"egenskaper":7412,"rob":7413,"##ningens":7414,"varer":7415,"grov":7416,"##fred":7417,"valet":7418,"lørdag":7419,"##istiske":7420,"halvt":7421,"statistik":7422,"krop":7423,"##halla":7424,"##prov":7425,"piz":7426,"##nasjon":7427,"størrelse":7428,"racker":7429,"smag":7430,"amerikanske":7431,"##gatan":7432,"sweden":7433,"##ivitet":7434,"gis":7435,"##sætning":7436,"major":7437,"##ugga":7438,"overvej":7439,"bilj":7440,"cafe":7441,"##handa":7442,"pek":7443,"##fragan":7444,"svang":7445,"syr":7446,"amnen":7447,"silver":7448,"##verksamhet":7449,"##bal":7450,"betrakt":7451,"ke":7452,"bef":7453,"initiativ":7454,"væg":7455,"##itra":7456,"##till":7457,"##ze":7458,"utvecklingen":7459,"##ilj":7460,"malt":7461,"##akning":7462,"wal":7463,"vindu":7464,"museum":7465,"exp":7466,"varken":7467,"flex":7468,"horn":7469,"forsamling":7470,"kallar":7471,"samfund":7472,"glass":7473,"jeres":7474,"ack":7475,"marknad":7476,"##ykket":7477,"udgangspunkt":7478,"##40":7479,"ær":7480,"græn":7481,"##onym":7482,"mont":7483,"delvis":7484,"##ordningen":7485,"##sler":7486,"rattigheter":7487,"nerv":7488,"fundet":7489,"##gerne":7490,"##sland":7491,"termin":7492,"vaknade":7493,"41":7494,"##uelle":7495,"unik":7496,"finn":7497,"##somt":7498,"##ty":7499,"##ova":7500,"nik":7501,"rok":7502,"kommunik":7503,"jac":7504,"fn":7505,"##bry":7506,"era":7507,"jar":7508,"seneste":7509,"##mene":7510,"mai":7511,"interess":7512,"produksjon":7513,"grat":7514,"torr":7515,"indt":7516,"mennesk":7517,"wil":7518,"losningar":7519,"bandet":7520,"langd":7521,"tidlig":7522,"##blick":7523,"tyst":7524,"uttal":7525,"make":7526,"bered":7527,"bodde":7528,"forsknings":7529,"interesse":7530,"vackert":7531,"##jej":7532,"tjenester":7533,"find":7534,"micha":7535,"økonomi":7536,"##uro":7537,"orienter":7538,"intell":7539,"gladje":7540,"losa":7541,"sock":7542,"sprog":7543,"##mad":7544,"mysigt":7545,"##idae":7546,"distri":7547,"klad":7548,"##kontakt":7549,"motion":7550,"impl":7551,"avstand":7552,"##vest":7553,"43":7554,"undant":7555,"desto":7556,"##ytning":7557,"sammanhang":7558,"politiet":7559,"nil":7560,"socialdem":7561,"bidr":7562,"frederik":7563,"socialt":7564,"down":7565,"aarhus":7566,"fet":7567,"venn":7568,"47":7569,"##ptom":7570,"##iew":7571,"leve":7572,"##værre":7573,"iv":7574,"##lingar":7575,"platsen":7576,"mos":7577,"bestamt":7578,"##stedet":7579,"islam":7580,"kne":7581,"syke":7582,"fritt":7583,"snarare":7584,"personlige":7585,"gjerne":7586,"springa":7587,"champ":7588,"##kket":7589,"99":7590,"cont":7591,"gram":7592,"micro":7593,"600":7594,"erotik":7595,"tekniska":7596,"kjem":7597,"##roende":7598,"##bed":7599,"advok":7600,"burde":7601,"##bad":7602,"utdan":7603,"begrans":7604,"forskol":7605,"##ockey":7606,"mork":7607,"langiv":7608,"##trad":7609,"ventil":7610,"##oth":7611,"##vide":7612,"delst":7613,"finansiering":7614,"kunnskap":7615,"imod":7616,"dager":7617,"ranta":7618,"girl":7619,"vattendrag":7620,"dens":7621,"internasjon":7622,"tjock":7623,"##formen":7624,"omedel":7625,"prisen":7626,"##osof":7627,"mats":7628,"bete":7629,"##beg":7630,"strategi":7631,"arbeidet":7632,"##arens":7633,"pack":7634,"##erende":7635,"##lok":7636,"assist":7637,"prost":7638,"neden":7639,"blomster":7640,"##aks":7641,"klassen":7642,"rør":7643,"sekunder":7644,"resan":7645,"individer":7646,"datter":7647,"##amer":7648,"mast":7649,"jose":7650,"##inter":7651,"desværre":7652,"koncentr":7653,"glem":7654,"sidder":7655,"paverka":7656,"oblig":7657,"angre":7658,"##unnet":7659,"væsent":7660,"##11":7661,"inrikt":7662,"vinner":7663,"180":7664,"##usen":7665,"matemat":7666,"##tekn":7667,"medarbetare":7668,"##ioden":7669,"medarbejdere":7670,"##skr":7671,"mota":7672,"upplevelse":7673,"utvar":7674,"svaret":7675,"##rel":7676,"fungera":7677,"letter":7678,"dildo":7679,"world":7680,"højere":7681,"sætter":7682,"teknisk":7683,"cla":7684,"inns":7685,"##talt":7686,"tantra":7687,"mojliga":7688,"trolig":7689,"gn":7690,"nere":7691,"lyx":7692,"##mask":7693,"undan":7694,"gavle":7695,"trav":7696,"ryss":7697,"##llop":7698,"##eger":7699,"naturligvis":7700,"bjuder":7701,"##stag":7702,"glesbefolkat":7703,"felles":7704,"##xor":7705,"##otta":7706,"lid":7707,"lyn":7708,"sajt":7709,"##sætte":7710,"chatt":7711,"cro":7712,"cap":7713,"##deren":7714,"##hr":7715,"involver":7716,"andersson":7717,"letar":7718,"efterhand":7719,"lider":7720,"##sende":7721,"framforallt":7722,"socker":7723,"dikt":7724,"repræ":7725,"##middel":7726,"funn":7727,"fuck":7728,"ende":7729,"sattet":7730,"betaling":7731,"farver":7732,"flotte":7733,"brasil":7734,"paverk":7735,"##sporter":7736,"hvid":7737,"opgaver":7738,"oer":7739,"yderligere":7740,"optim":7741,"##mand":7742,"aner":7743,"gaet":7744,"##bare":7745,"besoka":7746,"##famil":7747,"stycken":7748,"aktuella":7749,"rekommenderar":7750,"##mø":7751,"dollar":7752,"##riter":7753,"lokaler":7754,"uppf":7755,"bos":7756,"invand":7757,"##ico":7758,"##uft":7759,"søge":7760,"risken":7761,"##punkter":7762,"simpel":7763,"##tokoll":7764,"betalar":7765,"jobbigt":7766,"##telefon":7767,"hinner":7768,"##utveckling":7769,"drøm":7770,"funder":7771,"##svall":7772,"hushall":7773,"pasta":7774,"##slapp":7775,"##anal":7776,"udstyr":7777,"kapitel":7778,"bær":7779,"bussen":7780,"professor":7781,"cas":7782,"japan":7783,"losning":7784,"græ":7785,"kuh":7786,"##gitt":7787,"##ynt":7788,"##direkt":7789,"innlegg":7790,"befolkningen":7791,"##sko":7792,"##sætter":7793,"##hjem":7794,"europ":7795,"tvivl":7796,"##pac":7797,"frakt":7798,"arab":7799,"ell":7800,"demon":7801,"kill":7802,"behovde":7803,"sexy":7804,"##entlig":7805,"aktier":7806,"arbetspl":7807,"tradgard":7808,"myndigheter":7809,"stjer":7810,"skra":7811,"eksempl":7812,"taler":7813,"flickor":7814,"eleverna":7815,"luften":7816,"utrolig":7817,"færdig":7818,"##annes":7819,"opna":7820,"##skort":7821,"enklare":7822,"##ratten":7823,"##regler":7824,"metall":7825,"skada":7826,"avancer":7827,"spis":7828,"##ikal":7829,"ringa":7830,"##fulla":7831,"##lades":7832,"##samlingen":7833,"##æld":7834,"redo":7835,"jonkoping":7836,"klare":7837,"chansen":7838,"nyligen":7839,"regjer":7840,"##itioner":7841,"kanslor":7842,"eit":7843,"##urg":7844,"klassisk":7845,"##jal":7846,"magnus":7847,"standigt":7848,"##annonser":7849,"##angt":7850,"##uv":7851,"oversikt":7852,"hverdag":7853,"botten":7854,"illa":7855,"oplevelse":7856,"##ney":7857,"regelb":7858,"##laggande":7859,"videor":7860,"aventyr":7861,"modellen":7862,"overrask":7863,"anne":7864,"middel":7865,"mærke":7866,"##umer":7867,"legge":7868,"vasteras":7869,"harliga":7870,"gransk":7871,"computer":7872,"tvungen":7873,"sallskap":7874,"##pot":7875,"##dres":7876,"gif":7877,"undvika":7878,"okat":7879,"1990":7880,"position":7881,"veter":7882,"##behov":7883,"lader":7884,"rekommender":7885,"barns":7886,"koket":7887,"##eten":7888,"##aland":7889,"sendt":7890,"##oda":7891,"tilg":7892,"##jus":7893,"gill":7894,"##minister":7895,"spanien":7896,"brollop":7897,"##adsen":7898,"billede":7899,"##fullt":7900,"##inav":7901,"nab":7902,"fug":7903,"michael":7904,"##isera":7905,"block":7906,"banan":7907,"hjælper":7908,"bri":7909,"føds":7910,"mormor":7911,"##opt":7912,"vd":7913,"hundar":7914,"##kninger":7915,"##ards":7916,"haber":7917,"personligt":7918,"vider":7919,"##jning":7920,"himmel":7921,"lakemedel":7922,"vila":7923,"##evær":7924,"##esh":7925,"fransk":7926,"single":7927,"tilh":7928,"##bat":7929,"##niva":7930,"process":7931,"##idan":7932,"smarta":7933,"redakt":7934,"##sliv":7935,"##ensioner":7936,"forslaget":7937,"lignende":7938,"kursen":7939,"fører":7940,"##lak":7941,"utbred":7942,"##fen":7943,"fallet":7944,"hunnit":7945,"fandt":7946,"##stalld":7947,"begran":7948,"##uds":7949,"vild":7950,"##sked":7951,"rakt":7952,"prøver":7953,"tung":7954,"automatisk":7955,"2019":7956,"##varme":7957,"historier":7958,"##play":7959,"fack":7960,"jordbruk":7961,"moderna":7962,"situationer":7963,"##assigt":7964,"##ørs":7965,"mex":7966,"tænke":7967,"kanal":7968,"situationen":7969,"dia":7970,"cer":7971,"##forsakring":7972,"skot":7973,"lyckats":7974,"startet":7975,"##pi":7976,"pratade":7977,"hører":7978,"hi":7979,"skan":7980,"blu":7981,"skull":7982,"valgte":7983,"power":7984,"##hog":7985,"vapen":7986,"support":7987,"##result":7988,"##delningen":7989,"reserv":7990,"relevant":7991,"observer":7992,"##partiet":7993,"##diga":7994,"##janster":7995,"forhandling":7996,"urval":7997,"brann":7998,"vekt":7999,"sociale":8000,"##stiden":8001,"varden":8002,"kendt":8003,"##رر":8004,"resurser":8005,"rolle":8006,"borg":8007,"##que":8008,"omoj":8009,"jonas":8010,"sæd":8011,"kanslan":8012,"kategorier":8013,"startade":8014,"shopping":8015,"vadret":8016,"##lende":8017,"erotiska":8018,"##førte":8019,"golv":8020,"##somradet":8021,"##ledare":8022,"##rarna":8023,"hittills":8024,"dubbel":8025,"engager":8026,"##ugning":8027,"##wn":8028,"drikke":8029,"##skrav":8030,"kritik":8031,"praktik":8032,"##appar":8033,"symptom":8034,"lyder":8035,"eleg":8036,"##stillinger":8037,"levitra":8038,"riktiga":8039,"forlag":8040,"postad":8041,"##rument":8042,"grundlaggande":8043,"##skoter":8044,"behag":8045,"koncept":8046,"check":8047,"likevel":8048,"##box":8049,"natverk":8050,"mobilen":8051,"trakigt":8052,"omfattande":8053,"helhet":8054,"trapp":8055,"økonomiske":8056,"kjør":8057,"sammanfatt":8058,"inkomst":8059,"brod":8060,"aal":8061,"##dele":8062,"tyske":8063,"nesten":8064,"faktorer":8065,"pæ":8066,"politiske":8067,"##bit":8068,"kristian":8069,"high":8070,"vardags":8071,"bakt":8072,"motsvarande":8073,"##foreningen":8074,"##odet":8075,"dobb":8076,"frække":8077,"rov":8078,"nødvendig":8079,"berattade":8080,"that":8081,"personalen":8082,"fylla":8083,"tyr":8084,"mist":8085,"##øjer":8086,"52":8087,"##lats":8088,"perfekta":8089,"kompletter":8090,"konsekvenser":8091,"##ebra":8092,"##projekt":8093,"relationer":8094,"utomhus":8095,"lands":8096,"tillfalle":8097,"##varl":8098,"##nor":8099,"mv":8100,"cal":8101,"pus":8102,"lane":8103,"spin":8104,"marked":8105,"rapporten":8106,"menneske":8107,"ledig":8108,"forhoppningsvis":8109,"##angel":8110,"skyldes":8111,"listan":8112,"tip":8113,"skuld":8114,"bjorn":8115,"allmant":8116,"langsikt":8117,"##produkter":8118,"pers":8119,"##12":8120,"smil":8121,"samlede":8122,"arter":8123,"##itor":8124,"forfattare":8125,"erne":8126,"##terer":8127,"antar":8128,"##varo":8129,"jud":8130,"ryska":8131,"eftermiddag":8132,"dack":8133,"starte":8134,"arige":8135,"populære":8136,"bot":8137,"##ians":8138,"##oph":8139,"dejlig":8140,"##viken":8141,"##talte":8142,"##ax":8143,"##jylland":8144,"##itionen":8145,"##huvud":8146,"##inform":8147,"diam":8148,"girls":8149,"handa":8150,"##ekte":8151,"bordet":8152,"##fo":8153,"garanti":8154,"hamnar":8155,"kus":8156,"visat":8157,"varma":8158,"kreativ":8159,"##iserade":8160,"kraftig":8161,"##hjæl":8162,"##vatten":8163,"varlds":8164,"##iosa":8165,"##yer":8166,"tilsvar":8167,"turist":8168,"vanligtvis":8169,"international":8170,"ledare":8171,"felt":8172,"oh":8173,"kategori":8174,"andras":8175,"##kene":8176,"mottag":8177,"svag":8178,"dn":8179,"##ængde":8180,"dj":8181,"langst":8182,"processen":8183,"##ssp":8184,"185":8185,"utlan":8186,"##iot":8187,"sade":8188,"kunskaper":8189,"tyska":8190,"apple":8191,"betyr":8192,"konstant":8193,"##yttes":8194,"anpass":8195,"illustr":8196,"behovet":8197,"forre":8198,"vek":8199,"varv":8200,"odense":8201,"arig":8202,"sorg":8203,"from":8204,"forsøg":8205,"pir":8206,"sortiment":8207,"extremt":8208,"rammer":8209,"angiv":8210,"##60":8211,"konflikt":8212,"has":8213,"##elset":8214,"linkoping":8215,"anvandare":8216,"##sene":8217,"derudover":8218,"idet":8219,"##fel":8220,"kla":8221,"##marna":8222,"jens":8223,"indhold":8224,"bogen":8225,"særlige":8226,"tidningen":8227,"feil":8228,"øjeblik":8229,"sun":8230,"samre":8231,"##ytande":8232,"instagram":8233,"##ivalen":8234,"##sy":8235,"analys":8236,"##ycke":8237,"minne":8238,"kollade":8239,"##irt":8240,"##ævn":8241,"original":8242,"lank":8243,"hardt":8244,"##varet":8245,"webbplatser":8246,"faller":8247,"##mode":8248,"##hallen":8249,"njut":8250,"bebo":8251,"##fi":8252,"##ament":8253,"##ølv":8254,"varav":8255,"knullar":8256,"##skyd":8257,"løsninger":8258,"mobiltelefon":8259,"glæde":8260,"lamnade":8261,"rakna":8262,"nytta":8263,"vægt":8264,"enskilda":8265,"1999":8266,"tabl":8267,"funderar":8268,"##æst":8269,"aukt":8270,"##ani":8271,"syftet":8272,"webbplatsen":8273,"##enny":8274,"##aser":8275,"glada":8276,"##stallningar":8277,"hag":8278,"##ums":8279,"daliga":8280,"##ision":8281,"jern":8282,"##gande":8283,"leverand":8284,"relater":8285,"fika":8286,"redu":8287,"ler":8288,"hil":8289,"alskade":8290,"model":8291,"blommor":8292,"##tale":8293,"narvarande":8294,"hansyn":8295,"leng":8296,"more":8297,"tecken":8298,"##ellan":8299,"ekte":8300,"slutar":8301,"programmer":8302,"terror":8303,"arsm":8304,"cd":8305,"pabor":8306,"##ivan":8307,"##betalning":8308,"hjarn":8309,"begyndte":8310,"sval":8311,"250":8312,"abon":8313,"snabbare":8314,"##unnit":8315,"pi":8316,"økonomisk":8317,"grona":8318,"værdi":8319,"##ios":8320,"1800":8321,"jobbat":8322,"##ørg":8323,"lagom":8324,"tillgangliga":8325,"eleven":8326,"opret":8327,"læser":8328,"eld":8329,"overen":8330,"nationella":8331,"tryk":8332,"klima":8333,"gemensamma":8334,"##gora":8335,"insatser":8336,"##sklimat":8337,"føde":8338,"utland":8339,"dekor":8340,"kollektiv":8341,"##eslut":8342,"inner":8343,"##mi":8344,"robert":8345,"##ae":8346,"lettere":8347,"##ringer":8348,"##edde":8349,"lenge":8350,"ec":8351,"##lost":8352,"trods":8353,"mix":8354,"fragade":8355,"overlev":8356,"arkiv":8357,"strid":8358,"ifall":8359,"mr":8360,"anledningen":8361,"begar":8362,"møder":8363,"##pres":8364,"ent":8365,"kontrollera":8366,"typen":8367,"station":8368,"##nene":8369,"arhus":8370,"køber":8371,"##ckning":8372,"pum":8373,"parad":8374,"##ence":8375,"##job":8376,"mall":8377,"buk":8378,"##skost":8379,"##gade":8380,"kommende":8381,"rigtigt":8382,"kim":8383,"heta":8384,"lyk":8385,"windows":8386,"avgifter":8387,"produs":8388,"800":8389,"moter":8390,"##kelige":8391,"##vil":8392,"musikk":8393,"storbritannien":8394,"liter":8395,"banker":8396,"marts":8397,"##ysning":8398,"expl":8399,"##slutning":8400,"beb":8401,"##emed":8402,"tittade":8403,"sugen":8404,"smitt":8405,"efterfølgende":8406,"##gørelse":8407,"##fallet":8408,"##ellem":8409,"langtar":8410,"##usten":8411,"mam":8412,"lokalt":8413,"body":8414,"59":8415,"sæt":8416,"arten":8417,"que":8418,"emil":8419,"##sprojekt":8420,"##ningsomrade":8421,"##sek":8422,"kører":8423,"##lene":8424,"##bby":8425,"statens":8426,"karaktar":8427,"##vek":8428,"tilgjen":8429,"au":8430,"phil":8431,"snabba":8432,"identifier":8433,"##gards":8434,"hæ":8435,"##træ":8436,"##cam":8437,"avseende":8438,"vanda":8439,"privata":8440,"bloggar":8441,"johansson":8442,"kanada":8443,"sonder":8444,"ødel":8445,"banken":8446,"##ides":8447,"kik":8448,"troll":8449,"hehe":8450,"saf":8451,"hande":8452,"snyggt":8453,"miner":8454,"bestamde":8455,"dricka":8456,"imor":8457,"mini":8458,"##vakt":8459,"tatbefolkat":8460,"64":8461,"hjerte":8462,"try":8463,"sette":8464,"##fora":8465,"fria":8466,"##ese":8467,"roman":8468,"svenskt":8469,"##uth":8470,"erfarenheter":8471,"kara":8472,"##etøj":8473,"religion":8474,"bevæg":8475,"##80":8476,"ansvaret":8477,"##kommende":8478,"journalist":8479,"eva":8480,"##fragor":8481,"tyg":8482,"hors":8483,"##sattningen":8484,"intakt":8485,"tydlig":8486,"adress":8487,"klick":8488,"forandringar":8489,"95":8490,"dorren":8491,"teknologi":8492,"ober":8493,"foljd":8494,"billiga":8495,"##orte":8496,"##tryck":8497,"omfatter":8498,"erbjudanden":8499,"sec":8500,"##bank":8501,"aftale":8502,"kog":8503,"##spelare":8504,"noter":8505,"eventuella":8506,"betalt":8507,"flashback":8508,"deltog":8509,"begynder":8510,"##sman":8511,"aalborg":8512,"##mannen":8513,"øk":8514,"besokare":8515,"##forbundet":8516,"materiale":8517,"varan":8518,"kontant":8519,"##qvist":8520,"##legget":8521,"##hoj":8522,"##nast":8523,"partiet":8524,"føre":8525,"prag":8526,"anges":8527,"beskæft":8528,"pig":8529,"atit":8530,"oprin":8531,"tillvaxt":8532,"børnene":8533,"bekraft":8534,"##fria":8535,"##drene":8536,"akta":8537,"unika":8538,"##problem":8539,"##sidor":8540,"meste":8541,"##iseret":8542,"##eringar":8543,"##vare":8544,"war":8545,"leta":8546,"##enge":8547,"##aft":8548,"stro":8549,"korta":8550,"##icy":8551,"##forvalt":8552,"tillhanda":8553,"levande":8554,"tjansten":8555,"oppr":8556,"mangder":8557,"##isser":8558,"plant":8559,"num":8560,"handelser":8561,"oerhort":8562,"gust":8563,"orsak":8564,"ferdig":8565,"diskussion":8566,"henhold":8567,"even":8568,"svarar":8569,"stykke":8570,"æg":8571,"gent":8572,"ledning":8573,"lankar":8574,"stilling":8575,"europeiska":8576,"##jande":8577,"storm":8578,"andreas":8579,"stallen":8580,"##ops":8581,"dv":8582,"west":8583,"mojlig":8584,"barna":8585,"ungdoms":8586,"##ckor":8587,"potatis":8588,"victor":8589,"ogonen":8590,"##li":8591,"tilfreds":8592,"##losa":8593,"filosof":8594,"##och":8595,"ringde":8596,"##olf":8597,"forbund":8598,"fodels":8599,"kommiss":8600,"nagonstans":8601,"specifik":8602,"##cus":8603,"pagar":8604,"forran":8605,"##cia":8606,"gru":8607,"markedet":8608,"fen":8609,"emma":8610,"logga":8611,"tillganglig":8612,"forbud":8613,"hoppa":8614,"hjarta":8615,"batter":8616,"##omb":8617,"85":8618,"##bror":8619,"tilsyn":8620,"lide":8621,"enheter":8622,"slike":8623,"utseende":8624,"imp":8625,"sagen":8626,"andelen":8627,"fur":8628,"kontakter":8629,"træning":8630,"tilgang":8631,"rekord":8632,"atmos":8633,"##fast":8634,"56":8635,"belig":8636,"bul":8637,"##itz":8638,"stader":8639,"begræns":8640,"##imod":8641,"varmen":8642,"godis":8643,"##dagog":8644,"mala":8645,"flott":8646,"nodvandigt":8647,"traffar":8648,"rosen":8649,"kraftigt":8650,"##linjer":8651,"umiddel":8652,"smor":8653,"fargen":8654,"##station":8655,"##astro":8656,"##ugan":8657,"charl":8658,"forutsattning":8659,"afg":8660,"skaffa":8661,"aud":8662,"poker":8663,"halften":8664,"kans":8665,"fasc":8666,"##delingen":8667,"sukker":8668,"##bri":8669,"aspekt":8670,"snitt":8671,"samle":8672,"hjartat":8673,"traffade":8674,"porrfilmer":8675,"ledande":8676,"uppleva":8677,"heldigvis":8678,"ledam":8679,"##utte":8680,"120":8681,"nio":8682,"belopp":8683,"##ionens":8684,"nyckel":8685,"appen":8686,"slit":8687,"badrum":8688,"mjolk":8689,"omfang":8690,"1970":8691,"besked":8692,"##sty":8693,"redus":8694,"##bill":8695,"##egang":8696,"intressanta":8697,"vintern":8698,"54":8699,"##oen":8700,"hjelpe":8701,"saknas":8702,"1980":8703,"stefan":8704,"iran":8705,"fullstand":8706,"book":8707,"klassiska":8708,"sjukhus":8709,"##lyst":8710,"##anvand":8711,"##ssen":8712,"valkomna":8713,"papir":8714,"bilde":8715,"frig":8716,"lagenheten":8717,"kolon":8718,"##arch":8719,"##cial":8720,"angaende":8721,"knyttet":8722,"indsats":8723,"raknas":8724,"balkon":8725,"nuværende":8726,"garder":8727,"texten":8728,"def":8729,"framtida":8730,"inviter":8731,"global":8732,"##amn":8733,"##personer":8734,"utav":8735,"##hagen":8736,"lycka":8737,"behøver":8738,"deltagare":8739,"varsta":8740,"##visa":8741,"##oler":8742,"gamm":8743,"##rare":8744,"radgivning":8745,"william":8746,"##arbetet":8747,"foregaende":8748,"møn":8749,"inlagget":8750,"##ymp":8751,"rant":8752,"skickas":8753,"kostnads":8754,"##sbyg":8755,"blanda":8756,"avsugning":8757,"halm":8758,"hansen":8759,"osaker":8760,"artiklar":8761,"##skop":8762,"##utr":8763,"##skam":8764,"antallet":8765,"avvik":8766,"##raff":8767,"vei":8768,"##gaven":8769,"club":8770,"##bane":8771,"uppfolj":8772,"##mæss":8773,"finger":8774,"flertal":8775,"franska":8776,"53":8777,"markt":8778,"overallt":8779,"uppfyll":8780,"marg":8781,"element":8782,"butiker":8783,"ringer":8784,"oppnar":8785,"##hast":8786,"kvalitets":8787,"frasch":8788,"##sbrev":8789,"1998":8790,"resor":8791,"karn":8792,"tilkn":8793,"herre":8794,"slappa":8795,"turk":8796,"trygghet":8797,"##ware":8798,"bibel":8799,"##ming":8800,"sarskilda":8801,"poly":8802,"##15":8803,"skickar":8804,"mju":8805,"##gick":8806,"forbundet":8807,"grand":8808,"planlæg":8809,"tilskud":8810,"befint":8811,"bang":8812,"bedomning":8813,"okade":8814,"dominer":8815,"##schef":8816,"##bø":8817,"beskrivning":8818,"##brans":8819,"bilag":8820,"talt":8821,"look":8822,"spur":8823,"mulighet":8824,"anm":8825,"leverans":8826,"##kro":8827,"escorts":8828,"##zonen":8829,"##iere":8830,"funnits":8831,"præcis":8832,"rutiner":8833,"liber":8834,"##jobb":8835,"gustav":8836,"pdf":8837,"gyn":8838,"##ugo":8839,"anlagg":8840,"ever":8841,"camping":8842,"bist":8843,"ratta":8844,"##valu":8845,"maskiner":8846,"muskler":8847,"ansøg":8848,"57":8849,"enormt":8850,"##krig":8851,"uddannelses":8852,"##umin":8853,"liste":8854,"##agne":8855,"peder":8856,"identitet":8857,"##ælland":8858,"##namnden":8859,"positiva":8860,"mio":8861,"modtager":8862,"##ison":8863,"hundra":8864,"præsen":8865,"tiltak":8866,"amat":8867,"forman":8868,"sadar":8869,"eldre":8870,"tvær":8871,"knappen":8872,"latin":8873,"jacob":8874,"##delt":8875,"onod":8876,"tolv":8877,"##tatt":8878,"##ath":8879,"gemensamt":8880,"digitala":8881,"arlig":8882,"økt":8883,"##utbildning":8884,"##haller":8885,"ange":8886,"sjæl":8887,"green":8888,"kvinne":8889,"##rimin":8890,"overtyg":8891,"##usk":8892,"vardering":8893,"røde":8894,"utrustning":8895,"##hjul":8896,"##andre":8897,"##ypt":8898,"læge":8899,"fordelar":8900,"rena":8901,"##rot":8902,"##eland":8903,"fjell":8904,"plocka":8905,"##park":8906,"stack":8907,"lege":8908,"aning":8909,"undga":8910,"skid":8911,"voksen":8912,"##forsalj":8913,"hr":8914,"kjærlighet":8915,"tillagg":8916,"##istens":8917,"faste":8918,"bredvid":8919,"ladd":8920,"massasje":8921,"tillfallen":8922,"tilgæng":8923,"184":8924,"tænker":8925,"partier":8926,"fodbold":8927,"konsul":8928,"obs":8929,"utval":8930,"soft":8931,"lut":8932,"##skaff":8933,"svt":8934,"fjor":8935,"studerende":8936,"bull":8937,"##iness":8938,"##omrader":8939,"trop":8940,"indre":8941,"blan":8942,"posted":8943,"belast":8944,"anmalan":8945,"kæmpe":8946,"dør":8947,"vilkar":8948,"##behand":8949,"bestammelser":8950,"##forbund":8951,"tilsvarende":8952,"videoer":8953,"familjer":8954,"funksjon":8955,"##behag":8956,"ufor":8957,"jensen":8958,"markeds":8959,"spillere":8960,"etik":8961,"betalnings":8962,"specielt":8963,"##sund":8964,"uh":8965,"tera":8966,"##rapport":8967,"flest":8968,"cancer":8969,"sd":8970,"dann":8971,"opgave":8972,"##statt":8973,"1900":8974,"bestyrelsen":8975,"##18":8976,"genomfora":8977,"bekendt":8978,"bett":8979,"undantag":8980,"grattis":8981,"betalning":8982,"ratten":8983,"minskar":8984,"tegn":8985,"træk":8986,"astr":8987,"tacka":8988,"julkl":8989,"minut":8990,"##tur":8991,"produkten":8992,"løbende":8993,"undersokning":8994,"agare":8995,"framover":8996,"##mande":8997,"simpelt":8998,"forbl":8999,"øver":9000,"syfta":9001,"transporter":9002,"wall":9003,"foll":9004,"##oma":9005,"kontinuer":9006,"minsta":9007,"ikk":9008,"startar":9009,"skulder":9010,"telefonen":9011,"eksisterende":9012,"sve":9013,"langivare":9014,"sekund":9015,"olje":9016,"vækst":9017,"høje":9018,"bræn":9019,"effekter":9020,"tam":9021,"##spil":9022,"passade":9023,"avfall":9024,"##vards":9025,"materialet":9026,"kryd":9027,"scenen":9028,"hanga":9029,"##rifter":9030,"##kamp":9031,"livs":9032,"##avtal":9033,"erfaringer":9034,"artikeln":9035,"ledelse":9036,"anger":9037,"dyb":9038,"sakra":9039,"sekret":9040,"##klass":9041,"utenfor":9042,"##idens":9043,"pask":9044,"house":9045,"##ultur":9046,"sir":9047,"kærlighed":9048,"herefter":9049,"##wood":9050,"##kerne":9051,"tavlingen":9052,"##celler":9053,"ht":9054,"##unnen":9055,"succes":9056,"nødvendigt":9057,"##uch":9058,"vibr":9059,"fortsat":9060,"konsument":9061,"##spiller":9062,"fotball":9063,"##ekul":9064,"##asino":9065,"##løse":9066,"livsst":9067,"saa":9068,"lax":9069,"tycka":9070,"hanger":9071,"noll":9072,"dop":9073,"gumm":9074,"lesbisk":9075,"ked":9076,"##kommande":9077,"##bilar":9078,"redig":9079,"tir":9080,"psykisk":9081,"##somrade":9082,"##plikt":9083,"flyttade":9084,"##ye":9085,"##ftar":9086,"opdater":9087,"##ape":9088,"pct":9089,"stann":9090,"frihet":9091,"##entals":9092,"ull":9093,"varor":9094,"ofor":9095,"kalender":9096,"##encer":9097,"sundsvall":9098,"kvaliteten":9099,"##rans":9100,"tomt":9101,"vaxa":9102,"##ødte":9103,"solid":9104,"civil":9105,"stj":9106,"##erades":9107,"plasser":9108,"speg":9109,"ønsket":9110,"hust":9111,"eksempelvis":9112,"##somme":9113,"##sbol":9114,"##esel":9115,"deretter":9116,"delstaten":9117,"berlin":9118,"tap":9119,"##melig":9120,"vr":9121,"begynte":9122,"arbeids":9123,"skydda":9124,"##holdsvis":9125,"kyck":9126,"##dor":9127,"##stu":9128,"##js":9129,"origin":9130,"##rien":9131,"https":9132,"##ennende":9133,"forelig":9134,"##orerna":9135,"instit":9136,"##okraterna":9137,"laten":9138,"farve":9139,"##cens":9140,"##resa":9141,"ike":9142,"udvikle":9143,"virksomheden":9144,"kriter":9145,"spare":9146,"nick":9147,"##tan":9148,"pool":9149,"##iellt":9150,"irriter":9151,"##eledes":9152,"tranings":9153,"aw":9154,"alternativt":9155,"##ingsliv":9156,"akkur":9157,"betrag":9158,"##shop":9159,"forf":9160,"cool":9161,"vidt":9162,"webs":9163,"naturliga":9164,"sne":9165,"eksper":9166,"melod":9167,"##lere":9168,"inre":9169,"akkurat":9170,"prosjektet":9171,"latar":9172,"kalmar":9173,"verkligheten":9174,"##rek":9175,"evalu":9176,"bibliotek":9177,"##følg":9178,"##vaxter":9179,"somn":9180,"pod":9181,"##intr":9182,"ryssland":9183,"alltfor":9184,"tilstand":9185,"##sættes":9186,"##bek":9187,"##tain":9188,"##indra":9189,"trond":9190,"sommeren":9191,"grejer":9192,"golvet":9193,"vagg":9194,"motet":9195,"posten":9196,"allting":9197,"skaber":9198,"##amal":9199,"spelat":9200,"enk":9201,"slot":9202,"toal":9203,"antall":9204,"##igheder":9205,"fril":9206,"bostader":9207,"samla":9208,"read":9209,"##kj":9210,"vaga":9211,"omfattar":9212,"wa":9213,"swedish":9214,"rekry":9215,"51":9216,"verd":9217,"forklara":9218,"senior":9219,"syntes":9220,"fragar":9221,"orgas":9222,"foreslar":9223,"fund":9224,"tvang":9225,"yng":9226,"gaster":9227,"rorelse":9228,"restauranger":9229,"advokat":9230,"call":9231,"bif":9232,"##vill":9233,"axel":9234,"58":9235,"##inga":9236,"##aktig":9237,"##oppen":9238,"##takte":9239,"dame":9240,"##nsyn":9241,"gæster":9242,"##kelse":9243,"varre":9244,"##itering":9245,"rester":9246,"##iserad":9247,"bøger":9248,"##inna":9249,"##stud":9250,"myr":9251,"læk":9252,"##ited":9253,"##sky":9254,"lule":9255,"3d":9256,"format":9257,"fortælle":9258,"##dy":9259,"jor":9260,"sender":9261,"framsta":9262,"perman":9263,"hjør":9264,"sovjet":9265,"fira":9266,"hjert":9267,"##fard":9268,"##stein":9269,"forestall":9270,"hastar":9271,"akut":9272,"gældende":9273,"lavere":9274,"høyere":9275,"blond":9276,"##matt":9277,"overgang":9278,"moms":9279,"bron":9280,"revolut":9281,"huske":9282,"øl":9283,"moten":9284,"##ano":9285,"##smet":9286,"##felt":9287,"foregar":9288,"alsk":9289,"cell":9290,"rott":9291,"dru":9292,"fjarde":9293,"utfora":9294,"aktiva":9295,"downlo":9296,"rog":9297,"indr":9298,"##iendom":9299,"##vert":9300,"bestammer":9301,"maks":9302,"##skriften":9303,"læring":9304,"tang":9305,"##stru":9306,"##espiller":9307,"eftermiddagen":9308,"##000":9309,"lis":9310,"organisationen":9311,"##ination":9312,"fornu":9313,"radda":9314,"##ces":9315,"amne":9316,"##varlden":9317,"coach":9318,"dyre":9319,"spons":9320,"abne":9321,"innenfor":9322,"højre":9323,"##gruppe":9324,"tjeneste":9325,"##70":9326,"rich":9327,"nødt":9328,"eventuellt":9329,"##vat":9330,"kvitt":9331,"##pacitet":9332,"foreningens":9333,"##anlæg":9334,"ligeledes":9335,"hyra":9336,"arhund":9337,"fantastiske":9338,"horde":9339,"utbildningen":9340,"lud":9341,"##ierne":9342,"##serne":9343,"nilsson":9344,"bestaende":9345,"##ygger":9346,"fortroende":9347,"gat":9348,"69":9349,"upplever":9350,"informer":9351,"##ugh":9352,"barnets":9353,"##arden":9354,"rora":9355,"dynam":9356,"##stræk":9357,"thor":9358,"tvek":9359,"ledar":9360,"##mak":9361,"gjenopp":9362,"duktig":9363,"reducer":9364,"forhin":9365,"informationen":9366,"##emon":9367,"inredning":9368,"sikrer":9369,"foder":9370,"##lass":9371,"udel":9372,"skador":9373,"vander":9374,"pic":9375,"##24":9376,"konsekvens":9377,"værkt":9378,"##fit":9379,"formen":9380,"twitter":9381,"aterigen":9382,"virke":9383,"karriar":9384,"undervisningen":9385,"balans":9386,"snall":9387,"satsa":9388,"##hjal":9389,"kulture":9390,"##lagen":9391,"offentliga":9392,"ib":9393,"brett":9394,"parlam":9395,"surf":9396,"arbetsmark":9397,"sto":9398,"##byr":9399,"protein":9400,"adresse":9401,"##besok":9402,"avgorande":9403,"nic":9404,"parter":9405,"##skov":9406,"bestamma":9407,"##botten":9408,"femin":9409,"##sforen":9410,"##cir":9411,"roy":9412,"tilmel":9413,"datab":9414,"anonym":9415,"##betaling":9416,"anl":9417,"##spital":9418,"ansvarlig":9419,"anslutning":9420,"bock":9421,"bevar":9422,"nyde":9423,"##ældende":9424,"##etar":9425,"tillat":9426,"##unk":9427,"arligt":9428,"senest":9429,"##stallningen":9430,"bay":9431,"##anna":9432,"støtt":9433,"forskott":9434,"word":9435,"butiken":9436,"##savgift":9437,"kallad":9438,"anti":9439,"##21":9440,"marknadsforing":9441,"kvalific":9442,"forfatter":9443,"tempo":9444,"fundera":9445,"dejligt":9446,"bis":9447,"##iler":9448,"vitamin":9449,"bin":9450,"bind":9451,"beslutet":9452,"kendte":9453,"karlstad":9454,"fjern":9455,"hev":9456,"##bog":9457,"invester":9458,"hvornar":9459,"ør":9460,"front":9461,"##pens":9462,"market":9463,"##ages":9464,"forvand":9465,"foraldr":9466,"##iddel":9467,"indga":9468,"##sperson":9469,"##jansten":9470,"##ml":9471,"sprid":9472,"##smak":9473,"hinna":9474,"overst":9475,"isa":9476,"kontakte":9477,"##orget":9478,"##ague":9479,"blick":9480,"tad":9481,"##ystemet":9482,"##oten":9483,"es":9484,"paa":9485,"imellem":9486,"##slen":9487,"kniv":9488,"fond":9489,"planter":9490,"lamnat":9491,"##core":9492,"miljar":9493,"begrav":9494,"sota":9495,"anvendelse":9496,"##oser":9497,"1997":9498,"kontrol":9499,"afhæng":9500,"##ular":9501,"oplever":9502,"lese":9503,"jakob":9504,"##vider":9505,"##oli":9506,"instrument":9507,"uppna":9508,"ændringer":9509,"arena":9510,"registrera":9511,"svenskar":9512,"mika":9513,"retten":9514,"inred":9515,"skandinav":9516,"##sprodukter":9517,"##cm":9518,"omkost":9519,"sammant":9520,"##bilitet":9521,"implementer":9522,"business":9523,"diskutera":9524,"asyl":9525,"1960":9526,"hverandre":9527,"##ckta":9528,"beting":9529,"##zon":9530,"##25":9531,"lasare":9532,"arbetat":9533,"lart":9534,"##fakt":9535,"behandlas":9536,"##iget":9537,"##fig":9538,"nyss":9539,"noggr":9540,"##iserar":9541,"vo":9542,"kollega":9543,"beskytt":9544,"underlag":9545,"tillfallet":9546,"inl":9547,"automatiskt":9548,"##produkt":9549,"halsen":9550,"##flytt":9551,"psykolog":9552,"##siden":9553,"bott":9554,"##sal":9555,"sed":9556,"kompisar":9557,"tillbehor":9558,"maler":9559,"forklaring":9560,"##ningerne":9561,"##befolkad":9562,"good":9563,"inge":9564,"gom":9565,"rat":9566,"avser":9567,"order":9568,"forsvinner":9569,"rit":9570,"##stekn":9571,"ansiktet":9572,"##boken":9573,"##gatt":9574,"andro":9575,"livsstil":9576,"overvag":9577,"exklus":9578,"spark":9579,"legger":9580,"australien":9581,"sahar":9582,"##fod":9583,"##yller":9584,"##ksjoner":9585,"hemmet":9586,"##ines":9587,"bytte":9588,"##juter":9589,"barndom":9590,"bedriv":9591,"##vern":9592,"forskare":9593,"navig":9594,"efterat":9595,"##roller":9596,"cum":9597,"erhvervs":9598,"samarbej":9599,"sekt":9600,"signal":9601,"sammens":9602,"##sbruk":9603,"##høj":9604,"engagemang":9605,"get":9606,"protokoll":9607,"kristna":9608,"svenske":9609,"ingredi":9610,"##bordet":9611,"kameran":9612,"norrkoping":9613,"generalfor":9614,"reager":9615,"rasmus":9616,"kull":9617,"utdanning":9618,"infekt":9619,"##slyck":9620,"##keligt":9621,"skyldig":9622,"##rej":9623,"universitetet":9624,"ikkje":9625,"##erings":9626,"bjod":9627,"##ares":9628,"fit":9629,"##levelse":9630,"kvinnan":9631,"##orth":9632,"ukra":9633,"##ckan":9634,"utredning":9635,"deltar":9636,"nyfiken":9637,"utstyr":9638,"muskel":9639,"##smiljo":9640,"miljarder":9641,"venter":9642,"##ago":9643,"##orp":9644,"kæreste":9645,"##ugor":9646,"finalen":9647,"boras":9648,"bryst":9649,"##forhold":9650,"##soft":9651,"demonstr":9652,"nærmest":9653,"##rost":9654,"##habil":9655,"nojda":9656,"##ners":9657,"pojk":9658,"ran":9659,"##satter":9660,"jamt":9661,"parall":9662,"final":9663,"fisse":9664,"works":9665,"smuk":9666,"##beth":9667,"##enes":9668,"spir":9669,"troligen":9670,"tilpas":9671,"anbefaler":9672,"skram":9673,"søg":9674,"opleve":9675,"sydostra":9676,"##ool":9677,"ansvarig":9678,"teori":9679,"minimum":9680,"dyrt":9681,"rust":9682,"visse":9683,"hypotek":9684,"telefonnummer":9685,"##tran":9686,"styre":9687,"sannolikt":9688,"kris":9689,"##ffen":9690,"##ij":9691,"behor":9692,"##briken":9693,"knut":9694,"retning":9695,"sarskild":9696,"loss":9697,"infrast":9698,"grej":9699,"sug":9700,"idrett":9701,"repu":9702,"skolor":9703,"league":9704,"selskab":9705,"##ical":9706,"diabet":9707,"tilgjengelig":9708,"lulea":9709,"ole":9710,"male":9711,"fedt":9712,"pædagog":9713,"serier":9714,"kortet":9715,"utrymme":9716,"vaxjo":9717,"observ":9718,"##uellt":9719,"##onger":9720,"dryck":9721,"finna":9722,"fattig":9723,"titel":9724,"armen":9725,"##bevar":9726,"skiljer":9727,"minister":9728,"##con":9729,"domin":9730,"fodelsedag":9731,"nødvendige":9732,"##mede":9733,"dobbelt":9734,"sildenafil":9735,"point":9736,"forlust":9737,"eiendom":9738,"##bring":9739,"farligt":9740,"grus":9741,"riv":9742,"grundlag":9743,"##drom":9744,"##asy":9745,"hypotekslan":9746,"chil":9747,"nt":9748,"skillnaden":9749,"66":9750,"hunde":9751,"basen":9752,"vivan":9753,"obefolkad":9754,"ansigt":9755,"simon":9756,"baten":9757,"##ordet":9758,"##holdes":9759,"##ogon":9760,"almindelige":9761,"modul":9762,"befolkning":9763,"##14":9764,"ændre":9765,"##16":9766,"festival":9767,"veien":9768,"goteborgs":9769,"##side":9770,"enlighet":9771,"##stal":9772,"pizza":9773,"gyl":9774,"mulige":9775,"vedlige":9776,"funnet":9777,"misslyck":9778,"europæ":9779,"nedenfor":9780,"foredrag":9781,"johannes":9782,"forteller":9783,"noga":9784,"vanligen":9785,"##rest":9786,"fasta":9787,"tranar":9788,"vente":9789,"##skommun":9790,"ekonomisk":9791,"##pol":9792,"anstr":9793,"radi":9794,"totala":9795,"svarer":9796,"pigg":9797,"benytte":9798,"træn":9799,"norden":9800,"tradisjon":9801,"linne":9802,"vejledning":9803,"arbeider":9804,"sovrum":9805,"produc":9806,"tonaring":9807,"vivanza":9808,"vakt":9809,"ramme":9810,"hinder":9811,"netværk":9812,"##ianter":9813,"##opro":9814,"fader":9815,"stemme":9816,"##bus":9817,"presentation":9818,"tl":9819,"67":9820,"##planen":9821,"penger":9822,"osc":9823,"##egen":9824,"##emark":9825,"ingredienser":9826,"##maktige":9827,"fornuft":9828,"perioder":9829,"broder":9830,"##beskrivning":9831,"tenn":9832,"sexig":9833,"ansvarar":9834,"aks":9835,"gennemsnit":9836,"##got":9837,"intressen":9838,"##yrer":9839,"elit":9840,"onskemal":9841,"appl":9842,"grønne":9843,"omedelbart":9844,"##emidler":9845,"##øp":9846,"intill":9847,"biler":9848,"##pad":9849,"amnet":9850,"ikea":9851,"##yst":9852,"udsigt":9853,"fora":9854,"lagstift":9855,"kortare":9856,"forsokt":9857,"paus":9858,"##ked":9859,"##bid":9860,"aktuelle":9861,"inkom":9862,"halva":9863,"pepp":9864,"døg":9865,"##line":9866,"blek":9867,"##byggnad":9868,"harmon":9869,"lækre":9870,"arbetsgiv":9871,"lyssnar":9872,"eventuelt":9873,"##ingo":9874,"byggnader":9875,"afrika":9876,"koster":9877,"opdag":9878,"##agning":9879,"spennende":9880,"##strukt":9881,"index":9882,"home":9883,"##material":9884,"lamnas":9885,"driva":9886,"obligator":9887,"sykdom":9888,"##smiljø":9889,"omstand":9890,"##sling":9891,"vedrørende":9892,"enor":9893,"##yta":9894,"##sna":9895,"##forsk":9896,"riks":9897,"karin":9898,"varder":9899,"##umt":9900,"alders":9901,"formed":9902,"##produktion":9903,"innovation":9904,"etn":9905,"ess":9906,"##øbet":9907,"framgar":9908,"løp":9909,"##sniva":9910,"pengene":9911,"##com":9912,"1994":9913,"traffas":9914,"anton":9915,"operation":9916,"skader":9917,"uppmarksamhet":9918,"levering":9919,"tirsdag":9920,"1996":9921,"##forslag":9922,"perf":9923,"lost":9924,"upptack":9925,"##ela":9926,"##iør":9927,"muslim":9928,"ekst":9929,"forhallanden":9930,"stemmer":9931,"skala":9932,"inser":9933,"pak":9934,"lyser":9935,"vurdere":9936,"samverkan":9937,"styrka":9938,"borgere":9939,"anord":9940,"##isch":9941,"egendom":9942,"interessant":9943,"yoga":9944,"linda":9945,"##fru":9946,"handle":9947,"upptacka":9948,"##strateg":9949,"rh":9950,"fleks":9951,"slang":9952,"skin":9953,"lejlighed":9954,"asiat":9955,"##æd":9956,"mp":9957,"umiddelbart":9958,"handlade":9959,"kunstner":9960,"holm":9961,"pann":9962,"##slivet":9963,"trend":9964,"faststall":9965,"arbejdspl":9966,"##mester":9967,"svarare":9968,"højde":9969,"##agas":9970,"lagar":9971,"forvir":9972,"maltid":9973,"smar":9974,"##slet":9975,"ressour":9976,"prom":9977,"##ally":9978,"##gjorde":9979,"##hengig":9980,"##plass":9981,"##ibel":9982,"restaurant":9983,"petter":9984,"fjerne":9985,"forresten":9986,"intresserade":9987,"##saft":9988,"##sborg":9989,"areal":9990,"##pir":9991,"prop":9992,"count":9993,"##færd":9994,"komplett":9995,"##kopings":9996,"snakke":9997,"##ripande":9998,"søke":9999,"øvrigt":10000,"ki":10001,"##byte":10002,"kirken":10003,"##lekar":10004,"##ortt":10005,"vanligaste":10006,"forebygg":10007,"føle":10008,"schwe":10009,"kalk":10010,"tydelig":10011,"##garen":10012,"køn":10013,"spins":10014,"snur":10015,"##iering":10016,"##meter":10017,"forpack":10018,"##ementet":10019,"bedrift":10020,"eskorter":10021,"##rene":10022,"##uligheder":10023,"flor":10024,"manglende":10025,"rejalt":10026,"##post":10027,"##dyr":10028,"##isin":10029,"##staf":10030,"julen":10031,"trivs":10032,"gifta":10033,"##90":10034,"bredden":10035,"##olja":10036,"spraket":10037,"brut":10038,"romer":10039,"glade":10040,"63":10041,"hekt":10042,"fremtiden":10043,"##okl":10044,"lot":10045,"lukt":10046,"well":10047,"offer":10048,"safremt":10049,"##sspel":10050,"skjul":10051,"hvide":10052,"##kod":10053,"##ikere":10054,"##iled":10055,"løse":10056,"1995":10057,"gitar":10058,"##eler":10059,"abonnem":10060,"##icera":10061,"##funktion":10062,"fremgar":10063,"spl":10064,"hjer":10065,"yta":10066,"##hjælp":10067,"##bag":10068,"dokumentation":10069,"springer":10070,"narmast":10071,"hul":10072,"##sbest":10073,"mester":10074,"72":10075,"lac":10076,"kryss":10077,"livsmedel":10078,"mader":10079,"hemsidan":10080,"faktur":10081,"godkan":10082,"skoj":10083,"##fj":10084,"##forl":10085,"vigtigste":10086,"uv":10087,"oxa":10088,"inomhus":10089,"rollen":10090,"overord":10091,"visser":10092,"act":10093,"##fla":10094,"bund":10095,"##radd":10096,"hack":10097,"asikter":10098,"uke":10099,"183":10100,"android":10101,"syge":10102,"##hals":10103,"konver":10104,"udgifter":10105,"alter":10106,"femte":10107,"omojligt":10108,"leverantorer":10109,"dvd":10110,"likt":10111,"##slin":10112,"tabell":10113,"rask":10114,"##endt":10115,"##ifi":10116,"##ingsdag":10117,"##rades":10118,"styret":10119,"vandet":10120,"landskap":10121,"citron":10122,"##anders":10123,"adam":10124,"gig":10125,"avlon":10126,"rand":10127,"seger":10128,"halmstad":10129,"flytte":10130,"kod":10131,"musikal":10132,"##platt":10133,"##organ":10134,"utomlands":10135,"traningen":10136,"høyre":10137,"antagligen":10138,"##ryck":10139,"leksaker":10140,"punkter":10141,"##ømt":10142,"moral":10143,"innehallet":10144,"gemensam":10145,"##disk":10146,"forskel":10147,"forber":10148,"ago":10149,"##landske":10150,"dun":10151,"cur":10152,"##sjekt":10153,"savel":10154,"kaka":10155,"sjalvstand":10156,"etablering":10157,"shem":10158,"##skra":10159,"øster":10160,"omfattende":10161,"manniskan":10162,"separat":10163,"selskapet":10164,"##lej":10165,"effekten":10166,"utbildnings":10167,"eksempler":10168,"beskrivelse":10169,"klasser":10170,"##alafil":10171,"stærkt":10172,"vision":10173,"##esjon":10174,"##komma":10175,"##antering":10176,"rengor":10177,"##havet":10178,"ving":10179,"relevante":10180,"hverken":10181,"flicka":10182,"graf":10183,"forvaltning":10184,"allmanhet":10185,"nielsen":10186,"##stillet":10187,"forbe":10188,"tadalafil":10189,"dyker":10190,"gymnasie":10191,"skapat":10192,"skona":10193,"kyrka":10194,"deltage":10195,"ekonomiskt":10196,"##bærer":10197,"##onde":10198,"erbjudande":10199,"graviditet":10200,"##rona":10201,"##fat":10202,"##etid":10203,"##jak":10204,"vises":10205,"visserligen":10206,"suger":10207,"pleje":10208,"fysiske":10209,"afrik":10210,"##øve":10211,"##driv":10212,"human":10213,"bebygg":10214,"naz":10215,"garn":10216,"patienten":10217,"phot":10218,"oppdater":10219,"jattebra":10220,"evenemang":10221,"rens":10222,"leka":10223,"##ørt":10224,"mi":10225,"##udselig":10226,"olof":10227,"ze":10228,"opfatt":10229,"multi":10230,"pall":10231,"sønder":10232,"##stander":10233,"oppe":10234,"diskret":10235,"gb":10236,"##stig":10237,"udover":10238,"fattar":10239,"trevliga":10240,"old":10241,"taket":10242,"##skvall":10243,"soldater":10244,"benen":10245,"møter":10246,"knappast":10247,"##inarie":10248,"vacc":10249,"diskrimin":10250,"portug":10251,"##iene":10252,"pludselig":10253,"tvav":10254,"sluts":10255,"##ordes":10256,"62":10257,"riktlinjer":10258,"trist":10259,"intim":10260,"endte":10261,"##samf":10262,"##undersok":10263,"##ava":10264,"##stillingen":10265,"tryg":10266,"##edia":10267,"debut":10268,"styrelse":10269,"katastro":10270,"fagel":10271,"sutt":10272,"staende":10273,"shop":10274,"##eve":10275,"uppre":10276,"hellre":10277,"landsting":10278,"munnen":10279,"fabrik":10280,"anvande":10281,"polen":10282,"minnes":10283,"apote":10284,"presentera":10285,"##kelsen":10286,"liker":10287,"medborg":10288,"kone":10289,"ovanligt":10290,"stiller":10291,"##kvens":10292,"forar":10293,"##skiftet":10294,"beach":10295,"##olin":10296,"##agan":10297,"##ningslin":10298,"ledde":10299,"##tagelse":10300,"fremme":10301,"geng":10302,"brom":10303,"legg":10304,"olja":10305,"konsult":10306,"aktuell":10307,"sikkerhet":10308,"belg":10309,"##landa":10310,"tvart":10311,"planerar":10312,"berom":10313,"##ymer":10314,"gutt":10315,"##haver":10316,"faktura":10317,"planera":10318,"fjarils":10319,"katol":10320,"uc":10321,"shemale":10322,"basert":10323,"tekniske":10324,"may":10325,"eric":10326,"spekt":10327,"glæder":10328,"legit":10329,"##rende":10330,"##kred":10331,"##evis":10332,"darifran":10333,"styra":10334,"klimatzonen":10335,"inslag":10336,"endda":10337,"kollar":10338,"##øje":10339,"fræk":10340,"slutligen":10341,"behalla":10342,"delas":10343,"##ikon":10344,"familje":10345,"ig":10346,"##sbygg":10347,"sektor":10348,"amp":10349,"butikker":10350,"sje":10351,"jobbade":10352,"alumin":10353,"gave":10354,"troligt":10355,"tungt":10356,"verksamheter":10357,"doda":10358,"##omraden":10359,"analyse":10360,"jobber":10361,"bransch":10362,"kommers":10363,"mkt":10364,"harry":10365,"almindelig":10366,"##uttar":10367,"larsson":10368,"kjente":10369,"unikt":10370,"kilde":10371,"granser":10372,"exempl":10373,"baseret":10374,"pon":10375,"ligge":10376,"jazz":10377,"lenger":10378,"apen":10379,"klub":10380,"sandsyn":10381,"##istik":10382,"ik":10383,"##awa":10384,"##gangar":10385,"##mans":10386,"cu":10387,"ideal":10388,"atgard":10389,"yog":10390,"##sse":10391,"kassa":10392,"definition":10393,"sket":10394,"sidde":10395,"raka":10396,"foljde":10397,"##læring":10398,"##fuld":10399,"hedder":10400,"virus":10401,"eventuelle":10402,"68":10403,"lordagen":10404,"##19":10405,"debatten":10406,"udviklet":10407,"steget":10408,"undersøgelse":10409,"##strand":10410,"##itten":10411,"kirk":10412,"ml":10413,"haper":10414,"høyt":10415,"oph":10416,"fann":10417,"##splanen":10418,"bun":10419,"konkrete":10420,"dir":10421,"hp":10422,"planering":10423,"tidig":10424,"konstru":10425,"kanon":10426,"vask":10427,"henvende":10428,"stannar":10429,"small":10430,"forbedre":10431,"klik":10432,"hamnade":10433,"##banan":10434,"##styrelsens":10435,"komfort":10436,"regnet":10437,"listen":10438,"uppstar":10439,"lægger":10440,"##ude":10441,"regnskab":10442,"kreditkort":10443,"mekan":10444,"1992":10445,"skjut":10446,"##grader":10447,"motesplatsen":10448,"alexander":10449,"##samtal":10450,"##værks":10451,"cra":10452,"anderledes":10453,"hær":10454,"flyttet":10455,"##kendelse":10456,"smatt":10457,"##ikte":10458,"lisa":10459,"##try":10460,"eleverne":10461,"##13":10462,"skarp":10463,"hop":10464,"bens":10465,"##sproblem":10466,"materialer":10467,"##varde":10468,"billigare":10469,"udgør":10470,"bik":10471,"direktør":10472,"forlang":10473,"pussy":10474,"vert":10475,"stracker":10476,"##kir":10477,"jamfora":10478,"grans":10479,"indik":10480,"utmaningar":10481,"bokstav":10482,"james":10483,"stallning":10484,"##parten":10485,"straks":10486,"##plads":10487,"egypt":10488,"argument":10489,"avslapp":10490,"tycks":10491,"##ligheden":10492,"##ience":10493,"##isterna":10494,"daglige":10495,"##lerne":10496,"eskil":10497,"ica":10498,"linjer":10499,"schweiz":10500,"microsoft":10501,"afdeling":10502,"trondheim":10503,"summa":10504,"perfekte":10505,"forsen":10506,"##øjet":10507,"##kap":10508,"1993":10509,"mata":10510,"eventuell":10511,"hyd":10512,"##terade":10513,"sites":10514,"##formaga":10515,"ast":10516,"angest":10517,"king":10518,"##bær":10519,"olymp":10520,"##ous":10521,"##hn":10522,"##skurs":10523,"fjarilsart":10524,"tradgarden":10525,"byggnad":10526,"##kler":10527,"speed":10528,"hamn":10529,"rehabil":10530,"udval":10531,"movies":10532,"ida":10533,"##spris":10534,"traditionella":10535,"upplag":10536,"aluminium":10537,"##sjuk":10538,"##spe":10539,"manskliga":10540,"tech":10541,"kapacitet":10542,"selskap":10543,"hørt":10544,"bestod":10545,"historisk":10546,"##rukket":10547,"##information":10548,"negativ":10549,"postadress":10550,"trening":10551,"skat":10552,"jordbruksmark":10553,"kvartal":10554,"##holmen":10555,"speciella":10556,"primært":10557,"pagældende":10558,"optimer":10559,"installation":10560,"kust":10561,"##rollen":10562,"efterhanden":10563,"##anken":10564,"##rats":10565,"blogga":10566,"1500":10567,"skyld":10568,"##formed":10569,"processer":10570,"kyckling":10571,"fjall":10572,"deltager":10573,"konferens":10574,"stannade":10575,"##sku":10576,"##holdelse":10577,"elin":10578,"##trakt":10579,"uppenbar":10580,"velge":10581,"hockey":10582,"tjana":10583,"mysig":10584,"##jejer":10585,"fredags":10586,"oberoende":10587,"nør":10588,"##sall":10589,"teoret":10590,"museet":10591,"vende":10592,"avloningsdag":10593,"##sommar":10594,"udviklingen":10595,"omdom":10596,"byn":10597,"##17":10598,"faglige":10599,"kass":10600,"##brud":10601,"##liggande":10602,"svarade":10603,"premiar":10604,"insats":10605,"bære":10606,"synlig":10607,"##yder":10608,"##bolaget":10609,"publikum":10610,"kru":10611,"tillsatt":10612,"##geren":10613,"vardagen":10614,"glomt":10615,"andersen":10616,"register":10617,"desember":10618,"brø":10619,"spot":10620,"jim":10621,"myst":10622,"selskabet":10623,"##meste":10624,"frist":10625,"utstra":10626,"franske":10627,"erbjuds":10628,"pant":10629,"holland":10630,"fødsels":10631,"grasm":10632,"koppla":10633,"betalas":10634,"riksdagen":10635,"emellan":10636,"##ifor":10637,"ovre":10638,"flyttar":10639,"vinden":10640,"kilo":10641,"vaxter":10642,"##aben":10643,"oplevelser":10644,"forskell":10645,"##bran":10646,"korte":10647,"brugte":10648,"tour":10649,"##liggende":10650,"agen":10651,"savann":10652,"uaf":10653,"konsert":10654,"utvikle":10655,"##sas":10656,"albumet":10657,"verket":10658,"texter":10659,"københavns":10660,"gjøres":10661,"planet":10662,"grymt":10663,"##delses":10664,"88":10665,"hormon":10666,"tillade":10667,"internett":10668,"##ruppen":10669,"##vark":10670,"tusentals":10671,"missa":10672,"bd":10673,"##bund":10674,"700":10675,"medlemskap":10676,"konkurran":10677,"dater":10678,"##sjo":10679,"webcam":10680,"##bryt":10681,"##rich":10682,"##osen":10683,"lægge":10684,"esb":10685,"##vete":10686,"ringe":10687,"##hydr":10688,"mia":10689,"iii":10690,"paga":10691,"sper":10692,"byens":10693,"roller":10694,"day":10695,"##bygget":10696,"fysiska":10697,"kabel":10698,"tje":10699,"sankt":10700,"##dags":10701,"feber":10702,"klimatet":10703,"helsingfors":10704,"##eser":10705,"skuespiller":10706,"ment":10707,"cr":10708,"bubb":10709,"passe":10710,"##bs":10711,"##stande":10712,"##inspekt":10713,"##oty":10714,"metoden":10715,"fiber":10716,"metal":10717,"##losning":10718,"hustru":10719,"##iff":10720,"speciell":10721,"spelas":10722,"##elsene":10723,"følelser":10724,"bh":10725,"##vaxtart":10726,"##løsning":10727,"snack":10728,"ytan":10729,"##22":10730,"##adt":10731,"dramat":10732,"benyttes":10733,"2020":10734,"uppman":10735,"##rikes":10736,"hyggelig":10737,"farmor":10738,"##usion":10739,"lena":10740,"dygt":10741,"rekommendera":10742,"expert":10743,"passager":10744,"email":10745,"forholdet":10746,"mem":10747,"ordinarie":10748,"varianter":10749,"bredt":10750,"hanna":10751,"købt":10752,"74":10753,"1950":10754,"lediga":10755,"##bruks":10756,"weekend":10757,"rast":10758,"verklighet":10759,"##yndigheten":10760,"erkan":10761,"fortalte":10762,"retningslin":10763,"internationale":10764,"sølv":10765,"meningen":10766,"foremal":10767,"studio":10768,"class":10769,"lyft":10770,"##edom":10771,"utgar":10772,"skape":10773,"##lser":10774,"elektronisk":10775,"##ssystemet":10776,"trag":10777,"##kert":10778,"uts":10779,"foton":10780,"digitale":10781,"inspel":10782,"gront":10783,"fyldt":10784,"##ensson":10785,"hyl":10786,"besøk":10787,"##bana":10788,"øjne":10789,"klokker":10790,"centralt":10791,"##yo":10792,"##iera":10793,"filer":10794,"mots":10795,"svær":10796,"fasciner":10797,"psykiat":10798,"oftest":10799,"medie":10800,"##uu":10801,"##just":10802,"ask":10803,"##videre":10804,"ish":10805,"damp":10806,"rejser":10807,"konvent":10808,"loven":10809,"##spol":10810,"tredj":10811,"98":10812,"certifier":10813,"tø":10814,"takk":10815,"begynner":10816,"##kok":10817,"bestallning":10818,"##finans":10819,"beløb":10820,"biblioteket":10821,"sas":10822,"produktionen":10823,"noveller":10824,"brud":10825,"lyfta":10826,"sørge":10827,"syv":10828,"afgørende":10829,"##lista":10830,"##iox":10831,"##iro":10832,"matematik":10833,"##skilde":10834,"##besk":10835,"##maskiner":10836,"##cing":10837,"fuldt":10838,"cle":10839,"færre":10840,"ult":10841,"jente":10842,"##vnte":10843,"##glas":10844,"verkade":10845,"kond":10846,"praktiskt":10847,"umgas":10848,"##last":10849,"stres":10850,"watch":10851,"undvik":10852,"rida":10853,"andring":10854,"abb":10855,"alm":10856,"negativt":10857,"##kræ":10858,"##´s":10859,"sambo":10860,"beteende":10861,"lagenheter":10862,"opprinn":10863,"##ua":10864,"nede":10865,"##kanten":10866,"syssel":10867,"amatør":10868,"gunnar":10869,"upphov":10870,"poeng":10871,"raskt":10872,"elva":10873,"sports":10874,"workshop":10875,"ekskl":10876,"open":10877,"##vetenskap":10878,"gustaf":10879,"kanaler":10880,"slippa":10881,"afsnit":10882,"aring":10883,"aga":10884,"skabt":10885,"##meddel":10886,"stallde":10887,"hest":10888,"##oppa":10889,"##kun":10890,"traf":10891,"##iviteter":10892,"##blom":10893,"plugga":10894,"##egnet":10895,"dahl":10896,"geograf":10897,"tyder":10898,"sjukvard":10899,"stoppa":10900,"tavla":10901,"lit":10902,"endvidere":10903,"bekant":10904,"insag":10905,"ottawa":10906,"bryr":10907,"##pri":10908,"runda":10909,"hamtade":10910,"##bæk":10911,"kompetanse":10912,"diabetes":10913,"vardenafil":10914,"division":10915,"belon":10916,"##ojd":10917,"##fron":10918,"temperaturen":10919,"grundlæg":10920,"formand":10921,"beskæftig":10922,"viktigste":10923,"hallen":10924,"aktorer":10925,"besoker":10926,"temat":10927,"##konto":10928,"levende":10929,"utmaning":10930,"##sberg":10931,"uansett":10932,"gla":10933,"##aaaa":10934,"administration":10935,"hastighet":10936,"bjer":10937,"our":10938,"##king":10939,"fott":10940,"gymnasiet":10941,"##rut":10942,"statt":10943,"naturlige":10944,"drive":10945,"##spa":10946,"##rettel":10947,"vinster":10948,"indien":10949,"attack":10950,"73":10951,"krigen":10952,"permanent":10953,"mund":10954,"jarnvag":10955,"høst":10956,"skifte":10957,"hente":10958,"gjordes":10959,"vedkommende":10960,"##kreter":10961,"rene":10962,"doft":10963,"##samheten":10964,"##gubb":10965,"meddelande":10966,"avsloj":10967,"fron":10968,"veckans":10969,"glomma":10970,"university":10971,"formalet":10972,"white":10973,"anbefale":10974,"##my":10975,"sanger":10976,"mikael":10977,"##pak":10978,"medfor":10979,"##ize":10980,"reflekt":10981,"generellt":10982,"frokost":10983,"mamm":10984,"olie":10985,"zo":10986,"stof":10987,"##muse":10988,"dejlige":10989,"tapet":10990,"dagligen":10991,"regeringens":10992,"bjuda":10993,"##iserer":10994,"henvis":10995,"belysning":10996,"##ampa":10997,"administ":10998,"bage":10999,"gjord":11000,"startede":11001,"rop":11002,"jamforelse":11003,"smule":11004,"omgivande":11005,"fara":11006,"##belt":11007,"rekommenderas":11008,"klag":11009,"term":11010,"fastighets":11011,"opfyldt":11012,"lone":11013,"1991":11014,"karlsson":11015,"himlen":11016,"førte":11017,"mobler":11018,"infrastruktur":11019,"skinn":11020,"forskolan":11021,"lask":11022,"parken":11023,"inbjud":11024,"##tagen":11025,"flag":11026,"aktive":11027,"mobile":11028,"nm":11029,"spesial":11030,"hammar":11031,"79":11032,"##sette":11033,"dress":11034,"##jam":11035,"malin":11036,"karleken":11037,"udbud":11038,"carol":11039,"##ove":11040,"ekster":11041,"nut":11042,"stream":11043,"##mende":11044,"koka":11045,"soll":11046,"forsak":11047,"stram":11048,"gronsaker":11049,"maskinen":11050,"##vikt":11051,"avrin":11052,"dipl":11053,"##zer":11054,"vælg":11055,"ophold":11056,"bam":11057,"##pool":11058,"medvir":11059,"##aring":11060,"komplic":11061,"fle":11062,"##skapen":11063,"ts":11064,"spri":11065,"##mast":11066,"generation":11067,"tilpass":11068,"tunnel":11069,"disc":11070,"proces":11071,"dos":11072,"76":11073,"lom":11074,"forstod":11075,"skum":11076,"udeluk":11077,"lamplig":11078,"snor":11079,"revider":11080,"##kningen":11081,"##pligt":11082,"##cykel":11083,"##aldte":11084,"77":11085,"medarbejder":11086,"mage":11087,"##ingsm":11088,"##pression":11089,"mente":11090,"##verkt":11091,"larande":11092,"søde":11093,"kopen":11094,"spiser":11095,"ender":11096,"##ingeart":11097,"##butik":11098,"tvavingeart":11099,"spred":11100,"betong":11101,"kende":11102,"musiken":11103,"##rim":11104,"##elserna":11105,"##tek":11106,"junior":11107,"studi":11108,"legat":11109,"##jun":11110,"galla":11111,"bengt":11112,"vandt":11113,"##asjer":11114,"game":11115,"jean":11116,"minus":11117,"bevid":11118,"##inet":11119,"kontaktannonser":11120,"che":11121,"arkitektur":11122,"japansk":11123,"bevæ":11124,"##asse":11125,"oscar":11126,"andamal":11127,"byer":11128,"morse":11129,"##beratt":11130,"##ionerna":11131,"kveld":11132,"##holdning":11133,"street":11134,"kaff":11135,"tillater":11136,"group":11137,"ryd":11138,"##mord":11139,"loj":11140,"harda":11141,"byr":11142,"skip":11143,"78":11144,"krev":11145,"uker":11146,"asa":11147,"##holl":11148,"utrust":11149,"gransen":11150,"imorse":11151,"somnade":11152,"dygnet":11153,"kontoret":11154,"intellig":11155,"forrige":11156,"solgt":11157,"##aldern":11158,"billed":11159,"repræsent":11160,"nivaer":11161,"intakter":11162,"afton":11163,"videnskab":11164,"instru":11165,"##ningsomradet":11166,"motte":11167,"97":11168,"overg":11169,"motsvarar":11170,"sjukdomar":11171,"bygninger":11172,"##porr":11173,"traffat":11174,"his":11175,"utlaning":11176,"eventyr":11177,"##visor":11178,"blow":11179,"synner":11180,"meny":11181,"anvandar":11182,"ink":11183,"kostnaden":11184,"velat":11185,"sorte":11186,"fød":11187,"sød":11188,"ledsen":11189,"koordin":11190,"jeans":11191,"##ansvart":11192,"svett":11193,"trin":11194,"forløb":11195,"##ript":11196,"biljetter":11197,"##proc":11198,"utnyttja":11199,"tilrettel":11200,"sælger":11201,"fritids":11202,"action":11203,"##programmet":11204,"regelbundet":11205,"tunga":11206,"vite":11207,"skoter":11208,"virt":11209,"##dam":11210,"skoler":11211,"usikker":11212,"##iskop":11213,"hanter":11214,"##arbeider":11215,"##dighed":11216,"##ensis":11217,"ork":11218,"utviklet":11219,"beskrevet":11220,"losen":11221,"kondom":11222,"##aven":11223,"hasten":11224,"erotiske":11225,"handlingar":11226,"gubb":11227,"goran":11228,"georg":11229,"##arium":11230,"starkare":11231,"##cl":11232,"fokusera":11233,"##talje":11234,"eme":11235,"tæ":11236,"sendes":11237,"ønskede":11238,"handelse":11239,"eier":11240,"erstat":11241,"stadens":11242,"departementet":11243,"##otet":11244,"sentr":11245,"days":11246,"malm":11247,"##æs":11248,"udfordringer":11249,"##artik":11250,"historiska":11251,"##bile":11252,"baserat":11253,"mental":11254,"landsby":11255,"##kendte":11256,"genop":11257,"##hh":11258,"##efter":11259,"moss":11260,"slap":11261,"##cell":11262,"silke":11263,"farre":11264,"kjenner":11265,"moment":11266,"ambas":11267,"##søg":11268,"reise":11269,"gt":11270,"##stjen":11271,"annons":11272,"rep":11273,"læng":11274,"##ado":11275,"##stider":11276,"hass":11277,"tvar":11278,"elegant":11279,"##ratter":11280,"##anderna":11281,"personale":11282,"##ria":11283,"##dalen":11284,"djupt":11285,"comment":11286,"grev":11287,"undersoka":11288,"forstark":11289,"nordiska":11290,"pren":11291,"positive":11292,"tages":11293,"midten":11294,"tidning":11295,"##eringer":11296,"vaggen":11297,"banen":11298,"labor":11299,"latta":11300,"simpelthen":11301,"affarer":11302,"bliv":11303,"##eks":11304,"variant":11305,"apne":11306,"kick":11307,"squ":11308,"sjovt":11309,"umu":11310,"tuff":11311,"tenke":11312,"teknolog":11313,"sammenhæng":11314,"sjukskoter":11315,"##cake":11316,"andas":11317,"tranare":11318,"progn":11319,"rap":11320,"rengør":11321,"##spir":11322,"init":11323,"nyhed":11324,"trang":11325,"how":11326,"##ifest":11327,"utstrackning":11328,"utok":11329,"designet":11330,"##strøm":11331,"medbor":11332,"##jerne":11333,"gjorts":11334,"bomull":11335,"premier":11336,"klokken":11337,"behandlar":11338,"##ute":11339,"skriftlig":11340,"##slov":11341,"upptackt":11342,"slett":11343,"allian":11344,"slapper":11345,"demokrati":11346,"beslutning":11347,"projekter":11348,"varierar":11349,"foreligger":11350,"##ægter":11351,"##omet":11352,"runde":11353,"glim":11354,"minnen":11355,"avtalet":11356,"frid":11357,"næst":11358,"filter":11359,"udenfor":11360,"what":11361,"venlig":11362,"raknar":11363,"narings":11364,"she":11365,"##yns":11366,"favoriter":11367,"sigt":11368,"advent":11369,"anlaggning":11370,"antik":11371,"overenskomm":11372,"foddes":11373,"hakan":11374,"##sprocessen":11375,"kvart":11376,"betaler":11377,"pæn":11378,"moden":11379,"drø":11380,"studien":11381,"##ioxid":11382,"haven":11383,"understø":11384,"sexfilm":11385,"genast":11386,"trett":11387,"uppfor":11388,"nogens":11389,"dækker":11390,"avses":11391,"biograf":11392,"##førelse":11393,"##tjanst":11394,"værk":11395,"rose":11396,"##sned":11397,"anbefales":11398,"##rogen":11399,"ovant":11400,"##orts":11401,"##shem":11402,"medveten":11403,"sakerstalla":11404,"recensioner":11405,"cast":11406,"nøgen":11407,"beskriva":11408,"##ppa":11409,"##dørs":11410,"##medlem":11411,"download":11412,"kritisk":11413,"##osta":11414,"##yrelsen":11415,"roligare":11416,"jylland":11417,"brudar":11418,"johanna":11419,"hardcore":11420,"fremover":11421,"modtaget":11422,"##pack":11423,"syftar":11424,"galt":11425,"win":11426,"parf":11427,"datorer":11428,"mojligen":11429,"politi":11430,"klatt":11431,"##hopp":11432,"fenomen":11433,"##vitt":11434,"urin":11435,"stiger":11436,"##stolen":11437,"magasin":11438,"sanna":11439,"##agna":11440,"##perioden":11441,"erkl":11442,"ombord":11443,"plugg":11444,"##bod":11445,"likad":11446,"moln":11447,"verkliga":11448,"kompens":11449,"nettsteder":11450,"fc":11451,"oliv":11452,"kandidat":11453,"strum":11454,"foretagets":11455,"kannas":11456,"##efte":11457,"stada":11458,"##amet":11459,"##to":11460,"leverantor":11461,"lott":11462,"##log":11463,"integritet":11464,"ordningen":11465,"leverer":11466,"##ogne":11467,"foljt":11468,"skatter":11469,"landskapet":11470,"##no":11471,"96":11472,"##elden":11473,"##seffekt":11474,"uppat":11475,"##stang":11476,"party":11477,"utslapp":11478,"trus":11479,"spont":11480,"report":11481,"gev":11482,"personlighet":11483,"lastbil":11484,"overgre":11485,"praktiska":11486,"inneholder":11487,"hovedet":11488,"##stjarn":11489,"kb":11490,"insattning":11491,"tendens":11492,"utgifter":11493,"elementer":11494,"##vind":11495,"forsvars":11496,"internationell":11497,"rektor":11498,"anpassa":11499,"emeller":11500,"rank":11501,"bbw":11502,"kh":11503,"##ænding":11504,"nils":11505,"cha":11506,"konsumenter":11507,"##beide":11508,"tuttar":11509,"##hvert":11510,"kej":11511,"emellertid":11512,"premium":11513,"kravet":11514,"midsommar":11515,"##elin":11516,"levere":11517,"slots":11518,"##kurs":11519,"dorr":11520,"lil":11521,"falder":11522,"##edygt":11523,"drev":11524,"##iserte":11525,"auto":11526,"suttit":11527,"upplevelser":11528,"flyt":11529,"immun":11530,"##ømmer":11531,"kvinnliga":11532,"nyar":11533,"##ooth":11534,"##able":11535,"usb":11536,"proff":11537,"fans":11538,"brød":11539,"øget":11540,"benytter":11541,"døren":11542,"papek":11543,"nabo":11544,"dick":11545,"vice":11546,"svin":11547,"inkluderar":11548,"smaning":11549,"##iseringen":11550,"langvar":11551,"doktor":11552,"metode":11553,"hjemmesiden":11554,"tings":11555,"batteri":11556,"tilbyr":11557,"billedet":11558,"sannsyn":11559,"##dagar":11560,"ligg":11561,"prøvet":11562,"ansikte":11563,"landsbyg":11564,"naring":11565,"løbe":11566,"samlar":11567,"reis":11568,"gjenopprett":11569,"vejr":11570,"utvecklar":11571,"deleg":11572,"##klub":11573,"tross":11574,"klarer":11575,"volvo":11576,"##orge":11577,"gengæld":11578,"flu":11579,"m2":11580,"heder":11581,"tavlingar":11582,"##bildning":11583,"##unns":11584,"##rutt":11585,"##hs":11586,"innebara":11587,"bea":11588,"##essig":11589,"anled":11590,"wi":11591,"framme":11592,"##uppgift":11593,"leds":11594,"##bling":11595,"befintliga":11596,"forvaltnings":11597,"##ington":11598,"jesper":11599,"besikt":11600,"gulv":11601,"##skottet":11602,"internasjonale":11603,"##regn":11604,"##jonen":11605,"##jente":11606,"klan":11607,"##tage":11608,"øke":11609,"persson":11610,"##ume":11611,"bestemte":11612,"insekt":11613,"cv":11614,"nedre":11615,"skarm":11616,"creek":11617,"viktige":11618,"##blog":11619,"statsminister":11620,"dl":11621,"faktor":11622,"sop":11623,"vandring":11624,"ola":11625,"busk":11626,"verka":11627,"hatar":11628,"evne":11629,"ratts":11630,"utvalg":11631,"vardet":11632,"trække":11633,"skydds":11634,"blank":11635,"somna":11636,"##kelser":11637,"##elighed":11638,"##rod":11639,"lanken":11640,"stavanger":11641,"repl":11642,"framgangs":11643,"##behør":11644,"##rund":11645,"##skydds":11646,"forfattaren":11647,"arbetsgivare":11648,"kontra":11649,"##skriget":11650,"##ori":11651,"##pes":11652,"fordju":11653,"piller":11654,"smidigt":11655,"kw":11656,"##spelet":11657,"uppfattning":11658,"86":11659,"ikon":11660,"indgar":11661,"ændring":11662,"planerat":11663,"snalla":11664,"nogensinde":11665,"overskud":11666,"maden":11667,"##asten":11668,"##samen":11669,"nøgne":11670,"gras":11671,"ugnen":11672,"pur":11673,"spørge":11674,"##havare":11675,"trosor":11676,"vett":11677,"bac":11678,"katalog":11679,"##kak":11680,"nasjonal":11681,"frivillige":11682,"##uder":11683,"89":11684,"long":11685,"praktiske":11686,"##imenter":11687,"fastigheten":11688,"skonhet":11689,"##lejer":11690,"##merksom":11691,"licens":11692,"##værelse":11693,"ert":11694,"asi":11695,"eriksson":11696,"bilaga":11697,"sle":11698,"reserver":11699,"oppdag":11700,"nærmeste":11701,"sofia":11702,"smaningom":11703,"læst":11704,"foss":11705,"forpligt":11706,"##byggere":11707,"rekommend":11708,"sr":11709,"indkøb":11710,"herren":11711,"teamet":11712,"serios":11713,"##ttes":11714,"##vanlig":11715,"leverera":11716,"cru":11717,"bevil":11718,"175":11719,"##valitet":11720,"elektr":11721,"aterstall":11722,"##spass":11723,"anlegg":11724,"foretagen":11725,"##træk":11726,"praktiken":11727,"hospital":11728,"bekl":11729,"trump":11730,"import":11731,"vig":11732,"110":11733,"##udvikling":11734,"ves":11735,"negativa":11736,"tillæg":11737,"mørke":11738,"anhor":11739,"prenumer":11740,"inriktning":11741,"stycket":11742,"##trafik":11743,"##stalt":11744,"##spra":11745,"gotland":11746,"eskilst":11747,"russiske":11748,"frida":11749,"storst":11750,"kjøre":11751,"pakke":11752,"finska":11753,"gifte":11754,"fastigheter":11755,"duktiga":11756,"hette":11757,"modne":11758,"##nelse":11759,"stop":11760,"hverdagen":11761,"skillnader":11762,"arbetslos":11763,"levereras":11764,"##ission":11765,"beton":11766,"pun":11767,"primar":11768,"skett":11769,"klubbens":11770,"84":11771,"bakat":11772,"enheten":11773,"mæng":11774,"lycklig":11775,"hett":11776,"forklarar":11777,"værelse":11778,"stik":11779,"##vne":11780,"##usi":11781,"tvartom":11782,"##ni":11783,"##ckande":11784,"karriere":11785,"sosiale":11786,"godkendt":11787,"##eled":11788,"gillade":11789,"##ary":11790,"gemenskap":11791,"mari":11792,"hjalpte":11793,"offentligt":11794,"bestemmelser":11795,"kvant":11796,"basis":11797,"telefoner":11798,"##ragende":11799,"##skick":11800,"dets":11801,"access":11802,"modtage":11803,"##bygning":11804,"##ningsfor":11805,"ledere":11806,"##steg":11807,"##sbr":11808,"put":11809,"annonsen":11810,"##verkets":11811,"tillbring":11812,"##adet":11813,"magt":11814,"##fold":11815,"ankom":11816,"tingene":11817,"forkyl":11818,"kud":11819,"manu":11820,"omfattet":11821,"##iserat":11822,"danska":11823,"jamstalld":11824,"##huse":11825,"##ew":11826,"##lagte":11827,"slutten":11828,"afghan":11829,"volym":11830,"forventes":11831,"##ekon":11832,"##aminer":11833,"migr":11834,"##jem":11835,"ipad":11836,"specifika":11837,"1989":11838,"##edda":11839,"add":11840,"##savtal":11841,"##anne":11842,"bostadsratt":11843,"regi":11844,"##olade":11845,"kollegor":11846,"løber":11847,"##serien":11848,"fornem":11849,"elisa":11850,"oppmerksom":11851,"bredband":11852,"omvand":11853,"siffror":11854,"kika":11855,"160":11856,"lukket":11857,"##ener":11858,"bryta":11859,"##klan":11860,"sorts":11861,"varenda":11862,"hyg":11863,"tydliga":11864,"##bbe":11865,"aff":11866,"internationellt":11867,"##attan":11868,"resultaten":11869,"stærke":11870,"dek":11871,"##saf":11872,"friluft":11873,"para":11874,"kæl":11875,"funktionen":11876,"fylkes":11877,"togs":11878,"bygning":11879,"nøy":11880,"##øring":11881,"oppnade":11882,"bakgrunn":11883,"europas":11884,"naringsliv":11885,"##vejs":11886,"forandras":11887,"morka":11888,"innhold":11889,"##skær":11890,"billige":11891,"behandla":11892,"##hovedet":11893,"##oteller":11894,"lordags":11895,"adel":11896,"profiler":11897,"sakta":11898,"##slosa":11899,"snon":11900,"fair":11901,"ordin":11902,"##slar":11903,"harom":11904,"##istiskt":11905,"lovar":11906,"drivs":11907,"foredrar":11908,"##uti":11909,"halls":11910,"fortsætter":11911,"frivillig":11912,"##ojligheter":11913,"ambul":11914,"personligen":11915,"badoo":11916,"konserv":11917,"livsl":11918,"##strup":11919,"##itation":11920,"##itte":11921,"orange":11922,"##stedt":11923,"betydelig":11924,"pojkar":11925,"##ati":11926,"##domar":11927,"enhed":11928,"fantasi":11929,"##bocker":11930,"united":11931,"valget":11932,"boliger":11933,"brittiska":11934,"##pul":11935,"nordisk":11936,"##departementet":11937,"familier":11938,"saft":11939,"hundrat":11940,"frugt":11941,"##kningar":11942,"uppdraget":11943,"træner":11944,"forsøger":11945,"##smat":11946,"##cha":11947,"##ankande":11948,"##igar":11949,"setter":11950,"valp":11951,"tillag":11952,"fragorna":11953,"tele":11954,"swe":11955,"mangel":11956,"overlag":11957,"sexuella":11958,"charm":11959,"vantade":11960,"fak":11961,"##jour":11962,"europæiske":11963,"gjennomført":11964,"blandning":11965,"vidste":11966,"fartyg":11967,"util":11968,"##anmark":11969,"##asinon":11970,"institutioner":11971,"##æves":11972,"ern":11973,"ped":11974,"ljuset":11975,"enige":11976,"##somraden":11977,"##etning":11978,"##erats":11979,"##car":11980,"##vagn":11981,"gatan":11982,"stanga":11983,"gøres":11984,"byggdes":11985,"skrik":11986,"netto":11987,"temper":11988,"legen":11989,"søvn":11990,"smerte":11991,"upphandling":11992,"introduktion":11993,"fremragende":11994,"maxim":11995,"troms":11996,"vegetar":11997,"##skamp":11998,"personalet":11999,"##gardar":12000,"størst":12001,"##bre":12002,"bryll":12003,"##dringen":12004,"sondagen":12005,"artikler":12006,"budsj":12007,"klokke":12008,"##bandet":12009,"##ords":12010,"overblik":12011,"kyst":12012,"emner":12013,"##iliteter":12014,"##gelse":12015,"##parken":12016,"uteslut":12017,"interakt":12018,"##gol":12019,"drabbas":12020,"xx":12021,"dygn":12022,"konge":12023,"komplex":12024,"foreldre":12025,"minor":12026,"900":12027,"vunnit":12028,"nark":12029,"##75":12030,"##kvar":12031,"ande":12032,"tlf":12033,"lakemed":12034,"lopande":12035,"riskerar":12036,"ordentlig":12037,"dron":12038,"tilldel":12039,"celler":12040,"kapp":12041,"##don":12042,"dagis":12043,"dalarna":12044,"kommunala":12045,"##zen":12046,"##kontroll":12047,"##setter":12048,"arenden":12049,"rio":12050,"##gym":12051,"yrke":12052,"barcel":12053,"drommar":12054,"stru":12055,"uafhæng":12056,"##ession":12057,"##virksom":12058,"fredagen":12059,"##profil":12060,"forskjell":12061,"##hard":12062,"kommunale":12063,"eskilstuna":12064,"skud":12065,"reson":12066,"##rus":12067,"ændret":12068,"ulf":12069,"overbev":12070,"ogonblick":12071,"erk":12072,"tillverkar":12073,"jess":12074,"ama":12075,"george":12076,"pier":12077,"##banken":12078,"##banen":12079,"insikt":12080,"begrepp":12081,"tvingas":12082,"blok":12083,"norska":12084,"fm":12085,"##acka":12086,"##ceae":12087,"troja":12088,"tett":12089,"eskorte":12090,"lur":12091,"##stopp":12092,"komfor":12093,"##glad":12094,"tilbyde":12095,"##grad":12096,"##eliv":12097,"levererar":12098,"##blet":12099,"##rapporter":12100,"jenny":12101,"##dagens":12102,"##pum":12103,"179":12104,"##day":12105,"170":12106,"lt":12107,"fonder":12108,"klassiske":12109,"83":12110,"kraven":12111,"rag":12112,"##data":12113,"avsluta":12114,"falla":12115,"paverkas":12116,"##øret":12117,"medisin":12118,"saaa":12119,"garderob":12120,"stoff":12121,"kristne":12122,"storlekar":12123,"##priser":12124,"diplom":12125,"betydande":12126,"##melsen":12127,"komponenter":12128,"døds":12129,"balanser":12130,"barneh":12131,"radighed":12132,"fylke":12133,"##iseras":12134,"medlemsst":12135,"fare":12136,"non":12137,"kalas":12138,"##uge":12139,"##pal":12140,"sande":12141,"##smæssige":12142,"##arker":12143,"galet":12144,"bøn":12145,"1700":12146,"##lock":12147,"klanning":12148,"flod":12149,"vakna":12150,"##emask":12151,"aspekter":12152,"gest":12153,"sjælland":12154,"##klipp":12155,"##kna":12156,"brow":12157,"##sbel":12158,"##lt":12159,"kopenhamn":12160,"##væk":12161,"miljop":12162,"##skrivning":12163,"##boende":12164,"publiken":12165,"##ansvarig":12166,"valuta":12167,"##arke":12168,"ljung":12169,"muslimer":12170,"roskilde":12171,"1920":12172,"uppfyller":12173,"##pade":12174,"##skrona":12175,"pagaende":12176,"paborj":12177,"wikip":12178,"##deb":12179,"sanningen":12180,"stykker":12181,"##splats":12182,"støv":12183,"hoppade":12184,"##budet":12185,"generelle":12186,"utgang":12187,"uav":12188,"##km":12189,"vigtige":12190,"##cket":12191,"mans":12192,"ugen":12193,"unna":12194,"slaget":12195,"bdsm":12196,"sonen":12197,"##entar":12198,"college":12199,"##ssk":12200,"##oman":12201,"##isjonen":12202,"skapade":12203,"vildt":12204,"kigge":12205,"math":12206,"mæl":12207,"##uddannelse":12208,"stærk":12209,"tull":12210,"##ætter":12211,"alternativet":12212,"##naren":12213,"webben":12214,"must":12215,"##position":12216,"forsvann":12217,"utstallning":12218,"katter":12219,"minuters":12220,"balt":12221,"pian":12222,"nad":12223,"kriget":12224,"skyn":12225,"plug":12226,"##industrin":12227,"studera":12228,"##sættelse":12229,"##fre":12230,"##kyr":12231,"militar":12232,"begransad":12233,"##plat":12234,"hobby":12235,"arne":12236,"kanten":12237,"##øder":12238,"hallet":12239,"##23":12240,"handerna":12241,"solna":12242,"manniskors":12243,"leje":12244,"##arder":12245,"##stemmelse":12246,"##kommit":12247,"##storp":12248,"observera":12249,"byggt":12250,"skab":12251,"skønne":12252,"julklapp":12253,"spendera":12254,"skik":12255,"##oci":12256,"##ugen":12257,"mobb":12258,"arbetade":12259,"kommissionen":12260,"light":12261,"anmala":12262,"udgivet":12263,"yttre":12264,"aldsta":12265,"tvatta":12266,"vikten":12267,"##rette":12268,"##ylla":12269,"ifragas":12270,"pasient":12271,"tekniken":12272,"kød":12273,"sosial":12274,"konkurrens":12275,"overnatt":12276,"begav":12277,"kran":12278,"##ffel":12279,"religi":12280,"forordning":12281,"dott":12282,"andringar":12283,"blas":12284,"deltagarna":12285,"robin":12286,"##umentet":12287,"enkle":12288,"##tom":12289,"lufthav":12290,"webblas":12291,"produktet":12292,"##sfri":12293,"forekomm":12294,"jobbe":12295,"##album":12296,"koncern":12297,"regjeringen":12298,"##unge":12299,"sprut":12300,"leker":12301,"##agte":12302,"sajten":12303,"jas":12304,"##utomater":12305,"nordic":12306,"nøj":12307,"##lon":12308,"opfor":12309,"ond":12310,"uppgifterna":12311,"blue":12312,"dagliga":12313,"stilla":12314,"tt":12315,"traden":12316,"branschen":12317,"##lyser":12318,"presenteras":12319,"##yser":12320,"##hyr":12321,"radet":12322,"samtale":12323,"barnens":12324,"rika":12325,"94":12326,"vilde":12327,"##sutveck":12328,"anstallning":12329,"fog":12330,"##figur":12331,"##backen":12332,"jordgubb":12333,"dyra":12334,"##nis":12335,"scan":12336,"definer":12337,"trycka":12338,"##forand":12339,"##gøre":12340,"muligheden":12341,"##iforn":12342,"grundlæggende":12343,"uppmarksamm":12344,"tjejerna":12345,"##test":12346,"danne":12347,"93":12348,"louis":12349,"heltid":12350,"1930":12351,"bondage":12352,"uni":12353,"enter":12354,"kalt":12355,"interview":12356,"##fulde":12357,"lem":12358,"beakt":12359,"hantverk":12360,"##varda":12361,"innlegget":12362,"north":12363,"forbjud":12364,"epis":12365,"spekul":12366,"##branschen":12367,"utgiv":12368,"manag":12369,"forskola":12370,"priserna":12371,"sjø":12372,"samlat":12373,"sprida":12374,"bespar":12375,"gur":12376,"atl":12377,"indian":12378,"tjenest":12379,"##menn":12380,"hjarnan":12381,"##førsel":12382,"varet":12383,"avkast":12384,"fatta":12385,"1988":12386,"wo":12387,"##forsta":12388,"samord":12389,"##ningss":12390,"montering":12391,"munt":12392,"henholdsvis":12393,"beraknas":12394,"##rib":12395,"##saken":12396,"bow":12397,"hantering":12398,"##klubben":12399,"##staver":12400,"socken":12401,"representanter":12402,"##ellet":12403,"##ørsel":12404,"endringer":12405,"oron":12406,"##ican":12407,"##livet":12408,"mess":12409,"tværs":12410,"forlorade":12411,"klage":12412,"reaktion":12413,"derimod":12414,"##kjø":12415,"##øte":12416,"tydeligt":12417,"fotter":12418,"ce":12419,"ursprungligen":12420,"##omer":12421,"61":12422,"stoffer":12423,"krydd":12424,"guid":12425,"##ologiskt":12426,"sørger":12427,"oppdrag":12428,"redov":12429,"udgave":12430,"reglerna":12431,"bitar":12432,"##light":12433,"fjarr":12434,"indones":12435,"##annan":12436,"##bygger":12437,"brugere":12438,"fordelt":12439,"tomm":12440,"##tex":12441,"homosex":12442,"knap":12443,"organisasjon":12444,"packa":12445,"##edem":12446,"forank":12447,"marke":12448,"grek":12449,"irak":12450,"oppett":12451,"olsson":12452,"livets":12453,"##kelen":12454,"medans":12455,"slo":12456,"recension":12457,"summer":12458,"levde":12459,"##ørte":12460,"historiske":12461,"manus":12462,"bonde":12463,"##porn":12464,"##esund":12465,"tyng":12466,"forklarer":12467,"italiensk":12468,"mangden":12469,"##serie":12470,"oversatt":12471,"manager":12472,"klær":12473,"klassiker":12474,"verdenskrig":12475,"følte":12476,"##das":12477,"##forvaltningen":12478,"karta":12479,"irland":12480,"##nats":12481,"bevidst":12482,"hoteller":12483,"skadespel":12484,"##sagt":12485,"##lings":12486,"##helm":12487,"##plassen":12488,"kursus":12489,"##ømte":12490,"school":12491,"tidpunkt":12492,"intensiv":12493,"140":12494,"udarbej":12495,"mission":12496,"victoria":12497,"##sons":12498,"konstruktion":12499,"##een":12500,"fangelse":12501,"bakterier":12502,"citat":12503,"##ualitet":12504,"afstand":12505,"udn":12506,"born":12507,"spanska":12508,"smink":12509,"spej":12510,"utbildningar":12511,"##zo":12512,"orter":12513,"first":12514,"jattef":12515,"##sbas":12516,"felakt":12517,"betalningsanmark":12518,"##sakerhet":12519,"arliga":12520,"##kvalitet":12521,"vejle":12522,"diesel":12523,"alternat":12524,"rimelig":12525,"bell":12526,"iden":12527,"beskrivs":12528,"larm":12529,"medicinsk":12530,"##kamera":12531,"pred":12532,"optimal":12533,"##byt":12534,"manden":12535,"##design":12536,"##ivir":12537,"avis":12538,"forma":12539,"faglig":12540,"##bjerg":12541,"kristus":12542,"##avgift":12543,"budskap":12544,"esbjerg":12545,"seb":12546,"utlandska":12547,"aktuellt":12548,"##stens":12549,"dengang":12550,"gator":12551,"##zy":12552,"inbland":12553,"##icia":12554,"finaste":12555,"uppvarm":12556,"digitalt":12557,"##spolitik":12558,"integration":12559,"oppettider":12560,"tropiskt":12561,"valut":12562,"træt":12563,"##øk":12564,"uppdatera":12565,"distribut":12566,"##stallda":12567,"mt":12568,"##struktur":12569,"væsentlig":12570,"bildet":12571,"adressen":12572,"##revis":12573,"##sert":12574,"misstag":12575,"snakker":12576,"##ato":12577,"##uttede":12578,"mega":12579,"kore":12580,"stein":12581,"nyhetsbrev":12582,"regioner":12583,"##smode":12584,"##kreterare":12585,"symptomer":12586,"muligheter":12587,"lækkert":12588,"kontakten":12589,"larsen":12590,"magnet":12591,"halvar":12592,"##ylar":12593,"omtal":12594,"tagg":12595,"sparar":12596,"farsk":12597,"display":12598,"rosta":12599,"gh":12600,"##assiga":12601,"130":12602,"intryck":12603,"had":12604,"##ely":12605,"allerg":12606,"##politik":12607,"effektiva":12608,"patri":12609,"kit":12610,"niels":12611,"##setning":12612,"enig":12613,"87":12614,"indfly":12615,"husker":12616,"panik":12617,"direktiv":12618,"apoteket":12619,"82":12620,"innehalla":12621,"annoncer":12622,"blød":12623,"fyllt":12624,"nærings":12625,"ventet":12626,"##sendt":12627,"grunde":12628,"arbejdsmark":12629,"drott":12630,"stek":12631,"omtr":12632,"dommer":12633,"##resultat":12634,"1940":12635,"slatt":12636,"die":12637,"##klad":12638,"##koll":12639,"##lu":12640,"mjuka":12641,"odds":12642,"besøge":12643,"geb":12644,"##ves":12645,"##rens":12646,"seng":12647,"undt":12648,"tilbehør":12649,"medborgare":12650,"planlagt":12651,"randers":12652,"##eman":12653,"syss":12654,"##pis":12655,"socialdemokrat":12656,"funktionsned":12657,"farlig":12658,"##vendt":12659,"muligheten":12660,"##holms":12661,"nylig":12662,"bolagets":12663,"kronika":12664,"midlertid":12665,"morfar":12666,"##sprogrammet":12667,"pay":12668,"avse":12669,"##grunden":12670,"mødes":12671,"##koppling":12672,"kontanter":12673,"designer":12674,"##priset":12675,"vester":12676,"work":12677,"##moder":12678,"##drift":12679,"foreskrifter":12680,"##løst":12681,"besokte":12682,"distriktet":12683,"lady":12684,"orolig":12685,"hyresg":12686,"bistand":12687,"kommunfull":12688,"testat":12689,"##eftea":12690,"##cht":12691,"laggs":12692,"overensstemmelse":12693,"byggnads":12694,"arke":12695,"##estad":12696,"ledd":12697,"##organisation":12698,"##sperioden":12699,"forvantningar":12700,"efterfragan":12701,"exister":12702,"engelske":12703,"nike":12704,"##ktorn":12705,"##jare":12706,"ytterst":12707,"nice":12708,"bunden":12709,"dm":12710,"tjanste":12711,"ef":12712,"##teckning":12713,"vaxtlighet":12714,"værelser":12715,"placeret":12716,"##svær":12717,"udelukkende":12718,"begiven":12719,"skje":12720,"bearbet":12721,"retter":12722,"datingside":12723,"gel":12724,"outfit":12725,"pad":12726,"føles":12727,"##ield":12728,"norrland":12729,"hjemmel":12730,"kampanj":12731,"hill":12732,"arbetsplats":12733,"testet":12734,"##ligvis":12735,"vell":12736,"britiske":12737,"fremst":12738,"pt":12739,"byggnaden":12740,"hamna":12741,"fungere":12742,"kommand":12743,"##issar":12744,"svare":12745,"##prom":12746,"##cipl":12747,"##skur":12748,"##pin":12749,"behandlet":12750,"##systemet":12751,"roster":12752,"holdet":12753,"forandra":12754,"søren":12755,"##etts":12756,"##hlm":12757,"tja":12758,"orsaken":12759,"##fun":12760,"lung":12761,"az":12762,"potential":12763,"##utrym":12764,"uppfoljning":12765,"stodja":12766,"##stin":12767,"klam":12768,"##jel":12769,"analyt":12770,"gymmet":12771,"vul":12772,"unger":12773,"bebis":12774,"##egard":12775,"globalt":12776,"##byggd":12777,"##rull":12778,"sannolik":12779,"##marken":12780,"rang":12781,"invig":12782,"floden":12783,"versionen":12784,"##ejen":12785,"##lang":12786,"langsamt":12787,"##slok":12788,"ledige":12789,"##menter":12790,"##kester":12791,"højeste":12792,"##رررر":12793,"robot":12794,"jev":12795,"##ward":12796,"bredd":12797,"ønsk":12798,"laborator":12799,"##sgr":12800,"##arbeidet":12801,"foreningar":12802,"utsatta":12803,"viking":12804,"sf":12805,"smslan":12806,"skak":12807,"hjemmet":12808,"##bolig":12809,"forstatt":12810,"stigende":12811,"##cre":12812,"##verks":12813,"avlopp":12814,"##hallanden":12815,"times":12816,"foresp":12817,"uppehall":12818,"##lsen":12819,"##65":12820,"flack":12821,"##bost":12822,"ungar":12823,"##morgon":12824,"marks":12825,"hallbarhet":12826,"nævnt":12827,"##emeld":12828,"##stillstand":12829,"natter":12830,"##afton":12831,"titeln":12832,"repræsen":12833,"##snittet":12834,"sjuka":12835,"markant":12836,"92":12837,"##hult":12838,"krediter":12839,"konflikter":12840,"was":12841,"foresla":12842,"sams":12843,"hungr":12844,"kriterier":12845,"##akte":12846,"ovanfor":12847,"turister":12848,"##ekort":12849,"toil":12850,"øge":12851,"slip":12852,"gammalt":12853,"huse":12854,"##shandel":12855,"##sfull":12856,"politiken":12857,"underlatta":12858,"paverkan":12859,"vinkel":12860,"##go":12861,"tillgod":12862,"bockerna":12863,"renovering":12864,"backen":12865,"godkant":12866,"hoja":12867,"nominer":12868,"atmosfar":12869,"blin":12870,"skara":12871,"ss":12872,"night":12873,"agera":12874,"##plant":12875,"velger":12876,"begreppet":12877,"ryk":12878,"##synet":12879,"forald":12880,"1987":12881,"##kland":12882,"omtrent":12883,"medverk":12884,"river":12885,"forvag":12886,"opera":12887,"producent":12888,"allmanheten":12889,"forhindra":12890,"overhovedet":12891,"paminner":12892,"##sens":12893,"placera":12894,"baka":12895,"viet":12896,"presenterar":12897,"##ywood":12898,"##stof":12899,"hænder":12900,"bryter":12901,"sove":12902,"strategier":12903,"passion":12904,"##dæk":12905,"ledarskap":12906,"kriminal":12907,"barcelona":12908,"##pla":12909,"##arv":12910,"##emedlem":12911,"atervin":12912,"nyeste":12913,"tilstræk":12914,"artens":12915,"##oe":12916,"udl":12917,"dras":12918,"##okrater":12919,"##firma":12920,"##wer":12921,"forord":12922,"virkeligheden":12923,"##skilt":12924,"bekvamt":12925,"ordre":12926,"foraldrarna":12927,"utredningen":12928,"virksomhet":12929,"rytt":12930,"intresset":12931,"seminar":12932,"vejret":12933,"richard":12934,"nyttig":12935,"kemikal":12936,"sidorna":12937,"argumenter":12938,"##opter":12939,"svensson":12940,"jakla":12941,"tram":12942,"artister":12943,"berattelser":12944,"##ogs":12945,"vaxte":12946,"auktor":12947,"kommunerna":12948,"oskar":12949,"indholdet":12950,"##centrum":12951,"asikt":12952,"##lasser":12953,"introducer":12954,"redovisning":12955,"vaknar":12956,"begrænset":12957,"kvadratmeter":12958,"1986":12959,"ført":12960,"##dating":12961,"##istrikt":12962,"stip":12963,"##øyd":12964,"##vader":12965,"argent":12966,"vokser":12967,"178":12968,"institution":12969,"nap":12970,"lagde":12971,"tennis":12972,"tron":12973,"##jd":12974,"##bul":12975,"styrker":12976,"##bba":12977,"investeringar":12978,"affaren":12979,"tabellen":12980,"##vidt":12981,"##atoren":12982,"aterupp":12983,"##cal":12984,"ledningen":12985,"##estall":12986,"samtlige":12987,"nomin":12988,"avsikt":12989,"pick":12990,"drenge":12991,"anvandes":12992,"##rere":12993,"content":12994,"smaken":12995,"hihi":12996,"forg":12997,"krever":12998,"##barhet":12999,"opmærksomhed":13000,"##une":13001,"##ji":13002,"institutionen":13003,"udført":13004,"bytt":13005,"forsiktig":13006,"skrack":13007,"##skostnader":13008,"bollen":13009,"kinesiska":13010,"##xa":13011,"samlade":13012,"fællesskab":13013,"musiker":13014,"touch":13015,"stoppe":13016,"henblik":13017,"tacksam":13018,"andres":13019,"royal":13020,"afghanistan":13021,"kategorin":13022,"kaos":13023,"potens":13024,"coun":13025,"spann":13026,"kjæreste":13027,"henta":13028,"eur":13029,"sadanne":13030,"marcus":13031,"inspekt":13032,"kle":13033,"berattelse":13034,"fjerde":13035,"virkning":13036,"meng":13037,"derved":13038,"plattform":13039,"##smaterial":13040,"brister":13041,"##drende":13042,"dricker":13043,"følelse":13044,"lagring":13045,"tidningar":13046,"feed":13047,"terra":13048,"utvid":13049,"samlas":13050,"skjøn":13051,"area":13052,"morten":13053,"ovningar":13054,"refle":13055,"ideen":13056,"utro":13057,"##nan":13058,"avgj":13059,"##ect":13060,"dur":13061,"##ogram":13062,"nybor":13063,"larar":13064,"fortr":13065,"arrangementer":13066,"plante":13067,"##supp":13068,"forbrug":13069,"##ero":13070,"specifikt":13071,"hyper":13072,"tekster":13073,"sentrum":13074,"kvarter":13075,"aktenskap":13076,"##board":13077,"tillfreds":13078,"kræft":13079,"narkot":13080,"##cast":13081,"bm":13082,"##vor":13083,"mick":13084,"medi":13085,"alska":13086,"##forsaljare":13087,"##ods":13088,"signer":13089,"tjek":13090,"kommunikasjon":13091,"fortid":13092,"1984":13093,"stapp":13094,"sammenhæn":13095,"sud":13096,"svend":13097,"loppet":13098,"louise":13099,"##kons":13100,"hera":13101,"handtere":13102,"rea":13103,"##ykkedes":13104,"##udvalget":13105,"deltok":13106,"##irekt":13107,"##tekt":13108,"laur":13109,"##flyg":13110,"tillganglighet":13111,"kalor":13112,"##emiddel":13113,"##varor":13114,"anvis":13115,"brot":13116,"opstar":13117,"##kra":13118,"suga":13119,"##smannen":13120,"kompetencer":13121,"##papper":13122,"##massigt":13123,"##sreg":13124,"##yse":13125,"dagligt":13126,"wester":13127,"rettet":13128,"##ifer":13129,"##jorden":13130,"aggress":13131,"##bell":13132,"hemib":13133,"##chat":13134,"revision":13135,"frost":13136,"klager":13137,"agent":13138,"lærere":13139,"##rafik":13140,"skur":13141,"##lager":13142,"##ng":13143,"studiet":13144,"##ky":13145,"##ict":13146,"kvalite":13147,"madrid":13148,"forsiktigt":13149,"##mis":13150,"##itteratur":13151,"##oreala":13152,"kvm":13153,"##skador":13154,"bøl":13155,"journalister":13156,"maling":13157,"##ulin":13158,"hemiboreala":13159,"##stjanst":13160,"rud":13161,"bøker":13162,"##splaner":13163,"nude":13164,"opptatt":13165,"upptackte":13166,"##gir":13167,"##avn":13168,"kreditvar":13169,"astad":13170,"politiskt":13171,"mærker":13172,"pump":13173,"fuldstændig":13174,"høsten":13175,"margar":13176,"##forskning":13177,"chan":13178,"##sider":13179,"blowjob":13180,"angar":13181,"innefatt":13182,"kommentera":13183,"signaler":13184,"risker":13185,"diskussioner":13186,"commun":13187,"##ame":13188,"##delinger":13189,"##feller":13190,"iron":13191,"wikipedia":13192,"gigant":13193,"##avling":13194,"avsnittet":13195,"hvorvidt":13196,"##istret":13197,"##melige":13198,"sthlm":13199,"lette":13200,"ravar":13201,"##ævnet":13202,"vinteren":13203,"skridt":13204,"##cca":13205,"1985":13206,"ramen":13207,"bergig":13208,"fax":13209,"opprett":13210,"inkludert":13211,"veckorna":13212,"sagtens":13213,"tester":13214,"brasilien":13215,"beliggende":13216,"synpunkter":13217,"sakal":13218,"##cs":13219,"##lav":13220,"undersøgelser":13221,"##musik":13222,"71":13223,"forars":13224,"##uf":13225,"forvantas":13226,"##idig":13227,"tekniker":13228,"byter":13229,"timmars":13230,"videregaende":13231,"trykk":13232,"lykke":13233,"utmark":13234,"kup":13235,"kasta":13236,"vurderer":13237,"hundarna":13238,"sammanlagt":13239,"pedersen":13240,"japanska":13241,"##bia":13242,"justin":13243,"skickade":13244,"##inci":13245,"##istent":13246,"sjældent":13247,"tyrk":13248,"##yndighet":13249,"##præ":13250,"evangel":13251,"minimer":13252,"skiva":13253,"kokos":13254,"skulpt":13255,"##fug":13256,"filtr":13257,"rakar":13258,"##shus":13259,"passet":13260,"autor":13261,"##ærende":13262,"malar":13263,"alvorlig":13264,"##sbolag":13265,"klient":13266,"tidligt":13267,"mødt":13268,"sticka":13269,"##redovis":13270,"flyttat":13271,"uppskattar":13272,"marin":13273,"fynd":13274,"videon":13275,"ryt":13276,"avlag":13277,"##holdene":13278,"scener":13279,"pok":13280,"abent":13281,"fonstret":13282,"##handler":13283,"wild":13284,"blatt":13285,"cirkul":13286,"##vad":13287,"kundens":13288,"##resor":13289,"byder":13290,"bane":13291,"kys":13292,"stalls":13293,"who":13294,"lansstyrelsen":13295,"referens":13296,"ledamoter":13297,"tjanstem":13298,"godkand":13299,"lykkes":13300,"acceptera":13301,"vistelse":13302,"jobben":13303,"gry":13304,"myt":13305,"##ætte":13306,"reglerne":13307,"populart":13308,"past":13309,"sana":13310,"samhallen":13311,"romantisk":13312,"brukere":13313,"##atar":13314,"##producer":13315,"rart":13316,"##fjord":13317,"oversigt":13318,"enorma":13319,"##cos":13320,"tander":13321,"m²":13322,"##vas":13323,"##duk":13324,"gennemført":13325,"baserad":13326,"restaurangen":13327,"##lær":13328,"bakgrunden":13329,"damm":13330,"respons":13331,"send":13332,"south":13333,"##innan":13334,"##iseres":13335,"korn":13336,"##bott":13337,"presse":13338,"##pre":13339,"jung":13340,"fanga":13341,"detsamma":13342,"lyse":13343,"rabat":13344,"hvorefter":13345,"##nelsen":13346,"morkt":13347,"spelarna":13348,"dagbladet":13349,"gluten":13350,"internettet":13351,"conta":13352,"gitarr":13353,"pratat":13354,"orientering":13355,"mum":13356,"nødvendigvis":13357,"ansø":13358,"fortjan":13359,"##brid":13360,"overgripande":13361,"utfly":13362,"omgaende":13363,"##skifte":13364,"sovit":13365,"øye":13366,"installning":13367,"kropps":13368,"variera":13369,"pel":13370,"##industri":13371,"butikken":13372,"links":13373,"brus":13374,"siv":13375,"karleks":13376,"kontrollen":13377,"1600":13378,"asiatiska":13379,"website":13380,"##motor":13381,"skapas":13382,"##spartner":13383,"kreativitet":13384,"solo":13385,"meddela":13386,"tabletter":13387,"udde":13388,"nemmere":13389,"søster":13390,"rorelser":13391,"##yre":13392,"arbetsuppgifter":13393,"##økonom":13394,"ostersund":13395,"lavt":13396,"spansk":13397,"pavirker":13398,"lover":13399,"##skall":13400,"ansoka":13401,"##ki":13402,"riket":13403,"bruks":13404,"##iode":13405,"okning":13406,"vedtak":13407,"utsl":13408,"##pter":13409,"inatt":13410,"omfattas":13411,"##ony":13412,"lita":13413,"styrket":13414,"##ifikation":13415,"pojkvan":13416,"brygg":13417,"##løp":13418,"##omi":13419,"##put":13420,"dennes":13421,"traditionell":13422,"##rud":13423,"torg":13424,"unnga":13425,"viborg":13426,"jonsson":13427,"##ario":13428,"korkort":13429,"varia":13430,"fardiga":13431,"ordna":13432,"antib":13433,"ash":13434,"systemer":13435,"snø":13436,"artist":13437,"sesongen":13438,"befri":13439,"angr":13440,"music":13441,"gilla":13442,"fotterna":13443,"loser":13444,"##stroms":13445,"games":13446,"tjejen":13447,"utbredningsomrade":13448,"bæredygt":13449,"komforta":13450,"handic":13451,"##az":13452,"gad":13453,"iværks":13454,"indflydelse":13455,"julia":13456,"mek":13457,"inflytande":13458,"amerika":13459,"revisor":13460,"##jef":13461,"kolding":13462,"mull":13463,"vantat":13464,"ahl":13465,"enst":13466,"forbereda":13467,"##byggda":13468,"drømme":13469,"kroppens":13470,"##sbo":13471,"professionell":13472,"rutin":13473,"hjertet":13474,"videokl":13475,"grænse":13476,"##edyr":13477,"fordele":13478,"slappte":13479,"websted":13480,"##sbeg":13481,"nettopp":13482,"omgivelser":13483,"##ævnte":13484,"##grav":13485,"krang":13486,"##etta":13487,"losningen":13488,"spen":13489,"poster":13490,"##ible":13491,"spilte":13492,"høg":13493,"##tas":13494,"allvarligt":13495,"##retten":13496,"missat":13497,"regl":13498,"besviken":13499,"bach":13500,"statliga":13501,"##ssitu":13502,"fisker":13503,"kaldes":13504,"vav":13505,"opbevar":13506,"arean":13507,"##entene":13508,"sallad":13509,"forventer":13510,"kid":13511,"oppos":13512,"leon":13513,"mir":13514,"festen":13515,"teksten":13516,"risikoen":13517,"avgora":13518,"management":13519,"##bjud":13520,"fulla":13521,"applik":13522,"ondt":13523,"beveg":13524,"##ommer":13525,"ff":13526,"##esi":13527,"wifi":13528,"gjorda":13529,"cross":13530,"emne":13531,"##regel":13532,"faldt":13533,"##ioter":13534,"##fram":13535,"##malm":13536,"harde":13537,"scand":13538,"minskat":13539,"##alar":13540,"brukte":13541,"tub":13542,"killen":13543,"##central":13544,"rehabilitering":13545,"pause":13546,"tobak":13547,"isen":13548,"anstalld":13549,"trivsel":13550,"asiatisk":13551,"obehag":13552,"omh":13553,"vande":13554,"hentet":13555,"doser":13556,"utviklingen":13557,"avrinningsomradet":13558,"gala":13559,"smerter":13560,"blandskog":13561,"veder":13562,"saint":13563,"##temot":13564,"##nom":13565,"katten":13566,"##undervisning":13567,"proced":13568,"kalle":13569,"moun":13570,"diameter":13571,"##oke":13572,"lenn":13573,"##ffade":13574,"vinnare":13575,"slav":13576,"##hjel":13577,"vanilj":13578,"orsaker":13579,"##atorn":13580,"banklan":13581,"nul":13582,"samfunn":13583,"##lopp":13584,"##dress":13585,"kørte":13586,"stott":13587,"million":13588,"##junkt":13589,"##atus":13590,"##rater":13591,"##vask":13592,"miste":13593,"##can":13594,"##like":13595,"blodet":13596,"vinde":13597,"saljs":13598,"##snummer":13599,"nur":13600,"skel":13601,"regne":13602,"grun":13603,"##verktyg":13604,"gives":13605,"##agaren":13606,"mandat":13607,"##ups":13608,"##issa":13609,"chatta":13610,"kurset":13611,"##ights":13612,"besluttet":13613,"slutningen":13614,"leverandør":13615,"symboler":13616,"massan":13617,"desper":13618,"##landskap":13619,"##ulette":13620,"støj":13621,"##foljande":13622,"##andan":13623,"##svagen":13624,"darlige":13625,"palit":13626,"beund":13627,"dart":13628,"##frihet":13629,"raddning":13630,"specialist":13631,"drama":13632,"##sorganis":13633,"fulgte":13634,"arbetsmiljo":13635,"njuter":13636,"fullstandigt":13637,"bjørn":13638,"vaxande":13639,"##sdagen":13640,"gyll":13641,"kasino":13642,"##halsa":13643,"lampligt":13644,"italienska":13645,"beskyttelse":13646,"kallor":13647,"##oken":13648,"miljoer":13649,"værdier":13650,"forventninger":13651,"erkanna":13652,"losenord":13653,"godkanner":13654,"blott":13655,"krafter":13656,"##byen":13657,"lykkedes":13658,"##ingarna":13659,"ovenfor":13660,"viktor":13661,"handika":13662,"stede":13663,"##blogg":13664,"nervos":13665,"flexi":13666,"##ihop":13667,"##hd":13668,"trekant":13669,"makten":13670,"majoritet":13671,"##frem":13672,"omfattning":13673,"kontinuerligt":13674,"##sajter":13675,"aik":13676,"##spor":13677,"sogn":13678,"myn":13679,"utspel":13680,"enstaka":13681,"jør":13682,"arbetst":13683,"##anke":13684,"hjelper":13685,"chock":13686,"ling":13687,"hmm":13688,"ryck":13689,"utforska":13690,"hert":13691,"smør":13692,"skolans":13693,"luks":13694,"fardigt":13695,"formiddagen":13696,"vinder":13697,"grunnlag":13698,"kreditupp":13699,"##halt":13700,"frustr":13701,"##hantering":13702,"inspirerande":13703,"grundades":13704,"##api":13705,"utvecklings":13706,"understre":13707,"##kontor":13708,"##brand":13709,"tidiga":13710,"forloss":13711,"merke":13712,"tilbag":13713,"delarna":13714,"dyl":13715,"varldskriget":13716,"adult":13717,"regional":13718,"##oplysninger":13719,"protest":13720,"tillampas":13721,"##hjalp":13722,"ms":13723,"særdeles":13724,"##varna":13725,"taxi":13726,"##jek":13727,"##igheterna":13728,"##atiska":13729,"##yga":13730,"##ify":13731,"1945":13732,"knep":13733,"##gg":13734,"arendet":13735,"beliggen":13736,"textil":13737,"ged":13738,"way":13739,"dræ":13740,"esp":13741,"fitness":13742,"ligner":13743,"kampe":13744,"forsam":13745,"fruktansvart":13746,"servicen":13747,"##etr":13748,"1982":13749,"menyn":13750,"skell":13751,"arbejdsgiver":13752,"tart":13753,"##vente":13754,"billigaste":13755,"##imot":13756,"ansætt":13757,"##taket":13758,"elast":13759,"begrens":13760,"##garant":13761,"vurderes":13762,"deltagande":13763,"##oft":13764,"arrangemang":13765,"spets":13766,"sentral":13767,"udarbejdet":13768,"køle":13769,"sammanfattning":13770,"kompos":13771,"##alderen":13772,"arlige":13773,"##ikat":13774,"vager":13775,"tillgangar":13776,"##paket":13777,"valk":13778,"aringen":13779,"forstor":13780,"gna":13781,"##ovan":13782,"escortt":13783,"omkostninger":13784,"##umen":13785,"globala":13786,"informera":13787,"pkt":13788,"wow":13789,"finan":13790,"room":13791,"hei":13792,"profesjon":13793,"samfunnet":13794,"radgiver":13795,"##hjemme":13796,"privatpersoner":13797,"myndigheten":13798,"##ytor":13799,"stunder":13800,"glans":13801,"darligt":13802,"garanterat":13803,"fugt":13804,"sakerhets":13805,"oplysning":13806,"motivation":13807,"genet":13808,"sygep":13809,"fyllde":13810,"landslag":13811,"sjukhuset":13812,"skedde":13813,"navne":13814,"keram":13815,"forkort":13816,"##file":13817,"##brev":13818,"clar":13819,"##hænger":13820,"foten":13821,"palest":13822,"fysiskt":13823,"foretags":13824,"##adels":13825,"rante":13826,"yttrande":13827,"##stark":13828,"amnes":13829,"##tap":13830,"samfunns":13831,"##begyn":13832,"##vens":13833,"fungerande":13834,"seriosa":13835,"forsvaret":13836,"policy":13837,"udby":13838,"nud":13839,"forskere":13840,"vagbeskrivning":13841,"bemærk":13842,"##ites":13843,"frien":13844,"aterstar":13845,"enskild":13846,"komprom":13847,"opplæring":13848,"nadde":13849,"vasent":13850,"landbrug":13851,"forlora":13852,"##stendig":13853,"co2":13854,"diskriminering":13855,"afgørelse":13856,"skete":13857,"erhall":13858,"smukt":13859,"brygger":13860,"stok":13861,"generalforsamling":13862,"cec":13863,"biskop":13864,"##bull":13865,"##yper":13866,"canada":13867,"bemot":13868,"annoncen":13869,"kub":13870,"##gers":13871,"##legging":13872,"kampar":13873,"##anmal":13874,"begyndelsen":13875,"peppar":13876,"smith":13877,"produkterna":13878,"majoriteten":13879,"klapp":13880,"glatt":13881,"restauranter":13882,"flickvan":13883,"reseptfritt":13884,"##flugor":13885,"medic":13886,"expon":13887,"vilt":13888,"kjell":13889,"leveres":13890,"drack":13891,"resen":13892,"foralder":13893,"##ife":13894,"viktigare":13895,"fæng":13896,"##elever":13897,"##venskan":13898,"handlingen":13899,"##værker":13900,"adresser":13901,"science":13902,"##reser":13903,"dods":13904,"støtter":13905,"kalder":13906,"alger":13907,"kollat":13908,"##stak":13909,"nodvandiga":13910,"spanning":13911,"larde":13912,"91":13913,"koppar":13914,"udfyl":13915,"##isjoner":13916,"sken":13917,"pia":13918,"lært":13919,"apnet":13920,"##ollen":13921,"##laddning":13922,"##xy":13923,"retningslinjer":13924,"plag":13925,"utlandet":13926,"toalett":13927,"##gro":13928,"##kommun":13929,"tilfred":13930,"##bruket":13931,"satsar":13932,"sunn":13933,"grabb":13934,"etablert":13935,"##jed":13936,"##jakt":13937,"talat":13938,"##ørr":13939,"heraf":13940,"##peg":13941,"##verden":13942,"##stick":13943,"##gange":13944,"slanga":13945,"narhet":13946,"medborgar":13947,"##imentet":13948,"partik":13949,"minimal":13950,"##ingslivet":13951,"skarmen":13952,"torka":13953,"nin":13954,"legges":13955,"manniskorna":13956,"##dra":13957,"begynde":13958,"fabr":13959,"##iserede":13960,"mexico":13961,"pavirke":13962,"##alternativ":13963,"print":13964,"kungs":13965,"retro":13966,"jenn":13967,"fortsætte":13968,"ekspert":13969,"sønn":13970,"##obe":13971,"##ating":13972,"##befin":13973,"kombinera":13974,"html":13975,"mattias":13976,"##navn":13977,"konkl":13978,"skriven":13979,"sundheds":13980,"##ytan":13981,"menings":13982,"lengre":13983,"hentai":13984,"suver":13985,"##shistor":13986,"birgitt":13987,"medfører":13988,"toner":13989,"##aton":13990,"troligtvis":13991,"varda":13992,"dreng":13993,"utvardering":13994,"sul":13995,"redd":13996,"##forløb":13997,"officiella":13998,"anmark":13999,"kongen":14000,"diagnost":14001,"##illinger":14002,"mestadels":14003,"##nades":14004,"##vise":14005,"oral":14006,"sørg":14007,"vinduer":14008,"konkurs":14009,"maltider":14010,"anklag":14011,"mindste":14012,"aterkommer":14013,"filen":14014,"identifiera":14015,"batterier":14016,"sydlig":14017,"suck":14018,"endring":14019,"1968":14020,"depression":14021,"##sell":14022,"mosa":14023,"##tegn":14024,"snacka":14025,"ursprungliga":14026,"slottet":14027,"kosta":14028,"framja":14029,"##gin":14030,"olsen":14031,"flagg":14032,"lakt":14033,"inds":14034,"kandidater":14035,"albert":14036,"anvandarna":14037,"350":14038,"fota":14039,"##inden":14040,"galen":14041,"overhuvud":14042,"kunderna":14043,"undervejs":14044,"skyddar":14045,"matlag":14046,"##ibland":14047,"talets":14048,"utvecklat":14049,"anvendt":14050,"##ory":14051,"##asj":14052,"utvalda":14053,"omstandigheter":14054,"stallt":14055,"utvecklats":14056,"iso":14057,"##dack":14058,"##drede":14059,"cerro":14060,"utbetal":14061,"##ksjonen":14062,"oppgaver":14063,"intervjuer":14064,"##utvikling":14065,"svarigheter":14066,"smaka":14067,"1979":14068,"værktøj":14069,"tjanar":14070,"nei":14071,"flask":14072,"1973":14073,"##forfatt":14074,"tredjedel":14075,"myndigheder":14076,"mødet":14077,"byte":14078,"1975":14079,"about":14080,"militær":14081,"##stro":14082,"aja":14083,"##yss":14084,"godkjen":14085,"scre":14086,"sokande":14087,"domstolen":14088,"##ville":14089,"normer":14090,"##ekonom":14091,"gallde":14092,"revolution":14093,"smuts":14094,"hk":14095,"clo":14096,"ign":14097,"##retning":14098,"brad":14099,"farfar":14100,"syskon":14101,"semin":14102,"anfall":14103,"plagg":14104,"ankomst":14105,"dessuten":14106,"beregnet":14107,"125":14108,"isb":14109,"lyset":14110,"##speriod":14111,"muligvis":14112,"##vision":14113,"##sand":14114,"1974":14115,"mynt":14116,"undersokningen":14117,"tænkt":14118,"grunder":14119,"nrk":14120,"##cle":14121,"progress":14122,"bryn":14123,"udst":14124,"arende":14125,"##stek":14126,"præsid":14127,"services":14128,"klippa":14129,"gold":14130,"##mag":14131,"1972":14132,"mount":14133,"##ovens":14134,"spørgsmalet":14135,"##arig":14136,"holdes":14137,"usch":14138,"gilt":14139,"anvants":14140,"behandles":14141,"##øjelse":14142,"##værdig":14143,"##unget":14144,"spelen":14145,"favoritter":14146,"samsung":14147,"alg":14148,"fungerade":14149,"begag":14150,"samarbejd":14151,"flam":14152,"vg":14153,"ersatta":14154,"##amerika":14155,"etablere":14156,"##ationerna":14157,"avslutade":14158,"helger":14159,"leif":14160,"parørende":14161,"balkong":14162,"sverigedem":14163,"##visar":14164,"kasser":14165,"##entre":14166,"informations":14167,"gods":14168,"cons":14169,"hahaha":14170,"beaut":14171,"##bilen":14172,"eksamen":14173,"grunnleg":14174,"nyheder":14175,"forventet":14176,"paret":14177,"analsex":14178,"klarade":14179,"##iks":14180,"##tro":14181,"bjork":14182,"color":14183,"dokumentar":14184,"fortalt":14185,"##løbet":14186,"forplikt":14187,"befolknings":14188,"slapptes":14189,"kristianstad":14190,"##valla":14191,"gymnast":14192,"konstatera":14193,"seksuelle":14194,"rulle":14195,"klikke":14196,"grepp":14197,"kolleg":14198,"evaluering":14199,"rejal":14200,"tunge":14201,"copen":14202,"sykehus":14203,"chanser":14204,"aktører":14205,"race":14206,"##betyg":14207,"any":14208,"producera":14209,"kampa":14210,"ingred":14211,"##pladsen":14212,"tomas":14213,"##berget":14214,"tradgards":14215,"##ernes":14216,"høye":14217,"##givningen":14218,"redeg":14219,"hypp":14220,"##dis":14221,"##peut":14222,"##marker":14223,"swingers":14224,"##itch":14225,"##ulen":14226,"##øya":14227,"sound":14228,"bildades":14229,"biljett":14230,"varderingar":14231,"lagstiftning":14232,"gissa":14233,"##sbru":14234,"##ikan":14235,"##relater":14236,"redovisas":14237,"læder":14238,"##ingene":14239,"provat":14240,"forvarva":14241,"omsattning":14242,"vitlok":14243,"asp":14244,"danskere":14245,"blind":14246,"garage":14247,"##omal":14248,"hektar":14249,"brutt":14250,"##lakare":14251,"tillverkad":14252,"ansat":14253,"1971":14254,"##rive":14255,"beslutade":14256,"malen":14257,"cel":14258,"##chester":14259,"stak":14260,"rubriken":14261,"konkurrence":14262,"##splikt":14263,"lyfter":14264,"chic":14265,"representant":14266,"##sning":14267,"rein":14268,"borgen":14269,"##tral":14270,"kommunfullmaktige":14271,"byxor":14272,"klickar":14273,"##col":14274,"organisasjoner":14275,"gula":14276,"##sajt":14277,"dumt":14278,"##isol":14279,"anslag":14280,"friske":14281,"opsta":14282,"upptra":14283,"aflever":14284,"##beskytt":14285,"##usjoner":14286,"##stock":14287,"slutat":14288,"ultim":14289,"##boy":14290,"forskningen":14291,"abner":14292,"øverste":14293,"cou":14294,"view":14295,"##sang":14296,"maksim":14297,"##esa":14298,"satsning":14299,"177":14300,"efterl":14301,"##ydde":14302,"verdi":14303,"gps":14304,"saks":14305,"samarbetet":14306,"anta":14307,"smaker":14308,"##bytte":14309,"##inlagg":14310,"centrale":14311,"now":14312,"camilla":14313,"##kus":14314,"oken":14315,"spillede":14316,"abs":14317,"##sledare":14318,"extrem":14319,"sakaldte":14320,"pyss":14321,"trækker":14322,"lasning":14323,"skib":14324,"fokuserar":14325,"afsp":14326,"tenker":14327,"trycker":14328,"tabel":14329,"publiceras":14330,"cand":14331,"##stran":14332,"arme":14333,"hap":14334,"fien":14335,"aftonbladet":14336,"fundament":14337,"ventilation":14338,"klog":14339,"vaggar":14340,"##eth":14341,"halvtim":14342,"##imin":14343,"##miljø":14344,"stue":14345,"stabilitet":14346,"bero":14347,"uppdatering":14348,"hm":14349,"##prosjekt":14350,"legitim":14351,"verktøy":14352,"##olar":14353,"fylld":14354,"fos":14355,"interesseret":14356,"vedlike":14357,"mængde":14358,"##idenskab":14359,"##stallande":14360,"importer":14361,"regiss":14362,"grekland":14363,"##ents":14364,"deltagere":14365,"elevene":14366,"reform":14367,"kampanjer":14368,"stel":14369,"aterham":14370,"tænder":14371,"pensjon":14372,"varumark":14373,"##staller":14374,"medlemmarna":14375,"##33":14376,"##video":14377,"effektivitet":14378,"ledelsen":14379,"##lassen":14380,"mister":14381,"pornofilm":14382,"ic":14383,"kyll":14384,"kilder":14385,"tann":14386,"nasjonale":14387,"opin":14388,"##smæssigt":14389,"mønster":14390,"maken":14391,"forretnings":14392,"seier":14393,"##svag":14394,"begaran":14395,"forbattring":14396,"ledamot":14397,"mira":14398,"vana":14399,"panel":14400,"forsor":14401,"øjnene":14402,"amanda":14403,"skilsm":14404,"prestand":14405,"##gorande":14406,"oppfølg":14407,"korv":14408,"mora":14409,"##dahl":14410,"bratt":14411,"foreslas":14412,"forkert":14413,"lockar":14414,"serveras":14415,"nyan":14416,"##feldt":14417,"##kansla":14418,"##verre":14419,"lakaren":14420,"lagsta":14421,"varumarken":14422,"##okument":14423,"pojke":14424,"##sloven":14425,"beskytte":14426,"skadespelare":14427,"##fu":14428,"alfa":14429,"##nævnte":14430,"hagen":14431,"##agelse":14432,"##jev":14433,"slump":14434,"##instit":14435,"##ikerer":14436,"forvaring":14437,"baren":14438,"##oliga":14439,"tegne":14440,"##inte":14441,"suc":14442,"morgenmad":14443,"##vapen":14444,"tumbl":14445,"adfærd":14446,"smalt":14447,"belaget":14448,"##agande":14449,"beteck":14450,"oppnas":14451,"deltagelse":14452,"##45":14453,"bygningen":14454,"sælge":14455,"vardera":14456,"vender":14457,"opplysninger":14458,"aterforsaljare":14459,"naede":14460,"american":14461,"##arten":14462,"##work":14463,"reduc":14464,"experter":14465,"prosjekter":14466,"##miljo":14467,"innebærer":14468,"rekrutt":14469,"samfundet":14470,"1983":14471,"udlandet":14472,"asien":14473,"middagen":14474,"dertil":14475,"grønn":14476,"jørgen":14477,"hangde":14478,"fixade":14479,"overklag":14480,"##utrustning":14481,"skivor":14482,"diagram":14483,"kvinnorna":14484,"##omy":14485,"festivalen":14486,"odd":14487,"strang":14488,"1976":14489,"mistet":14490,"delade":14491,"cykla":14492,"trakt":14493,"prostitu":14494,"nyanser":14495,"##udstyr":14496,"returner":14497,"kock":14498,"chokolade":14499,"kladd":14500,"adskill":14501,"##tals":14502,"page":14503,"kaj":14504,"tommy":14505,"satts":14506,"##iana":14507,"konfir":14508,"udvikler":14509,"tacker":14510,"kristendom":14511,"normala":14512,"##yske":14513,"sofa":14514,"poul":14515,"frø":14516,"frankrig":14517,"hogskolan":14518,"exemplar":14519,"##assa":14520,"dead":14521,"installningar":14522,"debat":14523,"forbr":14524,"sættes":14525,"havn":14526,"onska":14527,"##edon":14528,"vikar":14529,"merc":14530,"##jening":14531,"ded":14532,"fakult":14533,"kompakt":14534,"##even":14535,"##maren":14536,"breda":14537,"wien":14538,"galopp":14539,"inlogg":14540,"discipl":14541,"##knipp":14542,"hertil":14543,"radik":14544,"handels":14545,"varumarke":14546,"1978":14547,"ulov":14548,"frihed":14549,"helena":14550,"tillfalligt":14551,"wash":14552,"ansøgning":14553,"foretagare":14554,"nettstedet":14555,"stjarnor":14556,"##makten":14557,"benyttet":14558,"forlat":14559,"arbeten":14560,"tillsyn":14561,"##gb":14562,"##yen":14563,"dubbla":14564,"logo":14565,"sodertalje":14566,"hensigt":14567,"##verksamheten":14568,"mach":14569,"##munt":14570,"løfte":14571,"lagret":14572,"##direktor":14573,"grænser":14574,"copyr":14575,"utgav":14576,"##win":14577,"handikapp":14578,"quiz":14579,"elektrisk":14580,"##penge":14581,"linjen":14582,"sjunga":14583,"sesong":14584,"deil":14585,"tumblr":14586,"##sforet":14587,"anmeldelser":14588,"ingrediens":14589,"madde":14590,"anteck":14591,
[...]
