{"version":"1.0","truncation":null,"padding":null,"added_tokens":[{"id":0,"special":true,"content":"[PAD]","single_word":false,"lstrip":false,"rstrip":false,"normalized":false},{"id":1,"special":true,"content":"[UNK]","single_word":false,"lstrip":false,"rstrip":false,"normalized":false},{"id":2,"special":true,"content":"[CLS]","single_word":false,"lstrip":false,"rstrip":false,"normalized":false},{"id":3,"special":true,"content":"[SEP]","single_word":false,"lstrip":false,"rstrip":false,"normalized":false},{"id":4,"special":true,"content":"[MASK]","single_word":false,"lstrip":false,"rstrip":false,"normalized":false}],"normalizer":{"type":"BertNormalizer","clean_text":true,"handle_chinese_chars":true,"strip_accents":null,"lowercase":true},"pre_tokenizer":{"type":"BertPreTokenizer"},"post_processor":null,"decoder":{"type":"WordPiece","prefix":"##","cleanup":true},"model":{"type":"WordPiece","unk_token":"[UNK]","continuing_subword_prefix":"##","max_input_chars_per_word":100,"vocab":{"[PAD]":0,"[UNK]":1,"[CLS]":2,"[SEP]":3,"[MASK]":4,"!":5,"\"":6,"#":7,"$":8,"%":9,"&":10,"'":11,"(":12,")":13,"*":14,"+":15,",":16,"-":17,".":18,"/":19,"0":20,"1":21,"2":22,"3":23,"4":24,"5":25,"6":26,"7":27,"8":28,"9":29,":":30,";":31,"<":32,"=":33,">":34,"?":35,"@":36,"[":37,"\\":38,"]":39,"^":40,"_":41,"`":42,"a":43,"b":44,"c":45,"d":46,"e":47,"f":48,"g":49,"h":50,"i":51,"j":52,"k":53,"l":54,"m":55,"n":56,"o":57,"p":58,"q":59,"r":60,"s":61,"t":62,"u":63,"v":64,"w":65,"x":66,"y":67,"z":68,"{":69,"|":70,"}":71,"~":72,"¡":73,"¢":74,"£":75,"¤":76,"¥":77,"¦":78,"§":79,"¨":80,"©":81,"ª":82,"«":83,"¬":84,"®":85,"¯":86,"°":87,"±":88,"²":89,"³":90,"´":91,"µ":92,"¶":93,"·":94,"¸":95,"¹":96,"º":97,"»":98,"¼":99,"½":100,"¾":101,"¿":102,"×":103,"ß":104,"æ":105,"ð":106,"÷":107,"ø":108,"þ":109,"đ":110,"ħ":111,"ı":112,"ł":113,"ŋ":114,"œ":115,"ƒ":116,"ɑ":117,"ɔ":118,"ə":119,"ɛ":120,"ʹ":121,"ʿ":122,"ˆ":123,"ˇ":124,"ˈ":125,"ː":126,"˚":127,"ˮ":128,"ͼ":129,"α":130,"β":131,"γ":132,"δ":133,"ε":134,"ζ":135,"η":136,"θ":137,"ι":138,"κ":139,"λ":140,"μ":141,"ν":142,"ξ":143,"ο":144,"π":145,"ρ":146,"ς":147,"σ":148,"τ":149,"υ":150,"φ":151,"χ":152,"ψ":153,"ω":154,"ϕ":155,"а":156,"б":157,"в":158,"г":159,"д":160,"е":161,"ж":162,"з":163,"и":164,"к":165,"л":166,"м":167,"н":168,"о":169,"п":170,"р":171,"с":172,"т":173,"у":174,"ф":175,"х":176,"ц":177,"ч":178,"ш":179,"щ":180,"ъ":181,"ы":182,"ь":183,"э":184,"ю":185,"я":186,"ђ":187,"є":188,"ѕ":189,"і":190,"ј":191,"љ":192,"ґ":193,"һ":194,"ա":195,"ե":196,"ն":197,"ո":198,"ր":199,"א":200,"ב":201,"ג":202,"ד":203,"ה":204,"ו":205,"ז":206,"ח":207,"ט":208,"י":209,"כ":210,"ל":211,"ם":212,"מ":213,"ן":214,"נ":215,"ס":216,"ע":217,"פ":218,"צ":219,"ק":220,"ר":221,"ש":222,"ת":223,"،":224,"ء":225,"ا":226,"ب":227,"ة":228,"ت":229,"ث":230,"ج":231,"ح":232,"خ":233,"د":234,"ذ":235,"ر":236,"ز":237,"س":238,"ش":239,"ص":240,"ض":241,"ط":242,"ظ":243,"ع":244,"غ":245,"ـ":246,"ف":247,"ق":248,"ك":249,"ل":250,"م":251,"ن":252,"ه":253,"و":254,"ى":255,"ي":256,"پ":257,"چ":258,"ک":259,"گ":260,"ی":261,"ە":262,"क":263,"ग":264,"ज":265,"त":266,"द":267,"न":268,"प":269,"ब":270,"म":271,"य":272,"र":273,"ल":274,"व":275,"स":276,"ह":277,"ा":278,"ि":279,"ी":280,"ो":281,"ক":282,"ত":283,"ন":284,"ব":285,"ম":286,"য":287,"র":288,"ল":289,"া":290,"ি":291,"ে":292,"க":293,"த":294,"ன":295,"ப":296,"ம":297,"ர":298,"ா":299,"ி":300,"ு":301,"ก":302,"ข":303,"ค":304,"ง":305,"จ":306,"ช":307,"ด":308,"ต":309,"ท":310,"น":311,"บ":312,"ป":313,"พ":314,"ม":315,"ย":316,"ร":317,"ล":318,"ว":319,"ส":320,"ห":321,"อ":322,"ะ":323,"า":324,"฿":325,"เ":326,"แ":327,"โ":328,"ไ":329,"་":330,"ა":331,"ე":332,"ი":333,"ლ":334,"მ":335,"ნ":336,"ო":337,"რ":338,"ს":339,"ᄀ":340,"ᄂ":341,"ᄃ":342,"ᄅ":343,"ᄆ":344,"ᄇ":345,"ᄉ":346,"ᄋ":347,"ᄌ":348,"ᄎ":349,"ᄏ":350,"ᄐ":351,"ᄑ":352,"ᄒ":353,"ᅡ":354,"ᅢ":355,"ᅥ":356,"ᅦ":357,"ᅧ":358,"ᅩ":359,"ᅪ":360,"ᅬ":361,"ᅭ":362,"ᅮ":363,"ᅲ":364,"ᅳ":365,"ᅴ":366,"ᅵ":367,"ᆨ":368,"ᆫ":369,"ᆯ":370,"ᆷ":371,"ᆸ":372,"ᆼ":373,"ᐈ":374,"‐":375,"‑":376,"‒":377,"–":378,"—":379,"―":380,"‘":381,"’":382,"‚":383,"“":384,"”":385,"„":386,"†":387,"‡":388,"•":389,"…":390,"‰":391,"′":392,"″":393,"‹":394,"›":395,"₂":396,"₨":397,"€":398,"℃":399,"№":400,"™":401,"←":402,"↑":403,"→":404,"↓":405,"⇒":406,"−":407,"√":408,"≈":409,"≤":410,"≥":411,"⋅":412,"─":413,"■":414,"□":415,"▪":416,"▫":417,"▲":418,"▶":419,"►":420,"▻":421,"▼":422,"○":423,"●":424,"☀":425,"★":426,"☆":427,"☺":428,"♀":429,"♡":430,"♣":431,"♥":432,"♦":433,"✅":434,"✌":435,"✓":436,"✔":437,"✚":438,"✨":439,"✭":440,"✰":441,"❄":442,"❑":443,"❤":444,"➔":445,"⠀":446,"⭐":447,"ⰰ":448,"、":449,"。":450,"「":451,"」":452,"【":453,"】":454,"あ":455,"い":456,"う":457,"え":458,"お":459,"か":460,"き":461,"く":462,"け":463,"こ":464,"さ":465,"し":466,"す":467,"せ":468,"そ":469,"た":470,"ち":471,"っ":472,"つ":473,"て":474,"と":475,"な":476,"に":477,"の":478,"は":479,"ま":480,"み":481,"め":482,"も":483,"や":484,"よ":485,"ら":486,"り":487,"る":488,"れ":489,"わ":490,"を":491,"ん":492,"ア":493,"ィ":494,"イ":495,"ウ":496,"ェ":497,"エ":498,"オ":499,"カ":500,"キ":501,"ク":502,"ケ":503,"コ":504,"サ":505,"シ":506,"ス":507,"セ":508,"タ":509,"チ":510,"ッ":511,"ツ":512,"テ":513,"ト":514,"ナ":515,"ニ":516,"ネ":517,"ハ":518,"ヒ":519,"フ":520,"ヘ":521,"ホ":522,"マ":523,"ミ":524,"ム":525,"メ":526,"モ":527,"ャ":528,"ュ":529,"ョ":530,"ラ":531,"リ":532,"ル":533,"レ":534,"ロ":535,"ワ":536,"ン":537,"・":538,"ー":539,"䄀":540,"䈀":541,"䐀":542,"䔀":543,"䜀":544,"䠀":545,"䤀":546,"䬀":547,"䰀":548,"䴀":549,"一":550,"七":551,"万":552,"三":553,"上":554,"下":555,"不":556,"与":557,"世":558,"业":559,"东":560,"个":561,"中":562,"为":563,"主":564,"么":565,"之":566,"乐":567,"九":568,"也":569,"乡":570,"买":571,"了":572,"争":573,"事":574,"二":575,"于":576,"五":577,"交":578,"产":579,"京":580,"人":581,"什":582,"今":583,"他":584,"仙":585,"代":586,"以":587,"们":588,"件":589,"伀":590,"会":591,"传":592,"位":593,"体":594,"何":595,"作":596,"你":597,"使":598,"供":599,"保":600,"信":601,"元":602,"光":603,"克":604,"免":605,"入":606,"全":607,"八":608,"公":609,"六":610,"关":611,"其":612,"内":613,"円":614,"册":615,"准":616,"出":617,"刀":618,"分":619,"划":620,"创":621,"利":622,"到":623,"制":624,"前":625,"力":626,"加":627,"务":628,"动":629,"势":630,"動":631,"匀":632,"化":633,"北":634,"区":635,"十":636,"华":637,"单":638,"南":639,"博":640,"原":641,"县":642,"及":643,"双":644,"发":645,"取":646,"口":647,"古":648,"可":649,"台":650,"号":651,"司":652,"吀":653,"合":654,"同":655,"名":656,"后":657,"吗":658,"和":659,"品":660,"哪":661,"唀":662,"商":663,"器":664,"四":665,"回":666,"国":667,"图":668,"在":669,"地":670,"场":671,"址":672,"坛":673,"城":674,"堂":675,"場":676,"士":677,"外":678,"多":679,"大":680,"天":681,"太":682,"头":683,"奖":684,"女":685,"好":686,"如":687,"姐":688,"娱":689,"婆":690,"子":691,"字":692,"学":693,"安":694,"官":695,"定":696,"宝":697,"实":698,"客":699,"室":700,"家":701,"富":702,"对":703,"小":704,"少":705,"就":706,"尾":707,"展":708,"山":709,"川":710,"州":711,"工":712,"巧":713,"市":714,"布":715,"平":716,"年":717,"广":718,"庆":719,"库":720,"店":721,"度":722,"建":723,"开":724,"式":725,"当":726,"录":727,"彩":728,"影":729,"律":730,"得":731,"微":732,"德":733,"心":734,"必":735,"快":736,"怎":737,"思":738,"性":739,"总":740,"情":741,"意":742,"感":743,"戏":744,"成":745,"我":746,"户":747,"所":748,"手":749,"打":750,"技":751,"投":752,"报":753,"拉":754,"持":755,"挂":756,"推":757,"提":758,"播":759,"教":760,"数":761,"文":762,"料":763,"斯":764,"新":765,"方":766,"族":767,"无":768,"日":769,"时":770,"明":771,"星":772,"是":773,"時":774,"更":775,"最":776,"月":777,"有":778,"服":779,"期":780,"木":781,"本":782,"机":783,"杀":784,"村":785,"来":786,"東":787,"林":788,"枚":789,"果":790,"校":791,"样":792,"格":793,"業":794,"次":795,"正":796,"比":797,"民":798,"氓":799,"水":800,"江":801,"沙":802,"河":803,"法":804,"波":805,"注":806,"活":807,"流":808,"测":809,"海":810,"清":811,"港":812,"游":813,"湖":814,"源":815,"澳":816,"点":817,"爱":818,"片":819,"版":820,"牌":821,"牛":822,"物":823,"特":824,"狗":825,"玄":826,"王":827,"玩":828,"现":829,"球":830,"理":831,"生":832,"用":833,"田":834,"电":835,"画":836,"界":837,"登":838,"白":839,"百":840,"的":841,"皇":842,"盘":843,"目":844,"盲":845,"直":846,"相":847,"看":848,"県":849,"真":850,"着":851,"知":852,"石":853,"码":854,"社":855,"神":856,"票":857,"福":858,"科":859,"程":860,"空":861,"立":862,"站":863,"第":864,"等":865,"算":866,"管":867,"精":868,"系":869,"红":870,"线":871,"组":872,"经":873,"结":874,"网":875,"美":876,"群":877,"老":878,"者":879,"肖":880,"能":881,"自":882,"色":883,"花":884,"英":885,"行":886,"街":887,"表":888,"西":889,"要":890,"見":891,"规":892,"视":893,"解":894,"語":895,"计":896,"记":897,"论":898,"设":899,"诗":900,"财":901,"费":902,"资":903,"赌":904,"赛":905,"赢":906,"走":907,"足":908,"跑":909,"路":910,"身":911,"车":912,"软":913,"载":914,"过":915,"这":916,"进":917,"送":918,"选":919,"通":920,"道":921,"部":922,"都":923,"里":924,"重":925,"金":926,"钱":927,"铁":928,"镇":929,"长":930,"間":931,"门":932,"阳":933,"际":934,"限":935,"院":936,"集":937,"霸":938,"青":939,"面":940,"音":941,"预":942,"食":943,"香":944,"马":945,"高":946,"黄":947,"龙":948,"ﬁ":949,"ﬂ":950,"！":951,"（":952,"）":953,"，":954,"：":955,"？":956,"ｩ":957,"ﾞ":958,"𝐞":959,"🌟":960,"🌸":961,"🎉":962,"🏻":963,"🏼":964,"👊":965,"👌":966,"👍":967,"👏":968,"💕":969,"💖":970,"💗":971,"💙":972,"💚":973,"💛":974,"💜":975,"💪":976,"🔥":977,"😀":978,"😁":979,"😂":980,"😃":981,"😄":982,"😅":983,"😆":984,"😉":985,"😊":986,"😋":987,"😍":988,"😎":989,"😘":990,"😛":991,"😜":992,"😦":993,"😬":994,"😱":995,"😳":996,"🙁":997,"🙂":998,"🙄":999,"🙈":1000,"🙌":1001,"🙏":1002,"🤔":1003,"🤗":1004,"##a":1005,"##n":1006,"##d":1007,"##g":1008,"##o":1009,"##s":1010,"##e":1011,"##t":1012,"##r":1013,"##i":1014,"##l":1015,"##u":1016,"##m":1017,"##k":1018,"##f":1019,"##h":1020,"##b":1021,"##p":1022,"##v":1023,"##c":1024,"##j":1025,"##и":1026,"##я":1027,"##н":1028,"##w":1029,"##ا":1030,"##ر":1031,"##و":1032,"##ن":1033,"##د":1034,"##ه":1035,"##9":1036,"##2":1037,"##8":1038,"##ε":1039,"##ρ":1040,"##α":1041,"##κ":1042,"##ς":1043,"##ø":1044,"##y":1045,"##x":1046,"##1":1047,"##4":1048,"##z":1049,"##q":1050,"##3":1051,"##5":1052,"##æ":1053,"##6":1054,"##0":1055,"##ᅪ":1056,"##ᆼ":1057,"##ᄀ":1058,"##ᅢ":1059,"##ᄆ":1060,"##ᅵ":1061,"##ᄏ":1062,"##ᅳ":1063,"##ᆯ":1064,"##ᄅ":1065,"##ᅥ":1066,"##ᆸ":1067,"##7":1068,"##°":1069,"##˚":1070,"##ل":1071,"##ي":1072,"##چ":1073,"##λ":1074,"##β":1075,"##ι":1076,"##ν":1077,"##ف":1078,"##ª":1079,"##ナ":1080,"##カ":1081,"##ア":1082,"##リ":1083,"##ー":1084,"##э":1085,"##р":1086,"##о":1087,"##г":1088,"##д":1089,"##м":1090,"##а":1091,"##с":1092,"##ж":1093,"##е":1094,"##đ":1095,"##ц":1096,"##ь":1097,"##в":1098,"##л":1099,"##т":1100,"##ı":1101,"##у":1102,"##ы":1103,"##ו":1104,"##ל":1105,"##ד":1106,"##ה":1107,"##×":1108,"##ト":1109,"##フ":1110,"##イ":1111,"##☀":1112,"##❤":1113,"##♥":1114,"##´":1115,"##γ":1116,"##ο":1117,"##¹":1118,"##®":1119,"##ш":1120,"##¬":1121,"##م":1122,"##ع":1123,"##や":1124,"##к":1125,"##ᅦ":1126,"##ᄌ":1127,"##ᅩ":1128,"##п":1129,"##ј":1130,"##ە":1131,"##¨":1132,"##θ":1133,"##η":1134,"##あ":1135,"##け":1136,"##る":1137,"##こ":1138,"##と":1139,"##に":1140,"##ﾞ":1141,"##ю":1142,"##б":1143,"##з":1144,"##¤":1145,"##く":1146,"##ん":1147,"##て":1148,"##す":1149,"##か":1150,"##ा":1151,"##द":1152,"##त":1153,"##न":1154,"##ت":1155,"##ی":1156,"##ب":1157,"##ч":1158,"##ص":1159,"##þ":1160,"##¸":1161,"##オ":1162,"##ラ":1163,"##サ":1164,"##ス":1165,"##ß":1166,"##ق":1167,"##प":1168,"##ש":1169,"##א":1170,"##ᅡ":1171,"##ᄂ":1172,"##ᆫ":1173,"##ʹ":1174,"##π":1175,"##υ":1176,"##μ":1177,"##ʿ":1178,"##ﬁ":1179,"##щ":1180,"##ャ":1181,"##ッ":1182,"##タ":1183,"##อ":1184,"##ง":1185,"##า":1186,"##ไ":1187,"##ท":1188,"##ย":1189,"##ヘ":1190,"##ン":1191,"##χ":1192,"##σ":1193,"##τ":1194,"##โ":1195,"##ต":1196,"##ะ":1197,"##ว":1198,"##ม":1199,"##ด":1200,"##เ":1201,"##ล":1202,"##ᄇ":1203,"##ュ":1204,"##€":1205,"##ð":1206,"##ა":1207,"##ლ":1208,"##ი":1209,"##ს":1210,"##س":1211,"##ة":1212,"##😀":1213,"##💪":1214,"##δ":1215,"##ᄎ":1216,"##ハ":1217,"##ワ":1218,"##ホ":1219,"##の":1220,"##ə":1221,"##צ":1222,"##ר":1223,"##ᄃ":1224,"##ζ":1225,"##🏻":1226,"##מ":1227,"##י":1228,"##נ":1229,"##ב":1230,"##っ":1231,"##メ":1232,"##ニ":1233,"##ω":1234,"##¥":1235,"##گ":1236,"##せ":1237,"##ض":1238,"##ط":1239,"##😊":1240,"##ク":1241,"##な":1242,"##ᅮ":1243,"##ᄉ":1244,"##ᄐ":1245,"##ᆨ":1246,"##¦":1247,"##🏼":1248,"##ᅲ":1249,"##ᄒ":1250,"##ᄋ":1251,"##і":1252,"##ł":1253,"##ґ":1254,"##ͼ":1255,"##х":1256,"##ش":1257,"##ک":1258,"##ك":1259,"##ヒ":1260,"##ก":1261,"##น":1262,"##ส":1263,"##ร":1264,"##ᅧ":1265,"##ᅴ":1266,"##ħ":1267,"##を":1268,"##り":1269,"##ル":1270,"##™":1271,"##র":1272,"##რ":1273,"##ე":1274,"##み":1275,"##👌":1276,"##ி":1277,"##ர":1278,"##ு":1279,"##க":1280,"##த":1281,"##ィ":1282,"##ら":1283,"##💖":1284,"##そ":1285,"##φ":1286,"##き":1287,"##チ":1288,"##ョ":1289,"##±":1290,"##♀":1291,"##ם":1292,"##シ":1293,"##ロ":1294,"##□":1295,"##÷":1296,"##😉":1297,"##خ":1298,"##ф":1299,"##ˈ":1300,"##ذ":1301,"##र":1302,"##も":1303,"##љ":1304,"##ま":1305,"##া":1306,"##ম":1307,"##ক":1308,"##მ":1309,"##ნ":1310,"##し":1311,"##い":1312,"##³":1313,"##た":1314,"##う":1315,"##キ":1316,"##ى":1317,"##🙏":1318,"##ح":1319,"##ء":1320,"##ѕ":1321,"##✓":1322,"##−":1323,"##🤗":1324,"##ป":1325,"##ห":1326,"##ช":1327,"##ব":1328,"##ি":1329,"##✨":1330,"##ج":1331,"##ъ":1332,"##ˆ":1333,"##つ":1334,"##غ":1335,"##テ":1336,"##😁":1337,"##ո":1338,"##ր":1339,"##ն":1340,"##ե":1341,"##œ":1342,"##💕":1343,"##ŋ":1344,"##ɔ":1345,"##𝐞":1346,"##һ":1347,"##👏":1348,"##✌":1349,"##👍":1350,"##👊":1351,"##£":1352,"##ظ":1353,"##پ":1354,"##♡":1355,"##↑":1356,"##☆":1357,"##🎉":1358,"##😳":1359,"##ز":1360,"##😅":1361,"##😍":1362,"##れ":1363,"##は":1364,"##♣":1365,"##ネ":1366,"##ウ":1367,"##よ":1368,"##ᆷ":1369,"##♦":1370,"##ข":1371,"##₂":1372,"##½":1373,"##🌟":1374,"##ː":1375,"##お":1376,"##レ":1377,"##め":1378,"##ツ":1379,"##😂":1380,"##ᄑ":1381,"##○":1382,"##ת":1383,"##פ":1384,"##ח":1385,"##❄":1386,"##エ":1387,"##ק":1388,"##🙌":1389,"##ミ":1390,"##😬":1391,"##ェ":1392,"##ப":1393,"##ன":1394,"##য":1395,"##ল":1396,"##ে":1397,"##²":1398,"##→":1399,"##ह":1400,"##コ":1401,"##є":1402,"##☺":1403,"##🙈":1404,"##כ":1405,"##ג":1406,"##わ":1407,"##ム":1408,"##ত":1409,"##ন":1410,"##म":1411,"##ﬂ":1412,"##ケ":1413,"##ז":1414,"##ן":1415,"##ˮ":1416,"##😜":1417,"##©":1418,"##マ":1419,"##ค":1420,"##พ":1421,"##บ":1422,"##จ":1423,"##え":1424,"##ɛ":1425,"##⇒":1426,"##य":1427,"##ी":1428,"##💜":1429,"##ग":1430,"##🙂":1431,"##ち":1432,"##モ":1433,"##さ":1434,"##😎":1435,"##ா":1436,"##─":1437,"##セ":1438,"##ט":1439,"##►":1440,"##ξ":1441,"##ო":1442,"##¢":1443,"##ـ":1444,"##■":1445,"##😃":1446,"##ᅭ":1447,"##🔥":1448,"##😄":1449,"##ம":1450,"##ल":1451,"##µ":1452,"##ث":1453,"##ա":1454,"##😘":1455,"##⋅":1456,"##แ":1457,"##ס":1458,"##º":1459,"##स":1460,"##ि":1461,"##⠀":1462,"##ע":1463,"##💗":1464,"##ᅬ":1465,"##≈":1466,"##😋":1467,"##क":1468,"##ˇ":1469,"##व":1470,"##😛":1471,"##ƒ":1472,"##😱":1473,"##ज":1474,"##ब":1475,"##●":1476,"##←":1477,"##≤":1478,"##ɑ":1479,"##ो":1480,"##🙄":1481,"##💛":1482,"##🌸":1483,"##¼":1484,"##▼":1485,"##№":1486,"##¯":1487,"##↓":1488,"##ђ":1489,"##⭐":1490,"##💙":1491,"##✔":1492,"##💚":1493,"##😆":1494,"##√":1495,"##🤔":1496,"##℃":1497,"##😦":1498,"##ψ":1499,"##★":1500,"##≥":1501,"##¾":1502,"##✅":1503,"##▪":1504,"##▫":1505,"##ϕ":1506,"##▻":1507,"##🙁":1508,"##▶":1509,"##▲":1510,"##ｩ":1511,"##ⰰ":1512,"##✰":1513,"##➔":1514,"##✭":1515,"##฿":1516,"##✚":1517,"##❑":1518,"##er":1519,"##ar":1520,"##en":1521,"##an":1522,"##or":1523,"##et":1524,"##tt":1525,"##in":1526,"##ll":1527,"##st":1528,"##om":1529,"##ag":1530,"##ch":1531,"##ig":1532,"och":1533,"##ed":1534,"for":1535,"##on":1536,"##at":1537,"##de":1538,"##ing":1539,"##al":1540,"ar":1541,"##ra":1542,"##sk":1543,"in":1544,"det":1545,"en":1546,"##el":1547,"att":1548,"pa":1549,"ti":1550,"som":1551,"vi":1552,"av":1553,"##te":1554,"##ck":1555,"sa":1556,"med":1557,"##na":1558,"##kt":1559,"var":1560,"st":1561,"##re":1562,"sk":1563,"##pp":1564,"##as":1565,"har":1566,"an":1567,"##un":1568,"de":1569,"##and":1570,"##sa":1571,"##ad":1572,"till":1573,"jag":1574,"##ning":1575,"##ter":1576,"##ol":1577,"den":1578,"##il":1579,"##ro":1580,"##ik":1581,"##all":1582,"om":1583,"##lig":1584,"##it":1585,"##ver":1586,"##der":1587,"##is":1588,"##es":1589,"##ang":1590,"##ade":1591,"ut":1592,"##am":1593,"kan":1594,"##att":1595,"bl":1596,"##iv":1597,"##em":1598,"##ast":1599,"og":1600,"##ur":1601,"##id":1602,"##eg":1603,"inte":1604,"##ot":1605,"##isk":1606,"##ss":1607,"ett":1608,"du":1609,"man":1610,"##ran":1611,"##ion":1612,"men":1613,"##for":1614,"##are":1615,"kom":1616,"##ta":1617,"##og":1618,"##ok":1619,"all":1620,"##ut":1621,"##ller":1622,"##itt":1623,"er":1624,"##het":1625,"##ande":1626,"##est":1627,"##ent":1628,"un":1629,"sp":1630,"##us":1631,"##var":1632,"##ist":1633,"##ak":1634,"##mer":1635,"##od":1636,"upp":1637,"sam":1638,"##inn":1639,"##ens":1640,"##ru":1641,"nar":1642,"##ul":1643,"##ort":1644,"se":1645,"eller":1646,"han":1647,"##ell":1648,"##yck":1649,"be":1650,"til":1651,"##ska":1652,"##ri":1653,"pro":1654,"##art":1655,"min":1656,"##ne":1657,"##den":1658,"##os":1659,"##ma":1660,"fran":1661,"##igt":1662,"ska":1663,"##ir":1664,"hel":1665,"##la":1666,"bar":1667,"##fter":1668,"##gen":1669,"under":1670,"over":1671,"fra":1672,"ha":1673,"fl":1674,"##ud":1675,"##ek":1676,"##ull":1677,"##ill":1678,"nag":1679,"kl":1680,"kon":1681,"##um":1682,"and":1683,"##ker":1684,"##sp":1685,"##va":1686,"fa":1687,"##op":1688,"##sl":1689,"##ation":1690,"20":1691,"##bb":1692,"##ord":1693,"##ant":1694,"##yg":1695,"far":1696,"at":1697,"ny":1698,"al":1699,"##ick":1700,"##ft":1701,"val":1702,"##ff":1703,"dar":1704,"##je":1705,"##se":1706,"##ser":1707,"##arna":1708,"da":1709,"##ke":1710,"##und":1711,"##sen":1712,"efter":1713,"stor":1714,"sig":1715,"##ost":1716,"li":1717,"per":1718,"nu":1719,"vara":1720,"##ger":1721,"del":1722,"ta":1723,"##ett":1724,"##ov":1725,"sl":1726,"##ør":1727,"##ock":1728,"sj":1729,"##ligt":1730,"##ev":1731,"##dag":1732,"gr":1733,"##sta":1734,"finn":1735,"##aste":1736,"pl":1737,"dag":1738,"##bl":1739,"lag":1740,"mo":1741,"kommer":1742,"##bet":1743,"gor":1744,"##im":1745,"##ans":1746,"##ga":1747,"gj":1748,"mer":1749,"bor":1750,"##gar":1751,"##per":1752,"kr":1753,"gen":1754,"kv":1755,"##opp":1756,"kun":1757,"or":1758,"##ark":1759,"##ling":1760,"ann":1761,"allt":1762,"vil":1763,"vill":1764,"ver":1765,"sin":1766,"##ene":1767,"##sam":1768,"mot":1769,"##jon":1770,"fr":1771,"##da":1772,"alla":1773,"mig":1774,"##ic":1775,"##ikt":1776,"tr":1777,"sy":1778,"finns":1779,"tra":1780,"sv":1781,"fram":1782,"ju":1783,"##ann":1784,"tid":1785,"##son":1786,"##ika":1787,"##ber":1788,"vid":1789,"bra":1790,"lang":1791,"##ass":1792,"##erna":1793,"inn":1794,"bil":1795,"hon":1796,"opp":1797,"lite":1798,"##ycket":1799,"19":1800,"##org":1801,"##ningen":1802,"##era":1803,"##iska":1804,"##kl":1805,"pr":1806,"##yr":1807,"##ka":1808,"beh":1809,"##ende":1810,"ex":1811,"##ekt":1812,"mycket":1813,"mang":1814,"vad":1815,"komm":1816,"##edan":1817,"##ats":1818,"##iga":1819,"jo":1820,"##eck":1821,"##satt":1822,"bara":1823,"hur":1824,"##dr":1825,"re":1826,"##av":1827,"##ier":1828,"sen":1829,"##del":1830,"##eter":1831,"##oll":1832,"##sm":1833,"blir":1834,"din":1835,"genom":1836,"##ott":1837,"##00":1838,"##ket":1839,"reg":1840,"201":1841,"aven":1842,"##liga":1843,"sex":1844,"##ja":1845,"hem":1846,"ock":1847,"##vand":1848,"##ulle":1849,"##ligen":1850,"##jer":1851,"ocksa":1852,"ma":1853,"andra":1854,"##alt":1855,"ser":1856,"ol":1857,"##pl":1858,"gar":1859,"##jt":1860,"##be":1861,"skulle":1862,"hade":1863,"sag":1864,"fin":1865,"##men":1866,"mat":1867,"samt":1868,"ber":1869,"##ia":1870,"detta":1871,"##mar":1872,"br":1873,"th":1874,"ch":1875,"hand":1876,"dig":1877,"##ningar":1878,"hj":1879,"##hall":1880,"##ack":1881,"bet":1882,"##som":1883,"##skap":1884,"ty":1885,"##ske":1886,"ik":1887,"arbet":1888,"##vis":1889,"##ere":1890,"##bil":1891,"##hol":1892,"no":1893,"##alv":1894,"##ering":1895,"person":1896,"##ank":1897,"##ygg":1898,"el":1899,"verk":1900,"##itet":1901,"##du":1902,"##ala":1903,"##ring":1904,"sm":1905,"spel":1906,"##ige":1907,"##ssa":1908,"et":1909,"##stall":1910,"dat":1911,"##enn":1912,"##ug":1913,"satt":1914,"##ara":1915,"gang":1916,"##lag":1917,"res":1918,"on":1919,"fol":1920,"utan":1921,"van":1922,"pre":1923,"fort":1924,"##yn":1925,"##ster":1926,"nat":1927,"bli":1928,"barn":1929,"##orr":1930,"oss":1931,"##ilj":1932,"anvand":1933,"gl":1934,"##ighet":1935,"##ien":1936,"hog":1937,"nagon":1938,"##aren":1939,"land":1940,"ikke":1941,"##ju":1942,"##riv":1943,"##ie":1944,"##man":1945,"svar":1946,"best":1947,"fors":1948,"manga":1949,"##kel":1950,"##pa":1951,"sven":1952,"##land":1953,"sedan":1954,"##eder":1955,"helt":1956,"der":1957,"##iskt":1958,"##if":1959,"of":1960,"##sb":1961,"##rad":1962,"##ult":1963,"##tal":1964,"##ets":1965,"##over":1966,"##dre":1967,"##gang":1968,"sn":1969,"nagot":1970,"tro":1971,"##ken":1972,"##ær":1973,"dem":1974,"##jting":1975,"kommun":1976,"mal":1977,"ga":1978,"tva":1979,"##me":1980,"##sn":1981,"hall":1982,"gora":1983,"liv":1984,"bes":1985,"##unt":1986,"##atis":1987,"god":1988,"lig":1989,"ble":1990,"forsta":1991,"##lighet":1992,"mar":1993,"so":1994,"##form":1995,"##ste":1996,"le":1997,"sitt":1998,"##gi":1999,"kra":2000,"tre":2001,"##asta":2002,"##le":2003,"##ote":2004,"fick":2005,"mell":2006,"inne":2007,"bru":2008,"fil":2009,"##net":2010,"##else":2011,"jobb":2012,"fun":2013,"hu":2014,"##ys":2015,"##ci":2016,"jeg":2017,"##ge":2018,"vet":2019,"sjalv":2020,"idag":2021,"seg":2022,"##lar":2023,"denna":2024,"##ater":2025,"blev":2026,"##orn":2027,"##ce":2028,"ratt":2029,"##kten":2030,"sver":2031,"##jan":2032,"##verk":2033,"##ner":2034,"##ader":2035,"##nad":2036,"##aden":2037,"gratis":2038,"##ram":2039,"va":2040,"hitt":2041,"ni":2042,"##get":2043,"vag":2044,"di":2045,"##ress":2046,"olika":2047,"vis":2048,"par":2049,"##nings":2050,"hela":2051,"kop":2052,"utv":2053,"##ytt":2054,"##amp":2055,"##yd":2056,"##ida":2057,"##far":2058,"rikt":2059,"kj":2060,"akt":2061,"saker":2062,"int":2063,"kall":2064,"nagra":2065,"##pt":2066,"ja":2067,"##ks":2068,"nor":2069,"inter":2070,"##nas":2071,"##amn":2072,"dejting":2073,"##bar":2074,"##kom":2075,"vikt":2076,"bade":2077,"##ingen":2078,"maste":2079,"lan":2080,"ligger":2081,"##rat":2082,"##age":2083,"las":2084,"su":2085,"18":2086,"form":2087,"nya":2088,"runt":2089,"##vet":2090,"dom":2091,"##kar":2092,"tv":2093,"##ont":2094,"vin":2095,"##vud":2096,"kor":2097,"te":2098,"mann":2099,"forst":2100,"##asjon":2101,"##aget":2102,"##ef":2103,"##des":2104,"##tem":2105,"##ym":2106,"kar":2107,"##ades":2108,"led":2109,"##van":2110,"inom":2111,"##ikk":2112,"pol":2113,"##eb":2114,"200":2115,"hjal":2116,"##holm":2117,"tran":2118,"##ativ":2119,"varit":2120,"hos":2121,"kvinn":2122,"##ktion":2123,"kanske":2124,"ord":2125,"sna":2126,"ka":2127,"ra":2128,"frag":2129,"tyck":2130,"ans":2131,"mellan":2132,"##ert":2133,"fam":2134,"##unn":2135,"kont":2136,"moj":2137,"##dom":2138,"##pel":2139,"rad":2140,"##ust":2141,"huvud":2142,"##jar":2143,"mark":2144,"to":2145,"##kter":2146,"sla":2147,"##ella":2148,"##aller":2149,"lik":2150,"skol":2151,"tar":2152,"igen":2153,"etter":2154,"10":2155,"bok":2156,"he":2157,"fatt":2158,"produ":2159,"##ine":2160,"##uren":2161,"dessa":2162,"fast":2163,"am":2164,"sverige":2165,"##agen":2166,"##atten":2167,"bland":2168,"skal":2169,"mest":2170,"##uk":2171,"##yl":2172,"foret":2173,"mitt":2174,"slut":2175,"eg":2176,"##bord":2177,"la":2178,"##rev":2179,"##jen":2180,"##rupp":2181,"ater":2182,"vilket":2183,"tal":2184,"hal":2185,"ved":2186,"dess":2187,"fakt":2188,"veck":2189,"bo":2190,"##sh":2191,"stock":2192,"innan":2193,"ant":2194,"ingen":2195,"gra":2196,"na":2197,"tan":2198,"ek":2199,"##ata":2200,"bak":2201,"jul":2202,"##fall":2203,"beg":2204,"annat":2205,"##rik":2206,"##utom":2207,"##rum":2208,"lar":2209,"stockholm":2210,"vald":2211,"##sson":2212,"##ps":2213,"gam":2214,"##ow":2215,"##gr":2216,"sid":2217,"star":2218,"kn":2219,"##orna":2220,"##iva":2221,"ur":2222,"##ære":2223,"just":2224,"##ts":2225,"før":2226,"the":2227,"##heten":2228,"ner":2229,"fot":2230,"besk":2231,"##fl":2232,"plan":2233,"dr":2234,"##øy":2235,"alltid":2236,"##fatt":2237,"ogsa":2238,"##fil":2239,"stora":2240,"dette":2241,"hans":2242,"##alen":2243,"forsk":2244,"forb":2245,"hv":2246,"hen":2247,"fre":2248,"vart":2249,"mass":2250,"##edel":2251,"im":2252,"##bak":2253,"##nar":2254,"porr":2255,"fall":2256,"##str":2257,"##anska":2258,"##stem":2259,"##met":2260,"##ha":2261,"##sv":2262,"##yk":2263,"sina":2264,"basta":2265,"##oj":2266,"her":2267,"##ess":2268,"##erade":2269,"##fr":2270,"##enter":2271,"lin":2272,"nog":2273,"svenska":2274,"##sak":2275,"behover":2276,"sol":2277,"##io":2278,"##igare":2279,"##pe":2280,"##ns":2281,"mor":2282,"red":2283,"batt":2284,"°c":2285,"sel":2286,"##ings":2287,"##orde":2288,"##pro":2289,"##iske":2290,"##sc":2291,"##skar":2292,"by":2293,"bro":2294,"inform":2295,"ger":2296,"varje":2297,"##snitt":2298,"##takt":2299,"pris":2300,"pen":2301,"kunna":2302,"skriv":2303,"tje":2304,"fy":2305,"ge":2306,"str":2307,"tor":2308,"enkel":2309,"##ial":2310,"ne":2311,"eu":2312,"stall":2313,"samma":2314,"varl":2315,"eftersom":2316,"##jekt":2317,"familj":2318,"##erar":2319,"15":2320,"##ada":2321,"pass":2322,"##ederbord":2323,"sager":2324,"##ratt":2325,"##pr":2326,"##led":2327,"##bo":2328,"##empel":2329,"##ari":2330,"##stand":2331,"hus":2332,"tank":2333,"bygg":2334,"gick":2335,"##jud":2336,"utveck":2337,"mus":2338,"##arbet":2339,"nord":2340,"##bild":2341,"##xt":2342,"##gram":2343,"flera":2344,"sist":2345,"##min":2346,"tag":2347,"##rekt":2348,"sal":2349,"egen":2350,"mm":2351,"##esta":2352,"sh":2353,"em":2354,"##elsen":2355,"##uss":2356,"##sid":2357,"##lem":2358,"mil":2359,"##ret":2360,"##utt":2361,"ro":2362,"valdigt":2363,"##blem":2364,"##borg":2365,"##giv":2366,"sok":2367,"##erat":2368,"mannisk":2369,"##perat":2370,"riktigt":2371,"dock":2372,"hopp":2373,"latt":2374,"full":2375,"inga":2376,"##end":2377,"kort":2378,"##rade":2379,"##mal":2380,"behov":2381,"koll":2382,"##par":2383,"12":2384,"ad":2385,"sak":2386,"##hand":2387,"vide":2388,"enligt":2389,"##erad":2390,"bort":2391,"##res":2392,"tror":2393,"##red":2394,"tycker":2395,"##iken":2396,"art":2397,"bilder":2398,"we":2399,"ca":2400,"##fol":2401,"tur":2402,"tiden":2403,"snabb":2404,"konst":2405,"##iten":2406,"##hus":2407,"spe":2408,"km":2409,"##ister":2410,"andre":2411,"##ler":2412,"grund":2413,"ly":2414,"##adde":2415,"##olog":2416,"si":2417,"##ard":2418,"blog":2419,"ak":2420,"lever":2421,"##samm":2422,"kost":2423,"varm":2424,"##istor":2425,"kontakt":2426,"mina":2427,"battre":2428,"ab":2429,"galler":2430,"##ina":2431,"##onom":2432,"rek":2433,"##ellt":2434,"ned":2435,"##lagg":2436,"##slag":2437,"##iver":2438,"##upp":2439,"##sfor":2440,"foretag":2441,"kro":2442,"##berg":2443,"folk":2444,"nytt":2445,"##sdag":2446,"ditt":2447,"##ue":2448,"##val":2449,"gjort":2450,"mindre":2451,"natur":2452,"##nade":2453,"##iet":2454,"##vag":2455,"fortsatt":2456,"rel":2457,"jan":2458,"##ung":2459,"verkligen":2460,"##tra":2461,"stad":2462,"ste":2463,"##las":2464,"##alog":2465,"##ian":2466,"##ipp":2467,"##mark":2468,"ingar":2469,"##skil":2470,"tack":2471,"svart":2472,"aldr":2473,"kunde":2474,"my":2475,"##pet":2476,"##by":2477,"dating":2478,"mis":2479,"##dan":2480,"komma":2481,"intress":2482,"anda":2483,"##ionen":2484,"##lek":2485,"forsok":2486,"syn":2487,"problem":2488,"list":2489,"##ubb":2490,"erb":2491,"##ars":2492,"ov":2493,"lu":2494,"kvar":2495,"noen":2496,"tog":2497,"trakten":2498,"ag":2499,"tim":2500,"exempel":2501,"##sch":2502,"##orer":2503,"##ivit":2504,"skall":2505,"ev":2506,"trad":2507,"styr":2508,"gjorde":2509,"##rakt":2510,"svensk":2511,"eng":2512,"lat":2513,"bed":2514,"fi":2515,"##eng":2516,"17":2517,"##sammans":2518,"##anis":2519,"##fe":2520,"hadde":2521,"meter":2522,"redan":2523,"information":2524,"tidigare":2525,"org":2526,"##ider":2527,"kvinnor":2528,"##ektiv":2529,"30":2530,"##ct":2531,"##cent":2532,"##uter":2533,"stud":2534,"ham":2535,"tillsammans":2536,"deras":2537,"##radet":2538,"##rang":2539,"##orter":2540,"aldrig":2541,"11":2542,"##beid":2543,"co":2544,"##akt":2545,"lok":2546,"genomsnitt":2547,"##ora":2548,"##øl":2549,"##ester":2550,"##orgon":2551,"medlem":2552,"##ationer":2553,"##sten":2554,"manniskor":2555,"ute":2556,"##aster":2557,"##peraturen":2558,"part":2559,"fler":2560,"manaden":2561,"hun":2562,"tek":2563,"##etter":2564,"##elser":2565,"være":2566,"milj":2567,"##stad":2568,"##andet":2569,"app":2570,"##ob":2571,"##ultat":2572,"##samhet":2573,"annan":2574,"onl":2575,"tillbak":2576,"##gifter":2577,"jam":2578,"16":2579,"esc":2580,"##assa":2581,"alle":2582,"##rak":2583,"son":2584,"##tid":2585,"##ingar":2586,"##øre":2587,"direkt":2588,"##rar":2589,"##pen":2590,"stort":2591,"vatten":2592,"hitta":2593,"stod":2594,"lo":2595,"fant":2596,"sma":2597,"##egg":2598,"stat":2599,"bild":2600,"norg":2601,"polit":2602,"##yt":2603,"sjuk":2604,"##br":2605,"enkelt":2606,"porn":2607,"dagen":2608,"borj":2609,"dina":2610,"landet":2611,"krav":2612,"##ært":2613,"rol":2614,"##ds":2615,"behand":2616,"post":2617,"darfor":2618,"##iker":2619,"bi":2620,"plats":2621,"ind":2622,"hy":2623,"off":2624,"honom":2625,"##ruk":2626,"kval":2627,"selv":2628,"##temperaturen":2629,"##spl":2630,"hjalp":2631,"sta":2632,"tillbaka":2633,"##med":2634,"samtid":2635,"kron":2636,"tjan":2637,"beratt":2638,"namn":2639,"denne":2640,"sar":2641,"##skol":2642,"gran":2643,"tel":2644,"##ember":2645,"webb":2646,"ter":2647,"pu":2648,"liten":2649,"##eld":2650,"##omm":2651,"start":2652,"##atser":2653,"##river":2654,"ok":2655,"##tr":2656,"##lingen":2657,"##ex":2658,"familjen":2659,"grupp":2660,"lyck":2661,"##anden":2662,"vann":2663,"medel":2664,"infor":2665,"noe":2666,"ganska":2667,"hemma":2668,"##iner":2669,"##sf":2670,"kat":2671,"sc":2672,"storre":2673,"kvall":2674,"film":2675,"##ennom":2676,"traff":2677,"rak":2678,"##lut":2679,"mu":2680,"##tern":2681,"histor":2682,"mon":2683,"nederbord":2684,"delen":2685,"ofta":2686,"henne":2687,"online":2688,"mojlighet":2689,"##inger":2690,"##cis":2691,"##mo":2692,"titt":2693,"14":2694,"program":2695,"bel":2696,"fem":2697,"##ip":2698,"##ator":2699,"vax":2700,"##ond":2701,"##illa":2702,"ung":2703,"##int":2704,"##lev":2705,"##raf":2706,"ih":2707,"sø":2708,"fel":2709,"##sikt":2710,"personer":2711,"lika":2712,"saga":2713,"##ition":2714,"matt":2715,"gjennom":2716,"eff":2717,"resultat":2718,"dessutom":2719,"##ide":2720,"##heter":2721,"dra":2722,"fri":2723,"##asin":2724,"##ennes":2725,"##ktet":2726,"dis":2727,"fred":2728,"##andel":2729,"speci":2730,"##ometer":2731,"langt":2732,"tekn":2733,"##ale":2734,"euro":2735,"viktig":2736,"nast":2737,"escort":2738,"prov":2739,"faktiskt":2740,"##amma":2741,"##ice":2742,"##bland":2743,"gre":2744,"typ":2745,"stra":2746,"ba":2747,"haft":2748,"##slut":2749,"besok":2750,"kropp":2751,"kanner":2752,"lak":2753,"13":2754,"rum":2755,"dal":2756,"match":2757,"ytt":2758,"folj":2759,"tjejer":2760,"tha":2761,"san":2762,"antal":2763,"##rift":2764,"##ydd":2765,"nett":2766,"visa":2767,"joh":2768,"hennes":2769,"dan":2770,"vack":2771,"ob":2772,"ang":2773,"##vard":2774,"ansvar":2775,"100":2776,"anvanda":2777,"litt":2778,"go":2779,"199":2780,"##elig":2781,"##bart":2782,"end":2783,"precis":2784,"massage":2785,"soci":2786,"##kop":2787,"##ve":2788,"gote":2789,"##ationen":2790,"##ilometer":2791,"##rukt":2792,"kons":2793,"beslut":2794,"##iter":2795,"kul":2796,"kanns":2797,"goteborg":2798,"##nat":2799,"##sattning":2800,"met":2801,"cent":2802,"ville":2803,"##inner":2804,"bek":2805,"mid":2806,"##igheter":2807,"klar":2808,"##ite":2809,"lange":2810,"##este":2811,"disk":2812,"via":2813,"innehall":2814,"norge":2815,"##elt":2816,"forl":2817,"sett":2818,"kna":2819,"samhall":2820,"lø":2821,"cat":2822,"kur":2823,"pengar":2824,"po":2825,"hund":2826,"##ons":2827,"##rot":2828,"##nen":2829,"##icka":2830,"kult":2831,"##drag":2832,"bill":2833,"dam":2834,"bas":2835,"sommar":2836,"is":2837,"inst":2838,"id":2839,"dagar":2840,"inget":2841,"##ille":2842,"topp":2843,"janu":2844,"utfor":2845,"havet":2846,"##naden":2847,"utbild":2848,"##kor":2849,"##illar":2850,"funger":2851,"regn":2852,"##inna":2853,"des":2854,"##stallet":2855,"##spel":2856,"##ind":2857,"##aga":2858,"aldre":2859,"25":2860,"inv":2861,"##ift":2862,"##eras":2863,"##ong":2864,"forv":2865,"gener":2866,"rik":2867,"vilken":2868,"knull":2869,"##saker":2870,"langre":2871,"samtidigt":2872,"##lla":2873,"##ras":2874,"tem":2875,"ganger":2876,"##els":2877,"nam":2878,"nastan":2879,"kopa":2880,"varfor":2881,"##hold":2882,"##fekt":2883,"##ins":2884,"##tes":2885,"organis":2886,"vissa":2887,"lam":2888,"gu":2889,"##alla":2890,"betal":2891,"000":2892,"flytt":2893,"bol":2894,"borjar":2895,"##iss":2896,"kjø":2897,"##lige":2898,"istallet":2899,"com":2900,"byg":2901,"alltsa":2902,"hoppas":2903,"mill":2904,"ror":2905,"if":2906,"##jur":2907,"tot":2908,"##nader":2909,"bad":2910,"lov":2911,"do":2912,"##imat":2913,"los":2914,"nov":2915,"##efon":2916,"varld":2917,"system":2918,"blivit":2919,"senaste":2920,"##jor":2921,"##arter":2922,"mange":2923,"50":2924,"fantast":2925,"##spro":2926,"bid":2927,"##ies":2928,"##sker":2929,"vidare":2930,"utt":2931,"hor":2932,"ener":2933,"##one":2934,"##otell":2935,"vard":2936,"snart":2937,"##ioner":2938,"senare":2939,"aug":2940,"gott":2941,"##istr":2942,"borjade":2943,"yo":2944,"jatt":2945,"##sida":2946,"##folk":2947,"annu":2948,"krist":2949,"##ningarna":2950,"##fer":2951,"egent":2952,"sang":2953,"##smedel":2954,"ho":2955,"ekonom":2956,"kontro":2957,"innebar":2958,"pat":2959,"ben":2960,"bruk":2961,"##als":2962,"##under":2963,"tillgang":2964,"##jus":2965,"##atsen":2966,"##oden":2967,"##gift":2968,"##ivt":2969,"halv":2970,"høy":2971,"vir":2972,"##tag":2973,"##ynd":2974,"glad":2975,"##ød":2976,"##farande":2977,"leg":2978,"me":2979,"igar":2980,"samman":2981,"vilka":2982,"##gor":2983,"minst":2984,"aret":2985,"publ":2986,"##anda":2987,"ibland":2988,"##ron":2989,"extra":2990,"arbeid":2991,"lek":2992,"garna":2993,"uten":2994,"tav":2995,"##itu":2996,"00":2997,"nasta":2998,"pos":2999,"##hor":3000,"syd":3001,"as":3002,"trots":3003,"jun":3004,"##kur":3005,"ul":3006,"##ternativ":3007,"rom":3008,"papp":3009,"mag":3010,"finans":3011,"enn":3012,"##bel":3013,"##rott":3014,"##senter":3015,"life":3016,"##revs":3017,"ren":3018,"##ever":3019,"sarskil":3020,"gamla":3021,"##lad":3022,"##bud":3023,"##klar":3024,"ap":3025,"natt":3026,"bare":3027,"##ers":3028,"meg":3029,"sista":3030,"##ograf":3031,"forut":3032,"deg":3033,"mobil":3034,"nara":3035,"video":3036,"foren":3037,"##alj":3038,"kap":3039,"sjal":3040,"haller":3041,"pun":3042,"##styr":3043,"ytter":3044,"##vid":3045,"stand":3046,"##joner":3047,"##staden":3048,"januari":3049,"kred":3050,"hol":3051,"visar":3052,"dejtingsa":3053,"##ux":3054,"juli":3055,"bost":3056,"kraft":3057,"fortfarande":3058,"mater":3059,"komp":3060,"lagen":3061,"storsta":3062,"##ummer":3063,"##reg":3064,"hvor":3065,"projekt":3066,"hotell":3067,"slik":3068,"vant":3069,"enda":3070,"sadan":3071,"sitter":3072,"endast":3073,"halla":3074,"##vall":3075,"narm":3076,"##cka":3077,"klart":3078,"##juder":3079,"alt":3080,"##aler":3081,"anal":3082,"bety":3083,"##of":3084,"frem":3085,"##igaste":3086,"##vor":3087,"helst":3088,"fore":3089,"verksamhet":3090,"sw":3091,"##aten":3092,"framfor":3093,"blogg":3094,"##esten":3095,"slaktet":3096,"##nam":3097,"norr":3098,"vært":3099,"sch":3100,"pop":3101,"##før":3102,"bon":3103,"##jo":3104,"##amm":3105,"tom":3106,"kok":3107,"klass":3108,"hittar":3109,"##anter":3110,"##anns":3111,"pla":3112,"underarter":3113,"##ny":3114,"ide":3115,"##andra":3116,"beskrevs":3117,"kultur":3118,"vel":3119,"##he":3120,"##ivers":3121,"bran":3122,"mode":3123,"catalog":3124,"##bol":3125,"bred":3126,"lasa":3127,"moder":3128,"##gj":3129,"august":3130,"livet":3131,"##drar":3132,"##sok":3133,"##fin":3134,"##ystem":3135,"##ument":3136,"ford":3137,"##ate":3138,"##ore":3139,"ovr":3140,"hver":3141,"priv":3142,"gatt":3143,"hast":3144,"mamma":3145,"##band":3146,"##vik":3147,"risk":3148,"##anger":3149,"jord":3150,"flere":3151,"##slo":3152,"##eringen":3153,"listade":3154,"heller":3155,"catalogue":3156,"rep":3157,"esk":3158,"kvalitet":3159,"stu":3160,"gav":3161,"##ede":3162,"pros":3163,"##bin":3164,"but":3165,"alternativ":3166,"mye":3167,"##okus":3168,"##gard":3169,"perfekt":3170,"ku":3171,"##ocker":3172,"##grupp":3173,"spela":3174,"fragor":3175,"invan":3176,"musik":3177,"farg":3178,"##sel":3179,"##ligare":3180,"kam":3181,"ihop":3182,"intern":3183,"anvander":3184,"##raden":3185,"##sett":3186,"##ette":3187,"##alis":3188,"##bygg":3189,"##ten":3190,"2017":3191,"##its":3192,"super":3193,"sammen":3194,"gir":3195,"fikk":3196,"rapp":3197,"erbjud":3198,"flyg":3199,"##ry":3200,"gangen":3201,"hva":3202,"serv":3203,"bast":3204,"##kan":3205,"dod":3206,"##sin":3207,"rund":3208,"##oc":3209,"##raft":3210,"##uta":3211,"ban":3212,"##dagen":3213,"tyd":3214,"telefon":3215,"##stra":3216,"soker":3217,"##bara":3218,"##ium":3219,"mø":3220,"##svar":3221,"free":3222,"gud":3223,"sidan":3224,"procent":3225,"ps":3226,"fyra":3227,"##ander":3228,"juni":3229,"sing":3230,"car":3231,"første":3232,"skog":3233,"lad":3234,"##ags":3235,"##ph":3236,"funktion":3237,"mojligt":3238,"##ukt":3239,"univers":3240,"talet":3241,"spar":3242,"##elle":3243,"stan":3244,"smak":3245,"snabbt":3246,"aren":3247,"##cept":3248,"vare":3249,"##gjen":3250,"tills":3251,"##otter":3252,"mellom":3253,"erot":3254,"berg":3255,"kal":3256,"host":3257,"##ivet":3258,"trev":3259,"sjalva":3260,"tips":3261,"borja":3262,"flesta":3263,"ungdom":3264,"##ab":3265,"##omen":3266,"invanare":3267,"log":3268,"kredit":3269,"omradet":3270,"varlden":3271,"fina":3272,"timmar":3273,"kamp":3274,"fokus":3275,"knapp":3276,"pri":3277,"slapp":3278,"skriver":3279,"##arer":3280,"les":3281,"##ive":3282,"ars":3283,"dec":3284,"skj":3285,"nak":3286,"##sla":3287,"skolan":3288,"insp":3289,"2018":3290,"desig":3291,"lev":3292,"fo":3293,"tak":3294,"feb":3295,"egentligen":3296,"##ity":3297,"bada":3298,"handel":3299,"handlar":3300,"jamfor":3301,"casin":3302,"gjør":3303,"viktigt":3304,"##dejting":3305,"ac":3306,"stark":3307,"##agg":3308,"morgon":3309,"oster":3310,"198":3311,"vanligt":3312,"arbete":3313,"gillar":3314,"kvad":3315,"##so":3316,"ton":3317,"tu":3318,"vecka":3319,"vaster":3320,"sverig":3321,"artik":3322,"##skapet":3323,"##klart":3324,"skar":3325,"##eln":3326,"sep":3327,"##tre":3328,"dej":3329,"und":3330,"bank":3331,"##ommen":3332,"##iz":3333,"skapa":3334,"bal":3335,"ens":3336,"##ninger":3337,"egna":3338,"borde":3339,"haha":3340,"##hl":3341,"test":3342,"minuter":3343,"medan":3344,"kvadrat":3345,"##lade":3346,"amer":3347,"skriva":3348,"##full":3349,"##bor":3350,"24":3351,"##dar":3352,"ljus":3353,"produkter":3354,"huvudstaden":3355,"sem":3356,"##ror":3357,"dro":3358,"21":3359,"ovan":3360,"##ifran":3361,"ring":3362,"fod":3363,"lilla":3364,"foral":3365,"vak":3366,"##entet":3367,"##dig":3368,"##imeter":3369,"vanlig":3370,"sov":3371,"##ven":3372,"registr":3373,"##ren":3374,"rost":3375,"soder":3376,"gjøre":3377,"##inne":3378,"kyr":3379,"##pan":3380,"##samma":3381,"popul":3382,"##faren":3383,"##iden":3384,"##ral":3385,"arbets":3386,"okt":3387,"usa":3388,"gol":3389,"natet":3390,"hot":3391,"kring":3392,"dy":3393,"22":3394,"føl":3395,"##raste":3396,"##lat":3397,"rev":3398,"##egor":3399,"valja":3400,"##ike":3401,"##dera":3402,"omfatt":3403,"aff":3404,"resp":3405,"massa":3406,"sek":3407,"##dat":3408,"veckan":3409,"brukar":3410,"##kes":3411,"##ng":3412,"alskar":3413,"dok":3414,"bu":3415,"lagga":3416,"emot":3417,"kompl":3418,"##fors":3419,"aka":3420,"skatt":3421,"ing":3422,"disse":3423,"##ksjon":3424,"malmo":3425,"jon":3426,"##tera":3427,"##andring":3428,"##nande":3429,"gul":3430,"sida":3431,"##ane":3432,"bud":3433,"##uella":3434,"40":3435,"fordel":3436,"##derar":3437,"samarbet":3438,"##sst":3439,"siden":3440,"borjan":3441,"maj":3442,"##iller":3443,"##ht":3444,"##ona":3445,"fraga":3446,"inkl":3447,"event":3448,"skick":3449,"##yll":3450,"unge":3451,"##ca":3452,"rod":3453,"delar":3454,"utveckling":3455,"##isen":3456,"##up":3457,"grunn":3458,"##rikt":3459,"verkar":3460,"ins":3461,"cy":3462,"apr":3463,"##onen":3464,"##iser":3465,"sagt":3466,"material":3467,"lug":3468,"##aa":3469,"install":3470,"manad":3471,"prakt":3472,"nye":3473,"197":3474,"valkom":3475,"fanns":3476,"roll":3477,"kopp":3478,"fisk":3479,"##ich":3480,"natdejting":3481,"##yss":3482,"2016":3483,"mars":3484,"varmaste":3485,"dejta":3486,"##anga":3487,"##lingar":3488,"##eta":3489,"bestar":3490,"favor":3491,"hogsta":3492,"fint":3493,"klubb":3494,"bef":3495,"erbjuder":3496,"kallaste":3497,"##lan":3498,"arsmedel":3499,"internet":3500,"ko":3501,"medeltemperaturen":3502,"kronor":3503,"mog":3504,"##øn":3505,"dags":3506,"elever":3507,"arsmedeltemperaturen":3508,"vit":3509,"tanka":3510,"sveriges":3511,"karl":3512,"millimeter":3513,"vux":3514,"kunne":3515,"bostad":3516,"##lam":3517,"##bok":3518,"##sakring":3519,"sall":3520,"2015":3521,"##emen":3522,"##igen":3523,"tanker":3524,"mott":3525,"tillfall":3526,"septem":3527,"trott":3528,"webbpl":3529,"##annande":3530,"augusti":3531,"luft":3532,"september":3533,"genomsnittlig":3534,"##kilometer":3535,"tred":3536,"effekt":3537,"tryck":3538,"##ober":3539,"##ish":3540,"kvadratkilometer":3541,"norsk":3542,"nej":3543,"passar":3544,"kommunen":3545,"utanfor":3546,"vem":3547,"##ots":3548,"##plan":3549,"##co":3550,"vast":3551,"##let":3552,"##rag":3553,"engel":3554,"omgiv":3555,"filmer":3556,"sarskilt":3557,"##frag":3558,"bestam":3559,"##koping":3560,"it":3561,"energi":3562,"##juk":3563,"febru":3564,"##ib":3565,"utvik":3566,"##nes":3567,"##rek":3568,"tren":3569,"##anta":3570,"##mor":3571,"situ":3572,"torraste":3573,"##skaper":3574,"hov":3575,"arsn":3576,"##vs":3577,"##film":3578,"kol":3579,"regnigaste":3580,"huvudsak":3581,"mak":3582,"arsnederbord":3583,"text":3584,"november":3585,"forra":3586,"rett":3587,"laget":3588,"alder":3589,"dagens":3590,"##alet":3591,"##skriv":3592,"johan":3593,"skap":3594,"posit":3595,"##igheten":3596,"##batt":3597,"kunder":3598,"##skin":3599,"fag":3600,"##ash":3601,"kanna":3602,"##sidor":3603,"erfaren":3604,"hard":3605,"kommit":3606,"##oligt":3607,"ata":3608,"avtal":3609,"fe":3610,"kvinna":3611,"him":3612,"nav":3613,"inf":3614,"##fik":3615,"nation":3616,"store":3617,"##vast":3618,"##estaur":3619,"cir":3620,"cl":3621,"last":3622,"##ppar":3623,"ve":3624,"##ana":3625,"##øk":3626,"eks":3627,"hjalpa":3628,"vagen":3629,"23":3630,"##øm":3631,"indiv":3632,"restaur":3633,"##spr":3634,"oslo":3635,"##cer":3636,"anled":3637,"inspir":3638,"##oter":3639,"sik":3640,"##ko":3641,"tjej":3642,"genomfor":3643,"klock":3644,"##leg":3645,"lord":3646,"roligt":3647,"##xx":3648,"##nt":3649,"beskriv":3650,"presenter":3651,"ph":3652,"gro":3653,"prat":3654,"##rack":3655,"sakerhet":3656,"yr":3657,"##sar":3658,"stør":3659,"##sport":3660,"pe":3661,"oktober":3662,"prof":3663,"rekommen":3664,"viss":3665,"anstall":3666,"vanner":3667,"produkt":3668,"abs":3669,"jobbet":3670,"2014":3671,"##ita":3672,"fj":3673,"##atta":3674,"##verket":3675,"skill":3676,"##ub":3677,"##star":3678,"ram":3679,"marknad":3680,"fyll":3681,"alls":3682,"##legg":3683,"##oende":3684,"boken":3685,"##ryck":3686,"eget":3687,"##ix":3688,"godk":3689,"famil":3690,"driv":3691,"vol":3692,"##kort":3693,"sport":3694,"##strom":3695,"framtid":3696,"rader":3697,"varandra":3698,"øn":3699,"annet":3700,"skont":3701,"allman":3702,"akte":3703,"kund":3704,"spr":3705,"mand":3706,"narheten":3707,"unga":3708,"upps":3709,"dist":3710,"##lin":3711,"##boll":3712,"196":3713,"##wa":3714,"##bund":3715,"##emot":3716,"sand":3717,"##set":3718,"foljande":3719,"##isa":3720,"ytterligare":3721,"##ffe":3722,"gi":3723,"##part":3724,"april":3725,"##ena":3726,"offent":3727,"arbetar":3728,"igjen":3729,"stol":3730,"behandling":3731,"sil":3732,"ander":3733,"miljo":3734,"psyk":3735,"gym":3736,"date":3737,"##jter":3738,"traning":3739,"tagit":3740,"aktiv":3741,"##kon":3742,"##uell":3743,"sason":3744,"stil":3745,"igenom":3746,"veta":3747,"##skl":3748,"##delse":3749,"veckor":3750,"konkur":3751,"##bro":3752,"tankte":3753,"kolla":3754,"dit":3755,"djur":3756,"gemen":3757,"##ordan":3758,"##sav":3759,"forslag":3760,"##rett":3761,"anvands":3762,"omk":3763,"utbildning":3764,"annars":3765,"amerik":3766,"noj":3767,"##llen":3768,"##ise":3769,"##samt":3770,"imorgon":3771,"##emang":3772,"tj":3773,"universitet":3774,"##olut":3775,"sakert":3776,"eskort":3777,"##otek":3778,"##arn":3779,"##ension":3780,"##unkt":3781,"norske":3782,"fon":3783,"liksom":3784,"##fri":3785,"span":3786,"hele":3787,"##skan":3788,"##still":3789,"##oren":3790,"##anser":3791,"##befolk":3792,"new":3793,"upplev":3794,"ej":3795,"ten":3796,"##mel":3797,"internation":3798,"social":3799,"fer":3800,"service":3801,"visst":3802,"hvordan":3803,"##slan":3804,"hander":3805,"lyss":3806,"skad":3807,"manader":3808,"titta":3809,"bruker":3810,"tri":3811,"satta":3812,"ret":3813,"kroppen":3814,"spelar":3815,"##dere":3816,"max":3817,"godt":3818,"indu":3819,"forsoka":3820,"barnen":3821,"sim":3822,"##mt":3823,"##atan":3824,"totalt":3825,"##æring":3826,"##iella":3827,"##varande":3828,"##veck":3829,"##her":3830,"##varr":3831,"blod":3832,"karlek":3833,"niva":3834,"kunskap":3835,"blant":3836,"forfatt":3837,"fly":3838,"grad":3839,"port":3840,"##kta":3841,"arets":3842,"hav":3843,"tillverk":3844,"##okrat":3845,"inlagg":3846,"##unden":3847,"tredje":3848,"otr":3849,"heter":3850,"fungerar":3851,"##ital":3852,"minn":3853,"tyvarr":3854,"peri":3855,"tol":3856,"fest":3857,"od":3858,"pal":3859,"stund":3860,"tidlig":3861,"##ansen":3862,"december":3863,"arrang":3864,"thai":3865,"forel":3866,"sent":3867,"bakom":3868,"fix":3869,"innehaller":3870,"##enser":3871,"betala":3872,"kara":3873,"effektiv":3874,"sprak":3875,"leder":3876,"##bruk":3877,"oav":3878,"hjel":3879,"privat":3880,"komment":3881,"##unch":3882,"##back":3883,"60":3884,"##agar":3885,"hej":3886,"##lo":3887,"holl":3888,"data":3889,"nedan":3890,"oft":3891,"ansok":3892,"stam":3893,"sant":3894,"forh":3895,"bilden":3896,"##ure":3897,"##stri":3898,"ifran":3899,"##ey":3900,"##sd":3901,"##itar":3902,"##urn":3903,"ass":3904,"##unda":3905,"bj":3906,"##sg":3907,"uppgifter":3908,"##sidan":3909,"sten":3910,"forsvar":3911,"varde":3912,"##agare":3913,"bilen":3914,"lara":3915,"##isjon":3916,"wh":3917,"##ova":3918,"lagt":3919,"##book":3920,"back":3921,"fys":3922,"spannande":3923,"forhall":3924,"filmen":3925,"##ba":3926,"##sut":3927,"##eri":3928,"##ea":3929,"februari":3930,"vardag":3931,"##qu":3932,"traffa":3933,"##ota":3934,"qu":3935,"nok":3936,"casino":3937,"mynd":3938,"##namn":3939,"avslut":3940,"##deles":3941,"2013":3942,"defin":3943,"forbatt":3944,"##ink":3945,"##ica":3946,"bedom":3947,"##lands":3948,"rundt":3949,"gall":3950,"##handling":3951,"utom":3952,"forstar":3953,"undersok":3954,"recept":3955,"chr":3956,"aker":3957,"fas":3958,"igang":3959,"centr":3960,"##tar":3961,"##edag":3962,"ark":3963,"hogre":3964,"omkring":3965,"##ces":3966,"steg":3967,"##tak":3968,"skil":3969,"eta":3970,"##oder":3971,"##mat":3972,"kre":3973,"region":3974,"##asser":3975,"paverk":3976,"##skatt":3977,"helgen":3978,"mys":3979,"elekt":3980,"later":3981,"##pon":3982,"##kr":3983,"##ith":3984,"##ham":3985,"cm":3986,"pres":3987,"##produ":3988,"##assage":3989,"##alist":3990,"##ligheten":3991,"anv":3992,"design":3993,"##kn":3994,"con":3995,"lamp":3996,"can":3997,"krit":3998,"samme":3999,"regel":4000,"face":4001,"teck":4002,"##stol":4003,"forskning":4004,"##los":4005,"af":4006,"vinter":4007,"provin":4008,"glom":4009,"bakgr":4010,"jobba":4011,"kombin":4012,"speciellt":4013,"kvallen":4014,"##po":4015,"spes":4016,"bev":4017,"klimat":4018,"##mera":4019,"dejtingsajt":4020,"##jol":4021,"##50":4022,"vatt":4023,"##redning":4024,"##ork":4025,"##slaget":4026,"##ias":4027,"kilometer":4028,"26":4029,"##onser":4030,"##arnas":4031,"pot":4032,"sur":4033,"##sade":4034,"nr":4035,"invest":4036,"##oo":4037,"hum":4038,"lon":4039,"##malt":4040,"sexiga":4041,"28":4042,"2012":4043,"##dde":4044,"##iteten":4045,"knulla":4046,"trygg":4047,"betyd":4048,"platt":4049,"##rateg":4050,"ungefar":4051,"blitt":4052,"ww":4053,"oper":4054,"hjalper":4055,"folja":4056,"27":4057,"klader":4058,"##enten":4059,"oppna":4060,"sier":4061,"##uppgifter":4062,"##edet":4063,"terrang":4064,"gri":4065,"##dering":4066,"##orl":4067,"##ban":4068,"##hav":4069,"glas":4070,"personal":4071,"kompet":4072,"skydd":4073,"##skydd":4074,"hvis":4075,"##enskap":4076,"##ologi":4077,"skrev":4078,"fragan":4079,"##itut":4080,"##ald":4081,"##but":4082,"forsoker":4083,"bestall":4084,"lank":4085,"##pass":4086,"tysk":4087,"siste":4088,"valjer":4089,"tall":4090,"##stid":4091,"##ager":4092,"uppta":4093,"skul":4094,"plac":4095,"##splan":4096,"kand":4097,"mel":4098,"oavsett":4099,"kart":4100,"ses":4101,"hjem":4102,"mote":4103,"##skog":4104,"buss":4105,"dju":4106,"storlek":4107,"##mi":4108,"forutom":4109,"##vaxt":4110,"##har":4111,"##ativt":4112,"##rust":4113,"sine":4114,"##sing":4115,"##ly":4116,"fjar":4117,"kontroll":4118,"##komm":4119,"##rans":4120,"bod":4121,"##20":4122,"##assen":4123,"tilbak":4124,"##satta":4125,"##blad":4126,"tok":4127,"ogon":4128,"smart":4129,"194":4130,"begyn":4131,"bur":4132,"lagg":4133,"ein":4134,"public":4135,"deltag":4136,"fortsatta":4137,"europa":4138,"yng":4139,"sym":4140,"www":4141,"porno":4142,"sju":4143,"pappa":4144,"ovriga":4145,"##ild":4146,"facebook":4147,"##aka":4148,"verd":4149,"2010":4150,"forvar":4151,"ed":4152,"##skt":4153,"tyckte":4154,"##asjoner":4155,"skyl":4156,"huset":4157,"##usen":4158,"resa":4159,"##otten":4160,"##mid":4161,"sker":4162,"##skade":4163,"##betal":4164,"ros":4165,"##hj":4166,"lamna":4167,"ir":4168,"jav":4169,"varldens":4170,"platser":4171,"##eldig":4172,"skon":4173,"veg":4174,"snygg":4175,"##angen":4176,"##za":4177,"kategor":4178,"##ygga":4179,"ry":4180,"stopp":4181,"##use":4182,"antalet":4183,"goda":4184,"otroligt":4185,"bat":4186,"##rav":4187,"oftast":4188,"##vart":4189,"##kla":4190,"delta":4191,"fan":4192,"2011":4193,"##ugg":4194,"bla":4195,"lop":4196,"vanliga":4197,"##port":4198,"##pol":4199,"##eden":4200,"matte":4201,"avs":4202,"##iat":4203,"sann":4204,"framst":4205,"##huset":4206,"dokument":4207,"fla":4208,"stallet":4209,"ljud":4210,"toppen":4211,"øk":4212,"##øtt":4213,"##san":4214,"29":4215,"slutet":4216,"link":4217,"fredag":4218,"fal":4219,"ske":4220,"hud":4221,"##amnar":4222,"finner":4223,"dare":4224,"##ola":4225,"##rig":4226,"##ement":4227,"hit":4228,"ras":4229,"##arbeid":4230,"nod":4231,"##les":4232,"xxx":4233,"jobbar":4234,"##ernas":4235,"klockan":4236,"krig":4237,"ivag":4238,"ting":4239,"fores":4240,"forandring":4241,"##mann":4242,"spelare":4243,"terrangen":4244,"damer":4245,"hjart":4246,"##ii":4247,"miljoner":4248,"klipp":4249,"##skor":4250,"beror":4251,"forklar":4252,"##ilt":4253,"samband":4254,"##terna":4255,"darmed":4256,"avl":4257,"##ista":4258,"sør":4259,"etabl":4260,"server":4261,"motor":4262,"##vent":4263,"arbetet":4264,"dejtingsidor":4265,"lokal":4266,"darefter":4267,"lager":4268,"hoj":4269,"##ffa":4270,"vilja":4271,"forsv":4272,"##jarn":4273,"##ych":4274,"vers":4275,"dejtingsajter":4276,"tjanster":4277,"##smark":4278,"##fte":4279,"are":4280,"provinsen":4281,"##cc":4282,"arbeta":4283,"tillegg":4284,"alldeles":4285,"hoved":4286,"pan":4287,"##ente":4288,"brost":4289,"utman":4290,"##ach":4291,"nan":4292,"##skad":4293,"betyder":4294,"##uellt":4295,"menne":4296,"drom":4297,"kontakta":4298,"massor":4299,"trafik":4300,"erik":4301,"##samheten":4302,"fotboll":4303,"##jell":4304,"profess":4305,"spring":4306,"lunch":4307,"wid":4308,"trak":4309,"rut":4310,"##rukost":4311,"exempelvis":4312,"forsakring":4313,"##skolan":4314,"dubb":4315,"gammal":4316,"naturligt":4317,"fullt":4318,"innen":4319,"##urer":4320,"informasjon":4321,"gikk":4322,"hom":4323,"elev":4324,"193":4325,"##sø":4326,"varen":4327,"##dress":4328,"anvandas":4329,"helg":4330,"bord":4331,"behovs":4332,"thaim":4333,"stre":4334,"dejt":4335,"##gaende":4336,"##skott":4337,"lund":4338,"nær":4339,"rack":4340,"mod":4341,"ital":4342,"31":4343,"passa":4344,"kopte":4345,"##isar":4346,"beroende":4347,"forek":4348,"##foret":4349,"##bli":4350,"##serv":4351,"kommunik":4352,"fart":4353,"##atet":4354,"middag":4355,"fru":4356,"##allt":4357,"tat":4358,"aller":4359,"##iviteter":4360,"flick":4361,"##inst":4362,"punkten":4363,"ident":4364,"kontroller":4365,"##ila":4366,"you":4367,"slutt":4368,"press":4369,"bry":4370,"##ften":4371,"veldig":4372,"##uten":4373,"profil":4374,"sort":4375,"##oret":4376,"##ern":4377,"##sj":4378,"##folj":4379,"intressant":4380,"uppdrag":4381,"##iel":4382,"ot":4383,"scen":4384,"liknande":4385,"##person":4386,"tatt":4387,"daremot":4388,"##garden":4389,"len":4390,"##ism":4391,"sad":4392,"cirka":4393,"##inge":4394,"fang":4395,"sty":4396,"##vist":4397,"band":4398,"kravs":4399,"tjen":4400,"hora":4401,"##ode":4402,"namligen":4403,"erfarenhet":4404,"##dater":4405,"beste":4406,"hø":4407,"slag":4408,"kande":4409,"mens":4410,"menar":4411,"finne":4412,"195":4413,"##add":4414,"uppsala":4415,"samhalle":4416,"##eringar":4417,"kostnad":4418,"industri":4419,"utr":4420,"antligen":4421,"thaimassage":4422,"frukt":4423,"admin":4424,"sitta":4425,"autom":4426,"##cke":4427,"##repp":4428,"tio":4429,"sadana":4430,"##smal":4431,"present":4432,"##rande":4433,"lata":4434,"##aljer":4435,"historia":4436,"vackra":4437,"laser":4438,"foto":4439,"tidligere":4440,"##icin":4441,"80":4442,"##ega":4443,"bocker":4444,"##erne":4445,"tanke":4446,"favorit":4447,"##ya":4448,"##lys":4449,"gron":4450,"berattar":4451,"promen":4452,"500":4453,"##seende":4454,"##juta":4455,"vaxer":4456,"##ensen":4457,"amator":4458,"prin":4459,"web":4460,"resten":4461,"sondag":4462,"foretaget":4463,"frukost":4464,"derfor":4465,"rapporter":4466,"sommaren":4467,"videos":4468,"enkl":4469,"staden":4470,"kora":4471,"##kont":4472,"##tering":4473,"##garder":4474,"ager":4475,"rapport":4476,"prata":4477,"ikvall":4478,"katt":4479,"htt":4480,"ume":4481,"fotograf":4482,"anmal":4483,"absolut":4484,"mannen":4485,"let":4486,"##mon":4487,"ønsker":4488,"lage":4489,"bygga":4490,"tand":4491,"forvant":4492,"##af":4493,"uppf":4494,"strateg":4495,"dri":4496,"##sattningar":4497,"tradition":4498,"bit":4499,"typer":4500,"langa":4501,"##vin":4502,"kung":4503,"fitt":4504,"##forande":4505,"neg":4506,"regler":4507,"interv":4508,"ost":4509,"riktig":4510,"bloggen":4511,"dyr":4512,"sjukdom":4513,"##komst":4514,"fastighet":4515,"70":4516,"brott":4517,"##itter":4518,"chat":4519,"butik":4520,"191":4521,"##ils":4522,"plus":4523,"hittade":4524,"vanster":4525,"##bur":4526,"frit":4527,"##fritt":4528,"##off":4529,"##klader":4530,"skade":4531,"tas":4532,"engelska":4533,"trodde":4534,"fro":4535,"guld":4536,"kir":4537,"chef":4538,"##visning":4539,"finland":4540,"ald":4541,"individ":4542,"##inder":4543,"##uts":4544,"kostnader":4545,"2009":4546,"lagger":4547,"##rike":4548,"##nytt":4549,"tit":4550,"meddel":4551,"forvalt":4552,"centrala":4553,"##ton":4554,"##kelig":4555,"klicka":4556,"valj":4557,"teknik":4558,"##tet":4559,"narmaste":4560,"omraden":4561,"anna":4562,"medlemmar":4563,"finnas":4564,"fodd":4565,"mart":4566,"ensam":4567,"##ativa":4568,"##enner":4569,"verkt":4570,"sod":4571,"lander":4572,"parker":4573,"tilbake":4574,"mulig":4575,"semester":4576,"inklu":4577,"hemsida":4578,"torsdag":4579,"##erande":4580,"farger":4581,"kalla":4582,"skicka":4583,"sjalvklart":4584,"##samling":4585,"##staende":4586,"##ama":4587,"rec":4588,"##ansk":4589,"fantastisk":4590,"klara":4591,"personliga":4592,"90":4593,"poang":4594,"##owan":4595,"vas":4596,"##hu":4597,"sova":4598,"maten":4599,"helsing":4600,"cam":4601,"allvar":4602,"omrade":4603,"spill":4604,"foljer":4605,"poj":4606,"##sorg":4607,"##stor":4608,"arg":4609,"nyhet":4610,"dere":4611,"##cker":4612,"##verka":4613,"behova":4614,"##bum":4615,"tankt":4616,"utgang":4617,"team":4618,"##ører":4619,"##stallning":4620,"##befolkat":4621,"videre":4622,"##ations":4623,"framgang":4624,"dorr":4625,"dla":4626,"##filmer":4627,"ore":4628,"##zny":4629,"misst":4630,"##ions":4631,"##lever":4632,"isl":4633,"vaxt":4634,"forhold":4635,"bruke":4636,"opt":4637,"bør":4638,"##ula":4639,"standard":4640,"##owanych":4641,"zalog":4642,"##oczny":4643,"widoczny":4644,"zalogowanych":4645,"##asjonen":4646,"##ocka":4647,"diskuter":4648,"##fa":4649,"##bu":4650,"reser":4651,"varme":4652,"priser":4653,"like":4654,"##ierna":4655,"klok":4656,"##fta":4657,"##dt":4658,"##unnit":4659,"christ":4660,"ulike":4661,"##enting":4662,"andel":4663,"tex":4664,"not":4665,"vantar":4666,"foraldrar":4667,"frank":4668,"drag":4669,"samtliga":4670,"namnet":4671,"yngre":4672,"prosjekt":4673,"##iti":4674,"blom":4675,"out":4676,"hant":4677,"oka":4678,"fortsatter":4679,"nojd":4680,"##ight":4681,"##ktioner":4682,"##ifier":4683,"rese":4684,"forsalj":4685,"uppe":4686,"##si":4687,"2008":4688,"##kj":4689,"##hang":4690,"reda":4691,"resultatet":4692,"forber":4693,"visade":4694,"borjat":4695,"valkommen":4696,"live":4697,"##rader":4698,"osv":4699,"##gn":4700,"transport":4701,"tidigt":4702,"sasom":4703,"enskil":4704,"bedre":4705,"motsvar":4706,"kant":4707,"gjen":4708,"dela":4709,"##ee":4710,"##edd":4711,"45":4712,"hell":4713,"prova":4714,"##isten":4715,"##bru":4716,"tavling":4717,"##rep":4718,"tillrack":4719,"europe":4720,"intresse":4721,"utmar":4722,"jack":4723,"##lare":4724,"##emal":4725,"dels":4726,"park":4727,"salt":4728,"##cess":4729,"partner":4730,"daligt":4731,"serien":4732,"pra":4733,"fu":4734,"sidor":4735,"ill":4736,"litet":4737,"##ruktur":4738,"larare":4739,"vok":4740,"utifran":4741,"##agra":4742,"hart":4743,"char":4744,"##ligheter":4745,"solen":4746,"##hi":4747,"##skje":4748,"##yp":4749,"dejtingsida":4750,"dator":4751,"fir":4752,"##bi":4753,"drift":4754,"digit":4755,"sodra":4756,"varmt":4757,"john":4758,"hogt":4759,"sat":4760,"anledning":4761,"energ":4762,"##cif":4763,"ont":4764,"uppmark":4765,"rull":4766,"sydost":4767,"gode":4768,"vari":4769,"slipp":4770,"##gende":4771,"radd":4772,"tw":4773,"##olig":4774,"cre":4775,"##urs":4776,"nummer":4777,"spør":4778,"tvatt":4779,"valg":4780,"exper":4781,"integr":4782,"nyheter":4783,"jes":4784,"##ovis":4785,"varier":4786,"malet":4787,"##janst":4788,"befolk":4789,"cykel":4790,"##kant":4791,"##mant":4792,"##resent":4793,"ingenting":4794,"icke":4795,"avsnitt":4796,"uttryck":4797,"svara":4798,"umea":4799,"##hem":4800,"sub":4801,"##sket":4802,"##press":4803,"##anske":4804,"kak":4805,"kvinner":4806,"##ump":4807,"onsdag":4808,"aut":4809,"ovrigt":4810,"lordag":4811,"##teck":4812,"jak":4813,"sats":4814,"35":4815,"jur":4816,"halsa":4817,"sadant":4818,"norra":4819,"rent":4820,"##vax":4821,"underhall":4822,"lind":4823,"nodvand":4824,"gjel":4825,"forskjell":4826,"omgivningarna":4827,"girl":4828,"##umenter":4829,"tum":4830,"drog":4831,"##arbete":4832,"aktiviteter":4833,"makt":4834,"col":4835,"##ble":4836,"##bes":4837,"saval":4838,"beratta":4839,"##garna":4840,"hang":4841,"infl":4842,"viser":4843,"##ssystem":4844,"arm":4845,"leva":4846,"villkor":4847,"menn":4848,"##urser":4849,"got":4850,"ep":4851,"yt":4852,"black":4853,"ena":4854,"##skning":4855,"ru":4856,"først":4857,"##nn":4858,"##ppen":4859,"##ektive":4860,"##sjon":4861,"##foren":4862,"##stav":4863,"sund":4864,"prote":4865,"kanskje":4866,"##orda":4867,"allra":4868,"glob":4869,"hoga":4870,"gast":4871,"amb":4872,"##ksom":4873,"##hov":4874,"marker":4875,"kallas":4876,"natten":4877,"prø":4878,"##ho":4879,"kraver":4880,"statist":4881,"##skri":4882,"##bilder":4883,"samarbete":4884,"programmet":4885,"sociala":4886,"stockholms":4887,"##ekv":4888,"bonus":4889,"skola":4890,"adress":4891,"##ips":4892,"##ose":4893,"##lagt":4894,"salj":4895,"ofte":4896,"vur":4897,"ax":4898,"utveckla":4899,"exakt":4900,"kansl":4901,"dalig":4902,"italien":4903,"forekom":4904,"peter":4905,"brand":4906,"##mm":4907,"mera":4908,"utnytt":4909,"cook":4910,"##yser":4911,"##gjør":4912,"##rummet":4913,"##inar":4914,"lju":4915,"avsl":4916,"##ting":4917,"kri":4918,"##delning":4919,"vader":4920,"dans":4921,"kuk":4922,"kjent":4923,"##ødt":4924,"sangen":4925,"##satte":4926,"agg":4927,"skapar":4928,"##ben":4929,"vitt":4930,"##oppet":4931,"inled":4932,"##ienter":4933,"søker":4934,"møte":4935,"##plats":4936,"viagra":4937,"##ytte":4938,"##kraft":4939,"langs":4940,"kott":4941,"respektive":4942,"##hal":4943,"anvandning":4944,"nakna":4945,"tjanst":4946,"spesi":4947,"##pport":4948,"relig":4949,"##cy":4950,"dø":4951,"gift":4952,"##ines":4953,"himla":4954,"mej":4955,"spen":4956,"##pper":4957,"snar":4958,"gal":4959,"kram":4960,"##endet":4961,"##ycken":4962,"ekonomiska":4963,"lagre":4964,"jatte":4965,"##program":4966,"kaffe":4967,"anser":4968,"mojligheter":4969,"192":4970,"##utveck":4971,"viktiga":4972,"kandes":4973,"onskar":4974,"mogna":4975,"extre":4976,"satte":4977,"engag":4978,"stalla":4979,"##bon":4980,"rid":4981,"trevlig":4982,"je":4983,"enor":4984,"spelet":4985,"forr":4986,"##ors":4987,"##ius":4988,"skit":4989,"berak":4990,"##fs":4991,"fordi":4992,"skillnad":4993,"##ile":4994,"puss":4995,"net":4996,"will":4997,"princi":4998,"kata":4999,"kille":5000,"2007":5001,"##bundet":5002,"intervju":5003,"sign":5004,"gay":5005,"##ktar":5006,"fard":5007,"fritid":5008,"lill":5009,"finnes":5010,"konto":5011,"ah":5012,"grader":5013,"##takter":5014,"senast":5015,"##utbild":5016,"2000":5017,"forstas":5018,"onsk":5019,"soka":5020,"medicin":5021,"vind":5022,"with":5023,"##dem":5024,"stats":5025,"gallande":5026,"enbart":5027,"dotter":5028,"sot":5029,"##istan":5030,"urspr":5031,"##okt":5032,"##laggning":5033,"##ura":5034,"##bas":5035,"skratt":5036,"190":5037,"##ført":5038,"produktion":5039,"erbjuda":5040,"##zz":5041,"##fun":5042,"##len":5043,"sjo":5044,"##pris":5045,"bidra":5046,"##ogg":5047,"##lø":5048,"trevligt":5049,"##ordning":5050,"##ftet":5051,"##syn":5052,"normalt":5053,"anslut":5054,"sikker":5055,"##edagog":5056,"uppgift":5057,"mjol":5058,"bygger":5059,"drar":5060,"ster":5061,"skrivit":5062,"finansier":5063,"##udd":5064,"##bert":5065,"##stre":5066,"##erte":5067,"inb":5068,"kast":5069,"framtiden":5070,"kurs":5071,"nagonsin":5072,"##stans":5073,"uppskatt":5074,"utover":5075,"kunn":5076,"brev":5077,"bus":5078,"gruppen":5079,"automat":5080,"bekv":5081,"##agn":5082,"trana":5083,"dryg":5084,"##delig":5085,"spa":5086,"nordvast":5087,"fig":5088,"tillhor":5089,"##raff":5090,"verksamheten":5091,"visste":5092,"##rid":5093,"lana":5094,"plots":5095,"##schen":5096,"lattare":5097,"mom":5098,"gymnas":5099,"hoger":5100,"##ball":5101,"idrott":5102,"mol":5103,"mandag":5104,"yrkes":5105,"plast":5106,"grav":5107,"##lov":5108,"rabatt":5109,"regeringen":5110,"stang":5111,"##aland":5112,"gard":5113,"naken":5114,"mail":5115,"oppet":5116,"dest":5117,"##roll":5118,"utb":5119,"svært":5120,"etc":5121,"webbplats":5122,"##han":5123,"triv":5124,"aust":5125,"##gren":5126,"kansla":5127,"fyl":5128,"atgarder":5129,"##spektiv":5130,"laga":5131,"bom":5132,"##kast":5133,"##fort":5134,"##føl":5135,"journ":5136,"##vara":5137,"goog":5138,"boende":5139,"muse":5140,"ordent":5141,"lyckas":5142,"ursprung":5143,"samtal":5144,"spelade":5145,"ansikt":5146,"side":5147,"punkt":5148,"okar":5149,"##revet":5150,"regionen":5151,"sms":5152,"satter":5153,"saknar":5154,"mas":5155,"aktivitet":5156,"##ire":5157,"fantastiskt":5158,"vuxna":5159,"vacker":5160,"miss":5161,"##ykk":5162,"studie":5163,"modell":5164,"##ningsvis":5165,"produc":5166,"300":5167,"erotisk":5168,"drabb":5169,"student":5170,"sjun":5171,"##sper":5172,"sjukt":5173,"personlig":5174,"saken":5175,"barne":5176,"##slagen":5177,"##una":5178,"forest":5179,"shopp":5180,"##orden":5181,"helse":5182,"##resenter":5183,"vanta":5184,"delt":5185,"njuta":5186,"lokala":5187,"##igg":5188,"porrfilm":5189,"konser":5190,"detaljer":5191,"dvs":5192,"maskin":5193,"testa":5194,"datum":5195,"jenter":5196,"oppen":5197,"##imer":5198,"boll":5199,"boka":5200,"lock":5201,"##inal":5202,"hosten":5203,"##iens":5204,"ris":5205,"forbi":5206,"##usjon":5207,"##ansvar":5208,"forening":5209,"borta":5210,"##makt":5211,"byta":5212,"##sex":5213,"bidrag":5214,"barnet":5215,"danmark":5216,"handling":5217,"##somrade":5218,"handla":5219,"eksempel":5220,"lett":5221,"##bell":5222,"##ungen":5223,"##nummer":5224,"pension":5225,"dagarna":5226,"##erer":5227,"36":5228,"media":5229,"mask":5230,"##gran":5231,"medvet":5232,"##andes":5233,"kla":5234,"tider":5235,"##hamn":5236,"2006":5237,"leverant":5238,"##ckar":5239,"hals":5240,"um":5241,"still":5242,"reklam":5243,"orebro":5244,"vore":5245,"##pas":5246,"hd":5247,"utmarkt":5248,"##skomm":5249,"period":5250,"gravid":5251,"ordforande":5252,"knappt":5253,"##larna":5254,"stress":5255,"bolag":5256,"##rin":5257,"##anse":5258,"##jut":5259,"forn":5260,"##pun":5261,"smar":5262,"lakem":5263,"verden":5264,"##spol":5265,"saklart":5266,"anders":5267,"##shus":5268,"up":5269,"undrar":5270,"##ialis":5271,"tyskland":5272,"nordost":5273,"##byg":5274,"vastra":5275,"##øres":5276,"vita":5277,"##kning":5278,"centrum":5279,"##we":5280,"##iger":5281,"marknaden":5282,"vall":5283,"sno":5284,"entre":5285,"vattnet":5286,"framt":5287,"givet":5288,"##usive":5289,"sum":5290,"sluta":5291,"##gas":5292,"skor":5293,"iaf":5294,"bilar":5295,"starka":5296,"serie":5297,"##medel":5298,"##passa":5299,"komme":5300,"mjuk":5301,"samhallet":5302,"artikel":5303,"carl":5304,"lugn":5305,"affar":5306,"##sled":5307,"billig":5308,"##xa":5309,"##rom":5310,"##kat":5311,"frisk":5312,"lesb":5313,"alko":5314,"lagenhet":5315,"miljon":5316,"verktyg":5317,"tankar":5318,"##sliv":5319,"sos":5320,"kil":5321,"tillrackligt":5322,"lyssna":5323,"hvil":5324,"##verkan":5325,"##alder":5326,"city":5327,"kunnat":5328,"priset":5329,"##ema":5330,"info":5331,"nack":5332,"##skon":5333,"spara":5334,"plotsligt":5335,"tanken":5336,"##ios":5337,"##ms":5338,"konkurr":5339,"rygg":5340,"##elige":5341,"##sad":5342,"kjøp":5343,"##ec":5344,"##vir":5345,"fett":5346,"special":5347,"##sted":5348,"##spekt":5349,"maria":5350,"##ppa":5351,"specif":5352,"bevis":5353,"##ube":5354,"tillstand":5355,"lack":5356,"upptack":5357,"tradgard":5358,"##givare":5359,"halso":5360,"valt":5361,"##lle":5362,"dersom":5363,"fantastiska":5364,"sydvast":5365,"##natt":5366,"##por":5367,"##skola":5368,"overt":5369,"vest":5370,"##klimat":5371,"studier":5372,"politik":5373,"ligga":5374,"##dal":5375,"varden":5376,"cit":5377,"deres":5378,"hamt":5379,"bibli":5380,"lond":5381,"##cep":5382,"##arta":5383,"framat":5384,"##kk":5385,"stabil":5386,"antingen":5387,"strand":5388,"##orlunda":5389,"opplev":5390,"##dene":5391,"fored":5392,"sasong":5393,"##gora":5394,"##uc":5395,"vinna":5396,"endr":5397,"##bolag":5398,"##hel":5399,"##lande":5400,"mesta":5401,"oke":5402,"##styrelsen":5403,"##ningsm":5404,"narmare":5405,"fire":5406,"mangd":5407,"##hy":5408,"ihag":5409,"##ake":5410,"01":5411,"##ffan":5412,"kyl":5413,"timme":5414,"problemet":5415,"medarbet":5416,"tube":5417,"japan":5418,"##punkt":5419,"flytta":5420,"##atch":5421,"innov":5422,"paket":5423,"ansokan":5424,"strax":5425,"##ient":5426,"kommune":5427,"naturligtvis":5428,"album":5429,"##ekk":5430,"hvert":5431,"studen":5432,"javla":5433,"restaurang":5434,"##sor":5435,"tisdag":5436,"##fred":5437,"mennesker":5438,"gif":5439,"større":5440,"harligt":5441,"##dus":5442,"støtt":5443,"antag":5444,"##ange":5445,"##skrift":5446,"fyr":5447,"dukt":5448,"uk":5449,"nagonting":5450,"##heng":5451,"kommuner":5452,"taget":5453,"minska":5454,"annen":5455,"##ærer":5456,"utbud":5457,"vagar":5458,"vist":5459,"alkohol":5460,"formod":5461,"projektet":5462,"forlor":5463,"##hop":5464,"prem":5465,"##gangen":5466,"kommande":5467,"##vika":5468,"utrust":5469,"vars":5470,"##skont":5471,"løpet":5472,"cookies":5473,"##alg":5474,"rim":5475,"##asa":5476,"##yttet":5477,"detalj":5478,"##dd":5479,"fredrik":5480,"don":5481,"kjøpe":5482,"overra":5483,"angel":5484,"##ood":5485,"rym":5486,"polis":5487,"rock":5488,"uppfatt":5489,"matchen":5490,"organisation":5491,"kong":5492,"##bef":5493,"økonom":5494,"motstand":5495,"##igh":5496,"overv":5497,"slags":5498,"pap":5499,"lake":5500,"##dels":5501,"utform":5502,"##lor":5503,"vuxen":5504,"http":5505,"betyg":5506,"slar":5507,"herr":5508,"##ningst":5509,"ekonomi":5510,"div":5511,"tving":5512,"starkt":5513,"huvudet":5514,"betydelse":5515,"##ologisk":5516,"run":5517,"##jal":5518,"hatt":5519,"##laget":5520,"tun":5521,"ort":5522,"##fiken":5523,"demokrat":5524,"riksdag":5525,"sav":5526,"relativt":5527,"blomm":5528,"london":5529,"##centr":5530,"08":5531,"født":5532,"forand":5533,"nyck":5534,"chok":5535,"##anner":5536,"##etten":5537,"søk":5538,"stick":5539,"forum":5540,"##lik":5541,"vinn":5542,"representer":5543,"klad":5544,"samarbeid":5545,"gjelder":5546,"utred":5547,"regering":5548,"papper":5549,"enhet":5550,"tillamp":5551,"utgor":5552,"##oss":5553,"tonar":5554,"distri":5555,"spra":5556,"##slos":5557,"os":5558,"tung":5559,"syk":5560,"viktigaste":5561,"mork":5562,"##utter":5563,"orig":5564,"mad":5565,"##iment":5566,"##slapp":5567,"datorn":5568,"sasongen":5569,"##ction":5570,"##varden":5571,"##ongen":5572,"##anen":5573,"fitta":5574,"okej":5575,"##terar":5576,"189":5577,"##ctor":5578,"øy":5579,"forbund":5580,"##gruppen":5581,"##partem":5582,"mik":5583,"##alitet":5584,"bestem":5585,"annonser":5586,"prior":5587,"lakemedel":5588,"ladda":5589,"bakgrund":5590,"mate":5591,"ei":5592,"finansiella":5593,"forhopp":5594,"##sprogram":5595,"monster":5596,"##endig":5597,"sky":5598,"betydligt":5599,"##kker":5600,"strom":5601,"jarn":5602,"##emat":5603,"valde":5604,"dol":5605,"fonster":5606,"ersatt":5607,"##beider":5608,"##stod":5609,"harlig":5610,"sexlek":5611,"medier":5612,"forhand":5613,"##stalla":5614,"hjelp":5615,"hamta":5616,"naring":5617,"##stone":5618,"rosa":5619,"sær":5620,"modern":5621,"lans":5622,"32":5623,"##aterial":5624,"07":5625,"utland":5626,"vat":5627,"vand":5628,"forte":5629,"garanter":5630,"eftermid":5631,"##farg":5632,"karri":5633,"##ase":5634,"skrift":5635,"senere":5636,"elektron":5637,"perioden":5638,"us":5639,"##iera":5640,"##ap":5641,"hotellet":5642,"systemet":5643,"vetenskap":5644,"##urt":5645,"numera":5646,"2005":5647,"brukes":5648,"mg":5649,"norges":5650,"rok":5651,"lanser":5652,"russ":5653,"##ferens":5654,"marknadsfor":5655,"regl":5656,"diskuss":5657,"##sby":5658,"lyckades":5659,"sikt":5660,"korde":5661,"##ment":5662,"kyrk":5663,"##kommer":5664,"offentlig":5665,"##arken":5666,"##oga":5667,"##rip":5668,"snygga":5669,"##kade":5670,"grupper":5671,"##klubb":5672,"##kke":5673,"bag":5674,"spiller":5675,"forvan":5676,"##bler":5677,"tydligt":5678,"ges":5679,"intens":5680,"alex":5681,"tusen":5682,"djup":5683,"master":5684,"vansk":5685,"09":5686,"straff":5687,"kostar":5688,"magn":5689,"##fyll":5690,"##asje":5691,"vinst":5692,"ordning":5693,"nasjon":5694,"underbart":5695,"skiv":5696,"yout":5697,"##bank":5698,"jamfort":5699,"33":5700,"kg":5701,"definit":5702,"tema":5703,"##pren":5704,"modeller":5705,"bidrar":5706,"musk":5707,"coll":5708,"funn":5709,"##ills":5710,"bolaget":5711,"total":5712,"avgor":5713,"lista":5714,"folket":5715,"landst":5716,"svarta":5717,"bestalla":5718,"##unnen":5719,"singel":5720,"##fest":5721,"vm":5722,"polisen":5723,"##splats":5724,"rolig":5725,"sorter":5726,"laste":5727,"pratar":5728,"plass":5729,"lys":5730,"fixa":5731,"frankrike":5732,"skjer":5733,"klubben":5734,"kommentar":5735,"oro":5736,"##ologiska":5737,"bre":5738,"anstallda":5739,"myndighet":5740,"comm":5741,"skott":5742,"naturlig":5743,"hamn":5744,"utsikt":5745,"uppdat":5746,"pek":5747,"forskol":5748,"tittar":5749,"lav":5750,"accep":5751,"tunn":5752,"##ringar":5753,"forhallande":5754,"##sr":5755,"ven":5756,"##oster":5757,"##adress":5758,"foreningen":5759,"brun":5760,"represent":5761,"##arder":5762,"gamle":5763,"set":5764,"prest":5765,"sommer":5766,"milf":5767,"stav":5768,"falt":5769,"staller":5770,"##irekt":5771,"internationella":5772,"##aner":5773,"##kopp":5774,"##iljo":5775,"jakt":5776,"promenad":5777,"##eller":5778,"bir":5779,"kompetens":5780,"skam":5781,"ordet":5782,"konsekv":5783,"##organis":5784,"##pat":5785,"##agt":5786,"real":5787,"dusch":5788,"##vo":5789,"lars":5790,"utsatt":5791,"mun":5792,"underklader":5793,"rem":5794,"##ktor":5795,"institut":5796,"koper":5797,"##sratt":5798,"killar":5799,"##pla":5800,"fell":5801,"##ular":5802,"##edes":5803,"bekvam":5804,"symbol":5805,"roliga":5806,"##uer":5807,"##ira":5808,"morgonen":5809,"goras":5810,"##pack":5811,"##adem":5812,"##th":5813,"gull":5814,"martin":5815,"trenger":5816,"kuper":5817,"atta":5818,"anses":5819,"gors":5820,"atmin":5821,"ky":5822,"utvikling":5823,"##talet":5824,"arkite":5825,"kallt":5826,"underbara":5827,"prosent":5828,"lakare":5829,"##eren":5830,"visas":5831,"omsorg":5832,"##lund":5833,"##vert":5834,"dyg":5835,"drygt":5836,"##ydda":5837,"forutsattningar":5838,"driver":5839,"camp":5840,"avgift":5841,"respekt":5842,"teg":5843,"cialis":5844,"##somradet":5845,"por":5846,"##assan":5847,"##fton":5848,"personuppgifter":5849,"bilderna":5850,"##ktionen":5851,"administ":5852,"##ford":5853,"hojd":5854,"skane":5855,"kompis":5856,"kontor":5857,"##spar":5858,"##ifik":5859,"##isering":5860,"kopt":5861,"sannol":5862,"annorlunda":5863,"##pos":5864,"slutade":5865,"##system":5866,"parti":5867,"magen":5868,"presid":5869,"play":5870,"profession":5871,"##mot":5872,"syfte":5873,"##ign":5874,"ialla":5875,"##amin":5876,"hogst":5877,"##ior":5878,"##ollar":5879,"##vel":5880,"slog":5881,"stal":5882,"flash":5883,"hort":5884,"##marna":5885,"pet":5886,"kampan":5887,"##anc":5888,"##foretag":5889,"singlar":5890,"##rasjon":5891,"starta":5892,"lant":5893,"lust":5894,"sof":5895,"##eratur":5896,"radio":5897,"##hen":5898,"formodligen":5899,"bestamm":5900,"kem":5901,"sprang":5902,"intresserad":5903,"utrym":5904,"##ønn":5905,"##chef":5906,"mening":5907,"hallbar":5908,"ersattning":5909,"kuperad":5910,"kapit":5911,"horn":5912,"##asen":5913,"##ses":5914,"##ertid":5915,"##varl":5916,"debatt":5917,"##stru":5918,"skogen":5919,"uppdater":5920,"personen":5921,"helsingborg":5922,"lamnar":5923,"grym":5924,"britt":5925,"redovis":5926,"het":5927,"ideer":5928,"##cessen":5929,"nød":5930,"budget":5931,"fordon":5932,"fukt":5933,"kunst":5934,"atminstone":5935,"##stat":5936,"ug":5937,"forsikt":5938,"kommunikation":5939,"populara":5940,"inlag":5941,"##vatt":5942,"kommentarer":5943,"samling":5944,"kjær":5945,"relev":5946,"site":5947,"##gt":5948,"riktning":5949,"former":5950,"air":5951,"fyller":5952,"samtidig":5953,"anvant":5954,"bergen":5955,"##leva":5956,"pedagog":5957,"##ics":5958,"dei":5959,"forsaljning":5960,"ip":5961,"stalle":5962,"faktum":5963,"##10":5964,"orsa":5965,"##verksamhet":5966,"givetvis":5967,"##anten":5968,"inklusive":5969,"##omradet":5970,"byggnad":5971,"##det":5972,"choklad":5973,"rummet":5974,"kyrkan":5975,"leda":5976,"##rast":5977,"deb":5978,"##ino":5979,"konstigt":5980,"orkar":5981,"hyp":5982,"mansk":5983,"aldri":5984,"chans":5985,"mener":5986,"##amen":5987,"paverkar":5988,"tala":5989,"utgangsp":5990,"anpassa":5991,"google":5992,"siff":5993,"##agram":5994,"flott":5995,"big":5996,"400":5997,"forbattra":5998,"##angd":5999,"mult":6000,"mogen":6001,"nuvarande":6002,"##phone":6003,"nas":6004,"sted":6005,"hann":6006,"jesus":6007,"gles":6008,"ke":6009,"iallafall":6010,"varum":6011,"2004":6012,"34":6013,"formaga":6014,"##ower":6015,"##draget":6016,"kina":6017,"##iven":6018,"talar":6019,"spesielt":6020,"##skraft":6021,"pul":6022,"mic":6023,"tydligen":6024,"188":6025,"sens":6026,"øv":6027,"syster":6028,"gratt":6029,"hat":6030,"roda":6031,"hantera":6032,"##oker":6033,"lugnt":6034,"invand":6035,"this":6036,"klarar":6037,"analyser":6038,"##sken":6039,"brukt":6040,"underbar":6041,"fø":6042,"kanda":6043,"ungdomar":6044,"kapital":6045,"##vers":6046,"##delar":6047,"##aket":6048,"##elen":6049,"##fot":6050,"undersø":6051,"rekke":6052,"inse":6053,"##heim":6054,"resept":6055,"##iell":6056,"sjon":6057,"pengarna":6058,"55":6059,"hittat":6060,"mitten":6061,"kontin":6062,"happ":6063,"popular":6064,"normal":6065,"##evel":6066,"##stam":6067,"politiska":6068,"##skal":6069,"rot":6070,"##ox":6071,"synd":6072,"##stift":6073,"amerikanska":6074,"ordentligt":6075,"##splatsen":6076,"##uft":6077,"bjud":6078,"minns":6079,"smid":6080,"salja":6081,"##sart":6082,"objekt":6083,"arene":6084,"teater":6085,"youtube":6086,"tru":6087,"slakt":6088,"##sil":6089,"hak":6090,"austral":6091,"prioriter":6092,"your":6093,"malt":6094,"utvecklas":6095,"miljø":6096,"sallan":6097,"wik":6098,"##empl":6099,"stjarn":6100,"##ante":6101,"mord":6102,"##oda":6103,"okad":6104,"enkla":6105,"mats":6106,"neste":6107,"soffan":6108,"##hund":6109,"saljer":6110,"inkop":6111,"05":6112,"wa":6113,"mich":6114,"huvudsakligen":6115,"politiker":6116,"pam":6117,"forsokte":6118,"ostra":6119,"##prov":6120,"##bran":6121,"publik":6122,"##behandling":6123,"op":6124,"##maskin":6125,"skid":6126,"næring":6127,"75":6128,"pil":6129,"overg":6130,"kos":6131,"##vagen":6132,"02":6133,"dram":6134,"##føre":6135,"funkar":6136,"intro":6137,"manniska":6138,"olyck":6139,"##gelig":6140,"##fan":6141,"##rer":6142,"kallade":6143,"ingr":6144,"gett":6145,"allmanna":6146,"est":6147,"##esp":6148,"sexleksaker":6149,"isra":6150,"##sprak":6151,"##rit":6152,"##kall":6153,"##osa":6154,"inkluder":6155,"##entyr":6156,"asikt":6157,"##itann":6158,"##partementet":6159,"dikt":6160,"forelas":6161,"mov":6162,"##handa":6163,"##behor":6164,"##kam":6165,"uppratt":6166,"dre":6167,"##ze":6168,"fleste":6169,"##iot":6170,"haret":6171,"##kv":6172,"stanna":6173,"##yggen":6174,"forskjellige":6175,"##ific":6176,"tvek":6177,"ott":6178,"uppen":6179,"mojligheten":6180,"befinner":6181,"brist":6182,"egenskaper":6183,"styrelsen":6184,"##nasjon":6185,"##kost":6186,"planer":6187,"metod":6188,"takt":6189,"storbr":6190,"studenter":6191,"##ori":6192,"##djur":6193,"aktie":6194,"##beskriv":6195,"##bladet":6196,"konstru":6197,"racker":6198,"oj":6199,"one":6200,"begran":6201,"valet":6202,"definitivt":6203,"swed":6204,"##mos":6205,"##hort":6206,"marken":6207,"lekt":6208,"mc":6209,"##ugga":6210,"##derna":6211,"amnen":6212,"##handel":6213,"kjære":6214,"##way":6215,"kallar":6216,"stads":6217,"england":6218,"##fragan":6219,"ack":6220,"##atter":6221,"##klag":6222,"ladd":6223,"##halla":6224,"utvecklingen":6225,"største":6226,"varken":6227,"fat":6228,"##akning":6229,"naturen":6230,"sara":6231,"##barn":6232,"avstand":6233,"hed":6234,"06":6235,"løs":6236,"torr":6237,"##idae":6238,"##own":6239,"perspektiv":6240,"##eres":6241,"fab":6242,"##ivare":6243,"exp":6244,"##start":6245,"kamer":6246,"metoder":6247,"tallet":6248,"##flikt":6249,"helhet":6250,"##annen":6251,"sweden":6252,"rattigheter":6253,"appar":6254,"vaknade":6255,"golf":6256,"svang":6257,"##inen":6258,"jorden":6259,"##bergs":6260,"venn":6261,"bjorn":6262,"##iam":6263,"storbritann":6264,"grill":6265,"##arens":6266,"##oteket":6267,"pga":6268,"positivt":6269,"##funn":6270,"dog":6271,"##polit":6272,"produksjon":6273,"losa":6274,"##gl":6275,"04":6276,"losningar":6277,"princip":6278,"uttal":6279,"##lertid":6280,"vackert":6281,"##blick":6282,"offic":6283,"##liv":6284,"bodde":6285,"gladje":6286,"##imul":6287,"dack":6288,"##istiska":6289,"mysigt":6290,"erfar":6291,"natverk":6292,"impon":6293,"flykt":6294,"datings":6295,"##30":6296,"situation":6297,"tyst":6298,"overfor":6299,"undant":6300,"##øker":6301,"humor":6302,"sammanhang":6303,"##borj":6304,"##øp":6305,"kors":6306,"##server":6307,"tillvaxt":6308,"separ":6309,"38":6310,"##sle":6311,"cont":6312,"dermed":6313,"begrepp":6314,"platsen":6315,"bestamt":6316,"snarare":6317,"springa":6318,"reng":6319,"##fon":6320,"au":6321,"tekniska":6322,"følge":6323,"##spart":6324,"motiv":6325,"david":6326,"era":6327,"ye":6328,"initi":6329,"syns":6330,"tyg":6331,"##gene":6332,"##fard":6333,"inspiration":6334,"##til":6335,"langd":6336,"kunnskap":6337,"rest":6338,"ranta":6339,"dim":6340,"syke":6341,"chatt":6342,"syss":6343,"vattendrag":6344,"unn":6345,"fritt":6346,"sock":6347,"internasjon":6348,"ron":6349,"omedel":6350,"##klara":6351,"##ima":6352,"bete":6353,"byen":6354,"##ssk":6355,"##serna":6356,"funktioner":6357,"##cel":6358,"##egaende":6359,"##roende":6360,"39":6361,"##rop":6362,"gjerne":6363,"stral":6364,"arbeidet":6365,"kjem":6366,"allerede":6367,"##visa":6368,"klin":6369,"resan":6370,"##elsens":6371,"nev":6372,"hin":6373,"thom":6374,"betrakt":6375,"utdan":6376,"dager":6377,"##hag":6378,"dj":6379,"tapp":6380,"##xor":6381,"paverka":6382,"##peratur":6383,"silver":6384,"##dex":6385,"inrikt":6386,"mota":6387,"##fi":6388,"##skole":6389,"##isch":6390,"medarbetare":6391,"##enden":6392,"forbin":6393,"gitt":6394,"rea":6395,"fungera":6396,"##mes":6397,"utvar":6398,"fardig":6399,"stift":6400,"##ingene":6401,"upplevelse":6402,"vanskelig":6403,"happy":6404,"vinner":6405,"besvar":6406,"mojliga":6407,"oppga":6408,"##derade":6409,"##ekn":6410,"ryss":6411,"fjer":6412,"bjuder":6413,"undan":6414,"glesbefolkat":6415,"##iland":6416,"##edom":6417,"bilj":6418,"##svall":6419,"nere":6420,"##ckning":6421,"sajt":6422,"##brott":6423,"york":6424,"bror":6425,"letar":6426,"##ou":6427,"vent":6428,"major":6429,"legg":6430,"##isert":6431,"##llop":6432,"lanet":6433,"framforallt":6434,"island":6435,"dild":6436,"paul":6437,"stolt":6438,"37":6439,"grat":6440,"neder":6441,"box":6442,"interes":6443,"socker":6444,"##demokrat":6445,"sattet":6446,"##skat":6447,"felles":6448,"tabell":6449,"##delen":6450,"##deling":6451,"fack":6452,"hyll":6453,"stem":6454,"huden":6455,"positiv":6456,"##skrifter":6457,"besoka":6458,"motiver":6459,"stycken":6460,"aktuella":6461,"##kret":6462,"rekommenderar":6463,"mai":6464,"##utveckling":6465,"oer":6466,"domstol":6467,"risken":6468,"jordbruk":6469,"losning":6470,"betalar":6471,"jobbigt":6472,"##pi":6473,"##sakt":6474,"beskriver":6475,"hushall":6476,"kill":6477,"03":6478,"skru":6479,"gavle":6480,"andersson":6481,"relation":6482,"botten":6483,"innlegg":6484,"slott":6485,"ori":6486,"foreb":6487,"matcher":6488,"##df":6489,"mac":6490,"behovde":6491,"##mala":6492,"illa":6493,"1000":6494,"underl":6495,"nil":6496,"##hog":6497,"eleverna":6498,"flickor":6499,"##ris":6500,"fortsatte":6501,"lopp":6502,"fork":6503,"enklare":6504,"skada":6505,"staten":6506,"show":6507,"ringa":6508,"klan":6509,"##ival":6510,"187":6511,"##minister":6512,"##histor":6513,"regjer":6514,"##iste":6515,"##mus":6516,"blad":6517,"##bra":6518,"jonkoping":6519,"chansen":6520,"redo":6521,"nyligen":6522,"kanslor":6523,"standigt":6524,"##elefon":6525,"##ros":6526,"delst":6527,"##aker":6528,"inkomst":6529,"##au":6530,"central":6531,"kuh":6532,"hinner":6533,"oversikt":6534,"daniel":6535,"garant":6536,"##burg":6537,"##annonser":6538,"##jord":6539,"##laggande":6540,"eit":6541,"dubbel":6542,"##ric":6543,"##endel":6544,"plat":6545,"exkl":6546,"stranden":6547,"##god":6548,"lyx":6549,"aventyr":6550,"skole":6551,"harliga":6552,"##stil":6553,"spørsmal":6554,"sallskap":6555,"vasteras":6556,"fantas":6557,"undvika":6558,"okat":6559,"##platsen":6560,"sosial":6561,"186":6562,"korrekt":6563,"##bat":6564,"videor":6565,"historien":6566,"##dela":6567,"legge":6568,"koket":6569,"brollop":6570,"formid":6571,"ball":6572,"hundar":6573,"konstnar":6574,"øst":6575,"investering":6576,"garden":6577,"rov":6578,"gis":6579,"fet":6580,"##iko":6581,"rub":6582,"synes":6583,"kines":6584,"entrepren":6585,"vapen":6586,"digital":6587,"revis":6588,"smarta":6589,"##ah":6590,"tvungen":6591,"utga":6592,"kommenter":6593,"fallet":6594,"hunnit":6595,"150":6596,"paris":6597,"##deras":6598,"##stalld":6599,"##assigt":6600,"top":6601,"vila":6602,"aktivt":6603,"il":6604,"##falt":6605,"struktur":6606,"##ikker":6607,"##sattningen":6608,"livsmedel":6609,"##till":6610,"65":6611,"fakta":6612,"48":6613,"kommunens":6614,"##ockey":6615,"tus":6616,"gas":6617,"glass":6618,"moderna":6619,"kollektiv":6620,"##iteter":6621,"vd":6622,"lyckats":6623,"##imal":6624,"grov":6625,"konflikt":6626,"pratade":6627,"hjer":6628,"rakt":6629,"nom":6630,"forbered":6631,"fry":6632,"##okoll":6633,"2003":6634,"##delningen":6635,"sor":6636,"kran":6637,"billigt":6638,"##ningsb":6639,"individer":6640,"urval":6641,"landsting":6642,"omoj":6643,"kanslan":6644,"startade":6645,"time":6646,"vadret":6647,"dine":6648,"seks":6649,"smal":6650,"golv":6651,"##terade":6652,"erotiska":6653,"##ledning":6654,"block":6655,"hittills":6656,"##sund":6657,"bb":6658,"flex":6659,"##otta":6660,"mast":6661,"prins":6662,"bem":6663,"gun":6664,"inc":6665,"##sats":6666,"##grupper":6667,"riktiga":6668,"##ledare":6669,"leng":6670,"brod":6671,"lid":6672,"grundlaggande":6673,"has":6674,"##angt":6675,"effektivt":6676,"trakigt":6677,"varv":6678,"omfattande":6679,"national":6680,"sammanfatt":6681,"registrering":6682,"diagn":6683,"overens":6684,"likevel":6685,"kristen":6686,"eld":6687,"vik":6688,"dor":6689,"##fulla":6690,"##ids":6691,"motsvarande":6692,"##valt":6693,"metall":6694,"berattade":6695,"##ges":6696,"myndigheter":6697,"##lats":6698,"##fisk":6699,"fylla":6700,"perfekta":6701,"##skrig":6702,"personalen":6703,"skuld":6704,"tillfalle":6705,"milit":6706,"nødv":6707,"##risk":6708,"renover":6709,"dollar":6710,"prot":6711,"forhoppningsvis":6712,"nesten":6713,"kompletter":6714,"resurser":6715,"listan":6716,"##ografi":6717,"##varo":6718,"allmant":6719,"langsikt":6720,"forekommer":6721,"##tryck":6722,"plock":6723,"##odet":6724,"sover":6725,"##ome":6726,"planen":6727,"forfattare":6728,"##hets":6729,"begge":6730,"hunden":6731,"jar":6732,"ryska":6733,"cert":6734,"vekt":6735,"gill":6736,"##lak":6737,"hyres":6738,"##fly":6739,"##uff":6740,"asiat":6741,"##ini":6742,"deler":6743,"##kul":6744,"skull":6745,"vardags":6746,"hjul":6747,"kunden":6748,"trum":6749,"marie":6750,"handa":6751,"##partiet":6752,"arkitekt":6753,"##stret":6754,"##jet":6755,"stig":6756,"visat":6757,"tids":6758,"kroner":6759,"organ":6760,"micro":6761,"varma":6762,"begrans":6763,"mottag":6764,"vanligtvis":6765,"ledare":6766,"nettst":6767,"gn":6768,"slipper":6769,"andras":6770,"##cken":6771,"##fullt":6772,"utlan":6773,"mont":6774,"antall":6775,"musl":6776,"##iosa":6777,"##ogen":6778,"##huvud":6779,"ii":6780,"hansyn":6781,"potent":6782,"tyska":6783,"kunskaper":6784,"thailand":6785,"tjock":6786,"inl":6787,"##out":6788,"##trad":6789,"anpass":6790,"langst":6791,"fing":6792,"parkering":6793,"utomhus":6794,"##ensjon":6795,"betyr":6796,"friv":6797,"##forsakring":6798,"sade":6799,"##orld":6800,"extremt":6801,"##vatten":6802,"##kere":6803,"anvandare":6804,"##ual":6805,"faktisk":6806,"linkoping":6807,"##ycke":6808,"stimul":6809,"##vakt":6810,"delvis":6811,"tidningen":6812,"##oner":6813,"besøk":6814,"##tiden":6815,"samre":6816,"president":6817,"##ows":6818,"kursen":6819,"kollade":6820,"refl":6821,"avsug":6822,"israel":6823,"webbplatser":6824,"mos":6825,"##orerna":6826,"##lok":6827,"##ytande":6828,"navn":6829,"njut":6830,"knullar":6831,"varav":6832,"verdens":6833,"lamnade":6834,"antar":6835,"nytta":6836,"banan":6837,"##skoter":6838,"rakna":6839,"##ojd":6840,"termin":6841,"##ksomhet":6842,"funderar":6843,"enskilda":6844,"postadress":6845,"glada":6846,"pool":6847,"syftet":6848,"##betalning":6849,"webbplatsen":6850,"hamnar":6851,"skand":6852,"landets":6853,"daliga":6854,"##lades":6855,"faller":6856,"position":6857,"##stallningar":6858,"fika":6859,"bio":6860,"alskade":6861,"bjor":6862,"narvarande":6863,"blommor":6864,"dum":6865,"tecken":6866,"feil":6867,"##sprodu":6868,"slutar":6869,"##rem":6870,"lapp":6871,"iphone":6872,"pin":6873,"##gande":6874,"version":6875,"##teras":6876,"grona":6877,"snabbare":6878,"##enny":6879,"patienter":6880,"ekte":6881,"##ellan":6882,"karaktar":6883,"##ebra":6884,"gat":6885,"jobbat":6886,"nationella":6887,"georg":6888,"lagom":6889,"brann":6890,"##mannen":6891,"tillgangliga":6892,"gemensamma":6893,"##sklimat":6894,"insatser":6895,"statistik":6896,"bandet":6897,"42":6898,"##gatan":6899,"fragade":6900,"ifall":6901,"##øring":6902,"kontrollera":6903,"instru":6904,"##yer":6905,"hotel":6906,"skyld":6907,"##arm":6908,"avgifter":6909,"heta":6910,"##eten":6911,"imid":6912,"##tekn":6913,"pack":6914,"illust":6915,"produs":6916,"##alisering":6917,"moter":6918,"##40":6919,"##ones":6920,"##ley":6921,"tittade":6922,"imidlertid":6923,"ganske":6924,"sugen":6925,"langtar":6926,"##ivan":6927,"##spolit":6928,"utfordr":6929,"##lost":6930,"##vern":6931,"##ubl":6932,"lenge":6933,"snabba":6934,"##fallet":6935,"bloggar":6936,"litteratur":6937,"tilgjen":6938,"servic":6939,"privata":6940,"avseende":6941,"##edde":6942,"##givning":6943,"kanada":6944,"musikk":6945,"hjarn":6946,"dricka":6947,"##janster":6948,"##edi":6949,"holde":6950,"##yta":6951,"frivill":6952,"snyggt":6953,"bestamde":6954,"##gitt":6955,"center":6956,"##slivet":6957,"kamera":6958,"##derat":6959,"mobilen":6960,"wal":6961,"tatbefolkat":6962,"tillhanda":6963,"##erades":6964,"##jas":6965,"svenskt":6966,"fris":6967,"mormor":6968,"erfarenheter":6969,"##vaxter":6970,"forstaelse":6971,"sval":6972,"administrat":6973,"mala":6974,"##gere":6975,"process":6976,"tydlig":6977,"sette":6978,"forandringar":6979,"brom":6980,"fria":6981,"##vok":6982,"forny":6983,"fodels":6984,"klick":6985,"oh":6986,"foljd":6987,"dn":6988,"dorren":6989,"billiga":6990,"##skost":6991,"thomas":6992,"erbjudanden":6993,"##uelle":6994,"erotik":6995,"brasil":6996,"eventuella":6997,"##vd":6998,"tax":6999,"arbetsm":7000,"bussen":7001,"bered":7002,"besokare":7003,"##dens":7004,"wil":7005,"##ckor":7006,"korta":7007,"skra":7008,"##sporter":7009,"henrik":7010,"##platser":7011,"villa":7012,"dialog":7013,"##ves":7014,"hande":7015,"##legget":7016,"vek":7017,"##oven":7018,"johansson":7019,"begar":7020,"mamm":7021,"anges":7022,"##ac":7023,"guds":7024,"##sag":7025,"atit":7026,"##fart":7027,"frakt":7028,"lamn":7029,"bekraft":7030,"status":7031,"sonder":7032,"varan":7033,"analys":7034,"akta":7035,"vanda":7036,"finansiering":7037,"2002":7038,"mikro":7039,"##fragor":7040,"cor":7041,"journalist":7042,"##ørt":7043,"skadespel":7044,"leta":7045,"desto":7046,"figur":7047,"samfunn":7048,"premi":7049,"flashback":7050,"anledningen":7051,"levande":7052,"mangder":7053,"tjansten":7054,"2001":7055,"cer":7056,"orsak":7057,"von":7058,"##jobb":7059,"oerhort":7060,"jud":7061,"oppr":7062,"##gra":7063,"karn":7064,"tilb":7065,"##ect":7066,"svarar":7067,"fuck":7068,"forran":7069,"europeiska":7070,"##slin":7071,"##ffekt":7072,"halvt":7073,"wind":7074,"stallen":7075,"##qvist":7076,"mojlig":7077,"ogonen":7078,"potatis":7079,"##ratten":7080,"forsknings":7081,"tjenester":7082,"kry":7083,"##ensioner":7084,"ringde":7085,"introdu":7086,"46":7087,"lankar":7088,"nagonstans":7089,"##holder":7090,"##losa":7091,"##viken":7092,"unika":7093,"konstater":7094,"begr":7095,"hjarta":7096,"##tatt":7097,"kombination":7098,"bransch":7099,"##atorer":7100,"##ela":7101,"særlig":7102,"assist":7103,"hoppa":7104,"tillganglig":7105,"logga":7106,"##landet":7107,"amerikansk":7108,"arsm":7109,"love":7110,"veter":7111,"##usten":7112,"avanc":7113,"forsamling":7114,"initiativ":7115,"fn":7116,"barna":7117,"handen":7118,"skatte":7119,"utseende":7120,"jurid":7121,"dos":7122,"uppfy":7123,"##drett":7124,"troll":7125,"##punkter":7126,"slike":7127,"skan":7128,"##engt":7129,"##11":7130,"##rare":7131,"##yra":7132,"nodvandigt":7133,"piz":7134,"##niva":7135,"traffar":7136,"romant":7137,"skot":7138,"godis":7139,"##ynt":7140,"jonas":7141,"linje":7142,"##intress":7143,"enheter":7144,"##kelse":7145,"beb":7146,"forutsattning":7147,"organisationer":7148,"##onym":7149,"fargen":7150,"dekor":7151,"sop":7152,"smor":7153,"skaffa":7154,"halften":7155,"hens":7156,"##alender":7157,"pagar":7158,"##sek":7159,"mjolk":7160,"aktiver":7161,"jer":7162,"traffade":7163,"dop":7164,"hjartat":7165,"dildo":7166,"ledande":7167,"porrfilmer":7168,"##osof":7169,"even":7170,"uppleva":7171,"##vere":7172,"##gangar":7173,"hehe":7174,"nyckel":7175,"##urg":7176,"##best":7177,"lyd":7178,"ledam":7179,"badrum":7180,"belopp":7181,"tant":7182,"enkelte":7183,"##raning":7184,"resul":7185,"ork":7186,"##sman":7187,"pc":7188,"##ward":7189,"count":7190,"intressanta":7191,"make":7192,"redus":7193,"bot":7194,"mek":7195,"ryggen":7196,"##verse":7197,"fullstand":7198,"49":7199,"vintern":7200,"##ep":7201,"klassiska":7202,"##iene":7203,"kontrakt":7204,"saknas":7205,"unik":7206,"hjelpe":7207,"##och":7208,"##ivalen":7209,"valkomna":7210,"grann":7211,"lagenheten":7212,"##rym":7213,"raknas":7214,"##skyl":7215,"##fam":7216,"support":7217,"besta":7218,"##sene":7219,"kans":7220,"##ikken":7221,"framtida":7222,"sus":7223,"##ands":7224,"utav":7225,"texten":7226,"gren":7227,"misstan":7228,"lycka":7229,"deltagare":7230,"nio":7231,"##orte":7232,"##ordningen":7233,"hi":7234,"rej":7235,"varsta":7236,"lj":7237,"blanda":7238,"minne":7239,"inlagget":7240,"inner":7241,"skickas":7242,"arten":7243,"pasta":7244,"expl":7245,"avsugning":7246,"girls":7247,"civ":7248,"konkret":7249,"stedet":7250,"osaker":7251,"##arbetet":7252,"sexy":7253,"anbef":7254,"franska":7255,"uppfolj":7256,"that":7257,"artiklar":7258,"overallt":7259,"grunden":7260,"sags":7261,"##jef":7262,"krimin":7263,"bedomning":7264,"batter":7265,"ell":7266,"undersokning":7267,"perio":7268,"frasch":7269,"matemat":7270,"dokumenter":7271,"##anvand":7272,"akadem":7273,"##omrade":7274,"oppnar":7275,"turn":7276,"slappa":7277,"##rument":7278,"trol":7279,"44":7280,"sarskilda":7281,"ledig":7282,"timer":7283,"sjukhus":7284,"skickar":7285,"mju":7286,"##icy":7287,"klassen":7288,"line":7289,"befint":7290,"##ffer":7291,"resor":7292,"##afil":7293,"world":7294,"##wn":7295,"##sforen":7296,"##mask":7297,"tiltak":7298,"okade":7299,"forts":7300,"beskrivning":7301,"##rinning":7302,"stammer":7303,"svamp":7304,"##somraden":7305,"##mere":7306,"##plikt":7307,"mulighet":7308,"funnits":7309,"shopping":7310,"leverans":7311,"##byggnad":7312,"trygghet":7313,"mobilt":7314,"ratta":7315,"nik":7316,"eldre":7317,"aning":7318,"mex":7319,"ent":7320,"##irt":7321,"hundra":7322,"positiva":7323,"sadar":7324,"##amer":7325,"foraldr":7326,"butiker":7327,"onod":7328,"hemm":7329,"utrustning":7330,"kandid":7331,"refer":7332,"saledes":7333,"ekstra":7334,"champ":7335,"gemensamt":7336,"##kval":7337,"digitala":7338,"bilde":7339,"fen":7340,"egne":7341,"vardering":7342,"betalning":7343,"økt":7344,"massasje":7345,"##sven":7346,"overtyg":7347,"##ølge":7348,"stro":7349,"##beroende":7350,"fiske":7351,"anlagg":7352,"slit":7353,"hag":7354,"fordelar":7355,"altsa":7356,"600":7357,"plocka":7358,"##oper":7359,"søn":7360,"##riken":7361,"arab":7362,"arv":7363,"##jande":7364,"##onn":7365,"lul":7366,"tillagg":7367,"ange":7368,"sekunder":7369,"bredvid":7370,"tillfallen":7371,"januar":7372,"##uro":7373,"ofor":7374,"##spill":7375,"kjærlighet":7376,"ansatte":7377,"##bal":7378,"##bit":7379,"millioner":7380,"lille":7381,"##namnden":7382,"fjell":7383,"##pre":7384,"lou":7385,"##vi":7386,"##ico":7387,"snitt":7388,"vagg":7389,"kommunal":7390,"vise":7391,"anmalan":7392,"bestammelser":7393,"kampen":7394,"##kje":7395,"ledning":7396,"funksjon":7397,"##behov":7398,"##utbildning":7399,"vurder":7400,"##sreg":7401,"lokaler":7402,"##hallen":7403,"kik":7404,"1990":7405,"##forbundet":7406,"##indu":7407,"stack":7408,"ki":7409,"barns":7410,"svt":7411,"genomfora":7412,"undantag":7413,"undervisning":7414,"grattis":7415,"sorg":7416,"##deringar":7417,"egentlig":7418,"##ski":7419,"minskar":7420,"tacka":7421,"ratten":7422,"engelsk":7423,"##varm":7424,"from":7425,"produkten":7426,"99":7427,"##ums":7428,"reserv":7429,"agare":7430,"forlag":7431,"framover":7432,"startar":7433,"syfta":7434,"iv":7435,"##istisk":7436,"kompon":7437,"tilbud":7438,"##resultat":7439,"betalnings":7440,"##tav":7441,"minsta":7442,"##ugan":7443,"fysisk":7444,"forsam":7445,"langivare":7446,"forman":7447,"rob":7448,"repar":7449,"##ney":7450,"isol":7451,"##vn":7452,"que":7453,"mall":7454,"passade":7455,"##resa":7456,"avfall":7457,"##sbol":7458,"##sked":7459,"behandlingen":7460,"##ringen":7461,"julkla":7462,"hanga":7463,"prag":7464,"ola":7465,"##ftar":7466,"pi":7467,"utenfor":7468,"artikeln":7469,"tavlingen":7470,"kristian":7471,"cro":7472,"##ls":7473,"turk":7474,"##vetenskap":7475,"##ege":7476,"##frika":7477,"sun":7478,"##sse":7479,"motion":7480,"befolkningen":7481,"støtte":7482,"stefan":7483,"tycka":7484,"kurser":7485,"frihet":7486,"##umm":7487,"allting":7488,"prost":7489,"professor":7490,"domin":7491,"##kommande":7492,"##ennende":7493,"blas":7494,"flyttade":7495,"47":7496,"##fir":7497,"fotball":7498,"sakra":7499,"varor":7500,"##fører":7501,"##bad":7502,"##entals":7503,"lim":7504,"forbindelse":7505,"emma":7506,"##bilar":7507,"politisk":7508,"vaxa":7509,"##box":7510,"kreativ":7511,"hanger":7512,"bekym":7513,"konsument":7514,"sundsvall":7515,"##skj":7516,"innhold":7517,"ker":7518,"escorts":7519,"noll":7520,"##rog":7521,"##ningene":7522,"anger":7523,"##andre":7524,"plasser":7525,"laten":7526,"##inga":7527,"deretter":7528,"skydda":7529,"kyck":7530,"##skapen":7531,"brit":7532,"##sniva":7533,"##haller":7534,"inre":7535,"uttr":7536,"mini":7537,"begynte":7538,"modellen":7539,"tomt":7540,"stann":7541,"180":7542,"##ime":7543,"rena":7544,"##stud":7545,"ri":7546,"guide":7547,"##skudd":7548,"rekt":7549,"##aret":7550,"bett":7551,"##siden":7552,"##evis":7553,"reflekt":7554,"cup":7555,"startet":7556,"##umer":7557,"forre":7558,"##institut":7559,"##varlden":7560,"naturliga":7561,"ref":7562,"kryss":7563,"latar":7564,"prosjektet":7565,"gram":7566,"verkligheten":7567,"ryssland":7568,"ledar":7569,"##spa":7570,"socialt":7571,"##sbruk":7572,"alltfor":7573,"speg":7574,"somn":7575,"golvet":7576,"43":7577,"medfor":7578,"gru":7579,"##12":7580,"magnus":7581,"inredning":7582,"seri":7583,"robert":7584,"halm":7585,"lære":7586,"spelat":7587,"demon":7588,"##indra":7589,"motet":7590,"##formen":7591,"vaga":7592,"samla":7593,"olje":7594,"mine":7595,"##ykke":7596,"omfattar":7597,"##erligen":7598,"##ffar":7599,"##former":7600,"tam":7601,"gammel":7602,"typen":7603,"forklara":7604,"islam":7605,"virkelig":7606,"ful":7607,"##sform":7608,"rekry":7609,"original":7610,"##ementer":7611,"intell":7612,"##oth":7613,"toal":7614,"annon":7615,"##ingarna":7616,"fragar":7617,"swedish":7618,"##dra":7619,"varre":7620,"kalmar":7621,"##olja":7622,"##atisk":7623,"vei":7624,"oblig":7625,"##speri":7626,"##que":7627,"2019":7628,"framsta":7629,"forslaget":7630,"forestall":7631,"hastar":7632,"restauranger":7633,"mix":7634,"##amal":7635,"høyere":7636,"grej":7637,"fira":7638,"brett":7639,"lokalt":7640,"##øs":7641,"##ria":7642,"kvinne":7643,"ment":7644,"observer":7645,"luften":7646,"moten":7647,"instagram":7648,"mur":7649,"##skam":7650,"delstaten":7651,"##føring":7652,"historie":7653,"utfora":7654,"fjarde":7655,"svaret":7656,"aktiva":7657,"##inister":7658,"##skom":7659,"pers":7660,"bestammer":7661,"foll":7662,"##rarna":7663,"nerv":7664,"##ningens":7665,"##mande":7666,"##annes":7667,"attrakt":7668,"trapp":7669,"radda":7670,"arbeids":7671,"##con":7672,"død":7673,"hyr":7674,"innenfor":7675,"marknadsforing":7676,"utok":7677,"eventuellt":7678,"##avtal":7679,"##rol":7680,"##atte":7681,"##iendom":7682,"socialdemokrat":7683,"avvik":7684,"ler":7685,"##rapport":7686,"utbildningen":7687,"ull":7688,"ventil":7689,"rant":7690,"fortroende":7691,"upplever":7692,"rora":7693,"##zonen":7694,"dia":7695,"minim":7696,"rapporten":7697,"##anken":7698,"angaende":7699,"storbritannien":7700,"karriar":7701,"balans":7702,"##uv":7703,"gjenopp":7704,"tolv":7705,"duktig":7706,"bygge":7707,"##mode":7708,"##riter":7709,"##forsalj":7710,"horde":7711,"##anal":7712,"trond":7713,"more":7714,"##inform":7715,"##service":7716,"##olf":7717,"1800":7718,"skador":7719,"tip":7720,"behovet":7721,"##strin":7722,"anslutning":7723,"check":7724,"power":7725,"##fag":7726,"aterigen":7727,"sd":7728,"##schef":7729,"kasin":7730,"spanien":7731,"satsa":7732,"offentliga":7733,"stri":7734,"snall":7735,"arbetsmark":7736,"administr":7737,"avgorande":7738,"##inav":7739,"bestamma":7740,"##hr":7741,"arkiv":7742,"skolen":7743,"patient":7744,"##itionen":7745,"west":7746,"tillat":7747,"##stallningen":7748,"forskott":7749,"##ani":7750,"foran":7751,"appen":7752,"nilsson":7753,"aktier":7754,"stadig":7755,"butiken":7756,"kallad":7757,"partiet":7758,"##savgift":7759,"fundera":7760,"iran":7761,"##uth":7762,"##old":7763,"##cia":7764,"beslutet":7765,"##læring":7766,"##botten":7767,"cas":7768,"alsk":7769,"vander":7770,"sortiment":7771,"christian":7772,"andreas":7773,"sikre":7774,"##jansten":7775,"war":7776,"ifølge":7777,"sprid":7778,"karlstad":7779,"handelser":7780,"##ivande":7781,"hinna":7782,"##kal":7783,"cell":7784,"##smak":7785,"fond":7786,"41":7787,"generisk":7788,"##juter":7789,"meld":7790,"felakt":7791,"diverse":7792,"nem":7793,"lamnat":7794,"rog":7795,"pir":7796,"sota":7797,"blick":7798,"imp":7799,"banken":7800,"##ple":7801,"besl":7802,"uppna":7803,"foregaende":7804,"gaster":7805,"daglig":7806,"himmel":7807,"registrera":7808,"strategi":7809,"##rika":7810,"##gick":7811,"fik":7812,"smitt":7813,"utredning":7814,"mr":7815,"uts":7816,"##ymp":7817,"sammant":7818,"situationen":7819,"gom":7820,"torg":7821,"diskutera":7822,"##li":7823,"posted":7824,"##kas":7825,"##ikal":7826,"1999":7827,"lasare":7828,"arbetat":7829,"##uch":7830,"##cks":7831,"venner":7832,"behandlas":7833,"##vide":7834,"klas":7835,"cal":7836,"bedriv":7837,"##mail":7838,"bri":7839,"noggran":7840,"undervis":7841,"##nast":7842,"tillfallet":7843,"eva":7844,"wall":7845,"lart":7846,"order":7847,"nyss":7848,"rekord":7849,"darlig":7850,"automatiskt":7851,"##angel":7852,"kategorier":7853,"##rekte":7854,"tillbehor":7855,"pask":7856,"kanal":7857,"##befolkad":7858,"##tere":7859,"avser":7860,"##flytt":7861,"forsvinner":7862,"miljarder":7863,"poker":7864,"nødvendig":7865,"ansiktet":7866,"tillfor":7867,"apple":7868,"##klass":7869,"##forbund":7870,"bolig":7871,"##ckan":7872,"underlag":7873,"trop":7874,"exklus":7875,"high":7876,"kontinuer":7877,"##rass":7878,"kompisar":7879,"##rimin":7880,"##arden":7881,"bull":7882,"ox":7883,"faktorer":7884,"temperatur":7885,"hyra":7886,"##bla":7887,"rit":7888,"##skrav":7889,"forskare":7890,"diam":7891,"eneste":7892,"sahar":7893,"victor":7894,"gusta":7895,"##kurat":7896,"legger":7897,"banker":7898,"engagemang":7899,"bostader":7900,"##nare":7901,"sve":7902,"redig":7903,"cafe":7904,"kristna":7905,"##di":7906,"hemmet":7907,"kameran":7908,"tranings":7909,"single":7910,"lese":7911,"##slyck":7912,"norrkoping":7913,"utgangspunkt":7914,"papek":7915,"klassisk":7916,"ikkje":7917,"bjod":7918,"turen":7919,"spin":7920,"kvinnan":7921,"##omb":7922,"##ismen":7923,"nyfiken":7924,"efterat":7925,"apen":7926,"bygget":7927,"deltar":7928,"akkurat":7929,"##ppe":7930,"salg":7931,"##besok":7932,"sec":7933,"##hjal":7934,"185":7935,"rott":7936,"##domen":7937,"orden":7938,"##omraden":7939,"rorelse":7940,"##sbygg":7941,"##js":7942,"hverandre":7943,"utdanning":7944,"##pac":7945,"teknisk":7946,"##radd":7947,"nojda":7948,"##satter":7949,"##ytter":7950,"axel":7951,"spille":7952,"boras":7953,"##got":7954,"informationen":7955,"arter":7956,"phil":7957,"##boken":7958,"troligen":7959,"##ians":7960,"emil":7961,"arbetst":7962,"sydostra":7963,"ansvarig":7964,"medveten":7965,"##ua":7966,"hypotek":7967,"##esh":7968,"##ysning":7969,"inred":7970,"roman":7971,"strid":7972,"##matt":7973,"filosof":7974,"##rikes":7975,"pigg":7976,"blek":7977,"sannolikt":7978,"##ugor":7979,"eier":7980,"gunn":7981,"behor":7982,"##60":7983,"##byte":7984,"sarskild":7985,"##80":7986,"##lagen":7987,"windows":7988,"lulea":7989,"##linjer":7990,"loss":7991,"utstyr":7992,"##ele":7993,"idrett":7994,"##mas":7995,"##kket":7996,"skolor":7997,"william":7998,"##varor":7999,"cancer":8000,"utrymme":8001,"statens":8002,"fjor":8003,"hjemme":8004,"skiljer":8005,"garder":8006,"vær":8007,"planering":8008,"turist":8009,"indik":8010,"dryck":8011,"jamt":8012,"##jekter":8013,"finna":8014,"##orp":8015,"hypotekslan":8016,"koncentr":8017,"instit":8018,"skillnaden":8019,"marked":8020,"obefolkad":8021,"pojk":8022,"kull":8023,"tranar":8024,"vaxjo":8025,"##smed":8026,"baten":8027,"opprett":8028,"##øv":8029,"##elses":8030,"##skop":8031,"arlig":8032,"riks":8033,"enlighet":8034,"exist":8035,"lut":8036,"##bring":8037,"bif":8038,"misslyck":8039,"##produkter":8040,"eiendom":8041,"##maktige":8042,"##aterna":8043,"noga":8044,"vanligen":8045,"driva":8046,"##vaxtart":8047,"atgard":8048,"sovrum":8049,"ekonomisk":8050,"fasta":8051,"totala":8052,"##ogon":8053,"tradisjon":8054,"obs":8055,"utvalg":8056,"relationer":8057,"funnet":8058,"##upplev":8059,"reag":8060,"250":8061,"##do":8062,"forteller":8063,"jac":8064,"veien":8065,"kaff":8066,"andelen":8067,"ec":8068,"presentation":8069,"##ae":8070,"##fria":8071,"##beskrivning":8072,"ansvarar":8073,"sexig":8074,"##mun":8075,"teen":8076,"##oten":8077,"onskemal":8078,"##kande":8079,"omedelbart":8080,"##cus":8081,"intill":8082,"##sbyg":8083,"##gin":8084,"religion":8085,"surf":8086,"##splatser":8087,"lagstift":8088,"##hast":8089,"forf":8090,"kortare":8091,"arbeider":8092,"bock":8093,"800":8094,"forsokt":8095,"##sna":8096,"ike":8097,"##ete":8098,"##oring":8099,"arbetsgiv":8100,"knut":8101,"penger":8102,"jamn":8103,"nick":8104,"byggnader":8105,"52":8106,"##rost":8107,"tilf":8108,"lamnas":8109,"##illkor":8110,"starten":8111,"grejer":8112,"omstand":8113,"##ladd":8114,"bul":8115,"tyng":8116,"sykdom":8117,"ferdig":8118,"##øte":8119,"spennende":8120,"formed":8121,"apotek":8122,"##astro":8123,"framgar":8124,"cla":8125,"bott":8126,"##bby":8127,"traffas":8128,"1980":8129,"##ssp":8130,"uppmarksamhet":8131,"ringer":8132,"cykl":8133,"pann":8134,"forhallanden":8135,"penis":8136,"medborg":8137,"ran":8138,"mobiltelefon":8139,"halva":8140,"familje":8141,"samverkan":8142,"tonaring":8143,"59":8144,"styrka":8145,"familjer":8146,"divis":8147,"##ettet":8148,"retur":8149,"1900":8150,"64":8151,"tap":8152,"##ksjoner":8153,"##orks":8154,"upptacka":8155,"##inter":8156,"micha":8157,"##taget":8158,"handlade":8159,"protokoll":8160,"syr":8161,"sjukvard":8162,"##sspel":8163,"##sne":8164,"##kro":8165,"kritik":8166,"##kvall":8167,"faststall":8168,"sug":8169,"##forening":8170,"svarare":8171,"hinder":8172,"##riker":8173,"grand":8174,"lagar":8175,"##ortt":8176,"##tion":8177,"cu":8178,"##hengig":8179,"basen":8180,"paborj":8181,"##sommar":8182,"ski":8183,"intresserade":8184,"##komma":8185,"høyre":8186,"inser":8187,"https":8188,"advok":8189,"alternativt":8190,"ansl":8191,"##plass":8192,"baby":8193,"mika":8194,"vanligaste":8195,"##ivitet":8196,"praktisk":8197,"amnet":8198,"eftermiddag":8199,"##ved":8200,"##ited":8201,"komplett":8202,"forpack":8203,"samm":8204,"eleg":8205,"##garen":8206,"evenemang":8207,"anord":8208,"rejalt":8209,"##cir":8210,"lax":8211,"##gatt":8212,"##isin":8213,"optim":8214,"##oma":8215,"ple":8216,"gifta":8217,"front":8218,"invol":8219,"##sland":8220,"svenskar":8221,"spraket":8222,"skram":8223,"##arch":8224,"##aning":8225,"miner":8226,"sko":8227,"terror":8228,"nt":8229,"nomin":8230,"yta":8231,"lesbisk":8232,"gitar":8233,"##icera":8234,"goteborgs":8235,"narmast":8236,"gustav":8237,"omt":8238,"likt":8239,"##skort":8240,"etik":8241,"bostadsratt":8242,"hemsidan":8243,"##fo":8244,"juster":8245,"bist":8246,"medlemmer":8247,"situationer":8248,"##gjort":8249,"fjall":8250,"oxa":8251,"kontakter":8252,"hev":8253,"##rades":8254,"lost":8255,"##problem":8256,"##ye":8257,"trom":8258,"asikter":8259,"museum":8260,"omojligt":8261,"petter":8262,"svag":8263,"##play":8264,"sinn":8265,"##che":8266,"1970":8267,"1998":8268,"format":8269,"varlds":8270,"liber":8271,"avlon":8272,"amne":8273,"fril":8274,"diskussion":8275,"##kopings":8276,"##peri":8277,"##kontakt":8278,"lyssnar":8279,"##savtal":8280,"knyttet":8281,"følger":8282,"utomlands":8283,"antagligen":8284,"hold":8285,"pyss":8286,"##skvall":8287,"overen":8288,"##wood":8289,"traningen":8290,"leksaker":8291,"innehallet":8292,"##estad":8293,"##stiden":8294,"##bri":8295,"gemensam":8296,"##bs":8297,"bordet":8298,"sjalvstand":8299,"søke":8300,"##ogn":8301,"leverantorer":8302,"manniskan":8303,"halmstad":8304,"selskapet":8305,"uke":8306,"##antering":8307,"##pot":8308,"skulder":8309,"hvilke":8310,"##fast":8311,"flicka":8312,"##umin":8313,"para":8314,"##material":8315,"medverk":8316,"##15":8317,"allmanhet":8318,"stader":8319,"trend":8320,"linne":8321,"skapat":8322,"cd":8323,"##sjuk":8324,"skona":8325,"dyker":8326,"ekonomiskt":8327,"inomhus":8328,"120":8329,"astr":8330,"##sas":8331,"kyrka":8332,"fora":8333,"erbjudande":8334,"##ekul":8335,"##rel":8336,"##grund":8337,"poly":8338,"visserligen":8339,"koncept":8340,"##cam":8341,"##ykket":8342,"sto":8343,"##mene":8344,"fodelsedag":8345,"eleven":8346,"ansvaret":8347,"latin":8348,"jattebra":8349,"bibel":8350,"leka":8351,"##personer":8352,"seger":8353,"ever":8354,"byn":8355,"kvitt":8356,"##ypt":8357,"##undersok":8358,"kris":8359,"fattar":8360,"fasc":8361,"trevliga":8362,"sikkerhet":8363,"arena":8364,"##can":8365,"parad":8366,"raka":8367,"knappast":8368,"møter":8369,"green":8370,"##ingsdag":8371,"house":8372,"taket":8373,"benen":8374,"døde":8375,"##rona":8376,"transporter":8377,"strøm":8378,"effekter":8379,"oppdag":8380,"pag":8381,"##rifter":8382,"##mak":8383,"utval":8384,"##bolaget":8385,"##osen":8386,"pdf":8387,"eskorter":8388,"##platt":8389,"##skill":8390,"twitter":8391,"hellre":8392,"utbildnings":8393,"##ordes":8394,"varmen":8395,"##inarie":8396,"anvande":8397,"presentera":8398,"formen":8399,"lac":8400,"munnen":8401,"ovanligt":8402,"call":8403,"##ative":8404,"##ml":8405,"liter":8406,"cum":8407,"trivs":8408,"riv":8409,"##ydds":8410,"impl":8411,"##uel":8412,"olja":8413,"tvart":8414,"##iled":8415,"berom":8416,"aktuell":8417,"olof":8418,"planerar":8419,"overvag":8420,"borg":8421,"planera":8422,"skara":8423,"ago":8424,"foreslar":8425,"identif":8426,"##ents":8427,"index":8428,"rutiner":8429,"##ugo":8430,"##itor":8431,"bang":8432,"##18":8433,"basert":8434,"##landa":8435,"opplys":8436,"##sfull":8437,"forvaltning":8438,"##eland":8439,"##aktor":8440,"darifran":8441,"gyn":8442,"klimatzonen":8443,"inslag":8444,"kategori":8445,"kollar":8446,"rus":8447,"behalla":8448,"slutligen":8449,"pod":8450,"mi":8451,"delas":8452,"stj":8453,"jobbade":8454,"fjarils":8455,"isa":8456,"##drom":8457,"doda":8458,"snur":8459,"##uttar":8460,"storst":8461,"exempl":8462,"markt":8463,"get":8464,"kassa":8465,"##onger":8466,"##ense":8467,"mkt":8468,"fur":8469,"slang":8470,"##ordin":8471,"gutt":8472,"##asjer":8473,"kjente":8474,"##agan":8475,"##ares":8476,"##fen":8477,"##lit":8478,"navnet":8479,"trening":8480,"charl":8481,"melod":8482,"konsekvenser":8483,"##iellt":8484,"hvem":8485,"lic":8486,"foljde":8487,"vr":8488,"lordagen":8489,"fagel":8490,"kus":8491,"kne":8492,"##bered":8493,"styrelse":8494,"##70":8495,"##isera":8496,"karin":8497,"landskap":8498,"forresten":8499,"aspekt":8500,"##stu":8501,"følgende":8502,"tang":8503,"reha":8504,"85":8505,"stannar":8506,"jobber":8507,"##vete":8508,"##kanna":8509,"relater":8510,"hamnade":8511,"bos":8512,"uppstar":8513,"troligt":8514,"##stein":8515,"lenger":8516,"midt":8517,"kraftigt":8518,"tidig":8519,"95":8520,"lær":8521,"down":8522,"høyt":8523,"motesplatsen":8524,"smatt":8525,"sekund":8526,"konfer":8527,"ledde":8528,"cool":8529,"direkte":8530,"materialet":8531,"##fod":8532,"bibliotek":8533,"spark":8534,"flertal":8535,"illustr":8536,"##ugh":8537,"billigare":8538,"uppfor":8539,"mots":8540,"anne":8541,"mata":8542,"##kans":8543,"stracker":8544,"jamfora":8545,"haper":8546,"stallning":8547,"løp":8548,"utmaningar":8549,"##mod":8550,"##munt":8551,"kraftig":8552,"tycks":8553,"overlev":8554,"inkom":8555,"##reter":8556,"##ationerna":8557,"minnes":8558,"##kod":8559,"kod":8560,"pepp":8561,"56":8562,"blond":8563,"##ops":8564,"instrument":8565,"avslapp":8566,"eventuell":8567,"skinn":8568,"sluts":8569,"##vig":8570,"holder":8571,"fjarilsart":8572,"affars":8573,"##rats":8574,"tradgarden":8575,"larsson":8576,"ica":8577,"traditionella":8578,"##jejer":8579,"angest":8580,"linda":8581,"manskliga":8582,"tillag":8583,"##klan":8584,"##iler":8585,"upplag":8586,"fann":8587,"insats":8588,"bis":8589,"jordbruksmark":8590,"##biliter":8591,"speciella":8592,"blogga":8593,"hvorfor":8594,"kjør":8595,"##emon":8596,"##awa":8597,"liker":8598,"bedrift":8599,"ikea":8600,"kyckling":8601,"##olen":8602,"stannade":8603,"##vær":8604,"tjana":8605,"##gu":8606,"uppenbar":8607,"skjut":8608,"summa":8609,"54":8610,"mysig":8611,"eftermiddagen":8612,"prøve":8613,"oberoende":8614,"spor":8615,"pic":8616,"aud":8617,"aks":8618,"avloningsdag":8619,"sende":8620,"obe":8621,"vandring":8622,"sed":8623,"verksamheter":8624,"posten":8625,"rich":8626,"##liggande":8627,"svarade":8628,"tillsatt":8629,"vardagen":8630,"glomt":8631,"##erats":8632,"##yo":8633,"velge":8634,"skrevet":8635,"spri":8636,"akten":8637,"coach":8638,"erbjuds":8639,"##agande":8640,"koppla":8641,"desember":8642,"betalas":8643,"grasm":8644,"emellan":8645,"##banan":8646,"bevilj":8647,"flyttar":8648,"##ago":8649,"vaxter":8650,"read":8651,"##fit":8652,"konsert":8653,"savann":8654,"premiar":8655,"utvikle":8656,"grymt":8657,"##bryt":8658,"verket":8659,"texter":8660,"konkurran":8661,"##ikte":8662,"53":8663,"##iets":8664,"riksdagen":8665,"selskap":8666,"abo":8667,"kommet":8668,"februar":8669,"##vinge":8670,"trondheim":8671,"kveld":8672,"processen":8673,"albumet":8674,"tusentals":8675,"gjøres":8676,"##ath":8677,"atmos":8678,"jos":8679,"missa":8680,"ukra":8681,"utstra":8682,"pavir":8683,"lane":8684,"scenen":8685,"voksne":8686,"##ordet":8687,"##asy":8688,"konferens":8689,"paus":8690,"##egang":8691,"medlemskap":8692,"##usk":8693,"##eks":8694,"fysiska":8695,"sjek":8696,"##losning":8697,"##sbrev":8698,"formul":8699,"klimatet":8700,"osc":8701,"knappen":8702,"##ament":8703,"civil":8704,"enormt":8705,"argument":8706,"spelas":8707,"##ming":8708,"##jent":8709,"club":8710,"rida":8711,"hantverk":8712,"speciell":8713,"ytan":8714,"informer":8715,"have":8716,"uppman":8717,"3d":8718,"##skaff":8719,"myr":8720,"skoj":8721,"rekommendera":8722,"inspel":8723,"ordinarie":8724,"##mast":8725,"avgjør":8726,"bens":8727,"lediga":8728,"##pporter":8729,"##tain":8730,"verklighet":8731,"kim":8732,"##000":8733,"avst":8734,"bjør":8735,"slippa":8736,"##yndigheten":8737,"##esjon":8738,"##orth":8739,"foremal":8740,"utgar":8741,"bestallning":8742,"appl":8743,"eric":8744,"skape":8745,"begrav":8746,"sentr":8747,"final":8748,"egendom":8749,"##itra":8750,"helsingfors":8751,"monter":8752,"ferd":8753,"runda":8754,"anstr":8755,"eskil":8756,"lade":8757,"spins":8758,"rø":8759,"korr":8760,"identitet":8761,"##ague":8762,"flest":8763,"##freds":8764,"gymnasie":8765,"imor":8766,"##skommun":8767,"##isere":8768,"bredden":8769,"hack":8770,"koncer":8771,"##aldern":8772,"##roller":8773,"rosen":8774,"garanti":8775,"##lass":8776,"gront":8777,"møtt":8778,"##iftet":8779,"absol":8780,"##uelt":8781,"lyfta":8782,"##opro":8783,"##nads":8784,"tilgjengelig":8785,"alvor":8786,"foton":8787,"begynner":8788,"vo":8789,"##fang":8790,"##ansett":8791,"cyk":8792,"poeng":8793,"tabl":8794,"##sprodukter":8795,"verkade":8796,"dun":8797,"australien":8798,"jente":8799,"trav":8800,"umgas":8801,"andring":8802,"bytte":8803,"praktiskt":8804,"##holmen":8805,"dru":8806,"##ilte":8807,"beteende":8808,"good":8809,"opprinn":8810,"distrikt":8811,"upphov":8812,"##24":8813,"##klad":8814,"kust":8815,"elva":8816,"184":8817,"stallde":8818,"##lista":8819,"##varme":8820,"general":8821,"finalen":8822,"mp":8823,"deltog":8824,"plugga":8825,"##ementet":8826,"##ano":8827,"fransk":8828,"andro":8829,"##rut":8830,"##oppa":8831,"##sjo":8832,"stoppa":8833,"##ripande":8834,"expert":8835,"tavla":8836,"hockey":8837,"insag":8838,"betalt":8839,"lokale":8840,"bekant":8841,"fott":8842,"##orten":8843,"hamtade":8844,"##bana":8845,"telefonnummer":8846,"regul":8847,"lot":8848,"paga":8849,"##forvalt":8850,"universitetet":8851,"belon":8852,"blu":8853,"lagenheter":8854,"utrolig":8855,"forvand":8856,"##uld":8857,"##16":8858,"armen":8859,"##utvik":8860,"suger":8861,"moss":8862,"besoker":8863,"utbredning":8864,"##ission":8865,"swinger":8866,"viktigste":8867,"syssel":8868,"hastighet":8869,"##jun":8870,"diskrimin":8871,"uc":8872,"##itz":8873,"##ally":8874,"tillsyn":8875,"ottawa":8876,"result":8877,"##holl":8878,"bryr":8879,"##varde":8880,"internett":8881,"1997":8882,"faktur":8883,"statt":8884,"solid":8885,"raskt":8886,"jarnvag":8887,"##ingo":8888,"lita":8889,"sovjet":8890,"overrask":8891,"veget":8892,"word":8893,"glomma":8894,"aga":8895,"veckans":8896,"##vare":8897,"##ymer":8898,"bakter":8899,"sambo":8900,"asyl":8901,"uansett":8902,"generellt":8903,"anton":8904,"gjordes":8905,"##vards":8906,"doft":8907,"certifier":8908,"##samtal":8909,"krydd":8910,"bjuda":8911,"intraff":8912,"dansk":8913,"movies":8914,"dagligen":8915,"lask":8916,"gustaf":8917,"##gubb":8918,"bubb":8919,"brut":8920,"maskiner":8921,"##core":8922,"kapitel":8923,"omgivande":8924,"prop":8925,"rekommenderas":8926,"rop":8927,"##ampa":8928,"##onomi":8929,"1960":8930,"aktorer":8931,"orienter":8932,"##agaren":8933,"bin":8934,"forskolan":8935,"forlang":8936,"##shem":8937,"inbjud":8938,"##ensis":8939,"femin":8940,"vert":8941,"johannes":8942,"##ison":8943,"michael":8944,"attack":8945,"karleken":8946,"ess":8947,"lena":8948,"mobler":8949,"minut":8950,"jamforelse":8951,"gronsaker":8952,"sutt":8953,"kniv":8954,"klokker":8955,"league":8956,"parall":8957,"handler":8958,"serier":8959,"##14":8960,"##zon":8961,"##fragas":8962,"kompetanse":8963,"kaka":8964,"##pad":8965,"tør":8966,"ht":8967,"norden":8968,"##atur":8969,"bakgrunn":8970,"forsak":8971,"body":8972,"meddelande":8973,"##elden":8974,"forstark":8975,"lamplig":8976,"##elsene":8977,"##beratt":8978,"lisa":8979,"irriter":8980,"hammar":8981,"halsen":8982,"relevant":8983,"storm":8984,"hanna":8985,"larande":8986,"inge":8987,"tvavinge":8988,"tvavingeart":8989,"##enta":8990,"##shand":8991,"karlsson":8992,"##yper":8993,"station":8994,"journal":8995,"angiv":8996,"##ides":8997,"57":8998,"gjord":8999,"bron":9000,"##vark":9001,"andamal":9002,"##oppen":9003,"musiken":9004,"##ienten":9005,"##hals":9006,"##foring":9007,"malin":9008,"temat":9009,"tillater":9010,"harda":9011,"utlaning":9012,"express":9013,"kontaktannonser":9014,"vite":9015,"gransen":9016,"##statt":9017,"imorse":9018,"flor":9019,"somnade":9020,"elit":9021,"krev":9022,"##sperson":9023,"lør":9024,"##osex":9025,"##itch":9026,"nivaer":9027,"##ese":9028,"betong":9029,"intakter":9030,"lyft":9031,"perman":9032,"upplevelser":9033,"motsvarar":9034,"tidning":9035,"sjukdomar":9036,"traffat":9037,"##talje":9038,"uker":9039,"tenn":9040,"pussy":9041,"lud":9042,"lone":9043,"pall":9044,"##arbeider":9045,"synner":9046,"act":9047,"kostnaden":9048,"##istik":9049,"velat":9050,"fynd":9051,"ledsen":9052,"anvandar":9053,"##menn":9054,"biljetter":9055,"anti":9056,"avrinning":9057,"##tjanst":9058,"##porr":9059,"utnyttja":9060,"styra":9061,"tunga":9062,"##vat":9063,"ress":9064,"##edia":9065,"skoter":9066,"regelbundet":9067,"nyar":9068,"##projekt":9069,"organisationen":9070,"konsult":9071,"svett":9072,"##annsyn":9073,"morse":9074,"##90":9075,"##fikk":9076,"motte":9077,"springer":9078,"kopen":9079,"utviklet":9080,"hasten":9081,"handlingar":9082,"##sall":9083,"##cesser":9084,"##fat":9085,"losen":9086,"starkare":9087,"##verkt":9088,"fokusera":9089,"##uen":9090,"##sstil":9091,"##entlig":9092,"debut":9093,"elin":9094,"afton":9095,"##park":9096,"gb":9097,"##ole":9098,"meny":9099,"ungdoms":9100,"steder":9101,"##21":9102,"##agning":9103,"cop":9104,"##ritt":9105,"home":9106,"fara":9107,"anonym":9108,"frig":9109,"1994":9110,"offer":9111,"kontant":9112,"ud":9113,"personligt":9114,"##onde":9115,"58":9116,"belast":9117,"berlin":9118,"baserat":9119,"historiska":9120,"eme":9121,"ask":9122,"##fla":9123,"latta":9124,"planet":9125,"gubb":9126,"##olution":9127,"fredags":9128,"halls":9129,"##stan":9130,"##uttet":9131,"##ool":9132,"lun":9133,"ara":9134,"##vikt":9135,"cap":9136,"djupt":9137,"anlaggning":9138,"definition":9139,"##otte":9140,"##offer":9141,"##esel":9142,"barneh":9143,"rollen":9144,"##meddel":9145,"##entene":9146,"styret":9147,"bengt":9148,"pak":9149,"datab":9150,"forbud":9151,"loj":9152,"##otet":9153,"styre":9154,"undersoka":9155,"goran":9156,"##com":9157,"fader":9158,"stadens":9159,"##ksis":9160,"vaggen":9161,"retning":9162,"snack":9163,"tunnel":9164,"spons":9165,"nederland":9166,"##agna":9167,"republ":9168,"saaa":9169,"galla":9170,"nordiska":9171,"look":9172,"##25":9173,"kann":9174,"##mans":9175,"sjukskoter":9176,"apne":9177,"kjenner":9178,"annons":9179,"##bildning":9180,"tranare":9181,"##bordet":9182,"andas":9183,"farre":9184,"tuff":9185,"tvar":9186,"telefonen":9187,"utstrackning":9188,"politiet":9189,"affarer":9190,"koka":9191,"gjorts":9192,"##ultur":9193,"partier":9194,"bomull":9195,"opplæring":9196,"infrast":9197,"protein":9198,"avtalet":9199,"cur":9200,"studio":9201,"pren":9202,"varierar":9203,"##vest":9204,"##ked":9205,"##alte":9206,"##ansvart":9207,"##iness":9208,"dygn":9209,"phot":9210,"##isser":9211,"overenskomm":9212,"##stekn":9213,"##skra":9214,"##annet":9215,"##delser":9216,"##ij":9217,"foddes":9218,"narings":9219,"favoriter":9220,"skrive":9221,"leverantor":9222,"klatt":9223,"num":9224,"##jning":9225,"tenke":9226,"##sprojekt":9227,"rand":9228,"placering":9229,"intressen":9230,"hekt":9231,"##ners":9232,"signal":9233,"##olin":9234,"farmor":9235,"##rater":9236,"praktik":9237,"genast":9238,"avses":9239,"plugg":9240,"overst":9241,"minutter":9242,"ovant":9243,"buk":9244,"##emid":9245,"behandlar":9246,"handelse":9247,"viste":9248,"sakerstalla":9249,"omrader":9250,"beskriva":9251,"##giver":9252,"android":9253,"##ical":9254,"sekret":9255,"roligare":9256,"aring":9257,"kalender":9258,"hakan":9259,"##sbes":9260,"syftar":9261,"##varna":9262,"##iljø":9263,"recensioner":9264,"##strand":9265,"tera":9266,"mojligen":9267,"##tack":9268,"plant":9269,"kulture":9270,"##sler":9271,"trett":9272,"1996":9273,"roy":9274,"shem":9275,"likad":9276,"moln":9277,"rank":9278,"brudar":9279,"fenomen":9280,"sank":9281,"##illing":9282,"verkliga":9283,"stada":9284,"reise":9285,"foretagets":9286,"##rustning":9287,"riktlinjer":9288,"yoga":9289,"departementet":9290,"##vention":9291,"##uu":9292,"kannas":9293,"afrika":9294,"beach":9295,"nettsteder":9296,"gjenopprett":9297,"foljt":9298,"styrke":9299,"##lu":9300,"##hjul":9301,"holdt":9302,"pas":9303,"##ffs":9304,"strum":9305,"uppat":9306,"fine":9307,"##soft":9308,"raknar":9309,"##ianter":9310,"alexander":9311,"##tas":9312,"landskapet":9313,"##lene":9314,"##isterna":9315,"datorer":9316,"##kak":9317,"skarm":9318,"praktiska":9319,"tempo":9320,"personlighet":9321,"insattning":9322,"sanna":9323,"gla":9324,"familie":9325,"levitra":9326,"##king":9327,"rask":9328,"utgifter":9329,"##bruks":9330,"asa":9331,"kontra":9332,"inneholder":9333,"dramat":9334,"##sko":9335,"rat":9336,"internationell":9337,"emeller":9338,"rette":9339,"ovre":9340,"tvang":9341,"olymp":9342,"navig":9343,"dygnet":9344,"##our":9345,"##imm":9346,"tuttar":9347,"lærer":9348,"mage":9349,"midsommar":9350,"emellertid":9351,"market":9352,"kriter":9353,"kass":9354,"lung":9355,"his":9356,"tross":9357,"tungt":9358,"##skurs":9359,"element":9360,"##øst":9361,"##sgatan":9362,"konsumenter":9363,"nic":9364,"kopenhamn":9365,"##gards":9366,"dato":9367,"##ener":9368,"suttit":9369,"legat":9370,"##kok":9371,"kvinnliga":9372,"##hør":9373,"##ektion":9374,"luk":9375,"##hoj":9376,"1995":9377,"##cm":9378,"femte":9379,"##aring":9380,"farligt":9381,"atervand":9382,"separat":9383,"inkluderar":9384,"familien":9385,"##efte":9386,"smaning":9387,"##holde":9388,"our":9389,"##ssons":9390,"konstant":9391,"##rod":9392,"psykisk":9393,"kanon":9394,"agen":9395,"ansikte":9396,"sannsyn":9397,"##essen":9398,"##terat":9399,"mikael":9400,"type":9401,"##stjarn":9402,"tilbyr":9403,"##sborg":9404,"bestaende":9405,"mam":9406,"tavlingar":9407,"aterf":9408,"##føres":9409,"skala":9410,"innebara":9411,"##iering":9412,"framme":9413,"##innande":9414,"forebygg":9415,"landsbyg":9416,"##fig":9417,"obligator":9418,"##uppgift":9419,"befintliga":9420,"sympt":9421,"internasjonale":9422,"gunnar":9423,"##skottet":9424,"69":9425,"kjøre":9426,"holm":9427,"johanna":9428,"øke":9429,"konsekvens":9430,"besikt":9431,"akut":9432,"viktige":9433,"##inget":9434,"ingredi":9435,"shemale":9436,"skonhet":9437,"##essig":9438,"julen":9439,"lyst":9440,"##atera":9441,"hatar":9442,"##bile":9443,"##leder":9444,"days":9445,"chil":9446,"skandinav":9447,"##aks":9448,"somna":9449,"uppmunt":9450,"anlegg":9451,"##vagn":9452,"teor":9453,"utgiv":9454,"lanken":9455,"arbetsgivare":9456,"reis":9457,"forfattaren":9458,"##skolen":9459,"verka":9460,"##beide":9461,"snalla":9462,"frid":9463,"##ologiskt":9464,"fordju":9465,"offentlige":9466,"samlar":9467,"uppfattning":9468,"ink":9469,"forandra":9470,"##skriget":9471,"muskel":9472,"planerat":9473,"attra":9474,"##oph":9475,"framgangs":9476,"ugnen":9477,"##station":9478,"##behand":9479,"trosor":9480,"rh":9481,"arenden":9482,"abb":9483,"##forsk":9484,"nm":9485,"fastigheten":9486,"##shop":9487,"livs":9488,"##idan":9489,"##grader":9490,"vardet":9491,"bilaga":9492,"##edda":9493,"smaningom":9494,"##fra":9495,"##jam":9496,"##meter":9497,"hors":9498,"leverera":9499,"livsstil":9500,"skje":9501,"rekommend":9502,"##iserar":9503,"observ":9504,"51":9505,"praktiken":9506,"hr":9507,"oppmer":9508,"hp":9509,"kin":9510,"watch":9511,"negativa":9512,"masse":9513,"aterstall":9514,"prenumer":9515,"anhor":9516,"stycket":9517,"##ikring":9518,"inriktning":9519,"##beth":9520,"serios":9521,"vitamin":9522,"berattelser":9523,"karakter":9524,"##pros":9525,"finska":9526,"duktiga":9527,"arbetslos":9528,"kjønn":9529,"skillnader":9530,"levereras":9531,"67":9532,"foreldre":9533,"fastigheter":9534,"king":9535,"skett":9536,"trist":9537,"##cial":9538,"hette":9539,"##hopp":9540,"kabel":9541,"enheten":9542,"bakat":9543,"what":9544,"lycklig":9545,"prom":9546,"ønsket":9547,"forklarar":9548,"beveg":9549,"tvartom":9550,"kas":9551,"vett":9552,"##lysning":9553,"international":9554,"feber":9555,"radi":9556,"gillade":9557,"fabrik":9558,"resultaten":9559,"forelig":9560,"malm":9561,"##alten":9562,"gig":9563,"ert":9564,"##idor":9565,"sosiale":9566,"hjalpte":9567,"diabet":9568,"##ifi":9569,"bay":9570,"harom":9571,"##rollen":9572,"hett":9573,"##kte":9574,"amerikanske":9575,"kreditkort":9576,"##kong":9577,"tillbring":9578,"overlag":9579,"##22":9580,"annonsen":9581,"dyrt":9582,"forkyl":9583,"lis":9584,"##ifest":9585,"ivar":9586,"##ute":9587,"jamstalld":9588,"valp":9589,"creek":9590,"cha":9591,"gotland":9592,"etn":9593,"afg":9594,"grus":9595,"##dagar":9596,"##sal":9597,"innbyg":9598,"tilgang":9599,"##spass":9600,"specifika":9601,"katastro":9602,"slutten":9603,"volym":9604,"muslim":9605,"borger":9606,"##litt":9607,"kollegor":9608,"##ningss":9609,"spekt":9610,"omvand":9611,"pizza":9612,"1500":9613,"forhandling":9614,"siffror":9615,"##pacitet":9616,"amp":9617,"##varen":9618,"smidigt":9619,"adam":9620,"interesser":9621,"danska":9622,"bryta":9623,"kika":9624,"varenda":9625,"studien":9626,"##center":9627,"##iro":9628,"tydliga":9629,"nøy":9630,"slapper":9631,"##øren":9632,"smink":9633,"##shandel":9634,"internationellt":9635,"##cell":9636,"##egen":9637,"##estall":9638,"##vil":9639,"##iox":9640,"simon":9641,"primar":9642,"##stuna":9643,"##hn":9644,"oppnade":9645,"bik":9646,"kolon":9647,"speed":9648,"undersøkel":9649,"erk":9650,"naringsliv":9651,"sider":9652,"takk":9653,"forandras":9654,"##vas":9655,"behandla":9656,"sakta":9657,"egypt":9658,"##slosa":9659,"heder":9660,"soll":9661,"foredrar":9662,"##glas":9663,"grun":9664,"drivs":9665,"erfaring":9666,"intryck":9667,"personligen":9668,"global":9669,"##ccin":9670,"broder":9671,"forlust":9672,"integritet":9673,"##dagens":9674,"morka":9675,"##domar":9676,"##ojligheter":9677,"lovar":9678,"##ness":9679,"samlet":9680,"##rist":9681,"naz":9682,"kirke":9683,"hop":9684,"forsøk":9685,"register":9686,"senior":9687,"##stilling":9688,"james":9689,"##ew":9690,"##programmet":9691,"brittiska":9692,"stavanger":9693,"##bilitet":9694,"valgt":9695,"##fold":9696,"togs":9697,"pum":9698,"hundrat":9699,"sorts":9700,"maneder":9701,"uppdraget":9702,"##ølv":9703,"foretagen":9704,"66":9705,"slot":9706,"##hard":9707,"harry":9708,"tapet":9709,"ligg":9710,"fragorna":9711,"##yttes":9712,"sexuella":9713,"vantade":9714,"##øen":9715,"jap":9716,"##takten":9717,"hyd":9718,"homo":9719,"teknologi":9720,"##funnet":9721,"gjennomført":9722,"fartyg":9723,"vakt":9724,"blandning":9725,"effekten":9726,"avslo":9727,"gras":9728,"##departementet":9729,"##oser":9730,"eskilstuna":9731,"lordags":9732,"ljuset":9733,"programmer":9734,"1992":9735,"fattig":9736,"stanga":9737,"ingredienser":9738,"gatan":9739,"##disk":9740,"cra":9741,"halvar":9742,"byggdes":9743,"hygg":9744,"portug":9745,"utvecklar":9746,"snon":9747,"##ssystemet":9748,"fylkes":9749,"1993":9750,"nils":9751,"##iere":9752,"utmaning":9753,"foder":9754,"sondagen":9755,"##ystemet":9756,"##skick":9757,"budsj":9758,"katol":9759,"analy":9760,"183":9761,"##inns":9762,"transa":9763,"##smet":9764,"drabbas":9765,"spesial":9766,"##post":9767,"musikal":9768,"##tan":9769,"##sfri":9770,"vunnit":9771,"##formaga":9772,"doktor":9773,"schwe":9774,"jula":9775,"lott":9776,"lopande":9777,"trag":9778,"##hamt":9779,"riskerar":9780,"kalk":9781,"alumin":9782,"human":9783,"studer":9784,"yrke":9785,"komplex":9786,"origin":9787,"kommunala":9788,"falla":9789,"setter":9790,"##maskiner":9791,"minnen":9792,"##osta":9793,"bog":9794,"mør":9795,"##formed":9796,"##emed":9797,"##sutveck":9798,"##øt":9799,"dalarna":9800,"omtal":9801,"bokstav":9802,"vider":9803,"bind":9804,"problemer":9805,"ogonblick":9806,"##parten":9807,"ida":9808,"kond":9809,"##idens":9810,"venstre":9811,"##inspekt":9812,"insikt":9813,"norska":9814,"tvingas":9815,"utstallning":9816,"##sy":9817,"##inari":9818,"dagis":9819,"##kommen":9820,"medelhav":9821,"tings":9822,"skum":9823,"parlam":9824,"ostersund":9825,"forvaltnings":9826,"levererar":9827,"forbed":9828,"63":9829,"avsluta":9830,"enorm":9831,"tagg":9832,"lader":9833,"yog":9834,"badoo":9835,"oscar":9836,"foss":9837,"spot":9838,"##okl":9839,"paverkas":9840,"##reterare":9841,"day":9842,"##ience":9843,"sofia":9844,"betydande":9845,"storlekar":9846,"dress":9847,"medisin":9848,"##foreningen":9849,"balanser":9850,"##ettere":9851,"##anmark":9852,"negativt":9853,"fonder":9854,"##rov":9855,"belg":9856,"garn":9857,"ves":9858,"##ipend":9859,"pasi":9860,"stressa":9861,"enten":9862,"regnet":9863,"business":9864,"##attan":9865,"kalas":9866,"pojkar":9867,"##issar":9868,"polen":9869,"tekst":9870,"troja":9871,"##bocker":9872,"debatten":9873,"book":9874,"teori":9875,"bevar":9876,"##bul":9877,"infekt":9878,"##ikon":9879,"##anna":9880,"publiken":9881,"miljop":9882,"##ansvarig":9883,"tett":9884,"rester":9885,"##kamp":9886,"##iserade":9887,"##ceae":9888,"vakna":9889,"uppfyller":9890,"flexi":9891,"sanningen":9892,"faktura":9893,"hoppade":9894,"eriksson":9895,"galet":9896,"reduc":9897,"##eve":9898,"klanning":9899,"folke":9900,"forvir":9901,"sonen":9902,"##ned":9903,"skapade":9904,"white":9905,"afrik":9906,"works":9907,"ideal":9908,"uav":9909,"dynam":9910,"forbru":9911,"gymnasiet":9912,"aluminium":9913,"forsvann":9914,"morgen":9915,"##omer":9916,"tilsvar":9917,"##fru":9918,"foreningens":9919,"studera":9920,"kriget":9921,"webben":9922,"rehabiliter":9923,"##line":9924,"begransad":9925,"##19":9926,"byggt":9927,"vikten":9928,"unna":9929,"##sned":9930,"skjul":9931,"##splanen":9932,"hallet":9933,"##ffektiv":9934,"handerna":9935,"##skrona":9936,"manniskors":9937,"observera":9938,"##kommit":9939,"spendera":9940,"minuters":9941,"advokat":9942,"##konto":9943,"bredd":9944,"arbetade":9945,"anmala":9946,"solna":9947,"identifier":9948,"report":9949,"tvatta":9950,"kraven":9951,"aldsta":9952,"##ytning":9953,"praksis":9954,"ifragas":9955,"rutin":9956,"yttre":9957,"tad":9958,"tekniken":9959,"ljung":9960,"dahl":9961,"deltagarna":9962,"##igheterna":9963,"andringar":9964,"charm":9965,"recension":9966,"webblas":9967,"romer":9968,"dott":9969,"sajten":9970,"##casin":9971,"kick":9972,"pagaende":9973,"ts":9974,"forsvars":9975,"persson":9976,"uppgifterna":9977,"##cake":9978,"leker":9979,"dagliga":9980,"stilla":9981,"mangf":9982,"branschen":9983,"anstallning":9984,"regjeringen":9985,"##dring":9986,"presenteras":9987,"klasser":9988,"##svagen":9989,"##uti":9990,"jakob":9991,"overnatt":9992,"##ifor":9993,"barnens":9994,"jordgubb":9995,"trycka":9996,"drommar":9997,"##spris":9998,"rika":9999,"##ktorn":10000,"vinster":10001,"uppmarksamm":10002,"tjejerna":10003,"hallen":10004,"rast":10005,"ast":10006,"##pool":10007,"sva":10008,"bestille":10009,"##varda":10010,"prim":10011,"##isse":10012,"overfl":10013,"esp":10014,"bd":10015,"beakt":10016,"rav":10017,"olj":10018,"tech":10019,"forbjud":10020,"variant":10021,"##okk":10022,"kvart":10023,"innlegget":10024,"jacob":10025,"virus":10026,"forskola":10027,"priserna":10028,"samlat":10029,"sprida":10030,"hjarnan":10031,"##cing":10032,"fatta":10033,"avkast":10034,"##følg":10035,"klag":10036,"hantering":10037,"##storp":10038,"may":10039,"nasjonal":10040,"tull":10041,"ml":10042,"oron":10043,"vinden":10044,"beraknas":10045,"##eth":10046,"delakt":10047,"##ppet":10048,"##isjonen":10049,"økonomi":10050,"##17":10051,"##byggd":10052,"omgang":10053,"varianter":10054,"oppdrag":10055,"##rogen":10056,"representanter":10057,"bbw":10058,"endringer":10059,"forlorade":10060,"##vek":10061,"forklaring":10062,"behag":10063,"granser":10064,"harmon":10065,"##rich":10066,"batteri":10067,"##kyr":10068,"##ivna":10069,"##information":10070,"jobbe":10071,"ursprungligen":10072,"valuta":10073,"sha":10074,"##iskop":10075,"farsk":10076,"cle":10077,"##gjorde":10078,"redov":10079,"rorelser":10080,"ze":10081,"reglerna":10082,"class":10083,"##delsen":10084,"packa":10085,"velger":10086,"sakerhets":10087,"##ioxid":10088,"ving":10089,"##hydr":10090,"fjarr":10091,"##budet":10092,"organisasjon":10093,"##text":10094,"bitar":10095,"forstod":10096,"##gg":10097,"volvo":10098,"grek":10099,"1950":10100,"barnets":10101,"slo":10102,"oppett":10103,"socken":10104,"##pri":10105,"she":10106,"fotter":10107,"game":10108,"eskorte":10109,"how":10110,"levde":10111,"##ykker":10112,"iii":10113,"mangden":10114,"##spelet":10115,"carol":10116,"sprut":10117,"metoden":10118,"roller":10119,"historier":10120,"kampanj":10121,"jenny":10122,"medans":10123,"1991":10124,"nark":10125,"##13":10126,"oversatt":10127,"fredagen":10128,"sites":10129,"##arke":10130,"##last":10131,"fiber":10132,"##enfor":10133,"spanska":10134,"##plassen":10135,"##kelen":10136,"baka":10137,"begynn":10138,"lod":10139,"orter":10140,"##felt":10141,"nedre":10142,"jattef":10143,"oliv":10144,"lønn":10145,"betalningsanmark":10146,"progn":10147,"nærmere":10148,"arliga":10149,"alv":10150,"##job":10151,"##repet":10152,"homosex":10153,"militar":10154,"konkurrens":10155,"beskrivs":10156,"##ferd":10157,"##teckning":10158,"old":10159,"unikt":10160,"schweiz":10161,"university":10162,"##ance":10163,"ulf":10164,"##irektor":10165,"##kons":10166,"##sminister":10167,"budskap":10168,"##etag":10169,"utlandska":10170,"hil":10171,"abonn":10172,"ene":10173,"inbland":10174,"finaste":10175,"aktuellt":10176,"jern":10177,"karakt":10178,"selvføl":10179,"kvarter":10180,"ellers":10181,"tropiskt":10182,"jazz":10183,"oppettider":10184,"uppdatera":10185,"##stallda":10186,"gt":10187,"marke":10188,"misstag":10189,"700":10190,"##kra":10191,"##gol":10192,"busk":10193,"sikkert":10194,"klær":10195,"nemlig":10196,"festival":10197,"uppfyll":10198,"##bag":10199,"maxim":10200,"endre":10201,"reson":10202,"antik":10203,"grans":10204,"##arker":10205,"utbildningar":10206,"##ielle":10207,"trang":10208,"insekt":10209,"##stolen":10210,"muligheter":10211,"##produktion":10212,"kalt":10213,"sparar":10214,"applik":10215,"##spelare":10216,"ib":10217,"hvilken":10218,"rosta":10219,"kortet":10220,"slatt":10221,"72":10222,"##assiga":10223,"##enne":10224,"mem":10225,"pant":10226,"forsen":10227,"##beg":10228,"##jd":10229,"##styrelsens":10230,"kvalific":10231,"##ogs":10232,"long":10233,"effektiva":10234,"nyhetsbrev":10235,"manus":10236,"anstalld":10237,"migr":10238,"fyllt":10239,"tjanste":10240,"ana":10241,"minus":10242,"garderob":10243,"innehalla":10244,"##iew":10245,"sanger":10246,"ledd":10247,"vision":10248,"norrland":10249,"slots":10250,"group":10251,"meningen":10252,"##allen":10253,"microsoft":10254,"##øyd":10255,"tt":10256,"mjuka":10257,"testat":10258,"talt":10259,"slekt":10260,"redovisning":10261,"add":10262,"##aaaa":10263,"stek":10264,"medborgare":10265,"tilldel":10266,"katter":10267,"##resor":10268,"##sbo":10269,"##rus":10270,"##blom":10271,"samord":10272,"drott":10273,"bolagets":10274,"iden":10275,"##opt":10276,"kronika":10277,"muligheten":10278,"størr":10279,"jeans":10280,"avse":10281,"involver":10282,"multi":10283,"moral":10284,"2020":10285,"kenn":10286,"bildet":10287,"mans":10288,"arbetsplats":10289,"munt":10290,"besokte":10291,"myst":10292,"hyresg":10293,"vurdering":10294,"staende":10295,"kommunfull":10296,"open":10297,"orolig":10298,"##ebror":10299,"##bare":10300,"starter":10301,"##priset":10302,"frida":10303,"efterfragan":10304,"rag":10305,"sexfilm":10306,"##eftea":10307,"befolkning":10308,"ytterst":10309,"united":10310,"forvantningar":10311,"laggs":10312,"##duk":10313,"foreskrifter":10314,"vaxtlighet":10315,"##koppling":10316,"passion":10317,"bearbet":10318,"##ydde":10319,"moment":10320,"private":10321,"dvd":10322,"blank":10323,"##zer":10324,"risiko":10325,"kilo":10326,"lørdag":10327,"##lang":10328,"negativ":10329,"hallbarhet":10330,"gruppe":10331,"silden":10332,"lider":10333,"julklapp":10334,"##ømme":10335,"mobb":10336,"byggnaden":10337,"bebis":10338,"##fraga":10339,"hamna":10340,"##nere":10341,"boksta":10342,"herre":10343,"maned":10344,"strukt":10345,"besø":10346,"68":10347,"sjuka":10348,"uppfoljning":10349,"sildenafil":10350,"biblioteket":10351,"orsaken":10352,"uppvarm":10353,"62":10354,"sammenlig":10355,"##rull":10356,"roster":10357,"stodja":10358,"##rikke":10359,"##uktor":10360,"utd":10361,"larm":10362,"gymmet":10363,"forvag":10364,"sannolik":10365,"##innan":10366,"moderne":10367,"##ington":10368,"invig":10369,"langsamt":10370,"dame":10371,"deleg":10372,"medbor":10373,"psykolog":10374,"##backen":10375,"steget":10376,"##yrer":10377,"##rigt":10378,"vild":10379,"##emark":10380,"sallad":10381,"utsatta":10382,"spelautom":10383,"##papper":10384,"torn":10385,"klokke":10386,"avlopp":10387,"##hallanden":10388,"##enhet":10389,"##bandet":10390,"forstatt":10391,"uppehall":10392,"##position":10393,"##tur":10394,"ish":10395,"infrastruktur":10396,"##morgon":10397,"overgang":10398,"føre":10399,"smslan":10400,"passer":10401,"punkter":10402,"##just":10403,"meget":10404,"hardcore":10405,"##bt":10406,"orgas":10407,"junior":10408,"smuts":10409,"ovanfor":10410,"kvaliteten":10411,"gammalt":10412,"endelig":10413,"##alism":10414,"underlatta":10415,"##trafik":10416,"##issionen":10417,"pred":10418,"slak":10419,"paverkan":10420,"premium":10421,"bockerna":10422,"livsl":10423,"tillgod":10424,"##sbel":10425,"godkant":10426,"##erings":10427,"hoja":10428,"ked":10429,"sthl":10430,"##saken":10431,"bryter":10432,"foredrag":10433,"##svik":10434,"begreppet":10435,"##sagare":10436,"allmanheten":10437,"forhindra":10438,"paminner":10439,"placera":10440,"blomster":10441,"presenterar":10442,"sas":10443,"##ado":10444,"##idrag":10445,"cel":10446,"##kurs":10447,"##løs":10448,"vaxte":10449,"##flyg":10450,"##oci":10451,"ledarskap":10452,"agera":10453,"bestod":10454,"synlig":10455,"moms":10456,"konsul":10457,"bekvamt":10458,"arke":10459,"virksomhet":10460,"foraldrarna":10461,"jose":10462,"dras":10463,"jean":10464,"utbetal":10465,"##lopp":10466,"utredningen":10467,"intresset":10468,"konsum":10469,"karta":10470,"sidorna":10471,"##ati":10472,"prog":10473,"advent":10474,"jev":10475,"##eman":10476,"##orts":10477,"jakla":10478,"kommunerna":10479,"regeringens":10480,"auktor":10481,"backen":10482,"##ningsfor":10483,"ryck":10484,"##ji":10485,"vaknar":10486,"marks":10487,"sesongen":10488,"##itten":10489,"##bev":10490,"gotaland":10491,"##skriften":10492,"##verkets":10493,"skrack":10494,"affaren":10495,"##pal":10496,"party":10497,"titeln":10498,"##finans":10499,"##øver":10500,"##kna":10501,"belysning":10502,"##peut":10503,"##planen":10504,"investeringar":10505,"trupp":10506,"##kland":10507,"konver":10508,"indien":10509,"geograf":10510,"##annan":10511,"perioder":10512,"##jør":10513,"avsikt":10514,"##smalet":10515,"anvandes":10516,"action":10517,"spont":10518,"opptatt":10519,"##punkten":10520,"smaken":10521,"##pis":10522,"forekomm":10523,"stille":10524,"innovation":10525,"##stin":10526,"##barhet":10527,"##skostnader":10528,"rio":10529,"krever":10530,"##dalen":10531,"kinesiska":10532,"samlade":10533,"##fel":10534,"ombord":10535,"tacksam":10536,"kategorin":10537,"føler":10538,"##stillstand":10539,"py":10540,"artens":10541,"plattform":10542,"##ous":10543,"trans":10544,"berattelse":10545,"dricker":10546,"##smannen":10547,"##sbok":10548,"temperaturen":10549,"samlas":10550,"bondag":10551,"##jente":10552,"utvid":10553,"##cha":10554,"larar":10555,"alternativet":10556,"brad":10557,"krediter":10558,"sentrum":10559,"ovningar":10560,"##pert":10561,"bun":10562,"##etta":10563,"vice":10564,"kjæreste":10565,"##arbeidet":10566,"oppdater":10567,"tillfreds":10568,"pian":10569,"##massigt":10570,"sr":10571,"##utrym":10572,"alska":10573,"##gym":10574,"utmark":10575,"88":10576,"##tran":10577,"division":10578,"traden":10579,"afghan":10580,"spis":10581,"##rest":10582,"##cher":10583,"##ygger":10584,"kommunikasjon":10585,"foreningar":10586,"bollen":10587,"##forsaljare":10588,"deltok":10589,"specifik":10590,"tillganglighet":10591,"kvalite":10592,"##side":10593,"##skador":10594,"hemib":10595,"##sbest":10596,"suga":10597,"installation":10598,"allian":10599,"##kontroll":10600,"aktenskap":10601,"##75":10602,"##oreala":10603,"##usi":10604,"forsiktigt":10605,"loppet":10606,"mekan":10607,"##oler":10608,"hemiboreala":10609,"forsiktig":10610,"alm":10611,"shop":10612,"virksom":10613,"upptackte":10614,"diabetes":10615,"##pens":10616,"lyser":10617,"bøker":10618,"politiskt":10619,"søndag":10620,"astad":10621,"skov":10622,"trykk":10623,"kaj":10624,"innefatt":10625,"##marken":10626,"distriktet":10627,"kollega":10628,"museet":10629,"##sser":10630,"risker":10631,"utgangspun":10632,"avsnittet":10633,"##day":10634,"aterupp":10635,"resultater":10636,"##visningar":10637,"mist":10638,"olsson":10639,"##byggda":10640,"##hult":10641,"permanent":10642,"##redovis":10643,"##akar":10644,"høst":10645,"##artik":10646,"bergig":10647,"##skyld":10648,"fører":10649,"elisa":10650,"ken":10651,"##bba":10652,"veckorna":10653,"74":10654,"josef":10655,"##feller":10656,"##hh":10657,"himlen":10658,"kommentera":10659,"interess":10660,"synpunkter":10661,"symt":10662,"##sbolag":10663,"73":10664,"spillet":10665,"inkludert":10666,"##tekt":10667,"forvaring":10668,"avlag":10669,"brister":10670,"forvantas":10671,"skiva":10672,"byter":10673,"##ylar":10674,"##visor":10675,"hundarna":10676,"sammanlagt":10677,"hungr":10678,"##tals":10679,"sir":10680,"forbruk":10681,"japanska":10682,"##enset":10683,"byte":10684,"arrangemang":10685,"kasta":10686,"##celler":10687,"##igar":10688,"skickade":10689,"##esen":10690,"##no":10691,"titel":10692,"tomm":10693,"##slutning":10694,"##forsvar":10695,"##ript":10696,"nærm":10697,"timmars":10698,"sterk":10699,"rakar":10700,"vold":10701,"patienten":10702,"slett":10703,"bea":10704,"indones":10705,"##etts":10706,"installning":10707,"robin":10708,"inneb":10709,"##stopp":10710,"squ":10711,"98":10712,"stalls":10713,"sticka":10714,"burde":10715,"kontoret":10716,"##steg":10717,"flyttat":10718,"uppskattar":10719,"minor":10720,"linn":10721,"skik":10722,"tø":10723,"hihi":10724,"##mord":10725,"automatisk":10726,"wikip":10727,"filter":10728,"blan":10729,"firma":10730,"##iff":10731,"cast":10732,"ramen":10733,"demokrati":10734,"suc":10735,"oskar":10736,"fonstret":10737,"losenord":10738,"brygg":10739,"##sproblem":10740,"##dende":10741,"##etøy":10742,"##slok":10743,"##bost":10744,"##funktion":10745,"blatt":10746,"regi":10747,"##bjud":10748,"##kene":10749,"##iar":10750,"uppdatering":10751,"videon":10752,"godkand":10753,"sku":10754,"##organ":10755,"##dack":10756,"ledamoter":10757,"tjanstem":10758,"komfort":10759,"dipl":10760,"lansstyrelsen":10761,"lil":10762,"##stran":10763,"sendt":10764,"acceptera":10765,"dele":10766,"##itim":10767,"##vardighet":10768,"kold":10769,"tydelig":10770,"samhallen":10771,"##ule":10772,"populart":10773,"street":10774,"varda":10775,"##grad":10776,"hensyn":10777,"filer":10778,"henta":10779,"enorma":10780,"brukere":10781,"baserad":10782,"restaurangen":10783,"bakgrunden":10784,"kvant":10785,"destin":10786,"##sdagen":10787,"vav":10788,"fanga":10789,"detsamma":10790,"fac":10791,"vg":10792,"well":10793,"##smode":10794,"spelarna":10795,"aterv":10796,"fortjan":10797,"meng":10798,"pamin":10799,"frustr":10800,"pratat":10801,"morkt":10802,"smaland":10803,"gum":10804,"tend":10805,"##sig":10806,"sthlm":10807,"overgripande":10808,"##´s":10809,"sovit":10810,"variera":10811,"76":10812,"lyk":10813,"bh":10814,"##nades":10815,"##flykt":10816,"##centrum":10817,"skarp":10818,"jobben":10819,"asiatiska":10820,"funktionsned":10821,"vedtak":10822,"hjelper":10823,"fylke":10824,"friluft":10825,"skapas":10826,"79":10827,"operation":10828,"##fab":10829,"cru":10830,"meddela":10831,"gifte":10832,"vistelse":10833,"tidningar":10834,"kandidat":10835,"##ads":10836,"arbetsuppgifter":10837,"##varer":10838,"vig":10839,"sana":10840,"ansoka":10841,"thor":10842,"teoret":10843,"##paket":10844,"okning":10845,"riket":10846,"small":10847,"##bott":10848,"høg":10849,"omfattas":10850,"inatt":10851,"term":10852,"parken":10853,"premier":10854,"##jonen":10855,"area":10856,"klare":10857,"traditionell":10858,"fardiga":10859,"##kamera":10860,"korkort":10861,"unnga":10862,"eksp":10863,"gilla":10864,"tjejen":10865,"##iserte":10866,"dick":10867,"fotterna":10868,"##blogg":10869,"tyder":10870,"enst":10871,"klima":10872,"zo":10873,"utbredningsomrade":10874,"artister":10875,"kompens":10876,"##usjoner":10877,"vaccin":10878,"##asten":10879,"udde":10880,"forplikt":10881,"versionen":10882,"inflytande":10883,"vantat":10884,"##omet":10885,"skatter":10886,"forbereda":10887,"##slar":10888,"##sfall":10889,"referens":10890,"professionell":10891,"tele":10892,"wi":10893,"slappte":10894,"##dags":10895,"skift":10896,"barndom":10897,"enskild":10898,"besviken":10899,"bondage":10900,"allvarligt":10901,"kh":10902,"missat":10903,"statliga":10904,"##lock":10905,"workshop":10906,"stapp":10907,"arean":10908,"bereg":10909,"pump":10910,"97":10911,"losningen":10912,"##uggar":10913,"put":10914,"ledningen":10915,"##sky":10916,"krang":10917,"avgora":10918,"ande":10919,"##erende":10920,"lur":10921,"##banken":10922,"##rige":10923,"##supp":10924,"kanaler":10925,"fulla":10926,"ambassa":10927,"forbundet":10928,"nettopp":10929,"finger":10930,"gjorda":10931,"##smid":10932,"##alafil":10933,"øye":10934,"prøver":10935,"##strek":10936,"utsl":10937,"78":10938,"##chen":10939,"spilte":10940,"minskat":10941,"marin":10942,"katalog":10943,"bab":10944,"fangelse":10945,"blandskog":10946,"datingside":10947,"killen":10948,"obehag":10949,"##orget":10950,"rektor":10951,"operat":10952,"kapacitet":10953,"saljs":10954,"ig":10955,"utviklingen":10956,"chatta":10957,"camping":10958,"bratt":10959,"##een":10960,"tadalafil":10961,"tander":10962,"##serien":10963,"lt":10964,"upphandling":10965,"valk":10966,"jas":10967,"parter":10968,"soft":10969,"vinnare":10970,"selvfølgelig":10971,"orsaker":10972,"access":10973,"bam":10974,"repl":10975,"citron":10976,"##setning":10977,"teamet":10978,"brukte":10979,"##edem":10980,"##temot":10981,"plag":10982,"tantra":10983,"##branschen":10984,"##sons":10985,"##verktyg":10986,"stream":10987,"stott":10988,"natter":10989,"##landskap":10990,"##unskap":10991,"netta":10992,"massan":10993,"##yre":10994,"kva":10995,"gur":10996,"##speriod":10997,"begav":10998,"##ifte":10999,"##foljande":11000,"##ave":11001,"meste":11002,"palit":11003,"tolk":11004,"##light":11005,"##sledare":11006,"njuter":11007,"tillt":11008,"pur":11009,"fullstandigt":11010,"vaxande":11011,"1989":11012,"lampligt":11013,"italienska":11014,"##bod":11015,"virt":11016,"komplic":11017,"kallor":11018,"erkanna":11019,"jess":11020,"foralder":11021,"godkanner":11022,"##iør":11023,"##revis":11024,"##halsa":11025,"loser":11026,"##kken":11027,"##muse":11028,"miljoer":11029,"##stroms":11030,"rante":11031,"##malm":11032,"arkitektur":11033,"ped":11034,"##andan":11035,"nervos":11036,"##ove":11037,"##album":11038,"malar":11039,"##like":11040,"statsminister":11041,"makten":11042,"pig":11043,"email":11044,"utspel":11045,"omfattning":11046,"høsten":11047,"gjennomsnitt":11048,"asp":11049,"win":11050,"##øse":11051,"##ihop":11052,"##iserad":11053,"##boende":11054,"enstaka":11055,"kladd":11056,"##alar":11057,"menyn":11058,"tillit":11059,"langvar":11060,"utforska":11061,"##nende":11062,"##iana":11063,"grunnlag":11064,"skolans":11065,"mull":11066,"krafter":11067,"##kanten":11068,"kreditupp":11069,"inspirerande":11070,"morfar":11071,"##riska":11072,"grundades":11073,"fardigt":11074,"##frihet":11075,"tidiga":11076,"forloss":11077,"delarna":11078,"varldskriget":11079,"ama":11080,"##koll":11081,"tillampas":11082,"##blog":11083,"##laren":11084,"læring":11085,"brot":11086,"mari":11087,"skylt":11088,"stein":11089,"fruktansvart":11090,"nut":11091,"george":11092,"##elding":11093,"artist":11094,"rang":11095,"dl":11096,"billigaste":11097,"##vens":11098,"peppar":11099,"deltagande":11100,"##oli":11101,"bruks":11102,"##eksjon":11103,"usb":11104,"kud":11105,"pon":11106,"bytt":11107,"tour":11108,"utrikes":11109,"sammanfattning":11110,"chock":11111,"victoria":11112,"spanning":11113,"tillgangar":11114,"##klipp":11115,"##belt":11116,"##taket":11117,"##hs":11118,"globala":11119,"escortt":11120,"1700":11121,"informera":11122,"richard":11123,"upprep":11124,"muskler":11125,"##atar":11126,"##spun":11127,"utslapp":11128,"avdeling":11129,"profesjon":11130,"skyldig":11131,"webcam":11132,"forbl":11133,"spann":11134,"kjøper":11135,"efterhand":11136,"##don":11137,"myndigheten":11138,"svensson":11139,"aringen":11140,"pens":11141,"##førte":11142,"garanterat":11143,"##legging":11144,"##ican":11145,"##lander":11146,"arbetsmiljo":11147,"fyllde":11148,"adel":11149,"skedde":11150,"##ussen":11151,"sjukhuset":11152,"damm":11153,"##nor":11154,"parf":11155,"landslag":11156,"mick":11157,"etablering":11158,"tron":11159,"##atgarder":11160,"##sprogrammet":11161,"labor":11162,"nettet":11163,"##hantering":11164,"##board":11165,"flod":11166,"fysiskt":11167,"yttrande":11168,"balkong":11169,"##ugen":11170,"foten":11171,"seriosa":11172,"fungerande":11173,"##stark":11174,"snor":11175,"vagbeskrivning":11176,"irland":11177,"##sep":11178,"kostnads":11179,"gest":11180,"aterstar":11181,"77":11182,"##lex":11183,"##kap":11184,"forlora":11185,"vasent":11186,"nadde":11187,"##ytor":11188,"revider":11189,"##sarbete":11190,"##adels":11191,"erhall":11192,"banklan":11193,"ult":11194,"sper":11195,"ahl":11196,"##arten":11197,"skell":11198,"bemot":11199,"drack":11200,"north":11201,"ordningen":11202,"vilt":11203,"##slig":11204,"amnes":11205,"kampar":11206,"produkterna":11207,"##umb":11208,"vager":11209,"##butik":11210,"hill":11211,"kravet":11212,"##sling":11213,"college":11214,"##iljon":11215,"kalle":11216,"kjell":11217,"viktigare":11218,"europas":11219,"fak":11220,"reseptfritt":11221,"tjeneste":11222,"diskriminering":11223,"textil":11224,"arr":11225,"bistand":11226,"##jakt":11227,"pay":11228,"tekniker":11229,"sej":11230,"expon":11231,"betydning":11232,"##sprocessen":11233,"kollat":11234,"skin":11235,"nodvandiga":11236,"##flugor":11237,"arig":11238,"##visar":11239,"larde":11240,"sønn":11241,"##imin":11242,"prosjekter":11243,"aik":11244,"mobila":11245,"##sliga":11246,"##ced":11247,"palest":11248,"##imot":11249,"##unds":11250,"##elin":11251,"panik":11252,"forsø":11253,"heltid":11254,"satsar":11255,"apnet":11256,"koppar":11257,"smyg":11258,"merke":11259,"etablert":11260,"xx":11261,"slanga":11262,"talat":11263,"utlandet":11264,"narhet":11265,"##yst":11266,"torka":11267,"skarmen":11268,"anl":11269,"overl":11270,"def":11271,"manniskorna":11272,"legges":11273,"studi":11274,"grabb":11275,"summer":11276,"nude":11277,"##dam":11278,"sken":11279,"mennesk":11280,"##dorr":11281,"##skiftet":11282,"##gir":11283,"kombinera":11284,"##eldt":11285,"formal":11286,"implementer":11287,"eksempl":11288,"175":11289,"forrige":11290,"sektor":11291,"utvardering":11292,"##ssjuk":11293,"maltid":11294,"matematik":11295,"avrinningsomradet":11296,"troligtvis":11297,"##rim":11298,"ordna":11299,"skriven":11300,"flagg":11301,"##vapen":11302,"##anmal":11303,"spets":11304,"hustru":11305,"officiella":11306,"mestadels":11307,"brud":11308,"aterkommer":11309,"identifiera":11310,"##vardet":11311,"kontanter":11312,"##bek":11313,"##kjent":11314,"svenske":11315,"anmark":11316,"bjork":11317,"bredband":11318,"narkot":11319,"matlag":11320,"##ospel":11321,"##ineras":11322,"lektion":11323,"##issa":11324,"toalett":11325,"handika":11326,"lengre":11327,"ursprungliga":11328,"snacka":11329,"misstank":11330,"majoriteten":11331,"##ytan":11332,"framja":11333,"96":11334,"ist":11335,"900":11336,"skip":11337,"lenn":11338,"majoritet":11339,"pensjon":11340,"fota":11341,"anvandarna":11342,"arligt":11343,"overhuvud":11344,"kunderna":11345,"##hjalp":11346,"##bruket":11347,"110":11348,"skyddar":11349,"stallt":11350,"utvecklat":11351,"løsninger":11352,"flyt":11353,"talets":11354,"utvalda":11355,"1988":11356,"utvecklats":11357,"margar":11358,"skjøn":11359,"##ulen":11360,"##eled":11361,"kosta":11362,"urin":11363,"enter":11364,"seb":11365,"pojkvan":11366,"##lage":11367,"omstandigheter":11368,"outfit":11369,"##isjoner":11370,"oppgaver":11371,"svarigheter":11372,"tjanar":11373,"smaka":11374,"skydds":11375,"##sajter":11376,"##ckande":11377,"intervjuer":11378,"lagring":11379,"##ooth":11380,"bdsm":11381,"bow":11382,"##yndighet":11383,"##alternativ":11384,"sokande":11385,"first":11386,"cerro":11387,"##ykte":11388,"##sback":11389,"grøn":11390,"galen":11391,"alp":11392,"taxi":11393,"gallde":11394,"resen":11395,"trycker":11396,"lettere":11397,"##ratter":11398,"plikt":11399,"plagg":11400,"##ovan":11401,"##bilen":11402,"immun":11403,"import":11404,"##splikt":11405,"morsom":11406,"pick":11407,"##stig":11408,"klassiker":11409,"anfall":11410,"diskret":11411,"verktøy":11412,"##svag":11413,"##cykel":11414,"nad":11415,"##spra":11416,"centralt":11417,"undersokningen":11418,"##lapp":11419,"marcus":11420,"##lakare":11421,"klippa":11422,"ole":11423,"dessuten":11424,"tilby":11425,"##skall":11426,"undvik":11427,"##porn":11428,"dart":11429,"mattias":11430,"##svenskan":11431,"strek":11432,"leverand":11433,"vanilj":11434,"##hyr":11435,"anvants":11436,"japansk":11437,"usch":11438,"fungerade":11439,"spelen":11440,"arendet":11441,"begag":11442,"room":11443,"##oen":11444,"strang":11445,"##bbe":11446,"##zy":11447,"ersatta":11448,"##holds":11449,"avslutade":11450,"syskon":11451,"gilt":11452,"##ningsl":11453,"barcel":11454,"jonsson":11455,"siv":11456,"school":11457,"helger":11458,"julia":11459,"blue":11460,"##fakt":11461,"##drene":11462,"besked":11463,"##sha":11464,"##fram":11465,"##agne":11466,"klarade":11467,"utfors":11468,"selve":11469,"##ogram":11470,"penn":11471,"swe":11472,"slapptes":11473,"konstatera":11474,"160":11475,"rejal":11476,"dyl":11477,"##medlem":11478,"grepp":11479,"lagstiftning":11480,"potens":11481,"##betyg":11482,"##valla":11483,"producera":11484,"chanser":11485,"tredj":11486,"##cos":11487,"alene":11488,"##test":11489,"alg":11490,"##ikan":11491,"was":11492,"bildades":11493,"light":11494,"##sbas":11495,"gissa":11496,"##inerande":11497,"høye":11498,"redovisas":11499,"demonstr":11500,"varderingar":11501,"forvarva":11502,"vitlok":11503,"mynt":11504,"omsattning":11505,"send":11506,"provat":11507,"suck":11508,"##ware":11509,"kommunfullmaktige":11510,"biljett":11511,"rust":11512,"##ssel":11513,"##rund":11514,"tviv":11515,"tillverkad":11516,"dagbladet":11517,"nyttig":11518,"gemenskap":11519,"mora":11520,"beslutade":11521,"paret":11522,"##iforn":11523,"##regler":11524,"##rutt":11525,"kristianstad":11526,"sunn":11527,"##bec":11528,"nrk":11529,"84":11530,"##spunkt":11531,"lyfter":11532,"tju":11533,"##stedt":11534,"sannsynlig":11535,"byxor":11536,"klickar":11537,"gitarr":11538,"intensiv":11539,"organisasjoner":11540,"rubriken":11541,"gula":11542,"tart":11543,"tryg":11544,"##23":11545,"representant":11546,"##enes":11547,"##ømmer":11548,"1920":11549,"prøv":11550,"kore":11551,"lyn":11552,"policy":11553,"fungerer":11554,"##ax":11555,"89":11556,"##profil":11557,"slaget":11558,"slutat":11559,"formular":11560,"auto":11561,"sykehus":11562,"170":11563,"skaff":11564,"politiske":11565,"rengoring":11566,"licens":11567,"elegant":11568,"sentral":11569,"tyske":11570,"samarbetet":11571,"madrid":11572,"##zo":11573,"radgivning":11574,"privatpersoner":11575,"##hver":11576,"kolleg":11577,"malen":11578,"temper":11579,"##plat":11580,"##avgift":11581,"oken":11582,"fokuserar":11583,"kampa":11584,"sverigedem":11585,"fit":11586,"arende":11587,"##berget":11588,"grunnleg":11589,"##gte":11590,"fm":11591,"##ely":11592,"manag":11593,"##sang":11594,"historisk":11595,"tester":11596,"fylld":11597,"husk":11598,"##cl":11599,"lands":11600,"graviditet":11601,"hentai":11602,"smaker":11603,"slump":11604,"grekland":11605,"guid":11606,"pressa":11607,"grunder":11608,"vedlike":11609,"varumark":11610,"dire":11611,"1930":11612,"##stallande":11613,"medlemmarna":11614,"##stal":11615,"foreligger":11616,"faste":11617,"##verksamheten":11618,"gransk":11619,"elevene":11620,"nasjonale":11621,"ledamot":11622,"##famil":11623,"forbattring":11624,"begaran":11625,"##atiska":11626,"##jej":11627,"maskinen":11628,"mandat":11629,"##gjøre":11630,"lagsta":11631,"noveller":11632,"prestand":11633,"oppfølg":11634,"##naren":11635,"##inlagg":11636,"regiss":11637,"##knytning":11638,"serveras":11639,"wikipedia":11640,"lockar":11641,"##okument":11642,"lakaren":11643,"varumarken":11644,"aftonbladet":11645,"forsor":11646,"cock":11647,"maken":11648,"blott":11649,"arne":11650,"vaggar":11651,"tilsyn":11652,"vana":11653,"##cket":11654,"skadespelare":11655,"leve":11656,"anta":11657,"pier":11658,"ambition":11659,"##kansla":11660,"voksen":11661,"undervisningen":11662,"work":11663,"vande":11664,"belaget":11665,"medie":11666,"beteck":11667,"nordic":11668,"bell":11669,"vardera":11670,"wo":11671,"aterforsaljare":11672,"week":11673,"stjer":11674,"halvtim":11675,"globalt":11676,"opplysninger":11677,"##file":11678,"grønn":11679,"satts":11680,"oppnas":11681,"##gav":11682,"downlo":11683,"musiker":11684,"##spe":11685,"publiceras":11686,"innebærer":11687,"##ygien":11688,"lasning":11689,"##data":11690,"elektronisk":11691,"hangde":11692,"fixade":11693,"overklag":11694,"pojke":11695,"skivor":11696,"kvinnorna":11697,"cykla":11698,"engang":11699,"seminari":11700,"hahaha":11701,"##systemet":11702,"##atus":11703,"interesse":11704,"nei":11705,"delade":11706,"hendel":11707,"##ary":11708,"elsker":11709,"##bane":11710,"nyanser":11711,"korv":11712,"tenker":11713,"##design":11714,"past":11715,"sodertalje":11716,"normala":11717,"##ylt":11718,"tacker":11719,"##mn":11720,"##ywood":11721,"##opol":11722,"uv":11723,"herren":11724,"onska":11725,"installningar":11726,"stipend":11727,"##verre":11728,"afghanistan":11729,"drive":11730,"##omal":11731,"hobby":11732,"hogskolan":11733,"koppling":11734,"høre":11735,"##shistor":11736,"##sand":11737,"river":11738,"wester":11739,"jenn":11740,"snakke":11741,"gh":11742,"trump":11743,"##oman":11744,"inlogg":11745,"##uge":11746,"fien":11747,"nyborj":11748,"nike":11749,"exemplar":11750,"##vagar":11751,"##sorganis":11752,"commun":11753,"varumarke":11754,"##øya":11755,"games":11756,"##jk":11757,"foretagare":11758,"tillfalligt":11759,"forlat":11760,"stjarnor":11761,"arbeten":11762,"##makten":11763,"foretags":11764,"odd":11765,"dubbla":11766,"az":11767,"apoteket":11768,"lukt":11769,"supp":11770,"klarer":11771,"konstruktion":11772,"slakte":11773,"glatt":11774,"tram":11775,"##opter":11776,"damp":11777,"##anke":11778,"skjønn":11779,"nettstedet":11780,"specialist":11781,"forank":11782,"pel":11783,"##knipp":11784,"dyra":11785,"hap":11786,"sjunga":11787,"seier":11788,"sydvastra":11789,"komponenter":11790,"south":11791,"hemskt":11792,"##uvida":11793,"##sforbund":11794,"anteck":11795,"madde":11796,"tja":11797,"distans":11798,"vurdere":11799,"potential":11800,"ce":11801,"huruvida":11802,"typiskt":11803,"syl":11804,"##pul":11805,"skri":11806,"sesong":11807,"planerade":11808,"linjer":11809,"kritisk":11810,"høyde":11811,"realist":11812,"kontinuerligt":11813,"kaos":11814,"che":11815,"##mart":11816,"experter":11817,"liknar":11818,"skjuta":11819,"##65":11820,"medi":11821,"##lon":11822,"tankarna":11823,"hormon":11824,"adult":11825,"##forandring":11826,"inntil":11827,"mt":11828,"casinon":11829,"##fund":11830,"flyttet":11831,"spir":11832,"##sack":11833,"##sakerhet":11834,"robot":11835,"avdelning":11836,"noter":11837,"179":11838,"rolle":11839,"satsning":11840,"##shamn":11841,"sjunger":11842,"forutsattningarna":11843,"tjugo":11844,"jattem":11845,"tilfeller":11846,"ogat":11847,"galopp":11848,"##wh":11849,"namna":11850,"1987":11851,"anstrang":11852,"##everket":11853,"mes":11854,"utbred":11855,"night":11856,"granskning":11857,"farlig":11858,"flertalet":11859,"ekonomin":11860,"##ecken":11861,"breda":11862,"##smat":11863,"norm":11864,"pus":11865,"handikapp":11866,"flag":11867,"tomas":11868,"definier":11869,"sydlig":11870,"allvarliga":11871,"redd":11872,"##shuset":11873,"omdom":11874,"dagars":11875,"ash":11876,"kvm":11877,"aja":11878,"nice":11879,"kock":11880,"##hallet":11881,"amat":11882,"uppgick":11883,"ons":11884,"rullar":11885,"flygplats":11886,"who":11887,"diskussioner":11888,"estet":11889,"oand":11890,"rens":11891,"anslag":11892,"savannklimat":11893,"forord":11894,"uttag":11895,"##agarna":11896,"assa":11897,"rød":11898,"underlatt":11899,"##eda":11900,"allerg":11901,"##rapporter":11902,"vaska":11903,"ff":11904,"kulle":11905,"argent":11906,"head":11907,"kav":11908,"##rafik":11909,"sterkt":11910,"##ksjonen":11911,"rakade":11912,"gentemot":11913,"94":11914,"##ekte":11915,"søknad":11916,"##industri":11917,"##gorande":11918,"##datum":11919,"##holms":11920,"brans":11921,"##familj":11922,"##bagg":11923,"##wer":11924,"firar":11925,"stunder":11926,"faktor":11927,"kontakten":11928,"ss":11929,"fans":11930,"##ify":11931,"##rakning":11932,"##ulette":11933,"jamstalldhet":11934,"##arv":11935,"sokte":11936,"song":11937,"onodigt":11938,"viktor":11939,"1986":11940,"##helm":11941,"hei":11942,"mv":11943,"1940":11944,"nj":11945,"funktionsh":11946,"##ruta":11947,"##cal":11948,"vanligvis":11949,"avtale":11950,"godkjent":11951,"##itte":11952,"patri":11953,"##yft":11954,"ipad":11955,"belagen":11956,"individuella":11957,"##omy":11958,"arligen":11959,"flask":11960,"webs":11961,"##ljus":11962,"nordostra":11963,"kjæresten":11964,"tabellen":11965,"uteslut":11966,"wild":11967,"missade":11968,"avhengig":11969,"##bling":11970,"overhuvudtaget":11971,"mosa":11972,"markligt":11973,"prast":11974,"decenn":11975,"##rator":11976,"sit":11977,"tipsa":11978,"##sem":11979,"hyre":11980,"orkade":11981,"socialdemokraterna":11982,"samfunnet":11983,"opin":11984,"gradde":11985,"magasin":11986,"##stjanst":11987,"##skval":11988,"ekologisk":11989,"lof":11990,"generation":11991,"tilsvarende":11992,"sorters":11993,"irak":11994,"##dor":11995,"øker":11996,"synnerhet":11997,"professionella":11998,"psykiat":11999,"minnas":12000,"funktionen":12001,"##delige":12002,"flickvan":12003,"aner":12004,"##istiskt":12005,"##utval":12006,"diplom":12007,"flygplatsen":12008,"jens":12009,"balt":12010,"hjalpmedel":12011,"medborgar":12012,"##ocke":12013,"soderut":12014,"narmar":12015,"asiatisk":12016,"ytterlig":12017,"drikke":12018,"koordin":12019,"disc":12020,"snø":12021,"##undersokning":12022,"justin":12023,"genomfors":12024,"virker":12025,"vint":12026,"heldig":12027,"friid":12028,"##forbruk":12029,"forstor":12030,"samhalls":12031,"cyklar":12032,"livets":12033,"passet":12034,"tyr":12035,"nationell":12036,"undersokningar":12037,"holland":12038,"skelleftea":12039,"##jed":12040,"1984":12041,"bære":12042,"økonomisk":12043,"bidr":12044,"overenskommelse":12045,"##musik":12046,"ado":12047,"##utrustning":12048,"presenterade":12049,"placeras":12050,"##hallare":12051,"deil":12052,"ond":12053,"smycken":12054,"##aksjon":12055,"ensamstaende":12056,"##zen":12057,"##entar":12058,"##skolor":12059,"lakar":12060,"grev":12061,"julafton":12062,"friend":12063,"kampanjer":12064,"140":12065,"##perioden":12066,"vardenafil":12067,"norrut":12068,"sokt":12069,"magnet":12070,"vaxel":12071,"##dy":12072,"mental":12073,"omgaende":12074,"avg":12075,"86":12076,"profiler":12077,"underteck":12078,"missbruk":12079,"##mote":12080,"kostnaderna":12081,"beslutar":12082,"hogskole":12083,"odds":12084,"83":12085,"##delingen":12086,"talade":12087,"uppsk":12088,"kommunicera":12089,"##aser":12090,"brasilien":12091,"bond":12092,"bana":12093,"card":12094,"avsloj":12095,"neut":12096,"gyll":12097,"uppfylla":12098,"##ages":12099,"ljusa":12100,"exklusiva":12101,"##espiller":12102,"sverigedemokrat":12103,"##ffel":12104,"tjeck":12105,"oftare":12106,"extrem":12107,"spillere":12108,"lararna":12109,"ern":12110,"formagan":12111,"klam":12112,"vardagsrum":12113,"smalt":12114,"##livet":12115,"fixat":12116,"aterkommande":12117,"rein":12118,"populære":12119,"fornøyd":12120,"dansa":12121,"kjøkken":12122,"teknolog":12123,"inviter":12124,"styrels":12125,"installera":12126,"hør":12127,"processer":12128,"##teknik":12129,"##istret":12130,"ovning":12131,"##juka":12132,"kallat":12133,"grasmarker":12134,"tvekan":12135,"forknipp":12136,"oppos":12137,"behall":12138,"sukker":12139,"regjering":12140,"1985":12141,"formiddagen":12142,"##sokt":12143,"flotte":12144,"riktar":12145,"saa":12146,"rytt":12147,"swingers":12148,"knep":12149,"produktionen":12150,"bekymmer":12151,"atl":12152,"gala":12153,"mia":12154,"##juden":12155,"odling":12156,"##circa":12157,"foreg":12158,"muslimer":12159,"lavere":12160,"##ni":12161,"adcirca":12162,"manaderna":12163,"drev":12164,"tillhorande":12165,"##dell":12166,"hvit":12167,"filmerna":12168,"adressen":12169,"130":12170,"##radande":12171,"1600":12172,"##jenester":12173,"distribut":12174,"alger":12175,"omhand":12176,"amerika":12177,"spekul":12178,"bero":12179,"bekre":12180,"vib":12181,"narvaro":12182,"##usjonen":12183,"forvarv":12184,"friska":12185,"##ualitet":12186,"imponerande":12187,"atervin":12188,"mojligheterna":12189,"##stendig":12190,"vantan":12191,"storleken":12192,"##hallning":12193,"otill":12194,"##ikat":12195,"havs":12196,"##havare":12197,"helena":12198,"strategier":12199,"ekologiska":12200,"uni":12201,"menade":12202,"trafiken":12203,"utstallningen":12204,"##bilj":12205,"##entre":12206,"##middel":12207,"##olyck":12208,"nordvastra":12209,"##lyst":12210,"##stek":12211,"krets":12212,"##delag":12213,"tomten":12214,"frista":12215,"hastarna":12216,"ettersom":12217,"blyg":12218,"studenten":12219,"salde":12220,"bensin":12221,"barcelona":12222,"##ionens":12223,"tagits":12224,"gluten":12225,"amanda":12226,"skalbagg":12227,"sjong":12228,"forordning":12229,"##radets":12230,"93":12231,"talas":12232,"##sforening":12233,"tillslut":12234,"##potek":12235,"specialis":12236,"vindkraft":12237,"generelt":12238,"here":12239,"radet":12240,"testade":12241,"godkannande":12242,"##oped":12243,"##spros":12244,"hmm":12245,"##skarm":12246,"##lager":12247,"depress":12248,"hagen":12249,"glommer":12250,"##fjord":12251,"diesel":12252,"farfar":12253,"likasa":12254,"touch":12255,"ai":12256,"tumbl":12257,"##slet":12258,"fog":12259,"spelaren":12260,"##ights":12261,"bestemt":12262,"##splas":12263,"bolags":12264,"trafikk":12265,"##radare":12266,"##bre":12267,"##eler":12268,"kolhydr":12269,"##spir":12270,"##srika":12271,"omtr":12272,"gna":12273,"##unge":12274,"arhund":12275,"##etid":12276,"analysera":12277,"starte":12278,"##ures":12279,"jatteg":12280,"##fj":12281,"stappklimat":12282,"mount":12283,"vaken":12284,"##miljo":12285,"montering":12286,"way":12287,"##uering":12288,"middel":12289,"##trykk":12290,"blixt":12291,"eksister":12292,"louis":12293,"##oty":12294,"##istens":12295,"balkon":12296,"feng":12297,"##figur":12298,"kid":12299,"##staller":12300,"fristaende":12301,"##sbr":12302,"graf":12303,"økonomiske":12304,"mangfald":12305,"koncern":12306,"bokning":12307,"##dret":12308,"utl":12309,"tillverkning":12310,"hoppar":12311,"mobile":12312,"skovde":12313,"gigant":12314,"##pade":12315,"tann":12316,"unger":12317,"##dating":12318,"sjø":12319,"investera":12320,"road":12321,"kontrollen":12322,"syri":12323,"stok":12324,"##atiskt":12325,"registrert":12326,"##sajt":12327,"protest":12328,"markedet":12329,"domstolen":12330,"hanterar":12331,"##laggningar":12332,"havdar":12333,"##cs":12334,"valgte":12335,"made":12336,"##smaterial":12337,"exam":12338,"##samlingen":12339,"lyssnade":12340,"krava":12341,"cou":12342,"##løp":12343,"##kram":12344,"ordin":12345,"##holdt":12346,"iron":12347,"skalbaggsart":12348,"finansinstitut":12349,"##sbru":12350,"##kommun":12351,"tumblr":12352,"tomma":12353,"leende":12354,"hemliga":12355,"##pten":12356,"besluta":12357,"forvanad":12358,"utgjør":12359,"##namnda":12360,"saint":12361,"##veien":12362,"examen":12363,"wow":12364,"intellig":12365,"aspekter":12366,"skjedde":12367,"areal":12368,"##edig":12369,"varna":12370,"kristus":12371,"lugna":12372,"soldater":12373,"periode":12374,"hogtal":12375,"kondom":12376,"tackar":12377,"##parken":12378,"leon":12379,"##sband":12380,"aterbetal":12381,"bestallde":12382,"ambul":12383,"flyga":12384,"##ullar":12385,"scand":12386,"skradd":12387,"##estene":12388,"lady":12389,"virke":12390,"fortsette":12391,"ledigt":12392,"utel":12393,"##cu":12394,"skur":12395,"sykkel":12396,"telefoner":12397,"medic":12398,"download":12399,"turer":12400,"##hd":12401,"budsjett":12402,"ursakt":12403,"avancerade":12404,"seriost":12405,"rehabilitering":12406,"lagret":12407,"flygplan":12408,"beredskap":12409,"uppenbart":12410,"varierande":12411,"aldern":12412,"krigen":12413,"namnda":12414,"fle":12415,"##bilden":12416,"kjøtt":12417,"aw":12418,"vans":12419,"fantasi":12420,"##maren":12421,"##snummer":12422,"##ulin":12423,"##gotland":12424,"celler":12425,"##øtet":12426,"##ords":12427,"lastbil":12428,"##arbeten":12429,"begynne":12430,"interna":12431,"##ratta":12432,"##front":12433,"samle":12434,"##esser":12435,"glem":12436,"digitalt":12437,"skriftlig":12438,"armar":12439,"##styrka":12440,"##delt":12441,"regionala":12442,"##arg":12443,"katten":12444,"##klubben":12445,"##unnet":12446,"61":12447,"##log":12448,"flat":12449,"sanka":12450,"fund":12451,"must":12452,"##elie":12453,"extern":12454,"manager":12455,"##pra":12456,"omtrent":12457,"##kaka":12458,"##oe":12459,"##cancer":12460,"darav":12461,"##stick":12462,"forbe":12463,"samrad":12464,"kusin":12465,"kasino":12466,"hensikt":12467,"bonde":12468,"vardagsrummet":12469,"dyka":12470,"dragit":12471,"servera":12472,"byggnads":12473,"##industrin":12474,"aterbetalning":12475,"glomde":12476,"notera":12477,"pekar":12478,"##asj":12479,"##bileum":12480,"skepp":12481,"dur":12482,"eur":12483,"hogskola":12484,"kret":12485,"##motor":12486,"borgen":12487,"##upplevelse":12488,"##bunden":12489,"varmland":12490,"utfordringer":12491,"laggas":12492,"##yter":12493,"stru":12494,"##rets":12495,"institutionen":12496,"##meddelande":12497,"vetenskapliga":12498,"regional":12499,"viking":12500,"symtom":12501,"math":12502,"##kontor":12503,"arbetsmarknaden":12504,"hundratals":12505,"tennis":12506,"kopet":12507,"##shav":12508,"doden":12509,"gjennomføre":12510,"beslutat":12511,"skamt":12512,"uppenbarligen":12513,"epis":12514,"##innen":12515,"##namnet":12516,"beman":12517,"bebygg":12518,"uppgiften":12519,"##esi":12520,"kokos":12521,"skota":12522,"##akk":12523,"utse":12524,"spilt":12525,"nyan":12526,"bedrag":12527,"##sperioden":12528,"about":12529,"problemen":12530,"ønske":12531,"kvadratmeter":12532,"senter":12533,"hjalpt":12534,"kongress":12535,"skivan":12536,"hallbart":12537,"##blomm":12538,"##ilar":12539,"saft":12540,"nodvandig":12541,"klarte":12542,"redusere":12543,"landerna":12544,"fremst":12545,"##ony":12546,"vivan":12547,"##givande":12548,"lr":12549,"##stider":12550,"flykting":12551,"bedoma":12552,"middagen":12553,"sevard":12554,"ljuv":12555,"##endige":12556,"##vanlig":12557,"82":12558,"orange":12559,"turkiet":12560,"non":12561,"##pes":12562,"arbetsgivaren":12563,"##okan":12564,"##marker":12565,"skratta":12566,"lesbiska":12567,"kommersi":12568,"radsla":12569,"upphand":12570,"bm":12571,"externa":12572,"##brid":12573,"##fft":12574,"tappar":12575,"flit":12576,"##ssen":12577,"slappt":12578,"ling":12579,"##ørene":12580,"##jorden":12581,"strack":12582,"website":12583,"##emedlem":12584,"individuell":12585,"bonusar":12586,"biskop":12587,"kakor":12588,"indonesien":12589,"analyt":12590,"undra":12591,"ukraina":12592,"betale":12593,"erf":12594,"chic":12595,"##vit":12596,"##elserna":12597,"1982":12598,"glid":12599,"forret":12600,"margin":12601,"any":12602,"spindel":12603,"kemikal":12604,"likhet":12605,"ping":12606,"vanlige":12607,"hallas":12608,"##splaner":12609,"avslutas":12610,"nud":12611,"uppdaterad":12612,"vass":12613,"vul":12614,"##vandring":12615,"##sutveckling":12616,"falun":12617,"##ssitu":12618,"moll":12619,"hm":12620,"gel":12621,"skickat":12622,"vastlig":12623,"arbeidst":12624,"salu":12625,"##platta":12626,"##cle":12627,"ode":12628,"tryggt":12629,"##alisera":12630,"##sbar":12631,"oc":12632,"insektsart":12633,"brak":12634,"spise":12635,"##verd":12636,"øvrige":12637,"tillgangligt":12638,"vivanza":12639,"kle":12640,"butikk":12641,"content":12642,"stanger":12643,"baksidan":12644,"principer":12645,"##utvikling":12646,"##rorelsen":12647,"avtalen":12648,"ovanstaende":12649,"slagit":12650,"##igenom":12651,"utbudet":12652,"lakt":12653,"kassan":12654,"moun":12655,"dottern":12656,"revol":12657,"berattelsen":12658,"citat":12659,"##ero":12660,"jakten":12661,"solo":12662,"kjøpt":12663,"matta":12664,"inuti":12665,"opplever":12666,"respons":12667,"##nd":12668,"komb":12669,"##sklass":12670,"fornuft":12671,"frist":12672,"##rock":12673,"tobak":12674,"178":12675,"gasterna":12676,"mins":12677,"##tillverk":12678,"sankt":12679,"orka":12680,"##asjonene":12681,"##ifer":12682,"fug":12683,"medicinsk":12684,"skugg":12685,"frivillig":12686,"mess":12687,"music":12688,"antib":12689,"##nev":12690,"##jorn":12691,"bokstaver":12692,"##zan":12693,"##ily":12694,"##sagt":12695,"lova":12696,"vedtatt":12697,"anvandningen":12698,"lina":12699,"utsatts":12700,"samarbetar":12701,"lampliga":12702,"proje":12703,"viet":12704,"filip":12705,"tillh":12706,"##ffen":12707,"##oliga":12708,"##varon":12709,"slip":12710,"ordentlig":12711,"##hjel":12712,"redigera":12713,"avdelningen":12714,"viten":12715,"partners":12716,"mejl":12717,"women":12718,"relevanta":12719,"symptom":12720,"løn":12721,"myn":12722,"motorn":12723,"locka":12724,"rud":12725,"patrik":12726,"##ynda":12727,"biverk":12728,"##vux":12729,"avkastning":12730,"forskningen":12731,"##amet":12732,"##komsten":12733,"es":12734,"tillverkare":12735,"##isme":12736,"fremtid":12737,"engasjer":12738,"succe":12739,"oversattning":12740,"nettapotek":12741,"kommunstyrelsen":12742,"behandlingar":12743,"alders":12744,"ansvarlig":12745,"dumt":12746,"stugan":12747,"langden":12748,"forfall":12749,"##ollen":12750,"##entr":12751,"chile":12752,"konstaterar":12753,"##infl":12754,"legitim":12755,"87":12756,"quiz":12757,"##cast":12758,"agaren":12759,"##forfatt":12760,"glans":12761,"avbr":12762,"vilda":12763,"##agor":12764,"##forsor":12765,"bosatt":12766,"fritids":12767,"minnet":12768,"snick":12769,"killarna":12770,"foster":12771,"anlaggningar":12772,"fixar":12773,"femt":12774,"legend":12775,"smith":12776,"now":12777,"upptacker":12778,"spok":12779,"aggress":12780,"glede":12781,"##egn":12782,"enhver":12783,"kjer":12784,"ake":12785,"ytor":12786,"betydelig":12787,"spet":12788,"arbetsformed":12789,"symboler":12790,"forsikring":12791,"onskan":12792,"##elly":12793,"##skamp":12794,"meddelanden":12795,"oppleve":12796,"sjukvarden":12797,"lom":12798,"typisk":12799,"hektar":12800,"sanning":12801,"trøn":12802,"##cht":12803,"feder":12804,"grovt":12805,"verkstad":12806,"derimot":12807,"smer":12808,"drottning":12809,"##forskning":12810,"kryp":12811,"handlingen":12812,"jaja":12813,"##regl":12814,"cross":12815,"hamtar":12816,"dubbelt":12817,"##vind":12818,"reaktion":12819,"cos":12820,"##ods":12821,"dartill":12822,"##ilia":12823,"ungar":12824,"92":12825,"##ki":12826,"1974":12827,"##tagen":12828,"kreativa":12829,"##ito":12830,"norway":12831,"forelasning":12832,"##laggare":12833,"##ssn":12834,"kommunene":12835,"##lagga":12836,"byggde":12837,"##gb":12838,"anklag":12839,"remiss":12840,"##stock":12841,"forverk":12842,"besvik":12843,"beredd":12844,"fordela":12845,"isen":12846,"stralande":12847,"evangel":12848,"ariga":12849,"sticker":12850,"forlorat":12851,"##grunn":12852,"frekv":12853,"1975":12854,"##stugan":12855,"virk":12856,"wel":12857,"##listan":12858,"saks":12859,"ødel":12860,"agent":12861,"kanten":12862,"sommeren":12863,"dorrar":12864,"##ife":12865,"bedriva":12866,"##skontroll":12867,"##riga":12868,"hodet":12869,"##resan":12870,"##laddning":12871,"avslutar":12872,"italiensk":12873,"had":12874,"##nos":12875,"##eringer":12876,"sams":12877,"kompa":12878,"##bundna":12879,"##hotell":12880,"ifk":12881,"kontaktuppgifter":12882,"cec":12883,"##loss":12884,"behorighet":12885,"trygga":12886,"introduktion":12887,"overdr":12888,"peder":12889,"##kvar":12890,"modul":12891,"førte":12892,"medicinska":12893,"gbg":12894,"##car":12895,"nedanfor":12896,"tranat":12897,"##inska":12898,"begynnelsen":12899,"anpassade":12900,"mojliggor":12901,"undersøkelse":12902,"vanskap":12903,"administrasjon":12904,"american":12905,"science":12906,"##skur":12907,"trotta":12908,"tarta":12909,"mjukt":12910,"intim":12911,"persiska":12912,"pancake":12913,"dessverre":12914,"arbetsmarknad":12915,"pse":12916,"suks":12917,"slikt":12918,"flaska":12919,"smakar":12920,"bekvama":12921,"color":12922,"asf":12923,"framgangsrika":12924,"1968":12925,"agde":12926,"opera":12927,"##gel":12928,"blind":12929,"flyger":12930,"##laggningen":12931,"##eby":12932,"mammas":12933,"tolkning":12934,"orsaka":12935,"henhold":12936,"hjerte":12937,"##politik":12938,"##marknad":12939,"iso":12940,"sound":12941,"##junkt":12942,"leif":12943,"ansag":12944,"view":12945,"forlorar":12946,"betting":12947,"manliga":12948,"dagslaget":12949,"1971":12950,"scan":12951,"1973":12952,"1979":12953,"##ident":12954,"mexico":12955,"##tagna":12956,"##reserv":12957,"kreativitet":12958,"kompos":12959,"vardnad":12960,"forebyggande":12961,"skikkelig":12962,"bostaden":12963,"##analys":12964,"prisen":12965,"rimligt":12966,"storstad":12967,"jor":12968,"##chester":12969,"after":12970,"vegas":12971,"lesbian":12972,"høyeste":12973,"garage":12974,"tonaringar":12975,"##rud":12976,"##tral":12977,"klubbens":12978,"djuren":12979,"langsiktigt":12980,"oppfølging":12981,"anledningar":12982,"##oppga":12983,"huvudvark":12984,"sentrale":12985,"tappa":12986,"busklandskap":12987,"##spiller":12988,"##rant":12989,"infora":12990,"innanfor":12991,"accepterar":12992,"rekrytering":12993,"proffs":12994,"vagn":12995,"##byxor":12996,"1972":12997,"sajter":12998,"##ree":12999,"##cen":13000,"sjekke":13001,"sandra":13002,"rummen":13003,"##etch":13004,"medlemsst":13005,"##zi":13006,"cash":13007,"stackars":13008,"vibr":13009,"blin":13010,"enklere":13011,"tittat":13012,"ekteskap":13013,"##sforvalt":13014,"upplevt":13015,"spred":13016,"tommy":13017,"ytterligere":13018,"vekst":13019,"succ":13020,"romantisk":13021,"wifi":13022,"myt":13023,"##faltet":13024,"forsakringsk":13025,"betraktas":13026,"ljudet":13027,"forskrift":13028,"underhallning":13029,"badrummet":13030,"rumpa":13031,"netto":13032,"konkurs":13033,"ansluta":13034,"##uru":13035,"ansikts":13036,"anbud":13037,"jimm":13038,"##onto":13039,"##skvallen":13040,"##stang":13041,"finansiell":13042,"skritt":13043,"befolknings":13044,"corn":13045,"receptet":13046,"##seln":13047,"forekommande":13048,"skrek":13049,"##central":13050,"bestemm":13051,"utbygg":13052,"dokumentation":13053,"##onia":13054,"passande":13055,"fatal":13056,"##video":13057,"shoppa":13058,"##lamp":13059,"kundtjanst":13060,"##ierade":13061,"##passet":13062,"verdi":13063,"##dsel":13064,"greit":13065,"gutter":13066,"dyrare":13067,"kannet":13068,"export":13069,"jung":13070,"tv4":13071,"brinner":13072,"hamburg":13073,"baseras":13074,"##kler":13075,"russiske":13076,"rike":13077,"bedoms":13078,"##fora":13079,"holls":13080,"##sider":13081,"##cas":13082,"slapps":13083,"##ynet":13084,"eval":13085,"redovisa":13086,"##fu":13087,"prestanda":13088,"sexfilmer":13089,"##viker":13090,"##sakra":13091,"bildene":13092,"##aton":13093,"html":13094,"alice":13095,"forvis":13096,"ending":13097,"hytt":13098,"little":13099,"mum":13100,"laborator":13101,"utført":13102,"##ders":13103,"narmsta":13104,"##utte":13105,"konserv":13106,"za":13107,"dir":13108,"kladerna":13109,"sakerna":13110,"forholdet":13111,"faglar":13112,"beund":13113,"##imentet":13114,"sondags":13115,"tromsø":13116,"##aktig":13117,"samarbeta":13118,"##bed":13119,"tappat":13120,"tillverkade":13121,"duschen":13122,"torra":13123,"fortsetter":13124,"lit":13125,"fortjanar":13126,"møtte":13127,"##antor":13128,"tabletter":13129,"##elset":13130,"management":13131,"tilltal":13132,"nyborjare":13133,"katastrof":13134,"genet":13135,"situasjonen":13136,"mach":13137,"missar":13138,"signer":13139,"mandagen":13140,"frammande":13141,"konflikter":13142,"skilja":13143,"bortsett":13144,"bjørn":13145,"##bygd":13146,"##kostnader":13147,"miljovan":13148,"##rill":13149,"trakasser":13150,"jamna":13151,"fortelle":13152,"##natur":13153,"##skriven":13154,"marg":13155,"##33":13156,"kropps":13157,"djupare":13158,"comments":13159,"blaser":13160,"##brand":13161,"##sklubb":13162,"intervall":13163,"scener":13164,"vandrar":13165,"1976":13166,"mysiga":13167,"##skande":13168,"inland":13169,"photos":13170,"sjalvklar":13171,"tir":13172,"birgitt":13173,"##nats":13174,"stel":13175,"##forslag":13176,"loven":13177,"konkurren":13178,"##byra":13179,"1983":13180,"nackdelar":13181,"stoff":13182,"smidig":13183,"##svin":13184,"die":13185,"##kott":13186,"##ales":13187,"utgitt":13188,"avsk":13189,"innsats":13190,"1945":13191,"##inspektionen":13192,"journalister":13193,"forberedel":13194,"##hagen":13195,"skym":13196,"svin":13197,"genomforande":13198,"page":13199,"politiken":13200,"nevnt":13201,"trolig":13202,"diameter":13203,"partik":13204,"fakult":13205,"display":13206,"rose":13207,"favoritter":13208,"##anas":13209,"##ville":13210,"stuga":13211,"ms":13212,"møtet":13213,"tagen":13214,"nedsatt":13215,"lotta":13216,"lei":13217,"byggs":13218,"uttrycka":13219,"deklar":13220,"fax":13221,"forsvaret":13222,"##flode":13223,"forelasningar":13224,"torsdagen":13225,"grunnleggende":13226,"bygd":13227,"skrattade":13228,"upptackt":13229,"##casino":13230,"##evin":13231,"##jenesten":13232,"redskap":13233,"91":13234,"##agda":13235,"avancerad":13236,"hogkval":13237,"##kelige":13238,"berorda":13239,"lovskog":13240,"##eliv":13241,"parag":13242,"##ittel":13243,"mission":13244,"##hjart":13245,"poster":13246,"alskling":13247,"skrap":13248,"##irasjon":13249,"bekanta":13250,"##oa":13251,"rorande":13252,"inkomster":13253,"forkort":13254,"##strad":13255,"redog":13256,"administration":13257,"opphold":13258,"bakterier":13259,"skraddars":13260,"uttrykk":13261,"konsol":13262,"conta":13263,"71":13264,"kommand":13265,"rulla":13266,"overtygad":13267,"slottet":13268,"##yren":13269,"foraldra":13270,"##ellet":13271,"##ekon":13272,"retro":13273,"testet":13274,"1981":13275,"kirken":13276,"hardare":13277,"webblasare":13278,"##span":13279,"##priser":13280,"##aria":13281,"portratt":13282,"kriterier":13283,"byr":13284,"sul":13285,"##ippa":13286,"nest":13287,"gjer":13288,"lotter":13289,"niklas":13290,"minskade":13291,"bedrifter":13292,"nettverk":13293,"smek":13294,"##reen":13295,"categor":13296,"skaper":13297,"tradgardar":13298,"tillkommer":13299,"tig":13300,"uppger":13301,"natverket":13302,"oppdat":13303,"##heran":13304,"##aganden":13305,"forsvinna":13306,"vinkel":13307,"allvarlig":13308,"meta":13309,"same":13310,"direktiv":13311,"##istiske":13312,"blow":13313,"##adet":13314,"##havet":13315,"nivan":13316,"sjekk":13317,"##mers":13318,"agna":13319,"fodda":13320,"##lada":13321,"bagge":13322,"forne":13323,"damms":13324,"##lege":13325,"racka":13326,"lennart":13327,"reste":13328,"vuxit":13329,"##aterade":13330,"betraff":13331,"utru":13332,"alfa":13333,"sinne":13334,"konkl":13335,"annika":13336,"kvalif":13337,"##centralen":13338,"stiger":13339,"charles":13340,"##ekonom":13341,"reserver":13342,"##promen":13343,"noje":13344,"synas":13345,"pm":13346,"atal":13347,"stamning":13348,"mums":13349,"utvecklings":13350,"kvartalet":13351,"forfl":13352,"arbetsdag":13353,"ordfor":13354,"bastu":13355,"sjukdomen":13356,"##arina":13357,"gos":13358,"fisken":13359,"stravar":13360,"##foretaget":13361,"1978":13362,"##dahl":13363,"chefer":13364,"syntes":13365,"lokalen":13366,"ombud":13367,"noggrant":13368,"350":13369,"fjol":13370,"anhoriga":13371,"lila":13372,"lunds":13373,"padd":13374,"##win":13375,"##pere":13376,"##hvert":13377,"kartan":13378,"royal":13379,"kreditvardighet":13380,"funderingar":13381,"##rorna":13382,"kriminal":13383,"landstinget":13384,"entreprenor":13385,"floden":13386,"forsaljningen":13387,"regnskog":13388,"hamnen":13389,"linjen":13390,"mammor":13391,"orn":13392,"tredjedel":13393,"funderat":13394,"helvete":13395,"beaut":13396,"korn":13397,"##ellen":13398,"##yder":13399,"jessica":13400,"forflytt":13401,"hornet":13402,"diagram":13403,"gata":13404,"male":13405,"young":13406,"semif":13407,"upph":13408,"##vision":13409,"cv":13410,"##arp":13411,"genu":13412,"akade":13413,"varannan":13414,"anlaggningen":13415,"stilling":13416,"oroa":13417,"##ador":13418,"##oklipp":13419,"narkotika":13420,"diagnos":13421,"intyg":13422,"atte":13423,"##underlag":13424,"wash":13425,"noggrann":13426,"##chat":13427,"julklappar":13428,"spelautomater":13429,"pastar":13430,"frys":13431,"##itativ":13432,"farliga":13433,"turister":13434,"##ikern":13435,"##not":13436,"titlar":13437,"##ated":13438,"feed":13439,"innefattar":13440,"gold":13441,"##oppar":13442,"danske":13443,"##delningar":13444,"drick":13445,"provning":13446,"drama":13447,"vagnen":13448,"obeg":13449,"registrerade":13450,"aa":13451,"startat":13452,"##gjennom":13453,"osterrike":13454,"lor":13455,"##stren":13456,"##karna":13457,"story":13458,"oppfor":13459,"tjansteman":13460,"stamp":13461,"basket":13462,"forutsatt":13463,"##akes":13464,"personuppgift":13465,"jacka":13466,"befri":13467,"spelades":13468,"##fron":13469,"##entuna":13470,"gris":13471,"##bror":13472,"provade":13473,"bransle":13474,"##ssaker":13475,"hemifran":13476,"bestallt":13477,"personerna":13478,"besluts":13479,"tufft":13480,"##chf":13481,"angeles":13482,"egenskap":13483,"avgjørende":13484,"pad":13485,"hyper":13486,"logg":13487,"jf":13488,"hass":13489,"visning":13490,"progress":13491,"varer":13492,"idol":13493,"arabiska":13494,"##svillkor":13495,"##fy":13496,"videoer":13497,"endret":13498,"vattent":13499,"klikk":13500,"bilda":13501,"isb":13502,"folkets":13503,"publisert":13504,"felt":13505,"##berga":13506,"##serie":13507,"##skrivna":13508,"##skrivning":13509,"bildar":13510,"farge":13511,"inledning":13512,"oral":13513,"roulette":13514,"russland":13515,"fiskar":13516,"vs":13517,"##journ":13518,"hollywood":13519,"producerar":13520,"kulturen":13521,"innbyggere":13522,"##iserer":13523,"beseg":13524,"cons":13525,"skogs":13526,"##ologiske":13527,"tappade":13528,"##mastare":13529,"##vald":13530,"xn":13531,"indian":13532,"semestern":13533,"pals":13534,"haug":13535,"vakre":13536,"5000":13537,"festen":13538,"great":13539,"##grens":13540,"funktionsnedsattning":13541,"##ondition":13542,"forhin":13543,"xd":13544,"there":13545,"utg":13546,"##produkt":13547,"nordisk":13548,"okenklimat":13549,"benyttes":13550,"ledet":13551,"svarte":13552,"diet":13553,"halland":13554,"kjenn":13555,"##ickor":13556,"foreslas":13557,"firade":13558,"##pg":13559,"viner":13560,"##æren":13561,"##poang":13562,"importer":13563,"elisabeth":13564,"toner":13565,"anvandaren":13566,"##otekn":13567,"ugn":13568,"rensa":13569,"elect":13570,"sallsyn":13571,"lyckad":13572,"1969":13573,"revolution":13574,"sud":13575,"##km":13576,"sande":13577,"begara":13578,"##mis":13579,"beton":13580,"fordelen":13581,"kristians":13582,"##ankande":13583,"invester":13584,"opprettet":13585,"festivalen":13586,"stiftelsen":13587,"namnden":13588,"pseud":13589,"glim":13590,"avdrag":13591,"sola":13592,"halvlek":13593,"oppdatert":13594,"gator":13595,"##skans":13596,"##ship":13597,"sexuellt":13598,"teheran":13599,"farska":13600,"anpassad":13601,"drommer":13602,"pont":13603,"aland":13604,"county":13605,"tradgards":13606,"##vene":13607,"ingred":13608,"indre":13609,"øyebl":13610,"tavlar":13611,"ljust":13612,"framtidens":13613,"villkoren":13614,"rapporterar":13615,"##edal":13616,"uthyr":13617,"tidpunkt":13618,"##uster":13619,"nettsted":13620,"aldrar":13621,"nes":13622,"hamnat":13623,"kvallens":13624,"##lop":13625,"paminn":13626,"fron":13627,"endring":13628,"historik":13629,"placerade":13630,"skrivbord":13631,"stortinget":13632,"chefen":13633,"santa":13634,"reiser":13635,"##stjanster":13636,"dari":13637,"##tex":13638,"subst":13639,"kapp":13640,"hert":13641,"forebygga":13642,"medvetna":13643,"##date":13644,"##smiljo":13645,"portugal":13646,"leil":13647,"minsann":13648,"dobb":13649,"kommissionen":13650,"##tro":13651,"##kerne":13652,"instruktioner":13653,"lekte":13654,"1977":13655,"analsex":13656,"##stuga":13657,"hungrig":13658,"saljare":13659,"##ktig":13660,"specifikt":13661,"##øyt":13662,"maila":13663,"videoklipp":13664,"##hamtning":13665,"roger":13666,"##sbut":13667,"forsvara":13668,"bedriver":13669,"##bot":13670,"kungliga":13671,"pirat":13672,"vell":13673,"forvantar":13674,"##syk":13675,"##villkor":13676,"skulpt":13677,"bevara":13678,"##vitt":13679,"rakningar":13680,"motesplats":13681,"tillverkas":13682,"fordr":13683,"retningslin":13684,"koldioxid":13685,"kommers":13686,"##lav":13687,"##plasser":13688,"##ektionen":13689,"samtalet":13690,"forar":13691,"genomforas":13692,"mkr":13693,"arbetssatt":13694,"insidan":13695,"paketet":13696,"3000":13697,"##stillinger":13698,"ystad":13699,"rita":13700,"kungen":13701,"frost":13702,"stolta":13703,"##garant":13704,"find":13705,"prylar":13706,"##sforeningen":13707,"##utna":13708,"bedomer":13709,"meet":13710,"kundens":13711,"fc":13712,"lege":13713,"veder":13714,"##vad":13715,"varst":13716,"lex":13717,"turne":13718,"##mjol":13719,"##usion":13720,"inspirerad":13721,"borte":13722,"hallow":13723,"##undersø":13724,"wien":13725,"##sberg":13726,"##linjen":13727,"##sbeslut":13728,"øver":13729,"kvartal":13730,"haromdagen":13731,"lchf":13732,"ingang":13733,"buff":13734,"kontrast":13735,"feta":13736,"1967":13737,"atmosfar":13738,"antas":13739,"lyckligt":13740,"##fett":13741,"flytande":13742,"ala":13743,"found":13744,"wood":13745,"##amerika":13746,"##plac":13747,"jakarta":13748,"##langt":13749,"##svikt":13750,"øya":13751,"programvara":13752,"##inci":13753,"forhallandet":13754,"hjarna":13755,"hyggelig":13756,"menings":13757,"sopp":13758,"m2":13759,"tjocka":13760,"canada":13761,"nina":13762,"samarbetspart":13763,"tillatet":13764,"lappar":13765,"grannar":13766,"##lack":13767,"fargerna":13768,"##bom":13769,"##esund":13770,"spørsmalet":13771,"varia":13772,"hallbara":13773,"gd":13774,"##45":13775,"##manland":13776,"##une":13777,"hallit":13778,"mester":13779,"konserter":13780,"vistas":13781,"award":13782,"territ":13783,"##drift":13784,"nationellt":13785,"ign":13786,"angr":13787,"klasse":13788,"##prosjekt":13789,"##maskinen":13790,"ensamma":13791,"##sun":13792,"kroppens":13793,"valfard":13794,"valut":13795,"administrativ":13796,"ebon":13797,"representerar":13798,"##annat":13799,"orsakar":13800,"oga":13801,"suver":13802,"ggr":13803,"ør":13804,"norw":13805,"byra":13806,"##hallande":13807,"##angs":13808,"know":13809,"piller":13810,"bege":13811,"##sforetag":13812,"mira":13813,"biograf":13814,"lab":13815,"bildas":13816,"onsdagen":13817,"associ":13818,"servicen":13819,"uppsta":13820,"knack":13821,"presentkort":13822,"upplevelsen":13823,"##arbetare":13824,"offis":13825,"alternativa":13826,"ansprak":13827,"hardt":13828,"konkurranse":13829,"##handeln":13830,"lampor":13831,"##gro":13832,"##elever":13833,"berget":13834,"kard":13835,"gy":13836,"lada":13837,"imot":13838,"brons":13839,"##veis":13840,"tillhandahaller":13841,"##teringen":13842,"minskning":13843,"##bibli":13844,"kvelden":13845,"genomfordes":13846,"gava":13847,"appel":13848,"plockade":13849,"instrukt":13850,"allihop":13851,"liver":13852,"##allet":13853,"##ammation":13854,"compan":13855,"underlattar":13856,"hanteras":13857,"vaskan":13858,"kjører":13859,"forklarade":13860,"##sre":13861,"##ople":13862,"passager":13863,"ada":13864,"snabblan":13865,"tob":13866,"indiska":13867,"filen":13868,"##inerna":13869,"nordland":13870,"##ningssatt":13871,"batar":13872,"uavhengig":13873,"baserade":13874,"mosaik":13875,"sne":13876,"forare":13877,"dnr":13878,"underhallande":13879,"nasan":13880,"gøy":13881,"##forvaltningen":13882,"##venn":13883,"videregaende":13884,"utby":13885,"forstora":13886,"##stro":13887,"mellanrum":13888,"rotter":13889,"fair":13890,"177":13891,"##komligt":13892,"tillbaks":13893,"##organisation":13894,"sjalvfort":13895,"offens":13896,"inneha":13897,"oppdaget":13898,"gate":13899,"sf":13900,"mj":13901,"##skas":13902,"berattat":13903,"selvsagt":13904,"varsin":13905,"125":13906,"##orier":13907,"##estyr":13908,"rantor":13909,"halt":13910,"tranade":13911,"mangler":13912,"nobel":13913,"kalles":13914,"strumpor":13915,"##fran":13916,"onlin":13917,"##amnen":13918,"ingrediens":13919,"sexuell":13920,"skadestand":13921,"bestemte":13922,"aktiebolag":13923,"##27":13924,"##atsas":13925,"erfaringer":13926,"##itation":13927,"sammenheng":13928,"tendens":13929,"##sbeg":13930,"utstall":13931,"kontaktann":13932,"blot":13933,"ishockey":13934,"##eh":13935,"rantan":13936,"##fallen":13937,"byggas":13938,"degen":13939,"##bottens":13940,"javligt":13941,"spell":13942,"konkurrenskraft":13943,"office":13944,"debuter":13945,"røy":13946,"normer":13947,"alf":13948,"visby":13949,"##smatch":13950,"stabilitet":13951,"besokt":13952,"gps":13953,"menneske":13954,"misstankt":13955,"flo":13956,"omgivning":13957,"applic":13958,"##rediter":13959,"publikum":13960,"innom":13961,"grekiska":13962,"beromda":13963,"omfattende":13964,"##iseras":13965,"##vetet":13966,"##sklader":13967,"mir":13968,"##ttill":13969,"diagnost":13970,"##xy":13971,"ags":13972,"filt":13973,"##unna":13974,"##ih":13975,"pase":13976,"dead":13977,"forsamlingen":13978,"##gam":13979,"##slov":13980,"publicerat":13981,"stry":13982,"bern":13983,"forskar":13984,"##fet":13985,"##speg":13986,"regioner":13987,"raknat":13988,"cirk":13989,"njot":13990,"lillebror":13991,"##rap":13992,"seminar":13993,"versjon":13994,"kostnadsfritt":13995,"grata":13996,"rick":13997,"kum":13998,"klev":13999,"sokning":14000,"baren":14001,"somras":14002,"agar":14003,"ebony":14004,"talam":14005,"tunna":14006,"oratt":14007,"mild":14008,"##sgran":14009,"##brudd":14010,"camilla":14011,"##block":14012,"hallon":14013,"stryk":14014,"jackp":14015,"kyrkans":14016,"torget":14017,"trakig":14018,"metro":14019,"abonnemang":14020,"review":14021,"invandrare":14022,"forsakringen":14023,"care":14024,"soldat":14025,"orientering":14026,"kyss":14027,"kiss":14028,"##vann":14029,"stemmer":14030,"tekniskt":14031,"skatteverket":14032,"ihjal":14033,"designer":14034,"dream":14035,"##hammar":14036,"##sbanken":14037,"honung":14038,"doma":14039,"##bete":14040,"kontinuerlig":14041,"ratter":14042,"retten":14043,"tes":14044,"##halt":14045,"##stj":14046,"expans":14047,"kroat":14048,"##vill":14049,"##ato":14050,"mandags":14051,"poolen":14052,"opprinnelig":14053,"vagrar":14054,"##hur":14055,"##tell":14056,"##emi":14057,"##søk":14058,"dokumentar":14059,"kallades":14060,"laddar":14061,"modernt":14062,"varat":14063,"tilstand":14064,"##spolicy":14065,"arsredovis":14066,"escorter":14067,"jordgubbar":14068,"enkle":14069,"##beck":14070,"lignende":14071,"favoritt":14072,"tvil":14073,"aktuelle":14074,"##ebo":14075,"kreditupplysning":14076,"##sug":14077,"vitenskap":14078,"forma":14079,"keram":14080,"##pedagog":14081,"christer":14082,"##rettel":14083,"avslutning":14084,"##chi":14085,"onskade":14086,"nyt":14087,"panel":14088,"##ekom":14089,"mountain":14090,"360":14091,"palm":14092,"mega":14093,"rykte":14094,"effektivitet":14095,"##ilda":14096,"franske":14097,"##avstand":14098,"ovrig":14099,"pict":14100,"##akade":14101,"francis":14102,"andrar":14103,"brukade":14104,"insamling":14105,"individuellt":14106,"##egrupp":14107,"godkanda":14108,"klubbar":14109,"##moder":14110,"ventilation":14111,"manniskans":14112,"ekstre":14113,"aktivera":14114,"gabri":14115,"bibe":14116,"research":14117,"##omi":14118,"antibiot":14119,"cr":14120,"oppgave":14121,"##skolans":14122,"##99":14123,"blodet":14124,"orten":14125,"treng":14126,"wiki":14127,"lover":14128,"djupa":14129,"ingick":14130,"##drer":14131,"aksep":14132,"stekel":14133,"pix":14134,"morkret":14135,"##kvalitet":14136,"okanda":14137,"begransat":14138,"##middag":14139,"missn":14140,"vilkar":14141,"##sokande":14142,"pite":14143,"##spolitik":14144,"vinsten":14145,"##ating":14146,"styck":14147,"kirk":14148,"smorg":14149,"onan":14150,"tilrettel":14151,"minuten":14152,"##lange":14153,"kamper":14154,"argumenter":14155,"politikk":14156,"##go":14157,"beskatt":14158,"minimum":14159,"##fsat":14160,"papir":14161,"lararen":14162,"samsung":14163,"pok":14164,"search":14165,"markte":14166,"##kann":14167,"egg":14168,"kristne":14169,"##gjorda":14170,"##alk":14171,"water":14172,"##asyster":14173,"spotify":14174,"skrivande":14175,"handelsen":14176,"integration":14177,"##hattan":14178,"kungs":14179,"##pump":14180,"arbetsloshet":14181,"##aminer":14182,"overgrepp":14183,"##insatser":14184,"vintage":14185,"pilot":14186,"blivande":14187,"frukosten":14188,"bygglov":14189,"##ibla":14190,"gass":14191,"##sforsakring":14192,"kanslig":14193,"servering":14194,"##26":14195,"raddningst":14196,"varning":14197,"linnea":14198,"markedsf":14199,"##traff":14200,"skrattar":14201,"asien":14202,"colomb":14203,"##esson":14204,"nylig":14205,"latina":14206,"##ømt":14207,"vaggarna":14208,"bibliote":14209,"maja":14210,"saknade":14211,"skilda":14212,"hurt":14213,"##utdan":14214,"klarat":14215,"foreslag":14216,"italia":14217,"gleder":14218,"##stationen":14219,"omfatter":14220,"platta":14221,"##dren":14222,"##kg":14223,"orgasm":14224,"ova":14225,"radik":14226,"utsikten":14227,"faren":14228,"##slost":14229,"##marknaden":14230,"marknader":14231,"##prom":14232,"arskurs":14233,"sliter":14234,"utmer":14235,"gumm":14236,"##atern":14237,"##boy":14238,"uppmarksam":14239,"##mott":14240,"##fyllda":14241,"##35":14242,"nordmenn":14243,"koh":14244,"##konst":14245,"explo":14246,"helik":14247,"jamtland":14248,"1964":14249,"rutan":14250,"ryt":14251,"##kle":14252,"samtycke":14253,"##bis":14254,"konkreta":14255,"handlat":14256,"years":14257,"utvikler":14258,"news":14259,"bt":14260,"##usa":14261,"diskuterar":14262,"beloppet":14263,"passerar":14264,"halloween":14265,"##slen":14266,"##etr":14267,"##work":14268,"utformning":14269,"##aken":14270,"recens":14271,"bokat":14272,"mandel":14273,"marknads":14274,"klaga":14275,"genomfort":14276,"##byn":14277,"sprider":14278,"regnskap":14279,"snakker":14280,"religiosa":14281,"tummarna":14282,"arn":14283,"##imenter":14284,"##resultatet":14285,"rommet":14286,"utdelning":14287,"albert":14288,"##ky":14289,"orkide":14290,"malgrupp":14291,"splitt":14292,"moderaterna":14293,"##fond":14294,"##eds":14295,"rekommendationer":14296,"##oni":14297,"stekelart":14298,"##olo":14299,"nek":14300,"ll":14301,"desp":14302,"umiddel":14303,"cykeln":14304,"##mester":14305,"##itiv":14306,"ansoker":14307,"see":14308,"producent":14309,"flu":14310,"kjærligheten":14311,"##ession":14312,"##øpet":14313,"hemsidor":14314,"glasogon":14315,"tydligare":14316,"casinot":14317,"popularitet":14318,"##veg":14319,"skriker":14320,"##filmen":14321,"fremdeles":14322,"paras":14323,"kafe":14324,"pend":14325,"blekinge":14326,"##ografiska":14327,"##ay":14328,"##havn":14329,"tanderna":14330,"lasse":14331,"korrig":14332,"kasinon":14333,"bestammelserna":14334,"uh":14335,"pasienter":14336,"rattvis":14337,"spania":14338,"##visningen":14339,"mexiko":14340,"##atorn":14341,"##bai":14342,"manchester":14343,"sovrummet":14344,"##brev":14345,"jordbruks":14346,"kent":14347,"renovering":14348,"vietnam":14349,"##gjord":14350,"##ful":14351,"projektledare":14352,"etiketter":14353,"forvanta":14354,"barr":14355,"absolutt":14356,"omgivningen":14357,"udda":14358,"opplevelse":14359,"formedla":14360,"undrade":14361,"ledelse":14362,"##krig":14363,"##vaska":14364,"skuespiller":14365,"louise":14366,"skept":14367,"dna":14368,"##ialt":14369,"sørge":14370,"jesu":14371,"sterke":14372,"##anmalan":14373,"miljopart":14374,"##trader":14375,"utnyttjar":14376,"##baserade":14377,"vegetar":14378,"key":14379,"##stallt":14380,"##chel":14381,"sølv":14382,"aterfinns":14383,"##itativa":14384,"fula":14385,"overvakning":14386,"amerikan":14387,"##kalla":14388,"svull":14389,"videospel":14390,"vap":14391,"mente":14392,"ingrid":14393,"valkanda":14394,"forfatter":14395,"dimension":14396,"offentligt":14397,"missfor":14398,"prinsipp":14399,"birgitta":14400,"arbetsplatser":14401,"kostade":14402,"wordpress":14403,"##storlek":14404,"pia":14405,"darpa":14406,"oppret":14407,"##sloven":14408,"##annelse":14409,"overleva":14410,"apner":14411,"##fas":14412,"##28":14413,"tiot":14414,"klim":14415,"##samman":14416,"kvallarna":14417,"lux":14418,"terrass":14419,"luktar":14420,"lyder":14421,"deilig":14422,"spare":14423,"hygien":14424,"##krit":14425,"##plattor":14426,"pastor":14427,"##pir":14428,"framgangsrik":14429,"nyheterna":14430,"##skrid":14431,"##erier":14432,"plug":14433,"hører":14434,"1200":14435,"kunskapen":14436,"avsloja":14437,"tanter":14438,"benytte":14439,"betraffande":14440,"varmare":14441,"##feldt":14442,"##otyp":14443,"regelverk":14444,"lacker":14445,"fos":14446,"listen":14447,"apel":14448,"##auf":14449,"cirkel":14450,"##mass":14451,"vises":14452,"intakt":14453,"relaterade":14454,"##29":14455,"avsedd":14456,"gifter":14457,"ressurser":14458,"##fordon":14459,"##vol":14460,"ansatt":14461,"kanel":14462,"frik":14463,"uppvaxt":14464,"##glad":14465,"trekke":14466,"##ygen":14467,"kristina":14468,"koden":14469,"miljom":14470,"centimeter":14471,"skader":14472,"parterna":14473,"elast":14474,"operativ":14475,"vinne":14476,"komplettera":14477,"pappers":14478,"skadade":14479,"bekost":14480,"intellekt":14481,"inspirasjon":14482,"ray":14483,"tillverkar":14484,"kampanjen":14485,"rakning":14486,"kjend":14487,"handled":14488,"##sarbeid":14489,"gratul":14490,"inratt":14491,"##kir":14492,"##terad":14493,"bokar":14494,"sja":14495,"##skogen":14496,"stodjer":14497,"skargard":14498,"##ledes":14499,"meriter":14500,"uppdateras":14501,"##anne":14502,"flam":14503,"butt":14504,"vip":14505,
[...]
