{"version":"1.0","truncation":null,"padding":null,"added_tokens":[{"id":0,"special":true,"content":"[PAD]","single_word":false,"lstrip":false,"rstrip":false,"normalized":false},{"id":1,"special":true,"content":"[UNK]","single_word":false,"lstrip":false,"rstrip":false,"normalized":false},{"id":2,"special":true,"content":"[CLS]","single_word":false,"lstrip":false,"rstrip":false,"normalized":false},{"id":3,"special":true,"content":"[SEP]","single_word":false,"lstrip":false,"rstrip":false,"normalized":false},{"id":4,"special":true,"content":"[MASK]","single_word":false,"lstrip":false,"rstrip":false,"normalized":false}],"normalizer":{"type":"BertNormalizer","clean_text":true,"handle_chinese_chars":true,"strip_accents":null,"lowercase":true},"pre_tokenizer":{"type":"BertPreTokenizer"},"post_processor":null,"decoder":{"type":"WordPiece","prefix":"##","cleanup":true},"model":{"type":"WordPiece","unk_token":"[UNK]","continuing_subword_prefix":"##","max_input_chars_per_word":100,"vocab":{"[PAD]":0,"[UNK]":1,"[CLS]":2,"[SEP]":3,"[MASK]":4,"!":5,"\"":6,"#":7,"$":8,"%":9,"&":10,"'":11,"(":12,")":13,"*":14,"+":15,",":16,"-":17,".":18,"/":19,"0":20,"1":21,"2":22,"3":23,"4":24,"5":25,"6":26,"7":27,"8":28,"9":29,":":30,";":31,"=":32,"?":33,"@":34,"[":35,"\\":36,"]":37,"^":38,"_":39,"`":40,"a":41,"b":42,"c":43,"d":44,"e":45,"f":46,"g":47,"h":48,"i":49,"j":50,"k":51,"l":52,"m":53,"n":54,"o":55,"p":56,"q":57,"r":58,"s":59,"t":60,"u":61,"v":62,"w":63,"x":64,"y":65,"z":66,"{":67,"|":68,"}":69,"~":70,"¡":71,"¢":72,"£":73,"¤":74,"¥":75,"§":76,"¨":77,"©":78,"ª":79,"«":80,"¬":81,"®":82,"¯":83,"°":84,"±":85,"²":86,"³":87,"´":88,"µ":89,"·":90,"¹":91,"º":92,"»":93,"¼":94,"½":95,"¾":96,"¿":97,"×":98,"ß":99,"æ":100,"ð":101,"÷":102,"ø":103,"þ":104,"đ":105,"ħ":106,"ı":107,"ĳ":108,"ł":109,"ŋ":110,"œ":111,"ɐ":112,"ɑ":113,"ɒ":114,"ɓ":115,"ɔ":116,"ɕ":117,"ə":118,"ɛ":119,"ɡ":120,"ɣ":121,"ɦ":122,"ɨ":123,"ɪ":124,"ɫ":125,"ɲ":126,"ɾ":127,"ʀ":128,"ʁ":129,"ʂ":130,"ʃ":131,"ʊ":132,"ʋ":133,"ʌ":134,"ʎ":135,"ʏ":136,"ʒ":137,"ʔ":138,"ʕ":139,"ʰ":140,"ʲ":141,"ʹ":142,"ʻ":143,"ʼ":144,"ʾ":145,"ʿ":146,"ˀ":147,"ˈ":148,"ˌ":149,"ː":150,"˚":151,"ˠ":152,"ˡ":153,"ˢ":154,"α":155,"β":156,"γ":157,"δ":158,"ε":159,"ζ":160,"η":161,"θ":162,"ι":163,"κ":164,"λ":165,"μ":166,"ν":167,"ξ":168,"ο":169,"π":170,"ρ":171,"ς":172,"σ":173,"τ":174,"υ":175,"φ":176,"χ":177,"ψ":178,"ω":179,"а":180,"б":181,"в":182,"г":183,"д":184,"е":185,"ж":186,"з":187,"и":188,"к":189,"л":190,"м":191,"н":192,"о":193,"п":194,"р":195,"с":196,"т":197,"у":198,"ф":199,"х":200,"ц":201,"ч":202,"ш":203,"щ":204,"ъ":205,"ы":206,"ь":207,"э":208,"ю":209,"я":210,"ђ":211,"є":212,"і":213,"ј":214,"љ":215,"њ":216,"ћ":217,"қ":218,"ү":219,"ә":220,"ө":221,"ա":222,"բ":223,"գ":224,"դ":225,"ե":226,"զ":227,"թ":228,"ի":229,"լ":230,"կ":231,"հ":232,"մ":233,"յ":234,"ն":235,"շ":236,"ո":237,"պ":238,"ս":239,"վ":240,"տ":241,"ր":242,"ց":243,"ւ":244,"ֆ":245,"׃":246,"א":247,"ב":248,"ג":249,"ד":250,"ה":251,"ו":252,"ז":253,"ח":254,"ט":255,"י":256,"ך":257,"כ":258,"ל":259,"ם":260,"מ":261,"ן":262,"נ":263,"ס":264,"ע":265,"פ":266,"ץ":267,"צ":268,"ק":269,"ר":270,"ש":271,"ת":272,"ء":273,"ا":274,"ب":275,"ة":276,"ت":277,"ث":278,"ج":279,"ح":280,"خ":281,"د":282,"ذ":283,"ر":284,"ز":285,"س":286,"ش":287,"ص":288,"ض":289,"ط":290,"ظ":291,"ع":292,"غ":293,"ف":294,"ق":295,"ك":296,"ل":297,"م":298,"ن":299,"ه":300,"و":301,"ى":302,"ي":303,"پ":304,"چ":305,"ک":306,"گ":307,"ھ":308,"ہ":309,"ۇ":310,"ی":311,"ێ":312,"ە":313,"ܐ":314,"މ":315,"अ":316,"क":317,"ग":318,"च":319,"ज":320,"ट":321,"ड":322,"ण":323,"त":324,"द":325,"ध":326,"न":327,"प":328,"ब":329,"भ":330,"म":331,"य":332,"र":333,"ल":334,"व":335,"श":336,"स":337,"ह":338,"ा":339,"ि":340,"ी":341,"ो":342,"ত":343,"ন":344,"ব":345,"ম":346,"র":347,"ল":348,"া":349,"ি":350,"ਾ":351,"க":352,"ங":353,"ச":354,"த":355,"ன":356,"ப":357,"ம":358,"ர":359,"ல":360,"ழ":361,"வ":362,"ா":363,"ி":364,"ு":365,"ం":366,"క":367,"జ":368,"ద":369,"న":370,"ప":371,"ర":372,"ల":373,"ు":374,"ก":375,"ค":376,"ง":377,"จ":378,"ช":379,"ญ":380,"ณ":381,"ด":382,"ต":383,"ท":384,"ธ":385,"น":386,"บ":387,"ป":388,"พ":389,"ภ":390,"ม":391,"ย":392,"ร":393,"ล":394,"ว":395,"ศ":396,"ส":397,"ห":398,"อ":399,"ะ":400,"า":401,"เ":402,"แ":403,"โ":404,"ไ":405,"་":406,"ག":407,"ང":408,"ད":409,"ན":410,"བ":411,"མ":412,"འ":413,"ར":414,"ལ":415,"ས":416,"ა":417,"ბ":418,"გ":419,"დ":420,"ე":421,"ვ":422,"ზ":423,"თ":424,"ი":425,"კ":426,"ლ":427,"მ":428,"ნ":429,"ო":430,"რ":431,"ს":432,"ტ":433,"უ":434,"ფ":435,"ქ":436,"შ":437,"ძ":438,"ხ":439,"ᄀ":440,"ᄂ":441,"ᄃ":442,"ᄅ":443,"ᄆ":444,"ᄇ":445,"ᄉ":446,"ᄋ":447,"ᄌ":448,"ᄎ":449,"ᄏ":450,"ᄐ":451,"ᄑ":452,"ᄒ":453,"ᅡ":454,"ᅢ":455,"ᅣ":456,"ᅥ":457,"ᅦ":458,"ᅧ":459,"ᅩ":460,"ᅪ":461,"ᅬ":462,"ᅭ":463,"ᅮ":464,"ᅯ":465,"ᅱ":466,"ᅲ":467,"ᅳ":468,"ᅴ":469,"ᅵ":470,"ᆨ":471,"ᆫ":472,"ᆯ":473,"ᆷ":474,"ᆸ":475,"ᆼ":476,"ን":477,"አ":478,"ក":479,"ត":480,"រ":481,"ស":482,"ា":483,"ᴧ":484,"‐":485,"‑":486,"–":487,"—":488,"‗":489,"‘":490,"’":491,"‚":492,"“":493,"”":494,"„":495,"†":496,"‡":497,"•":498,"…":499,"‰":500,"′":501,"″":502,"⁄":503,"₁":504,"₂":505,"₃":506,"₤":507,"€":508,"ℓ":509,"№":510,"™":511,"⅓":512,"⅔":513,"←":514,"↑":515,"→":516,"↔":517,"⇒":518,"⇔":519,"∀":520,"∃":521,"∇":522,"∈":523,"−":524,"∙":525,"√":526,"∞":527,"∪":528,"≈":529,"≡":530,"≤":531,"≥":532,"⊆":533,"⋅":534,"─":535,"│":536,"└":537,"├":538,"═":539,"║":540,"╔":541,"╗":542,"╚":543,"╝":544,"●":545,"◡":546,"◦":547,"☆":548,"☉":549,"♠":550,"♣":551,"♥":552,"♦":553,"♪":554,"♭":555,"♯":556,"⟨":557,"⟩":558,"ⴕ":559,"ⴰ":560,"あ":561,"い":562,"う":563,"お":564,"か":565,"き":566,"く":567,"け":568,"こ":569,"さ":570,"し":571,"す":572,"た":573,"ち":574,"っ":575,"つ":576,"て":577,"と":578,"な":579,"に":580,"の":581,"は":582,"ひ":583,"ふ":584,"ほ":585,"ま":586,"み":587,"ゆ":588,"ょ":589,"ら":590,"り":591,"る":592,"れ":593,"わ":594,"ん":595,"ァ":596,"ア":597,"ィ":598,"イ":599,"ウ":600,"エ":601,"オ":602,"カ":603,"キ":604,"ク":605,"ケ":606,"コ":607,"サ":608,"シ":609,"ス":610,"セ":611,"ソ":612,"タ":613,"チ":614,"ッ":615,"ツ":616,"テ":617,"ト":618,"ナ":619,"ニ":620,"ネ":621,"ノ":622,"ハ":623,"ヒ":624,"フ":625,"ヘ":626,"ホ":627,"マ":628,"ミ":629,"ム":630,"メ":631,"モ":632,"ャ":633,"ュ":634,"ョ":635,"ラ":636,"リ":637,"ル":638,"レ":639,"ロ":640,"ン":641,"・":642,"ー":643,"一":644,"三":645,"上":646,"下":647,"世":648,"东":649,"中":650,"丸":651,"丹":652,"丽":653,"之":654,"乙":655,"九":656,"事":657,"二":658,"五":659,"井":660,"交":661,"京":662,"人":663,"仁":664,"仙":665,"代":666,"份":667,"伊":668,"会":669,"伝":670,"体":671,"作":672,"你":673,"保":674,"信":675,"元":676,"光":677,"克":678,"全":679,"八":680,"公":681,"六":682,"共":683,"关":684,"内":685,"刀":686,"分":687,"剣":688,"劉":689,"力":690,"加":691,"勒":692,"動":693,"化":694,"北":695,"区":696,"十":697,"千":698,"华":699,"協":700,"南":701,"博":702,"历":703,"原":704,"县":705,"双":706,"口":707,"古":708,"台":709,"号":710,"司":711,"合":712,"名":713,"君":714,"吳":715,"吴":716,"周":717,"和":718,"哈":719,"唐":720,"商":721,"嘉":722,"四":723,"团":724,"国":725,"國":726,"土":727,"地":728,"城":729,"域":730,"場":731,"士":732,"夏":733,"外":734,"多":735,"大":736,"天":737,"太":738,"夫":739,"夷":740,"女":741,"委":742,"姫":743,"威":744,"子":745,"字":746,"学":747,"孫":748,"學":749,"宁":750,"安":751,"宗":752,"定":753,"宜":754,"宮":755,"家":756,"富":757,"寺":758,"将":759,"小":760,"尔":761,"尾":762,"居":763,"屋":764,"山":765,"岛":766,"岡":767,"岭":768,"島":769,"崎":770,"川":771,"州":772,"工":773,"市":774,"布":775,"帝":776,"平":777,"年":778,"广":779,"庆":780,"店":781,"府":782,"康":783,"廣":784,"建":785,"式":786,"张":787,"張":788,"後":789,"徐":790,"御":791,"徳":792,"德":793,"心":794,"忠":795,"愛":796,"慶":797,"成":798,"战":799,"戦":800,"戰":801,"所":802,"手":803,"拉":804,"拳":805,"政":806,"教":807,"文":808,"斯":809,"新":810,"方":811,"族":812,"旗":813,"日":814,"昌":815,"明":816,"易":817,"星":818,"春":819,"曆":820,"曲":821,"會":822,"月":823,"有":824,"朝":825,"木":826,"本":827,"朱":828,"李":829,"村":830,"東":831,"松":832,"林":833,"柔":834,"柳":835,"校":836,"株":837,"桥":838,"梅":839,"條":840,"業":841,"極":842,"樂":843,"橋":844,"機":845,"正":846,"武":847,"殿":848,"民":849,"気":850,"氣":851,"水":852,"永":853,"汉":854,"江":855,"汽":856,"沖":857,"沙":858,"河":859,"油":860,"治":861,"泉":862,"法":863,"波":864,"泰":865,"洋":866,"津":867,"流":868,"海":869,"清":870,"港":871,"湖":872,"湾":873,"漢":874,"漬":875,"灣":876,"火":877,"無":878,"焼":879,"爾":880,"物":881,"特":882,"玄":883,"玉":884,"王":885,"球":886,"理":887,"甘":888,"生":889,"産":890,"田":891,"由":892,"甲":893,"町":894,"界":895,"白":896,"百":897,"皇":898,"盟":899,"直":900,"相":901,"省":902,"県":903,"真":904,"眼":905,"石":906,"社":907,"神":908,"福":909,"秋":910,"秦":911,"空":912,"第":913,"節":914,"米":915,"精":916,"約":917,"紅":918,"級":919,"縣":920,"红":921,"羅":922,"美":923,"群":924,"義":925,"者":926,"聖":927,"股":928,"育":929,"自":930,"臺":931,"花":932,"英":933,"茶":934,"草":935,"華":936,"葉":937,"蒙":938,"藏":939,"藤":940,"虎":941,"行":942,"術":943,"西":944,"解":945,"記":946,"象":947,"貴":948,"路":949,"車":950,"軍":951,"輪":952,"通":953,"造":954,"道":955,"郎":956,"郡":957,"部":958,"都":959,"酒":960,"里":961,"重":962,"野":963,"金":964,"鈴":965,"鉄":966,"銀":967,"長":968,"长":969,"門":970,"間":971,"门":972,"阳":973,"阿":974,"限":975,"院":976,"陳":977,"陵":978,"陽":979,"隊":980,"際":981,"集":982,"雪":983,"青":984,"韓":985,"音":986,"風":987,"飛":988,"飯":989,"香":990,"馬":991,"马":992,"高":993,"魂":994,"麗":995,"黄":996,"龍":997,"龙":998,"ﬁ":999,"ﬂ":1000,"（":1001,"）":1002,"：":1003,"￼":1004,"##r":1005,"##y":1006,"##p":1007,"##t":1008,"##e":1009,"##d":1010,"##u":1011,"##l":1012,"##b":1013,"##ø":1014,"##n":1015,"##k":1016,"##o":1017,"##i":1018,"##s":1019,"##a":1020,"##h":1021,"##g":1022,"##c":1023,"##m":1024,"##f":1025,"##9":1026,"##0":1027,"##7":1028,"##4":1029,"##j":1030,"##v":1031,"##æ":1032,"##x":1033,"##5":1034,"##w":1035,"##2":1036,"##1":1037,"##8":1038,"##3":1039,"##z":1040,"##6":1041,"##λ":1042,"##ο":1043,"##γ":1044,"##ι":1045,"##ζ":1046,"##ε":1047,"##ν":1048,"##q":1049,"##´":1050,"##ð":1051,"##ł":1052,"##ρ":1053,"##α":1054,"##ξ":1055,"##ς":1056,"##ゆ":1057,"##−":1058,"##ß":1059,"##л":1060,"##у":1061,"##ж":1062,"##б":1063,"##ы":1064,"##ˈ":1065,"##ب":1066,"##ن":1067,"##ʲ":1068,"##ɪ":1069,"##н":1070,"##о":1071,"##к":1072,"##е":1073,"##т":1074,"##ь":1075,"##в":1076,"##и":1077,"##ч":1078,"##а":1079,"##р":1080,"##ɾ":1081,"##π":1082,"##х":1083,"##ᅩ":1084,"##ᄆ":1085,"##ᅳ":1086,"##ᄅ":1087,"##ᅡ":1088,"##ᄋ":1089,"##ᅵ":1090,"##ᄉ":1091,"##ə":1092,"##ɨ":1093,"##ด":1094,"##ر":1095,"##و":1096,"##ا":1097,"##ན":1098,"##י":1099,"##ן":1100,"##с":1101,"##ل":1102,"##ث":1103,"##ي":1104,"##đ":1105,"##η":1106,"##þ":1107,"##°":1108,"##ᅢ":1109,"##ᄃ":1110,"##ᆼ":1111,"##ᄎ":1112,"##ᅥ":1113,"##ᆫ":1114,"##ᄌ":1115,"##ː":1116,"##ɕ":1117,"##ɣ":1118,"##д":1119,"##г":1120,"##ت":1121,"##ی":1122,"##ш":1123,"##ц":1124,"##ᄒ":1125,"##¨":1126,"##τ":1127,"##μ":1128,"##м":1129,"##ز":1130,"##ه":1131,"##う":1132,"##と":1133,"##ס":1134,"##ח":1135,"##σ":1136,"##κ":1137,"##ص":1138,"##ف":1139,"##ɛ":1140,"##ʊ":1141,"##س":1142,"##º":1143,"##ю":1144,"##з":1145,"##ᅧ":1146,"##ᅴ":1147,"##ʿ":1148,"##ב":1149,"##ר":1150,"##ה":1151,"##ם":1152,"##ω":1153,"##θ":1154,"##ʹ":1155,"##ı":1156,"##ロ":1157,"##ウ":1158,"##і":1159,"##ス":1160,"##テ":1161,"##ラ":1162,"##υ":1163,"##δ":1164,"##व":1165,"##ल":1166,"##ो":1167,"##क":1168,"##ि":1169,"##त":1170,"##श":1171,"##र":1172,"##☆":1173,"##⅓":1174,"##ћ":1175,"##™":1176,"##ッ":1177,"##ク":1178,"##ᅪ":1179,"##ᄇ":1180,"##ᆨ":1181,"##ɡ":1182,"##ʃ":1183,"##ʻ":1184,"##მ":1185,"##ო":1186,"##ს":1187,"##ა":1188,"##ვ":1189,"##ლ":1190,"##ე":1191,"##თ":1192,"##э":1193,"##я":1194,"##स":1195,"##ा":1196,"##म":1197,"##م":1198,"##ة":1199,"##п":1200,"##غ":1201,"##ו":1202,"##ర":1203,"##×":1204,"##½":1205,"##ィ":1206,"##ン":1207,"##ト":1208,"##ʀ":1209,"##χ":1210,"##ร":1211,"##ะ":1212,"##บ":1213,"##¾":1214,"##ᅮ":1215,"##ᄀ":1216,"##щ":1217,"##מ":1218,"##ŋ":1219,"##♯":1220,"##ர":1221,"##ம":1222,"##க":1223,"##ல":1224,"##ª":1225,"##β":1226,"##פ":1227,"##א":1228,"##ъ":1229,"##ф":1230,"##シ":1231,"##ル":1232,"##ۇ":1233,"##پ":1234,"##ਾ":1235,"##µ":1236,"##ל":1237,"##ʼ":1238,"##ი":1239,"##ع":1240,"##د":1241,"##ق":1242,"##ᆯ":1243,"##®":1244,"##พ":1245,"##ล":1246,"##ง":1247,"##อ":1248,"##ห":1249,"##ว":1250,"##จ":1251,"##ን":1252,"##ᄐ":1253,"##ᅦ":1254,"##ש":1255,"##כ":1256,"##ா":1257,"##ழ":1258,"##φ":1259,"##ض":1260,"##ɐ":1261,"##ک":1262,"##न":1263,"##प":1264,"##ण":1265,"##ح":1266,"##ɫ":1267,"##ᅯ":1268,"##ハ":1269,"##ー":1270,"##რ":1271,"##ʋ":1272,"##ʌ":1273,"##ˀ":1274,"##ち":1275,"##の":1276,"##ア":1277,"##フ":1278,"##ナ":1279,"##い":1280,"##œ":1281,"##ɔ":1282,"##→":1283,"##ᄂ":1284,"##²":1285,"##ط":1286,"##ས":1287,"##ј":1288,"##گ":1289,"##♣":1290,"##に":1291,"##ɑ":1292,"##⁄":1293,"##ט":1294,"##ע":1295,"##ब":1296,"##ʰ":1297,"##า":1298,"##ช":1299,"##ณ":1300,"##ก":1301,"##ส":1302,"##ย":1303,"##ม":1304,"##ħ":1305,"##ᆷ":1306,"##ذ":1307,"##コ":1308,"##±":1309,"##は":1310,"##サ":1311,"##ケ":1312,"##خ":1313,"##マ":1314,"##ツ":1315,"##న":1316,"##ల":1317,"##ు":1318,"##ھ":1319,"##უ":1320,"##გ":1321,"##დ":1322,"##ր":1323,"##ա":1324,"##ն":1325,"##タ":1326,"##ム":1327,"##み":1328,"##კ":1329,"##შ":1330,"##ج":1331,"##ش":1332,"##ी":1333,"##य":1334,"##द":1335,"##ミ":1336,"##ニ":1337,"##ュ":1338,"##भ":1339,"##ك":1340,"##ى":1341,"##£":1342,"##ג":1343,"##њ":1344,"##エ":1345,"##ד":1346,"##カ":1347,"##¢":1348,"##ת":1349,"##נ":1350,"##ท":1351,"##ธ":1352,"##ไ":1353,"##ป":1354,"##メ":1355,"##キ":1356,"##ե":1357,"##պ":1358,"##ո":1359,"##ւ":1360,"##հ":1361,"##ψ":1362,"##ʁ":1363,"##ფ":1364,"##ხ":1365,"##ზ":1366,"##ང":1367,"##か":1368,"##た":1369,"##く":1370,"##∙":1371,"##ன":1372,"##ி":1373,"##வ":1374,"##て":1375,"##る":1376,"##セ":1377,"##ん":1378,"##ᆸ":1379,"##り":1380,"##け":1381,"##น":1382,"##ק":1383,"##ग":1384,"##ʔ":1385,"##ᄏ":1386,"##ץ":1387,"##∀":1388,"##เ":1389,"##ノ":1390,"##แ":1391,"##ნ":1392,"##տ":1393,"##ի":1394,"##─":1395,"##މ":1396,"##こ":1397,"##թ":1398,"##ᅬ":1399,"##ɲ":1400,"##ᅣ":1401,"##ʏ":1402,"##イ":1403,"##∞":1404,"##ᅲ":1405,"##ศ":1406,"##ภ":1407,"##っ":1408,"##ء":1409,"##ヒ":1410,"##レ":1411,"##³":1412,"##ᄑ":1413,"##ᅭ":1414,"##յ":1415,"##մ":1416,"##ு":1417,"##ђ":1418,"##ァ":1419,"##¼":1420,"##ヘ":1421,"##ظ":1422,"##ɓ":1423,"##ү":1424,"##ܐ":1425,"##շ":1426,"##រ":1427,"##ា":1428,"##ស":1429,"##ᅱ":1430,"##お":1431,"##ལ":1432,"##¹":1433,"##ャ":1434,"##ʾ":1435,"##≡":1436,"##ក":1437,"##˚":1438,"##ז":1439,"##≈":1440,"##љ":1441,"##ქ":1442,"##ә":1443,"##¬":1444,"##լ":1445,"##կ":1446,"##≤":1447,"##⋅":1448,"##な":1449,"##ɒ":1450,"##བ":1451,"##ག":1452,"##ʒ":1453,"##ბ":1454,"##צ":1455,"##リ":1456,"##チ":1457,"##ต":1458,"##ە":1459,"##া":1460,"##ম":1461,"##ս":1462,"##₁":1463,"##ソ":1464,"##オ":1465,"##↔":1466,"##ద":1467,"##च":1468,"##さ":1469,"##ひ":1470,"##མ":1471,"##€":1472,"##つ":1473,"##த":1474,"##ց":1475,"##ძ":1476,"##ি":1477,"##ল":1478,"##れ":1479,"##զ":1480,"##բ":1481,"##ச":1482,"##қ":1483,"##འ":1484,"##ტ":1485,"##あ":1486,"##ら":1487,"##き":1488,"##ప":1489,"##ˌ":1490,"##ப":1491,"##す":1492,"##モ":1493,"##գ":1494,"##ध":1495,"##∈":1496,"##￼":1497,"##ⴰ":1498,"##ह":1499,"##♭":1500,"##վ":1501,"##ᴧ":1502,"##ێ":1503,"##ट":1504,"##ˢ":1505,"##র":1506,"##ন":1507,"##դ":1508,"##∇":1509,"##⅔":1510,"##₂":1511,"##♠":1512,"##ज":1513,"##چ":1514,"##ར":1515,"##ད":1516,"##ব":1517,"##♪":1518,"##ョ":1519,"##≥":1520,"##ត":1521,"##є":1522,"##♥":1523,"##ˠ":1524,"##ہ":1525,"##÷":1526,"##し":1527,"##ょ":1528,"##క":1529,"##ం":1530,"##ত":1531,"##ங":1532,"##ﬂ":1533,"##わ":1534,"##☉":1535,"##ふ":1536,"##ˡ":1537,"##ま":1538,"##ホ":1539,"##♦":1540,"##¤":1541,"##ʂ":1542,"##ネ":1543,"##โ":1544,"##═":1545,"##╗":1546,"##╔":1547,"##╚":1548,"##║":1549,"##╝":1550,"##¯":1551,"##ﬁ":1552,"##ค":1553,"##ड":1554,"##ʎ":1555,"##ך":1556,"##ө":1557,"##ほ":1558,"##ĳ":1559,"##ญ":1560,"##©":1561,"##₃":1562,"##ɦ":1563,"##⊆":1564,"##አ":1565,"##⇒":1566,"##↑":1567,"##◡":1568,"##జ":1569,"##◦":1570,"##अ":1571,"##₤":1572,"##er":1573,"##en":1574,"##an":1575,"##et":1576,"##or":1577,"##ed":1578,"##st":1579,"##ar":1580,"##in":1581,"##el":1582,"##il":1583,"og":1584,"##ig":1585,"##sk":1586,"##le":1587,"##on":1588,"##de":1589,"##om":1590,"af":1591,"##nd":1592,"for":1593,"##al":1594,"en":1595,"##ing":1596,"##at":1597,"##re":1598,"til":1599,"##ra":1600,"##es":1601,"er":1602,"##and":1603,"##ol":1604,"st":1605,"##ne":1606,"den":1607,"##ter":1608,"##te":1609,"at":1610,"##am":1611,"##ag":1612,"pa":1613,"##id":1614,"med":1615,"##ede":1616,"som":1617,"der":1618,"##ik":1619,"##lev":1620,"##ør":1621,"de":1622,"det":1623,"##it":1624,"##av":1625,"han":1626,"##is":1627,"blev":1628,"##ere":1629,"19":1630,"var":1631,"##ion":1632,"##ver":1633,"##un":1634,"##se":1635,"##od":1636,"##ske":1637,"##og":1638,"##ær":1639,"ud":1640,"##lig":1641,"##ru":1642,"##ste":1643,"##ler":1644,"sk":1645,"##ning":1646,"##ur":1647,"##eg":1648,"et":1649,"##iv":1650,"##ad":1651,"ar":1652,"fra":1653,"##ke":1654,"##ende":1655,"##ens":1656,"##ang":1657,"om":1658,"op":1659,"##ist":1660,"20":1661,"##ul":1662,"##kt":1663,"##us":1664,"##der":1665,"##est":1666,"ind":1667,"har":1668,"hv":1669,"##ent":1670,"##ræ":1671,"##ab":1672,"al":1673,"##fter":1674,"##as":1675,"##ej":1676,"##sen":1677,"##erne":1678,"##ri":1679,"##ov":1680,"sam":1681,"sp":1682,"ved":1683,"##em":1684,"##dt":1685,"##del":1686,"##ir":1687,"an":1688,"##nder":1689,"in":1690,"##land":1691,"##kke":1692,"dan":1693,"##ch":1694,"##ro":1695,"efter":1696,"##mer":1697,"##ber":1698,"##ation":1699,"##sa":1700,"18":1701,"##iske":1702,"##old":1703,"##ge":1704,"##ill":1705,"men":1706,"##um":1707,"hav":1708,"over":1709,"##ord":1710,"kom":1711,"##isk":1712,"##ger":1713,"##ks":1714,"##hed":1715,"fl":1716,"##ut":1717,"##ige":1718,"før":1719,"##ud":1720,"kon":1721,"##for":1722,"be":1723,"##op":1724,"##ot":1725,"and":1726,"bl":1727,"##ft":1728,"##sp":1729,"##ser":1730,"hvor":1731,"##lige":1732,"mod":1733,"##und":1734,"##ic":1735,"by":1736,"under":1737,"el":1738,"##art":1739,"sig":1740,"200":1741,"##lem":1742,"ikke":1743,"sin":1744,"del":1745,"##me":1746,"fr":1747,"##else":1748,"##ien":1749,"##men":1750,"sy":1751,"ogsa":1752,"##ort":1753,"##os":1754,"kr":1755,"##ene":1756,"kun":1757,"201":1758,"tid":1759,"pr":1760,"##æl":1761,"##eret":1762,"##igt":1763,"havde":1764,"##ade":1765,"kan":1766,"##ød":1767,"##gt":1768,"##avn":1769,"##øb":1770,"gen":1771,"##kk":1772,"##ie":1773,"##øj":1774,"##pp":1775,"man":1776,"fø":1777,"##00":1778,"##yr":1779,"sl":1780,"eller":1781,"##ark":1782,"br":1783,"##gen":1784,"##by":1785,"##kr":1786,"##ff":1787,"to":1788,"da":1789,"##ind":1790,"##skab":1791,"kl":1792,"##æn":1793,"land":1794,"##im":1795,"##ers":1796,"re":1797,"##ale":1798,"her":1799,"hans":1800,"stor":1801,"lig":1802,"ch":1803,"pl":1804,"##rem":1805,"##ard":1806,"##iver":1807,"th":1808,"##eder":1809,"ty":1810,"##ange":1811,"##ner":1812,"sa":1813,"gru":1814,"##ling":1815,"sid":1816,"første":1817,"##ub":1818,"##det":1819,"##ok":1820,"##ret":1821,"##yt":1822,"ma":1823,"se":1824,"##ære":1825,"hun":1826,"##sv":1827,"beg":1828,"##ug":1829,"##age":1830,"##ier":1831,"##ive":1832,"##ib":1833,"##end":1834,"##ss":1835,"vær":1836,"sø":1837,"mel":1838,"##ust":1839,"hel":1840,"##org":1841,"sel":1842,"##ap":1843,"##nes":1844,"fin":1845,"##ille":1846,"17":1847,"##ac":1848,"##sl":1849,"##ant":1850,"##amp":1851,"komm":1852,"tr":1853,"nord":1854,"##jer":1855,"##des":1856,"##bej":1857,"bet":1858,"##tet":1859,"199":1860,"reg":1861,"ny":1862,"##irk":1863,"##let":1864,"##elsen":1865,"##net":1866,"##eri":1867,"un":1868,"##hold":1869,"##sm":1870,"or":1871,"##den":1872,"frem":1873,"##æt":1874,"##ast":1875,"##mp":1876,"end":1877,"##get":1878,"sen":1879,"##ia":1880,"bru":1881,"mellem":1882,"##ningen":1883,"##indel":1884,"##ak":1885,"##rev":1886,"##agt":1887,"##je":1888,"fik":1889,"udg":1890,"##æg":1891,"##ets":1892,"pro":1893,"##iller":1894,"##tal":1895,"##ob":1896,"##nem":1897,"andre":1898,"##kl":1899,"##vær":1900,"selv":1901,"##elig":1902,"##hol":1903,"##ker":1904,"fil":1905,"##ket":1906,"##før":1907,"født":1908,"le":1909,"##æng":1910,"##edes":1911,"nog":1912,"form":1913,"of":1914,"##yl":1915,"##oc":1916,"##tag":1917,"##øl":1918,"dansk":1919,"##ingen":1920,"samt":1921,"##vis":1922,"sammen":1923,"##ian":1924,"høj":1925,"syd":1926,"##elt":1927,"ad":1928,"##oved":1929,"##ken":1930,"flere":1931,"##gte":1932,"te":1933,"##ire":1934,"##ten":1935,"##els":1936,"pol":1937,"sv":1938,"198":1939,"grund":1940,"køb":1941,"deres":1942,"danm":1943,"##istor":1944,"vand":1945,"hj":1946,"##ligere":1947,"197":1948,"kar":1949,"forb":1950,"fran":1951,"##æv":1952,"##eter":1953,"##ninger":1954,"##ann":1955,"16":1956,"##erede":1957,"hoved":1958,"the":1959,"##iet":1960,"mar":1961,"ver":1962,"##rad":1963,"##havn":1964,"##sat":1965,"hol":1966,"denne":1967,"fa":1968,"##ift":1969,"##uc":1970,"jo":1971,"hand":1972,"navn":1973,"##br":1974,"##øn":1975,"senere":1976,"kv":1977,"##if":1978,"stør":1979,"forsk":1980,"##byg":1981,"gennem":1982,"byg":1983,"##ly":1984,"##ster":1985,"##sten":1986,"mange":1987,"være":1988,"##gende":1989,"ligger":1990,"dette":1991,"##alt":1992,"##ester":1993,"##pr":1994,"spill":1995,"alle":1996,"dag":1997,"##be":1998,"arbej":1999,"##yd":2000,"##rig":2001,"ham":2002,"udv":2003,"##ligt":2004,"nor":2005,"##ide":2006,"##ænd":2007,"##atter":2008,"is":2009,"kunne":2010,"kal":2011,"##ce":2012,"##len":2013,"##lad":2014,"##ynd":2015,"##inger":2016,"##bru":2017,"##af":2018,"hen":2019,"15":2020,"tilb":2021,"##gel":2022,"##ember":2023,"##met":2024,"##kom":2025,"##ktion":2026,"196":2027,"tidligere":2028,"dog":2029,"##ater":2030,"par":2031,"mu":2032,"##sø":2033,"##rik":2034,"histor":2035,"far":2036,"##tr":2037,"val":2038,"bland":2039,"##yn":2040,"bes":2041,"##up":2042,"inter":2043,"194":2044,"##ult":2045,"siden":2046,"##itet":2047,"tre":2048,"##stru":2049,"lang":2050,"##anske":2051,"##ogra":2052,"##ighed":2053,"##øm":2054,"danmark":2055,"ned":2056,"best":2057,"øst":2058,"##iden":2059,"mal":2060,"##borg":2061,"kamp":2062,"fol":2063,"død":2064,"##elle":2065,"været":2066,"dis":2067,"##eget":2068,"præ":2069,"tal":2070,"nu":2071,"mus":2072,"omkr":2073,"eks":2074,"##tede":2075,"##enhavn":2076,"am":2077,"sit":2078,"gr":2079,"##ve":2080,"store":2081,"omkring":2082,"danske":2083,"ro":2084,"københavn":2085,"##rede":2086,"##ivet":2087,"omra":2088,"vil":2089,"fort":2090,"skul":2091,"##olog":2092,"##ald":2093,"dem":2094,"stat":2095,"##endt":2096,"##io":2097,"##ban":2098,"sm":2099,"##res":2100,"##ine":2101,"blandt":2102,"##son":2103,"ab":2104,"##ern":2105,"mid":2106,"amer":2107,"polit":2108,"mat":2109,"##kon":2110,"##atur":2111,"##ager":2112,"##ip":2113,"samme":2114,"##hus":2115,"##inist":2116,"mere":2117,"la":2118,"##tog":2119,"##ræn":2120,"##aget":2121,"sted":2122,"10":2123,"##ansk":2124,"blevet":2125,"vest":2126,"erne":2127,"have":2128,"des":2129,"hvil":2130,"forskel":2131,"##ys":2132,"##til":2133,"ne":2134,"uden":2135,"off":2136,"##ow":2137,"tysk":2138,"meget":2139,"skulle":2140,"##ering":2141,"##inde":2142,"##øde":2143,"##endes":2144,"byen":2145,"##ga":2146,"##ole":2147,"##yk":2148,"mens":2149,"195":2150,"12":2151,"##of":2152,"tilbage":2153,"##hand":2154,"føl":2155,"##bold":2156,"##all":2157,"medlem":2158,"amerik":2159,"##elser":2160,"##erson":2161,"ser":2162,"træ":2163,"chr":2164,"##au":2165,"193":2166,"besk":2167,"ret":2168,"ol":2169,"##tes":2170,"begynd":2171,"191":2172,"##stem":2173,"bed":2174,"alt":2175,"##ren":2176,"##ition":2177,"sal":2178,"lu":2179,"##ess":2180,"##føl":2181,"bar":2182,"mind":2183,"ek":2184,"hold":2185,"jan":2186,"andet":2187,"bliver":2188,"000":2189,"anden":2190,"##urop":2191,"##ell":2192,"fod":2193,"sch":2194,"mart":2195,"192":2196,"##ans":2197,"##ich":2198,"##red":2199,"disse":2200,"kor":2201,"kommun":2202,"##ass":2203,"inden":2204,"##var":2205,"##gang":2206,"christ":2207,"##enter":2208,"bade":2209,"næ":2210,"opr":2211,"prod":2212,"ber":2213,"gang":2214,"sh":2215,"##sæt":2216,"##ække":2217,"##eren":2218,"grupp":2219,"sine":2220,"##jor":2221,"##tem":2222,"forskellige":2223,"hver":2224,"##ay":2225,"bo":2226,"##reb":2227,"nogle":2228,"ge":2229,"##ring":2230,"##irke":2231,"gam":2232,"##rav":2233,"jul":2234,"##une":2235,"rad":2236,"musik":2237,"##les":2238,"##este":2239,"14":2240,"##na":2241,"skal":2242,"##ande":2243,"aug":2244,"11":2245,"rom":2246,"jun":2247,"##uld":2248,"krig":2249,"joh":2250,"##ron":2251,"film":2252,"##inder":2253,"##ue":2254,"tv":2255,"##undet":2256,"##bum":2257,"person":2258,"##uar":2259,"god":2260,"ofte":2261,"august":2262,"lav":2263,"ben":2264,"##sh":2265,"##ges":2266,"im":2267,"##rog":2268,"km":2269,"##med":2270,"13":2271,"##læg":2272,"po":2273,"vej":2274,"vandt":2275,"lands":2276,"##esp":2277,"ang":2278,"##øre":2279,"udvik":2280,"gener":2281,"nye":2282,"##ykk":2283,"##over":2284,"##ode":2285,"##endte":2286,"##sb":2287,"##stand":2288,"hal":2289,"##still":2290,"kendt":2291,"hjem":2292,"europ":2293,"##ivers":2294,"kunst":2295,"##lighed":2296,"##uden":2297,"##svar":2298,"ca":2299,"findes":2300,"nation":2301,"nov":2302,"række":2303,"maj":2304,"vis":2305,"skrev":2306,"##sted":2307,"mest":2308,"mil":2309,"hvilket":2310,"##alen":2311,"fly":2312,"klub":2313,"##sf":2314,"##form":2315,"##berg":2316,"ven":2317,"##ec":2318,"##ins":2319,"sang":2320,"sep":2321,"em":2322,"juni":2323,"hvis":2324,"##arbej":2325,"tur":2326,"##ld":2327,"slut":2328,"vi":2329,"univers":2330,"januar":2331,"190":2332,"##ægt":2333,"##vej":2334,"sc":2335,"verden":2336,"bør":2337,"##per":2338,"fodbold":2339,"##ført":2340,"igen":2341,"##ond":2342,"##ef":2343,"sæ":2344,"part":2345,"art":2346,"nær":2347,"plan":2348,"led":2349,"søn":2350,"##lag":2351,"##oden":2352,"bor":2353,"sol":2354,"kommune":2355,"fe":2356,"hele":2357,"##ioner":2358,"##aet":2359,"##ograf":2360,"tog":2361,"##amil":2362,"fire":2363,"først":2364,"juli":2365,"kn":2366,"gik":2367,"forf":2368,"hos":2369,"bag":2370,"okt":2371,"##lagt":2372,"freder":2373,"##ober":2374,"stad":2375,"cent":2376,"rep":2377,"##iss":2378,"nar":2379,"dec":2380,"##ou":2381,"lø":2382,"gar":2383,"apr":2384,"met":2385,"car":2386,"he":2387,"septem":2388,"oktober":2389,"april":2390,"##lik":2391,"september":2392,"##ævn":2393,"##aler":2394,"marts":2395,"oprindel":2396,"historie":2397,"##kn":2398,"##att":2399,"189":2400,"##ogn":2401,"peri":2402,"kirk":2403,"liv":2404,"ville":2405,"##lø":2406,"gu":2407,"##dom":2408,"str":2409,"##mel":2410,"spillede":2411,"vid":2412,"##sel":2413,"##unkt":2414,"komp":2415,"##krig":2416,"sidste":2417,"usa":2418,"##æld":2419,"mand":2420,"eg":2421,"##olk":2422,"menne":2423,"##æk":2424,"bef":2425,"##ial":2426,"res":2427,"mon":2428,"indtil":2429,"album":2430,"##ina":2431,"tra":2432,"##stat":2433,"derfor":2434,"##ionen":2435,"november":2436,"styr":2437,"##ationen":2438,"ha":2439,"##ksom":2440,"##ven":2441,"##ationer":2442,"##erer":2443,"##urg":2444,"##ktør":2445,"kont":2446,"##urt":2447,"ban":2448,"##rim":2449,"##gru":2450,"##tid":2451,"##olle":2452,"min":2453,"186":2454,"kat":2455,"frederik":2456,"december":2457,"##anis":2458,"navnet":2459,"188":2460,"##mand":2461,"##bo":2462,"##jorde":2463,"stud":2464,"##he":2465,"mor":2466,"blive":2467,"rus":2468,"tit":2469,"##lands":2470,"kort":2471,"##skabet":2472,"##sker":2473,"tyske":2474,"##lerede":2475,"kong":2476,"eng":2477,"##lin":2478,"##ah":2479,"##jen":2480,"band":2481,"##skri":2482,"##ium":2483,"##ben":2484,"famil":2485,"fær":2486,"natur":2487,"##ite":2488,"##lede":2489,"lov":2490,"største":2491,"desuden":2492,"187":2493,"hendes":2494,"mindre":2495,"##dag":2496,"kirke":2497,"forhold":2498,"##ksomhed":2499,"løb":2500,"jord":2501,"##delse":2502,"##pt":2503,"ni":2504,"febru":2505,"februar":2506,"fri":2507,"inde":2508,"christian":2509,"##ktiv":2510,"skib":2511,"na":2512,"##ral":2513,"ant":2514,"mark":2515,"##bygg":2516,"instru":2517,"##nede":2518,"engel":2519,"##elige":2520,"fem":2521,"bog":2522,"prof":2523,"##riere":2524,"##som":2525,"##pe":2526,"ekse":2527,"begyndte":2528,"sær":2529,"plad":2530,"##øt":2531,"hus":2532,"##dens":2533,"##terne":2534,"co":2535,"##ave":2536,"gl":2537,"mo":2538,"##efter":2539,"##taget":2540,"##ultur":2541,"intern":2542,"eksemp":2543,"##ma":2544,"##hund":2545,"##int":2546,"start":2547,"##ensen":2548,"##teret":2549,"##kker":2550,"##ammer":2551,"udd":2552,"##di":2553,"##stad":2554,"mot":2555,"##idt":2556,"tro":2557,"##set":2558,"##ces":2559,"##under":2560,"##ock":2561,"##led":2562,"##gar":2563,"større":2564,"lille":2565,"enk":2566,"30":2567,"teg":2568,"spiller":2569,"##jet":2570,"forbindel":2571,"sæson":2572,"25":2573,"per":2574,"##yg":2575,"##nings":2576,"soc":2577,"##ister":2578,"læng":2579,"ital":2580,"##raft":2581,"org":2582,"ev":2583,"jap":2584,"arbejd":2585,"rej":2586,"##man":2587,"##træ":2588,"##terede":2589,"spillet":2590,"arhund":2591,"dom":2592,"##satte":2593,"##her":2594,"kil":2595,"vir":2596,"omf":2597,"bill":2598,"omradet":2599,"internation":2600,"lin":2601,"forl":2602,"##konom":2603,"##oks":2604,"red":2605,"new":2606,"tallet":2607,"2007":2608,"##str":2609,"vigt":2610,"##styr":2611,"døde":2612,"sej":2613,"##spiller":2614,"gift":2615,"sven":2616,"gra":2617,"##cer":2618,"bas":2619,"saledes":2620,"lok":2621,"ord":2622,"sat":2623,"##andt":2624,"rig":2625,"##off":2626,"com":2627,"##jerg":2628,"##are":2629,"##ta":2630,"##pper":2631,"##entlig":2632,"##ars":2633,"##riv":2634,"##ator":2635,"samtid":2636,"##elses":2637,"sik":2638,"##pl":2639,"verdens":2640,"##iel":2641,"##use":2642,"##minist":2643,"##ost":2644,"##yst":2645,"ark":2646,"luft":2647,"##ører":2648,"##fl":2649,"##skil":2650,"185":2651,"italien":2652,"##ader":2653,"##tere":2654,"sku":2655,"halv":2656,"profess":2657,"##holm":2658,"forsø":2659,"brit":2660,"opret":2661,"mag":2662,"fast":2663,"##sn":2664,"##iz":2665,"skab":2666,"ba":2667,"dire":2668,"##sid":2669,"amerikanske":2670,"stedet":2671,"##hav":2672,"national":2673,"gange":2674,"gamle":2675,"##ogram":2676,"##ærk":2677,"bev":2678,"side":2679,"2010":2680,"##ek":2681,"anv":2682,"kultur":2683,"bety":2684,"filmen":2685,"opf":2686,"krist":2687,"184":2688,"##hæng":2689,"tilf":2690,"##ilm":2691,"star":2692,"##jord":2693,"##holdt":2694,"##uder":2695,"fal":2696,"ra":2697,"sn":2698,"fun":2699,"2008":2700,"##anden":2701,"fle":2702,"udgivet":2703,"karriere":2704,"##reg":2705,"jern":2706,"bra":2707,"kap":2708,"##itter":2709,"##nen":2710,"##ativ":2711,"ingen":2712,"alm":2713,"allerede":2714,"produc":2715,"##vest":2716,"bedste":2717,"##uktion":2718,"di":2719,"##iker":2720,"##sy":2721,"offic":2722,"##agen":2723,"##ton":2724,"##sam":2725,"bel":2726,"dy":2727,"gav":2728,"ter":2729,"fred":2730,"flyt":2731,"sommer":2732,"cl":2733,"økonom":2734,"forbindelse":2735,"##ivis":2736,"##ved":2737,"spec":2738,"sprog":2739,"deb":2740,"især":2741,"21":2742,"##øst":2743,"lande":2744,"##eligt":2745,"sand":2746,"##virk":2747,"##ts":2748,"æld":2749,"2006":2750,"læ":2751,"stadig":2752,"ele":2753,"##ck":2754,"##rag":2755,"let":2756,"hær":2757,"##ærer":2758,"##ry":2759,"tyskland":2760,"li":2761,"pop":2762,"helt":2763,"##iner":2764,"2009":2765,"##ummer":2766,"tab":2767,"betyd":2768,"##ym":2769,"##skrig":2770,"børn":2771,"afg":2772,"milit":2773,"kommer":2774,"##rer":2775,"mill":2776,"arhundrede":2777,"##aret":2778,"##kur":2779,"##val":2780,"gjorde":2781,"græn":2782,"ot":2783,"noget":2784,"sogn":2785,"opg":2786,"dermed":2787,"##rum":2788,"ta":2789,"##uk":2790,"##olen":2791,"bro":2792,"græ":2793,"##mester":2794,"forfatter":2795,"2011":2796,"tred":2797,"##ity":2798,"##lertid":2799,"##kket":2800,"skov":2801,"##ha":2802,"con":2803,"sver":2804,"##omra":2805,"du":2806,"matte":2807,"bestar":2808,"folk":2809,"lige":2810,"trad":2811,"##skaber":2812,"prov":2813,"begge":2814,"##burg":2815,"##ack":2816,"und":2817,"videre":2818,"##oder":2819,"##ore":2820,"vel":2821,"frankrig":2822,"##følge":2823,"##ius":2824,"oper":2825,"fjer":2826,"ed":2827,"ti":2828,"24":2829,"100":2830,"brug":2831,"universitet":2832,"##ph":2833,"##ings":2834,"ænd":2835,"kol":2836,"2012":2837,"##spunkt":2838,"##øg":2839,"##stit":2840,"general":2841,"all":2842,"##unde":2843,"2005":2844,"forsvar":2845,"sj":2846,"vin":2847,"##anter":2848,"22":2849,"##ppe":2850,"##rakt":2851,"dr":2852,"hjæl":2853,"rest":2854,"##jort":2855,"##krat":2856,"plac":2857,"repræ":2858,"virksomhed":2859,"skrevet":2860,"datter":2861,"peter":2862,"følgende":2863,"##ologi":2864,"indbygg":2865,"støt":2866,"##nu":2867,"stort":2868,"ga":2869,"##plad":2870,"organis":2871,"stand":2872,"skuesp":2873,"id":2874,"sad":2875,"##æst":2876,"##gdom":2877,"##alder":2878,"derefter":2879,"##øv":2880,"john":2881,"##one":2882,"angreb":2883,"##asse":2884,"23":2885,"##nævn":2886,"##stre":2887,"port":2888,"egen":2889,"##arks":2890,"##akter":2891,"befolk":2892,"me":2893,"amerikansk":2894,"ste":2895,"so":2896,"norge":2897,"stem":2898,"meter":2899,"beteg":2900,"mester":2901,"muse":2902,"almindel":2903,"landet":2904,"samtidig":2905,"hurt":2906,"arbejde":2907,"benyt":2908,"pal":2909,"##we":2910,"su":2911,"##oner":2912,"##ons":2913,"##lingen":2914,"deltog":2915,"dyr":2916,"still":2917,"##værende":2918,"sov":2919,"##rige":2920,"##delt":2921,"##sc":2922,"syn":2923,"##aben":2924,"vm":2925,"ars":2926,"slag":2927,"##elm":2928,"yder":2929,"ej":2930,"rum":2931,"##vand":2932,"europa":2933,"efterføl":2934,"bu":2935,"kampe":2936,"bruges":2937,"##ate":2938,"##bert":2939,"voks":2940,"mad":2941,"etab":2942,"##opp":2943,"virk":2944,"##sident":2945,"##sch":2946,"##ært":2947,"seks":2948,"fordi":2949,"regering":2950,"##ise":2951,"afsl":2952,"##æmp":2953,"antal":2954,"##anc":2955,"station":2956,"ac":2957,"amp":2958,"grøn":2959,"##rift":2960,"ob":2961,"##ong":2962,"bygget":2963,"##ffe":2964,"ful":2965,"##hver":2966,"##kte":2967,"##fly":2968,"divis":2969,"##ific":2970,"2013":2971,"lev":2972,"foren":2973,"ka":2974,"johan":2975,"##sta":2976,"##lut":2977,"priv":2978,"##ty":2979,"guld":2980,"2000":2981,"dra":2982,"folke":2983,"##ild":2984,"dele":2985,"ak":2986,"bi":2987,"##ktor":2988,"2014":2989,"tem":2990,"indbyggere":2991,"##idenskab":2992,"##orn":2993,"leg":2994,"danmarks":2995,"bred":2996,"##gard":2997,"##isen":2998,"##inge":2999,"inv":3000,"england":3001,"øv":3002,"motor":3003,"##eneste":3004,"eksempel":3005,"##holder":3006,"##isme":3007,"russ":3008,"ph":3009,"stift":3010,"skole":3011,"##tor":3012,"stra":3013,"##vik":3014,"##telse":3015,"##skole":3016,"sag":3017,"imid":3018,"##foren":3019,"fleste":3020,"san":3021,"løbet":3022,"ander":3023,"28":3024,"##ach":3025,"sverige":3026,"imidlertid":3027,"##film":3028,"dav":3029,"183":3030,"##entet":3031,"##eller":3032,"ifølge":3033,"kraft":3034,"brugt":3035,"##syn":3036,"ly":3037,"##istiske":3038,"##æss":3039,"##20":3040,"spille":3041,"##skib":3042,"turner":3043,"prim":3044,"##yld":3045,"belig":3046,"middel":3047,"27":3048,"bil":3049,"##kal":3050,"26":3051,"##ografi":3052,"##stænd":3053,"##førte":3054,"##giv":3055,"##ublik":3056,"##sd":3057,"##heden":3058,"1970":3059,"administ":3060,"verdenskrig":3061,"tru":3062,"2004":3063,"##æs":3064,"aret":3065,"endnu":3066,"plads":3067,"##ods":3068,"##bar":3069,"konge":3070,"ho":3071,"nogen":3072,"##handling":3073,"2015":3074,"##tagelse":3075,"rev":3076,"##mus":3077,"sovjet":3078,"folket":3079,"##aden":3080,"tor":3081,"##bane":3082,"##iser":3083,"##øder":3084,"kval":3085,"ir":3086,"landsby":3087,"von":3088,"slutningen":3089,"norm":3090,"program":3091,"fæl":3092,"181":3093,"##ørg":3094,"2016":3095,"##igh":3096,"##aver":3097,"hvad":3098,"gruppe":3099,"##ustri":3100,"eneste":3101,"hed":3102,"##ktur":3103,"vigtig":3104,"##ørte":3105,"##ps":3106,"##alet":3107,"##heder":3108,"pat":3109,"##æd":3110,"##stitut":3111,"næsten":3112,"##kken":3113,"omrade":3114,"ul":3115,"##amer":3116,"##sminist":3117,"ag":3118,"lond":3119,"klubben":3120,"tekn":3121,"lej":3122,"##grund":3123,"##brug":3124,"uddann":3125,"øn":3126,"##abrik":3127,"##serv":3128,"elekt":3129,"tredje":3130,"medlemmer":3131,"##adem":3132,"tran":3133,"franske":3134,"popul":3135,"##bred":3136,"##ork":3137,"##to":3138,"##gaard":3139,"kej":3140,"dens":3141,"##ung":3142,"københavns":3143,"##ice":3144,"##ider":3145,"opna":3146,"set":3147,"aktiv":3148,"##eds":3149,"fodboldspiller":3150,"##fund":3151,"we":3152,"mennesker":3153,"##trol":3154,"præsident":3155,"##aen":3156,"handling":3157,"fandt":3158,"180":3159,"carl":3160,"##iger":3161,"##fra":3162,"spor":3163,"pen":3164,"##cent":3165,"can":3166,"##revet":3167,"nat":3168,"il":3169,"sing":3170,"29":3171,"##iens":3172,"fransk":3173,"tradition":3174,"krit":3175,"længere":3176,"##igheder":3177,"stod":3178,"##ielle":3179,"suc":3180,"london":3181,"result":3182,"##klub":3183,"social":3184,"amt":3185,"aut":3186,"##snit":3187,"##fin":3188,"##ies":3189,"godt":3190,"beliggende":3191,"liges":3192,"eksp":3193,"##ringer":3194,"50":3195,"samarbej":3196,"park":3197,"engelsk":3198,"##rang":3199,"kejser":3200,"betydning":3201,"skuespiller":3202,"aar":3203,"##dem":3204,"dig":3205,"##arer":3206,"sma":3207,"ram":3208,"konkur":3209,"kaldes":3210,"beslut":3211,"##værk":3212,"##sfor":3213,"division":3214,"##kter":3215,"rol":3216,"magt":3217,"rund":3218,"tæt":3219,"##urn":3220,"nuværende":3221,"##iste":3222,"##ses":3223,"hende":3224,"bø":3225,"lever":3226,"karakter":3227,"sten":3228,"region":3229,"grad":3230,"skift":3231,"##ræt":3232,"##løb":3233,"2001":3234,"idet":3235,"begyndelsen":3236,"arkite":3237,"slot":3238,"##pa":3239,"##ress":3240,"omrader":3241,"char":3242,"net":3243,"administr":3244,"2017":3245,"konf":3246,"landshold":3247,"##ielt":3248,"##esse":3249,"on":3250,"1990":3251,"ald":3252,"bestem":3253,"kvinder":3254,"##ham":3255,"perioden":3256,"personer":3257,"##mon":3258,"ses":3259,"##ile":3260,"tj":3261,"instrueret":3262,"periode":3263,"##okrat":3264,"paris":3265,"arbejder":3266,"##ative":3267,"produktion":3268,"fir":3269,"succes":3270,"kaldet":3271,"##landske":3272,"aust":3273,"##elte":3274,"2003":3275,"mang":3276,"ligesom":3277,"##ori":3278,"nyt":3279,"##ragt":3280,"dat":3281,"ægte":3282,"valgt":3283,"fyr":3284,"leder":3285,"##leret":3286,"nordlige":3287,"britiske":3288,"##kv":3289,"##erg":3290,"2018":3291,"naede":3292,"langt":3293,"##ng":3294,"##ifik":3295,"ko":3296,"gud":3297,"foret":3298,"midt":3299,"krigen":3300,"hert":3301,"hit":3302,"nummer":3303,"neder":3304,"manu":3305,"##ogne":3306,"serien":3307,"##bol":3308,"ren":3309,"herunder":3310,"##okum":3311,"opført":3312,"kendte":3313,"jac":3314,"via":3315,"ju":3316,"##itz":3317,"made":3318,"typ":3319,"opst":3320,"rel":3321,"kræ":3322,"kro":3323,"##ppen":3324,"##jekt":3325,"##ørende":3326,"udgav":3327,"##stra":3328,"##rej":3329,"tek":3330,"##gr":3331,"albummet":3332,"stær":3333,"modstand":3334,"efterfølgende":3335,"følge":3336,"udvikling":3337,"##spill":3338,"##mes":3339,"2002":3340,"##ith":3341,"pass":3342,"##rest":3343,"prob":3344,"##entlige":3345,"##osition":3346,"mich":3347,"ur":3348,"opt":3349,"##ines":3350,"##anger":3351,"hjælp":3352,"relig":3353,"bib":3354,"##fær":3355,"sup":3356,"ide":3357,"##fik":3358,"dage":3359,"##ræk":3360,"##ash":3361,"are":3362,"førte":3363,"nød":3364,"valg":3365,"fuld":3366,"undersø":3367,"formand":3368,"mænd":3369,"##kendt":3370,"mulighed":3371,"østrig":3372,"##spil":3373,"rolle":3374,"udtr":3375,"borg":3376,"##ital":3377,"##far":3378,"##bet":3379,"bol":3380,"##ula":3381,"##isten":3382,"vers":3383,"enkelt":3384,"40":3385,"ass":3386,"##hj":3387,"taget":3388,"##ika":3389,"##vig":3390,"europæ":3391,"##co":3392,"as":3393,"##qu":3394,"dokum":3395,"moderne":3396,"tiden":3397,"giver":3398,"##part":3399,"jeg":3400,"kompon":3401,"31":3402,"##endom":3403,"ep":3404,"blot":3405,"slaget":3406,"aldrig":3407,"tale":3408,"millioner":3409,"##la":3410,"fælles":3411,"hvert":3412,"stil":3413,"##rab":3414,"##eld":3415,"##ick":3416,"lidt":3417,"tilh":3418,"klass":3419,"gruppen":3420,"do":3421,"dist":3422,"##mest":3423,"sæt":3424,"cirk":3425,"sport":3426,"##skov":3427,"top":3428,"akt":3429,"##ure":3430,"##vent":3431,"##lerne":3432,"##avne":3433,"imp":3434,"##mens":3435,"aarhus":3436,"##ont":3437,"øen":3438,"dræ":3439,"182":3440,"##høj":3441,"col":3442,"fortæl":3443,"##bro":3444,"langs":3445,"miss":3446,"sydlige":3447,"##ij":3448,"##olit":3449,"medvirk":3450,"##az":3451,"udkom":3452,"##deling":3453,"kron":3454,"tidspunkt":3455,"politik":3456,"mun":3457,"ger":3458,"##brit":3459,"politiske":3460,"##komm":3461,"udnævn":3462,"##yttet":3463,"##iseret":3464,"studer":3465,"##istisk":3466,"will":3467,"tar":3468,"sidst":3469,"litter":3470,"ken":3471,"familie":3472,"ii":3473,"parti":3474,"gør":3475,"179":3476,"##jerne":3477,"dæ":3478,"fc":3479,"1980":3480,"##mann":3481,"sadan":3482,"borger":3483,"##svis":3484,"sty":3485,"sør":3486,"sim":3487,"##kaldt":3488,"##olut":3489,"internationale":3490,"##elen":3491,"##rup":3492,"ale":3493,"##hverv":3494,"##kor":3495,"##atte":3496,"thom":3497,"storbrit":3498,"##ernes":3499,"haft":3500,"oprindeligt":3501,"##ometer":3502,"##sning":3503,"##banen":3504,"storbritann":3505,"##ze":3506,"gøre":3507,"næv":3508,"teater":3509,"##kar":3510,"##tale":3511,"##eriet":3512,"professor":3513,"hovedstad":3514,"karl":3515,"grav":3516,"fortsatte":3517,"sangen":3518,"henrik":3519,"##olf":3520,"##ikker":3521,"##ations":3522,"sønder":3523,"engelske":3524,"##sport":3525,"##strup":3526,"##yp":3527,"##ign":3528,"##svig":3529,"##ligvis":3530,"foreg":3531,"slægt":3532,"##hen":3533,"holdt":3534,"repræsen":3535,"##ish":3536,"kur":3537,"##inget":3538,"gammel":3539,"syv":3540,"austral":3541,"kirken":3542,"##ley":3543,"##øres":3544,"møl":3545,"viser":3546,"##ott":3547,"ene":3548,"rød":3549,"prins":3550,"hin":3551,"trods":3552,"lag":3553,"go":3554,"lys":3555,"svenske":3556,"##slag":3557,"bandet":3558,"væk":3559,"mennesk":3560,"##van":3561,"yderligere":3562,"##jorden":3563,"##kald":3564,"##agn":3565,"henvis":3566,"lykk":3567,"bal":3568,"##ælde":3569,"##dig":3570,"##eres":3571,"##vid":3572,"adskil":3573,"vundet":3574,"direkte":3575,"faet":3576,"##stilling":3577,"vol":3578,"fundet":3579,"##ct":3580,"##lesvig":3581,"##atin":3582,"dels":3583,"profession":3584,"baggrund":3585,"betyder":3586,"super":3587,"##histor":3588,"us":3589,"gard":3590,"ru":3591,"##iteter":3592,"svensk":3593,"##gade":3594,"insp":3595,"system":3596,"tage":3597,"baseret":3598,"##vend":3599,"frederiks":3600,"##lv":3601,"herred":3602,"ungdom":3603,"grundlagt":3604,"udf":3605,"tan":3606,"##derne":3607,"##entar":3608,"##ødte":3609,"##chen":3610,"##atet":3611,"fisk":3612,"indeholder":3613,"##vist":3614,"kommand":3615,"1998":3616,"vind":3617,"##uss":3618,"sym":3619,"1999":3620,"york":3621,"roman":3622,"##helm":3623,"##50":3624,"blom":3625,"samlet":3626,"radio":3627,"udbred":3628,"unge":3629,"tel":3630,"sikker":3631,"industri":3632,"model":3633,"1960":3634,"romer":3635,"sor":3636,"afslut":3637,"samfund":3638,"##bl":3639,"##ba":3640,"##rit":3641,"dar":3642,"startede":3643,"modtog":3644,"yng":3645,"##bu":3646,"floden":3647,"##sætning":3648,"pan":3649,"uaf":3650,"flyttede":3651,"venstre":3652,"hurtigt":3653,"kontrol":3654,"##ipp":3655,"2019":3656,"##ix":3657,"##ete":3658,"bevar":3659,"udgiv":3660,"##ful":3661,"delstat":3662,"storbritannien":3663,"erhverv":3664,"wil":3665,"##aende":3666,"prem":3667,"##ødt":3668,"steder":3669,"støtte":3670,"fej":3671,"dv":3672,"bos":3673,"##ment":3674,"##ylland":3675,"##ica":3676,"fo":3677,"##obb":3678,"bjerg":3679,"##ologiske":3680,"##annet":3681,"##smand":3682,"##ance":3683,"hjemme":3684,"##iam":3685,"manuskri":3686,"rundt":3687,"enkelte":3688,"fru":3689,"udgave":3690,"materi":3691,"sav":3692,"bestod":3693,"comp":3694,"bad":3695,"wor":3696,"##itt":3697,"178":3698,"##skede":3699,"videnskab":3700,"lo":3701,"gro":3702,"##stillet":3703,"nr":3704,"hor":3705,"oprindelige":3706,"grev":3707,"##eringen":3708,"stammer":3709,"hertug":3710,"##ane":3711,"##ions":3712,"brød":3713,"ældre":3714,"betegn":3715,"##tek":3716,"privat":3717,"177":3718,"rock":3719,"erstat":3720,"##vel":3721,"##landet":3722,"##ikk":3723,"komme":3724,"lange":3725,"##kkede":3726,"here":3727,"canad":3728,"næst":3729,"##river":3730,"igennem":3731,"elev":3732,"institut":3733,"danne":3734,"værker":3735,"arbejdede":3736,"befolkning":3737,"##uth":3738,"vaben":3739,"##brud":3740,"byer":3741,"##par":3742,"##lam":3743,"##wa":3744,"anvendes":3745,"##oen":3746,"museum":3747,"##sigt":3748,"byens":3749,"kommunen":3750,"fest":3751,"arrang":3752,"muligt":3753,"##ja":3754,"coun":3755,"indenfor":3756,"##kaldte":3757,"##mat":3758,"dron":3759,"politisk":3760,"##han":3761,"##ward":3762,"ligel":3763,"give":3764,"tri":3765,"##tager":3766,"opd":3767,"1996":3768,"militær":3769,"kæmp":3770,"post":3771,"rusland":3772,"je":3773,"titlen":3774,"##bygning":3775,"kilometer":3776,"ældste":3777,"begrav":3778,"##assen":3779,"##huset":3780,"særlig":3781,"sølv":3782,"hansen":3783,"1997":3784,"##ose":3785,"bek":3786,"##urner":3787,"bevæg":3788,"forst":3789,"##bog":3790,"ligeledes":3791,"mist":3792,"bygning":3793,"cal":3794,"##bed":3795,"##ierne":3796,"nok":3797,"##iddel":3798,"fx":3799,"bron":3800,"kongel":3801,"##præ":3802,"skr":3803,"##mark":3804,"500":3805,"fore":3806,"finde":3807,"##rich":3808,"lær":3809,"##dte":3810,"lod":3811,"##tage":3812,"##va":3813,"bestyr":3814,"funger":3815,"##ink":3816,"##ytter":3817,"vestlige":3818,"um":3819,"##sent":3820,"klo":3821,"international":3822,"bid":3823,"sold":3824,"fys":3825,"hoveds":3826,"tids":3827,"##samling":3828,"eget":3829,"indfly":3830,"##inal":3831,"##øjt":3832,"tom":3833,"##po":3834,"færø":3835,"selvom":3836,"1994":3837,"udvid":3838,"genop":3839,"##egard":3840,"##ya":3841,"pet":3842,"herefter":3843,"##ugle":3844,"##ikken":3845,"##rænd":3846,"nør":3847,"middelalder":3848,"##mar":3849,"betydel":3850,"familien":3851,"##che":3852,"kampen":3853,"##rale":3854,"##siden":3855,"selvstænd":3856,"##ace":3857,"##udd":3858,"##ny":3859,"inspir":3860,"hinanden":3861,"##udover":3862,"##igur":3863,"energ":3864,"##ames":3865,"kaldt":3866,"inkl":3867,"bom":3868,"ras":3869,"##th":3870,"offentlig":3871,"erob":3872,"sil":3873,"no":3874,"mer":3875,"1992":3876,"ex":3877,"norske":3878,"lou":3879,"fag":3880,"besæt":3881,"span":3882,"##sens":3883,"rand":3884,"vinter":3885,"##køb":3886,"metal":3887,"##forb":3888,"##lio":3889,"##bt":3890,"##ris":3891,"koncer":3892,"kolon":3893,"optræ":3894,"prote":3895,"landets":3896,"##osof":3897,"ring":3898,"ref":3899,"ødel":3900,"sem":3901,"##ømme":3902,"paul":3903,"##ky":3904,"lokale":3905,"##ymn":3906,"oden":3907,"overtog":3908,"dets":3909,"adel":3910,"aner":3911,"##ael":3912,"erik":3913,"##ænge":3914,"stats":3915,"sas":3916,"##iven":3917,"don":3918,"typisk":3919,"hu":3920,"normalt":3921,"##gede":3922,"sendt":3923,"av":3924,"##mær":3925,"1995":3926,"vendte":3927,"vist":3928,"tyr":3929,"linje":3930,"viste":3931,"hvoraf":3932,"##ktioner":3933,"##fører":3934,"gre":3935,"##akt":3936,"bon":3937,"rid":3938,"otte":3939,"##gtede":3940,"odense":3941,"kryd":3942,"indled":3943,"fre":3944,"##gik":3945,"afsk":3946,"##ns":3947,"kunstner":3948,"ende":3949,"jur":3950,"fj":3951,"60":3952,"##rene":3953,"formula":3954,"##ander":3955,"##urnal":3956,"skiftede":3957,"hører":3958,"oprettet":3959,"sommeren":3960,"debut":3961,"lavet":3962,"kongen":3963,"sjæl":3964,"konkurren":3965,"mur":3966,"lar":3967,"##nende":3968,"rich":3969,"jorden":3970,"##rop":3971,"finalen":3972,"wh":3973,"##radte":3974,"eksist":3975,"central":3976,"gal":3977,"1993":3978,"kongelige":3979,"##ola":3980,"##æde":3981,"blad":3982,"arter":3983,"alder":3984,"##sminister":3985,"artik":3986,"bedre":3987,"forsøg":3988,"##iat":3989,"starten":3990,"lokal":3991,"##vet":3992,"japan":3993,"latin":3994,"samarbejde":3995,"handbold":3996,"ansat":3997,"##fe":3998,"hot":3999,"##cen":4000,"sæsonen":4001,"nem":4002,"europæiske":4003,"##inc":4004,"resten":4005,"serie":4006,"thomas":4007,"berlin":4008,"næste":4009,"##jø":4010,"##abet":4011,"valgte":4012,"nævnes":4013,"tilfælde":4014,"bus":4015,"hum":4016,"vold":4017,"læg":4018,"ry":4019,"slesvig":4020,"hæv":4021,"##tra":4022,"##plan":4023,"##lo":4024,"1991":4025,"gjort":4026,"van":4027,"ps":4028,"cup":4029,"imod":4030,"##ampe":4031,"176":4032,"titel":4033,"##merne":4034,"##itar":4035,"arkitekt":4036,"fordel":4037,"ke":4038,"parlam":4039,"fer":4040,"uafhæng":4041,"##our":4042,"direktør":4043,"##skrift":4044,"altid":4045,"omd":4046,"bror":4047,"##ana":4048,"1945":4049,"##iment":4050,"##ivil":4051,"omfatter":4052,"vigtigste":4053,"pe":4054,"##ague":4055,"mask":4056,"##reis":4057,"avis":4058,"kontrakt":4059,"##amen":4060,"givet":4061,"##offer":4062,"undervis":4063,"republik":4064,"air":4065,"flade":4066,"jensen":4067,"##inden":4068,"fæng":4069,"##ias":4070,"minist":4071,"billed":4072,"##ordan":4073,"##vor":4074,"stam":4075,"##oler":4076,"int":4077,"hust":4078,"nielsen":4079,"cor":4080,"svær":4081,"georg":4082,"##har":4083,"sange":4084,"samlede":4085,"vor":4086,"russiske":4087,"mc":4088,"1950":4089,"sakaldte":4090,"##uel":4091,"##iserede":4092,"##lov":4093,"finder":4094,"formal":4095,"styrker":4096,"##prod":4097,"rejse":4098,"fald":4099,"1900":4100,"selskab":4101,"1920":4102,"kø":4103,"litteratur":4104,"mindst":4105,"areal":4106,"stru":4107,"##stid":4108,"sund":4109,"##stil":4110,"afholdt":4111,"holdet":4112,"##mede":4113,"spil":4114,"league":4115,"aal":4116,"maler":4117,"gymn":4118,"bedst":4119,"##ka":4120,"##iveau":4121,"tjeneste":4122,"foran":4123,"kommunal":4124,"hvordan":4125,"alex":4126,"chef":4127,"##formen":4128,"##ino":4129,"##ativt":4130,"##forening":4131,"kvinde":4132,"##terer":4133,"##rika":4134,"##lemer":4135,"kul":4136,"##unn":4137,"ann":4138,"anven":4139,"adskillige":4140,"betragt":4141,"##anten":4142,"uddannelse":4143,"bay":4144,"sar":4145,"højde":4146,"midten":4147,"2020":4148,"mæng":4149,"væl":4150,"##ykket":4151,"primært":4152,"nordvest":4153,"##radet":4154,"##aff":4155,"derudover":4156,"##ball":4157,"journal":4158,"1989":4159,"eu":4160,"william":4161,"##ood":4162,"berøm":4163,"lykkedes":4164,"fot":4165,"##lagde":4166,"world":4167,"provin":4168,"oph":4169,"løber":4170,"arg":4171,"effe":4172,"fors":4173,"##sj":4174,"egne":4175,"##øret":4176,"bruger":4177,"jon":4178,"dannet":4179,"cyk":4180,"##sser":4181,"##hal":4182,"real":4183,"centrale":4184,"handel":4185,"bem":4186,"enten":4187,"grupper":4188,"manuskript":4189,"hvid":4190,"pres":4191,"##talte":4192,"##imod":4193,"##iale":4194,"##havet":4195,"##ykker":4196,"projekt":4197,"##ineret":4198,"lærer":4199,"##mænd":4200,"##dere":4201,"##uer":4202,"dobb":4203,"arbejdet":4204,"disk":4205,"øvrige":4206,"besø":4207,"ober":4208,"foræld":4209,"oplev":4210,"vejen":4211,"city":4212,"##utter":4213,"vib":4214,"stig":4215,"holland":4216,"beskriv":4217,"tør":4218,"##smal":4219,"cm":4220,"schwe":4221,"bogen":4222,"samling":4223,"hvorefter":4224,"bort":4225,"##kret":4226,"##iere":4227,"##nant":4228,"lud":4229,"island":4230,"fabrik":4231,"vik":4232,"højeste":4233,"aalborg":4234,"arene":4235,"##bjerg":4236,"scor":4237,"##plads":4238,"michael":4239,"##park":4240,"##ifter":4241,"stærkt":4242,"##skolen":4243,"##ugt":4244,"1800":4245,"centrum":4246,"turneringen":4247,"##arv":4248,"skot":4249,"##øs":4250,"lave":4251,"skyl":4252,"konger":4253,"##sil":4254,"##album":4255,"##ærende":4256,"rige":4257,"henhold":4258,"##andid":4259,"ford":4260,"##onen":4261,"filosof":4262,"##stant":4263,"sydøst":4264,"##ima":4265,"##ram":4266,"opnaede":4267,"##inen":4268,"dronning":4269,"jacob":4270,"##spor":4271,"##blik":4272,"nom":4273,"tour":4274,"niels":4275,"##væg":4276,"##iget":4277,"hæ":4278,"##kan":4279,"grundlæg":4280,"##øen":4281,"##ele":4282,"kred":4283,"hustru":4284,"##elserne":4285,"##talt":4286,"ten":4287,"overlev":4288,"##ørn":4289,"##mal":4290,"indflydelse":4291,"##ikere":4292,"fyl":4293,"##spillet":4294,"optaget":4295,"lagt":4296,"almindelig":4297,"lan":4298,"##hl":4299,"##øjtnant":4300,"##sterne":4301,"fortsat":4302,"##handen":4303,"##ologisk":4304,"psyk":4305,"nordøst":4306,"holde":4307,"##ids":4308,"##ival":4309,"##delser":4310,"phil":4311,"sydvest":4312,"qu":4313,"udviklet":4314,"alter":4315,"1988":4316,"ansvar":4317,"##bygget":4318,"oly":4319,"##stemet":4320,"beh":4321,"belg":4322,"##øse":4323,"krav":4324,"olymp":4325,"kem":4326,"landbrug":4327,"sejr":4328,"##ismen":4329,"##gelse":4330,"##lere":4331,"##uelle":4332,"anlæg":4333,"##ytte":4334,"kina":4335,"træk":4336,"forlod":4337,"##ric":4338,"##orden":4339,"efterhanden":4340,"gode":4341,"akadem":4342,"værd":4343,"etableret":4344,"vok":4345,"jose":4346,"røde":4347,"kines":4348,"##oll":4349,"##station":4350,"##nis":4351,"dvs":4352,"##orer":4353,"##dede":4354,"##aur":4355,"østlige":4356,"cirka":4357,"##za":4358,"endte":4359,"ting":4360,"oply":4361,"schweiz":4362,"1940":4363,"##sson":4364,"##mere":4365,"##port":4366,"##asser":4367,"skete":4368,"stilling":4369,"tidlige":4370,"hy":4371,"show":4372,"tilkn":4373,"##ight":4374,"##jylland":4375,"nødvend":4376,"udsen":4377,"altsa":4378,"væs":4379,"##li":4380,"ejendom":4381,"##okus":4382,"sandsyn":4383,"maneder":4384,"hjer":4385,"trom":4386,"80":4387,"point":4388,"##isering":4389,"skibe":4390,"bind":4391,"##menter":4392,"repræsent":4393,"##jn":4394,"størr":4395,"værk":4396,"begreb":4397,"##kort":4398,"sygdom":4399,"ude":4400,"boede":4401,"##ssel":4402,"##rom":4403,"##unst":4404,"klar":4405,"sovjetun":4406,"pri":4407,"robert":4408,"kyst":4409,"japanske":4410,"pre":4411,"inf":4412,"##emat":4413,"solgt":4414,"##hr":4415,"##retning":4416,"trafik":4417,"##omrade":4418,"højere":4419,"rek":4420,"tropper":4421,"##illa":4422,"oplø":4423,"##mun":4424,"kateg":4425,"arab":4426,"##brog":4427,"1930":4428,"km²":4429,"bjer":4430,"vide":4431,"uk":4432,"fulgte":4433,"hvide":4434,"ejer":4435,"##orth":4436,"##my":4437,"dam":4438,"##ena":4439,"##rak":4440,"union":4441,"##sg":4442,"##øver":4443,"jens":4444,"norsk":4445,"sluttede":4446,"uddannet":4447,"##lej":4448,"bygninger":4449,"##uter":4450,"bøger":4451,"##omat":4452,"sasom":4453,"##tiden":4454,"stock":4455,"særligt":4456,"##skom":4457,"1986":4458,"##nere":4459,"anvendt":4460,"forest":4461,"meste":4462,"begræn":4463,"300":4464,"##kkende":4465,"stille":4466,"1984":4467,"##riske":4468,"martin":4469,"begravet":4470,"vinder":4471,"ident":4472,"brand":4473,"##navn":4474,"gt":4475,"##ænger":4476,"ankom":4477,"mør":4478,"##sket":4479,"stationen":4480,"bold":4481,"hund":4482,"penge":4483,"placeret":4484,"hens":4485,"##bygger":4486,"udnævnt":4487,"lyn":4488,"fac":4489,"bj":4490,"fokus":4491,"174":4492,"højt":4493,"banen":4494,"marie":4495,"##ierede":4496,"højre":4497,"##da":4498,"høje":4499,"##gaende":4500,"japansk":4501,"forkl":4502,"vinde":4503,"indv":4504,"regeringen":4505,"fortsæt":4506,"##rat":4507,"champ":4508,"brugte":4509,"##ney":4510,"mis":4511,"maned":4512,"guitar":4513,"opkaldt":4514,"pris":4515,"mik":4516,"medic":4517,"besej":4518,"bruge":4519,"dokumentar":4520,"skolen":4521,"##stræ":4522,"selve":4523,"##vejen":4524,"##mod":4525,"kammer":4526,"##aus":4527,"angel":4528,"##gelser":4529,"arig":4530,"##deles":4531,"##skilde":4532,"ast":4533,"##holde":4534,"møn":4535,"##blad":4536,"indre":4537,"alvor":4538,"spanien":4539,"ky":4540,"##ifte":4541,"dre":4542,"maske":4543,"175":4544,"##fred":4545,"økonomiske":4546,"retning":4547,"premier":4548,"mente":4549,"udgang":4550,"##bæk":4551,"isra":4552,"but":4553,"##uterede":4554,"version":4555,"bur":4556,"70":4557,"1987":4558,"abnede":4559,"##klær":4560,"jernban":4561,"west":4562,"##alje":4563,"holsten":4564,"##telsen":4565,"##æsen":4566,"##liggende":4567,"rasmus":4568,"forud":4569,"dobbelt":4570,"##orge":4571,"##oph":4572,"hab":4573,"##olution":4574,"##æb":4575,"peder":4576,"##rid":4577,"##enes":4578,"wal":4579,"lt":4580,"bygningen":4581,"transport":4582,"thor":4583,"sek":4584,"##stal":4585,"1985":4586,"##ko":4587,"##ho":4588,"tager":4589,"##edition":4590,"##fald":4591,"restaur":4592,"produceret":4593,"ordet":4594,"snart":4595,"sort":4596,"##yde":4597,"partiet":4598,"demokrat":4599,"##fal":4600,"had":4601,"roy":4602,"udstyr":4603,"gul":4604,"gent":4605,"##alg":4606,"1979":4607,"nationale":4608,"tot":4609,"##færd":4610,"offentlige":4611,"##esser":4612,"slog":4613,"marked":4614,"soldater":4615,"1972":4616,"##ura":4617,"##sprog":4618,"blod":4619,"##ales":4620,"ledelse":4621,"historiske":4622,"vic":4623,"studerede":4624,"styrke":4625,"figur":4626,"udgør":4627,"got":4628,"pap":4629,"udsk":4630,"tyrk":4631,"hovedsag":4632,"ris":4633,"##organis":4634,"problemer":4635,"rigt":4636,"it":4637,"spørg":4638,"1982":4639,"richard":4640,"pavirk":4641,"##gjort":4642,"skj":4643,"bri":4644,"halvdel":4645,"##attende":4646,"spillere":4647,"##spr":4648,"david":4649,"øver":4650,"svar":4651,"brænd":4652,"runde":4653,"##rib":4654,"##orf":4655,"my":4656,"##aner":4657,"fler":4658,"udtryk":4659,"if":4660,"voksede":4661,"børne":4662,"ønskede":4663,"##ico":4664,"fød":4665,"##oss":4666,"rec":4667,"forg":4668,"type":4669,"følger":4670,"app":4671,"grand":4672,"##cel":4673,"vægt":4674,"fjerde":4675,"##iti":4676,"sanger":4677,"afsnit":4678,"daværende":4679,"35":4680,"biblio":4681,"##aer":4682,"kær":4683,"university":4684,"90":4685,"bul":4686,"cat":4687,"##lod":4688,"1973":4689,"1978":4690,"lit":4691,"bre":4692,"barn":4693,"sub":4694,"ær":4695,"sikkerhed":4696,"forekom":4697,"##ona":4698,"visse":4699,"dren":4700,"hom":4701,"county":4702,"frank":4703,"##iskop":4704,"hard":4705,"lyd":4706,"##iets":4707,"ap":4708,"viborg":4709,"drift":4710,"sammens":4711,"kast":4712,"opstod":4713,"øje":4714,"politiker":4715,"##æft":4716,"##givet":4717,"bir":4718,"##dende":4719,"hof":4720,"lejlighed":4721,"inform":4722,"##beg":4723,"forsøgte":4724,"sæl":4725,"special":4726,"ungar":4727,"##holdet":4728,"##oven":4729,"handels":4730,"rigs":4731,"##byen":4732,"orig":4733,"bebo":4734,"stockholm":4735,"nævn":4736,"##føre":4737,"##vede":4738,"##cher":4739,"##ørs":4740,"tillad":4741,"defin":4742,"##ligste":4743,"james":4744,"forh":4745,"test":4746,"1944":4747,"1968":4748,"indsat":4749,"##ereg":4750,"##ifor":4751,"kvindel":4752,"od":4753,"##vin":4754,"##ælder":4755,"##als":4756,"##eland":4757,"katol":4758,"1974":4759,"sankt":4760,"kvalifik":4761,"pil":4762,"skøn":4763,"just":4764,"italienske":4765,"##ca":4766,"##aten":4767,"lund":4768,"finans":4769,"rapp":4770,"grænser":4771,"derved":4772,"udel":4773,"ægteskab":4774,"##ett":4775,"music":4776,"grænse":4777,"omfattende":4778,"færdig":4779,"##landt":4780,"nab":4781,"tilsk":4782,"deltagelse":4783,"ridder":4784,"sogne":4785,"##ask":4786,"single":4787,"forv":4788,"forskning":4789,"##stein":4790,"1971":4791,"##fart":4792,"##bygningen":4793,"##sbe":4794,"brasil":4795,"##risk":4796,"skibet":4797,"##idens":4798,"lignende":4799,"flod":4800,"est":4801,"173":4802,"knud":4803,"center":4804,"funktion":4805,"1976":4806,"savel":4807,"debuterede":4808,"adgang":4809,"maria":4810,"orden":4811,"event":4812,"elem":4813,"hels":4814,"##gør":4815,"##ette":4816,"bygge":4817,"navne":4818,"distrik":4819,"eur":4820,"##pen":4821,"##ford":4822,"##teg":4823,"pra":4824,"almindelige":4825,"jer":4826,"##ørt":4827,"modsætning":4828,"kj":4829,"felt":4830,"virkelig":4831,"mynd":4832,"##aktion":4833,"32":4834,"stab":4835,"##ony":4836,"udover":4837,"1975":4838,"rejste":4839,"pot":4840,"ekstra":4841,"##pro":4842,"##band":4843,"officielle":4844,"fortæller":4845,"dyb":4846,"roskilde":4847,"##yske":4848,"##rund":4849,"him":4850,"bis":4851,"##ænk":4852,"1983":4853,"johannes":4854,"##fon":4855,"endelig":4856,"frit":4857,"##kamp":4858,"##min":4859,"intr":4860,"##smed":4861,"##ran":4862,"##ats":4863,"forbund":4864,"udviklede":4865,"##ledning":4866,"jes":4867,"##yder":4868,"forbed":4869,"##bart":4870,"##ynder":4871,"oftest":4872,"ør":4873,"overd":4874,"##ple":4875,"400":4876,"føde":4877,"skabe":4878,"israel":4879,"selskabet":4880,"1981":4881,"satte":4882,"faldt":4883,"livet":4884,"interesse":4885,"religi":4886,"symbol":4887,"rosen":4888,"##gruppe":4889,"##reformen":4890,"strand":4891,"sovjetunionen":4892,"aflø":4893,"finland":4894,"landsbyen":4895,"militære":4896,"##ht":4897,"##vers":4898,"hem":4899,"anne":4900,"dannebrog":4901,"heller":4902,"portræt":4903,"##punkt":4904,"bydel":4905,"kilder":4906,"vari":4907,"##skl":4908,"##ringen":4909,"forsy":4910,"resultat":4911,"ze":4912,"##ugl":4913,"hvilken":4914,"##omrader":4915,"lad":4916,"brev":4917,"##esl":4918,"klubber":4919,"##ledes":4920,"staten":4921,"sta":4922,"skrift":4923,"komb":4924,"tabte":4925,"andersen":4926,"##anlæg":4927,"1969":4928,"poul":4929,"1918":4930,"introd":4931,"plade":4932,"##yer":4933,"##sty":4934,"ganske":4935,"danner":4936,"george":4937,"alene":4938,"##ningerne":4939,"45":4940,"temper":4941,"slaet":4942,"##rol":4943,"ut":4944,"lufthavn":4945,"mm":4946,"mex":4947,"##aly":4948,"derimod":4949,"##nævnte":4950,"##øjer":4951,"1977":4952,"bern":4953,"isl":4954,"1967":4955,"##hv":4956,"prisen":4957,"standard":4958,"deltag":4959,"vilhelm":4960,"gymnas":4961,"længe":4962,"fand":4963,"##eks":4964,"##bra":4965,"##tajn":4966,"##ages":4967,"##ømmet":4968,"antallet":4969,"geografi":4970,"award":4971,"##melse":4972,"fund":4973,"##oy":4974,"sikre":4975,"kolle":4976,"fakt":4977,"dræbt":4978,"fang":4979,"##que":4980,"miljø":4981,"##lende":4982,"design":4983,"oversæt":4984,"arets":4985,"##ificeret":4986,"beskæft":4987,"præst":4988,"konserv":4989,"økonomisk":4990,"situ":4991,"##skibe":4992,"princ":4993,"##æger":4994,"1943":4995,"befolkningen":4996,"fremst":4997,"lære":4998,"opdag":4999,"charl":5000,"bund":5001,"##iblandt":5002,"erklær":5003,"mio":5004,"brig":5005,"professionel":5006,"svend":5007,"officielt":5008,"problem":5009,"##videre":5010,"henholdsvis":5011,"##arter":5012,"bygger":5013,"##ension":5014,"minutter":5015,"##ekt":5016,"betød":5017,"##aktør":5018,"##pladsen":5019,"war":5020,"##fel":5021,"afvik":5022,"kirkegard":5023,"øster":5024,"fløj":5025,"tjen":5026,"##bil":5027,"besluttede":5028,"elektron":5029,"sider":5030,"##60":5031,"æg":5032,"##aljer":5033,"##lav":5034,"matemat":5035,"skabt":5036,"##egn":5037,"sige":5038,"ung":5039,"træner":5040,"stærk":5041,"hurtig":5042,"laur":5043,"##gere":5044,"overfor":5045,"##ame":5046,"hul":5047,"##stillede":5048,"historien":5049,"udelu":5050,"##ath":5051,"tildelt":5052,"forsv":5053,"fandtes":5054,"valget":5055,"##melig":5056,"##otor":5057,"##værker":5058,"portug":5059,"1964":5060,"bare":5061,"len":5062,"##vægt":5063,"log":5064,"##fabrik":5065,"endvidere":5066,"##its":5067,"trak":5068,"solgte":5069,"##attede":5070,"reser":5071,"bank":5072,"rod":5073,"sjæld":5074,"##æssige":5075,"grænsen":5076,"##key":5077,"tillige":5078,"##kvens":5079,"ekspedition":5080,"##sninger":5081,"##amerika":5082,"wien":5083,"live":5084,"##stande":5085,"strøm":5086,"##iør":5087,"##svær":5088,"frederiksberg":5089,"kg":5090,"dagen":5091,"jør":5092,"##itets":5093,"udført":5094,"havet":5095,"britisk":5096,"indiv":5097,"##entligt":5098,"168":5099,"provinsen":5100,"huset":5101,"##heim":5102,"##cis":5103,"##ante":5104,"##uler":5105,"sagde":5106,"amb":5107,"##cep":5108,"studie":5109,"huse":5110,"##stof":5111,"bestemt":5112,"##ited":5113,"bud":5114,"struktur":5115,"##fer":5116,"lars":5117,"##uen":5118,"hosp":5119,"##omen":5120,"171":5121,"jød":5122,"spred":5123,"##way":5124,"##oppen":5125,"udbredt":5126,"kommuner":5127,"170":5128,"teor":5129,"osl":5130,"historisk":5131,"atl":5132,"embed":5133,"tun":5134,"##ænder":5135,"1965":5136,"vester":5137,"##ama":5138,"rang":5139,"disc":5140,"opfør":5141,"##veret":5142,"mol":5143,"polen":5144,"lade":5145,"1966":5146,"behand":5147,"bla":5148,"mødte":5149,"landk":5150,"canada":5151,"##irksomhed":5152,"romerske":5153,"nic":5154,"##igheden":5155,"##ældende":5156,"foruden":5157,"##ømt":5158,"##kast":5159,"##væk":5160,"fader":5161,"kongens":5162,"længde":5163,"serv":5164,"kir":5165,"##ape":5166,"kandid":5167,"udst":5168,"##maet":5169,"##musik":5170,"##ement":5171,"allierede":5172,"love":5173,"prakt":5174,"##ukt":5175,"syge":5176,"møde":5177,"komponist":5178,"folketing":5179,"gennemsnit":5180,"nemlig":5181,"proces":5182,"dj":5183,"ku":5184,"jørgen":5185,"##ros":5186,"1941":5187,"##ygt":5188,"indt":5189,"tje":5190,"##tion":5191,"atter":5192,"33":5193,"møller":5194,"sorte":5195,"sker":5196,"forening":5197,"programmet":5198,"##lic":5199,"tim":5200,"##rettet":5201,"hotel":5202,"konstru":5203,"ellers":5204,"##ield":5205,"niveau":5206,"scen":5207,"kas":5208,"regionen":5209,"mig":5210,"1948":5211,"kendes":5212,"##ugh":5213,"mener":5214,"##løse":5215,"##insk":5216,"benyttes":5217,"##ala":5218,"##æder":5219,"north":5220,"hvem":5221,"##ata":5222,"journalist":5223,"mesterskab":5224,"louis":5225,"vansk":5226,"##omer":5227,"naz":5228,"##aland":5229,"fyn":5230,"menneske":5231,"konflik":5232,"##arbejde":5233,"sammenlig":5234,"forel":5235,"begiven":5236,"passager":5237,"mas":5238,"##udt":5239,"krigs":5240,"digt":5241,"skrive":5242,"marg":5243,"osc":5244,"stjer":5245,"ludvig":5246,"##ano":5247,"vært":5248,"krim":5249,"##inet":5250,"udenrig":5251,"spanske":5252,"efteraret":5253,"teat":5254,"hedder":5255,"heraf":5256,"specielt":5257,"former":5258,"##cht":5259,"##abeth":5260,"søster":5261,"interesser":5262,"##svarende":5263,"##landshold":5264,"forældre":5265,"150":5266,"##spro":5267,"##fri":5268,"black":5269,"hjør":5270,"sign":5271,"##former":5272,"##stemer":5273,"##agne":5274,"forhind":5275,"1942":5276,"##iteten":5277,"økonomi":5278,"luc":5279,"skand":5280,"fjern":5281,"stiftet":5282,"##bens":5283,"levede":5284,"virksomheden":5285,"##rækning":5286,"ryg":5287,"slags":5288,"##ission":5289,"##udvik":5290,"hid":5291,"sovjetiske":5292,"oberst":5293,"aben":5294,"##iforn":5295,"##lan":5296,"wrest":5297,"desig":5298,"instruktør":5299,"##ev":5300,"##bus":5301,"mort":5302,"royal":5303,"tekst":5304,"udp":5305,"behandling":5306,"bolig":5307,"##kel":5308,"storm":5309,"##own":5310,"stemmer":5311,"##ington":5312,"##ligevel":5313,"dannede":5314,"1939":5315,"dyn":5316,"hast":5317,"stal":5318,"californ":5319,"ug":5320,"##svej":5321,"alligevel":5322,"##leg":5323,"kop":5324,"##osit":5325,"regn":5326,"betegnelsen":5327,"kristne":5328,"ub":5329,"udn":5330,"##unget":5331,"yngre":5332,"##rives":5333,"timer":5334,"anmel":5335,"kob":5336,"##raget":5337,"##flad":5338,"grønland":5339,"##folk":5340,"hørte":5341,"##splad":5342,"##ykkede":5343,"cykel":5344,"##forsk":5345,"kritik":5346,"stopp":5347,"handler":5348,"##omradet":5349,"tilg":5350,"172":5351,"organisation":5352,"energi":5353,"hk":5354,"strat":5355,"stemme":5356,"publik":5357,"resultater":5358,"##ior":5359,"arhus":5360,"anna":5361,"oven":5362,"billeder":5363,"los":5364,"inkluder":5365,"##isterne":5366,"forblev":5367,"##centr":5368,"##azz":5369,"foraret":5370,"fører":5371,"generelt":5372,"sociale":5373,"1962":5374,"gran":5375,"kontakt":5376,"tilføj":5377,"effekt":5378,"##oer":5379,"gram":5380,"private":5381,"russisk":5382,"socialdem":5383,"græsk":5384,"borgmester":5385,"##ara":5386,"regist":5387,"optradte":5388,"##ii":5389,"størrelse":5390,"arv":5391,"kommunalreformen":5392,"1963":5393,"vigtige":5394,"##urder":5395,"os":5396,"liber":5397,"##dal":5398,"##inske":5399,"forbundet":5400,"##ønd":5401,"##kvar":5402,"si":5403,"##rigt":5404,"##kretær":5405,"anders":5406,"titler":5407,"##aft":5408,"stre":5409,"eksempl":5410,"nap":5411,"##illes":5412,"klasse":5413,"flyve":5414,"fatt":5415,"gust":5416,"167":5417,"ændret":5418,"fas":5419,"placering":5420,"randers":5421,"##liv":5422,"ill":5423,"##ini":5424,"1946":5425,"oslo":5426,"position":5427,"up":5428,"giftede":5429,"berømte":5430,"##sels":5431,"hall":5432,"##kraft":5433,"begynder":5434,"oprør":5435,"biskop":5436,"orke":5437,"islam":5438,"bereg":5439,"stræ":5440,"##ski":5441,"1919":5442,"##iftet":5443,"nav":5444,"##rus":5445,"uger":5446,"jak":5447,"sammenhæng":5448,"nik":5449,"udviklingen":5450,"mosk":5451,"wilhelm":5452,"##40":5453,"##muse":5454,"eksempelvis":5455,"skil":5456,"oprindelig":5457,"##dik":5458,"##wn":5459,"cro":5460,"##imer":5461,"iv":5462,"præget":5463,"##somt":5464,"##sej":5465,"##hu":5466,"australien":5467,"tol":5468,"viden":5469,"trans":5470,"kold":5471,"sog":5472,"inspireret":5473,"lind":5474,"sagen":5475,"scorede":5476,"##ingerne":5477,"tilsvarende":5478,"##etter":5479,"##abel":5480,"styre":5481,"##uren":5482,"operation":5483,"venner":5484,"##ystem":5485,"gade":5486,"jernbane":5487,"larsen":5488,"cam":5489,"rot":5490,"opmær":5491,"angri":5492,"kaptajn":5493,"angrebet":5494,"##sende":5495,"regel":5496,"##valget":5497,"##værd":5498,"foreningen":5499,"enhed":5500,"universitetet":5501,"##bi":5502,"##bøl":5503,"##ool":5504,"united":5505,"37":5506,"invol":5507,"netop":5508,"epis":5509,"mistede":5510,"introduc":5511,"##inav":5512,"##spolit":5513,"pok":5514,"køre":5515,"pun":5516,"##ords":5517,"enheder":5518,"skar":5519,"computer":5520,"umiddel":5521,"rh":5522,"læge":5523,"møder":5524,"##løjtnant":5525,"student":5526,"##fyr":5527,"1912":5528,"spørgsmal":5529,"nut":5530,"##ep":5531,"##alget":5532,"##smænd":5533,"stop":5534,"religion":5535,"garden":5536,"##ira":5537,"delt":5538,"##dagen":5539,"##angreb":5540,"infanter":5541,"punkt":5542,"aften":5543,"##delsen":5544,"vækst":5545,"##ykning":5546,"##skud":5547,"1917":5548,"jøder":5549,"##wer":5550,"studier":5551,"75":5552,"dengang":5553,"konstant":5554,"1958":5555,"italiensk":5556,"##erende":5557,"tjekk":5558,"##jekter":5559,"mont":5560,"bestaende":5561,"sendte":5562,"##ipl":5563,"kone":5564,"ib":5565,"cast":5566,"fæst":5567,"flor":5568,"revolution":5569,"arme":5570,"foregar":5571,"##viste":5572,"cand":5573,"nogens":5574,"1947":5575,"hvorfor":5576,"##ida":5577,"ole":5578,"tvær":5579,"##nerne":5580,"##ient":5581,"##dam":5582,"##ukter":5583,"siger":5584,"##urnering":5585,"##ouse":5586,"landkreis":5587,"flag":5588,"undervisning":5589,"sur":5590,"geng":5591,"betydelig":5592,"rob":5593,"liste":5594,"atlet":5595,"bryg":5596,"##jon":5597,"36":5598,"1961":5599,"38":5600,"##ai":5601,"##adet":5602,"populære":5603,"omgang":5604,"seri":5605,"beskyt":5606,"middelalderen":5607,"nogensinde":5608,"tidligt":5609,"##usion":5610,"færd":5611,"altern":5612,"museet":5613,"rac":5614,"1956":5615,"planter":5616,"##tigheder":5617,"##somra":5618,"stærke":5619,"##ksis":5620,"købte":5621,"farver":5622,"##standen":5623,"autor":5624,"##iew":5625,"##valg":5626,"eksempler":5627,"bun":5628,"kommet":5629,"pul":5630,"tegnet":5631,"##reder":5632,"##gu":5633,"folketinget":5634,"##fil":5635,"pga":5636,"##ægter":5637,"skyldes":5638,"dann":5639,"kons":5640,"morgen":5641,"##foreningen":5642,"masse":5643,"græske":5644,"line":5645,"ri":5646,"skabte":5647,"##vern":5648,"1864":5649,"sundhed":5650,"kærlighed":5651,"fjord":5652,"##formand":5653,"##angel":5654,"##æssigt":5655,"kost":5656,"stav":5657,"max":5658,"##igen":5659,"##ror":5660,"##uddann":5661,"son":5662,"##sede":5663,"udvidet":5664,"havn":5665,"forfat":5666,"skol":5667,"abs":5668,"virksomheder":5669,"##ms":5670,"glob":5671,"1908":5672,"##ives":5673,"gaet":5674,"##skamp":5675,"1936":5676,"fugle":5677,"glas":5678,"flyttet":5679,"spid":5680,"socialdemokrat":5681,"##out":5682,"born":5683,"verdensmester":5684,"##istan":5685,"territ":5686,"tus":5687,"##oper":5688,"south":5689,"gas":5690,"##hoved":5691,"melod":5692,"##navne":5693,"##ffer":5694,"##fa":5695,"fried":5696,"##stor":5697,"169":5698,"kanal":5699,"sandsynligvis":5700,"bronz":5701,"ungdoms":5702,"##best":5703,"##sbjerg":5704,"bevaret":5705,"##aling":5706,"##ockey":5707,"origin":5708,"##mir":5709,"1938":5710,"arkæ":5711,"1914":5712,"ros":5713,"statens":5714,"1949":5715,"##vogn":5716,"1935":5717,"charles":5718,"reform":5719,"helsing":5720,"passer":5721,"##ail":5722,"##mund":5723,"##støt":5724,"num":5725,"##30":5726,"nedlagt":5727,"begrebet":5728,"leve":5729,"plant":5730,"bat":5731,"##ønder":5732,"stadion":5733,"artikler":5734,"hjælpe":5735,"søen":5736,"##handlinger":5737,"kaldte":5738,"##aven":5739,"king":5740,"##kendte":5741,"##flade":5742,"1952":5743,"afhæng":5744,"organ":5745,"opgave":5746,"bemærk":5747,"jagt":5748,"##ellem":5749,"posit":5750,"dyrk":5751,"kvart":5752,"information":5753,"jar":5754,"open":5755,"sant":5756,"uh":5757,"##afrika":5758,"forkort":5759,"dal":5760,"##fjorden":5761,"##irken":5762,"udgangspunkt":5763,"oscar":5764,"##wood":5765,"oprindelse":5766,"mit":5767,"slottet":5768,"1955":5769,"indbygger":5770,"klubbens":5771,"ern":5772,"##test":5773,"otto":5774,"sw":5775,"ton":5776,"##skon":5777,"##minister":5778,"bronze":5779,"##ømmer":5780,"carol":5781,"##ago":5782,"1910":5783,"kilde":5784,"blomster":5785,"fejl":5786,"forvent":5787,"farve":5788,"semif":5789,"indgik":5790,"##unt":5791,"kloster":5792,"jazz":5793,"civil":5794,"frugt":5795,"taler":5796,"hvorved":5797,"##slev":5798,"materiale":5799,"victor":5800,"efterful":5801,"egentlig":5802,"48":5803,"gælder":5804,"mob":5805,"##mo":5806,"søgte":5807,"nyere":5808,"##otte":5809,"##øve":5810,"34":5811,"gi":5812,"meg":5813,"dennes":5814,"##ibe":5815,"erstattet":5816,"vejle":5817,"status":5818,"tilknyttet":5819,"nordiske":5820,"hvilke":5821,"##edel":5822,"##komst":5823,"rem":5824,"hovedstaden":5825,"##sler":5826,"argent":5827,"##10":5828,"165":5829,"provins":5830,"koncentr":5831,"fungerede":5832,"old":5833,"invas":5834,"##kendelse":5835,"temperatur":5836,"albert":5837,"kra":5838,"hensyn":5839,"afgørende":5840,"skel":5841,"neg":5842,"1924":5843,"rester":5844,"resul":5845,"##uf":5846,"##rifter":5847,"behov":5848,"seneste":5849,"anlagt":5850,"##tel":5851,"foresl":5852,"fjorden":5853,"##række":5854,"sidder":5855,"##strøm":5856,"betydninger":5857,"song":5858,"##person":5859,"##ls":5860,"forsta":5861,"udelukkende":5862,"bøl":5863,"##sti":5864,"nordisk":5865,"1921":5866,"hø":5867,"beskrevet":5868,"1959":5869,"spænd":5870,"##iro":5871,"##esten":5872,"##rien":5873,"rasmussen":5874,"bebygg":5875,"dep":5876,"astron":5877,"##ydning":5878,"frihed":5879,"bogst":5880,"fremtid":5881,"##gaet":5882,"havne":5883,"1953":5884,"ker":5885,"ske":5886,"1957":5887,"øer":5888,"færøerne":5889,"##delingen":5890,"yd":5891,"##bor":5892,"moder":5893,"særlige":5894,"##ianske":5895,"##kred":5896,"omtr":5897,"##ank":5898,"varme":5899,"##bund":5900,"trin":5901,"fart":5902,"school":5903,"##bered":5904,"benyttet":5905,"ens":5906,"600":5907,"slægten":5908,"stations":5909,"lyng":5910,"1937":5911,"medvirkede":5912,"ophold":5913,"stykke":5914,"##slut":5915,"flertal":5916,"1916":5917,"boldklub":5918,"myt":5919,"typer":5920,"praksis":5921,"##ilde":5922,"vise":5923,"træn":5924,"gods":5925,"##illing":5926,"overvej":5927,"kunstnere":5928,"kam":5929,"##ussen":5930,"1700":5931,"dokumentarfilm":5932,"##skende":5933,"hovedsageligt":5934,"1933":5935,"kristian":5936,"##slet":5937,"1906":5938,"##delte":5939,"øjeblik":5940,"lut":5941,"mac":5942,"køn":5943,"resp":5944,"hvori":5945,"boks":5946,"##huse":5947,"jean":5948,"berg":5949,"##zen":5950,"cd":5951,"vent":5952,"55":5953,"fodboldklub":5954,"1954":5955,"optræder":5956,"olie":5957,"vandet":5958,"eksemplarer":5959,"dk":5960,"##lek":5961,"rykkede":5962,"##gangen":5963,"##ios":5964,"modtaget":5965,"##fulde":5966,"##omb":5967,"##seende":5968,"800":5969,"beret":5970,"##skr":5971,"prinsesse":5972,"landskab":5973,"##vok":5974,"ankl":5975,"tegn":5976,"##staende":5977,"olympiske":5978,"##cept":5979,"##chsen":5980,"reduc":5981,"mission":5982,"nederlag":5983,"hæren":5984,"skær":5985,"##øger":5986,"optag":5987,"delstaten":5988,"minister":5989,"udenfor":5990,"udgjorde":5991,"mund":5992,"##ender":5993,"lagde":5994,"##iplin":5995,"abne":5996,"##ination":5997,"ox":5998,"##ual":5999,"nærheden":6000,"jakob":6001,"indgar":6002,"##taler":6003,"moskva":6004,"minde":6005,"indien":6006,"##enden":6007,"hitler":6008,"søren":6009,"##købing":6010,"assist":6011,"salg":6012,"parlament":6013,"39":6014,"you":6015,"grundlag":6016,"malt":6017,"die":6018,"##oft":6019,"ori":6020,"muligvis":6021,"tydel":6022,"base":6023,"kim":6024,"lanc":6025,"##kap":6026,"##instru":6027,"medarbej":6028,"##aw":6029,"betegnelse":6030,"jørg":6031,"##ned":6032,"uly":6033,"bot":6034,"knyttet":6035,"soph":6036,"##industri":6037,"regnes":6038,"gold":6039,"brigade":6040,"##ensborg":6041,"malet":6042,"##alske":6043,"panser":6044,"individ":6045,"borgerkrig":6046,"alexander":6047,"##ters":6048,"turnering":6049,"joseph":6050,"salt":6051,"adam":6052,"1928":6053,"##øbt":6054,"vurder":6055,"##ificerede":6056,"hvorfra":6057,"virke":6058,"##urs":6059,"rollen":6060,"omtrent":6061,"160":6062,"beskrivelse":6063,"kroner":6064,"high":6065,"parret":6066,"##ule":6067,"nævnt":6068,"supp":6069,"traditionelle":6070,"##gjorde":6071,"strateg":6072,"166":6073,"afdeling":6074,"1890":6075,"henvise":6076,"colle":6077,"1932":6078,"##ux":6079,"##ærket":6080,"##emed":6081,"fuldstænd":6082,"kategori":6083,"territor":6084,"dest":6085,"kontin":6086,"ukra":6087,"fad":6088,"fordelt":6089,"##fatter":6090,"pabeg":6091,"publikum":6092,"##tende":6093,"gaden":6094,"##handler":6095,"team":6096,"42":6097,"fremstillet":6098,"artiller":6099,"petersen":6100,"skandinav":6101,"##dyr":6102,"fængsel":6103,"cas":6104,"lab":6105,"##ella":6106,"camp":6107,"rent":6108,"por":6109,"frivil":6110,"pladsen":6111,"observ":6112,"##parti":6113,"biograf":6114,"##vard":6115,"1870":6116,"sum":6117,"symp":6118,"rut":6119,"aftale":6120,"hill":6121,"mødt":6122,"##arn":6123,"dækker":6124,"dipl":6125,"personlige":6126,"##oli":6127,"1934":6128,"mord":6129,"omtale":6130,"##laget":6131,"##uelt":6132,"internet":6133,"tag":6134,"bane":6135,"1911":6136,"##gruppen":6137,"mesterskabet":6138,"ki":6139,"litau":6140,"##yll":6141,"1913":6142,"##lade":6143,"##vogne":6144,"##stillingen":6145,"dor":6146,"##smedlem":6147,"##gem":6148,"tryk":6149,"##historie":6150,"kvindelige":6151,"silke":6152,"cap":6153,"##atten":6154,"harry":6155,"##ville":6156,"holder":6157,"osm":6158,"ære":6159,"anvendelse":6160,"brun":6161,"164":6162,"intet":6163,"lavede":6164,"liga":6165,"##fundet":6166,"christensen":6167,"officer":6168,"##ude":6169,"repræsenterede":6170,"##ert":6171,"##vejs":6172,"##ærke":6173,"uge":6174,"##vækst":6175,"øvrigt":6176,"##lænd":6177,"bord":6178,"##ye":6179,"##ppet":6180,"kre":6181,"##jeneste":6182,"bevis":6183,"1905":6184,"afsked":6185,"hart":6186,"bestyrelsen":6187,"##ary":6188,"##mi":6189,"1929":6190,"1925":6191,"wind":6192,"umiddelbart":6193,"firmaet":6194,"##center":6195,"kirker":6196,"sognet":6197,"tegne":6198,"dyre":6199,"tider":6200,"bayern":6201,"garde":6202,"##bill":6203,"frig":6204,"##ikke":6205,"##essen":6206,"partier":6207,"##ræft":6208,"##ship":6209,"projektet":6210,"modeller":6211,"##lund":6212,"##alerne":6213,"1909":6214,"##orien":6215,"iii":6216,"##ighederne":6217,"fotograf":6218,"registr":6219,"##møl":6220,"anton":6221,"allian":6222,"harald":6223,"etablerede":6224,"##pel":6225,"synes":6226,"populær":6227,"##sborg":6228,"##ase":6229,"straff":6230,"beskriver":6231,"##bud":6232,"##go":6233,"##gene":6234,"overv":6235,"kors":6236,"kore":6237,"##efon":6238,"##skrifter":6239,"bod":6240,"sports":6241,"løn":6242,"time":6243,"tarn":6244,"##ipper":6245,"tidlig":6246,"data":6247,"elever":6248,"erfar":6249,"indhold":6250,"eksper":6251,"bevægelse":6252,"mængde":6253,"##kommende":6254,"pub":6255,"emil":6256,"ish":6257,"1901":6258,"opera":6259,"øverste":6260,"cy":6261,"cop":6262,"##ove":6263,"##stillinger":6264,"##arbejdet":6265,"dø":6266,"##ita":6267,"skud":6268,"margret":6269,"dør":6270,"indviet":6271,"tæn":6272,"##spe":6273,"records":6274,"##selskab":6275,"plante":6276,"komposition":6277,"festival":6278,"##gra":6279,"efterfølger":6280,"stigende":6281,"47":6282,"sne":6283,"kh":6284,"##ming":6285,"kalk":6286,"##serne":6287,"ec":6288,"korte":6289,"ja":6290,"nøj":6291,"##kerne":6292,"konse":6293,"heriblandt":6294,"fant":6295,"elementer":6296,"##steder":6297,"##isere":6298,"takt":6299,"byggede":6300,"omfattede":6301,"front":6302,"bang":6303,"##arder":6304,"vice":6305,"væsentlig":6306,"play":6307,"koncert":6308,"##ladt":6309,"friedrich":6310,"##rieren":6311,"1951":6312,"##iler":6313,"1915":6314,"1904":6315,"trække":6316,"ansatte":6317,"dim":6318,"##angen":6319,"klart":6320,"produktionen":6321,"##videnskab":6322,"major":6323,"##bach":6324,"strid":6325,"##aks":6326,"esk":6327,"programmer":6328,"enhver":6329,"straks":6330,"##sjæl":6331,"41":6332,"not":6333,"accep":6334,"##elin":6335,"religiøse":6336,"gæ":6337,"##bare":6338,"elis":6339,"højest":6340,"tilgæng":6341,"1922":6342,"##ci":6343,"forklar":6344,"størsted":6345,"digter":6346,"faktisk":6347,"##akadem":6348,"##onstr":6349,"anses":6350,"studenter":6351,"def":6352,"tekniske":6353,"1880":6354,"saint":6355,"skild":6356,"##vernør":6357,"sjælland":6358,"tyskerne":6359,"##anerne":6360,"afrika":6361,"es":6362,"forars":6363,"procent":6364,"stjerne":6365,"etabler":6366,"tilsyn":6367,"##førelse":6368,"##ding":6369,"##21":6370,"assoc":6371,"##tedes":6372,"horn":6373,"sidstnævnte":6374,"##see":6375,"##lim":6376,"ødelæg":6377,"##urer":6378,"##hn":6379,"##ads":6380,"##uck":6381,"rejser":6382,"fon":6383,"##fuld":6384,"cit":6385,"smith":6386,"nørre":6387,"indbyggertal":6388,"arm":6389,"##usen":6390,"sønner":6391,"trakt":6392,"kommunik":6393,"overtaget":6394,"abnet":6395,"heste":6396,"aktiviteter":6397,"##spring":6398,"neut":6399,"bornholm":6400,"planer":6401,"ført":6402,"##ypten":6403,"femte":6404,"forp":6405,"##medalje":6406,"stater":6407,"##ninge":6408,"##umb":6409,"##mene":6410,"gengæld":6411,"##ykke":6412,"hjemmes":6413,"pag":6414,"lim":6415,"medførte":6416,"##ston":6417,"##stør":6418,"stof":6419,"deltage":6420,"damp":6421,"esbjerg":6422,"nederland":6423,"californien":6424,"hospital":6425,"male":6426,"##atør":6427,"dertil":6428,"anledning":6429,"belgien":6430,"indført":6431,"dir":6432,"mexico":6433,"præsen":6434,"forslag":6435,"nomineret":6436,"undga":6437,"johann":6438,"pension":6439,"##por":6440,"mult":6441,"sæsoner":6442,"##ped":6443,"##værks":6444,"kører":6445,"##ivt":6446,"claus":6447,"65":6448,"skade":6449,"olsen":6450,"last":6451,"atom":6452,"##garden":6453,"stednavne":6454,"##famil":6455,"##linger":6456,"vigtigt":6457,"1500":6458,"champion":6459,"##ike":6460,"kendet":6461,"##bevæg":6462,"club":6463,"##lægning":6464,"biografi":6465,"##bel":6466,"##produktion":6467,"##ds":6468,"flygt":6469,"parken":6470,"bærer":6471,"##ues":6472,"domin":6473,"ledet":6474,"skriver":6475,"klima":6476,"størstedelen":6477,"jack":6478,"lee":6479,"arige":6480,"##skriver":6481,"##navnet":6482,"besejrede":6483,"ron":6484,"spansk":6485,"1923":6486,"levende":6487,"##kirke":6488,"pedersen":6489,"##last":6490,"fel":6491,"andreas":6492,"##visning":6493,"fn":6494,"##kunst":6495,"værdi":6496,"1907":6497,"##æge":6498,"mos":6499,"stren":6500,"flad":6501,"##major":6502,"ungarn":6503,"##gelsen":6504,"skyld":6505,"arrangeret":6506,"##miral":6507,"##tryk":6508,"munchen":6509,"43":6510,"wash":6511,"græken":6512,"##urneringen":6513,"koncerter":6514,"##somme":6515,"nationalpark":6516,"##bur":6517,"benz":6518,"rumæn":6519,"##ktionen":6520,"korre":6521,"fungerer":6522,"priser":6523,"indspillet":6524,"##iter":6525,"redaktør":6526,"hind":6527,"mary":6528,"begrænset":6529,"##ones":6530,"##atis":6531,"midlertid":6532,"##kore":6533,"klassen":6534,"flyv":6535,"tidsskrift":6536,"##offet":6537,"ingeniør":6538,"##kkes":6539,"1848":6540,"gyld":6541,"professionelle":6542,"##uller":6543,"ryt":6544,"##anen":6545,"undersk":6546,"##ypt":6547,"vende":6548,"opmærksomhed":6549,"spir":6550,"##aard":6551,"##oger":6552,"etn":6553,"##byr":6554,"ent":6555,"rud":6556,"klassiske":6557,"udlandet":6558,"egentlige":6559,"##forbindel":6560,"##ødet":6561,"##inter":6562,"nærmest":6563,"##dr":6564,"kraftig":6565,"tilhører":6566,"44":6567,"##nam":6568,"##onom":6569,"korps":6570,"imellem":6571,"indeholdt":6572,"ønsker":6573,"##grøn":6574,"sønd":6575,"out":6576,"eftersom":6577,"##liste":6578,"ild":6579,"##forhold":6580,"firma":6581,"##ari":6582,"manch":6583,"neden":6584,"kandidat":6585,"##ydende":6586,"satell":6587,"##svalget":6588,"knap":6589,"steg":6590,"modellen":6591,"ændringer":6592,"katolske":6593,"##forbund":6594,"fremtræ":6595,"jurid":6596,"##ustr":6597,"1926":6598,"1903":6599,"tradte":6600,"##ows":6601,"simon":6602,"bidrag":6603,"bredde":6604,"pabegynd":6605,"##edet":6606,"bosæt":6607,"magn":6608,"undersøgelser":6609,"##reds":6610,"##position":6611,"##isse":6612,"sæd":6613,"udford":6614,"##irektør":6615,"omfang":6616,"spring":6617,"##herre":6618,"arkitektur":6619,"##skær":6620,"deltager":6621,"opfatt":6622,"gustav":6623,"ødelagt":6624,"henry":6625,"øerne":6626,"ender":6627,"mek":6628,"##cy":6629,"##stiden":6630,"hein":6631,"##fladen":6632,"hollandske":6633,"disciplin":6634,"washington":6635,"internationalt":6636,"videnskabelige":6637,"forekommer":6638,"##kæmp":6639,"vidt":6640,"dygt":6641,"terror":6642,"angeles":6643,"sætte":6644,"symfon":6645,"tilst":6646,"opgaver":6647,"bibliotek":6648,"øl":6649,"føre":6650,"adsk":6651,"##ellen":6652,"magten":6653,"stillede":6654,"##hjem":6655,"kinesiske":6656,"##institut":6657,"venskab":6658,"##orges":6659,"bab":6660,"job":6661,"##usa":6662,"##alsk":6663,"##slen":6664,"annon":6665,"##vo":6666,"lukket":6667,"##gin":6668,"##vind":6669,"00":6670,"filosofi":6671,"opford":6672,"##pris":6673,"repræsenteret":6674,"bass":6675,"##erium":6676,"demonstr":6677,"bugt":6678,"ube":6679,"arligt":6680,"politiet":6681,"omgiv":6682,"forretning":6683,"va":6684,"gerne":6685,"##feldt":6686,"afstand":6687,"administration":6688,"valdem":6689,"relativt":6690,"papir":6691,"belej":6692,"krat":6693,"120":6694,"##lagte":6695,"1927":6696,"betragtes":6697,"gem":6698,"udtalte":6699,"##formede":6700,"##løs":6701,"##bas":6702,"risik":6703,"##eten":6704,"skrifter":6705,"##værket":6706,"##program":6707,"##tain":6708,"stræk":6709,"systemet":6710,"selvstændig":6711,"lor":6712,"##grupper":6713,"hertugd":6714,"varet":6715,"viet":6716,"fat":6717,"##brød":6718,"##uropa":6719,"fuldt":6720,"kysten":6721,"kw":6722,"1600":6723,"generalmajor":6724,"##sministeriet":6725,"49":6726,"hovedrol":6727,"##yb":6728,"udm":6729,"blade":6730,"frø":6731,"grundlagde":6732,"##sætte":6733,"pladser":6734,"1902":6735,"##fru":6736,"indledende":6737,"konkurrence":6738,"##okk":6739,"que":6740,"1931":6741,"tvang":6742,"jørgensen":6743,"skotland":6744,"afviklet":6745,"eksterne":6746,"kolding":6747,"##tegr":6748,"tilby":6749,"##offic":6750,"##søg":6751,"##struktur":6752,"##fisk":6753,"hede":6754,"##any":6755,"##iks":6756,"sla":6757,"udenlandske":6758,"sadanne":6759,"64":6760,"1000":6761,"ejet":6762,"##hard":6763,"##ippe":6764,"##mor":6765,"besøg":6766,"52":6767,"##ska":6768,"##ommer":6769,"sophie":6770,"##hug":6771,"##gn":6772,"##uble":6773,"udvikle":6774,"##dele":6775,"studerende":6776,"fortr":6777,"pav":6778,"lavere":6779,"tøj":6780,"radik":6781,"##ieret":6782,"##itel":6783,"jævn":6784,"norges":6785,"pak":6786,"mølle":6787,"##polit":6788,"##giver":6789,"##skland":6790,"holm":6791,"##ime":6792,"analy":6793,"hidtil":6794,"ræ":6795,"vo":6796,"##itte":6797,"##ætter":6798,"indsats":6799,"resultatet":6800,"##schef":6801,"##ænomen":6802,"1896":6803,"ramt":6804,"##yre":6805,"grønne":6806,"##kreds":6807,"700":6808,"##ragte":6809,"varer":6810,"billede":6811,"##bladet":6812,"sjældent":6813,"lam":6814,"bob":6815,"bevid":6816,"##sund":6817,"##igede":6818,"foregik":6819,"##board":6820,"egenskaber":6821,"ændrede":6822,"benyttede":6823,"championship":6824,"##voks":6825,"##elighed":6826,"pers":6827,"teori":6828,"grækenland":6829,"brønd":6830,"ydre":6831,"myr":6832,"hellig":6833,"nas":6834,"indian":6835,"dramat":6836,"miner":6837,"##iges":6838,"tennis":6839,"pæ":6840,"svært":6841,"##hjæl":6842,"46":6843,"ishockey":6844,"##bes":6845,"1860":6846,"ligaen":6847,"konservative":6848,"organisationen":6849,"aktive":6850,"##idler":6851,"almindeligt":6852,"designet":6853,"##kvarter":6854,"finale":6855,"alf":6856,"plat":6857,"lege":6858,"nob":6859,"##partem":6860,"veg":6861,"geograf":6862,"kørte":6863,"forret":6864,"mulig":6865,"diam":6866,"rør":6867,"kanon":6868,"kontor":6869,"horsens":6870,"generation":6871,"sab":6872,"##uds":6873,"alb":6874,"ax":6875,"natten":6876,"udgivelsen":6877,"drag":6878,"osv":6879,"ple":6880,"##sem":6881,"##efa":6882,"1898":6883,"bragte":6884,"vul":6885,"finske":6886,"gri":6887,"toppen":6888,"##ves":6889,"kæmpe":6890,"sus":6891,"formentlig":6892,"##forfatter":6893,"##anne":6894,"svarer":6895,"udstyret":6896,"153":6897,"54":6898,"gennembrud":6899,"talrige":6900,"elisabeth":6901,"##chef":6902,"hverken":6903,"kos":6904,"hyl":6905,"##kurren":6906,"##vaben":6907,"dokumenter":6908,"dommer":6909,"##ulde":6910,"kirkens":6911,"1850":6912,"patri":6913,"tabt":6914,"rappor":6915,"gennemført":6916,"1899":6917,"##anke":6918,"planlagt":6919,"hænd":6920,"flensborg":6921,"##view":6922,"##ytning":6923,"napole":6924,"##inas":6925,"stjerner":6926,"irland":6927,"##ova":6928,"##strækk":6929,"##oter":6930,"radi":6931,"viol":6932,"overbe":6933,"flyet":6934,"fange":6935,"##but":6936,"efterfulgt":6937,"##rende":6938,"##holdes":6939,"##mos":6940,"##omet":6941,"klost":6942,"rekl":6943,"##formet":6944,"##ligaen":6945,"##karriere":6946,"oversat":6947,"artier":6948,"##hur":6949,"regler":6950,"sende":6951,"primære":6952,"integr":6953,"medier":6954,"##kes":6955,"tilhørte":6956,"##gav":6957,"oprettede":6958,"rets":6959,"gj":6960,"web":6961,"##una":6962,"##erence":6963,"bonde":6964,"college":6965,"##arig":6966,"jacks":6967,"arten":6968,"aller":6969,"bestemte":6970,"##hi":6971,"fed":6972,"mass":6973,"163":6974,"forbered":6975,"kommerc":6976,"hammer":6977,"tvunget":6978,"ss":6979,"osmann":6980,"##ordin":6981,"ærke":6982,"##istik":6983,"vokser":6984,"hjal":6985,"musikken":6986,"kend":6987,"ringe":6988,"roller":6989,"bortset":6990,"ska":6991,"pin":6992,"##80":6993,"lyst":6994,"overflade":6995,"gren":6996,"lyngby":6997,"##slin":6998,"##din":6999,"aud":7000,"kraftigt":7001,"##givning":7002,"orkester":7003,"turne":7004,"##fte":7005,"forand":7006,"vill":7007,"finan":7008,"##inerne":7009,"##egnet":7010,"56":7011,"kæmpede":7012,"kvalifikation":7013,"##yen":7014,"lis":7015,"##system":7016,"press":7017,"1897":7018,"kristendom":7019,"væ":7020,"##stog":7021,"##alog":7022,"bogstav":7023,"effektiv":7024,"drev":7025,"herre":7026,"arbejds":7027,"##cess":7028,"lib":7029,"asp":7030,"##oster":7031,"##alderen":7032,"##isterende":7033,"ve":7034,"vig":7035,"forbru":7036,"##vil":7037,"##manden":7038,"asien":7039,"back":7040,"hop":7041,"uefa":7042,"kvad":7043,"hjemsted":7044,"kab":7045,"##tt":7046,"##sberg":7047,"erklærede":7048,"##ktar":7049,"hardt":7050,"rekord":7051,"53":7052,"##fest":7053,"føder":7054,"uen":7055,"skoler":7056,"ukendt":7057,"afd":7058,"francis":7059,"posten":7060,"øk":7061,"##ute":7062,"serb":7063,"kru":7064,"##elskab":7065,"##varer":7066,"##yldte":7067,"brasilien":7068,"astronom":7069,"væg":7070,"anset":7071,"forholdet":7072,"mog":7073,"##telses":7074,"##ision":7075,"jødiske":7076,"##ics":7077,"##issionen":7078,"premiere":7079,"tønder":7080,"1863":7081,"east":7082,"golf":7083,"ball":7084,"parlamentet":7085,"##kommand":7086,"green":7087,"oplysninger":7088,"klaver":7089,"##ellet":7090,"ler":7091,"pige":7092,"##bøger":7093,"##inn":7094,"##ivl":7095,"##utsch":7096,"kinesisk":7097,"offentliggjort":7098,"dm":7099,"##dagog":7100,"engang":7101,"france":7102,"talent":7103,"##bal":7104,"mem":7105,"##talen":7106,"##side":7107,"sønnen":7108,"ønske":7109,"1888":7110,"vinteren":7111,"leon":7112,"inklus":7113,"udsat":7114,"grundet":7115,"sed":7116,"prøv":7117,"besøgte":7118,"51":7119,"##ican":7120,"landsk":7121,"forestill":7122,"overord":7123,"talte":7124,"##ræts":7125,"varier":7126,"doll":7127,"bibliote":7128,"fusion":7129,"river":7130,"##shavn":7131,"##sløb":7132,"ordre":7133,"poly":7134,"dynast":7135,"##line":7136,"1885":7137,"hyd":7138,"ing":7139,"1894":7140,"mesterskaber":7141,"##agede":7142,"sket":7143,"optræden":7144,"##ain":7145,"##anda":7146,"1895":7147,"studiet":7148,"##prisen":7149,"##handel":7150,"falder":7151,"romersk":7152,"arrest":7153,"linjer":7154,"tilp":7155,"interview":7156,"silkeborg":7157,"drik":7158,"grundlæggende":7159,"advok":7160,"##ligheden":7161,"big":7162,"indf":7163,"indvand":7164,"angiv":7165,"teknisk":7166,"161":7167,"drevet":7168,"smal":7169,"barnd":7170,"##enburg":7171,"fremme":7172,"daglig":7173,"kompagn":7174,"forenede":7175,"foretog":7176,"mening":7177,"kongeriget":7178,"che":7179,"rummer":7180,"##redes":7181,"##bror":7182,"sørensen":7183,"isol":7184,"##retten":7185,"mak":7186,"##iansk":7187,"avisen":7188,"jor":7189,"##ota":7190,"barndom":7191,"sakaldt":7192,"kronpr":7193,"civ":7194,"diplomat":7195,"veje":7196,"1884":7197,"hest":7198,"schw":7199,"##agere":7200,"##oe":7201,"grader":7202,"lem":7203,"provsti":7204,"##krateret":7205,"akk":7206,"##nar":7207,"##orm":7208,"##aster":7209,"louise":7210,"overra":7211,"udval":7212,"virgin":7213,"57":7214,"till":7215,"tilslut":7216,"illustr":7217,"tegninger":7218,"jesus":7219,"faderen":7220,"faste":7221,"esp":7222,"##ktorer":7223,"bandets":7224,"jub":7225,"##zer":7226,"##sey":7227,"250":7228,"##lager":7229,"1892":7230,"forhand":7231,"karrieren":7232,"##pet":7233,"##oslav":7234,"##feld":7235,"gymnasium":7236,"##rere":7237,"automat":7238,"kræver":7239,"street":7240,"scott":7241,"##virksomhed":7242,"initi":7243,"repræsentant":7244,"anerkendt":7245,"##skibet":7246,"rab":7247,"##zo":7248,"##antz":7249,"tekster":7250,"hypp":7251,"fro":7252,"yo":7253,"emb":7254,"greve":7255,"##ralt":7256,"peters":7257,"##spart":7258,"##istrik":7259,"anti":7260,"##lægt":7261,"samle":7262,"vild":7263,"##holt":7264,"prædik":7265,"##edrag":7266,"uafhængighed":7267,"adolf":7268,"marc":7269,"##kammer":7270,"øj":7271,"produkt":7272,"undersøgelse":7273,"spilles":7274,"##las":7275,"forløb":7276,"magas":7277,"##kost":7278,"##sku":7279,"##idge":7280,"alp":7281,"korn":7282,"1889":7283,"udgivelse":7284,"menes":7285,"understøt":7286,"rit":7287,"##kant":7288,"udbrud":7289,"soci":7290,"1866":7291,"one":7292,"##ora":7293,"group":7294,"##akte":7295,"opdaget":7296,"dømt":7297,"##eringer":7298,"vag":7299,"kampene":7300,"lyse":7301,"ernst":7302,"kanalen":7303,"edward":7304,"artikel":7305,"forlade":7306,"forlæng":7307,"162":7308,"kunstakadem":7309,"ner":7310,"##etisk":7311,"kanoner":7312,"tw":7313,"##ae":7314,"reaktion":7315,"arabiske":7316,"nikola":7317,"idræts":7318,"##unkter":7319,"oce":7320,"senest":7321,"medicin":7322,"tak":7323,"1879":7324,"skat":7325,"service":7326,"##ese":7327,"produkter":7328,"total":7329,"##inar":7330,"##skriv":7331,"parall":7332,"scene":7333,"daniel":7334,"virkede":7335,"##ordenen":7336,"hundrede":7337,"polske":7338,"perioder":7339,"##ani":7340,"teatret":7341,"##ental":7342,"##pladser":7343,"##bon":7344,"henvisninger":7345,"kreis":7346,"##ementer":7347,"##mord":7348,"retten":7349,"egypten":7350,"##chel":7351,"##delinger":7352,"betjen":7353,"##samlingen":7354,"##telser":7355,"anbe":7356,"spej":7357,"forholdsvis":7358,"##eser":7359,"##ware":7360,"konkurrencen":7361,"milli":7362,"mængder":7363,"##ahl":7364,"sejl":7365,"85":7366,"hug":7367,"##ikt":7368,"##etiske":7369,"##væsen":7370,"klassisk":7371,"annonc":7372,"røn":7373,"arhundreder":7374,"nordamerika":7375,"##fløj":7376,"antag":7377,"##skol":7378,"##asien":7379,"universitets":7380,"kommandør":7381,"##øy":7382,"gruppens":7383,"fænomen":7384,"video":7385,"##atisk":7386,"##leks":7387,"lukkede":7388,"foot":7389,"##ikeren":7390,"monark":7391,"las":7392,"pave":7393,"1893":7394,"util":7395,"##erslev":7396,"grundlov":7397,"amager":7398,"hon":7399,"mikro":7400,"##melser":7401,"regiment":7402,"guvernør":7403,"fremtrædende":7404,"varede":7405,"##sky":7406,"blok":7407,"##løbet":7408,"##sjælland":7409,"hellige":7410,"tex":7411,"##sburg":7412,"sikrede":7413,"støttede":7414,"awards":7415,"##bte":7416,"1882":7417,"repræsentanter":7418,"##gener":7419,"sky":7420,"lens":7421,"##ænget":7422,"befinder":7423,"eventyr":7424,"dub":7425,"fremstilling":7426,"##ligheder":7427,"pic":7428,"opdelt":7429,"hertil":7430,"købt":7431,"muslim":7432,"1883":7433,"frie":7434,"fris":7435,"værket":7436,"vokal":7437,"##indes":7438,"modern":7439,"semifin":7440,"foretaget":7441,"perman":7442,"fattig":7443,"nøg":7444,"sir":7445,"##ikring":7446,"les":7447,"rettigheder":7448,"##æssig":7449,"##iber":7450,"##onien":7451,"mader":7452,"ww":7453,"##aker":7454,"##lyst":7455,"sagt":7456,"##frem":7457,"afrik":7458,"udstilling":7459,"1872":7460,"emner":7461,"slav":7462,"udvalg":7463,"##liga":7464,"administrative":7465,"endda":7466,"kobber":7467,"dekor":7468,"naturlige":7469,"##ides":7470,"loven":7471,"tilladelse":7472,"bevidst":7473,"vas":7474,"bekræft":7475,"##ykt":7476,"forsøger":7477,"grunden":7478,"##veks":7479,"medvirkende":7480,"involveret":7481,"kav":7482,"##dan":7483,"##skal":7484,"##aterne":7485,"digte":7486,"budd":7487,"1891":7488,"arn":7489,"specifik":7490,"##col":7491,"##eriode":7492,"##ife":7493,"skulpt":7494,"krævede":7495,"human":7496,"##sse":7497,"alko":7498,"vores":7499,"omtales":7500,"listen":7501,"##yllands":7502,"##teres":7503,"seg":7504,"østers":7505,"musiker":7506,"betale":7507,"prom":7508,"##tte":7509,"public":7510,"##endens":7511,"##uch":7512,"aff":7513,"præste":7514,"##atorium":7515,"levet":7516,"zo":7517,"ledende":7518,"ejede":7519,"sædvan":7520,"##bord":7521,"##organisation":7522,"halvdelen":7523,"afløst":7524,"helsingør":7525,"myndigheder":7526,"##hm":7527,"kreds":7528,"starter":7529,"##mændene":7530,"math":7531,"brygger":7532,"valdemar":7533,"##delses":7534,"stabil":7535,"forsamling":7536,"##bevar":7537,"1871":7538,"strækker":7539,"deltagere":7540,"stoppede":7541,"tilstand":7542,"drog":7543,"vogn":7544,"##melige":7545,"morten":7546,"numre":7547,"95":7548,"feder":7549,"mø":7550,"bronzemed":7551,"manglende":7552,"##hjul":7553,"tarnet":7554,"##wald":7555,"udgrav":7556,"mindste":7557,"originale":7558,"broen":7559,"fortsætte":7560,"situation":7561,"##ologien":7562,"##stedet":7563,"spidsen":7564,"##jern":7565,"linjen":7566,"##eløb":7567,"opnaet":7568,"omtalt":7569,"main":7570,"##baner":7571,"##ahn":7572,"american":7573,"preuss":7574,"##fir":7575,"fjernet":7576,"##deren":7577,"konvent":7578,"bergen":7579,"premierminister":7580,"ost":7581,"##inerende":7582,"##have":7583,"uds":7584,"##eger":7585,"beskrev":7586,"romant":7587,"1875":7588,"edvard":7589,"jernbanest":7590,"##raf":7591,"sex":7592,"rute":7593,"58":7594,"jernbanen":7595,"forfatteren":7596,"##amin":7597,"lid":7598,"1862":7599,"wrestling":7600,"##ua":7601,"dækket":7602,"bekendt":7603,"brede":7604,"##cern":7605,"##well":7606,"anim":7607,"jylland":7608,"sun":7609,"told":7610,"uf":7611,"##saf":7612,"baron":7613,"hektar":7614,"99":7615,"##elsens":7616,"birk":7617,"vit":7618,"jug":7619,"komed":7620,"andel":7621,"##klæd":7622,"##hæv":7623,"anvendte":7624,"##somrade":7625,"definition":7626,"##spillede":7627,"tidens":7628,"beting":7629,"arve":7630,"gall":7631,"##ox":7632,"lette":7633,"jim":7634,"##hof":7635,"##stol":7636,"offens":7637,"million":7638,"kommunikation":7639,"instrument":7640,"forstand":7641,"glad":7642,"paa":7643,"##ada":7644,"deltaget":7645,"fremmest":7646,"##ældet":7647,"forbindelser":7648,"rat":7649,"besid":7650,"derpa":7651,"mobil":7652,"##skiftet":7653,"##tekn":7654,"ideen":7655,"tredj":7656,"##adende":7657,"overgang":7658,"købmand":7659,"gyl":7660,"træer":7661,"stoffer":7662,"hjul":7663,"konsekvens":7664,"##amerik":7665,"afh":7666,"aks":7667,"idræt":7668,"59":7669,"mikk":7670,"##anere":7671,"sachsen":7672,"##ower":7673,"fylke":7674,"tilt":7675,"finn":7676,"tilbragte":7677,"cre":7678,"soft":7679,"##kende":7680,"frederic":7681,"fortsætter":7682,"##bestyr":7683,"##jev":7684,"nordøstlige":7685,"##leder":7686,"##stater":7687,"sof":7688,"fos":7689,"##agde":7690,"tunn":7691,"lol":7692,"navnlig":7693,"1865":7694,"argum":7695,"metode":7696,"fur":7697,"biler":7698,"separ":7699,"baden":7700,"##ical":7701,"##jo":7702,"eksisterende":7703,"##runden":7704,"begivenheder":7705,"##esper":7706,"hjemmebane":7707,"1887":7708,"63":7709,"##uere":7710,"debat":7711,"indledte":7712,"balt":7713,"nærme":7714,"branden":7715,"kære":7716,"tu":7717,"broder":7718,"forskellig":7719,"ribe":7720,"##ærker":7721,"72":7722,"havnen":7723,"løs":7724,"fortrin":7725,"inkluderer":7726,"##zy":7727,"##endørs":7728,"mørk":7729,"napoleon":7730,"stol":7731,"producer":7732,"atlant":7733,"kvartfin":7734,"long":7735,"##iation":7736,"bif":7737,"kræfter":7738,"passagerer":7739,"beord":7740,"bulgar":7741,"ophæv":7742,"departem":7743,"fiske":7744,"tilstrækk":7745,"1867":7746,"##aede":7747,"flest":7748,"dies":7749,"eb":7750,"##øje":7751,"##stemning":7752,"house":7753,"sent":7754,"##vendt":7755,"amal":7756,"junior":7757,"familier":7758,"romanen":7759,"nordvestlige":7760,"gott":7761,"##ania":7762,"minder":7763,"indspil":7764,"##ressen":7765,"abent":7766,"##ofte":7767,"beskytte":7768,"##ips":7769,"deutsch":7770,"steph":7771,"##aren":7772,"##ejst":7773,"kapital":7774,"sound":7775,"dru":7776,"##værelse":7777,"døds":7778,"forlag":7779,"turist":7780,"indiske":7781,"befri":7782,"vanskelig":7783,"1881":7784,"udseende":7785,"rejst":7786,"##agas":7787,"vedtaget":7788,"##iverse":7789,"marine":7790,"herfra":7791,"holdene":7792,"brødre":7793,"##spej":7794,"forfattere":7795,"bart":7796,"flygtede":7797,"##ilæ":7798,"##andet":7799,"palæst":7800,"kvalificerede":7801,"borgere":7802,"brugen":7803,"arsag":7804,"telefon":7805,"tyrkiet":7806,"opfattelse":7807,"##ørsel":7808,"holly":7809,"1840":7810,"virkeligheden":7811,"##stan":7812,"67":7813,"madsen":7814,"civile":7815,"##udvikling":7816,"bell":7817,"dannes":7818,"159":7819,"fiskeri":7820,"bjørn":7821,"66":7822,"medvirket":7823,"##sud":7824,"##eth":7825,"##ogen":7826,"skatte":7827,"##delige":7828,"93":7829,"resulterede":7830,"football":7831,"østrigske":7832,"fab":7833,"##aller":7834,"##ivalen":7835,"retss":7836,"##ekter":7837,"white":7838,"krop":7839,"erobrede":7840,"1886":7841,"spl":7842,"sønderborg":7843,"1861":7844,"##stam":7845,"udførte":7846,"##ump":7847,"##vise":7848,"##produc":7849,"døden":7850,"##sættelse":7851,"##sons":7852,"ok":7853,"##agten":7854,"planen":7855,"muligheder":7856,"##jyske":7857,"vedr":7858,"liter":7859,"initiativ":7860,"held":7861,"##astik":7862,"##ynde":7863,"udpeget":7864,"87":7865,"gab":7866,"##enhed":7867,"inddelt":7868,"offent":7869,"1873":7870,"engag":7871,"læse":7872,"##bc":7873,"statsminister":7874,"monum":7875,"basis":7876,"siges":7877,"udsendt":7878,"opløst":7879,"heinrich":7880,"wales":7881,"manen":7882,"europe":7883,"##field":7884,"alkohol":7885,"1878":7886,"varm":7887,"##stedt":7888,"##arbejder":7889,"singlen":7890,"wolf":7891,"##ækket":7892,"##espiller":7893,"bære":7894,"##geren":7895,"##skomm":7896,"øverst":7897,"besked":7898,"##ear":7899,"tang":7900,"sejre":7901,"1849":7902,"##onym":7903,"sekund":7904,"##sterdam":7905,"arthur":7906,"fan":7907,"byerne":7908,"ekspl":7909,"hhv":7910,"kle":7911,"##edyr":7912,"alfred":7913,"1868":7914,"solen":7915,"mr":7916,"##vide":7917,"kommende":7918,"fødsels":7919,"enke":7920,"hann":7921,"amsterdam":7922,"kart":7923,"1874":7924,"157":7925,"tegnes":7926,"mærk":7927,"1876":7928,"158":7929,"opgør":7930,"dun":7931,"##ibet":7932,"##slaget":7933,"flytte":7934,"ferdin":7935,"portugis":7936,"##stab":7937,"att":7938,"sf":7939,"61":7940,"bilen":7941,"voksne":7942,"jesper":7943,"##oke":7944,"henviser":7945,"næstved":7946,"71":7947,"##træk":7948,"bladet":7949,"bær":7950,"portugal":7951,"beskrives":7952,"preussen":7953,"arlig":7954,"##rive":7955,"tilhørende":7956,"##verden":7957,"forskere":7958,"organisationer":7959,"62":7960,"bryll":7961,"152":7962,"skoven":7963,"##gas":7964,"##fort":7965,"fjerne":7966,"midler":7967,"opfyl":7968,"sydøstlige":7969,"irak":7970,"løv":7971,"dybt":7972,"##tegn":7973,"tolv":7974,"dirig":7975,"kog":7976,"##su":7977,"hjemmeside":7978,"mic":7979,"##eck":7980,"alliance":7981,"nødvendig":7982,"undtag":7983,"forhindre":7984,"satellit":7985,"forbi":7986,"falster":7987,"udbredelse":7988,"##usalem":7989,"undtagelse":7990,"vælge":7991,"maskin":7992,"presse":7993,"ferdinand":7994,"margrethe":7995,"bredt":7996,"##føres":7997,"she":7998,"##ippet":7999,"skønt":8000,"##eladende":8001,"evne":8002,"##ancen":8003,"sydvestlige":8004,"nyhed":8005,"bundes":8006,"##recht":8007,"155":8008,"traditionelt":8009,"77":8010,"samfundet":8011,"fyrst":8012,"pier":8013,"past":8014,"inspiration":8015,"tilknytning":8016,"spredt":8017,"##maler":8018,"##omp":8019,"samtlige":8020,"##veje":8021,"magnus":8022,"tilsyneladende":8023,"##ksim":8024,"fulgt":8025,"##ois":8026,"##sere":8027,"##sættes":8028,"diale":8029,"1877":8030,"##fold":8031,"udtrykket":8032,"##kirken":8033,"søge":8034,"1200":8035,"invasion":8036,"manchester":8037,"##tering":8038,"kommando":8039,"kiel":8040,"##fod":8041,"##saft":8042,"tron":8043,"uddannelses":8044,"højesteret":8045,"##ament":8046,"##bær":8047,"betegner":8048,"mi":8049,"mulige":8050,"tele":8051,"skive":8052,"dsb":8053,"sud":8054,"##skar":8055,"slet":8056,"88":8057,"##arken":8058,"kender":8059,"studiealbum":8060,"##æden":8061,"hval":8062,"kant":8063,"##ji":8064,"sammest":8065,"##otten":8066,"chic":8067,"130":8068,"##lægge":8069,"##bergs":8070,"kontro":8071,"run":8072,"rap":8073,"theod":8074,"maleri":8075,"scien":8076,"##ædvan":8077,"meddelte":8078,"##æller":8079,"betydeligt":8080,"mole":8081,"athen":8082,"##rul":8083,"bent":8084,"##ison":8085,"arlige":8086,"yngste":8087,"##kontor":8088,"europæisk":8089,"greg":8090,"vejr":8091,"nødvendigt":8092,"sveriges":8093,"formod":8094,"alexand":8095,"pavirket":8096,"##skyt":8097,"##enten":8098,"kerne":8099,"fortalte":8100,"##radt":8101,"sammesteds":8102,"arrække":8103,"overført":8104,"massa":8105,"##sken":8106,"##okse":8107,"solo":8108,"købe":8109,"partiets":8110,"##instruktør":8111,"virginia":8112,"74":8113,"delvist":8114,"luther":8115,"##gol":8116,"sjet":8117,"##sstyr":8118,"frygt":8119,"##atorer":8120,"opløsning":8121,"jackson":8122,"skifte":8123,"##ovre":8124,"sydkore":8125,"jugoslav":8126,"mia":8127,"##ryk":8128,"##ras":8129,"debutalbum":8130,"##avnet":8131,"##aku":8132,"##konstru":8133,"sukker":8134,"##gerne":8135,"##mende":8136,"sikkert":8137,"84":8138,"##gor":8139,"etc":8140,"republikken":8141,"bombe":8142,"opdagede":8143,"hent":8144,"fuldstændig":8145,"##rod":8146,"repræsenterer":8147,"forny":8148,"##ibi":8149,"nærmere":8150,"97":8151,"##motor":8152,"herning":8153,"norden":8154,"thail":8155,"jordens":8156,"##ble":8157,"##riget":8158,"##ction":8159,"flg":8160,"69":8161,"1869":8162,"##æren":8163,"hastighed":8164,"##byer":8165,"brud":8166,"jerusalem":8167,"##delig":8168,"98":8169,"dur":8170,"admiral":8171,"hamborg":8172,"bered":8173,"kortfilm":8174,"ges":8175,"delvis":8176,"fysisk":8177,"etape":8178,"bønder":8179,"79":8180,"lun":8181,"kvadrat":8182,"advokat":8183,"ocean":8184,"##eremon":8185,"##resund":8186,"evner":8187,"ophørte":8188,"resterende":8189,"køret":8190,"lic":8191,"##vandet":8192,"hævdede":8193,"night":8194,"trond":8195,"##afe":8196,"renæss":8197,"ideer":8198,"mcc":8199,"pad":8200,"900":8201,"##cell":8202,"schm":8203,"skaber":8204,"oblast":8205,"usædvan":8206,"##back":8207,"indspillede":8208,"mose":8209,"##hagen":8210,"##kkerne":8211,"ekst":8212,"indlem":8213,"lighed":8214,"hovedperson":8215,"fisker":8216,"armen":8217,"##iana":8218,"##sdag":8219,"skane":8220,"stri":8221,"populært":8222,"megen":8223,"nærmeste":8224,"styrmand":8225,"teksten":8226,"protest":8227,"angribe":8228,"forfatning":8229,"hir":8230,"##astro":8231,"forvalt":8232,"osmanniske":8233,"##stud":8234,"amts":8235,"mørke":8236,"prot":8237,"dræbte":8238,"harde":8239,"##mond":8240,"klim":8241,"jones":8242,"##able":8243,"formelt":8244,"lux":8245,"##strid":8246,"fanger":8247,"##omot":8248,"aktivitet":8249,"luften":8250,"spræn":8251,"kriminal":8252,"inn":8253,"tvivl":8254,"fredet":8255,"popular":8256,"formel":8257,"versioner":8258,"##kredsen":8259,"prin":8260,"fikt":8261,"benytter":8262,"angriber":8263,"96":8264,"rette":8265,"lede":8266,"rene":8267,"with":8268,"henning":8269,"156":8270,"spe":8271,"stum":8272,"markeds":8273,"modsat":8274,"ledere":8275,"gule":8276,"serier":8277,"##ianter":8278,"medarbejdere":8279,"udnævntes":8280,"champions":8281,"68":8282,"ligner":8283,"cub":8284,"##urne":8285,"##arden":8286,"gennemførte":8287,"hunde":8288,"henri":8289,"##ivision":8290,"##skoler":8291,"kalder":8292,"##garde":8293,"prix":8294,"°c":8295,"bekæmp":8296,"hog":8297,"##sko":8298,"karet":8299,"##stadt":8300,"magnet":8301,"skader":8302,"botan":8303,"brøndby":8304,"gældende":8305,"##bruget":8306,"betegnes":8307,"handboldspiller":8308,"##ils":8309,"enter":8310,"##stoffer":8311,"elektrisk":8312,"bidrog":8313,"vedkommende":8314,"##ische":8315,"medlemmerne":8316,"##skrigen":8317,"az":8318,"##ands":8319,"hør":8320,"##kas":8321,"kroppen":8322,"beat":8323,"minim":8324,"fysiske":8325,"ic":8326,"##arere":8327,"##førelsen":8328,"teknik":8329,"pædagog":8330,"din":8331,"##iem":8332,"##ftet":8333,"madrid":8334,"##fjord":8335,"fantas":8336,"##kop":8337,"malerier":8338,"myst":8339,"villa":8340,"kulturelle":8341,"##somradet":8342,"##ukke":8343,"felttog":8344,"##reger":8345,"transpor":8346,"##lerup":8347,"##ression":8348,"lægger":8349,"hemmelig":8350,"##gers":8351,"blanding":8352,"##ulære":8353,"planten":8354,"afgør":8355,"simp":8356,"øget":8357,"vender":8358,"stan":8359,"##bank":8360,"##wig":8361,"charlotte":8362,"opstar":8363,"autoriserede":8364,"##oth":8365,"søer":8366,"mandlige":8367,"##roen":8368,"køge":8369,"udgaver":8370,"politi":8371,"endelige":8372,"naturen":8373,"##yttede":8374,"mæl":8375,"præm":8376,"betydelige":8377,"ray":8378,"##krigen":8379,"landsbyer":8380,"rødder":8381,"##iteret":8382,"##slesvig":8383,"atmos":8384,"fodboldlandshold":8385,"##ystemet":8386,"udøv":8387,"140":8388,"bydelen":8389,"kombin":8390,"73":8391,"gad":8392,"særdeles":8393,"briterne":8394,"82":8395,"##aldt":8396,"##isch":8397,"svendborg":8398,"batter":8399,"##ati":8400,"afslutning":8401,"oversættelse":8402,"hyp":8403,"##skij":8404,"oldt":8405,"manuskrip":8406,"diverse":8407,"lader":8408,"tand":8409,"##gange":8410,"oprettelsen":8411,"renover":8412,"down":8413,"beskyttelse":8414,"vedlige":8415,"polsk":8416,"eksamen":8417,"jacobsen":8418,"jane":8419,"sæde":8420,"opfat":8421,"motiver":8422,"mangel":8423,"##ote":8424,"bran":8425,"ik":8426,"modsatte":8427,"hovedet":8428,"##største":8429,"##ato":8430,"vinderen":8431,"##lader":8432,"nægtede":8433,"overvejende":8434,"forkortet":8435,"##pperne":8436,"##smalet":8437,"hjerte":8438,"scenen":8439,"tilstede":8440,"##rov":8441,"udby":8442,"modtager":8443,"besætning":8444,"drenge":8445,"mødtes":8446,"kronprins":8447,"##æle":8448,"figurer":8449,"kongelig":8450,"76":8451,"##bygninger":8452,"jyske":8453,"hjalp":8454,"fond":8455,"##ererer":8456,"ærkeb":8457,"86":8458,"matt":8459,"forsvandt":8460,"##rytter":8461,"medie":8462,"wo":8463,"harmon":8464,"dominerende":8465,"vælger":8466,"78":8467,"ment":8468,"købstad":8469,"træning":8470,"##præst":8471,"##øjet":8472,"finsk":8473,"selvmord":8474,"sejlede":8475,"##bæl":8476,"##agner":8477,"skuespil":8478,"potent":8479,"how":8480,"arena":8481,"berømt":8482,"naet":8483,"stationer":8484,"##rettede":8485,"prop":8486,"81":8487,"rytter":8488,"##akiet":8489,"steen":8490,"undervejs":8491,"markedet":8492,"##rage":8493,"maksim":8494,"##nets":8495,"musikere":8496,"rapport":8497,"konflikt":8498,"##græn":8499,"trommes":8500,"vend":8501,"##brudt":8502,"##gter":8503,"##arm":8504,"introduceret":8505,"tillæg":8506,"hovedkvarter":8507,"producerede":8508,"forsvaret":8509,"zealand":8510,"bakter":8511,"##publik":8512,"##agtige":8513,"landevej":8514,"virkning":8515,"bevarede":8516,"eurov":8517,"##iblio":8518,"nicola":8519,"pian":8520,"barcel":8521,"halvt":8522,"##fen":8523,"vestty":8524,"##parten":8525,"##okol":8526,"forlænget":8527,"koll":8528,"virker":8529,"udsigt":8530,"musk":8531,"toky":8532,"radhus":8533,"110":8534,"##æm":8535,"systemer":8536,"##sværk":8537,"1859":8538,"1830":8539,"distrikt":8540,"##anset":8541,"bladene":8542,"##zig":8543,"darligt":8544,"eksisterer":8545,"rim":8546,"gæst":8547,"netværk":8548,"bands":8549,"argentina":8550,"tegl":8551,"hæder":8552,"##øya":8553,"førende":8554,"indsk":8555,"##valgt":8556,"demokratiske":8557,"##chi":8558,"opgav":8559,"drives":8560,"##ors":8561,"drej":8562,"helbred":8563,"rak":8564,"##bad":8565,"sætter":8566,"win":8567,"##lers":8568,"sind":8569,"livs":8570,"cher":8571,"##sammen":8572,"1855":8573,"hob":8574,"##fj":8575,"##sejer":8576,"##fugle":8577,"hollandsk":8578,"##uz":8579,"bestyrelses":8580,"distriktet":8581,"himmel":8582,"##museet":8583,"##gi":8584,"vare":8585,"holger":8586,"aab":8587,"formalet":8588,"##føring":8589,"nobel":8590,"sjette":8591,"##næst":8592,"kommandoen":8593,"ambass":8594,"cra":8595,"aftalen":8596,"grunde":8597,"misly":8598,"ændre":8599,"angiveligt":8600,"milliarder":8601,"konstantin":8602,"##alisme":8603,"##udstyr":8604,"1857":8605,"græs":8606,"strækningen":8607,"kund":8608,"wall":8609,"##igelse":8610,"alban":8611,"jam":8612,"tysklands":8613,"nærliggende":8614,"kurs":8615,"afhængig":8616,"driver":8617,"derfra":8618,"musikalske":8619,"avanc":8620,"cover":8621,"klare":8622,"butikker":8623,"92":8624,"jag":8625,"producere":8626,"stillinger":8627,"##stens":8628,"##blade":8629,"bøg":8630,"kolde":8631,"##indt":8632,"institutioner":8633,"##runde":8634,"normal":8635,"##orff":8636,"1852":8637,"##ull":8638,"##illet":8639,"eliz":8640,"##æne":8641,"##ræner":8642,"company":8643,"mej":8644,"mine":8645,"karen":8646,"##konkurren":8647,"landsholdet":8648,"83":8649,"hov":8650,"ort":8651,"kørt":8652,"ov":8653,"##forsvar":8654,"sec":8655,"##revne":8656,"voksende":8657,"samarbejdet":8658,"lub":8659,"afholdes":8660,"konkl":8661,"##rette":8662,"sher":8663,"mennesket":8664,"ruten":8665,"midtjylland":8666,"afsluttet":8667,"##mur":8668,"formid":8669,"##byggede":8670,"folkeparti":8671,"1856":8672,"lolland":8673,"ah":8674,"gir":8675,"selvstændige":8676,"##rin":8677,"##esen":8678,"moh":8679,"funktioner":8680,"optradt":8681,"radighed":8682,"svarede":8683,"##uddannelse":8684,"lie":8685,"præc":8686,"##atiske":8687,"eurovision":8688,"samtidigt":8689,"##dtes":8690,"##gøre":8691,"tilhæng":8692,"##ienter":8693,"law":8694,"besluttet":8695,"##ni":8696,"orienter":8697,"mødes":8698,"##eme":8699,"ansl":8700,"bow":8701,"forfrem":8702,"gor":8703,"##asset":8704,"konsul":8705,"offentligt":8706,"lokalt":8707,"udføre":8708,"skaffe":8709,"prøve":8710,"rose":8711,"##ques":8712,"underlagt":8713,"non":8714,"##bs":8715,"mekan":8716,"filip":8717,"jom":8718,"frat":8719,"jesu":8720,"##fron":8721,"lægge":8722,"##spolitik":8723,"saret":8724,"##mets":8725,"wat":8726,"##stjeneste":8727,"##ome":8728,"##smet":8729,"##put":8730,"##no":8731,"projekter":8732,"cla":8733,"piger":8734,"##ards":8735,"malm":8736,"arsager":8737,"##ssam":8738,"smag":8739,"ager":8740,"indrettet":8741,"bryst":8742,"##can":8743,"##viser":8744,"forbinder":8745,"wa":8746,"skyde":8747,"reformer":8748,"1814":8749,"mads":8750,"atletik":8751,"wester":8752,"forsknings":8753,"tilskuere":8754,"##fors":8755,"befæst":8756,"fængslet":8757,"midter":8758,"ægtede":8759,"##ingle":8760,"stykker":8761,"færge":8762,"association":8763,"##low":8764,"højskole":8765,"tank":8766,"barcelona":8767,"##dorf":8768,"skæb":8769,"arabisk":8770,"sejren":8771,"halvøen":8772,"sønderjylland":8773,"hovedsagelig":8774,"lord":8775,"bragt":8776,"gennemføre":8777,"partik":8778,"skyg":8779,"arist":8780,"##holdning":8781,"##medlem":8782,"fugt":8783,"##win":8784,"dernæst":8785,"eksperi":8786,"fav":8787,"##rolle":8788,"slam":8789,"##ificere":8790,"jud":8791,"beslutning":8792,"##styre":8793,"udlø":8794,"##smæssige":8795,"kvalitet":8796,"has":8797,"sult":8798,"oh":8799,"##tu":8800,"##cia":8801,"##spl":8802,"sangskriver":8803,"elektriske":8804,"reserve":8805,"rub":8806,"##kultur":8807,"anerkendelse":8808,"styret":8809,"signal":8810,"##urch":8811,"tronen":8812,"langsomt":8813,"##rut":8814,"prøver":8815,"metoder":8816,"nummeret":8817,"rigtige":8818,"radikale":8819,"wer":8820,"kult":8821,"ufor":8822,"nykøbing":8823,"##givende":8824,"handlinger":8825,"fron":8826,"##inspe":8827,"pant":8828,"gratis":8829,"forstærk":8830,"##museum":8831,"road":8832,"mec":8833,"##ælv":8834,"batal":8835,"91":8836,"gn":8837,"amerika":8838,"sydafrika":8839,"##søen":8840,"victoria":8841,"opstillet":8842,"joe":8843,"besat":8844,"##melt":8845,"##rager":8846,"nederlandene":8847,"axel":8848,"##iserer":8849,"from":8850,"henblik":8851,"nieder":8852,"##iseringen":8853,"tanker":8854,"##arts":8855,"stamme":8856,"thy":8857,"##organ":8858,"##smark":8859,"1854":8860,"revet":8861,"##splads":8862,"##stalt":8863,"##igr":8864,"##ædt":8865,"indd":8866,"89":8867,"officerer":8868,"interess":8869,"hud":8870,"kød":8871,"foredrag":8872,"tech":8873,"børnene":8874,"svarende":8875,"ansigt":8876,"beholdt":8877,"maur":8878,"nedb":8879,"følte":8880,"ramte":8881,"bjerget":8882,"tværs":8883,"##fæl":8884,"##alte":8885,"grundt":8886,"øvre":8887,"##fat":8888,"ændring":8889,"respekt":8890,"varierer":8891,"##olket":8892,"studere":8893,"skove":8894,"##rejse":8895,"tokyo":8896,"##grav":8897,"albums":8898,"naturligt":8899,"lettere":8900,"specielle":8901,"princip":8902,"handværk":8903,"kated":8904,"##kysten":8905,"##klar":8906,"##varende":8907,"betydningsf":8908,"afskaff":8909,"##sret":8910,"##adt":8911,"franz":8912,"chicago":8913,"fak":8914,"##økonom":8915,"texas":8916,"tegneser":8917,"##rust":8918,"evangel":8919,"administrativt":8920,"uheld":8921,"udmærk":8922,"##fr":8923,"omgivet":8924,"spur":8925,"1853":8926,"administrer":8927,"fu":8928,"##arne":8929,"##partiet":8930,"oplevede":8931,"##wan":8932,"##chs":8933,"tilbyder":8934,"##imb":8935,"vokse":8936,"jubilæ":8937,"fæd":8938,"veks":8939,"jen":8940,"##turnering":8941,"##skj":8942,"fremkom":8943,"##ømte":8944,"kapel":8945,"bunden":8946,"koncern":8947,"hvorpa":8948,"ballet":8949,"intel":8950,"stu":8951,"fry":8952,"kalender":8953,"detaljer":8954,"##splan":8955,"vises":8956,"trukket":8957,"stoppe":8958,"##ætning":8959,"##bogen":8960,"##ory":8961,"regioner":8962,"afgræn":8963,"konkurr":8964,"dæm":8965,"nødt":8966,"1851":8967,"erstatning":8968,"regelm":8969,"thailand":8970,"klokken":8971,"ukraine":8972,"##hov":8973,"bebyggelse":8974,"forinden":8975,"philip":8976,"begivenhed":8977,"##mølle":8978,"##inens":8979,"bæl":8980,"eksport":8981,"dvd":8982,"traktaten":8983,"sul":8984,"##uleret":8985,"etap":8986,"dreng":8987,"tons":8988,"##italet":8989,"skjold":8990,"sko":8991,"##klasse":8992,"tilbaget":8993,"iværks":8994,"distri":8995,"sælge":8996,"amatør":8997,"##shøj":8998,"julius":8999,"1842":9000,"##sklub":9001,"anvender":9002,"##aut":9003,"afled":9004,"bestyrelse":9005,"hil":9006,"oplag":9007,"frivillige":9008,"komite":9009,"##uropæ":9010,"forsvars":9011,"folketæl":9012,"udløb":9013,"fare":9014,"##sekretær":9015,"sekretær":9016,"kontra":9017,"skudt":9018,"patt":9019,"##row":9020,"flam":9021,"##ængde":9022,"opbevar":9023,"hollywood":9024,"##otiske":9025,"modstander":9026,"fugl":9027,"støttet":9028,"kemiske":9029,"sympt":9030,"##smuse":9031,"great":9032,"litauen":9033,"##okke":9034,"##xe":9035,"spar":9036,"##bry":9037,"assistent":9038,"udsm":9039,"opholdt":9040,"##ulær":9041,"tilfæld":9042,"etablere":9043,"##gørelse":9044,"hag":9045,"##ikop":9046,"landskabet":9047,"##acitet":9048,"christop":9049,"betragtet":9050,"kammerherre":9051,"latinske":9052,"contest":9053,"stein":9054,"##bragte":9055,"fremgang":9056,"egypt":9057,"sekunder":9058,"marx":9059,"##vare":9060,"tunge":9061,"##19":9062,"flugt":9063,"stillingen":9064,"rektor":9065,"march":9066,"mongol":9067,"##fugl":9068,"drama":9069,"1858":9070,"skiftet":9071,"##iliteter":9072,"##skop":9073,"kamer":9074,"##aktiv":9075,"normale":9076,"kategor":9077,"##distrik":9078,"benytte":9079,"foreslog":9080,"vilkar":9081,"umu":9082,"palæ":9083,"##østen":9084,"##ente":9085,"metrop":9086,"kapit":9087,"munk":9088,"mogens":9089,"##hor":9090,"opposition":9091,"konføder":9092,"diskuss":9093,"benzin":9094,"##dy":9095,"##jarv":9096,"tjente":9097,"raf":9098,"tiltræ":9099,"##serien":9100,"belgiske":9101,"life":9102,"elsker":9103,"litterære":9104,"materialer":9105,"landst":9106,"##aka":9107,"lærte":9108,"absolut":9109,"mytologi":9110,"##osh":9111,"leds":9112,"emp":9113,"optagelse":9114,"##spænd":9115,"##vald":9116,"sax":9117,"leop":9118,"haderslev":9119,"begyndt":9120,"erobret":9121,"fans":9122,"##rel":9123,"##ffen":9124,"eskad":9125,"##ksamen":9126,"meldte":9127,"##bygge":9128,"##selskabet":9129,"organiseret":9130,"forbud":9131,"154":9132,"##kampe":9133,"kampvogne":9134,"eksisterede":9135,"##uteret":9136,"drejer":9137,"overtage":9138,"senior":9139,"riget":9140,"luxem":9141,"##genhed":9142,"hits":9143,"australske":9144,"dit":9145,"ever":9146,"forbudt":9147,"##redaktør":9148,"brødrene":9149,"juridisk":9150,"mode":9151,"##æste":9152,"forar":9153,"key":9154,"fyldt":9155,"opførelsen":9156,"øjne":9157,"##ous":9158,"sammenh":9159,"indenrig":9160,"##bourg":9161,"##teborg":9162,"##olph":9163,"##øren":9164,"beslægt":9165,"hensigt":9166,"elizabeth":9167,"##hej":9168,"##skraft":9169,"force":9170,"societ":9171,"kritisk":9172,"omkom":9173,"##elsesp":9174,"norr":9175,"yderst":9176,"institution":9177,"##ysk":9178,"##kyst":9179,"afgang":9180,"##sliv":9181,"nævnte":9182,"sager":9183,"may":9184,"##bragt":9185,"##sar":9186,"##sters":9187,"indførte":9188,"##udvalget":9189,"gh":9190,"deraf":9191,"musikvide":9192,"pir":9193,"minut":9194,"##linge":9195,"anvende":9196,"darlig":9197,"galler":9198,"alternativ":9199,"##lement":9200,"deler":9201,"amtet":9202,"ilt":9203,"hovedsæde":9204,"corn":9205,"##lunde":9206,"##atoriet":9207,"matematik":9208,"##hausen":9209,"muligheden":9210,"##kil":9211,"1400":9212,"temp":9213,"academ":9214,"##jent":9215,"##barn":9216,"fysik":9217,"##rur":9218,"ombygget":9219,"##konserv":9220,"troede":9221,"ff":9222,"stj":9223,"placerede":9224,"##spørg":9225,"bry":9226,"bringe":9227,"1847":9228,"billedet":9229,"køkken":9230,"prag":9231,"rio":9232,"herreg":9233,"drive":9234,"anerkendte":9235,"nabo":9236,"skin":9237,"##ordning":9238,"starte":9239,"online":9240,"##mil":9241,"##fang":9242,"invester":9243,"digital":9244,"fabrikken":9245,"##bj":9246,"##ologer":9247,"forladt":9248,"breve":9249,"cru":9250,"fremhæv":9251,"fredericia":9252,"##ampen":9253,"digit":9254,"##sbevæg":9255,"sic":9256,"byz":9257,"##uft":9258,"romaner":9259,"adskiller":9260,"wild":9261,"løsning":9262,"dro":9263,"løg":9264,"smukke":9265,"mangler":9266,"##pool":9267,"##edig":9268,"konver":9269,"godsejer":9270,"øens":9271,"##ystemer":9272,"##fag":9273,"lufthavnen":9274,"praktisk":9275,"daglige":9276,"##lene":9277,"##arkt":9278,"forn":9279,"skilt":9280,"tolk":9281,"##ique":9282,"##skap":9283,"fortrinsvis":9284,"æres":9285,"##ensstem":9286,"merc":9287,"delte":9288,"anderledes":9289,"stigning":9290,"##ence":9291,"genstande":9292,"permanent":9293,"apo":9294,"høre":9295,"##ners":9296,"udgivelser":9297,"windows":9298,"indkøb":9299,"bevægelsen":9300,"jernbanestation":9301,"tam":9302,"1845":9303,"##systemet":9304,"provinser":9305,"genstand":9306,"løse":9307,"##mæssige":9308,"erind":9309,"forgænger":9310,"dæk":9311,"opførte":9312,"##log":9313,"au":9314,"##app":9315,"kommunistiske":9316,"udsendte":9317,"besejret":9318,"køl":9319,"barne":9320,"caroline":9321,"bit":9322,"historier":9323,"borgen":9324,"##stykke":9325,"stumfilm":9326,"##uh":9327,"oversv":9328,"tav":9329,"invest":9330,"##shistor":9331,"ramme":9332,"labor":9333,"indsam":9334,"blue":9335,"regionale":9336,"science":9337,"doc":9338,"##anes":9339,"##rute":9340,"##agtig":9341,"kortere":9342,"frederiksborg":9343,"bjerge":9344,"##nik":9345,"svag":9346,"british":9347,"vokset":9348,"guitarist":9349,"spredte":9350,"##blom":9351,"##æring":9352,"tror":9353,"hitl":9354,"robin":9355,"tone":9356,"##kær":9357,"##mas":9358,"vakte":9359,"##rør":9360,"skak":9361,"##sau":9362,"adfærd":9363,"statsb":9364,"freden":9365,"dna":9366,"perron":9367,"opvar":9368,"##lænderne":9369,"lot":9370,"grundtvig":9371,"##rykning":9372,"##ineres":9373,"bibel":9374,"overlevede":9375,"element":9376,"heav":9377,"kristen":9378,"##bod":9379,"afslutningen":9380,"##felt":9381,"##aga":9382,"##shire":9383,"kvindelig":9384,"bemærkelses":9385,"forbry":9386,"guldmedalje":9387,"drikke":9388,"ekstrem":9389,"##bræt":9390,"##hjælp":9391,"meckl":9392,"lil":9393,"##kræ":9394,"1100":9395,"ansvarlig":9396,"cykl":9397,"##sforhold":9398,"##grev":9399,"tung":9400,"filmens":9401,"dvær":9402,"##tim":9403,"ins":9404,"holbæk":9405,"##furt":9406,"##stræk":9407,"kommunerne":9408,"trommeslager":9409,"støv":9410,"##inspektør":9411,"hiller":9412,"veget":9413,"teen":9414,"beregnet":9415,"singler":9416,"beskæftiger":9417,"##illere":9418,"##industrien":9419,"##korps":9420,"værdier":9421,"cross":9422,"pi":9423,"bakke":9424,"##stykker":9425,"undertiden":9426,"kup":9427,"sydslesvig":9428,"krydser":9429,"##zz":9430,"nev":9431,"letland":9432,"##sselskab":9433,"rumænien":9434,"tendens":9435,"wood":9436,"##utere":9437,"folkes":9438,"##øber":9439,"islands":9440,"teknologi":9441,"arkæologiske":9442,"##ateret":9443,"indga":9444,"##olutionen":9445,"intellig":9446,"rug":9447,"##sgade":9448,"udtalt":9449,"søndag":9450,"##opg":9451,"##ommern":9452,"cu":9453,"ped":9454,"##adel":9455,"oprette":9456,"schmidt":9457,"tilhængere":9458,"##ulation":9459,"efterlod":9460,"begynde":9461,"94":9462,"##pset":9463,"##tv":9464,"inder":9465,"indtog":9466,"##aya":9467,"##tav":9468,"##oto":9469,"godkendt":9470,"guder":9471,"producerer":9472,"##hovedet":9473,"williams":9474,"rigtig":9475,"melodi":9476,"jomfru":9477,"church":9478,"instrumenter":9479,"##strand":9480,"fungere":9481,"dokt":9482,"ørken":9483,"graf":9484,"christopher":9485,"jæger":9486,"##ume":9487,"garnis":9488,"##sprogram":9489,"##skilt":9490,"##horn":9491,"##gelig":9492,"intens":9493,"fremmede":9494,"personlig":9495,"cur":9496,"synd":9497,"ledede":9498,"kontrovers":9499,"kel":9500,"holste":9501,"anlægget":9502,"inst":9503,"torped":9504,"##rek":9505,"opkøb":9506,"rail":9507,"uafhængige":9508,"pig":9509,"##sløs":9510,"##grad":9511,"fen":9512,"roc":9513,"forhandlinger":9514,"ekspeditionen":9515,"ægteskabet":9516,"brod":9517,"fase":9518,"ansvaret":9519,"vedrørende":9520,"hvidt":9521,"sorø":9522,"driv":9523,"medal":9524,"##ifa":9525,"islandske":9526,"opstaet":9527,"nedenfor":9528,"gylden":9529,"##datter":9530,"canadiske":9531,"showet":9532,"rul":9533,"##ador":9534,"young":9535,"fog":9536,"indgaet":9537,"disney":9538,"længst":9539,"syntes":9540,"ross":9541,"trold":9542,"1300":9543,"wol":9544,"skyldtes":9545,"nato":9546,"usikker":9547,"fæstning":9548,"##dest":9549,"##sætter":9550,"snarere":9551,"##cks":9552,"inc":9553,"formaede":9554,"##elles":9555,"##erencer":9556,"euro":9557,"burg":9558,"møb":9559,"øresund":9560,"##riter":9561,"færøske":9562,"hvortil":9563,"chris":9564,"##historiske":9565,"manager":9566,"##akon":9567,"selvstændigt":9568,"jager":9569,"personlighed":9570,"##øtre":9571,"blomstr":9572,"rune":9573,"fis":9574,"##figur":9575,"parad":9576,"stiftede":9577,"sjældne":9578,"episode":9579,"mecklenburg":9580,"cr":9581,"veter":9582,"##kede":9583,"frederikshavn":9584,"øjeblikket":9585,"##oo":9586,"afdelinger":9587,"heavy":9588,"dalen":9589,"##øerne":9590,"anat":9591,"spare":9592,"ejes":9593,"liver":9594,"##ævne":9595,"nørreb":9596,"benævn":9597,"metro":9598,"byggeriet":9599,"omvendt":9600,"##isted":9601,"cafe":9602,"beton":9603,"trav":9604,"wars":9605,"genind":9606,"laver":9607,"næring":9608,"estland":9609,"rettet":9610,"##kommun":9611,"vad":9612,"trop":9613,"ond":9614,"fremad":9615,"##givelse":9616,"selvstændighed":9617,"offentligheden":9618,"deriblandt":9619,"ans":9620,"kæreste":9621,"ash":9622,"rede":9623,"act":9624,"nødvendige":9625,"software":9626,"##ssystem":9627,"koloni":9628,"høv":9629,"##ður":9630,"##ube":9631,"1844":9632,"modtag":9633,"##førtes":9634,"navngivet":9635,"buddh":9636,"tydeligt":9637,"popularitet":9638,"flem":9639,"1815":9640,"bræ":9641,"malede":9642,"fortolk":9643,"double":9644,"tibet":9645,"##resse":9646,"billedhug":9647,"fornem":9648,"omgivelser":9649,"forhandling":9650,"##krit":9651,"125":9652,"mexic":9653,"##ots":9654,"skibene":9655,"gene":9656,"omstænd":9657,"søger":9658,"lew":9659,"motorer":9660,"brian":9661,"##skan":9662,"uafhængigt":9663,"fladen":9664,"tilbud":9665,"stranden":9666,"kristendommen":9667,"##ege":9668,"kraftige":9669,"##lets":9670,"dræbe":9671,"dynam":9672,"punk":9673,"celler":9674,"kid":9675,"##cc":9676,"dagens":9677,"katastro":9678,"omdannet":9679,"besøgende":9680,"nationalt":9681,"oberstløjtnant":9682,"tidligste":9683,"##bek":9684,"##komp":9685,"atlanter":9686,"##lærer":9687,"##real":9688,"##olde":9689,"dans":9690,"frim":9691,"ress":9692,"##smanden":9693,"fremmed":9694,"kent":9695,"danse":9696,"manden":9697,"markant":9698,"blomsterne":9699,"kurt":9700,"##biblio":9701,"##ilen":9702,"hævder":9703,"##rey":9704,"flygte":9705,"ambassad":9706,"nul":9707,"##spræ":9708,"##svæsen":9709,"##lads":9710,"fællesskab":9711,"##arl":9712,"klin":9713,"olav":9714,"py":9715,"##kne":9716,"##sak":9717,"tynd":9718,"akademi":9719,"hovedrollen":9720,"##ædet":9721,"pas":9722,"startet":9723,"##andidat":9724,"mix":9725,"fox":9726,"##oni":9727,"sidde":9728,"præcis":9729,"irske":9730,"guds":9731,"fjendt":9732,"eff":9733,"##ria":9734,"##dann":9735,"##aux":9736,"gæster":9737,"ligge":9738,"udgiver":9739,"lett":9740,"orgel":9741,"holdning":9742,"term":9743,"liberal":9744,"forstaelse":9745,"smer":9746,"uru":9747,"##scenter":9748,"army":9749,"##ason":9750,"selskaber":9751,"grant":9752,"match":9753,"##forbindelse":9754,"forveks":9755,"omdøbt":9756,"##inem":9757,"##ragende":9758,"straf":9759,"udbredte":9760,"tusind":9761,"##asen":9762,"##ænket":9763,"149":9764,"krigens":9765,"1846":9766,"nomin":9767,"indvi":9768,"spr":9769,"##ifikation":9770,"##historisk":9771,"##acc":9772,"fulde":9773,"hjørne":9774,"involver":9775,"##udselig":9776,"##korn":9777,"##udg":9778,"mellemtiden":9779,"tyrkiske":9780,"slov":9781,"blandet":9782,"times":9783,"hjørring":9784,"vietnam":9785,"rens":9786,"##itat":9787,"pludselig":9788,"muller":9789,"sognepræst":9790,"fanget":9791,"hass":9792,"restaurant":9793,"##jun":9794,"efterkomm":9795,"##forskning":9796,"nikolaj":9797,"tilsammen":9798,"##aki":9799,"dokument":9800,"##ilien":9801,"afspej":9802,"mindes":9803,"oplysning":9804,"forsynet":9805,"leip":9806,"fars":9807,"heden":9808,"afsluttede":9809,"spørgsmalet":9810,"santa":9811,"blues":9812,"##bran":9813,"obser":9814,"undersøge":9815,"bosatte":9816,"næstformand":9817,"lejligheder":9818,"##vinder":9819,"identitet":9820,"døtre":9821,"nad":9822,"talt":9823,"##svirksomhed":9824,"germ":9825,"bekym":9826,"registreret":9827,"copen":9828,"##stjen":9829,"flygtninge":9830,"tænk":9831,"wc":9832,"##ged":9833,"##holdelse":9834,"vilde":9835,"medaljer":9836,"ansa":9837,"inse":9838,"poulsen":9839,"##iseres":9840,"bomb":9841,"jordsk":9842,"granit":9843,"betaling":9844,"##mid":9845,"##fris":9846,"sproget":9847,"analyse":9848,"##ti":9849,"jura":9850,"situationen":9851,"##olas":9852,"vilje":9853,"jubilæum":9854,"jr":9855,"udenrigsminister":9856,"udarbej":9857,"##egaard":9858,"opvækst":9859,"##gtet":9860,"margar":9861,"konstruktion":9862,"##sang":9863,"tiltag":9864,"reich":9865,"fastsl":9866,"landbrugs":9867,"anmeldelser":9868,"centralt":9869,"argumenter":9870,"hat":9871,"hentet":9872,"uci":9873,"##sind":9874,"stik":9875,"arch":9876,"##otisk":9877,"nutidens":9878,"gun":9879,"varianter":9880,"##ultet":9881,"##ption":9882,"bast":9883,"hovedparten":9884,"mestre":9885,"samtidige":9886,"forsvare":9887,"kolleg":9888,"interesseret":9889,"nationer":9890,"skotske":9891,"rust":9892,"wwe":9893,"151":9894,"jule":9895,"bjergene":9896,"##tar":9897,"##imeter":9898,"pokalt":9899,"tillid":9900,"race":9901,"##isc":9902,"##arten":9903,"danskere":9904,"præg":9905,"kritiseret":9906,"##ikkens":9907,"døg":9908,"##osc":9909,"kejseren":9910,"hænder":9911,"mah":9912,"afviste":9913,"strækning":9914,"ophav":9915,"angiver":9916,"offentliggjorde":9917,"planet":9918,"skibs":9919,"forlaget":9920,"##plant":9921,"tilfældet":9922,"roger":9923,"##eler":9924,"trup":9925,"##amente":9926,"1839":9927,"traditionel":9928,"folketingsvalget":9929,"wik":9930,"jarv":9931,"##bak":9932,"sloven":9933,"kortvar":9934,"pierre":9935,"spis":9936,"syvende":9937,"superligaen":9938,"##værdige":9939,"udr":9940,"##egen":9941,"plynd":9942,"glem":9943,"##udvalg":9944,"##svidenskab":9945,"overlevende":9946,"underskrev":9947,"kaj":9948,"hau":9949,"##nas":9950,"##rader":9951,"krog":9952,"fyret":9953,"abd":9954,"##ness":9955,"tilladt":9956,"gib":9957,"uanset":9958,"krater":9959,"helle":9960,"forbedre":9961,"syrien":9962,"##bring":9963,"foreslaet":9964,"østersøen":9965,"gunn":9966,"teleg":9967,"aftenen":9968,"francisco":9969,"prest":9970,"##lens":9971,"gehej":9972,"filminstruktør":9973,"længste":9974,"##ionens":9975,"udt":9976,"forbl":9977,"motoren":9978,"sværd":9979,"gil":9980,"##don":9981,"krone":9982,"modstandere":9983,"ceremon":9984,"##kins":9985,"##kser":9986,"eksil":9987,"hjælper":9988,"fødsel":9989,"cell":9990,"fortid":9991,"helikop":9992,"testamente":9993,"##ugen":9994,"jødisk":9995,"muslimske":9996,"stef":9997,"##ardo":9998,"løbende":9999,"redde":10000,"arresteret":10001,"overgik":10002,"seb":10003,"##brand":10004,"københavnske":10005,"filmat":10006,"##vende":10007,"##inus":10008,"erstattede":10009,"færøsk":10010,"humor":10011,"walter":10012,"##vokset":10013,"inklusive":10014,"##forsamling":10015,"menneskelige":10016,"leveret":10017,"besættelse":10018,"moz":10019,"##haver":10020,"catal":10021,"##æver":10022,"indtryk":10023,"##lins":10024,"dybe":10025,"bevare":10026,"internettet":10027,"komedie":10028,"##orger":10029,"arts":10030,"afghan":10031,"aer":10032,"2021":10033,"day":10034,"lavt":10035,"sangene":10036,"grim":10037,"##kens":10038,"flydende":10039,"ekskl":10040,"betegnet":10041,"kemi":10042,"religiøs":10043,"##byrdes":10044,"byzant":10045,"##foreninger":10046,"objekt":10047,"sens":10048,"##cast":10049,"##mper":10050,"japans":10051,"ordenen":10052,"##nat":10053,"vikinget":10054,"##bom":10055,"##hou":10056,"europas":10057,"boliger":10058,"kgl":10059,"hillerød":10060,"##yge":10061,"sygdomme":10062,"way":10063,"overg":10064,"klit":10065,"skaff":10066,"flo":10067,"holdes":10068,"partner":10069,"næststørste":10070,"josef":10071,"iron":10072,"udtale":10073,"dato":10074,"herman":10075,"that":10076,"##præsident":10077,"tat":10078,"##och":10079,"indbyrdes":10080,"iver":10081,"iran":10082,"copenhagen":10083,"fjen":10084,"als":10085,"vade":10086,"##agter":10087,"udsp":10088,"udform":10089,"vides":10090,"molt":10091,"sygehus":10092,"##fæst":10093,"##ileg":10094,"musikkonserv":10095,"plader":10096,"motiv":10097,"anbefal":10098,"medens":10099,"1841":10100,"gymnastik":10101,"carolina":10102,"moderen":10103,"historiker":10104,"goteborg":10105,"hannover":10106,"høst":10107,"##arige":10108,"overalt":10109,"master":10110,"##eriale":10111,"valut":10112,"kræft":10113,"butik":10114,"##ela":10115,"slaver":10116,"dannelse":10117,"skandinavien":10118,"##tug":10119,"##gs":10120,"sydamerika":10121,"##styrke":10122,"autonom":10123,"ddr":10124,"gives":10125,"johnson":10126,"pastor":10127,"fla":10128,"dagligt":10129,"mette":10130,"arsagen":10131,"##sproces":10132,"landskampe":10133,"forstad":10134,"løbe":10135,"uafhængig":10136,"dybde":10137,"ere":10138,"gammelt":10139,"klosteret":10140,"ts":10141,"inddeling":10142,"stillet":10143,"eksperiment":10144,"##ila":10145,"abning":10146,"vulkan":10147,"ressour":10148,"##itation":10149,"ludwig":10150,"split":10151,"jugoslavien":10152,"##kirk":10153,"1843":10154,"fødselsdag":10155,"##gren":10156,"##atre":10157,"militært":10158,"foregaende":10159,"liberale":10160,"pokal":10161,"##stød":10162,"##stifter":10163,"##ado":10164,"ulov":10165,"agf":10166,"kredsløb":10167,"08":10168,"ce":10169,"modtage":10170,"franco":10171,"leje":10172,"munke":10173,"kombination":10174,"holstebro":10175,"greb":10176,"##alition":10177,"##sleder":10178,"samlinger":10179,"09":10180,"##hein":10181,"##eliv":10182,"vedtog":10183,"tema":10184,"fattige":10185,"irsk":10186,"kommunens":10187,"mes":10188,"115":10189,"fakultet":10190,"optog":10191,"hurtigere":10192,"##elag":10193,"sættes":10194,"ufc":10195,"statistik":10196,"halvø":10197,"##parken":10198,"roer":10199,"##flugt":10200,"forsøgt":10201,"bond":10202,"vog":10203,"##zon":10204,"##skat":10205,"værende":10206,"hertugdømmet":10207,"##alitet":10208,"##raham":10209,"##spunkter":10210,"##limer":10211,"vlad":10212,"naturvidenskab":10213,"##amester":10214,"##stationen":10215,"fremtiden":10216,"##ylvan":10217,"boy":10218,"slutter":10219,"erobre":10220,"mess":10221,"meters":10222,"besættelsen":10223,"gentofte":10224,"uv":10225,"##domme":10226,"elektronisk":10227,"##spladser":10228,"myrdet":10229,"helst":10230,"folkeaf":10231,"reduceret":10232,"konvention":10233,"##kanten":10234,"##ikon":10235,"myndighed":10236,"afl":10237,"##ami":10238,"ledelsen":10239,"aktivt":10240,"leopold":10241,"luxembourg":10242,"røg":10243,"##gift":10244,"##itj":10245,"spekt":10246,"##etten":10247,"tegner":10248,"federation":10249,"rødt":10250,"##eje":10251,"chile":10252,"værts":10253,"tayl":10254,"væsen":10255,"staet":10256,"##ested":10257,"sender":10258,"##fran":10259,"indb":10260,"menighed":10261,"nedre":10262,"barbar":10263,"##lægger":10264,"herrer":10265,"good":10266,"støtter":10267,"dater":10268,"##umin":10269,"hjemlandet":10270,"udvidelse":10271,"pilot":10272,"divisioner":10273,"erklæret":10274,"forventes":10275,"##løber":10276,"##smæssigt":10277,"henrettet":10278,"##boldt":10279,"##ansen":10280,"arne":10281,"basket":10282,"motorvej":10283,"efterkommere":10284,"gest":10285,"unes":10286,"##fun":10287,"town":10288,"kommission":10289,"##ulering":10290,"pu":10291,"##oma":10292,"##otorer":10293,"##ografiske":10294,"##spillere":10295,"hyr":10296,"rav":10297,"stæng":10298,"fyrste":10299,"bevægelser":10300,"brem":10301,"kompleks":10302,"bryllup":10303,"##iop":10304,"##rett":10305,"sydkorea":10306,"litt":10307,"##iness":10308,"1837":10309,"turneringer":10310,"leipzig":10311,"##atret":10312,"udtaget":10313,"bryde":10314,"monte":10315,"baner":10316,"diameter":10317,"omhandler":10318,"##anna":10319,"tilfreds":10320,"agg":10321,"akademiet":10322,"##pligt":10323,"##banken":10324,"1836":10325,"lykke":10326,"volks":10327,"væsentligt":10328,"trommer":10329,"staende":10330,"frankrigs":10331,"1820":10332,"##ancer":10333,"afb":10334,"inge":10335,"seminar":10336,"forlængelse":10337,"beskyttet":10338,"##hertug":10339,"drab":10340,"kirkes":10341,"moun":10342,"##filmen":10343,"højst":10344,"anth":10345,"budget":10346,"liverpool":10347,"hale":10348,"hænger":10349,"##umen":10350,"##smod":10351,"fremragende":10352,"indbyggerne":10353,"##lys":10354,"scener":10355,"##ays":10356,"##virke":10357,"##verne":10358,"udstillinger":10359,"nordsjælland":10360,"diagn":10361,"mike":10362,"##vi":10363,"##urd":10364,"tanke":10365,"olympisk":10366,"##gterne":10367,"infl":10368,"broad":10369,"karakteristiske":10370,"kass":10371,"##reland":10372,"muham":10373,"beboere":10374,"gæste":10375,"elite":10376,"slagelse":10377,"ration":10378,"begrund":10379,"abraham":10380,"faldet":10381,"foretage":10382,"reformationen":10383,"indik":10384,"##speriode":10385,"udvikler":10386,"vinkel":10387,"kau":10388,"##aleri":10389,"##itten":10390,"rost":10391,"udgangen":10392,"teorien":10393,"oppe":10394,"lake":10395,"1808":10396,"##uge":10397,"##afrik":10398,"pagældende":10399,"##sætninger":10400,"ministeriet":10401,"##othe":10402,"lokomot":10403,"sølvmedalje":10404,"tilføjet":10405,"udstillet":10406,"nyborg":10407,"følelser":10408,"operationer":10409,"olden":10410,"redaktion":10411,"rækker":10412,"hessen":10413,"##pal":10414,"##ætte":10415,"sydney":10416,"bygningerne":10417,"bald":10418,"##dæ":10419,"##orme":10420,"positiv":10421,"befolknings":10422,"patienter":10423,"skuespilleren":10424,"florida":10425,"aage":10426,"##iff":10427,"##oslov":10428,"columb":10429,"jeff":10430,"tydelig":10431,"dygtig":10432,"spillefilm":10433,"##srad":10434,"##istol":10435,"bosat":10436,"bjergk":10437,"##talende":10438,"komplet":10439,"apost":10440,"##somrader":10441,"bøn":10442,"bah":10443,"nedsk":10444,"antarkt":10445,"dahl":10446,"musikalsk":10447,"alvorlige":10448,"teorier":10449,"spirit":10450,"##hs":10451,"forbill":10452,"skuespillerinde":10453,"##kat":10454,"skikk":10455,"infra":10456,"generall":10457,"##bat":10458,"besiddelse":10459,"øre":10460,"##stret":10461,"floder":10462,"##bringe":10463,"middelhavet":10464,"neutral":10465,"##kommanderende":10466,"ivan":10467,"sande":10468,"1807":10469,"busser":10470,"beordrede":10471,"gader":10472,"vagt":10473,"omkost":10474,"sving":10475,"kvæg":10476,"rø":10477,"##hel":10478,"begyndelse":10479,"##onsor":10480,"navy":10481,"fall":10482,"rammer":10483,"mellemøsten":10484,"personligt":10485,"korea":10486,"andrew":10487,"server":10488,"udvalgte":10489,"urugu":10490,"steve":10491,"byrad":10492,"nedsat":10493,"billboard":10494,"svøm":10495,"1810":10496,"tilbag":10497,"besatte":10498,"##ægtig":10499,"alvorligt":10500,"bam":10501,"formue":10502,"dame":10503,"##ribut":10504,"128":10505,"lovgivning":10506,"levetid":10507,"bug":10508,"fug":10509,"##cho":10510,"indust":10511,"##ording":10512,"koordin":10513,"trium":10514,"##bade":10515,"##egede":10516,"##ksh":10517,"##opol":10518,"##sfolk":10519,"skolens":10520,"søj":10521,"147":10522,"romerne":10523,"mete":10524,"tages":10525,"væv":10526,"##du":10527,"##ieg":10528,"##skes":10529,"evt":10530,"hip":10531,"indstillet":10532,"datidens":10533,"færøernes":10534,"cir":10535,"forvand":10536,"skt":10537,"baggrunden":10538,"wcw":10539,"malmand":10540,"pse":10541,"##mu":10542,"##yldt":10543,"voksen":10544,"kvalifikations":10545,"tjekkoslov":10546,"turister":10547,"kroat":10548,"afløste":10549,"tømmer":10550,"##læge":10551,"##ough":10552,"igang":10553,"udspring":10554,"skræ":10555,"##ksp":10556,"##bridge":10557,"falde":10558,"rummet":10559,"1838":10560,"pac":10561,"##ires":10562,"farm":10563,"kok":10564,"##drup":10565,"##ommun":10566,"eric":10567,"##rie":10568,"joach":10569,"nært":10570,"opføre":10571,"1835":10572,"tjene":10573,"burde":10574,"søskende":10575,"mov":10576,"stemte":10577,"lyset":10578,"dialekt":10579,"øge":10580,"overfladen":10581,"##arth":10582,"cykelrytter":10583,"føres":10584,"148":10585,"læser":10586,"passerer":10587,"fremtidige":10588,"oxford":10589,"##svalg":10590,"invad":10591,"stillehavet":10592,"vesttyskland":10593,"##iva":10594,"bestand":10595,"agent":10596,"værdif":10597,"morgenen":10598,"theodor":10599,"kancell":10600,"##imir":10601,"styres":10602,"bin":10603,"nak":10604,"global":10605,"kontinent":10606,"##ssted":10607,"##elius":10608,"darlige":10609,"artilleri":10610,"joachim":10611,"##hab":10612,"##cil":10613,"##ief":10614,"alger":10615,"venedig":10616,"landbruget":10617,"hermed":10618,"centre":10619,"##færen":10620,"##aljerne":10621,"##cert":10622,"1801":10623,"##jyllands":10624,"hvider":10625,"færre":10626,"servic":10627,"etniske":10628,"preussiske":10629,"##car":10630,"##stjerne":10631,"##nettet":10632,"lektor":10633,"sangerinde":10634,"fasc":10635,"eksplos":10636,"cab":10637,"vestre":10638,"defineret":10639,"taylor":10640,"05":10641,"##iction":10642,"sygdommen":10643,"##orter":10644,"hovedrolle":10645,"kredsen":10646,"brændte":10647,"generalløjtnant":10648,"##ulf":10649,"mari":10650,"loy":10651,"privatliv":10652,"original":10653,"faderens":10654,"dollars":10655,"sendes":10656,"##chus":10657,"1803":10658,"sammenslut":10659,"brandenburg":10660,"bio":10661,"##pol":10662,"##direktør":10663,"##haven":10664,"bist":10665,"##act":10666,"proje":10667,"tilbød":10668,"##landsk":10669,"berling":10670,"terræn":10671,"airport":10672,"wel":10673,"næppe":10674,"udvidede":10675,"frekvens":10676,"##sproget":10677,"kjær":10678,"etableringen":10679,"moleky":10680,"indlemmet":10681,"genud":10682,"##kont":10683,"vidner":10684,"johanne":10685,"noteret":10686,"##lub":10687,"##sholm":10688,"antik":10689,"dream":10690,"fonden":10691,"kard":10692,"pur":10693,"samlingen":10694,"rosenkr":10695,"kern":10696,"##kin":10697,"1809":10698,"wilson":10699,"350":10700,"aktion":10701,"##yper":10702,"grundlaget":10703,"brad":10704,"utal":10705,"##zburg":10706,"##utt":10707,"domkirke":10708,"patient":10709,"territorium":10710,"ded":10711,"nig":10712,"arsen":10713,"fine":10714,"variant":10715,"##skridt":10716,"individuelle":10717,"oversigt":10718,"mindret":10719,"hadsund":10720,"jung":10721,"stemmerne":10722,"sammenlignet":10723,"gøres":10724,"skad":10725,"truede":10726,"brasiliansk":10727,"gens":10728,"sea":10729,"optræde":10730,"pseud":10731,"forføl":10732,"##klin":10733,"##mærke":10734,"forsikring":10735,"tilgængelige":10736,"entertain":10737,"##essor":10738,"semifinal":10739,"trykt":10740,"thomsen":10741,"protestant":10742,"aviser":10743,"skæbne":10744,"døbt":10745,"lat":10746,"##sol":10747,"tyder":10748,"dages":10749,"bou":10750,"##mask":10751,"beskrive":10752,"primær":10753,"ortod":10754,"endeligt":10755,"udstrækning":10756,"forfremmet":10757,"lør":10758,"indst":10759,"chi":10760,"marsh":10761,"##bunden":10762,"nede":10763,"##byggelser":10764,"forretnings":10765,"enige":10766,"stone":10767,"hangar":10768,"modtagelse":10769,"statsk":10770,"119":10771,"dannelsen":10772,"fjender":10773,"officiel":10774,"elef":10775,"thorvald":10776,"døb":10777,"##edia":10778,"friis":10779,"koalition":10780,"##marken":10781,"normand":10782,"golden":10783,"nørrebro":10784,"##nie":10785,"##aktioner":10786,"##ækken":10787,"##otel":10788,"amerikanerne":10789,"ledte":10790,"gerning":10791,"mir":10792,"##æson":10793,"##klassen":10794,"løsl":10795,"stev":10796,"##officer":10797,"petersborg":10798,"##aria":10799,"ulrik":10800,"skridt":10801,"##fektur":10802,"##mæssigt":10803,"##roy":10804,"##auer":10805,"##uan":10806,"##kul":10807,"##ovic":10808,"tiv":10809,"justit":10810,"kunstakademiet":10811,"##verdenen":10812,"komponeret":10813,"kolonier":10814,"pleje":10815,"lom":10816,"water":10817,"##kir":10818,"america":10819,"sammensat":10820,"charlotten":10821,"rend":10822,"##omi":10823,"bevæger":10824,"jarl":10825,"erfaring":10826,"lewis":10827,"cyl":10828,"topp":10829,"##nummer":10830,"hamburg":10831,"07":10832,"##itch":10833,"beij":10834,"regerings":10835,"pabegyndte":10836,"##øft":10837,"##kol":10838,"indgang":10839,"elvis":10840,"sløj":10841,"østre":10842,"automatisk":10843,"polar":10844,"trondheim":10845,"godset":10846,"score":10847,"afgjort":10848,"##sloven":10849,"1828":10850,"##oseks":10851,"##bevægelsen":10852,"##berne":10853,"##skreds":10854,"fremgar":10855,"##vold":10856,"forum":10857,"##yrer":10858,"101":10859,"tempel":10860,"processen":10861,"##stationer":10862,"##agnen":10863,"driften":10864,"##fronten":10865,"søb":10866,"udgive":10867,"konkurs":10868,"dres":10869,"##ades":10870,"industrial":10871,"afledt":10872,"eger":10873,"##ejer":10874,"nich":10875,"##ope":10876,"forskelle":10877,"filmene":10878,"tørre":10879,"frankfurt":10880,"ric":10881,"nyop":10882,"faktor":10883,"konged":10884,"1813":10885,"guddom":10886,"forø":10887,"see":10888,"vandløb":10889,"##dags":10890,"lincol":10891,"politikere":10892,"mistet":10893,"prog":10894,"beløb":10895,"sop":10896,"skru":10897,"værkt":10898,"svømme":10899,"marokk":10900,"amtmand":10901,"zur":10902,"##wich":10903,"spise":10904,"krigsf":10905,"1829":10906,"prøvede":10907,"##try":10908,"arbejdere":10909,"##rejsende":10910,"sælges":10911,"##biler":10912,"##dalen":10913,"##klass":10914,"comm":10915,"drøm":10916,"medfører":10917,"1812":10918,"ambassadør":10919,"zar":10920,"##do":10921,"skrives":10922,"##rækker":10923,"##skjold":10924,"dække":10925,"afvist":10926,"indkomst":10927,"privileg":10928,"gentagne":10929,"medstifter":10930,"forlov":10931,"punkter":10932,"historikere":10933,"muslimer":10934,"1834":10935,"lejr":10936,"danish":10937,"hersker":10938,"hjerne":10939,"##strom":10940,"risiko":10941,"gabri":10942,"society":10943,"##strakt":10944,"opbygget":10945,"portrætter":10946,"geografiske":10947,"##ße":10948,"week":10949,"jonas":10950,"##skyld":10951,"festivalen":10952,"introducerede":10953,"juridiske":10954,"##zirk":10955,"turisme":10956,"grønlands":10957,"sarede":10958,"skotsk":10959,"##ih":10960,"##sev":10961,"betydningen":10962,"juel":10963,"kæmper":10964,"arkitekten":10965,"micros":10966,"bbc":10967,"lager":10968,"førstehold":10969,"koret":10970,"tegnefilm":10971,"dirigent":10972,"##ensstemmelse":10973,"tir":10974,"frik":10975,"kanton":10976,"kommissionen":10977,"israelske":10978,"korrekt":10979,"bundet":10980,"sard":10981,"##ariske":10982,"mars":10983,"skibets":10984,"##amerikanske":10985,"upp":10986,"##alis":10987,"##illinger":10988,"komment":10989,"##rænde":10990,"menneskets":10991,"sjælden":10992,"wwf":10993,"afhandling":10994,"politiken":10995,"dab":10996,"##die":10997,"##bolig":10998,"little":10999,"##blemer":11000,"##krater":11001,"johnny":11002,"beredne":11003,"sebast":11004,"microsoft":11005,"##iers":11006,"##ito":11007,"advar":11008,"infrastruktur":11009,"##sven":11010,"forsøge":11011,"afghanistan":11012,"##celler":11013,"spart":11014,"enden":11015,"teologi":11016,"##klubben":11017,"pladeselskab":11018,"fremstilles":11019,"konflikter":11020,"##jan":11021,"erhvervs":11022,"lærere":11023,"beijing":11024,"kinas":11025,"##visninger":11026,"kontrollen":11027,"kastede":11028,"statsborger":11029,"fætter":11030,"kende":11031,"##førsel":11032,"bygg":11033,"matth":11034,"barnet":11035,"##hjel":11036,"sene":11037,"bret":11038,"bure":11039,"typen":11040,"das":11041,"kub":11042,"ringen":11043,"##ovl":11044,"vildt":11045,"adskilt":11046,"udskift":11047,"overdraget":11048,"zone":11049,"kredse":11050,"almen":11051,"arrangementer":11052,"pabegyndt":11053,"uret":11054,"henseende":11055,"medvirker":11056,"kunstneriske":11057,"alvorlig":11058,"annoncerede":11059,"hr":11060,"##børn":11061,"##edom":11062,"##ødder":11063,"sammenlagt":11064,"kommunes":11065,"business":11066,"kredit":11067,"racer":11068,"siddende":11069,"universiteter":11070,"naturlig":11071,"natura":11072,"tales":11073,"lærde":11074,"##spris":11075,"regnet":11076,"opgive":11077,"uddannelsen":11078,"præsenteret":11079,"hoff":11080,"##ulerede":11081,"plast":11082,"##tagelsen":11083,"##ifer":11084,"karakteriseret":11085,"##danmark":11086,"tillod":11087,"rekonstru":11088,"fremskridt":11089,"profil":11090,"pladen":11091,"##rummet":11092,"velfærd":11093,"##trafik":11094,"isen":11095,"##iy":11096,"klaus":11097,"km2":11098,"forfatterskab":11099,"operaer":11100,"fortælling":11101,"utilfred":11102,"rett":11103,"svenskerne":11104,"cens":11105,"##kj":11106,"komplek":11107,"opfundet":11108,"moltke":11109,"nogenlunde":11110,"sammenhænge":11111,"oversvøm":11112,"bop":11113,"ged":11114,"hong":11115,"pyr":11116,"opvokset":11117,"huser":11118,"egenskab":11119,"dublin":11120,"sejle":11121,"læste":11122,"ødelagde":11123,"gyldne":11124,"licens":11125,"ynd":11126,"your":11127,"##ray":11128,"meddel":11129,"##ury":11130,"fril":11131,"##linje":11132,"komponister":11133,"departementet":11134,"rosenkrantz":11135,"dus":11136,"uss":11137,"##vning":11138,"##erske":11139,"castle":11140,"##familien":11141,"entertainment":11142,"rov":11143,"##eta":11144,"forker":11145,"##avik":11146,"embedsmænd":11147,"##vidt":11148,"##esi":11149,"underviste":11150,"videnskabelig":11151,"princippet":11152,"ein":11153,"##forsy":11154,"thisted":11155,"parker":11156,"succesfulde":11157,"fremstille":11158,"rib":11159,"kryst":11160,"##upe":11161,"135":11162,"cirkus":11163,"donau":11164,"forsyninger":11165,"skarp":11166,"mordet":11167,"forstyr":11168,"##ido":11169,"sak":11170,"danskerne":11171,"hærens":11172,"ultim":11173,"refererer":11174,"06":11175,"nordt":11176,"afsløret":11177,"manuskriptet":11178,"##adal":11179,"trækker":11180,"løst":11181,"dyrkede":11182,"academy":11183,"tilgang":11184,"##uster":11185,"##beskyt":11186,"datteren":11187,"##iserende":11188,"kaldtes":11189,"##regel":11190,"##slov":11191,"positive":11192,"dieselm":11193,"##mans":11194,"##reen":11195,"endog":11196,"##hai":11197,"gravid":11198,"##uit":11199,"undertr":11200,"milj":11201,"nævner":11202,"japanerne":11203,"nick":11204,"helhed":11205,"boliv":11206,"mv":11207,"speciel":11208,"##haus":11209,"##stitu":11210,"bremen":11211,"episoder":11212,"bebyggelsen":11213,"mærke":11214,"##skred":11215,"krige":11216,"kanaler":11217,"menneskeret":11218,"gæld":11219,"127":11220,"bredere":11221,"##skiold":11222,"##middel":11223,"forsker":11224,"vidste":11225,"museer":11226,"drage":11227,"fælle":11228,"keram":11229,"pund":11230,"udfor":11231,"skan":11232,"##styrker":11233,"##grene":11234,"mønt":11235,"optagelser":11236,"##uropæiske":11237,"indr":11238,"abningen":11239,"beliggenhed":11240,"##iderne":11241,"regent":11242,"arkiv":11243,"brown":11244,"afslør":11245,"rolling":11246,"individer":11247,"offensiv":11248,"mom":11249,"etage":11250,"##ums":11251,"hvorvidt":11252,"krise":11253,"118":11254,"mors":11255,"johansen":11256,"cheft":11257,"administrerende":11258,"veste":11259,"spek":11260,"##mad":11261,"oluf":11262,"skala":11263,"franskmændene":11264,"##ied":11265,"medalje":11266,"1831":11267,"carlsberg":11268,"stenen":11269,"østrigsk":11270,"maskinge":11271,"grundlægger":11272,"##munition":11273,"##eriets":11274,"##sider":11275,"nicolai":11276,"væb":11277,"anal":11278,"##ropper":11279,"oprykning":11280,"##sætningen":11281,"1832":11282,"##sdal":11283,"praktiske":11284,"tidsskriftet":11285,"sædvanligvis":11286,"##ype":11287,"stede":11288,"##ffel":11289,"christoffer":11290,"forsvarede":11291,"landsbyerne":11292,"imm":11293,"vejer":11294,"verdensarv":11295,"elektric":11296,"traditioner":11297,"kombineret":11298,"european":11299,"venst":11300,"redig":11301,"suver":11302,"forbunds":11303,"forklaring":11304,"dol":11305,"##iano":11306,"udveks":11307,"skuespillere":11308,"sønderjyske":11309,"pavirkning":11310,"knudsen":11311,"kostede":11312,"haven":11313,"besvær":11314,"##broen":11315,"afdøde":11316,"tæller":11317,"pause":11318,"kendskab":11319,"meteor":11320,"##omon":11321,"etager":11322,"opsamling":11323,"emne":11324,"brugere":11325,"regeringens":11326,"seriens":11327,"##erioden":11328,"tekstil":11329,"ringkøbing":11330,"##mærket":11331,"vegne":11332,"overordnede":11333,"cer":11334,"dum":11335,"hoffet":11336,"pod":11337,"##sig":11338,"familiens":11339,"redning":11340,"##familie":11341,"sans":11342,"##ægte":11343,"mount":11344,"colomb":11345,"bataljon":11346,"basketball":11347,"##eria":11348,"onkel":11349,"dougl":11350,"bølge":11351,"fædreland":11352,"tony":11353,"meyer":11354,"1826":11355,"birg":11356,"kunnet":11357,"##vision":11358,"svære":11359,"maked":11360,"gregor":11361,"christine":11362,"##styrelsen":11363,"vanskeligt":11364,"midlertidig":11365,"##dansk":11366,"##kning":11367,"snor":11368,"##kampen":11369,"##tz":11370,"##arup":11371,"##reber":11372,"brændstof":11373,"tjekkiet":11374,"monument":11375,"nag":11376,"slutrunden":11377,"tegnede":11378,"legend":11379,"ef":11380,"##reserv":11381,"filipp":11382,"##styret":11383,"corpor":11384,"konflikten":11385,"fedt":11386,"europamester":11387,"temmelig":11388,"gjaldt":11389,"forestillinger":11390,"##endal":11391,"grene":11392,"tanken":11393,"##ais":11394,"bach":11395,"truet":11396,"roll":11397,"##deligt":11398,"145":11399,"udvalgt":11400,"##aton":11401,"##aser":11402,"columbia":11403,"platin":11404,"##lings":11405,"hovedt":11406,"##plade":11407,"bue":11408,"##hem":11409,"##cker":11410,"##amo":11411,"kapacitet":11412,"1806":11413,"soldat":11414,"tilgængelig":11415,"kendetegn":11416,"tod":11417,"shak":11418,"##bury":11419,"smalle":11420,"hier":11421,"power":11422,"##hast":11423,"states":11424,"hæm":11425,"udnyt":11426,"medarbejder":11427,"cheftræner":11428,"dial":11429,"pans":11430,"##bedste":11431,"avancerede":11432,"rein":11433,"##ingeniør":11434,"rejsen":11435,"vælges":11436,"##udstilling":11437,"spilleren":11438,"1816":11439,"##kob":11440,"ligget":11441,"##lægningen":11442,"fortælle":11443,"gly":11444,"lak":11445,"opdager":11446,"kemisk":11447,"charlie":11448,"beviser":11449,"##general":11450,"undergrund":11451,"##artet":11452,"davis":11453,"bosn":11454,"islandsk":11455,"tig":11456,"præster":11457,"angivet":11458,"alternative":11459,"kommercielle":11460,"maskingevær":11461,"yor":11462,"##okken":11463,"bebyggelser":11464,"deleg":11465,"##inton":11466,"##sprod":11467,"tjener":11468,"##ylvania":11469,"##græ":11470,"neur":11471,"conf":11472,"operaen":11473,"forsvarende":11474,"kejserlige":11475,"besætningen":11476,"##hf":11477,"##gl":11478,"##cos":11479,"syg":11480,"favor":11481,"betydningsfulde":11482,"gy":11483,"##ulere":11484,"state":11485,"tennes":11486,"ejendomme":11487,"lincoln":11488,"##serie":11489,"kvar":11490,"kunstnerisk":11491,"selskabets":11492,"kompagni":11493,"afrikanske":11494,"tide":11495,"##tre":11496,"##vang":11497,"anker":11498,"generelle":11499,"##regiment":11500,"idømt":11501,"virkelige":11502,"eksistens":11503,"dynastiet":11504,"lp":11505,"stifter":11506,"##ops":11507,"cha":11508,"tilbagevend":11509,"rigsd":11510,"eksperimenter":11511,"nam":11512,"##ogle":11513,"omgange":11514,"blød":11515,"gennemgik":11516,"##uki":11517,"metropolit":11518,"##api":11519,"størst":11520,"pont":11521,"skander":11522,"harris":11523,"##ejl":11524,"hovedbyen":11525,"frugterne":11526,"rykke":11527,"##nor":11528,"##kkedes":11529,"vestind":11530,"beskad":11531,"##torp":11532,"undtagen":11533,"sørg":11534,"##bærer":11535,"stoffet":11536,"##kterne":11537,"afvand":11538,"udtal":11539,"klasser":11540,"bygges":11541,"1818":11542,"helsink":11543,"parag":11544,"normann":11545,"##ili":11546,"123":11547,"producent":11548,"##syssel":11549,"##fast":11550,"##isation":11551,"finansier":11552,"radgiver":11553,"demokrati":11554,"alfabet":11555,"##eng":11556,"##ates":11557,"##ænkt":11558,"instruktion":11559,"penns":11560,"efterretning":11561,"højder":11562,"kristus":11563,"douglas":11564,"udendørs":11565,"overensstemmelse":11566,"altertav":11567,"sovjetunionens":11568,"semifinalen":11569,"gunnar":11570,"ran":11571,"ryd":11572,"ali":11573,"##ello":11574,"maxim":11575,"##geme":11576,"formodentlig":11577,"hero":11578,"game":11579,"opsta":11580,"kunde":11581,"opfindel":11582,"takket":11583,"##ævnet":11584,"smed":11585,"lederen":11586,"hellerup":11587,"##niveau":11588,"bruun":11589,"##somhed":11590,"##skove":11591,"udføres":11592,"canadisk":11593,"skød":11594,"slave":11595,"sektor":11596,"slutte":11597,"kronen":11598,"simple":11599,"##undborg":11600,"##stenen":11601,"##boldlandshold":11602,"kommunist":11603,"forholdene":11604,"##træden":11605,"tryg":11606,"unionen":11607,"stones":11608,"cham":11609,"ammunition":11610,"##ells":11611,"torshavn":11612,"mængden":11613,"defens":11614,"regeringstid":11615,"1824":11616,"##øer":11617,"##levende":11618,"nordafrika":11619,"nedslag":11620,"##sfilm":11621,"kvalificeret":11622,"kvalifikationen":11623,"hemmelige":11624,"##spar":11625,"blandede":11626,"117":11627,"04":11628,"##kørsel":11629,"##ærd":11630,"##ationerne":11631,"hermann":11632,"kalundborg":11633,"lauritz":11634,"berlingske":11635,"freg":11636,"løjtnant":11637,"##olis":11638,"##ovo":11639,"glo":11640,"forsanger":11641,"semifinalerne":11642,"kunder":11643,"overskud":11644,"ell":11645,"riga":11646,"embede":11647,"##æderne":11648,"##ener":11649,"enorm":11650,"udvide":11651,"1833":11652,"warsza":11653,"##elskabet":11654,"##skirken":11655,"vedvarende":11656,"vesten":11657,"##nuft":11658,"hurtige":11659,"##ilitet":11660,"reelt":11661,"synger":11662,"typiske":11663,"maskiner":11664,"regerede":11665,"facel":11666,"stærkere":11667,"kirsten":11668,"aqu":11669,"bk":11670,"paven":11671,"skifter":11672,"##rix":11673,"slutspillet":11674,"opgivet":11675,"bombar":11676,"digitale":11677,"##nens":11678,"##gning":11679,"foruren":11680,"##issen":11681,"132":11682,"frue":11683,"violin":11684,"##ungen":11685,"init":11686,"koncep":11687,"minor":11688,"homoseks":11689,"køretøjer":11690,"##præsent":11691,"underskrevet":11692,"vore":11693,"##wick":11694,"opl":11695,"beck":11696,"genre":11697,"slar":11698,"saga":11699,"karakteristisk":11700,"unionens":11701,"kratere":11702,"forvaltning":11703,"##olie":11704,"hvorimod":11705,"nordjylland":11706,"grave":11707,"sikret":11708,"##forbundet":11709,"atlanterhavet":11710,"##anstalt":11711,"lægges":11712,"drengen":11713,"tunnel":11714,"##anon":11715,"light":11716,"katedral":11717,"blomst":11718,"analyser":11719,"##apt":11720,"##vad":11721,"##reich":11722,"##ipend":11723,"139":11724,"##omraderne":11725,"ringsted":11726,"##fyrst":11727,"rival":11728,"kommiss":11729,"mandater":11730,"##bourne":11731,"manglede":11732,"kommunalbestyr":11733,"jersey":11734,"cyp":11735,"genren":11736,"ofre":11737,"norde":11738,"foreløb":11739,"grammy":11740,"tiltradte":11741,"##hag":11742,"##fond":11743,"##urin":11744,"##essel":11745,"137":11746,"1790":11747,"symptomer":11748,"krag":11749,"etats":11750,"indfødte":11751,"##sningen":11752,"##edal":11753,"etiop":11754,"dukkede":11755,"##chaft":11756,"braun":11757,"dram":11758,"foreningens":11759,"lanceret":11760,"nødvendigvis":11761,"##bul":11762,"mane":11763,"liggende":11764,"113":11765,"fordele":11766,"dc":11767,"##fære":11768,"folketællingen":11769,"##dage":11770,"##stren":11771,"afhandlinger":11772,"##abe":11773,"##bestem":11774,"julian":11775,"##mands":11776,"action":11777,"antages":11778,"mikkel":11779,"herres":11780,"##barhed":11781,"1819":11782,"præsidenten":11783,"stoppet":11784,"##skuespiller":11785,"##ierung":11786,"regerende":11787,"bygnings":11788,"fortjen":11789,"boston":11790,"1825":11791,"geografisk":11792,"separat":11793,"circ":11794,"##ava":11795,"lyder":11796,"refer":11797,"bulgarien":11798,"genv":11799,"herved":11800,"##ants":11801,"boet":11802,"morris":11803,"schweiziske":11804,"borgerkrigen":11805,"stiller":11806,"befandt":11807,"fæstningen":11808,"frej":11809,"vendt":11810,"##elærer":11811,"afsat":11812,"slutning":11813,"østerbro":11814,"fronten":11815,"hørt":11816,"##edag":11817,"##isp":11818,"##ush":11819,"anh":11820,"fint":11821,"146":11822,"##floden":11823,"trussel":11824,"##osev":11825,"##drift":11826,"##alm":11827,"##egang":11828,"hell":11829,"knæ":11830,"processer":11831,"nutid":11832,"hovedrollerne":11833,"##rif":11834,"opgaven":11835,"legat":11836,"##vidde":11837,"høn":11838,"ving":11839,"indendørs":11840,"beløn":11841,"sammenhængende":11842,"nit":11843,"##amfund":11844,"urol":11845,"field":11846,"oster":11847,"ugen":11848,"æst":11849,"##nord":11850,"indg":11851,"instit":11852,"orange":11853,"hovedkrateret":11854,"undsl":11855,"##stitution":11856,"skiftende":11857,"nabok":11858,"##ki":11859,"turen":11860,"stammen":11861,"væsentlige":11862,"##spektiv":11863,"coc":11864,"adop":11865,"##kond":11866,"138":11867,"sovjetisk":11868,"borgerlige":11869,"okk":11870,"##ulu":11871,"klipp":11872,"asiat":11873,"inklusiv":11874,"sibi":11875,"##non":11876,"##hørende":11877,"##agerne":11878,"konst":11879,"besiddel":11880,"sidenhen":11881,"kampagne":11882,"kongres":11883,"##linjen":11884,"otter":11885,"statslige":11886,"manuskriptforfatter":11887,"nø":11888,"##lich":11889,"udlev":11890,"##ija":11891,"almindeligvis":11892,"bjør":11893,"##smedlemmer":11894,"##publikken":11895,"##rurg":11896,"1805":11897,"finansielle":11898,"##abnet":11899,"geomet":11900,"144":11901,"1811":11902,"##organisationer":11903,"cob":11904,"lane":11905,"enorme":11906,"##iki":11907,"spør":11908,"##kommen":11909,"grevskabet":11910,"##sprogede":11911,"problemet":11912,"videnskaber":11913,"walt":11914,"##ault":11915,"##ofon":11916,"optim":11917,"##vendte":11918,"##edo":11919,"##imentet":11920,"sammensætning":11921,"magasin":11922,"sicilien":11923,"##allen":11924,"manens":11925,"monteret":11926,"tax":11927,"leverede":11928,"bage":11929,"formen":11930,"instal":11931,"##holdende":11932,"##ireg":11933,"nærings":11934,"##issipp":11935,"fredag":11936,"indflydelses":11937,"mønster":11938,"tilstrækkelig":11939,"julie":11940,"##inkel":11941,"##egarden":11942,"filosofiske":11943,"sebastian":11944,"##skifte":11945,"##egru":11946,"kalde":11947,"105":11948,"129":11949,"##aude":11950,"lørdag":11951,"fornuft":11952,"format":11953,"originalt":11954,"stationsbygningen":11955,"flemming":11956,"camer":11957,"##bind":11958,"##enz":11959,"##stjer":11960,"##rafik":11961,"dance":11962,"resterne":11963,"mississipp":11964,"erobring":11965,"pend":11966,"markeret":11967,"kategorien":11968,"principper":11969,"hvornar":11970,"reglen":11971,"##værdig":11972,"109":11973,"##lines":11974,"conrad":11975,"demokratisk":11976,"ungarske":11977,"##uin":11978,"danser":11979,"radet":11980,"metall":11981,"guine":11982,"##takt":11983,"ble":11984,"kæl":11985,"##befolk":11986,"##elløb":11987,"toget":11988,"militæret":11989,"kendetegnet":11990,"sunget":11991,"atp":11992,"##sled":11993,"isab":11994,"##byggeri":11995,"www":11996,"institute":11997,"rog":11998,"yout":11999,"fortællinger":12000,"exp":12001,"lady":12002,"piet":12003,"øste":12004,"##brev":12005,"plot":12006,"##afdeling":12007,"singap":12008,"##fekt":12009,"ryggen":12010,"pianist":12011,"gum":12012,"loc":12013,"mødet":12014,"sna":12015,"##endorf":12016,"dannebrogsmand":12017,"##hyd":12018,"##fyn":12019,"##ero":12020,"stillehav":12021,"fjernsyn":12022,"khan":12023,"pigen":12024,"onde":12025,"krimin":12026,"afgørelse":12027,"stefan":12028,"pioner":12029,"vene":12030,"opbygning":12031,"##attle":12032,"##posten":12033,"alderen":12034,"udnytte":12035,"opfattes":12036,"kroatien":12037,"##uppet":12038,"udstillingen":12039,"frans":12040,"##sfri":12041,"stadium":12042,"spilletid":12043,"kapitel":12044,"1804":12045,"##mont":12046,"german":12047,"##stallet":12048,"amalie":12049,"ihjel":12050,"uld":12051,"mach":12052,"skuff":12053,"yderste":12054,"##hosp":12055,"##lejet":12056,"##ampton":12057,"henret":12058,"banken":12059,"##anisme":12060,"hertugen":12061,"tillader":12062,"##punktet":12063,"afst":12064,"forløber":12065,"104":12066,"viking":12067,"ryttere":12068,"stephen":12069,"ækv":12070,"##ology":12071,"rhinen":12072,"##billede":12073,"konsekvenser":12074,"deles":12075,"ravn":12076,"skriv":12077,"fritz":12078,"##ateau":12079,"vindere":12080,"hvidovre":12081,"jorde":12082,"##rier":12083,"deltagerne":12084,"sygeple":12085,"##ologen":12086,"digtet":12087,"rudolf":12088,"skanderborg":12089,"dikt":12090,"##shus":12091,"slægter":12092,"##æves":12093,"##shoved":12094,"løfte":12095,"gradvist":12096,"desto":12097,"##olo":12098,"værne":12099,"regierung":12100,"amter":12101,"106":12102,"##elli":12103,"1802":12104,"eksisteret":12105,"forbedret":12106,"queen":12107,"wurt":12108,"##aj":12109,"varde":12110,"##udi":12111,"benj":12112,"kirkegarden":12113,"ledes":12114,"och":12115,"##worth":12116,"##avet":12117,"##imar":12118,"korstog":12119,"##færdig":12120,"omstændigheder":12121,"jet":12122,"ops":12123,"sche":12124,"class":12125,"distrikter":12126,"skandinaviske":12127,"afhænger":12128,"tennessee":12129,"death":12130,"australian":12131,"##rium":12132,"henvisning":12133,"betingelser":12134,"fus":12135,"fut":12136,"pc":12137,"moders":12138,"pennsylvania":12139,"htt":12140,"stænder":12141,"udarbejdet":12142,"orlog":12143,"natural":12144,"markerede":12145,"kritiske":12146,"parlamentar":12147,"simpelt":12148,"udryd":12149,"##lor":12150,"##junkt":12151,"##stæder":12152,"stro":12153,"passende":12154,"normandiet":12155,"ci":12156,"##mis":12157,"##gten":12158,"##kong":12159,"akties":12160,"dronningen":12161,"myndighederne":12162,"##idel":12163,"##ident":12164,"##skaberne":12165,"faktorer":12166,"bygden":12167,"shar":12168,"flyver":12169,"viktor":12170,"niedersa":12171,"øgede":12172,"##rukket":12173,"##ibo":12174,"kampvogn":12175,"opmærksom":12176,"uruguay":12177,"ege":12178,"ride":12179,"##litter":12180,"##kilde":12181,"##wo":12182,"##utz":12183,"##ænke":12184,"naturligvis":12185,"home":12186,"bureau":12187,"ove":12188,"wagner":12189,"##vande":12190,"##start":12191,"somal":12192,"samler":12193,"betalte":12194,"107":12195,"##ways":12196,"ødelægge":12197,"nobelprisen":12198,"##rud":12199,"##arkite":12200,"kirkelige":12201,"come":12202,"1821":12203,"voldsomme":12204,"reglerne":12205,"holstein":12206,"##ellan":12207,"milano":12208,"dukker":12209,"##parret":12210,"##kvarteret":12211,"tusinde":12212,"serbien":12213,"##regering":12214,"lubeck":12215,"fiction":12216,"gig":12217,"##osp":12218,"mandat":12219,"premierløjtnant":12220,"forpligt":12221,"hugo":12222,"##bælt":12223,"##rogen":12224,"kongerige":12225,"socialdemokratiet":12226,"hur":12227,"nark":12228,"rast":12229,"##mning":12230,"##opel":12231,"kampagnen":12232,"regierungsbe":12233,"face":12234,"jyllands":12235,"##olin":12236,"##erencen":12237,"mands":12238,"intelle":12239,"helsinki":12240,"gord":12241,"liters":12242,"kollega":12243,"bronzemedalje":12244,"##magt":12245,"svagt":12246,"medicinsk":12247,"forvir":12248,"djæv":12249,"##arat":12250,"herudover":12251,"læder":12252,"trinbræt":12253,"wed":12254,"##oul":12255,"adresse":12256,"besta":12257,"lukke":12258,"##dommer":12259,"økonomien":12260,"1817":12261,"fjeld":12262,"faciliteter":12263,"forsyning":12264,"korresp":12265,"dresden":12266,"bekl":12267,"period":12268,"guy":12269,"englands":12270,"objekter":12271,"##højskole":12272,"rigsdaler":12273,"ane":12274,"##etts":12275,"##retninger":12276,"##anni":12277,"domineret":12278,"foreninger":12279,"administrativ":12280,"124":12281,"kenned":12282,"bokser":12283,"bille":12284,"omring":12285,"##ista":12286,"alice":12287,"##sene":12288,"overhovedet":12289,"michel":12290,"progress":12291,"fame":12292,"kode":12293,"##quar":12294,"opsat":12295,"indholdet":12296,"haver":12297,"beboet":12298,"##livet":12299,"##11":12300,"##elov":12301,"retninger":12302,"korsf":12303,"##planter":12304,"legem":12305,"ferie":12306,"forgæves":12307,"navig":12308,"etatsrad":12309,"##itive":12310,"samuel":12311,"blat":12312,"sekond":12313,"trekant":12314,"nederste":12315,"distribut":12316,"vogne":12317,"##aco":12318,"##akh":12319,"langvar":12320,"##sbo":12321,"voldsomt":12322,"fi":12323,"##undne":12324,"hjort":12325,"hovedbygningen":12326,"tyrkisk":12327,"beskæftigede":12328,"entre":12329,"tredjedel":12330,"kin":12331,"smør":12332,"1795":12333,"soundtra":12334,"pens":12335,"##con":12336,"##cyk":12337,"##fødte":12338,"stiger":12339,"konstat":12340,"krøn":12341,"122":12342,"kaffe":12343,"samfunds":12344,"accepterede":12345,"##ilt":12346,"##skade":12347,"##oller":12348,"##istent":12349,"##aps":12350,"##kender":12351,"1789":12352,"lægem":12353,"embedsmand":12354,"etym":12355,"maleriet":12356,"engl":12357,"opretholde":12358,"bønd":12359,"dames":12360,"lide":12361,"skatter":12362,"bevæb":12363,"##ced":12364,"##onder":12365,"forhøj":12366,"134":12367,"cec":12368,"##wen":12369,"##leans":12370,"affald":12371,"romansk":12372,"bøgerne":12373,"vladimir":12374,"##leve":12375,"##ismens":12376,"katolsk":12377,"fuldstændigt":12378,"western":12379,"tort":12380,"##ax":12381,"finlands":12382,"domstol":12383,"##sche":12384,"uddelt":12385,"hei":12386,"brænde":12387,"ess":12388,"##gro":12389,"##værn":12390,"handlingen":12391,"bachel":12392,"##mærker":12393,"fabrikker":12394,"reklame":12395,"##pat":12396,"omsætning":12397,"ønsket":12398,"1770":12399,"gottorp":12400,"dværg":12401,"udkæmp":12402,"lokaler":12403,"sporet":12404,"vording":12405,"fork":12406,"udvand":12407,"book":12408,"fredede":12409,"læger":12410,"sagn":12411,"aktiver":12412,"1827":12413,"benjamin":12414,"03":12415,"fifa":12416,"reder":12417,"tip":12418,"##orteret":12419,"##ammen":12420,"1660":12421,"oplevelser":12422,"bekræftet":12423,"vordingborg":12424,"cav":12425,"fødte":12426,"udstillede":12427,"kulturer":12428,"bibli":12429,"kommandant":12430,"##præget":12431,"koncernen":12432,"tøn":12433,"omkringliggende":12434,"produceres":12435,"##scyk":12436,"palæstina":12437,"selvbi":12438,"##inister":12439,"##sher":12440,"binding":12441,"ærkebiskop":12442,"gifte":12443,"##ulus":12444,"nej":12445,"brudt":12446,"haw":12447,"dækkede":12448,"clem":12449,"##etz":12450,"spin":12451,"frist":12452,"final":12453,"leo":12454,"forbindelsen":12455,"rekrut":12456,"hms":12457,"rik":12458,"##pas":12459,"ath":12460,"##søkonom":12461,"forskellen":12462,"togsæt":12463,"##undervisning":12464,"tai":12465,"udnævnte":12466,"free":12467,"ørsted":12468,"ohio":12469,"##avisen":12470,"skytte":12471,"ye":12472,"kran":12473,"nordligste":12474,"1793":12475,"##ration":12476,"arvede":12477,"##sendt":12478,"hebra":12479,"christiania":12480,"##ragelse":12481,"potter":12482,"kandidater":12483,"antonio":12484,"anbef":12485,"aksel":12486,"cuba":12487,"corporation":12488,"media":12489,"anmod":12490,"##lementer":12491,"##sbeg":12492,"##havende":12493,"billedkunst":12494,"##ular":12495,"seng":12496,"materiel":12497,"instituttet":12498,"socialt":12499,"beslægtet":12500,"bønderne":12501,"##vere":12502,"præsten":12503,"bened":12504,"administrations":12505,"mønter":12506,"strenge":12507,"handle":12508,"offer":12509,"136":12510,"##arbejdere":12511,"udskiftet":12512,"cov":12513,"overgangen":12514,"##hvert":12515,"aleks":12516,"lykkes":12517,"fjenden":12518,"kammermusik":12519,"nabol":12520,"indtradte":12521,"episoden":12522,"bugten":12523,"malmø":12524,"##vag":12525,"##sby":12526,"anfører":12527,"##komsten":12528,"##søe":12529,"126":12530,"jurist":12531,"deltagende":12532,"suveræn":12533,"indones":12534,"verdensmesterskabet":12535,"midlertidigt":12536,"stykket":12537,"ott":12538,"enev":12539,"##fferent":12540,"bød":12541,"##lande":12542,"##aterede":12543,"blæ":12544,"box":12545,"tegning":12546,"fastlandet":12547,"soul":12548,"patrul":12549,"prædikest":12550,"buk":12551,"fight":12552,"gejst":12553,"##ræer":12554,"flitt":12555,"glim":12556,"eva":12557,"fredrik":12558,"møllen":12559,"shows":12560,"floderne":12561,"fødevarer":12562,"grammat":12563,"ressourcer":12564,"##fo":12565,"flys":12566,"koncept":12567,"tyve":12568,"##ualitet":12569,"##pan":12570,"##sand":12571,"##oge":12572,"##kron":12573,"tyng":12574,"shang":12575,"repar":12576,"oprettedes":12577,"midtban":12578,"sælger":12579,"forelæs":12580,"bøj":12581,"krom":12582,"træet":12583,"##faldet":12584,"departement":12585,"kør":12586,"##punkter":12587,"##inos":12588,"##oko":12589,"arbejdsmark":12590,"arbejdskraft":12591,"portugisiske":12592,"fischer":12593,"##ettet":12594,"juan":12595,"1799":12596,"bisk":12597,"mg":12598,"##røder":12599,"##kse":12600,"udrust":12601,"##ppede":12602,"helm":12603,"massachus":12604,"dbu":12605,"alumin":12606,"beklæd":12607,"sideløb":12608,"##medaljer":12609,"adskilte":12610,"viggo":12611,"kælder":12612,"hvormed":12613,"forskelligt":12614,"ledige":12615,"tætte":12616,"trafikken":12617,"ask":12618,"mul":12619,"##stekn":12620,"##spille":12621,"##ureau":12622,"psykiat":12623,"skjult":12624,"aur":12625,"##zone":12626,"##krigstiden":12627,"kulmin":12628,"palæstinens":12629,"bakterier":12630,"antarktis":12631,"call":12632,"kit":12633,"##ao":12634,"ethvert":12635,"sponsor":12636,"##holmen":12637,"totale":12638,"bull":12639,"sammenligning":12640,"nedbør":12641,"gave":12642,"##ængden":12643,"cert":12644,"kugle":12645,"##bre":12646,"##igan":12647,"begreber":12648,"orleans":12649,"##atoren":12650,"bevæge":12651,"aktuelle":12652,"akademisk":12653,"pakistan":12654,"vendsyssel":12655,"niedersachsen":12656,"m²":12657,"##steg":12658,"karakterist":12659,"totalt":12660,"vanskeligheder":12661,"sideløbende":12662,"450":12663,"referencer":12664,"massachusetts":12665,"nyeste":12666,"##ocial":12667,"##jorte":12668,"##ect":12669,"eventuelt":12670,"beskæftiget":12671,"##politik":12672,"cuppen":12673,"fern":12674,"202":12675,"brux":12676,"ruslands":12677,"begrænsede":12678,"01":12679,"ubet":12680,"##behandling":12681,"richards":12682,"##firma":12683,"regierungsbezirk":12684,"ulige":12685,"##cl":12686,"forvejen":12687,"##ism":12688,"omeg":12689,"omend":12690,"beach":12691,"##areal":12692,"nederlandske":12693,"orient":12694,"sænk":12695,"##blev":12696,"blan":12697,"##repræsent":12698,"##agnet":12699,"##ssund":12700,"vente":12701,"industrielle":12702,"erstatte":12703,"##sværd":12704,"rønne":12705,"vikingetiden":12706,"intellekt":12707,"ral":12708,"hjemmet":12709,"artus":12710,"regional":12711,"gymnasiet":12712,"##cket":12713,"klippe":12714,"landene":12715,"universet":12716,"antyder":12717,"brændt":12718,"skulptur":12719,"venez":12720,"dark":12721,"oprøret":12722,"peru":12723,"imperium":12724,"astronomiske":12725,"ling":12726,"##anien":12727,"##ævnes":12728,"##løst":12729,"sned":12730,"##ktoren":12731,"traktat":12732,"overraskende":12733,"volksw":12734,"ey":12735,"##magas":12736,"affyr":12737,"stas":12738,"konges":12739,"klubplan":12740,"revent":12741,"socialistisk":12742,"##skriften":12743,"bolden":12744,"##falz":12745,"fritid":12746,"udsagn":12747,"umuligt":12748,"bac":12749,"women":12750,"beund":12751,"parter":12752,"indebar":12753,"omradets":12754,"velly":12755,"ejere":12756,"uddannelser":12757,"##eksamen":12758,"##ppel":12759,"løve":12760,"christiansborg":12761,"gavn":12762,"mika":12763,"tilvækst":12764,"##raa":12765,"##ikler":12766,"carsten":12767,"temaer":12768,"lejren":12769,"##mperatur":12770,"yde":12771,"skor":12772,"##slund":12773,"serg":12774,"omraderne":12775,"1788":12776,"mindretal":12777,"##hul":12778,"first":12779,"##mestre":12780,"forlader":12781,"folkem":12782,"komponerede":12783,"georgia":12784,"symfonier":12785,"finger":12786,"begejst":12787,"senatet":12788,"imens":12789,"1792":12790,"tidsskrifter":12791,"landes":12792,"aen":12793,"ukendte":12794,"sørgede":12795,"bruxelles":12796,"##him":12797,"efterladt":12798,"##saks":12799,"##ængt":12800,"smule":12801,"112":12802,"vinduer":12803,"badm":12804,"ejendommen":12805,"hjørnet":12806,"series":12807,"##billeder":12808,"belejring":12809,"konfødererede":12810,"##wall":12811,"##espil":12812,"opgrader":12813,"tættere":12814,"inspe":12815,"gennemsnitlige":12816,"spræng":12817,"elektricitet":12818,"hovedturneringen":12819,"##iregiment":12820,"aflev":12821,"plus":12822,"regi":12823,"fair":12824,"kommunale":12825,"strategi":12826,"effektivt":12827,"##pil":12828,"##rot":12829,"ellen":12830,"laves":12831,"##ahr":12832,"synge":12833,"damer":12834,"tæ":12835,"fortalt":12836,"##admiral":12837,"værste":12838,"indebærer":12839,"1776":12840,"who":12841,"hospitalet":12842,"billedhugger":12843,"gret":12844,"##oro":12845,"svage":12846,"143":12847,"hals":12848,"##head":12849,"##skoven":12850,"kevin":12851,"##bag":12852,"##star":12853,"##stolen":12854,"tilnavnet":12855,"##itor":12856,"vestlig":12857,"komplic":12858,"antwer":12859,"udgifter":12860,"amerikanere":12861,"##book":12862,"voldsom":12863,"##sporet":12864,"virkelighed":12865,"nøgle":12866,"##grim":12867,"demo":12868,"traditionen":12869,"install":12870,"mærket":12871,"strej":12872,"opstand":12873,"efterar":12874,"##alth":12875,"konkluder":12876,"techn":12877,"aaben":12878,"ernes":12879,"##elson":12880,"116":12881,"party":12882,"brigadegeneral":12883,"føderale":12884,"hypot":12885,"maleren":12886,"repræsentere":12887,"country":12888,"##fried":12889,"benævnt":12890,"02":12891,"##ivaler":12892,"##prom":12893,"perform":12894,"##plader":12895,"##produkter":12896,"efterfulgte":12897,"albrecht":12898,"afbrudt":12899,"wiener":12900,"ip":12901,"pum":12902,"varem":12903,"##forsker":12904,"planlagte":12905,"indeholde":12906,"billy":12907,"1797":12908,"arnold":12909,"propag":12910,"anhalt":12911,"wimb":12912,"##skaff":12913,"##oged":12914,"##illon":12915,"søv":12916,"fremstillede":12917,"fiktiv":12918,"forhandlingerne":12919,"krum":12920,"verdensplan":12921,"parkering":12922,"cambridge":12923,"was":12924,"##hum":12925,"##eda":12926,"##ikum":12927,"arkt":12928,"evaku":12929,"behandlet":12930,"##sreg":12931,"handlede":12932,"omfatte":12933,"clausen":12934,"landevejscyk":12935,"##iko":12936,"##rof":12937,"##illen":12938,"nordfris":12939,"glæde":12940,"spillerne":12941,"kopi":12942,"##storff":12943,"negative":12944,"dollar":12945,"komplekse":12946,"celle":12947,"filmp":12948,"kate":12949,"kristensen":12950,"forhen":12951,"##rukne":12952,"boe":12953,"emma":12954,"modstandsbevæg":12955,"1822":12956,"tub":12957,"##skampe":12958,"præfektur":12959,"##strakte":12960,"found":12961,"##skor":12962,"1794":12963,"sara":12964,"##forbindelser":12965,"pattedyr":12966,"arag":12967,"ion":12968,"nfl":12969,"##skere":12970,"dead":12971,"guer":12972,"ordene":12973,"organiserede":12974,"mortensen":12975,"erfaringer":12976,"tjekkoslovakiet":12977,"sekondløjtnant":12978,"hæng":12979,"##itiske":12980,"omtalte":12981,"indføre":12982,"laveste":12983,"##ledon":12984,"1780":12985,"stavanger":12986,"downlo":12987,"betyde":12988,"middelhav":12989,"forældrene":12990,"rigtigt":12991,"ekstraordin":12992,"##væsenet":12993,"sydpa":12994,"roosev":12995,"medlems":12996,"arkitekter":12997,"hundred":12998,"alperne":12999,"byradet":13000,"##kka":13001,"organismer":13002,"##typer":13003,"forklare":13004,"jernbaner":13005,"musical":13006,"tilslutning":13007,"roosevelt":13008,"##dle":13009,"##ideret":13010,"udlænd":13011,"langsom":13012,"##sbet":13013,"##box":13014,"##hara":13015,"bisp":13016,"fland":13017,"giv":13018,"##com":13019,"elit":13020,"olaf":13021,"sporvej":13022,"forstas":13023,"bush":13024,"værksted":13025,"iagt":13026,"lik":13027,"##zi":13028,"skjern":13029,"##deret":13030,"marmor":13031,"presset":13032,"##greve":13033,"dedik":13034,"melbourne":13035,"tilbudt":13036,"nemt":13037,"introduktion":13038,"egyptiske":13039,"utilfreds":13040,"list":13041,"p3":13042,"##gender":13043,"tilbageværende":13044,"placere":13045,"adelige":13046,"youtube":13047,"wurttem":13048,"##relse":13049,"##oda":13050,"sydstat":13051,"østty":13052,"sha":13053,"jordan":13054,"##centret":13055,"keyboard":13056,"christiansen":13057,"rejsende":13058,"annonceret":13059,"bark":13060,"##stue":13061,"##uten":13062,"##ians":13063,"togene":13064,"markante":13065,"##smuseet":13066,"midtbanespiller":13067,"##cken":13068,"##hallen":13069,"##stamning":13070,"wimbledon":13071,"##stegn":13072,"frag":13073,"ansøg":13074,"##oldater":13075,"##ugler":13076,"##lagdes":13077,"torben":13078,"beslutninger":13079,"gunst":13080,"pel":13081,"tænd":13082,"zu":13083,"overgav":13084,"herc":13085,"erhvervede":13086,"##hrine":13087,"##stræner":13088,"pulje":13089,"rok":13090,"##skel":13091,"efternavn":13092,"reag":13093,"108":13094,"##stemningen":13095,"imøde":13096,"##kratere":13097,"forsvundet":13098,"arsenal":13099,"##etab":13100,"##insen":13101,"##avi":13102,"banens":13103,"medicinske":13104,"hay":13105,"##lok":13106,"trone":13107,"##hew":13108,"allan":13109,"kvindernes":13110,"inkluderet":13111,"esc":13112,"præstation":13113,"114":13114,"missil":13115,"logo":13116,"bogstaver":13117,"francois":13118,"aus":13119,"eje":13120,"pip":13121,"udkast":13122,"bytte":13123,"##ible":13124,"##sministeren":13125,"indtægter":13126,"bombefly":13127,"lunge":13128,"doktorg":13129,"insekter":13130,"singapore":13131,"tet":13132,"enighed":13133,"nordpa":13134,"kvarter":13135,"bram":13136,"mursten":13137,"bemærket":13138,"##ilog":13139,"ombord":13140,"##kkel":13141,"nyheder":13142,"attra":13143,"forbe":13144,"biologiske":13145,"udrab":13146,"##landing":13147,"nordsiden":13148,"dagbladet":13149,"holdets":13150,"lyde":13151,"skønhed":13152,"situationer":13153,"flora":13154,"nederlandsk":13155,"bly":13156,"syddanmark":13157,"nedbr":13158,"grov":13159,"ottende":13160,"konkurrencer":13161,"maneders":13162,"invasionen":13163,"anklaget":13164,"##12":13165,"##itu":13166,"hovedkontor":13167,"##radition":13168,"##brun":13169,"dateret":13170,"badminton":13171,"ked":13172,"tøm":13173,"##listen":13174,"##plac":13175,"transm":13176,"hotellet":13177,"marcus":13178,"ji":13179,"afv":13180,"##olet":13181,"ansættelse":13182,"##værre":13183,"sammenlægning":13184,"##irekte":13185,"bestræ":13186,"centimeter":13187,"##selskaber":13188,"anderson":13189,"globale":13190,"adams":13191,"opfordrede":13192,"hej":13193,"udformet":13194,"brøn":13195,"handelen":13196,"personen":13197,"guadal":13198,"color":13199,"##oga":13200,"##emask":13201,"betalt":13202,"baserede":13203,"oblig":13204,"manuel":13205,"klokke":13206,"##tj":13207,"afstemning":13208,"anbragt":13209,"albummets":13210,"englænderne":13211,"antikke":13212,"1772":13213,"identificere":13214,"nutiden":13215,"konstantinopel":13216,"district":13217,"ortodokse":13218,"skæl":13219,"skub":13220,"interne":13221,"parallelt":13222,"mikkelsen":13223,"musikkonservatorium":13224,"##tur":13225,"##ariat":13226,"indh":13227,"spids":13228,"strakte":13229,"ankomst":13230,"napoli":13231,"kommerciel":13232,"kb":13233,"##sal":13234,"nedkæmp":13235,"salomon":13236,"christianshavn":13237,"common":13238,"hidtid":13239,"dorothe":13240,"hævn":13241,"stk":13242,"svæv":13243,"##rong":13244,"konfron":13245,"ms":13246,"nære":13247,"torn":13248,"##eredes":13249,"##atører":13250,"##shj":13251,"##arbejd":13252,"deutsche":13253,"diskussion":13254,"ekstremt":13255,"indsatte":13256,"anført":13257,"tyn":13258,"selvstyre":13259,"eleverne":13260,"baby":13261,"innov":13262,"cem":13263,"krab":13264,"##atra":13265,"kunsten":13266,"franc":13267,"hovedby":13268,"valgtes":13269,"slesvigske":13270,"belejringen":13271,"mislykkedes":13272,"##zar":13273,"udbr":13274,"##intend":13275,"divisionen":13276,"##betegn":13277,"hjertet":13278,"vicepræsident":13279,"antwerpen":13280,"wurttemberg":13281,"cass":13282,"ht":13283,"tap":13284,"##isa":13285,"inger":13286,"helgen":13287,"heat":13288,"uddøde":13289,"oprettelse":13290,"bodil":13291,"##spartiet":13292,"kavaleri":13293,"hære":13294,"##ting":13295,"##ey":13296,"##kugle":13297,"##sex":13298,"manag":13299,"chart":13300,"##lægges":13301,"australsk":13302,"hyppig":13303,"tegneserie":13304,"kennedy":13305,"##rens":13306,"afstamning":13307,"##itim":13308,"##berett":13309,"buch":13310,"1798":13311,"##fuldt":13312,"elektroniske":13313,"##saftale":13314,"indskræn":13315,"hakon":13316,"øjen":13317,"##odes":13318,"bryder":13319,"##tagelser":13320,"valby":13321,"universal":13322,"glat":13323,"kritikere":13324,"cirkel":13325,"stammede":13326,"chefredaktør":13327,"patrick":13328,"churchill":13329,"mut":13330,"gennemgaende":13331,"cecil":13332,"pon":13333,"##yse":13334,"##periode":13335,"stim":13336,"##light":13337,"bruce":13338,"##uez":13339,"news":13340,"belast":13341,"##øvede":13342,"##ificering":13343,"aluminium":13344,"teologiske":13345,"grønlandske":13346,"##loven":13347,"forklarer":13348,"strategisk":13349,"integreret":13350,"tilpasset":13351,"cos":13352,"##amt":13353,"medierne":13354,"udl":13355,"hverdag":13356,"##slinjer":13357,"telegraf":13358,"aabenraa":13359,"##16":13360,"kommen":13361,"##icus":13362,"##version":13363,"resultaterne":13364,"dyrkes":13365,"optagelserne":13366,"gladsa":13367,"##ingrad":13368,"##imet":13369,"##prov":13370,"smab":13371,"træde":13372,"portugisisk":13373,"##kester":13374,"undersiden":13375,"##syre":13376,"asyl":13377,"1796":13378,"bekræftede":13379,"kortvarigt":13380,"wald":13381,"##work":13382,"##sfjorden":13383,"computere":13384,"cæs":13385,"wen":13386,"yam":13387,"##overfladen":13388,"arbejdsg":13389,"bibelen":13390,"spænding":13391,"kategorier":13392,"##sala":13393,"##itiv":13394,"navnene":13395,"##olleg":13396,"relation":13397,"##sselskabet":13398,"fokuserer":13399,"##programmet":13400,"klein":13401,"##status":13402,"embedet":13403,"besiddelser":13404,"satur":13405,"forslaget":13406,"indirekte":13407,"genvalgt":13408,"##holdte":13409,"theatre":13410,"carib":13411,"cour":13412,"1823":13413,"efterspørg":13414,"nordre":13415,"##phy":13416,"kvinderne":13417,"kontrakten":13418,"rigsdagen":13419,"ovenfor":13420,"forventede":13421,"tænkt":13422,"skagen":13423,"forgren":13424,"fattigdom":13425,"##ylon":13426,"##stemm":13427,"different":13428,"##historien":13429,"##fektion":13430,"ophævet":13431,"felttoget":13432,"anthony":13433,"df":13434,"##atik":13435,"##lignende":13436,"##spur":13437,"##apo":13438,"##burger":13439,"volkswagen":13440,"##enze":13441,"##phia":13442,"california":13443,"kopier":13444,"dimit":13445,"venskabskamp":13446,"##kontrol":13447,"banker":13448,"##skærm":13449,"heg":13450,"##lon":13451,"##øe":13452,"forber":13453,"underholdning":13454,"process":13455,"hallen":13456,"##ragter":13457,"hjemmehørende":13458,"airlines":13459,"hyppigt":13460,"renæssance":13461,"prestige":13462,"warszawa":13463,"ay":13464,"ach":13465,"biv":13466,"##sgaard":13467,"modificeret":13468,"##enterne":13469,"radar":13470,"##scorer":13471,"rumfær":13472,"jacques":13473,"##hardt":13474,"##gørelsen":13475,"##grønne":13476,"##estaende":13477,"studios":13478,"pavirke":13479,"kvartfinalerne":13480,"protot":13481,"##dækkende":13482,"porn":13483,"begaet":13484,"hovedgard":13485,"samarbejder":13486,"datab":13487,"menneskelig":13488,"grosser":13489,"indledt":13490,"kasper":13491,"tilstrækkeligt":13492,"sparek":13493,"rif":13494,"##artner":13495,"##bye":13496,"nordsøen":13497,"rockband":13498,"skaffede":13499,"faren":13500,"##sblad":13501,"broer":13502,"samarbejd":13503,"jøderne":13504,"bestyrelsesmedlem":13505,"tivoli":13506,"aps":13507,"bestemme":13508,"##ashi":13509,"folkeafstemning":13510,"##kle":13511,"##adset":13512,"alan":13513,"##sving":13514,"folkere":13515,"ida":13516,"infanteri":13517,"forandringer":13518,"biblioteket":13519,"##oman":13520,"##itterne":13521,"##sbøl":13522,"metoden":13523,"kunstneren":13524,"himlen":13525,"færdigt":13526,"karakteristika":13527,"##steori":13528,"##spir":13529,"sigurd":13530,"##atorisk":13531,"bredden":13532,"islamiske":13533,"mitch":13534,"kristiania":13535,"venstres":13536,"tyngde":13537,"##nedes":13538,"##witz":13539,"forlig":13540,"landskaber":13541,"bert":13542,"scient":13543,"lovede":13544,"dyrket":13545,"bidraget":13546,"destroy":13547,"howard":13548,"folkeslag":13549,"##sord":13550,"##oten":13551,"søgt":13552,"sydsiden":13553,"kaste":13554,"forbrug":13555,"sr":13556,"##ense":13557,"spær":13558,"bour":13559,"perspektiv":13560,"lejre":13561,"udgaven":13562,"opvarmning":13563,"tul":13564,"##hammer":13565,"##seksamen":13566,"##odi":13567,"brandt":13568,"##renes":13569,"court":13570,"levere":13571,"præcist":13572,"helikopter":13573,"firk":13574,"gon":13575,"storhed":13576,"luks":13577,"frederikke":13578,"mangfold":13579,"interesserede":13580,"platform":13581,"orkesterværker":13582,"udgravninger":13583,"engageret":13584,"skrib":13585,"##kkelse":13586,"seed":13587,"sve":13588,"hawa":13589,"bassist":13590,"facelift":13591,"card":13592,"##opr":13593,"desværre":13594,"solid":13595,"moske":13596,"termin":13597,"donald":13598,"aggress":13599,"nash":13600,"##lie":13601,"##hatt":13602,"nordkore":13603,"udgik":13604,"magaz":13605,"kaz":13606,"hjernen":13607,"matematisk":13608,"frygtede":13609,"uoffic":13610,"##sas":13611,"##forsamlingen":13612,"tidende":13613,"##ælles":13614,"malays":13615,"smidt":13616,"bakker":13617,"hukomm":13618,"hidtidige":13619,"##sul":13620,"##vat":13621,"##amper":13622,"busk":13623,"firenze":13624,"odder":13625,"tunes":13626,"muhammed":13627,"forhenværende":13628,"lyr":13629,"##ischen":13630,"overgaet":13631,"protester":13632,"ankommer":13633,"bevidsthed":13634,"germanske":13635,"kof":13636,"##mæssig":13637,"##avis":13638,"retter":13639,"rækkefølge":13640,"afsnittet":13641,"stalin":13642,"did":13643,"##ið":13644,"##liggender":13645,"beholde":13646,"neu":13647,"centret":13648,"uddannede":13649,"relativ":13650,"konservativ":13651,"udmærkede":13652,"margaret":13653,"søvær":13654,"nordir":13655,"midtbane":13656,"kompositioner":13657,"tennisspiller":13658,"##illy":13659,"frisk":13660,"stemning":13661,"carlos":13662,"firer":13663,"forsink":13664,"##maleri":13665,"kjøb":13666,"konsulent":13667,"guden":13668,"##jd":13669,"antog":13670,"medlemskab":13671,"styrede":13672,"suz":13673,"stationsby":13674,"øverstkommanderende":13675,"marokko":13676,"jf":13677,"##ku":13678,"dødsf":13679,"russerne":13680,"##brogade":13681,"animation":13682,"ign":13683,"afstanden":13684,"##agram":13685,"adri":13686,"##stern":13687,"monten":13688,"urban":13689,"audi":13690,"##andede":13691,"genskab":13692,"##beck":13693,"hjemland":13694,"bevirk":13695,"motorvejen":13696,"ærø":13697,"justits":13698,"bernhard":13699,"jel":13700,"##stone":13701,"##union":13702,"filos":13703,"relationer":13704,"bomber":13705,"##ensens":13706,"##slivet":13707,"landsdækkende":13708,"##burgh":13709,"count":13710,"fersk":13711,"socialdemokratiske":13712,"forbillede":13713,"gladsaxe":13714,"year":13715,"formet":13716,"smuk":13717,"generob":13718,"evolution":13719,"##onerende":13720,"besættelses":13721,"##lejr":13722,"##num":13723,"##fre":13724,"##oren":13725,"ligest":13726,"munder":13727,"vurdering":13728,"aske":13729,"arealet":13730,"##manns":13731,"endestation":13732,"belgisk":13733,"reventlow":13734,"##fi":13735,"udsted":13736,"reyk":13737,"##linjer":13738,"fjerd":13739,"overdrev":13740,"uppsala":13741,"fortet":13742,"stue":13743,"fragt":13744,"102":13745,"fangen":13746,"biflod":13747,"##alon":13748,"stub":13749,"##ione":13750,"##ejle":13751,"##rings":13752,"kongressen":13753,"infanterid":13754,"negativ":13755,"drejede":13756,"fd":13757,"##inges":13758,"##søgte":13759,"christen":13760,"commun":13761,"elect":13762,"fundam":13763,"anklager":13764,"observer":13765,"nil":13766,"##kø":13767,"##oz":13768,"##ikerne":13769,"##kloster":13770,"handen":13771,"folks":13772,"klubkarriere":13773,"middelalderlige":13774,"fib":13775,"hugh":13776,"##hit":13777,"indførelsen":13778,"1750":13779,"sho":13780,"motion":13781,"kejserrige":13782,"aktie":13783,"balkan":13784,"sandsynligt":13785,"færdige":13786,"burn":13787,"fiat":13788,"space":13789,"##uto":13790,"sviger":13791,"behøver":13792,"pladeselskabet":13793,"rykket":13794,"##analy":13795,"##arskrigen":13796,"##smæssig":13797,"generationer":13798,"voldt":13799,"fremstar":13800,"observationer":13801,"rendsborg":13802,"##skin":13803,"luftfart":13804,"buen":13805,"##straße":13806,"fornyet":13807,"dick":13808,"##rine":13809,"forrige":13810,"vandkraft":13811,"beskytter":13812,"tv2":13813,"arhundred":13814,"reklam":13815,"##how":13816,"##gg":13817,"##agon":13818,"svampe":13819,"##ession":13820,"længden":13821,"forsvarer":13822,"inviteret":13823,"ruter":13824,"kelt":13825,"##nit":13826,"##ju":13827,"mellemrum":13828,"isot":13829,"antrop":13830,"apple":13831,"kjeld":13832,"bydele":13833,"afskaffet":13834,"barnebarn":13835,"nabokommun":13836,"clin":13837,"uro":13838,"##ikal":13839,"oliver":13840,"##sfart":13841,"dommere":13842,"import":13843,"ulykken":13844,"atlanta":13845,"buck":13846,"##ophold":13847,"##agtigt":13848,"positivt":13849,"giov":13850,"jævnligt":13851,"##skrivning":13852,"binde":13853,"dort":13854,"kansler":13855,"wta":13856,"##np":13857,"blood":13858,"franklin":13859,"mini":13860,"torv":13861,"ekspans":13862,"restauranter":13863,"opførelse":13864,"ekspert":13865,"##festival":13866,"specifikke":13867,"stanley":13868,"initiat":13869,"bokse":13870,"##astrup":13871,"museums":13872,"mælke":13873,"##canal":13874,"herregard":13875,"skikkelse":13876,"reykj":13877,"undert":13878,"##ændelse":13879,"hente":13880,"salget":13881,"1787":13882,"oplever":13883,"kollektiv":13884,"opførtes":13885,"beskyttede":13886,"##mentet":13887,"stok":13888,"##iceret":13889,"##bec":13890,"##thers":13891,"skjul":13892,"birolle":13893,"inkluderede":13894,"trængte":13895,"kaukas":13896,"gabriel":13897,"agen":13898,"##umer":13899,"staff":13900,"##vering":13901,"thur":13902,"##svin":13903,"endt":13904,"heart":13905,"schwar":13906,"##shistorie":13907,"eftermid":13908,"reb":13909,"marian":13910,"laura":13911,"acceptere":13912,"##æsonen":13913,"must":13914,"vacc":13915,"##igter":13916,"udlejet":13917,"##usik":13918,"overn":13919,"tower":13920,"##roner":13921,"straling":13922,"bridge":13923,"##rick":13924,"foden":13925,"##meligt":13926,"kulturen":13927,"beslutter":13928,"fejlagt":13929,"pressen":13930,"copa":13931,"slovakiet":13932,"mississippi":13933,"guadalcanal":13934,"##ralen":13935,"hovedværk":13936,"næse":13937,"kai":13938,"danmarksmester":13939,"inspirerede":13940,"ulykke":13941,"wikip":13942,"monteneg":13943,"fy":13944,"gog":13945,"glen":13946,"pligt":13947,"ædel":13948,"##rerne":13949,"aren":13950,"this":13951,"implementer":13952,"underviser":13953,"bernard":13954,"sieg":13955,"veksel":13956,"pyram":13957,"kig":13958,"frances":13959,"retur":13960,"omdann":13961,"ventede":13962,"magasinet":13963,"fing":13964,"elim":13965,"##rone":13966,"ivrig":13967,"boys":13968,"knog":13969,"provst":13970,"museets":13971,"philadel":13972,"vast":13973,"##ree":13974,"133":13975,"##systemer":13976,"sjællandske":13977,"fortsættelse":13978,"dramatisk":13979,"jimmy":13980,"##itlen":13981,"flanke":13982,"kryb":13983,"synspunkt":13984,"sjællands":13985,"aspekter":13986,"##gens":13987,"##edy":13988,"head":13989,"mandskab":13990,"palle":13991,"herredømme":13992,"sorg":13993,"##ando":13994,"stige":13995,"opp":13996,"##delen":13997,"nationals":13998,"fungeret":13999,"restaurering":14000,"pilgrim":14001,"apote":14002,"peger":14003,"##aljen":14004,"##aborg":14005,"deling":14006,"føler":14007,"##ologier":14008,"fantast":14009,"risikoen":14010,"shakesp":14011,"gol":14012,"##misk":14013,"fordeling":14014,"##neth":14015,"yngle":14016,"scoret":14017,"beboerne":14018,"væske":14019,"weekend":14020,"forkert":14021,"dia":14022,"kontorer":14023,"socialistiske":14024,"ted":14025,"##kers":14026,"forøg":14027,"allen":14028,"marin":14029,"##havnen":14030,"verdensrang":14031,"austin":14032,"dokumentarisk":14033,"fynske":14034,"##byrd":14035,"##malerier":14036,"byzantinske":14037,"bm":14038,"bjor":14039,"##bræ":14040,"##bir":14041,"thi":14042,"reguler":14043,"1784":14044,"##kow":14045,"##kandidat":14046,"##mægtig":14047,"##xid":14048,"indvend":14049,"toy":14050,"sekret":14051,"##ømmerne":14052,"størrelsen":14053,"vanskelige":14054,"##idae":14055,"indbyggertallet":14056,"##bjørn":14057,"put":14058,"##edygt":14059,"medføre":14060,"misfor":14061,"fundament":14062,"smerte":14063,"immigr":14064,"arbejdsgiver":14065,"kf":14066,"##war":14067,"skit":14068,"byplan":14069,"1791":14070,"holstenske":14071,"kastet":14072,"socialdemokraterne":14073,"forarsaget":14074,"opfordring":14075,"minimum":14076,"understre":14077,"##ifest":14078,"salzburg":14079,"halle":14080,"220":14081,"psykologi":14082,"regnskab":14083,"tilstedeværelse":14084,"marshall":14085,"##ml":14086,"anark":14087,"##unden":14088,"søs":14089,"##sløse":14090,"scot":14091,"planlagde":14092,"afslog":14093,"elektrom":14094,"arealer":14095,"udgives":14096,"rækken":14097,"usædvanligt":14098,"hobro":14099,"lød":14100,"##isser":14101,"udskilt":14102,"##emark":14103,"##ppens":14104,"gensid":14105,"dorothea":14106,"##tens":14107,"##ensrad":14108,"##komite":14109,"coupe":14110,"flytter":14111,"##rar":14112,"##osen":14113,"dev":14114,"hang":14115,"blind":14116,"tob":14117,"virus":14118,"studeret":14119,"uafgjort":14120,"temperaturer":14121,"ara":14122,"##leje":14123,"##ternes":14124,"modangreb":14125,"novelle":14126,"lyon":14127,"gert":14128,"fysi":14129,"northern":14130,"janeiro":14131,"hub":14132,"mick":14133,"nan":14134,"uover":14135,"trykk":14136,"fodboldt":14137,"##ribende":14138,"margrete":14139,"jup":14140,"##reret":14141,"##meter":14142,"##itære":14143,"##ræder":14144,"undervand":14145,"##kryd":14146,"sadant":14147,"restaureret":14148,"##grave":14149,"##institutioner":14150,"fiktive":14151,"##miljø":14152,"div":14153,"vinger":14154,"##outh":14155,"##ødning":14156,"retfærd":14157,"velhavende":14158,"##korder":14159,"##itime":14160,"baseball":14161,"##bevægelse":14162,"egern":14163,"værktøj":14164,"##berts":14165,"1771":14166,"cykelløb":14167,"##imeret":14168,"tronføl":14169,"##alj":14170,"##reste":14171,"##ople":14172,"vejret":14173,"sporvogn":14174,"kod":14175,"##unsten":14176,"ordens":14177,"essa":14178,"tyskere":14179,"gustaf":14180,"stopper":14181,"øjeblikk":14182,"etablering":14183,"##cykl":14184,"pow":14185,"stiv":14186,"omtaler":14187,"anlagde":14188,"undervist":14189,"##yth":14190,"sev":14191,"schles":14192,"##staten":14193,"ændrer":14194,"##vention":14195,"protein":14196,"streng":14197,"tas":14198,"##wart":14199,"storhertug":14200,"regeringer":14201,"reddet":14202,"imponerende":14203,"artiklen":14204,"##konkurrencen":14205,"##pot":14206,"##uet":14207,"udbrød":14208,"planlægning":14209,"magi":14210,"forkortelse":14211,"temperaturen":14212,"fartøjer":14213,"##opgaver":14214,"bager":14215,"tin":14216,"enestaende":14217,"opstilling":14218,"##ografisk":14219,"market":14220,"forstander":14221,"now":14222,"##ingham":14223,"##attet":14224,"##korpset":14225,"##materi":14226,"##marskal":14227,"gel":14228,"samles":14229,"##base":14230,"factor":14231,"teoretisk":14232,"behovet":14233,"krateret":14234,"døgn":14235,"grosserer":14236,"##house":14237,"##valt":14238,"##xt":14239,"##ørste":14240,"skam":14241,"vidne":14242,"frederikssund":14243,"1775":14244,"dop":14245,"hæd":14246,"komiker":14247,"byt":14248,"##ysse":14249,"partis":14250,"moral":14251,"læses":14252,"kritiserede":14253,"odin":14254,"infanteriregiment":14255,"effekter":14256,"philadelphia":14257,"rantz":14258,"tiderne":14259,"manøv":14260,"besejre":14261,"behandles":14262,"sekundær":14263,"mountain":14264,"anse":14265,"##formation":14266,"opleve":14267,"tilføjede":14268,"nøje":14269,"spejder":14270,"get":14271,"##ench":14272,"skra":14273,"skrog":14274,"sydafrik":14275,"christina":14276,"gangen":14277,"rigets":14278,"grønt":14279,"konference":14280,"hyper":14281,"##faldende":14282,"opfattet":14283,"distribu":14284,"hviderus":14285,"elleve":14286,"##asten":14287,"republikanske":14288,"##bjergene":14289,"stadionet":14290,"opsamlings":14291,"flandern":14292,"oc":14293,"##stik":14294,"##ional":14295,"omegn":14296,"anholdt":14297,"søfart":14298,"vesterbro":14299,"skildrer":14300,"fjendtlige":14301,"værdifulde":14302,"aven":14303,"##pommern":14304,"##arnet":14305,"##skunst":14306,"udfører":14307,"indførelse":14308,"child":14309,"103":14310,"koch":14311,"borgerne":14312,"1774":14313,"undervisningen":14314,"pavirker":14315,"queens":14316,"skygge":14317,"hf":14318,"##post":14319,"alask":14320,"##asa":14321,"##result":14322,"##ministeriet":14323,"attent":14324,"hemmelighed":14325,"mtv":14326,"##hør":14327,"##17":14328,"sydligste":14329,"dags":14330,"andenplads":14331,"aktier":14332,"fængsels":14333,"dragon":14334,"railway":14335,"nurn":14336,"##run":14337,"##uerne":14338,"uddeles":14339,"opnas":14340,"##ders":14341,"brune":14342,"studio":14343,"stadigvæk":14344,"huller":14345,"bekæmpe":14346,"dialog":14347,"##raden":14348,"baret":14349,"##valter":14350,"1777":14351,"##projekt":14352,"beretning":14353,"##kilometer":14354,"triumf":14355,"lant":14356,"mitt":14357,"##aa":14358,"##fyldte":14359,"##jæger":14360,"##arde":14361,"##agning":14362,"valley":14363,"interessen":14364,"holdninger":14365,"novgor":14366,"usas":14367,"identisk":14368,"hyldest":14369,"konceptet":14370,"bitter":14371,"##luf":14372,"##jektiv":14373,"##herred":14374,"renault":14375,"folketingets":14376,"fusionerede":14377,"løsladt":14378,"undersøgt":14379,"1783":14380,"indtægt":14381,"hyg":14382,"##nok":14383,"udbygget":14384,"##user":14385,"valent":14386,"know":14387,"1781":14388,"begravelse":14389,"bekost":14390,"management":14391,"uregel":14392,"##agelse":14393,"enkel":14394,"nationalmuseet":14395,"1773":14396,"cathrine":14397,"stockholms":14398,"tænke":14399,"gø":14400,"kabel":14401,"ragn":14402,"skadet":14403,"sigende":14404,"##sset":14405,"svæ":14406,"scand":14407,"fyns":14408,"stærkeste":14409,"frost":14410,"raket":14411,"##mag":14412,"##mager":14413,"##15":14414,"enge":14415,"else":14416,"recept":14417,"##isternes":14418,"##skommun":14419,"##branchen":14420,"boulev":14421,"giovanni":14422,
[...]
