{"version":"1.0","truncation":null,"padding":null,"added_tokens":[{"id":0,"special":true,"content":"[PAD]","single_word":false,"lstrip":false,"rstrip":false,"normalized":false},{"id":1,"special":true,"content":"[UNK]","single_word":false,"lstrip":false,"rstrip":false,"normalized":false},{"id":2,"special":true,"content":"[CLS]","single_word":false,"lstrip":false,"rstrip":false,"normalized":false},{"id":3,"special":true,"content":"[SEP]","single_word":false,"lstrip":false,"rstrip":false,"normalized":false},{"id":4,"special":true,"content":"[MASK]","single_word":false,"lstrip":false,"rstrip":false,"normalized":false}],"normalizer":{"type":"BertNormalizer","clean_text":true,"handle_chinese_chars":true,"strip_accents":null,"lowercase":true},"pre_tokenizer":{"type":"BertPreTokenizer"},"post_processor":null,"decoder":{"type":"WordPiece","prefix":"##","cleanup":true},"model":{"type":"WordPiece","unk_token":"[UNK]","continuing_subword_prefix":"##","max_input_chars_per_word":100,"vocab":{"[PAD]":0,"[UNK]":1,"[CLS]":2,"[SEP]":3,"[MASK]":4,"!":5,"\"":6,"#":7,"$":8,"%":9,"&":10,"'":11,"(":12,")":13,"*":14,"+":15,",":16,"-":17,".":18,"/":19,"0":20,"1":21,"2":22,"3":23,"4":24,"5":25,"6":26,"7":27,"8":28,"9":29,":":30,";":31,"=":32,"?":33,"@":34,"[":35,"\\":36,"]":37,"^":38,"_":39,"`":40,"a":41,"b":42,"c":43,"d":44,"e":45,"f":46,"g":47,"h":48,"i":49,"j":50,"k":51,"l":52,"m":53,"n":54,"o":55,"p":56,"q":57,"r":58,"s":59,"t":60,"u":61,"v":62,"w":63,"x":64,"y":65,"z":66,"{":67,"|":68,"}":69,"~":70,"¡":71,"£":72,"§":73,"¨":74,"«":75,"®":76,"°":77,"±":78,"²":79,"³":80,"´":81,"µ":82,"·":83,"¹":84,"º":85,"»":86,"¼":87,"½":88,"¾":89,"×":90,"ß":91,"æ":92,"ð":93,"ø":94,"þ":95,"đ":96,"ħ":97,"ı":98,"ł":99,"ŋ":100,"œ":101,"ƒ":102,"ɐ":103,"ɑ":104,"ɒ":105,"ɔ":106,"ɕ":107,"ə":108,"ɛ":109,"ɡ":110,"ɨ":111,"ɪ":112,"ɲ":113,"ɾ":114,"ʀ":115,"ʁ":116,"ʃ":117,"ʉ":118,"ʊ":119,"ʒ":120,"ʔ":121,"ʰ":122,"ʲ":123,"ʹ":124,"ʻ":125,"ʼ":126,"ʾ":127,"ʿ":128,"ˈ":129,"ˌ":130,"ː":131,"˚":132,"α":133,"β":134,"γ":135,"δ":136,"ε":137,"ζ":138,"η":139,"θ":140,"ι":141,"κ":142,"λ":143,"μ":144,"ν":145,"ξ":146,"ο":147,"π":148,"ρ":149,"ς":150,"σ":151,"τ":152,"υ":153,"φ":154,"χ":155,"ψ":156,"ω":157,"а":158,"б":159,"в":160,"г":161,"д":162,"е":163,"ж":164,"з":165,"и":166,"к":167,"л":168,"м":169,"н":170,"о":171,"п":172,"р":173,"с":174,"т":175,"у":176,"ф":177,"х":178,"ц":179,"ч":180,"ш":181,"щ":182,"ъ":183,"ы":184,"ь":185,"э":186,"ю":187,"я":188,"ђ":189,"є":190,"і":191,"ј":192,"љ":193,"њ":194,"ћ":195,"џ":196,"қ":197,"ү":198,"ә":199,"ө":200,"ա":201,"բ":202,"գ":203,"դ":204,"ե":205,"զ":206,"թ":207,"ի":208,"լ":209,"խ":210,"կ":211,"հ":212,"ղ":213,"մ":214,"յ":215,"ն":216,"շ":217,"ո":218,"պ":219,"ռ":220,"ս":221,"վ":222,"տ":223,"ր":224,"ց":225,"ւ":226,"ք":227,"א":228,"ב":229,"ג":230,"ד":231,"ה":232,"ו":233,"ז":234,"ח":235,"ט":236,"י":237,"כ":238,"ל":239,"ם":240,"מ":241,"ן":242,"נ":243,"ס":244,"ע":245,"ף":246,"פ":247,"צ":248,"ק":249,"ר":250,"ש":251,"ת":252,"ء":253,"ا":254,"ب":255,"ة":256,"ت":257,"ث":258,"ج":259,"ح":260,"خ":261,"د":262,"ذ":263,"ر":264,"ز":265,"س":266,"ش":267,"ص":268,"ض":269,"ط":270,"ظ":271,"ع":272,"غ":273,"ـ":274,"ف":275,"ق":276,"ك":277,"ل":278,"م":279,"ن":280,"ه":281,"و":282,"ى":283,"ي":284,"پ":285,"چ":286,"ژ":287,"ک":288,"گ":289,"ھ":290,"ہ":291,"ۆ":292,"ی":293,"ێ":294,"ە":295,"ܐ":296,"ܕ":297,"ܘ":298,"ܝ":299,"ܪ":300,"ܬ":301,"अ":302,"क":303,"ग":304,"च":305,"ज":306,"ट":307,"ड":308,"ण":309,"त":310,"द":311,"ध":312,"न":313,"प":314,"ब":315,"भ":316,"म":317,"य":318,"र":319,"ल":320,"व":321,"श":322,"ष":323,"स":324,"ह":325,"ा":326,"ि":327,"ी":328,"ो":329,"॥":330,"ক":331,"জ":332,"ত":333,"দ":334,"ন":335,"প":336,"ব":337,"ম":338,"য":339,"র":340,"ল":341,"স":342,"া":343,"ি":344,"ী":345,"ে":346,"ਅ":347,"ਆ":348,"ਇ":349,"ਕ":350,"ਖ":351,"ਗ":352,"ਜ":353,"ਣ":354,"ਤ":355,"ਦ":356,"ਨ":357,"ਪ":358,"ਮ":359,"ਰ":360,"ਲ":361,"ਵ":362,"ਸ":363,"ਹ":364,"ਾ":365,"ਿ":366,"ੀ":367,"લ":368,"க":369,"ச":370,"ட":371,"த":372,"ன":373,"ப":374,"ம":375,"ர":376,"ல":377,"வ":378,"ா":379,"ி":380,"ு":381,"ാ":382,"ก":383,"ค":384,"ง":385,"จ":386,"ช":387,"ด":388,"ต":389,"ท":390,"น":391,"บ":392,"ป":393,"พ":394,"ม":395,"ย":396,"ร":397,"ล":398,"ว":399,"ส":400,"ห":401,"อ":402,"ะ":403,"า":404,"เ":405,"་":406,"།":407,"ཀ":408,"ཁ":409,"ག":410,"ང":411,"ཆ":412,"ད":413,"ན":414,"པ":415,"ཕ":416,"བ":417,"མ":418,"འ":419,"ར":420,"ལ":421,"ཤ":422,"ས":423,"ა":424,"ბ":425,"გ":426,"დ":427,"ე":428,"ვ":429,"ზ":430,"თ":431,"ი":432,"კ":433,"ლ":434,"მ":435,"ნ":436,"ო":437,"პ":438,"რ":439,"ს":440,"ტ":441,"უ":442,"ფ":443,"ქ":444,"ყ":445,"შ":446,"ჩ":447,"ც":448,"ძ":449,"წ":450,"ხ":451,"ᄀ":452,"ᄂ":453,"ᄃ":454,"ᄅ":455,"ᄆ":456,"ᄇ":457,"ᄉ":458,"ᄋ":459,"ᄌ":460,"ᄎ":461,"ᄏ":462,"ᄐ":463,"ᄑ":464,"ᄒ":465,"ᅡ":466,"ᅢ":467,"ᅣ":468,"ᅥ":469,"ᅦ":470,"ᅧ":471,"ᅨ":472,"ᅩ":473,"ᅪ":474,"ᅬ":475,"ᅭ":476,"ᅮ":477,"ᅯ":478,"ᅱ":479,"ᅲ":480,"ᅳ":481,"ᅴ":482,"ᅵ":483,"ᆨ":484,"ᆫ":485,"ᆯ":486,"ᆷ":487,"ᆸ":488,"ᆺ":489,"ᆼ":490,"ᚢ":491,"ᚦ":492,"ᚱ":493,"ᚴ":494,"ᚾ":495,"ᛁ":496,"ᛅ":497,"ᛋ":498,"ᛏ":499,"ᛚ":500,"᛫":501,"រ":502,"ា":503,"‐":504,"‑":505,"–":506,"—":507,"‘":508,"’":509,"“":510,"”":511,"„":512,"†":513,"•":514,"…":515,"‰":516,"′":517,"″":518,"‹":519,"›":520,"₂":521,"€":522,"℃":523,"ℓ":524,"№":525,"⅍":526,"→":527,"∂":528,"∇":529,"∈":530,"−":531,"√":532,"∞":533,"∧":534,"≈":535,"≤":536,"≥":537,"⋅":538,"─":539,"│":540,"└":541,"├":542,"●":543,"★":544,"♠":545,"♥":546,"♭":547,"♯":548,"⟨":549,"⟩":550,"い":551,"う":552,"か":553,"き":554,"し":555,"と":556,"の":557,"り":558,"ん":559,"ア":560,"イ":561,"ウ":562,"オ":563,"カ":564,"キ":565,"ク":566,"コ":567,"サ":568,"シ":569,"ス":570,"タ":571,"ッ":572,"テ":573,"ト":574,"ハ":575,"ヒ":576,"フ":577,"ホ":578,"マ":579,"ラ":580,"リ":581,"ル":582,"ロ":583,"ン":584,"・":585,"ー":586,"一":587,"丁":588,"七":589,"万":590,"三":591,"上":592,"下":593,"世":594,"东":595,"中":596,"丰":597,"临":598,"丹":599,"主":600,"义":601,"之":602,"乌":603,"乐":604,"九":605,"乡":606,"二":607,"云":608,"五":609,"井":610,"亚":611,"京":612,"亭":613,"人":614,"什":615,"仁":616,"仙":617,"代":618,"伊":619,"会":620,"佛":621,"依":622,"保":623,"信":624,"元":625,"光":626,"克":627,"八":628,"公":629,"六":630,"兰":631,"共":632,"关":633,"兴":634,"内":635,"军":636,"农":637,"凤":638,"刘":639,"利":640,"前":641,"劉":642,"力":643,"加":644,"勒":645,"包":646,"化":647,"北":648,"区":649,"十":650,"千":651,"华":652,"南":653,"博":654,"卡":655,"厂":656,"原":657,"县":658,"双":659,"口":660,"古":661,"台":662,"史":663,"司":664,"合":665,"吉":666,"同":667,"后":668,"吴":669,"周":670,"和":671,"哈":672,"唐":673,"嘉":674,"嘎":675,"四":676,"回":677,"团":678,"园":679,"国":680,"图":681,"國":682,"土":683,"地":684,"场":685,"址":686,"坊":687,"坑":688,"坝":689,"坡":690,"坪":691,"城":692,"堂":693,"堡":694,"塔":695,"塘":696,"墓":697,"士":698,"夏":699,"外":700,"多":701,"大":702,"天":703,"太":704,"头":705,"女":706,"如":707,"子":708,"孔":709,"字":710,"孙":711,"孝":712,"学":713,"學":714,"宁":715,"安":716,"宋":717,"宗":718,"官":719,"定":720,"宝":721,"家":722,"富":723,"寨":724,"寺":725,"寿":726,"小":727,"尔":728,"尖":729,"尼":730,"居":731,"屯":732,"山":733,"屿":734,"岗":735,"岛":736,"岩":737,"岭":738,"岳":739,"峡":740,"峰":741,"島":742,"川":743,"州":744,"工":745,"巴":746,"市":747,"布":748,"帝":749,"常":750,"干":751,"平":752,"年":753,"广":754,"庄":755,"庆":756,"库":757,"店":758,"庙":759,"府":760,"康":761,"建":762,"式":763,"张":764,"張":765,"当":766,"彝":767,"彦":768,"徐":769,"德":770,"心":771,"志":772,"成":773,"房":774,"所":775,"扎":776,"拉":777,"政":778,"教":779,"文":780,"斯":781,"新":782,"方":783,"族":784,"旗":785,"日":786,"旧":787,"昌":788,"明":789,"星":790,"春":791,"昭":792,"普":793,"景":794,"曲":795,"書":796,"曹":797,"會":798,"月":799,"望":800,"朝":801,"木":802,"本":803,"朱":804,"机":805,"李":806,"村":807,"杜":808,"来":809,"杨":810,"東":811,"松":812,"板":813,"林":814,"果":815,"柏":816,"查":817,"柳":818,"树":819,"株":820,"根":821,"格":822,"桂":823,"桃":824,"桑":825,"桥":826,"梁":827,"梅":828,"楼":829,"横":830,"正":831,"武":832,"毛":833,"氏":834,"民":835,"水":836,"永":837,"汉":838,"江":839,"池":840,"沙":841,"沟":842,"河":843,"治":844,"泉":845,"法":846,"波":847,"泰":848,"洋":849,"洛":850,"洞":851,"津":852,"洪":853,"洲":854,"流":855,"浦":856,"海":857,"清":858,"渡":859,"温":860,"港":861,"湖":862,"湾":863,"源":864,"溪":865,"满":866,"滩":867,"漢":868,"潭":869,"灣":870,"火":871,"热":872,"牛":873,"物":874,"特":875,"玄":876,"玉":877,"王":878,"玛":879,"珠":880,"理":881,"瓦":882,"生":883,"田":884,"甲":885,"界":886,"白":887,"百":888,"皇":889,"盘":890,"相":891,"真":892,"石":893,"矿":894,"社":895,"祖":896,"神":897,"福":898,"秀":899,"秋":900,"科":901,"秦":902,"空":903,"立":904,"站":905,"章":906,"竹":907,"經":908,"红":909,"纳":910,"罗":911,"羅":912,"羊":913,"美":914,"群":915,"義":916,"老":917,"胜":918,"胡":919,"自":920,"良":921,"色":922,"花":923,"苏":924,"苗":925,"若":926,"英":927,"茶":928,"草":929,"荣":930,"莫":931,"莲":932,"華":933,"营":934,"蒙":935,"藏":936,"虎":937,"行":938,"街":939,"西":940,"观":941,"角":942,"語":943,"谷":944,"贡":945,"赛":946,"赤":947,"赵":948,"路":949,"軍":950,"车":951,"边":952,"达":953,"连":954,"通":955,"道":956,"遗":957,"那":958,"郊":959,"郎":960,"郡":961,"部":962,"郭":963,"都":964,"里":965,"野":966,"金":967,"铁":968,"铺":969,"错":970,"镇":971,"長":972,"长":973,"門":974,"门":975,"阳":976,"阿":977,"陈":978,"院":979,"陳":980,"陵":981,"陽":982,"隆":983,"雄":984,"雅":985,"集":986,"雪":987,"青":988,"音":989,"顶":990,"顺":991,"风":992,"香":993,"馬":994,"马":995,"高":996,"鱼":997,"鲁":998,"鹿":999,"麻":1000,"黄":1001,"黑":1002,"龍":1003,"龙":1004,"##a":1005,"##n":1006,"##g":1007,"##i":1008,"##w":1009,"##r":1010,"##c":1011,"##o":1012,"##p":1013,"##h":1014,"##ø":1015,"##e":1016,"##m":1017,"##t":1018,"##s":1019,"##u":1020,"##y":1021,"##k":1022,"##z":1023,"##b":1024,"##l":1025,"##j":1026,"##d":1027,"##f":1028,"##v":1029,"##ي":1030,"##ل":1031,"##و":1032,"##ز":1033,"##خ":1034,"##ت":1035,"##ا":1036,"##æ":1037,"##q":1038,"##ł":1039,"##د":1040,"##ی":1041,"##ن":1042,"##4":1043,"##0":1044,"##1":1045,"##7":1046,"##а":1047,"##м":1048,"##к":1049,"##о":1050,"##в":1051,"##и":1052,"##2":1053,"##8":1054,"##x":1055,"##φ":1056,"##ι":1057,"##ω":1058,"##ν":1059,"##н":1060,"##р":1061,"##3":1062,"##9":1063,"##ر":1064,"##س":1065,"##ח":1066,"##ד":1067,"##ש":1068,"##ה":1069,"##ᅡ":1070,"##ᆫ":1071,"##ᄀ":1072,"##ᆼ":1073,"##ᄋ":1074,"##ᅴ":1075,"##ა":1076,"##კ":1077,"##ი":1078,"##6":1079,"##л":1080,"##ь":1081,"##ᅥ":1082,"##ᄌ":1083,"##ᅵ":1084,"##ᄉ":1085,"##ق":1086,"##я":1087,"##ح":1088,"##م":1089,"##ب":1090,"##ो":1091,"##ß":1092,"##հ":1093,"##ч":1094,"##е":1095,"##ə":1096,"##ذ":1097,"##ਲ":1098,"##ੀ":1099,"##ᅳ":1100,"##ᆷ":1101,"##ᄆ":1102,"##ᄅ":1103,"##5":1104,"##ρ":1105,"##υ":1106,"##σ":1107,"##η":1108,"##λ":1109,"##ο":1110,"##д":1111,"##с":1112,"##т":1113,"##у":1114,"##ᅩ":1115,"##ᅧ":1116,"##ج":1117,"##ة":1118,"##џ":1119,"##ð":1120,"##ۆ":1121,"##ش":1122,"##ک":1123,"##э":1124,"##ү":1125,"##б":1126,"##ه":1127,"##þ":1128,"##ง":1129,"##พ":1130,"##า":1131,"##เ":1132,"##ย":1133,"##น":1134,"##⋅":1135,"##گ":1136,"##κ":1137,"##τ":1138,"##²":1139,"##غ":1140,"##ك":1141,"##ᅮ":1142,"##ف":1143,"##ε":1144,"##α":1145,"##ξ":1146,"##ж":1147,"##г":1148,"##ı":1149,"##з":1150,"##ɛ":1151,"##ɑ":1152,"##ʁ":1153,"##ी":1154,"##र":1155,"##ज":1156,"##ा":1157,"##प":1158,"##°":1159,"##ص":1160,"##ع":1161,"##ط":1162,"##ʿ":1163,"##п":1164,"##ᆨ":1165,"##ᅣ":1166,"##ᄐ":1167,"##β":1168,"##ע":1169,"##ל":1170,"##ᆯ":1171,"##ᄇ":1172,"##ᅱ":1173,"##χ":1174,"##ᄎ":1175,"##ᄃ":1176,"##י":1177,"##ס":1178,"##ט":1179,"##ו":1180,"##ר":1181,"##נ":1182,"##ם":1183,"##ш":1184,"##ц":1185,"##ਿ":1186,"##ਮ":1187,"##ਰ":1188,"##ਤ":1189,"##ы":1190,"##´":1191,"##ב":1192,"##ᅬ":1193,"##ᅦ":1194,"##ᅢ":1195,"##μ":1196,"##כ":1197,"##ᄒ":1198,"##ᅲ":1199,"##ɔ":1200,"##ː":1201,"##¹":1202,"##³":1203,"##ე":1204,"##ბ":1205,"##ლ":1206,"##چ":1207,"##ј":1208,"##ת":1209,"##ژ":1210,"##đ":1211,"##œ":1212,"##ф":1213,"##ק":1214,"##ג":1215,"##き":1216,"##り":1217,"##ς":1218,"##θ":1219,"##π":1220,"##រ":1221,"##ា":1222,"##×":1223,"##±":1224,"##√":1225,"##ո":1226,"##վ":1227,"##ա":1228,"##կ":1229,"##γ":1230,"##ן":1231,"##щ":1232,"##ᄑ":1233,"##ˈ":1234,"##ɾ":1235,"##क":1236,"##व":1237,"##म":1238,"##त":1239,"##ि":1240,"##द":1241,"##य":1242,"##ր":1243,"##գ":1244,"##ս":1245,"##շ":1246,"##ե":1247,"##ն":1248,"##ю":1249,"##া":1250,"##ল":1251,"##দ":1252,"##ে":1253,"##ζ":1254,"##ռ":1255,"##ᅪ":1256,"##і":1257,"##˚":1258,"##ᆸ":1259,"##מ":1260,"##¼":1261,"##ष":1262,"##च":1263,"##®":1264,"##پ":1265,"##リ":1266,"##ー":1267,"##х":1268,"##ɪ":1269,"##ի":1270,"##ம":1271,"##ி":1272,"##δ":1273,"##ք":1274,"##མ":1275,"##ས":1276,"##ض":1277,"##ᅭ":1278,"##ウ":1279,"##ە":1280,"##ん":1281,"##א":1282,"##ल":1283,"##ᚢ":1284,"##ᚦ":1285,"##ᚱ":1286,"##ᚴ":1287,"##ਹ":1288,"##½":1289,"##−":1290,"##न":1291,"##シ":1292,"##ラ":1293,"##ヒ":1294,"##オ":1295,"##ン":1296,"##テ":1297,"##ʉ":1298,"##ᅯ":1299,"##स":1300,"##ध":1301,"##ᆺ":1302,"##ղ":1303,"##ւ":1304,"##ᄂ":1305,"##צ":1306,"##ћ":1307,"##ᛏ":1308,"##ɡ":1309,"##ต":1310,"##გ":1311,"##უ":1312,"##რ":1313,"##қ":1314,"##ـ":1315,"##ף":1316,"##ہ":1317,"##ء":1318,"##க":1319,"##ா":1320,"##ச":1321,"##จ":1322,"##ร":1323,"##ʀ":1324,"##ാ":1325,"##ʒ":1326,"##մ":1327,"##դ":1328,"##ʹ":1329,"##ห":1330,"##ว":1331,"##ด":1332,"##ʲ":1333,"##є":1334,"##ト":1335,"##њ":1336,"##ह":1337,"##ช":1338,"##श":1339,"##ハ":1340,"##ッ":1341,"##ク":1342,"##キ":1343,"##ნ":1344,"##შ":1345,"##ვ":1346,"##љ":1347,"##ظ":1348,"##ɒ":1349,"##い":1350,"##დ":1351,"##ჩ":1352,"##ს":1353,"##ਸ":1354,"##º":1355,"##ێ":1356,"##ө":1357,"##ɨ":1358,"##と":1359,"##う":1360,"##ᚾ":1361,"##ᛅ":1362,"##ม":1363,"##ท":1364,"##ล":1365,"##ལ":1366,"##ᛚ":1367,"##ᛁ":1368,"##פ":1369,"##র":1370,"##ス":1371,"##ट":1372,"##ʔ":1373,"##ਾ":1374,"##ხ":1375,"##ო":1376,"##მ":1377,"##ਖ":1378,"##զ":1379,"##բ":1380,"##յ":1381,"##ல":1382,"##ப":1383,"##ன":1384,"##լ":1385,"##տ":1386,"##խ":1387,"##ъ":1388,"##ʃ":1389,"##ਣ":1390,"##ਆ":1391,"##թ":1392,"##ী":1393,"##ث":1394,"##ʊ":1395,"##ŋ":1396,"##պ":1397,"##ட":1398,"##ு":1399,"##ى":1400,"##ʰ":1401,"##ә":1402,"##ル":1403,"##भ":1404,"##อ":1405,"##ʼ":1406,"##თ":1407,"##ᅨ":1408,"##ग":1409,"##ड":1410,"##ფ":1411,"##ז":1412,"##の":1413,"##か":1414,"##ਨ":1415,"##♭":1416,"##ন":1417,"##ர":1418,"##ਇ":1419,"##─":1420,"##イ":1421,"##ħ":1422,"##ძ":1423,"##ਵ":1424,"##ম":1425,"##ি":1426,"##ক":1427,"##ტ":1428,"##ব":1429,"##コ":1430,"##ア":1431,"##マ":1432,"##₂":1433,"##∈":1434,"##ზ":1435,"##フ":1436,"##ब":1437,"##→":1438,"##ホ":1439,"##স":1440,"##ψ":1441,"##ত":1442,"##ᛋ":1443,"##ᄏ":1444,"##¨":1445,"##บ":1446,"##ց":1447,"##ც":1448,"##წ":1449,"##タ":1450,"##ʻ":1451,"##ก":1452,"##ะ":1453,"##લ":1454,"##ʾ":1455,"##サ":1456,"##ར":1457,"##€":1458,"##ਗ":1459,"##カ":1460,"##ロ":1461,"##ɲ":1462,"##ܪ":1463,"##ɐ":1464,"##ན":1465,"##ˌ":1466,"##ส":1467,"##প":1468,"##জ":1469,"##अ":1470,"##∇":1471,"##வ":1472,"##த":1473,"##ค":1474,"##ป":1475,"##ਕ":1476,"##ܐ":1477,"##პ":1478,"##ण":1479,"##ܝ":1480,"##ܘ":1481,"##য":1482,"##ɕ":1483,"##ھ":1484,"##£":1485,"##≥":1486,"##∞":1487,"##µ":1488,"##ђ":1489,"##し":1490,"##ܬ":1491,"##ག":1492,"##∧":1493,"##ད":1494,"##♠":1495,"##ཆ":1496,"##ყ":1497,"##ਦ":1498,"##℃":1499,"##ℓ":1500,"##ਪ":1501,"##བ":1502,"##ང":1503,"##ཀ":1504,"##པ":1505,"##འ":1506,"##ਜ":1507,"##♯":1508,"##ქ":1509,"##♥":1510,"##¾":1511,"##●":1512,"##★":1513,"##ƒ":1514,"##ཤ":1515,"##ܕ":1516,"##ਅ":1517,"##∂":1518,"##≈":1519,"##≤":1520,"##ཕ":1521,"##ཁ":1522,"##en":1523,"##er":1524,"##ar":1525,"##an":1526,"##et":1527,"##or":1528,"##st":1529,"ar":1530,"##in":1531,"##ed":1532,"##at":1533,"##om":1534,"##ad":1535,"##il":1536,"##al":1537,"##el":1538,"##ch":1539,"##on":1540,"##sk":1541,"##ra":1542,"##ig":1543,"den":1544,"av":1545,"##tt":1546,"och":1547,"##kt":1548,"med":1549,"##un":1550,"en":1551,"in":1552,"##and":1553,"##ing":1554,"##es":1555,"##am":1556,"for":1557,"##re":1558,"som":1559,"##ol":1560,"##te":1561,"##ast":1562,"##ord":1563,"st":1564,"##le":1565,"##id":1566,"##li":1567,"og":1568,"##ur":1569,"##la":1570,"til":1571,"pa":1572,"##is":1573,"var":1574,"om":1575,"##ter":1576,"##eter":1577,"##og":1578,"19":1579,"##ver":1580,"det":1581,"##der":1582,"##ri":1583,"##ade":1584,"##as":1585,"li":1586,"##ro":1587,"##eg":1588,"##pp":1589,"##ag":1590,"##aden":1591,"##us":1592,"an":1593,"##lig":1594,"##aste":1595,"##av":1596,"de":1597,"##ning":1598,"ing":1599,"##ck":1600,"##ang":1601,"##eder":1602,"un":1603,"##sn":1604,"##all":1605,"##it":1606,"##kten":1607,"##per":1608,"##ud":1609,"°c":1610,"##em":1611,"##ak":1612,"##bord":1613,"han":1614,"##ik":1615,"##ederbord":1616,"##isk":1617,"##itt":1618,"##are":1619,"be":1620,"man":1621,"##art":1622,"##na":1623,"##tem":1624,"del":1625,"tra":1626,"under":1627,"sk":1628,"##ger":1629,"er":1630,"##att":1631,"##od":1632,"gen":1633,"ut":1634,"##inn":1635,"##unt":1636,"##ot":1637,"ett":1638,"till":1639,"##atur":1640,"trakten":1641,"##de":1642,"##ent":1643,"##ru":1644,"over":1645,"genom":1646,"##ler":1647,"##uv":1648,"##ste":1649,"##ber":1650,"##ul":1651,"##ia":1652,"20":1653,"##jen":1654,"lig":1655,"km":1656,"##aturen":1657,"##os":1658,"##ion":1659,"##peraturen":1660,"runt":1661,"##eltem":1662,"##eltemperaturen":1663,"##uvud":1664,"##iv":1665,"har":1666,"##lim":1667,"##snitt":1668,"manaden":1669,"mm":1670,"##land":1671,"##ran":1672,"of":1673,"genomsnitt":1674,"nederbord":1675,"##ska":1676,"##ens":1677,"huvud":1678,"ligger":1679,"##ist":1680,"reg":1681,"land":1682,"##sm":1683,"att":1684,"##um":1685,"finn":1686,"sy":1687,"sam":1688,"ingar":1689,"al":1690,"##ari":1691,"##rev":1692,"ble":1693,"sla":1694,"da":1695,"##amil":1696,"##ue":1697,"nar":1698,"##ne":1699,"finns":1700,"##ør":1701,"kom":1702,"sp":1703,"famil":1704,"##sen":1705,"fra":1706,"##ut":1707,"##ktet":1708,"meter":1709,"##fe":1710,"##op":1711,"##ilom":1712,"##ilometer":1713,"##sta":1714,"##ov":1715,"##ok":1716,"per":1717,"familjen":1718,"besk":1719,"kv":1720,"hav":1721,"##ande":1722,"##arter":1723,"pro":1724,"inga":1725,"##rat":1726,"stor":1727,"##het":1728,"##se":1729,"##be":1730,"##for":1731,"##ell":1732,"##ene":1733,"##maste":1734,"##atal":1735,"##sa":1736,"beskrev":1737,"slaktet":1738,"underarter":1739,"##ost":1740,"18":1741,"el":1742,"delen":1743,"havet":1744,"beskrevs":1745,"##ke":1746,"kall":1747,"list":1748,"mil":1749,"nor":1750,"life":1751,"##atalog":1752,"##ust":1753,"nord":1754,"catalog":1755,"catalogue":1756,"##van":1757,"at":1758,"##jon":1759,"##ic":1760,"listade":1761,"##ug":1762,"men":1763,"landet":1764,"kan":1765,"##va":1766,"##olk":1767,"fran":1768,"##staden":1769,"##ien":1770,"##ir":1771,"##ta":1772,"tor":1773,"##ek":1774,"##mer":1775,"##est":1776,"##ss":1777,"##yg":1778,"##rad":1779,"##ep":1780,"jan":1781,"regn":1782,"huvudstaden":1783,"##ann":1784,"invan":1785,"##smed":1786,"invanare":1787,"##ant":1788,"syd":1789,"##sp":1790,"##und":1791,"##ark":1792,"vid":1793,"arsmed":1794,"arsmedeltemperaturen":1795,"varmaste":1796,"medeltemperaturen":1797,"kallaste":1798,"200":1799,"janu":1800,"kvad":1801,"kvadrat":1802,"ch":1803,"##igaste":1804,"##kilometer":1805,"kvadratkilometer":1806,"##limeter":1807,"millimeter":1808,"komm":1809,"##arna":1810,"##raste":1811,"genomsnittlig":1812,"kon":1813,"arsn":1814,"arsnederbord":1815,"torraste":1816,"regnigaste":1817,"##uli":1818,"##yr":1819,"##limat":1820,"##folk":1821,"januari":1822,"or":1823,"##ala":1824,"##ser":1825,"juli":1826,"pl":1827,"opp":1828,"sv":1829,"##ster":1830,"and":1831,"ber":1832,"##im":1833,"##sak":1834,"201":1835,"##ard":1836,"##ader":1837,"eller":1838,"sin":1839,"##ft":1840,"ma":1841,"##eb":1842,"##ett":1843,"##ap":1844,"kommun":1845,"##ab":1846,"##vin":1847,"##iska":1848,"##ling":1849,"##angen":1850,"##red":1851,"tid":1852,"upp":1853,"ter":1854,"##ock":1855,"##ind":1856,"et":1857,"##vast":1858,"to":1859,"##ort":1860,"##ades":1861,"##befolk":1862,"##00":1863,"hog":1864,"##ub":1865,"##ember":1866,"##heten":1867,"vast":1868,"inn":1869,"##giv":1870,"##je":1871,"##fter":1872,"provin":1873,"mar":1874,"##ax":1875,"##skap":1876,"##ge":1877,"##ere":1878,"##ske":1879,"##net":1880,"##ac":1881,"##end":1882,"huvudsak":1883,"ku":1884,"aug":1885,"ver":1886,"##ær":1887,"mot":1888,"sj":1889,"gr":1890,"##ier":1891,"august":1892,"terr":1893,"##ly":1894,"##lag":1895,"so":1896,"##men":1897,"th":1898,"##ae":1899,"omgiv":1900,"##ks":1901,"##ka":1902,"terrangen":1903,"##ma":1904,"199":1905,"rader":1906,"pun":1907,"provinsen":1908,"##ron":1909,"##alet":1910,"##ation":1911,"##gen":1912,"narheten":1913,"##del":1914,"ant":1915,"##ikk":1916,"ny":1917,"##ry":1918,"##res":1919,"vil":1920,"##ick":1921,"sa":1922,"##man":1923,"##lo":1924,"##alt":1925,"etter":1926,"##iske":1927,"hogsta":1928,"art":1929,"le":1930,"sig":1931,"##nings":1932,"vax":1933,"der":1934,"##yn":1935,"lag":1936,"augusti":1937,"ved":1938,"hel":1939,"##den":1940,"mo":1941,"efter":1942,"##befolkat":1943,"##ikt":1944,"punkten":1945,"dar":1946,"kilometer":1947,"re":1948,"før":1949,"##ende":1950,"##son":1951,"lang":1952,"198":1953,"##ningarna":1954,"##rig":1955,"##rag":1956,"##lar":1957,"##ket":1958,"##hol":1959,"##ung":1960,"bar":1961,"des":1962,"##jar":1963,"##ionen":1964,"##ygg":1965,"##ert":1966,"##ring":1967,"##ningen":1968,"##ve":1969,"##amn":1970,"##sart":1971,"##ppen":1972,"best":1973,"##yl":1974,"##ie":1975,"##ip":1976,"197":1977,"ty":1978,"##var":1979,"oster":1980,"ha":1981,"##anska":1982,"omgivningarna":1983,"##ina":1984,"hon":1985,"##hal":1986,"bli":1987,"##if":1988,"mell":1989,"##sh":1990,"fram":1991,"##ige":1992,"berg":1993,"##radet":1994,"##uni":1995,"##les":1996,"seg":1997,"##ob":1998,"##ebru":1999,"##ød":2000,"##amp":2001,"sydost":2002,"febru":2003,"tva":2004,"196":2005,"sl":2006,"bl":2007,"hans":2008,"##ake":2009,"##entr":2010,"##unn":2011,"##ken":2012,"bor":2013,"##oh":2014,"vaster":2015,"##jer":2016,"##ib":2017,"juni":2018,"##adde":2019,"##rit":2020,"ap":2021,"##asjon":2022,"##ong":2023,"la":2024,"##me":2025,"par":2026,"vatt":2027,"17":2028,"##io":2029,"forst":2030,"ein":2031,"##øy":2032,"ogsa":2033,"##ogra":2034,"kar":2035,"pol":2036,"nordvast":2037,"my":2038,"##ats":2039,"##ruk":2040,"##rin":2041,"soder":2042,"ne":2043,"##ian":2044,"##ets":2045,"te":2046,"##vax":2047,"##kk":2048,"##klimat":2049,"februari":2050,"fors":2051,"am":2052,"fil":2053,"kl":2054,"br":2055,"storre":2056,"by":2057,"##da":2058,"##ff":2059,"aven":2060,"se":2061,"fol":2062,"gra":2063,"##uc":2064,"bland":2065,"nov":2066,"##iser":2067,"##ater":2068,"nordost":2069,"##skog":2070,"sep":2071,"##ill":2072,"hadde":2073,"sven":2074,"norr":2075,"##aten":2076,"##ans":2077,"dec":2078,"sitt":2079,"##vis":2080,"##enn":2081,"##ligen":2082,"##org":2083,"##oll":2084,"##ober":2085,"samt":2086,"195":2087,"##eng":2088,"spel":2089,"##else":2090,"ind":2091,"sen":2092,"gj":2093,"194":2094,"fin":2095,"##ou":2096,"sydvast":2097,"##ane":2098,"##sb":2099,"tre":2100,"tv":2101,"##iet":2102,"##ale":2103,"##ott":2104,"centr":2105,"##rade":2106,"blev":2107,"##kke":2108,"##ah":2109,"##ningsom":2110,"kun":2111,"the":2112,"fl":2113,"fler":2114,"val":2115,"##aren":2116,"december":2117,"mus":2118,"hade":2119,"bestar":2120,"##ligt":2121,"septem":2122,"andre":2123,"september":2124,"mang":2125,"mars":2126,"lake":2127,"inte":2128,"##ingen":2129,"##ulle":2130,"193":2131,"narmaste":2132,"##ire":2133,"##ner":2134,"kuper":2135,"kuperad":2136,"##iskt":2137,"ad":2138,"##halle":2139,"##oc":2140,"november":2141,"fod":2142,"mal":2143,"klimat":2144,"samhalle":2145,"##ata":2146,"ganska":2147,"##ore":2148,"folj":2149,"ser":2150,"mind":2151,"192":2152,"dag":2153,"##lem":2154,"sh":2155,"far":2156,"##leg":2157,"##bet":2158,"16":2159,"15":2160,"##wa":2161,"191":2162,"##ild":2163,"##ada":2164,"ann":2165,"bet":2166,"ex":2167,"##istor":2168,"toppen":2169,"centrala":2170,"mindre":2171,"##ult":2172,"##rom":2173,"##kte":2174,"##ril":2175,"##rop":2176,"her":2177,"##idae":2178,"##erna":2179,"mon":2180,"##rist":2181,"okt":2182,"tat":2183,"sver":2184,"##las":2185,"bas":2186,"##ce":2187,"oktober":2188,"##onen":2189,"##sl":2190,"##rik":2191,"gles":2192,"me":2193,"jord":2194,"##berg":2195,"ikke":2196,"##liga":2197,"ost":2198,"##akt":2199,"##alen":2200,"##edan":2201,"utb":2202,"nara":2203,"glesbefolkat":2204,"he":2205,"##itet":2206,"andra":2207,"##up":2208,"fodd":2209,"no":2210,"van":2211,"mat":2212,"rep":2213,"##ella":2214,"co":2215,"vaxer":2216,"regionen":2217,"##iver":2218,"##utt":2219,"all":2220,"sid":2221,"kommunen":2222,"##ts":2223,"##orde":2224,"##ten":2225,"##opp":2226,"kj":2227,"mer":2228,"##smark":2229,"##endrag":2230,"on":2231,"##ich":2232,"kuh":2233,"vattendrag":2234,"maj":2235,"hun":2236,"##uk":2237,"forsta":2238,"##lass":2239,"fick":2240,"##ha":2241,"##sam":2242,"##yrk":2243,"hand":2244,"##elt":2245,"platt":2246,"talet":2247,"##ara":2248,"joh":2249,"##olog":2250,"vis":2251,"gu":2252,"##rem":2253,"##ys":2254,"##pel":2255,"##riv":2256,"bra":2257,"##hor":2258,"eng":2259,"vart":2260,"foljande":2261,"omradet":2262,"##ningar":2263,"##entet":2264,"april":2265,"sm":2266,"ge":2267,"##ess":2268,"beg":2269,"##hall":2270,"##ull":2271,"san":2272,"##tart":2273,"##ow":2274,"første":2275,"kal":2276,"##øl":2277,"ste":2278,"##ja":2279,"##ris":2280,"min":2281,"ta":2282,"histor":2283,"delst":2284,"##enter":2285,"##des":2286,"##yt":2287,"##mar":2288,"tatbefolkat":2289,"hal":2290,"sch":2291,"led":2292,"##kon":2293,"stad":2294,"190":2295,"namn":2296,"form":2297,"amer":2298,"plat":2299,"mellom":2300,"utg":2301,"fly":2302,"##elsen":2303,"kra":2304,"##ret":2305,"hem":2306,"dette":2307,"##cket":2308,"##ansk":2309,"is":2310,"##ass":2311,"##tal":2312,"bygg":2313,"##her":2314,"huvudsakligen":2315,"tr":2316,"are":2317,"##ker":2318,"##ine":2319,"##he":2320,"##nas":2321,"sel":2322,"##vand":2323,"##ay":2324,"##fta":2325,"##fl":2326,"rom":2327,"dod":2328,"##alb":2329,"##holm":2330,"inter":2331,"ab":2332,"bu":2333,"rikt":2334,"##verk":2335,"gru":2336,"sav":2337,"##bar":2338,"mest":2339,"rik":2340,"ag":2341,"##ana":2342,"##old":2343,"##yd":2344,"alb":2345,"##skapet":2346,"fød":2347,"sverige":2348,"res":2349,"##tta":2350,"##jaril":2351,"##anger":2352,"##iss":2353,"skulle":2354,"##elig":2355,"##øn":2356,"mycket":2357,"##ond":2358,"##ister":2359,"##omm":2360,"##lige":2361,"##ift":2362,"hv":2363,"ord":2364,"##allet":2365,"car":2366,"##ct":2367,"omk":2368,"sedan":2369,"dei":2370,"##min":2371,"##rinningsom":2372,"##bruk":2373,"amerik":2374,"bo":2375,"ock":2376,"kor":2377,"eg":2378,"##eart":2379,"##yp":2380,"gjen":2381,"##fatt":2382,"syfta":2383,"ol":2384,"nag":2385,"##mp":2386,"eur":2387,"##vik":2388,"##sklimat":2389,"##rak":2390,"##ack":2391,"##jan":2392,"##beid":2393,"mellan":2394,"##rid":2395,"sc":2396,"##istri":2397,"##ium":2398,"##kl":2399,"##dag":2400,"rad":2401,"hen":2402,"##hus":2403,"##ogram":2404,"norra":2405,"##els":2406,"##par":2407,"mor":2408,"##ial":2409,"liv":2410,"ocksa":2411,"omkring":2412,"fri":2413,"##skland":2414,"189":2415,"storsta":2416,"bro":2417,"##befolkad":2418,"hj":2419,"inne":2420,"##igt":2421,"##hi":2422,"10":2423,"født":2424,"##odra":2425,"bak":2426,"folk":2427,"nog":2428,"##kel":2429,"##hav":2430,"polit":2431,"sjo":2432,"delt":2433,"##osa":2434,"forb":2435,"12":2436,"gar":2437,"col":2438,"obefolkad":2439,"ho":2440,"blir":2441,"##ubb":2442,"sodra":2443,"##mark":2444,"stra":2445,"##gar":2446,"utbred":2447,"##ral":2448,"sør":2449,"hov":2450,"##iller":2451,"riktning":2452,"gam":2453,"##rukt":2454,"denne":2455,"##lik":2456,"##tter":2457,"fjaril":2458,"tur":2459,"ur":2460,"##iker":2461,"##bl":2462,"##ica":2463,"dem":2464,"##sv":2465,"antalet":2466,"delstaten":2467,"ned":2468,"ph":2469,"##ius":2470,"bred":2471,"aust":2472,"##stem":2473,"fot":2474,"arten":2475,"##nar":2476,"##sson":2477,"##eld":2478,"nav":2479,"vilket":2480,"stock":2481,"##ære":2482,"##uss":2483,"person":2484,"##ivers":2485,"dess":2486,"##iga":2487,"kat":2488,"##satt":2489,"dan":2490,"##iod":2491,"konst":2492,"lov":2493,"pr":2494,"14":2495,"jordbruk":2496,"##ograf":2497,"distri":2498,"##stad":2499,"##ula":2500,"detta":2501,"##vaxter":2502,"##rike":2503,"##era":2504,"##zonen":2505,"fa":2506,"sydostra":2507,"##lighet":2508,"##før":2509,"prod":2510,"##jur":2511,"svensk":2512,"##ora":2513,"klimatzonen":2514,"##orn":2515,"##vaxtart":2516,"lan":2517,"univers":2518,"ang":2519,"##form":2520,"##ings":2521,"stockholm":2522,"band":2523,"##ii":2524,"natur":2525,"enligt":2526,"##pl":2527,"fjarilsart":2528,"grund":2529,"##int":2530,"##rod":2531,"ra":2532,"stat":2533,"##ren":2534,"##tid":2535,"13":2536,"em":2537,"##som":2538,"lac":2539,"savann":2540,"new":2541,"188":2542,"##sten":2543,"dom":2544,"stud":2545,"anvand":2546,"##aving":2547,"##by":2548,"eit":2549,"bes":2550,"platser":2551,"##ktiv":2552,"wil":2553,"os":2554,"cer":2555,"##nom":2556,"sal":2557,"kanada":2558,"tvaving":2559,"europ":2560,"##oph":2561,"##atte":2562,"##qu":2563,"##ropiskt":2564,"annat":2565,"##ært":2566,"##ym":2567,"gre":2568,"##rakt":2569,"##iz":2570,"##dom":2571,"##ile":2572,"##sj":2573,"jordbruksmark":2574,"##ola":2575,"si":2576,"##ensis":2577,"11":2578,"sta":2579,"fikk":2580,"tem":2581,"bade":2582,"part":2583,"mark":2584,"po":2585,"##med":2586,"##isjon":2587,"lar":2588,"ei":2589,"##ho":2590,"ca":2591,"tvavingeart":2592,"##sjon":2593,"vann":2594,"##stand":2595,"##nen":2596,"usa":2597,"##ukt":2598,"inom":2599,"bel":2600,"medlem":2601,"##lin":2602,"album":2603,"##ald":2604,"##ite":2605,"##ef":2606,"##slag":2607,"ham":2608,"fj":2609,"##ga":2610,"otta":2611,"##ford":2612,"##nad":2613,"krig":2614,"ottawa":2615,"nam":2616,"sol":2617,"lat":2618,"##rett":2619,"##far":2620,"##ida":2621,"nu":2622,"lu":2623,"kyrk":2624,"##hand":2625,"##elle":2626,"##th":2627,"utan":2628,"slut":2629,"ater":2630,"god":2631,"##øp":2632,"dis":2633,"##sil":2634,"##rum":2635,"off":2636,"rek":2637,"grunn":2638,"##stall":2639,"oli":2640,"finland":2641,"##ille":2642,"frank":2643,"kont":2644,"vastra":2645,"##led":2646,"di":2647,"##uder":2648,"##ide":2649,"gjennom":2650,"##ya":2651,"##gang":2652,"fle":2653,"##ativ":2654,"##our":2655,"as":2656,"cre":2657,"fem":2658,"avrinningsom":2659,"vin":2660,"##fors":2661,"##gan":2662,"##konom":2663,"hol":2664,"gall":2665,"##ern":2666,"af":2667,"000":2668,"187":2669,"##met":2670,"sammen":2671,"norsk":2672,"son":2673,"ostra":2674,"bruk":2675,"##ator":2676,"met":2677,"ly":2678,"186":2679,"##get":2680,"##over":2681,"sjon":2682,"##elen":2683,"##ity":2684,"svenska":2685,"flere":2686,"##ph":2687,"##ven":2688,"su":2689,"##au":2690,"vest":2691,"pres":2692,"bi":2693,"mel":2694,"##lingen":2695,"##iner":2696,"##ton":2697,"##øm":2698,"arbet":2699,"kvinn":2700,"##ec":2701,"end":2702,"##sf":2703,"ans":2704,"##rep":2705,"##igh":2706,"forsk":2707,"mag":2708,"##ld":2709,"##empel":2710,"arbeid":2711,"barn":2712,"plan":2713,"con":2714,"##atter":2715,"##ilt":2716,"senare":2717,"gjorde":2718,"ed":2719,"ve":2720,"period":2721,"na":2722,"flera":2723,"hos":2724,"frem":2725,"dra":2726,"bok":2727,"tro":2728,"##veck":2729,"##urg":2730,"##ote":2731,"##rar":2732,"kraft":2733,"int":2734,"stør":2735,"##agen":2736,"mid":2737,"pre":2738,"tidig":2739,"mange":2740,"blant":2741,"ga":2742,"##bygg":2743,"repres":2744,"ingen":2745,"vikt":2746,"norge":2747,"tidlig":2748,"##hold":2749,"vaxt":2750,"sn":2751,"ry":2752,"ort":2753,"##anske":2754,"ye":2755,"##ba":2756,"bil":2757,"##erade":2758,"creek":2759,"hvor":2760,"##kar":2761,"##elser":2762,"##ura":2763,"##sekt":2764,"ald":2765,"##kom":2766,"sak":2767,"##ingar":2768,"basen":2769,"sar":2770,"##partem":2771,"##of":2772,"##agg":2773,"ka":2774,"rund":2775,"ben":2776,"##borg":2777,"hus":2778,"lite":2779,"intern":2780,"##ede":2781,"sas":2782,"krist":2783,"kir":2784,"##han":2785,"ro":2786,"omgivande":2787,"bredden":2788,"ele":2789,"medel":2790,"tidigare":2791,"##cker":2792,"dock":2793,"do":2794,"samma":2795,"##ate":2796,"##arta":2797,"skrev":2798,"grupp":2799,"ak":2800,"##ytt":2801,"tropiskt":2802,"##pe":2803,"##val":2804,"slutt":2805,"##ena":2806,"denna":2807,"kand":2808,"##mans":2809,"##ca":2810,"olika":2811,"fort":2812,"##co":2813,"henn":2814,"byg":2815,"##nes":2816,"befolk":2817,"##skol":2818,"fotb":2819,"##klar":2820,"##fer":2821,"austral":2822,"høy":2823,"alle":2824,"du":2825,"hemib":2826,"sina":2827,"##sing":2828,"##erat":2829,"count":2830,"ital":2831,"tog":2832,"##oreala":2833,"hemiboreala":2834,"##ester":2835,"john":2836,"tek":2837,"##ultur":2838,"skol":2839,"##sy":2840,"hoved":2841,"red":2842,"##etter":2843,"insekt":2844,"film":2845,"kn":2846,"engel":2847,"bergig":2848,"kong":2849,"utbredningsom":2850,"sag":2851,"vara":2852,"brasil":2853,"lok":2854,"##partementet":2855,"##oss":2856,"organ":2857,"ger":2858,"##ont":2859,"vaxtlighet":2860,"##rich":2861,"##ighet":2862,"mount":2863,"##ander":2864,"##ban":2865,"##ratt":2866,"##rift":2867,"artens":2868,"trad":2869,"stort":2870,"gav":2871,"kol":2872,"pal":2873,"frankrike":2874,"vi":2875,"fun":2876,"komp":2877,"que":2878,"fyl":2879,"namnet":2880,"utbredningsomrade":2881,"gener":2882,"2010":2883,"avrinningsomradet":2884,"hennes":2885,"store":2886,"##ones":2887,"gang":2888,"##oma":2889,"blandskog":2890,"##reg":2891,"##spel":2892,"##ubli":2893,"##ham":2894,"død":2895,"musik":2896,"jam":2897,"kin":2898,"##ongen":2899,"ob":2900,"kro":2901,"##iden":2902,"lin":2903,"tok":2904,"185":2905,"##minist":2906,"eks":2907,"ek":2908,"bild":2909,"##ey":2910,"##ira":2911,"byen":2912,"##ksjon":2913,"##rer":2914,"arean":2915,"cerro":2916,"ac":2917,"skog":2918,"##ers":2919,"fast":2920,"##fly":2921,"tal":2922,"##har":2923,"region":2924,"manga":2925,"syn":2926,"tot":2927,"##yra":2928,"selv":2929,"skalb":2930,"kommer":2931,"im":2932,"pop":2933,"##ugor":2934,"samhall":2935,"kam":2936,"prof":2937,"brit":2938,"tallet":2939,"30":2940,"ov":2941,"sjal":2942,"bru":2943,"administ":2944,"25":2945,"##mal":2946,"klimatet":2947,"##bo":2948,"##let":2949,"enn":2950,"##pa":2951,"id":2952,"2008":2953,"##mann":2954,"mex":2955,"forts":2956,"stora":2957,"kommune":2958,"dal":2959,"##pt":2960,"##che":2961,"senere":2962,"##eln":2963,"2000":2964,"stads":2965,"tillsam":2966,"sek":2967,"kort":2968,"tillsammans":2969,"##lan":2970,"##kter":2971,"fred":2972,"staden":2973,"div":2974,"##gr":2975,"##flugor":2976,"2006":2977,"hø":2978,"star":2979,"kung":2980,"##ors":2981,"forsam":2982,"alla":2983,"karl":2984,"sand":2985,"dessa":2986,"start":2987,"nation":2988,"gran":2989,"ko":2990,"departementet":2991,"2007":2992,"verd":2993,"##ondon":2994,"ban":2995,"savannklimat":2996,"##band":2997,"klubb":2998,"##eller":2999,"kap":3000,"satt":3001,"moder":3002,"ba":3003,"jak":3004,"innan":3005,"tyskland":3006,"tran":3007,"vit":3008,"blitt":3009,"fer":3010,"##rang":3011,"num":3012,"##bia":3013,"tidligere":3014,"bol":3015,"kultur":3016,"siden":3017,"london":3018,"##ace":3019,"mu":3020,"##lands":3021,"riks":3022,"noen":3023,"tan":3024,"tilb":3025,"universitet":3026,"##ering":3027,"flytt":3028,"##vet":3029,"sine":3030,"vir":3031,"nya":3032,"amp":3033,"##kn":3034,"2011":3035,"stapp":3036,"##raden":3037,"sub":3038,"ekonom":3039,"styr":3040,"jar":3041,"verk":3042,"##smarker":3043,"##aget":3044,"##legg":3045,"##ley":3046,"egen":3047,"##strom":3048,"##arden":3049,"##ografi":3050,"##one":3051,"von":3052,"representer":3053,"grasmarker":3054,"ke":3055,"helsing":3056,"varld":3057,"stappklimat":3058,"##iva":3059,"kallt":3060,"filmen":3061,"nær":3062,"mann":3063,"skalbagg":3064,"skalbaggsart":3065,"carl":3066,"exempel":3067,"kjent":3068,"kop":3069,"storb":3070,"##ish":3071,"##ktor":3072,"##ins":3073,"2009":3074,"annet":3075,"være":3076,"100":3077,"##skar":3078,"oppet":3079,"oly":3080,"##ksam":3081,"natt":3082,"##ros":3083,"kr":3084,"##ekk":3085,"rundt":3086,"##jade":3087,"christ":3088,"##inger":3089,"albumet":3090,"##alis":3091,"tred":3092,"##its":3093,"sock":3094,"##cher":3095,"##ij":3096,"2005":3097,"skal":3098,"can":3099,"##za":3100,"insektsart":3101,"cir":3102,"inst":3103,"disse":3104,"pe":3105,"##ritann":3106,"##blad":3107,"storbritann":3108,"##uter":3109,"2012":3110,"184":3111,"amerikansk":3112,"inv":3113,"deb":3114,"uten":3115,"##atus":3116,"iran":3117,"kina":3118,"dav":3119,"##lott":3120,"vatten":3121,"##skrig":3122,"pers":3123,"##aster":3124,"##djur":3125,"kunne":3126,"gallande":3127,"lj":3128,"ig":3129,"forek":3130,"norske":3131,"##ota":3132,"##20":3133,"##ons":3134,"halv":3135,"##ork":3136,"program":3137,"jap":3138,"##rott":3139,"##jør":3140,"flyg":3141,"##ninger":3142,"##ops":3143,"temper":3144,"plass":3145,"utt":3146,"hver":3147,"##ette":3148,"##jord":3149,"vært":3150,"samme":3151,"##alp":3152,"sydlig":3153,"str":3154,"buskland":3155,"##kur":3156,"busklandskap":3157,"##esh":3158,"vant":3159,"port":3160,"cal":3161,"ale":3162,"##lav":3163,"##sel":3164,"lo":3165,"tim":3166,"forl":3167,"mad":3168,"tar":3169,"##orna":3170,"##ologi":3171,"##sland":3172,"##rut":3173,"slakte":3174,"##ident":3175,"fatt":3176,"stil":3177,"foret":3178,"ark":3179,"##ipp":3180,"oper":3181,"oslo":3182,"21":3183,"milit":3184,"tri":3185,"sommer":3186,"distriktet":3187,"kant":3188,"ru":3189,"##orter":3190,"##enskap":3191,"2004":3192,"##istan":3193,"sing":3194,"##sar":3195,"##ationen":3196,"ses":3197,"je":3198,"##cent":3199,"kulle":3200,"pat":3201,"##ila":3202,"qu":3203,"gul":3204,"##raft":3205,"##ice":3206,"aret":3207,"kron":3208,"##vag":3209,"olymp":3210,"##rupp":3211,"vag":3212,"##anns":3213,"##cia":3214,"indones":3215,"vm":3216,"##ition":3217,"oken":3218,"skap":3219,"char":3220,"sma":3221,"mens":3222,"##part":3223,"sydvastra":3224,"ep":3225,"sang":3226,"ja":3227,"##ix":3228,"##olf":3229,"wal":3230,"vastlig":3231,"##hel":3232,"omfatt":3233,"bri":3234,"2016":3235,"hall":3236,"ung":3237,"studer":3238,"laget":3239,"24":3240,"tysk":3241,"svamp":3242,"##ua":3243,"begyn":3244,"italien":3245,"nordostra":3246,"ofte":3247,"##spr":3248,"alt":3249,"administrat":3250,"borjade":3251,"mod":3252,"##ides":3253,"##mus":3254,"tillhor":3255,"gikk":3256,"##ellt":3257,"okenklimat":3258,"helsingfors":3259,"##lac":3260,"noe":3261,"##sd":3262,"##ico":3263,"lever":3264,"##aler":3265,"system":3266,"##ori":3267,"dire":3268,"##esp":3269,"forekom":3270,"tiden":3271,"##erte":3272,"dj":3273,"##esi":3274,"if":3275,"gun":3276,"rio":3277,"gor":3278,"russ":3279,"fisk":3280,"##landsklimat":3281,"kamp":3282,"##ona":3283,"øst":3284,"##atet":3285,"1990":3286,"sjalv":3287,"leg":3288,"il":3289,"##øre":3290,"##lagt":3291,"stracker":3292,"span":3293,"##iar":3294,"##sch":3295,"nye":3296,"cor":3297,"dam":3298,"##uvudstaden":3299,"##vi":3300,"##lassen":3301,"mas":3302,"lovskog":3303,"willi":3304,"22":3305,"##ika":3306,"eta":3307,"##och":3308,"pri":3309,"##ux":3310,"##sst":3311,"2014":3312,"sle":3313,"com":3314,"england":3315,"pass":3316,"##sfor":3317,"ros":3318,"23":3319,"ul":3320,"##inga":3321,"kjen":3322,"ofta":3323,"indonesien":3324,"gift":3325,"##tte":3326,"arg":3327,"sim":3328,"##byg":3329,"183":3330,"jos":3331,"##hj":3332,"ars":3333,"##mat":3334,"bur":3335,"##odes":3336,"utvik":3337,"fire":3338,"##heran":3339,"forsamling":3340,"los":3341,"##ith":3342,"##aka":3343,"1980":3344,"nagra":3345,"samtid":3346,"sist":3347,"bla":3348,"samhallen":3349,"jakarta":3350,"profess":3351,"##ash":3352,"ska":3353,"stekel":3354,"medelhav":3355,"##mo":3356,"kateg":3357,"##ele":3358,"stod":3359,"tav":3360,"teheran":3361,"2013":3362,"##ach":3363,"##bert":3364,"##yc":3365,"air":3366,"popul":3367,"##ffe":3368,"utveck":3369,"##set":3370,"karri":3371,"januar":3372,"helt":3373,"##tor":3374,"##tes":3375,"medan":3376,"2015":3377,"##utom":3378,"park":3379,"sprak":3380,"nordvastra":3381,"stekelart":3382,"rod":3383,"sil":3384,"sten":3385,"##ønn":3386,"johan":3387,"##iken":3388,"rh":3389,"1970":3390,"ovrig":3391,"naturlig":3392,"persiska":3393,"aktiv":3394,"organis":3395,"##ementet":3396,"fag":3397,"##ars":3398,"gl":3399,"##inne":3400,"##we":3401,"kines":3402,"##mel":3403,"føl":3404,"klad":3405,"skj":3406,"##jet":3407,"gud":3408,"##oner":3409,"##like":3410,"##br":3411,"las":3412,"full":3413,"##vit":3414,"siste":3415,"##asjonen":3416,"hot":3417,"forsvar":3418,"##hl":3419,"##bol":3420,"allt":3421,"##shuvudstaden":3422,"ganger":3423,"##vo":3424,"vanlig":3425,"ekonomiska":3426,"##otter":3427,"sant":3428,"divis":3429,"totalt":3430,"forfatt":3431,"##øk":3432,"like":3433,"##steklar":3434,"city":3435,"area":3436,"##aga":3437,"ev":3438,"##rond":3439,"##ges":3440,"ford":3441,"landskapet":3442,"vok":3443,"fyra":3444,"##andet":3445,"medelhavsklimat":3446,"william":3447,"mac":3448,"##ioner":3449,"slik":3450,"1960":3451,"##sun":3452,"ville":3453,"mart":3454,"bare":3455,"op":3456,"##øde":3457,"26":3458,"28":3459,"##heter":3460,"kval":3461,"##ns":3462,"##kes":3463,"##lade":3464,"##una":3465,"##trad":3466,"2003":3467,"inlandsklimat":3468,"##oren":3469,"##fall":3470,"ast":3471,"##aceae":3472,"bandet":3473,"fall":3474,"2002":3475,"nok":3476,"##ric":3477,"europa":3478,"##kker":3479,"##vern":3480,"personer":3481,"aren":3482,"##illa":3483,"##sker":3484,"rak":3485,"varit":3486,"spelade":3487,"sov":3488,"samman":3489,"gro":3490,"gick":3491,"##jo":3492,"27":3493,"cirka":3494,"internation":3495,"lev":3496,"island":3497,"##asta":3498,"mosa":3499,"##gard":3500,"##iro":3501,"neder":3502,"bal":3503,"rett":3504,"##inner":3505,"bety":3506,"honom":3507,"klass":3508,"serien":3509,"tilbake":3510,"##alist":3511,"kalla":3512,"musikk":3513,"##burg":3514,"peter":3515,"##lam":3516,"##esten":3517,"##este":3518,"##ført":3519,"nasjon":3520,"soc":3521,"##bler":3522,"borjan":3523,"administrativ":3524,"dare":3525,"kunde":3526,"mai":3527,"navnet":3528,"deltok":3529,"##ucer":3530,"tempererat":3531,"##fin":3532,"##sprung":3533,"2001":3534,"største":3535,"##naden":3536,"2018":3537,"viktig":3538,"bed":3539,"nytt":3540,"gard":3541,"delav":3542,"mari":3543,"danmark":3544,"tekn":3545,"kladogram":3546,"##ita":3547,"##uth":3548,"ork":3549,"ursprung":3550,"ir":3551,"kunst":3552,"navn":3553,"##ilte":3554,"##vid":3555,"##bb":3556,"delavrinningsom":3557,"mosaik":3558,"bon":3559,"##sted":3560,"##egron":3561,"tredje":3562,"stadsegron":3563,"##ago":3564,"od":3565,"verksam":3566,"ytter":3567,"1999":3568,"varier":3569,"kur":3570,"darefter":3571,"skriv":3572,"##ynd":3573,"##igheter":3574,"##yll":3575,"ligg":3576,"##ias":3577,"##lege":3578,"##lev":3579,"fotball":3580,"sted":3581,"hela":3582,"##undet":3583,"##vn":3584,"skri":3585,"bara":3586,"##ies":3587,"muse":3588,"prin":3589,"gruppen":3590,"oppr":3591,"rel":3592,"##rog":3593,"##bin":3594,"##dal":3595,"##sert":3596,"2017":3597,"plats":3598,"##lagg":3599,"ander":3600,"##uler":3601,"bron":3602,"vinter":3603,"hy":3604,"eli":3605,"##hov":3606,"fore":3607,"##jel":3608,"##kop":3609,"gote":3610,"paul":3611,"sem":3612,"sett":3613,"delavrinningsomrade":3614,"president":3615,"##fil":3616,"roman":3617,"australien":3618,"bid":3619,"##ise":3620,"vel":3621,"grad":3622,"##upp":3623,"foren":3624,"først":3625,"innen":3626,"##adem":3627,"mun":3628,"goteborg":3629,"klubben":3630,"##ben":3631,"sø":3632,"sær":3633,"##roll":3634,"hur":3635,"glo":3636,"##aria":3637,"181":3638,"##oni":3639,"forf":3640,"##album":3641,"arter":3642,"fjell":3643,"stand":3644,"##arbet":3645,"ass":3646,"konkur":3647,"socken":3648,"##sg":3649,"forekommer":3650,"chile":3651,"myr":3652,"##ider":3653,"##off":3654,"tit":3655,"paris":3656,"mont":3657,"innebar":3658,"##elige":3659,"øy":3660,"alger":3661,"##kj":3662,"kh":3663,"##lad":3664,"gunung":3665,"##oth":3666,"arkite":3667,"##udd":3668,"ratt":3669,"slapp":3670,"29":3671,"##atan":3672,"##vatt":3673,"igjen":3674,"publi":3675,"##aland":3676,"valg":3677,"##rol":3678,"##kkje":3679,"##okrat":3680,"krit":3681,"svart":3682,"##ama":3683,"fal":3684,"bj":3685,"##bil":3686,"##zz":3687,"##ure":3688,"fanns":3689,"##ustri":3690,"langs":3691,"rock":3692,"spind":3693,"go":3694,"kvar":3695,"##si":3696,"##ive":3697,"inkl":3698,"kring":3699,"lik":3700,"##arbeid":3701,"##rika":3702,"tom":3703,"ib":3704,"prakt":3705,"kust":3706,"bran":3707,"monsun":3708,"rev":3709,"tillegg":3710,"kab":3711,"##ath":3712,"50":3713,"##ationer":3714,"pse":3715,"##onia":3716,"hu":3717,"svar":3718,"ikkje":3719,"etabler":3720,"sovjet":3721,"framst":3722,"tak":3723,"##uren":3724,"##jd":3725,"##ceae":3726,"kategor":3727,"ram":3728,"historia":3729,"##ksom":3730,"johann":3731,"grav":3732,"regnskog":3733,"1992":3734,"verden":3735,"monsunklimat":3736,"bul":3737,"##ublik":3738,"##cis":3739,"bore":3740,"31":3741,"pan":3742,"##oster":3743,"##namn":3744,"##iens":3745,"1998":3746,"eld":3747,"##ward":3748,"rol":3749,"tel":3750,"##pen":3751,"2019":3752,"varm":3753,"pris":3754,"februar":3755,"fang":3756,"1994":3757,"##ølv":3758,"langt":3759,"bef":3760,"georg":3761,"elekt":3762,"ii":3763,"deras":3764,"##iko":3765,"##fordes":3766,"bry":3767,"sex":3768,"klar":3769,"ok":3770,"##eph":3771,"##kv":3772,"sty":3773,"hor":3774,"##ain":3775,"1900":3776,"desember":3777,"##iel":3778,"lind":3779,"mich":3780,"song":3781,"historie":3782,"##ktar":3783,"##ps":3784,"teg":3785,"europe":3786,"1996":3787,"vaxtart":3788,"fe":3789,"##stra":3790,"##uel":3791,"nom":3792,"ven":3793,"pseud":3794,"yt":3795,"##use":3796,"luft":3797,"##ress":3798,"tex":3799,"avg":3800,"gal":3801,"thom":3802,"##djursart":3803,"##jarn":3804,"bort":3805,"ras":3806,"##ze":3807,"##delen":3808,"ist":3809,"mak":3810,"jo":3811,"bre":3812,"finnes":3813,"west":3814,"##cer":3815,"##svar":3816,"anvands":3817,"bay":3818,"mitt":3819,"vill":3820,"##arkt":3821,"len":3822,"løp":3823,"gjort":3824,"roll":3825,"##drag":3826,"henne":3827,"pros":3828,"##iter":3829,"##veg":3830,"sasongen":3831,"##chen":3832,"skip":3833,"hele":3834,"fransk":3835,"mc":3836,"unge":3837,"pra":3838,"bod":3839,"##ommun":3840,"brukt":3841,"##meh":3842,"##orer":3843,"result":3844,"teater":3845,"delar":3846,"litter":3847,"##jerne":3848,"alex":3849,"##ino":3850,"##stil":3851,"##erne":3852,"##iat":3853,"tall":3854,"idag":3855,"hett":3856,"vet":3857,"langd":3858,"mol":3859,"ti":3860,"nummer":3861,"pet":3862,"norrut":3863,"##ani":3864,"perioden":3865,"180":3866,"regnskogsklimat":3867,"leder":3868,"skar":3869,"storbritannien":3870,"1991":3871,"kantonen":3872,"countyt":3873,"182":3874,"eftersom":3875,"##gere":3876,"general":3877,"##igen":3878,"lund":3879,"ton":3880,"##lut":3881,"##usjon":3882,"ner":3883,"##bec":3884,"1997":3885,"nagot":3886,"phil":3887,"soderut":3888,"##gende":3889,"1995":3890,"##ea":3891,"arab":3892,"##itar":3893,"##organ":3894,"sentr":3895,"york":3896,"chesh":3897,"ons":3898,"endast":3899,"##helm":3900,"##forb":3901,"boreala":3902,"##serv":3903,"vert":3904,"delstat":3905,"##ios":3906,"fotboll":3907,"flod":3908,"tatt":3909,"1993":3910,"mott":3911,"1950":3912,"pos":3913,"jarn":3914,"mø":3915,"rober":3916,"meg":3917,"menne":3918,"##eri":3919,"sur":3920,"gora":3921,"##bel":3922,"##yrka":3923,"lø":3924,"don":3925,"##orge":3926,"fest":3927,"##ruktbar":3928,"jur":3929,"uppg":3930,"##bor":3931,"##ko":3932,"sverig":3933,"ret":3934,"##ign":3935,"engelsk":3936,"lou":3937,"omrade":3938,"##uksjon":3939,"##port":3940,"avsl":3941,"bos":3942,"priv":3943,"km²":3944,"cheshmeh":3945,"uts":3946,"##ører":3947,"##kta":3948,"##ager":3949,"1988":3950,"we":3951,"nederland":3952,"redan":3953,"rekke":3954,"professor":3955,"britt":3956,"##sc":3957,"anna":3958,"ky":3959,"##iana":3960,"county":3961,"est":3962,"verdens":3963,"vol":3964,"beste":3965,"##ini":3966,"##under":3967,"dat":3968,"##ror":3969,"gull":3970,"vap":3971,"sidan":3972,"stift":3973,"antal":3974,"##erg":3975,"spec":3976,"##ockey":3977,"##que":3978,"dol":3979,"##arande":3980,"##tra":3981,"blad":3982,"##omy":3983,"slag":3984,"iuc":3985,"ofruktbar":3986,"##skri":3987,"##heim":3988,"samband":3989,"##anter":3990,"##ppet":3991,"##rav":3992,"##adi":3993,"jon":3994,"##handling":3995,"spilte":3996,"##ensen":3997,"bat":3998,"grev":3999,"colom":4000,"ster":4001,"iucn":4002,"1800":4003,"stam":4004,"liten":4005,"glob":4006,"##laget":4007,"gi":4008,"##dde":4009,"saint":4010,"aldre":4011,"##stein":4012,"veg":4013,"##elli":4014,"cent":4015,"##ht":4016,"##amot":4017,"##bro":4018,"##ept":4019,"##ney":4020,"1971":4021,"##af":4022,"gangen":4023,"##vel":4024,"1989":4025,"tjan":4026,"##landet":4027,"##pelare":4028,"##inister":4029,"ren":4030,"mexico":4031,"##amer":4032,"ungdom":4033,"lange":4034,"##vest":4035,"sna":4036,"quebec":4037,"##ng":4038,"##amen":4039,"cl":4040,"fre":4041,"matte":4042,"fr":4043,"##iserar":4044,"regjer":4045,"##hen":4046,"##alder":4047,"instit":4048,"djur":4049,"tap":4050,"##stre":4051,"40":4052,"##als":4053,"##anda":4054,"stre":4055,"ulike":4056,"dy":4057,"ni":4058,"##ram":4059,"##emp":4060,"hektar":4061,"##gj":4062,"##ria":4063,"##styr":4064,"sveriges":4065,"##iteten":4066,"vidare":4067,"arene":4068,"mur":4069,"bib":4070,"##ras":4071,"post":4072,"##seende":4073,"try":4074,"##bu":4075,"via":4076,"1984":4077,"##cus":4078,"osterut":4079,"##olit":4080,"##ood":4081,"brasilien":4082,"lam":4083,"mater":4084,"vasterut":4085,"##lis":4086,"koh":4087,"##len":4088,"unders":4089,"vik":4090,"##age":4091,"relig":4092,"george":4093,"##anden":4094,"leng":4095,"##lat":4096,"vissa":4097,"##50":4098,"fukt":4099,"stø":4100,"utd":4101,"mic":4102,"##asa":4103,"##vard":4104,"turner":4105,"##ox":4106,"gamle":4107,"##utveck":4108,"##sket":4109,"amerikanske":4110,"bakgr":4111,"##ism":4112,"guvern":4113,"und":4114,"erik":4115,"##itz":4116,"##opter":4117,"lak":4118,"robert":4119,"fyr":4120,"maria":4121,"##unkt":4122,"rec":4123,"gt":4124,"tyske":4125,"bir":4126,"arrang":4127,"##roducer":4128,"1920":4129,"##osof":4130,"spiller":4131,"brun":4132,"litt":4133,"lt":4134,"##til":4135,"##heng":4136,"moj":4137,"større":4138,"1987":4139,"offent":4140,"christian":4141,"milli":4142,"sista":4143,"vad":4144,"hum":4145,"##uan":4146,"##foren":4147,"##ole":4148,"##sprak":4149,"prob":4150,"1986":4151,"produs":4152,"strid":4153,"nagon":4154,"##kket":4155,"rum":4156,"##nade":4157,"afg":4158,"##orden":4159,"##az":4160,"arkitekt":4161,"vic":4162,"enda":4163,"##yo":4164,"topp":4165,"1940":4166,"##plass":4167,"psy":4168,"miss":4169,"##iskop":4170,"##staende":4171,"cap":4172,"##str":4173,"##eta":4174,"spar":4175,"##ifl":4176,"forbund":4177,"hast":4178,"betyd":4179,"tillb":4180,"1930":4181,"stall":4182,"gamla":4183,"reser":4184,"romer":4185,"##ete":4186,"guld":4187,"##osp":4188,"bada":4189,"begynte":4190,"ten":4191,"opprinn":4192,"hund":4193,"##øst":4194,"ansvar":4195,"##forande":4196,"1972":4197,"sym":4198,"argent":4199,"høg":4200,"prem":4201,"##eren":4202,"fas":4203,"ent":4204,"deres":4205,"døde":4206,"##ogn":4207,"inkluder":4208,"1985":4209,"stats":4210,"##sport":4211,"ovrigt":4212,"berlin":4213,"slutet":4214,"##omen":4215,"##uten":4216,"##ario":4217,"national":4218,"riket":4219,"effe":4220,"1974":4221,"##eh":4222,"mis":4223,"1968":4224,"ytterlig":4225,"pas":4226,"camp":4227,"##arktis":4228,"varje":4229,"##idler":4230,"##gor":4231,"##ima":4232,"##anth":4233,"lav":4234,"kalt":4235,"utgav":4236,"500":4237,"##rob":4238,"indiv":4239,"##uer":4240,"kyrkan":4241,"##ument":4242,"##kan":4243,"mexiko":4244,"##orp":4245,"friid":4246,"representerte":4247,"grek":4248,"blei":4249,"nil":4250,"hard":4251,"befolkningen":4252,"afghan":4253,"##nam":4254,"typ":4255,"sjuk":4256,"alf":4257,"colum":4258,"upps":4259,"rab":4260,"overt":4261,"jac":4262,"slott":4263,"##fjord":4264,"##alj":4265,"1979":4266,"betydel":4267,"infor":4268,"bog":4269,"biografi":4270,"spor":4271,"##ema":4272,"##lades":4273,"republi":4274,"sad":4275,"##plan":4276,"kategoriserar":4277,"##cken":4278,"##yttet":4279,"internasjon":4280,"179":4281,"##ode":4282,"tru":4283,"##ebel":4284,"delstatshuvudstaden":4285,"vilken":4286,"middel":4287,"hjem":4288,"1976":4289,"1982":4290,"1983":4291,"deretter":4292,"##sut":4293,"sju":4294,"##sby":4295,"dok":4296,"deltog":4297,"ferd":4298,"grand":4299,"mannisk":4300,"##rada":4301,"##uch":4302,"##bladig":4303,"sarsk":4304,"spanien":4305,"istallet":4306,"skil":4307,"forv":4308,"ide":4309,"ring":4310,"rich":4311,"dyn":4312,"kallas":4313,"##orea":4314,"pi":4315,"##ativt":4316,"les":4317,"##asjoner":4318,"dr":4319,"fortsatt":4320,"jean":4321,"david":4322,"##isen":4323,"distrikt":4324,"alder":4325,"produkt":4326,"1981":4327,"afghanistan":4328,"tyska":4329,"1945":4330,"stockholms":4331,"befolknings":4332,"##elart":4333,"##utveckling":4334,"1973":4335,"darfor":4336,"landslag":4337,"##verket":4338,"1964":4339,"pot":4340,"sum":4341,"bergen":4342,"fortsatte":4343,"lyck":4344,"fart":4345,"##isi":4346,"fab":4347,"fjer":4348,"##nader":4349,"##ank":4350,"##bild":4351,"tag":4352,"##hjart":4353,"##smann":4354,"thomas":4355,"##eland":4356,"##car":4357,"laten":4358,"filosof":4359,"2020":4360,"##isering":4361,"ror":4362,"nattfly":4363,"bror":4364,"utanfor":4365,"##andra":4366,"politiker":4367,"pla":4368,"##huset":4369,"##fal":4370,"##sminister":4371,"skades":4372,"job":4373,"##inen":4374,"stav":4375,"motor":4376,"norges":4377,"1975":4378,"1969":4379,"magn":4380,"super":4381,"nat":4382,"##inal":4383,"innbyg":4384,"1967":4385,"##vat":4386,"##rans":4387,"##ellen":4388,"kons":4389,"##ova":4390,"tol":4391,"dikt":4392,"barr":4393,"amb":4394,"uk":4395,"utgiv":4396,"bill":4397,"angel":4398,"##ski":4399,"industri":4400,"subt":4401,"lud":4402,"##ci":4403,"rid":4404,"fleste":4405,"1978":4406,"##ense":4407,"1977":4408,"##skolan":4409,"blom":4410,"tj":4411,"videre":4412,"akt":4413,"##innare":4414,"1952":4415,"long":4416,"##mos":4417,"mye":4418,"ovan":4419,"##horningar":4420,"slaget":4421,"hom":4422,"hed":4423,"nattflyn":4424,"kil":4425,"fant":4426,"60":4427,"gir":4428,"##ourn":4429,"##isten":4430,"forn":4431,"begge":4432,"##opsis":4433,"##stan":4434,"##rim":4435,"samling":4436,"landsk":4437,"jag":4438,"heter":4439,"vapen":4440,"##fekt":4441,"avvatt":4442,"utbild":4443,"gol":4444,"##joner":4445,"##icus":4446,"eksempel":4447,"spindelart":4448,"##sett":4449,"##hu":4450,"##anten":4451,"lek":4452,"øya":4453,"cup":4454,"##ruppen":4455,"##asit":4456,"egyp":4457,"bus":4458,"delas":4459,"hopp":4460,"divisionen":4461,"derfor":4462,"utgitt":4463,"handling":4464,"##jekt":4465,"enk":4466,"cast":4467,"beskriv":4468,"familien":4469,"##bart":4470,"river":4471,"university":4472,"##elp":4473,"yng":4474,"forhold":4475,"ish":4476,"disk":4477,"arbeidet":4478,"1962":4479,"1965":4480,"##iella":4481,"run":4482,"utseende":4483,"rost":4484,"bad":4485,"kvinnor":4486,"##famil":4487,"send":4488,"aut":4489,"uttry":4490,"charles":4491,"british":4492,"dri":4493,"universitetet":4494,"kry":4495,"##hjartbladig":4496,"bygget":4497,"##delt":4498,"plac":4499,"##usen":4500,"bern":4501,"brasilia":4502,"##enten":4503,"##iti":4504,"##ano":4505,"pu":4506,"sport":4507,"periodiskt":4508,"##rader":4509,"##rot":4510,"##skrift":4511,"brev":4512,"vald":4513,"##hoj":4514,"imidler":4515,"##bok":4516,"##uta":4517,"##fj":4518,"##lit":4519,"imp":4520,"##ikken":4521,"arrond":4522,"##fot":4523,"imidlertid":4524,"arrondiss":4525,"##liv":4526,"##ball":4527,"dermed":4528,"##irk":4529,"bom":4530,"pen":4531,"tillverk":4532,"##ule":4533,"titt":4534,"sesongen":4535,"insp":4536,"folket":4537,"##oden":4538,"##øen":4539,"##fi":4540,"mes":4541,"nadde":4542,"sold":4543,"nr":4544,"ont":4545,"wilhelm":4546,"##jarvi":4547,"##erad":4548,"cm":4549,"##ydd":4550,"svampart":4551,"rob":4552,"gif":4553,"inf":4554,"arm":4555,"svært":4556,"##bi":4557,"##enser":4558,"katol":4559,"##stroms":4560,"reproducer":4561,"trol":4562,"lamn":4563,"##spiller":4564,"dann":4565,"##ifor":4566,"boken":4567,"us":4568,"##isa":4569,"kallar":4570,"latin":4571,"##hamn":4572,"tilh":4573,"ljus":4574,"spelar":4575,"innehall":4576,"aller":4577,"##ji":4578,"seks":4579,"strand":4580,"cy":4581,"sos":4582,"kristian":4583,"##ystem":4584,"skiv":4585,"dotter":4586,"sat":4587,"kabul":4588,"franska":4589,"direkt":4590,"omt":4591,"matare":4592,"##skriget":4593,"befolkningsutveckling":4594,"partiet":4595,"south":4596,"egent":4597,"##bru":4598,"##fest":4599,"uppsala":4600,"1966":4601,"riksdag":4602,"sommar":4603,"colombia":4604,"##ordning":4605,"##oder":4606,"##stero":4607,"##ente":4608,"karakt":4609,"##iaceae":4610,"##ogs":4611,"fuktigt":4612,"dansk":4613,"##otten":4614,"##isert":4615,"##øya":4616,"fys":4617,"##emat":4618,"##wn":4619,"##unnet":4620,"subtropiskt":4621,"exp":4622,"medverk":4623,"tam":4624,"##cha":4625,"finalen":4626,"martin":4627,"##ev":4628,"##igheten":4629,"##iger":4630,"##edon":4631,"mand":4632,"parti":4633,"##tak":4634,"##ador":4635,"nast":4636,"madrid":4637,"178":4638,"spesi":4639,"##omyia":4640,"##kraft":4641,"startet":4642,"økonom":4643,"vers":4644,"indien":4645,"barrskog":4646,"tradisjon":4647,"alli":4648,"uppta":4649,"traf":4650,"bosn":4651,"##skaper":4652,"hitt":4653,"bag":4654,"##los":4655,"dagens":4656,"framfor":4657,"arrondissementet":4658,"skul":4659,"krav":4660,"james":4661,"just":4662,"##ckt":4663,"japan":4664,"reproducerande":4665,"##vert":4666,"prote":4667,"konf":4668,"sent":4669,"kustklimat":4670,"##opro":4671,"##skan":4672,"past":4673,"hit":4674,"fekk":4675,"sw":4676,"isra":4677,"tidleg":4678,"dor":4679,"studier":4680,"dip":4681,"war":4682,"karriar":4683,"##kor":4684,"##øver":4685,"trom":4686,"gust":4687,"columbia":4688,"vat":4689,"annan":4690,"##ugh":4691,"hill":4692,"##وه":4693,"fleire":4694,"louis":4695,"pil":4696,"##stid":4697,"sluttar":4698,"øv":4699,"##unta":4700,"framgang":4701,"provincia":4702,"##ange":4703,"##mast":4704,"forskjel":4705,"##vande":4706,"motstand":4707,"adel":4708,"fakt":4709,"177":4710,"norm":4711,"tett":4712,"##indlar":4713,"slutten":4714,"##cka":4715,"##itu":4716,"##igur":4717,"##adels":4718,"sønn":4719,"oversatt":4720,"bud":4721,"globalt":4722,"##uts":4723,"mestadels":4724,"mos":4725,"mountain":4726,"1956":4727,"herc":4728,"serie":4729,"cla":4730,"##iri":4731,"ontario":4732,"##mon":4733,"##pper":4734,"1963":4735,"##grupp":4736,"energ":4737,"ytan":4738,"hyp":4739,"amerikanska":4740,"fel":4741,"løpet":4742,"1948":4743,"##skraft":4744,"gustav":4745,"##histor":4746,"samtidigt":4747,"##ement":4748,"##ty":4749,"##sman":4750,"lys":4751,"##vist":4752,"##vig":4753,"##iy":4754,"kirke":4755,"400":4756,"az":4757,"got":4758,"##ags":4759,"fir":4760,"offic":4761,"engelska":4762,"##bas":4763,"santa":4764,"beslut":4765,"max":4766,"wor":4767,"lagt":4768,"##iste":4769,"ungefar":4770,"##eck":4771,"koud":4772,"tab":4773,"65":4774,"eget":4775,"lær":4776,"##pan":4777,"stem":4778,"vilka":4779,"mik":4780,"side":4781,"social":4782,"##bur":4783,"hjalp":4784,"1939":4785,"bildades":4786,"basta":4787,"back":4788,"##oj":4789,"vattnet":4790,"kinesiska":4791,"##hr":4792,"utgor":4793,"argentina":4794,"kre":4795,"##hund":4796,"elva":4797,"hert":4798,"fried":4799,"klassen":4800,"hold":4801,"skott":4802,"hamn":4803,"jud":4804,"byggdes":4805,"blivit":4806,"1961":4807,"##skil":4808,"##skt":4809,"sve":4810,"##bergs":4811,"jer":4812,"##rades":4813,"forfatter":4814,"minst":4815,"ze":4816,"fredrik":4817,"ali":4818,"##gt":4819,"olympiska":4820,"64":4821,"##alla":4822,"britiske":4823,"styrk":4824,"ytterligare":4825,"omraden":4826,"ox":4827,"##rov":4828,"##cho":4829,"lokal":4830,"santi":4831,"handel":4832,"##istisk":4833,"gitt":4834,"nuv":4835,"cro":4836,"allman":4837,"langhorningar":4838,"ou":4839,"krigen":4840,"##ingene":4841,"kart":4842,"300":4843,"##lden":4844,"##lov":4845,"menn":4846,"franske":4847,"savannskog":4848,"gitar":4849,"##ismen":4850,"70":4851,"jern":4852,"journ":4853,"luc":4854,"##fol":4855,"1958":4856,"represent":4857,"jes":4858,"ordet":4859,"opprett":4860,"kropp":4861,"kyrka":4862,"brukes":4863,"##usa":4864,"ibland":4865,"matt":4866,"loma":4867,"##sid":4868,"forbind":4869,"##mask":4870,"joseph":4871,"nuvarande":4872,"ped":4873,"enkel":4874,"1912":4875,"trots":4876,"alexander":4877,"inform":4878,"##isse":4879,"ker":4880,"vas":4881,"salt":4882,"deler":4883,"##jef":4884,"versjon":4885,"sund":4886,"##lund":4887,"litteratur":4888,"1936":4889,"##ions":4890,"##cke":4891,"radio":4892,"##det":4893,"hvert":4894,"kjøp":4895,"ledamot":4896,"belg":4897,"##oul":4898,"wien":4899,"kul":4900,"##ael":4901,"bost":4902,"johannes":4903,"djup":4904,"skrevet":4905,"##nevn":4906,"fur":4907,"særlig":4908,"##aggar":4909,"sab":4910,"##ocko":4911,"samf":4912,"santiago":4913,"førte":4914,"slekt":4915,"##tern":4916,"problem":4917,"##yer":4918,"stein":4919,"1938":4920,"rud":4921,"israel":4922,"tillbaka":4923,"henry":4924,"hatt":4925,"80":4926,"innbyggere":4927,"museum":4928,"##ocker":4929,"##staf":4930,"##back":4931,"##orten":4932,"chef":4933,"##ague":4934,"##stam":4935,"ordningen":4936,"##hojden":4937,"##way":4938,"dessutom":4939,"es":4940,"francis":4941,"flyttade":4942,"1910":4943,"makt":4944,"friidrett":4945,"not":4946,"##do":4947,"##agare":4948,"um":4949,"##ytor":4950,"queb":4951,"funger":4952,"vind":4953,"1957":4954,"varierad":4955,"orig":4956,"bou":4957,"1941":4958,"##ool":4959,"bergst":4960,"##jor":4961,"##sek":4962,"fordi":4963,"igen":4964,"formula":4965,"##elles":4966,"lab":4967,"mulig":4968,"vari":4969,"##isp":4970,"orden":4971,"ful":4972,"##add":4973,"##ritar":4974,"app":4975,"gym":4976,"tjen":4977,"##lek":4978,"myn":4979,"1944":4980,"hovud":4981,"##ovina":4982,"ordforande":4983,"##shus":4984,"##formen":4985,"uppstroms":4986,"horn":4987,"refer":4988,"dog":4989,"ran":4990,"beratt":4991,"studerade":4992,"##stritar":4993,"slatt":4994,"##fart":4995,"richard":4996,"1959":4997,"kanda":4998,"##erer":4999,"##isjonen":5000,"##nelsen":5001,"herceg":5002,"##olen":5003,"##oret":5004,"alp":5005,"quebrada":5006,"leon":5007,"ott":5008,"darmed":5009,"oppdag":5010,"smhi":5011,"anton":5012,"kallade":5013,"it":5014,"afrika":5015,"forskjellige":5016,"##yggor":5017,"jawa":5018,"marocko":5019,"##ju":5020,"armen":5021,"##jarnen":5022,"jab":5023,"friedrich":5024,"sein":5025,"spela":5026,"##edde":5027,"bygd":5028,"prins":5029,"##ye":5030,"farg":5031,"black":5032,"##spindlar":5033,"1918":5034,"storbritannia":5035,"##iforn":5036,"##skola":5037,"revol":5038,"kunna":5039,"##inge":5040,"1914":5041,"##ado":5042,"rabat":5043,"mare":5044,"huset":5045,"hyd":5046,"lapp":5047,"tvahjartbladig":5048,"udde":5049,"##ikker":5050,"punta":5051,"##inst":5052,"##føl":5053,"1946":5054,"##oper":5055,"1947":5056,"##oka":5057,"##gav":5058,"ax":5059,"##urt":5060,"vattenytor":5061,"alv":5062,"produksjon":5063,"##eringen":5064,"##oprocent":5065,"edward":5066,"##gren":5067,"##aris":5068,"sjoprocent":5069,"pap":5070,"inled":5071,"smith":5072,"##jas":5073,"henrik":5074,"ins":5075,"##skole":5076,"##cel":5077,"cat":5078,"eup":5079,"ori":5080,"mynd":5081,"vetenskap":5082,"minn":5083,"##ito":5084,"##inia":5085,"##smal":5086,"gron":5087,"sku":5088,"schwe":5089,"##anus":5090,"raknas":5091,"ec":5092,"fork":5093,"##oker":5094,"1928":5095,"hercegovina":5096,"gem":5097,"pin":5098,"medelhojden":5099,"vars":5100,"##komm":5101,"##ogen":5102,"vaxter":5103,"bosnien":5104,"riv":5105,"ara":5106,"tu":5107,"##ior":5108,"iii":5109,"##maren":5110,"forfattare":5111,"##plats":5112,"cam":5113,"ryska":5114,"##fte":5115,"sølv":5116,"debuter":5117,"##agn":5118,"rapp":5119,"regel":5120,"ledde":5121,"gil":5122,"league":5123,"##lingar":5124,"spilt":5125,"kas":5126,"kast":5127,"##ope":5128,"bot":5129,"eksp":5130,"livet":5131,"mask":5132,"studio":5133,"annen":5134,"##holl":5135,"godt":5136,"slapptes":5137,"##lipp":5138,"fylkes":5139,"1924":5140,"##arar":5141,"##ela":5142,"##system":5143,"1955":5144,"mester":5145,"scen":5146,"##horde":5147,"##hang":5148,"##jev":5149,"##wan":5150,"north":5151,"modern":5152,"ober":5153,"sanger":5154,"##øt":5155,"1949":5156,"parlam":5157,"##ight":5158,"avs":5159,"##bane":5160,"##organis":5161,"1954":5162,"1908":5163,"##roc":5164,"landets":5165,"nett":5166,"##ansen":5167,"##lom":5168,"buk":5169,"##out":5170,"psyk":5171,"ryss":5172,"saga":5173,"por":5174,"antarktis":5175,"1942":5176,"politisk":5177,"##ny":5178,"spe":5179,"midt":5180,"tet":5181,"verdenskrig":5182,"au":5183,"kjente":5184,"teng":5185,"fylke":5186,"##havet":5187,"##ose":5188,"silver":5189,"miljoner":5190,"##liote":5191,"behov":5192,"##oter":5193,"sall":5194,"central":5195,"konta":5196,"privat":5197,"territ":5198,"blod":5199,"##edes":5200,"gh":5201,"##60":5202,"##osten":5203,"tjanst":5204,"##ington":5205,"ain":5206,"##svaxtart":5207,"##ilis":5208,"sarskilt":5209,"##jung":5210,"##farande":5211,"bakgrunn":5212,"kvalif":5213,"##ulus":5214,"italia":5215,"garden":5216,"trond":5217,"victor":5218,"##ited":5219,"resultat":5220,"filmer":5221,"flesta":5222,"australia":5223,"cha":5224,"utover":5225,"punkt":5226,"##iere":5227,"##likt":5228,"bogota":5229,"35":5230,"akadem":5231,"nic":5232,"arbetade":5233,"moderne":5234,"demokrat":5235,"biskop":5236,"##avax":5237,"##fjaril":5238,"him":5239,"kjem":5240,"##førte":5241,"arrangert":5242,"##ideer":5243,"samtidig":5244,"neg":5245,"##rost":5246,"sovjetun":5247,"##bat":5248,"1919":5249,"1933":5250,"##edel":5251,"1917":5252,"1953":5253,"forest":5254,"gjerne":5255,"##øv":5256,"kanal":5257,"##staur":5258,"##klubb":5259,"astero":5260,"individ":5261,"##ierna":5262,"##rasjon":5263,"##alte":5264,"##hop":5265,"pav":5266,"bab":5267,"søn":5268,"ot":5269,"##oides":5270,"fiskart":5271,"stjarn":5272,"sara":5273,"1913":5274,"##essen":5275,"##fag":5276,"bek":5277,"ken":5278,"orkideer":5279,"bifl":5280,"##raket":5281,"slekten":5282,"1932":5283,"drev":5284,"1937":5285,"##aret":5286,"##fjarilar":5287,"nab":5288,"debut":5289,"tang":5290,"##skj":5291,"kraftdjursart":5292,"1911":5293,"1943":5294,"defin":5295,"##aljer":5296,"کوه":5297,"ple":5298,"##anen":5299,"flor":5300,"##øker":5301,"master":5302,"##oa":5303,"songen":5304,"anstall":5305,"historik":5306,"vux":5307,"##ckor":5308,"dre":5309,"dig":5310,"##film":5311,"øn":5312,"samarbeid":5313,"##iserte":5314,"##ville":5315,"mek":5316,"skall":5317,"saman":5318,"holl":5319,"programmet":5320,"##inus":5321,"##ment":5322,"stedet":5323,"##mester":5324,"##vers":5325,"district":5326,"##cy":5327,"##krig":5328,"lander":5329,"##loss":5330,"prest":5331,"malmo":5332,"##risk":5333,"arke":5334,"kost":5335,"1951":5336,"oft":5337,"##arer":5338,"fortfarande":5339,"##ellet":5340,"jack":5341,"##uba":5342,"bestem":5343,"##insk":5344,"slutade":5345,"langre":5346,"kri":5347,"provinshuvudstaden":5348,"1934":5349,"alltid":5350,"bestod":5351,"##cc":5352,"1700":5353,"kontroll":5354,"##fen":5355,"asp":5356,"foretag":5357,"respe":5358,"##vei":5359,"brook":5360,"1929":5361,"maur":5362,"##enner":5363,"##hora":5364,"desa":5365,"schweiz":5366,"bidrag":5367,"but":5368,"1935":5369,"numera":5370,"bergstopp":5371,"hojd":5372,"vist":5373,"astron":5374,"##ords":5375,"##espiller":5376,"algeriet":5377,"##gangen":5378,"hend":5379,"##inget":5380,"ersatt":5381,"avdel":5382,"##varg":5383,"innehaller":5384,"basert":5385,"sangen":5386,"##jø":5387,"nik":5388,"##lor":5389,"##30":5390,"ri":5391,"flyttet":5392,"avrinningsomraden":5393,"bjorn":5394,"forklar":5395,"mord":5396,"borg":5397,"orkid":5398,"noreg":5399,"1927":5400,"##ssp":5401,"90":5402,"kolon":5403,"##ni":5404,"##nat":5405,"varldskriget":5406,"dels":5407,"lett":5408,"hab":5409,"division":5410,"roy":5411,"selskapet":5412,"##ampar":5413,"gifte":5414,"gustaf":5415,"##partiet":5416,"konstnar":5417,"##istiska":5418,"##inna":5419,"##mor":5420,"##ennis":5421,"##oen":5422,"##roller":5423,"1926":5424,"varav":5425,"##plat":5426,"skild":5427,"##arken":5428,"mala":5429,"republiken":5430,"kvinner":5431,"tunn":5432,"##sund":5433,"dagen":5434,"orkideart":5435,"motsvar":5436,"##forde":5437,"delhi":5438,"##rek":5439,"angrep":5440,"maste":5441,"ovriga":5442,"1921":5443,"familj":5444,"##rent":5445,"delvis":5446,"overs":5447,"##zi":5448,"niva":5449,"##isme":5450,"##stend":5451,"##edd":5452,"test":5453,"aker":5454,"drep":5455,"eu":5456,"##spinnare":5457,"ishockey":5458,"##ulata":5459,"tidlegare":5460,"pier":5461,"avvattnar":5462,"##arp":5463,"1925":5464,"1922":5465,"##øs":5466,"ball":5467,"ident":5468,"flodar":5469,"restaur":5470,"utfor":5471,"1906":5472,"aff":5473,"varmt":5474,"##reh":5475,"##flyt":5476,"##ordes":5477,"##rys":5478,"##vok":5479,"##skip":5480,"united":5481,"##orf":5482,"areal":5483,"ole":5484,"##mes":5485,"dyr":5486,"rot":5487,"##chus":5488,"ske":5489,"samarbet":5490,"##rus":5491,"bodde":5492,"1907":5493,"student":5494,"kompon":5495,"slo":5496,"brand":5497,"biflodes":5498,"biflodesordning":5499,"behand":5500,"jabal":5501,"hær":5502,"fla":5503,"##iidae":5504,"ej":5505,"wh":5506,"1931":5507,"forskning":5508,"##ologisk":5509,"##sal":5510,"varlden":5511,"kallad":5512,"praktfjarilar":5513,"nas":5514,"##ony":5515,"resten":5516,"##onger":5517,"avslut":5518,"##dem":5519,"##ital":5520,"stab":5521,"svampar":5522,"grundades":5523,"millioner":5524,"livskraft":5525,"snabb":5526,"viser":5527,"##gte":5528,"driv":5529,"##spelen":5530,"##zo":5531,"##koping":5532,"ursprungligen":5533,"produc":5534,"##aw":5535,"inat":5536,"symbol":5537,"1905":5538,"anvandes":5539,"journalist":5540,"##star":5541,"kvart":5542,"##løp":5543,"32":5544,"fron":5545,"##iop":5546,"dvarg":5547,"russland":5548,"##wood":5549,"portug":5550,"latt":5551,"meste":5552,"saker":5553,"##lia":5554,"aldrig":5555,"arro":5556,"irland":5557,"exempelvis":5558,"iv":5559,"brok":5560,"falt":5561,"##erar":5562,"ron":5563,"##istiske":5564,"sign":5565,"##myggor":5566,"##ania":5567,"fo":5568,"michael":5569,"hust":5570,"1909":5571,"##samling":5572,"##ilus":5573,"1916":5574,"##hur":5575,"arr":5576,"##40":5577,"rog":5578,"##con":5579,"ledet":5580,"kej":5581,"stal":5582,"##sty":5583,"##zh":5584,"svenske":5585,"##illet":5586,"##delag":5587,"grupper":5588,"##fisk":5589,"utbredelse":5590,"##vend":5591,"tradition":5592,"nesten":5593,"ute":5594,"polen":5595,"##svaxter":5596,"medelt":5597,"gab":5598,"##mare":5599,"heller":5600,"##zar":5601,"hein":5602,"rub":5603,"gren":5604,"status":5605,"poang":5606,"##eth":5607,"kopp":5608,"##ylla":5609,"##omradet":5610,"##unde":5611,"arbeider":5612,"kandid":5613,"1923":5614,"va":5615,"dagar":5616,"kriget":5617,"viss":5618,"##pris":5619,"mast":5620,"stark":5621,"rit":5622,"fordel":5623,"osterrike":5624,"##ktive":5625,"melod":5626,"oftast":5627,"skole":5628,"##ots":5629,"hind":5630,"##rikt":5631,"skrift":5632,"##oda":5633,"tron":5634,"##mene":5635,"liban":5636,"##hard":5637,"##prod":5638,"spelades":5639,"finans":5640,"gruppe":5641,"##ict":5642,"gri":5643,"##enes":5644,"##onst":5645,"##fug":5646,"intres":5647,"freder":5648,"domin":5649,"airport":5650,"medlemmar":5651,"seinare":5652,"artik":5653,"##olia":5654,"herr":5655,"peak":5656,"livskraftig":5657,"##xa":5658,"##ude":5659,"stan":5660,"marie":5661,"tids":5662,"##sberg":5663,"bevar":5664,"internationella":5665,"##raff":5666,"likn":5667,"eneste":5668,"cas":5669,"snart":5670,"1915":5671,"liber":5672,"jarnvag":5673,"fi":5674,"##ugen":5675,"konser":5676,"##vene":5677,"cra":5678,"albert":5679,"landsby":5680,"keiser":5681,"relativt":5682,"fru":5683,"buen":5684,"##ike":5685,"tilf":5686,"##san":5687,"medic":5688,"diam":5689,"##ali":5690,"##aker":5691,"##elia":5692,"sjølv":5693,"anders":5694,"##kro":5695,"liksom":5696,"##aly":5697,"internasjonale":5698,"##gu":5699,"##erades":5700,"villa":5701,"##ution":5702,"##jektet":5703,"lil":5704,"nomin":5705,"##holdt":5706,"spesielt":5707,"##parasit":5708,"##onom":5709,"45":5710,"176":5711,"sasom":5712,"175":5713,"matcher":5714,"sovjetunionen":5715,"##esse":5716,"unn":5717,"idrett":5718,"brokparasit":5719,"belagen":5720,"brokparasitsteklar":5721,"##ega":5722,"jul":5723,"##ruktur":5724,"##hopp":5725,"varen":5726,"gammel":5727,"##mot":5728,"kroppen":5729,"##esen":5730,"##full":5731,"##ærende":5732,"##fri":5733,"kroat":5734,"wadi":5735,"brons":5736,"pel":5737,"kontrakt":5738,"##ute":5739,"1904":5740,"##sky":5741,"redakt":5742,"tren":5743,"erst":5744,"amerika":5745,"##stod":5746,"nem":5747,"ukra":5748,"wales":5749,"##arten":5750,"fc":5751,"gla":5752,"1600":5753,"teck":5754,"##ølge":5755,"offisi":5756,"lars":5757,"##iff":5758,"republik":5759,"##skapen":5760,"##got":5761,"tolk":5762,"byr":5763,"verksamhet":5764,"forand":5765,"forlor":5766,"lamnade":5767,"##korea":5768,"leve":5769,"harad":5770,"prefekt":5771,"##hem":5772,"##person":5773,"##urs":5774,"##own":5775,"manniskor":5776,"##ump":5777,"lager":5778,"bah":5779,"##atum":5780,"drag":5781,"##skriv":5782,"anne":5783,"##etten":5784,"folke":5785,"##eras":5786,"##rack":5787,"barne":5788,"##okk":5789,"fu":5790,"##une":5791,"##rets":5792,"gram":5793,"##atten":5794,"same":5795,"##tn":5796,"allerede":5797,"hjelp":5798,"##bj":5799,"##win":5800,"##itets":5801,"skadespelare":5802,"egna":5803,"##riks":5804,"nastan":5805,"ansl":5806,"tas":5807,"log":5808,"##akk":5809,"haft":5810,"world":5811,"enkelt":5812,"##vil":5813,"altern":5814,"sida":5815,"##isseau":5816,"foretaget":5817,"lep":5818,"##uen":5819,"systemat":5820,"mitten":5821,"##slandet":5822,"observ":5823,"gas":5824,"ill":5825,"##jorde":5826,"standard":5827,"##wer":5828,"##fatter":5829,"vide":5830,"staten":5831,"##loppet":5832,"ruisseau":5833,"##angd":5834,"dans":5835,"ore":5836,"rap":5837,"rav":5838,"##sked":5839,"##emb":5840,"bestam":5841,"vare":5842,"##sida":5843,"records":5844,"holdt":5845,"##wig":5846,"##esc":5847,"jacob":5848,"innenfor":5849,"##cip":5850,"øster":5851,"##allen":5852,"spes":5853,"avled":5854,"borger":5855,"##80":5856,"##iteter":5857,"arb":5858,"150":5859,"feder":5860,"##dar":5861,"opprinnelig":5862,"bjør":5863,"omfattar":5864,"1500":5865,"##kall":5866,"mosk":5867,"##hy":5868,"mass":5869,"##mak":5870,"##ringar":5871,"##slandor":5872,"fartyg":5873,"##tet":5874,"gje":5875,"otto":5876,"regist":5877,"prag":5878,"gjør":5879,"170":5880,"kos":5881,"magnus":5882,"##rene":5883,"arabiska":5884,"blan":5885,"visar":5886,"nig":5887,"utviklet":5888,"vek":5889,"##stav":5890,"mennesker":5891,"##10":5892,"##ophila":5893,"lut":5894,"ungar":5895,"major":5896,"vore":5897,"russisk":5898,"forsamlingen":5899,"adolf":5900,"datter":5901,"##cht":5902,"international":5903,"##omrade":5904,"##period":5905,"##holder":5906,"##ival":5907,"sankt":5908,"das":5909,"riksdelen":5910,"boh":5911,"kors":5912,"##ylt":5913,"##nene":5914,"##illing":5915,"tje":5916,"##ms":5917,"##ktene":5918,"yngre":5919,"##eleg":5920,"##ming":5921,"##ernas":5922,"##fjorden":5923,"forbindelse":5924,"##fort":5925,"##mens":5926,"##forening":5927,"rekord":5928,"1902":5929,"sik":5930,"##xamen":5931,"slakt":5932,"berre":5933,"tyn":5934,"matemat":5935,"avt":5936,"drift":5937,"##oende":5938,"ack":5939,"landskommun":5940,"gott":5941,"yta":5942,"lans":5943,"prim":5944,"grevskapet":5945,"fok":5946,"##aca":5947,"##elv":5948,"##ogon":5949,"innbygg":5950,"hev":5951,"dokument":5952,"##edal":5953,"##ransen":5954,"lista":5955,"sasong":5956,"kungliga":5957,"##ament":5958,"mør":5959,"##oba":5960,"anses":5961,"militar":5962,"##rogram":5963,"brittiska":5964,"karriere":5965,"hovedsak":5966,"##bon":5967,"37":5968,"ah":5969,"##blomm":5970,"avsnitt":5971,"##cks":5972,"cru":5973,"stader":5974,"##omet":5975,"begrav":5976,"utenfor":5977,"skuespiller":5978,"skad":5979,"##anga":5980,"forutom":5981,"##rument":5982,"avstand":5983,"##andre":5984,"batt":5985,"vanligt":5986,"##yld":5987,"lille":5988,"egypt":5989,"lept":5990,"dubb":5991,"##ttet":5992,"##terna":5993,"kinesisk":5994,"##familien":5995,"likevel":5996,"etablert":5997,"##raf":5998,"##col":5999,"frit":6000,"gatt":6001,"##fører":6002,"suc":6003,"uppgick":6004,"ghar":6005,"vard":6006,"skottland":6007,"1903":6008,"##bus":6009,"you":6010,"opprettet":6011,"##sjo":6012,"strom":6013,"##lats":6014,"orsak":6015,"##zon":6016,"##no":6017,"##gruppen":6018,"unger":6019,"##iellt":6020,"##itte":6021,"undervis":6022,"kirken":6023,"##aller":6024,"daniel":6025,"##aea":6026,"anda":6027,"##lant":6028,"gammal":6029,"soldater":6030,"forbundslandet":6031,"galler":6032,"champ":6033,"1901":6034,"##kje":6035,"byggnad":6036,"##urus":6037,"trondheim":6038,"##zer":6039,"flock":6040,"arranger":6041,"premiar":6042,"##vann":6043,"vuxna":6044,"publik":6045,"desse":6046,"semif":6047,"djebel":6048,"kombin":6049,"beteg":6050,"mi":6051,"comm":6052,"ju":6053,"##iment":6054,"##anse":6055,"##eden":6056,"##etes":6057,"glac":6058,"33":6059,"##ple":6060,"fug":6061,"##enden":6062,"artvaxter":6063,"skill":6064,"nev":6065,"regis":6066,"##21":6067,"##lement":6068,"##ktion":6069,"##jevo":6070,"utnevn":6071,"##oli":6072,"##engt":6073,"inspir":6074,"bank":6075,"king":6076,"boliv":6077,"##ringer":6078,"yr":6079,"##bra":6080,"poly":6081,"##asen":6082,"hak":6083,"lim":6084,"upptackt":6085,"##emann":6086,"sof":6087,"##ush":6088,"mj":6089,"gjekk":6090,"langa":6091,"##arie":6092,"foran":6093,"peng":6094,"byn":6095,"##mid":6096,"##anien":6097,"arv":6098,"##angel":6099,"##ppar":6100,"##slandeart":6101,"rød":6102,"##rikes":6103,"##hog":6104,"italiensk":6105,"##ales":6106,"##maskart":6107,"japansk":6108,"straff":6109,"satte":6110,"singel":6111,"kontin":6112,"kongen":6113,"##oe":6114,"procent":6115,"##lof":6116,"guvernementet":6117,"##muse":6118,"##ringen":6119,"hogre":6120,"støtte":6121,"##opa":6122,"1890":6123,"##chi":6124,"##kast":6125,"##ivalen":6126,"##gje":6127,"angeles":6128,"regi":6129,"femte":6130,"cur":6131,"hod":6132,"##huvud":6133,"bast":6134,"trich":6135,"##iale":6136,"kraftig":6137,"betrakt":6138,"dob":6139,"##nades":6140,"felles":6141,"fores":6142,"sjø":6143,"skick":6144,"uppdrag":6145,"annu":6146,"aires":6147,"##falt":6148,"##stads":6149,"##urner":6150,"sul":6151,"##havn":6152,"metal":6153,"buenos":6154,"bosatt":6155,"innbyggjar":6156,"utvid":6157,"point":6158,"troll":6159,"canada":6160,"kalles":6161,"##ink":6162,"enkelte":6163,"rov":6164,"funnet":6165,"##ologiska":6166,"neste":6167,"kommuner":6168,"##ivil":6169,"##mas":6170,"##ese":6171,"##itiv":6172,"fjar":6173,"darreh":6174,"##sla":6175,"laguna":6176,"valgt":6177,"nap":6178,"arbete":6179,"##anthus":6180,"døm":6181,"##reser":6182,"sor":6183,"##emi":6184,"##ista":6185,"lagen":6186,"tib":6187,"##unc":6188,"##sø":6189,"nan":6190,"dep":6191,"familie":6192,"atta":6193,"##otus":6194,"mig":6195,"dro":6196,"##yk":6197,"##ærer":6198,"##aner":6199,"medlemmer":6200,"ifølge":6201,"kok":6202,"insekter":6203,"utveckling":6204,"gunn":6205,"tio":6206,"fard":6207,"##spe":6208,"##okte":6209,"ash":6210,"##ands":6211,"##act":6212,"sosial":6213,"##emplar":6214,"stj":6215,"##sma":6216,"##oy":6217,"##omer":6218,"lyckades":6219,"##gick":6220,"##slaget":6221,"##kjen":6222,"emb":6223,"oscar":6224,"##pro":6225,"dub":6226,"##kester":6227,"religi":6228,"manus":6229,"org":6230,"aldri":6231,"liknande":6232,"uav":6233,"##ovis":6234,"lika":6235,"##ephal":6236,"orten":6237,"tung":6238,"##bre":6239,"##emal":6240,"sommaren":6241,"dv":6242,"indel":6243,"popular":6244,"figur":6245,"konge":6246,"##nor":6247,"##amo":6248,"brack":6249,"skot":6250,"politiska":6251,"gast":6252,"##imer":6253,"kla":6254,"omtrent":6255,"##stor":6256,"##olin":6257,"kna":6258,"##garden":6259,"##sburg":6260,"##uttet":6261,"##ifter":6262,"fokus":6263,"innsj":6264,"danske":6265,"lad":6266,"separ":6267,"##upen":6268,"##forbundet":6269,"bob":6270,"75":6271,"bebygg":6272,"sky":6273,"politiske":6274,"##derna":6275,"##vent":6276,"##iftet":6277,"massa":6278,"ryssland":6279,"arets":6280,"prot":6281,"##uda":6282,"lappland":6283,"##ces":6284,"klock":6285,"kloster":6286,"vitt":6287,"kontakt":6288,"dominer":6289,"jose":6290,"##bland":6291,"##stilling":6292,"hag":6293,"##arane":6294,"oppt":6295,"bevis":6296,"hart":6297,"respektive":6298,"seoul":6299,"moh":6300,"offentlig":6301,"##eten":6302,"##syn":6303,"##punkt":6304,"utvikling":6305,"goteborgs":6306,"klart":6307,"##kare":6308,"event":6309,"##rick":6310,"##ame":6311,"##tradde":6312,"36":6313,"forhall":6314,"##ovo":6315,"atte":6316,"1897":6317,"sjalva":6318,"match":6319,"800":6320,"forvalt":6321,"drog":6322,"##ingo":6323,"sveits":6324,"artvaxtart":6325,"veien":6326,"hack":6327,"utom":6328,"##minister":6329,"##ensjon":6330,"valk":6331,"regjering":6332,"brann":6333,"landslaget":6334,"tillhorde":6335,"1898":6336,"sentral":6337,"bis":6338,"engelske":6339,"##ften":6340,"sarajevo":6341,"little":6342,"utbredning":6343,"befolkning":6344,"utdann":6345,"lor":6346,"handels":6347,"isl":6348,"##field":6349,"tanjung":6350,"##ues":6351,"kampen":6352,"timur":6353,"##tera":6354,"ris":6355,"eldre":6356,"opphav":6357,"##bara":6358,"##sled":6359,"territor":6360,"hud":6361,"##inea":6362,"##inder":6363,"stopp":6364,"dvargstritar":6365,"tilhører":6366,"landskap":6367,"poeng":6368,"arroyo":6369,"rolle":6370,"uppfordes":6371,"##øg":6372,"##elses":6373,"divisjon":6374,"spelare":6375,"aur":6376,"stef":6377,"##ningene":6378,"set":6379,"##ato":6380,"fen":6381,"##shire":6382,"biart":6383,"nasjonal":6384,"##umenter":6385,"##gra":6386,"ank":6387,"174":6388,"##omyc":6389,"39":6390,"union":6391,"##iene":6392,"uppe":6393,"fon":6394,"arhund":6395,"ask":6396,"thor":6397,"betydelse":6398,"nordvest":6399,"##sspelare":6400,"syk":6401,"gras":6402,"regeringen":6403,"kunn":6404,"##rens":6405,"meir":6406,"dim":6407,"bibliote":6408,"##vant":6409,"apnet":6410,"sier":6411,"##ulerade":6412,"jane":6413,"lyd":6414,"##smannen":6415,"##kopings":6416,"konsert":6417,"regering":6418,"##dam":6419,"gresk":6420,"skriven":6421,"##ytte":6422,"##yth":6423,"##marker":6424,"##uell":6425,"pod":6426,"presenter":6427,"funn":6428,"pian":6429,"skydd":6430,"nils":6431,"##demokrat":6432,"juv":6433,"##unda":6434,"fli":6435,"##ologiske":6436,"strat":6437,"symp":6438,"##veien":6439,"libanon":6440,"jazz":6441,"suks":6442,"knut":6443,"walker":6444,"dur":6445,"##serien":6446,"lant":6447,"dekk":6448,"1899":6449,"fader":6450,"##stol":6451,"public":6452,"##ids":6453,"heinrich":6454,"skolan":6455,"beveg":6456,"slov":6457,"##odor":6458,"nest":6459,"tredj":6460,"##sne":6461,"tjeck":6462,"kore":6463,"rem":6464,"arme":6465,"ansprak":6466,"1896":6467,"alfred":6468,"jakt":6469,"situ":6470,"##lene":6471,"sud":6472,"##iang":6473,"##enta":6474,"##arnas":6475,"##ime":6476,"##nst":6477,"##uma":6478,"transport":6479,"tour":6480,"avl":6481,"drott":6482,"##dalen":6483,"34":6484,"foreningen":6485,"varandra":6486,"160":6487,"brom":6488,"##botten":6489,"grens":6490,"vanligvis":6491,"levde":6492,"web":6493,"##aph":6494,"ala":6495,"171":6496,"startade":6497,"##horn":6498,"skulpt":6499,"sesong":6500,"spelte":6501,"ferdig":6502,"##po":6503,"##emon":6504,"kø":6505,"grekland":6506,"feng":6507,"direkte":6508,"##esjon":6509,"bord":6510,"bit":6511,"sentrum":6512,"hustru":6513,"skand":6514,"##eda":6515,"svan":6516,"lom":6517,"##gjen":6518,"1895":6519,"manader":6520,"##ative":6521,"titeln":6522,"ljung":6523,"kirk":6524,"europeiska":6525,"verket":6526,"forsø":6527,"leuc":6528,"utstall":6529,"##ful":6530,"sjukdom":6531,"moskva":6532,"militær":6533,"olympisk":6534,"##vapen":6535,"monte":6536,"rollen":6537,"##rh":6538,"##unden":6539,"finska":6540,"valde":6541,"##inte":6542,"tittelen":6543,"vak":6544,"rym":6545,"indian":6546,"spelet":6547,"##ssk":6548,"##list":6549,"grande":6550,"##vek":6551,"##ati":6552,"eldste":6553,"##rast":6554,"pul":6555,"##tus":6556,"sydney":6557,"##lus":6558,"ettersom":6559,"medverkade":6560,"geografi":6561,"##øse":6562,"bracksteklar":6563,"beskri":6564,"wa":6565,"##osc":6566,"ges":6567,"##komst":6568,"marg":6569,"1880":6570,"forlag":6571,"##asp":6572,"last":6573,"##etts":6574,"##sons":6575,"##lie":6576,"trop":6577,"600":6578,"##dt":6579,"##sven":6580,"britisk":6581,"##kir":6582,"##mi":6583,"traff":6584,"vall":6585,"tsj":6586,"turk":6587,"##rust":6588,"viet":6589,"spraket":6590,"college":6591,"##anna":6592,"##ensam":6593,"lanet":6594,"olav":6595,"roma":6596,"##ørte":6597,"ingick":6598,"inkludert":6599,"##fa":6600,"tack":6601,"musikal":6602,"pierre":6603,"kompos":6604,"aten":6605,"bow":6606,"bakom":6607,"tolv":6608,"tyrk":6609,"hjal":6610,"kle":6611,"foddes":6612,"utnamn":6613,"che":6614,"lokale":6615,"sommarspelen":6616,"linje":6617,"tross":6618,"eric":6619,"material":6620,"##ryt":6621,"agg":6622,"ting":6623,"##ppe":6624,"statens":6625,"flertal":6626,"##ques":6627,"##70":6628,"##rest":6629,"tand":6630,"gavs":6631,"gn":6632,"mul":6633,"institut":6634,"##opus":6635,"##rattades":6636,"flo":6637,"tilldel":6638,"kamper":6639,"olympiske":6640,"ray":6641,"vansk":6642,"hil":6643,"ug":6644,"##svis":6645,"brukte":6646,"jeg":6647,"##alus":6648,"##ømmer":6649,"samfunn":6650,"##olon":6651,"##pert":6652,"##iket":6653,"##verd":6654,"mult":6655,"paverk":6656,"##oarna":6657,"real":6658,"dramat":6659,"nytta":6660,"##orum":6661,"##usten":6662,"##ape":6663,"##serte":6664,"install":6665,"##somradet":6666,"ganske":6667,"tun":6668,"musiker":6669,"##illo":6670,"##avn":6671,"##ugg":6672,"##marksam":6673,"cd":6674,"shan":6675,"##kam":6676,"lid":6677,"utbredt":6678,"##svampar":6679,"mong":6680,"##kontor":6681,"konstru":6682,"fos":6683,"sir":6684,"##gjorde":6685,"meddel":6686,"mate":6687,"diplom":6688,"beteck":6689,"former":6690,"seier":6691,"big":6692,"##rien":6693,"gjøre":6694,"begynnelsen":6695,"modell":6696,"uppmarksam":6697,"169":6698,"valet":6699,"tilsvar":6700,"systemet":6701,"cry":6702,"##former":6703,"##anes":6704,"mah":6705,"dari":6706,"##flyg":6707,"grunnlagt":6708,"##eds":6709,"##mod":6710,"##fab":6711,"##baggar":6712,"##ferd":6713,"fjerde":6714,"vul":6715,"vattendraget":6716,"##ui":6717,"junior":6718,"##pass":6719,"queens":6720,"nes":6721,"##ase":6722,"byggnaden":6723,"sørvest":6724,"fagel":6725,"##rip":6726,"hang":6727,"east":6728,"prov":6729,"##anning":6730,"flockblomm":6731,"invig":6732,"delta":6733,"##tiden":6734,"regler":6735,"antall":6736,"##kyrk":6737,"jorden":6738,"henhold":6739,"##yst":6740,"##asin":6741,"anvanda":6742,"##num":6743,"sendt":6744,"1893":6745,"yo":6746,"rut":6747,"anvandas":6748,"##elder":6749,"bev":6750,"arbets":6751,"##ations":6752,"initi":6753,"karakter":6754,"##ffer":6755,"jød":6756,"##war":6757,"laur":6758,"high":6759,"38":6760,"holm":6761,"##ivet":6762,"##utter":6763,"173":6764,"sto":6765,"starkt":6766,"rac":6767,"##albumet":6768,"top":6769,"##inav":6770,"skolen":6771,"how":6772,"##folj":6773,"##atta":6774,"##imot":6775,"kjend":6776,"##eldjur":6777,"##ksomhet":6778,"live":6779,"##mad":6780,"samhallet":6781,"##bud":6782,"fien":6783,"kopen":6784,"##uf":6785,"endte":6786,"##ativa":6787,"ving":6788,"chil":6789,"lis":6790,"kg":6791,"##alderen":6792,"##felt":6793,"elektron":6794,"up":6795,"##emot":6796,"##ther":6797,"margar":6798,"##ischer":6799,"##sor":6800,"##ical":6801,"##unnen":6802,"##ftet":6803,"##rup":6804,"##gs":6805,"##icola":6806,"svarte":6807,"bang":6808,"kommunal":6809,"1889":6810,"fotograf":6811,"1000":6812,"##iph":6813,"midten":6814,"kard":6815,"##tert":6816,"venstre":6817,"utnevnt":6818,"##lopp":6819,"vanligen":6820,"vand":6821,"innbyggjarar":6822,"tidningen":6823,"1892":6824,"##aki":6825,"##industri":6826,"historien":6827,"begre":6828,"ackum":6829,"spesial":6830,"##vagen":6831,"##asj":6832,"heg":6833,"##yllum":6834,"emil":6835,"##uz":6836,"##forbund":6837,"##makt":6838,"myt":6839,"##fra":6840,"axel":6841,"dager":6842,"##skal":6843,"betyr":6844,"filipp":6845,"nere":6846,"##board":6847,"vor":6848,"bart":6849,"trupp":6850,"1862":6851,"latar":6852,"##ois":6853,"##isc":6854,"hvis":6855,"vitenskap":6856,"kallades":6857,"1870":6858,"##vir":6859,"rosen":6860,"omfattande":6861,"##inae":6862,"strax":6863,"funksjon":6864,"##idium":6865,"##pun":6866,"minor":6867,"periode":6868,"sydkorea":6869,"tavling":6870,"1894":6871,"frukt":6872,"kopenhamn":6873,"artist":6874,"alto":6875,"irak":6876,"artene":6877,"pastor":6878,"##ikanska":6879,"##deles":6880,"opprør":6881,"inspel":6882,"parlament":6883,"##medal":6884,"special":6885,"##my":6886,"illust":6887,"tyd":6888,"bronse":6889,"din":6890,"##go":6891,"spelat":6892,"gemensam":6893,"##por":6894,"henri":6895,"statsminister":6896,"minnes":6897,"ludwig":6898,"spille":6899,"##nem":6900,"naturreser":6901,"adam":6902,"origin":6903,"##pet":6904,"##ison":6905,"fjarde":6906,"##ome":6907,"rest":6908,"##oz":6909,"komma":6910,"handlar":6911,"typer":6912,"energi":6913,"proc":6914,"spania":6915,"##ctic":6916,"naz":6917,"tving":6918,"lilla":6919,"framsta":6920,"konstant":6921,"##iell":6922,"##brid":6923,"dynast":6924,"##sol":6925,"bei":6926,"upplag":6927,"stig":6928,"jakob":6929,"india":6930,"school":6931,"##sbe":6932,"165":6933,"vei":6934,"nob":6935,"museet":6936,"##reter":6937,"mekan":6938,"##iserade":6939,"olof":6940,"##uca":6941,"virke":6942,"utbildning":6943,"parall":6944,"##skont":6945,"1891":6946,"##zhou":6947,"##kjent":6948,"##gas":6949,"togs":6950,"sterkt":6951,"tildelt":6952,"californ":6953,"##skatt":6954,"mary":6955,"ambass":6956,"55":6957,"##parten":6958,"ackumulerade":6959,"##sene":6960,"styre":6961,"viste":6962,"fotbollsspelare":6963,"simon":6964,"##uella":6965,"##kant":6966,"164":6967,"dia":6968,"tilkn":6969,"green":6970,"kommand":6971,"lenger":6972,"##tnant":6973,"##alia":6974,"grøn":6975,"##zen":6976,"foreg":6977,"heb":6978,"royal":6979,"studerte":6980,"##mere":6981,"##esel":6982,"gransen":6983,"barat":6984,"168":6985,"tekst":6986,"entiteten":6987,"sok":6988,"##olo":6989,"samtliga":6990,"##bak":6991,"utform":6992,"vaxte":6993,"##bod":6994,"elisa":6995,"dic":6996,"betyder":6997,"##test":6998,"##spass":6999,"##apt":7000,"lyn":7001,"##so":7002,"minsk":7003,"vita":7004,"indre":7005,"##aktig":7006,"wash":7007,"pak":7008,"##sbyg":7009,"##ifer":7010,"anvander":7011,"staf":7012,"##ary":7013,"##ckan":7014,"levevis":7015,"russiske":7016,"islam":7017,"##skolen":7018,"old":7019,"##umb":7020,"centrum":7021,"station":7022,"trøn":7023,"corn":7024,"stallet":7025,"may":7026,"dir":7027,"##mond":7028,"##sborg":7029,"##elin":7030,"uavheng":7031,"##hn":7032,"##dagen":7033,"##brott":7034,"##ryck":7035,"##banen":7036,"sann":7037,"lamp":7038,"nova":7039,"act":7040,"hva":7041,"ref":7042,"##idea":7043,"##ifik":7044,"sao":7045,"deltag":7046,"pek":7047,"##senter":7048,"##fold":7049,"##iets":7050,"behandling":7051,"##fang":7052,"##terade":7053,"lopp":7054,"##finn":7055,"tidigt":7056,"ekte":7057,"##idens":7058,"##ssel":7059,"##umet":7060,"kans":7061,"pter":7062,"konkurrer":7063,"hosten":7064,"##can":7065,"42":7066,"##lop":7067,"anled":7068,"##ific":7069,"opera":7070,"profession":7071,"1888":7072,"pur":7073,"finner":7074,"##kning":7075,"americ":7076,"##saker":7077,"oppl":7078,"sun":7079,"##tere":7080,"sjalvstand":7081,"stefan":7082,"dit":7083,"pon":7084,"aldsta":7085,"##kh":7086,"skadespel":7087,"1885":7088,"##asjer":7089,"sentrale":7090,"##kre":7091,"##splan":7092,"##skott":7093,"klipp":7094,"##siden":7095,"skjer":7096,"##lys":7097,"befinner":7098,"erob":7099,"##ky":7100,"##ava":7101,"normalt":7102,"felt":7103,"idrott":7104,"whi":7105,"visade":7106,"fø":7107,"doktor":7108,"##vere":7109,"bell":7110,"sib":7111,"##bour":7112,"brott":7113,"cham":7114,"##bit":7115,"arn":7116,"##spelar":7117,"##ørs":7118,"tida":7119,"##føre":7120,"fjord":7121,"##ines":7122,"##elsene":7123,"laga":7124,"bestaende":7125,"##akh":7126,"##ifolia":7127,"love":7128,"award":7129,"finne":7130,"##riar":7131,"##chy":7132,"##unnit":7133,"##sw":7134,"##icol":7135,"noko":7136,"forsok":7137,"frig":7138,"##deling":7139,"danska":7140,"muslim":7141,"religion":7142,"bruker":7143,"konserv":7144,"syl":7145,"diameter":7146,"##itionen":7147,"mit":7148,"spansk":7149,"brig":7150,"##bach":7151,"rø":7152,"mam":7153,"##blom":7154,"victoria":7155,"steder":7156,"##byggnad":7157,"bocker":7158,"kim":7159,"følgende":7160,"inneholder":7161,"ihop":7162,"sed":7163,"egne":7164,"vagen":7165,"chrys":7166,"coll":7167,"forlorade":7168,"graf":7169,"vise":7170,"##ipes":7171,"##skon":7172,"##sser":7173,"jug":7174,"byggnader":7175,"120":7176,"bergspass":7177,"kategori":7178,"talets":7179,"##edonien":7180,"publicer":7181,"##holmen":7182,"##leder":7183,"interv":7184,"kontroller":7185,"forslag":7186,"##haer":7187,"cu":7188,"syster":7189,"agde":7190,"##regionen":7191,"finst":7192,"kommunik":7193,"nm":7194,"##kamp":7195,"hvil":7196,"venn":7197,"##well":7198,"frag":7199,"produsert":7200,"48":7201,"fjellet":7202,"flott":7203,"##linjen":7204,"##nik":7205,"rygg":7206,"py":7207,"##sey":7208,"glas":7209,"klarte":7210,"spring":7211,"dist":7212,"dop":7213,"davarande":7214,"##ahl":7215,"##chef":7216,"kot":7217,"##skl":7218,"historisk":7219,"##mastare":7220,"ljud":7221,"##rover":7222,"ernst":7223,"##stant":7224,"##ssystem":7225,"##ifran":7226,"klim":7227,"##atene":7228,"saval":7229,"slike":7230,"bostad":7231,"suksess":7232,"teor":7233,"bruke":7234,"enbart":7235,"egenskaper":7236,"dron":7237,"utgang":7238,"##teck":7239,"instrument":7240,"moss":7241,"atervande":7242,"##lande":7243,"gjordes":7244,"forening":7245,"arbetar":7246,"forald":7247,"166":7248,"køben":7249,"skipet":7250,"##kap":7251,"music":7252,"forut":7253,"1860":7254,"dun":7255,"##riske":7256,"##uelle":7257,"nedre":7258,"##gaende":7259,"text":7260,"##mannen":7261,"##sforb":7262,"ves":7263,"hell":7264,"malm":7265,"dannet":7266,"washington":7267,"wood":7268,"##sack":7269,"dø":7270,"##omp":7271,"romanen":7272,"##eres":7273,"nun":7274,"spred":7275,"##acker":7276,"harald":7277,"167":7278,"omrader":7279,"viktigaste":7280,"troligen":7281,"47":7282,"carol":7283,"##mun":7284,"benyttet":7285,"utgjorde":7286,"pasir":7287,"enhet":7288,"##osus":7289,"##rykk":7290,"##hark":7291,"1887":7292,"gode":7293,"bulgar":7294,"scott":7295,"larare":7296,"##spelare":7297,"elisabet":7298,"##ppa":7299,"asteroid":7300,"lenge":7301,"##ordan":7302,"##sat":7303,"##delig":7304,"effektiv":7305,"##ره":7306,"##edøm":7307,"elv":7308,"##inska":7309,"giftet":7310,"gunnar":7311,"##sav":7312,"turne":7313,"politik":7314,"66":7315,"rapporter":7316,"die":7317,"##spart":7318,"queensland":7319,"temperatur":7320,"regnes":7321,"##olis":7322,"##øren":7323,"viktigste":7324,"pron":7325,"##slatt":7326,"##ration":7327,"gong":7328,"andersson":7329,"ski":7330,"nød":7331,"##rant":7332,"##ave":7333,"stasjon":7334,"49":7335,"##arg":7336,"hovedsakelig":7337,"let":7338,"bytte":7339,"##atar":7340,"introd":7341,"##laktet":7342,"konse":7343,"##huvudort":7344,"oc":7345,"upptacktes":7346,"##nande":7347,"version":7348,"tillgang":7349,"##itter":7350,"regiss":7351,"white":7352,"bris":7353,"tha":7354,"autom":7355,"##iae":7356,"41":7357,"soci":7358,"has":7359,"lee":7360,"senter":7361,"inntil":7362,"stadens":7363,"mog":7364,"cand":7365,"glacier":7366,"inneh":7367,"final":7368,"bukit":7369,"hap":7370,"##but":7371,"tusen":7372,"melan":7373,"isa":7374,"jesus":7375,"oh":7376,"antar":7377,"1886":7378,"abo":7379,"##verka":7380,"##adens":7381,"##ental":7382,"voksne":7383,"bolivia":7384,"1878":7385,"stol":7386,"##iret":7387,"jurid":7388,"dollar":7389,"##uva":7390,"##lans":7391,"##ston":7392,"meget":7393,"ud":7394,"##sutøver":7395,"##stiden":7396,"eurovis":7397,"skrive":7398,"solen":7399,"trafik":7400,"##vær":7401,"##olas":7402,"##taxa":7403,"##ligg":7404,"##lagd":7405,"##nende":7406,"172":7407,"##uri":7408,"tac":7409,"følge":7410,"##amin":7411,"##forsk":7412,"1884":7413,"meng":7414,"##satte":7415,"##byen":7416,"overlev":7417,"brukar":7418,"##ان":7419,"eri":7420,"faren":7421,"forel":7422,"acc":7423,"clar":7424,"okk":7425,"##arn":7426,"nokre":7427,"##inc":7428,"##landska":7429,"gon":7430,"##yet":7431,"effekt":7432,"lita":7433,"herrar":7434,"hop":7435,"hir":7436,"##ingart":7437,"omfatter":7438,"lit":7439,"minne":7440,"##oca":7441,"radi":7442,"wind":7443,"debuterade":7444,"##gitt":7445,"knyttet":7446,"afrik":7447,"forkort":7448,"##attet":7449,"rat":7450,"44":7451,"følger":7452,"alltsa":7453,"skedde":7454,"##emang":7455,"##agne":7456,"framgangs":7457,"ss":7458,"komme":7459,"design":7460,"kav":7461,"akten":7462,"allra":7463,"hotad":7464,"kronor":7465,"francisco":7466,"##chn":7467,"chic":7468,"##ards":7469,"metall":7470,"63":7471,"hoff":7472,"drottning":7473,"eurovision":7474,"mera":7475,"43":7476,"ts":7477,"hug":7478,"stavanger":7479,"zag":7480,"semifin":7481,"europeiske":7482,"advok":7483,"perman":7484,"lengre":7485,"##reb":7486,"regjeringen":7487,"##verksam":7488,"##osia":7489,"kungen":7490,"##repet":7491,"##qvist":7492,"##ifier":7493,"##ningsp":7494,"ludvig":7495,"smal":7496,"##departementet":7497,"snabbt":7498,"juan":7499,"studenter":7500,"prix":7501,"dyntaxa":7502,"turneringen":7503,"roller":7504,"etn":7505,"santo":7506,"brittisk":7507,"liste":7508,"nrk":7509,"trøndelag":7510,"##ophyllum":7511,"##ligheten":7512,"kem":7513,"administrasjon":7514,"jebel":7515,"jim":7516,"strøm":7517,"##iseringen":7518,"##stendig":7519,"føre":7520,"##rankar":7521,"oppna":7522,"svenskt":7523,"##orth":7524,"##eps":7525,"##ds":7526,"##reterare":7527,"sjoarna":7528,"mist":7529,"##anser":7530,"selskap":7531,"bilder":7532,"virg":7533,"klas":7534,"utloppet":7535,"aks":7536,"franco":7537,"mem":7538,"ach":7539,"stille":7540,"bjornspinnare":7541,"##halla":7542,"##eldjursart":7543,"jamt":7544,"orkester":7545,"##annsyn":7546,"scot":7547,"flav":7548,"hvordan":7549,"##harkrankar":7550,"1882":7551,"##ressen":7552,"pala":7553,"forsknings":7554,"##ami":7555,"##feld":7556,"##pas":7557,"shah":7558,"tekniska":7559,"##orus":7560,"##ual":7561,"sørøst":7562,"##museum":7563,"antag":7564,"varv":7565,"romersk":7566,"gjer":7567,"##vakt":7568,"egypten":7569,"brown":7570,"total":7571,"fus":7572,"##spar":7573,"cel":7574,"bolag":7575,"bygger":7576,"obl":7577,"##onym":7578,"emp":7579,"fotballspiller":7580,"##fallande":7581,"##ninga":7582,"plant":7583,"lon":7584,"varldens":7585,"##menter":7586,"gymnas":7587,"##sand":7588,"flygplan":7589,"romerske":7590,"hjel":7591,"##xi":7592,"##sats":7593,"fry":7594,"##endom":7595,"##foret":7596,"norska":7597,"hjul":7598,"produktion":7599,"##ics":7600,"gronland":7601,"lage":7602,"shu":7603,"arthur":7604,"eid":7605,"fjorden":7606,"raskt":7607,"prad":7608,"ross":7609,"##riska":7610,"##oria":7611,"##avaxter":7612,"fro":7613,"munchen":7614,"cab":7615,"sprid":7616,"eksped":7617,"asia":7618,"gymn":7619,"diale":7620,"guy":7621,"##log":7622,"bakgrund":7623,"sitter":7624,"kritik":7625,"72":7626,"##amerika":7627,"egentliga":7628,"fann":7629,"mykje":7630,"700":7631,"cop":7632,"ursprungliga":7633,"disp":7634,"platsen":7635,"##ti":7636,"beseg":7637,"sula":7638,"##rarna":7639,"stortinget":7640,"hann":7641,"hverandre":7642,"##lic":7643,"##yi":7644,"##rona":7645,"vig":7646,"##rackligt":7647,"serier":7648,"##eme":7649,"høyre":7650,"steph":7651,"##oi":7652,"borjar":7653,"##atorer":7654,"##idia":7655,"anth":7656,"46":7657,"##sattning":7658,"forvar":7659,"1881":7660,"forsv":7661,"geograf":7662,"mir":7663,"##oslav":7664,"##enez":7665,"janeiro":7666,"dens":7667,"##ilia":7668,"mangfot":7669,"erbj":7670,"producer":7671,"ledare":7672,"serv":7673,"resul":7674,"smak":7675,"media":7676,"71":7677,"dos":7678,"data":7679,"tapp":7680,"ordin":7681,"##bad":7682,"1879":7683,"##somrade":7684,"hoga":7685,"elven":7686,"##ates":7687,"sterk":7688,"reiste":7689,"##inand":7690,"western":7691,"bildade":7692,"moderna":7693,"##bruks":7694,"budd":7695,"kyst":7696,"bøker":7697,"##risen":7698,"pula":7699,"miljø":7700,"mcc":7701,"skane":7702,"mente":7703,"nordlige":7704,"1863":7705,"##skje":7706,"anger":7707,"##anc":7708,"bam":7709,"medal":7710,"52":7711,"harry":7712,"vietnam":7713,"kysten":7714,"stilling":7715,"prop":7716,"hermann":7717,"gle":7718,"##elius":7719,"##mera":7720,"tele":7721,"pave":7722,"naturreservat":7723,"had":7724,"utsatt":7725,"vanster":7726,"bind":7727,"oss":7728,"ال":7729,"nod":7730,"leker":7731,"elever":7732,"##føring":7733,"vekt":7734,"funktion":7735,"beroende":7736,"##plassen":7737,"##skij":7738,"osm":7739,"##mant":7740,"derimot":7741,"andreas":7742,"malt":7743,"1883":7744,"chal":7745,"struktur":7746,"mangd":7747,"sap":7748,"marevaxter":7749,"rein":7750,"##stone":7751,"overtok":7752,"antonio":7753,"##sle":7754,"kob":7755,"california":7756,"redus":7757,"sus":7758,"##mossart":7759,"tunnel":7760,"dessuten":7761,"##vika":7762,"steg":7763,"phou":7764,"line":7765,"sannsyn":7766,"##rix":7767,"tengah":7768,"tillfal":7769,"representant":7770,"formann":7771,"##holms":7772,"bedre":7773,"##ved":7774,"##icum":7775,"##spunkt":7776,"##agog":7777,"##urer":7778,"slottet":7779,"##gatan":7780,"prom":7781,"##ckte":7782,"tør":7783,"mynnar":7784,"hockey":7785,"##chester":7786,"hamp":7787,"arre":7788,"berak":7789,"arch":7790,"resultatet":7791,"arts":7792,"##avaxtart":7793,"bygga":7794,"##yang":7795,"bladmossart":7796,"harris":7797,"epis":7798,"##gjort":7799,"##uck":7800,"dott":7801,"prast":7802,"69":7803,"tapte":7804,"##lare":7805,"type":7806,"show":7807,"sporsack":7808,"høyeste":7809,"##ungen":7810,"tavlingen":7811,"fiske":7812,"##antarktis":7813,"sach":7814,"saledes":7815,"france":7816,"##ao":7817,"hens":7818,"##ido":7819,"sker":7820,"##stedt":7821,"holls":7822,"stiftet":7823,"brad":7824,"##emark":7825,"sporsacksvampar":7826,"ext":7827,"73":7828,"ama":7829,"koudiat":7830,"fylkesvei":7831,"##flytt":7832,"skandinav":7833,"ech":7834,"##iji":7835,"1200":7836,"##øper":7837,"51":7838,"militære":7839,"##ding":7840,"lades":7841,"##emente":7842,"kull":7843,"foljd":7844,"##rac":7845,"##boll":7846,"##bebygg":7847,"kallor":7848,"ør":7849,"drept":7850,"ferdinand":7851,"1865":7852,"##ylus":7853,"eig":7854,"rike":7855,"etiop":7856,"sr":7857,"bass":7858,"##jk":7859,"trans":7860,"cord":7861,"##retær":7862,"valdes":7863,"kaliforn":7864,"biller":7865,"khan":7866,"##omat":7867,"ler":7868,"nasjonale":7869,"rudolf":7870,"##ves":7871,"1877":7872,"pow":7873,"##jak":7874,"##ory":7875,"vilhelm":7876,"##ornis":7877,"1875":7878,"battre":7879,"##inske":7880,"vere":7881,"##zan":7882,"arbeten":7883,"pere":7884,"nøy":7885,"##stud":7886,"250":7887,"inflyt":7888,"##inter":7889,"amar":7890,"##rof":7891,"viktige":7892,"bør":7893,"##lista":7894,"dennes":7895,"seri":7896,"høsten":7897,"serra":7898,"##rert":7899,"sørlige":7900,"parad":7901,"smaland":7902,"qar":7903,"fyrste":7904,"##umen":7905,"marknad":7906,"##aksjon":7907,"##ipend":7908,"blo":7909,"heile":7910,"nak":7911,"##skold":7912,"##ampa":7913,"contest":7914,"pabor":7915,"team":7916,"##iler":7917,"kommersi":7918,"icke":7919,"jung":7920,"dong":7921,"##lot":7922,"##skriften":7923,"strateg":7924,"163":7925,"kongo":7926,"prefekturen":7927,"##legget":7928,"debuterte":7929,"##istrikt":7930,"##manland":7931,"takt":7932,"kalk":7933,"##gotland":7934,"grekiska":7935,"orebro":7936,"##isch":7937,"esp":7938,"tings":7939,"omtal":7940,"##ов":7941,"forh":7942,"club":7943,"pad":7944,"alm":7945,"allmanna":7946,"##vingene":7947,"anvande":7948,"uppkall":7949,"##nan":7950,"stral":7951,"syke":7952,"erov":7953,"grundade":7954,"##sens":7955,"dersom":7956,"myndigheter":7957,"##avnet":7958,"##biskop":7959,"##fora":7960,"##iserer":7961,"skriver":7962,"law":7963,"##beck":7964,"mongol":7965,"titel":7966,"gate":7967,"67":7968,"sec":7969,"##latt":7970,"eien":7971,"##ligheter":7972,"##oga":7973,"##tein":7974,"00":7975,"hører":7976,"malet":7977,"##ares":7978,"def":7979,"bygge":7980,"##otum":7981,"##usive":7982,"##cin":7983,"linjen":7984,"avrinningsomradena":7985,"kanskje":7986,"starten":7987,"##itat":7988,"##stedet":7989,"##elden":7990,"doc":7991,"josef":7992,"62":7993,"roda":7994,"samlet":7995,"stafett":7996,"lanser":7997,"##kalt":7998,"##sidan":7999,"center":8000,"kapit":8001,"katolske":8002,"##egaende":8003,"gutt":8004,"##sag":8005,"organisation":8006,"tsjekk":8007,"brisbane":8008,"##spun":8009,"57":8010,"turist":8011,"slog":8012,"meller":8013,"møtte":8014,"pulau":8015,"##mund":8016,"franz":8017,"nominer":8018,"##hast":8019,"chap":8020,"frederik":8021,"68":8022,"##gara":8023,"lib":8024,"##brun":8025,"##escens":8026,"pam":8027,"ola":8028,"##ension":8029,"she":8030,"elev":8031,"norden":8032,"kanalen":8033,"##uh":8034,"##instit":8035,"##iensis":8036,"sot":8037,"forsøk":8038,"miner":8039,"marevaxtart":8040,"plassert":8041,"brdo":8042,"makten":8043,"øver":8044,"##rivil":8045,"assoc":8046,"##atem":8047,"uppf":8048,"spen":8049,"##etta":8050,"##orm":8051,"##aneh":8052,"##skrifter":8053,"drabb":8054,"1874":8055,"##odon":8056,"forste":8057,"anal":8058,"ene":8059,"beirut":8060,"ivan":8061,"koping":8062,"american":8063,"helg":8064,"klassisk":8065,"larvene":8066,"##rey":8067,"sri":8068,"samarbete":8069,"##spolit":8070,"begrans":8071,"##rikk":8072,"risk":8073,"##otyp":8074,"##ningsm":8075,"kvarter":8076,"##du":8077,"tw":8078,"##egg":8079,"bong":8080,"information":8081,"spør":8082,"seb":8083,"##bes":8084,"##agna":8085,"##elvingar":8086,"##riket":8087,"##ih":8088,"reserv":8089,"ønsket":8090,"ledning":8091,"##wald":8092,"petter":8093,"kalifornien":8094,"##ennene":8095,"nep":8096,"aud":8097,"##ktes":8098,"##rollen":8099,"inc":8100,"betydelig":8101,"utstyr":8102,"emot":8103,"##sforen":8104,"sommeren":8105,"chang":8106,"beat":8107,"##uga":8108,"1850":8109,"bergsked":8110,"##ivt":8111,"1876":8112,"patri":8113,"56":8114,"lokala":8115,"aner":8116,"betydning":8117,"dend":8118,"correg":8119,"##dan":8120,"ringmaskart":8121,"oleander":8122,"##eman":8123,"##atoriet":8124,"pall":8125,"lot":8126,"kroatien":8127,"##idan":8128,"##tatt":8129,"##skomm":8130,"##abad":8131,"##dern":8132,"85":8133,"ungern":8134,"marin":8135,"riksdagen":8136,"utn":8137,"##vide":8138,"##biner":8139,"lago":8140,"syv":8141,"##rea":8142,"individer":8143,"##eles":8144,"wat":8145,"nhl":8146,"mennesk":8147,"##rata":8148,"paret":8149,"krimin":8150,"orm":8151,"direktor":8152,"aqu":8153,"##sep":8154,"øk":8155,"stadig":8156,"astronom":8157,"##ask":8158,"emeller":8159,"##skaff":8160,"skapa":8161,"mangfotingart":8162,"vanskelig":8163,"emellertid":8164,"wolf":8165,"hodet":8166,"##lost":8167,"butt":8168,"kunstner":8169,"utnamndes":8170,"##bott":8171,"deg":8172,"front":8173,"##øyene":8174,"skillnad":8175,"nordøst":8176,"juvelvingar":8177,"tyder":8178,"inklusive":8179,"##utning":8180,"pradesh":8181,"ensam":8182,"floden":8183,"flagg":8184,"nio":8185,"siv":8186,"balt":8187,"abu":8188,"##lah":8189,"##hets":8190,"storm":8191,"mats":8192,"minister":8193,"uppskatt":8194,"##iah":8195,"element":8196,"ecu":8197,"##yph":8198,"kejs":8199,"utkom":8200,"civil":8201,"za":8202,"foreld":8203,"københavn":8204,"rang":8205,"utgors":8206,"53":8207,"beskriver":8208,"barcel":8209,"kontor":8210,"##amper":8211,"##rym":8212,"54":8213,"##optera":8214,"eftertrad":8215,"reform":8216,"het":8217,"sunn":8218,"medeltida":8219,"gabri":8220,"tilldelades":8221,"##imus":8222,"socialdemokrat":8223,"venez":8224,"peru":8225,"sikker":8226,"sonen":8227,"##terte":8228,"bent":8229,"74":8230,"hæren":8231,"obser":8232,"##eli":8233,"1871":8234,"130":8235,"1866":8236,"medis":8237,"ik":8238,"##itten":8239,"fav":8240,"valgte":8241,"infl":8242,"##marna":8243,"##lip":8244,"viking":8245,"arkitektur":8246,"melodi":8247,"##ygt":8248,"utsags":8249,"##innan":8250,"varldsm":8251,"##varande":8252,"lærer":8253,"##ophora":8254,"##olax":8255,"vinn":8256,"avvattnas":8257,"##skat":8258,"##antus":8259,"##borgs":8260,"##festivalen":8261,"døy":8262,"##uras":8263,"inrattades":8264,"rus":8265,"skre":8266,"maler":8267,"skrivit":8268,"##aen":8269,"##lu":8270,"corrego":8271,"##gi":8272,"fan":8273,"greske":8274,"flat":8275,"revolusjon":8276,"mojligt":8277,"exemplar":8278,"##omus":8279,"##sang":8280,"spin":8281,"##ardo":8282,"##olonth":8283,"daremot":8284,"melolonth":8285,"##bom":8286,"socknen":8287,"ens":8288,"profesjon":8289,"nordvastlig":8290,"kari":8291,"lord":8292,"kalmar":8293,"darpa":8294,"##chia":8295,"##esund":8296,"##yx":8297,"##larna":8298,"##19":8299,"##jat":8300,"##assel":8301,"formen":8302,"parish":8303,"##ogne":8304,"unga":8305,"stang":8306,"foljde":8307,"assist":8308,"vanliga":8309,"italienska":8310,"1864":8311,"historiska":8312,"kungar":8313,"sogn":8314,"tema":8315,"gur":8316,"høyde":8317,"torn":8318,"##ship":8319,"prosent":8320,"penn":8321,"sank":8322,"farger":8323,"marks":8324,"lew":8325,"eier":8326,"##emer":8327,"##alam":8328,"serb":8329,"motiv":8330,"heder":8331,"utgjør":8332,"##lager":8333,"forfattaren":8334,"58":8335,"slags":8336,"mellersta":8337,"1868":8338,"##omraden":8339,"##igg":8340,"jones":8341,"##setning":8342,"fører":8343,"konstrukt":8344,"##teg":8345,"lagre":8346,"skop":8347,"cle":8348,"ytt":8349,"rey":8350,"finsk":8351,"##klass":8352,"klok":8353,"spelt":8354,"pyr":8355,"##ioder":8356,"isol":8357,"dekor":8358,"##serna":8359,"sagt":8360,"##cos":8361,"skepp":8362,"162":8363,"##otes":8364,"##sken":8365,"1869":8366,"original":8367,"chicago":8368,"makedon":8369,"دره":8370,"lovfallande":8371,"oarna":8372,"castle":8373,"##iral":8374,"trolig":8375,"anat":8376,"solo":8377,"endret":8378,"hyl":8379,"overfl":8380,"phyll":8381,"besok":8382,"texas":8383,"imper":8384,"oppdaget":8385,"pic":8386,"nikola":8387,"kandidat":8388,"fjader":8389,"sakalte":8390,"eksister":8391,"##namnet":8392,"holde":8393,"varde":8394,"cruz":8395,"##urn":8396,"depart":8397,"costa":8398,"##fru":8399,"svarta":8400,"aterupp":8401,"italienske":8402,"samuel":8403,"town":8404,"##ollen":8405,"##berget":8406,"##ettet":8407,"##yla":8408,"##agus":8409,"parasit":8410,"kapell":8411,"marken":8412,"tills":8413,"gruppa":8414,"##ods":8415,"lenn":8416,"verksamheten":8417,"##iteen":8418,"gom":8419,"##js":8420,"ela":8421,"flag":8422,"##slin":8423,"sette":8424,"konfli":8425,"color":8426,"atlan":8427,"##livet":8428,"ovre":8429,"##last":8430,"##sprogram":8431,"tax":8432,"skrifter":8433,"hundre":8434,"##forhall":8435,"##svag":8436,"pred":8437,"tredjep":8438,"vanleg":8439,"##ieb":8440,"##farg":8441,"##igan":8442,"hemm":8443,"slutligen":8444,"sammens":8445,"tidiga":8446,"runde":8447,"##kret":8448,"historiske":8449,"compan":8450,"initiativ":8451,"seger":8452,"1872":8453,"##platsen":8454,"artiller":8455,"59":8456,"hipp":8457,"1867":8458,"golf":8459,"##fo":8460,"stjer":8461,"##menn":8462,"sofia":8463,"##yrer":8464,"##fard":8465,"##forsamling":8466,"invigdes":8467,"gib":8468,"para":8469,"##dis":8470,"1873":8471,"telef":8472,"napole":8473,"time":8474,"##vak":8475,"##ads":8476,"hertig":8477,"orn":8478,"sadan":8479,"##bolaget":8480,"##sto":8481,"wilson":8482,"##arina":8483,"##vap":8484,"spanska":8485,"dagg":8486,"utford":8487,"flytta":8488,"##ello":8489,"140":8490,"##lemer":8491,"heim":8492,"johnson":8493,"ecuador":8494,"##rel":8495,"melolonthidae":8496,"oppført":8497,"sprin":8498,"##ledare":8499,"159":8500,"vokste":8501,"##vaxt":8502,"johansson":8503,"spill":8504,"krev":8505,"##aterna":8506,"deira":8507,"##ningens":8508,"fjarilar":8509,"110":8510,"arne":8511,"##ows":8512,"baker":8513,"snar":8514,"##fon":8515,"styrker":8516,"##gjeng":8517,"høyere":8518,"advokat":8519,"lokalt":8520,"##oten":8521,"blomster":8522,"rag":8523,"##backen":8524,"ribe":8525,"one":8526,"##ussen":8527,"1861":8528,"sats":8529,"prisen":8530,"ager":8531,"tenggara":8532,"flert":8533,"milj":8534,"##alo":8535,"informasjon":8536,"rand":8537,"dokt":8538,"aleks":8539,"portugal":8540,"renn":8541,"##sbl":8542,"##edom":8543,"variant":8544,"invol":8545,"erstattet":8546,"alternativ":8547,"varian":8548,"##avet":8549,"peder":8550,"dahl":8551,"wer":8552,"##don":8553,"japanska":8554,"utmark":8555,"##systemet":8556,"##asan":8557,"mannen":8558,"bull":8559,"##bc":8560,"parlamentet":8561,"ce":8562,"dekkvingene":8563,"driver":8564,"lanka":8565,"##faren":8566,"gat":8567,"zo":8568,"bin":8569,"##adel":8570,"starta":8571,"young":8572,"lengde":8573,"vo":8574,"priser":8575,"normal":8576,"fulgte":8577,"skjedde":8578,"##atisk":8579,"##liggande":8580,"##ulatus":8581,"grat":8582,"morro":8583,"dubbel":8584,"##landsk":8585,"permanent":8586,"kak":8587,"planer":8588,"##com":8589,"oversikt":8590,"enten":8591,"billboard":8592,"egg":8593,"drama":8594,"alko":8595,"stadion":8596,"abra":8597,"##chel":8598,"varme":8599,"##itor":8600,"##strand":8601,"##andena":8602,"##sko":8603,"fritt":8604,"##yggen":8605,"fær":8606,"##rekord":8607,"vunnet":8608,"uppgift":8609,"##iku":8610,"##bygd":8611,"##ums":8612,"bonde":8613,"artister":8614,"tip":8615,"##sha":8616,"fremst":8617,"vac":8618,"avvik":8619,"tider":8620,"inre":8621,"halla":8622,"finansier":8623,"williams":8624,"##program":8625,"flykt":8626,"nilsson":8627,"anlagg":8628,"edvard":8629,"##leis":8630,"biograf":8631,"##ikal":8632,"##bury":8633,"skargard":8634,"barcelona":8635,"##18":8636,"alg":8637,"oppkalt":8638,"planet":8639,"##jiang":8640,"##stal":8641,"##ulen":8642,"##osh":8643,"##ege":8644,"##hvert":8645,"middelsst":8646,"sasonger":8647,"kristne":8648,"##ocarp":8649,"##valg":8650,"##edet":8651,"##dad":8652,"myndighet":8653,"beij":8654,"##iansk":8655,"##ili":8656,"hertug":8657,"low":8658,"##stat":8659,"reklam":8660,"arrester":8661,"vice":8662,"savolax":8663,"##vas":8664,"##akter":8665,"comp":8666,"##uper":8667,"forsokte":8668,"grod":8669,"wall":8670,"snak":8671,"fog":8672,"bjørn":8673,"gent":8674,"##forfatt":8675,"guatem":8676,"vent":8677,"##zirk":8678,"##yan":8679,"psal":8680,"##renn":8681,"##umin":8682,"pom":8683,"maneder":8684,"lem":8685,"canad":8686,"omd":8687,"##stallning":8688,"universitets":8689,"hitler":8690,"1848":8691,"sjef":8692,"##ularis":8693,"inget":8694,"landsbyen":8695,"##nelse":8696,"spanske":8697,"trett":8698,"##iki":8699,"kryss":8700,"utred":8701,"webb":8702,"ledd":8703,"##hoe":8704,"myrten":8705,"##vald":8706,"dh":8707,"sandes":8708,"skrevs":8709,"feil":8710,"historiker":8711,"tillkom":8712,"skopje":8713,"størr":8714,"guatemala":8715,"ria":8716,"parken":8717,"water":8718,"##xt":8719,"1858":8720,"dram":8721,"erholl":8722,"underarten":8723,"jacques":8724,"##aran":8725,"vend":8726,"##iland":8727,"hob":8728,"##stift":8729,"##aktor":8730,"nusa":8731,"vunnit":8732,"formel":8733,"##mea":8734,"folkrak":8735,"jobbet":8736,"jugoslav":8737,"sound":8738,"##grad":8739,"regnet":8740,"berom":8741,"##jal":8742,"##ellus":8743,"forbundet":8744,"##omycetes":8745,"##konkur":8746,"##konst":8747,"flyt":8748,"kum":8749,"##ikan":8750,"##di":8751,"karn":8752,"pronotum":8753,"kott":8754,"skold":8755,"regisser":8756,"dhar":8757,"neb":8758,"##cen":8759,"##lok":8760,"##agon":8761,"korte":8762,"##urder":8763,"forber":8764,"tavlade":8765,"menneske":8766,"exped":8767,"hvite":8768,"##illes":8769,"fabrik":8770,"##bal":8771,"##verg":8772,"folkm":8773,"kontra":8774,"tibet":8775,"##zab":8776,"framtid":8777,"antik":8778,"fiji":8779,"senaste":8780,"tillstand":8781,"##sjt":8782,"flest":8783,"linne":8784,"gis":8785,"##tekn":8786,"katal":8787,"opprinnelige":8788,"##vikt":8789,"torel":8790,"##rand":8791,"undant":8792,"##ilien":8793,"positiv":8794,"tjeckien":8795,"fn":8796,"##litter":8797,"##unst":8798,"flygplats":8799,"scien":8800,"amt":8801,"##ctus":8802,"oar":8803,"##aro":8804,"##dera":8805,"##bladet":8806,"filosofi":8807,"##ove":8808,"ersattes":8809,"mall":8810,"flam":8811,"palest":8812,"##avling":8813,"organisasjon":8814,"trag":8815,"damp":8816,"##ytning":8817,"societ":8818,"##oke":8819,"900":8820,"eiendom":8821,"ansatt":8822,"cit":8823,"##kas":8824,"infanter":8825,"ansag":8826,"##osoma":8827,"##ernes":8828,"##ckel":8829,"flyttades":8830,"##ckning":8831,"##bs":8832,"##bolag":8833,"rug":8834,"luther":8835,"##ble":8836,"##kand":8837,"##grens":8838,"crypt":8839,"musk":8840,"1859":8841,"nad":8842,"##ademien":8843,"##wesi":8844,"arist":8845,"##viken":8846,"ay":8847,"dokumenter":8848,"##inson":8849,"fris":8850,"uttal":8851,"ukraina":8852,"sac":8853,"##ai":8854,"nedan":8855,"tempel":8856,"tub":8857,"##ylor":8858,"##skrigen":8859,"walter":8860,"bapt":8861,"chah":8862,"##atis":8863,"nattslandeart":8864,"nordmak":8865,"trekk":8866,"darlig":8867,"filippin":8868,"visa":8869,"##rane":8870,"##issen":8871,"projekt":8872,"kolle":8873,"kommit":8874,"bergskedja":8875,"##janst":8876,"##eler":8877,"jesu":8878,"extra":8879,"oppf":8880,"range":8881,"eugen":8882,"skalbaggar":8883,"##asi":8884,"skivan":8885,"honor":8886,"manit":8887,"vinner":8888,"polis":8889,"arbetet":8890,"##uden":8891,"julius":8892,"hellas":8893,"arena":8894,"kommunist":8895,"76":8896,"##sporter":8897,"offisielle":8898,"ther":8899,"nordmakedonien":8900,"gjenopp":8901,"out":8902,"blues":8903,"nærings":8904,"mandat":8905,"kinesiske":8906,"myror":8907,"atom":8908,"tai":8909,"##skop":8910,"grenser":8911,"populær":8912,"bygde":8913,"sekund":8914,"##ero":8915,"helse":8916,"##shov":8917,"likhet":8918,"beijing":8919,"##kann":8920,"lei":8921,"friidrott":8922,"##aldern":8923,"million":8924,"ogon":8925,"##jonen":8926,"##ills":8927,"##samlingen":8928,"##iddel":8929,"haug":8930,"##ray":8931,"frihet":8932,"domingo":8933,"##run":8934,"##eira":8935,"##svenskan":8936,"gord":8937,"prost":8938,"nederlanderna":8939,"nordland":8940,"##acken":8941,"##zak":8942,"forfattar":8943,"dato":8944,"human":8945,"vass":8946,"sulawesi":8947,"mw":8948,"##ijan":8949,"jackson":8950,"##snamn":8951,"##emus":8952,"skriva":8953,"ling":8954,"bisp":8955,"##æren":8956,"kroner":8957,"økonomiske":8958,"pant":8959,"hay":8960,"seder":8961,"jun":8962,"##sjtina":8963,"##agar":8964,"akk":8965,"meld":8966,"typisk":8967,"skola":8968,"spindeldjursart":8969,"bokstav":8970,"økonomisk":8971,"fars":8972,"kub":8973,"korea":8974,"finlands":8975,"øvre":8976,"##skom":8977,"reservo":8978,"gold":8979,"##eton":8980,"##oro":8981,"##erus":8982,"grasart":8983,"solgt":8984,"##bla":8985,"malv":8986,"guinea":8987,"koudyet":8988,"lære":8989,"francois":8990,"##lex":8991,"brach":8992,"99":8993,"1300":8994,"pont":8995,"mill":8996,"kret":8997,"##ktig":8998,"magnet":8999,"direktør":9000,"kvalster":9001,"##urd":9002,"karaktar":9003,"61":9004,"##beg":9005,"prog":9006,"saldes":9007,"tilsvarende":9008,"##rater":9009,"oppdrag":9010,"ng":9011,"##elis":9012,"jr":9013,"hammar":9014,"døydde":9015,"later":9016,"nationella":9017,"95":9018,"##aton":9019,"isla":9020,"studioalbum":9021,"krets":9022,"huvudstad":9023,"press":9024,"plassen":9025,"77":9026,"grunnleg":9027,"pjas":9028,"##stolen":9029,"##kort":9030,"##isere":9031,"lands":9032,"frivil":9033,"kent":9034,"153":9035,"##opt":9036,"innsp":9037,"opt":9038,"elisabeth":9039,"utbygg":9040,"plassering":9041,"##ephalus":9042,"alkohol":9043,"piz":9044,"krigs":9045,"stri":9046,"##foreningen":9047,"monten":9048,"##belt":9049,"ytre":9050,"##iven":9051,"##low":9052,"ivar":9053,"oblast":9054,"foljer":9055,"akantus":9056,"tig":9057,"##arm":9058,"estland":9059,"##sim":9060,"teksten":9061,"cyc":9062,"mim":9063,"##oken":9064,"##lanssteklar":9065,"trum":9066,"nordiska":9067,"syrien":9068,"madaga":9069,"zagreb":9070,"lunds":9071,"bulu":9072,"kli":9073,"konc":9074,"nasta":9075,"##skiftet":9076,"##sbygg":9077,"##aux":9078,"botten":9079,"reise":9080,"aph":9081,"##kvens":9082,"bengt":9083,"##vens":9084,"forret":9085,"##onde":9086,"khor":9087,"##rium":9088,"malar":9089,"##pre":9090,"hotell":9091,"bjor":9092,"innsjø":9093,"vlad":9094,"hat":9095,"##angden":9096,"evangel":9097,"##nest":9098,"78":9099,"1857":9100,"##ianus":9101,"##amento":9102,"##ubile":9103,"undersok":9104,"##forsvar":9105,"ansags":9106,"altsa":9107,"##ped":9108,"##skydd":9109,"open":9110,"betegnelsen":9111,"etablerte":9112,"spekt":9113,"tilgjeng":9114,"bolaget":9115,"bomb":9116,"matchen":9117,"tagit":9118,"arbeta":9119,"antingen":9120,"156":9121,"storting":9122,"##rah":9123,"1400":9124,"##onsin":9125,"skatt":9126,"##steg":9127,"madagaskar":9128,"##atre":9129,"baserad":9130,"yrkes":9131,"skid":9132,"omgivningen":9133,"examen":9134,"forbatt":9135,"modellen":9136,"tenn":9137,"særleg":9138,"uppfatt":9139,"sadana":9140,"##ophor":9141,"1830":9142,"company":9143,"##tag":9144,"sykdom":9145,"##ordin":9146,"erkl":9147,"##esser":9148,"sider":9149,"frid":9150,"philipp":9151,"darah":9152,"##yrt":9153,"drygt":9154,"yang":9155,"komed":9156,"hek":9157,"professionell":9158,"fril":9159,"##oly":9160,"ungdoms":9161,"vetenskapliga":9162,"bilen":9163,"hvorav":9164,"patraff":9165,"lock":9166,"finnmark":9167,"klima":9168,"mork":9169,"##alpark":9170,"teori":9171,"inledde":9172,"lob":9173,"ruf":9174,"betal":9175,"hansen":9176,"typen":9177,"##aman":9178,"##offer":9179,"beach":9180,"exper":9181,"##eldig":9182,"maskin":9183,"tittel":9184,"botan":9185,"##idi":9186,"##ume":9187,"##mis":9188,"##ologen":9189,"semifinalen":9190,"innflyt":9191,"##altet":9192,"vasa":9193,"analy":9194,"##imeter":9195,"bea":9196,"##irektor":9197,"munn":9198,"athen":9199,"##sblomm":9200,"##ular":9201,"##illverk":9202,"##kins":9203,"fak":9204,"selve":9205,"scotia":9206,"kyrkob":9207,"natten":9208,"betydande":9209,"##imb":9210,"møte":9211,"##strid":9212,"modeller":9213,"malare":9214,"guvernor":9215,"separat":9216,"##yre":9217,"monteneg":9218,"nordisk":9219,"tjanstgjorde":9220,"morg":9221,"##otrich":9222,"lux":9223,"##hag":9224,"enheter":9225,"##rins":9226,"tyng":9227,"byens":9228,"##bandet":9229,"##bek":9230,"helst":9231,"mansk":9232,"avlade":9233,"haw":9234,"chlor":9235,"deltak":9236,"##ites":9237,"mottok":9238,"##hai":9239,"##phia":9240,"konkurransen":9241,"augu":9242,"intresse":9243,"kus":9244,"anvandning":9245,"##kreis":9246,"##kvarter":9247,"##agua":9248,"##sdal":9249,"##dyr":9250,"1840":9251,"nominat":9252,"##iør":9253,"trebu":9254,"cr":9255,"##pol":9256,"states":9257,"virk":9258,"##erto":9259,"chur":9260,"manitoba":9261,"##ando":9262,"82":9263,"kairo":9264,"##musik":9265,"##kommun":9266,"##spelet":9267,"sannsynlig":9268,"##rock":9269,"##oto":9270,"dry":9271,"88":9272,"##fs":9273,"bydel":9274,"hyper":9275,"sierra":9276,"##litt":9277,"bebyggelsen":9278,"søster":9279,"precis":9280,"sande":9281,"daribland":9282,"erke":9283,"forster":9284,"pengar":9285,"##iffer":9286,"dronning":9287,"gy":9288,"portugis":9289,"##atern":9290,"lod":9291,"ambet":9292,"mort":9293,"dyp":9294,"##listan":9295,"maxim":9296,"##nare":9297,"viken":9298,"##ryp":9299,"brist":9300,"##rige":9301,"slappte":9302,"løs":9303,"ribeira":9304,"##oki":9305,"bibliotek":9306,"##vey":9307,"##amerik":9308,"squ":9309,"handball":9310,"damask":9311,"priset":9312,"##kraftverk":9313,"##figur":9314,"pans":9315,"jens":9316,"brød":9317,"utvecklades":9318,"hette":9319,"plata":9320,"redaktør":9321,"alvor":9322,"##apa":9323,"mr":9324,"##shopp":9325,"occ":9326,"konkurrerer":9327,"valen":9328,"reger":9329,"hogt":9330,"##zig":9331,"skapade":9332,"hamburg":9333,"stammer":9334,"utdannet":9335,"inrikt":9336,"orgel":9337,"talen":9338,"##frag":9339,"##elva":9340,"rekna":9341,"verkade":9342,"bandets":9343,"strang":9344,"##onis":9345,"snack":9346,"pip":9347,"wang":9348,"##vendig":9349,"##juk":9350,"lill":9351,"##vt":9352,"varia":9353,"##iation":9354,"##abet":9355,"##grunn":9356,"##iane":9357,"singelen":9358,"varianter":9359,"nedb":9360,"vestlige":9361,"grensen":9362,"rim":9363,"nue":9364,"trakk":9365,"anti":9366,"##nis":9367,"sakerhet":9368,"nominatformen":9369,"sloven":9370,"fardig":9371,"##bildning":9372,"theodor":9373,"rektor":9374,"84":9375,"syft":9376,"##fiskar":9377,"ever":9378,"lug":9379,"avse":9380,"diplomat":9381,"zar":9382,"gross":9383,"etterhvert":9384,"filip":9385,"##bare":9386,"utga":9387,"federationen":9388,"damaskus":9389,"eh":9390,"motsvarar":9391,"forhandling":9392,"##agt":9393,"##mil":9394,"tank":9395,"knapp":9396,"##ummer":9397,"departamento":9398,"##12":9399,"152":9400,"fored":9401,"fattig":9402,"##ifisert":9403,"german":9404,"##bell":9405,"conc":9406,"##avik":9407,"##kont":9408,"delarna":9409,"##arus":9410,"##tar":9411,"fylket":9412,"##kal":9413,"samle":9414,"##sval":9415,"uppgifter":9416,"officiella":9417,"1856":9418,"79":9419,"##vetenskap":9420,"stallde":9421,"lade":9422,"benamn":9423,"saken":9424,"singeln":9425,"1100":9426,"politikk":9427,"##ipennis":9428,"vera":9429,"registrer":9430,"omgang":9431,"##jes":9432,"princip":9433,"kopte":9434,"##lyst":9435,"##iba":9436,"personlig":9437,"utviklingen":9438,"supp":9439,"sz":9440,"isb":9441,"pit":9442,"kvinnliga":9443,"filosofie":9444,"valkrets":9445,"vii":9446,"##su":9447,"naværende":9448,"medaljer":9449,"utmer":9450,"##essig":9451,"nej":9452,"##moss":9453,"##ilda":9454,"parasitflugor":9455,"chi":9456,"tjeneste":9457,"##smil":9458,"card":9459,"ellers":9460,"##reformen":9461,"ført":9462,"89":9463,"myc":9464,"merc":9465,"##bul":9466,"##egard":9467,"konstantin":9468,"dirig":9469,"antarctic":9470,"utøver":9471,"##rud":9472,"befal":9473,"asteroiden":9474,"smaharkrankar":9475,"##allt":9476,"##kong":9477,"##endet":9478,"skiljer":9479,"agu":9480,"ull":9481,"kvinna":9482,"##agu":9483,"play":9484,"##pool":9485,"overfor":9486,"##brudd":9487,"fragor":9488,"group":9489,"##verks":9490,"##æring":9491,"mesterskapet":9492,"155":9493,"1855":9494,"maten":9495,"bert":9496,"##iserades":9497,"##uelt":9498,"terror":9499,"##isera":9500,"holly":9501,"##aya":9502,"veckor":9503,"##resident":9504,"avheng":9505,"house":9506,"klasse":9507,"mali":9508,"doug":9509,"attende":9510,"lamna":9511,"sic":9512,"ment":9513,"##ance":9514,"stund":9515,"florida":9516,"buss":9517,"napoleon":9518,"1852":9519,"##usal":9520,"##rodukt":9521,"bond":9522,"utdanning":9523,"oppen":9524,"sucre":9525,"metod":9526,"##roph":9527,"rose":9528,"rene":9529,"##inas":9530,"##iers":9531,"##rande":9532,"jernban":9533,"kanon":9534,"##inde":9535,"igenom":9536,"skade":9537,"##obius":9538,"kristiania":9539,"beskrivs":9540,"##sklubb":9541,"myrart":9542,"sterke":9543,"##imir":9544,"skøy":9545,"##apest":9546,"egentligen":9547,"viv":9548,"##lyck":9549,"taylor":9550,"##cupen":9551,"suva":9552,"herman":9553,"sangare":9554,"##utvik":9555,"minuter":9556,"forhallande":9557,"##gerne":9558,"wol":9559,"skreiv":9560,"astronomen":9561,"##ylon":9562,"miljo":9563,"##elly":9564,"kapp":9565,"##atra":9566,"oppos":9567,"##banan":9568,"warren":9569,"##aket":9570,"dator":9571,"##vinsen":9572,"kungariket":9573,"##edlem":9574,"##arius":9575,"##ialet":9576,"##anj":9577,"forbud":9578,"rosa":9579,"##jordes":9580,"organisasjonen":9581,"box":9582,"fullt":9583,"##verksamhet":9584,"konfer":9585,"scha":9586,"mut":9587,"reich":9588,"##yttes":9589,"festival":9590,"wik":9591,"kristen":9592,"tum":9593,"statist":9594,"disc":9595,"kjøpte":9596,"termin":9597,"noter":9598,"tror":9599,"##esa":9600,"dominikanska":9601,"##illi":9602,"##fron":9603,"kanske":9604,"##svall":9605,"innled":9606,"##arien":9607,"roger":9608,"##hea":9609,"##sjøen":9610,"##innen":9611,"omfattade":9612,"##iot":9613,"begrens":9614,"kyr":9615,"burg":9616,"get":9617,"philip":9618,"##perioden":9619,"##riere":9620,"herrarnas":9621,"medborg":9622,"##uld":9623,"fremdeles":9624,"##ante":9625,"##ellene":9626,"zealand":9627,"##ener":9628,"uppratt":9629,"høyt":9630,"tiz":9631,"friidrettsutøver":9632,"ifran":9633,"from":9634,"ena":9635,"##ahr":9636,"folker":9637,"tvingades":9638,"##anne":9639,"barnet":9640,"##natt":9641,"gabriel":9642,"niger":9643,"hoger":9644,"##idar":9645,"##skor":9646,"##endal":9647,"esc":9648,"with":9649,"##spunktet":9650,"##gift":9651,"##grupper":9652,"khal":9653,"bark":9654,"kyrkja":9655,"budapest":9656,"dru":9657,"rysk":9658,"hong":9659,"##omi":9660,"champion":9661,"framtrad":9662,"østerrike":9663,"grac":9664,"apen":9665,"ki":9666,"trin":9667,"kongelige":9668,"##strøm":9669,"blue":9670,"etterføl":9671,"tradgard":9672,"##ørt":9673,"omfattende":9674,"hond":9675,"ribeirao":9676,"86":9677,"fack":9678,"ytterligere":9679,"##resent":9680,"##elserna":9681,"##jades":9682,"premier":9683,"bun":9684,"gavle":9685,"ip":9686,"##ury":9687,"net":9688,"fylumet":9689,"dc":9690,"##visning":9691,"styrke":9692,"abd":9693,"rymd":9694,"forhind":9695,"misslyck":9696,"igar":9697,"##itis":9698,"##samma":9699,"varfor":9700,"forskj":9701,"kalen":9702,"##ssam":9703,"gruppens":9704,"##ukket":9705,"byer":9706,"bygningen":9707,"dalarna":9708,"##yah":9709,"83":9710,"uppkallad":9711,"osterrik":9712,"1851":9713,"sekunder":9714,"street":9715,"polsk":9716,"kyrkans":9717,"begreppet":9718,"kvalsterart":9719,"boy":9720,"sedermera":9721,"valget":9722,"leir":9723,"klub":9724,"moore":9725,"forteller":9726,"hegy":9727,"poet":9728,"158":9729,"kjønn":9730,"romant":9731,"atmos":9732,"tromsø":9733,"##onoma":9734,"##arch":9735,"forlot":9736,"syfte":9737,"psych":9738,"kvinne":9739,"holder":9740,"kallat":9741,"umea":9742,"hovedstaden":9743,"jonas":9744,"mach":9745,"arhundre":9746,"kraftigt":9747,"##finalen":9748,"centimeter":9749,"##nus":9750,"begrepet":9751,"utrikes":9752,"lun":9753,"svt":9754,"midler":9755,"cos":9756,"greve":9757,"hoglandsklimat":9758,"korn":9759,"utrust":9760,"##halv":9761,"nederlandsk":9762,"##kopp":9763,"monark":9764,"jarl":9765,"viktiga":9766,"verkar":9767,"monster":9768,"posisjon":9769,"##utionen":9770,"##yrkan":9771,"foraldrar":9772,"byggde":9773,"vurder":9774,"##bourne":9775,"kompl":9776,"sags":9777,"shuiku":9778,"landst":9779,"pent":9780,"unntak":9781,"ungarn":9782,"verdensmester":9783,"sager":9784,"perth":9785,"resa":9786,"lakare":9787,"eva":9788,"kuba":9789,"vinteren":9790,"organisationen":9791,"allierte":9792,"fenomen":9793,"##alven":9794,"elektrisk":9795,"basket":9796,"snackart":9797,"hurt":9798,"##naren":9799,"vulkan":9800,"hemma":9801,"1854":9802,"tatbebygg":9803,"vanligtvis":9804,"96":9805,"ath":9806,"##antha":9807,"aer":9808,"andrew":9809,"zeeland":9810,"##klubben":9811,"##edia":9812,"inner":9813,"##uellt":9814,"beskrevet":9815,"fengsel":9816,"lagene":9817,"okade":9818,"cri":9819,"stann":9820,"retning":9821,"skyld":9822,"fac":9823,"##anan":9824,"offisielt":9825,"##ei":9826,"sno":9827,"##mur":9828,"##ovic":9829,"##oslov":9830,"##adene":9831,"##rede":9832,"innsjøen":9833,"makedonska":9834,"larsson":9835,"kenya":9836,"røde":9837,"planter":9838,"blek":9839,"anim":9840,"publikum":9841,"##ibliote":9842,"##shall":9843,"populære":9844,"##vnt":9845,"portratt":9846,"konflikt":9847,"flockblommiga":9848,"offentlige":9849,"fageln":9850,"roth":9851,"##sere":9852,"hjart":9853,"jas":9854,"##bridge":9855,"arabisk":9856,"riviere":9857,"##aeus":9858,"87":9859,"manchester":9860,"arlig":9861,"rhod":9862,"inflytande":9863,"##avdel":9864,"officiellt":9865,"plate":9866,"##iev":9867,"##ار":9868,"##row":9869,"vorte":9870,"sendte":9871,"##bana":9872,"##akia":9873,"154":9874,"##mest":9875,"##fran":9876,"##aco":9877,"integ":9878,"sort":9879,"##skript":9880,"sachsen":9881,"chen":9882,"##yret":9883,"##elsens":9884,"great":9885,"vold":9886,"##ynt":9887,"konserter":9888,"boka":9889,"nit":9890,"##yen":9891,"kenn":9892,"##kul":9893,"##lever":9894,"konstit":9895,"##eslut":9896,"alber":9897,"igarape":9898,"##revet":9899,"##formis":9900,"prøv":9901,"##vart":9902,"##kkel":9903,"overgang":9904,"##16":9905,"bund":9906,"finlandsk":9907,"tennis":9908,"stylt":9909,"ix":9910,"manad":9911,"hvit":9912,"internasjonal":9913,"slakten":9914,"stadsdelen":9915,"will":9916,"ortod":9917,"##viks":9918,"##tain":9919,"kullar":9920,"1849":9921,"trod":9922,"##kyrka":9923,"pand":9924,"##wi":9925,"produkter":9926,"##mord":9927,"##mass":9928,"stater":9929,"landh":9930,"uttrykk":9931,"##skade":9932,"micro":9933,"haller":9934,"kannet":9935,"sens":9936,"##bank":9937,"kraftverk":9938,"aterfinn":9939,"bronsem":9940,"##fallen":9941,"presidenten":9942,"andreplass":9943,"country":9944,"inndeling":9945,"inng":9946,"##sfjord":9947,"fern":9948,"##lea":9949,"science":9950,"elfen":9951,"kyrkog":9952,"##wart":9953,"##krigen":9954,"nel":9955,"##ells":9956,"1853":9957,"grim":9958,"upphorde":9959,"##maskar":9960,"jobb":9961,"bildar":9962,"bakken":9963,"##vants":9964,"hevdet":9965,"##tjarnen":9966,"157":9967,"tatbebyggt":9968,"##yting":9969,"meddelade":9970,"passasjer":9971,"byrja":9972,"fordelt":9973,"##uster":9974,"##øve":9975,"utvidet":9976,"sit":9977,"did":9978,"lie":9979,"sman":9980,"##sfisk":9981,"marit":9982,"dømes":9983,"##medalj":9984,"pavir":9985,"##orh":9986,"anklag":9987,"##17":9988,"##pson":9989,"amph":9990,"otill":9991,"##rie":9992,"tros":9993,"bac":9994,"##vad":9995,"##forhallandena":9996,"##issa":9997,"nich":9998,"vr":9999,"forsøkte":10000,"##ranse":10001,"##ophagus":10002,"##fugl":10003,"jama":10004,"autonoma":10005,"cupen":10006,"kapten":10007,"kritiker":10008,"vinna":10009,"coc":10010,"koreanska":10011,"anlegget":10012,"##itioner":10013,"piper":10014,"kyrkobygg":10015,"syr":10016,"reguler":10017,"##esia":10018,"giv":10019,"lavart":10020,"mistet":10021,"foot":10022,"avsluttet":10023,"sha":10024,"forhand":10025,"##sna":10026,"##yder":10027,"tvang":10028,"good":10029,"mete":10030,"teknisk":10031,"##zel":10032,"rester":10033,"fastlandet":10034,"##usk":10035,"hoh":10036,"utført":10037,"oppret":10038,"interesse":10039,"##uela":10040,"spelas":10041,"rent":10042,"stro":10043,"##nere":10044,"sammanhang":10045,"##skild":10046,"mørk":10047,"cav":10048,"digit":10049,"kommet":10050,"mission":10051,"##real":10052,"atlant":10053,"##usalem":10054,"jbel":10055,"gamm":10056,"naturen":10057,"fortell":10058,"elit":10059,"rank":10060,"##snes":10061,"generelt":10062,"menar":10063,"levnad":10064,"##endørs":10065,"lewis":10066,"salde":10067,"##sdag":10068,"kanadens":10069,"##sgatan":10070,"##ønt":10071,"varierar":10072,"98":10073,"##eti":10074,"##parti":10075,"emer":10076,"kejsar":10077,"songar":10078,"##rul":10079,"indust":10080,"utslatt":10081,"##ogae":10082,"##lak":10083,"anvants":10084,"mob":10085,"##icornis":10086,"##ieg":10087,"key":10088,"##fabrik":10089,"##fallet":10090,"bestemt":10091,"##baltet":10092,"ff":10093,"magasin":10094,"##iflora":10095,"aukt":10096,"##arez":10097,"##ytter":10098,"timmar":10099,"##angare":10100,"vokal":10101,"##fast":10102,"militara":10103,"##enne":10104,"cont":10105,"atten":10106,"montenegro":10107,"ansatte":10108,"underfamilien":10109,"internet":10110,"jamtland":10111,"allvar":10112,"bulg":10113,"skapades":10114,"carolina":10115,"92":10116,"kod":10117,"##tek":10118,"##ekan":10119,"##ence":10120,"call":10121,"##quist":10122,"nick":10123,"##øder":10124,"studie":10125,"mastare":10126,"fangelse":10127,"bezirk":10128,"spillet":10129,"banan":10130,"##nd":10131,"##omrader":10132,"reakt":10133,"branden":10134,"vib":10135,"tver":10136,"##bajd":10137,"kristna":10138,"##loc":10139,"##etus":10140,"##ryd":10141,"lop":10142,"jerusalem":10143,"##medalje":10144,"fat":10145,"desig":10146,"kated":10147,"##ukk":10148,"##hatt":10149,"krim":10150,"##ving":10151,"##atorium":10152,"stasjonen":10153,"##alan":10154,"ekstra":10155,"mottag":10156,"##ophilus":10157,"urval":10158,"academ":10159,"linjer":10160,"##osi":10161,"tyr":10162,"##ungeb":10163,"##uft":10164,"hals":10165,"dvs":10166,"##dra":10167,"##11":10168,"jiang":10169,"charlott":10170,"##dyn":10171,"republikken":10172,"dublin":10173,"tappeh":10174,"territori":10175,"overgick":10176,"væ":10177,"avtal":10178,"vegen":10179,"valdigt":10180,"wu":10181,"diver":10182,"deltagare":10183,"##via":10184,"##smuse":10185,"bure":10186,"oversattning":10187,"pir":10188,"pac":10189,"ordfører":10190,"omtalt":10191,"spelaren":10192,"jamfor":10193,"##shoppor":10194,"97":10195,"scenen":10196,"day":10197,"hjer":10198,"fair":10199,"##kol":10200,"aktivitet":10201,"davis":10202,"bys":10203,"styret":10204,"road":10205,"##losa":10206,"speciellt":10207,"##yeong":10208,"avdeling":10209,"transporter":10210,"##jus":10211,"##ellan":10212,"dvd":10213,"ombord":10214,"hamil":10215,"publicerades":10216,"arida":10217,"##riken":10218,"muller":10219,"stabil":10220,"liver":10221,"jør":10222,"##mane":10223,"##barn":10224,"motsvarande":10225,"cec":10226,"reserve":10227,"amazon":10228,"##sbruk":10229,"aterfinns":10230,"agare":10231,"zam":10232,"marc":10233,"iris":10234,"sluttet":10235,"##aa":10236,"forlang":10237,"aktenskap":10238,"trebukker":10239,"avis":10240,"sovjetiske":10241,"service":10242,"ledelse":10243,"gjelder":10244,"##bror":10245,"perioder":10246,"bolig":10247,"representerad":10248,"##arl":10249,"kamer":10250,"telemark":10251,"forsalj":10252,"valle":10253,"rig":10254,"##yin":10255,"aland":10256,"ledande":10257,"besø":10258,"##jekter":10259,"##icip":10260,"kardinal":10261,"forskare":10262,"stemmer":10263,"undantag":10264,"olje":10265,"christop":10266,"##atak":10267,"preget":10268,"##ikon":10269,"berøm":10270,"##atser":10271,"quad":10272,"barndom":10273,"radd":10274,"ahl":10275,"gly":10276,"sult":10277,"##ktioner":10278,"##ystemet":10279,"forbj":10280,"vanlige":10281,"misjon":10282,"problemer":10283,"##vall":10284,"overra":10285,"sli":10286,"buddh":10287,"musiken":10288,"vær":10289,"##arder":10290,"kaptein":10291,"dalen":10292,"løy":10293,"##spill":10294,"##leh":10295,"publicerade":10296,"representerade":10297,"provins":10298,"tres":10299,"tillat":10300,"##ogel":10301,"opplev":10302,"georgia":10303,"tøn":10304,"harstam":10305,"bestemte":10306,"intervju":10307,"renover":10308,"synd":10309,"##ckar":10310,"##fartyg":10311,"upphov":10312,"##alli":10313,"ender":10314,"himmel":10315,"##kysten":10316,"##jing":10317,"saknar":10318,"sarbar":10319,"heilt":10320,"tokyo":10321,"thailand":10322,"tir":10323,"gett":10324,"##anni":10325,"sikt":10326,"sher":10327,"cens":10328,"##iserad":10329,"##eger":10330,"rattigheter":10331,"##nevnte":10332,"musikken":10333,"kastilien":10334,"xanth":10335,"##ygger":10336,"ub":10337,"##sin":10338,"smitt":10339,"ansvaret":10340,"##estad":10341,"tysklands":10342,"ranun":10343,"##ission":10344,"utnytt":10345,"dekker":10346,"##landske":10347,"gjeve":10348,"internationellt":10349,"sannol":10350,"renner":10351,"##enfor":10352,"##estan":10353,"genet":10354,"gilbert":10355,"##holde":10356,"teatern":10357,"stick":10358,"affar":10359,"detaljer":10360,"antennene":10361,"hier":10362,"##yne":10363,"1814":10364,"##fik":10365,"diskuter":10366,"sociala":10367,"##15":10368,"##filmen":10369,"narings":10370,"nominert":10371,"##icer":10372,"kjær":10373,"broder":10374,"sax":10375,"islands":10376,"##tering":10377,"bereg":10378,"93":10379,"mine":10380,"##rettet":10381,"brat":10382,"landkreis":10383,"omradene":10384,"michel":10385,"forsvaret":10386,"##meter":10387,"cher":10388,"versjonen":10389,"dater":10390,"##made":10391,"domstol":10392,"praks":10393,"kjende":10394,"demon":10395,"cacho":10396,"##ikkel":10397,"pach":10398,"##inis":10399,"planen":10400,"##idus":10401,"##olag":10402,"##ssons":10403,"heil":10404,"palm":10405,"##ych":10406,"##assa":10407,"##kultur":10408,"hogst":10409,"gad":10410,"##rap":10411,"honan":10412,"##eborg":10413,"kjell":10414,"lof":10415,"##ocera":10416,"siah":10417,"bayern":10418,"bøl":10419,"elect":10420,"støttet":10421,"##shand":10422,"##lander":10423,"elfenben":10424,"baserat":10425,"private":10426,"##elm":10427,"##bottens":10428,"##slagen":10429,"##unga":10430,"##jande":10431,"##givare":10432,"beror":10433,"ces":10434,"orienter":10435,"undervisning":10436,"avslo":10437,"orth":10438,"tradisjonelle":10439,"stadsdel":10440,"brother":10441,"wild":10442,"reformer":10443,"klimatforhallandena":10444,"upplagan":10445,"gum":10446,"##aust":10447,"klubbens":10448,"søra":10449,"avskaff":10450,"sankmarker":10451,"møter":10452,"utgrav":10453,"##ifera":10454,"##ikar":10455,"kommunerna":10456,"lignende":10457,"samfunnet":10458,"dokumentar":10459,"sebast":10460,"##atør":10461,"##økene":10462,"church":10463,"sprang":10464,"egentlig":10465,"##vare":10466,"##jam":10467,"paven":10468,"olj":10469,"honduras":10470,"hamilton":10471,"fremste":10472,"debatt":10473,"innført":10474,"his":10475,"parc":10476,"guyana":10477,"etiopien":10478,"vasteras":10479,"maz":10480,"##asitet":10481,"partier":10482,"##arkite":10483,"stycken":10484,"texten":10485,"##agh":10486,"fox":10487,"amster":10488,"monument":10489,"kurd":10490,"##bruket":10491,"annon":10492,"##ireg":10493,"fadern":10494,"##kin":10495,"intens":10496,"##smakten":10497,"forbi":10498,"##filmer":10499,"amsterdam":10500,"forekomm":10501,"association":10502,"##utan":10503,"schiz":10504,"##byggnaden":10505,"##akes":10506,"##viste":10507,"##hjem":10508,"xi":10509,"##pur":10510,"genomfordes":10511,"foremal":10512,"agder":10513,"94":10514,"##iano":10515,"##wick":10516,"piano":10517,"##edy":10518,"##asia":10519,"##nt":10520,"virginia":10521,"hammer":10522,"systematik":10523,"kjø":10524,"puerto":10525,"##tz":10526,"mener":10527,"##kanten":10528,"##medlem":10529,"representerer":10530,"1847":10531,"huvudbaltet":10532,"handlingen":10533,"petersburg":10534,"anledning":10535,"hk":10536,"##vari":10537,"flockblommig":10538,"##atret":10539,"care":10540,"manu":10541,"metoder":10542,"varldsmaster":10543,"bagdad":10544,"starka":10545,"##stj":10546,"dum":10547,"##ough":10548,"##oua":10549,"arkitekten":10550,"rok":10551,"synes":10552,"japanske":10553,"oued":10554,"##ryn":10555,"arkiv":10556,"kilder":10557,"scar":10558,"##ki":10559,"##ield":10560,"##shuset":10561,"arsak":10562,"##opel":10563,"##icia":10564,"vrh":10565,"bedri":10566,"flate":10567,"representanter":10568,"##uning":10569,"officer":10570,"funnits":10571,"produ":10572,"anser":10573,"nærheten":10574,"##laggning":10575,"fortsatta":10576,"observer":10577,"##alpa":10578,"projektet":10579,"khorasan":10580,"introdus":10581,"utok":10582,"angrepet":10583,"stipend":10584,"1838":10585,"main":10586,"howard":10587,"##zy":10588,"banen":10589,"bjork":10590,"plag":10591,"##wich":10592,"say":10593,"##høy":10594,"##skad":10595,"oppdaga":10596,"tronen":10597,"anstallda":10598,"ow":10599,"##orda":10600,"motte":10601,"1846":10602,"oppgav":10603,"##leks":10604,"jin":10605,"vakt":10606,"##hoven":10607,"levande":10608,"prosjektet":10609,"referenser":10610,"dich":10611,"tann":10612,"##anta":10613,"##valget":10614,"gala":10615,"liter":10616,"##vania":10617,"jav":10618,"##idd":10619,"osterbotten":10620,"##ublikken":10621,"centre":10622,"##nia":10623,"##aspis":10624,"guer":10625,"absol":10626,"##produkt":10627,"noksa":10628,"rapids":10629,"##fred":10630,"mening":10631,"uttryck":10632,"##ruz":10633,"##løpet":10634,"##ttes":10635,"korall":10636,"glad":10637,"gregor":10638,"##eby":10639,"arbetat":10640,"##ction":10641,"liverpool":10642,"##apar":10643,"tala":10644,"bøn":10645,"tranare":10646,"sja":10647,"##right":10648,"tob":10649,"joe":10650,"veget":10651,"forestall":10652,"##uro":10653,"##shan":10654,"##wang":10655,"##inidae":10656,"tegnet":10657,"fødd":10658,"kombiner":10659,"##ogloss":10660,"melbourne":10661,"buttu":10662,"røy":10663,"plast":10664,"##faglar":10665,"antas":10666,"aar":10667,"##hein":10668,"jurist":10669,"##edalen":10670,"torg":10671,"fløy":10672,"##eve":10673,"allmant":10674,"order":10675,"##elberg":10676,"##kelser":10677,"bonn":10678,"drive":10679,"cachoeira":10680,"##forfattare":10681,"varmland":10682,"narmare":10683,"##mers":10684,"produsent":10685,"schmid":10686,"prefektur":10687,"mira":10688,"strav":10689,"fakult":10690,"skarab":10691,"##jinga":10692,"##stilt":10693,"##urser":10694,"høye":10695,"##cens":10696,"teknik":10697,"##yrus":10698,"##shavet":10699,"utgavs":10700,"stru":10701,"glav":10702,"championship":10703,"##chewan":10704,"overført":10705,"alan":10706,"avgjør":10707,"damer":10708,"##endron":10709,"##alisert":10710,"##leve":10711,"##oven":10712,"kinas":10713,"##svalet":10714,"sard":10715,"##uge":10716,"##enda":10717,"cay":10718,"##maktige":10719,"##hallen":10720,"reservatet":10721,"raf":10722,"uker":10723,"##wall":10724,"way":10725,"##iten":10726,"benam":10727,"slav":10728,"fing":10729,"svav":10730,"hastighet":10731,"stanley":10732,"sydaf":10733,"ende":10734,"##ovac":10735,"brunn":10736,"##oft":10737,"rica":10738,"saskat":10739,"##cu":10740,"infordes":10741,"aik":10742,"##malm":10743,"##ique":10744,"##mater":10745,"lokaler":10746,"##idion":10747,"koppar":10748,"civ":10749,"komment":10750,"ostantarktis":10751,"##jene":10752,"kris":10753,"bortsett":10754,"listen":10755,"oppd":10756,"øyene":10757,"ordinarie":10758,"vack":10759,"overg":10760,"##vision":10761,"##fød":10762,"brid":10763,"##ogaster":10764,"##schef":10765,"##brand":10766,"1842":10767,"saskatchewan":10768,"mans":10769,"djib":10770,"##klart":10771,"sprint":10772,"rolf":10773,"sammanlagt":10774,"tjenest":10775,"##forbind":10776,"##uy":10777,"oversett":10778,"tackt":10779,"##baijan":10780,"bens":10781,"mix":10782,"zh":10783,"##oman":10784,"##havare":10785,"oskar":10786,"##sledamot":10787,"moren":10788,"dick":10789,"partik":10790,"begynner":10791,"##liggende":10792,"anom":10793,"trafikk":10794,"night":10795,"stallning":10796,"cell":10797,"##ukas":10798,"marx":10799,"phyt":10800,"##zj":10801,"cin":10802,"##amal":10803,"##eks":10804,"##itus":10805,"gyll":10806,"utforde":10807,"##spor":10808,"##ient":10809,"fotballspelar":10810,"inspirert":10811,"##valet":10812,"##øret":10813,"##formet":10814,"kvalitet":10815,"douglas":10816,"##abil":10817,"mynt":10818,"utifran":10819,"##spektiv":10820,"tegel":10821,"inde":10822,"##14":10823,"cerat":10824,"normand":10825,"##bot":10826,"##vinn":10827,"##asje":10828,"elizab":10829,"danner":10830,"fig":10831,"##oo":10832,"##usjonen":10833,"##empet":10834,"økonomi":10835,"telefon":10836,"trip":10837,"uru":10838,"##dens":10839,"##arbeidet":10840,"aktivt":10841,"tiar":10842,"regissert":10843,"colonia":10844,"internasjonalt":10845,"inbord":10846,"##ømme":10847,"rese":10848,"##haf":10849,"149":10850,"##partement":10851,"viol":10852,"trykk":10853,"##lagen":10854,"taiwan":10855,"##rare":10856,"gula":10857,"euc":10858,"##stens":10859,"rib":10860,"kongens":10861,"djibout":10862,"medeltiden":10863,"srp":10864,"forsoker":10865,"politiskt":10866,"pedro":10867,"##høg":10868,"amnen":10869,"tatort":10870,"aterigen":10871,"hugo":10872,"belgia":10873,"gods":10874,"mojlighet":10875,"mess":10876,"rust":10877,"kraftige":10878,"stiftelsen":10879,"pahar":10880,"clark":10881,"leop":10882,"vie":10883,"##sjuk":10884,"huvudort":10885,"##amat":10886,"partiets":10887,"stone":10888,"hollywood":10889,"1844":10890,"brian":10891,"katolska":10892,"##ungebin":10893,"##ellidae":10894,"beho":10895,"apost":10896,"inleddes":10897,"hakon":10898,"estero":10899,"pha":10900,"##lers":10901,"leda":10902,"signer":10903,"win":10904,"hoj":10905,"1845":10906,"turnering":10907,"##skaps":10908,"jordan":10909,"kollektiv":10910,"cli":10911,"strandlinjen":10912,"##skilt":10913,"favor":10914,"##slet":10915,"tidsskrift":10916,"hurtig":10917,"gjennomsnitt":10918,"kyrkoh":10919,"konger":10920,"reste":10921,"ink":10922,"spra":10923,"berget":10924,"østlige":10925,"##emar":10926,"doda":10927,"##inata":10928,"##entlig":10929,"storlek":10930,"##gras":10931,"##biller":10932,"##ittel":10933,"snø":10934,"##ephala":10935,"liknar":10936,"vd":10937,"frederick":10938,"korsblomm":10939,"stoff":10940,"firma":10941,"teolog":10942,"offentliga":10943,"##omia":10944,"diagn":10945,"male":10946,"politischer":10947,"committe":10948,"soph":10949,"##otis":10950,"grun":10951,"blind":10952,"manager":10953,"utvecklingen":10954,"##perm":10955,"administrativa":10956,"reis":10957,"elizabeth":10958,"##ople":10959,"komponist":10960,"##jut":10961,"##arth":10962,"romaner":10963,"##geren":10964,"kortare":10965,"gradvis":10966,"society":10967,"urban":10968,"##handel":10969,"skatte":10970,"reykj":10971,"nordaust":10972,"##rons":10973,"##fulla":10974,"agua":10975,"##satta":10976,"helik":10977,"lansert":10978,"konsul":10979,"hamnade":10980,"##shistor":10981,"steve":10982,"state":10983,"exister":10984,"pitt":10985,"likt":10986,"##ining":10987,"##platser":10988,"anord":10989,"##deb":10990,"bakkro":10991,"##sex":10992,"sade":10993,"##meb":10994,"##vol":10995,"stilte":10996,"kult":10997,"##onius":10998,"##fur":10999,"rena":11000,"republika":11001,"##itud":11002,"lakes":11003,"##etning":11004,"festivalen":11005,"##itel":11006,"svampdjursart":11007,"foreb":11008,"moral":11009,"syss":11010,"definier":11011,"bbc":11012,"bø":11013,"behover":11014,"vanner":11015,"##sforening":11016,"##skusten":11017,"##ifol":11018,"kamar":11019,"institutt":11020,"bredt":11021,"##svagen":11022,"anderson":11023,"##ан":11024,"oxford":11025,"regim":11026,"betydligt":11027,"shar":11028,"##herre":11029,"klost":11030,"allen":11031,"oppnade":11032,"crist":11033,"curt":11034,"ridder":11035,"trodde":11036,"##syk":11037,"##ationerna":11038,"##styre":11039,"avslutade":11040,"football":11041,"olsen":11042,"berattar":11043,"anerkjen":11044,"ps":11045,"##ls":11046,"uppror":11047,"expedition":11048,"##urneringen":11049,"##valt":11050,"farge":11051,"fraga":11052,"beng":11053,"cet":11054,"sammenlig":11055,"tod":11056,"motsetning":11057,"slogs":11058,"##vekt":11059,"beskrivning":11060,"samla":11061,"inngar":11062,"objekt":11063,"miljon":11064,"humor":11065,"##orpha":11066,"##resp":11067,"##sjonen":11068,"committee":11069,"lata":11070,"stu":11071,"laste":11072,"##ulas":11073,"##ratten":11074,"verda":11075,"ey":11076,"1839":11077,"befolkad":11078,"hjemme":11079,"reykjavik":11080,"spre":11081,"##ianske":11082,"##schen":11083,"colombo":11084,"regional":11085,"mytologi":11086,"##ourt":11087,"oftest":11088,"bosatte":11089,"personen":11090,"belgien":11091,"##irus":11092,"municip":11093,"romerska":11094,"avholdt":11095,"falk":11096,"avhengig":11097,"##agan":11098,"eleg":11099,"vider":11100,"aktiva":11101,"bock":11102,"mika":11103,"eksper":11104,"##bitare":11105,"##skottet":11106,"##stalldes":11107,"ceram":11108,"riacho":11109,"srpska":11110,"djibouti":11111,"uppt":11112,"omnamn":11113,"##icolor":11114,"ødel":11115,"forfatteren":11116,"ess":11117,"reist":11118,"halm":11119,"##giver":11120,"betong":11121,"utvecklade":11122,"##wal":11123,"##anum":11124,"sønnen":11125,"tredjeplass":11126,"##skontrakt":11127,"nederlandske":11128,"kyrkje":11129,"installert":11130,"uavhengig":11131,"okkup":11132,"##13":11133,"undersø":11134,"bidrog":11135,"##aba":11136,"zur":11137,"unionen":11138,"##akon":11139,"inneholl":11140,"hovedstad":11141,"sjukhus":11142,"utov":11143,"veck":11144,"labor":11145,"ordenen":11146,"##olph":11147,"fiskar":11148,"klara":11149,"##any":11150,"tenu":11151,"ekt":11152,"internationell":11153,"intresser":11154,"beet":11155,"dash":11156,"##oser":11157,"etterful":11158,"dicran":11159,"dest":11160,"bulb":11161,"kontrover":11162,"kid":11163,"tasman":11164,"ranger":11165,"betraktas":11166,"##rupper":11167,"tilknytning":11168,"innt":11169,"buset":11170,"pinyin":11171,"##iseras":11172,"stjerne":11173,"abe":11174,"##hara":11175,"##ipe":11176,"saf":11177,"omkom":11178,"datab":11179,"##vatten":11180,"##ische":11181,"anstalld":11182,"kad":11183,"1837":11184,"epid":11185,"##ularia":11186,"##oer":11187,"##ordenen":11188,"posten":11189,"dna":11190,"##breen":11191,"##furt":11192,"##entes":11193,"##skin":11194,"radet":11195,"tidlige":11196,"kjøpt":11197,"nødvendig":11198,"volley":11199,"klin":11200,"series":11201,"breuning":11202,"tryck":11203,"wel":11204,"##vor":11205,"halsing":11206,"vladimir":11207,"##ocke":11208,"yttre":11209,"europeisk":11210,"##jun":11211,"now":11212,"skon":11213,"ordning":11214,"teoret":11215,"##ifte":11216,"imot":11217,"radik":11218,"preussen":11219,"boston":11220,"##ksjonen":11221,"religiøse":11222,"eug":11223,"holland":11224,"spørsmal":11225,"##sakademien":11226,"##ophaga":11227,"triv":11228,"fria":11229,"lung":11230,"##øyer":11231,"head":11232,"cant":11233,"##char":11234,"alta":11235,"##ctor":11236,"linkoping":11237,"##fagel":11238,"formod":11239,"##ikern":11240,"sidor":11241,"kulturm":11242,"daglig":11243,"besatt":11244,"##nsyn":11245,"cass":11246,"colorado":11247,"sosiale":11248,"øverste":11249,"##aville":11250,"forholdsvis":11251,"##ylind":11252,"ayn":11253,"omfattning":11254,"qal":11255,"oka":11256,"##draget":11257,"namnas":11258,"##ego":11259,"kel":11260,"avhandling":11261,"##rere":11262,"styrkene":11263,"scoret":11264,"##essor":11265,"shang":11266,"opprinnelse":11267,"wur":11268,"kef":11269,"make":11270,"##tom":11271,"ligan":11272,"ambassad":11273,"kone":11274,"sjette":11275,"nyheter":11276,"luis":11277,"##ningss":11278,"fet":11279,"fikt":11280,"aring":11281,"##stadt":11282,"##skilda":11283,"synner":11284,"christopher":11285,"##anthes":11286,"##rute":11287,"##ione":11288,"##qi":11289,"rovflugor":11290,"beford":11291,"vinne":11292,"##bran":11293,"tverr":11294,"programmer":11295,"abraham":11296,"dobbelt":11297,"foster":11298,"tin":11299,"trig":11300,"##liste":11301,"intel":11302,"stjarna":11303,"##polit":11304,"produksjonen":11305,"tong":11306,"ingenjor":11307,"digital":11308,"soner":11309,"næring":11310,"##reng":11311,"engag":11312,"studera":11313,"pend":11314,"rott":11315,"sende":11316,"sjeld":11317,"##uka":11318,"montreal":11319,"beck":11320,"bach":11321,"##valdes":11322,"ifk":11323,"brazz":11324,"bulgarien":11325,"bott":11326,"##osphaer":11327,"sikre":11328,"##edømmet":11329,"##lon":11330,"wag":11331,"langrenn":11332,"mom":11333,"skan":11334,"grader":11335,"##standen":11336,"inslag":11337,"enhjartbladig":11338,"middelsstore":11339,"faste":11340,"pag":11341,"leonard":11342,"##opol":11343,"##vs":11344,"##ygge":11345,"##omyza":11346,"frist":11347,"##kat":11348,"##ologien":11349,"praksis":11350,"regioner":11351,"fund":11352,"##cta":11353,"enter":11354,"eksemplar":11355,"verne":11356,"mull":11357,"korta":11358,"##jørn":11359,"##amb":11360,"kronp":11361,"tilfeller":11362,"kran":11363,"##ous":11364,"##aric":11365,"pedagog":11366,"trener":11367,"tizi":11368,"skapte":11369,"omvand":11370,"##amnet":11371,"regemente":11372,"##vans":11373,"term":11374,"varlds":11375,"##hjul":11376,"cort":11377,"bibel":11378,"##lamn":11379,"skogen":11380,"cross":11381,"beatles":11382,"tilsk":11383,"##avar":11384,"upplost":11385,"##rorelsen":11386,"##fiske":11387,"vastergotland":11388,"##ocephalus":11389,"resultater":11390,"folketell":11391,"##rill":11392,"moham":11393,"##sforbund":11394,"ich":11395,"oav":11396,"##inet":11397,"##sels":11398,"##enia":11399,"trakt":11400,"##oneura":11401,"varierer":11402,"##ube":11403,"jersey":11404,"fjernsyn":11405,"wars":11406,"lagger":11407,"besto":11408,"##delige":11409,"mike":11410,"##irekt":11411,"engasj":11412,"namngje":11413,"##rana":11414,"##sbru":11415,"guds":11416,"commun":11417,"ric":11418,"##ioc":11419,"drom":11420,"jatte":11421,"##edo":11422,"damm":11423,"##ingom":11424,"##istans":11425,"heid":11426,"##ahan":11427,"skara":11428,"##elidae":11429,"##skamp":11430,"rotter":11431,"alberta":11432,"schle":11433,"operasjon":11434,"##kommer":11435,"inkluderer":11436,"gitarr":11437,"##ftea":11438,"##23":11439,"eriksson":11440,"hendelser":11441,"visst":11442,"brot":11443,"fartyget":11444,"avsnittet":11445,"introducer":11446,"stilen":11447,"##nens":11448,"mant":11449,"##ksjoner":11450,"##larare":11451,"##iction":11452,"glavica":11453,"volk":11454,"##alten":11455,"gransar":11456,"kvalific":11457,"avbild":11458,"##ologin":11459,"tul":11460,"virksomhet":11461,"##sekreterare":11462,"hyr":11463,"obe":11464,"sinn":11465,"benyttes":11466,"bronsemedal":11467,"allsvenskan":11468,"skyl":11469,"administrativt":11470,"wi":11471,"solgte":11472,"trupper":11473,"frans":11474,"##rukket":11475,"bruce":11476,"valer":11477,"østerrik":11478,"bohus":11479,"ekteskap":11480,"offiser":11481,"##urope":11482,"anfall":11483,"morne":11484,"varefter":11485,"brazzaville":11486,"server":11487,"koloni":11488,"acanth":11489,"vannet":11490,"sikkerhet":11491,"veldig":11492,"##mennene":11493,"gymnast":11494,"filippinerna":11495,"satelli":11496,"##hogskolan":11497,"##sekretær":11498,"arbeide":11499,"mørke":11500,"bryst":11501,"signal":11502,"paulo":11503,"##bun":11504,"##ienter":11505,"molek":11506,"grense":11507,"hovudsak":11508,"##dare":11509,"eb":11510,"##dene":11511,"##edag":11512,"##lere":11513,"that":11514,"base":11515,"ryggen":11516,"laurent":11517,"yor":11518,"polyp":11519,"belon":11520,"vem":11521,"##hammer":11522,"oct":11523,"attack":11524,"seil":11525,"senator":11526,"smaningom":11527,"elli":11528,"leip":11529,"pors":11530,"flyet":11531,"##stasjon":11532,"belaget":11533,"grans":11534,"bygninger":11535,"angri":11536,"windows":11537,"##cla":11538,"##ensson":11539,"oms":11540,"innflytelse":11541,"valt":11542,"drevet":11543,"##irat":11544,"medverkat":11545,"##valgt":11546,"kru":11547,"##rosophila":11548,"offer":11549,"##smedel":11550,"skaff":11551,"##ocha":11552,"##rerade":11553,"prince":11554,"hest":11555,"katarina":11556,"besøk":11557,"ekv":11558,"ekonomi":11559,"cyper":11560,"dyg":11561,"##start":11562,"kampene":11563,"pakistan":11564,"baten":11565,"skala":11566,"##chis":11567,"##lack":11568,"##sped":11569,"systematisk":11570,"gig":11571,"##oar":11572,"##dre":11573,"publisert":11574,"nunatak":11575,"##mande":11576,"uttar":11577,"gest":11578,"lap":11579,"##hm":11580,"turn":11581,"personal":11582,"fange":11583,"tanke":11584,"utgangspunkt":11585,"##skommun":11586,"mobil":11587,"senior":11588,"kerman":11589,"##ssenter":11590,"##arbetare":11591,"fed":11592,"andel":11593,"schles":11594,"##samt":11595,"olsson":11596,"chris":11597,"spets":11598,"nieder":11599,"##idaceae":11600,"graham":11601,"aj":11602,"baptiste":11603,"##jektiv":11604,"##uterade":11605,"pereval":11606,"fantas":11607,"extrem":11608,"##rina":11609,"guang":11610,"deleg":11611,"formal":11612,"fjall":11613,"invester":11614,"tecken":11615,"your":11616,"##ск":11617,"cob":11618,"halften":11619,"##smat":11620,"tvung":11621,"##olus":11622,"oppnades":11623,"otillrackligt":11624,"golden":11625,"katolsk":11626,"glest":11627,"skinn":11628,"revs":11629,"ryt":11630,"##jarne":11631,"handler":11632,"syftar":11633,"mey":11634,"myst":11635,"batter":11636,"avd":11637,"##talje":11638,"utgivet":11639,"jevn":11640,"kriminal":11641,"##mont":11642,"##gers":11643,"##dy":11644,"##omot":11645,"##rakter":11646,"protester":11647,"utdannelse":11648,"dømt":11649,"sche":11650,"pale":11651,"##oun":11652,"ansett":11653,"invader":11654,"asiat":11655,"odd":11656,"##byc":11657,"videregaende":11658,"##stoff":11659,"##istene":11660,"einar":11661,"##tur":11662,"karlek":11663,"##ulf":11664,"bour":11665,"meteor":11666,"##usent":11667,"distan":11668,"##ocarpus":11669,"sop":11670,"utgiven":11671,"kred":11672,"nass":11673,"##iao":11674,"inneheld":11675,"styrelse":11676,"kommunens":11677,"##ross":11678,"##kirke":11679,"grunnla":11680,"##edyr":11681,"pist":11682,"tradisjonelt":11683,"##result":11684,"redaktor":11685,"bevart":11686,"styltflugor":11687,"##gruppe":11688,"kiri":11689,"##worth":11690,"polska":11691,"legend":11692,"brost":11693,"tyrkia":11694,"forran":11695,"elfenbenskusten":11696,"eftertraddes":11697,"middelalderen":11698,"##lend":11699,"fungerar":11700,"grensa":11701,"partil":11702,"##cast":11703,"accep":11704,"litet":11705,"##rong":11706,"troms":11707,"forvand":11708,"##intend":11709,"menade":11710,"premiarminister":11711,"##leik":11712,"sond":11713,"faller":11714,"bath":11715,"giov":11716,"nedlagt":11717,"genombrott":11718,"##onne":11719,"##fton":11720,"fjadermyggor":11721,"##betet":11722,"ideer":11723,"kjer":11724,"partner":11725,"usas":11726,"##aring":11727,"##uensis":11728,"fynd":11729,"revolution":11730,"guad":11731,"tilgjengelig":11732,"tilt":11733,"##hald":11734,"dikter":11735,"##ylan":11736,"##produksjon":11737,"atmin":11738,"valley":11739,"##roblem":11740,"automat":11741,"mt":11742,"##imar":11743,"sjun":11744,"##sblad":11745,"##fr":11746,"invand":11747,"nagonsin":11748,"mineral":11749,"atminstone":11750,"##ivis":11751,"125":11752,"politiet":11753,"##onus":11754,"aksep":11755,"helsingborg":11756,"artiklar":11757,"hass":11758,"søraust":11759,"grashoppor":11760,"##occus":11761,"ekspedisjon":11762,"wen":11763,"##nos":11764,"chel":11765,"vartbitare":11766,"##ningst":11767,"chin":11768,"##serie":11769,"##ukta":11770,"kurs":11771,"##uther":11772,"kristiansand":11773,"framforallt":11774,"##kommande":11775,"beord":11776,"ekspedisjonen":11777,"studerad":11778,"ranunkel":11779,"xen":11780,"##iber":11781,"fullstendig":11782,"alfabet":11783,"goran":11784,"tuber":11785,"##arda":11786,"danna":11787,"##syl":11788,"##cio":11789,"barra":11790,"##enga":11791,"1841":11792,"beina":11793,"##okar":11794,"adri":11795,"##esenter":11796,"opptil":11797,"muham":11798,"##hafaz":11799,"oce":11800,"was":11801,"##kene":11802,"auster":11803,"yu":11804,"##ophylla":11805,"dialekt":11806,"pansar":11807,"pensjon":11808,"##emen":11809,"miguel":11810,"havanna":11811,"europam":11812,"medlemmene":11813,"økt":11814,"brant":11815,"asien":11816,"gordon":11817,"framleis":11818,"##ytan":11819,"##byn":11820,"##isar":11821,"adela":11822,"##espill":11823,"tomm":11824,"tony":11825,"fragan":11826,"tidskriften":11827,"1843":11828,"##oglossum":11829,"protestant":11830,"##amus":11831,"nordamerika":11832,"gifta":11833,"underhall":11834,"bratt":11835,"##forfatter":11836,"handboll":11837,"finan":11838,"##krit":11839,"tiln":11840,"avgor":11841,"nyere":11842,"##kra":11843,"mikro":11844,"minutter":11845,"rask":11846,"katt":11847,"peppar":11848,"##komp":11849,"1820":11850,"nordlig":11851,"##ree":11852,"##rekt":11853,"pupp":11854,"nepal":11855,"rykket":11856,"carlos":11857,"statt":11858,"institutet":11859,"ouadi":11860,"kvarteret":11861,"ulf":11862,"donald":11863,"nelson":11864,"##jt":11865,"##odendron":11866,"strekker":11867,"350":11868,"##kov":11869,"narvarande":11870,"sørover":11871,"bane":11872,"asa":11873,"forde":11874,"##mu":11875,"##86":11876,"##ømmet":11877,"bened":11878,"tipula":11879,"xii":11880,"tonn":11881,"cerambyc":11882,"splitt":11883,"##stallningar":11884,"ødelag":11885,"munt":11886,"##aderna":11887,"louise":11888,"sundsvall":11889,"ophi":11890,"versionen":11891,"##oland":11892,"nordover":11893,"fallet":11894,"##fram":11895,"bureau":11896,"dets":11897,"taung":11898,"edu":11899,"1815":11900,"tillfallen":11901,"##fyl":11902,"##chang":11903,"cover":11904,"power":11905,"unna":11906,"innsats":11907,"##skoldloss":11908,"##kyrkan":11909,"kritikk":11910,"position":11911,"video":11912,"erfar":11913,"legge":11914,"##vapnet":11915,"##mossor":11916,"byene":11917,"romsdal":11918,"ernest":11919,"##ysia":11920,"##skning":11921,"##neum":11922,"##hs":11923,"##dals":11924,"##takt":11925,"ile":11926,"##spartiet":11927,"##eser":11928,"geomet":11929,"begravd":11930,"pyra":11931,"##alism":11932,"arterna":11933,"##hafazat":11934,"nø":11935,"sallan":11936,"kang":11937,"##arens":11938,"narmast":11939,"##yllis":11940,"kolleg":11941,"##sspinnare":11942,"nyg":11943,"##nea":11944,"brøt":11945,"faglar":11946,"lara":11947,"##won":11948,"##okt":11949,"uppdel":11950,"##prisen":11951,"##udi":11952,"bedrift":11953,"andersen":11954,"iron":11955,"##linger":11956,"81":11957,"camer":11958,"hes":11959,"##roduksjon":11960,"broad":11961,"aktiviteter":11962,"klassiska":11963,"##ynch":11964,"tjug":11965,"##stock":11966,"opsjtina":11967,"chamber":11968,"urin":11969,"##ija":11970,"fame":11971,"##osen":11972,"goda":11973,"motiver":11974,"medalj":11975,"belag":11976,"tidning":11977,"uran":11978,"##ordningen":11979,"##kron":11980,"##dahl":11981,"forbered":11982,"haj":11983,"##haus":11984,"fylkesveg":11985,"onth":11986,"metoden":11987,"konver":11988,"khar":11989,"##hort":11990,"cambridge":11991,"tattingar":11992,"##rier":11993,"skulptur":11994,"avisen":11995,"##ithe":11996,"ledende":11997,"utp":11998,"føder":11999,"2021":12000,"natura":12001,"kyrkoher":12002,"traditionella":12003,"plante":12004,"##ioides":12005,"##ches":12006,"bandy":12007,"even":12008,"institute":12009,"stationen":12010,"spillere":12011,"gotland":12012,"carp":12013,"##liknande":12014,"##fir":12015,"grunden":12016,"##sattes":12017,"tillbring":12018,"ping":12019,"miller":12020,"ags":12021,"draa":12022,"sala":12023,"##iende":12024,"tillrackligt":12025,"mario":12026,"maja":12027,"##ingham":12028,"framat":12029,"##pal":12030,"##stag":12031,"intill":12032,"cost":12033,"param":12034,"larsen":12035,"kjelder":12036,"folkerep":12037,"bysant":12038,"externa":12039,"stephen":12040,"##gaver":12041,"nack":12042,"danne":12043,"##ikere":12044,"gjennomført":12045,"nedbør":12046,"rah":12047,"koptes":12048,"serge":12049,"profesjonell":12050,"##lapp":12051,"##odi":12052,"skape":12053,"synlig":12054,"populara":12055,"##skriver":12056,"##anken":12057,"##sme":12058,"blomm":12059,"sorter":12060,"loire":12061,"dolich":12062,"##odia":12063,"##styrelsen":12064,"cten":12065,"mora":12066,"faktisk":12067,"hampson":12068,"nejlik":12069,"skargardshavet":12070,"05":12071,"penger":12072,"nevnt":12073,"##yle":12074,"##skipet":12075,"borr":12076,"norrkoping":12077,"bist":12078,"horde":12079,"##amoter":12080,"sidi":12081,"instru":12082,"refle":12083,"utvikla":12084,"##boken":12085,"bevarade":12086,"veter":12087,"##strakt":12088,"##lings":12089,"##stekn":12090,"##ksh":12091,"##dr":12092,"auguste":12093,"##igi":12094,"##ovit":12095,"fastighet":12096,"margaret":12097,"##kningen":12098,"atervand":12099,"hugh":12100,"##latsen":12101,"nyhet":12102,"iso":12103,"pastorat":12104,"glass":12105,"##inos":12106,"potatis":12107,"##rots":12108,"mohafazat":12109,"uly":12110,"æres":12111,"vinkel":12112,"diverse":12113,"hord":12114,"borde":12115,"##eiret":12116,"##lane":12117,"leb":12118,"sich":12119,"##klare":12120,"gunt":12121,"hul":12122,"##olaget":12123,"lavere":12124,"hid":12125,"passager":12126,"##edra":12127,"##rener":12128,"##etti":12129,"beslutade":12130,"minas":12131,"inborde":12132,"bakter":12133,"sammenlagt":12134,"##kore":12135,"akershus":12136,"nærmere":12137,"##saari":12138,"sentralt":12139,"tydelig":12140,"uppstod":12141,"kunskap":12142,"henholdsvis":12143,"jødiske":12144,"tacker":12145,"landskamper":12146,"##pec":12147,"math":12148,"doktorg":12149,"batal":12150,"framgangar":12151,"edwards":12152,"vatn":12153,"kha":12154,"sattes":12155,"erem":12156,"lp":12157,"havd":12158,"tillhorande":12159,"bebyggelse":12160,"##oris":12161,"antyder":12162,"prosjekt":12163,"visades":12164,"zap":12165,"qing":12166,"spelen":12167,"kvarn":12168,"kulturen":12169,"##lede":12170,"hills":12171,"foll":12172,"##ellia":12173,"massachus":12174,"##usch":12175,"barnen":12176,"benn":12177,"patraffats":12178,"zard":12179,"##beveg":12180,"tillamp":12181,"rogaland":12182,"##ubileum":12183,"##plex":12184,"##ocer":12185,"qa":12186,"morris":12187,"anis":12188,"samarbeidet":12189,"oks":12190,"##uff":12191,"##inella":12192,"ekster":12193,"onthophagus":12194,"massachusetts":12195,"##stig":12196,"invest":12197,"##to":12198,"sorg":12199,"grus":12200,"##itze":12201,"olig":12202,"##bent":12203,"dah":12204,"##meister":12205,"anges":12206,"##fried":12207,"##ako":12208,"jordbruks":12209,"larver":12210,"##mir":12211,"##bli":12212,"##ssjef":12213,"fargen":12214,"syns":12215,"1835":12216,"##motor":12217,"##ionde":12218,"havs":12219,"heart":12220,"kommunhuvudort":12221,"prinsipp":12222,"##entyr":12223,"oleandervaxter":12224,"##ulosa":12225,"##gjør":12226,"##lika":12227,"loj":12228,"oppmer":12229,"oph":12230,"leo":12231,"eau":12232,"odont":12233,"avveck":12234,"##organisation":12235,"sannsynligvis":12236,"amf":12237,"pia":12238,"kalte":12239,"arvid":12240,"##sniva":12241,"framstaende":12242,"##elb":12243,"##unds":12244,"fonster":12245,"queen":12246,"09":12247,"##edda":12248,"vanligaste":12249,"##namnda":12250,"##rekk":12251,"skivbolaget":12252,"delades":12253,"##ovi":12254,"##okker":12255,"##delingen":12256,"hosp":12257,"innte":12258,"avtalen":12259,"##omon":12260,"##konkurransen":12261,"##jah":12262,"##odrom":12263,"herre":12264,"skogar":12265,"frik":12266,"##station":12267,"azer":12268,"tarn":12269,"posit":12270,"danmarks":12271,"##ørende":12272,"1833":12273,"charlotte":12274,"sjøen":12275,"##iza":12276,"teleg":12277,"folkerepublikken":12278,"landhockey":12279,"hentet":12280,"##øpt":12281,"##amar":12282,"kristendom":12283,"utgave":12284,"##manlands":12285,"forholdet":12286,"##repp":12287,"##nummer":12288,"##tten":12289,"##egen":12290,"pennsyl":12291,"agnade":12292,"halvt":12293,"byar":12294,"1834":12295,"ere":12296,"kvinnelige":12297,"put":12298,"##jde":12299,"leipzig":12300,"adelaide":12301,"lepid":12302,"mesterskap":12303,"##fugler":12304,"##elag":12305,"nordkorea":12306,"tornet":12307,"beethoven":12308,"gass":12309,"##arig":12310,"census":12311,"process":12312,"1836":12313,"##uset":12314,"misstan":12315,"skilt":12316,"##rats":12317,"cote":12318,"##gran":12319,"##ex":12320,"##aks":12321,"vokser":12322,"billene":12323,"gw":12324,"qol":12325,"##opogon":12326,"##iserat":12327,"##ksomheten":12328,"svara":12329,"medlemmarna":12330,"polisen":12331,"##yton":12332,"trav":12333,"##shog":12334,"nobelp":12335,"##ocar":12336,"bourg":12337,"domdes":12338,"##mit":12339,"erkebiskop":12340,"meters":12341,"##ssatt":12342,"كوه":12343,"##مه":12344,"oberoende":12345,"nay":12346,"fossil":12347,"##resentant":12348,"marcus":12349,"normandie":12350,"størrelse":12351,"samlade":12352,"innhold":12353,"##ussou":12354,"##onto":12355,"placerade":12356,"konkurs":12357,"##vitenskap":12358,"virkelig":12359,"sigurd":12360,"bidro":12361,"baron":12362,"##hallet":12363,"##varig":12364,"grunnlag":12365,"##stjarn":12366,"utstilling":12367,"coel":12368,"cot":12369,"kommunreformen":12370,"bard":12371,"felix":12372,"##festival":12373,"temperaturen":12374,"##shamn":12375,"pyong":12376,"##lø":12377,"finlandska":12378,"cape":12379,"utsp":12380,"neur":12381,"##vara":12382,"filmat":12383,"##glanssteklar":12384,"##ilj":12385,"navy":12386,"kne":12387,"arsen":12388,"schw":12389,"##alistisk":12390,"litauen":12391,"nordre":12392,"kazak":12393,"tillverkades":12394,"##skans":12395,"##bos":12396,"##qa":12397,"##sende":12398,"##ður":12399,"##atning":12400,"trygg":12401,"hoch":12402,"kunnskap":12403,"grott":12404,"america":12405,"##на":12406,"upplev":12407,"paras":12408,"upplostes":12409,"hotel":12410,"##ourg":12411,"##oks":12412,"##yu":12413,"innspel":12414,"lankar":12415,"upptrad":12416,"lagoa":12417,"##king":12418,"##abi":12419,"lincol":12420,"bernard":12421,"##ktige":12422,"##amm":12423,"eksemp":12424,"##sattningar":12425,"##ebo":12426,"morgen":12427,"starter":12428,"helic":12429,"representert":12430,"maurice":12431,"##statt":12432,"##sslaktet":12433,"stens":12434,"vestfold":12435,"##inar":12436,"listan":12437,"##iculata":12438,"staende":12439,"bh":12440,"##esprak":12441,"forbed":12442,"##kunst":12443,"hellige":12444,"##stri":12445,"karriaren":12446,"offens":12447,"1829":12448,"predik":12449,"siff":12450,"hogskolan":12451,"treng":12452,"dres":12453,"##reich":12454,"enskilda":12455,"grunnet":12456,"nodvand":12457,"folkrakningen":12458,"hull":12459,"holstein":12460,"##alum":12461,"polar":12462,"originalt":12463,"##viet":12464,"karelen":12465,"influ":12466,"buck":12467,"populært":12468,"blomst":12469,"##nadde":12470,"##line":12471,"bete":12472,"mccart":12473,"##smiljo":12474,"##igalpa":12475,"etym":12476,"##skjold":12477,"##eus":12478,"disney":12479,"sekreterare":12480,"truleg":12481,"paføl":12482,"magnitud":12483,"##cal":12484,"cours":12485,"bildas":12486,"alpes":12487,"pus":12488,"smab":12489,"petit":12490,"party":12491,"lucas":12492,"metrop":12493,"operan":12494,"##fli":12495,"##ifa":12496,"bedom":12497,"rorelsen":12498,"nut":12499,"salg":12500,"##vesen":12501,"##bei":12502,"##hera":12503,"programledare":12504,"samtida":12505,"minim":12506,"timer":12507,"giovanni":12508,"utlandet":12509,"##hias":12510,"levu":12511,"##ender":12512,"thel":12513,"freden":12514,"cheng":12515,"progress":12516,"lip":12517,"vive":12518,"podgor":12519,"##rogen":12520,"montana":12521,"##arkitekt":12522,"##ikter":12523,"gjeven":12524,"møre":12525,"fysisk":12526,"##onotus":12527,"ødelagt":12528,"dekket":12529,"kit":12530,"varte":12531,"parap":12532,"kombinert":12533,"tril":12534,"nuuk":12535,"bk":12536,"tull":12537,"cub":12538,"##ospora":12539,"zan":12540,"dil":12541,"bedrev":12542,"bif":12543,"utel":12544,"##handlingen":12545,"220":12546,"##klassen":12547,"vedtatt":12548,"europas":12549,"territoriet":12550,"##plikt":12551,"##house":12552,"erit":12553,"##anke":12554,"tvar":12555,"shi":12556,"busk":12557,"forband":12558,"##ulin":12559,"block":12560,"cong":12561,"##ucigalpa":12562,"femin":12563,"tegucigalpa":12564,"nicola":12565,"##illinger":12566,"arabiske":12567,"##sprakiga":12568,"##ofon":12569,"manniskan":12570,"##fas":12571,"psalm":12572,"marknaden":12573,"oro":12574,"spi":12575,"##vind":12576,"##lakare":12577,"3000":12578,"##plant":12579,"bibli":12580,"##edere":12581,"bekraft":12582,"aktive":12583,"forr":12584,"bodø":12585,"podgorica":12586,"shet":12587,"jorda":12588,"##institut":12589,"anlegg":12590,"sjatte":12591,"debutalbum":12592,"etapp":12593,"marine":12594,"##ер":12595,"addis":12596,"##lasser":12597,"habitat":12598,"rou":12599,"protest":12600,"peking":12601,"framgangsrika":12602,"antallet":12603,"borte":12604,"anpass":12605,"kampan":12606,"gotaland":12607,"stry":12608,"uke":12609,"pension":12610,"##arv":12611,"geolog":12612,"1809":12613,"ryd":12614,"overst":12615,"undersøk":12616,"margareta":12617,"##akadem":12618,"tilhørte":12619,"trafiker":12620,"##icta":12621,"gallmyggor":12622,"times":12623,"rør":12624,"forar":12625,"draft":12626,"begrenset":12627,"##ostoma":12628,"##jøen":12629,"##instrument":12630,"nk":12631,"eryth":12632,"økte":12633,"eftertradde":12634,"1832":12635,"anc":12636,"brygger":12637,"religiosa":12638,"ral":12639,"terreng":12640,"pt":12641,"##inda":12642,"anto":12643,"vaxjo":12644,"luften":12645,"elias":12646,"##illon":12647,"##ialis":12648,"bug":12649,"##enbar":12650,"underlagt":12651,"##istens":12652,"##æl":12653,"christiania":12654,"utenrik":12655,"sistnevnte":12656,"##ovs":12657,"anslutning":12658,"##malar":12659,"hunn":12660,"tømmer":12661,"omg":12662,"keram":12663,"minutt":12664,"tvaa":12665,"kyrkor":12666,"tale":12667,"sebastian":12668,"ombygg":12669,"##uki":12670,"poj":12671,"##ærte":12672,"koordin":12673,"##somraden":12674,"talar":12675,"skapt":12676,"##ieri":12677,"opphavleg":12678,"fordon":12679,"##reen":12680,"konflikten":12681,"illin":12682,"racing":12683,"shel":12684,"deltatt":12685,"##usjoner":12686,"jonsson":12687,"##rera":12688,"bilar":12689,"profil":12690,"storstad":12691,"##varlden":12692,"semifinal":12693,"eksempler":12694,"forsvars":12695,"bidra":12696,"tah":12697,"##raten":12698,"145":12699,"##rypare":12700,"##astro":12701,"demonst":12702,"masse":12703,"helena":12704,"halvparten":12705,"##føres":12706,"stadium":12707,"lyder":12708,"kompan":12709,"fyll":12710,"##jort":12711,"intraff":12712,"operativ":12713,"arrestert":12714,"##amas":12715,"##indust":12716,"hawa":12717,"tilhen":12718,"ønsker":12719,"##norsk":12720,"butler":12721,"##aken":12722,"oreg":12723,"rapport":12724,"tilknyttet":12725,"##okal":12726,"nouv":12727,"andrades":12728,"##befal":12729,"hjelpe":12730,"##agasin":12731,"persson":12732,"karrieren":12733,"##buk":12734,"chaet":12735,"apote":12736,"##cas":12737,"operation":12738,"##oco":12739,"coch":12740,"08":12741,"##folket":12742,"##still":12743,"##ortsvaxter":12744,"lane":12745,"##rema":12746,"tanken":12747,"løper":12748,"##omataceae":12749,"produktionen":12750,"fangen":12751,"overste":12752,"tapt":12753,"##ور":12754,"##fid":12755,"kash":12756,"hastar":12757,"##floden":12758,"##stallande":12759,"kurt":12760,"##smot":12761,"##funn":12762,"atlanta":12763,"strauss":12764,"uvan":12765,"slaver":12766,"uppmarksamhet":12767,"rick":12768,"norman":12769,"naut":12770,"fornlam":12771,"kvadratmeter":12772,"damernas":12773,"born":12774,"micros":12775,"huvudet":12776,"##isterna":12777,"nuevo":12778,"cum":12779,"hamt":12780,"##elege":12781,"##spros":12782,"besegrade":12783,"jungfru":12784,"##orget":12785,"konstnaren":12786,"##essa":12787,"pyongyang":12788,"prist":12789,"parker":12790,"dak":12791,"hundra":12792,"##huvudstaden":12793,"redusert":12794,"kilde":12795,"##yon":12796,"names":12797,"uef":12798,"##she":12799,"pennsylvania":12800,"møn":12801,"phys":12802,"øvrige":12803,"hip":12804,"##slig":12805,"##cea":12806,"jen":12807,"##adet":12808,"yamo":12809,"borja":12810,"##onn":12811,"mulighet":12812,"maleri":12813,"oliver":12814,"koret":12815,"##plet":12816,"underjord":12817,"verkt":12818,"sovjetiska":12819,"illustrat":12820,"besl":12821,"regionhuvudstaden":12822,"dynastiet":12823,"##musikk":12824,"sykehus":12825,"lincoln":12826,"karin":12827,"##aktiv":12828,"masterskapet":12829,"##odont":12830,"abeba":12831,"##burgh":12832,"##ango":12833,"tilbud":12834,"sug":12835,"norther":12836,"bilda":12837,"##etenskap":12838,"##zia":12839,"##zero":12840,"##ев":12841,"viktigt":12842,"skarp":12843,"##ussoukro":12844,"stim":12845,"##ensioner":12846,"yamoussoukro":12847,"##laren":12848,"viktor":12849,"organisert":12850,"teologi":12851,"##ters":12852,"hale":12853,"##pr":12854,"##25":12855,"vokalist":12856,"igang":12857,"##fod":12858,"##status":12859,"helhet":12860,"##day":12861,"ritningar":12862,"##foretag":12863,"tvavingar":12864,"lost":12865,"dev":12866,"homer":12867,"mounta":12868,"vinst":12869,"##astare":12870,"##tran":12871,"avsked":12872,"turkiet":12873,"ake":12874,"kjerne":12875,"##rero":12876,"observatoriet":12877,"overd":12878,"landsbyg":12879,"kw":12880,"##hof":12881,"##gene":12882,"innlem":12883,"klot":12884,"ae":12885,"tanger":12886,"##ionens":12887,"hamar":12888,"einaste":12889,"##ulu":12890,"kommunest":12891,"##løs":12892,"nielsen":12893,"##vatnet":12894,"northern":12895,"##stander":12896,"buff":12897,"akra":12898,"journal":12899,"kommunikasjon":12900,"##oidea":12901,"##urnering":12902,"##frid":12903,"##cou":12904,"parac":12905,"detalj":12906,"kommiss":12907,"bruken":12908,"1818":12909,"bladhorningar":12910,"sallsyn":12911,"heav":12912,"grunnlov":12913,"capit":12914,"lith":12915,"hitta":12916,"folkem":12917,"##smus":12918,"##sbo":12919,"dow":12920,"visse":12921,"##centrum":12922,"letter":12923,"ankom":12924,"##delar":12925,"heldt":12926,"polske":12927,"##onica":12928,"##føringen":12929,"##fjell":12930,"experiment":12931,"sammenhen":12932,"brod":12933,"kristus":12934,"taket":12935,"host":12936,"minska":12937,"##avt":12938,"##organisasjon":12939,"##endomen":12940,"visat":12941,"lh":12942,"oberst":12943,"ci":12944,"arnold":12945,"snarare":12946,"##distrikt":12947,"hant":12948,"only":12949,"frankrikes":12950,"utbildade":12951,"avtale":12952,"##jin":12953,"##rica":12954,"bygda":12955,"barna":12956,"latarna":12957,"##iceps":12958,"lott":12959,"bana":12960,"04":12961,"##imo":12962,"##ighetene":12963,"riddar":12964,"ian":12965,"##steder":12966,"allmanhet":12967,"karp":12968,"byggd":12969,"gos":12970,"broderna":12971,"##blo":12972,"avanc":12973,"laos":12974,"namns":12975,"##head":12976,"##ivan":12977,"figurer":12978,"bekre":12979,"bæ":12980,"##edømme":12981,"##mia":12982,"tjock":12983,"revis":12984,"stemme":12985,"##studier":12986,"##chter":12987,"91":12988,"##اد":12989,"statsrad":12990,"##sfjorden":12991,"jensen":12992,"banks":12993,"##stillingen":12994,"texter":12995,"flick":12996,"ohio":12997,"banglades":12998,"erobret":12999,"##melse":13000,"mikael":13001,"##ekamp":13002,"maned":13003,"##lyn":13004,"fis":13005,"crass":13006,"fritz":13007,"##oler":13008,"loven":13009,"privata":13010,"##elef":13011,"omedel":13012,"fasc":13013,"##ely":13014,"oleandervaxtart":13015,"lisa":13016,"papper":13017,"regelb":13018,"materiale":13019,"patrick":13020,"06":13021,"##ommen":13022,"skiller":13023,"milano":13024,"tingslag":13025,"##tah":13026,"midd":13027,"peg":13028,"skiftet":13029,"cano":13030,"##kot":13031,"##landa":13032,"folkets":13033,"blomflugor":13034,"skotsk":13035,"skadespelaren":13036,"reservoar":13037,"##yte":13038,"##kow":13039,"##strekk":13040,"møl":13041,"vendte":13042,"##kjør":13043,"##ures":13044,"johnny":13045,"walt":13046,"##smod":13047,"##provinsen":13048,"jenn":13049,"boris":13050,"##historia":13051,"more":13052,"torp":13053,"aterkom":13054,"karlsk":13055,"##sjoner":13056,"##illingen":13057,"bredd":13058,"mountains":13059,"vog":13060,"##bergen":13061,"##hes":13062,"##kors":13063,"hooker":13064,"##burn":13065,"forslaget":13066,"foda":13067,"##ashi":13068,"thunder":13069,"sovjetisk":13070,"forsvann":13071,"reder":13072,"tep":13073,"##raget":13074,"##tyskland":13075,"hors":13076,"##asis":13077,"folja":13078,"##ogi":13079,"##ianum":13080,"sammenheng":13081,"##avlingarna":13082,"ilha":13083,"studios":13084,"down":13085,"##resse":13086,"parv":13087,"##ifrons":13088,"flottan":13089,"cari":13090,"##fel":13091,"##ypen":13092,"høgaste":13093,"azerbajd":13094,"##edig":13095,"verker":13096,"minste":13097,"sonder":13098,"##mastaren":13099,"illinois":13100,"orient":13101,"yong":13102,"nektet":13103,"##klin":13104,"indiske":13105,"groddjursart":13106,"##strad":13107,"sparris":13108,"overtog":13109,"brandenburg":13110,"borgen":13111,"rytt":13112,"besokte":13113,"songane":13114,"gyn":13115,"##omys":13116,"overens":13117,"punct":13118,"arligen":13119,"mote":13120,"statliga":13121,"##latser":13122,"hennar":13123,"materialet":13124,"##sfull":13125,"##forord":13126,"##api":13127,"musikkalbum":13128,"planlagt":13129,"##bilden":13130,"assistent":13131,"kammar":13132,"fullstand":13133,"apne":13134,"##ouz":13135,"bilde":13136,"sjost":13137,"##arium":13138,"forlust":13139,"tillhorigheten":13140,"gemensamma":13141,"jøder":13142,"lagga":13143,"gardaneh":13144,"alexand":13145,"atmosf":13146,"repar":13147,"soldat":13148,"tabellen":13149,"vagg":13150,"##itas":13151,"overlevde":13152,"147":13153,"lax":13154,"tettstedet":13155,"nybygg":13156,"research":13157,"##varo":13158,"##feldt":13159,"##skogen":13160,"bryt":13161,"fantes":13162,"bangladesh":13163,"himm":13164,"lakem":13165,"##imp":13166,"innanfor":13167,"registrert":13168,"##ritt":13169,"##fyr":13170,"چش":13171,"praktisk":13172,"antagelig":13173,"fortsette":13174,"rodrig":13175,"liberal":13176,"folkmangden":13177,"##iso":13178,"ekst":13179,"elver":13180,"stillingen":13181,"who":13182,"begrepp":13183,"##olep":13184,"produserte":13185,"leva":13186,"rin":13187,"loch":13188,"stilla":13189,"##sarbeid":13190,"erfaren":13191,"eskil":13192,"pue":13193,"##park":13194,"venner":13195,"samlingen":13196,"lulea":13197,"tropp":13198,"##emin":13199,"vintern":13200,"nyland":13201,"##lj":13202,"meister":13203,"##hon":13204,"spek":13205,"trekke":13206,"##ners":13207,"##uil":13208,"##ffen":13209,"##jarder":13210,"##tu":13211,"sump":13212,"vatmarker":13213,"hebra":13214,"vader":13215,"mani":13216,"gray":13217,"jamfort":13218,"producent":13219,"##osum":13220,"##flode":13221,"egenskap":13222,"oppstod":13223,"reaksjon":13224,"dagh":13225,"regissor":13226,"##iblant":13227,"hovudsakleg":13228,"marshall":13229,"##fjellet":13230,"artsrike":13231,"benj":13232,"overfordes":13233,"rhone":13234,"ekonomisk":13235,"termen":13236,"moritz":13237,"administrer":13238,"quito":13239,"##styret":13240,"1824":13241,"loppet":13242,"##recht":13243,"##ness":13244,"##ahn":13245,"##alismen":13246,"television":13247,"font":13248,"##elset":13249,"fredriks":13250,"sjoar":13251,"roh":13252,"##orte":13253,"miljarder":13254,"jordens":13255,"sammanslag":13256,"rasen":13257,"styrelsen":13258,"four":13259,"##22":13260,"oppretta":13261,"utvikle":13262,"1810":13263,"##otria":13264,"rhin":13265,"##jeneste":13266,"bunt":13267,"hagen":13268,"##okan":13269,"grekisk":13270,"yngste":13271,"kass":13272,"##øne":13273,"##obia":13274,"##slangd":13275,"##lang":13276,"chia":13277,"##linge":13278,"##kjem":13279,"loren":13280,"##skjel":13281,"angola":13282,"wright":13283,"##deren":13284,"alice":13285,"raka":13286,"چشمه":13287,"##utz":13288,"##historie":13289,"gunther":13290,"indiska":13291,"levert":13292,"barb":13293,"awards":13294,"foss":13295,"etc":13296,"claude":13297,"hydra":13298,"utstra":13299,"##ici":13300,"ostergotland":13301,"torelvaxter":13302,"##bard":13303,"utspelar":13304,"##utd":13305,"lagstift":13306,"utveckla":13307,"rorelse":13308,"autonom":13309,"aw":13310,"dirigent":13311,"hex":13312,"sphaer":13313,"##dotter":13314,"foruten":13315,"forord":13316,"##umentet":13317,"myrtenvaxter":13318,"##orium":13319,"##arkar":13320,"emig":13321,"##fulle":13322,"ms":13323,"pig":13324,"svid":13325,"følg":13326,"daværende":13327,"krom":13328,"familjer":13329,"studiet":13330,"staff":13331,"bøkene":13332,"lagun":13333,"##antes":13334,"rif":13335,"##ynchus":13336,"tekster":13337,"munk":13338,"dial":13339,"##aku":13340,"##send":13341,"singlar":13342,"##usi":13343,"landene":13344,"monter":13345,"##bibliote":13346,"##idad":13347,"kravde":13348,"popularitet":13349,"kjennet":13350,"bernhard":13351,"##mig":13352,"urugu":13353,"vekst":13354,"fiction":13355,"delte":13356,"##upe":13357,"rekkje":13358,"representerar":13359,"retten":13360,"unnga":13361,"regerings":13362,"hekk":13363,"roster":13364,"marinen":13365,"##rine":13366,"vardag":13367,"halvgras":13368,"utlandska":13369,"boll":13370,"hordaland":13371,"steng":13372,"trapp":13373,"euro":13374,"##quin":13375,"endringer":13376,"grammat":13377,"rosvaxter":13378,"leopold":13379,"satur":13380,"forlaget":13381,"framstall":13382,"hardt":13383,"##ophorus":13384,"##west":13385,"skanska":13386,"middelalder":13387,"hydro":13388,"dynam":13389,"##ussel":13390,"##igenom":13391,"##immer":13392,"1828":13393,"sivile":13394,"biblioteket":13395,"##selskap":13396,"askad":13397,"tad":13398,"##sexamen":13399,"skjold":13400,"startades":13401,"evol":13402,"venezuela":13403,"non":13404,"##elat":13405,"##foljande":13406,"namligen":13407,"sporter":13408,"studioalbumet":13409,"sarskild":13410,"polyn":13411,"trær":13412,"nevnes":13413,"pafølgende":13414,"hoppspindlar":13415,"##sreg":13416,"deriblant":13417,"1821":13418,"##forma":13419,"hannen":13420,"svalb":13421,"##artist":13422,"##ryss":13423,"07":13424,"cyrt":13425,"landerna":13426,"administrative":13427,"##90":13428,"halls":13429,"tatorten":13430,"gemensamt":13431,"stewart":13432,"corpor":13433,"sparvag":13434,"oriental":13435,"##idis":13436,"##scupen":13437,"lawren":13438,"##hot":13439,"kaw":13440,"akademien":13441,"##flygplan":13442,"vav":13443,"grønn":13444,"nerv":13445,"tomas":13446,"lege":13447,"tydligt":13448,"##sikt":13449,"##arb":13450,"skrivna":13451,"uruguay":13452,"##annen":13453,"dommer":13454,"jup":13455,"##mand":13456,"##ieu":13457,"helikopter":13458,"sivil":13459,"##grav":13460,"totale":13461,"##avlingen":13462,"rain":13463,"masterskap":13464,"##oon":13465,"atlanter":13466,"gale":13467,"##vingar":13468,"##garder":13469,"global":13470,"whit":13471,"millionar":13472,"kontroversi":13473,"antatt":13474,"jules":13475,"manen":13476,"vestre":13477,"##esterskapet":13478,"zhang":13479,"##omo":13480,"cov":13481,"varg":13482,"##varen":13483,"asm":13484,"harstammar":13485,"##say":13486,"##shem":13487,"##ew":13488,"dream":13489,"werner":13490,"148":13491,"kaj":13492,"schwar":13493,"##lakt":13494,"innvand":13495,"braun":13496,"krigsf":13497,"##cess":13498,"##emoni":13499,"ersatte":13500,"##aminer":13501,"kande":13502,"##smalet":13503,"##fordel":13504,"totala":13505,"survey":13506,"lillehammer":13507,"reiser":13508,"abbor":13509,"lasi":13510,"benjamin":13511,"stup":13512,"trang":13513,"frankfurt":13514,"kongres":13515,"billed":13516,"dart":13517,"foregaende":13518,"sjelden":13519,"kontinuer":13520,"yam":13521,"##oniidae":13522,"antwer":13523,"##oce":13524,"##gaard":13525,"holmen":13526,"##orgs":13527,"esper":13528,"fischer":13529,"##ilen":13530,"##utbildning":13531,"perspektiv":13532,"smy":13533,"##itsch":13534,"jonkopings":13535,"eitt":13536,"##iktet":13537,"snor":13538,"gitarrist":13539,"administrasjonssenter":13540,"##ingenjor":13541,"docent":13542,"baden":13543,"##aj":13544,"verdenscupen":13545,"tandspinnare":13546,"##bladiga":13547,"fyrst":13548,"involvert":13549,"kommunalforbundet":13550,"iz":13551,"framtradande":13552,"lady":13553,"##rion":13554,"adrar":13555,"polyg":13556,"slar":13557,"##egarden":13558,"kompani":13559,"##die":13560,"##24":13561,"##lest":13562,"efternamn":13563,"##lich":13564,"light":13565,"##more":13566,"##ikeren":13567,"kusten":13568,"utøvere":13569,"##olla":13570,"##haug":13571,"spesielle":13572,"##ortsvaxtart":13573,"formaga":13574,"fritid":13575,"cephal":13576,"langst":13577,"gerhard":13578,"koal":13579,"harmon":13580,"doro":13581,"fell":13582,"##ligare":13583,"canal":13584,"##iren":13585,"ida":13586,"scene":13587,"##ор":13588,"teorier":13589,"##angar":13590,"skelle":13591,"nah":13592,"##gata":13593,"##smy":13594,"jeff":13595,"##uru":13596,"##sunds":13597,"beromda":13598,"taget":13599,"nordiske":13600,"opplys":13601,"celler":13602,"wy":13603,"##adelphia":13604,"municipal":13605,"patt":13606,"row":13607,"poesi":13608,"1831":13609,"medicine":13610,"hongkong":13611,"cien":13612,"cac":13613,"##kontoret":13614,"##iert":13615,"##ologer":13616,"slappt":13617,"følgje":13618,"gera":13619,"tidens":13620,"garn":13621,"regent":13622,"pals":13623,"1812":13624,"##sti":13625,"##uez":13626,"sanka":13627,"##pus":13628,"##essige":13629,"nash":13630,"vern":13631,"deltar":13632,"kanneteck":13633,"##hagen":13634,"medvet":13635,"genomforde":13636,"underart":13637,"pointe":13638,"karlskrona":13639,"brem":13640,"##alpus":13641,"##dorf":13642,"##utgav":13643,"mitch":13644,"240":13645,"erich":13646,"konig":13647,"kala":13648,"##sre":13649,"utmar":13650,"darwin":13651,"##varn":13652,"hjalmar":13653,"flertall":13654,"konsekv":13655,"##witz":13656,"formelt":13657,"tsjekkoslov":13658,"artikel":13659,"##oge":13660,"210":13661,"glava":13662,"gjev":13663,"##ird":13664,"busker":13665,"anga":13666,"speg":13667,"##linga":13668,"##ikkert":13669,"##ningsvis":13670,"finske":13671,"kalle":13672,"osak":13673,"##zin":13674,"##lock":13675,"prout":13676,"##ses":13677,"##amerikanske":13678,"230":13679,"myrtenvaxtart":13680,"blas":13681,"tsar":13682,"agent":13683,"medicin":13684,"##entris":13685,"##etia":13686,"##urat":13687,"warsza":13688,"anlades":13689,"##uller":13690,"engager":13691,"##skilde":13692,"foretrad":13693,"gris":13694,"hof":13695,"cond":13696,"tis":13697,"##kande":13698,"##vint":13699,"forble":13700,"ult":13701,"anthony":13702,"##cle":13703,"avan":13704,"tankt":13705,"##manuel":13706,"vu":13707,"enc":13708,"punktet":13709,"##jern":13710,"bygning":13711,"##yga":13712,"1825":13713,"sannolikt":13714,"dent":13715,"spil":13716,"orange":13717,"ansvarlig":13718,"nabb":13719,"aleksand":13720,"##has":13721,"pund":13722,"##itaine":13723,"##bete":13724,"huvudorten":13725,"##smenn":13726,"##berga":13727,"##skolor":13728,"forny":13729,"##skinn":13730,"135":13731,"sjunde":13732,"##skam":13733,"kirker":13734,"amazonas":13735,"varvid":13736,"jarnvagen":13737,"orch":13738,"techn":13739,"##moj":13740,"1819":13741,"##dere":13742,"alene":13743,"omfattet":13744,"##tradte":13745,"identifier":13746,"##matt":13747,"trium":13748,"fungerte":13749,"drammen":13750,"##smeister":13751,"##industrin":13752,"skov":13753,"stjarnor":13754,"##omyces":13755,"friluft":13756,"##ич":13757,"konda":13758,"bulgariska":13759,"vancou":13760,"arbeidde":13761,"1816":13762,"##ils":13763,"ic":13764,"##stral":13765,"gratis":13766,"malvavaxter":13767,"146":13768,"##rell":13769,"skotske":13770,"bronsemedalje":13771,"minnesota":13772,"foreldre":13773,"ked":13774,"delene":13775,"vastantarktis":13776,"##ways":13777,"kazakstan":13778,"fatal":13779,"gota":13780,"134":13781,"fk":13782,"##owr":13783,"##knott":13784,"##braken":13785,"hjarn":13786,"verka":13787,"shakes":13788,"##hild":13789,"##rena":13790,"litteraturen":13791,"##gus":13792,"##isjoner":13793,"dylan":13794,"reb":13795,"##stit":13796,"##jaren":13797,"innefatt":13798,"##zburg":13799,"##leiken":13800,"##hammar":13801,"mongoliet":13802,"stannade":13803,"undert":13804,"grona":13805,"robinson":13806,"bois":13807,"organisationer":13808,"augustus":13809,"ariz":13810,"##ingane":13811,"kritisk":13812,"##vannet":13813,"##hausen":13814,"studi":13815,"mojligen":13816,"svidknott":13817,"144":13818,"##oller":13819,"abb":13820,"egendom":13821,"klassiske":13822,"klockan":13823,"##vux":13824,"##rukturen":13825,"trollslandeart":13826,"aventyr":13827,"chung":13828,"##otte":13829,"fullførte":13830,"inkluderar":13831,"##jaure":13832,"##opht":13833,"mossdjursart":13834,"fond":13835,"akta":13836,"avlag":13837,"##umann":13838,"anslot":13839,"##istriktet":13840,"psychotria":13841,"##onien":13842,"kraver":13843,"bjer":13844,"philadelphia":13845,"bm":13846,"effekten":13847,"ansikt":13848,"forandringar":13849,"##fos":13850,"##enz":13851,"beseiret":13852,"svalbard":13853,"kopa":13854,"identitet":13855,"departement":13856,"nys":13857,"##foljare":13858,"inratt":13859,"nis":13860,"lufthavn":13861,"##ciata":13862,"bulbophyllum":13863,"farfar":13864,"##museet":13865,"fjordane":13866,"mata":13867,"sjalvstandighet":13868,"tend":13869,"death":13870,"langtungebin":13871,"resulterade":13872,"vancouver":13873,"##derkopp":13874,"grunnlaget":13875,"##medaljen":13876,"##givning":13877,"##upt":13878,"saknas":13879,"palats":13880,"leiar":13881,"##ال":13882,"kay":13883,"stur":13884,"neut":13885,"shakespe":13886,"kara":13887,"flen":13888,"alpin":13889,"producerades":13890,"mangler":13891,"indelning":13892,"ovanfor":13893,"kompet":13894,"##iyah":13895,"rinner":13896,"halvøya":13897,"bydelen":13898,"torelvaxtart":13899,"##oura":13900,"cho":13901,"oppstar":13902,"allmanheten":13903,"karet":13904,"##eni":13905,"medier":13906,"##ettix":13907,"nyare":13908,"sev":13909,"knud":13910,"birger":13911,"trump":13912,"ronald":13913,"##uti":13914,"raj":13915,"##vention":13916,"##fre":13917,"radhus":13918,"konkurranse":13919,"øyer":13920,"karlsson":13921,"##ileg":13922,"scop":13923,"brag":13924,"##irasjon":13925,"##skepp":13926,"sokte":13927,"daghi":13928,"hymen":13929,"##ores":13930,"##verande":13931,"avdøde":13932,"lawrence":13933,"academy":13934,"##foss":13935,"raud":13936,"halvgra":13937,"paus":13938,"vinterspelen":13939,"1826":13940,"barbara":13941,"overrask":13942,"cym":13943,"##øyane":13944,"umiddel":13945,"##bag":13946,"##rass":13947,"borjat":13948,"volleyball":13949,"hanen":13950,"argumenter":13951,"##nev":13952,"brett":13953,"redig":13954,"bayer":13955,"ukjent":13956,"frances":13957,"##acion":13958,"drap":13959,"forg":13960,"revolutionen":13961,"pict":13962,"##talte":13963,"pampa":13964,"særs":13965,"##skytt":13966,"rolling":13967,"avgjordes":13968,"maksim":13969,"blekinge":13970,"tradde":13971,"smaort":13972,"##leart":13973,"vardera":13974,"styres":13975,"##tok":13976,"insatser":13977,"##slor":13978,"cypern":13979,"hjalpa":13980,"theatre":13981,"##hra":13982,"antwerpen":13983,"meyer":13984,"cook":13985,"slovak":13986,"harj":13987,"ledamoter":13988,"tasmanien":13989,"arsj":13990,"tekniske":13991,"##schild":13992,"kriter":13993,"eduard":13994,"grundlagg":13995,"fabric":13996,"idrettslag":13997,"anstalldes":13998,"##øte":13999,"varer":14000,"halvgrasart":14001,"cyp":14002,"##anlegg":14003,"bestamde":14004,"teik":14005,"##dommer":14006,"io":14007,"libert":14008,"##sspel":14009,"orter":14010,"rival":14011,"##emia":14012,"##rio":14013,"akantusvaxter":14014,"kotal":14015,"exakt":14016,"##lunda":14017,"kommande":14018,"bene":14019,"##smedlem":14020,"verdi":14021,"##omb":14022,"finale":14023,"klasser":14024,"scener":14025,"synnerhet":14026,"høyr":14027,"megas":14028,"tubu":14029,"friidrottare":14030,"tilsyn":14031,"oliv":14032,"ridge":14033,"territorium":14034,"##munt":14035,"##eset":14036,"bronsmed":14037,"##orkester":14038,"##forsamlingen":14039,"puc":14040,"phnum":14041,"bergs":14042,"##atera":14043,"socknens":14044,"astrag":14045,"##icollis":14046,"varvades":14047,"dahr":14048,"potens":14049,"##ders":14050,"gruva":14051,"1827":14052,"143":14053,"sydafrika":14054,"tjenesteg":14055,"eus":14056,"##anmar":14057,"tillag":14058,"##lax":14059,"##saga":14060,"##uin":14061,"##eto":14062,"##ocy":14063,"godkjen":14064,"innehade":14065,"beraknas":14066,"introducerades":14067,"tidvis":14068,"aquitaine":14069,"##opar":14070,"##iew":14071,"fjellkj":14072,"problemet":14073,"paborjades":14074,"##ilum":14075,"##idat":14076,"halsingland":14077,"first":14078,"##niva":14079,"grant":14080,"##atert":14081,"##actylus":14082,"cad":14083,"vecka":14084,"sæ":14085,"wald":14086,"resp":14087,"assy":14088,"##sattningen":14089,"##ар":14090,"halle":14091,"insjo":14092,"amerikan":14093,"bly":14094,"##enberg":14095,"heliga":14096,"##alisme":14097,"aber":14098,"trev":14099,"hjør":14100,"##stalld":14101,"fungerade":14102,"field":14103,"mick":14104,"##ouri":14105,"prøvde":14106,"eugene":14107,"##anas":14108,"soul":14109,"##sas":14110,"##ол":14111,"##sis":14112,"##imen":14113,"signerte":14114,"##ally":14115,"##innes":14116,"platesel":14117,"##fotingar":14118,"pick":14119,"paverka":14120,"mottatt":14121,"traditionellt":14122,"schmidt":14123,"conne":14124,"schlechter":14125,"ded":14126,"lyse":14127,"ponta":14128,"fragorna":14129,"skolor":14130,"osta":14131,"chor":14132,"##umt":14133,"innendørs":14134,"1808":14135,"gill":14136,"##oblast":14137,"propag":14138,"##attslandor":14139,"##spro":14140,"##leden":14141,"adams":14142,"##karriar":14143,"xin":14144,"##iration":14145,"##imenter":14146,"zu":14147,"avgick":14148,"##epar":14149,"resor":14150,"inomhus":14151,"kvalifisering":14152,"framgangsrik":14153,"morgan":14154,"gruv":14155,"helge":14156,"liga":14157,"hero":14158,"magdalen":14159,"##lopare":14160,"svavflugor":14161,"billy":14162,"1823":14163,"prosessen":14164,"avgorande":14165,"kosovo":14166,"##orps":14167,"hogskola":14168,"pok":14169,"##ydda":14170,"##iodes":14171,"##revol":14172,"##usta":14173,"lover":14174,"mg":14175,"##igma":14176,"##undi":14177,"fasta":14178,"nationalpark":14179,"sadant":14180,"##ralen":14181,"##roch":14182,"bergens":14183,"hort":14184,"##zjan":14185,"shin":14186,"##skrivare":14187,"##feltet":14188,"eide":14189,"byggingen":14190,"respekt":14191,"bahia":14192,"griff":14193,"toronto":14194,"historiskt":14195,"akte":14196,"force":14197,"anvend":14198,"trog":14199,"carlo":14200,"pleur":14201,"osmanske":14202,"##lid":14203,"tore":14204,"tillverkade":14205,"aleksander":14206,"dead":14207,"##stro":14208,"gatan":14209,"myanmar":14210,"sølvmedalje":14211,"omgangen":14212,"svensson":14213,"nicholas":14214,"kemi":14215,"arendal":14216,"nederlag":14217,"molde":14218,"gand":14219,"striden":14220,"##ulium":14221,"christina":14222,"mordet":14223,"##bærer":14224,"must":14225,"søndag":14226,"bentham":14227,"fordes":14228,"flaten":14229,"uefa":14230,"avratt":14231,"##mende":14232,"manuskript":14233,"tommy":14234,"##edi":14235,"inred":14236,"dek":14237,"musikvide":14238,"##ktorer":14239,"hvilket":14240,"uh":14241,"antogs":14242,"buch":14243,"hender":14244,"kolla":14245,"##nica":14246,"kamen":14247,"tegn":14248,"drakt":14249,"##storp":14250,"personliga":14251,"konstruktion":14252,"plut":14253,"class":14254,"legger":14255,"inbland":14256,"placeras":14257,"flyr":14258,"##hay":14259,"##ipa":14260,"ordre":14261,"astragalus":14262,"##krets":14263,"syria":14264,"##sakring":14265,"##phy":14266,"##sstyr":14267,"sentralb":14268,"##arena":14269,"format":14270,"verb":14271,"indiker":14272,"nøyt":14273,"##domm":14274,"malningar":14275,"##visa":14276,"studente":14277,"##satsen":14278,"eksterne":14279,"tecknare":14280,"jom":14281,"forvarv":14282,"upptradde":14283,"bagh":14284,"##ilo":14285,"antio":14286,"hyll":14287,"##andare":14288,"kopinghuvudort":14289,"kungens":14290,"##lubb":14291,"rekt":14292,"minist":14293,"invaldes":14294,"verac":14295,"##avs":14296,"book":14297,"papp":14298,"bein":14299,"virket":14300,"kanoner":14301,"halde":14302,"cun":14303,"##melser":14304,"##fjall":14305,"betra":14306,"##svetenskap":14307,"grasvaxtart":14308,"##opez":14309,"byttet":14310,"intelle":14311,"wester":14312,"skytt":14313,"skiva":14314,"##hult":14315,"##odet":14316,"tavlingar":14317,"##lay":14318,"kinsh":14319,"obsc":14320,"robot":14321,"franc":14322,"lagets":14323,"eigen":14324,"etymologi":14325,"jor":14326,"##formede":14327,"tonsatt":14328,"dys":14329,"samisk":14330,"verdskrigen":14331,"medaljen":14332,"overvak":14333,"##ryl":14334,"forenade":14335,"republikk":14336,"scarab":14337,"kirurg":14338,"bend":14339,"fortsatter":14340,"staderna":14341,"cerambycidae":14342,"##skudd":14343,"punkter":14344,"ishockeyspelare":14345,"##staver":14346,"hittills":14347,"game":14348,"opptatt":14349,"##yta":14350,"gentian":14351,"midlertid":14352,"malade":14353,"grann":14354,"##arskontrakt":14355,"broren":14356,"nasjonalpark":14357,"hora":14358,"##rund":14359,"alc":14360,"valja":14361,"sichuan":14362,"##asc":14363,"##jol":14364,"sverd":14365,"ard":14366,"annars":14367,"gallde":14368,"sallskap":14369,"##horax":14370,"tradisjonell":14371,"blatt":14372,"naturliga":14373,"baseb":14374,"forskere":14375,"##ен":14376,"stump":14377,"##ights":14378,"rull":14379,"##asaari":14380,"##ordforande":14381,"##ardi":14382,"##mern":14383,"tv4":14384,"##verkan":14385,"drivs":14386,"opphold":14387,"prøy":14388,"##auer":14389,"serg":14390,"##svik":14391,"flora":14392,"##itert":14393,"##fun":14394,"riktig":14395,"personlige":14396,"##kjer":14397,"still":14398,"harold":14399,"sale":14400,"vagar":14401,"##ithecia":14402,"somme":14403,"##redaktor":14404,"##personer":14405,"##adder":14406,"motorer":14407,"##inton":14408,"##kogel":14409,"1822":14410,"nfl":14411,"##othe":14412,"sosi":14413,"eventyr":14414,"province":14415,"decenn":14416,"127":14417,"kirkes":14418,"luk":14419,"endring":14420,"##skrip":14421,"hackar":14422,"angermanland":14423,"tvunget":14424,"bald":14425,"skam":14426,"##otal":14427,"kapellet":14428,"##athus":14429,"fisker":14430,"panama":14431,"##fc":14432,"##ckta":14433,"deles":14434,"##inum":14435,"deh":14436,"##ilde":14437,"albanien":14438,"##opet":14439,"##kelige":14440,"piet":14441,"endelig":14442,"##gangar":14443,"varden":14444,"##ulum":14445,"stortings":14446,"lyckas":14447,"##punkten":14448,"originale":14449,"akter":14450,"elles":14451,"invas":14452,"lanserades":14453,"##linje":14454,"simp":14455,"hobart":14456,"##virk":14457,"boras":14458,"veracruz":14459,"koch":14460,"søkte":14461,"haiti":14462,"rail":14463,"##نگ":14464,"nouvelle":14465,"##water":14466,"kommunale":14467,"michigan":14468,"latinske":14469,"lennart":14470,"domsag":14471,"rasmus":14472,"gonger":14473,"avslutt":14474,"##gener":14475,"skadet":14476,"moon":14477,"105":14478,"mov":14479,"##ienne":14480,"thur":14481,"##industrien":14482,"svømmer":14483,"eupithecia":14484,"115":14485,"rosvaxtart":14486,"drosophila":14487,"ordens":14488,"jamaica":14489,"corporation":14490,"##ktionen":14491,"##splats":14492,"##essan":14493,"doub":14494,"microp":14495,"gata":14496,"kinshasa":14497,"##stalla":14498,"distrib":14499,"sjakk":14500,"pavirket":14501,"dør":14502,"chan":14503,"gule":14504,"##jov":14505,"bearbet":14506,"smalt":14507,"inbordeskriget":14508,"##smet":14509,"internett":14510,"stjarnbilden":14511,"tillbringade":14512,"##rif":14513,"##opod":14514,"sjøl":14515,"debutalbumet":14516,"bundes":14517,"hanna":14518,"upprep":14519,"uppgar":14520,"graden":14521,"##familjen":14522,"tillverkning":14523,"##organisationen":14524,"konstmuseum":14525,"hjort":14526,"kontrollen":14527,"clo":14528,"drar":14529,"befordrades":14530,"gjeld":14531,"##ulo":14532,"conf":14533,"prat":14534,"gifter":14535,"guvernør":14536,"forvaltnings":14537,"cart":14538,"angust":14539,"fjernet":14540,"jupiter":14541,"heat":14542,"husflugor":14543,"##coides":14544,"gan":14545,"sf":14546,"##steater":14547,"##see":14548,"kejsaren":14549,"kanadensisk":14550,"utman":14551,"##berger":14552,"finnas":14553,"rute":14554,"1790":14555,"cyk":14556,"##ants":14557,"##eback":14558,"##sjø":14559,"rune":14560,"##hou":14561,"atel":14562,"##ifta":14563,"akantusvaxtart":14564,"herbert":14565,"producerade":14566,"##skrit":14567,"stridsv":14568,"nivaer":14569,"formellt":14570,"##halvøya":14571,"linux":14572,"nært":14573,"pum":14574,"lamnat":14575,"##brakenvaxtart":14576,"##pere":14577,"kraftverket":14578,"glans":14579,"##ekonom":14580,"##ojtnant":14581,"##fullt":14582,"##eled":14583,"##arra":14584,"games":14585,"upper":14586,"136":14587,"teknologi":14588,"##ligan":14589,"1813":14590,"##uke":14591,"##forvalt":14592,"nomos":14593,"ress":14594,"halvdel":14595,"128":14596,"visas":14597,"sefid":14598,"malvavaxtart":14599,"læ":14600,"##ielle":14601,"placering":14602,"bala":14603,"##etningen":14604,"##syche":14605,"motorvag":14606,"forandring":14607,"mjuk":14608,"##miral":14609,"##univers":14610,"##radande":14611,"home":14612,"utstyrt":14613,"involver":14614,"erovrade":14615,"##ento":14616,"##øyet":14617,"studere":14618,"trommes":14619,"kungs":14620,"##edt":14621,"varum":14622,"lagar":14623,"karen":14624,"##ruppe":14625,"##alistiska":14626,"kjærlighet":14627,"gors":14628,"svøm":14629,"lengste":14630,"##spillet":14631,"raymond":14632,"flygvapnet":14633,"ragnar":14634,"erklærte":14635,"utvikler":14636,"fredrikstad":14637,"sarskilda":14638,"berømte":14639,"rikets":14640,"place":14641,"anhang":14642,"shir":14643,"etterfulgt":14644,"tipp":14645,"##marken":14646,"lengst":14647,"tallinn":14648,"artikeln":14649,"##neumon":14650,"forum":14651,
[...]
