{"version":"1.0","truncation":null,"padding":null,"added_tokens":[{"id":0,"special":true,"content":"[PAD]","single_word":false,"lstrip":false,"rstrip":false,"normalized":false},{"id":1,"special":true,"content":"[UNK]","single_word":false,"lstrip":false,"rstrip":false,"normalized":false},{"id":2,"special":true,"content":"[CLS]","single_word":false,"lstrip":false,"rstrip":false,"normalized":false},{"id":3,"special":true,"content":"[SEP]","single_word":false,"lstrip":false,"rstrip":false,"normalized":false},{"id":4,"special":true,"content":"[MASK]","single_word":false,"lstrip":false,"rstrip":false,"normalized":false}],"normalizer":{"type":"BertNormalizer","clean_text":true,"handle_chinese_chars":true,"strip_accents":null,"lowercase":true},"pre_tokenizer":{"type":"BertPreTokenizer"},"post_processor":null,"decoder":{"type":"WordPiece","prefix":"##","cleanup":true},"model":{"type":"WordPiece","unk_token":"[UNK]","continuing_subword_prefix":"##","max_input_chars_per_word":100,"vocab":{"[PAD]":0,"[UNK]":1,"[CLS]":2,"[SEP]":3,"[MASK]":4,"!":5,"\"":6,"#":7,"$":8,"%":9,"&":10,"'":11,"(":12,")":13,"*":14,"+":15,",":16,"-":17,".":18,"/":19,"0":20,"1":21,"2":22,"3":23,"4":24,"5":25,"6":26,"7":27,"8":28,"9":29,":":30,";":31,"<":32,"=":33,">":34,"?":35,"@":36,"[":37,"\\":38,"]":39,"^":40,"_":41,"`":42,"a":43,"b":44,"c":45,"d":46,"e":47,"f":48,"g":49,"h":50,"i":51,"j":52,"k":53,"l":54,"m":55,"n":56,"o":57,"p":58,"q":59,"r":60,"s":61,"t":62,"u":63,"v":64,"w":65,"x":66,"y":67,"z":68,"{":69,"|":70,"}":71,"~":72,"¡":73,"¢":74,"£":75,"¤":76,"¥":77,"¦":78,"§":79,"¨":80,"©":81,"ª":82,"«":83,"¬":84,"®":85,"¯":86,"°":87,"±":88,"²":89,"³":90,"´":91,"µ":92,"¶":93,"·":94,"¸":95,"¹":96,"º":97,"»":98,"¼":99,"½":100,"¾":101,"¿":102,"×":103,"ß":104,"æ":105,"ð":106,"÷":107,"ø":108,"þ":109,"đ":110,"ı":111,"ł":112,"œ":113,"ſ":114,"ƒ":115,"ɔ":116,"ə":117,"ɛ":118,"ʹ":119,"ʺ":120,"ʼ":121,"ʿ":122,"ˆ":123,"ˈ":124,"ː":125,"˚":126,"˜":127,"α":128,"β":129,"γ":130,"δ":131,"ε":132,"ζ":133,"η":134,"θ":135,"ι":136,"κ":137,"λ":138,"μ":139,"ν":140,"ξ":141,"ο":142,"π":143,"ρ":144,"ς":145,"σ":146,"τ":147,"υ":148,"φ":149,"χ":150,"ψ":151,"ω":152,"а":153,"б":154,"в":155,"г":156,"д":157,"е":158,"ж":159,"з":160,"и":161,"к":162,"л":163,"м":164,"н":165,"о":166,"п":167,"р":168,"с":169,"т":170,"у":171,"ф":172,"х":173,"ц":174,"ч":175,"ш":176,"щ":177,"ъ":178,"ы":179,"ь":180,"э":181,"ю":182,"я":183,"ђ":184,"є":185,"ѕ":186,"і":187,"ј":188,"ґ":189,"ա":190,"א":191,"ב":192,"ג":193,"ד":194,"ה":195,"ו":196,"ח":197,"ט":198,"י":199,"כ":200,"ל":201,"ם":202,"מ":203,"ן":204,"נ":205,"ס":206,"ע":207,"פ":208,"צ":209,"ק":210,"ר":211,"ש":212,"ת":213,"׳":214,"،":215,"ء":216,"ا":217,"ب":218,"ة":219,"ت":220,"ث":221,"ج":222,"ح":223,"خ":224,"د":225,"ذ":226,"ر":227,"ز":228,"س":229,"ش":230,"ص":231,"ض":232,"ط":233,"ع":234,"غ":235,"ـ":236,"ف":237,"ق":238,"ك":239,"ل":240,"م":241,"ن":242,"ه":243,"و":244,"ى":245,"ي":246,"پ":247,"ک":248,"گ":249,"ی":250,"क":251,"ज":252,"त":253,"द":254,"न":255,"प":256,"म":257,"य":258,"र":259,"ल":260,"व":261,"स":262,"ह":263,"ा":264,"ि":265,"ी":266,"ो":267,"ক":268,"ন":269,"ব":270,"র":271,"া":272,"ি":273,"ে":274,"க":275,"த":276,"ி":277,"ு":278,"ക":279,"ത":280,"ന":281,"യ":282,"ര":283,"വ":284,"ാ":285,"ി":286,"െ":287,"ก":288,"ข":289,"ค":290,"ง":291,"จ":292,"ช":293,"ด":294,"ต":295,"ท":296,"น":297,"บ":298,"ป":299,"พ":300,"ม":301,"ย":302,"ร":303,"ล":304,"ว":305,"ส":306,"ห":307,"อ":308,"ะ":309,"า":310,"ำ":311,"เ":312,"แ":313,"ไ":314,"ა":315,"ე":316,"ი":317,"ᄀ":318,"ᄂ":319,"ᄃ":320,"ᄅ":321,"ᄆ":322,"ᄇ":323,"ᄉ":324,"ᄋ":325,"ᄌ":326,"ᄎ":327,"ᄏ":328,"ᄐ":329,"ᄑ":330,"ᄒ":331,"ᅡ":332,"ᅢ":333,"ᅥ":334,"ᅦ":335,"ᅧ":336,"ᅩ":337,"ᅪ":338,"ᅬ":339,"ᅭ":340,"ᅮ":341,"ᅳ":342,"ᅴ":343,"ᅵ":344,"ᆨ":345,"ᆫ":346,"ᆯ":347,"ᆷ":348,"ᆸ":349,"ᆻ":350,"ᆼ":351,"‐":352,"‑":353,"‒":354,"–":355,"—":356,"‘":357,"’":358,"‚":359,"“":360,"”":361,"„":362,"†":363,"•":364,"…":365,"‰":366,"′":367,"″":368,"‹":369,"›":370,"⁄":371,"₂":372,"€":373,"℃":374,"№":375,"™":376,"⅓":377,"←":378,"↑":379,"→":380,"⇒":381,"−":382,"∗":383,"∙":384,"√":385,"≈":386,"≤":387,"≥":388,"─":389,"━":390,"│":391,"├":392,"■":393,"▪":394,"►":395,"◊":396,"○":397,"●":398,"☀":399,"★":400,"☆":401,"☎":402,"☕":403,"☝":404,"☺":405,"♀":406,"♂":407,"♡":408,"♥":409,"♦":410,"✅":411,"✌":412,"✓":413,"✔":414,"✨":415,"❑":416,"❗":417,"❤":418,"➔":419,"➤":420,"➧":421,"⠀":422,"⬆":423,"⭐":424,"、":425,"。":426,"「":427,"」":428,"【":429,"】":430,"あ":431,"い":432,"う":433,"え":434,"お":435,"か":436,"き":437,"く":438,"け":439,"こ":440,"さ":441,"し":442,"す":443,"せ":444,"そ":445,"た":446,"ち":447,"っ":448,"つ":449,"て":450,"と":451,"な":452,"に":453,"の":454,"は":455,"ひ":456,"へ":457,"ま":458,"み":459,"め":460,"も":461,"や":462,"よ":463,"ら":464,"り":465,"る":466,"れ":467,"ろ":468,"わ":469,"を":470,"ん":471,"ア":472,"ィ":473,"イ":474,"ウ":475,"ェ":476,"エ":477,"オ":478,"カ":479,"キ":480,"ク":481,"ケ":482,"コ":483,"サ":484,"シ":485,"ス":486,"セ":487,"ソ":488,"タ":489,"チ":490,"ッ":491,"ツ":492,"テ":493,"ト":494,"ナ":495,"ニ":496,"ネ":497,"ハ":498,"ヒ":499,"フ":500,"ヘ":501,"ホ":502,"マ":503,"ミ":504,"ム":505,"メ":506,"モ":507,"ャ":508,"ュ":509,"ョ":510,"ラ":511,"リ":512,"ル":513,"レ":514,"ロ":515,"ワ":516,"ン":517,"・":518,"ー":519,"一":520,"七":521,"万":522,"三":523,"上":524,"下":525,"不":526,"与":527,"专":528,"世":529,"业":530,"东":531,"两":532,"个":533,"中":534,"为":535,"主":536,"久":537,"么":538,"之":539,"乐":540,"九":541,"也":542,"买":543,"了":544,"争":545,"事":546,"二":547,"于":548,"五":549,"亚":550,"交":551,"产":552,"京":553,"人":554,"什":555,"今":556,"他":557,"仙":558,"代":559,"以":560,"们":561,"件":562,"任":563,"企":564,"会":565,"传":566,"位":567,"体":568,"何":569,"作":570,"你":571,"使":572,"供":573,"保":574,"信":575,"元":576,"先":577,"光":578,"免":579,"入":580,"全":581,"八":582,"公":583,"六":584,"关":585,"其":586,"具":587,"内":588,"円":589,"册":590,"军":591,"冠":592,"准":593,"出":594,"分":595,"划":596,"列":597,"创":598,"利":599,"到":600,"制":601,"前":602,"力":603,"加":604,"务":605,"动":606,"势":607,"動":608,"化":609,"北":610,"区":611,"十":612,"单":613,"南":614,"博":615,"原":616,"去":617,"县":618,"及":619,"友":620,"双":621,"发":622,"取":623,"受":624,"口":625,"可":626,"台":627,"号":628,"司":629,"合":630,"同":631,"名":632,"后":633,"吗":634,"员":635,"和":636,"品":637,"哪":638,"商":639,"器":640,"四":641,"回":642,"国":643,"图":644,"在":645,"地":646,"场":647,"址":648,"坛":649,"型":650,"城":651,"堂":652,"場":653,"外":654,"多":655,"大":656,"天":657,"太":658,"头":659,"奇":660,"奖":661,"女":662,"好":663,"如":664,"姐":665,"娱":666,"婆":667,"子":668,"字":669,"学":670,"安":671,"官":672,"定":673,"宝":674,"实":675,"客":676,"家":677,"容":678,"富":679,"对":680,"将":681,"小":682,"少":683,"就":684,"尾":685,"展":686,"山":687,"島":688,"川":689,"州":690,"工":691,"巧":692,"市":693,"常":694,"平":695,"年":696,"广":697,"庆":698,"库":699,"店":700,"度":701,"建":702,"开":703,"式":704,"引":705,"当":706,"录":707,"彩":708,"影":709,"很":710,"律":711,"得":712,"微":713,"心":714,"必":715,"忙":716,"快":717,"怎":718,"思":719,"性":720,"情":721,"意":722,"感":723,"成":724,"我":725,"户":726,"房":727,"所":728,"手":729,"打":730,"技":731,"投":732,"报":733,"持":734,"挂":735,"指":736,"排":737,"接":738,"推":739,"提":740,"播":741,"放":742,"政":743,"教":744,"数":745,"文":746,"料":747,"斯":748,"新":749,"方":750,"无":751,"日":752,"时":753,"明":754,"星":755,"是":756,"時":757,"更":758,"最":759,"月":760,"有":761,"服":762,"期":763,"未":764,"本":765,"机":766,"杀":767,"来":768,"東":769,"果":770,"校":771,"格":772,"業":773,"次":774,"正":775,"比":776,"民":777,"氓":778,"気":779,"水":780,"江":781,"没":782,"河":783,"治":784,"法":785,"波":786,"注":787,"活":788,"流":789,"测":790,"海":791,"清":792,"港":793,"游":794,"源":795,"澳":796,"点":797,"然":798,"爱":799,"片":800,"版":801,"牌":802,"物":803,"特":804,"狗":805,"玄":806,"王":807,"玩":808,"现":809,"球":810,"理":811,"生":812,"用":813,"田":814,"电":815,"町":816,"画":817,"界":818,"疆":819,"登":820,"白":821,"百":822,"的":823,"目":824,"直":825,"相":826,"省":827,"看":828,"県":829,"真":830,"着":831,"知":832,"石":833,"码":834,"碰":835,"社":836,"神":837,"票":838,"福":839,"科":840,"程":841,"稳":842,"空":843,"立":844,"站":845,"第":846,"等":847,"算":848,"管":849,"精":850,"系":851,"红":852,"线":853,"组":854,"经":855,"结":856,"统":857,"网":858,"美":859,"群":860,"老":861,"者":862,"而":863,"联":864,"肖":865,"育":866,"能":867,"自":868,"色":869,"英":870,"蛋":871,"行":872,"表":873,"装":874,"西":875,"要":876,"見":877,"规":878,"视":879,"解":880,"語":881,"计":882,"记":883,"论":884,"设":885,"说":886,"请":887,"财":888,"费":889,"资":890,"赌":891,"赚":892,"赛":893,"赢":894,"走":895,"超":896,"越":897,"跑":898,"路":899,"身":900,"车":901,"软":902,"载":903,"过":904,"运":905,"还":906,"这":907,"进":908,"送":909,"选":910,"通":911,"速":912,"道":913,"部":914,"都":915,"酶":916,"里":917,"重":918,"野":919,"量":920,"金":921,"钱":922,"银":923,"長":924,"长":925,"間":926,"门":927,"间":928,"阳":929,"际":930,"限":931,"院":932,"集":933,"霸":934,"青":935,"面":936,"音":937,"预":938,"频":939,"食":940,"香":941,"马":942,"高":943,"黄":944,"龙":945,"ﬁ":946,"ﬂ":947,"！":948,"（":949,"）":950,"，":951,"５":952,"：":953,"？":954,"～":955,"￼":956,"🇩":957,"🇰":958,"🌟":959,"🌸":960,"🍀":961,"🍁":962,"🎄":963,"🎉":964,"🏻":965,"🏼":966,"🏽":967,"👌":968,"👍":969,"👏":970,"💕":971,"💙":972,"💚":973,"💪":974,"🔥":975,"🔺":976,"🔻":977,"😀":978,"😁":979,"😂":980,"😃":981,"😄":982,"😅":983,"😆":984,"😉":985,"😊":986,"😋":987,"😍":988,"😎":989,"😘":990,"😛":991,"😜":992,"😱":993,"😳":994,"🙁":995,"🙂":996,"🙄":997,"🙈":998,"🙌":999,"🙏":1000,"🤔":1001,"🤗":1002,"🤞":1003,"🤩":1004,"##r":1005,"##o":1006,"##j":1007,"##e":1008,"##k":1009,"##t":1010,"##s":1011,"##i":1012,"##v":1013,"##n":1014,"##g":1015,"##l":1016,"##y":1017,"##p":1018,"##h":1019,"##a":1020,"##x":1021,"##d":1022,"##b":1023,"##f":1024,"##m":1025,"##u":1026,"##æ":1027,"##c":1028,"##z":1029,"##ø":1030,"##2":1031,"##´":1032,"##w":1033,"##1":1034,"##क":1035,"##र":1036,"##न":1037,"##4":1038,"##8":1039,"##0":1040,"##5":1041,"##q":1042,"##3":1043,"##9":1044,"##е":1045,"##м":1046,"##а":1047,"##є":1048,"##6":1049,"##👍":1050,"##🏻":1051,"##€":1052,"##ら":1053,"##れ":1054,"##た":1055,"##ヒ":1056,"##ト":1057,"##™":1058,"##о":1059,"##л":1060,"##и":1061,"##с":1062,"##т":1063,"##ы":1064,"##х":1065,"##ش":1066,"##ك":1067,"##و":1068,"##ر":1069,"##р":1070,"##н":1071,"##в":1072,"##ᅢ":1073,"##ᄎ":1074,"##ᅦ":1075,"##ᄒ":1076,"##ᅡ":1077,"##ᄌ":1078,"##ᅵ":1079,"##®":1080,"##ſ":1081,"##я":1082,"##щ":1083,"##°":1084,"##😄":1085,"##ل":1086,"##م":1087,"##ف":1088,"##ت":1089,"##ض":1090,"##ð":1091,"##ー":1092,"##ム":1093,"##ヘ":1094,"##シ":1095,"##を":1096,"##⭐":1097,"##😋":1098,"##ᆯ":1099,"##ᄋ":1100,"##ᅥ":1101,"##ᄂ":1102,"##👌":1103,"##💙":1104,"##¦":1105,"##у":1106,"##ч":1107,"##к":1108,"##❤":1109,"##ま":1110,"##す":1111,"##の":1112,"##て":1113,"##こ":1114,"##7":1115,"##г":1116,"##♀":1117,"##д":1118,"##ร":1119,"##อ":1120,"##น":1121,"##ก":1122,"##พ":1123,"##า":1124,"##ป":1125,"##แ":1126,"##ม":1127,"##เ":1128,"##ต":1129,"##บ":1130,"##จ":1131,"##ท":1132,"##ย":1133,"##ข":1134,"##ง":1135,"##ค":1136,"##ไ":1137,"##ด":1138,"##⠀":1139,"##б":1140,"##ᅧ":1141,"##ᄀ":1142,"##ᅪ":1143,"##ᆫ":1144,"##י":1145,"##з":1146,"##і":1147,"##п":1148,"##ε":1149,"##γ":1150,"##α":1151,"##λ":1152,"##ω":1153,"##σ":1154,"##μ":1155,"##か":1156,"##フ":1157,"##ロ":1158,"##ク":1159,"##き":1160,"##る":1161,"##も":1162,"##な":1163,"##は":1164,"##っ":1165,"##り":1166,"##し":1167,"##い":1168,"##🏼":1169,"##×":1170,"##ع":1171,"##ب":1172,"##ا":1173,"##ن":1174,"##υ":1175,"##κ":1176,"##ρ":1177,"##ι":1178,"##ν":1179,"##ο":1180,"##ج":1181,"##ز":1182,"##ه":1183,"##マ":1184,"##ı":1185,"##ᆼ":1186,"##ʹ":1187,"##◊":1188,"##¸":1189,"##¥":1190,"##😀":1191,"##ш":1192,"##ক":1193,"##ি":1194,"##カ":1195,"##ッ":1196,"##ي":1197,"##خ":1198,"##ط":1199,"##ة":1200,"##ق":1201,"##ح":1202,"##ص":1203,"##ь":1204,"##ی":1205,"##د":1206,"##پ":1207,"##ב":1208,"##¨":1209,"##ホ":1210,"##ケ":1211,"##ネ":1212,"##タ":1213,"##ン":1214,"##η":1215,"##🍀":1216,"##わ":1217,"##ש":1218,"##נ":1219,"##ה":1220,"##ј":1221,"##¼":1222,"##キ":1223,"##コ":1224,"##😅":1225,"##ᅳ":1226,"##ᄅ":1227,"##র":1228,"##া":1229,"##ß":1230,"##ж":1231,"##π":1232,"##θ":1233,"##🤗":1234,"##☺":1235,"##サ":1236,"##ス":1237,"##ц":1238,"##ﬁ":1239,"##¹":1240,"##ς":1241,"##せ":1242,"##や":1243,"##🇰":1244,"##テ":1245,"##ィ":1246,"##エ":1247,"##イ":1248,"##ャ":1249,"##³":1250,"##ে":1251,"##ন":1252,"##ส":1253,"##に":1254,"##ת":1255,"##ו":1256,"##ח":1257,"##ם":1258,"##β":1259,"##ю":1260,"##↑":1261,"##⇒":1262,"##ᄐ":1263,"##ᆨ":1264,"##ᄉ":1265,"##ᄇ":1266,"##ᅮ":1267,"##ᄃ":1268,"##お":1269,"##そ":1270,"##ろ":1271,"##く":1272,"##ᆷ":1273,"##ラ":1274,"##ウ":1275,"##ᅩ":1276,"##ᆸ":1277,"##ᅴ":1278,"##ᅬ":1279,"##ƒ":1280,"##♥":1281,"##ф":1282,"##ע":1283,"##ל":1284,"##☆":1285,"##½":1286,"##א":1287,"##δ":1288,"##ล":1289,"##ะ":1290,"##ห":1291,"##ว":1292,"##ワ":1293,"##😉":1294,"##व":1295,"##ा":1296,"##म":1297,"##ъ":1298,"##ﬂ":1299,"##→":1300,"##¬":1301,"##ェ":1302,"##µ":1303,"##ᄏ":1304,"##س":1305,"##つ":1306,"##ᅭ":1307,"##さ":1308,"##ん":1309,"##¾":1310,"##−":1311,"##と":1312,"##け":1313,"##😊":1314,"##レ":1315,"##ξ":1316,"##©":1317,"##²":1318,"##ル":1319,"##ミ":1320,"##う":1321,"##😂":1322,"##¤":1323,"##リ":1324,"##œ":1325,"##☕":1326,"##ː":1327,"##😘":1328,"##τ":1329,"##チ":1330,"##よ":1331,"##غ":1332,"##ो":1333,"##ल":1334,"##ि":1335,"##य":1336,"##ᆻ":1337,"##ア":1338,"##ѕ":1339,"##♡":1340,"##द":1341,"##ी":1342,"##ł":1343,"##¢":1344,"##ד":1345,"##セ":1346,"##स":1347,"##│":1348,"##あ":1349,"##ช":1350,"##ə":1351,"##ט":1352,"##ר":1353,"##ョ":1354,"##ᄆ":1355,"##£":1356,"##ナ":1357,"##ツ":1358,"##🙏":1359,"##ュ":1360,"##め":1361,"##オ":1362,"##כ":1363,"##😆":1364,"##🔥":1365,"##ذ":1366,"##ـ":1367,"##±":1368,"##🍁":1369,"##😳":1370,"##😁":1371,"##ˈ":1372,"##✨":1373,"##த":1374,"##ு":1375,"##メ":1376,"##み":1377,"##º":1378,"##˚":1379,"##ハ":1380,"##～":1381,"##χ":1382,"##מ":1383,"##へ":1384,"##🌸":1385,"##ব":1386,"##э":1387,"##ち":1388,"##え":1389,"##├":1390,"##🇩":1391,"##ソ":1392,"##प":1393,"##🤔":1394,"##⁄":1395,"##🏽":1396,"##🎄":1397,"##þ":1398,"##∗":1399,"##🎉":1400,"##💪":1401,"##🙌":1402,"##ᄑ":1403,"##😍":1404,"##🤩":1405,"##ک":1406,"##¯":1407,"##🤞":1408,"##₂":1409,"##گ":1410,"##ह":1411,"##വ":1412,"##פ":1413,"##ա":1414,"##🙄":1415,"##￼":1416,"##👏":1417,"##க":1418,"##ி":1419,"##െ":1420,"##ζ":1421,"##ס":1422,"##ק":1423,"##🙈":1424,"##😜":1425,"##♂":1426,"##ニ":1427,"##モ":1428,"##ന":1429,"##ി":1430,"##ാ":1431,"##യ":1432,"##đ":1433,"##φ":1434,"##ʼ":1435,"##צ":1436,"##त":1437,"##≥":1438,"##ज":1439,"##√":1440,"##🙂":1441,"##ำ":1442,"##😃":1443,"##ക":1444,"##ђ":1445,"##ɛ":1446,"##☀":1447,"##😱":1448,"##✅":1449,"##ى":1450,"##ത":1451,"##ء":1452,"##✓":1453,"##ʿ":1454,"##✔":1455,"##ג":1456,"##ˆ":1457,"##˜":1458,"##ן":1459,"##ര":1460,"##∙":1461,"##😎":1462,"##💕":1463,"##ψ":1464,"##ɔ":1465,"##●":1466,"##℃":1467,"##✌":1468,"##ე":1469,"##ა":1470,"##ი":1471,"##ʺ":1472,"##№":1473,"##💚":1474,"##ث":1475,"##ª":1476,"##ґ":1477,"##５":1478,"##☝":1479,"##😛":1480,"##🔺":1481,"##☎":1482,"##▪":1483,"##❗":1484,"##ひ":1485,"##★":1486,"##♦":1487,"##⅓":1488,"##🙁":1489,"##○":1490,"##🌟":1491,"##►":1492,"##÷":1493,"##≈":1494,"##─":1495,"##━":1496,"##≤":1497,"##←":1498,"##■":1499,"##➤":1500,"##🔻":1501,"##⬆":1502,"##er":1503,"##en":1504,"##et":1505,"##or":1506,"##an":1507,"##ed":1508,"##in":1509,"##ig":1510,"##ar":1511,"##il":1512,"##el":1513,"og":1514,"##st":1515,"##de":1516,"for":1517,"##al":1518,"##nd":1519,"##es":1520,"##ing":1521,"er":1522,"at":1523,"##om":1524,"til":1525,"en":1526,"af":1527,"##sk":1528,"##le":1529,"##ag":1530,"##re":1531,"det":1532,"##on":1533,"##at":1534,"pa":1535,"##eg":1536,"der":1537,"##ne":1538,"##kk":1539,"med":1540,"st":1541,"##ter":1542,"##id":1543,"##ver":1544,"##ra":1545,"##ør":1546,"##ol":1547,"sa":1548,"de":1549,"##te":1550,"##is":1551,"##ler":1552,"den":1553,"sk":1554,"##se":1555,"##lig":1556,"##and":1557,"##ær":1558,"ud":1559,"##der":1560,"##kke":1561,"hv":1562,"har":1563,"##ning":1564,"som":1565,"##it":1566,"vi":1567,"##ge":1568,"##iv":1569,"om":1570,"##un":1571,"##od":1572,"##og":1573,"et":1574,"##ik":1575,"##ende":1576,"du":1577,"kan":1578,"ikke":1579,"jeg":1580,"##kt":1581,"op":1582,"##ru":1583,"##ej":1584,"##ion":1585,"##ere":1586,"##av":1587,"al":1588,"##ste":1589,"##mm":1590,"##ad":1591,"##ede":1592,"pr":1593,"##ur":1594,"ar":1595,"man":1596,"##hed":1597,"ind":1598,"men":1599,"##isk":1600,"var":1601,"##ens":1602,"##els":1603,"##æl":1604,"bl":1605,"el":1606,"##ent":1607,"##igt":1608,"##else":1609,"##ul":1610,"in":1611,"##as":1612,"##ab":1613,"##ræ":1614,"##erne":1615,"##am":1616,"##for":1617,"##ige":1618,"fra":1619,"sp":1620,"an":1621,"eller":1622,"##ger":1623,"hvor":1624,"be":1625,"##omm":1626,"vil":1627,"##ks":1628,"##fter":1629,"##us":1630,"over":1631,"##sa":1632,"ved":1633,"##nder":1634,"##ud":1635,"væ":1636,"##ang":1637,"skal":1638,"##lev":1639,"##ist":1640,"##age":1641,"##ov":1642,"fa":1643,"se":1644,"han":1645,"##ind":1646,"##op":1647,"##old":1648,"sig":1649,"##iver":1650,"##øb":1651,"##est":1652,"hav":1653,"##elt":1654,"##ation":1655,"##gen":1656,"##je":1657,"##ort":1658,"and":1659,"efter":1660,"##lige":1661,"##bej":1662,"##end":1663,"##sp":1664,"##ske":1665,"##ot":1666,"ma":1667,"##ft":1668,"kun":1669,"ogsa":1670,"##ut":1671,"nog":1672,"##ok":1673,"##æn":1674,"komm":1675,"##ive":1676,"sam":1677,"##ill":1678,"##yg":1679,"##im":1680,"være":1681,"kon":1682,"blev":1683,"her":1684,"##und":1685,"##øj":1686,"kl":1687,"ny":1688,"dan":1689,"sel":1690,"##em":1691,"##ød":1692,"##ri":1693,"bru":1694,"god":1695,"##ser":1696,"20":1697,"##æg":1698,"##ene":1699,"##æt":1700,"##ir":1701,"##yr":1702,"selv":1703,"##ine":1704,"##lem":1705,"##pp":1706,"##ale":1707,"##ade":1708,"hvis":1709,"##iske":1710,"under":1711,"##eget":1712,"##elig":1713,"gen":1714,"##art":1715,"##øl":1716,"vær":1717,"##ligt":1718,"##dan":1719,"kr":1720,"##ic":1721,"før":1722,"##kker":1723,"##os":1724,"tid":1725,"##esk":1726,"##ring":1727,"meget":1728,"##ob":1729,"##sen":1730,"end":1731,"##vær":1732,"sm":1733,"##ling":1734,"nar":1735,"##um":1736,"alle":1737,"fin":1738,"##hold":1739,"alt":1740,"hel":1741,"##ff":1742,"##ret":1743,"tr":1744,"samm":1745,"##rem":1746,"##ers":1747,"pl":1748,"sid":1749,"mod":1750,"fr":1751,"arbej":1752,"##yn":1753,"min":1754,"##ke":1755,"##sm":1756,"##eret":1757,"##øg":1758,"##ark":1759,"##ord":1760,"##sl":1761,"dig":1762,"##idt":1763,"##var":1764,"mere":1765,"sl":1766,"læ":1767,"##vis":1768,"stor":1769,"far":1770,"##ant":1771,"##ie":1772,"kv":1773,"da":1774,"##eder":1775,"br":1776,"##yl":1777,"mange":1778,"mu":1779,"nu":1780,"##skab":1781,"dag":1782,"##yd":1783,"re":1784,"##ager":1785,"##itet":1786,"fl":1787,"vor":1788,"bet":1789,"##øre":1790,"##ide":1791,"##elsen":1792,"##elser":1793,"##ninger":1794,"##tet":1795,"##ner":1796,"##be":1797,"##øn":1798,"køb":1799,"##ænd":1800,"##jer":1801,"##lighed":1802,"havde":1803,"bar":1804,"##det":1805,"##nem":1806,"vir":1807,"din":1808,"hun":1809,"vores":1810,"denne":1811,"##alg":1812,"bliver":1813,"##net":1814,"##del":1815,"frem":1816,"##per":1817,"##kl":1818,"kunne":1819,"reg":1820,"##æng":1821,"##yt":1822,"samt":1823,"mig":1824,"tilb":1825,"##agt":1826,"udv":1827,"hvad":1828,"##ier":1829,"##ys":1830,"##ass":1831,"bed":1832,"pro":1833,"##lere":1834,"bør":1835,"gr":1836,"dette":1837,"##ille":1838,"dem":1839,"##ch":1840,"godt":1841,"andre":1842,"##jæl":1843,"brug":1844,"##pe":1845,"lig":1846,"have":1847,"noget":1848,"forsk":1849,"##alt":1850,"or":1851,"##ien":1852,"##ss":1853,"##ber":1854,"kom":1855,"##00":1856,"##des":1857,"201":1858,"beg":1859,"##ast":1860,"sex":1861,"##ak":1862,"##den":1863,"deres":1864,"19":1865,"##ek":1866,"to":1867,"##arbej":1868,"ret":1869,"##ci":1870,"del":1871,"gru":1872,"hand":1873,"##ktion":1874,"træ":1875,"##ering":1876,"un":1877,"form":1878,"##ningen":1879,"##ce":1880,"helt":1881,"##gang":1882,"forb":1883,"uden":1884,"##ten":1885,"ad":1886,"##hand":1887,"fort":1888,"høj":1889,"hver":1890,"##let":1891,"le":1892,"sammen":1893,"##land":1894,"sø":1895,"##pr":1896,"##dag":1897,"##enter":1898,"##mmer":1899,"mel":1900,"lige":1901,"ser":1902,"lidt":1903,"##ker":1904,"##erson":1905,"##odu":1906,"##ost":1907,"##læg":1908,"kont":1909,"os":1910,"##før":1911,"hje":1912,"ch":1913,"gennem":1914,"gl":1915,"nogle":1916,"##ess":1917,"th":1918,"ga":1919,"##ket":1920,"##sæt":1921,"##ighed":1922,"##ve":1923,"##ode":1924,"forskel":1925,"næ":1926,"##ga":1927,"##aler":1928,"##org":1929,"vej":1930,"##dt":1931,"bes":1932,"par":1933,"##ap":1934,"bade":1935,"##mme":1936,"flere":1937,"fors":1938,"jo":1939,"været":1940,"gar":1941,"##avn":1942,"##ikker":1943,"hele":1944,"##aget":1945,"##ksom":1946,"person":1947,"##sat":1948,"nye":1949,"##get":1950,"føl":1951,"##dr":1952,"##sker":1953,"##atur":1954,"##yk":1955,"inter":1956,"##hol":1957,"##nes":1958,"##ater":1959,"sin":1960,"##pl":1961,"##di":1962,"##yder":1963,"ned":1964,"mellem":1965,"ek":1966,"##ange":1967,"blive":1968,"hvil":1969,"##isse":1970,"su":1971,"##ster":1972,"ab":1973,"land":1974,"lang":1975,"lav":1976,"derfor":1977,"vid":1978,"##sb":1979,"##inder":1980,"##mer":1981,"stør":1982,"##elle":1983,"##mp":1984,"dr":1985,"inden":1986,"hen":1987,"igen":1988,"##elige":1989,"##ets":1990,"best":1991,"første":1992,"##eb":1993,"##ug":1994,"##ult":1995,"mind":1996,"skul":1997,"##ac":1998,"##tr":1999,"bil":2000,"gang":2001,"gør":2002,"kommer":2003,"##inger":2004,"##øde":2005,"##ksomhed":2006,"hjæl":2007,"##bl":2008,"grund":2009,"sy":2010,"produ":2011,"##eligt":2012,"##edet":2013,"##vend":2014,"eks":2015,"store":2016,"##ktiv":2017,"rigt":2018,"ty":2019,"danm":2020,"vis":2021,"bare":2022,"##edes":2023,"##andt":2024,"mass":2025,"hvordan":2026,"øn":2027,"dk":2028,"dat":2029,"besk":2030,"##me":2031,"hol":2032,"##vej":2033,"forskellige":2034,"##vet":2035,"mulighed":2036,"##tal":2037,"des":2038,"##elses":2039,"børn":2040,"udvik":2041,"arbejd":2042,"di":2043,"hos":2044,"per":2045,"skulle":2046,"liv":2047,"##ans":2048,"##gør":2049,"##ald":2050,"##kken":2051,"##fte":2052,"ven":2053,"##af":2054,"dog":2055,"##sten":2056,"##æld":2057,"##øs":2058,"##br":2059,"##over":2060,"bill":2061,"net":2062,"##inde":2063,"##ingen":2064,"str":2065,"##les":2066,"##ære":2067,"andet":2068,"##hus":2069,"dansk":2070,"massage":2071,"##føl":2072,"10":2073,"by":2074,"ev":2075,"gra":2076,"##form":2077,"##stem":2078,"##under":2079,"sen":2080,"gøre":2081,"##orn":2082,"##nesk":2083,"##kter":2084,"siden":2085,"natur":2086,"byg":2087,"ver":2088,"tra":2089,"anden":2090,"mand":2091,"vel":2092,"samme":2093,"præ":2094,"##giv":2095,"##gende":2096,"dit":2097,"##tes":2098,"pol":2099,"##ven":2100,"vand":2101,"##ister":2102,"syn":2103,"fik":2104,"ville":2105,"giver":2106,"so":2107,"##ørg":2108,"kommun":2109,"omk":2110,"fol":2111,"virksomhed":2112,"##ard":2113,"##nings":2114,"lu":2115,"mennesk":2116,"hende":2117,"##ken":2118,"disse":2119,"hans":2120,"##ub":2121,"##ust":2122,"mal":2123,"##cer":2124,"tilf":2125,"forhold":2126,"res":2127,"danske":2128,"##ads":2129,"altid":2130,"##iger":2131,"18":2132,"##iller":2133,"finde":2134,"bag":2135,"la":2136,"sikker":2137,"sn":2138,"##ræn":2139,"løb":2140,"blevet":2141,"##endt":2142,"200":2143,"tilbage":2144,"##amp":2145,"##havn":2146,"##still":2147,"fil":2148,"danmark":2149,"##dann":2150,"væl":2151,"ans":2152,"##fl":2153,"##kon":2154,"##urt":2155,"opl":2156,"##alitet":2157,"lille":2158,"mor":2159,"skr":2160,"star":2161,"ly":2162,"##unkt":2163,"##kket":2164,"ham":2165,"pen":2166,"##sta":2167,"##gi":2168,"##oder":2169,"side":2170,"sag":2171,"##uld":2172,"vigt":2173,"ha":2174,"enk":2175,"skab":2176,"omra":2177,"##olog":2178,"nok":2179,"##len":2180,"##gt":2181,"##ligere":2182,"pris":2183,"on":2184,"hov":2185,"arbejde":2186,"sit":2187,"lov":2188,"##red":2189,"##nu":2190,"fordi":2191,"rad":2192,"##ele":2193,"dine":2194,"##ogra":2195,"gerne":2196,"sv":2197,"##ow":2198,"##iet":2199,"sær":2200,"kvinder":2201,"##ffe":2202,"sadan":2203,"##of":2204,"##hver":2205,"##fat":2206,"##akt":2207,"nem":2208,"te":2209,"mest":2210,"##istor":2211,"sæt":2212,"##til":2213,"maske":2214,"virk":2215,"beh":2216,"gener":2217,"ingen":2218,"hold":2219,"kra":2220,"is":2221,"nær":2222,"##ynd":2223,"##ole":2224,"sidste":2225,"ra":2226,"bedste":2227,"##handling":2228,"##tere":2229,"gode":2230,"im":2231,"inde":2232,"ord":2233,"##tag":2234,"valg":2235,"plan":2236,"omkring":2237,"##oblem":2238,"##ationer":2239,"tv":2240,"##anden":2241,"##atte":2242,"##borg":2243,"hurt":2244,"tage":2245,"komme":2246,"##iden":2247,"##au":2248,"made":2249,"fast":2250,"spe":2251,"tek":2252,"polit":2253,"##rer":2254,"##asse":2255,"led":2256,"kn":2257,"lever":2258,"##are":2259,"vide":2260,"sal":2261,"##ppe":2262,"##æv":2263,"##sc":2264,"oplev":2265,"##amil":2266,"##enhavn":2267,"##mær":2268,"##ører":2269,"##smal":2270,"ænd":2271,"siger":2272,"##bet":2273,"mark":2274,"##jen":2275,"hal":2276,"##if":2277,"nød":2278,"##led":2279,"ting":2280,"lok":2281,"##ække":2282,"københavn":2283,"##atis":2284,"##lever":2285,"fakt":2286,"bo":2287,"tæn":2288,"porn":2289,"rigtig":2290,"##sel":2291,"spørg":2292,"off":2293,"læng":2294,"fun":2295,"eg":2296,"##ærd":2297,"##ia":2298,"15":2299,"##ma":2300,"##ings":2301,"nord":2302,"tre":2303,"##bru":2304,"tim":2305,"hoved":2306,"12":2307,"ber":2308,"problem":2309,"bruge":2310,"nogen":2311,"mad":2312,"##rift":2313,"stad":2314,"met":2315,"aller":2316,"kort":2317,"speci":2318,"delt":2319,"ønsker":2320,"##styr":2321,"kar":2322,"jer":2323,"proje":2324,"rej":2325,"famil":2326,"##som":2327,"mar":2328,"ofte":2329,"##øv":2330,"##io":2331,"bruger":2332,"blandt":2333,"##stru":2334,"give":2335,"hus":2336,"mænd":2337,"##gru":2338,"##bo":2339,"##komm":2340,"##ave":2341,"histor":2342,"hvilket":2343,"##res":2344,"##oc":2345,"##far":2346,"##ip":2347,"sol":2348,"mindre":2349,"tur":2350,"ligger":2351,"##anske":2352,"##ider":2353,"##entlig":2354,"lan":2355,"##ges":2356,"hjemm":2357,"##olig":2358,"gratis":2359,"mil":2360,"udvikling":2361,"kal":2362,"nor":2363,"smu":2364,"##iner":2365,"lær":2366,"gj":2367,"##ib":2368,"spørgsmal":2369,"##opp":2370,"fæl":2371,"uddann":2372,"mens":2373,"ben":2374,"##ringer":2375,"fle":2376,"##løb":2377,"##arbejder":2378,"bedre":2379,"sted":2380,"##spr":2381,"sik":2382,"stk":2383,"let":2384,"##ioner":2385,"bog":2386,"##sted":2387,"lej":2388,"am":2389,"stat":2390,"fortæl":2391,"##med":2392,"##undet":2393,"nyt":2394,"##arbejde":2395,"##gar":2396,"##ld":2397,"##idig":2398,"hjælp":2399,"red":2400,"##ift":2401,"ca":2402,"kræ":2403,"muligt":2404,"##søg":2405,"sæ":2406,"##all":2407,"##irk":2408,"endnu":2409,"ekst":2410,"række":2411,"ja":2412,"##ank":2413,"hjem":2414,"##sn":2415,"svar":2416,"mit":2417,"##vid":2418,"##indelse":2419,"##spunkt":2420,"folk":2421,"##byg":2422,"sund":2423,"hu":2424,"##reg":2425,"##up":2426,"soci":2427,"stadig":2428,"film":2429,"com":2430,"verden":2431,"styr":2432,"mus":2433,"finder":2434,"kor":2435,"##stand":2436,"##oks":2437,"virkelig":2438,"først":2439,"##mel":2440,"ene":2441,"##øt":2442,"komp":2443,"faet":2444,"ekse":2445,"##æk":2446,"kvalitet":2447,"##holder":2448,"ars":2449,"mennesker":2450,"ej":2451,"rest":2452,"fant":2453,"esc":2454,"gange":2455,"aktiv":2456,"##æss":2457,"egen":2458,"tal":2459,"hot":2460,"##line":2461,"bor":2462,"tager":2463,"##sf":2464,"und":2465,"forv":2466,"##pper":2467,"sh":2468,"bek":2469,"##yld":2470,"unge":2471,"escort":2472,"11":2473,"rund":2474,"##la":2475,"akt":2476,"mær":2477,"##tede":2478,"##str":2479,"vin":2480,"start":2481,"##pt":2482,"##vende":2483,"##uden":2484,"##oner":2485,"fælles":2486,"tidligere":2487,"##ond":2488,"gam":2489,"##hæng":2490,"##rakt":2491,"pat":2492,"større":2493,"opt":2494,"dire":2495,"17":2496,"tha":2497,"ide":2498,"##eller":2499,"##vic":2500,"klar":2501,"##øger":2502,"ne":2503,"##øm":2504,"##sh":2505,"##vel":2506,"##kte":2507,"##heden":2508,"stort":2509,"forbindelse":2510,"##set":2511,"findes":2512,"inv":2513,"dy":2514,"proc":2515,"set":2516,"mine":2517,"lave":2518,"##ct":2519,"##ition":2520,"ka":2521,"##konom":2522,"ro":2523,"##alet":2524,"eksemp":2525,"dej":2526,"dage":2527,"##ise":2528,"##ygt":2529,"##urder":2530,"30":2531,"online":2532,"langt":2533,"##ativ":2534,"##by":2535,"gik":2536,"læs":2537,"længere":2538,"art":2539,"projekt":2540,"16":2541,"udvalg":2542,"fag":2543,"org":2544,"##ian":2545,"mot":2546,"na":2547,"prø":2548,"14":2549,"##yst":2550,"samtidig":2551,"prof":2552,"sc":2553,"##nen":2554,"##syn":2555,"oplys":2556,"behandling":2557,"##alis":2558,"##agen":2559,"sma":2560,"##lad":2561,"alm":2562,"##ren":2563,"##ateri":2564,"##sfor":2565,"ren":2566,"allerede":2567,"væk":2568,"mang":2569,"##øje":2570,"spr":2571,"sine":2572,"##ytte":2573,"øv":2574,"synes":2575,"he":2576,"ener":2577,"bel":2578,"fal":2579,"aldr":2580,"##okus":2581,"gu":2582,"sommer":2583,"dyr":2584,"fre":2585,"stand":2586,"##utter":2587,"kontakt":2588,"##lag":2589,"søger":2590,"spil":2591,"eng":2592,"aldrig":2593,"##omme":2594,"pas":2595,"hendes":2596,"em":2597,"##eter":2598,"##idler":2599,"sta":2600,"fød":2601,"##une":2602,"##ationen":2603,"altsa":2604,"##van":2605,"##ue":2606,"##istr":2607,"##eren":2608,"hjemmes":2609,"erhver":2610,"tab":2611,"result":2612,"voks":2613,"fokus":2614,"##anis":2615,"kø":2616,"##jø":2617,"saledes":2618,"##na":2619,"##lede":2620,"##sigt":2621,"plads":2622,"##bef":2623,"priv":2624,"læg":2625,"eur":2626,"modt":2627,"##blik":2628,"faktisk":2629,"inst":2630,"##telse":2631,"løs":2632,"##egn":2633,"##teret":2634,"gamle":2635,"lin":2636,"rundt":2637,"konk":2638,"web":2639,"medarbejder":2640,"videre":2641,"##olle":2642,"##asser":2643,"svær":2644,"tog":2645,"##revet":2646,"##ælder":2647,"##min":2648,"piger":2649,"##tid":2650,"sige":2651,"##ænge":2652,"tekn":2653,"ekstra":2654,"hurtigt":2655,"part":2656,"afsl":2657,"int":2658,"spænd":2659,"##ester":2660,"næste":2661,"leg":2662,"##ultur":2663,"fri":2664,"##uder":2665,"kur":2666,"##ført":2667,"økonom":2668,"##rev":2669,"13":2670,"penge":2671,"fantast":2672,"tæt":2673,"##ykke":2674,"ge":2675,"behov":2676,"viser":2677,"##ire":2678,"##ont":2679,"fuld":2680,"##ator":2681,"privat":2682,"nr":2683,"##elte":2684,"##omra":2685,"##gelig":2686,"grøn":2687,"##olen":2688,"effe":2689,"##ender":2690,"holde":2691,"##ejl":2692,"the":2693,"betyder":2694,"yder":2695,"##dom":2696,"jord":2697,"erhverv":2698,"kat":2699,"tilbud":2700,"syd":2701,"fer":2702,"stedet":2703,"ol":2704,"tag":2705,"##aling":2706,"##endte":2707,"po":2708,"##ansk":2709,"kvinde":2710,"nødvend":2711,"foret":2712,"##terne":2713,"anbef":2714,"##gte":2715,"hvert":2716,"##riv":2717,"bev":2718,"kommune":2719,"##erer":2720,"arbejder":2721,"billeder":2722,"##uelle":2723,"begynd":2724,"købe":2725,"##iveau":2726,"besl":2727,"vurder":2728,"jul":2729,"kør":2730,"##skaber":2731,"vælge":2732,"sundhed":2733,"ste":2734,"desig":2735,"næsten":2736,"sand":2737,"vigtigt":2738,"eksempel":2739,"undersøg":2740,"tiden":2741,"##kom":2742,"##elef":2743,"##ym":2744,"##ro":2745,"aft":2746,"##mmet":2747,"##sv":2748,"nemlig":2749,"viden":2750,"25":2751,"stær":2752,"ter":2753,"tilfæl":2754,"video":2755,"100":2756,"##slag":2757,"super":2758,"kunst":2759,"fræ":2760,"glæ":2761,"##erede":2762,"ta":2763,"##aden":2764,"servic":2765,"besøg":2766,"erfar":2767,"bi":2768,"##ensen":2769,"##snit":2770,"##træ":2771,"blot":2772,"##ha":2773,"norm":2774,"haft":2775,"##aret":2776,"co":2777,"thai":2778,"hjælpe":2779,"tale":2780,"##sam":2781,"##ader":2782,"antal":2783,"giv":2784,"aut":2785,"æld":2786,"flot":2787,"især":2788,"funktion":2789,"##rede":2790,"bolig":2791,"hj":2792,"##øder":2793,"##ite":2794,"##rik":2795,"##efter":2796,"fleste":2797,"##son":2798,"slag":2799,"##grund":2800,"hvorfor":2801,"kamp":2802,"senere":2803,"interes":2804,"##igheder":2805,"tem":2806,"##uds":2807,"##ure":2808,"##men":2809,"sj":2810,"fod":2811,"mindst":2812,"fordel":2813,"cent":2814,"kæ":2815,"jan":2816,"ban":2817,"##øse":2818,"beslut":2819,"##rist":2820,"syg":2821,"enkelte":2822,"undervis":2823,"##ikke":2824,"fjer":2825,"ris":2826,"bud":2827,"porno":2828,"igennem":2829,"##værk":2830,"##one":2831,"##eneste":2832,"skøn":2833,"event":2834,"stra":2835,"##præ":2836,"000":2837,"##skabet":2838,"læse":2839,"##ember":2840,"morgen":2841,"##rol":2842,"##unde":2843,"##ikken":2844,"maned":2845,"kultur":2846,"##rag":2847,"##edt":2848,"ung":2849,"opg":2850,"##sent":2851,"##sdag":2852,"kap":2853,"lavet":2854,"halv":2855,"inform":2856,"oplysninger":2857,"ansvar":2858,"europ":2859,"taget":2860,"id":2861,"via":2862,"opf":2863,"hin":2864,"##satte":2865,"peri":2866,"skabe":2867,"samarbejde":2868,"kir":2869,"betyd":2870,"aktivitet":2871,"vind":2872,"udfor":2873,"##iddel":2874,"##iste":2875,"enkelt":2876,"##yde":2877,"ann":2878,"##akter":2879,"##lerne":2880,"##brug":2881,"##orde":2882,"mat":2883,"##stat":2884,"herunder":2885,"##stænd":2886,"##rig":2887,"støt":2888,"luft":2889,"lys":2890,"tror":2891,"hotel":2892,"##ppen":2893,"##kning":2894,"værd":2895,"##illet":2896,"materi":2897,"skole":2898,"##fra":2899,"mon":2900,"ude":2901,"##int":2902,"selvom":2903,"##ars":2904,"##lemmer":2905,"ful":2906,"bruges":2907,"almind":2908,"lo":2909,"krav":2910,"##ylland":2911,"anal":2912,"##udv":2913,"produkter":2914,"sim":2915,"ps":2916,"sat":2917,"største":2918,"##ligvis":2919,"##dat":2920,"ju":2921,"##alen":2922,"hab":2923,"##ionen":2924,"##heder":2925,"##kv":2926,"job":2927,"##ledning":2928,"##itut":2929,"midt":2930,"omfat":2931,"begge":2932,"##vn":2933,"sikkert":2934,"bestyr":2935,"##fe":2936,"nov":2937,"kost":2938,"ul":2939,"netop":2940,"ander":2941,"kig":2942,"musik":2943,"##skud":2944,"trad":2945,"##gaver":2946,"liges":2947,"##ograf":2948,"##entet":2949,"anvend":2950,"selvføl":2951,"##ay":2952,"##sg":2953,"aften":2954,"##par":2955,"##øren":2956,"ang":2957,"hæ":2958,"##ande":2959,"##oden":2960,"sikre":2961,"##elefon":2962,"##oppen":2963,"##tra":2964,"hyg":2965,"mød":2966,"tro":2967,"bas":2968,"medlem":2969,"desuden":2970,"jun":2971,"indtil":2972,"anvende":2973,"50":2974,"færd":2975,"app":2976,"virksomheder":2977,"##iss":2978,"##tek":2979,"##off":2980,"##nede":2981,"klub":2982,"##use":2983,"tilfælde":2984,"grad":2985,"ni":2986,"##unden":2987,"ru":2988,"gælder":2989,"##cc":2990,"moder":2991,"fot":2992,"##stre":2993,"ring":2994,"ejend":2995,"opret":2996,"hør":2997,"hjer":2998,"##mmel":2999,"##ældende":3000,"##po":3001,"foren":3002,"##plan":3003,"øvr":3004,"stud":3005,"##vand":3006,"direkte":3007,"maj":3008,"##our":3009,"møde":3010,"##ession":3011,"##stemm":3012,"nat":3013,"øje":3014,"##meld":3015,"elever":3016,"hvilke":3017,"##vir":3018,"dermed":3019,"pos":3020,"indhold":3021,"ele":3022,"selvfølgelig":3023,"##yldt":3024,"svært":3025,"tør":3026,"sker":3027,"##bud":3028,"adgang":3029,"eu":3030,"progra":3031,"sjæl":3032,"fantastisk":3033,"opmær":3034,"ellers":3035,"afgør":3036,"forsta":3037,"##leje":3038,"mob":3039,"##tryk":3040,"resultat":3041,"løbet":3042,"##ben":3043,"følge":3044,"vest":3045,"slut":3046,"##uler":3047,"##dens":3048,"navn":3049,"##ask":3050,"organis":3051,"system":3052,"##ori":3053,"prakt":3054,"tru":3055,"sagde":3056,"plac":3057,"ældre":3058,"##amer":3059,"##spl":3060,"vigtig":3061,"dar":3062,"##elserne":3063,"timer":3064,"199":3065,"##ved":3066,"fx":3067,"hinanden":3068,"##øge":3069,"fred":3070,"sæl":3071,"fire":3072,"fys":3073,"samf":3074,"brugt":3075,"##ance":3076,"christ":3077,"ski":3078,"sikkerhed":3079,"fem":3080,"størr":3081,"##cept":3082,"pige":3083,"omradet":3084,"fø":3085,"fald":3086,"død":3087,"##ative":3088,"kraft":3089,"familie":3090,"##okum":3091,"følgende":3092,"personer":3093,"spændende":3094,"##itter":3095,"rel":3096,"##ck":3097,"vist":3098,"hjemme":3099,"lyst":3100,"intern":3101,"##rad":3102,"tan":3103,"hens":3104,"længe":3105,"##ove":3106,"foræld":3107,"artik":3108,"lækker":3109,"gjort":3110,"mail":3111,"##ivers":3112,"højt":3113,"psyk":3114,"mart":3115,"bef":3116,"##rum":3117,"barn":3118,"steder":3119,"udgang":3120,"insp":3121,"varm":3122,"produkt":3123,"fortæller":3124,"arbejdet":3125,"##bar":3126,"uge":3127,"regn":3128,"##ef":3129,"tak":3130,"##øst":3131,"dec":3132,"heller":3133,"forl":3134,"matte":3135,"kær":3136,"dæ":3137,"##ikring":3138,"salg":3139,"tran":3140,"##jerg":3141,"byen":3142,"but":3143,"##aet":3144,"indsat":3145,"##ina":3146,"børne":3147,"##rej":3148,"##cen":3149,"passer":3150,"varme":3151,"##holde":3152,"##arks":3153,"holder":3154,"gav":3155,"miljø":3156,"hjemmeside":3157,"slet":3158,"##færd":3159,"sagt":3160,"##ann":3161,"##øver":3162,"mener":3163,"omrade":3164,"##ron":3165,"sætte":3166,"##ytter":3167,"rejse":3168,"spiller":3169,"##stilling":3170,"annon":3171,"##terer":3172,"##iser":3173,"##pu":3174,"pop":3175,"##reb":3176,"##værende":3177,"tilbyder":3178,"elsker":3179,"still":3180,"##ital":3181,"##ægt":3182,"laver":3183,"indeholder":3184,"24":3185,"eneste":3186,"##star":3187,"fly":3188,"##læ":3189,"masse":3190,"risik":3191,"##kkede":3192,"##lagt":3193,"##ban":3194,"dagen":3195,"problemer":3196,"dating":3197,"dele":3198,"mobil":3199,"##arer":3200,"opr":3201,"lad":3202,"ant":3203,"telefon":3204,"dokum":3205,"baggrund":3206,"kontrol":3207,"ligesom":3208,"##pa":3209,"kil":3210,"bestem":3211,"##fald":3212,"leder":3213,"##føre":3214,"top":3215,"##ykker":3216,"##ørende":3217,"##fik":3218,"muligheder":3219,"##ell":3220,"21":3221,"##skil":3222,"pass":3223,"nærm":3224,"offent":3225,"##tem":3226,"køre":3227,"bu":3228,"##cent":3229,"##kkes":3230,"##stil":3231,"skær":3232,"seks":3233,"##ht":3234,"##køb":3235,"##atisk":3236,"dom":3237,"krop":3238,"derefter":3239,"verdens":3240,"handler":3241,"hvem":3242,"rød":3243,"nav":3244,"ob":3245,"disk":3246,"danmarks":3247,"teg":3248,"##bold":3249,"rom":3250,"ko":3251,"bedst":3252,"ba":3253,"##smæss":3254,"##ack":3255,"borg":3256,"gjorde":3257,"syge":3258,"##følge":3259,"##anset":3260,"cyk":3261,"service":3262,"høje":3263,"energi":3264,"post":3265,"godk":3266,"fejl":3267,"test":3268,"fest":3269,"sprog":3270,"inspir":3271,"forud":3272,"lokale":3273,"aar":3274,"cm":3275,"##ods":3276,"##ium":3277,"##yster":3278,"of":3279,"samlet":3280,"forsøg":3281,"##orer":3282,"lokal":3283,"skov":3284,"bal":3285,"freder":3286,"lyd":3287,"##agra":3288,"ref":3289,"minutter":3290,"søg":3291,"kære":3292,"skrive":3293,"##ologi":3294,"park":3295,"hurtig":3296,"##tering":3297,"##kar":3298,"uanset":3299,"##ævn":3300,"arr":3301,"smukke":3302,"stil":3303,"græ":3304,"##deling":3305,"oven":3306,"ses":3307,"lag":3308,"udg":3309,"historie":3310,"lejlighed":3311,"tøj":3312,"design":3313,"medlemmer":3314,"00":3315,"rigtige":3316,"univers":3317,"##anter":3318,"konkur":3319,"køkken":3320,"bid":3321,"ex":3322,"nemt":3323,"##oler":3324,"øj":3325,"##ph":3326,"ganske":3327,"klass":3328,"me":3329,"hvilken":3330,"##ligevel":3331,"alder":3332,"40":3333,"##ktur":3334,"##gene":3335,"fisk":3336,"alligevel":3337,"maneder":3338,"social":3339,"pik":3340,"sort":3341,"niveau":3342,"forbru":3343,"##arbejdet":3344,"sil":3345,"indt":3346,"billig":3347,"forvent":3348,"forældre":3349,"forkl":3350,"ak":3351,"læge":3352,"22":3353,"enten":3354,"##æst":3355,"##yttet":3356,"tidspunkt":3357,"##sætning":3358,"held":3359,"um":3360,"politik":3361,"##givet":3362,"##uel":3363,"nettet":3364,"løn":3365,"tit":3366,"bord":3367,"##reds":3368,"alene":3369,"situ":3370,"bemær":3371,"##isten":3372,"##eten":3373,"ho":3374,"##ateg":3375,"forh":3376,"sej":3377,"##lej":3378,"##sy":3379,"prin":3380,"##ations":3381,"we":3382,"tysk":3383,"mag":3384,"##fr":3385,"##ies":3386,"uger":3387,"masser":3388,"internation":3389,"##pport":3390,"##ræt":3391,"##sætte":3392,"car":3393,"##ogn":3394,"søge":3395,"livet":3396,"kræver":3397,"pu":3398,"ejer":3399,"data":3400,"##ktioner":3401,"græn":3402,"udford":3403,"##oen":3404,"amer":3405,"tor":3406,"indenfor":3407,"prøve":3408,"fj":3409,"nation":3410,"juni":3411,"nøg":3412,"anlæg":3413,"uddannelse":3414,"etab":3415,"##sels":3416,"##aven":3417,"lade":3418,"frit":3419,"##ific":3420,"##æd":3421,"##sport":3422,"sidst":3423,"kender":3424,"##ose":3425,"særligt":3426,"aben":3427,"##udover":3428,"fru":3429,"okt":3430,"penis":3431,"kommet":3432,"lande":3433,"dis":3434,"##ension":3435,"dren":3436,"##hen":3437,"##icin":3438,"sep":3439,"gul":3440,"##sætter":3441,"indlæg":3442,"##kommen":3443,"imp":3444,"##ful":3445,"hed":3446,"simp":3447,"omrader":3448,"værdi":3449,"stille":3450,"behand":3451,"aug":3452,"##stræ":3453,"vejen":3454,"eget":3455,"##uar":3456,"præc":3457,"mill":3458,"##ivl":3459,"##eringen":3460,"ford":3461,"fyr":3462,"##mmen":3463,"samfund":3464,"##atter":3465,"##he":3466,"##ons":3467,"##ningerne":3468,"støtte":3469,"##mand":3470,"##ikk":3471,"typ":3472,"##ober":3473,"ønsk":3474,"apr":3475,"##gifter":3476,"hverdag":3477,"overvej":3478,"##uddann":3479,"fandt":3480,"forbed":3481,"vold":3482,"deltag":3483,"##aur":3484,"##rat":3485,"ferie":3486,"utr":3487,"##holdt":3488,"drø":3489,"udsk":3490,"##berg":3491,"##pligt":3492,"jeres":3493,"##ps":3494,"vælger":3495,"dyb":3496,"enhver":3497,"fundet":3498,"gud":3499,"udgangspunkt":3500,"##vor":3501,"blog":3502,"ske":3503,"##uelt":3504,"smag":3505,"popul":3506,"lø":3507,"##værd":3508,"##ært":3509,"restaur":3510,"marked":3511,"##endes":3512,"##ynder":3513,"vedr":3514,"2018":3515,"##ærer":3516,"##uss":3517,"ifølge":3518,"##æft":3519,"sæson":3520,"prim":3521,"ark":3522,"##mod":3523,"bad":3524,"begræn":3525,"##værre":3526,"produktion":3527,"##ænger":3528,"anvendes":3529,"rum":3530,"ryg":3531,"lære":3532,"##orte":3533,"##gere":3534,"fug":3535,"##inst":3536,"sør":3537,"posit":3538,"foreg":3539,"spille":3540,"log":3541,"blod":3542,"##samling":3543,"amerik":3544,"go":3545,"##arbejd":3546,"imod":3547,"ur":3548,"sch":3549,"borger":3550,"seneste":3551,"tilg":3552,"##mark":3553,"ens":3554,"##jylland":3555,"desværre":3556,"aarhus":3557,"sidder":3558,"kæm":3559,"##foren":3560,"##gaard":3561,"medarbejdere":3562,"rent":3563,"højere":3564,"invest":3565,"karakter":3566,"##føres":3567,"##nar":3568,"mør":3569,"vægt":3570,"bestemt":3571,"sætter":3572,"egne":3573,"studer":3574,"sport":3575,"krist":3576,"effekt":3577,"rig":3578,"region":3579,"januar":3580,"2017":3581,"##yse":3582,"##eres":3583,"skyl":3584,"hvid":3585,"information":3586,"##iat":3587,"drift":3588,"kunder":3589,"repræ":3590,"bræ":3591,"afslut":3592,"##retning":3593,"landet":3594,"opgaver":3595,"bryster":3596,"yderligere":3597,"##fører":3598,"farver":3599,"##elsk":3600,"foran":3601,"mask":3602,"ønske":3603,"glad":3604,"port":3605,"skriver":3606,"23":3607,"##iz":3608,"bred":3609,"pal":3610,"gaet":3611,"udstyr":3612,"km":3613,"motor":3614,"fir":3615,"skrevet":3616,"2015":3617,"tvivl":3618,"##iddag":3619,"regler":3620,"procent":3621,"bur":3622,"profession":3623,"sjov":3624,"##kal":3625,"elekt":3626,"slags":3627,"væg":3628,"##ore":3629,"kolle":3630,"##ment":3631,"evt":3632,"##øjer":3633,"oplevelse":3634,"##ink":3635,"formal":3636,"rele":3637,"##følgende":3638,"centr":3639,"velkommen":3640,"mærke":3641,"##esp":3642,"sæd":3643,"##ivil":3644,"billede":3645,"##holm":3646,"normalt":3647,"sku":3648,"sw":3649,"aret":3650,"ac":3651,"hund":3652,"proces":3653,"deb":3654,"særlig":3655,"##lys":3656,"arbejdsm":3657,"uds":3658,"barnet":3659,"##varer":3660,"bygge":3661,"opna":3662,"bestar":3663,"it":3664,"køn":3665,"##frem":3666,"feb":3667,"##ales":3668,"hjælper":3669,"##sd":3670,"høre":3671,"internet":3672,"institut":3673,"##rup":3674,"##ild":3675,"lærer":3676,"tænke":3677,"##olut":3678,"fær":3679,"##olk":3680,"frederik":3681,"selskab":3682,"træning":3683,"jf":3684,"##anger":3685,"kommunik":3686,"joh":3687,"##ommen":3688,"stod":3689,"inkl":3690,"##رر":3691,"##ids":3692,"komb":3693,"haber":3694,"sociale":3695,"kendt":3696,"##endelse":3697,"forn":3698,"cl":3699,"møder":3700,"##kort":3701,"usa":3702,"##igur":3703,"tvær":3704,"##igvis":3705,"medicin":3706,"vinter":3707,"2016":3708,"##drag":3709,"##oven":3710,"model":3711,"nej":3712,"2014":3713,"mangler":3714,"fat":3715,"frække":3716,"##bart":3717,"givet":3718,"##ppet":3719,"virker":3720,"ansøg":3721,"tred":3722,"gammel":3723,"venner":3724,"##her":3725,"bestille":3726,"##mæss":3727,"effektiv":3728,"##orm":3729,"##aller":3730,"admin":3731,"alvor":3732,"sider":3733,"funger":3734,"blom":3735,"##hov":3736,"kærlighed":3737,"dejlig":3738,"##uer":3739,"##ledes":3740,"valgt":3741,"no":3742,"hensyn":3743,"yd":3744,"aktiviteter":3745,"bevæg":3746,"##da":3747,"##tende":3748,"etabler":3749,"##fekt":3750,"##aner":3751,"kompeten":3752,"endelig":3753,"##olit":3754,"interesser":3755,"##assen":3756,"forslag":3757,"naturligvis":3758,"erfaring":3759,"derudover":3760,"##iel":3761,"##kn":3762,"##ient":3763,"##produ":3764,"energ":3765,"##center":3766,"brand":3767,"##inister":3768,"kryd":3769,"kold":3770,"##løs":3771,"recept":3772,"intet":3773,"##ceret":3774,"forfat":3775,"kol":3776,"##gift":3777,"betydning":3778,"pæ":3779,"##gede":3780,"gruppe":3781,"øst":3782,"egentlig":3783,"##givning":3784,"us":3785,"##skrift":3786,"ær":3787,"sket":3788,"snart":3789,"begyndte":3790,"fint":3791,"##nal":3792,"rol":3793,"søn":3794,"##elighed":3795,"##ix":3796,"compu":3797,"mis":3798,"erot":3799,"##nende":3800,"##kkende":3801,"mæng":3802,"##ktor":3803,"bereg":3804,"oden":3805,"tradition":3806,"##raks":3807,"tj":3808,"odense":3809,"il":3810,"tyd":3811,"sla":3812,"pap":3813,"rigtigt":3814,"##stid":3815,"##hør":3816,"bogen":3817,"trods":3818,"henhold":3819,"##bog":3820,"forløb":3821,"stig":3822,"##spil":3823,"aal":3824,"val":3825,"efterfølgende":3826,"##gørelse":3827,"##yre":3828,"2013":3829,"##hjæl":3830,"kører":3831,"26":3832,"aftale":3833,"dv":3834,"marts":3835,"føler":3836,"##anlæg":3837,"198":3838,"spise":3839,"##aske":3840,"kommunen":3841,"##huset":3842,"##ampe":3843,"##ylde":3844,"lange":3845,"##fil":3846,"begynder":3847,"ag":3848,"60":3849,"tun":3850,"mm":3851,"fodbold":3852,"klart":3853,"kurs":3854,"erne":3855,"oktober":3856,"betale":3857,"konkret":3858,"følger":3859,"december":3860,"april":3861,"ægte":3862,"priser":3863,"beskæft":3864,"##kald":3865,"##uen":3866,"##ktør":3867,"##lin":3868,"børnene":3869,"##raksis":3870,"krig":3871,"##elsens":3872,"##dagog":3873,"septem":3874,"periode":3875,"glæde":3876,"særlige":3877,"afg":3878,"##pen":3879,"arhus":3880,"fremm":3881,"mic":3882,"##itt":3883,"bus":3884,"betaling":3885,"august":3886,"##enser":3887,"moderne":3888,"september":3889,"offentlige":3890,"##eskab":3891,"optim":3892,"vise":3893,"till":3894,"28":3895,"ir":3896,"##nere":3897,"##offer":3898,"##ts":3899,"bemærk":3900,"peter":3901,"viagra":3902,"arbejds":3903,"samlede":3904,"##lejer":3905,"aalborg":3906,"cit":3907,"succ":3908,"beskriv":3909,"tæ":3910,"født":3911,"hum":3912,"engang":3913,"here":3914,"bol":3915,"##ellem":3916,"27":3917,"##ligheder":3918,"pot":3919,"resten":3920,"##anch":3921,"finans":3922,"dri":3923,"offentlig":3924,"størrelse":3925,"are":3926,"##gelse":3927,"##za":3928,"eksper":3929,"generelt":3930,"pres":3931,"##kr":3932,"##teres":3933,"nævn":3934,"##rav":3935,"abs":3936,"nuværende":3937,"##to":3938,"føde":3939,"##ierne":3940,"indiv":3941,"elev":3942,"kend":3943,"##derne":3944,"æg":3945,"øvrige":3946,"gennemsnit":3947,"smer":3948,"##sættes":3949,"autom":3950,"##ate":3951,"udtryk":3952,"perfekt":3953,"idet":3954,"time":3955,"lide":3956,"rette":3957,"sammenlig":3958,"løsning":3959,"197":3960,"bær":3961,"stop":3962,"planlæg":3963,"konkurren":3964,"kæmpe":3965,"##enti":3966,"november":3967,"##ras":3968,"find":3969,"##vist":3970,"ph":3971,"##ng":3972,"sek":3973,"kroppen":3974,"skol":3975,"general":3976,"instru":3977,"taler":3978,"ok":3979,"##sbe":3980,"universitet":3981,"stri":3982,"uddannelses":3983,"udb":3984,"bla":3985,"præsen":3986,"##abil":3987,"##tagelse":3988,"undervisning":3989,"##klub":3990,"##lo":3991,"##kre":3992,"##linger":3993,"##lende":3994,"muse":3995,"modtager":3996,"private":3997,"mo":3998,"##agn":3999,"kunde":4000,"tilgæng":4001,"vækst":4002,"##adet":4003,"kroner":4004,"tænker":4005,"##visning":4006,"projektet":4007,"fremtid":4008,"indga":4009,"##alog":4010,"hej":4011,"jule":4012,"##ystem":4013,"##fri":4014,"forest":4015,"##spe":4016,"huset":4017,"ejendom":4018,"bestyrelsen":4019,"##bu":4020,"bekendt":4021,"kirke":4022,"##ock":4023,"varer":4024,"##ly":4025,"selve":4026,"hud":4027,"neg":4028,"opgave":4029,"løbende":4030,"as":4031,"beløb":4032,"uh":4033,"ende":4034,"##part":4035,"##ustri":4036,"profil":4037,"##unkter":4038,"klasse":4039,"fortsat":4040,"jes":4041,"budget":4042,"##estyr":4043,"week":4044,"opmærksom":4045,"##ins":4046,"fjern":4047,"succes":4048,"##ages":4049,"sna":4050,"2012":4051,"farve":4052,"specielt":4053,"sagen":4054,"##man":4055,"##udvik":4056,"bebo":4057,"##fang":4058,"##ringe":4059,"herefter":4060,"##imod":4061,"personlige":4062,"##fin":4063,"##ienter":4064,"ophold":4065,"nødvendigt":4066,"køber":4067,"##akte":4068,"##oer":4069,"##raft":4070,"##tig":4071,"rab":4072,"dens":4073,"artikel":4074,"kred":4075,"##ylder":4076,"##uren":4077,"##vent":4078,"##skri":4079,"registr":4080,"ry":4081,"udn":4082,"bland":4083,"tilfreds":4084,"hy":4085,"detal":4086,"29":4087,"sten":4088,"lev":4089,"indb":4090,"billed":4091,"voksne":4092,"smil":4093,"virksomheden":4094,"udvikle":4095,"meter":4096,"redu":4097,"typisk":4098,"##radet":4099,"glas":4100,"##aende":4101,"fortælle":4102,"team":4103,"neden":4104,"skolen":4105,"administr":4106,"##høj":4107,"kj":4108,"##varende":4109,"sygdom":4110,"skj":4111,"forst":4112,"adres":4113,"holdt":4114,"figur":4115,"hard":4116,"bab":4117,"##omradet":4118,"venstre":4119,"klo":4120,"transport":4121,"prøv":4122,"pluds":4123,"ligel":4124,"krit":4125,"stykke":4126,"ital":4127,"##50":4128,"##værks":4129,"##obb":4130,"bøger":4131,"tillad":4132,"stru":4133,"type":4134,"gældende":4135,"##ou":4136,"stem":4137,"individ":4138,"opd":4139,"kommende":4140,"behøver":4141,"husk":4142,"##ativt":4143,"tils":4144,"##cep":4145,"##somt":4146,"sønd":4147,"indsats":4148,"rør":4149,"skrift":4150,"lagt":4151,"frisk":4152,"oprind":4153,"##yser":4154,"gæ":4155,"##bro":4156,"##essour":4157,"##tern":4158,"##staende":4159,"##istiske":4160,"retning":4161,"maler":4162,"fedt":4163,"##lementer":4164,"abne":4165,"ligeledes":4166,"spør":4167,"##hje":4168,"eksister":4169,"midler":4170,"##værelse":4171,"fas":4172,"gravid":4173,"overfl":4174,"forsikring":4175,"undga":4176,"##vare":4177,"højre":4178,"##aft":4179,"tryk":4180,"pct":4181,"kre":4182,"korre":4183,"værkt":4184,"bort":4185,"spillet":4186,"tekst":4187,"oper":4188,"familien":4189,"minim":4190,"praksis":4191,"cirk":4192,"hom":4193,"hul":4194,"tilp":4195,"##udvalg":4196,"##plad":4197,"udel":4198,"simpelt":4199,"skaber":4200,"tri":4201,"fungerer":4202,"31":4203,"##illede":4204,"##ja":4205,"europa":4206,"##ommer":4207,"juli":4208,"forhand":4209,"nyde":4210,"studerende":4211,"dejligt":4212,"kendte":4213,"hvornar":4214,"##skl":4215,"dam":4216,"ci":4217,"##asin":4218,"udl":4219,"##sminister":4220,"leve":4221,"afsnit":4222,"##ko":4223,"tje":4224,"strateg":4225,"imellem":4226,"afhæng":4227,"flotte":4228,"færdig":4229,"præcis":4230,"##rettet":4231,"belig":4232,"oplever":4233,"##ologiske":4234,"regel":4235,"ændringer":4236,"fuldt":4237,"mio":4238,"##eringer":4239,"##sens":4240,"li":4241,"bestemm":4242,"##orden":4243,"dra":4244,"##arm":4245,"gift":4246,"klin":4247,"prisen":4248,"pag":4249,"bygger":4250,"##kræ":4251,"vent":4252,"computer":4253,"kop":4254,"##hav":4255,"sammenhæng":4256,"skyldes":4257,"frivil":4258,"tant":4259,"##øjet":4260,"##oje":4261,"##fer":4262,"tjen":4263,"##elen":4264,"server":4265,"pædagog":4266,"ram":4267,"bidr":4268,"##afil":4269,"##sid":4270,"kateg":4271,"kvind":4272,"kæreste":4273,"##igheden":4274,"##oret":4275,"##støt":4276,"##tiden":4277,"dokument":4278,"##fort":4279,"skat":4280,"kombin":4281,"klim":4282,"##ologisk":4283,"##inen":4284,"koncer":4285,"##ørs":4286,"opleve":4287,"##ydelse":4288,"osv":4289,"2011":4290,"##deles":4291,"punkt":4292,"##mad":4293,"##stændig":4294,"fine":4295,"arige":4296,"overra":4297,"##menter":4298,"fisse":4299,"stærk":4300,"smart":4301,"erhvervs":4302,"bank":4303,"##terede":4304,"##iljø":4305,"##ømme":4306,"##mus":4307,"##istisk":4308,"ww":4309,"hører":4310,"overv":4311,"##peratur":4312,"##skr":4313,"tand":4314,"##egr":4315,"lignende":4316,"nummer":4317,"konst":4318,"febru":4319,"apo":4320,"opdat":4321,"band":4322,"tot":4323,"ændre":4324,"almindelige":4325,"ansigt":4326,"komment":4327,"vedlige":4328,"februar":4329,"##isen":4330,"vejledning":4331,"europæ":4332,"2010":4333,"van":4334,"nærmere":4335,"materiale":4336,"projekter":4337,"196":4338,"helst":4339,"rev":4340,"##komst":4341,"skift":4342,"lyder":4343,"kong":4344,"kul":4345,"new":4346,"all":4347,"starter":4348,"##sættelse":4349,"kg":4350,"guld":4351,"ident":4352,"cykel":4353,"udsigt":4354,"paa":4355,"ras":4356,"##skole":4357,"lækre":4358,"interess":4359,"højde":4360,"mynd":4361,"læser":4362,"interesse":4363,"##jort":4364,"##alder":4365,"magt":4366,"##ynde":4367,"##sning":4368,"##port":4369,"dels":4370,"sven":4371,"tilsyn":4372,"arrange":4373,"kons":4374,"sang":4375,"##iven":4376,"##eri":4377,"anmeld":4378,"##ry":4379,"lør":4380,"mærk":4381,"sende":4382,"patient":4383,"##fo":4384,"tredje":4385,"vers":4386,"standard":4387,"##erk":4388,"ti":4389,"weekend":4390,"##sekv":4391,"firma":4392,"forbi":4393,"anvendelse":4394,"##ivet":4395,"##ktionen":4396,"ressour":4397,"mening":4398,"beskæftig":4399,"##eløb":4400,"##ikt":4401,"fac":4402,"##aben":4403,"datter":4404,"øl":4405,"##ømm":4406,"tantra":4407,"øvrigt":4408,"christian":4409,"##plads":4410,"smuk":4411,"##ach":4412,"brød":4413,"erstat":4414,"antallet":4415,"pleje":4416,"styrke":4417,"afdeling":4418,"##own":4419,"www":4420,"##eld":4421,"omkost":4422,"supp":4423,"##vejen":4424,"vurdering":4425,"næv":4426,"hvide":4427,"typer":4428,"malt":4429,"tegn":4430,"##fuld":4431,"eksempelvis":4432,"kød":4433,"##ofil":4434,"hor":4435,"##anten":4436,"chat":4437,"vigtigste":4438,"foto":4439,"partner":4440,"##stillet":4441,"safrem":4442,"konf":4443,"udgifter":4444,"##abel":4445,"pig":4446,"##hjælp":4447,"##ndt":4448,"##20":4449,"plad":4450,"##mb":4451,"ændring":4452,"udelu":4453,"vandet":4454,"sød":4455,"##ich":4456,"jorden":4457,"vari":4458,"søndag":4459,"##stillinger":4460,"##book":4461,"##illing":4462,"pe":4463,"##svis":4464,"meg":4465,"194":4466,"skatte":4467,"italien":4468,"mader":4469,"safremt":4470,"gent":4471,"mist":4472,"lod":4473,"positiv":4474,"stærkt":4475,"san":4476,"beting":4477,"##aen":4478,"##taget":4479,"dobb":4480,"tyskland":4481,"kapit":4482,"deltage":4483,"##ørn":4484,"##ragt":4485,"kval":4486,"rammer":4487,"altern":4488,"udf":4489,"##ffer":4490,"lørdag":4491,"konsekv":4492,"opfat":4493,"##nas":4494,"lykk":4495,"##bred":4496,"face":4497,"##tel":4498,"##iteter":4499,"udover":4500,"##ips":4501,"viste":4502,"pludselig":4503,"regnskab":4504,"##æring":4505,"fej":4506,"sønder":4507,"skade":4508,"35":4509,"forfatter":4510,"hardt":4511,"##ante":4512,"80":4513,"pavir":4514,"bon":4515,"##ice":4516,"retur":4517,"middel":4518,"trafik":4519,"##forsamling":4520,"bilag":4521,"resultater":4522,"pagældende":4523,"char":4524,"senest":4525,"45":4526,"kaffe":4527,"##gaende":4528,"glæder":4529,"##vig":4530,"isl":4531,"endda":4532,"##gr":4533,"##forløb":4534,"##kast":4535,"##alte":4536,"omfang":4537,"netværk":4538,"baseret":4539,"nødt":4540,"amb":4541,"sandsyn":4542,"udviklet":4543,"hedder":4544,"##ty":4545,"sidde":4546,"##slut":4547,"fræk":4548,"langs":4549,"##lingen":4550,"revis":4551,"kontakte":4552,"skrev":4553,"##ygge":4554,"##okol":4555,"borgere":4556,"##ikket":4557,"lægger":4558,"##aer":4559,"ent":4560,"##handen":4561,"con":4562,"lyn":4563,"##bes":4564,"##met":4565,"stol":4566,"flyt":4567,"spur":4568,"eleverne":4569,"fyn":4570,"udgør":4571,"ot":4572,"##ung":4573,"undersøgelse":4574,"fe":4575,"##splad":4576,"##yttelse":4577,"ufor":4578,"savel":4579,"##strup":4580,"##ifik":4581,"digit":4582,"##sst":4583,"##jerne":4584,"forber":4585,"overrask":4586,"engelsk":4587,"sar":4588,"folke":4589,"menneske":4590,"pension":4591,"yng":4592,"70":4593,"ass":4594,"ungdom":4595,"sove":4596,"burde":4597,"folket":4598,"##ish":4599,"##iker":4600,"anderledes":4601,"##vidst":4602,"gym":4603,"aftal":4604,"##virk":4605,"valgte":4606,"efterhanden":4607,"##ka":4608,"uaf":4609,"vælg":4610,"udviklingen":4611,"##anen":4612,"vild":4613,"##æde":4614,"##videre":4615,"##uligheder":4616,"##etter":4617,"camp":4618,"##iens":4619,"sko":4620,"symp":4621,"special":4622,"møn":4623,"genop":4624,"geng":4625,"brugte":4626,"oplevelser":4627,"rand":4628,"forening":4629,"##iew":4630,"møl":4631,"##co":4632,"cialis":4633,"generalforsamling":4634,"lægge":4635,"##itu":4636,"forskning":4637,"lar":4638,"sing":4639,"##valg":4640,"økonomiske":4641,"skil":4642,"##ions":4643,"dre":4644,"ed":4645,"skriv":4646,"##ba":4647,"dvs":4648,"omfatter":4649,"hunde":4650,"2009":4651,"dygt":4652,"købt":4653,"fredag":4654,"formand":4655,"##ick":4656,"absolut":4657,"frank":4658,"generisk":4659,"situation":4660,"princi":4661,"fyldt":4662,"øjne":4663,"døde":4664,"##viser":4665,"mik":4666,"overfor":4667,"sælger":4668,"olie":4669,"##blio":4670,"uk":4671,"rolle":4672,"træt":4673,"##øgen":4674,"rejser":4675,"afgørende":4676,"jour":4677,"afsk":4678,"500":4679,"##forhold":4680,"##ugt":4681,"nab":4682,"bekym":4683,"jylland":4684,"respe":4685,"afh":4686,"##kommende":4687,"##tom":4688,"sjæld":4689,"intr":4690,"vandt":4691,"klik":4692,"heldigvis":4693,"##beg":4694,"bygget":4695,"##omrade":4696,"træk":4697,"skabt":4698,"##try":4699,"kommuner":4700,"fremgar":4701,"forbrug":4702,"kirk":4703,"præst":4704,"endvidere":4705,"##elset":4706,"drikke":4707,"sikrer":4708,"##isme":4709,"liste":4710,"økonomi":4711,"grundlæg":4712,"internationale":4713,"bilen":4714,"starte":4715,"stræ":4716,"vedrørende":4717,"##enes":4718,"##ork":4719,"forsvar":4720,"grundlag":4721,"##holdelse":4722,"##amen":4723,"debat":4724,"##bil":4725,"nyhed":4726,"##fæl":4727,"former":4728,"klare":4729,"##indre":4730,"##løse":4731,"huske":4732,"interv":4733,"hygg":4734,"##giver":4735,"tom":4736,"##atet":4737,"##ah":4738,"cop":4739,"nør":4740,"foræl":4741,"##mmerne":4742,"vinder":4743,"mv":4744,"##ici":4745,"##okrat":4746,"værk":4747,"dobbelt":4748,"populære":4749,"foregar":4750,"hjør":4751,"ht":4752,"stress":4753,"dejlige":4754,"startede":4755,"ros":4756,"blød":4757,"opfyldt":4758,"amerikanske":4759,"deltager":4760,"umiddel":4761,"københavns":4762,"jensen":4763,"inn":4764,"strand":4765,"real":4766,"skyld":4767,"ked":4768,"kast":4769,"almindelig":4770,"lege":4771,"røde":4772,"##betaling":4773,"starten":4774,"##sø":4775,"indbyg":4776,"program":4777,"hansen":4778,"sad":4779,"gæster":4780,"hverken":4781,"stof":4782,"just":4783,"risiko":4784,"##person":4785,"søde":4786,"videnskab":4787,"gard":4788,"øk":4789,"væsent":4790,"rim":4791,"##ustr":4792,"tyske":4793,"rekl":4794,"dyre":4795,"kommunikation":4796,"politiske":4797,"##mester":4798,"repræsent":4799,"##ffet":4800,"øjebl":4801,"lider":4802,"patienter":4803,"arets":4804,"fysisk":4805,"gre":4806,"2008":4807,"opbe":4808,"bryst":4809,"sender":4810,"lager":4811,"##holdes":4812,"##mmelig":4813,"ansatte":4814,"##bæk":4815,"##lader":4816,"##cere":4817,"musk":4818,"indkøb":4819,"bage":4820,"struktur":4821,"thom":4822,"##ordin":4823,"eksisterende":4824,"##ta":4825,"brænd":4826,"frugt":4827,"beret":4828,"##brud":4829,"udfordringer":4830,"tus":4831,"mer":4832,"##smæssige":4833,"damer":4834,"opbyg":4835,"av":4836,"spis":4837,"smule":4838,"sof":4839,"##landet":4840,"##fek":4841,"##alu":4842,"##vejs":4843,"navnet":4844,"##ash":4845,"##okost":4846,"cy":4847,"##rene":4848,"rengør":4849,"prøver":4850,"sjovt":4851,"bund":4852,"køl":4853,"inspiration":4854,"fødsels":4855,"strøm":4856,"sendt":4857,"##førte":4858,"vare":4859,"##ægter":4860,"neder":4861,"millioner":4862,"sammens":4863,"##mask":4864,"dæk":4865,"facebook":4866,"udenfor":4867,"spor":4868,"forand":4869,"dialog":4870,"darlig":4871,"##ovens":4872,"venlig":4873,"##qu":4874,"pæn":4875,"##domme":4876,"##endørs":4877,"nielsen":4878,"industri":4879,"forret":4880,"nogens":4881,"dækker":4882,"dør":4883,"besked":4884,"hotellet":4885,"##fulde":4886,"imidler":4887,"vidt":4888,"svarer":4889,"modtaget":4890,"rett":4891,"økonomisk":4892,"gengæld":4893,"stilling":4894,"hjerte":4895,"unders":4896,"imidlertid":4897,"kron":4898,"regering":4899,"nøgen":4900,"##ydende":4901,"point":4902,"automatisk":4903,"ori":4904,"integr":4905,"##orter":4906,"adresse":4907,"fører":4908,"papir":4909,"##iets":4910,"falder":4911,"dokumenter":4912,"##ette":4913,"pul":4914,"simpelthen":4915,"##oces":4916,"journal":4917,"##besk":4918,"tages":4919,"##oplys":4920,"hovedet":4921,"blomster":4922,"levering":4923,"##bare":4924,"##atør":4925,"forældr":4926,"arkite":4927,"mund":4928,"ønskede":4929,"lands":4930,"##rige":4931,"øget":4932,"historien":4933,"##kser":4934,"rapport":4935,"##vin":4936,"ringe":4937,"national":4938,"je":4939,"beskr":4940,"##ødes":4941,"billedet":4942,"forker":4943,"visse":4944,"##stemmelse":4945,"tilstræ":4946,"betragt":4947,"opdag":4948,"##hovedet":4949,"næst":4950,"ideer":4951,"enhed":4952,"vejr":4953,"tanker":4954,"##omrader":4955,"apotek":4956,"##vante":4957,"##dem":4958,"jens":4959,"modeller":4960,"pri":4961,"36":4962,"##istik":4963,"fantas":4964,"##sby":4965,"trække":4966,"##væg":4967,"guide":4968,"vansk":4969,"##mmere":4970,"nærmest":4971,"fork":4972,"do":4973,"indgar":4974,"##app":4975,"nogensinde":4976,"##fag":4977,"##ness":4978,"##styrelsen":4979,"meddel":4980,"##ity":4981,"2007":4982,"skar":4983,"grønne":4984,"modtage":4985,"læst":4986,"forpligt":4987,"udvid":4988,"##hj":4989,"maden":4990,"##histor":4991,"arig":4992,"esb":4993,"bygning":4994,"tillæg":4995,"nøgne":4996,"mulige":4997,"foreb":4998,"forklar":4999,"forsv":5000,"##bjerg":5001,"primært":5002,"sov":5003,"tids":5004,"##stemer":5005,"medier":5006,"varmt":5007,"løsninger":5008,"##udvikling":5009,"leverand":5010,"aktiver":5011,"understøt":5012,"##hal":5013,"opmærksomhed":5014,"##ancer":5015,"ug":5016,"indfl":5017,"##amin":5018,"temperatur":5019,"##edygt":5020,"sjælland":5021,"godkendt":5022,"sver":5023,"##pos":5024,"##delingen":5025,"##leder":5026,"##ves":5027,"live":5028,"##cel":5029,"ødel":5030,"vilkar":5031,"straks":5032,"##inge":5033,"prote":5034,"personale":5035,"koster":5036,"kund":5037,"##egnet":5038,"værelse":5039,"plast":5040,"##fekte":5041,"fantastiske":5042,"ing":5043,"##ape":5044,"udbud":5045,"sorte":5046,"##rund":5047,"tar":5048,"##fun":5049,"##vest":5050,"##ætter":5051,"flytte":5052,"##orier":5053,"træn":5054,"jagt":5055,"##øve":5056,"fortsætter":5057,"anerk":5058,"##skilde":5059,"omgiv":5060,"knap":5061,"##olf":5062,"kem":5063,"overens":5064,"symptom":5065,"samarbejd":5066,"##skrifter":5067,"markedet":5068,"spar":5069,"bod":5070,"politiet":5071,"potenti":5072,"##institut":5073,"forsøger":5074,"##hund":5075,"center":5076,"nødvendige":5077,"tilskud":5078,"init":5079,"##eks":5080,"##gade":5081,"omgang":5082,"europæiske":5083,"turen":5084,"forek":5085,"vidste":5086,"##las":5087,"hosp":5088,"lettere":5089,"##sætt":5090,"erfaringer":5091,"##ert":5092,"##out":5093,"90":5094,"193":5095,"gøres":5096,"##ight":5097,"dato":5098,"fleks":5099,"øver":5100,"henrik":5101,"ledelse":5102,"fores":5103,"væs":5104,"##we":5105,"beslutning":5106,"##gard":5107,"videoer":5108,"reser":5109,"arbejdsg":5110,"materialer":5111,"##anti":5112,"##vede":5113,"affald":5114,"##fors":5115,"mandag":5116,"##erende":5117,"tl":5118,"uafhæng":5119,"##ses":5120,"daglig":5121,"32":5122,"##rende":5123,"ændret":5124,"##ski":5125,"relig":5126,"lars":5127,"##vender":5128,"maks":5129,"scen":5130,"vit":5131,"leje":5132,"##ane":5133,"relevante":5134,"branch":5135,"##ford":5136,"tilbyde":5137,"sundheds":5138,"##oft":5139,"wh":5140,"##behandling":5141,"prøvet":5142,"landbrug":5143,"radighed":5144,"##itra":5145,"bevæ":5146,"##skov":5147,"korrekt":5148,"stærke":5149,"pil":5150,"biblio":5151,"afv":5152,"vigtige":5153,"kommunal":5154,"accep":5155,"##forening":5156,"##assage":5157,"glob":5158,"##bær":5159,"løber":5160,"hi":5161,"##opper":5162,"##ase":5163,"pan":5164,"##liv":5165,"##usion":5166,"detaljer":5167,"##ines":5168,"afsp":5169,"##førelse":5170,"kigge":5171,"elektron":5172,"##yttes":5173,"hast":5174,"ugen":5175,"voksen":5176,"sukker":5177,"##iteten":5178,"orienter":5179,"##mal":5180,"wor":5181,"##andid":5182,"overord":5183,"goog":5184,"støv":5185,"parkering":5186,"skønne":5187,"hjemmesiden":5188,"sager":5189,"##ong":5190,"træner":5191,"udgivet":5192,"tilkn":5193,"butik":5194,"mæl":5195,"##urs":5196,"indre":5197,"opst":5198,"stemme":5199,"lader":5200,"mom":5201,"perfekte":5202,"##park":5203,"handle":5204,"udst":5205,"##uddannelse":5206,"##ragende":5207,"##splads":5208,"fab":5209,"funktioner":5210,"nøj":5211,"book":5212,"vildt":5213,"modstand":5214,"fysiske":5215,"konstru":5216,"##agne":5217,"out":5218,"livs":5219,"opskrift":5220,"batter":5221,"muligheden":5222,"kursus":5223,"grundlæggende":5224,"##bord":5225,"frederiks":5226,"swinger":5227,"fremtiden":5228,"malet":5229,"ligge":5230,"konkrete":5231,"kampen":5232,"tilslut":5233,"publik":5234,"sasom":5235,"arg":5236,"udt":5237,"##bed":5238,"##job":5239,"##centr":5240,"cam":5241,"##vok":5242,"sli":5243,"##ament":5244,"glade":5245,"perioden":5246,"tværs":5247,"ramme":5248,"teen":5249,"##landske":5250,"grupper":5251,"up":5252,"fo":5253,"tilst":5254,"invi":5255,"derimod":5256,"manglende":5257,"tydeligt":5258,"191":5259,"##vice":5260,"##mor":5261,"##slaget":5262,"fotograf":5263,"brugere":5264,"udgave":5265,"alko":5266,"##ftet":5267,"##vise":5268,"##imer":5269,"##iseret":5270,"krim":5271,"##agte":5272,"behag":5273,"salt":5274,"bevidst":5275,"bekræ":5276,"saa":5277,"skræ":5278,"rasmus":5279,"33":5280,"idræt":5281,"sind":5282,"daglige":5283,"jap":5284,"##mon":5285,"tilstand":5286,"##ton":5287,"evalu":5288,"##mænd":5289,"satte":5290,"match":5291,"igang":5292,"##æder":5293,"##ros":5294,"fællesskab":5295,"fav":5296,"tryg":5297,"resultatet":5298,"fremragende":5299,"naturen":5300,"væsentlig":5301,"##saf":5302,"##nene":5303,"innov":5304,"manden":5305,"esbjerg":5306,"møb":5307,"lækkert":5308,"##chef":5309,"##riter":5310,"##slen":5311,"##saft":5312,"vejle":5313,"interview":5314,"##denafil":5315,"tir":5316,"rul":5317,"henvend":5318,"##huse":5319,"felt":5320,"max":5321,"fortr":5322,"##ission":5323,"overblik":5324,"arbejdsmark":5325,"beskrivelse":5326,"##riere":5327,"pengene":5328,"umiddelbart":5329,"besøge":5330,"randers":5331,"##adem":5332,"kræft":5333,"##rib":5334,"##ordning":5335,"##kor":5336,"kli":5337,"politisk":5338,"stal":5339,"down":5340,"byens":5341,"##olitik":5342,"baby":5343,"##estyrelsen":5344,"jern":5345,"kone":5346,"introdu":5347,"mødes":5348,"personlig":5349,"##nat":5350,"col":5351,"halvdel":5352,"##afe":5353,"##sig":5354,"silke":5355,"klubben":5356,"##tages":5357,"placeret":5358,"od":5359,"udelukkende":5360,"##rab":5361,"dræ":5362,"oph":5363,"løbe":5364,"dengang":5365,"forstaelse":5366,"##yll":5367,"##delt":5368,"værelser":5369,"præg":5370,"faglige":5371,"plus":5372,"slot":5373,"analyse":5374,"##entligt":5375,"##illes":5376,"##رررر":5377,"relev":5378,"højeste":5379,"torsdag":5380,"##ømt":5381,"##aff":5382,"læring":5383,"vore":5384,"venter":5385,"praktisk":5386,"##dage":5387,"døg":5388,"##peri":5389,"orig":5390,"##splan":5391,"moden":5392,"historier":5393,"tænk":5394,"##uk":5395,"repræsen":5396,"minimum":5397,"restaurant":5398,"vejret":5399,"vente":5400,"anbefale":5401,"opbevar":5402,"##ssel":5403,"øge":5404,"hovedst":5405,"hænder":5406,"drenge":5407,"nævnt":5408,"roskilde":5409,"meste":5410,"300":5411,"huden":5412,"qu":5413,"natten":5414,"ube":5415,"trav":5416,"peder":5417,"##sprog":5418,"anbefaler":5419,"hjul":5420,"##sler":5421,"fart":5422,"##somme":5423,"overhovedet":5424,"##anc":5425,"studie":5426,"sverige":5427,"defin":5428,"arm":5429,"##mail":5430,"jac":5431,"tilstrækk":5432,"alkohol":5433,"virkeligheden":5434,"air":5435,"##sku":5436,"modne":5437,"begrænset":5438,"not":5439,"støj":5440,"##serv":5441,"##istrer":5442,"triv":5443,"##organis":5444,"indholdet":5445,"chokol":5446,"filmen":5447,"##føring":5448,"##olkning":5449,"##stedet":5450,"##varme":5451,"henblik":5452,"grunde":5453,"retten":5454,"john":5455,"##stof":5456,"litter":5457,"vilde":5458,"tallet":5459,"brun":5460,"skridt":5461,"døren":5462,"onsdag":5463,"biler":5464,"spillere":5465,"beste":5466,"##ojekt":5467,"stabil":5468,"##esten":5469,"##rader":5470,"opstar":5471,"sadanne":5472,"markeds":5473,"sommeren":5474,"færre":5475,"##agere":5476,"udført":5477,"haven":5478,"##oo":5479,"##gjort":5480,"overensstemmelse":5481,"trans":5482,"##vil":5483,"##ura":5484,"can":5485,"gave":5486,"trin":5487,"195":5488,"##reme":5489,"iværks":5490,"føle":5491,"kompetencer":5492,"##lement":5493,"##urg":5494,"tabel":5495,"serien":5496,"syntes":5497,"ep":5498,"varet":5499,"##liggende":5500,"tilsvarende":5501,"forne":5502,"cook":5503,"radgivning":5504,"toil":5505,"hænd":5506,"frokost":5507,"gulv":5508,"johan":5509,"##ytt":5510,"mærker":5511,"organisation":5512,"##ævnet":5513,"fjerne":5514,"sagtens":5515,"andersen":5516,"##skolen":5517,"angiv":5518,"##ander":5519,"eventuelle":5520,"##leks":5521,"serie":5522,"føre":5523,"kapitel":5524,"ku":5525,"undersøgelser":5526,"2006":5527,"forstar":5528,"oppe":5529,"sjældent":5530,"hørt":5531,"##ith":5532,"bold":5533,"skader":5534,"minister":5535,"steg":5536,"kontor":5537,"internettet":5538,"sur":5539,"skru":5540,"bestil":5541,"omfattet":5542,"tidligt":5543,"tilh":5544,"byder":5545,"##aktion":5546,"##phone":5547,"origin":5548,"respekt":5549,"nedenfor":5550,"abent":5551,"##skom":5552,"skifte":5553,"oftest":5554,"##middag":5555,"fuldstændig":5556,"##udvalget":5557,"reglerne":5558,"fund":5559,"lukket":5560,"##værker":5561,"dags":5562,"ansat":5563,"oversigt":5564,"forretning":5565,"eventuelt":5566,"##nævn":5567,"hvorefter":5568,"grænse":5569,"entre":5570,"komfort":5571,"dagens":5572,"##sident":5573,"##ænk":5574,"male":5575,"fu":5576,"link":5577,"##ogne":5578,"faste":5579,"præm":5580,"nemmere":5581,"rob":5582,"stigende":5583,"websted":5584,"sigt":5585,"##ls":5586,"ør":5587,"75":5588,"løse":5589,"##ny":5590,"version":5591,"##gangen":5592,"personalet":5593,"vende":5594,"##anke":5595,"##ime":5596,"bæredygt":5597,"##væk":5598,"hil":5599,"##slin":5600,"betaler":5601,"indflydelse":5602,"problemet":5603,"google":5604,"reklam":5605,"kne":5606,"personligt":5607,"benytte":5608,"fødselsdag":5609,"bjer":5610,"kaldes":5611,"fæng":5612,"sne":5613,"tider":5614,"gennemført":5615,"niels":5616,"##kaldte":5617,"billige":5618,"status":5619,"##pris":5620,"adfærd":5621,"forventes":5622,"tlf":5623,"vol":5624,"rut":5625,"skib":5626,"naturlige":5627,"kunden":5628,"##trol":5629,"##dannet":5630,"##drer":5631,"avis":5632,"nede":5633,"##onen":5634,"install":5635,"my":5636,"34":5637,"udfordring":5638,"bir":5639,"prov":5640,"dets":5641,"begiven":5642,"utrolig":5643,"søren":5644,"tank":5645,"##ware":5646,"ræ":5647,"programmet":5648,"kørte":5649,"dav":5650,"kilde":5651,"##væ":5652,"praktik":5653,"foreningen":5654,"##iment":5655,"levitra":5656,"thomas":5657,"værktøj":5658,"faldt":5659,"søl":5660,"##behør":5661,"ner":5662,"kolding":5663,"centrum":5664,"##bane":5665,"##oplysninger":5666,"kamer":5667,"konfl":5668,"bygninger":5669,"ekskl":5670,"ger":5671,"naturligt":5672,"holdet":5673,"ska":5674,"spare":5675,"beliggende":5676,"gymnas":5677,"mindste":5678,"kart":5679,"2000":5680,"##itte":5681,"##vind":5682,"##als":5683,"slutningen":5684,"lykkedes":5685,"værdier":5686,"stjer":5687,"tirsdag":5688,"overt":5689,"forbedre":5690,"pga":5691,"##sende":5692,"##urer":5693,"##handler":5694,"##smæssigt":5695,"ender":5696,"las":5697,"mult":5698,"stykker":5699,"##delse":5700,"direktør":5701,"mort":5702,"##hjemme":5703,"##gu":5704,"##abet":5705,"tilmeld":5706,"handling":5707,"grav":5708,"fremme":5709,"følelser":5710,"spiser":5711,"udarbejdet":5712,"derved":5713,"eftermiddag":5714,"milj":5715,"kunstner":5716,"interessant":5717,"##olver":5718,"annoncer":5719,"sygep":5720,"leget":5721,"foretaget":5722,"adskil":5723,"##ulering":5724,"sor":5725,"ansvarlig":5726,"bredt":5727,"bj":5728,"darligt":5729,"levende":5730,"hæv":5731,"##ydes":5732,"designet":5733,"##unst":5734,"##former":5735,"##pon":5736,"tend":5737,"##ii":5738,"37":5739,"skuesp":5740,"skete":5741,"kontrakt":5742,"passe":5743,"anbefales":5744,"##klæd":5745,"smukt":5746,"begyndelsen":5747,"fleksib":5748,"afgørelse":5749,"fler":5750,"pc":5751,"##rebet":5752,"læder":5753,"##oster":5754,"røg":5755,"gruppen":5756,"annoncen":5757,"aktuelle":5758,"##rit":5759,"##lands":5760,"ill":5761,"##ike":5762,"forbundet":5763,"syv":5764,"grader":5765,"diver":5766,"##sjæl":5767,"##atik":5768,"kende":5769,"kalder":5770,"tekniske":5771,"systemet":5772,"ut":5773,"heraf":5774,"ondt":5775,"##enh":5776,"stre":5777,"##sede":5778,"don":5779,"erik":5780,"metoder":5781,"##stillingen":5782,"lavere":5783,"##kaldt":5784,"begynde":5785,"forars":5786,"fortsætte":5787,"rek":5788,"##band":5789,"##nis":5790,"tænd":5791,"fortalte":5792,"maksim":5793,"landets":5794,"fransk":5795,"jævn":5796,"pakke":5797,"##virksomhed":5798,"veg":5799,"bom":5800,"camping":5801,"abon":5802,"museum":5803,"arbejdsgiver":5804,"##atiske":5805,"omkostninger":5806,"undervejs":5807,"formalet":5808,"forlæng":5809,"arhund":5810,"gæst":5811,"free":5812,"køret":5813,"##film":5814,"##oppe":5815,"vinde":5816,"investering":5817,"amatør":5818,"fordele":5819,"##su":5820,"dest":5821,"jur":5822,"milit":5823,"konkurrence":5824,"isol":5825,"##spart":5826,"stiller":5827,"##service":5828,"flygt":5829,"arbejdsplad":5830,"##ulent":5831,"relevant":5832,"##steder":5833,"fang":5834,"##xx":5835,"konstant":5836,"elementer":5837,"tænkt":5838,"##ætte":5839,"spørgsmalet":5840,"##nævnte":5841,"hær":5842,"##oplev":5843,"##vokat":5844,"stift":5845,"afl":5846,"muligvis":5847,"svend":5848,"kond":5849,"placering":5850,"sav":5851,"korte":5852,"micha":5853,"eksempler":5854,"##ias":5855,"190":5856,"viborg":5857,"vindu":5858,"ansøgning":5859,"##idenskab":5860,"##inget":5861,"russ":5862,"seng":5863,"afd":5864,"opsta":5865,"tjeneste":5866,"38":5867,"##pladsen":5868,"klima":5869,"kob":5870,"brev":5871,"##slev":5872,"emner":5873,"casin":5874,"symb":5875,"bro":5876,"danskere":5877,"##inden":5878,"##øjelse":5879,"##ile":5880,"##haver":5881,"##forb":5882,"gives":5883,"##zz":5884,"gyld":5885,"kampe":5886,"2005":5887,"toppen":5888,"priori":5889,"aflever":5890,"tænder":5891,"mulig":5892,"##alinger":5893,"spillede":5894,"peg":5895,"mængde":5896,"regeringen":5897,"sakaldte":5898,"diverse":5899,"vask":5900,"##dere":5901,"anders":5902,"gas":5903,"##alisering":5904,"##værket":5905,"##elske":5906,"trækker":5907,"##hl":5908,"##nuft":5909,"interesseret":5910,"abner":5911,"favor":5912,"rus":5913,"##orien":5914,"metode":5915,"afstand":5916,"øjnene":5917,"mødet":5918,"##sken":5919,"au":5920,"orden":5921,"forkert":5922,"fed":5923,"##ival":5924,"byer":5925,"teknologi":5926,"##punkt":5927,"ægt":5928,"huse":5929,"soft":5930,"virke":5931,"##gruppe":5932,"cont":5933,"##rapport":5934,"søvn":5935,"##nerne":5936,"elsk":5937,"sælge":5938,"naede":5939,"fond":5940,"##iem":5941,"ledige":5942,"udlandet":5943,"##udstyr":5944,"fyld":5945,"forebyg":5946,"vises":5947,"##ube":5948,"vester":5949,"##arder":5950,"klassiske":5951,"involver":5952,"kandid":5953,"udvikler":5954,"eventyr":5955,"bra":5956,"dyn":5957,"morgenmad":5958,"cirka":5959,"sættes":5960,"frankrig":5961,"selskabet":5962,"endte":5963,"##penge":5964,"cafe":5965,"##ometer":5966,"kredit":5967,"udp":5968,"renover":5969,"lagde":5970,"indg":5971,"samtid":5972,"selvstænd":5973,"ker":5974,"frihed":5975,"konto":5976,"hensigt":5977,"kommunens":5978,"hertil":5979,"grænser":5980,"fornuft":5981,"downlo":5982,"formid":5983,"radio":5984,"##nummer":5985,"##yb":5986,"##ødet":5987,"##yp":5988,"styre":5989,"##ytning":5990,"##ema":5991,"##have":5992,"konkl":5993,"gal":5994,"handels":5995,"spurgte":5996,"kvart":5997,"chokolade":5998,"martin":5999,"##skær":6000,"dreng":6001,"optaget":6002,"inkluder":6003,"presse":6004,"##gøre":6005,"slu":6006,"landsby":6007,"karriere":6008,"che":6009,"præsident":6010,"tingene":6011,"stoffer":6012,"tiltræ":6013,"erkl":6014,"chef":6015,"##æmp":6016,"##ows":6017,"##ika":6018,"##mann":6019,"tyr":6020,"middag":6021,"##ofilm":6022,"michael":6023,"oplevet":6024,"##otte":6025,"bange":6026,"sjove":6027,"vag":6028,"butikker":6029,"webs":6030,"##ikere":6031,"udbet":6032,"mester":6033,"beskrevet":6034,"omfattende":6035,"##10":6036,"192":6037,"handen":6038,"hente":6039,"tiltag":6040,"plat":6041,"total":6042,"sus":6043,"##laget":6044,"glem":6045,"##able":6046,"##ønd":6047,"sprøj":6048,"producer":6049,"varen":6050,"udk":6051,"frivillige":6052,"praktiske":6053,"forbruger":6054,"##ancen":6055,"overskud":6056,"ip":6057,"digitale":6058,"bind":6059,"##undersøg":6060,"##stande":6061,"##sætninger":6062,"anne":6063,"##niveau":6064,"##kont":6065,"util":6066,"normal":6067,"anledning":6068,"kapital":6069,"dertil":6070,"##rus":6071,"begyndt":6072,"klage":6073,"foretage":6074,"kendskab":6075,"tilbehør":6076,"##api":6077,"vedkommende":6078,"##klar":6079,"nærme":6080,"løg":6081,"cla":6082,"drømme":6083,"mørke":6084,"##sex":6085,"##ikkerhed":6086,"mode":6087,"##bol":6088,"sub":6089,"dagligt":6090,"##skort":6091,"hænger":6092,"toilet":6093,"##sr":6094,"##seende":6095,"planter":6096,"norge":6097,"kigger":6098,"stranden":6099,"undervisningen":6100,"les":6101,"dist":6102,"lavede":6103,"mid":6104,"handic":6105,"ejendommen":6106,"yngre":6107,"lane":6108,"##ificeret":6109,"overbe":6110,"forsøge":6111,"love":6112,"offici":6113,"kirken":6114,"##pet":6115,"mun":6116,"boliger":6117,"aftenen":6118,"bestyrelses":6119,"42":6120,"tænkte":6121,"##elm":6122,"cykl":6123,"kb":6124,"##kendt":6125,"##sorg":6126,"undersøge":6127,"born":6128,"vivan":6129,"##rest":6130,"ke":6131,"foretages":6132,"##fær":6133,"øjeblik":6134,"metal":6135,"arsag":6136,"udskift":6137,"rengøring":6138,"vaske":6139,"kommentar":6140,"##øret":6141,"vivanza":6142,"##kende":6143,"anvendt":6144,"lufthavn":6145,"listen":6146,"39":6147,"##dende":6148,"station":6149,"dybt":6150,"##læge":6151,"##ningsm":6152,"ov":6153,"spørger":6154,"skoler":6155,"##fart":6156,"yderst":6157,"omstænd":6158,"samling":6159,"solen":6160,"vedt":6161,"sens":6162,"##omen":6163,"ægteskab":6164,"kog":6165,"samarbejdet":6166,"##sproces":6167,"##stol":6168,"afhængig":6169,"nyheder":6170,"##itioner":6171,"##gørelsen":6172,"##stalt":6173,"vejled":6174,"last":6175,"symptomer":6176,"spørge":6177,"øjeblikket":6178,"centrale":6179,"galt":6180,"fugt":6181,"##yske":6182,"##ivt":6183,"udstyret":6184,"silkeborg":6185,"bunden":6186,"talt":6187,"ressourcer":6188,"øster":6189,"behandlingen":6190,"##arden":6191,"særdeles":6192,"udføre":6193,"navne":6194,"nordjylland":6195,"hidt":6196,"sædvan":6197,"##skriv":6198,"bos":6199,"##kost":6200,"samtale":6201,"##hæ":6202,"##ror":6203,"henholdsvis":6204,"publikum":6205,"##alerne":6206,"##essor":6207,"boede":6208,"extra":6209,"koncentr":6210,"købte":6211,"htt":6212,"nyeste":6213,"ment":6214,"fulde":6215,"##dyr":6216,"hurtigere":6217,"myndighed":6218,"smerte":6219,"##kel":6220,"efteraret":6221,"arbejdsmiljø":6222,"##ail":6223,"##kraft":6224,"##mæssige":6225,"repar":6226,"fi":6227,"##nement":6228,"##struktur":6229,"plant":6230,"tillid":6231,"##che":6232,"nic":6233,"opgaven":6234,"pornofilm":6235,"sendes":6236,"foraret":6237,"brit":6238,"nærheden":6239,"hverdagen":6240,"aktive":6241,"udendørs":6242,"professionel":6243,"##vidt":6244,"bevægelse":6245,"banen":6246,"enheder":6247,"stats":6248,"udføres":6249,"55":6250,"alb":6251,"garanti":6252,"oprette":6253,"emne":6254,"skin":6255,"##ekter":6256,"bevar":6257,"udløb":6258,"andel":6259,"bryll":6260,"hø":6261,"##edrag":6262,"abning":6263,"oprindelige":6264,"tanke":6265,"dokumentation":6266,"diskuss":6267,"konge":6268,"sørger":6269,"længde":6270,"folkesk":6271,"lun":6272,"##ureau":6273,"litteratur":6274,"tø":6275,"nationale":6276,"international":6277,"klokken":6278,"ligner":6279,"stue":6280,"veje":6281,"rene":6282,"bre":6283,"##illa":6284,"links":6285,"##celler":6286,"##opgaver":6287,"##skyld":6288,"geb":6289,"##ones":6290,"opdateret":6291,"##sløs":6292,"helbred":6293,"solgt":6294,"smør":6295,"underhold":6296,"suppler":6297,"##vendt":6298,"beskriver":6299,"##avet":6300,"##ømte":6301,"num":6302,"lou":6303,"##mæssigt":6304,"gri":6305,"skud":6306,"##ep":6307,"##leg":6308,"hels":6309,"##æb":6310,"horsens":6311,"stik":6312,"øjen":6313,"vad":6314,"##anal":6315,"jesus":6316,"professionelle":6317,"flygtning":6318,"gi":6319,"utrol":6320,"arligt":6321,"##ana":6322,"intens":6323,"sørg":6324,"rabat":6325,"driv":6326,"48":6327,"drejer":6328,"rettigheder":6329,"central":6330,"##lade":6331,"##varm":6332,"##ringen":6333,"hyggeligt":6334,"##spar":6335,"sign":6336,"erotisk":6337,"##jening":6338,"motion":6339,"nyder":6340,"arrangementer":6341,"##ogram":6342,"jacob":6343,"kræfter":6344,"##ernes":6345,"handel":6346,"aftaler":6347,"langsomt":6348,"hoteller":6349,"retter":6350,"2004":6351,"try":6352,"teater":6353,"eftersp":6354,"perspe":6355,"##æs":6356,"vender":6357,"poul":6358,"specifik":6359,"sejl":6360,"mur":6361,"generelle":6362,"informationer":6363,"01":6364,"medle":6365,"bidrage":6366,"##grupper":6367,"udvalgte":6368,"nævnte":6369,"medarbejderne":6370,"tilladelse":6371,"overveje":6372,"familier":6373,"heste":6374,"nærmeste":6375,"hvorvidt":6376,"naturlig":6377,"kaldet":6378,"##edag":6379,"enorm":6380,"udgiv":6381,"optræ":6382,"sygdomme":6383,"pet":6384,"uddannelsen":6385,"##ude":6386,"deltagelse":6387,"planer":6388,"produktet":6389,"seri":6390,"hygge":6391,"##ior":6392,"##iering":6393,"umu":6394,"##igh":6395,"##tim":6396,"##sger":6397,"omgivelser":6398,"enige":6399,"golf":6400,"lid":6401,"400":6402,"udtal":6403,"##ho":6404,"disku":6405,"info":6406,"midten":6407,"legetøj":6408,"##fisk":6409,"undersøgelsen":6410,"franske":6411,"gem":6412,"##minister":6413,"spej":6414,"##gruppen":6415,"artikler":6416,"##ola":6417,"##bel":6418,"imøde":6419,"herre":6420,"afhænger":6421,"##mmes":6422,"##ius":6423,"fit":6424,"lægem":6425,"tilfæld":6426,"travl":6427,"##cl":6428,"deltagere":6429,"you":6430,"kys":6431,"fing":6432,"##bas":6433,"div":6434,"##ese":6435,"kvaliteten":6436,"##pot":6437,"##skon":6438,"ri":6439,"##sej":6440,"vinduer":6441,"##siden":6442,"##olie":6443,"alternativ":6444,"finansi":6445,"189":6446,"befolk":6447,"forklarer":6448,"##yttede":6449,"##holdet":6450,"sølv":6451,"otte":6452,"fan":6453,"##aard":6454,"##ball":6455,"føles":6456,"##ume":6457,"forar":6458,"##sek":6459,"kommunale":6460,"span":6461,"implementer":6462,"kab":6463,"##mos":6464,"afsted":6465,"##erence":6466,"kurser":6467,"##vne":6468,"afholdt":6469,"knæ":6470,"##att":6471,"##spiller":6472,"unikke":6473,"##rænde":6474,"biograf":6475,"forvejen":6476,"##vogn":6477,"##isterne":6478,"tilmel":6479,"diagn":6480,"sælges":6481,"tips":6482,"kna":6483,"teknisk":6484,"##rut":6485,"mødt":6486,"##eting":6487,"##algru":6488,"press":6489,"##ligheden":6490,"smerter":6491,"cookies":6492,"sørge":6493,"samfundet":6494,"opskrifter":6495,"ordet":6496,"ekstrem":6497,"ødelæg":6498,"processen":6499,"##ram":6500,"ere":6501,"##its":6502,"herning":6503,"##har":6504,"sikkerheds":6505,"krimin":6506,"##ansvar":6507,"##foreningen":6508,"##spor":6509,"svenske":6510,"levere":6511,"leverer":6512,"##regn":6513,"rac":6514,"venligst":6515,"gade":6516,"pers":6517,"##fød":6518,"##rækker":6519,"##ris":6520,"virksomhedens":6521,"kørt":6522,"##asset":6523,"##sag":6524,"##aa":6525,"egenskaber":6526,"lette":6527,"advokat":6528,"date":6529,"forsigt":6530,"dim":6531,"##sty":6532,"position":6533,"##ssystem":6534,"tæl":6535,"opfattelse":6536,"angreb":6537,"tilgængelige":6538,"fritid":6539,"sms":6540,"thor":6541,"balance":6542,"##kred":6543,"##fir":6544,"##system":6545,"##kommer":6546,"konsekvenser":6547,"##smod":6548,"kla":6549,"tablet":6550,"bidrag":6551,"erotiske":6552,"##irt":6553,"forældrene":6554,"minder":6555,"slaet":6556,"##shop":6557,"##ze":6558,"pænt":6559,"fylder":6560,"bornholm":6561,"tidlig":6562,"rod":6563,"##forbrug":6564,"##pladser":6565,"##bolig":6566,"positive":6567,"hvoraf":6568,"kontant":6569,"gebyr":6570,"udsat":6571,"hjemmet":6572,"##ærk":6573,"demokrat":6574,"lab":6575,"guds":6576,"fremmest":6577,"##forsk":6578,"44":6579,"tilføj":6580,"luks":6581,"kyst":6582,"samtlige":6583,"##ica":6584,"initi":6585,"troede":6586,"helhed":6587,"##hv":6588,"##ower":6589,"##bal":6590,"akut":6591,"tilret":6592,"##værelset":6593,"lind":6594,"indik":6595,"##ign":6596,"##lagte":6597,"betal":6598,"skønt":6599,"pum":6600,"terras":6601,"##hop":6602,"musl":6603,"marie":6604,"aktivt":6605,"##oter":6606,"samle":6607,"forventer":6608,"registreret":6609,"udvalget":6610,"pkt":6611,"ramt":6612,"anvender":6613,"duft":6614,"tilfældet":6615,"##but":6616,"danne":6617,"isra":6618,"##bi":6619,"kraftig":6620,"obje":6621,"beliggen":6622,"situationer":6623,"æb":6624,"##ierede":6625,"##sind":6626,"digital":6627,"relation":6628,"tel":6629,"dru":6630,"forbe":6631,"##aten":6632,"##oni":6633,"##ffen":6634,"##stille":6635,"besluttet":6636,"##hvert":6637,"søges":6638,"england":6639,"copenh":6640,"fremstillet":6641,"##dele":6642,"falde":6643,"sky":6644,"lægges":6645,"indsam":6646,"hyggelig":6647,"##okse":6648,"forbud":6649,"ledere":6650,"##moder":6651,"orgas":6652,"dages":6653,"godkendelse":6654,"fordelt":6655,"##mag":6656,"##ned":6657,"effektivt":6658,"##smed":6659,"65":6660,"følelse":6661,"sent":6662,"dækket":6663,"strategi":6664,"evne":6665,"tusind":6666,"grunden":6667,"larsen":6668,"kant":6669,"43":6670,"gennemføre":6671,"150":6672,"spir":6673,"##stør":6674,"vagt":6675,"mødte":6676,"bryg":6677,"kontroller":6678,"##iliteter":6679,"##æle":6680,"##rom":6681,"arene":6682,"lim":6683,"cert":6684,"benytter":6685,"eksist":6686,"parter":6687,"harde":6688,"##asker":6689,"politi":6690,"turner":6691,"fødevarer":6692,"afvik":6693,"##aster":6694,"motiver":6695,"halvdelen":6696,"institution":6697,"malgru":6698,"##kur":6699,"kalender":6700,"##fal":6701,"ve":6702,"runde":6703,"billigt":6704,"##aktiv":6705,"attra":6706,"lyse":6707,"##bygning":6708,"værker":6709,"retningslin":6710,"aftalen":6711,"##pap":6712,"186":6713,"forhandling":6714,"forretnings":6715,"kommentarer":6716,"udbr":6717,"stopp":6718,"komplet":6719,"indled":6720,"##pleje":6721,"will":6722,"havet":6723,"etableret":6724,"traditionelle":6725,"vider":6726,"akk":6727,"linje":6728,"basis":6729,"gir":6730,"frygt":6731,"vurdere":6732,"vidunder":6733,"takt":6734,"købes":6735,"benyttes":6736,"##ca":6737,"##han":6738,"##lægning":6739,"##mmeret":6740,"188":6741,"##lov":6742,"matem":6743,"##sret":6744,"ventil":6745,"kines":6746,"##lex":6747,"klog":6748,"##frit":6749,"tilgang":6750,"arsager":6751,"hospital":6752,"indtryk":6753,"besluttede":6754,"kus":6755,"fader":6756,"roligt":6757,"anmeldelser":6758,"##delinger":6759,"rust":6760,"intim":6761,"pedersen":6762,"ældste":6763,"##pil":6764,"##sjælland":6765,"udbyder":6766,"anmel":6767,"nut":6768,"tema":6769,"ungdoms":6770,"##strøm":6771,"mente":6772,"kategori":6773,"ah":6774,"historiske":6775,"##formen":6776,"leveret":6777,"ib":6778,"grupp":6779,"slog":6780,"levet":6781,"stoppe":6782,"lovgivning":6783,"##ds":6784,"landskab":6785,"nødvendigvis":6786,"uddannet":6787,"afrik":6788,"pladsen":6789,"casino":6790,"body":6791,"##oss":6792,"##oblemer":6793,"jør":6794,"restauranter":6795,"bede":6796,"oprettet":6797,"stemning":6798,"cal":6799,"ole":6800,"vaben":6801,"##aren":6802,"##løsning":6803,"lond":6804,"følte":6805,"ændres":6806,"ordre":6807,"hest":6808,"##rænd":6809,"##møl":6810,"##rejse":6811,"##synet":6812,"mangel":6813,"rapp":6814,"sejr":6815,"##bill":6816,"dame":6817,"udlej":6818,"##itz":6819,"bri":6820,"kyl":6821,"overnat":6822,"passende":6823,"overd":6824,"kontra":6825,"##idens":6826,"##fa":6827,"##gas":6828,"mængder":6829,"##speri":6830,"præsent":6831,"##lek":6832,"ydelser":6833,"##onning":6834,"##førsel":6835,"##tøj":6836,"##oseks":6837,"udlever":6838,"besæt":6839,"almindeligt":6840,"snak":6841,"##elefoner":6842,"##dire":6843,"køkkenet":6844,"udtry":6845,"41":6846,"##kkerne":6847,"lavt":6848,"markant":6849,"kru":6850,"kompon":6851,"##ovre":6852,"copenhagen":6853,"##egard":6854,"sold":6855,"hænge":6856,"programmer":6857,"##apeut":6858,"kilometer":6859,"specif":6860,"klager":6861,"##fære":6862,"fremover":6863,"tunge":6864,"show":6865,"jørgen":6866,"cas":6867,"morten":6868,"jesper":6869,"klikke":6870,"finan":6871,"spid":6872,"areal":6873,"##ction":6874,"husker":6875,"##sliv":6876,"bøl":6877,"snakke":6878,"pin":6879,"##usive":6880,"forsy":6881,"uheld":6882,"beskyttelse":6883,"læger":6884,"opført":6885,"møbler":6886,"islam":6887,"##oth":6888,"angar":6889,"line":6890,"kbh":6891,"##eng":6892,"datab":6893,"teknik":6894,"betalt":6895,"kæmp":6896,"blok":6897,"dj":6898,"##række":6899,"foredrag":6900,"betingelser":6901,"hemm":6902,"plejer":6903,"dkk":6904,"afholdes":6905,"svare":6906,"punkter":6907,"##igheds":6908,"##agement":6909,"indsigt":6910,"omt":6911,"overflade":6912,"tegne":6913,"bonus":6914,"paris":6915,"indret":6916,"kim":6917,"46":6918,"##alp":6919,"videreg":6920,"skærm":6921,"bløde":6922,"socialt":6923,"argum":6924,"##skrig":6925,"forvalt":6926,"røv":6927,"ki":6928,"væsentligt":6929,"island":6930,"##mest":6931,"prem":6932,"kommunerne":6933,"##oll":6934,"dygtige":6935,"borgerne":6936,"187":6937,"##30":6938,"adskillige":6939,"utroligt":6940,"eleg":6941,"besøger":6942,"stemmer":6943,"##værdi":6944,"hypp":6945,"iphone":6946,"registrer":6947,"##mar":6948,"fungere":6949,"##burg":6950,"##aut":6951,"sommerhus":6952,"##kør":6953,"##ya":6954,"deltog":6955,"uddannelser":6956,"friske":6957,"naet":6958,"##stal":6959,"bestemmelser":6960,"forventninger":6961,"virkning":6962,"klassisk":6963,"kombination":6964,"##spunkter":6965,"brænde":6966,"##teket":6967,"fornemm":6968,"bryllup":6969,"##uft":6970,"kollega":6971,"dagsorden":6972,"##aterede":6973,"kompetence":6974,"2003":6975,"institutioner":6976,"##verden":6977,"##ogen":6978,"tydelig":6979,"fc":6980,"##mi":6981,"handtere":6982,"stillet":6983,"##ydelser":6984,"tilrettel":6985,"positivt":6986,"lyng":6987,"lokalplan":6988,"slar":6989,"døgn":6990,"kælder":6991,"mette":6992,"##mmende":6993,"##ejser":6994,"##mindre":6995,"befolkning":6996,"##risk":6997,"ryggen":6998,"nyhedsb":6999,"##fund":7000,"##fuldt":7001,"faldet":7002,"tanken":7003,"##lan":7004,"risikoen":7005,"flad":7006,"hjertet":7007,"##hag":7008,"skolens":7009,"bøs":7010,"mørk":7011,"##press":7012,"frist":7013,"havn":7014,"forbered":7015,"hr":7016,"medmindre":7017,"brugen":7018,"udenlandske":7019,"##ydning":7020,"##bruget":7021,"udseende":7022,"lat":7023,"##hu":7024,"bordet":7025,"rart":7026,"bekendtgørelse":7027,"uv":7028,"ekspert":7029,"kvalitets":7030,"spring":7031,"svære":7032,"##sloven":7033,"redeg":7034,"bebyg":7035,"inspireret":7036,"organisationer":7037,"##skraft":7038,"forholdet":7039,"kommunalb":7040,"vokser":7041,"kompl":7042,"##redi":7043,"si":7044,"forny":7045,"##fest":7046,"blad":7047,"49":7048,"bagefter":7049,"##ony":7050,"parørende":7051,"pladser":7052,"##eland":7053,"ap":7054,"##smuligheder":7055,"sammenh":7056,"ovenstaende":7057,"darlige":7058,"engelske":7059,"arlige":7060,"valget":7061,"loven":7062,"mærket":7063,"london":7064,"##piger":7065,"udlænd":7066,"##erings":7067,"myndigheder":7068,"gæld":7069,"svaret":7070,"kiggede":7071,"##issionen":7072,"fede":7073,"oblig":7074,"deltagerne":7075,"lyset":7076,"mobilt":7077,"erstatning":7078,"tw":7079,"symbol":7080,"relativt":7081,"lægen":7082,"vurderer":7083,"befinder":7084,"munden":7085,"black":7086,"overlev":7087,"hjemmel":7088,"gangen":7089,"##maskine":7090,"samtidigt":7091,"sogn":7092,"maling":7093,"køleskab":7094,"##enskom":7095,"##iland":7096,"stammer":7097,"analyser":7098,"vm":7099,"gennemga":7100,"ideen":7101,"finger":7102,"##jeneste":7103,"##smæssig":7104,"indeb":7105,"pyn":7106,"motiv":7107,"##stiden":7108,"billederne":7109,"berør":7110,"autor":7111,"##ærke":7112,"##ino":7113,"velfærd":7114,"##aliseret":7115,"indstilling":7116,"imens":7117,"tjene":7118,"medvir":7119,"mælk":7120,"forbl":7121,"møller":7122,"omsorg":7123,"skam":7124,"##sko":7125,"##sud":7126,"maven":7127,"ligeg":7128,"resul":7129,"helsing":7130,"##osof":7131,"frederiksberg":7132,"##pan":7133,"arranger":7134,"bringe":7135,"lam":7136,"arbejdsplads":7137,"##folk":7138,"bære":7139,"hd":7140,"##owser":7141,"laves":7142,"skel":7143,"utal":7144,"##fru":7145,"##byr":7146,"kørsel":7147,"skand":7148,"##eltet":7149,"gavn":7150,"47":7151,"##ineret":7152,"arkitekt":7153,"grønts":7154,"##rof":7155,"fremad":7156,"planlægning":7157,"systemer":7158,"##igen":7159,"titel":7160,"spred":7161,"gulvet":7162,"wind":7163,"##produkter":7164,"blæ":7165,"##asen":7166,"##vises":7167,"administration":7168,"radgiver":7169,"tendens":7170,"vedligeholdelse":7171,"yde":7172,"christensen":7173,"##agning":7174,"kage":7175,"barnets":7176,"foreløb":7177,"arhundrede":7178,"##standen":7179,"att":7180,"if":7181,"anmod":7182,"##lings":7183,"beslutninger":7184,"rid":7185,"bygnings":7186,"sengen":7187,"cd":7188,"moms":7189,"##cyk":7190,"plante":7191,"størrelser":7192,"##iget":7193,"individuelle":7194,"tilgængelig":7195,"rasmussen":7196,"jub":7197,"fortsatte":7198,"##lægge":7199,"lak":7200,"vik":7201,"ynd":7202,"afslutning":7203,"pligt":7204,"værktøjer":7205,"luder":7206,"enig":7207,"##ual":7208,"stim":7209,"flertal":7210,"yog":7211,"regne":7212,"omstændigheder":7213,"pavirk":7214,"##gning":7215,"behandles":7216,"ii":7217,"nøgle":7218,"##prøve":7219,"svensk":7220,"fornøjelse":7221,"bjerg":7222,"sygeplejer":7223,"nøjagt":7224,"inddr":7225,"##illinger":7226,"##ateriale":7227,"##ination":7228,"##firma":7229,"menu":7230,"nysger":7231,"##svej":7232,"##bad":7233,"rav":7234,"fremtidige":7235,"medfører":7236,"produceret":7237,"##tage":7238,"imponer":7239,"koordin":7240,"jak":7241,"##plant":7242,"chance":7243,"lært":7244,"52":7245,"modtag":7246,"romant":7247,"nørre":7248,"besøgende":7249,"dynam":7250,"deler":7251,"seksuelle":7252,"frig":7253,"oplæg":7254,"ten":7255,"homoseks":7256,"single":7257,"##stilles":7258,"graviditet":7259,"forskellig":7260,"væsentlige":7261,"##acitet":7262,"hellere":7263,"forg":7264,"skønhed":7265,"behandlet":7266,"##dommen":7267,"foruren":7268,"send":7269,"##redse":7270,"opkræ":7271,"##lemme":7272,"fris":7273,"rige":7274,"indgaet":7275,"fugle":7276,"holdes":7277,"##ffes":7278,"trænger":7279,"øverste":7280,"mads":7281,"##forsta":7282,"##kap":7283,"ændrer":7284,"gumm":7285,"hit":7286,"herfra":7287,"øen":7288,"efterar":7289,"sæsonen":7290,"##ktive":7291,"kasse":7292,"tilpas":7293,"handicap":7294,"hæng":7295,"big":7296,"##hr":7297,"overordnede":7298,"leveres":7299,"##unt":7300,"gaden":7301,"##stet":7302,"##forsikring":7303,"claus":7304,"180":7305,"skoven":7306,"avan":7307,"kompr":7308,"acc":7309,"pavirker":7310,"sygehus":7311,"udstilling":7312,"stede":7313,"##oren":7314,"lærere":7315,"skuespiller":7316,"fragt":7317,"fylde":7318,"foreningens":7319,"akadem":7320,"kina":7321,"##angen":7322,"##kvalitet":7323,"ønsket":7324,"eksp":7325,"generalforsamlingen":7326,"træer":7327,"kerne":7328,"svarende":7329,"civil":7330,"bygningen":7331,"dans":7332,"##ics":7333,"fiske":7334,"##komne":7335,"højst":7336,"hermed":7337,"grill":7338,"amerikansk":7339,"forløbet":7340,"entrepr":7341,"##ham":7342,"kammer":7343,"maria":7344,"##iceret":7345,"beskæftigelses":7346,"mas":7347,"kasser":7348,"##klag":7349,"##bring":7350,"præget":7351,"##papir":7352,"bespar":7353,"formentlig":7354,"##ision":7355,"hørte":7356,"snar":7357,"jørg":7358,"##agerer":7359,"lund":7360,"look":7361,"danner":7362,"oprindeligt":7363,"1000":7364,"indeholde":7365,"lykke":7366,"forelig":7367,"##gave":7368,"site":7369,"##kant":7370,"##forsy":7371,"arbejdsmarked":7372,"tilstede":7373,"synd":7374,"pabeg":7375,"iv":7376,"parad":7377,"kvinden":7378,"blow":7379,"værelset":7380,"hidtil":7381,"initiativ":7382,"modsætning":7383,"atmos":7384,"eleven":7385,"##vi":7386,"ild":7387,"medie":7388,"carl":7389,"besvær":7390,"parl":7391,"tilt":7392,"99":7393,"bliv":7394,"##yttelses":7395,"pause":7396,"pigerne":7397,"mek":7398,"kunderne":7399,"forum":7400,"##skol":7401,"fryg":7402,"rens":7403,"nedsat":7404,"slid":7405,"scan":7406,"##ampen":7407,"mikk":7408,"##edyr":7409,"indberet":7410,"arv":7411,"##bens":7412,"nik":7413,"skifter":7414,"##ctor":7415,"dygtig":7416,"jurid":7417,"##ojekter":7418,"hunden":7419,"vels":7420,"vurderes":7421,"##købing":7422,"##okl":7423,"handværk":7424,"##ugle":7425,"relationer":7426,"stød":7427,"##ænder":7428,"gaver":7429,"##rid":7430,"indkomst":7431,"andels":7432,"ventet":7433,"angst":7434,"forbind":7435,"tyrk":7436,"##sborg":7437,"vælges":7438,"brede":7439,"2001":7440,"##hi":7441,"rente":7442,"foder":7443,"##vente":7444,"beregnet":7445,"maltid":7446,"øger":7447,"##projekt":7448,"##famil":7449,"idag":7450,"førte":7451,"tilføje":7452,"udform":7453,"indvend":7454,"brem":7455,"flyttet":7456,"himmel":7457,"ledelses":7458,"por":7459,"95":7460,"##ustral":7461,"##adal":7462,"opfylder":7463,"hent":7464,"##ordningen":7465,"##getøj":7466,"##imenter":7467,"bloggen":7468,"##aterne":7469,"organ":7470,"lesb":7471,"favorit":7472,"##jet":7473,"bul":7474,"hust":7475,"2002":7476,"##iør":7477,"normale":7478,"nødvendig":7479,"front":7480,"mulighederne":7481,"badeværelse":7482,"bib":7483,"statistik":7484,"diskret":7485,"begrund":7486,"opfor":7487,"bidrager":7488,"##sæ":7489,"skærmen":7490,"dræb":7491,"eb":7492,"perioder":7493,"tav":7494,"forhind":7495,"amager":7496,"##kne":7497,"biv":7498,"psykisk":7499,"billigere":7500,"##entlige":7501,"stigning":7502,"beliggenhed":7503,"##eden":7504,"vundet":7505,"rock":7506,"frø":7507,"garan":7508,"##way":7509,"austral":7510,"pok":7511,"##banen":7512,"sekret":7513,"kendet":7514,"opv":7515,"##lægges":7516,"##edel":7517,"besvar":7518,"abonnement":7519,"luften":7520,"##ns":7521,"nabo":7522,"eksamen":7523,"##ændelse":7524,"refer":7525,"xxx":7526,"hob":7527,"kalde":7528,"anmeldelse":7529,"##inet":7530,"##atorer":7531,"grønland":7532,"liter":7533,"søster":7534,"gens":7535,"tilladt":7536,"##varter":7537,"behandler":7538,"køge":7539,"talte":7540,"##iness":7541,"kolde":7542,"opløs":7543,"anses":7544,"mave":7545,"sandsynligvis":7546,"offentligt":7547,"skub":7548,"184":7549,"##beret":7550,"næstved":7551,"bis":7552,"jon":7553,"indr":7554,"##ænomen":7555,"kopi":7556,"##hul":7557,"opgør":7558,"lejligheder":7559,"planlagt":7560,"mia":7561,"forsik":7562,"##adende":7563,"##fj":7564,"##dragelse":7565,"frie":7566,"mi":7567,"##olution":7568,"virkelighed":7569,"##enhed":7570,"boks":7571,"lis":7572,"staten":7573,"specielle":7574,"udfl":7575,"parti":7576,"kritik":7577,"##brød":7578,"forskelligt":7579,"##stra":7580,"etc":7581,"56":7582,"seværd":7583,"belast":7584,"lede":7585,"##best":7586,"understre":7587,"piz":7588,"revision":7589,"##dder":7590,"##stider":7591,"installer":7592,"træder":7593,"rettet":7594,"lukke":7595,"##enten":7596,"##df":7597,"indvand":7598,"##elsesk":7599,"blanding":7600,"styrker":7601,"spanien":7602,"##ama":7603,"jakob":7604,"forel":7605,"angivet":7606,"##staltninger":7607,"midtjylland":7608,"##ævne":7609,"knud":7610,"mos":7611,"minde":7612,"kreativ":7613,"##ædt":7614,"assist":7615,"##wa":7616,"##lav":7617,"situationen":7618,"veninde":7619,"skad":7620,"lejligheden":7621,"##ili":7622,"##stoffer":7623,"selvstændig":7624,"psykolog":7625,"bestemte":7626,"vinteren":7627,"villa":7628,"fabrik":7629,"high":7630,"##ulere":7631,"##cam":7632,"tekster":7633,"spilde":7634,"sti":7635,"##bus":7636,"##rere":7637,"##vention":7638,"fortalt":7639,"##inav":7640,"hjemmesider":7641,"##produktion":7642,"http":7643,"senior":7644,"##relse":7645,"grundigt":7646,"##vitt":7647,"løfte":7648,"##alderen":7649,"asp":7650,"##ska":7651,"##slet":7652,"telefonen":7653,"ture":7654,"bakter":7655,"cat":7656,"overenskom":7657,"##sforhold":7658,"udvide":7659,"førende":7660,"mac":7661,"600":7662,"champ":7663,"begej":7664,"holdning":7665,"luksus":7666,"horm":7667,"tørre":7668,"trænings":7669,"def":7670,"kaldt":7671,"##inerende":7672,"timers":7673,"##ood":7674,"##haven":7675,"m2":7676,"demon":7677,"nul":7678,"registrering":7679,"##tekn":7680,"næppe":7681,"sildenafil":7682,"unik":7683,"indrettet":7684,"##kkelse":7685,"trak":7686,"##ktivt":7687,"ægtefæl":7688,"##skv":7689,"afspej":7690,"overalt":7691,"##børn":7692,"##inerer":7693,"##iøse":7694,"rimelig":7695,"##visninger":7696,"54":7697,"##pum":7698,"opfylde":7699,"##ellig":7700,"flyve":7701,"samarbejdspart":7702,"etablering":7703,"danskerne":7704,"ubehag":7705,"socialdem":7706,"##fond":7707,"træne":7708,"betrag":7709,"##smand":7710,"verdenskrig":7711,"thaim":7712,"##tiget":7713,"##ilde":7714,"udarbejd":7715,"amt":7716,"teksten":7717,"varier":7718,"##egnelse":7719,"nedenstaende":7720,"omvendt":7721,"mini":7722,"vært":7723,"kvindelige":7724,"størrelsen":7725,"talent":7726,"##ønne":7727,"##sbehandling":7728,"humør":7729,"maneden":7730,"##funktion":7731,"##ata":7732,"##erm":7733,"tjener":7734,"##ric":7735,"optag":7736,"paul":7737,"kriter":7738,"krigen":7739,"##ferie":7740,"ryd":7741,"##tige":7742,"indebærer":7743,"arbejdede":7744,"##side":7745,"kreative":7746,"51":7747,"bestyrelse":7748,"piller":7749,"værste":7750,"lykkes":7751,"ball":7752,"produktionen":7753,"stiger":7754,"##fektion":7755,"##æne":7756,"repræsentant":7757,"hundrede":7758,"##ænke":7759,"kurset":7760,"garden":7761,"##ysten":7762,"sty":7763,"##uc":7764,"annonc":7765,"kommunes":7766,"##riske":7767,"##onym":7768,"sports":7769,"flyttede":7770,"ansøger":7771,"staet":7772,"beskytte":7773,"pus":7774,"resultaterne":7775,"##inter":7776,"overtræ":7777,"butikken":7778,"brønd":7779,"grønt":7780,"vestlige":7781,"##ott":7782,"præcist":7783,"bladet":7784,"##hjul":7785,"forhab":7786,"##handel":7787,"alvorligt":7788,"selskaber":7789,"##ox":7790,"##ena":7791,"illustr":7792,"smager":7793,"malrettet":7794,"bibliotek":7795,"enkel":7796,"halvt":7797,"gro":7798,"siges":7799,"helsingør":7800,"maskiner":7801,"##bøger":7802,"rummer":7803,"aud":7804,"operation":7805,"city":7806,"forsøgte":7807,"sunde":7808,"innovation":7809,"bærer":7810,"pre":7811,"hader":7812,"webshop":7813,"proced":7814,"opvarm":7815,"fare":7816,"vend":7817,"##rak":7818,"##ærker":7819,"omd":7820,"glat":7821,"psykiat":7822,"svarede":7823,"##regler":7824,"kortet":7825,"plade":7826,"indretning":7827,"arter":7828,"##stav":7829,"handbold":7830,"henvendelse":7831,"##unget":7832,"priserne":7833,"ken":7834,"historisk":7835,"##skade":7836,"ansvaret":7837,"york":7838,"##isering":7839,"##sforen":7840,"tast":7841,"tilsynel":7842,"stolt":7843,"galler":7844,"forslaget":7845,"nævnes":7846,"opford":7847,"well":7848,"følg":7849,"abnede":7850,"handlinger":7851,"græs":7852,"ansætt":7853,"##præsent":7854,"ovenfor":7855,"storm":7856,"kunnet":7857,"##sled":7858,"terror":7859,"øvelser":7860,"##ækket":7861,"maskin":7862,"medlemmerne":7863,"tadal":7864,"##cerede":7865,"tilsyneladende":7866,"ryt":7867,"leverandør":7868,"##somhed":7869,"teori":7870,"hastighed":7871,"overgang":7872,"tadalafil":7873,"koldt":7874,"berlin":7875,"##indes":7876,"kæl":7877,"livsstil":7878,"##uter":7879,"kode":7880,"fuck":7881,"vendte":7882,"udkig":7883,"oversk":7884,"marg":7885,"ethvert":7886,"bivirk":7887,"sekunder":7888,"hyggelige":7889,"planen":7890,"endelige":7891,"arsagen":7892,"politikere":7893,"vanskelig":7894,"##spillet":7895,"lukkede":7896,"##økonom":7897,"reguler":7898,"medføre":7899,"udvæl":7900,"##yge":7901,"evaluering":7902,"lokalt":7903,"herom":7904,"##æm":7905,"club":7906,"sange":7907,"thailand":7908,"vegne":7909,"##cher":7910,"radi":7911,"bevæger":7912,"selskabets":7913,"foretrækker":7914,"##angel":7915,"effektive":7916,"betales":7917,"##valt":7918,"hind":7919,"bane":7920,"specifikke":7921,"alderen":7922,"bestemme":7923,"rem":7924,"konver":7925,"filosof":7926,"bob":7927,"genbrug":7928,"##lene":7929,"rusland":7930,"##muligheder":7931,"skulder":7932,"havne":7933,"##put":7934,"græsk":7935,"##inerede":7936,"##tur":7937,"afgift":7938,"software":7939,"imm":7940,"##drende":7941,"tilbydes":7942,"##asses":7943,"##sætningen":7944,"skive":7945,"væld":7946,"##utte":7947,"faktorer":7948,"##oper":7949,"##ladt":7950,"album":7951,"andres":7952,"umuligt":7953,"professor":7954,"teknolog":7955,"##dres":7956,"rat":7957,"rummet":7958,"##formand":7959,"##skat":7960,"weekenden":7961,"##elsess":7962,"kvartal":7963,"##ace":7964,"##gest":7965,"##kostninger":7966,"mes":7967,"koncert":7968,"besid":7969,"##lunde":7970,"##givningen":7971,"aftalt":7972,"##illerød":7973,"85":7974,"thaimassage":7975,"milli":7976,"blik":7977,"udd":7978,"##pperne":7979,"døre":7980,"##onom":7981,"dansker":7982,"flygtninge":7983,"fulgte":7984,"##kir":7985,"gran":7986,"##ax":7987,"element":7988,"##arter":7989,"##industri":7990,"##ejer":7991,"##sministeriet":7992,"lic":7993,"##ætning":7994,"foruden":7995,"##gelsen":7996,"##fold":7997,"ordin":7998,"overg":7999,"opbevaring":8000,"vardenafil":8001,"##bogen":8002,"konstat":8003,"modul":8004,"##ariat":8005,"forskere":8006,"##førelsen":8007,"##icia":8008,"back":8009,"##lyst":8010,"bevæge":8011,"faglig":8012,"primære":8013,"dekor":8014,"identific":8015,"konflik":8016,"svag":8017,"business":8018,"nyere":8019,"forandring":8020,"##ifikation":8021,"tvang":8022,"cv":8023,"opnaet":8024,"##erencer":8025,"##indsat":8026,"færdige":8027,"forklare":8028,"##ats":8029,"nyd":8030,"##ilitet":8031,"befolkningen":8032,"##ec":8033,"dø":8034,"pavirke":8035,"blomst":8036,"imponerende":8037,"udvalgt":8038,"##oli":8039,"gay":8040,"emnet":8041,"udmær":8042,"##skift":8043,"medlems":8044,"dække":8045,"beboere":8046,"##ley":8047,"holste":8048,"##ote":8049,"##play":8050,"forskellen":8051,"formanden":8052,"##aser":8053,"forstyr":8054,"østr":8055,"##itation":8056,"tryghed":8057,"ton":8058,"browser":8059,"færdigheder":8060,"##ygg":8061,"publ":8062,"behandle":8063,"dm":8064,"forsøgt":8065,"forhandler":8066,"forudsætning":8067,"forstand":8068,"kraftigt":8069,"##barhed":8070,"afdelinger":8071,"fyre":8072,"sans":8073,"xtra":8074,"festival":8075,"sektor":8076,"heldig":8077,"aktier":8078,"afsluttet":8079,"lytte":8080,"euro":8081,"shop":8082,"stopper":8083,"klip":8084,"drej":8085,"tabt":8086,"53":8087,"##vs":8088,"##ellen":8089,"cor":8090,"turist":8091,"introduktion":8092,"identitet":8093,"arbejdspladser":8094,"##bøl":8095,"forsknings":8096,"oplyst":8097,"##server":8098,"bø":8099,"forventet":8100,"nytar":8101,"indh":8102,"kylling":8103,"pt":8104,"fitness":8105,"blu":8106,"ressource":8107,"elskede":8108,"##agram":8109,"##møde":8110,"laur":8111,"hvori":8112,"slappe":8113,"uafhængigt":8114,"ledelsen":8115,"venlige":8116,"undtag":8117,"##ett":8118,"appar":8119,"miner":8120,"##skrav":8121,"##urop":8122,"advar":8123,"##stillende":8124,"mister":8125,"##kede":8126,"##æger":8127,"fjerde":8128,"works":8129,"ef":8130,"roman":8131,"##ona":8132,"##løn":8133,"##mæssig":8134,"aftens":8135,"##elter":8136,"##plade":8137,"barnd":8138,"mennesket":8139,"fremgang":8140,"udpeg":8141,"gennemføres":8142,"##sprodu":8143,"bio":8144,"temp":8145,"##fot":8146,"##ame":8147,"jørgensen":8148,"make":8149,"trivsel":8150,"##iler":8151,"arab":8152,"fotos":8153,"perspektiv":8154,"beton":8155,"elektronisk":8156,"tip":8157,"185":8158,"comm":8159,"reaktion":8160,"kristne":8161,"modellen":8162,"præsentere":8163,"morgenen":8164,"ligesa":8165,"klassen":8166,"##isser":8167,"modtog":8168,"64":8169,"arbejdes":8170,"kortere":8171,"##anchen":8172,"diam":8173,"kald":8174,"sendte":8175,"tilhørende":8176,"##hjem":8177,"forklaring":8178,"sørensen":8179,"smar":8180,"svømme":8181,"fasc":8182,"artiklen":8183,"hillerød":8184,"svendborg":8185,"##strateg":8186,"##ener":8187,"world":8188,"vitamin":8189,"vedligehold":8190,"flade":8191,"udvidet":8192,"tap":8193,"anbefalinger":8194,"fn":8195,"pædagogiske":8196,"##ada":8197,"stuen":8198,"power":8199,"holm":8200,"250":8201,"charl":8202,"reelt":8203,"trend":8204,"betyde":8205,"læste":8206,"slutter":8207,"enormt":8208,"kok":8209,"##rur":8210,"ulov":8211,"stole":8212,"##bert":8213,"resp":8214,"06":8215,"lyde":8216,"##ografi":8217,"revisor":8218,"bøg":8219,"##elin":8220,"stilles":8221,"værre":8222,"bestaende":8223,"##proc":8224,"fortælling":8225,"tættere":8226,"abenbart":8227,"forvente":8228,"fremmed":8229,"garn":8230,"swingerklub":8231,"slippe":8232,"2019":8233,"øre":8234,"disc":8235,"est":8236,"##klædning":8237,"nemme":8238,"##car":8239,"peber":8240,"konsekvens":8241,"virkede":8242,"##somradet":8243,"flytter":8244,"fastsat":8245,"sakaldt":8246,"ført":8247,"hjørne":8248,"alex":8249,"vedtaget":8250,"fløj":8251,"##jern":8252,"billet":8253,"diskussion":8254,"##kender":8255,"kejser":8256,"kors":8257,"##jent":8258,"okay":8259,"ankom":8260,"##komme":8261,"glemt":8262,"bringer":8263,"##klin":8264,"temmelig":8265,"personlighed":8266,"09":8267,"træffe":8268,"59":8269,"herhjemme":8270,"##skal":8271,"##manden":8272,"betragtes":8273,"udtr":8274,"knappen":8275,"enkle":8276,"separ":8277,"bager":8278,"58":8279,"##sland":8280,"patienten":8281,"fænomen":8282,"##ktiver":8283,"trykke":8284,"##iks":8285,"koge":8286,"tilsæt":8287,"værksted":8288,"hænderne":8289,"oplysning":8290,"travlt":8291,"vilje":8292,"arrangement":8293,"opføl":8294,"##rien":8295,"smal":8296,"spurgt":8297,"##navn":8298,"##spligt":8299,"anlægget":8300,"tol":8301,"prot":8302,"noveller":8303,"kræve":8304,"with":8305,"alvorlige":8306,"kamera":8307,"##forslag":8308,"tilrettelæg":8309,"hellig":8310,"virksomhederne":8311,"krydder":8312,"57":8313,"reducere":8314,"bemærkninger":8315,"seværdigheder":8316,"800":8317,"##kan":8318,"##øen":8319,"adsk":8320,"kolon":8321,"konsulent":8322,"samtykke":8323,"##emidler":8324,"##itor":8325,"eksperter":8326,"højest":8327,"02":8328,"nordisk":8329,"bedømm":8330,"finansielle":8331,"##okr":8332,"dækning":8333,"##vers":8334,"##rens":8335,"##politik":8336,"fødder":8337,"hverdage":8338,"##edskab":8339,"haret":8340,"lokaler":8341,"##mming":8342,"kontin":8343,"##sniveau":8344,"slagelse":8345,"varmen":8346,"##egnede":8347,"##centret":8348,"musikken":8349,"dukker":8350,"peger":8351,"kategorier":8352,"gn":8353,"cykler":8354,"brugerne":8355,"orgasme":8356,"dild":8357,"##go":8358,"vade":8359,"##ravet":8360,"fredericia":8361,"beder":8362,"udfører":8363,"intellig":8364,"##dre":8365,"tjekke":8366,"mont":8367,"kæmper":8368,"gev":8369,"officielle":8370,"##vægt":8371,"bøsse":8372,"##rette":8373,"times":8374,"evner":8375,"rækker":8376,"##etid":8377,"grænsen":8378,"lem":8379,"##serne":8380,"redskaber":8381,"støtter":8382,"dum":8383,"dir":8384,"##selskab":8385,"markedsføring":8386,"anna":8387,"##iserede":8388,"signal":8389,"apple":8390,"ig":8391,"entrepren":8392,"berømte":8393,"ern":8394,"eftersom":8395,"mængden":8396,"prop":8397,"horn":8398,"stram":8399,"tjenester":8400,"gad":8401,"minut":8402,"##kræft":8403,"udnytte":8404,"skriftlig":8405,"##træk":8406,"brugeren":8407,"afdelingen":8408,"opnar":8409,"##igere":8410,"scor":8411,"##revne":8412,"rekrut":8413,"08":8414,"boligen":8415,"foresla":8416,"hæl":8417,"læsning":8418,"es":8419,"ejendomme":8420,"##60":8421,"##ulation":8422,"energim":8423,"##ipp":8424,"stjerner":8425,"forholdsvis":8426,"kilder":8427,"##sninger":8428,"##رررررررر":8429,"arbejdsmarkedet":8430,"vokse":8431,"ønskes":8432,"disci":8433,"##que":8434,"rot":8435,"one":8436,"tjek":8437,"dejen":8438,"samtaler":8439,"religion":8440,"##mat":8441,"overraskende":8442,"studier":8443,"##uddannelsen":8444,"speciel":8445,"flest":8446,"##omet":8447,"cr":8448,"retfærd":8449,"hjerne":8450,"udbetaling":8451,"russiske":8452,"##vandet":8453,"pool":8454,"ekspl":8455,"##mentet":8456,"titlen":8457,"##spolitik":8458,"##ita":8459,"lug":8460,"solid":8461,"ekstremt":8462,"##etræ":8463,"søgning":8464,"glim":8465,"gider":8466,"##enterne":8467,"besøgte":8468,"##utr":8469,"rejste":8470,"##jorde":8471,"økologisk":8472,"skra":8473,"##offet":8474,"##veje":8475,"fremhæ":8476,"##sop":8477,"##11":8478,"byde":8479,"oplysningerne":8480,"mg":8481,"drømmer":8482,"##ædvan":8483,"beskæftigelse":8484,"drive":8485,"blowjob":8486,"miljøet":8487,"##aks":8488,"begivenheder":8489,"ins":8490,"grundet":8491,"vr":8492,"fjernet":8493,"gamm":8494,"05":8495,"vogn":8496,"hustru":8497,"købet":8498,"udgift":8499,"loft":8500,"##cy":8501,"##ysning":8502,"forp":8503,"##arch":8504,"præsenteret":8505,"bukser":8506,"gennemgang":8507,"eksem":8508,"##værkt":8509,"efterspørg":8510,"ordentligt":8511,"centralt":8512,"##plader":8513,"##rade":8514,"ops":8515,"##svæ":8516,"internationalt":8517,"bortset":8518,"kos":8519,"david":8520,"helle":8521,"havnen":8522,"tilknyttet":8523,"fagligt":8524,"vanskeligt":8525,"##udgifter":8526,"##givelse":8527,"##smøde":8528,"nærværende":8529,"hurtige":8530,"##skont":8531,"drag":8532,"##vækst":8533,"##th":8534,"##kredit":8535,"udbytte":8536,"##jyske":8537,"##ognen":8538,"##irksomhed":8539,"afs":8540,"eventuel":8541,"##egru":8542,"##iej":8543,"##inform":8544,"spl":8545,"stjerne":8546,"##urdering":8547,"##tager":8548,"bevare":8549,"lyngby":8550,"nordiske":8551,"foresl":8552,"britiske":8553,"email":8554,"kandidat":8555,"##følger":8556,"##rør":8557,"understøtter":8558,"slægt":8559,"##ekort":8560,"matematik":8561,"humor":8562,"oplyser":8563,"kro":8564,"baggrunden":8565,"##ængde":8566,"bestilling":8567,"##fyr":8568,"tilstrækkelig":8569,"bror":8570,"løst":8571,"definition":8572,"##rul":8573,"udsatte":8574,"grøntsager":8575,"herudover":8576,"generation":8577,"regionen":8578,"##egner":8579,"kolleger":8580,"##ilæ":8581,"##sender":8582,"kræves":8583,"##ovn":8584,"stu":8585,"velegnet":8586,"frækt":8587,"fornemmelse":8588,"sundt":8589,"##amet":8590,"huller":8591,"##com":8592,"##xe":8593,"brænder":8594,"tilfredse":8595,"dann":8596,"trukket":8597,"flag":8598,"kaste":8599,"atter":8600,"##ineres":8601,"indendørs":8602,"##skende":8603,"##start":8604,"spons":8605,"kongen":8606,"##iativer":8607,"foreninger":8608,"dvd":8609,"klubbens":8610,"##kend":8611,"usædvan":8612,"stj":8613,"rapporten":8614,"##auff":8615,"prost":8616,"##ini":8617,"kapacitet":8618,"reducer":8619,"nøje":8620,"##ump":8621,"##chen":8622,"fisker":8623,"tillige":8624,"##stemning":8625,"##dagen":8626,"##være":8627,"skandinav":8628,"blade":8629,"udveks":8630,"##løst":8631,"betød":8632,"kommunalbestyrelsen":8633,"##lund":8634,"##punkter":8635,"benz":8636,"rute":8637,"faciliteter":8638,"##bevæg":8639,"pigen":8640,"samvær":8641,"utro":8642,"co2":8643,"katte":8644,"##ement":8645,"etablere":8646,"##ain":8647,"samarbejder":8648,"prøvede":8649,"gmail":8650,"fattig":8651,"bøn":8652,"tilmelding":8653,"master":8654,"##tab":8655,"##ænde":8656,"retningslinjer":8657,"startet":8658,"overvejer":8659,"ekstraordin":8660,"##fyld":8661,"##blad":8662,"webcam":8663,"mc":8664,"forbedring":8665,"##ismen":8666,"behagelig":8667,"##ikler":8668,"driver":8669,"holbæk":8670,"lyser":8671,"him":8672,"uen":8673,"nom":8674,"byd":8675,"##dæk":8676,"##adres":8677,"tilstrækkeligt":8678,"redegør":8679,"kam":8680,"eksperimenter":8681,"ultim":8682,"##priser":8683,"oplagt":8684,"snakker":8685,"million":8686,"##bund":8687,"##alske":8688,"reserver":8689,"##pens":8690,"##bladet":8691,"forudsætninger":8692,"##ægler":8693,"##givende":8694,"tempo":8695,"roy":8696,"hovedsag":8697,"hjernen":8698,"yo":8699,"bivirkninger":8700,"aps":8701,"stiv":8702,"lol":8703,"valut":8704,"##landt":8705,"##isere":8706,"support":8707,"mission":8708,"direktiv":8709,"menuen":8710,"modsatte":8711,"indtægter":8712,"undskyld":8713,"indstillinger":8714,"##regning":8715,"##tilbud":8716,"##pression":8717,"byggeri":8718,"eff":8719,"##yldes":8720,"handtering":8721,"##slivet":8722,"kontakter":8723,"term":8724,"kalk":8725,"rumm":8726,"##retten":8727,"##onde":8728,"negative":8729,"afhængigt":8730,"120":8731,"tæller":8732,"##acc":8733,"princip":8734,"saft":8735,"opslag":8736,"##alisme":8737,"bedt":8738,"perman":8739,"annonce":8740,"##næst":8741,"kulturelle":8742,"korn":8743,"processer":8744,"øverst":8745,"bestemmer":8746,"##appet":8747,"##undervisning":8748,"socialdemokrat":8749,"interne":8750,"72":8751,"##ystemet":8752,"##italet":8753,"portræt":8754,"erklær":8755,"##arbejdes":8756,"##fly":8757,"personen":8758,"windows":8759,"fulgt":8760,"angiver":8761,"finansiering":8762,"forlade":8763,"##lerup":8764,"##back":8765,"militær":8766,"klubber":8767,"##kendelse":8768,"##vning":8769,"##ygdomme":8770,"##mynd":8771,"indgang":8772,"stærkere":8773,"##ano":8774,"skære":8775,"##videnskab":8776,"radik":8777,"##bygger":8778,"##akning":8779,"samler":8780,"firmaet":8781,"vindmøl":8782,"klinik":8783,"kas":8784,"##lejen":8785,"begejst":8786,"##40":8787,"sexet":8788,"##tilskud":8789,"udbred":8790,"##garden":8791,"desto":8792,"kommissionen":8793,"maskinen":8794,"væske":8795,"borgeren":8796,"##slovens":8797,"studiet":8798,"bevis":8799,"karl":8800,"aktion":8801,"bekræft":8802,"arrang":8803,"tillader":8804,"integration":8805,"derfra":8806,"præsentation":8807,"rejsen":8808,"##sch":8809,"protein":8810,"##kes":8811,"##agerne":8812,"hovedstaden":8813,"overst":8814,"##igelse":8815,"##ivende":8816,"beskrive":8817,"benene":8818,"mønster":8819,"forhindre":8820,"bop":8821,"skriftligt":8822,"##umer":8823,"skiftet":8824,"organisationen":8825,"##vejr":8826,"betalings":8827,"tax":8828,"søen":8829,"1999":8830,"damp":8831,"takket":8832,"##12":8833,"##perioden":8834,"##cks":8835,"forlængelse":8836,"kartof":8837,"ydre":8838,"07":8839,"fange":8840,"##vejledning":8841,"hæld":8842,"kusse":8843,"##ighederne":8844,"66":8845,"milf":8846,"##stekn":8847,"vision":8848,"abnet":8849,"copyr":8850,"udsted":8851,"lød":8852,"originale":8853,"dyrt":8854,"kvad":8855,"##egaard":8856,"tilknytning":8857,"##øbt":8858,"##redienser":8859,"sortiment":8860,"sekund":8861,"dernæst":8862,"indsatsen":8863,"konflikt":8864,"bang":8865,"1990":8866,"sikret":8867,"##skrevet":8868,"løft":8869,"ride":8870,"scene":8871,"japan":8872,"pens":8873,"copyright":8874,"harmon":8875,"opskriften":8876,"hval":8877,"##usk":8878,"forbund":8879,"69":8880,"derhjemme":8881,"følelses":8882,"indbyggere":8883,"##stillede":8884,"indblik":8885,"hug":8886,"##sammen":8887,"billigste":8888,"pizza":8889,"hvorfra":8890,"play":8891,"##pat":8892,"##sprojekt":8893,"midlertid":8894,"##telsen":8895,"##idende":8896,"##position":8897,"holstebro":8898,"høring":8899,"fængsel":8900,"regner":8901,"##ico":8902,"fase":8903,"overordnet":8904,"kjole":8905,"##yer":8906,"nylig":8907,"##øvet":8908,"##sar":8909,"konserv":8910,"teoret":8911,"forestille":8912,"skjul":8913,"muslim":8914,"##maden":8915,"forsvinder":8916,"td":8917,"smat":8918,"personoplysninger":8919,"##ysk":8920,"slap":8921,"##ente":8922,"##bringe":8923,"udenrig":8924,"norske":8925,"scenen":8926,"barne":8927,"hurtigst":8928,"##ni":8929,"dybe":8930,"##reen":8931,"israel":8932,"boet":8933,"pakker":8934,"##abelt":8935,"##smet":8936,"##havet":8937,"eksport":8938,"flyver":8939,"lejer":8940,"statens":8941,"sygdommen":8942,"gule":8943,"feltet":8944,"drøm":8945,"sydlige":8946,"##ykning":8947,"ost":8948,"##ksomme":8949,"undervisnings":8950,"##værelser":8951,"frat":8952,"pande":8953,"tour":8954,"eksterne":8955,"sovjet":8956,"domm":8957,"cre":8958,"##visende":8959,"pornost":8960,"interessante":8961,"inder":8962,"##rigt":8963,"##li":8964,"nævne":8965,"ryger":8966,"uret":8967,"##oplevelse":8968,"##jener":8969,"stræk":8970,"##pas":8971,"omsætning":8972,"nordlige":8973,"miss":8974,"arealer":8975,"##usiv":8976,"gyn":8977,"klogere":8978,"##alsk":8979,"##post":8980,"orientering":8981,"rosen":8982,"##ateret":8983,"beløbet":8984,"62":8985,"bolden":8986,"##fab":8987,"domin":8988,"##somrader":8989,"infl":8990,"fødevar":8991,"##ømmer":8992,"offentliggjort":8993,"##igter":8994,"mobile":8995,"1970":8996,"emil":8997,"##øven":8998,"##gerne":8999,"dram":9000,"##nast":9001,"ovnen":9002,"mandlige":9003,"gram":9004,"diabet":9005,"nerv":9006,"##veks":9007,"##usen":9008,"##taler":9009,"cap":9010,"repræsenterer":9011,"skaffe":9012,"folketinget":9013,"##skoler":9014,"traf":9015,"##billeder":9016,"##spunktet":9017,"##ammen":9018,"forholde":9019,"graf":9020,"misbrug":9021,"bun":9022,"gennemsnitlige":9023,"bredde":9024,"##ney":9025,"##ule":9026,"børns":9027,"##rummet":9028,"ingredienser":9029,"knog":9030,"voldsomt":9031,"##brit":9032,"##bank":9033,"begivenhed":9034,"gammelt":9035,"opkald":9036,"##æves":9037,"terrasse":9038,"anti":9039,"liber":9040,"##rukne":9041,"##ife":9042,"##agten":9043,"behovet":9044,"smarte":9045,"blandet":9046,"oplevede":9047,"##skifte":9048,"niveauer":9049,"nett":9050,"mega":9051,"##ærende":9052,"alvorlig":9053,"singler":9054,"ligefrem":9055,"##etten":9056,"nogenlunde":9057,"holland":9058,"##tion":9059,"greb":9060,"##ensborg":9061,"økologiske":9062,"vokset":9063,"gæsterne":9064,"tidlige":9065,"ess":9066,"tynd":9067,"##ames":9068,"vandløb":9069,"grin":9070,"ankl":9071,"sluttede":9072,"forvir":9073,"producenter":9074,"##biler":9075,"fokusere":9076,"megen":9077,"betydelig":9078,"skilt":9079,"inds":9080,"refle":9081,"knyttet":9082,"værdien":9083,"forelsk":9084,"##loven":9085,"##planen":9086,"##egang":9087,"døden":9088,"renovering":9089,"italienske":9090,"va":9091,"vant":9092,"##spolit":9093,"kvinderne":9094,"kunstnere":9095,"hyl":9096,"populær":9097,"spildevand":9098,"##ath":9099,"planlægge":9100,"formiddag":9101,"farvel":9102,"potentiale":9103,"##proces":9104,"meddelelse":9105,"simon":9106,"trump":9107,"indtast":9108,"koncept":9109,"03":9110,"sikkerheden":9111,"leverandører":9112,"sammenligne":9113,"bach":9114,"##anne":9115,"##teren":9116,"68":9117,"madsen":9118,"fingre":9119,"##undersøgelse":9120,"tyk":9121,"initiativer":9122,"forekommer":9123,"brut":9124,"##sikring":9125,"foreløbig":9126,"afgræn":9127,"von":9128,"##sson":9129,"aktie":9130,"rolig":9131,"##bor":9132,"henvisning":9133,"lik":9134,"erfarne":9135,"bist":9136,"tilslutning":9137,"anonym":9138,"hvidt":9139,"arsregn":9140,"staende":9141,"plak":9142,"producent":9143,"steget":9144,"overvejelser":9145,"kondom":9146,"installation":9147,"##askine":9148,"pisk":9149,"67":9150,"undgar":9151,"fødsel":9152,"##ingerne":9153,"kombineret":9154,"brud":9155,"##ræk":9156,"begrebet":9157,"##vask":9158,"krise":9159,"##esel":9160,"skyde":9161,"betragtning":9162,"spiste":9163,"senge":9164,"miste":9165,"interesserede":9166,"demonstr":9167,"mol":9168,"leds":9169,"fjord":9170,"##repræsent":9171,"##smænd":9172,"##gøres":9173,"observ":9174,"uover":9175,"##ani":9176,"pdf":9177,"hall":9178,"magasin":9179,"##una":9180,"pasta":9181,"mog":9182,"##shøj":9183,"doll":9184,"tat":9185,"##ades":9186,"repræsentanter":9187,"ansigtet":9188,"frug":9189,"bryder":9190,"kampag":9191,"logo":9192,"meld":9193,"journalist":9194,"##ssam":9195,"gemme":9196,"##kkere":9197,"egnet":9198,"skarp":9199,"##sløb":9200,"østrig":9201,"vedrører":9202,"spot":9203,"tøjet":9204,"elske":9205,"menneskelige":9206,"placeres":9207,"##rud":9208,"##oci":9209,"smide":9210,"##esen":9211,"wellness":9212,"##kunst":9213,"##spænd":9214,"bron":9215,"##ffel":9216,"arbejdskraft":9217,"stillede":9218,"dronning":9219,"aktører":9220,"psykiske":9221,"bug":9222,"fans":9223,"##legetøj":9224,"sf":9225,"principper":9226,"redskab":9227,"hvorledes":9228,"modsat":9229,"partier":9230,"sammenlignet":9231,"download":9232,"globale":9233,"soldater":9234,"dal":9235,"neutr":9236,"producerer":9237,"væggen":9238,"##løg":9239,"erotik":9240,"menstru":9241,"jubilæ":9242,"syr":9243,"##polit":9244,"hilsen":9245,"museet":9246,"medlemskab":9247,"##marked":9248,"mr":9249,"produkterne":9250,"juster":9251,"inf":9252,"løsningen":9253,"##pige":9254,"##ima":9255,"underholdning":9256,"henvender":9257,"ekster":9258,"##relser":9259,"flaske":9260,"##kj":9261,"arkitektur":9262,"mistet":9263,"producere":9264,"bragt":9265,"berettiget":9266,"liderlige":9267,"opnas":9268,"spørgesk":9269,"frost":9270,"##ysen":9271,"totalt":9272,"##ualitet":9273,"##freds":9274,"vibr":9275,"cup":9276,"##ial":9277,"borgmester":9278,"samleje":9279,"##tekst":9280,"mundt":9281,"##bag":9282,"forskelle":9283,"forsyn":9284,"udbredt":9285,"fundament":9286,"##tidig":9287,"frivillig":9288,"almen":9289,"##hot":9290,"mølle":9291,"sammenhænge":9292,"varighed":9293,"netto":9294,"##regnes":9295,"undersøgt":9296,"simpel":9297,"fakta":9298,"afpr":9299,"##orme":9300,"fradrag":9301,"styring":9302,"##danmark":9303,"atmosfære":9304,"##annon":9305,"flor":9306,"##berne":9307,"lukker":9308,"##atoriske":9309,"##ystemer":9310,"følges":9311,"kanal":9312,"enest":9313,"##sforløb":9314,"##klasse":9315,"computere":9316,"liderlig":9317,"bevægelser":9318,"kryds":9319,"##va":9320,"drøft":9321,"betydeligt":9322,"ikon":9323,"88":9324,"wil":9325,"uforpligt":9326,"##ites":9327,"sexy":9328,"##orator":9329,"##vo":9330,"beboerne":9331,"##ioter":9332,"størst":9333,"grand":9334,"##osis":9335,"engagement":9336,"inge":9337,"præsenterer":9338,"uld":9339,"forpligtet":9340,"dyrke":9341,"branchen":9342,"kommand":9343,"hk":9344,"monteret":9345,"æl":9346,"kritisk":9347,"##test":9348,"debut":9349,"##øft":9350,"bot":9351,"##ux":9352,"omhandler":9353,"kabel":9354,"investeringer":9355,"maskine":9356,"latin":9357,"discipl":9358,"studenter":9359,"lign":9360,"##andet":9361,"##tagere":9362,"netværks":9363,"##lik":9364,"##etr":9365,"louise":9366,"telefoner":9367,"acceptere":9368,"##boliger":9369,"##ografiske":9370,"ydelse":9371,"opfølgning":9372,"konfir":9373,"##stad":9374,"opb":9375,"##user":9376,"##beskriv":9377,"your":9378,"forebyggelse":9379,"##indt":9380,"muskler":9381,"regioner":9382,"##muse":9383,"levetid":9384,"##etøj":9385,"##kendte":9386,"virksomheds":9387,"##smidler":9388,"##ktivitet":9389,"##ards":9390,"udstillingen":9391,"petersen":9392,"1998":9393,"##ukker":9394,"nordsjælland":9395,"04":9396,"johannes":9397,"ordentlig":9398,"undtagelse":9399,"##itar":9400,"website":9401,"forventede":9402,"tabe":9403,"elegant":9404,"læsere":9405,"coc":9406,"fanget":9407,"hormon":9408,"sogne":9409,"##uleret":9410,"gear":9411,"mekan":9412,"##uch":9413,"storbrit":9414,"##møn":9415,"##institutioner":9416,"##skærm":9417,"minutters":9418,"etn":9419,"##rifter":9420,"##ærket":9421,"slipper":9422,"simple":9423,"børnenes":9424,"optimale":9425,"##avisen":9426,"skibe":9427,"##bør":9428,"straf":9429,"etage":9430,"98":9431,"inviteret":9432,"##byen":9433,"overenskomst":9434,"broder":9435,"smykker":9436,"##ødning":9437,"komprom":9438,"63":9439,"bandet":9440,"##personer":9441,"sover":9442,"##phones":9443,"##holt":9444,"fur":9445,"fad":9446,"uforpligtende":9447,"##ikkerne":9448,"workshop":9449,"##oph":9450,"beholder":9451,"##ekn":9452,"individuel":9453,"##gel":9454,"arme":9455,"interessen":9456,"snap":9457,"ec":9458,"materialet":9459,"##rød":9460,"##rel":9461,"had":9462,"##fløj":9463,"##atoren":9464,"##datter":9465,"ulem":9466,"##historie":9467,"stadigvæk":9468,"iværksætter":9469,"forfatteren":9470,"smagen":9471,"enestaende":9472,"alarm":9473,"##lægger":9474,"##cykel":9475,"julem":9476,"foreligger":9477,"lib":9478,"##bragt":9479,"kommerci":9480,"kræn":9481,"fantasi":9482,"varsel":9483,"koncep":9484,"uly":9485,"glemme":9486,"##scenter":9487,"shopp":9488,"##frist":9489,"bras":9490,"spa":9491,"##kamp":9492,"beskrives":9493,"vo":9494,"##ye":9495,"tob":9496,"##mo":9497,"##status":9498,"##dato":9499,"forega":9500,"pir":9501,"integreret":9502,"schwe":9503,"bevidsthed":9504,"manu":9505,"færø":9506,"overrasket":9507,"klasser":9508,"karen":9509,"##aste":9510,"optagelse":9511,"længst":9512,"fjernes":9513,"bopæl":9514,"##15":9515,"bestod":9516,"##organisation":9517,"##ktøren":9518,"##sket":9519,"green":9520,"##alisere":9521,"storbritann":9522,"beregning":9523,"usikker":9524,"##grundlag":9525,"##aftale":9526,"forrige":9527,"##18":9528,"farven":9529,"foretager":9530,"fravær":9531,"skuff":9532,"begreb":9533,"kaff":9534,"##problemer":9535,"sammenhængende":9536,"digt":9537,"##ræning":9538,"ære":9539,"skabte":9540,"formul":9541,"femin":9542,"faktor":9543,"bekl":9544,"affil":9545,"behageligt":9546,"udarbejde":9547,"sving":9548,"ændrede":9549,"##aktioner":9550,"rappor":9551,"delvist":9552,"sperm":9553,"barndom":9554,"##ækken":9555,"levede":9556,"refleks":9557,"gemmer":9558,"##andens":9559,"trekant":9560,"designer":9561,"filer":9562,"kontrollere":9563,"vægge":9564,"ligegyld":9565,"computeren":9566,"patter":9567,"##skode":9568,"##æve":9569,"danish":9570,"tøm":9571,"##linge":9572,"udsalg":9573,"sandt":9574,"kristian":9575,"##adelse":9576,"planlægger":9577,"fremtidens":9578,"ejeren":9579,"##parken":9580,"blond":9581,"parterne":9582,"micros":9583,"næse":9584,"eksempl":9585,"savner":9586,"hhv":9587,"##eler":9588,"anført":9589,"format":9590,"accept":9591,"flyg":9592,"##udb":9593,"base":9594,"pi":9595,"##amentet":9596,"salat":9597,"blo":9598,"##sleder":9599,"jobbet":9600,"bryde":9601,"andelen":9602,"fuldstænd":9603,"tyder":9604,"jordens":9605,"##idige":9606,"numre":9607,"##illingen":9608,"##artet":9609,"fysioter":9610,"slik":9611,"mobiltelefon":9612,"investere":9613,"brygger":9614,"##areal":9615,"bekæmp":9616,"opstaet":9617,"generel":9618,"bestyrelsesmed":9619,"74":9620,"##kørsel":9621,"presset":9622,"##billet":9623,"##rop":9624,"konstruktion":9625,"belæg":9626,"konkurrencen":9627,"tegnet":9628,"bygges":9629,"bordel":9630,"##parti":9631,"poly":9632,"##´s":9633,"##atten":9634,"henvises":9635,"vort":9636,"populært":9637,"olsen":9638,"anim":9639,"m²":9640,"##cca":9641,"##kasse":9642,"creme":9643,"grundlagt":9644,"princippet":9645,"kanten":9646,"individuelt":9647,"##talte":9648,"##ografisk":9649,"farligt":9650,"krops":9651,"##iserende":9652,"sorg":9653,"afsked":9654,"fremstar":9655,"ambul":9656,"spænding":9657,"robot":9658,"ekstern":9659,"bent":9660,"dybde":9661,"kanaler":9662,"forsigtigt":9663,"fremmede":9664,"yout":9665,"rec":9666,"##result":9667,"liggende":9668,"##iere":9669,"##istens":9670,"synlig":9671,"citron":9672,"arbejdspladsen":9673,"datoer":9674,"ophør":9675,"##istrik":9676,"reklame":9677,"pædagogisk":9678,"romer":9679,"afbr":9680,"##aften":9681,"##val":9682,"kaj":9683,"##forsyning":9684,"opdaget":9685,"indsatser":9686,"opgrader":9687,"fastholde":9688,"sædvanlige":9689,"mors":9690,"##egen":9691,"kassen":9692,"byradet":9693,"afslappet":9694,"offic":9695,"##æren":9696,"urin":9697,"flydende":9698,"##aede":9699,"read":9700,"opstod":9701,"taske":9702,"hjalp":9703,"stillinger":9704,"afgørelsen":9705,"kundeservice":9706,"argumenter":9707,"jazz":9708,"1980":9709,"##inerne":9710,"forpligtelser":9711,"ler":9712,"##mmede":9713,"unikt":9714,"##uge":9715,"##fred":9716,"lolland":9717,"more":9718,"kommenter":9719,"seg":9720,"700":9721,"##skaff":9722,"miljøm":9723,"##stilbud":9724,"##sselskab":9725,"sønderjylland":9726,"udviklede":9727,"tube":9728,"##agelse":9729,"instagram":9730,"understøtte":9731,"konting":9732,"udvend":9733,"##uret":9734,"##ommens":9735,"mich":9736,"involveret":9737,"derude":9738,"kompleks":9739,"1800":9740,"##assist":9741,"opsig":9742,"skrædder":9743,"gig":9744,"tilføjer":9745,"##merende":9746,"##anerne":9747,"dennes":9748,"trygt":9749,"hukomm":9750,"jordbær":9751,"##oværd":9752,"##ryg":9753,"kw":9754,"hjemmelavet":9755,"indført":9756,"forandringer":9757,"herved":9758,"kvadrat":9759,"mangfold":9760,"##ordet":9761,"søgte":9762,"##sfri":9763,"3d":9764,"print":9765,"sgu":9766,"##sbes":9767,"smage":9768,"kravene":9769,"dommer":9770,"styrket":9771,"foranstaltninger":9772,"##arr":9773,"tall":9774,"##umin":9775,"forhabentlig":9776,"##sbet":9777,"aab":9778,"konkurrenc":9779,"##sti":9780,"branche":9781,"æstet":9782,"##krig":9783,"##kkel":9784,"henviser":9785,"tilfredsstillende":9786,"human":9787,"hylde":9788,"fiskeri":9789,"##vide":9790,"maneders":9791,"forbehold":9792,"##sevne":9793,"##fre":9794,"opsætning":9795,"phil":9796,"fastsættes":9797,"##agtig":9798,"fremstilling":9799,"##fac":9800,"holdninger":9801,"brøndby":9802,"##kommet":9803,"##erie":9804,"##arn":9805,"døgnet":9806,"##arealer":9807,"##deligt":9808,"##somrade":9809,"hentet":9810,"hæve":9811,"##ledningen":9812,"arkiv":9813,"nøjes":9814,"astr":9815,"termin":9816,"opmærksomme":9817,"beboer":9818,"dannet":9819,"past":9820,"lægemidler":9821,"rose":9822,"##bekendt":9823,"gevinst":9824,"##svirksomhed":9825,"bakke":9826,"##hn":9827,"samlinger":9828,"tabte":9829,"værket":9830,"revolution":9831,"son":9832,"##iam":9833,"klarer":9834,"behandlinger":9835,"##regel":9836,"##mere":9837,"mex":9838,"##skilt":9839,"##sbeg":9840,"solgte":9841,"udskiftning":9842,"selvstændigt":9843,"##gange":9844,"spist":9845,"lyden":9846,"indledning":9847,"udlejning":9848,"negativ":9849,"##dede":9850,"##avne":9851,"fløde":9852,"mikro":9853,"##skomm":9854,"desser":9855,"komplek":9856,"jack":9857,"##væl":9858,"embed":9859,"poin":9860,"overfladen":9861,"gymnast":9862,"træningen":9863,"##ktoren":9864,"cig":9865,"services":9866,"##kortet":9867,"crem":9868,"tide":9869,"183":9870,"bestilt":9871,"iværksæt":9872,"supplerende":9873,"smukkeste":9874,"strikke":9875,"unød":9876,"tegnes":9877,"drevet":9878,"put":9879,"skidt":9880,"bæl":9881,"ml":9882,"##ophold":9883,"##tre":9884,"værelserne":9885,"##meter":9886,"tegner":9887,"bam":9888,"##ara":9889,"##umen":9890,"##verne":9891,"microsoft":9892,"tomm":9893,"feed":9894,"banken":9895,"diabetes":9896,"ork":9897,"potentielle":9898,"61":9899,"##lær":9900,"uend":9901,"beredskab":9902,"vine":9903,"gemt":9904,"opfyld":9905,"høst":9906,"indbygget":9907,"bb":9908,"forsam":9909,"##ging":9910,"regionale":9911,"tilbuddet":9912,"bomuld":9913,"##iter":9914,"celler":9915,"optræder":9916,"ond":9917,"word":9918,"svamp":9919,"tildelt":9920,"##25":9921,"78":9922,"strid":9923,"afk":9924,"##konstru":9925,"posten":9926,"note":9927,"##eliv":9928,"resterende":9929,"79":9930,"sul":9931,"emp":9932,"##cm":9933,"yoga":9934,"zo":9935,"##pul":9936,"die":9937,"##bid":9938,"##box":9939,"forlod":9940,"marketing":9941,"nyhedsbrev":9942,"86":9943,"skabes":9944,"hjørring":9945,"##stiller":9946,"eva":9947,"kloak":9948,"indbet":9949,"kniv":9950,"pak":9951,"etableres":9952,"##læggelse":9953,"bh":9954,"respekter":9955,"77":9956,"hjulpet":9957,"##sperson":9958,"##astrof":9959,"##hyd":9960,"fair":9961,"oplyse":9962,"spær":9963,"ventede":9964,"selvstændige":9965,"udviklings":9966,"##typer":9967,"##osen":9968,"hovedstad":9969,"koste":9970,"##edr":9971,"##reber":9972,"beslutter":9973,"danse":9974,"problemstillinger":9975,"udskriv":9976,"spin":9977,"vacc":9978,"faget":9979,"##oppens":9980,"pavirket":9981,"##bygget":9982,"sidstnævnte":9983,"##ummer":9984,"begrænsninger":9985,"##habil":9986,"##midler":9987,"træde":9988,"videnskabelige":9989,"##progra":9990,"samarbejdspartnere":9991,"tilpasset":9992,"halsen":9993,"overvægt":9994,"floden":9995,"sammenligning":9996,"væsen":9997,"inse":9998,"##græn":9999,"##aktør":10000,"størsted":10001,"opdagede":10002,"milliarder":10003,"kartofler":10004,"opgav":10005,"##bon":10006,"wal":10007,"stige":10008,"eder":10009,"##faldet":10010,"forvand":10011,"tone":10012,"##anken":10013,"vedvarende":10014,"dagpenge":10015,"##kontrol":10016,"palæg":10017,"restauranten":10018,"bød":10019,"cool":10020,"##oritet":10021,"##besøg":10022,"##gul":10023,"tilpasse":10024,"##uller":10025,"##styrke":10026,"jød":10027,"afsæt":10028,"delvis":10029,"udnævn":10030,"linjer":10031,"jubilæum":10032,"temaer":10033,"##behov":10034,"oplevelsen":10035,"##gle":10036,"##ædagog":10037,"##ksen":10038,"##sprogram":10039,"polen":10040,"tvært":10041,"elektroniske":10042,"træffes":10043,"indsamling":10044,"spidsen":10045,"##ordninger":10046,"afgang":10047,"##stjen":10048,"ager":10049,"analys":10050,"kilo":10051,"veget":10052,"##livet":10053,"forkerte":10054,"paske":10055,"parken":10056,"gren":10057,"##mot":10058,"anmodning":10059,"jose":10060,"##ybe":10061,"beskytter":10062,"##mma":10063,"##creme":10064,"forekomme":10065,"prom":10066,"##forslaget":10067,"videos":10068,"anbefal":10069,"opdager":10070,"rense":10071,"repræsenteret":10072,"##periode":10073,"##dags":10074,"plastik":10075,"elevernes":10076,"vurderet":10077,"##ikkens":10078,"##vidste":10079,"##anvend":10080,"korrekte":10081,"myst":10082,"varierer":10083,"landshold":10084,"##ulære":10085,"vejleder":10086,"home":10087,"tdc":10088,"##ati":10089,"optimalt":10090,"platform":10091,"check":10092,"testet":10093,"italiensk":10094,"##planer":10095,"jævnligt":10096,"bogstav":10097,"tilføjet":10098,"sags":10099,"snarere":10100,"argang":10101,"strip":10102,"gennemgaet":10103,"##agtige":10104,"forkæl":10105,"mdr":10106,"ovn":10107,"depression":10108,"folketing":10109,"opfordrer":10110,"vendt":10111,"rigeligt":10112,"wo":10113,"ster":10114,"##19":10115,"rets":10116,"##oser":10117,"høn":10118,"##obe":10119,"##14":10120,"##skar":10121,"sønderborg":10122,"##pad":10123,"##liste":10124,"stren":10125,"##iber":10126,"87":10127,"effekter":10128,"tilhører":10129,"sparer":10130,"##ella":10131,"##zon":10132,"dræbt":10133,"skæb":10134,"venskab":10135,"##amm":10136,"sikres":10137,"tilfredshed":10138,"##miljø":10139,"fokuserer":10140,"##ferien":10141,"tykke":10142,"professionelt":10143,"schweiz":10144,"omh":10145,"sprøjte":10146,"skibet":10147,"forstas":10148,"størstedelen":10149,"politikerne":10150,"gold":10151,"afholder":10152,"##ala":10153,"fjernvarme":10154,"glemmer":10155,"plader":10156,"forventning":10157,"##data":10158,"varem":10159,"##sser":10160,"##ificerede":10161,"rulle":10162,"chauff":10163,"sværere":10164,"profiler":10165,"beskad":10166,"veninder":10167,"udgangen":10168,"##instru":10169,"##egarden":10170,"kontanthjælp":10171,"funktionen":10172,"fordeling":10173,"hvorpa":10174,"storbritannien":10175,"ringer":10176,"ramte":10177,"betjen":10178,"1960":10179,"##ieret":10180,"##frastruktur":10181,"steen":10182,"lærte":10183,"rødt":10184,"videregaende":10185,"dildo":10186,"kongelige":10187,"træet":10188,"##industrien":10189,"##13":10190,"sexlegetøj":10191,"forlag":10192,"##væsen":10193,"tynde":10194,"##rejser":10195,"noter":10196,"fabri":10197,"fødslen":10198,"thi":10199,"math":10200,"##visningen":10201,"##sbesk":10202,"rober":10203,"##æssige":10204,"cover":10205,"##atorisk":10206,"avisen":10207,"sandheden":10208,"terræn":10209,"sponsor":10210,"arbejdst":10211,"##pine":10212,"##indhold":10213,"mov":10214,"læses":10215,"skander":10216,"reduceret":10217,"fødevare":10218,"ærlig":10219,"faktura":10220,"specifikt":10221,"##vogne":10222,"73":10223,"##fyn":10224,"lover":10225,"##sministeren":10226,"ryst":10227,"##osp":10228,"optimal":10229,"mikkel":10230,"##svæsen":10231,"stoppede":10232,"##anda":10233,"turister":10234,"opvarmning":10235,"blan":10236,"##pakke":10237,"##nor":10238,"##si":10239,"rejst":10240,"billetter":10241,"effekten":10242,"virt":10243,"##ianter":10244,"børnehave":10245,"tilber":10246,"underviser":10247,"anvendte":10248,"len":10249,"1997":10250,"ipad":10251,"anbefaling":10252,"jøder":10253,"kærligheden":10254,"##forløbet":10255,"eksam":10256,"##ifi":10257,"bøj":10258,"borde":10259,"##tens":10260,"##kons":10261,"passion":10262,"forlader":10263,"parlament":10264,"##træning":10265,"administrative":10266,"faktum":10267,"##okaler":10268,"##evne":10269,"##mes":10270,"drikker":10271,"hyd":10272,"traditionel":10273,"##enting":10274,"ansættelses":10275,"##aliserede":10276,"hede":10277,"utallige":10278,"hjemmefra":10279,"aspekter":10280,"males":10281,"tung":10282,"foretrukne":10283,"seksuel":10284,"virkelige":10285,"ift":10286,"permanent":10287,"motivation":10288,"##prisen":10289,"veks":10290,"oversku":10291,"vejer":10292,"modtagelse":10293,"sikring":10294,"optage":10295,"mistede":10296,"##gebyr":10297,"herren":10298,"##gra":10299,"aner":10300,"bygher":10301,"bay":10302,"asyl":10303,"folkeskolen":10304,"##kage":10305,"georg":10306,"legal":10307,"eksisterer":10308,"tegninger":10309,"charmerende":10310,"pla":10311,"skabel":10312,"risikerer":10313,"##oplevelser":10314,"albu":10315,"##speci":10316,"ejendomsm":10317,"##sgade":10318,"##sprocessen":10319,"##elet":10320,"forbedringer":10321,"tredj":10322,"trækkes":10323,"ze":10324,"##styrelsens":10325,"kriterier":10326,"emball":10327,"ovennævnte":10328,"europæisk":10329,"##ilbud":10330,"atom":10331,"gader":10332,"forsink":10333,"fastsl":10334,"dun":10335,"videns":10336,"##valtningen":10337,"accepterer":10338,"##ringes":10339,"glide":10340,"fortællinger":10341,"division":10342,"89":10343,"ydes":10344,"##itten":10345,"bestræ":10346,"udefra":10347,"##ikal":10348,"halve":10349,"##meddel":10350,"##information":10351,"76":10352,"##24":10353,"##holdning":10354,"##analyse":10355,"##iblandt":10356,"klat":10357,"hvorved":10358,"udfylde":10359,"non":10360,"##ænkning":10361,"talmod":10362,"##rettede":10363,"byggeriet":10364,"isolering":10365,"##øser":10366,"pæne":10367,"##øjt":10368,"herred":10369,"næg":10370,"##radgiver":10371,"valby":10372,"##spring":10373,"formue":10374,"menstruation":10375,"smartphones":10376,"colle":10377,"##issen":10378,"##hjel":10379,"troværd":10380,"##point":10381,"sved":10382,"repu":10383,"##sfag":10384,"##enden":10385,"sites":10386,"genstande":10387,"##ooth":10388,"belg":10389,"ejendoms":10390,"##inci":10391,"96":10392,"leger":10393,"beskæftiger":10394,"##ellet":10395,"sandhed":10396,"truffet":10397,"rammerne":10398,"pabegynd":10399,"spændt":10400,"udarbejdelse":10401,"vifte":10402,"vandret":10403,"bakterier":10404,"baden":10405,"##gørende":10406,"bureau":10407,"##yste":10408,"udmærket":10409,"##bureau":10410,"##stig":10411,"##feltet":10412,"hjælpemidler":10413,"##ændringer":10414,"eksklusive":10415,"##uf":10416,"pant":10417,"reduktion":10418,"flitt":10419,"alles":10420,"firmaer":10421,"opløsning":10422,"standarder":10423,"ansættelse":10424,"persond":10425,"input":10426,"##aming":10427,"##ificering":10428,"søgt":10429,"chok":10430,"adam":10431,"##ribut":10432,"kaldte":10433,"##middel":10434,"##brog":10435,"elast":10436,"licens":10437,"mælke":10438,"sofaen":10439,"temperaturen":10440,"reform":10441,"udarbejdes":10442,"melde":10443,"inkluderet":10444,"angri":10445,"budskab":10446,"flok":10447,"##ners":10448,"teat":10449,"detail":10450,"##esko":10451,"hemmelig":10452,"##hoved":10453,"frems":10454,"belysning":10455,"evnen":10456,"##rerer":10457,"medierne":10458,"##skur":10459,"skanderborg":10460,"nærings":10461,"politiken":10462,"##sholm":10463,"opbygning":10464,"frivilligt":10465,"indv":10466,"##sj":10467,"fla":10468,"konklusion":10469,"##midt":10470,"byr":10471,"##onor":10472,"homo":10473,"##program":10474,"##stjeneste":10475,"mess":10476,"kampagne":10477,"røn":10478,"deltaget":10479,"##rapporten":10480,"##adresse":10481,"vig":10482,"batteri":10483,"##skop":10484,"stav":10485,"luk":10486,"ure":10487,"snit":10488,"tværtimod":10489,"afrika":10490,"forebygge":10491,"ordning":10492,"netværket":10493,"afkast":10494,"forbedret":10495,"køretøjer":10496,"dagtilbud":10497,"handkl":10498,"lufthavnen":10499,"konger":10500,"rug":10501,"ejere":10502,"gyl":10503,"##hurt":10504,"##ateres":10505,"himlen":10506,"skulpt":10507,"##skader":10508,"##aterer":10509,"##bs":10510,"laborator":10511,"old":10512,"enorme":10513,"nedbr":10514,"samles":10515,"##rent":10516,"konsul":10517,"vinduet":10518,"afslapp":10519,"coach":10520,"##kammer":10521,"discla":10522,"##ulighed":10523,"fortid":10524,"chancen":10525,"##ostrup":10526,"melod":10527,"instruktør":10528,"epis":10529,"handværker":10530,"##verdenen":10531,"##yper":10532,"endeligt":10533,"parret":10534,"##ænkt":10535,"matcher":10536,"##lege":10537,"disclaimer":10538,"##splanen":10539,"øjeblikk":10540,"forberedt":10541,"forside":10542,"stoffet":10543,"##inens":10544,"jyske":10545,"konflikter":10546,"hals":10547,"ukendt":10548,"shopping":10549,"ded":10550,"forsyning":10551,"tilbudt":10552,"house":10553,"hoppe":10554,"etik":10555,"this":10556,"spilles":10557,"spillerne":10558,"bd":10559,"##centre":10560,"tusinde":10561,"##saftale":10562,"selvm":10563,"afspejler":10564,"homoseksuelle":10565,"told":10566,"sæde":10567,"##speriode":10568,"kinesiske":10569,"kompens":10570,"frederikshavn":10571,"faktiske":10572,"festiv":10573,"display":10574,"pornostjerne":10575,"youtube":10576,"tillykke":10577,"##ai":10578,"##afrik":10579,"skæv":10580,"citat":10581,"##isol":10582,"returner":10583,"louis":10584,"##aterialer":10585,"portug":10586,"renter":10587,"kategorien":10588,"skarpe":10589,"##ødder":10590,"farlige":10591,"##branchen":10592,"spisest":10593,"##sbyg":10594,"udforske":10595,"##anere":10596,"##drages":10597,"bond":10598,"læber":10599,"papeg":10600,"##ory":10601,"tusindvis":10602,"forsikringen":10603,"serveret":10604,"mands":10605,"fold":10606,"opstart":10607,"sædceller":10608,"opdatering":10609,"##højde":10610,"skum":10611,"observer":10612,"abningstider":10613,"ingenting":10614,"pod":10615,"kundens":10616,"##ationerne":10617,"bjørn":10618,"menneskets":10619,"ovenpa":10620,"varmepum":10621,"kjær":10622,"score":10623,"ugers":10624,"royal":10625,"skriftlige":10626,"eftermiddagen":10627,"##fulgt":10628,"lot":10629,"daværende":10630,"beretning":10631,"personal":10632,"##ague":10633,"blodet":10634,"rimeligt":10635,"gavekort":10636,"##endelsen":10637,"##fødte":10638,"kompromis":10639,"forsiden":10640,"koncerter":10641,"vvs":10642,"landsd":10643,"tv2":10644,"fjerner":10645,"##venlig":10646,"##70":10647,"##ækkende":10648,"##ml":10649,"179":10650,"##spris":10651,"##rapp":10652,"##ical":10653,"##skema":10654,"##ype":10655,"##egnes":10656,"2020":10657,"##gives":10658,"kødet":10659,"##stykke":10660,"medvirk":10661,"tandlæge":10662,"##elever":10663,"salget":10664,"vindue":10665,"forøg":10666,"formar":10667,"drage":10668,"##førende":10669,"økonomien":10670,"apps":10671,"bedes":10672,"palid":10673,"##edal":10674,"partiet":10675,"original":10676,"mails":10677,"alders":10678,"##yen":10679,"##arne":10680,"##atch":10681,"##fod":10682,"virus":10683,"slank":10684,"##iserer":10685,"opleves":10686,"naz":10687,"almene":10688,"religiøse":10689,"bit":10690,"inc":10691,"muskel":10692,"pøl":10693,"fremtræ":10694,"##unge":10695,"beskyttet":10696,"ce":10697,"julen":10698,"alting":10699,"##baseret":10700,"##rukket":10701,"enheden":10702,"##olde":10703,"global":10704,"tum":10705,"82":10706,"retss":10707,"skor":10708,"sadant":10709,"besøgt":10710,"dybere":10711,"debatten":10712,"##ursus":10713,"street":10714,"dipl":10715,"kraftige":10716,"has":10717,"##indlæg":10718,"bac":10719,"ordningen":10720,"fortjener":10721,"tech":10722,"glip":10723,"mem":10724,"parf":10725,"tarn":10726,"pic":10727,"vug":10728,"##16":10729,"sande":10730,"##prøver":10731,"ferien":10732,"orange":10733,"pakket":10734,"udkom":10735,"medicinsk":10736,"begrænse":10737,"drengene":10738,"følelsen":10739,"##bukser":10740,"bytte":10741,"smed":10742,"japanske":10743,"stam":10744,"##ary":10745,"montering":10746,"skilsm":10747,"længden":10748,"##omkostninger":10749,"rader":10750,"ogsaa":10751,"tidens":10752,"installeret":10753,"83":10754,"sanger":10755,"##ript":10756,"immun":10757,"affilierede":10758,"uop":10759,"ankomst":10760,"præmie":10761,"##fast":10762,"##stens":10763,"##uddannelser":10764,"indien":10765,"##eled":10766,"afb":10767,"skema":10768,"##ran":10769,"mav":10770,"mødre":10771,"udvidelse":10772,"veter":10773,"##værdige":10774,"voksende":10775,"strø":10776,"forvaltning":10777,"tons":10778,"sekretariat":10779,"##ulerer":10780,"biblioteket":10781,"##profil":10782,"1996":10783,"venligt":10784,"smartphone":10785,"##espørg":10786,"92":10787,"##nens":10788,"diskutere":10789,"telt":10790,"##aliteten":10791,"uund":10792,"df":10793,"gennemførelse":10794,"arbejdsløs":10795,"bæredygtig":10796,"endt":10797,"overtog":10798,"##ous":10799,"##ariske":10800,"opbygget":10801,"transpor":10802,"angel":10803,"navig":10804,"##appar":10805,"##cts":10806,"tvunget":10807,"##omst":10808,"##yrer":10809,"parall":10810,"fællesskabet":10811,"bundet":10812,"kristend":10813,"##sbr":10814,"guitar":10815,"bestilte":10816,"regning":10817,"beregnes":10818,"##dik":10819,"##4for":10820,"stolte":10821,"##hh":10822,"must":10823,"##askiner":10824,"##klen":10825,"tro4for":10826,"foruds":10827,"linket":10828,"elite":10829,"haver":10830,"vinkel":10831,"voksede":10832,"arbejdstid":10833,"speciale":10834,"als":10835,"brændstof":10836,"betjening":10837,"alternative":10838,"abnes":10839,"##sprojekter":10840,"skot":10841,"badeværelset":10842,"##oppet":10843,"ringsted":10844,"formidling":10845,"gummi":10846,"infrastruktur":10847,"tankerne":10848,"##ida":10849,"##elskab":10850,"##kul":10851,"typen":10852,"##rerede":10853,"hvile":10854,"##styring":10855,"angive":10856,"overskrift":10857,"trives":10858,"katol":10859,"aftensmad":10860,"ravarer":10861,"banker":10862,"parforhold":10863,"sec":10864,"##mærker":10865,"ægtefælle":10866,"##vilkar":10867,"reflekter":10868,"morg":10869,"knu":10870,"binde":10871,"##anlægget":10872,"##indsats":10873,"##afgift":10874,"øjet":10875,"##itiv":10876,"opbygge":10877,"junior":10878,"##till":10879,"identificere":10880,"los":10881,"##ienterne":10882,"##ords":10883,"indbrud":10884,"fonden":10885,"##venlige":10886,"##zen":10887,"blødt":10888,"nederst":10889,"udkast":10890,"##sproc":10891,"vægttab":10892,"opretholde":10893,"##sprodukter":10894,"union":10895,"bonde":10896,"##astrup":10897,"reparation":10898,"##delen":10899,"meningen":10900,"##abler":10901,"kravet":10902,"unges":10903,"lut":10904,"inspirerende":10905,"sproget":10906,"kontoret":10907,"##strækning":10908,"bestiller":10909,"indeks":10910,"##zone":10911,"føres":10912,"kroppens":10913,"falster":10914,"gh":10915,"sun":10916,"parat":10917,"birg":10918,"bestemmelse":10919,"ødelægge":10920,"tværfag":10921,"menneskeret":10922,"lønmod":10923,"klagen":10924,"lytter":10925,"##gennem":10926,"heldige":10927,"udsigten":10928,"##ti":10929,"skem":10930,"##aliteter":10931,"##17":10932,"##reder":10933,"klø":10934,"indtægt":10935,"##ern":10936,"mellemrum":10937,"fejre":10938,"##bede":10939,"usikkerhed":10940,"hert":10941,"trist":10942,"##sprogra":10943,"regulering":10944,"84":10945,"##sproblemer":10946,"begreber":10947,"teknikker":10948,"loftet":10949,"røre":10950,"prins":10951,"garder":10952,"grundig":10953,"manglede":10954,"##eje":10955,"forstaet":10956,"lanet":10957,"vidner":10958,"aw":10959,"begrav":10960,"samvitt":10961,"##brudt":10962,"kvarter":10963,"##spension":10964,"##stillings":10965,"sjældne":10966,"race":10967,"skygge":10968,"sandsynlighed":10969,"##geren":10970,"cand":10971,"forordning":10972,"##kultur":10973,"alumin":10974,"systematisk":10975,"william":10976,"husdyr":10977,"forberede":10978,"benzin":10979,"magnet":10980,"hygiej":10981,"anerkendt":10982,"tilmelde":10983,"wik":10984,"svage":10985,"køle":10986,"forbudt":10987,"udsl":10988,"hf":10989,"administrer":10990,"seksuelt":10991,"rich":10992,"hvidovre":10993,"##skin":10994,"fet":10995,"livmoder":10996,"tiltrække":10997,"klippe":10998,"##foreninger":10999,"malgruppe":11000,"##imeter":11001,"##idte":11002,"radet":11003,"skit":11004,"dømt":11005,"##saktiv":11006,"##egning":11007,"egentlige":11008,"##ættet":11009,"overvagning":11010,"filter":11011,"anerkendelse":11012,"##ymp":11013,"##tigheder":11014,"regnet":11015,"##afdeling":11016,"pakken":11017,"stemningen":11018,"##peten":11019,"##xt":11020,"##ool":11021,"tegning":11022,"skuespil":11023,"maksimalt":11024,"##krav":11025,"pia":11026,"##000":11027,"kirsten":11028,"garant":11029,"girl":11030,"##aps":11031,"##ands":11032,"opbevares":11033,"##plo":11034,"open":11035,"udbetalt":11036,"regeringens":11037,"rekord":11038,"lovens":11039,"##rich":11040,"sams":11041,"##fundet":11042,"officielt":11043,"klinisk":11044,"udgav":11045,"nævner":11046,"##ivelse":11047,"fog":11048,"##markedet":11049,"##ygdom":11050,"rh":11051,"arrække":11052,"formel":11053,"##ives":11054,"kvalifik":11055,"øer":11056,"iii":11057,"nervøs":11058,"udførelse":11059,"opbakning":11060,"diplom":11061,"krog":11062,"langsigt":11063,"##ældre":11064,"nætter":11065,"palæst":11066,"##ress":11067,"kaster":11068,"league":11069,"tilsk":11070,"øvelse":11071,"erind":11072,"93":11073,"ingeniør":11074,"opdage":11075,"##icerede":11076,"##aminer":11077,"malene":11078,"##aka":11079,"redde":11080,"ødelagt":11081,"spanske":11082,"##rob":11083,"hæk":11084,"fornød":11085,"##sform":11086,"gucca":11087,"ryge":11088,"gravide":11089,"##kær":11090,"efterløn":11091,"stock":11092,"undersøger":11093,"178":11094,"indledende":11095,"taller":11096,"anelse":11097,"tændt":11098,"oversættelse":11099,"indstillet":11100,"##ømmet":11101,"kirur":11102,"arrangementet":11103,"auto":11104,"dimension":11105,"søer":11106,"eksped":11107,"##oklip":11108,"ansøgningen":11109,"##sdage":11110,"lægemiddel":11111,"udfordrende":11112,"spansk":11113,"vink":11114,"infektion":11115,"domstol":11116,"svine":11117,"##kvens":11118,"mønstre":11119,"##pension":11120,"besta":11121,"enden":11122,"##skede":11123,"##institution":11124,"udvikles":11125,"afgørelser":11126,"andreas":11127,"##ydelses":11128,"referat":11129,"ruten":11130,"import":11131,"opdelt":11132,"lene":11133,"seriøst":11134,"##fyldt":11135,"##riterende":11136,"##ray":11137,"velkomne":11138,"##yggeligt":11139,"artier":11140,"betegn":11141,"juridiske":11142,"1995":11143,"medfør":11144,"slette":11145,"toget":11146,"hvidløg":11147,"west":11148,"adgangskode":11149,"dt":11150,"##billede":11151,"medarbejderen":11152,"konkluder":11153,"##ævner":11154,"metoden":11155,"97":11156,"læseren":11157,"##otiske":11158,"samspil":11159,"##farve":11160,"hang":11161,"universitetet":11162,"keram":11163,"sau":11164,"forinden":11165,"##ev":11166,"uni":11167,"fiber":11168,"australien":11169,"good":11170,"kandidater":11171,"hellige":11172,"aluminium":11173,"hanne":11174,"rask":11175,"nykøbing":11176,"sed":11177,"##bade":11178,"shem":11179,"overraskelse":11180,"kysten":11181,"katastrof":11182,"laveste":11183,"sult":11184,"mærkeligt":11185,"understreger":11186,"snor":11187,"sandsynligt":11188,"##ians":11189,"spek":11190,"king":11191,"premier":11192,"konceptet":11193,"##teker":11194,"##itive":11195,"passager":11196,"aktuelt":11197,"tos":11198,"##chat":11199,"teste":11200,"placere":11201,"strækker":11202,"##piller":11203,"tønder":11204,"foreslar":11205,"indk":11206,"fleksibel":11207,"sikke":11208,"##rænding":11209,"vidunderlige":11210,"##bordet":11211,"udlændinge":11212,"eksamens":11213,"##iges":11214,"tradte":11215,"carsten":11216,"##taj":11217,"skudt":11218,"##draget":11219,"stemp":11220,"dyrere":11221,"##ækker":11222,"##ppes":11223,"digitalt":11224,"godkendte":11225,"##umre":11226,"##sbeting":11227,"ox":11228,"slip":11229,"tillade":11230,"##anceret":11231,"omhand":11232,"box":11233,"varieret":11234,"##agtigt":11235,"##ience":11236,"mix":11237,"strik":11238,"tarm":11239,"##sonen":11240,"71":11241,"inspirere":11242,"synlige":11243,"kommunikere":11244,"søskende":11245,"##stur":11246,"menigheds":11247,"juridisk":11248,"harry":11249,"kirker":11250,"##21":11251,"køleskabet":11252,"##klubben":11253,"dl":11254,"hovedsageligt":11255,"mændene":11256,"##ors":11257,"##act":11258,"kliniske":11259,"110":11260,"##sre":11261,"bestyrelsens":11262,"prinses":11263,"cigaret":11264,"forbr":11265,"##amper":11266,"konference":11267,"ic":11268,"sagens":11269,"##dren":11270,"præsenteres":11271,"sod":11272,"##baner":11273,"##core":11274,"##skib":11275,"##afdelingen":11276,"dreje":11277,"##bygningen":11278,"nærmer":11279,"reklamer":11280,"nordvest":11281,"##esvig":11282,"berling":11283,"esp":11284,"##autom":11285,"neur":11286,"partnere":11287,"serier":11288,"##leden":11289,"vedtægter":11290,"##ofte":11291,"##ki":11292,"##skræ":11293,"obs":11294,"træffer":11295,"plej":11296,"##fug":11297,"indsig":11298,"scenar":11299,"soveværelse":11300,"##parten":11301,"##lovens":11302,"##spørg":11303,"indrømme":11304,"##ageret":11305,"##elovens":11306,"oprør":11307,"##du":11308,"fuldstændigt":11309,"##ited":11310,"budgettet":11311,"cyklen":11312,"##yden":11313,"dab":11314,"præstation":11315,"kongens":11316,"##orth":11317,"skuffet":11318,"datings":11319,"væn":11320,"##værdig":11321,"erg":11322,"##brugt":11323,"tang":11324,"1900":11325,"##arked":11326,"afhent":11327,"inviterer":11328,"ansøgninger":11329,"lighed":11330,"scener":11331,"1950":11332,"betingelserne":11333,"applik":11334,"fyldte":11335,"##ærm":11336,"##iøs":11337,"##staet":11338,"mørkt":11339,"grundlaget":11340,"160":11341,"magn":11342,"hop":11343,"andro":11344,"fastsætte":11345,"##sbid":11346,"##mf":11347,"175":11348,"sangen":11349,"ligget":11350,"denmark":11351,"mht":11352,"##ægten":11353,"gennemsigt":11354,"haderslev":11355,"smit":11356,"afsnittet":11357,"udsagn":11358,"##ize":11359,"##gelser":11360,"##dy":11361,"cast":11362,"amp":11363,"spejl":11364,"##ums":11365,"##skontrol":11366,"komplekse":11367,"cle":11368,"spirit":11369,"erob":11370,"rødovre":11371,"vrede":11372,"tørt":11373,"imødekommende":11374,"##viste":11375,"femte":11376,"##ktører":11377,"rehabil":11378,"##ementer":11379,"##lagde":11380,"makeup":11381,"prostitu":11382,"##ee":11383,"stiftet":11384,"##roen":11385,"kristus":11386,"fryser":11387,"##elor":11388,"befri":11389,"usb":11390,"støvler":11391,"##iverset":11392,"vul":11393,"lærerne":11394,"##smag":11395,"indire":11396,"##lel":11397,"ilt":11398,"udpeget":11399,"kneppe":11400,"variere":11401,"##avnet":11402,"melder":11403,"##omi":11404,"ansvarlige":11405,"eje":11406,"anvendelsen":11407,"##lut":11408,"ruder":11409,"##yng":11410,"byrad":11411,"hegn":11412,"##støtte":11413,"figurer":11414,"atlet":11415,"øges":11416,"benyttet":11417,"marker":11418,"medlemsstat":11419,"rykker":11420,"festen":11421,"onde":11422,"hart":11423,"græske":11424,"##landsk":11425,"##ummet":11426,"daniel":11427,"lovgivningen":11428,"tætte":11429,"##vang":11430,"stab":11431,"tallene":11432,"##maler":11433,"sviger":11434,"indirekte":11435,"demokrati":11436,"familiens":11437,"##raktive":11438,"sygeplejerske":11439,"ærligt":11440,"coun":11441,"##armen":11442,"frik":11443,"screen":11444,"##give":11445,"##ae":11446,"finalen":11447,"videoen":11448,"##erencen":11449,"hemmelighed":11450,"udlejer":11451,"pille":11452,"varetage":11453,"husets":11454,"langvar":11455,"videoklip":11456,"bragte":11457,"semin":11458,"kontingent":11459,"medvirke":11460,"ubet":11461,"##esex":11462,"servicen":11463,"færdigt":11464,"sem":11465,"morgenmaden":11466,"skjold":11467,"##ussen":11468,"tyrkiet":11469,"##møder":11470,"apos":11471,"strej":11472,"skræddersy":11473,"##isted":11474,"trafikken":11475,"slim":11476,"brune":11477,"kh":11478,"##overe":11479,"overnatning":11480,"##eser":11481,"##flade":11482,"dosis":11483,"gæste":11484,"lesbisk":11485,"##værdier":11486,"traditionelt":11487,"robert":11488,"marian":11489,"1992":11490,"##entre":11491,"projektets":11492,"inkluderer":11493,"sofie":11494,"skjult":11495,"tilsammen":11496,"##forme":11497,"##maling":11498,"sammensat":11499,"bussen":11500,"bisk":11501,"springe":11502,"udgifterne":11503,"forbliver":11504,"ordene":11505,"erst":11506,"kager":11507,"formod":11508,"##lejning":11509,"gymnasium":11510,"##god":11511,"##ypt":11512,"flo":11513,"##resund":11514,"##shosp":11515,"##iko":11516,"forberedelse":11517,"ekspon":11518,"##betændelse":11519,"forsker":11520,"omfatte":11521,"porte":11522,"henvendelser":11523,"varianter":11524,"##lens":11525,"flex":11526,"war":11527,"run":11528,"klæde":11529,"analyt":11530,"kameraet":11531,"tiv":11532,"##wood":11533,"købmand":11534,"ejet":11535,"bekymring":11536,"velsmag":11537,"redegørelse":11538,"##dene":11539,"børnet":11540,"##por":11541,"##olin":11542,"ron":11543,"efterskole":11544,"kvalificeret":11545,"landskabet":11546,"dyrker":11547,"juletræ":11548,"1994":11549,"produktions":11550,"dispens":11551,"##rudt":11552,"fig":11553,"##itis":11554,"indeholdt":11555,"##æver":11556,"irriterende":11557,"attraktive":11558,"signaler":11559,"forbindelser":11560,"opvaske":11561,"latter":11562,"##strategi":11563,"lidelser":11564,"##cast":11565,"autent":11566,"konvention":11567,"tilmeldt":11568,"mak":11569,"habet":11570,"forfattere":11571,"ordinære":11572,"arrangeret":11573,"##iche":11574,"gel":11575,"##skel":11576,"niveauet":11577,"kæledyr":11578,"##projekter":11579,"hobby":11580,"##install":11581,"rekruttering":11582,"##teg":11583,"viet":11584,"##tigede":11585,"bekymret":11586,"##jour":11587,"nederlag":11588,"lugt":11589,"may":11590,"genstand":11591,"##forn":11592,"irri":11593,"ringede":11594,"ik":11595,"domæn":11596,"iagt":11597,"trykker":11598,"##ugler":11599,"legem":11600,"dedik":11601,"multi":11602,"gods":11603,"elektrisk":11604,"##ates":11605,"##arige":11606,"portion":11607,"##annoncer":11608,"veder":11609,"implementering":11610,"glostrup":11611,"dukke":11612,"bekæm":11613,"vinen":11614,"samtalen":11615,"deles":11616,"adop":11617,"stadion":11618,"patienterne":11619,"uges":11620,"##eløs":11621,"arlig":11622,"afslører":11623,"##melding":11624,"strategisk":11625,"drengen":11626,"hjørnet":11627,"##oe":11628,"kærlig":11629,"##orienteret":11630,"##abon":11631,"##økken":11632,"foregik":11633,"udgangspunktet":11634,"herrer":11635,"tidspunktet":11636,"jom":11637,"gennemgar":11638,"##uderende":11639,"##ison":11640,"perform":11641,"separat":11642,"reagerer":11643,"løfter":11644,"efterspørgsel":11645,"naar":11646,"samvittighed":11647,"class":11648,"serv":11649,"tegl":11650,"tidspunkter":11651,"##holdende":11652,"cykelt":11653,"krævede":11654,"nederste":11655,"forsvandt":11656,"##ligter":11657,"flensborg":11658,"godkendes":11659,"kult":11660,"android":11661,"anlagt":11662,"victor":11663,"brasil":11664,"underligt":11665,"opp":11666,"##magt":11667,"ærger":11668,"from":11669,"##varet":11670,"omgivet":11671,"fæ":11672,"pern":11673,"realkredit":11674,"vægten":11675,"fattige":11676,"ophav":11677,"db":11678,"nas":11679,"negle":11680,"##mak":11681,"herfor":11682,"klient":11683,"besvare":11684,"##udbyder":11685,"##reve":11686,"virkeligt":11687,"indtræ":11688,"##istan":11689,"##asing":11690,"host":11691,"stund":11692,"##kelse":11693,"taber":11694,"opgaverne":11695,"siderne":11696,"dirig":11697,"wa":11698,"##ideret":11699,"##ælde":11700,"klædt":11701,"##gik":11702,"##nel":11703,"win":11704,"wi":11705,"##ryk":11706,"##klet":11707,"##ting":11708,"herlev":11709,"madlav":11710,"fortrol":11711,"##fladen":11712,"innovative":11713,"undert":11714,"##hjer":11715,"opdagelse":11716,"beskat":11717,"mogens":11718,"nyborg":11719,"barns":11720,"grundvand":11721,"detalj":11722,"monteres":11723,"##læde":11724,"gevin":11725,"squ":11726,"brø":11727,"japansk":11728,"##arv":11729,"##kob":11730,"entreprenør":11731,"bik":11732,"magten":11733,"lykkelig":11734,"##ererer":11735,"##pligtige":11736,"##ding":11737,"albert":11738,"selvmord":11739,"##key":11740,"##holdte":11741,"erstatte":11742,"##skriver":11743,"landsdækkende":11744,"##apning":11745,"nærliggende":11746,"vinden":11747,"præcise":11748,"##butik":11749,"malsætning":11750,"##stolen":11751,"##begræn":11752,"kæde":11753,"vitaminer":11754,"##æge":11755,"spekt":11756,"jobs":11757,"##ftere":11758,"irak":11759,"tekstil":11760,"bredband":11761,"##pool":11762,"ihjel":11763,"genet":11764,"1993":11765,"journalister":11766,"room":11767,"##kat":11768,"kemi":11769,"terapi":11770,"ax":11771,"adresser":11772,"##ism":11773,"opnaede":11774,"##skridt":11775,"##rim":11776,"bøgerne":11777,"øgede":11778,"chancer":11779,"gennemsnitlig":11780,"briller":11781,"gribe":11782,"split":11783,"pend":11784,"##regne":11785,"rast":11786,"fantasier":11787,"udtaler":11788,"sammensætning":11789,"kosttilskud":11790,"tilgængeligt":11791,"henning":11792,"tu":11793,"visit":11794,"torben":11795,"pensions":11796,"arom":11797,"##zer":11798,"armen":11799,"hinandens":11800,"##stud":11801,"tilbag":11802,"drifts":11803,"opad":11804,"rejs":11805,"sagsbehandling":11806,"fritids":11807,"pier":11808,"flow":11809,"mistanke":11810,"poulsen":11811,"overgreb":11812,"norsk":11813,"ida":11814,"##sving":11815,"sexede":11816,"russisk":11817,"kritiske":11818,"sejler":11819,"kronisk":11820,"agt":11821,"omegn":11822,"afholde":11823,"grov":11824,"indsk":11825,"94":11826,"##fejl":11827,"samsung":11828,"##vidde":11829,"sparring":11830,"kran":11831,"fungerede":11832,"forank":11833,"trygge":11834,"enighed":11835,"##ænker":11836,"##smiljø":11837,"diagnost":11838,"overholde":11839,"oprindelig":11840,"planlagte":11841,"uddan":11842,"yngste":11843,"hekt":11844,"##værdien":11845,"privatliv":11846,"##spladsen":11847,"sut":11848,"##pædagog":11849,"##ilj":11850,"velly":11851,"udgøre":11852,"skolerne":11853,"##kontakt":11854,"ged":11855,"oprindelse":11856,"afløb":11857,"##itering":11858,"fandtes":11859,"smidt":11860,"##stole":11861,"landbruget":11862,"ugens":11863,"canada":11864,"livets":11865,"##spillere":11866,"hjælpsomme":11867,"##korn":11868,"rækkefølge":11869,"##rethe":11870,"##sfort":11871,"analysen":11872,"storby":11873,"##ktail":11874,"forsynet":11875,"fingrene":11876,"trakt":11877,"##80":11878,"bredere":11879,"##sformer":11880,"bæredygtighed":11881,"omdrej":11882,"##abe":11883,"##22":11884,"fanger":11885,"flu":11886,"roller":11887,"kollegaer":11888,"##interes":11889,"afkl":11890,"##jælp":11891,"spejder":11892,"middelalder":11893,"kunsten":11894,"forleden":11895,"##lod":11896,"##arbejdere":11897,"##pes":11898,"rapporter":11899,"sundhedsvæsen":11900,"opdatere":11901,"medens":11902,"james":11903,"beslutte":11904,"##skiftet":11905,"##forbruget":11906,"##hente":11907,"##ppede":11908,"##ælk":11909,"tomme":11910,"##oline":11911,"velsmagende":11912,"konfirm":11913,"##gerende":11914,"##jord":11915,"##tain":11916,"kobber":11917,"drikkevarer":11918,"##maskiner":11919,"charlotte":11920,"reaktioner":11921,"spredt":11922,"##inket":11923,"##vem":11924,"bebyggelse":11925,"næsen":11926,"pud":11927,"opgørelse":11928,"##ora":11929,"cros":11930,"doc":11931,"forarsage":11932,"albummet":11933,"##kkene":11934,"##omer":11935,"stak":11936,"feedback":11937,"oprettelse":11938,"tilhør":11939,"folkem":11940,"pej":11941,"anbring":11942,"##sperioden":11943,"bogsta":11944,"##oppede":11945,"prog":11946,"##direktør":11947,"arkæ":11948,"svampe":11949,"værende":11950,"##sgaard":11951,"tilfældigt":11952,"beløn":11953,"adskiller":11954,"##helm":11955,"##fonden":11956,"kasper":11957,"distribut":11958,"akvar":11959,"beslutningen":11960,"overvejende":11961,"køretøj":11962,"dyrene":11963,"downloade":11964,"beskeder":11965,"avancerede":11966,"##otisk":11967,"##saktiviteter":11968,"guler":11969,"kirkens":11970,"##upunkt":11971,"egentligt":11972,"##fælde":11973,"##sættelsen":11974,"flemming":11975,"een":11976,"forespørg":11977,"doser":11978,"afgøre":11979,"##type":11980,"##iseres":11981,"omtr":11982,"beholde":11983,"##ativer":11984,"laks":11985,"##egler":11986,"maltider":11987,"merc":11988,"fleksibilitet":11989,"ped":11990,"tennis":11991,"140":11992,"##sforsikring":11993,"ast":11994,"kemikal":11995,"laser":11996,"manuskri":11997,"rytter":11998,"gardiner":11999,"##virksomheder":12000,"pressemeddel":12001,"public":12002,"##orts":12003,"##støj":12004,"handlede":12005,"ulykke":12006,"##ops":12007,"generationer":12008,"frustr":12009,"lady":12010,"energik":12011,"velkomst":12012,"skulde":12013,"mari":12014,"kombinere":12015,"list":12016,"swe":12017,"spark":12018,"digte":12019,"perspektiver":12020,"##organisationer":12021,"dress":12022,"##visor":12023,"markeret":12024,"##az":12025,"justit":12026,"feri":12027,"##værktøj":12028,"##igtig":12029,"racer":12030,"##endelser":12031,"synet":12032,"ds":12033,"aaben":12034,"##bur":12035,"##terings":12036,"loy":12037,"##egle":12038,"inddrage":12039,"##anterne":12040,"arbejdsopgaver":12041,"svin":12042,"inten":12043,"slaget":12044,"##spekt":12045,"##trad":12046,"naturvidenskab":12047,"##aritet":12048,"begravet":12049,"vurderingen":12050,"siddende":12051,"aggr":12052,"klaus":12053,"efterlader":12054,"##mændene":12055,"skiftede":12056,"folkeparti":12057,"typiske":12058,"udtrykke":12059,"udleveret":12060,"##ikre":12061,"valuta":12062,"romantisk":12063,"##sekret":12064,"forudsætter":12065,"action":12066,"besparelser":12067,"østerbro":12068,"fastsætter":12069,"flytning":12070,"dominans":12071,"aftalte":12072,"poster":12073,"elektriske":12074,"træl":12075,"spill":12076,"##slaet":12077,"beskyttelses":12078,"ungar":12079,"problemerne":12080,"forurening":12081,"##tog":12082,"blid":12083,"lejem":12084,"instrument":12085,"ving":12086,"muslimer":12087,"vandre":12088,"risici":12089,"##ageren":12090,"##fit":12091,"filen":12092,"spild":12093,"##slisten":12094,"##ebr":12095,"ydm":12096,"bakker":12097,"##dam":12098,"130":12099,"omgivelserne":12100,"##kanten":12101,"##cia":12102,"ventilation":12103,"nydelse":12104,"sektion":12105,"lit":12106,"##systemet":12107,"ejendomsmægler":12108,"detaljeret":12109,"reserv":12110,"franc":12111,"misforsta":12112,"allian":12113,"programm":12114,"skind":12115,"##domm":12116,"henne":12117,"underholdende":12118,"klikker":12119,"norden":12120,"sele":12121,"patri":12122,"guid":12123,"uafhængige":12124,"overført":12125,"centret":12126,"vred":12127,"oplyste":12128,"voldsom":12129,"anerkendte":12130,"group":12131,"##spørgsmal":12132,"interviews":12133,"formidle":12134,"##ari":12135,"salgs":12136,"løses":12137,"rib":12138,"fm":12139,"forelsket":12140,"deraf":12141,"##station":12142,"##omb":12143,"kvinders":12144,"synge":12145,"defineret":12146,"##eloven":12147,"sejle":12148,"##ametre":12149,"impon":12150,"drama":12151,"jean":12152,"glimrende":12153,"##listen":12154,"##hs":12155,"markeder":12156,"avanceret":12157,"lederen":12158,"gryde":12159,"##stød":12160,"efterfulgt":12161,"##felt":12162,"præster":12163,"rødder":12164,"##ots":12165,"##yrdes":12166,"alu":12167,"rese":12168,"forholdene":12169,"cens":12170,"##skrivning":12171,"menneskers":12172,"forestilling":12173,"regnskabs":12174,"afgifter":12175,"##nemm":12176,"170":12177,"begyndelse":12178,"indehaver":12179,"hospitalet":12180,"plet":12181,"incl":12182,"##farvet":12183,"inklusive":12184,"177":12185,"##beløb":12186,"kedeligt":12187,"cvr":12188,"suver":12189,"##valget":12190,"udtalelse":12191,"forhøjet":12192,"university":12193,"##drift":12194,"antik":12195,"##mind":12196,"komponenter":12197,"ballerup":12198,"afsluttes":12199,"teknologier":12200,"konservative":12201,"henter":12202,"sutte":12203,"forudgaende":12204,"##stegn":12205,"slikke":12206,"##øbler":12207,"##okratisk":12208,"dæm":12209,"berg":12210,"esk":12211,"##agerede":12212,"halvar":12213,"forf":12214,"jonas":12215,"sant":12216,"berlingske":12217,"yderste":12218,"optimere":12219,"provin":12220,"mødtes":12221,"happ":12222,"pavirkning":12223,"touch":12224,"meldt":12225,"##celle":12226,"skjulte":12227,"turde":12228,"##barn":12229,"baner":12230,"##ents":12231,"blande":12232,"pink":12233,"forbrugere":12234,"##slan":12235,"##smateriale":12236,"cra":12237,"varde":12238,"##ulde":12239,"overbevist":12240,"skyg":12241,"bøde":12242,"##værdigt":12243,"finansier":12244,"finn":12245,"##seng":12246,"henvende":12247,"##hast":12248,"lekt":12249,"kalorier":12250,"##ondition":12251,"fran":12252,"ministeren":12253,"driften":12254,"##sløse":12255,"medal":12256,"attraktiv":12257,"ankommer":12258,"telefonnummer":12259,"kore":12260,"sydvest":12261,"##raf":12262,"##ms":12263,"indkal":12264,"batterier":12265,"bekymringer":12266,"bern":12267,"##smødet":12268,"##bedste":12269,"thisted":12270,"##øvede":12271,"##cert":12272,"##fabrik":12273,"frid":12274,"ensartet":12275,"sum":12276,"##betjening":12277,"##seks":12278,"udsm":12279,"svagt":12280,"##kkelig":12281,"anbefalet":12282,"barcel":12283,"jomfru":12284,"##alende":12285,"menings":12286,"kemiske":12287,"##wich":12288,"taastrup":12289,"adressen":12290,"stillingen":12291,"motoren":12292,"bestemmelsen":12293,"##ega":12294,"aflæ":12295,"##dal":12296,"##boy":12297,"lærings":12298,"højskole":12299,"græken":12300,"##pres":12301,"bagt":12302,"galleri":12303,"jag":12304,"naboer":12305,"foden":12306,"##klagede":12307,"##gaet":12308,"væv":12309,"spænder":12310,"mærkes":12311,"##angreb":12312,"unger":12313,"case":12314,"##ifte":12315,"cu":12316,"offer":12317,"regelmæssigt":12318,"125":12319,"syl":12320,"vill":12321,"lejr":12322,"regnskabet":12323,"kvæl":12324,"skræmmende":12325,"trof":12326,"rede":12327,"ultra":12328,"##værelsen":12329,"familiem":12330,"speed":12331,"protest":12332,"evangel":12333,"##hæft":12334,"myt":12335,"europas":12336,"fornuftigt":12337,"##gener":12338,"rist":12339,"que":12340,"sydøst":12341,"citater":12342,"##shistor":12343,"bjerge":12344,"dannes":12345,"derpa":12346,"##størrelse":12347,"##øvelse":12348,"shemale":12349,"##ynge":12350,"utilfreds":12351,"forbinder":12352,"sæbe":12353,"særskilt":12354,"hp":12355,"##aku":12356,"østjylland":12357,"##gelses":12358,"speciall":12359,"smilede":12360,"klinikken":12361,"transa":12362,"inspe":12363,"##brev":12364,"gyldne":12365,"robust":12366,"##ængen":12367,"konstatere":12368,"finland":12369,"bagsiden":12370,"fødderne":12371,"##mærke":12372,"##ulin":12373,"##frokost":12374,"##øster":12375,"seksualitet":12376,"kaptaj":12377,"food":12378,"##øves":12379,"diameter":12380,"##egne":12381,"indføre":12382,"hyp":12383,"æble":12384,"sjælden":12385,"dsb":12386,"kvitter":12387,"indbyrdes":12388,"##stemt":12389,"etablerede":12390,"konkurr":12391,"stramme":12392,"spræn":12393,"færøerne":12394,"##inationer":12395,"væsentligste":12396,"honning":12397,"##foto":12398,"vanvitt":12399,"invester":12400,"##ulær":12401,"farverne":12402,"farvet":12403,"udstillinger":12404,"ande":12405,"værelses":12406,"dagsordenen":12407,"##fugle":12408,"pad":12409,"militære":12410,"samfunds":12411,"udsendt":12412,"management":12413,"##kalender":12414,"uskyld":12415,"kreditkort":12416,"rejsende":12417,"reel":12418,"velfun":12419,"yndling":12420,"kokos":12421,"fremskridt":12422,"##fol":12423,"dokumentar":12424,"lovligt":12425,"hovedperson":12426,"ane":12427,"rub":12428,"jakke":12429,"##byggeri":12430,"bitter":12431,"##sbor":12432,"##raa":12433,"firk":12434,"trætte":12435,"kvadratmeter":12436,"hyppig":12437,"folks":12438,"##gl":12439,"erklæring":12440,"førtid":12441,"teamet":12442,"instrumenter":12443,"trop":12444,"styres":12445,"##lespil":12446,"##uddannede":12447,"dokumentere":12448,"slem":12449,"ration":12450,"dødsf":12451,"pernille":12452,"møbel":12453,"##itutter":12454,"ukra":12455,"mørket":12456,"forbrugerne":12457,"norde":12458,"##ces":12459,"traditioner":12460,"jav":12461,"poker":12462,"udnyttelse":12463,"https":12464,"##stik":12465,"cocktail":12466,"fremgangsm":12467,"panden":12468,"julie":12469,"etager":12470,"##avede":12471,"blind":12472,"gymnastik":12473,"voldsomme":12474,"##ækning":12475,"afvig":12476,"act":12477,"udlænding":12478,"afsat":12479,"##umb":12480,"erektion":12481,"##spladser":12482,"solidt":12483,"skild":12484,"pind":12485,"egner":12486,"events":12487,"nærvær":12488,"afslør":12489,"##stog":12490,"passede":12491,"jacobsen":12492,"kinesisk":12493,"logge":12494,"flasker":12495,"kalund":12496,"zoo":12497,"ever":12498,"frugter":12499,"cru":12500,"rumme":12501,"registrerede":12502,"##artikler":12503,"broen":12504,"1920":12505,"##atører":12506,"klit":12507,"kartoff":12508,"jæger":12509,"velvære":12510,"ministeriet":12511,"synger":12512,"velfungerende":12513,"kvaliteter":12514,"##skvalitet":12515,"##trækning":12516,"yt":12517,"nordic":12518,"##oke":12519,"greve":12520,"katalog":12521,"hovedpine":12522,"veld":12523,"##sal":12524,"skaret":12525,"skatter":12526,"##usioner":12527,"amal":12528,"login":12529,"forebyggende":12530,"##vad":12531,"udad":12532,"silik":12533,"foregaende":12534,"kreativitet":12535,"vanskeligheder":12536,"pels":12537,"kreds":12538,"indbydende":12539,"springer":12540,"white":12541,"bekæmpelse":12542,"buks":12543,"##igennem":12544,"betydningen":12545,"##stilsynet":12546,"kram":12547,"##hel":12548,"##foder":12549,"trusser":12550,"fæst":12551,"omkostningerne":12552,"##gæng":12553,"ægge":12554,"dynamisk":12555,"myr":12556,"##sset":12557,"underskud":12558,"slanke":12559,"##esult":12560,"afsluttende":12561,"ank":12562,"asiat":12563,"skrives":12564,"kælderen":12565,"holdbarhed":12566,"formen":12567,"##safgift":12568,"pose":12569,"opretter":12570,"tabletter":12571,"##aktionen":12572,"afslappende":12573,"kæresten":12574,"praktiserende":12575,"pun":12576,"medfølger":12577,"udby":12578,"vejledningen":12579,"aldre":12580,"matrik":12581,"velkendte":12582,"breve":12583,"institutionen":12584,"ernæring":12585,"omtalt":12586,"udbydere":12587,"##itution":12588,"bestand":12589,"støb":12590,"bagud":12591,"##san":12592,"kloster":12593,"900":12594,"##ansøg":12595,"erhvervslivet":12596,"mt":12597,"køres":12598,"forskerne":12599,"pumpe":12600,"##lægen":12601,"##no":12602,"seo":12603,"anm":12604,"kjoler":12605,"sikrede":12606,"hensigtsmæssigt":12607,"udsp":12608,"alternativt":12609,"##ibi":12610,"##gisk":12611,"udsættes":12612,"begaet":12613,"omradets":12614,"variation":12615,"kalundborg":12616,"##ramme":12617,"spørgeskema":12618,"dominerende":12619,"instruktion":12620,"kørekort":12621,"sommerferien":12622,"rollen":12623,"kriminalitet":12624,"##veri":12625,"angrebet":12626,"østlige":12627,"thy":12628,"##deren":12629,"call":12630,"rester":12631,"koll":12632,"##plac":12633,"##nov":12634,"ambition":12635,"##eleder":12636,"køns":12637,"##log":12638,"##kurren":12639,"gensidig":12640,"tørret":12641,"##stykker":12642,"ambit":12643,"hammer":12644,"##ægte":12645,"asien":12646,"integ":12647,"forholder":12648,"returret":12649,"radets":12650,"fysik":12651,"effektivitet":12652,"afklar":12653,"##ainer":12654,"kastet":12655,"kontrast":12656,"detaljerede":12657,"rud":12658,"indvandrere":12659,"hallen":12660,"##partner":12661,"##rug":12662,"navnlig":12663,"serveres":12664,"##bespar":12665,"gennemførte":12666,"advarsel":12667,"overtaget":12668,"twitter":12669,"##usionen":12670,"##artner":12671,"asf":12672,"forælder":12673,"nyligt":12674,"omtrent":12675,"##sbeløb":12676,"##ligste":12677,"nuancer":12678,"radhus":12679,"brændende":12680,"midlertidig":12681,"eksplos":12682,"styret":12683,"specialiseret":12684,"##tagen":12685,"mindske":12686,"get":12687,"forfær":12688,"delte":12689,"##kassen":12690,"1991":12691,"konstateret":12692,"reelle":12693,"tær":12694,"styrer":12695,"##itim":12696,"vaner":12697,"##talere":12698,"kigget":12699,"##fyldte":12700,"##ky":12701,"girls":12702,"##ffekt":12703,"sofa":12704,"##aland":12705,"tallerken":12706,"nap":12707,"##frihed":12708,"ledende":12709,"sygepleje":12710,"##do":12711,"kvik":12712,"##selskaber":12713,"##agende":12714,"realistisk":12715,"homoseksuel":12716,"lamper":12717,"minus":12718,"tyndt":12719,"tilgode":12720,"receptionen":12721,"that":12722,"gun":12723,"grim":12724,"##tagelser":12725,"allergi":12726,"##orge":12727,"camilla":12728,"turnering":12729,"thomsen":12730,"notat":12731,"løser":12732,"demens":12733,"##lyd":12734,"bekræfter":12735,"statslige":12736,"forarsaget":12737,"##allere":12738,"oliven":12739,"flyttes":12740,"midter":12741,"##ælt":12742,"drives":12743,"toner":12744,"ofre":12745,"besiddelse":12746,"kommunikations":12747,"relateret":12748,"##lesk":12749,"flod":12750,"kompetente":12751,"##ologien":12752,"ub":12753,"udgiver":12754,"malgruppen":12755,"##massage":12756,"##gers":12757,"##uten":12758,"blodtryk":12759,"1500":12760,"gab":12761,"brian":12762,"##alde":12763,"cali":12764,"udstrækning":12765,"hemmelige":12766,"strategiske":12767,"##aterialet":12768,"spillem":12769,"falske":12770,"rumæn":12771,"pest":12772,"installationer":12773,"fron":12774,"sammenlign":12775,"##zy":12776,"begejstret":12777,"wifi":12778,"##flix":12779,"kommission":12780,"##opgave":12781,"kontakten":12782,"uplo":12783,"prædik":12784,"nørrebro":12785,"lovet":12786,"overføres":12787,"gast":12788,"##kode":12789,"offentligheden":12790,"slottet":12791,"bistand":12792,"koncentration":12793,"stoppet":12794,"tilgængelighed":12795,"fore":12796,"garanteret":12797,"faderen":12798,"gammeldags":12799,"jorde":12800,"skiver":12801,"tungt":12802,"udgaver":12803,"nysgerrig":12804,"##bræt":12805,"hyper":12806,"ih":12807,"forre":12808,"hændelser":12809,"beund":12810,"##sforening":12811,"styrelsen":12812,"kirkegard":12813,"landsbyen":12814,"gær":12815,"bestemmelserne":12816,"##stidspunktet":12817,"overholder":12818,"midlertidigt":12819,"overtage":12820,"##okke":12821,"nikola":12822,"##elev":12823,"meddelt":12824,"budd":12825,"internt":12826,"##omraderne":12827,"erstattet":12828,"revet":12829,"##udviklingen":12830,"##stue":12831,"sygedag":12832,"hævet":12833,"##stein":12834,"##dating":12835,"##amerika":12836,"mærkede":12837,"brystet":12838,"tæppe":12839,"ikraft":12840,"ribe":12841,"overn":12842,"herinde":12843,"##forbund":12844,"kendes":12845,"analysere":12846,"##hverv":12847,"dagene":12848,"hvortil":12849,"vedligeholdelses":12850,"udstedt":12851,"middelfart":12852,"refunder":12853,"medvirkende":12854,"light":12855,"##arrange":12856,"vesterbro":12857,"##splaner":12858,"##drivende":12859,"selvtill":12860,"##nets":12861,"afsender":12862,"drev":12863,"sas":12864,"##blade":12865,"kostumer":12866,"flugt":12867,"##hallen":12868,"ligegyldigt":12869,"##virkning":12870,"jeans":12871,"##runde":12872,"sundhedsstyrelsen":12873,"appet":12874,"##regnet":12875,"reagere":12876,"##vognen":12877,"kristensen":12878,"day":12879,"snakkede":12880,"isoleret":12881,"##ils":12882,"registrere":12883,"##arig":12884,"##sak":12885,"##sbas":12886,"groft":12887,"trænet":12888,"##avand":12889,"gps":12890,"grækenland":12891,"radikale":12892,"dna":12893,"given":12894,"kagen":12895,"forhindrer":12896,"heriblandt":12897,"filosofi":12898,"lunge":12899,"##selskabet":12900,"fremga":12901,"reference":12902,"kulhyd":12903,"tilmed":12904,"grundt":12905,"invent":12906,"malerier":12907,"mormor":12908,"hesten":12909,"belastning":12910,"nicola":12911,"ringkøbing":12912,"pynt":12913,"##otika":12914,"##ij":12915,"røven":12916,"planet":12917,"nationalt":12918,"kedelig":12919,"anlægs":12920,"1989":12921,"jamen":12922,"##36":12923,"##stræk":12924,"brands":12925,"nedad":12926,"uafhængig":12927,"klæ":12928,"udtrykker":12929,"##øvler":12930,"æbler":12931,"skarpt":12932,"##svil":12933,"farten":12934,"drys":12935,"strande":12936,"pædagoger":12937,"##undersøgelser":12938,"##rin":12939,"rammen":12940,"sankt":12941,"garde":12942,"1945":12943,"oftere":12944,"##historier":12945,"##omp":12946,"##asken":12947,"superlig":12948,"forestillinger":12949,"1930":12950,"bekræftet":12951,"hass":12952,"uøn":12953,"##uth":12954,"ladet":12955,"##klinik":12956,"orienteret":12957,"flys":12958,"felter":12959,"##kød":12960,"##bragte":12961,"smut":12962,"stabilitet":12963,"oral":12964,"sorter":12965,"skilte":12966,"##læn":12967,"smalle":12968,"##sfre":12969,"affære":12970,"sutter":12971,"##slov":12972,"gentofte":12973,"##frie":12974,"frod":12975,"skrue":12976,"xx":12977,"overstiger":12978,"##ælling":12979,"fril":12980,"nære":12981,"kommunernes":12982,"folkeskol":12983,"pilot":12984,"regnes":12985,"##aftalen":12986,"##kapital":12987,"næstformand":12988,"indikator":12989,"vejledende":12990,"snakket":12991,"sned":12992,"##oderne":12993,"omkringliggende":12994,"begær":12995,"mental":12996,"advent":12997,"atl":12998,"##ugter":12999,"begrundelse":13000,"##alistisk":13001,"1940":13002,"ideel":13003,"##samfund":13004,"bass":13005,"leverandøren":13006,"siddet":13007,"stockholm":13008,"skilsmisse":13009,"ordbog":13010,"søb":13011,"udgjorde":13012,"myndighederne":13013,"chi":13014,"ungerne":13015,"bat":13016,"##ygter":13017,"storeb":13018,"ikrafttræ":13019,"ombord":13020,"##ændring":13021,"supplement":13022,"##arde":13023,"##mennesk":13024,"løv":13025,"seriøs":13026,"irrit":13027,"takke":13028,"nan":13029,"##nr":13030,"betalte":13031,"fars":13032,"##tigt":13033,"##værn":13034,"genre":13035,"marianne":13036,"anska":13037,"heri":13038,"alf":13039,"genkende":13040,"##sberet":13041,"anbefalede":13042,"##istrikt":13043,"nakke":13044,"##varteret":13045,"barcelona":13046,"forladt":13047,"##elf":13048,"dessert":13049,"##plejen":13050,"lysten":13051,"netflix":13052,"##ørerne":13053,"beregninger":13054,"##alingen":13055,"life":13056,"mene":13057,"##ested":13058,"rækken":13059,"agent":13060,"##nam":13061,"##oman":13062,"titler":13063,"##ssystemet":13064,"##estyrelsens":13065,"##ome":13066,"##frisk":13067,"flybillet":13068,"##90":13069,"søj":13070,"udbetales":13071,"##stemmelser":13072,"inklusiv":13073,"rengørings":13074,"##bj":13075,"grave":13076,"organisering":13077,"##sselskaber":13078,"bekymre":13079,"industrien":13080,"vord":13081,"##kirken":13082,"beach":13083,"tømrer":13084,"fokuseret":13085,"fornuftig":13086,"lidelse":13087,"##prop":13088,"slagter":13089,"vedligeholde":13090,"##ido":13091,"argument":13092,"baren":13093,"##ægterne":13094,"cykle":13095,"funktionalitet":13096,"fleksible":13097,"arne":13098,"farv":13099,"afslapning":13100,"stævne":13101,"##dansk":13102,"##forbindelse":13103,"indstille":13104,"tivoli":13105,"designs":13106,"republik":13107,"pletter":13108,"phot":13109,"##sgræn":13110,"indlagt":13111,"##een":13112,"##ago":13113,"skala":13114,"zone":13115,"øm":13116,"##fektioner":13117,"##istre":13118,"##ield":13119,"##søkonom":13120,"kvæg":13121,"##ado":13122,"##klassen":13123,"protokol":13124,"varetager":13125,"isb":13126,"##æden":13127,"booke":13128,"kendetegnet":13129,"udfør":13130,"auktion":13131,"airc":13132,"støder":13133,"diagnose":13134,"##sbidrag":13135,"angives":13136,"manager":13137,"##fatter":13138,"færreste":13139,"##steurop":13140,"leverings":13141,"negativt":13142,"overleve":13143,"respons":13144,"##stilladelse":13145,"sammenhængen":13146,"##aker":13147,"lux":13148,"##mmers":13149,"##drede":13150,"demokratiske":13151,"aftales":13152,"skød":13153,"ideelle":13154,"stolen":13155,"graviditeten":13156,"snyd":13157,"bevil":13158,"tavs":13159,"væksten":13160,"afslag":13161,"cur":13162,"marc":13163,"krøl":13164,"sætning":13165,"sauna":13166,"blue":13167,"##design":13168,"bm":13169,"underlagt":13170,"##bla":13171,"forelæg":13172,"overfør":13173,"smad":13174,"bekæmpe":13175,"##skamp":13176,"kryst":13177,"detalje":13178,"bruser":13179,"bogens":13180,"gebyrer":13181,"forældrem":13182,"prøven":13183,"##inspe":13184,"asiatiske":13185,"fastlagt":13186,"##artede":13187,"batteriet":13188,"præmier":13189,"##inal":13190,"analsex":13191,"##astning":13192,"førtidspension":13193,"kompet":13194,"fester":13195,"vestjylland":13196,"troen":13197,"tæpper":13198,"overtrædelse":13199,"##rediens":13200,"indlægget":13201,"reb":13202,"allan":13203,"maneds":13204,"dækkes":13205,"##slo":13206,"sfo":13207,"aviser":13208,"##bunden":13209,"strategier":13210,"forsvaret":13211,"betegnelse":13212,"kup":13213,"##leverand":13214,"reserved":13215,"##23":13216,"operationen":13217,"krævende":13218,"lant":13219,"nytte":13220,"aks":13221,"faldende":13222,"yndlings":13223,"tilpasses":13224,"##retter":13225,"skagen":13226,"medbringe":13227,"hjerter":13228,"kopier":13229,"fliser":13230,"escortpiger":13231,"lil":13232,"spont":13233,"##aktiver":13234,"##edage":13235,"##aktivitet":13236,"svigt":13237,"inddrages":13238,"content":13239,"roser":13240,"forstod":13241,"##saftalen":13242,"kollektiv":13243,"bdsm":13244,"undertøj":13245,"gifte":13246,"bachelor":13247,"falsk":13248,"elef":13249,"koloni":13250,"##telser":13251,"##forældre":13252,"##agenævnet":13253,"nøjagtig":13254,"grafik":13255,"californ":13256,"afdøde":13257,"##anet":13258,"sara":13259,"##hvil":13260,"81":13261,"susanne":13262,"fusion":13263,"teoretisk":13264,"bevaret":13265,"tapet":13266,"muslimske":13267,"kontrakten":13268,"##lænd":13269,"lokalavisen":13270,"madras":13271,"kass":13272,"kristen":13273,"##strede":13274,"heden":13275,"mej":13276,"optages":13277,"slutte":13278,"præsten":13279,"handværkere":13280,"aktuel":13281,"betingelse":13282,"blods":13283,"stationen":13284,"mandens":13285,"gymnasiet":13286,"intent":13287,"evigt":13288,"ventetid":13289,"temaet":13290,"overstaet":13291,"aabenraa":13292,"##læger":13293,"lidenskab":13294,"karakterer":13295,"##ologer":13296,"symptomerne":13297,"servere":13298,"##æsning":13299,"##ssund":13300,"diesel":13301,"billund":13302,"##ibre":13303,"##lægningen":13304,"##ituation":13305,"venst":13306,"##procent":13307,"lastbil":13308,"kosmet":13309,"##egade":13310,"filtr":13311,"##sev":13312,"børnehaven":13313,"odder":13314,"intelle":13315,"krigs":13316,"##ensioner":13317,"##ktoratet":13318,"##skrives":13319,"##tagelsen":13320,"pur":13321,"##forskning":13322,"dead":13323,"hørsholm":13324,"vuggest":13325,"anten":13326,"trænere":13327,"##stilstand":13328,"varerne":13329,"afgjort":13330,"tilstedeværelse":13331,"##materiale":13332,"spiseb":13333,"##appede":13334,"politiker":13335,"##syre":13336,"voldt":13337,"pastand":13338,"##vik":13339,"lanceret":13340,"lovforslaget":13341,"mord":13342,"trusler":13343,"overskr":13344,"reduceres":13345,"opsat":13346,"rikke":13347,"fel":13348,"##strand":13349,"syddanmark":13350,"ryn":13351,"##punktet":13352,"hylder":13353,"##grad":13354,"læreren":13355,"ansøgnings":13356,"##brand":13357,"iført":13358,"ego":13359,"##oller":13360,"perle":13361,"udgivelse":13362,"fineste":13363,"rygning":13364,"koden":13365,"museer":13366,"udred":13367,"arbejdsgiveren":13368,"##isation":13369,"indgangen":13370,"statist":13371,"nøglen":13372,"##øvrigt":13373,"dahl":13374,"##rod":13375,"organer":13376,"glæd":13377,"##alistiske":13378,"nummeret":13379,"hvede":13380,"registreres":13381,"##onto":13382,"bækken":13383,"reglen":13384,"støttet":13385,"teorier":13386,"indskud":13387,"##maskinen":13388,"rap":13389,"oversat":13390,"maksimal":13391,"sound":13392,"mb":13393,"temper":13394,"##kager":13395,"pikken":13396,"emballage":13397,"omkostning":13398,"udsol":13399,"tænde":13400,"stikk":13401,"nøgler":13402,"værdipapir":13403,"##spir":13404,"selvs":13405,"##cht":13406,"##unktion":13407,"opføre":13408,"lise":13409,"chili":13410,"kit":13411,"vidne":13412,"opdræt":13413,"fremfor":13414,"vigtigere":13415,"mose":13416,"soph":13417,"turneringen":13418,"installere":13419,"facade":13420,"uro":13421,"hak":13422,"##fel":13423,"oversv":13424,"sog":13425,"sødt":13426,"hvalpe":13427,"##assistent":13428,"byggede":13429,"##afrika":13430,"selskabs":13431,"beklager":13432,"game":13433,"350":13434,"armene":13435,"slidt":13436,"mænds":13437,"døbt":13438,"omtalte":13439,"rygs":13440,"klap":13441,"passagerer":13442,"tilsynet":13443,"terrassen":13444,"indekl":13445,"gennemt":13446,"nb":13447,"happy":13448,"ext":13449,"udnævnt":13450,"barber":13451,"session":13452,"afhængige":13453,"ømme":13454,"terapeut":13455,"reducerer":13456,"oste":13457,"nad":13458,"erhvervsliv":13459,"rimelige":13460,"tilværelse":13461,"sagsbe":13462,"medicinske":13463,"##can":13464,"##sparing":13465,"administrationen":13466,"begrænsede":13467,"isen":13468,"opstillet":13469,"##illæg":13470,"research":13471,"mentor":13472,"music":13473,"##wn":13474,"anvendelses":13475,"aggress":13476,"østers":13477,"##abeth":13478,"##æssigt":13479,"forudsat":13480,"##hd":13481,"tex":13482,"fjernsyn":13483,"##tran":13484,"##onsulent":13485,"boller":13486,"91":13487,"kørende":13488,"kæmpede":13489,"kvindelig":13490,"176":13491,"lesbiske":13492,"udr":13493,"bydel":13494,"##inke":13495,"bogstaver":13496,"ble":13497,"udarbejder":13498,"anker":13499,"engageret":13500,"nice":13501,"opm":13502,"##handlinger":13503,"trøje":13504,"tjekk":13505,"gradvist":13506,"ambass":13507,"højesteret":13508,"undtagen":13509,"anton":13510,"##jo":13511,"regions":13512,"moun":13513,"chr":13514,"indenrig":13515,"betegnelsen":13516,"##sider":13517,"fremadrettet":13518,"blidt":13519,"##ira":13520,"dick":13521,"sorø":13522,"##jene":13523,"##klass":13524,"afsløre":13525,"##store":13526,"##ministeriet":13527,"rettes":13528,"##ota":13529,"arbejdsløshed":13530,"gennemsnittet":13531,"leasing":13532,"plejehjem":13533,"##ilder":13534,"##arisk":13535,"glæden":13536,"##klæring":13537,"forkæle":13538,"##familie":13539,"lignede":13540,"##bek":13541,"leverede":13542,"##arbejdning":13543,"harald":13544,"pra":13545,"arsregnskab":13546,"snav":13547,"krydret":13548,"træthed":13549,"smile":13550,"maa":13551,"gulve":13552,"##olet":13553,"afstemning":13554,"##atil":13555,"trag":13556,"sab":13557,"##sklub":13558,"omfanget":13559,"amm":13560,"##løshed":13561,"##hotel":13562,"strikket":13563,"indfri":13564,"##vaner":13565,"##kerne":13566,"##sager":13567,"farverige":13568,"paradis":13569,"stater":13570,"vidst":13571,"dannelse":13572,"statsfor":13573,"bly":13574,"kogn":13575,"klem":13576,"bluet":13577,"##imellem":13578,"dørene":13579,"beviser":13580,"trang":13581,"fordybe":13582,"##ypten":13583,"anstr":13584,"deg":13585,"istand":13586,"tilbagebet":13587,"satser":13588,"##somkostninger":13589,"bedømmelse":13590,"kulde":13591,"afprøve":13592,"##baserede":13593,"vederlag":13594,"##work":13595,"meddelelser":13596,"mild":13597,"certifik":13598,"##sau":13599,"printer":13600,"tømmer":13601,"prostat":13602,"oh":13603,"barsel":13604,"shirt":13605,"##ally":13606,"længste":13607,"intellekt":13608,"hardcore":13609,"vække":13610,"betinget":13611,"apoteket":13612,"opfyldelse":13613,"kompliceret":13614,"afdrag":13615,"lukkes":13616,"##heim":13617,"moderen":13618,"apparatet":13619,"##dj":13620,"slagt":13621,"busser":13622,"respektive":13623,"aflevere":13624,"##okale":13625,"angaende":13626,"smagte":13627,"tænkes":13628,"websteder":13629,"rykke":13630,"##entiel":13631,"##præst":13632,"kuffer":13633,"##smodel":13634,"forhandlinger":13635,"ye":13636,"lampe":13637,"kontekst":13638,"##sor":13639,"angivelse":13640,"fornøj":13641,"dagligdagen":13642,"##ørt":13643,"halvleg":13644,"##admin":13645,"henvise":13646,"udløsning":13647,"kanon":13648,"ple":13649,"party":13650,"tørkl":13651,"udtalt":13652,"##orf":13653,"volumen":13654,"ingrediens":13655,"omhyggeligt":13656,"optager":13657,"enlige":13658,"modtageren":13659,"udtrykket":13660,"kastede":13661,"tilsku":13662,"lay":13663,"læn":13664,"konkurrencer":13665,"uænd":13666,"bemærket":13667,"##nie":13668,"medi":13669,"menes":13670,"knytter":13671,"tøs":13672,"##leve":13673,"##centeret":13674,"##grundlaget":13675,"##istyr":13676,"udformning":13677,"tykt":13678,"forlig":13679,"##jerner":13680,"forblive":13681,"dys":13682,"vasker":13683,"##arken":13684,"fortolkning":13685,"appels":13686,"tilbagevend":13687,"##ible":13688,"ekspertise":13689,"##lers":13690,"grene":13691,"ulovligt":13692,"villig":13693,"olymp":13694,"centimeter":13695,"database":13696,"##fakt":13697,"tatover":13698,"indslag":13699,"borgerlige":13700,"matt":13701,"fodboldspiller":13702,"##ington":13703,"##ssikring":13704,"##øvelser":13705,"sundere":13706,"højden":13707,"##plej":13708,"##disk":13709,"skyder":13710,"præsenterede":13711,"ein":13712,"klæder":13713,"udløbet":13714,"kulturer":13715,"##mund":13716,"night":13717,"jødiske":13718,"gennemfører":13719,"darligere":13720,"betragter":13721,"kle":13722,"malinger":13723,"jernban":13724,"udenlandsk":13725,"##boks":13726,"##skap":13727,"##sregler":13728,"nedlagt":13729,"indtager":13730,"gag":13731,"##45":13732,"##flader":13733,"birk":13734,"kompetent":13735,"parlamentet":13736,"##øste":13737,"opstilling":13738,"maksimale":13739,"rang":13740,"forlaget":13741,"skæbne":13742,"omtale":13743,"skeden":13744,"temperaturer":13745,"erfaren":13746,"elektronik":13747,"glatte":13748,"bemærkes":13749,"attraktivt":13750,"fællesskaber":13751,"##dannelse":13752,"gevinster":13753,"##board":13754,"stive":13755,"##aldet":13756,"indvendig":13757,"##alismen":13758,"##spær":13759,"betegnes":13760,"cirkus":13761,"##inkel":13762,"teknologien":13763,"hill":13764,"habe":13765,"##spraksis":13766,"smilende":13767,"##alb":13768,"schmidt":13769,"##ono":13770,"tina":13771,"##teringen":13772,"roc":13773,"##stop":13774,"selvværd":13775,"prinsesse":13776,"##pal":13777,"indtage":13778,"ligestilling":13779,"##yndighed":13780,"sejren":13781,"##adt":13782,"studere":13783,"hat":13784,"hæfter":13785,"##skabe":13786,"fyret":13787,"kontaktperson":13788,"bt":13789,"istedet":13790,"##ju":13791,"##ledninger":13792,"sænke":13793,"##anker":13794,"bidraget":13795,"jesu":13796,"organiseret":13797,"ike":13798,"syrien":13799,"ukendte":13800,"essenti":13801,"jagten":13802,"ulykker":13803,"##musik":13804,"##eliste":13805,"produceres":13806,"##endelses":13807,"skinner":13808,"udtalelser":13809,"jen":13810,"##wor":13811,"dba":13812,"stabilt":13813,"ledig":13814,"angiveligt":13815,"christina":13816,"udfordre":13817,"knudsen":13818,"frygter":13819,"arealet":13820,"porcel":13821,"##drene":13822,"armb":13823,"risikere":13824,"bestaet":13825,"booking":13826,"trade":13827,"eas":13828,"##interesser":13829,"##ificere":13830,"landbrugs":13831,"lyt":13832,"college":13833,"##sprocesser":13834,"bluetooth":13835,"bagage":13836,"gentagne":13837,"gatur":13838,"omdrejning":13839,"tov":13840,"##cker":13841,"tilsendt":13842,"afvist":13843,"udenom":13844,"nakken":13845,"duften":13846,"forsøget":13847,"##ingborg":13848,"sprede":13849,"udveksling":13850,"utroskab":13851,"##elles":13852,"procedure":13853,"lister":13854,"lg":13855,"skjern":13856,"forhandlere":13857,"tilbøj":13858,"vellykket":13859,"krydser":13860,"soveværelset":13861,"selvtillid":13862,"##elementer":13863,"kompos":13864,"mp":13865,"blæser":13866,"##sættelser":13867,"seriøse":13868,"fornemme":13869,"autoriseret":13870,"##aktive":13871,"testen":13872,"vindmøller":13873,"##stuen":13874,"see":13875,"cons":13876,"lasse":13877,"grafisk":13878,"##garanti":13879,"supple":13880,"vidunderlig":13881,"md":13882,"differ":13883,"cb":13884,"kombinerer":13885,"svind":13886,"##linjen":13887,"tilsat":13888,"##aftaler":13889,"##valgt":13890,"hukommelse":13891,"skæl":13892,"teenager":13893,"bou":13894,"opgjort":13895,"forsvundet":13896,"trappe":13897,"pressen":13898,"##elskaber":13899,"ubegræn":13900,"skadelige":13901,"indgreb":13902,"redaktion":13903,"parametre":13904,"slesvig":13905,"pist":13906,"##vision":13907,"procedurer":13908,"komfortable":13909,"kredsløb":13910,"øve":13911,"udkommer":13912,"røver":13913,"trænge":13914,"beaut":13915,"wall":13916,"##ræs":13917,"munk":13918,"##verdens":13919,"sommerferie":13920,"kostede":13921,"visuelle":13922,"##ikel":13923,"##35":13924,"vordingborg":13925,"psykologi":13926,"sindss":13927,"performance":13928,"farlig":13929,"##beth":13930,"nak":13931,"##aliseringen":13932,"udfyld":13933,"##sborger":13934,"office":13935,"anded":13936,"afholdelse":13937,"ærgerligt":13938,"##kreds":13939,"##kore":13940,"hash":13941,"rækkevidde":13942,"##gaven":13943,"##brid":13944,"talrige":13945,"afst":13946,"legeplads":13947,"grat":13948,"rosa":13949,"##beskyttelse":13950,"cirkel":13951,"oplag":13952,"inddragelse":13953,"##acks":13954,"slas":13955,"##teks":13956,"##smetoder":13957,"tilsluttet":13958,"##ørne":13959,"george":13960,"bevægelses":13961,"##butikker":13962,"indhente":13963,"##finans":13964,"straff":13965,"##vurder":13966,"endog":13967,"gitte":13968,"##hæv":13969,"indtaste":13970,"djur":13971,"sigte":13972,"##tale":13973,"tasker":13974,"##fravær":13975,"lone":13976,"##ministeren":13977,"skaden":13978,"skabet":13979,"##imentet":13980,"symboler":13981,"hertug":13982,"##prov":13983,"karri":13984,"jor":13985,"motorvej":13986,"##ssag":13987,"sexfilm":13988,"##niveauet":13989,"redaktør":13990,"lægerne":13991,"##edia":13992,"##agtet":13993,"gramm":13994,"kugle":13995,"straffes":13996,"adm":13997,"forklarede":13998,"arrangere":13999,"##rine":14000,"kontinuer":14001,"relativ":14002,"cub":14003,"##esi":14004,"madlavning":14005,"julefrokost":14006,"beskæftiget":14007,"indgik":14008,"##holdere":14009,"rolige":14010,"##pladen":14011,"estim":14012,"medtage":14013,"suveræn":14014,"synder":14015,"##usi":14016,"##esæt":14017,"pikke":14018,"romanen":14019,"ligne":14020,"palæstinens":14021,"associ":14022,"hvorimod":14023,"bagved":14024,"##drage":14025,"bjergene":14026,"smider":14027,"flash":14028,"drop":14029,"samfundets":14030,"##briller":14031,"stier":14032,"ordsprog":14033,"energien":14034,"seb":14035,"viking":14036,"tænderne":14037,"##asket":14038,"faglighed":14039,"##uh":14040,"færdes":14041,"pulje":14042,"badmin":14043,"fascinerende":14044,"pakræ":14045,"kvant":14046,"versioner":14047,"skiftes":14048,"##edie":14049,"##oversigt":14050,"##eskov":14051,"forlænget":14052,"fjernelse":14053,"trold":14054,"container":14055,"justere":14056,"##bevis":14057,"frederikssund":14058,"folkes":14059,"betydelige":14060,"friluft":14061,"##ælles":14062,"lego":14063,"dort":14064,"antages":14065,"##spræ":14066,"##anvendelse":14067,"kontaktet":14068,"##meldt":14069,"klaver":14070,"hundred":14071,"synspunkter":14072,"teenage":14073,"##mg":14074,"##smøder":14075,"##how":14076,"færge":14077,"access":14078,"gennemgaende":14079,"##venligt":14080,"bevilling":14081,"forarsager":14082,"undersøges":14083,"##ua":14084,"luther":14085,"bemærkelses":14086,"uddyb":14087,"##ødte":14088,"gigant":14089,"angriber":14090,"arbejdsdag":14091,"begrænsning":14092,"tydelige":14093,"##anstaltninger":14094,"##tor":14095,"bestyrelsesmedlemmer":14096,"forsigtig":14097,"familiemed":14098,"olien":14099,"##sem":14100,"##levende":14101,"skjule":14102,"vinderen":14103,"hvalp":14104,"manch":14105,"ort":14106,"fremhæver":14107,"##pose":14108,"spørgsmalene":14109,"indian":14110,"fastsatte":14111,"højttaler":14112,"primær":14113,"redig":14114,"##ømning":14115,"ama":14116,"enter":14117,"nike":14118,"christians":14119,"tendenser":14120,"svej":14121,"##inske":14122,"##forstyr":14123,"nit":14124,"fremmer":14125,"udlig":14126,"##mødet":14127,"##skj":14128,"kollektion":14129,"dokumenteret":14130,"indbetaling":14131,"udbrud":14132,"smab":14133,"##regulering":14134,"ideelt":14135,"1700":14136,"interesserer":14137,"udtale":14138,"destination":14139,"bremse":14140,"##sektoren":14141,"##allet":14142,"skove":14143,"porcelæn":14144,"udførte":14145,"brancher":14146,"bronze":14147,"##vald":14148,"##inding":14149,"pulver":14150,"pabegyndt":14151,"usædvanligt":14152,"bræt":14153,"##stab":14154,"##handtering":14155,"nyttige":14156,"overvældende":14157,"skæg":14158,"mesterskab":14159,"klinikker":14160,"hygiejne":14161,"landd":14162,"naturens":14163,"##elund":14164,"fornyet":14165,"lagerstatus":14166,"html":14167,"##læsning":14168,"##cript":14169,"husstand":14170,"##illeder":14171,"præf":14172,"decideret":14173,"musikere":14174,"##svin":14175,"sax":14176,"elis":14177,"streaming":14178,"navigation":14179,"beslag":14180,"trine":14181,"andelsbolig":14182,"##høje":14183,"salen":14184,"##ugh":14185,"haha":14186,"gust":14187,"bemærkning":14188,"##ila":14189,"pressemeddelelse":14190,"sønnen":14191,"klippet":14192,"brødre":14193,"kampagnen":14194,"kongres":14195,"mentalt":14196,"opfordring":14197,"##esse":14198,"##amente":14199,"pragt":14200,"overskriften":14201,"wien":14202,"plu":14203,"alborg":14204,"tviv":14205,"respond":14206,"sitet":14207,"##akke":14208,"champagne":14209,"satell":14210,"undgas":14211,"##klasses":14212,"solo":14213,"hovedparten":14214,"modstander":14215,"##etil":14216,"sønner":14217,"##banken":14218,"invitere":14219,"ultimative":14220,"##afstand":14221,"##pilot":14222,"bølge":14223,"potentielt":14224,"afgive":14225,"excel":14226,"##salt":14227,"##ew":14228,"markante":14229,"talmodighed":14230,"##mesteren":14231,"sandwich":14232,"trykt":14233,"##ædet":14234,"flittigt":14235,"glemte":14236,"patent":14237,"miljøb":14238,"efterretning":14239,"bæredygtige":14240,"færdsels":14241,"midlertidige":14242,"tyskerne":14243,"##adgang":14244,"projektleder":14245,"koncentrere":14246,"sygeplejersker":14247,"lilla":14248,"kvalifikationer":14249,"forældres":14250,"dol":14251,"##produkt":14252,"firkant":14253,"##orten":14254,"menneskes":14255,"nets":14256,"nutidens":14257,"kin":14258,"trussel":14259,"dykker":14260,"helvede":14261,"##ytten":14262,"sovjetun":14263,"brændt":14264,"ekspedition":14265,"kurt":14266,"##eddel":14267,"berømt":14268,"burger":14269,"regi":14270,
[...]
