{"version":"1.0","truncation":null,"padding":null,"added_tokens":[{"id":0,"special":true,"content":"[PAD]","single_word":false,"lstrip":false,"rstrip":false,"normalized":false},{"id":1,"special":true,"content":"[UNK]","single_word":false,"lstrip":false,"rstrip":false,"normalized":false},{"id":2,"special":true,"content":"[CLS]","single_word":false,"lstrip":false,"rstrip":false,"normalized":false},{"id":3,"special":true,"content":"[SEP]","single_word":false,"lstrip":false,"rstrip":false,"normalized":false},{"id":4,"special":true,"content":"[MASK]","single_word":false,"lstrip":false,"rstrip":false,"normalized":false}],"normalizer":{"type":"BertNormalizer","clean_text":true,"handle_chinese_chars":true,"strip_accents":null,"lowercase":true},"pre_tokenizer":{"type":"BertPreTokenizer"},"post_processor":null,"decoder":{"type":"WordPiece","prefix":"##","cleanup":true},"model":{"type":"WordPiece","unk_token":"[UNK]","continuing_subword_prefix":"##","max_input_chars_per_word":100,"vocab":{"[PAD]":0,"[UNK]":1,"[CLS]":2,"[SEP]":3,"[MASK]":4,"!":5,"\"":6,"#":7,"$":8,"%":9,"&":10,"'":11,"(":12,")":13,"*":14,"+":15,",":16,"-":17,".":18,"/":19,"0":20,"1":21,"2":22,"3":23,"4":24,"5":25,"6":26,"7":27,"8":28,"9":29,":":30,";":31,"=":32,"?":33,"@":34,"[":35,"\\":36,"]":37,"^":38,"_":39,"`":40,"a":41,"b":42,"c":43,"d":44,"e":45,"f":46,"g":47,"h":48,"i":49,"j":50,"k":51,"l":52,"m":53,"n":54,"o":55,"p":56,"q":57,"r":58,"s":59,"t":60,"u":61,"v":62,"w":63,"x":64,"y":65,"z":66,"{":67,"|":68,"}":69,"~":70,"¡":71,"£":72,"§":73,"¨":74,"«":75,"¬":76,"®":77,"°":78,"±":79,"²":80,"³":81,"´":82,"µ":83,"·":84,"¹":85,"º":86,"»":87,"¼":88,"½":89,"×":90,"ß":91,"æ":92,"ð":93,"ø":94,"þ":95,"đ":96,"ħ":97,"ı":98,"ł":99,"ŋ":100,"œ":101,"ƒ":102,"ɐ":103,"ɑ":104,"ɔ":105,"ə":106,"ɛ":107,"ɡ":108,"ɨ":109,"ɪ":110,"ɾ":111,"ʀ":112,"ʁ":113,"ʃ":114,"ʊ":115,"ʒ":116,"ʔ":117,"ʰ":118,"ʲ":119,"ʹ":120,"ʻ":121,"ʼ":122,"ʾ":123,"ʿ":124,"ˈ":125,"ː":126,"˚":127,"α":128,"β":129,"γ":130,"δ":131,"ε":132,"ζ":133,"η":134,"θ":135,"ι":136,"κ":137,"λ":138,"μ":139,"ν":140,"ξ":141,"ο":142,"π":143,"ρ":144,"ς":145,"σ":146,"τ":147,"υ":148,"φ":149,"χ":150,"ψ":151,"ω":152,"а":153,"б":154,"в":155,"г":156,"д":157,"е":158,"ж":159,"з":160,"и":161,"к":162,"л":163,"м":164,"н":165,"о":166,"п":167,"р":168,"с":169,"т":170,"у":171,"ф":172,"х":173,"ц":174,"ч":175,"ш":176,"щ":177,"ъ":178,"ы":179,"ь":180,"э":181,"ю":182,"я":183,"ђ":184,"є":185,"і":186,"ј":187,"љ":188,"њ":189,"ћ":190,"џ":191,"қ":192,"ү":193,"ә":194,"ө":195,"ա":196,"բ":197,"գ":198,"դ":199,"ե":200,"զ":201,"թ":202,"ի":203,"լ":204,"խ":205,"ծ":206,"կ":207,"հ":208,"ղ":209,"մ":210,"յ":211,"ն":212,"շ":213,"ո":214,"չ":215,"պ":216,"ջ":217,"ռ":218,"ս":219,"վ":220,"տ":221,"ր":222,"ց":223,"ւ":224,"ք":225,"א":226,"ב":227,"ג":228,"ד":229,"ה":230,"ו":231,"ז":232,"ח":233,"ט":234,"י":235,"כ":236,"ל":237,"ם":238,"מ":239,"ן":240,"נ":241,"ס":242,"ע":243,"ף":244,"פ":245,"צ":246,"ק":247,"ר":248,"ש":249,"ת":250,"ء":251,"ا":252,"ب":253,"ة":254,"ت":255,"ث":256,"ج":257,"ح":258,"خ":259,"د":260,"ذ":261,"ر":262,"ز":263,"س":264,"ش":265,"ص":266,"ض":267,"ط":268,"ظ":269,"ع":270,"غ":271,"ـ":272,"ف":273,"ق":274,"ك":275,"ل":276,"م":277,"ن":278,"ه":279,"و":280,"ى":281,"ي":282,"پ":283,"چ":284,"ډ":285,"ژ":286,"ک":287,"گ":288,"ہ":289,"ۆ":290,"ی":291,"ێ":292,"ې":293,"ە":294,"ܐ":295,"ܝ":296,"ܪ":297,"ܬ":298,"क":299,"ग":300,"च":301,"ज":302,"ट":303,"ड":304,"त":305,"द":306,"न":307,"प":308,"ब":309,"म":310,"य":311,"र":312,"ल":313,"व":314,"श":315,"ष":316,"स":317,"ह":318,"ा":319,"ि":320,"ी":321,"ो":322,"গ":323,"জ":324,"দ":325,"ন":326,"ব":327,"ম":328,"র":329,"ল":330,"া":331,"ি":332,"ে":333,"க":334,"ச":335,"ட":336,"த":337,"ன":338,"ப":339,"ம":340,"ர":341,"வ":342,"ா":343,"ி":344,"ு":345,"ാ":346,"ก":347,"ง":348,"ช":349,"ด":350,"ต":351,"ท":352,"น":353,"บ":354,"พ":355,"ม":356,"ย":357,"ร":358,"ล":359,"ว":360,"ส":361,"ห":362,"อ":363,"ะ":364,"า":365,"เ":366,"་":367,"ག":368,"ང":369,"བ":370,"ར":371,"ས":372,"ა":373,"ბ":374,"გ":375,"დ":376,"ე":377,"ვ":378,"ზ":379,"თ":380,"ი":381,"კ":382,"ლ":383,"მ":384,"ნ":385,"ო":386,"პ":387,"რ":388,"ს":389,"ტ":390,"უ":391,"ფ":392,"ქ":393,"ღ":394,"ყ":395,"შ":396,"ჩ":397,"ც":398,"ძ":399,"წ":400,"ჭ":401,"ხ":402,"ჯ":403,"ᄀ":404,"ᄂ":405,"ᄃ":406,"ᄅ":407,"ᄆ":408,"ᄇ":409,"ᄉ":410,"ᄊ":411,"ᄋ":412,"ᄌ":413,"ᄎ":414,"ᄏ":415,"ᄐ":416,"ᄑ":417,"ᄒ":418,"ᅡ":419,"ᅢ":420,"ᅣ":421,"ᅥ":422,"ᅦ":423,"ᅧ":424,"ᅨ":425,"ᅩ":426,"ᅪ":427,"ᅬ":428,"ᅭ":429,"ᅮ":430,"ᅯ":431,"ᅱ":432,"ᅲ":433,"ᅳ":434,"ᅴ":435,"ᅵ":436,"ᆨ":437,"ᆫ":438,"ᆯ":439,"ᆷ":440,"ᆸ":441,"ᆺ":442,"ᆼ":443,"ᚠ":444,"ᚢ":445,"ᚦ":446,"ᚱ":447,"ᚴ":448,"ᚼ":449,"ᚾ":450,"ᛁ":451,"ᛅ":452,"ᛋ":453,"ᛏ":454,"ᛒ":455,"ᛚ":456,"ᛦ":457,"᛫":458,"᛬":459,"‐":460,"‑":461,"–":462,"—":463,"‘":464,"’":465,"‚":466,"“":467,"”":468,"„":469,"†":470,"•":471,"…":472,"‰":473,"′":474,"″":475,"›":476,"₂":477,"€":478,"№":479,"ℝ":480,"ℵ":481,"→":482,"∈":483,"−":484,"√":485,"∞":486,"≈":487,"≤":488,"≥":489,"⋅":490,"─":491,"│":492,"└":493,"├":494,"★":495,"☉":496,"♭":497,"⟨":498,"⟩":499,"い":500,"か":501,"き":502,"し":503,"と":504,"の":505,"り":506,"ん":507,"ア":508,"イ":509,"ウ":510,"オ":511,"カ":512,"キ":513,"ク":514,"コ":515,"サ":516,"シ":517,"ス":518,"タ":519,"ッ":520,"テ":521,"ト":522,"ハ":523,"ヒ":524,"フ":525,"ホ":526,"マ":527,"ラ":528,"リ":529,"ル":530,"レ":531,"ロ":532,"ン":533,"・":534,"ー":535,"一":536,"丁":537,"七":538,"万":539,"三":540,"上":541,"下":542,"世":543,"东":544,"两":545,"中":546,"丰":547,"临":548,"丹":549,"义":550,"之":551,"乌":552,"乐":553,"九":554,"乡":555,"二":556,"云":557,"五":558,"井":559,"亚":560,"京":561,"亭":562,"人":563,"什":564,"仁":565,"仓":566,"仙":567,"代":568,"伊":569,"会":570,"何":571,"佛":572,"依":573,"保":574,"信":575,"候":576,"元":577,"光":578,"克":579,"八":580,"公":581,"六":582,"兰":583,"关":584,"兴":585,"其":586,"内":587,"军":588,"农":589,"凤":590,"切":591,"刘":592,"则":593,"利":594,"前":595,"力":596,"加":597,"勒":598,"包":599,"化":600,"北":601,"区":602,"十":603,"千":604,"华":605,"卓":606,"南":607,"博":608,"卡":609,"卫":610,"厂":611,"原":612,"县":613,"双":614,"发":615,"口":616,"古":617,"台":618,"叶":619,"号":620,"司":621,"合":622,"吉":623,"同":624,"后":625,"吐":626,"向":627,"吴":628,"吾":629,"周":630,"呼":631,"咀":632,"和":633,"哈":634,"唐":635,"喀":636,"嘉":637,"嘎":638,"四":639,"回":640,"团":641,"园":642,"国":643,"图":644,"國":645,"土":646,"圩":647,"地":648,"场":649,"坊":650,"坑":651,"坝":652,"坡":653,"坪":654,"垭":655,"城":656,"埠":657,"基":658,"堂":659,"堆":660,"堡":661,"堰":662,"場":663,"塔":664,"塘":665,"墩":666,"夏":667,"外":668,"多":669,"大":670,"天":671,"太":672,"头":673,"如":674,"子":675,"孔":676,"字":677,"孙":678,"孜":679,"学":680,"宁":681,"安":682,"宋":683,"宗":684,"官":685,"定":686,"宝":687,"宫":688,"家":689,"富":690,"寨":691,"寺":692,"寿":693,"小":694,"尔":695,"尖":696,"尼":697,"尾":698,"居":699,"屯":700,"山":701,"屿":702,"岔":703,"岗":704,"岛":705,"岩":706,"岭":707,"岳":708,"峡":709,"峪":710,"峰":711,"島":712,"川":713,"州":714,"工":715,"巴":716,"市":717,"布":718,"帝":719,"常":720,"干":721,"平":722,"年":723,"广":724,"庄":725,"庆":726,"库":727,"底":728,"店":729,"庙":730,"府":731,"康":732,"建":733,"式":734,"张":735,"当":736,"彝":737,"彦":738,"徐":739,"德":740,"心":741,"恰":742,"成":743,"房":744,"所":745,"扎":746,"托":747,"拉":748,"排":749,"政":750,"敖":751,"文":752,"斗":753,"斯":754,"新":755,"方":756,"族":757,"旗":758,"日":759,"旺":760,"昌":761,"明":762,"星":763,"春":764,"普":765,"景":766,"曲":767,"曹":768,"月":769,"朗":770,"望":771,"朝":772,"木":773,"本":774,"朱":775,"机":776,"李":777,"村":778,"杜":779,"来":780,"杨":781,"東":782,"松":783,"板":784,"林":785,"果":786,"柏":787,"查":788,"柳":789,"树":790,"株":791,"根":792,"格":793,"桂":794,"桃":795,"桐":796,"桑":797,"桥":798,"梁":799,"梅":800,"楼":801,"榆":802,"樟":803,"横":804,"正":805,"武":806,"毛":807,"民":808,"水":809,"永":810,"汉":811,"江":812,"池":813,"汤":814,"沙":815,"沟":816,"河":817,"治":818,"泉":819,"法":820,"泡":821,"波":822,"泥":823,"泰":824,"泽":825,"洋":826,"洛":827,"洞":828,"津":829,"洪":830,"洲":831,"流":832,"浦":833,"浪":834,"海":835,"清":836,"渡":837,"温":838,"港":839,"湖":840,"湾":841,"源":842,"溪":843,"满":844,"滩":845,"潭":846,"灣":847,"火":848,"灵":849,"热":850,"燕":851,"牙":852,"牛":853,"物":854,"特":855,"狮":856,"玉":857,"王":858,"玛":859,"珠":860,"理":861,"琼":862,"瑶":863,"瓦":864,"甘":865,"生":866,"田":867,"甲":868,"甸":869,"界":870,"登":871,"白":872,"百":873,"皇":874,"盖":875,"盘":876,"盛":877,"相":878,"真":879,"石":880,"矿":881,"磨":882,"社":883,"神":884,"福":885,"秀":886,"秋":887,"科":888,"秦":889,"窝":890,"立":891,"站":892,"章":893,"竹":894,"米":895,"索":896,"紫":897,"红":898,"纳":899,"结":900,"罗":901,"羊":902,"美":903,"群":904,"老":905,"联":906,"育":907,"胜":908,"胡":909,"自":910,"良":911,"色":912,"芦":913,"花":914,"苏":915,"苗":916,"英":917,"茅":918,"茶":919,"草":920,"荣":921,"莫":922,"莲":923,"营":924,"萨":925,"董":926,"蒙":927,"蒲":928,"藏":929,"虎":930,"街":931,"西":932,"观":933,"角":934,"解":935,"谷":936,"象":937,"贡":938,"赛":939,"赤":940,"赵":941,"路":942,"车":943,"辛":944,"边":945,"达":946,"进":947,"连":948,"通":949,"道":950,"那":951,"郊":952,"郎":953,"郑":954,"郡":955,"部":956,"郭":957,"都":958,"里":959,"野":960,"金":961,"钦":962,"铁":963,"铜":964,"银":965,"铺":966,"错":967,"镇":968,"长":969,"門":970,"门":971,"阳":972,"阿":973,"陈":974,"院":975,"陵":976,"陶":977,"隆":978,"雄":979,"雅":980,"集":981,"雪":982,"雷":983,"青":984,"面":985,"音":986,"顶":987,"顺":988,"风":989,"香":990,"馬":991,"马":992,"高":993,"鱼":994,"鲁":995,"鸡":996,"鹤":997,"鹿":998,"麦":999,"麻":1000,"黄":1001,"黑":1002,"鼓":1003,"龙":1004,"##e":1005,"##k":1006,"##s":1007,"##a":1008,"##m":1009,"##l":1010,"##i":1011,"##n":1012,"##g":1013,"##r":1014,"##u":1015,"##p":1016,"##b":1017,"##t":1018,"##v":1019,"##y":1020,"##o":1021,"##h":1022,"##d":1023,"##w":1024,"##c":1025,"##j":1026,"##z":1027,"##f":1028,"##6":1029,"##4":1030,"##0":1031,"##1":1032,"##ا":1033,"##و":1034,"##ر":1035,"##ز":1036,"##9":1037,"##3":1038,"##8":1039,"##ð":1040,"##x":1041,"##е":1042,"##с":1043,"##о":1044,"##в":1045,"##к":1046,"##и":1047,"##у":1048,"##д":1049,"##н":1050,"##ч":1051,"##5":1052,"##р":1053,"##а":1054,"##د":1055,"##ی":1056,"##б":1057,"##х":1058,"##з":1059,"##я":1060,"##ل":1061,"##ه":1062,"##7":1063,"##q":1064,"##−":1065,"##ᅩ":1066,"##ᆼ":1067,"##ᄀ":1068,"##ᅥ":1069,"##ᆫ":1070,"##ᄃ":1071,"##2":1072,"##ɔ":1073,"##ʃ":1074,"##ن":1075,"##ι":1076,"##≈":1077,"##æ":1078,"##м":1079,"##ي":1080,"##ك":1081,"##т":1082,"##л":1083,"##г":1084,"##ы":1085,"##ж":1086,"##ج":1087,"##ق":1088,"##ع":1089,"##ة":1090,"##ش":1091,"##ø":1092,"##ف":1093,"##ک":1094,"##œ":1095,"##°":1096,"##ə":1097,"##س":1098,"##ت":1099,"##ᅵ":1100,"##ᄂ":1101,"##ᅢ":1102,"##م":1103,"##ط":1104,"##ш":1105,"##ո":1106,"##ց":1107,"##ի":1108,"##ա":1109,"##լ":1110,"##ս":1111,"##տ":1112,"##կ":1113,"##ն":1114,"##گ":1115,"##ب":1116,"##ح":1117,"##פ":1118,"##א":1119,"##ל":1120,"##ı":1121,"##ᄉ":1122,"##ᅡ":1123,"##ᆷ":1124,"##ᄆ":1125,"##ᅧ":1126,"##ᄋ":1127,"##ᅯ":1128,"##ᆯ":1129,"##ე":1130,"##ქ":1131,"##რ":1132,"##ა":1133,"##შ":1134,"##დ":1135,"##უ":1136,"##ᆨ":1137,"##ᄌ":1138,"##י":1139,"##ר":1140,"##ᅦ":1141,"##ᄇ":1142,"##ᄅ":1143,"##غ":1144,"##ј":1145,"##ю":1146,"##щ":1147,"##ᄏ":1148,"##מ":1149,"##ד":1150,"##خ":1151,"##ɛ":1152,"##ɪ":1153,"##ß":1154,"##া":1155,"##ব":1156,"##ে":1157,"##র":1158,"##ᅨ":1159,"##ә":1160,"##ვ":1161,"##ლ":1162,"##ყ":1163,"##ძ":1164,"##п":1165,"##ц":1166,"##і":1167,"##ᄎ":1168,"##ᅮ":1169,"##ᄑ":1170,"##ᄒ":1171,"##η":1172,"##τ":1173,"##α":1174,"##ק":1175,"##צ":1176,"##ה":1177,"##き":1178,"##χ":1179,"##×":1180,"##ł":1181,"##ξ":1182,"##њ":1183,"##ᅳ":1184,"##ص":1185,"##キ":1186,"##ー":1187,"##க":1188,"##த":1189,"##ி":1190,"##ர":1191,"##ذ":1192,"##ى":1193,"##נ":1194,"##ח":1195,"##ם":1196,"##υ":1197,"##κ":1198,"##λ":1199,"##δ":1200,"##ε":1201,"##ς":1202,"##ь":1203,"##ש":1204,"##र":1205,"##म":1206,"##γ":1207,"##ω":1208,"##σ":1209,"##ŋ":1210,"##ф":1211,"##ρ":1212,"##μ":1213,"##ต":1214,"##ร":1215,"##ᄐ":1216,"##¨":1217,"##ス":1218,"##カ":1219,"##ᆸ":1220,"##ᅲ":1221,"##─":1222,"##ظ":1223,"##چ":1224,"##ᅪ":1225,"##ו":1226,"##ז":1227,"##ן":1228,"##ۆ":1229,"##ە":1230,"##ℵ":1231,"##θ":1232,"##ο":1233,"##ע":1234,"##ː":1235,"##´":1236,"##ե":1237,"##ր":1238,"##→":1239,"##ო":1240,"##ც":1241,"##ი":1242,"##ს":1243,"##þ":1244,"##タ":1245,"##コ":1246,"##ラ":1247,"##イ":1248,"##ッ":1249,"##ג":1250,"##བ":1251,"##ས":1252,"##յ":1253,"##վ":1254,"##զ":1255,"##ـ":1256,"##כ":1257,"##ת":1258,"##ʊ":1259,"##ܪ":1260,"##ܐ":1261,"##ܝ":1262,"##ะ":1263,"##ก":1264,"##ว":1265,"##მ":1266,"##წ":1267,"##ბ":1268,"##ᛏ":1269,"##ᛁ":1270,"##ᚾ":1271,"##ژ":1272,"##ང":1273,"##ม":1274,"##น":1275,"##เ":1276,"##า":1277,"##พ":1278,"##ย":1279,"##խ":1280,"##գ":1281,"##հ":1282,"##ᅬ":1283,"##ˈ":1284,"##đ":1285,"##ъ":1286,"##²":1287,"##ν":1288,"##ᛋ":1289,"##ᅱ":1290,"##ᆺ":1291,"##پ":1292,"##π":1293,"##ζ":1294,"##β":1295,"##ħ":1296,"##ᅭ":1297,"##φ":1298,"##ᛅ":1299,"##ᚱ":1300,"##ᛚ":1301,"##ग":1302,"##स":1303,"##त":1304,"##य":1305,"##ტ":1306,"##₂":1307,"##ส":1308,"##ท":1309,"##э":1310,"##ү":1311,"##ղ":1312,"##ծ":1313,"##ᅣ":1314,"##ב":1315,"##გ":1316,"##±":1317,"##ɡ":1318,"##ɐ":1319,"##ض":1320,"##か":1321,"##ђ":1322,"##オ":1323,"##ט":1324,"##ᅴ":1325,"##ხ":1326,"##½":1327,"##º":1328,"##ด":1329,"##อ":1330,"##ง":1331,"##வ":1332,"##ா":1333,"##ء":1334,"##˚":1335,"##ס":1336,"##ث":1337,"##ᚠ":1338,"##თ":1339,"##ʒ":1340,"##フ":1341,"##ン":1342,"##ル":1343,"##љ":1344,"##ћ":1345,"##ნ":1346,"##ম":1347,"##ন":1348,"##ʻ":1349,"##ハ":1350,"##ʲ":1351,"##ք":1352,"##⋅":1353,"##ल":1354,"##ो":1355,"##ि":1356,"##ज":1357,"##क":1358,"##ष":1359,"##ी":1360,"##კ":1361,"##ღ":1362,"##ɨ":1363,"##џ":1364,"##ʹ":1365,"##シ":1366,"##ア":1367,"##դ":1368,"##ʿ":1369,"##し":1370,"##ɾ":1371,"##ێ":1372,"##ห":1373,"##ล":1374,"##ہ":1375,"##ാ":1376,"##ト":1377,"##サ":1378,"##ზ":1379,"##ɑ":1380,"##न":1381,"##व":1382,"##ा":1383,"##द":1384,"##բ":1385,"##պ":1386,"##շ":1387,"##い":1388,"##¹":1389,"##श":1390,"##ւ":1391,"##ん":1392,"##গ":1393,"##ি":1394,"##ᚦ":1395,"##ʁ":1396,"##ホ":1397,"##リ":1398,"##ク":1399,"##€":1400,"##ө":1401,"##♭":1402,"##³":1403,"##ச":1404,"##ᚴ":1405,"##ช":1406,"##জ":1407,"##と":1408,"##り":1409,"##ट":1410,"##ʼ":1411,"##ܬ":1412,"##թ":1413,"##ʰ":1414,"##प":1415,"##ψ":1416,"##®":1417,"##ʔ":1418,"##ம":1419,"##ப":1420,"##ட":1421,"##ह":1422,"##ब":1423,"##ռ":1424,"##ფ":1425,"##ʀ":1426,"##∈":1427,"##ヒ":1428,"##ჯ":1429,"##қ":1430,"##च":1431,"##ף":1432,"##の":1433,"##ল":1434,"##չ":1435,"##ډ":1436,"##บ":1437,"##ᚢ":1438,"##テ":1439,"##レ":1440,"##¼":1441,"##ჭ":1442,"##ロ":1443,"##দ":1444,"##ு":1445,"##პ":1446,"##ʾ":1447,"##ன":1448,"##∞":1449,"##մ":1450,"##ې":1451,"##マ":1452,"##ჩ":1453,"##ड":1454,"##µ":1455,"##ᛦ":1456,"##ջ":1457,"##ƒ":1458,"##є":1459,"##ウ":1460,"##ᄊ":1461,"##ᛒ":1462,"##ᚼ":1463,"##£":1464,"##ར":1465,"##ག":1466,"##★":1467,"##≥":1468,"##¬":1469,"##≤":1470,"##√":1471,"##☉":1472,"##en":1473,"##er":1474,"##ar":1475,"##an":1476,"ar":1477,"##st":1478,"##et":1479,"##or":1480,"##at":1481,"##ad":1482,"##ed":1483,"##in":1484,"##om":1485,"##ch":1486,"##al":1487,"##il":1488,"##el":1489,"och":1490,"den":1491,"##ra":1492,"##ig":1493,"##on":1494,"##kt":1495,"##tt":1496,"##sk":1497,"med":1498,"in":1499,"av":1500,"##un":1501,"##and":1502,"##ast":1503,"##am":1504,"en":1505,"##ing":1506,"##ord":1507,"##em":1508,"##es":1509,"##li":1510,"##eter":1511,"##la":1512,"##ur":1513,"##og":1514,"som":1515,"om":1516,"for":1517,"##ol":1518,"##art":1519,"##re":1520,"##ade":1521,"st":1522,"##aden":1523,"##aste":1524,"ing":1525,"li":1526,"##sn":1527,"##id":1528,"##is":1529,"##erb":1530,"°c":1531,"##der":1532,"##ck":1533,"var":1534,"##kten":1535,"##all":1536,"##ederb":1537,"##ederbord":1538,"##ill":1539,"##per":1540,"##ro":1541,"##ver":1542,"##av":1543,"man":1544,"##as":1545,"##lig":1546,"##ud":1547,"19":1548,"##ning":1549,"##are":1550,"##ag":1551,"pa":1552,"##itt":1553,"##us":1554,"tra":1555,"an":1556,"un":1557,"##ri":1558,"##na":1559,"det":1560,"##ska":1561,"##eg":1562,"##unt":1563,"gen":1564,"##ran":1565,"##tem":1566,"till":1567,"trakten":1568,"be":1569,"##pp":1570,"##atur":1571,"genom":1572,"##ger":1573,"##uv":1574,"##ak":1575,"del":1576,"##ter":1577,"##aturen":1578,"under":1579,"runt":1580,"##peraturen":1581,"##eltem":1582,"##eltemperaturen":1583,"##uvud":1584,"##att":1585,"manaden":1586,"de":1587,"##inn":1588,"##snitt":1589,"##lim":1590,"mm":1591,"km":1592,"genomsnitt":1593,"nederbord":1594,"##it":1595,"huvud":1596,"##od":1597,"lig":1598,"##ari":1599,"ligger":1600,"ingar":1601,"ett":1602,"over":1603,"##ion":1604,"##ot":1605,"att":1606,"##ilj":1607,"of":1608,"finn":1609,"##ber":1610,"finns":1611,"sla":1612,"##sm":1613,"reg":1614,"##ue":1615,"nar":1616,"##rev":1617,"sy":1618,"##amilj":1619,"##land":1620,"##ilom":1621,"##ilometer":1622,"familj":1623,"land":1624,"##sta":1625,"##iv":1626,"##ktet":1627,"familjen":1628,"sk":1629,"##ent":1630,"##ul":1631,"han":1632,"meter":1633,"##ik":1634,"##fe":1635,"##ia":1636,"##os":1637,"##ru":1638,"inga":1639,"besk":1640,"da":1641,"##arter":1642,"##le":1643,"##maste":1644,"hav":1645,"##revs":1646,"slaktet":1647,"##atal":1648,"underarter":1649,"##ande":1650,"beskrevs":1651,"havet":1652,"list":1653,"##atalog":1654,"life":1655,"delen":1656,"ut":1657,"catalog":1658,"catalogue":1659,"kall":1660,"listade":1661,"##rat":1662,"##ang":1663,"##um":1664,"##ut":1665,"##van":1666,"kv":1667,"##ost":1668,"per":1669,"##op":1670,"##orra":1671,"##ste":1672,"landet":1673,"##ens":1674,"##staden":1675,"sam":1676,"##ax":1677,"##ef":1678,"##het":1679,"20":1680,"har":1681,"al":1682,"huvudstaden":1683,"pro":1684,"mil":1685,"invan":1686,"invanare":1687,"##smed":1688,"##omm":1689,"##olk":1690,"regn":1691,"fran":1692,"##ic":1693,"nord":1694,"stor":1695,"syd":1696,"arsmed":1697,"arsmedeltemperaturen":1698,"medeltemperaturen":1699,"kallaste":1700,"varmaste":1701,"##ust":1702,"##adrat":1703,"kvadrat":1704,"##sen":1705,"##gen":1706,"##ler":1707,"##igaste":1708,"##kilometer":1709,"kvadratkilometer":1710,"##ist":1711,"jan":1712,"torra":1713,"##limeter":1714,"millimeter":1715,"genomsnittlig":1716,"##ta":1717,"arsn":1718,"arsnederbord":1719,"torraste":1720,"regnigaste":1721,"##arna":1722,"##limat":1723,"##ug":1724,"##ov":1725,"##uari":1726,"vid":1727,"januari":1728,"18":1729,"sp":1730,"kan":1731,"##uli":1732,"##eb":1733,"##for":1734,"##ader":1735,"##ala":1736,"##ien":1737,"##ades":1738,"##ep":1739,"el":1740,"juli":1741,"##te":1742,"##iska":1743,"##ark":1744,"ost":1745,"##de":1746,"upp":1747,"ch":1748,"##vast":1749,"##sak":1750,"##bef":1751,"##befolk":1752,"tv":1753,"hog":1754,"komm":1755,"vast":1756,"##vin":1757,"##sa":1758,"ter":1759,"so":1760,"##giv":1761,"##rad":1762,"pl":1763,"huvudsak":1764,"##ell":1765,"##ac":1766,"men":1767,"##ek":1768,"##heten":1769,"##sp":1770,"ku":1771,"provin":1772,"##fter":1773,"ber":1774,"##dra":1775,"##ann":1776,"sj":1777,"##yg":1778,"##ok":1779,"terran":1780,"##und":1781,"terrangen":1782,"omgiv":1783,"or":1784,"##ember":1785,"##ram":1786,"rader":1787,"sv":1788,"##ab":1789,"##hall":1790,"narheten":1791,"kommun":1792,"aug":1793,"##ats":1794,"##ock":1795,"nor":1796,"pun":1797,"august":1798,"##ir":1799,"##ard":1800,"provinsen":1801,"hogsta":1802,"##amn":1803,"##ae":1804,"##ap":1805,"vax":1806,"##im":1807,"augusti":1808,"##ind":1809,"##ick":1810,"##befolkat":1811,"efter":1812,"##ation":1813,"punkten":1814,"200":1815,"br":1816,"##opp":1817,"##se":1818,"##ant":1819,"##alet":1820,"##isk":1821,"sig":1822,"##ka":1823,"##ningarna":1824,"kilometer":1825,"at":1826,"##nings":1827,"dar":1828,"##yr":1829,"eller":1830,"##ub":1831,"##sart":1832,"##ina":1833,"##son":1834,"##man":1835,"##anska":1836,"##ort":1837,"omgivningarna":1838,"##ling":1839,"mar":1840,"ma":1841,"oster":1842,"##ft":1843,"hon":1844,"##ung":1845,"kon":1846,"201":1847,"sydost":1848,"tva":1849,"##jar":1850,"##est":1851,"##ma":1852,"##ionen":1853,"art":1854,"berg":1855,"##sam":1856,"samhall":1857,"ant":1858,"##ier":1859,"vaster":1860,"##atten":1861,"##lag":1862,"ri":1863,"##ott":1864,"gl":1865,"##skap":1866,"##lev":1867,"nordvast":1868,"##ara":1869,"##yck":1870,"am":1871,"forst":1872,"##ron":1873,"##ob":1874,"cent":1875,"tid":1876,"##vax":1877,"##ebru":1878,"##klimat":1879,"soder":1880,"febru":1881,"februari":1882,"##00":1883,"fl":1884,"##ess":1885,"storre":1886,"##uni":1887,"aven":1888,"nordost":1889,"##ne":1890,"vatten":1891,"lak":1892,"##radet":1893,"##lar":1894,"##olj":1895,"best":1896,"sa":1897,"bor":1898,"##red":1899,"##den":1900,"dec":1901,"##ligen":1902,"##erna":1903,"bland":1904,"th":1905,"199":1906,"norr":1907,"sydvast":1908,"mot":1909,"##skog":1910,"juni":1911,"sin":1912,"fram":1913,"blev":1914,"##oh":1915,"centr":1916,"##yn":1917,"##ningsom":1918,"##ygg":1919,"##oll":1920,"##uc":1921,"##ningen":1922,"december":1923,"hade":1924,"##ans":1925,"narmaste":1926,"##ea":1927,"##ring":1928,"##els":1929,"##ligt":1930,"##eh":1931,"##iskt":1932,"vil":1933,"lake":1934,"##perad":1935,"folj":1936,"##rin":1937,"kuperad":1938,"##ib":1939,"##da":1940,"lang":1941,"##ec":1942,"##alt":1943,"fod":1944,"sl":1945,"samhalle":1946,"##oc":1947,"inte":1948,"klimat":1949,"##oli":1950,"##rik":1951,"ganska":1952,"lag":1953,"namn":1954,"##amp":1955,"##ss":1956,"##fl":1957,"##drag":1958,"gr":1959,"topp":1960,"##org":1961,"##yl":1962,"centrala":1963,"##ip":1964,"##rade":1965,"nov":1966,"bar":1967,"##var":1968,"ny":1969,"198":1970,"##ou":1971,"sep":1972,"bestar":1973,"##eck":1974,"la":1975,"sven":1976,"##sh":1977,"tat":1978,"197":1979,"gles":1980,"spel":1981,"le":1982,"toppen":1983,"##bet":1984,"glesbefolkat":1985,"nara":1986,"##rig":1987,"mo":1988,"ex":1989,"##ong":1990,"andra":1991,"##edan":1992,"fodd":1993,"ha":1994,"vaxer":1995,"ap":1996,"##aren":1997,"##ada":1998,"##ober":1999,"##wa":2000,"par":2001,"septem":2002,"gra":2003,"september":2004,"vattendrag":2005,"##liga":2006,"##onen":2007,"kuh":2008,"##smark":2009,"##ket":2010,"ver":2011,"##ex":2012,"196":2013,"fick":2014,"##rop":2015,"##ata":2016,"samt":2017,"##ella":2018,"##ah":2019,"november":2020,"##ry":2021,"mars":2022,"maj":2023,"foljande":2024,"forsta":2025,"platt":2026,"regionen":2027,"ind":2028,"##aten":2029,"##if":2030,"##tart":2031,"17":2032,"ann":2033,"##lad":2034,"##ken":2035,"mind":2036,"##ruk":2037,"##ild":2038,"##hor":2039,"##rit":2040,"mindre":2041,"tatbefolkat":2042,"##olm":2043,"##ett":2044,"##ets":2045,"##idae":2046,"pr":2047,"##arl":2048,"kommunen":2049,"##era":2050,"##je":2051,"##yt":2052,"##ana":2053,"on":2054,"ty":2055,"##ga":2056,"hans":2057,"huvudsakligen":2058,"ad":2059,"kom":2060,"##ningar":2061,"all":2062,"plats":2063,"okt":2064,"sver":2065,"jord":2066,"fin":2067,"talet":2068,"sitt":2069,"oktober":2070,"sverig":2071,"##ycket":2072,"mon":2073,"##ement":2074,"dod":2075,"##io":2076,"195":2077,"##ulle":2078,"san":2079,"hem":2080,"syf":2081,"##des":2082,"fil":2083,"sh":2084,"ne":2085,"##jaril":2086,"##ril":2087,"mycket":2088,"##nas":2089,"##ellan":2090,"193":2091,"##eart":2092,"bu":2093,"rikt":2094,"mal":2095,"##vand":2096,"191":2097,"##men":2098,"##sb":2099,"delst":2100,"##orde":2101,"sav":2102,"##sl":2103,"hel":2104,"bas":2105,"sedan":2106,"194":2107,"##rinningsom":2108,"ock":2109,"##ack":2110,"utb":2111,"syfta":2112,"##ie":2113,"##ph":2114,"val":2115,"##sklimat":2116,"##erade":2117,"192":2118,"##ff":2119,"mellan":2120,"gu":2121,"##igt":2122,"bo":2123,"co":2124,"bra":2125,"nag":2126,"##awa":2127,"norra":2128,"ocksa":2129,"sen":2130,"sod":2131,"storsta":2132,"##befolkad":2133,"des":2134,"##satt":2135,"stad":2136,"##iss":2137,"##ass":2138,"##ce":2139,"april":2140,"##alv":2141,"nog":2142,"##holm":2143,"##ym":2144,"sjo":2145,"##orn":2146,"omradet":2147,"##bruk":2148,"obefolkad":2149,"sodra":2150,"##jan":2151,"##riv":2152,"##berg":2153,"riktning":2154,"mat":2155,"##ore":2156,"##mar":2157,"fjaril":2158,"##las":2159,"##oj":2160,"##iet":2161,"##rom":2162,"##ow":2163,"##agg":2164,"##th":2165,"sch":2166,"mus":2167,"antalet":2168,"##del":2169,"##iga":2170,"##verk":2171,"di":2172,"fler":2173,"hen":2174,"far":2175,"##uk":2176,"##stall":2177,"##ering":2178,"##osa":2179,"##ys":2180,"ag":2181,"16":2182,"ott":2183,"vilket":2184,"ab":2185,"ser":2186,"15":2187,"omk":2188,"##alb":2189,"sverige":2190,"##up":2191,"inn":2192,"##ten":2193,"jordbruk":2194,"detta":2195,"led":2196,"sm":2197,"##vaxter":2198,"##zonen":2199,"sydostra":2200,"190":2201,"##ian":2202,"klimatzonen":2203,"##vaxtart":2204,"##ster":2205,"omkring":2206,"##ementet":2207,"##jur":2208,"##ora":2209,"ph":2210,"enligt":2211,"kl":2212,"fjarilsart":2213,"##ay":2214,"re":2215,"##yrk":2216,"joh":2217,"kal":2218,"##oph":2219,"##nar":2220,"##pel":2221,"grund":2222,"anvand":2223,"savann":2224,"##ern":2225,"bet":2226,"lac":2227,"the":2228,"tvav":2229,"bygg":2230,"kanada":2231,"tvaving":2232,"platser":2233,"##ropiskt":2234,"bli":2235,"annat":2236,"stock":2237,"vis":2238,"##res":2239,"delstaten":2240,"##rag":2241,"van":2242,"##kte":2243,"ur":2244,"##ica":2245,"##rist":2246,"jordbruksmark":2247,"dess":2248,"##fatt":2249,"##istor":2250,"fors":2251,"##ult":2252,"bro":2253,"her":2254,"arbet":2255,"##ekt":2256,"rep":2257,"##ean":2258,"tvavingeart":2259,"stra":2260,"##mer":2261,"kar":2262,"ge":2263,"arten":2264,"inom":2265,"stockholm":2266,"##ola":2267,"##ich":2268,"##ensis":2269,"min":2270,"er":2271,"cer":2272,"hand":2273,"rik":2274,"##istri":2275,"bl":2276,"ta":2277,"bred":2278,"ottawa":2279,"medel":2280,"##lighet":2281,"##ium":2282,"##itet":2283,"##rid":2284,"##kon":2285,"opp":2286,"verk":2287,"##skland":2288,"slut":2289,"##agen":2290,"##ser":2291,"bef":2292,"##yd":2293,"nu":2294,"##ral":2295,"##ula":2296,"konst":2297,"ater":2298,"##vis":2299,"##ogram":2300,"vastra":2301,"kun":2302,"avrinningsom":2303,"##rak":2304,"res":2305,"##raf":2306,"oli":2307,"is":2308,"189":2309,"ol":2310,"##spel":2311,"ostra":2312,"utbred":2313,"##hi":2314,"gj":2315,"bi":2316,"tre":2317,"##ytt":2318,"##akt":2319,"##sv":2320,"##pl":2321,"##tal":2322,"cre":2323,"##ha":2324,"##ius":2325,"##ts":2326,"svenska":2327,"and":2328,"##erik":2329,"##ct":2330,"##erat":2331,"eng":2332,"gall":2333,"##raft":2334,"##part":2335,"sc":2336,"senare":2337,"##min":2338,"##ond":2339,"##ja":2340,"flera":2341,"distri":2342,"svensk":2343,"sjon":2344,"##veck":2345,"ord":2346,"col":2347,"mer":2348,"##ii":2349,"tidig":2350,"skulle":2351,"##ey":2352,"##mark":2353,"##app":2354,"finland":2355,"rad":2356,"lan":2357,"##olog":2358,"vaxt":2359,"##qu":2360,"##ende":2361,"utan":2362,"##ei":2363,"mor":2364,"##yp":2365,"##nad":2366,"histor":2367,"form":2368,"natur":2369,"creek":2370,"##ida":2371,"##mans":2372,"liv":2373,"lov":2374,"##som":2375,"kyrk":2376,"##bar":2377,"##ris":2378,"##sson":2379,"omgivande":2380,"##ine":2381,"tidigare":2382,"basen":2383,"samma":2384,"dock":2385,"##rupp":2386,"##samling":2387,"tropiskt":2388,"##fors":2389,"ye":2390,"##ift":2391,"denna":2392,"varl":2393,"##ena":2394,"sas":2395,"bredden":2396,"olika":2397,"ort":2398,"##ater":2399,"vi":2400,"##ukt":2401,"##ull":2402,"##nes":2403,"hemib":2404,"##vers":2405,"##lem":2406,"##of":2407,"##hus":2408,"##oreala":2409,"hemiboreala":2410,"##elart":2411,"sina":2412,"188":2413,"alb":2414,"poli":2415,"##skapet":2416,"kor":2417,"##sekt":2418,"##eras":2419,"##our":2420,"bergig":2421,"##alen":2422,"utbredningsom":2423,"##ansk":2424,"vaxtlighet":2425,"##gang":2426,"kat":2427,"##sil":2428,"##rod":2429,"##rakt":2430,"##sd":2431,"##ograf":2432,"##ial":2433,"##ren":2434,"artens":2435,"##rar":2436,"dom":2437,"kand":2438,"vara":2439,"##ubb":2440,"##och":2441,"tem":2442,"##han":2443,"utbredningsomrade":2444,"em":2445,"avrinningsomradet":2446,"dag":2447,"##ford":2448,"##andet":2449,"##eng":2450,"bel":2451,"blandskog":2452,"fort":2453,"ov":2454,"##int":2455,"tr":2456,"##arta":2457,"##ura":2458,"eur":2459,"exem":2460,"insekt":2461,"lat":2462,"##oma":2463,"wil":2464,"sal":2465,"int":2466,"inter":2467,"depart":2468,"arean":2469,"##eln":2470,"##ers":2471,"tog":2472,"cerro":2473,"bes":2474,"hal":2475,"##led":2476,"skalb":2477,"te":2478,"medelh":2479,"##ach":2480,"##ugor":2481,"##ingen":2482,"tur":2483,"aust":2484,"skalbagg":2485,"forb":2486,"manga":2487,"mest":2488,"##end":2489,"mark":2490,"se":2491,"##ubli":2492,"klimatet":2493,"new":2494,"barn":2495,"##erar":2496,"musik":2497,"utg":2498,"id":2499,"que":2500,"##sammans":2501,"##az":2502,"sar":2503,"eg":2504,"186":2505,"##rike":2506,"tillsammans":2507,"stora":2508,"##else":2509,"ald":2510,"##rum":2511,"mel":2512,"bild":2513,"mount":2514,"187":2515,"##flugor":2516,"fri":2517,"ak":2518,"stads":2519,"folk":2520,"##arn":2521,"dessa":2522,"##cker":2523,"lar":2524,"##rukt":2525,"amerik":2526,"alla":2527,"##yra":2528,"##klar":2529,"person":2530,"savannklimat":2531,"kung":2532,"##sj":2533,"##aria":2534,"##rich":2535,"sjalv":2536,"##ingar":2537,"##yc":2538,"lite":2539,"##amm":2540,"12":2541,"ang":2542,"##ratt":2543,"uni":2544,"##ald":2545,"##enter":2546,"14":2547,"##va":2548,"##atus":2549,"##stad":2550,"ger":2551,"##old":2552,"##ones":2553,"##net":2554,"nya":2555,"##djur":2556,"##lin":2557,"##konom":2558,"ac":2559,"frank":2560,"stapp":2561,"ekonom":2562,"##ator":2563,"##eder":2564,"##smarker":2565,"po":2566,"pol":2567,"##iva":2568,"grasmarker":2569,"10":2570,"stappklimat":2571,"##ont":2572,"varld":2573,"kallt":2574,"dem":2575,"brasil":2576,"forsamling":2577,"stud":2578,"skalbaggsart":2579,"departementet":2580,"exempel":2581,"##erades":2582,"got":2583,"##ity":2584,"af":2585,"do":2586,"austral":2587,"ry":2588,"##vi":2589,"tor":2590,"##ons":2591,"oppet":2592,"##rott":2593,"##ile":2594,"##iod":2595,"rom":2596,"staden":2597,"##ge":2598,"count":2599,"pal":2600,"univers":2601,"13":2602,"insektsart":2603,"ob":2604,"son":2605,"mex":2606,"##nen":2607,"gar":2608,"##ank":2609,"##ops":2610,"##iz":2611,"##erad":2612,"befolk":2613,"ed":2614,"##aga":2615,"hels":2616,"jak":2617,"##jade":2618,"polit":2619,"dal":2620,"gallande":2621,"##omb":2622,"helsing":2623,"##har":2624,"##igh":2625,"##cent":2626,"##minist":2627,"##ings":2628,"si":2629,"ans":2630,"innan":2631,"as":2632,"sock":2633,"allt":2634,"ingen":2635,"namnet":2636,"##strom":2637,"##co":2638,"##ton":2639,"##urg":2640,"carl":2641,"buskland":2642,"hj":2643,"busklandskap":2644,"sydlig":2645,"fa":2646,"gran":2647,"fot":2648,"##ace":2649,"vann":2650,"gun":2651,"##stem":2652,"##ationen":2653,"##kl":2654,"slakte":2655,"##alis":2656,"##orna":2657,"##ander":2658,"gre":2659,"lj":2660,"##alp":2661,"region":2662,"gjorde":2663,"ung":2664,"##rut":2665,"kulle":2666,"jam":2667,"##ca":2668,"met":2669,"##ner":2670,"mag":2671,"oken":2672,"gang":2673,"##ba":2674,"sydvastra":2675,"##form":2676,"dan":2677,"vin":2678,"vastlig":2679,"kop":2680,"nation":2681,"pers":2682,"vill":2683,"flyg":2684,"##eph":2685,"svamp":2686,"nordostra":2687,"##tter":2688,"borjade":2689,"iran":2690,"prod":2691,"skog":2692,"sub":2693,"##anis":2694,"##arande":2695,"tillhor":2696,"du":2697,"okenklimat":2698,"##raden":2699,"##ors":2700,"##ya":2701,"lik":2702,"##fall":2703,"##ux":2704,"stek":2705,"queb":2706,"con":2707,"hos":2708,"##eran":2709,"##enn":2710,"##sland":2711,"##iker":2712,"##ev":2713,"indones":2714,"11":2715,"usa":2716,"##stand":2717,"part":2718,"##landsklimat":2719,"tal":2720,"185":2721,"gav":2722,"cir":2723,"##hand":2724,"bak":2725,"##uder":2726,"##ish":2727,"##elsen":2728,"stracker":2729,"##oid":2730,"##unn":2731,"##ivis":2732,"##uvudstaden":2733,"europ":2734,"karl":2735,"lovskog":2736,"##he":2737,"##lac":2738,"##sch":2739,"beg":2740,"ca":2741,"temper":2742,"ofta":2743,"forek":2744,"##eri":2745,"##dom":2746,"indonesien":2747,"##yll":2748,"##oss":2749,"ko":2750,"##gard":2751,"tot":2752,"von":2753,"##ellt":2754,"tro":2755,"film":2756,"##by":2757,"delt":2758,"teh":2759,"##blad":2760,"##spr":2761,"helsingfors":2762,"kraft":2763,"##ition":2764,"nagra":2765,"##ila":2766,"samhallen":2767,"##veckling":2768,"##lands":2769,"medelhav":2770,"jakarta":2771,"frankrike":2772,"##hm":2773,"##gar":2774,"##skar":2775,"teheran":2776,"nordvastra":2777,"stekelart":2778,"##pt":2779,"gor":2780,"ovrig":2781,"##ota":2782,"akt":2783,"persiska":2784,"georg":2785,"##kar":2786,"he":2787,"##sf":2788,"##vag":2789,"john":2790,"fem":2791,"klad":2792,"hus":2793,"ben":2794,"tav":2795,"car":2796,"kant":2797,"satt":2798,"000":2799,"vag":2800,"##au":2801,"##af":2802,"##reg":2803,"foret":2804,"kont":2805,"##med":2806,"tran":2807,"sak":2808,"org":2809,"##arbet":2810,"dj":2811,"ekonomiska":2812,"##lan":2813,"kvinn":2814,"sand":2815,"##steklar":2816,"##odes":2817,"hennes":2818,"by":2819,"##ister":2820,"##cher":2821,"medelhavsklimat":2822,"##eborg":2823,"hall":2824,"fyra":2825,"##aster":2826,"##rav":2827,"ork":2828,"##ban":2829,"##yk":2830,"##riget":2831,"natt":2832,"area":2833,"##bo":2834,"##ide":2835,"administ":2836,"##aceae":2837,"grupp":2838,"inlandsklimat":2839,"##ua":2840,"bok":2841,"stat":2842,"period":2843,"fred":2844,"off":2845,"##olan":2846,"album":2847,"##utt":2848,"##ins":2849,"##ografi":2850,"##egor":2851,"aren":2852,"##bl":2853,"varit":2854,"fann":2855,"divis":2856,"spelade":2857,"##ita":2858,"fast":2859,"mad":2860,"##cia":2861,"##uss":2862,"gick":2863,"sten":2864,"plan":2865,"##eten":2866,"##lade":2867,"ro":2868,"inne":2869,"kh":2870,"##oth":2871,"administrat":2872,"trad":2873,"distriktet":2874,"##illa":2875,"##ire":2876,"honom":2877,"##namn":2878,"##ork":2879,"##iken":2880,"sason":2881,"medlem":2882,"gam":2883,"##bygg":2884,"borjan":2885,"naturlig":2886,"ark":2887,"mosa":2888,"end":2889,"rod":2890,"##sun":2891,"##utom":2892,"##boll":2893,"##laget":2894,"tempererat":2895,"forekomm":2896,"##ars":2897,"sang":2898,"dare":2899,"##sprung":2900,"lin":2901,"delav":2902,"amp":2903,"##kom":2904,"rio":2905,"##lex":2906,"kunde":2907,"kladogram":2908,"ursprung":2909,"sol":2910,"bara":2911,"flytt":2912,"mosaik":2913,"delavrinningsom":2914,"2000":2915,"##egron":2916,"sn":2917,"inneb":2918,"su":2919,"stadsegron":2920,"##djursart":2921,"rh":2922,"sag":2923,"blir":2924,"rak":2925,"##anien":2926,"verksam":2927,"tim":2928,"darefter":2929,"band":2930,"##emi":2931,"ru":2932,"##za":2933,"gul":2934,"kro":2935,"bil":2936,"##ric":2937,"milj":2938,"##over":2939,"intern":2940,"hela":2941,"##ico":2942,"stall":2943,"##sten":2944,"kategor":2945,"sant":2946,"prof":2947,"bade":2948,"egen":2949,"las":2950,"delavrinningsomrade":2951,"australien":2952,"2010":2953,"sid":2954,"184":2955,"ner":2956,"tan":2957,"##uth":2958,"##bb":2959,"landskapet":2960,"syn":2961,"forfatt":2962,"pre":2963,"kin":2964,"##pa":2965,"##asta":2966,"rel":2967,"bur":2968,"ham":2969,"##pper":2970,"qu":2971,"samman":2972,"cor":2973,"##alla":2974,"##one":2975,"##una":2976,"##ith":2977,"socken":2978,"##band":2979,"fisk":2980,"lu":2981,"mac":2982,"ital":2983,"##ror":2984,"gunung":2985,"kol":2986,"pat":2987,"ars":2988,"##ret":2989,"##iel":2990,"##che":2991,"kina":2992,"##tes":2993,"##rand":2994,"et":2995,"fanns":2996,"##erande":2997,"cirka":2998,"##ativ":2999,"##aka":3000,"##trad":3001,"##istan":3002,"##ix":3003,"##lass":3004,"##olf":3005,"spind":3006,"##uter":3007,"ratt":3008,"kap":3009,"fore":3010,"sim":3011,"##ktor":3012,"bj":3013,"##umb":3014,"ska":3015,"lo":3016,"cal":3017,"##otter":3018,"##alj":3019,"##ioner":3020,"kommer":3021,"kort":3022,"##ighet":3023,"god":3024,"kust":3025,"##ath":3026,"internation":3027,"monsun":3028,"inv":3029,"pop":3030,"##elm":3031,"monsunklimat":3032,"arg":3033,"##tid":3034,"wal":3035,"goteborg":3036,"omfatt":3037,"storb":3038,"innebar":3039,"##ij":3040,"##ritann":3041,"##atan":3042,"##ationer":3043,"chile":3044,"skriv":3045,"##kor":3046,"##kop":3047,"soc":3048,"##ice":3049,"##ultur":3050,"moder":3051,"pres":3052,"##arkt":3053,"os":3054,"engel":3055,"ka":3056,"##roduc":3057,"deras":3058,"num":3059,"##hj":3060,"##fordes":3061,"storbritann":3062,"im":3063,"air":3064,"dav":3065,"regnskog":3066,"skap":3067,"alger":3068,"jos":3069,"kam":3070,"vaxtart":3071,"##ros":3072,"willi":3073,"krist":3074,"##jarn":3075,"totalt":3076,"stod":3077,"bore":3078,"##lagg":3079,"gard":3080,"komp":3081,"slapp":3082,"##ress":3083,"##ain":3084,"##ez":3085,"2006":3086,"##ille":3087,"##ona":3088,"ned":3089,"##ley":3090,"##ira":3091,"red":3092,"##aget":3093,"25":3094,"##anger":3095,"anvands":3096,"##sfor":3097,"##tor":3098,"##lav":3099,"##yrka":3100,"city":3101,"##ham":3102,"sasongen":3103,"forekommer":3104,"ros":3105,"mang":3106,"##fekt":3107,"administrativ":3108,"historia":3109,"lond":3110,"hot":3111,"##naden":3112,"lok":3113,"studer":3114,"##ceae":3115,"##oner":3116,"sil":3117,"forl":3118,"##vo":3119,"dra":3120,"30":3121,"pe":3122,"medan":3123,"tri":3124,"filmen":3125,"italien":3126,"2008":3127,"norrut":3128,"countyt":3129,"regnskogsklimat":3130,"pse":3131,"storbritannien":3132,"uppg":3133,"eftersom":3134,"##its":3135,"ches":3136,"##mus":3137,"universitet":3138,"##orter":3139,"nagot":3140,"##mal":3141,"##ash":3142,"soderut":3143,"##riar":3144,"##anth":3145,"seg":3146,"deb":3147,"gener":3148,"fall":3149,"##hl":3150,"sex":3151,"2007":3152,"port":3153,"profess":3154,"endast":3155,"boreala":3156,"mann":3157,"183":3158,"hett":3159,"fotboll":3160,"ok":3161,"il":3162,"jarn":3163,"london":3164,"##bland":3165,"dam":3166,"amerikansk":3167,"pseud":3168,"can":3169,"ep":3170,"gora":3171,"##me":3172,"##hmeh":3173,"tj":3174,"vikt":3175,"los":3176,"##upp":3177,"##skil":3178,"ba":3179,"britt":3180,"langd":3181,"cheshmeh":3182,"tyskland":3183,"mitt":3184,"cl":3185,"flod":3186,"redan":3187,"##met":3188,"kn":3189,"kab":3190,"publi":3191,"mas":3192,"park":3193,"##ruktbar":3194,"##ago":3195,"##vatt":3196,"william":3197,"fun":3198,"2009":3199,"ra":3200,"##ipp":3201,"ele":3202,"myr":3203,"##20":3204,"##iko":3205,"framst":3206,"stort":3207,"##mann":3208,"ofruktbar":3209,"ast":3210,"idag":3211,"##ane":3212,"antal":3213,"##ske":3214,"kron":3215,"##par":3216,"##ucn":3217,"ps":3218,"##rog":3219,"##huvudstaden":3220,"##sar":3221,"varier":3222,"iucn":3223,"klubb":3224,"ons":3225,"##eller":3226,"aldre":3227,"mod":3228,"##ymp":3229,"##omy":3230,"##iella":3231,"program":3232,"tjan":3233,"##ox":3234,"##nade":3235,"##itar":3236,"##onia":3237,"mont":3238,"2011":3239,"##eringen":3240,"##ika":3241,"tex":3242,"##cis":3243,"##elser":3244,"bal":3245,"hur":3246,"tit":3247,"##adi":3248,"##elli":3249,"ga":3250,"##amot":3251,"spec":3252,"fatt":3253,"kantonen":3254,"##vit":3255,"hy":3256,"varm":3257,"ford":3258,"jap":3259,"##ej":3260,"##rift":3261,"osterut":3262,"##bert":3263,"pet":3264,"brasilien":3265,"utt":3266,"##ert":3267,"vasterut":3268,"##etenskap":3269,"mari":3270,"sna":3271,"djur":3272,"vissa":3273,"christ":3274,"2005":3275,"quebec":3276,"sing":3277,"##ive":3278,"republi":3279,"hekt":3280,"moj":3281,"bla":3282,"##mo":3283,"fag":3284,"##ani":3285,"prakt":3286,"tillb":3287,"hektar":3288,"com":3289,"og":3290,"sista":3291,"mart":3292,"delar":3293,"##lut":3294,"od":3295,"##atet":3296,"nagon":3297,"skrev":3298,"olymp":3299,"2016":3300,"sma":3301,"kultur":3302,"koh":3303,"##slag":3304,"repres":3305,"##ke":3306,"21":3307,"bul":3308,"glob":3309,"##iserar":3310,"2004":3311,"pri":3312,"##heter":3313,"##als":3314,"##eta":3315,"bon":3316,"ander":3317,"lund":3318,"##forande":3319,"1990":3320,"bada":3321,"forsk":3322,"##ela":3323,"start":3324,"##adespel":3325,"guld":3326,"##port":3327,"##ament":3328,"ovrigt":3329,"slutet":3330,"kr":3331,"lind":3332,"##bin":3333,"if":3334,"gamla":3335,"lep":3336,"utveck":3337,"##ras":3338,"pass":3339,"tar":3340,"colomb":3341,"organis":3342,"##tan":3343,"24":3344,"inst":3345,"2012":3346,"varje":3347,"ytter":3348,"vad":3349,"sveriges":3350,"slag":3351,"##stallet":3352,"mexiko":3353,"tred":3354,"1980":3355,"delstats":3356,"##hov":3357,"grek":3358,"kyrkan":3359,"ul":3360,"personer":3361,"##terna":3362,"##slut":3363,"island":3364,"und":3365,"##utveckling":3366,"##erv":3367,"##vern":3368,"halv":3369,"krig":3370,"##ood":3371,"##rov":3372,"kategoriserar":3373,"##yo":3374,"lev":3375,"mic":3376,"##ekn":3377,"100":3378,"delstatshuvudstaden":3379,"plat":3380,"vilken":3381,"##rupper":3382,"foren":3383,"forbund":3384,"1970":3385,"##eum":3386,"##igen":3387,"fortsatt":3388,"mak":3389,"2014":3390,"deltog":3391,"rost":3392,"##bund":3393,"oper":3394,"##oren":3395,"england":3396,"mannisk":3397,"svart":3398,"fukt":3399,"##bladig":3400,"spanien":3401,"istallet":3402,"##lingen":3403,"bety":3404,"kallas":3405,"##rond":3406,"##ho":3407,"##igheter":3408,"peter":3409,"##ps":3410,"vit":3411,"west":3412,"##sning":3413,"tyska":3414,"##ene":3415,"##ikt":3416,"##iat":3417,"darfor":3418,"##ama":3419,"##amb":3420,"##sg":3421,"gal":3422,"23":3423,"##lades":3424,"##ident":3425,"##ckt":3426,"##ebel":3427,"fang":3428,"##lis":3429,"vatt":3430,"##erg":3431,"##mat":3432,"ho":3433,"schw":3434,"hoj":3435,"##lek":3436,"ud":3437,"##ema":3438,"ek":3439,"barr":3440,"##asa":3441,"##cus":3442,"##ligare":3443,"1960":3444,"##hjart":3445,"saint":3446,"hu":3447,"lyck":3448,"popul":3449,"dire":3450,"samband":3451,"##val":3452,"##delen":3453,"myn":3454,"2015":3455,"upps":3456,"##oni":3457,"tel":3458,"##lit":3459,"tiden":3460,"kines":3461,"eu":3462,"skadespel":3463,"spar":3464,"##burg":3465,"##borg":3466,"kur":3467,"##chen":3468,"##ward":3469,"##ilis":3470,"me":3471,"##innare":3472,"##flyn":3473,"22":3474,"paul":3475,"system":3476,"##horningar":3477,"##ologi":3478,"vidare":3479,"hol":3480,"nattflyn":3481,"no":3482,"infor":3483,"sjuk":3484,"subt":3485,"##vard":3486,"afg":3487,"my":3488,"##rang":3489,"johan":3490,"samtid":3491,"avvatt":3492,"stockholms":3493,"##elt":3494,"##jon":3495,"##ags":3496,"##opter":3497,"##itut":3498,"##ario":3499,"##skolan":3500,"utbild":3501,"##ies":3502,"spindelart":3503,"gangen":3504,"rab":3505,"na":3506,"alex":3507,"divisionen":3508,"ror":3509,"delas":3510,"befolknings":3511,"hor":3512,"mun":3513,"##opsis":3514,"johann":3515,"##fer":3516,"2013":3517,"fj":3518,"2002":3519,"fle":3520,"ovan":3521,"produc":3522,"rum":3523,"bat":3524,"slutt":3525,"##itz":3526,"grav":3527,"afghan":3528,"tag":3529,"charl":3530,"##amen":3531,"kvinnor":3532,"roll":3533,"##hjartbladig":3534,"ref":3535,"to":3536,"sad":3537,"##asit":3538,"##her":3539,"periodiskt":3540,"serien":3541,"hjalp":3542,"##ker":3543,"gron":3544,"brasilia":3545,"pas":3546,"##roc":3547,"tall":3548,"hast":3549,"181":3550,"tekn":3551,"##que":3552,"tillverk":3553,"rev":3554,"gift":3555,"star":3556,"2018":3557,"reproduc":3558,"##rack":3559,"26":3560,"bog":3561,"2003":3562,"svampart":3563,"##nat":3564,"1999":3565,"##ordes":3566,"mis":3567,"##lopp":3568,"##spind":3569,"styr":3570,"laten":3571,"afghanistan":3572,"lamn":3573,"##sprak":3574,"##ias":3575,"##kn":3576,"##andra":3577,"##stroms":3578,"##helm":3579,"prin":3580,"innehall":3581,"28":3582,"bay":3583,"##oides":3584,"lou":3585,"helt":3586,"ent":3587,"franska":3588,"klass":3589,"befolkningsutveckling":3590,"matare":3591,"bruk":3592,"##skriget":3593,"##ale":3594,"arrond":3595,"forsvar":3596,"##nader":3597,"produkt":3598,"arrondiss":3599,"kring":3600,"##iens":3601,"##iro":3602,"fuktigt":3603,"op":3604,"ban":3605,"mu":3606,"phil":3607,"subtropiskt":3608,"mexico":3609,"27":3610,"##omyia":3611,"erik":3612,"plac":3613,"kvar":3614,"##adem":3615,"nom":3616,"barrskog":3617,"indien":3618,"gud":3619,"##iaceae":3620,"uppta":3621,"arkit":3622,"##iana":3623,"##ommun":3624,"##jarvi":3625,"##bor":3626,"kabul":3627,"kallar":3628,"ganger":3629,"uts":3630,"nast":3631,"thom":3632,"mich":3633,"##efar":3634,"reproducerande":3635,"skiv":3636,"##gor":3637,"kustklimat":3638,"##opro":3639,"##sst":3640,"##okrat":3641,"arrondissementet":3642,"ljus":3643,"pan":3644,"182":3645,"gro":3646,"karriar":3647,"##lat":3648,"1900":3649,"##lingar":3650,"jag":3651,"sym":3652,"##rika":3653,"kval":3654,"##وه":3655,"sur":3656,"rek":3657,"##icus":3658,"ont":3659,"vard":3660,"##ogs":3661,"bran":3662,"##otten":3663,"skar":3664,"biografi":3665,"##spelare":3666,"argent":3667,"##fil":3668,"##adels":3669,"jon":3670,"##uren":3671,"grev":3672,"##jo":3673,"180":3674,"fal":3675,"sluttar":3676,"paris":3677,"mestadels":3678,"columb":3679,"provincia":3680,"utanfor":3681,"albumet":3682,"ev":3683,"ton":3684,"##ydd":3685,"riksd":3686,"danmark":3687,"##plats":3688,"medverk":3689,"##ystem":3690,"ytan":3691,"##esi":3692,"amerikanska":3693,"framgang":3694,"##ima":3695,"##rada":3696,"samtidigt":3697,"riks":3698,"##bild":3699,"##bro":3700,"##ate":3701,"##ria":3702,"2001":3703,"##ides":3704,"kalla":3705,"sprak":3706,"##spindlar":3707,"camp":3708,"tredje":3709,"##jen":3710,"##plan":3711,"engelska":3712,"##uel":3713,"##anda":3714,"guvern":3715,"uppsala":3716,"ras":3717,"ungefar":3718,"2017":3719,"##ino":3720,"koud":3721,"pra":3722,"sarskil":3723,"globalt":3724,"vilka":3725,"national":3726,"pi":3727,"##unta":3728,"bildades":3729,"mots":3730,"blad":3731,"##uan":3732,"kinesiska":3733,"utgor":3734,"##vande":3735,"aret":3736,"##far":3737,"basta":3738,"##iy":3739,"##skan":3740,"brit":3741,"vm":3742,"colombia":3743,"byggdes":3744,"typ":3745,"blivit":3746,"##ole":3747,"##ism":3748,"##sc":3749,"public":3750,"##stid":3751,"##liv":3752,"##anden":3753,"olympiska":3754,"1998":3755,"riket":3756,"lans":3757,"strand":3758,"ly":3759,"ytterligare":3760,"george":3761,"##oa":3762,"##spinnare":3763,"holl":3764,"ontario":3765,"##aler":3766,"vattnet":3767,"##ordning":3768,"offic":3769,"rober":3770,"##ci":3771,"langhorningar":3772,"##rades":3773,"long":3774,"sem":3775,"nuv":3776,"##oder":3777,"river":3778,"##album":3779,"##cha":3780,"##gr":3781,"mountain":3782,"##lats":3783,"savannskog":3784,"1971":3785,"york":3786,"##orer":3787,"##ini":3788,"ass":3789,"ersatt":3790,"mott":3791,"bid":3792,"##mast":3793,"mc":3794,"ou":3795,"vic":3796,"##stan":3797,"ibland":3798,"tom":3799,"loma":3800,"allman":3801,"nuvarande":3802,"trots":3803,"kyrka":3804,"madrid":3805,"mol":3806,"1992":3807,"##aris":3808,"##gj":3809,"29":3810,"stand":3811,"31":3812,"rec":3813,"ren":3814,"herc":3815,"ledamot":3816,"bergst":3817,"bosn":3818,"##ojden":3819,"framfor":3820,"pris":3821,"maria":3822,"##elle":3823,"arab":3824,"##agare":3825,"##ryck":3826,"1994":3827,"don":3828,"vers":3829,"british":3830,"alt":3831,"##rol":3832,"gt":3833,"tillbaka":3834,"jur":3835,"##kan":3836,"##komm":3837,"south":3838,"ir":3839,"bed":3840,"go":3841,"svar":3842,"andre":3843,"##ocko":3844,"enda":3845,"##ios":3846,"dessutom":3847,"flyttade":3848,"##ytor":3849,"hamn":3850,"chef":3851,"##sman":3852,"1950":3853,"mur":3854,"dotter":3855,"landsk":3856,"santi":3857,"frag":3858,"pu":3859,"varierad":3860,"tysk":3861,"der":3862,"krit":3863,"tak":3864,"forn":3865,"##omen":3866,"##arktis":3867,"hitt":3868,"louis":3869,"lever":3870,"dis":3871,"##ockey":3872,"igen":3873,"##kter":3874,"columbia":3875,"sommar":3876,"jean":3877,"##ritar":3878,"uppstroms":3879,"ordforande":3880,"##ori":3881,"ring":3882,"teck":3883,"inled":3884,"studerade":3885,"##stritar":3886,"sov":3887,"oversatt":3888,"##iner":3889,"lt":3890,"beratt":3891,"spelar":3892,"cap":3893,"##istiska":3894,"fer":3895,"kanda":3896,"slott":3897,"##lid":3898,"##iteten":3899,"quebrada":3900,"annan":3901,"1996":3902,"hov":3903,"darmed":3904,"beskriv":3905,"est":3906,"santiago":3907,"distrikt":3908,"smhi":3909,"kallade":3910,"jawa":3911,"##yggor":3912,"marocko":3913,"##sjon":3914,"##edon":3915,"gif":3916,"full":3917,"social":3918,"##jarnen":3919,"##vid":3920,"##ierna":3921,"rock":3922,"##artyg":3923,"##ht":3924,"county":3925,"rabat":3926,"##ocker":3927,"##rim":3928,"tvahjartbladig":3929,"##rus":3930,"##ester":3931,"az":3932,"##skola":3933,"sek":3934,"##hu":3935,"##ign":3936,"##pha":3937,"1995":3938,"heter":3939,"beslut":3940,"vattenytor":3941,"henne":3942,"##apen":3943,"1991":3944,"##inner":3945,"##oprocent":3946,"pot":3947,"##roll":3948,"nat":3949,"sjoprocent":3950,"gruppen":3951,"##ador":3952,"arkitekt":3953,"representer":3954,"ordningen":3955,"udde":3956,"dor":3957,"punta":3958,"bjorn":3959,"roman":3960,"raknas":3961,"bandet":3962,"##jet":3963,"jac":3964,"medelhojden":3965,"bort":3966,"strid":3967,"bosnien":3968,"1997":3969,"1993":3970,"professor":3971,"##jung":3972,"vald":3973,"forfattare":3974,"##forde":3975,"kunna":3976,"tam":3977,"ryska":3978,"##ly":3979,"ledde":3980,"bir":3981,"vetenskap":3982,"cast":3983,"ram":3984,"##do":3985,"##fin":3986,"##rot":3987,"nil":3988,"eli":3989,"slapptes":3990,"europa":3991,"post":3992,"##serv":3993,"##ovina":3994,"mare":3995,"##horde":3996,"magn":3997,"jab":3998,"##ych":3999,"bib":4000,"robert":4001,"herceg":4002,"##skraft":4003,"tjanst":4004,"##jekt":4005,"vaxter":4006,"nytt":4007,"hill":4008,"sw":4009,"forsok":4010,"1930":4011,"##mask":4012,"gust":4013,"klubben":4014,"##aland":4015,"buk":4016,"##osp":4017,"miljoner":4018,"##usa":4019,"##ele":4020,"ryss":4021,"tack":4022,"##out":4023,"hed":4024,"sarskilt":4025,"vall":4026,"arter":4027,"utveckling":4028,"##farande":4029,"wilhelm":4030,"##blem":4031,"##fjaril":4032,"flesta":4033,"gh":4034,"lam":4035,"179":4036,"kropp":4037,"sum":4038,"##lo":4039,"sall":4040,"##ure":4041,"lud":4042,"##avax":4043,"##ument":4044,"arbetade":4045,"bifl":4046,"##bergs":4047,"santa":4048,"hercegovina":4049,"mes":4050,"vik":4051,"##alus":4052,"rid":4053,"1988":4054,"gustav":4055,"50":4056,"hyp":4057,"##age":4058,"utgiv":4059,"##lassen":4060,"bos":4061,"brun":4062,"befolkningen":4063,"stjarn":4064,"2019":4065,"##elia":4066,"##ideer":4067,"fre":4068,"ins":4069,"ten":4070,"bogota":4071,"fiskart":4072,"1920":4073,"teng":4074,"##ns":4075,"##fjarilar":4076,"##orts":4077,"grand":4078,"##ben":4079,"ii":4080,"mos":4081,"##eiz":4082,"kra":4083,"charles":4084,"exp":4085,"back":4086,"lapp":4087,"##staende":4088,"ox":4089,"orkideer":4090,"1800":4091,"##oul":4092,"##kel":4093,"kraftdjursart":4094,"65":4095,"aster":4096,"##rans":4097,"کوه":4098,"bad":4099,"president":4100,"##ivid":4101,"##ji":4102,"cy":4103,"vir":4104,"anstall":4105,"provinsh":4106,"vux":4107,"bod":4108,"argentina":4109,"##ero":4110,"omrade":4111,"##staf":4112,"gem":4113,"##osof":4114,"ain":4115,"bost":4116,"##mos":4117,"samarbet":4118,"vars":4119,"via":4120,"domin":4121,"##hamn":4122,"fortfarande":4123,"##arp":4124,"nig":4125,"veck":4126,"fried":4127,"##isse":4128,"slutade":4129,"rob":4130,"provinshuvudstaden":4131,"##fot":4132,"langre":4133,"##bart":4134,"bergstopp":4135,"jo":4136,"##holl":4137,"kir":4138,"##ski":4139,"arm":4140,"norge":4141,"sara":4142,"##ophor":4143,"##inna":4144,"wh":4145,"1989":4146,"numera":4147,"skol":4148,"1940":4149,"hojd":4150,"gol":4151,"##unda":4152,"alf":4153,"algeriet":4154,"lander":4155,"desa":4156,"tet":4157,"##eld":4158,"kul":4159,"##br":4160,"innehaller":4161,"sat":4162,"1974":4163,"##ney":4164,"##varg":4165,"individ":4166,"km²":4167,"rud":4168,"priv":4169,"##ette":4170,"##under":4171,"avrinningsomraden":4172,"##olut":4173,"##gren":4174,"orkid":4175,"varldskriget":4176,"1952":4177,"dr":4178,"##eira":4179,"1987":4180,"schweiz":4181,"##ots":4182,"##go":4183,"bud":4184,"pos":4185,"##sid":4186,"1984":4187,"ax":4188,"##atum":4189,"##nal":4190,"silver":4191,"##anus":4192,"konstnar":4193,"1986":4194,"varav":4195,"##ova":4196,"republiken":4197,"orkideart":4198,"##ktion":4199,"##ni":4200,"##les":4201,"ovriga":4202,"djup":4203,"um":4204,"district":4205,"neder":4206,"##bel":4207,"regering":4208,"foretag":4209,"avvattnar":4210,"sel":4211,"stift":4212,"##grupp":4213,"flodar":4214,"##ulata":4215,"maste":4216,"##jer":4217,"##ustri":4218,"##be":4219,"europe":4220,"north":4221,"##ulus":4222,"infl":4223,"##hang":4224,"##rys":4225,"##emat":4226,"brev":4227,"ven":4228,"##ampar":4229,"dyn":4230,"rit":4231,"##hal":4232,"matt":4233,"hom":4234,"poang":4235,"biflodes":4236,"biflodesordning":4237,"##loss":4238,"nad":4239,"sovjet":4240,"bern":4241,"##spelen":4242,"dol":4243,"past":4244,"direkt":4245,"kallad":4246,"praktfjarilar":4247,"varlden":4248,"dog":4249,"snabb":4250,"grundades":4251,"1979":4252,"svampar":4253,"egent":4254,"##abrik":4255,"utgav":4256,"##ite":4257,"##ernas":4258,"rich":4259,"64":4260,"dvarg":4261,"meg":4262,"ursprungligen":4263,"##uch":4264,"##raff":4265,"litter":4266,"inat":4267,"anvandes":4268,"skall":4269,"hum":4270,"alexander":4271,"##iti":4272,"thomas":4273,"1968":4274,"##ado":4275,"ped":4276,"ran":4277,"exempelvis":4278,"historik":4279,"we":4280,"latt":4281,"1985":4282,"pen":4283,"motsvar":4284,"betyd":4285,"sidan":4286,"brok":4287,"##tern":4288,"jabal":4289,"##lor":4290,"delhi":4291,"##myggor":4292,"aldrig":4293,"##vik":4294,"friedrich":4295,"##folj":4296,"1972":4297,"bou":4298,"##bil":4299,"kej":4300,"vol":4301,"ej":4302,"##ito":4303,"bror":4304,"ef":4305,"1982":4306,"##olit":4307,"##aggar":4308,"##amo":4309,"david":4310,"behand":4311,"##foren":4312,"##emiar":4313,"fas":4314,"livskraft":4315,"laget":4316,"gym":4317,"1983":4318,"##lik":4319,"##pan":4320,"stil":4321,"miss":4322,"por":4323,"ker":4324,"ste":4325,"max":4326,"##ylla":4327,"tradition":4328,"dip":4329,"1976":4330,"filosof":4331,"krav":4332,"osterrike":4333,"minn":4334,"jud":4335,"##oster":4336,"arro":4337,"ish":4338,"kriget":4339,"##ige":4340,"joseph":4341,"bag":4342,"pil":4343,"##dern":4344,"central":4345,"##jor":4346,"traf":4347,"##reh":4348,"stark":4349,"spelades":4350,"##ilus":4351,"langt":4352,"malmo":4353,"1981":4354,"gustaf":4355,"##inus":4356,"1962":4357,"luc":4358,"##repp":4359,"horn":4360,"##orten":4361,"just":4362,"avslut":4363,"##igheten":4364,"berlin":4365,"##ions":4366,"tab":4367,"##bj":4368,"internationella":4369,"aktiv":4370,"omraden":4371,"##uta":4372,"studier":4373,"sab":4374,"kara":4375,"##erus":4376,"178":4377,"1967":4378,"##inal":4379,"jarnvag":4380,"fredrik":4381,"wien":4382,"##bi":4383,"##lack":4384,"##koping":4385,"##ali":4386,"brook":4387,"##jas":4388,"##ote":4389,"sund":4390,"##iellt":4391,"oft":4392,"##use":4393,"resp":4394,"##rost":4395,"livskraftig":4396,"##hav":4397,"##sked":4398,"##parasit":4399,"varmt":4400,"##rikt":4401,"1973":4402,"##uz":4403,"cha":4404,"brokparasit":4405,"brokparasitsteklar":4406,"belagen":4407,"division":4408,"bre":4409,"hopp":4410,"farg":4411,"sasom":4412,"##50":4413,"1977":4414,"##ven":4415,"matcher":4416,"##hop":4417,"##ko":4418,"modern":4419,"1969":4420,"leon":4421,"henry":4422,"##inia":4423,"trol":4424,"1964":4425,"verksamhet":4426,"motor":4427,"lamnade":4428,"##korea":4429,"forlor":4430,"francis":4431,"fel":4432,"40":4433,"##urs":4434,"asteroid":4435,"coll":4436,"1978":4437,"manniskor":4438,"inkl":4439,"##huset":4440,"lab":4441,"sju":4442,"##river":4443,"##vist":4444,"1975":4445,"oc":4446,"##ifoli":4447,"##nande":4448,"elekt":4449,"kons":4450,"##lick":4451,"liksom":4452,"harad":4453,"boken":4454,"pla":4455,"armen":4456,"edward":4457,"##wan":4458,"skadespelare":4459,"gras":4460,"177":4461,"nastan":4462,"##iri":4463,"##oden":4464,"##grund":4465,"general":4466,"leg":4467,"institut":4468,"airport":4469,"##inge":4470,"foretaget":4471,"ali":4472,"mitten":4473,"##fisk":4474,"ungdom":4475,"eup":4476,"gifte":4477,"tillfall":4478,"egna":4479,"##seende":4480,"##osten":4481,"##isseau":4482,"wadi":4483,"haft":4484,"##tus":4485,"1965":4486,"ruisseau":4487,"saga":4488,"##cens":4489,"##otek":4490,"##vet":4491,"cla":4492,"##tra":4493,"es":4494,"##uterade":4495,"##blomm":4496,"klassen":4497,"politiker":4498,"medlemmar":4499,"fortsatte":4500,"ot":4501,"##ugh":4502,"##sjo":4503,"1910":4504,"upptackt":4505,"mord":4506,"##pun":4507,"torn":4508,"ec":4509,"##ng":4510,"kopp":4511,"##anc":4512,"##enos":4513,"##arden":4514,"arabiska":4515,"aut":4516,"bek":4517,"##stor":4518,"nomin":4519,"alder":4520,"cur":4521,"result":4522,"1945":4523,"visar":4524,"gamm":4525,"martin":4526,"aff":4527,"slakt":4528,"##ior":4529,"riksdelen":4530,"##hog":4531,"##own":4532,"##olen":4533,"##ophila":4534,"cm":4535,"##eles":4536,"ansvar":4537,"james":4538,"##slandet":4539,"##ty":4540,"eta":4541,"ack":4542,"cam":4543,"##bundet":4544,"not":4545,"tang":4546,"oftast":4547,"##inska":4548,"##amerik":4549,"##ativt":4550,"sasong":4551,"relig":4552,"yta":4553,"##atter":4554,"teater":4555,"##oende":4556,"riv":4557,"fotbolls":4558,"##zz":4559,"brittiska":4560,"dram":4561,"##loppet":4562,"ni":4563,"smith":4564,"##rick":4565,"##ense":4566,"vas":4567,"rest":4568,"landskommun":4569,"1939":4570,"militar":4571,"1912":4572,"##gick":4573,"forutom":4574,"vanligt":4575,"spela":4576,"brack":4577,"uppgick":4578,"1966":4579,"##landska":4580,"ti":4581,"pav":4582,"anda":4583,"medic":4584,"##ju":4585,"sta":4586,"dubb":4587,"prag":4588,"problem":4589,"dok":4590,"##los":4591,"serie":4592,"master":4593,"orsak":4594,"1914":4595,"turn":4596,"jar":4597,"##ano":4598,"##acken":4599,"##icola":4600,"##ogon":4601,"##cip":4602,"cup":4603,"vuxna":4604,"skill":4605,"ske":4606,"flock":4607,"ghar":4608,"##iidae":4609,"djebel":4610,"##skrift":4611,"byggnad":4612,"forsamlingen":4613,"##add":4614,"asp":4615,"rub":4616,"artvaxter":4617,"1938":4618,"500":4619,"hard":4620,"vel":4621,"brand":4622,"##car":4623,"##oda":4624,"ore":4625,"suc":4626,"fur":4627,"##oba":4628,"lept":4629,"##ynd":4630,"ken":4631,"##formen":4632,"##aph":4633,"##slandeart":4634,"les":4635,"lim":4636,"premiar":4637,"mast":4638,"disk":4639,"##angd":4640,"##maskart":4641,"reserv":4642,"kungliga":4643,"##huvud":4644,"##nades":4645,"procent":4646,"liten":4647,"fly":4648,"respekt":4649,"##slandor":4650,"bru":4651,"##ogen":4652,"##ific":4653,"kanal":4654,"war":4655,"hogre":4656,"anton":4657,"forbundslandet":4658,"unger":4659,"mand":4660,"##got":4661,"cat":4662,"##ush":4663,"##orm":4664,"spor":4665,"ide":4666,"langa":4667,"##aca":4668,"ville":4669,"##ague":4670,"dans":4671,"##osc":4672,"glac":4673,"skick":4674,"uppdrag":4675,"##ellen":4676,"##iskop":4677,"black":4678,"##len":4679,"1961":4680,"##rikes":4681,"##aea":4682,"gla":4683,"vapen":4684,"1913":4685,"luft":4686,"1963":4687,"##ifor":4688,"bank":4689,"skott":4690,"cro":4691,"kamp":4692,"darreh":4693,"hack":4694,"peak":4695,"behov":4696,"riksdag":4697,"trafik":4698,"arbete":4699,"##ologiska":4700,"##kall":4701,"student":4702,"##iter":4703,"yng":4704,"annu":4705,"anna":4706,"bill":4707,"svens":4708,"vanlig":4709,"##illi":4710,"##rem":4711,"##cho":4712,"##verket":4713,"1908":4714,"saker":4715,"bab":4716,"##ennis":4717,"trich":4718,"inf":4719,"lyckades":4720,"##yst":4721,"##si":4722,"1911":4723,"grad":4724,"regiss":4725,"salt":4726,"ple":4727,"##uva":4728,"fard":4729,"laguna":4730,"byn":4731,"fra":4732,"##ze":4733,"1941":4734,"##onom":4735,"##anthus":4736,"avsnitt":4737,"##onst":4738,"char":4739,"orten":4740,"kas":4741,"2020":4742,"egyp":4743,"text":4744,"politiska":4745,"samling":4746,"##etes":4747,"1936":4748,"guvernementet":4749,"unders":4750,"lagen":4751,"##okte":4752,"dagar":4753,"tio":4754,"##urus":4755,"1918":4756,"indel":4757,"teg":4758,"##etter":4759,"das":4760,"pier":4761,"fartyg":4762,"##oper":4763,"ryssland":4764,"ke":4765,"ori":4766,"1958":4767,"1956":4768,"victor":4769,"lika":4770,"hein":4771,"langs":4772,"liban":4773,"klock":4774,"litt":4775,"territ":4776,"##rep":4777,"##san":4778,"hab":4779,"atta":4780,"##omat":4781,"somm":4782,"##we":4783,"bosatt":4784,"##jevo":4785,"##eau":4786,"prefekt":4787,"johannes":4788,"lav":4789,"betydel":4790,"##arnas":4791,"##tradde":4792,"viss":4793,"##jut":4794,"sjalva":4795,"kast":4796,"nas":4797,"artvaxtart":4798,"herr":4799,"##ifter":4800,"jour":4801,"bol":4802,"forhall":4803,"ober":4804,"ig":4805,"##rip":4806,"tillhorde":4807,"richard":4808,"1957":4809,"##yx":4810,"app":4811,"##iop":4812,"1917":4813,"flor":4814,"rap":4815,"forest":4816,"##arie":4817,"##ael":4818,"##lund":4819,"##otus":4820,"utbredning":4821,"gjort":4822,"stam":4823,"feder":4824,"##samhet":4825,"tanjung":4826,"##tag":4827,"##oz":4828,"dvargstritar":4829,"prote":4830,"1948":4831,"goteborgs":4832,"##ield":4833,"##omyc":4834,"christian":4835,"uppfordes":4836,"insp":4837,"spelare":4838,"##arten":4839,"##atern":4840,"biart":4841,"##hem":4842,"super":4843,"utom":4844,"##ylt":4845,"1924":4846,"1928":4847,"astron":4848,"1944":4849,"arroyo":4850,"norm":4851,"bestam":4852,"boli":4853,"##rh":4854,"aires":4855,"amb":4856,"ansprak":4857,"##ruz":4858,"tol":4859,"regeringen":4860,"##shus":4861,"anses":4862,"##vingar":4863,"##pe":4864,"buenos":4865,"tu":4866,"dig":4867,"scen":4868,"1959":4869,"##eland":4870,"##ulerade":4871,"##eria":4872,"skul":4873,"university":4874,"fjar":4875,"tjeck":4876,"##eth":4877,"##edel":4878,"60":4879,"vat":4880,"lappland":4881,"##vig":4882,"league":4883,"handling":4884,"##aw":4885,"1907":4886,"utover":4887,"dels":4888,"##ye":4889,"1906":4890,"industri":4891,"begrav":4892,"##ringar":4893,"skydd":4894,"sankt":4895,"##illo":4896,"formula":4897,"##tera":4898,"ern":4899,"blom":4900,"fransk":4901,"gast":4902,"neg":4903,"avled":4904,"proc":4905,"skolan":4906,"gil":4907,"##isa":4908,"borg":4909,"debut":4910,"varandra":4911,"effekt":4912,"pap":4913,"galler":4914,"dansk":4915,"1926":4916,"vitt":4917,"omfattar":4918,"grevskapet":4919,"timur":4920,"startade":4921,"##alm":4922,"maur":4923,"##cep":4924,"##bok":4925,"##organis":4926,"rol":4927,"civ":4928,"##urn":4929,"1909":4930,"nam":4931,"grekland":4932,"##off":4933,"##valt":4934,"##olor":4935,"##inen":4936,"1927":4937,"1929":4938,"1933":4939,"##sla":4940,"titeln":4941,"##zar":4942,"1937":4943,"tas":4944,"europeiska":4945,"stats":4946,"utstall":4947,"##cke":4948,"1955":4949,"##rifter":4950,"fest":4951,"sarajevo":4952,"1919":4953,"mi":4954,"1932":4955,"##wig":4956,"milit":4957,"cas":4958,"##kopings":4959,"medverkade":4960,"it":4961,"bracksteklar":4962,"##ump":4963,"match":4964,"##fag":4965,"##iforn":4966,"##iff":4967,"valk":4968,"finska":4969,"bry":4970,"1954":4971,"##igur":4972,"1947":4973,"vinter":4974,"##mak":4975,"##marker":4976,"##derna":4977,"##eus":4978,"but":4979,"1935":4980,"1942":4981,"funger":4982,"##anter":4983,"1934":4984,"##enten":4985,"##ingo":4986,"1953":4987,"##opa":4988,"##stads":4989,"##chus":4990,"70":4991,"##tida":4992,"ingick":4993,"##unnit":4994,"huset":4995,"##svampar":4996,"respektive":4997,"pel":4998,"drott":4999,"##atis":5000,"kri":5001,"foddes":5002,"fys":5003,"##lam":5004,"leuc":5005,"1925":5006,"utnamn":5007,"sommarspelen":5008,"drag":5009,"uppe":5010,"rym":5011,"artik":5012,"batt":5013,"kroat":5014,"japan":5015,"adolf":5016,"1905":5017,"gavs":5018,"gab":5019,"wales":5020,"##po":5021,"##pro":5022,"##rattades":5023,"##onn":5024,"flertal":5025,"##dar":5026,"1949":5027,"##hur":5028,"tilldel":5029,"1921":5030,"run":5031,"ljung":5032,"##isten":5033,"muse":5034,"fakt":5035,"holm":5036,"##ensam":5037,"##histor":5038,"##smann":5039,"##ight":5040,"##stein":5041,"bast":5042,"1943":5043,"1946":5044,"##garden":5045,"bestod":5046,"1951":5047,"lanet":5048,"##bat":5049,"sked":5050,"##sled":5051,"inform":5052,"1922":5053,"beteck":5054,"gott":5055,"fru":5056,"uppmark":5057,"176":5058,"avs":5059,"anders":5060,"##ager":5061,"1916":5062,"##ti":5063,"##arer":5064,"sida":5065,"driv":5066,"1915":5067,"fader":5068,"nik":5069,"vart":5070,"1931":5071,"##iph":5072,"vattendraget":5073,"byggnaden":5074,"##skaper":5075,"##mor":5076,"forand":5077,"##ivt":5078,"bakom":5079,"flockblomm":5080,"##agn":5081,"klar":5082,"nav":5083,"konk":5084,"fagel":5085,"##fort":5086,"##kv":5087,"##inne":5088,"anvanda":5089,"stj":5090,"##baggar":5091,"##axa":5092,"tving":5093,"anvandas":5094,"invig":5095,"##falt":5096,"starkt":5097,"##opus":5098,"him":5099,"offent":5100,"##dal":5101,"alv":5102,"##enser":5103,"lange":5104,"##yrkan":5105,"overt":5106,"moh":5107,"boh":5108,"dari":5109,"psyk":5110,"##edes":5111,"samhallet":5112,"jes":5113,"nummer":5114,"##rien":5115,"stader":5116,"##mare":5117,"kandid":5118,"turk":5119,"##landet":5120,"lager":5121,"1923":5122,"##sma":5123,"##fen":5124,"kopen":5125,"##svaxter":5126,"ki":5127,"ret":5128,"##anga":5129,"bah":5130,"museum":5131,"tand":5132,"antarktis":5133,"vanligen":5134,"journal":5135,"sof":5136,"py":5137,"partiet":5138,"##sidan":5139,"##con":5140,"ackum":5141,"##lia":5142,"mala":5143,"##orl":5144,"dat":5145,"skilj":5146,"aten":5147,"bytt":5148,"tidningen":5149,"##way":5150,"##asp":5151,"##unc":5152,"##liotek":5153,"##ugg":5154,"##ui":5155,"##uella":5156,"brott":5157,"handels":5158,"ze":5159,"##skatt":5160,"mik":5161,"kallades":5162,"##yllum":5163,"##skriv":5164,"##anten":5165,"sydkorea":5166,"tavling":5167,"##lak":5168,"##aj":5169,"lant":5170,"kopenhamn":5171,"strax":5172,"iii":5173,"seoul":5174,"##bas":5175,"inspel":5176,"meddel":5177,"##via":5178,"hit":5179,"##bra":5180,"spelat":5181,"drog":5182,"##mel":5183,"##ulla":5184,"##emot":5185,"##chi":5186,"##ania":5187,"liknande":5188,"gemensam":5189,"##fora":5190,"##sport":5191,"rav":5192,"1904":5193,"bot":5194,"svan":5195,"latar":5196,"##ere":5197,"tank":5198,"##atsen":5199,"##oarna":5200,"parl":5201,"pod":5202,"brittisk":5203,"rapp":5204,"80":5205,"parti":5206,"besok":5207,"dic":5208,"##hou":5209,"albert":5210,"au":5211,"nere":5212,"dub":5213,"##zi":5214,"##vagen":5215,"##stam":5216,"vari":5217,"massa":5218,"##agar":5219,"nadde":5220,"##reb":5221,"##staur":5222,"ju":5223,"togs":5224,"juv":5225,"##dem":5226,"ackumulerade":5227,"grupper":5228,"##olon":5229,"henrik":5230,"##30":5231,"##ink":5232,"##terade":5233,"fotbollsspelare":5234,"bakgrund":5235,"ishockey":5236,"rund":5237,"mj":5238,"hert":5239,"fores":5240,"spelet":5241,"ses":5242,"##mon":5243,"upplag":5244,"##stod":5245,"kli":5246,"##anna":5247,"##zo":5248,"gransen":5249,"otto":5250,"samtliga":5251,"##rust":5252,"vaxte":5253,"alto":5254,"strom":5255,"##svaxtart":5256,"entiteten":5257,"sold":5258,"major":5259,"##tiden":5260,"ges":5261,"idrott":5262,"romer":5263,"litteratur":5264,"eget":5265,"##ment":5266,"makt":5267,"betyder":5268,"komma":5269,"##orum":5270,"stef":5271,"##orf":5272,"anvander":5273,"valet":5274,"##inst":5275,"##ranger":5276,"##ington":5277,"cu":5278,"gammal":5279,"##hr":5280,"##rets":5281,"belg":5282,"walker":5283,"sjukdom":5284,"bergsp":5285,"##sven":5286,"1700":5287,"tunn":5288,"##kort":5289,"##teck":5290,"##ege":5291,"##reter":5292,"##iden":5293,"stallet":5294,"1902":5295,"bebygg":5296,"falt":5297,"##ect":5298,"barat":5299,"jack":5300,"utbildning":5301,"##40":5302,"radio":5303,"hals":5304,"sett":5305,"175":5306,"centrum":5307,"tidigt":5308,"paverk":5309,"##ensen":5310,"##hard":5311,"nederland":5312,"mater":5313,"hosten":5314,"manader":5315,"dagens":5316,"##oe":5317,"begrepp":5318,"punkt":5319,"cra":5320,"hart":5321,"hust":5322,"sjalvstand":5323,"kontrakt":5324,"alli":5325,"aldsta":5326,"lit":5327,"##skapen":5328,"tillgang":5329,"fyl":5330,"hyd":5331,"##fest":5332,"##cel":5333,"demokrat":5334,"framsta":5335,"lopp":5336,"visade":5337,"##fj":5338,"##uda":5339,"territor":5340,"betrakt":5341,"uk":5342,"##wood":5343,"bevar":5344,"##takt":5345,"station":5346,"mask":5347,"##win":5348,"##vant":5349,"marie":5350,"##vent":5351,"til":5352,"##ovo":5353,"##rarna":5354,"##skott":5355,"##system":5356,"jul":5357,"mid":5358,"diam":5359,"flott":5360,"danska":5361,"dott":5362,"minst":5363,"slaget":5364,"##sack":5365,"##kro":5366,"orig":5367,"mig":5368,"ash":5369,"sommaren":5370,"300":5371,"##rypt":5372,"##ademien":5373,"##roller":5374,"queens":5375,"##rodukt":5376,"##itionen":5377,"1903":5378,"##brott":5379,"jose":5380,"bocker":5381,"##flyg":5382,"skal":5383,"##angen":5384,"heinrich":5385,"forlorade":5386,"##bler":5387,"grande":5388,"1901":5389,"byggnader":5390,"profession":5391,"lilla":5392,"bergspass":5393,"minsk":5394,"##oceph":5395,"karakt":5396,"##edd":5397,"##gas":5398,"vita":5399,"##edonien":5400,"blod":5401,"##60":5402,"web":5403,"syft":5404,"forklar":5405,"gren":5406,"ihop":5407,"energ":5408,"talets":5409,"##ssk":5410,"betydelse":5411,"##yi":5412,"ole":5413,"##arg":5414,"##alia":5415,"lars":5416,"regi":5417,"amer":5418,"libanon":5419,"uppf":5420,"kong":5421,"##uts":5422,"##istisk":5423,"davarande":5424,"handlar":5425,"status":5426,"point":5427,"##inea":5428,"##zon":5429,"little":5430,"olof":5431,"ljud":5432,"rot":5433,"kost":5434,"enbart":5435,"shan":5436,"agde":5437,"atervande":5438,"##emal":5439,"gjordes":5440,"fjarde":5441,"bostad":5442,"traff":5443,"##arat":5444,"##ited":5445,"##lus":5446,"agg":5447,"pter":5448,"saval":5449,"##kes":5450,"##no":5451,"##avling":5452,"kok":5453,"bidrag":5454,"##ville":5455,"##shire":5456,"konf":5457,"daniel":5458,"##mastare":5459,"brons":5460,"##ifolia":5461,"##ygger":5462,"valde":5463,"pasir":5464,"troligen":5465,"ordet":5466,"restaur":5467,"insekter":5468,"omfattande":5469,"fir":5470,"##ipes":5471,"larare":5472,"nab":5473,"stre":5474,"##uca":5475,"##kh":5476,"##ales":5477,"special":5478,"##let":5479,"##laktet":5480,"##gruppen":5481,"##acker":5482,"beng":5483,"##itu":5484,"##hark":5485,"##ره":5486,"defin":5487,"arbetar":5488,"konser":5489,"##iere":5490,"400":5491,"prov":5492,"##yph":5493,"privat":5494,"##gari":5495,"beh":5496,"##emang":5497,"tib":5498,"troll":5499,"##ega":5500,"##huvudort":5501,"ja":5502,"##sut":5503,"popular":5504,"upptacktes":5505,"##yla":5506,"##somradet":5507,"pastor":5508,"##orus":5509,"skepp":5510,"gram":5511,"vagen":5512,"mynd":5513,"##iller":5514,"sul":5515,"frit":5516,"landets":5517,"##ise":5518,"snart":5519,"##act":5520,"stadens":5521,"##arken":5522,"kem":5523,"sanger":5524,"fu":5525,"sport":5526,"##osus":5527,"bukit":5528,"##ophora":5529,"viktig":5530,"##wn":5531,"varv":5532,"chrys":5533,"soci":5534,"##ange":5535,"##anj":5536,"##byggnad":5537,"michael":5538,"pierre":5539,"programmet":5540,"##irk":5541,"bolag":5542,"gitar":5543,"##inister":5544,"lamp":5545,"liber":5546,"villa":5547,"version":5548,"##film":5549,"champ":5550,"##spar":5551,"##anen":5552,"test":5553,"aur":5554,"##isc":5555,"##ital":5556,"##taxa":5557,"##ppar":5558,"studio":5559,"debuterade":5560,"brach":5561,"1897":5562,"alltid":5563,"##ingart":5564,"##gu":5565,"##omet":5566,"alltsa":5567,"skedde":5568,"stav":5569,"hotad":5570,"filmer":5571,"allra":5572,"regel":5573,"##ges":5574,"isra":5575,"intress":5576,"dipl":5577,"parlament":5578,"mera":5579,"bit":5580,"herrar":5581,"kungen":5582,"are":5583,"##ebygg":5584,"dyntaxa":5585,"pul":5586,"glacier":5587,"mek":5588,"##80":5589,"rov":5590,"##idium":5591,"1890":5592,"170":5593,"svenskt":5594,"##eli":5595,"akten":5596,"imp":5597,"kronor":5598,"##sted":5599,"##sund":5600,"##amin":5601,"fo":5602,"##ischer":5603,"sjoarna":5604,"arv":5605,"##reterare":5606,"##allen":5607,"utloppet":5608,"gn":5609,"##ape":5610,"fron":5611,"##ophyllum":5612,"eric":5613,"##sons":5614,"utseende":5615,"##ration":5616,"##rankar":5617,"sydney":5618,"bjornspinnare":5619,"monte":5620,"mass":5621,"finalen":5622,"##eldjursart":5623,"tills":5624,"##anes":5625,"tour":5626,"##harkrankar":5627,"bris":5628,"queensland":5629,"magnus":5630,"trum":5631,"tyd":5632,"90":5633,"##bur":5634,"framgangs":5635,"ludwig":5636,"##horn":5637,"jebel":5638,"hund":5639,"egypten":5640,"##ands":5641,"tolk":5642,"##ords":5643,"bron":5644,"bulgari":5645,"syster":5646,"forald":5647,"##ques":5648,"##adens":5649,"##makt":5650,"##lic":5651,"##ifran":5652,"snabbt":5653,"##ifier":5654,"log":5655,"jer":5656,"brom":5657,"varldens":5658,"##unk":5659,"##bara":5660,"aterf":5661,"##ativa":5662,"##ebo":5663,"##komst":5664,"funktion":5665,"united":5666,"##kta":5667,"##emb":5668,"norska":5669,"sec":5670,"##avaxter":5671,"##riska":5672,"hud":5673,"35":5674,"##aktor":5675,"prast":5676,"song":5677,"##itets":5678,"sprid":5679,"kna":5680,"gronland":5681,"refer":5682,"drottning":5683,"flygplan":5684,"rac":5685,"##aller":5686,"ask":5687,"##iell":5688,"##usen":5689,"##fallande":5690,"ursprungliga":5691,"tekniska":5692,"platsen":5693,"1600":5694,"##inger":5695,"##sattning":5696,"motstand":5697,"lek":5698,"sud":5699,"##rym":5700,"produktion":5701,"##por":5702,"##rackligt":5703,"foreningen":5704,"##ech":5705,"##ojt":5706,"##gav":5707,"##yer":5708,"borjar":5709,"kot":5710,"ledare":5711,"chil":5712,"cop":5713,"dia":5714,"jacob":5715,"##ان":5716,"##emente":5717,"##smannen":5718,"##gra":5719,"mangfot":5720,"erbj":5721,"ill":5722,"delvis":5723,"##demokrat":5724,"mojlig":5725,"sor":5726,"1898":5727,"##gjorde":5728,"##raket":5729,"beseg":5730,"##asan":5731,"egentliga":5732,"peng":5733,"alp":5734,"##full":5735,"iv":5736,"flick":5737,"bildade":5738,"bri":5739,"alfred":5740,"fon":5741,"abo":5742,"1862":5743,"##orden":5744,"bev":5745,"axel":5746,"hoga":5747,"forskning":5748,"international":5749,"##iensis":5750,"##erats":5751,"##serien":5752,"##servator":5753,"bei":5754,"andersson":5755,"##ension":5756,"##odor":5757,"##lans":5758,"pic":5759,"##amerika":5760,"biskop":5761,"moderna":5762,"##rogram":5763,"regler":5764,"para":5765,"##10":5766,"1899":5767,"##reserv":5768,"##bane":5769,"marevaxter":5770,"mangd":5771,"##last":5772,"intres":5773,"1895":5774,"oph":5775,"eri":5776,"##ocent":5777,"chal":5778,"australia":5779,"##mossart":5780,"##lop":5781,"pula":5782,"##ude":5783,"##usten":5784,"##din":5785,"tron":5786,"stefan":5787,"##bit":5788,"phou":5789,"##onis":5790,"##pris":5791,"tengah":5792,"undersok":5793,"##ois":5794,"##chn":5795,"roy":5796,"mynnar":5797,"##ygd":5798,"phyll":5799,"##avaxtart":5800,"berak":5801,"flav":5802,"bladmossart":5803,"resultat":5804,"1896":5805,"santo":5806,"##sbl":5807,"tac":5808,"cab":5809,"##ilia":5810,"sporsack":5811,"represent":5812,"mob":5813,"##qvist":5814,"beroende":5815,"tavlingen":5816,"tapp":5817,"melan":5818,"pin":5819,"dim":5820,"##antarktis":5821,"material":5822,"holls":5823,"##hy":5824,"juvel":5825,"sporsacksvampar":5826,"pek":5827,"foljd":5828,"koudiat":5829,"margar":5830,"##plar":5831,"nod":5832,"##cy":5833,"etabler":5834,"hop":5835,"nova":5836,"kallor":5837,"fe":5838,"henri":5839,"##lost":5840,"fabrik":5841,"##osition":5842,"malm":5843,"ach":5844,"bygga":5845,"bodde":5846,"hun":5847,"finans":5848,"##ryp":5849,"##styr":5850,"karn":5851,"##gande":5852,"varen":5853,"arbeten":5854,"zag":5855,"##lande":5856,"kil":5857,"kaliforn":5858,"battre":5859,"kommuner":5860,"inflyt":5861,"##sket":5862,"valdes":5863,"arranger":5864,"mork":5865,"##dae":5866,"fordel":5867,"##21":5868,"##lare":5869,"##odon":5870,"##70":5871,"kors":5872,"pabor":5873,"150":5874,"manus":5875,"##gangen":5876,"##ations":5877,"sker":5878,"steg":5879,"skad":5880,"##ule":5881,"corn":5882,"doktor":5883,"prefekturen":5884,"##forbundet":5885,"yr":5886,"lades":5887,"grekiska":5888,"garden":5889,"dikt":5890,"brukar":5891,"erov":5892,"malv":5893,"anvande":5894,"##eda":5895,"##heim":5896,"uppkall":5897,"lys":5898,"grundade":5899,"##mot":5900,"##aki":5901,"##uller":5902,"##bach":5903,"icke":5904,"##iang":5905,"stal":5906,"kommunal":5907,"##skold":5908,"##rac":5909,"##olo":5910,"eld":5911,"dokument":5912,"allmanna":5913,"jamt":5914,"##eringar":5915,"latin":5916,"avrinningsomradena":5917,"nils":5918,"ank":5919,"##rona":5920,"##lov":5921,"##yet":5922,"lands":5923,"fus":5924,"engelsk":5925,"##ylus":5926,"shu":5927,"vanster":5928,"uppskatt":5929,"vind":5930,"eugen":5931,"##mant":5932,"##field":5933,"forvar":5934,"##sel":5935,"##sningar":5936,"##unde":5937,"##sningen":5938,"##ismen":5939,"va":5940,"sao":5941,"pulau":5942,"1893":5943,"melod":5944,"##ornis":5945,"##uma":5946,"blan":5947,"lor":5948,"##uck":5949,"marevaxtart":5950,"rib":5951,"brdo":5952,"##gara":5953,"forvalt":5954,"##idia":5955,"slog":5956,"##klubb":5957,"nic":5958,"##ati":5959,"orn":5960,"kore":5961,"bolivia":5962,"dop":5963,"skulpt":5964,"ech":5965,"##atte":5966,"strack":5967,"ident":5968,"drabb":5969,"##ode":5970,"tung":5971,"##star":5972,"symb":5973,"gle":5974,"tings":5975,"engag":5976,"anth":5977,"roda":5978,"samarbete":5979,"##eby":5980,"snack":5981,"anal":5982,"##stallning":5983,"##minister":5984,"koping":5985,"revolut":5986,"##uri":5987,"serra":5988,"prins":5989,"anger":5990,"prot":5991,"vide":5992,"kombin":5993,"skriven":5994,"scot":5995,"sula":5996,"##bon":5997,"kalifornien":5998,"##osia":5999,"yngre":6000,"dy":6001,"##fri":6002,"sovjetun":6003,"minor":6004,"gymn":6005,"meller":6006,"##erbotten":6007,"bergsked":6008,"##ansson":6009,"1880":6010,"landskap":6011,"big":6012,"ringmaskart":6013,"folkm":6014,"forste":6015,"kroatien":6016,"titel":6017,"##une":6018,"##stol":6019,"32":6020,"brisbane":6021,"##samma":6022,"ungern":6023,"oleander":6024,"##examen":6025,"174":6026,"##hopp":6027,"dur":6028,"emeller":6029,"mangfotingart":6030,"bis":6031,"last":6032,"hak":6033,"##orld":6034,"israel":6035,"##rego":6036,"emellertid":6037,"mult":6038,"utnamndes":6039,"anslut":6040,"singel":6041,"kejs":6042,"1892":6043,"polen":6044,"fen":6045,"ron":6046,"juvelvingar":6047,"skillnad":6048,"##chef":6049,"1889":6050,"organisation":6051,"hag":6052,"emb":6053,"##ckte":6054,"cham":6055,"##gatan":6056,"lokala":6057,"##cer":6058,"##snamn":6059,"##oter":6060,"##emon":6061,"orebro":6062,"utgj":6063,"emot":6064,"dist":6065,"##idrott":6066,"utgors":6067,"##ids":6068,"##icum":6069,"avg":6070,"##yang":6071,"medeltida":6072,"dre":6073,"tilldelades":6074,"bang":6075,"##oca":6076,"ext":6077,"geografi":6078,"shah":6079,"vand":6080,"amar":6081,"kristian":6082,"1894":6083,"ledning":6084,"##aner":6085,"eftertrad":6086,"##uen":6087,"varldsm":6088,"utsags":6089,"##ampa":6090,"orm":6091,"bong":6092,"##iae":6093,"deltag":6094,"##arm":6095,"avvattnas":6096,"##nam":6097,"inrattades":6098,"skrivit":6099,"rut":6100,"exper":6101,"corrego":6102,"job":6103,"smaland":6104,"mojligt":6105,"daremot":6106,"final":6107,"dator":6108,"socknen":6109,"##ato":6110,"nordvastlig":6111,"nio":6112,"##olis":6113,"##aterna":6114,"exemplar":6115,"teor":6116,"##uer":6117,"anne":6118,"flygplats":6119,"vanliga":6120,"italienska":6121,"##sex":6122,"floden":6123,"foljde":6124,"##elis":6125,"reser":6126,"darpa":6127,"##varande":6128,"##ikanska":6129,"##fa":6130,"##ili":6131,"##likt":6132,"lut":6133,"unga":6134,"stab":6135,"naz":6136,"##skal":6137,"skapa":6138,"naturreserv":6139,"##medalj":6140,"historiska":6141,"1891":6142,"risk":6143,"ukra":6144,"##aret":6145,"enk":6146,"##ningsp":6147,"##rument":6148,"##atta":6149,"##cin":6150,"marks":6151,"##thidae":6152,"ala":6153,"tryck":6154,"gas":6155,"##num":6156,"lovfallande":6157,"oarna":6158,"دره":6159,"##enta":6160,"inkluder":6161,"lago":6162,"##90":6163,"##gotland":6164,"altern":6165,"##innan":6166,"dend":6167,"mellersta":6168,"##escens":6169,"fyr":6170,"melolon":6171,"##iske":6172,"how":6173,"aterupp":6174,"inb":6175,"lill":6176,"forlag":6177,"lid":6178,"ik":6179,"east":6180,"ytt":6181,"information":6182,"verksamheten":6183,"fab":6184,"lokal":6185,"##ycken":6186,"myc":6187,"##otes":6188,"hir":6189,"aph":6190,"world":6191,"stan":6192,"160":6193,"str":6194,"1888":6195,"lista":6196,"slutligen":6197,"##ocarp":6198,"tidiga":6199,"##manland":6200,"##stra":6201,"presenter":6202,"lop":6203,"morg":6204,"##larna":6205,"##fard":6206,"##insk":6207,"##oi":6208,"##ider":6209,"mah":6210,"invigdes":6211,"nun":6212,"svarta":6213,"gon":6214,"##olax":6215,"standard":6216,"fjader":6217,"mong":6218,"1870":6219,"hertig":6220,"isl":6221,"ovre":6222,"civil":6223,"##ava":6224,"bart":6225,"spanska":6226,"##lagen":6227,"##cht":6228,"spring":6229,"##ve":6230,"rog":6231,"##kraft":6232,"knut":6233,"##elen":6234,"1885":6235,"hermann":6236,"##ruktur":6237,"projekt":6238,"##person":6239,"ernst":6240,"beirut":6241,"##period":6242,"melolonthidae":6243,"top":6244,"niva":6245,"##jektet":6246,"ambet":6247,"will":6248,"##antus":6249,"minnes":6250,"relativt":6251,"fjarilar":6252,"din":6253,"##optera":6254,"##vaxt":6255,"##adesh":6256,"##ih":6257,"45":6258,"##ept":6259,"cord":6260,"##aran":6261,"ball":6262,"king":6263,"poly":6264,"sist":6265,"tenggara":6266,"parasit":6267,"irland":6268,"japanska":6269,"##skol":6270,"##splan":6271,"##ansen":6272,"##sor":6273,"##bord":6274,"##tz":6275,"seger":6276,"##rob":6277,"sr":6278,"kans":6279,"##foret":6280,"heg":6281,"171":6282,"dagen":6283,"##inc":6284,"##oy":6285,"sakerhet":6286,"bytte":6287,"fc":6288,"skrift":6289,"##iah":6290,"##agus":6291,"portug":6292,"##ks":6293,"##forsamling":6294,"##roph":6295,"##samm":6296,"##reis":6297,"##blom":6298,"##elius":6299,"##rix":6300,"1887":6301,"##atik":6302,"##umet":6303,"##etts":6304,"tap":6305,"##ny":6306,"##nik":6307,"##omer":6308,"##osoma":6309,"cel":6310,"marken":6311,"juan":6312,"uppgift":6313,"##andena":6314,"##ojtn":6315,"##ete":6316,"mosk":6317,"pradesh":6318,"klipp":6319,"skop":6320,"##uell":6321,"diameter":6322,"##omma":6323,"erk":6324,"##ledare":6325,"pur":6326,"##ston":6327,"dryg":6328,"##punkt":6329,"##festiv":6330,"anlagg":6331,"nass":6332,"stig":6333,"mats":6334,"inre":6335,"##ulatus":6336,"records":6337,"sasonger":6338,"dong":6339,"##assa":6340,"dagg":6341,"##lagt":6342,"##iment":6343,"livet":6344,"western":6345,"##ilien":6346,"utrikes":6347,"forsokte":6348,"oscar":6349,"indian":6350,"##partiet":6351,"uttryck":6352,"skargard":6353,"laur":6354,"##sburg":6355,"##museum":6356,"##abad":6357,"giv":6358,"pon":6359,"parish":6360,"##mera":6361,"##rader":6362,"halla":6363,"##dis":6364,"##bu":6365,"##janst":6366,"##yggnad":6367,"##tina":6368,"myrten":6369,"lem":6370,"inget":6371,"dennes":6372,"##usive":6373,"kaz":6374,"kandidat":6375,"hockey":6376,"##skild":6377,"##ularis":6378,"##eff":6379,"##list":6380,"##hora":6381,"##fte":6382,"skrevs":6383,"##eden":6384,"socialdemokrat":6385,"arets":6386,"marknad":6387,"medalj":6388,"erholl":6389,"##iteter":6390,"##atser":6391,"##orp":6392,"sandes":6393,"khan":6394,"##inder":6395,"tok":6396,"leder":6397,"##slo":6398,"vunnit":6399,"skil":6400,"skane":6401,"morro":6402,"##omus":6403,"folkrak":6404,"dep":6405,"cach":6406,"bibliotek":6407,"##atem":6408,"ah":6409,"simon":6410,"##omycetes":6411,"##ares":6412,"##stone":6413,"##iji":6414,"tavlade":6415,"##oker":6416,"savolax":6417,"##sang":6418,"skold":6419,"kontakt":6420,"##platsen":6421,"ال":6422,"nusa":6423,"senaste":6424,"hustru":6425,"ager":6426,"frukt":6427,"tidskrift":6428,"hamp":6429,"lagre":6430,"torel":6431,"cruz":6432,"##back":6433,"irak":6434,"##omradet":6435,"tjeckien":6436,"undant":6437,"berom":6438,"carol":6439,"##forening":6440,"##onym":6441,"webb":6442,"kritik":6443,"bomb":6444,"sign":6445,"ersattes":6446,"elisa":6447,"jung":6448,"landslag":6449,"##forhall":6450,"sann":6451,"nhl":6452,"direktor":6453,"##gaende":6454,"organ":6455,"dit":6456,"75":6457,"kvarter":6458,"##skon":6459,"solen":6460,"flyttades":6461,"ansag":6462,"lad":6463,"amph":6464,"ky":6465,"oar":6466,"introduc":6467,"1878":6468,"##hen":6469,"##ryt":6470,"##ringen":6471,"matemat":6472,"wa":6473,"##inerna":6474,"egenskaper":6475,"bord":6476,"##log":6477,"denne":6478,"rudolf":6479,"skottland":6480,"perioden":6481,"nattslandeart":6482,"##tjarnen":6483,"##skat":6484,"173":6485,"##ugo":6486,"##ines":6487,"##aldern":6488,"cr":6489,"nordmak":6490,"skopje":6491,"bergskedja":6492,"kommit":6493,"##iku":6494,"sri":6495,"1500":6496,"kott":6497,"real":6498,"##ahl":6499,"kalmar":6500,"##linjen":6501,"ug":6502,"skalbaggar":6503,"skivan":6504,"##ungen":6505,"vist":6506,"norsk":6507,"##sbo":6508,"chah":6509,"##ariket":6510,"trupper":6511,"##smal":6512,"arbetet":6513,"nordmakedonien":6514,"katol":6515,"1886":6516,"##rata":6517,"utmark":6518,"myror":6519,"inklusive":6520,"skola":6521,"kos":6522,"##uf":6523,"universitetet":6524,"##skont":6525,"sib":6526,"ts":6527,"friidrott":6528,"##ami":6529,"##inte":6530,"guy":6531,"union":6532,"##ew":6533,"mit":6534,"handel":6535,"##ower":6536,"fok":6537,"nederlanderna":6538,"fr":6539,"dubbel":6540,"begrans":6541,"grod":6542,"pach":6543,"emil":6544,"ria":6545,"##dam":6546,"##sjtina":6547,"##ony":6548,"spindeldjursart":6549,"##iosa":6550,"##iver":6551,"koudyet":6552,"marg":6553,"sadan":6554,"##bad":6555,"vice":6556,"##ills":6557,"riksdagen":6558,"pit":6559,"underarten":6560,"journalist":6561,"graf":6562,"kvalster":6563,"initi":6564,"grasart":6565,"##ellus":6566,"saldes":6567,"bulu":6568,"gymnas":6569,"uppt":6570,"kak":6571,"crypt":6572,"scho":6573,"##visning":6574,"##somrade":6575,"filipp":6576,"##imus":6577,"huvudstad":6578,"konstrukt":6579,"##rafik":6580,"politik":6581,"belag":6582,"vac":6583,"nationella":6584,"165":6585,"inrikt":6586,"ela":6587,"##eps":6588,"dv":6589,"pjas":6590,"33":6591,"1884":6592,"##namnet":6593,"##flytt":6594,"forfattaren":6595,"##etta":6596,"butt":6597,"##orda":6598,"##bebygg":6599,"foljer":6600,"1863":6601,"##imb":6602,"ogon":6603,"##bolaget":6604,"##lanssteklar":6605,"##ki":6606,"##alven":6607,"elisabet":6608,"skild":6609,"sulaw":6610,"##skt":6611,"syrien":6612,"franco":6613,"angeles":6614,"##stedt":6615,"##schef":6616,"##mi":6617,"##yth":6618,"tip":6619,"##uga":6620,"##fur":6621,"ansags":6622,"##agne":6623,"vet":6624,"metal":6625,"nasta":6626,"##arah":6627,"jakt":6628,"##verka":6629,"##ary":6630,"arbeta":6631,"antingen":6632,"ecu":6633,"tagit":6634,"gunnar":6635,"##oppor":6636,"##ften":6637,"##angden":6638,"##sminister":6639,"jorden":6640,"##otta":6641,"dhar":6642,"baserad":6643,"omgivningen":6644,"manit":6645,"kongo":6646,"forbatt":6647,"kart":6648,"bolaget":6649,"sadana":6650,"##rast":6651,"##skydd":6652,"uppfatt":6653,"##anne":6654,"adam":6655,"##ruppen":6656,"act":6657,"bus":6658,"ama":6659,"glas":6660,"domingo":6661,"1860":6662,"akantus":6663,"chap":6664,"darah":6665,"##dera":6666,"##ierra":6667,"professionell":6668,"staten":6669,"dh":6670,"festiv":6671,"1882":6672,"vetenskapliga":6673,"inledde":6674,"patraff":6675,"ferdin":6676,"164":6677,"befinner":6678,"lon":6679,"trop":6680,"precis":6681,"sank":6682,"##ee":6683,"skand":6684,"dos":6685,"spin":6686,"sulawesi":6687,"rosen":6688,"bez":6689,"inspir":6690,"ale":6691,"##gs":6692,"skid":6693,"kolon":6694,"nordiska":6695,"##ict":6696,"konkur":6697,"##oria":6698,"matchen":6699,"kyrkob":6700,"##eval":6701,"##illverk":6702,"betydande":6703,"##jav":6704,"##amento":6705,"bestaende":6706,"##ope":6707,"forening":6708,"mall":6709,"malare":6710,"antonio":6711,"seder":6712,"##ask":6713,"guvernor":6714,"##kap":6715,"##ojtnant":6716,"ensam":6717,"utfor":6718,"drygt":6719,"tjanstgjorde":6720,"##angel":6721,"##altet":6722,"arch":6723,"##fal":6724,"tub":6725,"sed":6726,"viktigaste":6727,"set":6728,"1879":6729,"##hast":6730,"avlade":6731,"##otrich":6732,"adel":6733,"karlek":6734,"nilsson":6735,"mey":6736,"bob":6737,"mansk":6738,"levde":6739,"##ates":6740,"##varl":6741,"##sholm":6742,"##sborg":6743,"fi":6744,"sovjetunionen":6745,"##ido":6746,"##egang":6747,"gom":6748,"tatt":6749,"##akh":6750,"anvandning":6751,"victoria":6752,"##sblomm":6753,"##erberg":6754,"makedon":6755,"green":6756,"pala":6757,"you":6758,"##familj":6759,"straff":6760,"daribland":6761,"ferdinand":6762,"lanka":6763,"sofia":6764,"tillkom":6765,"bell":6766,"fiji":6767,"inc":6768,"tig":6769,"hogt":6770,"##arus":6771,"forekom":6772,"helsingborg":6773,"abu":6774,"naturreservat":6775,"##mid":6776,"36":6777,"lett":6778,"slappte":6779,"##ocera":6780,"##istr":6781,"##forfatt":6782,"museet":6783,"skriva":6784,"##igan":6785,"francisco":6786,"kontroll":6787,"utvecklades":6788,"##flora":6789,"169":6790,"mam":6791,"isla":6792,"botten":6793,"americ":6794,"##aro":6795,"##listan":6796,"##ai":6797,"rem":6798,"##ovis":6799,"skapade":6800,"ruf":6801,"verkade":6802,"lunds":6803,"168":6804,"johansson":6805,"thor":6806,"##marna":6807,"wood":6808,"##verksamhet":6809,"fardig":6810,"ribeira":6811,"##ente":6812,"akadem":6813,"guatem":6814,"chi":6815,"##uras":6816,"1881":6817,"sap":6818,"gir":6819,"guatemala":6820,"##inns":6821,"sli":6822,"chlor":6823,"uttal":6824,"##sag":6825,"prim":6826,"federationen":6827,"extra":6828,"zagreb":6829,"franz":6830,"nan":6831,"pian":6832,"ecuador":6833,"##efter":6834,"##yle":6835,"delarna":6836,"##risk":6837,"motsvarar":6838,"avdel":6839,"##spelet":6840,"##svag":6841,"figur":6842,"##ces":6843,"departamento":6844,"uppgifter":6845,"officiella":6846,"parad":6847,"stallde":6848,"benamn":6849,"nej":6850,"37":6851,"##isen":6852,"perman":6853,"singeln":6854,"##orth":6855,"##so":6856,"##osit":6857,"fotograf":6858,"167":6859,"cit":6860,"##nare":6861,"heb":6862,"lec":6863,"bygger":6864,"##sdjur":6865,"kopte":6866,"1865":6867,"avse":6868,"##ojd":6869,"kvinnliga":6870,"mim":6871,"parasitflugor":6872,"##bia":6873,"##esh":6874,"##ppen":6875,"mary":6876,"##ipennis":6877,"manitoba":6878,"priset":6879,"##bud":6880,"##eman":6881,"gatt":6882,"smaharkrankar":6883,"pyr":6884,"nominat":6885,"nedan":6886,"chang":6887,"##ods":6888,"high":6889,"jakob":6890,"##sky":6891,"ifran":6892,"skiljer":6893,"torg":6894,"##stav":6895,"may":6896,"comm":6897,"##backen":6898,"##kontor":6899,"fragor":6900,"hoger":6901,"##ome":6902,"##pas":6903,"brown":6904,"tax":6905,"veckor":6906,"semif":6907,"filosofie":6908,"intresse":6909,"oh":6910,"##wald":6911,"lamna":6912,"##riaren":6913,"kungariket":6914,"##svenskan":6915,"palm":6916,"pam":6917,"oppna":6918,"ester":6919,"##etus":6920,"##arina":6921,"##slyck":6922,"rollen":6923,"fokus":6924,"##rup":6925,"##spekt":6926,"forsv":6927,"##vikt":6928,"##omrade":6929,"ib":6930,"##omor":6931,"valkrets":6932,"nominatformen":6933,"tob":6934,"stang":6935,"statens":6936,"fog":6937,"miljo":6938,"igenom":6939,"beskrivs":6940,"##musik":6941,"myrart":6942,"rekord":6943,"individer":6944,"##ilt":6945,"##ental":6946,"##berget":6947,"egentligen":6948,"fack":6949,"rymd":6950,"##ktioner":6951,"sangare":6952,"##bildning":6953,"forhallande":6954,"minuter":6955,"##obius":6956,"serb":6957,"##oka":6958,"1883":6959,"anled":6960,"##asen":6961,"dir":6962,"brad":6963,"##yre":6964,"##frag":6965,"##igheterna":6966,"1877":6967,"scotia":6968,"##moss":6969,"hette":6970,"musikal":6971,"studioalbum":6972,"forut":6973,"##ues":6974,"arn":6975,"jaz":6976,"sucre":6977,"34":6978,"dominikanska":6979,"roller":6980,"nob":6981,"##eslut":6982,"atl":6983,"disp":6984,"avstand":6985,"tillstand":6986,"##bour":6987,"##allt":6988,"omfattade":6989,"bent":6990,"herrarnas":6991,"utred":6992,"try":6993,"uppratt":6994,"suva":6995,"alg":6996,"kanske":6997,"1874":6998,"typer":6999,"castle":7000,"tvingades":7001,"##vetenskap":7002,"gur":7003,"rygg":7004,"##anan":7005,"kategori":7006,"##essen":7007,"1875":7008,"##estan":7009,"medborg":7010,"kim":7011,"cyc":7012,"hjal":7013,"yo":7014,"nap":7015,"##alan":7016,"##opt":7017,"ther":7018,"ena":7019,"forslag":7020,"fylumet":7021,"hipp":7022,"misslyck":7023,"##jat":7024,"##eiro":7025,"ribeirao":7026,"osterrik":7027,"isa":7028,"uppkallad":7029,"fla":7030,"mill":7031,"varfor":7032,"##isterna":7033,"musiker":7034,"tradgard":7035,"rysk":7036,"etiop":7037,"##stift":7038,"begreppet":7039,"##hund":7040,"##skomm":7041,"kvalsterart":7042,"##feld":7043,"sedermera":7044,"igar":7045,"##talet":7046,"angel":7047,"gent":7048,"hjul":7049,"eh":7050,"oppen":7051,"kyrkans":7052,"nue":7053,"##uellt":7054,"syfte":7055,"##ads":7056,"kallat":7057,"hegy":7058,"##usk":7059,"##ellet":7060,"die":7061,"khor":7062,"##oto":7063,"kraftigt":7064,"hoglandsklimat":7065,"afrika":7066,"##eds":7067,"mir":7068,"##unnits":7069,"viktiga":7070,"##fiskar":7071,"foraldrar":7072,"ving":7073,"166":7074,"tele":7075,"##satta":7076,"shuiku":7077,"byggde":7078,"lakare":7079,"sags":7080,"##onoma":7081,"honor":7082,"##isch":7083,"bap":7084,"gi":7085,"teatern":7086,"organisationen":7087,"snackart":7088,"vasa":7089,"##well":7090,"nr":7091,"tiz":7092,"##esa":7093,"tatbebygg":7094,"anim":7095,"vanligtvis":7096,"##ikation":7097,"grac":7098,"inneh":7099,"je":7100,"##ello":7101,"jurid":7102,"##dad":7103,"illust":7104,"okade":7105,"color":7106,"verket":7107,"##jak":7108,"##isp":7109,"##jk":7110,"resa":7111,"cd":7112,"cyk":7113,"process":7114,"##omp":7115,"##itel":7116,"makedonska":7117,"cyr":7118,"hemma":7119,"##orh":7120,"kvinna":7121,"exist":7122,"flockblommiga":7123,"utform":7124,"hammar":7125,"##hogskolan":7126,"poj":7127,"rea":7128,"kuba":7129,"##yng":7130,"fageln":7131,"center":7132,"virg":7133,"femte":7134,"1876":7135,"stann":7136,"syl":7137,"inflytande":7138,"##idens":7139,"politisk":7140,"officiellt":7141,"##di":7142,"##aeus":7143,"france":7144,"##phus":7145,"situ":7146,"jamfor":7147,"costa":7148,"##sgatan":7149,"spraket":7150,"1869":7151,"katal":7152,"##kast":7153,"up":7154,"pengar":7155,"japansk":7156,"gri":7157,"posit":7158,"##sand":7159,"##ør":7160,"knapp":7161,"##fr":7162,"sac":7163,"##etiska":7164,"igarape":7165,"dun":7166,"malar":7167,"##konst":7168,"slov":7169,"observator":7170,"riviere":7171,"ivan":7172,"finlandsk":7173,"stadsdelen":7174,"##ommen":7175,"myt":7176,"mem":7177,"##strand":7178,"motiv":7179,"slakten":7180,"##otte":7181,"##olus":7182,"kullar":7183,"kontin":7184,"##inav":7185,"wash":7186,"jacques":7187,"grans":7188,"##enia":7189,"stylt":7190,"##svall":7191,"wall":7192,"norrb":7193,"kannet":7194,"utgjorde":7195,"sager":7196,"slottet":7197,"66":7198,"kanneteck":7199,"##but":7200,"xanth":7201,"##ehr":7202,"heller":7203,"##dag":7204,"##eba":7205,"##sforen":7206,"befolkning":7207,"1866":7208,"bert":7209,"arthur":7210,"publik":7211,"arme":7212,"##aya":7213,"uppmarksamm":7214,"##vants":7215,"##ison":7216,"agu":7217,"ordin":7218,"upphorde":7219,"bildar":7220,"##iar":7221,"acanth":7222,"portratt":7223,"alk":7224,"tatbebyggt":7225,"meddelade":7226,"linne":7227,"##idi":7228,"##antha":7229,"##hel":7230,"##maskar":7231,"tun":7232,"##lista":7233,"finlands":7234,"##cos":7235,"##onsin":7236,"princip":7237,"##avs":7238,"let":7239,"sun":7240,"pred":7241,"kyrkog":7242,"dyk":7243,"gross":7244,"occ":7245,"##farg":7246,"otill":7247,"120":7248,"##agua":7249,"comp":7250,"##stiden":7251,"smak":7252,"aqu":7253,"alm":7254,"##skl":7255,"##ctus":7256,"##ical":7257,"college":7258,"##ocha":7259,"sammanhang":7260,"viol":7261,"resten":7262,"sir":7263,"koreanska":7264,"##enz":7265,"kapten":7266,"##kyrka":7267,"##25":7268,"##sko":7269,"kav":7270,"hil":7271,"jesus":7272,"##regionen":7273,"##vall":7274,"tros":7275,"##inata":7276,"sman":7277,"##emann":7278,"##rof":7279,"piz":7280,"spelas":7281,"hang":7282,"dalarna":7283,"##ogae":7284,"huvudb":7285,"lavart":7286,"moskva":7287,"asteroiden":7288,"snar":7289,"##vok":7290,"##icornis":7291,"ross":7292,"##sattes":7293,"##ardo":7294,"hass":7295,"autonoma":7296,"kanadens":7297,"levnad":7298,"jbel":7299,"##faren":7300,"##osh":7301,"fars":7302,"salde":7303,"cont":7304,"##ophagus":7305,"varierar":7306,"kum":7307,"mandat":7308,"kairo":7309,"##elb":7310,"kvarn":7311,"##ame":7312,"gavle":7313,"anvants":7314,"examen":7315,"paret":7316,"##onde":7317,"scha":7318,"che":7319,"##ligheten":7320,"menar":7321,"##bai":7322,"##forhallandena":7323,"##alo":7324,"mali":7325,"1868":7326,"##brun":7327,"##oki":7328,"##klass":7329,"orth":7330,"aukt":7331,"zeeland":7332,"militara":7333,"registr":7334,"timmar":7335,"skapades":7336,"ss":7337,"call":7338,"##iola":7339,"simp":7340,"forbind":7341,"sz":7342,"allvar":7343,"mastare":7344,"1864":7345,"##banan":7346,"##jord":7347,"71":7348,"38":7349,"##iljo":7350,"svt":7351,"bjork":7352,"##ار":7353,"600":7354,"lob":7355,"kejsar":7356,"vr":7357,"##shav":7358,"stev":7359,"parall":7360,"viet":7361,"##itis":7362,"##nia":7363,"##rande":7364,"oversattning":7365,"rat":7366,"award":7367,"wind":7368,"psych":7369,"modell":7370,"sonen":7371,"godk":7372,"fant":7373,"astronomen":7374,"tappeh":7375,"landst":7376,"overgick":7377,"ambass":7378,"hogst":7379,"haller":7380,"valdigt":7381,"deltagare":7382,"tum":7383,"##ual":7384,"autom":7385,"radi":7386,"##shoppor":7387,"damask":7388,"instrument":7389,"assoc":7390,"blomm":7391,"tidning":7392,"helg":7393,"speciellt":7394,"strat":7395,"pag":7396,"blek":7397,"##uh":7398,"dial":7399,"ansl":7400,"prop":7401,"forlust":7402,"##adel":7403,"publicerades":7404,"##standet":7405,"elit":7406,"arida":7407,"pans":7408,"##sek":7409,"1871":7410,"kristna":7411,"##ressen":7412,"rapporter":7413,"tolv":7414,"aterfinns":7415,"agare":7416,"1867":7417,"1858":7418,"##fran":7419,"39":7420,"##arbetare":7421,"lock":7422,"motsvarande":7423,"##acka":7424,"skrifter":7425,"1872":7426,"ay":7427,"energi":7428,"##cion":7429,"##onien":7430,"aktenskap":7431,"oslo":7432,"##sey":7433,"##lie":7434,"##oken":7435,"representerad":7436,"forsalj":7437,"800":7438,"##eton":7439,"esp":7440,"damaskus":7441,"##formis":7442,"##eti":7443,"ledande":7444,"forskare":7445,"total":7446,"ng":7447,"##endet":7448,"storlek":7449,"sno":7450,"hell":7451,"##laggning":7452,"live":7453,"law":7454,"freder":7455,"perth":7456,"klart":7457,"forbj":7458,"##lidae":7459,"hap":7460,"##eme":7461,"ful":7462,"sierra":7463,"musiken":7464,"##givare":7465,"tha":7466,"publicerade":7467,"representerade":7468,"163":7469,"lagt":7470,"##rium":7471,"abra":7472,"verkar":7473,"vinna":7474,"arke":7475,"bevis":7476,"hond":7477,"##efor":7478,"fangelse":7479,"upphov":7480,"##avlingarna":7481,"visa":7482,"biograf":7483,"##ynch":7484,"nikola":7485,"63":7486,"##elin":7487,"##asi":7488,"yang":7489,"##gran":7490,"##vinsen":7491,"josef":7492,"umea":7493,"cerat":7494,"radd":7495,"ved":7496,"##zhou":7497,"utspel":7498,"##jev":7499,"##istrikt":7500,"chic":7501,"1873":7502,"kastilien":7503,"talen":7504,"kus":7505,"fro":7506,"madaga":7507,"brist":7508,"##apnet":7509,"##rons":7510,"saknar":7511,"##ophilus":7512,"sannoli":7513,"arbets":7514,"internationellt":7515,"verb":7516,"##skaff":7517,"befal":7518,"anfall":7519,"vul":7520,"tackt":7521,"##alpa":7522,"##rea":7523,"##ogel":7524,"serier":7525,"##ologisk":7526,"warren":7527,"bezirk":7528,"urval":7529,"##rah":7530,"##ilja":7531,"gabri":7532,"sociala":7533,"##alli":7534,"heder":7535,"elev":7536,"bea":7537,"##handling":7538,"kompon":7539,"72":7540,"##wick":7541,"pont":7542,"francois":7543,"span":7544,"had":7545,"italiensk":7546,"siah":7547,"##ackerlack":7548,"##attslandor":7549,"##eger":7550,"##arens":7551,"honan":7552,"madagaskar":7553,"##umen":7554,"##yan":7555,"##uba":7556,"baserat":7557,"##rek":7558,"hob":7559,"zar":7560,"larsson":7561,"bebyggelsen":7562,"##inis":7563,"undantag":7564,"##lekt":7565,"##naren":7566,"##apa":7567,"##ifer":7568,"rag":7569,"framtrad":7570,"sach":7571,"enhet":7572,"##pass":7573,"romanen":7574,"##xi":7575,"##ianus":7576,"klimatforhallandena":7577,"aker":7578,"upplagan":7579,"1861":7580,"resul":7581,"55":7582,"##stil":7583,"##jiang":7584,"sankmarker":7585,"##rif":7586,"##ebin":7587,"exped":7588,"kommunerna":7589,"##upen":7590,"1850":7591,"fadern":7592,"islam":7593,"utkom":7594,"##bod":7595,"##slin":7596,"assist":7597,"etiopien":7598,"##ute":7599,"detalj":7600,"##epart":7601,"jamtland":7602,"stycken":7603,"strav":7604,"nem":7605,"texten":7606,"permanent":7607,"##ase":7608,"cle":7609,"school":7610,"##ustrin":7611,"##arch":7612,"oz":7613,"##oua":7614,"dramat":7615,"ata":7616,"##enden":7617,"maxim":7618,"genomfordes":7619,"kamm":7620,"forkort":7621,"beror":7622,"gruv":7623,"##dan":7624,"##ose":7625,"habit":7626,"affar":7627,"##iftet":7628,"monten":7629,"huvudbaltet":7630,"alber":7631,"torp":7632,"flockblommig":7633,"##bus":7634,"foremal":7635,"##board":7636,"varldsmaster":7637,"hemm":7638,"##lander":7639,"##ason":7640,"systemet":7641,"starka":7642,"box":7643,"fos":7644,"##ites":7645,"robin":7646,"##asc":7647,"##oher":7648,"73":7649,"##mod":7650,"zo":7651,"pak":7652,"##fang":7653,"systematik":7654,"funnits":7655,"ray":7656,"lew":7657,"hjart":7658,"officer":7659,"##otyp":7660,"oued":7661,"lib":7662,"##program":7663,"fortsatta":7664,"syr":7665,"cacho":7666,"utok":7667,"delta":7668,"##erto":7669,"##itud":7670,"##rer":7671,"projektet":7672,"anstallda":7673,"overlev":7674,"peru":7675,"banan":7676,"vrh":7677,"referenser":7678,"skot":7679,"stick":7680,"##ppa":7681,"narings":7682,"glav":7683,"##ding":7684,"kompl":7685,"##stant":7686,"##olph":7687,"bond":7688,"lord":7689,"augu":7690,"skatt":7691,"utrust":7692,"arbetat":7693,"washington":7694,"micro":7695,"dollar":7696,"tranare":7697,"kalk":7698,"##sfisk":7699,"##yggnaden":7700,"forestall":7701,"42":7702,"trag":7703,"##forda":7704,"buttu":7705,"clark":7706,"scott":7707,"##uning":7708,"##faglar":7709,"philipp":7710,"reservo":7711,"##forsk":7712,"sangen":7713,"##imeter":7714,"##unkt":7715,"allmant":7716,"narmare":7717,"mongoli":7718,"##ospha":7719,"##bolag":7720,"##nytt":7721,"##ahr":7722,"gill":7723,"cens":7724,"seb":7725,"roth":7726,"wolf":7727,"utgavs":7728,"##lu":7729,"spelaren":7730,"intill":7731,"##stud":7732,"vig":7733,"harris":7734,"fris":7735,"##irektor":7736,"gods":7737,"mog":7738,"##ogloss":7739,"cav":7740,"love":7741,"sus":7742,"position":7743,"bam":7744,"teknik":7745,"jim":7746,"infordes":7747,"cand":7748,"##zen":7749,"svav":7750,"vasteras":7751,"##oja":7752,"esc":7753,"48":7754,"ostantarktis":7755,"benam":7756,"samuel":7757,"##ics":7758,"##du":7759,"pand":7760,"##skusten":7761,"##ray":7762,"former":7763,"##holms":7764,"1859":7765,"##syn":7766,"vare":7767,"edm":7768,"white":7769,"##forfattare":7770,"##station":7771,"##ogaster":7772,"sydaf":7773,"sammanlagt":7774,"julius":7775,"##arez":7776,"cachoeira":7777,"flack":7778,"##fabrik":7779,"172":7780,"##sby":7781,"forlang":7782,"rapids":7783,"stallning":7784,"##yne":7785,"##saker":7786,"##otis":7787,"250":7788,"130":7789,"lug":7790,"ordinarie":7791,"install":7792,"kre":7793,"line":7794,"monteneg":7795,"##okt":7796,"parc":7797,"utforde":7798,"khorasan":7799,"##mannen":7800,"ahl":7801,"##fo":7802,"##19":7803,"utifran":7804,"dev":7805,"##pur":7806,"aland":7807,"##kreis":7808,"##aspis":7809,"range":7810,"##itten":7811,"temperatur":7812,"mottag":7813,"advok":7814,"140":7815,"media":7816,"music":7817,"brann":7818,"##zan":7819,"##bes":7820,"jatt":7821,"win":7822,"##skij":7823,"kroppen":7824,"##anskt":7825,"tw":7826,"euc":7827,"##ottens":7828,"forsoker":7829,"aterigen":7830,"linje":7831,"politiskt":7832,"medeltiden":7833,"##baijan":7834,"stip":7835,"mojlighet":7836,"kod":7837,"kontor":7838,"ever":7839,"##zer":7840,"phyt":7841,"67":7842,"huvudort":7843,"##anta":7844,"hay":7845,"elever":7846,"##agog":7847,"uppror":7848,"haw":7849,"forh":7850,"##ungebin":7851,"inleddes":7852,"munchen":7853,"##etten":7854,"##atar":7855,"##omia":7856,"##skrifter":7857,"##rey":7858,"piper":7859,"katolska":7860,"egendom":7861,"##iger":7862,"enskil":7863,"coc":7864,"kj":7865,"tai":7866,"1000":7867,"pahar":7868,"osterbotten":7869,"korsblomm":7870,"ludvig":7871,"##sberg":7872,"estero":7873,"slatt":7874,"forsknings":7875,"##maktige":7876,"sitter":7877,"koppar":7878,"68":7879,"##splats":7880,"politischer":7881,"offentliga":7882,"##ms":7883,"reste":7884,"gib":7885,"##inas":7886,"trans":7887,"vilhelm":7888,"##still":7889,"utvecklingen":7890,"44":7891,"valen":7892,"hind":7893,"original":7894,"##ratten":7895,"doda":7896,"viv":7897,"administrativa":7898,"##ifera":7899,"##oten":7900,"##ovi":7901,"serv":7902,"##run":7903,"##gangar":7904,"##losa":7905,"##iki":7906,"gett":7907,"hamnade":7908,"bilder":7909,"elfen":7910,"##arskap":7911,"penn":7912,"##yah":7913,"##chewan":7914,"upplost":7915,"card":7916,"internet":7917,"##beck":7918,"##can":7919,"47":7920,"religion":7921,"prix":7922,"ble":7923,"svampdjursart":7924,"##pis":7925,"##reformen":7926,"##elserna":7927,"ris":7928,"sent":7929,"normalt":7930,"pension":7931,"dekor":7932,"behover":7933,"lenn":7934,"definier":7935,"betydligt":7936,"smal":7937,"69":7938,"mut":7939,"saskat":7940,"rank":7941,"styrk":7942,"oss":7943,"avslutade":7944,"element":7945,"oppnade":7946,"##esia":7947,"1857":7948,"strandlinjen":7949,"chen":7950,"##ds":7951,"##ecia":7952,"elektron":7953,"saskatchewan":7954,"slogs":7955,"mission":7956,"anklag":7957,"royal":7958,"ix":7959,"anom":7960,"theodor":7961,"##ese":7962,"motte":7963,"kg":7964,"sound":7965,"balt":7966,"beskrivning":7967,"befolkad":7968,"fjall":7969,"pip":7970,"nak":7971,"##skill":7972,"soldater":7973,"fraga":7974,"kontroller":7975,"##skepp":7976,"##ocer":7977,"lade":7978,"qal":7979,"##ologin":7980,"##fund":7981,"romerska":7982,"astronom":7983,"srp":7984,"##byggnaden":7985,"komposit":7986,"##skade":7987,"##liggande":7988,"belgien":7989,"##bitare":7990,"##sporter":7991,"vanner":7992,"johnson":7993,"omnamn":7994,"##ocephalus":7995,"##outi":7996,"utvecklade":7997,"##stalldes":7998,"varlds":7999,"sarbar":8000,"vd":8001,"riacho":8002,"marin":8003,"boll":8004,"doli":8005,"##omraden":8006,"##rare":8007,"upplev":8008,"inneholl":8009,"christoph":8010,"##icip":8011,"utov":8012,"lee":8013,"ting":8014,"##ums":8015,"wilson":8016,"kvalific":8017,"veg":8018,"43":8019,"internationell":8020,"##icer":8021,"bom":8022,"gord":8023,"##wer":8024,"anord":8025,"##uther":8026,"ce":8027,"##ovac":8028,"colonia":8029,"betraktas":8030,"za":8031,"kvart":8032,"konkurr":8033,"##rorelsen":8034,"stopp":8035,"accep":8036,"##gras":8037,"separat":8038,"anstalld":8039,"elfenben":8040,"##bilis":8041,"metall":8042,"##svagen":8043,"rhod":8044,"american":8045,"dicran":8046,"kamar":8047,"guinea":8048,"sjukhus":8049,"##alism":8050,"bulb":8051,"agua":8052,"states":8053,"tru":8054,"vent":8055,"##skottet":8056,"lakes":8057,"has":8058,"avanc":8059,"maz":8060,"##endron":8061,"atten":8062,"##don":8063,"##juk":8064,"republika":8065,"djib":8066,"schiz":8067,"##sjuk":8068,"##ellidae":8069,"##smat":8070,"breuning":8071,"##ulea":8072,"##skor":8073,"##oro":8074,"miljon":8075,"sade":8076,"tegel":8077,"kommiss":8078,"gat":8079,"lyc":8080,"41":8081,"omfattning":8082,"hann":8083,"namnas":8084,"varmland":8085,"##cu":8086,"##icolor":8087,"##amat":8088,"trett":8089,"karaktar":8090,"fyll":8091,"yttre":8092,"##arius":8093,"opera":8094,"honduras":8095,"##inidae":8096,"##aderna":8097,"##unga":8098,"aktiva":8099,"ligan":8100,"gad":8101,"##ows":8102,"rovflugor":8103,"##fartyg":8104,"##iserade":8105,"moore":8106,"##delar":8107,"damm":8108,"##stj":8109,"##aktig":8110,"srpska":8111,"antag":8112,"ling":8113,"sidor":8114,"##istik":8115,"##itta":8116,"berattar":8117,"##arder":8118,"##ophaga":8119,"##ocarpus":8120,"betal":8121,"bulgarien":8122,"tizi":8123,"fien":8124,"press":8125,"##iba":8126,"turneringen":8127,"vinn":8128,"event":8129,"##lot":8130,"pent":8131,"##festivalen":8132,"enhjartbladig":8133,"stjarna":8134,"inslag":8135,"centimeter":8136,"##gi":8137,"monster":8138,"jazz":8139,"##anthes":8140,"aik":8141,"sot":8142,"fria":8143,"##nem":8144,"kle":8145,"drev":8146,"djibouti":8147,"ery":8148,"##itte":8149,"##omyza":8150,"##apest":8151,"orden":8152,"##havare":8153,"##gan":8154,"##produkt":8155,"colombo":8156,"dc":8157,"integ":8158,"mcc":8159,"##ypt":8160,"1848":8161,"##kin":8162,"budapest":8163,"synner":8164,"sekt":8165,"##ript":8166,"koncent":8167,"##organisation":8168,"gitarr":8169,"##mun":8170,"beskriver":8171,"bin":8172,"##asin":8173,"noter":8174,"artist":8175,"##js":8176,"lagger":8177,"1856":8178,"##schen":8179,"##perm":8180,"##agh":8181,"town":8182,"##fart":8183,"areal":8184,"##shov":8185,"regemente":8186,"guyana":8187,"##sy":8188,"##unkel":8189,"renover":8190,"drift":8191,"wik":8192,"##oneura":8193,"landslaget":8194,"1852":8195,"petter":8196,"frihet":8197,"out":8198,"fartyget":8199,"jug":8200,"glavica":8201,"bow":8202,"##ografiska":8203,"##aville":8204,"tenu":8205,"dahl":8206,"gransar":8207,"##nis":8208,"pir":8209,"##my":8210,"##larare":8211,"nedre":8212,"1830":8213,"##latsen":8214,"beford":8215,"extrem":8216,"##icol":8217,"botan":8218,"##idion":8219,"makten":8220,"##jades":8221,"##ingom":8222,"kaf":8223,"##ista":8224,"varefter":8225,"prog":8226,"strang":8227,"puck":8228,"tids":8229,"##col":8230,"kenya":8231,"filippinerna":8232,"##wi":8233,"bark":8234,"##rill":8235,"##uld":8236,"##vatten":8237,"##stre":8238,"jones":8239,"golf":8240,"##cern":8241,"##agu":8242,"belon":8243,"46":8244,"57":8245,"##lamn":8246,"ekonomi":8247,"##epec":8248,"##spart":8249,"lom":8250,"##valet":8251,"##onius":8252,"##avdel":8253,"bock":8254,"behandling":8255,"smaningom":8256,"belaget":8257,"iris":8258,"spekt":8259,"morne":8260,"ingenjor":8261,"##dz":8262,"tecken":8263,"##vav":8264,"ens":8265,"##rollen":8266,"##alk":8267,"baker":8268,"medverkat":8269,"us":8270,"##sida":8271,"##quist":8272,"##ando":8273,"design":8274,"zh":8275,"papper":8276,"1855":8277,"ara":8278,"leda":8279,"montenegro":8280,"##aneh":8281,"wang":8282,"club":8283,"reform":8284,"norden":8285,"kloster":8286,"##to":8287,"brazz":8288,"utnytt":8289,"##shamn":8290,"##rosophila":8291,"quad":8292,"satte":8293,"bengt":8294,"mort":8295,"interv":8296,"ayn":8297,"##ademi":8298,"levande":8299,"haj":8300,"cyper":8301,"get":8302,"klara":8303,"##inella":8304,"yrkes":8305,"korall":8306,"boul":8307,"spets":8308,"halften":8309,"##oslav":8310,"oppnades":8311,"otillrackligt":8312,"pha":8313,"glest":8314,"manad":8315,"##rage":8316,"pereval":8317,"beach":8318,"syftar":8319,"##sakademien":8320,"korta":8321,"revs":8322,"##ridge":8323,"utgivet":8324,"len":8325,"studera":8326,"##unden":8327,"linkoping":8328,"omvand":8329,"vietnam":8330,"foll":8331,"gilbert":8332,"bac":8333,"eriksson":8334,"74":8335,"##dare":8336,"##skiftet":8337,"##ellia":8338,"##alum":8339,"kunskap":8340,"krets":8341,"kla":8342,"##emen":8343,"brazzaville":8344,"bergen":8345,"initiativ":8346,"##eur":8347,"takt":8348,"##malar":8349,"##lok":8350,"##ssatt":8351,"utgiven":8352,"amnen":8353,"##eca":8354,"styltflugor":8355,"##ularia":8356,"redaktor":8357,"forran":8358,"saledes":8359,"##issa":8360,"##umenter":8361,"elfenbenskusten":8362,"##kam":8363,"eftertraddes":8364,"camb":8365,"konstant":8366,"##forbund":8367,"fungerar":8368,"reservatet":8369,"kerman":8370,"##mes":8371,"menade":8372,"universitets":8373,"##iers":8374,"cay":8375,"trip":8376,"1200":8377,"genombrott":8378,"mach":8379,"fjadermyggor":8380,"##rock":8381,"litet":8382,"##hol":8383,"historien":8384,"grott":8385,"##idan":8386,"##lj":8387,"##nus":8388,"metod":8389,"##smus":8390,"##stolen":8391,"atmin":8392,"##oun":8393,"olyck":8394,"##lakt":8395,"sok":8396,"atminstone":8397,"nagonsin":8398,"110":8399,"walter":8400,"dash":8401,"afrik":8402,"trav":8403,"grashoppor":8404,"williams":8405,"##war":8406,"vartbitare":8407,"51":8408,"separ":8409,"invand":8410,"##ivet":8411,"49":8412,"##qa":8413,"framforallt":8414,"##institut":8415,"##uten":8416,"studerad":8417,"##svik":8418,"psalm":8419,"ranunkel":8420,"##kamp":8421,"##real":8422,"##rina":8423,"skan":8424,"##talje":8425,"tyck":8426,"700":8427,"pansar":8428,"##char":8429,"dro":8430,"##sbruk":8431,"brost":8432,"attack":8433,"skon":8434,"olsson":8435,"underhall":8436,"mull":8437,"aterkomm":8438,"fynd":8439,"onth":8440,"##uy":8441,"polska":8442,"asien":8443,"##ytan":8444,"##olep":8445,"addis":8446,"##aric":8447,"folket":8448,"studenter":8449,"##amal":8450,"herb":8451,"fragan":8452,"##tex":8453,"tidskriften":8454,"ces":8455,"jun":8456,"vant":8457,"1840":8458,"hamt":8459,"reyk":8460,"handboll":8461,"##yllis":8462,"tibet":8463,"avgor":8464,"good":8465,"##rest":8466,"artister":8467,"transport":8468,"influ":8469,"ler":8470,"muslim":8471,"##phia":8472,"ouadi":8473,"potatis":8474,"narvarande":8475,"##arbete":8476,"##oglossum":8477,"gyll":8478,"##osi":8479,"##ftea":8480,"mannen":8481,"dry":8482,"##idaceae":8483,"##oga":8484,"##su":8485,"tipula":8486,"peppar":8487,"##fi":8488,"stol":8489,"##occus":8490,"styrelse":8491,"versionen":8492,"bagdad":8493,"kent":8494,"##gjordes":8495,"##grupper":8496,"vack":8497,"etn":8498,"tillfallen":8499,"##skoldloss":8500,"harry":8501,"00":8502,"wi":8503,"jr":8504,"stro":8505,"kef":8506,"nationalp":8507,"##ave":8508,"##ssystem":8509,"harstam":8510,"nordamerika":8511,"stral":8512,"##azat":8513,"##ов":8514,"barcel":8515,"kortare":8516,"nit":8517,"##holmen":8518,"broder":8519,"arterna":8520,"1851":8521,"oka":8522,"##shavet":8523,"mekan":8524,"narmast":8525,"##ylon":8526,"##kins":8527,"##imir":8528,"taung":8529,"faglar":8530,"magnitud":8531,"uppdel":8532,"vlad":8533,"##aco":8534,"ifk":8535,"lilj":8536,"##ophylla":8537,"##mis":8538,"struktur":8539,"##sprogram":8540,"varia":8541,"opsjtina":8542,"klassiska":8543,"sallan":8544,"##kul":8545,"##ingham":8546,"alternativ":8547,"##aman":8548,"storm":8549,"##samt":8550,"##hoven":8551,"formod":8552,"##strack":8553,"konstru":8554,"antik":8555,"kel":8556,"##sal":8557,"##stallningar":8558,"skriver":8559,"halm":8560,"tattingar":8561,"ordning":8562,"##onus":8563,"branden":8564,"overst":8565,"52":8566,"##landsk":8567,"##cen":8568,"puerto":8569,"traditionella":8570,"bull":8571,"##alten":8572,"##iev":8573,"municip":8574,"##wang":8575,"stationen":8576,"##ubbar":8577,"avsnittet":8578,"formel":8579,"tillbring":8580,"schle":8581,"##vika":8582,"fern":8583,"##iets":8584,"tillrackligt":8585,"##amus":8586,"osm":8587,"##hort":8588,"say":8589,"draa":8590,"goda":8591,"emer":8592,"##bru":8593,"##vision":8594,"##nos":8595,"objekt":8596,"philip":8597,"rosa":8598,"##hallen":8599,"kommers":8600,"##ioides":8601,"rein":8602,"framat":8603,"koptes":8604,"uttar":8605,"team":8606,"fiskar":8607,"kard":8608,"grunden":8609,"##aba":8610,"1853":8611,"rand":8612,"##laren":8613,"##rel":8614,"populara":8615,"ags":8616,"anser":8617,"##inda":8618,"alberta":8619,"56":8620,"externa":8621,"skandinav":8622,"ip":8623,"##bla":8624,"care":8625,"##test":8626,"##ards":8627,"##lage":8628,"texas":8629,"##olitik":8630,"fan":8631,"##ikan":8632,"abd":8633,"skargardshavet":8634,"pad":8635,"bevarade":8636,"lepid":8637,"musk":8638,"##andes":8639,"##ylor":8640,"kyrkoher":8641,"##uro":8642,"hampson":8643,"##edia":8644,"aud":8645,"greve":8646,"one":8647,"raf":8648,"oliv":8649,"atervand":8650,"vib":8651,"mohaf":8652,"did":8653,"muller":8654,"mohafazat":8655,"farger":8656,"##dyn":8657,"halsing":8658,"romersk":8659,"lantbruk":8660,"hundra":8661,"##stag":8662,"##rana":8663,"beslutade":8664,"fing":8665,"62":8666,"sax":8667,"inborde":8668,"##indra":8669,"##cess":8670,"##akter":8671,"oskar":8672,"##olas":8673,"##bell":8674,"guer":8675,"uppstod":8676,"pastorat":8677,"fored":8678,"##akning":8679,"tacker":8680,"##arda":8681,"eryth":8682,"85":8683,"fastighet":8684,"vastergotland":8685,"lara":8686,"lata":8687,"planet":8688,"cten":8689,"malet":8690,"tillhorande":8691,"visades":8692,"framgangar":8693,"forde":8694,"##vide":8695,"tasman":8696,"soner":8697,"rug":8698,"sattes":8699,"vem":8700,"##fton":8701,"patraffats":8702,"institutet":8703,"##nor":8704,"##lip":8705,"arist":8706,"tillamp":8707,"shel":8708,"##platser":8709,"##javik":8710,"kvarteret":8711,"hyr":8712,"##ydde":8713,"54":8714,"reykjavik":8715,"##odendron":8716,"reich":8717,"fn":8718,"##smedel":8719,"##ulosa":8720,"telef":8721,"##atra":8722,"##atorer":8723,"tredj":8724,"nich":8725,"##lah":8726,"schmid":8727,"flykt":8728,"diplomat":8729,"squ":8730,"gyn":8731,"spelen":8732,"origin":8733,"kommunhuvudort":8734,"gold":8735,"liknar":8736,"1854":8737,"##chis":8738,"##uppg":8739,"barnen":8740,"oleandervaxter":8741,"borr":8742,"##ocar":8743,"svag":8744,"bohus":8745,"varde":8746,"##ocal":8747,"jav":8748,"dyg":8749,"sidi":8750,"anges":8751,"debutalbum":8752,"##vari":8753,"konserv":8754,"##malm":8755,"##namnda":8756,"onthophagus":8757,"arkitektur":8758,"53":8759,"##mossor":8760,"##edda":8761,"skivbolaget":8762,"delades":8763,"bidrog":8764,"frig":8765,"zard":8766,"vanligaste":8767,"brig":8768,"##skop":8769,"brot":8770,"republik":8771,"##ume":8772,"ff":8773,"##rerade":8774,"##osum":8775,"##18":8776,"##sna":8777,"natura":8778,"##abet":8779,"revolution":8780,"sammans":8781,"resultatet":8782,"ow":8783,"##erbo":8784,"andreas":8785,"prem":8786,"##prak":8787,"junior":8788,"pedro":8789,"fart":8790,"agnade":8791,"analys":8792,"##ortsvaxter":8793,"##hatt":8794,"##rots":8795,"1849":8796,"##lagga":8797,"punct":8798,"##varlden":8799,"berget":8800,"##vas":8801,"nordkorea":8802,"pt":8803,"##egel":8804,"tatort":8805,"varian":8806,"minne":8807,"sef":8808,"##kyrkan":8809,"##bandet":8810,"medlemmarna":8811,"##nea":8812,"forts":8813,"domdes":8814,"tala":8815,"avsl":8816,"rattigheter":8817,"كوه":8818,"##bank":8819,"societ":8820,"horde":8821,"materi":8822,"##jam":8823,"water":8824,"##hallet":8825,"placerade":8826,"##ahan":8827,"oberoende":8828,"allsvenskan":8829,"##oleon":8830,"kazak":8831,"chicago":8832,"rig":8833,"tyr":8834,"borger":8835,"##smiljo":8836,"##fullmaktige":8837,"##edom":8838,"samlade":8839,"##stjarn":8840,"##get":8841,"foregang":8842,"lil":8843,"kommunreformen":8844,"helic":8845,"hyper":8846,"gruppens":8847,"##ehamn":8848,"##eni":8849,"162":8850,"later":8851,"finlandska":8852,"##urer":8853,"besatt":8854,"polyp":8855,"##rib":8856,"havs":8857,"##industri":8858,"polisen":8859,"estland":8860,"##agge":8861,"##aborg":8862,"##oris":8863,"tillverkades":8864,"cours":8865,"finansier":8866,"##مه":8867,"gest":8868,"##eplats":8869,"##stens":8870,"siff":8871,"upplostes":8872,"hoh":8873,"mine":8874,"##vapen":8875,"##yld":8876,"##sattningar":8877,"##sslaktet":8878,"##entyr":8879,"provins":8880,"lankar":8881,"##lakare":8882,"##ylind":8883,"##ici":8884,"jonas":8885,"##eris":8886,"rott":8887,"ve":8888,"##agna":8889,"listan":8890,"##smakten":8891,"##ouz":8892,"karriaren":8893,"rok":8894,"##ove":8895,"##nens":8896,"##ussou":8897,"olj":8898,"##tis":8899,"sundsvall":8900,"folkrakningen":8901,"##inist":8902,"landkreis":8903,"havd":8904,"sond":8905,"nodvand":8906,"kanalen":8907,"##sin":8908,"##neum":8909,"modeller":8910,"dich":8911,"amazon":8912,"fysik":8913,"##rats":8914,"sekreterare":8915,"bildas":8916,"##iculata":8917,"##bom":8918,"##saari":8919,"cant":8920,"levu":8921,"58":8922,"havanna":8923,"chel":8924,"bedom":8925,"tunnel":8926,"rorelsen":8927,"programledare":8928,"##yna":8929,"gunt":8930,"pac":8931,"##litt":8932,"##ourt":8933,"eau":8934,"##sdag":8935,"cell":8936,"##oco":8937,"gabriel":8938,"mans":8939,"tof":8940,"##ilm":8941,"##igalpa":8942,"mossdjur":8943,"##viken":8944,"##ospora":8945,"enskilda":8946,"klost":8947,"##hn":8948,"maja":8949,"##sprakiga":8950,"##sledamot":8951,"##folk":8952,"##skrig":8953,"##bury":8954,"norrkoping":8955,"##ede":8956,"##elsens":8957,"156":8958,"##pet":8959,"syss":8960,"block":8961,"advokat":8962,"operan":8963,"lod":8964,"reserve":8965,"steph":8966,"##etia":8967,"beet":8968,"##iland":8969,"qol":8970,"bandets":8971,"bapti":8972,"specif":8973,"ich":8974,"##ship":8975,"frid":8976,"manniskan":8977,"##oo":8978,"bekraft":8979,"draft":8980,"coel":8981,"disc":8982,"##opogon":8983,"eva":8984,"odont":8985,"##knande":8986,"artiklar":8987,"jackson":8988,"##iot":8989,"##idus":8990,"##fon":8991,"alkoh":8992,"framgangsrika":8993,"##astare":8994,"eurovis":8995,"##ucigalpa":8996,"tegucigalpa":8997,"##stal":8998,"intervju":8999,"nep":9000,"pant":9001,"kyrkor":9002,"gallmyggor":9003,"lagoa":9004,"##yeong":9005,"##ogne":9006,"nejlik":9007,"anslutning":9008,"frederick":9009,"##onotus":9010,"ola":9011,"wol":9012,"##tering":9013,"eftertradde":9014,"bete":9015,"##erby":9016,"rica":9017,"##pol":9018,"##hets":9019,"##meter":9020,"##ough":9021,"##orerna":9022,"melodi":9023,"gull":9024,"fonster":9025,"##ube":9026,"##sklubb":9027,"vive":9028,"tvaa":9029,"##priset":9030,"kry":9031,"##bourne":9032,"religiosa":9033,"##mass":9034,"fac":9035,"anat":9036,"##enbar":9037,"avtal":9038,"##rypare":9039,"##ory":9040,"##yia":9041,"nuuk":9042,"##cc":9043,"cet":9044,"chur":9045,"skogar":9046,"modellen":9047,"rang":9048,"gum":9049,"nay":9050,"intraff":9051,"sallskap":9052,"lasi":9053,"refor":9054,"khal":9055,"##ostoma":9056,"kapell":9057,"##agan":9058,"##shuset":9059,"hogskolan":9060,"##manlands":9061,"epid":9062,"##cept":9063,"##inalen":9064,"storstad":9065,"bath":9066,"##ike":9067,"andrades":9068,"komed":9069,"atlant":9070,"crist":9071,"eleg":9072,"inval":9073,"##ialis":9074,"##forord":9075,"ahm":9076,"##systemet":9077,"experiment":9078,"uppmarksamhet":9079,"census":9080,"vinst":9081,"produktionen":9082,"tennis":9083,"mora":9084,"##ique":9085,"overste":9086,"fav":9087,"svara":9088,"hotell":9089,"hastar":9090,"##stallande":9091,"fornlam":9092,"##ophorus":9093,"viken":9094,"damernas":9095,"trig":9096,"##ako":9097,"huvudet":9098,"besegrade":9099,"##zia":9100,"elisabeth":9101,"data":9102,"budd":9103,"saf":9104,"##omataceae":9105,"kari":9106,"##byn":9107,"centre":9108,"konstnaren":9109,"podgor":9110,"lokalt":9111,"krimin":9112,"abb":9113,"##eo":9114,"anis":9115,"imper":9116,"baptiste":9117,"young":9118,"hyll":9119,"##irat":9120,"77":9121,"##ussen":9122,"laurent":9123,"kran":9124,"##ivan":9125,"chaet":9126,"sovjetiska":9127,"regionhuvudstaden":9128,"miner":9129,"bott":9130,"lith":9131,"barcelona":9132,"##skad":9133,"neur":9134,"##rema":9135,"persson":9136,"##smedalj":9137,"##umin":9138,"bureau":9139,"masterskapet":9140,"xyl":9141,"##server":9142,"##ekten":9143,"##spro":9144,"1400":9145,"plag":9146,"podgorica":9147,"##icta":9148,"##pen":9149,"yamo":9150,"##won":9151,"##inar":9152,"##effer":9153,"1847":9154,"tvavingar":9155,"viktigt":9156,"ritningar":9157,"slav":9158,"##odia":9159,"##ssel":9160,"turkiet":9161,"marc":9162,"low":9163,"natten":9164,"##industrin":9165,"kurd":9166,"##odrom":9167,"##yrus":9168,"dolich":9169,"##ionde":9170,"##ular":9171,"eurovision":9172,"make":9173,"bilda":9174,"avsked":9175,"##verg":9176,"##elidae":9177,"##floden":9178,"##ussoukro":9179,"yamoussoukro":9180,"opt":9181,"adela":9182,"show":9183,"luk":9184,"bladhorningar":9185,"##ulin":9186,"159":9187,"sallsyn":9188,"monument":9189,"cot":9190,"1846":9191,"symbol":9192,"mell":9193,"##landor":9194,"##varn":9195,"##oloph":9196,"tjock":9197,"hitta":9198,"##arth":9199,"vaxjo":9200,"##icia":9201,"##styrelsen":9202,"borja":9203,"garn":9204,"azerb":9205,"ves":9206,"##11":9207,"##iceps":9208,"##ekonom":9209,"parken":9210,"fet":9211,"##vald":9212,"##qi":9213,"florida":9214,"utbildade":9215,"rim":9216,"nes":9217,"visat":9218,"##somraden":9219,"digit":9220,"carolina":9221,"latarna":9222,"##edra":9223,"serg":9224,"fordon":9225,"rhe":9226,"##omys":9227,"byggd":9228,"allmanhet":9229,"begravd":9230,"76":9231,"janeiro":9232,"cec":9233,"hyl":9234,"##ilton":9235,"##emia":9236,"masterskap":9237,"sph":9238,"##illeri":9239,"tror":9240,"##ornet":9241,"framstaende":9242,"##fly":9243,"##sdotter":9244,"jama":9245,"lita":9246,"ceph":9247,"##worth":9248,"qar":9249,"texter":9250,"broderna":9251,"##vart":9252,"##skytt":9253,"abs":9254,"omedel":9255,"offentlig":9256,"##amar":9257,"scien":9258,"infanter":9259,"oleandervaxtart":9260,"##sblad":9261,"invest":9262,"mr":9263,"##uela":9264,"##rap":9265,"slags":9266,"lux":9267,"rena":9268,"thel":9269,"planer":9270,"skadespelaren":9271,"blomflugor":9272,"##flode":9273,"##ifrons":9274,"linjen":9275,"koll":9276,"gotland":9277,"##ningens":9278,"tingslag":9279,"privata":9280,"vie":9281,"nuevo":9282,"expl":9283,"##livet":9284,"now":9285,"hant":9286,"##ells":9287,"##ationerna":9288,"bonn":9289,"vagg":9290,"forband":9291,"oran":9292,"hugo":9293,"foda":9294,"oct":9295,"##itus":9296,"loire":9297,"forhand":9298,"bund":9299,"trupp":9300,"boy":9301,"namns":9302,"##haer":9303,"pyong":9304,"stens":9305,"##ople":9306,"minska":9307,"##ortsvaxtart":9308,"folja":9309,"dublin":9310,"azerbaj":9311,"minister":9312,"titt":9313,"##foreningen":9314,"russ":9315,"1300":9316,"fallet":9317,"##ball":9318,"groddjursart":9319,"spansk":9320,"overtog":9321,"besokte":9322,"nut":9323,"skjut":9324,"##imen":9325,"hes":9326,"azerbajdz":9327,"forvarv":9328,"herman":9329,"sparris":9330,"arligen":9331,"filip":9332,"karelen":9333,"elva":9334,"flottan":9335,"fair":9336,"grat":9337,"##ime":9338,"##ور":9339,"##cken":9340,"statliga":9341,"margareta":9342,"bourg":9343,"tillhorigheten":9344,"snarare":9345,"##oman":9346,"##roch":9347,"efterfolj":9348,"fullstand":9349,"gemensamma":9350,"gardaneh":9351,"##svalet":9352,"##oce":9353,"friher":9354,"param":9355,"##tekn":9356,"laga":9357,"##bba":9358,"##fod":9359,"lakem":9360,"##skontrakt":9361,"forber":9362,"lagga":9363,"xen":9364,"rene":9365,"bilen":9366,"چش":9367,"formen":9368,"##astin":9369,"forel":9370,"gitarrist":9371,"cano":9372,"prist":9373,"luis":9374,"andrew":9375,"folkmangden":9376,"##karriar":9377,"##tah":9378,"tong":9379,"##rach":9380,"auguste":9381,"##tyskland":9382,"##lager":9383,"##vann":9384,"stadsdel":9385,"##zab":9386,"1838":9387,"aventyr":9388,"##stock":9389,"vintern":9390,"##ligaste":9391,"##olia":9392,"ilha":9393,"##ashi":9394,"syns":9395,"153":9396,"##mastaren":9397,"producent":9398,"##ingarna":9399,"stanley":9400,"##yggen":9401,"jamfort":9402,"skytt":9403,"schlech":9404,"##bal":9405,"nel":9406,"avskaff":9407,"nyheter":9408,"peking":9409,"overfordes":9410,"hors":9411,"wu":9412,"##wall":9413,"##flott":9414,"enkel":9415,"hong":9416,"mynt":9417,"tryckt":9418,"polis":9419,"loppet":9420,"miljarder":9421,"ekonomisk":9422,"sammanslag":9423,"##ekv":9424,"kammar":9425,"##usch":9426,"ess":9427,"##uper":9428,"abeba":9429,"alek":9430,"venez":9431,"seri":9432,"doug":9433,"grekisk":9434,"##otria":9435,"##slangd":9436,"##rekt":9437,"gris":9438,"dagh":9439,"##bilden":9440,"##iation":9441,"##iler":9442,"##regemente":9443,"expedition":9444,"چشمه":9445,"##ammad":9446,"##aton":9447,"domstol":9448,"akra":9449,"termin":9450,"petit":9451,"##yder":9452,"taylor":9453,"indiska":9454,"olig":9455,"##12":9456,"torelvaxter":9457,"beethoven":9458,"tin":9459,"##nan":9460,"##yllus":9461,"hamilton":9462,"##edo":9463,"she":9464,"hid":9465,"valt":9466,"arkeb":9467,"lagstift":9468,"utveckla":9469,"##asia":9470,"##oke":9471,"##see":9472,"sjoar":9473,"##omo":9474,"##iser":9475,"crass":9476,"merc":9477,"myrtenvaxter":9478,"styrelsen":9479,"forf":9480,"viktor":9481,"trin":9482,"guad":9483,"lis":9484,"aer":9485,"##ibliotek":9486,"samtida":9487,"alpes":9488,"transporter":9489,"##zal":9490,"ci":9491,"olympisk":9492,"adelaide":9493,"##stat":9494,"reklam":9495,"net":9496,"nyck":9497,"##cta":9498,"sande":9499,"##inga":9500,"enkelt":9501,"kapit":9502,"pyongyang":9503,"##irus":9504,"gutt":9505,"##ospor":9506,"##rater":9507,"ernest":9508,"representerar":9509,"conc":9510,"##sforbund":9511,"utspelar":9512,"##epartementet":9513,"smitt":9514,"edwards":9515,"sha":9516,"old":9517,"reh":9518,"sic":9519,"##oud":9520,"utlandska":9521,"##ologen":9522,"jiang":9523,"##unds":9524,"produkter":9525,"khar":9526,"dest":9527,"framstall":9528,"halvgras":9529,"taiwan":9530,"rosvaxter":9531,"cort":9532,"##row":9533,"##bror":9534,"howard":9535,"mix":9536,"##snings":9537,"1844":9538,"##tain":9539,"##igenom":9540,"miguel":9541,"tul":9542,"##kov":9543,"##oland":9544,"startades":9545,"sty":9546,"##utsch":9547,"burg":9548,"wild":9549,"undervis":9550,"##ekreterare":9551,"##ianum":9552,"namligen":9553,"askad":9554,"talar":9555,"hoppspindlar":9556,"dirig":9557,"salv":9558,"konfer":9559,"roster":9560,"##onica":9561,"##ilum":9562,"svid":9563,"sarskild":9564,"zap":9565,"##krig":9566,"##ianska":9567,"peg":9568,"landerna":9569,"strateg":9570,"##ocy":9571,"tatorten":9572,"##lyst":9573,"arkitekten":9574,"gemensamt":9575,"varianter":9576,"sprang":9577,"##arra":9578,"kris":9579,"##اد":9580,"tyng":9581,"##bana":9582,"jonsson":9583,"##liknande":9584,"##uden":9585,"155":9586,"tydligt":9587,"observer":9588,"skrivna":9589,"##atak":9590,"##iten":9591,"##ioder":9592,"##litter":9593,"##centrum":9594,"##arspindlar":9595,"rah":9596,"##utbildning":9597,"##bind":9598,"##ves":9599,"oce":9600,"##iral":9601,"##varo":9602,"##bryt":9603,"##sexamen":9604,"harstammar":9605,"tull":9606,"hamburg":9607,"##iflora":9608,"term":9609,"sparvag":9610,"bilar":9611,"vav":9612,"alexand":9613,"michel":9614,"regissor":9615,"##avlingen":9616,"ersatte":9617,"konfli":9618,"nick":9619,"##elus":9620,"##ous":9621,"##atre":9622,"##obia":9623,"colorado":9624,"##igare":9625,"##ury":9626,"personal":9627,"totala":9628,"parac":9629,"kass":9630,"##ionens":9631,"##istiskt":9632,"stilla":9633,"##ingenjor":9634,"variant":9635,"karlsk":9636,"95":9637,"##itze":9638,"##lang":9639,"##ocke":9640,"isol":9641,"##omyces":9642,"kande":9643,"tandspinnare":9644,"cost":9645,"bedriv":9646,"framtradande":9647,"59":9648,"with":9649,"##prin":9650,"docent":9651,"spe":9652,"efternamn":9653,"##berga":9654,"##inensis":9655,"supp":9656,"##emar":9657,"kommunalforbundet":9658,"series":9659,"egypt":9660,"##bladiga":9661,"quito":9662,"skanska":9663,"fril":9664,"vatmarker":9665,"parlamentet":9666,"##zig":9667,"tankt":9668,"formaga":9669,"lap":9670,"klot":9671,"carp":9672,"cin":9673,"jin":9674,"sjatte":9675,"arena":9676,"urin":9677,"gymnast":9678,"arvid":9679,"##rekord":9680,"##igg":9681,"adrar":9682,"konvent":9683,"##hoe":9684,"beromda":9685,"##icollis":9686,"##rero":9687,"effektiv":9688,"katarina":9689,"##lay":9690,"sjost":9691,"cyrt":9692,"trach":9693,"slappt":9694,"marknaden":9695,"##flygplan":9696,"##yta":9697,"##figur":9698,"##ogn":9699,"##shand":9700,"##borgs":9701,"##iffer":9702,"leonard":9703,"brod":9704,"78":9705,"champion":9706,"nin":9707,"genomforde":9708,"guldmedalj":9709,"##erner":9710,"##oniidae":9711,"doro":9712,"##imp":9713,"hjarn":9714,"rent":9715,"hier":9716,"lokaler":9717,"artikel":9718,"##shan":9719,"butler":9720,"##alpus":9721,"##ranth":9722,"##rador":9723,"taget":9724,"langst":9725,"goran":9726,"##yes":9727,"blue":9728,"tric":9729,"cru":9730,"myrtenvaxtart":9731,"##enberg":9732,"##iac":9733,"##kas":9734,"lewis":9735,"vader":9736,"allen":9737,"strauss":9738,"lh":9739,"prout":9740,"anlades":9741,"halls":9742,"cote":9743,"mul":9744,"##kal":9745,"kang":9746,"##kat":9747,"nyland":9748,"host":9749,"lost":9750,"neb":9751,"oro":9752,"normand":9753,"nabb":9754,"edu":9755,"reb":9756,"##inde":9757,"utmar":9758,"kusten":9759,"sannolikt":9760,"melbourne":9761,"scop":9762,"foretrad":9763,"posten":9764,"front":9765,"lung":9766,"huvudorten":9767,"kritiker":9768,"##foretag":9769,"grov":9770,"##sha":9771,"manch":9772,"sphaer":9773,"##jed":9774,"kob":9775,"varvid":9776,"jarnvagen":9777,"his":9778,"erfaren":9779,"prom":9780,"##rivill":9781,"still":9782,"order":9783,"driver":9784,"bulgariska":9785,"cob":9786,"konda":9787,"##ligheter":9788,"##fjall":9789,"glava":9790,"bunt":9791,"lip":9792,"##iano":9793,"kalen":9794,"rose":9795,"malvavaxter":9796,"##hag":9797,"stjarnor":9798,"##fiske":9799,"premiarminister":9800,"900":9801,"##ikern":9802,"vastantarktis":9803,"##owr":9804,"1842":9805,"cass":9806,"##ynchus":9807,"##rera":9808,"##smass":9809,"##17":9810,"innef":9811,"contest":9812,"compan":9813,"rotter":9814,"skara":9815,"kazakstan":9816,"kad":9817,"hoch":9818,"##knott":9819,"tornet":9820,"holland":9821,"prefektur":9822,"stannade":9823,"mongoliet":9824,"turne":9825,"cher":9826,"##yu":9827,"karol":9828,"leva":9829,"hat":9830,"##odi":9831,"organisationer":9832,"154":9833,"##gh":9834,"tonsatt":9835,"flagg":9836,"mojligen":9837,"##anser":9838,"svidknott":9839,"158":9840,"trollslandeart":9841,"sloven":9842,"inkluderar":9843,"mossdjursart":9844,"silv":9845,"patri":9846,"anslot":9847,"sjun":9848,"klockan":9849,"chia":9850,"whit":9851,"##bladet":9852,"ile":9853,"##hes":9854,"psychotria":9855,"cien":9856,"pals":9857,"157":9858,"forbundet":9859,"lulea":9860,"hamm":9861,"bulbophyllum":9862,"vert":9863,"sjalvstandighet":9864,"kraver":9865,"langtungebin":9866,"##hai":9867,"paulo":9868,"utvid":9869,"resulterade":9870,"##ped":9871,"inratt":9872,"kenn":9873,"##dens":9874,"saknas":9875,"##mur":9876,"hex":9877,"producerades":9878,"fol":9879,"dvd":9880,"metoder":9881,"torelvaxtart":9882,"bk":9883,"dru":9884,"solo":9885,"bana":9886,"spen":9887,"indelning":9888,"wat":9889,"##bol":9890,"mika":9891,"allmanheten":9892,"flest":9893,"##ettix":9894,"##oft":9895,"##osphaer":9896,"tep":9897,"cour":9898,"rinner":9899,"##kong":9900,"ostergotland":9901,"##jarne":9902,"daghi":9903,"ping":9904,"sokte":9905,"##fast":9906,"##aker":9907,"grann":9908,"soph":9909,"##uset":9910,"##okar":9911,"vinterspelen":9912,"jugoslav":9913,"dialekt":9914,"88":9915,"identifier":9916,"torr":9917,"##kyrk":9918,"##bc":9919,"billboard":9920,"##orj":9921,"##angs":9922,"sanka":9923,"##ordin":9924,"borjat":9925,"katt":9926,"##ydda":9927,"cypern":9928,"sala":9929,"##ciata":9930,"avgjordes":9931,"revolutionen":9932,"##lon":9933,"vardera":9934,"orter":9935,"84":9936,"##ouch":9937,"##reich":9938,"hooker":9939,"phys":9940,"grona":9941,"camer":9942,"##bis":9943,"wur":9944,"beskrev":9945,"minas":9946,"byt":9947,"kemi":9948,"##omi":9949,"step":9950,"##rier":9951,"tasmanien":9952,"davis":9953,"hjalpa":9954,"##bygd":9955,"ledamo":9956,"halvgra":9957,"forandringar":9958,"##ils":9959,"anstalldes":9960,"##braken":9961,"bestamde":9962,"stein":9963,"grundlagg":9964,"halvgrasart":9965,"cri":9966,"barb":9967,"akantusvaxter":9968,"insatser":9969,"pitt":9970,"vak":9971,"sorg":9972,"palats":9973,"exakt":9974,"##arkar":9975,"1845":9976,"kotal":9977,"rorelse":9978,"friidrottare":9979,"tubu":9980,"synnerhet":9981,"kopa":9982,"landsting":9983,"phnum":9984,"portugal":9985,"varvades":9986,"socknens":9987,"##rion":9988,"evangel":9989,"kontra":9990,"lof":9991,"##sdistrikt":9992,"##igi":9993,"beraknas":9994,"innehade":9995,"introducerades":9996,"sydafrika":9997,"tuber":9998,"paborjades":9999,"chamber":10000,"huvudkontor":10001,"group":10002,"1839":10003,"akta":10004,"ukraina":10005,"##16":10006,"vecka":10007,"sjong":10008,"ulf":10009,"leh":10010,"##yte":10011,"ull":10012,"varldsc":10013,"cul":10014,"commun":10015,"insjo":10016,"avlag":10017,"pointe":10018,"flen":10019,"astrag":10020,"fungerade":10021,"gotaland":10022,"bronsmedalj":10023,"##cks":10024,"dob":10025,"eskil":10026,"##ffe":10027,"##eback":10028,"tradde":10029,"traditionellt":10030,"fragorna":10031,"##kont":10032,"hymen":10033,"##sunds":10034,"jonkopings":10035,"xi":10036,"erem":10037,"heliga":10038,"iso":10039,"schlechter":10040,"pampa":10041,"avgick":10042,"skolor":10043,"##strad":10044,"termen":10045,"##fotingar":10046,"svavflugor":10047,"##elo":10048,"kommande":10049,"nouv":10050,"##iebo":10051,"ambl":10052,"inomhus":10053,"##lopare":10054,"operation":10055,"avgorande":10056,"##ummer":10057,"82":10058,"predik":10059,"##skans":10060,"neut":10061,"##skrivare":10062,"##iao":10063,"##sakring":10064,"##oche":10065,"##rie":10066,"##otal":10067,"##leh":10068,"##iyah":10069,"##15":10070,"##aterial":10071,"karlskrona":10072,"##sattningen":10073,"##svetenskap":10074,"berb":10075,"##aa":10076,"##odox":10077,"resor":10078,"tillverkade":10079,"historiskt":10080,"inred":10081,"anderson":10082,"##smot":10083,"##stalld":10084,"filosofi":10085,"karlsson":10086,"tillverkning":10087,"dent":10088,"mant":10089,"orgel":10090,"osta":10091,"##iration":10092,"chat":10093,"pall":10094,"avratt":10095,"regional":10096,"fox":10097,"##any":10098,"fordes":10099,"montana":10100,"kansl":10101,"nos":10102,"antogs":10103,"musikvide":10104,"nationalpark":10105,"stri":10106,"##ance":10107,"##historia":10108,"##ikk":10109,"dikter":10110,"komplex":10111,"##ladd":10112,"sadant":10113,"placeras":10114,"inbland":10115,"##grav":10116,"lun":10117,"pue":10118,"hittills":10119,"##ocephala":10120,"89":10121,"prince":10122,"ked":10123,"personliga":10124,"deg":10125,"utd":10126,"dahr":10127,"medicin":10128,"##alon":10129,"bergs":10130,"basket":10131,"skelle":10132,"malningar":10133,"##ulium":10134,"flam":10135,"##ango":10136,"upptradde":10137,"tecknare":10138,"dil":10139,"kopinghuvudort":10140,"placering":10141,"varg":10142,"invaldes":10143,"akte":10144,"gatan":10145,"house":10146,"aterkom":10147,"akademien":10148,"omtal":10149,"kamer":10150,"kull":10151,"##verkan":10152,"astragalus":10153,"##attar":10154,"grasvaxtart":10155,"buss":10156,"##skolor":10157,"kungens":10158,"dart":10159,"tavlingar":10160,"glad":10161,"##andare":10162,"linn":10163,"lisa":10164,"1100":10165,"##amentet":10166,"79":10167,"##ordforande":10168,"varn":10169,"pleur":10170,"ponta":10171,"rytt":10172,"glen":10173,"stater":10174,"beat":10175,"##etti":10176,"gregor":10177,"fasta":10178,"staderna":10179,"ishockeyspelare":10180,"bebyggelse":10181,"grip":10182,"macro":10183,"##oblast":10184,"##reger":10185,"skj":10186,"##satte":10187,"##reta":10188,"fortsatter":10189,"recens":10190,"##illon":10191,"beck":10192,"##okal":10193,"##elsef":10194,"valja":10195,"stipend":10196,"malade":10197,"gallde":10198,"naturliga":10199,"smaort":10200,"ophi":10201,"annars":10202,"dz":10203,"##ardi":10204,"rektor":10205,"##punkten":10206,"bentham":10207,"tres":10208,"##essa":10209,"turner":10210,"hk":10211,"orkester":10212,"medicine":10213,"hanen":10214,"forenade":10215,"##pat":10216,"tider":10217,"framgangsrik":10218,"abbor":10219,"drivs":10220,"##rycket":10221,"mira":10222,"##itter":10223,"##redaktor":10224,"plant":10225,"vladimir":10226,"gentian":10227,"sefid":10228,"##ovit":10229,"152":10230,"##asaari":10231,"silvermedalj":10232,"konstitut":10233,"hackar":10234,"zan":10235,"##bs":10236,"albanien":10237,"canada":10238,"wen":10239,"californ":10240,"ric":10241,"lanserades":10242,"cari":10243,"##hammar":10244,"lyckas":10245,"limn":10246,"teolog":10247,"83":10248,"gaz":10249,"yong":10250,"domsag":10251,"sebast":10252,"##erska":10253,"##kur":10254,"##lers":10255,"flygv":10256,"rosvaxtart":10257,"##rica":10258,"flytta":10259,"hogskola":10260,"arkebiskop":10261,"##نگ":10262,"##ego":10263,"broth":10264,"##ovs":10265,"aj":10266,"forord":10267,"forsvann":10268,"lucas":10269,"gunther":10270,"##skilj":10271,"tillat":10272,"municipal":10273,"halsingland":10274,"##uensis":10275,"inner":10276,"##wal":10277,"bearbet":10278,"skogs":10279,"inbordeskriget":10280,"##slaget":10281,"stjarnbilden":10282,"decenn":10283,"tillbringade":10284,"##ال":10285,"stadsb":10286,"##actylus":10287,"##vara":10288,"enheter":10289,"##foring":10290,"unionen":10291,"uppgar":10292,"elli":10293,"##kol":10294,"ansi":10295,"sekunder":10296,"befordrades":10297,"ronn":10298,"kongress":10299,"fabric":10300,"drosophila":10301,"redakt":10302,"valle":10303,"konstruktion":10304,"##ligan":10305,"sarc":10306,"husflugor":10307,"##oura":10308,"hyb":10309,"kejsaren":10310,"kanadensisk":10311,"maurice":10312,"akantusvaxtart":10313,"producerade":10314,"##yga":10315,"##reds":10316,"nomos":10317,"vo":10318,"##zel":10319,"formellt":10320,"bagh":10321,"hub":10322,"##igma":10323,"coch":10324,"lamnat":10325,"##viks":10326,"99":10327,"luther":10328,"konsert":10329,"##landa":10330,"lagun":10331,"parv":10332,"bandy":10333,"qa":10334,"splitt":10335,"villkor":10336,"sonder":10337,"trod":10338,"##ithecia":10339,"malvavaxtart":10340,"gula":10341,"##organisationen":10342,"konstak":10343,"reservoar":10344,"leb":10345,"skiva":10346,"visas":10347,"frederik":10348,"motorvag":10349,"##stjanst":10350,"roger":10351,"gy":10352,"kala":10353,"oreg":10354,"cheng":10355,"erovrade":10356,"dick":10357,"mata":10358,"##saga":10359,"##atera":10360,"sjunde":10361,"##slott":10362,"megas":10363,"kit":10364,"skots":10365,"##radande":10366,"leop":10367,"hastighet":10368,"nieder":10369,"86":10370,"##omon":10371,"varum":10372,"day":10373,"##ymer":10374,"##deb":10375,"hora":10376,"nerv":10377,"asc":10378,"nobel":10379,"##fried":10380,"artikeln":10381,"##lussteklar":10382,"kravs":10383,"kraftdjur":10384,"##neumon":10385,"ostazar":10386,"teori":10387,"utstallningar":10388,"ostazarbaijan":10389,"##kogel":10390,"anhang":10391,"konstmuseum":10392,"##naderna":10393,"##14":10394,"sachsen":10395,"##stalla":10396,"chung":10397,"sarskilda":10398,"##uge":10399,"finnas":10400,"dna":10401,"jobb":10402,"##vans":10403,"angust":10404,"eupithecia":10405,"foresprak":10406,"cym":10407,"##shistor":10408,"gors":10409,"dum":10410,"mez":10411,"put":10412,"drabbades":10413,"##ogra":10414,"regioner":10415,"ombild":10416,"gota":10417,"edvard":10418,"rin":10419,"muh":10420,"kombination":10421,"##idis":10422,"##rass":10423,"##rane":10424,"rhone":10425,"passager":10426,"kvadratmeter":10427,"##eka":10428,"studentexamen":10429,"portugis":10430,"sats":10431,"##anensis":10432,"korallart":10433,"kommunikation":10434,"trog":10435,"poet":10436,"romant":10437,"kid":10438,"naturen":10439,"montreal":10440,"gordon":10441,"helst":10442,"puc":10443,"underl":10444,"##rafiken":10445,"ekologi":10446,"87":10447,"frivill":10448,"##py":10449,"shi":10450,"kravde":10451,"representant":10452,"##ikal":10453,"ral":10454,"wag":10455,"##rong":10456,"##garder":10457,"obsc":10458,"raj":10459,"association":10460,"enc":10461,"##ento":10462,"verkstallande":10463,"angermanland":10464,"ogat":10465,"bois":10466,"##alder":10467,"##right":10468,"def":10469,"##vania":10470,"##elset":10471,"anledning":10472,"##ake":10473,"syst":10474,"blekinge":10475,"avveck":10476,"gruva":10477,"holly":10478,"antio":10479,"sah":10480,"nordisk":10481,"ovanligt":10482,"sich":10483,"##mord":10484,"forr":10485,"utstallning":10486,"##terar":10487,"##alens":10488,"intens":10489,"##produc":10490,"##ylis":10491,"##iodes":10492,"##brakenvaxtart":10493,"poll":10494,"observatoriet":10495,"cac":10496,"##familjen":10497,"tv4":10498,"historisk":10499,"ute":10500,"hobart":10501,"##stallningen":10502,"laos":10503,"gru":10504,"kinsh":10505,"krim":10506,"neph":10507,"melast":10508,"head":10509,"brid":10510,"kaw":10511,"##uti":10512,"science":10513,"##abi":10514,"debatt":10515,"romaner":10516,"##ка":10517,"aq":10518,"karin":10519,"kamen":10520,"pus":10521,"##essan":10522,"chor":10523,"province":10524,"synd":10525,"forsoka":10526,"tysklands":10527,"formodligen":10528,"##leken":10529,"gig":10530,"uppfor":10531,"##ygden":10532,"##halla":10533,"fruh":10534,"eumen":10535,"##odont":10536,"riddar":10537,"stjarnan":10538,"cons":10539,"great":10540,"##sbygd":10541,"1834":10542,"moss":10543,"stur":10544,"thailand":10545,"uteslut":10546,"##akes":10547,"fish":10548,"##tend":10549,"##yds":10550,"human":10551,"##perioden":10552,"##gift":10553,"nassel":10554,"asa":10555,"anc":10556,"fornlamningar":10557,"##ionerna":10558,"borta":10559,"##samheten":10560,"tidningar":10561,"pastoratet":10562,"kinshasa":10563,"1841":10564,"automat":10565,"##vill":10566,"anto":10567,"paminner":10568,"##raget":10569,"1843":10570,"hittades":10571,"hunt":10572,"vest":10573,"kirim":10574,"##elflugor":10575,"styrka":10576,"kani":10577,"nybygg":10578,"boras":10579,"satta":10580,"ekv":10581,"cong":10582,"##ble":10583,"versioner":10584,"ake":10585,"koudiet":10586,"viking":10587,"anlaggningen":10588,"##uka":10589,"##provinsen":10590,"##oidea":10591,"fak":10592,"##coides":10593,"##usta":10594,"##quin":10595,"rhin":10596,"##olla":10597,"vagar":10598,"racing":10599,"kram":10600,"##iso":10601,"naturvard":10602,"harald":10603,"guang":10604,"busk":10605,"musikaliska":10606,"##lich":10607,"##soni":10608,"invas":10609,"##ningsvis":10610,"##sverk":10611,"arrang":10612,"alc":10613,"##undi":10614,"##dahl":10615,"gray":10616,"aktenskapet":10617,"kuk":10618,"ansvarig":10619,"##yche":10620,"stump":10621,"demonst":10622,"judar":10623,"##hult":10624,"senast":10625,"kollekt":10626,"avhand":10627,"klassisk":10628,"##sok":10629,"##uki":10630,"carlos":10631,"##schild":10632,"##anns":10633,"##ouk":10634,"svans":10635,"occit":10636,"##esta":10637,"1835":10638,"utbildnings":10639,"##ikon":10640,"bestall":10641,"##rops":10642,"##indi":10643,"##medel":10644,"##ysia":10645,"borrflugor":10646,"##opet":10647,"##ubile":10648,"bif":10649,"kackerlack":10650,"##isering":10651,"##stach":10652,"##ieri":10653,"omgangen":10654,"felix":10655,"company":10656,"abraham":10657,"utman":10658,"oriental":10659,"sorter":10660,"##entris":10661,"bosatte":10662,"huvudrollen":10663,"alan":10664,"##acruz":10665,"langror":10666,"upplaga":10667,"##sforening":10668,"fattig":10669,"##sbladloss":10670,"##slagen":10671,"##uppdrag":10672,"erit":10673,"senator":10674,"klubbens":10675,"langrorsbladloss":10676,"kirimoj":10677,"sup":10678,"syrsor":10679,"##elns":10680,"bromsar":10681,"likt":10682,"skivor":10683,"radda":10684,"key":10685,"forekommande":10686,"utvecklas":10687,"vistas":10688,"##yli":10689,"brunn":10690,"manskliga":10691,"##annande":10692,"bour":10693,"mangder":10694,"nederlandska":10695,"svensson":10696,"##iza":10697,"fruhstor":10698,"rus":10699,"okar":10700,"##smet":10701,"forhallanden":10702,"petersburg":10703,"##tur":10704,"darifran":10705,"virginia":10706,"sump":10707,"##vad":10708,"arkiv":10709,"barrage":10710,"herrgard":10711,"gifta":10712,"##ifolium":10713,"##sborgs":10714,"odle":10715,"fral":10716,"utfard":10717,"##ression":10718,"##shovding":10719,"avrinningsomradets":10720,"##opteryx":10721,"loph":10722,"veracruz":10723,"doden":10724,"ovanfor":10725,"##enus":10726,"arct":10727,"norman":10728,"##ulu":10729,"kub":10730,"brant":10731,"##strackning":10732,"1837":10733,"##mers":10734,"##forsvar":10735,"overg":10736,"textil":10737,"svard":10738,"simulium":10739,"##skning":10740,"vagn":10741,"##orget":10742,"helena":10743,"vap":10744,"tilltradde":10745,"forklarade":10746,"##edig":10747,"anpass":10748,"spil":10749,"syftet":10750,"frans":10751,"strackan":10752,"##lect":10753,"napoleon":10754,"##ovic":10755,"nunatak":10756,"staf":10757,"invald":10758,"monark":10759,"mjuk":10760,"konflikt":10761,"##dor":10762,"##aculata":10763,"##onte":10764,"avbild":10765,"##omorpha":10766,"##asjon":10767,"asm":10768,"##hot":10769,"even":10770,"##jah":10771,"##اه":10772,"tah":10773,"delade":10774,"turnering":10775,"overens":10776,"kyrkogard":10777,"douglas":10778,"television":10779,"##rakter":10780,"##verse":10781,"hebre":10782,"akut":10783,"bjor":10784,"euph":10785,"##dals":10786,"overb":10787,"##ktyg":10788,"##ree":10789,"sistnamnda":10790,"klatt":10791,"euphor":10792,"##idea":10793,"##elsson":10794,"levnadssatt":10795,"flat":10796,"banglades":10797,"foreb":10798,"bangladesh":10799,"utflode":10800,"##opod":10801,"##arsus":10802,"##ija":10803,"rain":10804,"##rug":10805,"sodertalje":10806,"sher":10807,"academ":10808,"div":10809,"buck":10810,"##inum":10811,"##sea":10812,"personen":10813,"##buk":10814,"##amt":10815,"birg":10816,"medborgare":10817,"azerbajdzjan":10818,"##skarriar":10819,"homer":10820,"borde":10821,"##rund":10822,"##ione":10823,"##inosa":10824,"##west":10825,"broll":10826,"minskade":10827,"plast":10828,"sate":10829,"##iled":10830,"minut":10831,"kaj":10832,"##yon":10833,"sinn":10834,"zur":10835,"##vux":10836,"forblev":10837,"##illus":10838,"odleart":10839,"sagt":10840,"kunnat":10841,"administrativt":10842,"handelser":10843,"sater":10844,"utsatt":10845,"tanger":10846,"byggas":10847,"fullt":10848,"elect":10849,"##areh":10850,"hushall":10851,"fat":10852,"undvika":10853,"restaurang":10854,"iden":10855,"##onne":10856,"beteckningen":10857,"paso":10858,"golo":10859,"voblast":10860,"thunder":10861,"lage":10862,"mete":10863,"dottern":10864,"aw":10865,"melastomataceae":10866,"220":10867,"street":10868,"mjolk":10869,"##oser":10870,"upprep":10871,"liby":10872,"enter":10873,"##itekt":10874,"##bran":10875,"##esch":10876,"cupen":10877,"folkrakning":10878,"##iber":10879,"schaus":10880,"esper":10881,"##hof":10882,"church":10883,"praktiken":10884,"1829":10885,"##oti":10886,"open":10887,"etablerade":10888,"##antes":10889,"northern":10890,"##svenska":10891,"nouvelle":10892,"##haus":10893,"##13":10894,"##storp":10895,"##wart":10896,"paral":10897,"gio":10898,"vakt":10899,"kha":10900,"gjorts":10901,"hydra":10902,"sallskapet":10903,"lomb":10904,"undervisning":10905,"konung":10906,"##strid":10907,"##arum":10908,"##ophth":10909,"##spektiv":10910,"lennart":10911,"##ommar":10912,"96":10913,"trask":10914,"##eholm":10915,"urban":10916,"furst":10917,"##ariska":10918,"utara":10919,"##elsel":10920,"komposition":10921,"reduc":10922,"rothschild":10923,"pia":10924,"pec":10925,"gogae":10926,"##aring":10927,"ratten":10928,"qarah":10929,"##edral":10930,"grim":10931,"##tran":10932,"##anas":10933,"varden":10934,"angola":10935,"canal":10936,"##amerikanska":10937,"insjoar":10938,"##urser":10939,"font":10940,"linkopings":10941,"sens":10942,"tus":10943,"##øn":10944,"trapp":10945,"way":10946,"koch":10947,"partier":10948,"##atts":10949,"boston":10950,"pico":10951,"monter":10952,"stap":10953,"blas":10954,"loch":10955,"##iane":10956,"jurist":10957,"dygn":10958,"louise":10959,"fatal":10960,"ovansidan":10961,"##ycke":10962,"tillfalligt":10963,"medarbetare":10964,"forvant":10965,"fangats":10966,"cli":10967,"birk":10968,"grundlaggande":10969,"radsomradet":10970,"traffade":10971,"skydda":10972,"larde":10973,"##lapp":10974,"salja":10975,"1833":10976,"##str":10977,"##foll":10978,"##amas":10979,"funktioner":10980,"odling":10981,"##artade":10982,"triv":10983,"##mande":10984,"flydde":10985,"tokyo":10986,"tir":10987,"familjer":10988,"antas":10989,"capit":10990,"konstnarer":10991,"aterkommande":10992,"##arkitekt":10993,"ungar":10994,"semifinal":10995,"##raken":10996,"##uff":10997,"souss":10998,"charlotte":10999,"avslutades":11000,"sangaren":11001,"mario":11002,"##iscus":11003,"placerades":11004,"uppm":11005,"lasa":11006,"mess":11007,"##emus":11008,"fruhstorfer":11009,"clav":11010,"flit":11011,"##mas":11012,"##eto":11013,"mening":11014,"habitat":11015,"sork":11016,"deh":11017,"utstrackning":11018,"troligt":11019,"ljungvaxter":11020,"dykare":11021,"##dat":11022,"tillfalle":11023,"##inos":11024,"skador":11025,"##kvarter":11026,"##ao":11027,"amerikanske":11028,"nationalmuseum":11029,"bibli":11030,"##quia":11031,"utmarkelser":11032,"kanner":11033,"98":11034,"##acia":11035,"kirk":11036,"hoff":11037,"varmlands":11038,"##krit":11039,"stjart":11040,"dokumentar":11041,"lot":11042,"##mit":11043,"##bladsvaxter":11044,"bedrev":11045,"nordostlig":11046,"loi":11047,"##rox":11048,"volk":11049,"##jaure":11050,"road":11051,"skelleftea":11052,"wer":11053,"##antis":11054,"##itaine":11055,"##uft":11056,"parap":11057,"##idu":11058,"##akare":11059,"##knipp":11060,"hovet":11061,"boris":11062,"utp":11063,"cylind":11064,"##kopf":11065,"##mont":11066,"##innbaggar":11067,"jarnvagsst":11068,"##okan":11069,"kyrkliga":11070,"konserter":11071,"paborjade":11072,"cond":11073,"undan":11074,"anhangare":11075,"fikt":11076,"upper":11077,"eduard":11078,"slutar":11079,"krigs":11080,"allierade":11081,"norrbotten":11082,"championship":11083,"grundare":11084,"##opel":11085,"bala":11086,"utvecklat":11087,"megaselia":11088,"##lom":11089,"##regementet":11090,"lax":11091,"##sol":11092,"iz":11093,"##ður":11094,"deltagit":11095,"undersidan":11096,"framt":11097,"german":11098,"nicola":11099,"##adas":11100,"##ulum":11101,"turist":11102,"snylt":11103,"kyrkobyggnad":11104,"lub":11105,"##cata":11106,"vaningar":11107,"kah":11108,"##pal":11109,"asiat":11110,"dys":11111,"sydamerika":11112,"klassific":11113,"tillag":11114,"##rute":11115,"##cka":11116,"##ariidae":11117,"baserade":11118,"negro":11119,"##studier":11120,"ic":11121,"spi":11122,"beslot":11123,"umm":11124,"##ugan":11125,"##organ":11126,"kompositor":11127,"##tar":11128,"four":11129,"rodrig":11130,"myndigheter":11131,"##oclad":11132,"kyrkoherde":11133,"vanns":11134,"##filmer":11135,"cephal":11136,"schles":11137,"behandlas":11138,"absolut":11139,"territoriet":11140,"##amper":11141,"planerade":11142,"kvall":11143,"kontro":11144,"partiets":11145,"avsloj":11146,"pow":11147,"andalus":11148,"rubus":11149,"beholl":11150,"preuss":11151,"bahia":11152,"##takter":11153,"##vakt":11154,"ster":11155,"##alton":11156,"betala":11157,"rodlistan":11158,"korde":11159,"##iansk":11160,"cetoniidae":11161,"kanna":11162,"kristend":11163,"##inspel":11164,"##azi":11165,"partik":11166,"fjard":11167,"1809":11168,"1820":11169,"gosta":11170,"jesu":11171,"paz":11172,"##eno":11173,"elias":11174,"zem":11175,"population":11176,"##ky":11177,"##frid":11178,"arenan":11179,"naturligt":11180,"labor":11181,"omedelbart":11182,"mt":11183,"##has":11184,"##ikter":11185,"##anmar":11186,"##arium":11187,"adri":11188,"utvecklats":11189,"##gavs":11190,"festival":11191,"provfiske":11192,"garna":11193,"##dorf":11194,"polyg":11195,"ozero":11196,"trodde":11197,"##uru":11198,"filmerna":11199,"utstallningen":11200,"magnet":11201,"munk":11202,"kammaren":11203,"occitanien":11204,"disn":11205,"utvidg":11206,"bem":11207,"forman":11208,"##esp":11209,"##sim":11210,"meyrick":11211,"kompletter":11212,"##eler":11213,"vasterbotten":11214,"##oen":11215,"klin":11216,"magall":11217,"##bocker":11218,"##upe":11219,"skada":11220,"##acitet":11221,"knappt":11222,"judiska":11223,"kjell":11224,"##vavarspindlar":11225,"##angare":11226,"tackvavarspindlar":11227,"krak":11228,"ombord":11229,"filmografi":11230,"humor":11231,"ideer":11232,"tort":11233,"##ters":11234,"okat":11235,"##ktes":11236,"skov":11237,"jungfr":11238,"lc":11239,"acc":11240,"damer":11241,"bryssel":11242,"##ococcus":11243,"barndom":11244,"nelson":11245,"gyeong":11246,"chin":11247,"utbrott":11248,"svea":11249,"comte":11250,"dendrob":11251,"hjalmar":11252,"anka":11253,"offer":11254,"moln":11255,"amaryllis":11256,"##ologiskt":11257,"lattare":11258,"aquitaine":11259,"cross":11260,"##elberg":11261,"##ather":11262,"##azar":11263,"orient":11264,"undersokningar":11265,"kunt":11266,"##angar":11267,"poec":11268,"##eet":11269,"utgang":11270,"##ichth":11271,"terror":11272,"##ан":11273,"foreslog":11274,"##cas":11275,"##avtal":11276,"sve":11277,"##onto":11278,"gis":11279,"tempel":11280,"##unct":11281,"bens":11282,"##ehand":11283,"rust":11284,"##emin":11285,"forega":11286,"fara":11287,"jersey":11288,"tad":11289,"##cio":11290,"tillhort":11291,"##iste":11292,"tusen":11293,"musikalbum":11294,"tavlar":11295,"misst":11296,"##etisk":11297,"hander":11298,"kritis":11299,"ockup":11300,"##skjut":11301,"##leden":11302,"relation":11303,"behovde":11304,"palest":11305,"92":11306,"andel":11307,"definition":11308,"mina":11309,"magallanes":11310,"bildat":11311,"potent":11312,"helik":11313,"##edy":11314,"server":11315,"olja":11316,"##plet":11317,"##ygen":11318,"minist":11319,"benn":11320,"myanmar":11321,"rutelidae":11322,"sekund":11323,"##uj":11324,"##forare":11325,"##yss":11326,"##roth":11327,"grader":11328,"##ission":11329,"amnet":11330,"inriktning":11331,"stumpbaggar":11332,"dow":11333,"utfordes":11334,"radet":11335,"fenomen":11336,"byggt":11337,"##ingue":11338,"lyder":11339,"marknadsfor":11340,"deutsch":11341,"##ibi":11342,"maskin":11343,"styrkor":11344,"begav":11345,"noll":11346,"forbi":11347,"roh":11348,"##opl":11349,"diskuss":11350,"##umann":11351,"oblast":11352,"cocker":11353,"93":11354,"##kriget":11355,"1832":11356,"##horax":11357,"oliver":11358,"arbetare":11359,"gera":11360,"210":11361,"##yton":11362,"bonde":11363,"natverk":11364,"forknipp":11365,"store":11366,"guds":11367,"##fram":11368,"stalldes":11369,"##estad":11370,"##retsen":11371,"hul":11372,"##anum":11373,"litterara":11374,"##vergne":11375,"##issima":11376,"observ":11377,"vinnare":11378,"bagge":11379,"##visa":11380,"ungdoms":11381,"illustrat":11382,"motorn":11383,"eumenidae":11384,"##faltet":11385,"bun":11386,"##cial":11387,"##yser":11388,"##apt":11389,"berattelser":11390,"avancerade":11391,"daligt":11392,"loren":11393,"jordan":11394,"##ence":11395,"naturskydd":11396,"##fru":11397,"prost":11398,"time":11399,"normal":11400,"okad":11401,"foregaende":11402,"mack":11403,"georgien":11404,"datab":11405,"##enskap":11406,"##chang":11407,"mottagande":11408,"ladd":11409,"cirk":11410,"##ukten":11411,"##stjan":11412,"koncern":11413,"cycl":11414,"1836":11415,"##ocerus":11416,"priser":11417,"mote":11418,"gha":11419,"##oon":11420,"handlingen":11421,"upph":11422,"bryt":11423,"gotlands":11424,"segrar":11425,"##asis":11426,"##ellerna":11427,"clad":11428,"drak":11429,"shin":11430,"##igu":11431,"uppvaxt":11432,"kommunens":11433,"##filmen":11434,"##pool":11435,"vattenfall":11436,"##agon":11437,"losa":11438,"uppland":11439,"utrym":11440,"betyda":11441,"inspelningen":11442,"partiled":11443,"fry":11444,"hills":11445,"windows":11446,"fritt":11447,"esf":11448,"huvudroller":11449,"culi":11450,"margaret":11451,"vinrute":11452,"korsblommiga":11453,"overk":11454,"gel":11455,"kec":11456,"##enne":11457,"##eon":11458,"osak":11459,"fristaende":11460,"tofs":11461,"##etown":11462,"##ouan":11463,"snyltrots":11464,"pry":11465,"marit":11466,"osterrikiska":11467,"infekt":11468,"##fs":11469,"insats":11470,"bh":11471,"##slos":11472,"latlista":11473,"chiapas":11474,"##omar":11475,"singlar":11476,"bernard":11477,"##ient":11478,"##stuna":11479,"##rio":11480,"##jara":11481,"buntu":11482,"ez":11483,"##imo":11484,"ledningen":11485,"islands":11486,"##republi":11487,"auvergne":11488,"emp":11489,"##orit":11490,"##ifik":11491,"uran":11492,"##ropis":11493,"##akien":11494,"atskill":11495,"##istans":11496,"kategorin":11497,"normandie":11498,"##oux":11499,"christina":11500,"##ellata":11501,"bostader":11502,"borgerliga":11503,"genomgick":11504,"uppstar":11505,"forstordes":11506,"hort":11507,"##radde":11508,"apotek":11509,"kackerlacksart":11510,"##ches":11511,"ledamoter":11512,"97":11513,"rolf":11514,"seh":11515,"##uqu":11516,"landh":11517,"claude":11518,"dendrobium":11519,"94":11520,"pyram":11521,"shar":11522,"flertalet":11523,"ult":11524,"##valla":11525,"insk":11526,"varpa":11527,"speciella":11528,"vagrade":11529,"##stadt":11530,"##blo":11531,"lamnar":11532,"schwar":11533,"##uenay":11534,"saguenay":11535,"semi":11536,"soka":11537,"skilda":11538,"drom":11539,"matematik":11540,"arhund":11541,"wahl":11542,"##stationen":11543,"##ipe":11544,"individerna":11545,"glaciar":11546,"tis":11547,"##ackor":11548,"barnet":11549,"##ems":11550,"rhynch":11551,"stephen":11552,"##iton":11553,"begransad":11554,"##resident":11555,"havdade":11556,"amarant":11557,"desig":11558,"bayern":11559,"##abil":11560,"bach":11561,"ljungvaxtart":11562,"ghowr":11563,"stiftelsen":11564,"enkla":11565,"mikael":11566,"from":11567,"##teri":11568,"leip":11569,"vardef":11570,"utomlands":11571,"##ved":11572,"passerar":11573,"kristina":11574,"okand":11575,"bockerna":11576,"hebreiska":11577,"falls":11578,"kyrkbyn":11579,"##ningsplats":11580,"marshall":11581,"myst":11582,"dods":11583,"230":11584,"giovan":11585,"scenen":11586,"lagar":11587,"##lagda":11588,"mou":11589,"orange":11590,"pang":11591,"zah":11592,"sop":11593,"bokstav":11594,"donald":11595,"finglanssteklar":11596,"##adan":11597,"kora":11598,"nominerades":11599,"vulkan":11600,"61":11601,"nou":11602,"##ovich":11603,"moritz":11604,"##aterade":11605,"upptackte":11606,"##syl":11607,"raka":11608,"##ener":11609,"wars":11610,"typen":11611,"##result":11612,"mesta":11613,"bruce":11614,"service":11615,"اب":11616,"##day":11617,"karr":11618,"##fagel":11619,"motstandare":11620,"anomala":11621,"##raten":11622,"##86":11623,"carlsson":11624,"nicholas":11625,"uppman":11626,"braun":11627,"aboland":11628,"##ratts":11629,"joe":11630,"bruket":11631,"joa":11632,"sik":11633,"##anor":11634,"calli":11635,"misstan":11636,"ortodox":11637,"schmidt":11638,"zel":11639,"cry":11640,"oxford":11641,"##teckning":11642,"antyder":11643,"##igny":11644,"staff":11645,"blues":11646,"morris":11647,"forfattade":11648,"dolok":11649,"##adder":11650,"##illes":11651,"darigenom":11652,"map":11653,"##ygium":11654,"nack":11655,"##igera":11656,"forstark":11657,"varumark":11658,"##kod":11659,"##anner":11660,"gracilis":11661,"##skriften":11662,"bilden":11663,"robot":11664,"sjukdomar":11665,"norges":11666,"diskuter":11667,"##atorn":11668,"##phis":11669,"tach":11670,"kinesisk":11671,"xii":11672,"lamb":11673,"##ordningen":11674,"##bul":11675,"##ychus":11676,"veckan":11677,"xin":11678,"##smyggor":11679,"##arskontrakt":11680,"svampmyggor":11681,"##ffer":11682,"##endrum":11683,"conf":11684,"ryd":11685,"kortvingar":11686,"konstantin":11687,"jamn":11688,"##snas":11689,"diagn":11690,"pedagog":11691,"##ulis":11692,"inloppet":11693,"##area":11694,"anvant":11695,"moral":11696,"kvinnan":11697,"manliga":11698,"##lanta":11699,"verde":11700,"##regler":11701,"tomas":11702,"dartill":11703,"gira":11704,"##pert":11705,"brian":11706,"elmer":11707,"norte":11708,"dokumenter":11709,"alkohol":11710,"foral":11711,"livsmiljo":11712,"##ylum":11713,"artilleri":11714,"##ubbel":11715,"bop":11716,"brandenburg":11717,"kronan":11718,"dasht":11719,"ced":11720,"##dagen":11721,"##given":11722,"magister":11723,"kristen":11724,"##varden":11725,"mojligheter":11726,"eun":11727,"yuk":11728,"##anal":11729,"##dy":11730,"micros":11731,"primar":11732,"##found":11733,"peper":11734,"nah":11735,"wid":11736,"##fel":11737,"##inae":11738,"cho":11739,"vagbin":11740,"fora":11741,"##isi":11742,"350":11743,"##stekn":11744,"samfund":11745,"##oko":11746,"darwin":11747,"enst":11748,"juridik":11749,"birger":11750,"##ilda":11751,"forsvarsmakten":11752,"betydelsen":11753,"chilena":11754,"fig":11755,"##ileg":11756,"1815":11757,"doc":11758,"##erings":11759,"korn":11760,"amazonas":11761,"fastlandet":11762,"kretsar":11763,"miller":11764,"tillverkas":11765,"etapp":11766,"omnamns":11767,"gator":11768,"fabricius":11769,"pjasen":11770,"visst":11771,"##aket":11772,"##uelo":11773,"##tab":11774,"##teh":11775,"behandlar":11776,"amerika":11777,"borgmastare":11778,"korg":11779,"##ulatum":11780,"tvungen":11781,"##oppen":11782,"antog":11783,"bass":11784,"saknade":11785,"##byggd":11786,"medverkar":11787,"ankn":11788,"huvudsakliga":11789,"149":11790,"yam":11791,"state":11792,"foster":11793,"shir":11794,"delstat":11795,"##رد":11796,"llan":11797,"mud":11798,"ard":11799,"##acan":11800,"falk":11801,"newfound":11802,"##amer":11803,"phylla":11804,"jen":11805,"##uridae":11806,"gifter":11807,"##alle":11808,"##rocess":11809,"##recht":11810,"eritrea":11811,"##skare":11812,"##artica":11813,"##steater":11814,"deltagande":11815,"##furt":11816,"##etto":11817,"enkl":11818,"##iven":11819,"tillhorighet":11820,"##medlem":11821,"main":11822,"baku":11823,"valley":11824,"fischer":11825,"forflytt":11826,"ungdomar":11827,"engagerad":11828,"hollywood":11829,"noj":11830,"tow":11831,"kommend":11832,"karp":11833,"cienaga":11834,"##ely":11835,"##upt":11836,"trang":11837,"klostret":11838,"lyn":11839,"sammanslagning":11840,"solens":11841,"uppdraget":11842,"cameron":11843,"paras":11844,"utomhus":11845,"##mia":11846,"raz":11847,"##lever":11848,"##bladsvaxtart":11849,"foregangare":11850,"jenn":11851,"hugh":11852,"halvon":11853,"bush":11854,"##historiska":11855,"kvalificerade":11856,"ombildades":11857,"meters":11858,"pros":11859,"jonkoping":11860,"##wit":11861,"##ionidae":11862,"puckelflugor":11863,"mom":11864,"utfora":11865,"##utz":11866,"tvar":11867,"blandning":11868,"hittas":11869,"askadare":11870,"vii":11871,"premier":11872,"guadal":11873,"yaz":11874,"##ming":11875,"##uu":11876,"##klubben":11877,"##tog":11878,"##hiz":11879,"akademi":11880,"illin":11881,"##sall":11882,"##arte":11883,"##kann":11884,"##steatern":11885,"vor":11886,"##uco":11887,"planen":11888,"kell":11889,"parana":11890,"##bost":11891,"lea":11892,"##bek":11893,"smed":11894,"##boken":11895,"##umt":11896,"chan":11897,"nyslott":11898,"betong":11899,"foretagets":11900,"foljdes":11901,"segern":11902,"skulptur":11903,"##idad":11904,"labrador":11905,"fossil":11906,"##ls":11907,"##rud":11908,"klubbar":11909,"likhet":11910,"starten":11911,"##zabeth":11912,"cyn":11913,"antartica":11914,"dokt":11915,"##jin":11916,"pennsyl":11917,"bourgogne":11918,"storst":11919,"##samlar":11920,"historiker":11921,"venedig":11922,"cub":11923,"##opio":11924,"protest":11925,"elizabeth":11926,"overtogs":11927,"##gotlands":11928,"stabil":11929,"240":11930,"telefon":11931,"newfoundland":11932,"prat":11933,"hip":11934,"minskar":11935,"tjanster":11936,"rorande":11937,"chir":11938,"##arbetet":11939,"motiver":11940,"coron":11941,"etc":11942,"bars":11943,"##ettan":11944,"phae":11945,"kalendern":11946,"kvartsf":11947,"marcus":11948,"##eve":11949,"amster":11950,"kronprin":11951,"epidendrum":11952,"##opis":11953,"1824":11954,"potosi":11955,"kusin":11956,"##ving":11957,"stadsplan":11958,"microp":11959,"bug":11960,"##okk":11961,"heli":11962,"latskrivare":11963,"obsjtina":11964,"1818":11965,"hatt":11966,"##ores":11967,"gan":11968,"studie":11969,"dak":11970,"eth":11971,"##ariga":11972,"intel":11973,"rond":11974,"storharkrankar":11975,"##visor":11976,"dhaka":11977,"##ografiskt":11978,"fritz":11979,"##nica":11980,"##amatcher":11981,"kru":11982,"marx":11983,"sey":11984,"halsa":11985,"amsterdam":11986,"phyllach":11987,"buksamlar":11988,"ub":11989,"society":11990,"nyckel":11991,"##stamm":11992,"segel":11993,"cun":11994,"##lax":11995,"##ieu":11996,"##falz":11997,"kapp":11998,"buksamlarbin":11999,"##samlingen":12000,"skogen":12001,"samlings":12002,"atel":12003,"psal":12004,"inspiration":12005,"anst":12006,"majoritet":12007,"##astra":12008,"sorkh":12009,"enstaka":12010,"stalla":12011,"##ienter":12012,"bredd":12013,"brut":12014,"karlstad":12015,"##yb":12016,"##ер":12017,"linj":12018,"alta":12019,"##joki":12020,"regement":12021,"folkets":12022,"skapar":12023,"plata":12024,"skapat":12025,"##driv":12026,"forvand":12027,"djurart":12028,"framforde":12029,"cres":12030,"eskilstuna":12031,"##لا":12032,"faltt":12033,"##kommit":12034,"ghana":12035,"grundat":12036,"populart":12037,"nico":12038,"handlingar":12039,"flygplatsen":12040,"1828":12041,"ambetsman":12042,"##opol":12043,"morka":12044,"ritades":12045,"ae":12046,"hin":12047,"vu":12048,"##ulidae":12049,"polsk":12050,"andalusien":12051,"varken":12052,"breda":12053,"fed":12054,"##linge":12055,"vilja":12056,"##alu":12057,"arnold":12058,"unge":12059,"framtid":12060,"thomson":12061,"forandring":12062,"flygplanet":12063,"manchester":12064,"malt":12065,"harda":12066,"generation":12067,"##flod":12068,"##idaw":12069,"##laggningen":12070,"##sstyr":12071,"aar":12072,"##polit":12073,"riktigt":12074,"1810":12075,"##ein":12076,"##chell":12077,"typh":12078,"giovanni":12079,"eud":12080,"##pi":12081,"oversattare":12082,"ericsson":12083,"##tha":12084,"bist":12085,"##wich":12086,"##sakt":12087,"europas":12088,"svarade":12089,"presidenten":12090,"eftertradare":12091,"euphorbia":12092,"iron":12093,"huvudperson":12094,"erich":12095,"norrland":12096,"overv":12097,"emblik":12098,"fods":12099,"##opsyche":12100,"presenterades":12101,"##aku":12102,"frankrikes":12103,"##wana":12104,"##cyk":12105,"lejon":12106,"gerais":12107,"ian":12108,"sis":12109,"##istriktet":12110,"stenen":12111,"night":12112,"##overk":12113,"skaff":12114,"lp":12115,"##kant":12116,"##ند":12117,"##ovice":12118,"frik":12119,"synlig":12120,"ljusar":12121,"##osterreich":12122,"atervanda":12123,"rhein":12124,"harjed":12125,"frakt":12126,"##mand":12127,"stenb":12128,"munt":12129,"##anerna":12130,"signal":12131,"##estrad":12132,"##permum":12133,"uru":12134,"inhem":12135,"skoldlussteklar":12136,"cockerell":12137,"symp":12138,"berattelsen":12139,"##komma":12140,"aktivt":12141,"##steman":12142,"##incta":12143,"psil":12144,"##pus":12145,"succe":12146,"##sken":12147,"samlingar":12148,"halland":12149,"golden":12150,"katalonien":12151,"##fald":12152,"reka":12153,"tox":12154,"chim":12155,"hamnen":12156,"landskamper":12157,"veliki":12158,"##22":12159,"##lima":12160,"benamningen":12161,"aga":12162,"avb":12163,"suff":12164,"81":12165,"##enbach":12166,"##ppe":12167,"##skyrkan":12168,"svenske":12169,"echin":12170,"##manuel":12171,"nyhet":12172,"cosm":12173,"upptrad":12174,"framtida":12175,"##bergen":12176,"##edi":12177,"avser":12178,"sug":12179,"helsingborgs":12180,"balet":12181,"##fera":12182,"hauts":12183,"georgetown":12184,"foot":12185,"sip":12186,"anlit":12187,"##pers":12188,"##osex":12189,"ekonomiskt":12190,"cyan":12191,"avdelning":12192,"##jt":12193,"oax":12194,"##hs":12195,"##him":12196,"plus":12197,"wo":12198,"##asien":12199,"ingaende":12200,"hawa":12201,"intressen":12202,"jugoslavien":12203,"skyld":12204,"##examin":12205,"##gers":12206,"underjord":12207,"##xamen":12208,"styl":12209,"ivar":12210,"##ische":12211,"vinde":12212,"ungerska":12213,"sakrist":12214,"##orlunda":12215,"vackte":12216,"sack":12217,"titlar":12218,"hantverk":12219,"anlande":12220,"##sdagen":12221,"patrick":12222,"##emburg":12223,"spet":12224,"regisserad":12225,"pom":12226,"##cal":12227,"##alisering":12228,"kyrkobyggnaden":12229,"jae":12230,"kay":12231,"befann":12232,"werner":12233,"##alem":12234,"ath":12235,"fodda":12236,"jules":12237,"symboli":12238,"daggflugor":12239,"belonades":12240,"scel":12241,"holstein":12242,"##olution":12243,"bernhard":12244,"zab":12245,"tidens":12246,"apost":12247,"kraftig":12248,"torget":12249,"strider":12250,"ravin":12251,"demokratiska":12252,"nicar":12253,"drae":12254,"tabanus":12255,"##stral":12256,"##ommern":12257,"haiti":12258,"##serie":12259,"##ouri":12260,"dynast":12261,"##dalena":12262,"##yper":12263,"aring":12264,"blommor":12265,"regementet":12266,"genomfor":12267,"nym":12268,"givit":12269,"##gora":12270,"##zh":12271,"fantas":12272,"our":12273,"##opal":12274,"##sforbundet":12275,"reformer":12276,"sord":12277,"##non":12278,"arne":12279,"##yns":12280,"sichuan":12281,"hult":12282,"starta":12283,"only":12284,"drakt":12285,"seat":12286,"##vampar":12287,"##haller":12288,"imm":12289,"drew":12290,"##jarneart":12291,"tomm":12292,"##line":12293,"##emer":12294,"elaph":12295,"cambridge":12296,"ritade":12297,"##fect":12298,"1819":12299,"embrik":12300,"norrbottens":12301,"ana":12302,"triang":12303,"luxemburg":12304,"yt":12305,"##plant":12306,"faderns":12307,"naypy":12308,"naypyidaw":12309,"tou":12310,"wel":12311,"##utskottet":12312,"mile":12313,"rumanien":12314,"forsaljning":12315,"##utbild":12316,"publiken":12317,"##olin":12318,"dah":12319,"sjal":12320,"erbjuder":12321,"adels":12322,"mikro":12323,"carex":12324,"##algo":12325,"##officer":12326,"pagick":12327,"underteck":12328,"metoden":12329,"gardar":12330,"passion":12331,"gabon":12332,"kinestrad":12333,"ockuper":12334,"europap":12335,"vitry":12336,"huvudrollerna":12337,"##kunn":12338,"raym":12339,"2021":12340,"kommunik":12341,"##acion":12342,"##arena":12343,"##hjul":12344,"ersatta":12345,"lust":12346,"sard":12347,"halvan":12348,"koudia":12349,"valencia":12350,"##bruket":12351,"ukrainska":12352,"balsam":12353,"mordet":12354,"massachus":12355,"okant":12356,"##itas":12357,"##aktiga":12358,"##uil":12359,"##orea":12360,"kunst":12361,"inrikes":12362,"##vert":12363,"broad":12364,"nairo":12365,"##ystemet":12366,"massachusetts":12367,"tanken":12368,"zhang":12369,"##water":12370,"satelli":12371,"##iskan":12372,"klader":12373,"1831":12374,"##oridae":12375,"##osaur":12376,"osc":12377,"civila":12378,"antioquia":12379,"##vir":12380,"##derade":12381,"##phy":12382,"filmatis":12383,"fabriken":12384,"##arin":12385,"gestalt":12386,"ink":12387,"kanon":12388,"parallellt":12389,"gutta":12390,"utbredningsomradet":12391,"mottog":12392,"##vat":12393,"##stig":12394,"medeltid":12395,"verkstad":12396,"sanddyn":12397,"##iox":12398,"forhindra":12399,"rick":12400,"##esen":12401,"regionala":12402,"avgrans":12403,"utrustning":12404,"edmond":12405,"##effekt":12406,"##snackor":12407,"##atalj":12408,"franche":12409,"yu":12410,"arsen":12411,"thec":12412,"suk":12413,"##etis":12414,"##olata":12415,"intermed":12416,"steklar":12417,"1825":12418,"export":12419,"anstallning":12420,"push":12421,"##halle":12422,"##komp":12423,"elitserien":12424,"traning":12425,"gala":12426,"##ross":12427,"##gjort":12428,"pyg":12429,"##enius":12430,"tunga":12431,"deleg":12432,"baron":12433,"karakter":12434,"harold":12435,"##rena":12436,"shaw":12437,"underart":12438,"rundmaskart":12439,"bolagh":12440,"meck":12441,"zyg":12442,"misslyckades":12443,"##ratal":12444,"trummor":12445,"##verna":12446,"claes":12447,"##handel":12448,"praster":12449,"lawren":12450,"jerus":12451,"amt":12452,"##ochrom":12453,"rosterna":12454,"dvs":12455,"tycks":12456,"ding":12457,"quer":12458,"kompan":12459,"##unculus":12460,"mec":12461,"##burn":12462,"vasterb":12463,"amator":12464,"##seg":12465,"granser":12466,"selatan":12467,"andrade":12468,"utgrav":12469,"krafter":12470,"orsaken":12471,"trea":12472,"manniskans":12473,"1814":12474,"leopold":12475,"##fron":12476,"licent":12477,"##visar":12478,"konkurs":12479,"sham":12480,"dottrar":12481,"##till":12482,"##cast":12483,"buff":12484,"slutspel":12485,"cyp":12486,"avlid":12487,"varldsar":12488,"oav":12489,"freden":12490,"frekv":12491,"legend":12492,"zam":12493,"##direktor":12494,"##fu":12495,"##atz":12496,"darav":12497,"hammarby":12498,"##23":12499,"christopher":12500,"qing":12501,"##jaren":12502,"##lagd":12503,"losning":12504,"##skonst":12505,"kuopio":12506,"koncept":12507,"tiderna":12508,"hansson":12509,"carlo":12510,"afton":12511,"##agel":12512,"utexamin":12513,"atgarder":12514,"fusc":12515,"skillnaden":12516,"##ilo":12517,"republikan":12518,"kenora":12519,"##logs":12520,"##inth":12521,"paven":12522,"moll":12523,"brett":12524,"nev":12525,"sjalvmord":12526,"magdalena":12527,"faller":12528,"polyn":12529,"illinois":12530,"fastigheten":12531,"bakter":12532,"##aktigt":12533,"##stierna":12534,"125":12535,"undersokning":12536,"utokades":12537,"myndighet":12538,"slutspelet":12539,"1826":12540,"annex":12541,"##ocken":12542,"finsk":12543,"nis":12544,"pfalz":12545,"digital":12546,"pard":12547,"wats":12548,"leo":12549,"indust":12550,"##witz":12551,"aka":12552,"medlemsst":12553,"vetenskapsakademien":12554,"runsten":12555,"lena":12556,"ment":12557,"##rygg":12558,"volvo":12559,"##stallda":12560,"##aniens":12561,"##cz":12562,"nairobi":12563,"##amik":12564,"##eyer":12565,"kurdistan":12566,"##arier":12567,"megal":12568,"lopez":12569,"##kommer":12570,"beteckning":12571,"##illy":12572,"uppfolj":12573,"neo":12574,"pennsylvania":12575,"befatt":12576,"speg":12577,"kosa":12578,"europaparl":12579,"##isterande":12580,"##stran":12581,"plots":12582,"minim":12583,"##ognat":12584,"smek":12585,"liberala":12586,"##chin":12587,"hitler":12588,"##ragas":12589,"liberal":12590,"sjunger":12591,"kommunala":12592,"palsen":12593,"alice":12594,"merrill":12595,"stu":12596,"asper":12597,"##zeh":12598,"##hogskola":12599,"##romy":12600,"##barn":12601,"##etz":12602,"dup":12603,"hansyn":12604,"##icha":12605,"##sledare":12606,"stup":12607,"buch":12608,"fritid":12609,"mande":12610,"reda":12611,"rast":12612,"carn":12613,"venezuela":12614,"eus":12615,"forra":12616,"boj":12617,"##park":12618,"philadel":12619,"1823":12620,"riksdagsledamot":12621,"##aborgs":12622,"##sia":12623,"kis":12624,"provincial":12625,"cykel":12626,"veta":12627,"##fas":12628,"conne":12629,"hidalgo":12630,"vista":12631,"pallid":12632,"lae":12633,"grundad":12634,"nur":12635,"peder":12636,"##rask":12637,"fodelse":12638,"bened":12639,"disney":12640,"tril":12641,"naringsliv":12642,"fungera":12643,"territory":12644,"gos":12645,"##kvist":12646,"finna":12647,"latinska":12648,"huidu":12649,"hamnar":12650,"##elos":12651,"cook":12652,"##sle":12653,"ratts":12654,"leipzig":12655,"tecknade":12656,"bitradande":12657,"borgen":12658,"medvet":12659,"overstel":12660,"sallsynt":12661,"##api":12662,"blanco":12663,"robinson":12664,"pargas":12665,"blomster":12666,"igang":12667,"roch":12668,"nationell":12669,"semifinalen":12670,"baden":12671,"eut":12672,"molek":12673,"omradena":12674,"tydlig":12675,"libert":12676,"domsaga":12677,"beton":12678,"1816":12679,"##feldt":12680,"forstor":12681,"gong":12682,"pion":12683,"sult":12684,"hyal":12685,"sjukdomen":12686,"##24":12687,"##tez":12688,"tony":12689,"minsta":12690,"##kultur":12691,"##urnering":12692,"flickor":12693,"drevs":12694,"morgan":12695,"atal":12696,"ida":12697,"talas":12698,"backen":12699,"grenar":12700,"forlorat":12701,"sangerska":12702,"hax":12703,"##angan":12704,"##ridae":12705,"havdar":12706,"himm":12707,"cad":12708,"barbara":12709,"1812":12710,"ridge":12711,"pong":12712,"fakult":12713,"ariz":12714,"##ktar":12715,"##skadespel":12716,"##opul":12717,"lincol":12718,"territori":12719,"soldaterna":12720,"##raea":12721,"halmstad":12722,"ode":12723,"##kust":12724,"##oslov":12725,"visby":12726,"synt":12727,"byggts":12728,"nathan":12729,"bates":12730,"regelbundet":12731,"flygvapnet":12732,"ditt":12733,"##ogi":12734,"forvax":12735,"##amnen":12736,"djurgard":12737,"diverse":12738,"math":12739,"linjer":12740,"mojligheten":12741,"pick":12742,"##yrm":12743,"leddes":12744,"hakan":12745,"##ackerlackor":12746,"gyllen":12747,"overlamn":12748,"piano":12749,"licentiat":12750,"myrm":12751,"floder":12752,"wir":12753,"kordes":12754,"must":12755,"forny":12756,"driva":12757,"sangerskan":12758,"tavla":12759,"skickade":12760,"paverkar":12761,"##krypare":12762,"liter":12763,"eugenia":12764,"sekel":12765,"##strackt":12766,"hild":12767,"rikets":12768,"ranunkelvaxter":12769,"pes":12770,"##cula":12771,"##oret":12772,"oron":12773,"alltmer":12774,"konsekv":12775,"##yris":12776,"bip":12777,"##ostern":12778,"##resp":12779,"hof":12780,"##ogl":12781,"bruns":12782,"row":12783,"##osei":12784,"toronto":12785,"tomt":12786,"##egu":12787,"langhus":12788,"tolkning":12789,"##udet":12790,"perd":12791,"vardag":12792,"kompani":12793,"lojtnant":12794,"osterrikisk":12795,"wagner":12796,"tyckte":12797,"##blod":12798,"utarbet":12799,"ostergotlands":12800,"landskommunen":12801,"aphod":12802,"stickmyggor":12803,"trott":12804,"baz":12805,"beslutet":12806,"##anza":12807,"stravbladiga":12808,"##ienne":12809,"tillagg":12810,"duk":12811,"##ichthys":12812,"noth":12813,"oavs":12814,"##orin":12815,"##olja":12816,"aktiviteter":12817,"atskilliga":12818,"veget":12819,"tenn":12820,"##ær":12821,"##iventris":12822,"agdes":12823,"birkaland":12824,"##zin":12825,"chris":12826,"##ants":12827,"danske":12828,"befalhavare":12829,"lakemedel":12830,"falken":12831,"armens":12832,"ereb":12833,"##usi":12834,"##opteris":12835,"nasseldjursart":12836,"##jal":12837,"metrop":12838,"##acea":12839,"panama":12840,"##ogg":12841,"cart":12842,"amne":12843,"bestamm":12844,"landsfisk":12845,"regeringens":12846,"rapides":12847,"kep":12848,"expans":12849,"liver":12850,"graham":12851,"##opterus":12852,"##zburg":12853,"basid":12854,"kurt":12855,"ambassador":12856,"varldscupen":12857,"libyen":12858,"haute":12859,"##fragan":12860,"atmos":12861,"quin":12862,"betydelsef":12863,"uppfora":12864,"##ekar":12865,"##dt":12866,"regent":12867,"book":12868,"scler":12869,"pum":12870,"fargen":12871,"145":12872,"polyc":12873,"##cheong":12874,"##ogenhet":12875,"video":12876,"amerikanskt":12877,"kannetecken":12878,"bind":12879,"tyske":12880,"behalla":12881,"stallen":12882,"bys":12883,"flug":12884,"licens":12885,"##vey":12886,"##jup":12887,"##derar":12888,"##slosa":12889,"forsamlingar":12890,"##fekten":12891,"##visades":12892,"tronen":12893,"##ryn":12894,"##entals":12895,"##useet":12896,"##halt":12897,"##urd":12898,"##olyck":12899,"viti":12900,"danmarks":12901,"laborator":12902,"samla":12903,"dominerande":12904,"esfahan":12905,"wald":12906,"rese":12907,"shelah":12908,"eul":12909,"prinsessan":12910,"aber":12911,"kill":12912,"##jus":12913,"kommunistiska":12914,"wright":12915,"genomfora":12916,"ifragas":12917,"jordens":12918,"statistik":12919,"##tu":12920,"inbj":12921,"bengts":12922,"tens":12923,"medforde":12924,"turkiska":12925,"kyr":12926,"##otet":12927,"ronald":12928,"##low":12929,"nyligen":12930,"mund":12931,"##terades":12932,"smart":12933,"##laggningar":12934,"kejsare":12935,"kvalitet":12936,"jor":12937,"##vs":12938,"##temot":12939,"##entes":12940,"dodades":12941,"forslaget":12942,"traditionell":12943,"##ocarpa":12944,"##flottilj":12945,"flyt":12946,"radik":12947,"##achal":12948,"institute":12949,"curt":12950,"varldsmasterskapet":12951,"ji":12952,"omlopp":12953,"stru":12954,"opposition":12955,"beteende":12956,"##leg":12957,"hjalpte":12958,"besokare":12959,"begran":12960,"##iction":12961,"intraffade":12962,"ect":12963,"augustus":12964,"steve":12965,"culicoides":12966,"befast":12967,"becker":12968,"syds":12969,"euro":12970,"micha":12971,"tjeckoslov":12972,"teorin":12973,"bertil":12974,"sark":12975,"zon":12976,"##jes":12977,"stone":12978,"utforda":12979,"ljusare":12980,"tammer":12981,"kieffer":12982,"alternativt":12983,"eph":12984,"##allax":12985,"anti":12986,"that":12987,"kosovo":12988,"##oensis":12989,"1827":12990,"##ropus":12991,"andamal":12992,"comb":12993,"bryta":12994,"wes":12995,"success":12996,"pist":12997,"omoj":12998,"egenskap":12999,"mesa":13000,"cala":13001,"attonde":13002,"ostersjon":13003,"america":13004,"veter":13005,"griff":13006,"korsblommig":13007,"##amatan":13008,"##ctic":13009,"bau":13010,"##bag":13011,"adolph":13012,"##best":13013,"##fir":13014,"##sbru":13015,"your":13016,"##jande":13017,"##atiska":13018,"konsul":13019,"raymond":13020,"hod":13021,"hyg":13022,"lindberg":13023,"##rester":13024,"finan":13025,"eugene":13026,"forkortat":13027,"cram":13028,"##aks":13029,"sky":13030,"teknisk":13031,"sjalvstandig":13032,"forbindelse":13033,"kakt":13034,"gentemot":13035,"alls":13036,"1790":13037,"##ruv":13038,"##olleg":13039,"palindi":13040,"forfolj":13041,"##jian":13042,"skala":13043,"##ctis":13044,"medi":13045,"fodan":13046,"kecamatan":13047,"sit":13048,"##eid":13049,"##ku":13050,"manniska":13051,"klas":13052,"##skogar":13053,"##sunionen":13054,"radhus":13055,"tallinn":13056,"##lika":13057,"play":13058,"meh":13059,"gand":13060,"##former":13061,"vild":13062,"befri":13063,"nip":13064,"theod":13065,"##klara":13066,"mike":13067,"vivlar":13068,"##ев":13069,"livstid":13070,"rasen":13071,"guerrero":13072,"##ekan":13073,"aman":13074,"##ulo":13075,"tatorter":13076,"traditionen":13077,"framfordes":13078,"buj":13079,"afrikanska":13080,"utexaminerades":13081,"cem":13082,"##nin":13083,"forcip":13084,"luften":13085,"bicolor":13086,"perioder":13087,"coqu":13088,"teleg":13089,"##ektor":13090,"##amph":13091,"stadsk":13092,"1822":13093,"##offer":13094,"koordin":13095,"konservativa":13096,"##smyck":13097,"##umi":13098,"##givna":13099,"mei":13100,"##adet":13101,"landsfiskal":13102,"spelarna":13103,"##chia":13104,"##eliaceae":13105,"sjons":13106,"plect":13107,"ist":13108,"##uno":13109,"repar":13110,"bildandet":13111,"akademiska":13112,"lyckats":13113,"mauret":13114,"atom":13115,"benj":13116,"anledningen":13117,"gesner":13118,"##amba":13119,"##iera":13120,"oaxaca":13121,"bard":13122,"styra":13123,"##anteles":13124,"##repren":13125,"pettersson":13126,"##iphon":13127,"malaren":13128,"northwest":13129,"overtyg":13130,"bohmen":13131,"forbered":13132,"kontrovers":13133,"lovisa":13134,"shet":13135,"##ithi":13136,"nicolas":13137,"trom":13138,"##teras":13139,"arrangerades":13140,"scopula":13141,"sumatera":13142,"pulch":13143,"tammerfors":13144,"##sser":13145,"juris":13146,"achille":13147,"##kamm":13148,"socker":13149,"nyg":13150,"##kron":13151,"avst":13152,"##akon":13153,"##leri":13154,"##ragor":13155,"tjugo":13156,"byggnaderna":13157,"inkop":13158,"moter":13159,"siyah":13160,"mojliga":13161,"lincoln":13162,"tofsspinnare":13163,"fund":13164,"kw":13165,"aux":13166,"##هر":13167,"arag":13168,"chungcheong":13169,"##set":13170,"vilar":13171,"##inton":13172,"boiss":13173,"lagoon":13174,"##ple":13175,"##stjarnen":13176,"fries":13177,"rudolph":13178,"##kropp":13179,"##bjorn":13180,"##yrmex":13181,"dalton":13182,"hansen":13183,"##cou":13184,"microc":13185,"stafett":13186,"nepal":13187,"clem":13188,"##hallare":13189,"organiserade":13190,"duv":13191,"rora":13192,"asmara":13193,"forestandare":13194,"##grad":13195,"dela":13196,"##opoda":13197,"##niska":13198,"##elles":13199,"##marken":13200,"elegans":13201,"poecil":13202,"##ird":13203,"basidies":13204,"##avut":13205,"montagne":13206,"sebastian":13207,"aeg":13208,"##dotter":13209,"##mund":13210,"##iley":13211,"fladder":13212,"##levande":13213,"orienter":13214,"##sfiskar":13215,"##iebolag":13216,"rull":13217,"##immer":13218,"ekman":13219,"1821":13220,"naturvardsunionen":13221,"osmanska":13222,"yunn":13223,"##rax":13224,"cancer":13225,"##onomus":13226,"svansen":13227,"tod":13228,"##ulon":13229,"afric":13230,"tobias":13231,"##karl":13232,"onc":13233,"mani":13234,"##75":13235,"##iteln":13236,"sev":13237,"modifier":13238,"inforliv":13239,"teat":13240,"tetouan":13241,"##uds":13242,"vals":13243,"grant":13244,"lasioglossum":13245,"1808":13246,"basidiesvampar":13247,"##slatt":13248,"##nats":13249,"##fat":13250,"bjorneborg":13251,"individuella":13252,"##akry":13253,"brunswick":13254,"rakt":13255,"##omya":13256,"##iew":13257,"parker":13258,"05":13259,"##ionella":13260,"ahmad":13261,"##fred":13262,"##perma":13263,"syz":13264,"leeds":13265,"hend":13266,"solna":13267,"kirurg":13268,"indelat":13269,"##torn":13270,"##zj":13271,"##spitze":13272,"forfattarskap":13273,"kann":13274,"sval":13275,"distribut":13276,"murray":13277,"rt":13278,"##45":13279,"hug":13280,"born":13281,"cover":13282,"pich":13283,"tbilis":13284,"narliggande":13285,"katoli":13286,"conakry":13287,"asteroidgruppen":13288,"trupperna":13289,"##anthera":13290,"litteraturen":13291,"bett":13292,"lup":13293,"##leby":13294,"thur":13295,"byta":13296,"arc":13297,"sainte":13298,"multip":13299,"taket":13300,"sjalvbi":13301,"spindlar":13302,"philadelphia":13303,"##rella":13304,"verktyg":13305,"##egen":13306,"##iyya":13307,"##angi":13308,"alter":13309,"skickades":13310,"nivaer":13311,"##more":13312,"fortro":13313,"rack":13314,"arts":13315,"affars":13316,"mota":13317,"format":13318,"##rostning":13319,"##myn":13320,"inkor":13321,"festivalen":13322,"##hugg":13323,"omgangar":13324,"eum":13325,"##ivi":13326,"##dle":13327,"hembygd":13328,"##burgh":13329,"kriter":13330,"cuc":13331,"preussen":13332,"myndigheterna":13333,"domstolen":13334,"folkmangd":13335,"melodifestivalen":13336,"91":13337,"##stans":13338,"##uve":13339,"kristus":13340,"1758":13341,"angaende":13342,"dotterbo":13343,"zhe":13344,"ari":13345,"standigt":13346,"bergman":13347,"orkest":13348,"notera":13349,"anthony":13350,"ohio":13351,"##pad":13352,"forvaltnings":13353,"jamforelse":13354,"dirigent":13355,"hi":13356,"was":13357,"domare":13358,"suz":13359,"##lach":13360,"##ifa":13361,"kulturen":13362,"stephan":13363,"hc":13364,"##alitet":13365,"##plikt":13366,"manusforfattare":13367,"nunavut":13368,"brygg":13369,"serp":13370,"##ulia":13371,"aphodiidae":13372,"esk":13373,"##sas":13374,"##ebra":13375,"##qui":13376,"eleon":13377,"arb":13378,"tvill":13379,"sodermanland":13380,"360":13381,"skivbolag":13382,"kallats":13383,"shang":13384,"varldskrig":13385,"homosex":13386,"jamtlands":13387,"ryggen":13388,"warn":13389,"komment":13390,"##oso":13391,"efterhand":13392,"nicaragua":13393,"kaktus":13394,"tillverka":13395,"uppenbar":13396,"druce":13397,"renass":13398,"disputerade":13399,"##smod":13400,"##sjob":13401,"power":13402,"utmed":13403,"1817":13404,"innefattar":13405,"hedvig":13406,"dani":13407,"##losning":13408,"ward":13409,"##falla":13410,"byr":13411,"##batar":13412,"antoine":13413,"##ubileum":13414,"skildrar":13415,"buddh":13416,"gymnastik":13417,"##fader":13418,"punt":13419,"brygger":13420,"gorg":13421,"##ilen":13422,"inspirerad":13423,"fogder":13424,"mab":13425,"##udi":13426,"originalt":13427,"hardy":13428,"kommissionen":13429,"perspektiv":13430,"backhopp":13431,"velika":13432,"##egal":13433,"##mah":13434,"##gol":13435,"##ungan":13436,"##landsoarna":13437,"husen":13438,"pep":13439,"##jour":13440,"ranunkelvaxtart":13441,"novell":13442,"lawrence":13443,"##rips":13444,"tillforord":13445,"premi":13446,"sluta":13447,"##forsok":13448,"foreningar":13449,"##odyn":13450,"skel":13451,"wul":13452,"hosp":13453,"ferr":13454,"bohuslan":13455,"##ktionen":13456,"##igo":13457,"dead":13458,"harnos":13459,"##acris":13460,"burundi":13461,"mauric":13462,"kind":13463,"chamberlin":13464,"##iye":13465,"medicinska":13466,"meyer":13467,"overstelojtnant":13468,"ryt":13469,"##ин":13470,"pafag":13471,"skrack":13472,"##vattnet":13473,"hornstritar":13474,"astana":13475,"143":13476,"##lossa":13477,"dasy":13478,"##لی":13479,"##chard":13480,"dalig":13481,"krog":13482,"teorier":13483,"##omum":13484,"smalt":13485,"krok":13486,"situationen":13487,"astad":13488,"##isar":13489,"sigism":13490,"filmens":13491,"##asu":13492,"##ssven":13493,"1775":13494,"fiction":13495,"byar":13496,"skylt":13497,"##hausen":13498,"ivag":13499,"bestammer":13500,"aleksand":13501,"blanca":13502,"##apan":13503,"scener":13504,"##evaxter":13505,"##tryck":13506,"varme":13507,"seriet":13508,"cum":13509,"##ymen":13510,"##itor":13511,"evenemang":13512,"##sbygg":13513,"boz":13514,"loj":13515,"jamte":13516,"tyg":13517,"hanna":13518,"helhet":13519,"olat":13520,"##iras":13521,"##illas":13522,"ofor":13523,"olle":13524,"ml":13525,"##lock":13526,"##olver":13527,"frances":13528,"260":13529,"mohammad":13530,"nederlandsk":13531,"##forvalt":13532,"besvar":13533,"##alismen":13534,"zhejiang":13535,"##ingel":13536,"macroc":13537,"hasten":13538,"litauen":13539,"rall":13540,"##deh":13541,"vager":13542,"##mond":13543,"gara":13544,"whe":13545,"norrkopings":13546,"kyrkogarden":13547,"##stick":13548,"##atu":13549,"lox":13550,"##ubbelfotingar":13551,"oland":13552,"##junkt":13553,"inforde":13554,"##inget":13555,"##ivisionen":13556,"europam":13557,"##opon":13558,"##ache":13559,"intresserad":13560,"##85":13561,"kiruna":13562,"##nick":13563,"igna":13564,"jamaica":13565,"##lant":13566,"agaric":13567,"##rou":13568,"militart":13569,"dres":13570,"##kir":13571,"##sniva":13572,"##ruc":13573,"allan":13574,"mottes":13575,"materialet":13576,"##verken":13577,"producera":13578,"kallavaxter":13579,"##otea":13580,"kungs":13581,"paverkan":13582,"jas":13583,"wallen":13584,"##givning":13585,"guan":13586,"benjamin":13587,"pub":13588,"kulturella":13589,"benamns":13590,"urinsekt":13591,"##stin":13592,"herre":13593,"##sne":13594,"##hir":13595,"##ол":13596,"##lagare":13597,"1813":13598,"drogs":13599,"##rocessen":13600,"vasterbottens":13601,"تل":13602,"##vel":13603,"pack":13604,"##bildade":13605,"lidingo":13606,"minnesota":13607,"mick":13608,"##ор":13609,"fangar":13610,"tyder":13611,"schult":13612,"mauretanien":13613,"ai":13614,"bergstrakter":13615,"plattmaskart":13616,"bygget":13617,"lansvag":13618,"kampen":13619,"##avdelning":13620,"syzygium":13621,"hits":13622,"ligga":13623,"milano":13624,"isid":13625,"##sform":13626,"##esund":13627,"foljt":13628,"idaea":13629,"kejsard":13630,"##dalen":13631,"##iona":13632,"##shog":13633,"boet":13634,"kapital":13635,"##klart":13636,"##rustning":13637,"friherre":13638,"##skyrka":13639,"beskriva":13640,"kroppslangd":13641,"serbien":13642,"heart":13643,"kraftiga":13644,"masterskapen":13645,"kyl":13646,"##glanssteklar":13647,"motsats":13648,"avsikt":13649,"engagemang":13650,"nept":13651,"##matt":13652,"ratta":13653,"tjug":13654,"bald":13655,"##fre":13656,"elong":13657,"##head":13658,"gradina":13659,"mej":13660,"gottfried":13661,"vackra":13662,"##rupt":13663,"tidskrifter":13664,"katedral":13665,"presenterade":13666,"yukon":13667,"##natt":13668,"##enskomm":13669,"geomet":13670,"gjorda":13671,"hok":13672,"krom":13673,"daggdjur":13674,"gata":13675,"ischn":13676,"cocc":13677,"mys":13678,"uef":13679,"##hant":13680,"uppford":13681,"stodde":13682,"bonder":13683,"svarmare":13684,"##alvon":13685,"arsskiftet":13686,"professionella":13687,"##elseled":13688,"bask":13689,"##arerna":13690,"##fallet":13691,"##instrument":13692,"utgivna":13693,"sjalvstandigt":13694,"gesneriaceae":13695,"##odinidae":13696,"byggandet":13697,"chapman":13698,"##anica":13699,"##egard":13700,"##olt":13701,"betyg":13702,"georges":13703,"elektriska":13704,"##vuxen":13705,"efterfoljande":13706,"sunn":13707,"situation":13708,"forna":13709,"sammant":13710,"blind":13711,"belarus":13712,"##house":13713,"asplen":13714,"forsvara":13715,"pauli":13716,"vasttyskland":13717,"##eaux":13718,"pung":13719,"bres":13720,"##sbeslut":13721,"bildad":13722,"##hara":13723,"##ар":13724,"liverpool":13725,"zen":13726,"jagar":13727,"##unna":13728,"##egg":13729,"##okoll":13730,"##loea":13731,"arkeologiska":13732,"moc":13733,"framtiden":13734,"##landslag":13735,"guadalupe":13736,"marmor":13737,"naturskyddat":13738,"ili":13739,"viola":13740,"##blomflugor":13741,"antar":13742,"resan":13743,"slide":13744,"pena":13745,"##bong":13746,"fotbollsklubb":13747,"kamerun":13748,"yazd":13749,"##emberg":13750,"radgivare":13751,"##ypter":13752,"syssels":13753,"##aq":13754,"queen":13755,"sprin":13756,"emig":13757,"skarp":13758,"jerusalem":13759,"harp":13760,"motala":13761,"blot":13762,"##inett":13763,"tbilisi":13764,"##uster":13765,"##opung":13766,"amm":13767,"fasc":13768,"stewart":13769,"byggnadsm":13770,"utrikesminister":13771,"##rovinsen":13772,"lasse":13773,"ait":13774,"begar":13775,"##arbeten":13776,"##hagen":13777,"##dr":13778,"##lida":13779,"nyare":13780,"##marke":13781,"fame":13782,"##rius":13783,"##itiv":13784,"marrak":13785,"namnen":13786,"##platt":13787,"146":13788,"reaktion":13789,"buc":13790,"soker":13791,"##version":13792,"aden":13793,"lott":13794,"caes":13795,"rorelser":13796,"progress":13797,"auktor":13798,"ule":13799,"##vitj":13800,"vanska":13801,"##die":13802,"sf":13803,"##eben":13804,"slaktingar":13805,"herbert":13806,"##ief":13807,"alle":13808,"taxonom":13809,"##ebe":13810,"##qua":13811,"justiti":13812,"awards":13813,"##rosa":13814,"lagervaxter":13815,"sjos":13816,"puppg":13817,"samarbetet":13818,"puppglanssteklar":13819,"artiller":13820,"##ondo":13821,"stravbladig":13822,"diss":13823,"pend":13824,"##onium":13825,"jordlopare":13826,"kansli":13827,"bbc":13828,"lus":13829,"hongkong":13830,"six":13831,"##rollslandor":13832,"stilen":13833,"saab":13834,"hallands":13835,"falun":13836,"vandring":13837,"dw":13838,"tos":13839,"##entligt":13840,"##spolit":13841,"verka":13842,"dies":13843,"lef":13844,"##akar":13845,"dark":13846,"##arig":13847,"arliga":13848,"emellan":13849,"pafagels":13850,"##agarna":13851,"lei":13852,"femin":13853,"polk":13854,"##beratt":13855,"tart":13856,"##aplan":13857,"tanz":13858,"clar":13859,"namnda":13860,"##ogramma":13861,"abborre":13862,"##oberg":13863,"tema":13864,"##asterskapet":13865,"sjukhuset":13866,"figurer":13867,"franske":13868,"stranden":13869,"kirg":13870,"xanthop":13871,"mineral":13872,"sumpmark":13873,"pig":13874,"##perna":13875,"tyskt":13876,"studerat":13877,"stanna":13878,"theatre":13879,"dyr":13880,"##reville":13881,"proff":13882,"politiken":13883,"popularitet":13884,"skulptor":13885,"party":13886,"##bryn":13887,"##roduktion":13888,"##ornas":13889,"##uropa":13890,"alskar":13891,"##ips":13892,"##umbura":13893,"tje":13894,"##iphora":13895,"marrakech":13896,"##inet":13897,"chong":13898,"handelse":13899,"gjord":13900,"huang":13901,"epis":13902,"##angdong":13903,"lader":13904,"oj":13905,"##aser":13906,"tilltal":13907,"meta":13908,"pepparvaxter":13909,"##tillverk":13910,"chefredaktor":13911,"1789":13912,"oavsett":13913,"papp":13914,"sluts":13915,"kurs":13916,"##ен":13917,"##eim":13918,"leddjur":13919,"populationen":13920,"positiva":13921,"kannetecknas":13922,"sjukvard":13923,"socialdemokratiska":13924,"taza":13925,"kemiska":13926,"##bah":13927,"##oler":13928,"##ochl":13929,"semin":13930,"champions":13931,"pafagelsspinnare":13932,"era":13933,"##ᅩᆼ":13934,"##bilar":13935,"lhasa":13936,"##rell":13937,"saw":13938,"##lige":13939,"##riga":13940,"minskat":13941,"##tea":13942,"country":13943,"riksdagens":13944,"nash":13945,"##departementet":13946,"overgang":13947,"instift":13948,"johanna":13949,"##hattan":13950,"emma":13951,"kristall":13952,"pepparvaxtart":13953,"oul":13954,"سر":13955,"butik":13956,"stenar":13957,"uttry":13958,"jens":13959,"wah":13960,"thal":13961,"forekommit":13962,"rekry":13963,"vuxen":13964,"##flykt":13965,"trist":13966,"##ين":13967,"hovratt":13968,"##ness":13969,"##odesmus":13970,"adams":13971,"nagu":13972,"emile":13973,"laser":13974,"##utveck":13975,"vikten":13976,"nejlikvaxter":13977,"##odactylus":13978,"swed":13979,"datum":13980,"##hteh":13981,"muc":13982,"stim":13983,"##ayer":13984,"djupt":13985,"alfabet":13986,"io":13987,"##kot":13988,"valjer":13989,"stamm":13990,"spann":13991,"kashm":13992,"passagerare":13993,"##verksamheten":13994,"##hias":13995,"acut":13996,"##box":13997,"malloch":13998,"##uez":13999,"utsmyck":14000,"##hjalp":14001,"berattelse":14002,"pave":14003,"mb":14004,"inkomst":14005,"vivevaxter":14006,"skett":14007,"blivande":14008,"verkliga":14009,"lane":14010,"##ologer":14011,"hotel":14012,"generellt":14013,"1793":14014,"religios":14015,"##kopp":14016,"tonsattare":14017,"##estes":14018,"rekt":14019,"tillverkningen":14020,"pare":14021,"arden":14022,"##utton":14023,"270":14024,"keith":14025,"rist":14026,"avsedd":14027,"##innes":14028,"kommitte":14029,"baseb":14030,"riksvag":14031,"opius":14032,"##ogr":14033,"##roder":14034,"##agram":14035,"reservat":14036,"tunnelban":14037,"##icauda":14038,"koloni":14039,"##iya":14040,"pale":14041,"femton":14042,"dann":14043,"death":14044,"marsch":14045,"trigon":14046,"puebla":14047,"avrinningsomrade":14048,"##oq":14049,"##utan":14050,"karel":14051,"##ols":14052,"stadsteater":14053,"techn":14054,"##produktion":14055,"bend":14056,"hammer":14057,"backslandeart":14058,"bari":14059,"varade":14060,"inflytels":14061,"##ikh":14062,"utsedd":14063,"spridning":14064,"foretog":14065,"tillvaxt":14066,"glans":14067,"koret":14068,"talade":14069,"forvaltning":14070,"##elea":14071,"##olob":14072,"##span":14073,"mamma":14074,"football":14075,"##ext":14076,"##nets":14077,"##adero":14078,"##uku":14079,"##fulla":14080,"styrelseled":14081,"kallavaxtart":14082,"mck":14083,"tagg":14084,"zheng":14085,"##romyza":14086,"alltfor":14087,"riddare":14088,"##yri":14089,"vastmanland":14090,"langsta":14091,"cathar":14092,"brotts":14093,"##ratus":14094,"brodern":14095,"##lenburg":14096,"portugisiska":14097,"##long":14098,"##raga":14099,"annorlunda":14100,"##tendent":14101,"foder":14102,"lagervaxtart":14103,"##ochth":14104,"thun":14105,"1801":14106,"##sholmen":14107,"byttes":14108,"##felt":14109,"speciell":14110,"scout":14111,"bromeliaceae":14112,"rollerna":14113,"nodvandigt":14114,"##iermark":14115,"inrym":14116,"##nummer":14117,"thecla":14118,"konver":14119,"troligtvis":14120,"##kra":14121,"officiell":14122,"##orhynchus":14123,"gadda":14124,"##lude":14125,"##stena":14126,"framtradde":14127,"ago":14128,"utse":14129,"haouz":14130,"##stjarna":14131,"skovde":14132,"##berger":14133,"farj":14134,"##hiza":14135,"lepanthes":14136,"rapport":14137,"09":14138,"ornskold":14139,"kommunist":14140,"agent":14141,"studi":14142,"thomp":14143,"non":14144,"##chs":14145,"invanarna":14146,"franc":14147,"forster":14148,"cooper":14149,"kristi":14150,"##yror":14151,"kvarvarande":14152,"gnagare":14153,"ugg":14154,"oec":14155,"bered":14156,"regerande":14157,"##slan":14158,"berattade":14159,"see":14160,"loew":14161,"##pid":14162,"megach":14163,"##ripande":14164,"bolivar":14165,"down":14166,"##icata":14167,"mariehamn":14168,"majoriteten":14169,"##ulpt":14170,"##oppet":14171,"##risen":14172,"utgora":14173,"##bibliotek":14174,"shakes":14175,"utbildad":14176,"dix":14177,"habitatet":14178,"eux":14179,"##asca":14180,"ranunculus":14181,"kred":14182,"plut":14183,"helikopter":14184,"pushtah":14185,"##univers":14186,"scb":14187,"tillfang":14188,"##deltag":14189,"miconia":14190,"rafael":14191,"medaljer":14192,"forlaget":14193,"##terat":14194,"##bbspindlar":14195,"dubbelt":14196,"fam":14197,"##kore":14198,"##nord":14199,"##ulins":14200,"flex":14201,"##cinia":14202,"##obi":14203,"taoun":14204,"ungarna":14205,"mangden":14206,"campbell":14207,"tirana":14208,"qolleh":14209,"lektor":14210,"##aha":14211,"##central":14212,"08":14213,"diet":14214,"avhandling":14215,"beord":14216,"##horighet":14217,"1792":14218,"armenien":14219,"carpenter":14220,"bujumbura":14221,"##kommun":14222,"##ampo":14223,"vancou":14224,"villan":14225,"tec":14226,"spir":14227,"spencer":14228,"avseende":14229,"tillkann":14230,"sibiri":14231,"forbattra":14232,"sodermanlands":14233,"more":14234,"##sratt":14235,"##eres":14236,"##owski":14237,"mytologi":14238,"##antan":14239,"kosm":14240,"trium":14241,"##roa":14242,"##shah":14243,"##klock":14244,"varierande":14245,"traffar":14246,"socialdemokraterna":14247,"eventuellt":14248,"tripoli":14249,"oms":14250,"handlade":14251,"doptes":14252,"##festival":14253,"##ongen":14254,"trafiken":14255,"dicranomyia":14256,"kaffe":14257,"##ictus":14258,"ostersund":14259,"##sdorf":14260,"147":14261,"##itiska":14262,"##havet":14263,"lorestan":14264,"lady":14265,"alph":14266,"utgar":14267,"hydrop":14268,"vapnet":14269,"ornskoldsvik":14270,"pann":14271,"shakespe":14272,"styre":14273,"gerhard":14274,"##olepis":14275,"##amensis":14276,"tsar":14277,"skor":14278,"##ize":14279,"michigan":14280,"ansvaret":14281,"biblioteket":14282,"tillforordnad":14283,"kym":14284,"tilli":14285,"listar":14286,"radie":14287,"##uin":14288,"papua":14289,"positiv":14290,"mauricie":14291,"##alom":14292,"##ily":14293,"##staben":14294,"##varde":14295,"##rummet":14296,"135":14297,"##olophia":14298,"frankfurt":14299,"utbildningen":14300,"uppfost":14301,"smor":14302,"##include":14303,"taounate":14304,"tut":14305,"striden":14306,"benamning":14307,"piet":14308,"atlanta":14309,"skillnader":14310,"##ulen":14311,"##onslandor":14312,"snabbare":14313,"uteslutande":14314,"maken":14315,"##essor":14316,"laroverk":14317,"poesi":14318,"tillverkad":14319,"evans":14320,"##agerar":14321,"skade":14322,"omkom":14323,"vient":14324,"byggnads":14325,"ein":14326,"exil":14327,"andras":14328,"rike":14329,"tyskarna":14330,"tetra":14331,"tess":14332,"omt":14333,"##ymnas":14334,"jarnaldern":14335,"hassel":14336,"06":14337,"##work":14338,"hogland":14339,"##yther":14340,"first":14341,"onlyinclude":14342,"##hun":14343,"julia":14344,"144":14345,"bosatta":14346,"karolinska":14347,"boissier":14348,"##yrtus":14349,"mato":14350,"scand":14351,"bidra":14352,"##sbolaget":14353,"##enson":14354,"magasin":14355,"sanda":14356,"entre":14357,"tavlingarna":14358,"tensift":14359,"##valv":14360,"##mani":14361,"##riket":14362,"bredvid":14363,"enklare":14364,"##wak":14365,"vivevaxtart":14366,"inflytelserik":14367,"##imar":14368,"portez":14369,"satur":14370,"studios":14371,"staud":14372,"##republiken":14373,"kirgiz":14374,"##ал":14375,"##arist":14376,"svin":14377,"##ender":14378,"motet":14379,"farm":14380,"boksta":14381,"cordoba":14382,"##etiskt":14383,"ande":14384,"kammare":14385,"girault":14386,"adress":14387,"clara":14388,"vande":14389,"##اب":14390,"##skri":14391,"paverka":14392,"##uman":14393,"lyft":14394,"skinn":14395,"##quel":14396,"natal":14397,"pis":14398,"##acus":14399,"marina":14400,"blotta":14401,"hojer":14402,"sigismund":14403,"##ouf":14404,"lanc":14405,"dryck":14406,"smar":14407,"strim":14408,"skolans":14409,"socialt":14410,"kristianstad":14411,"##jun":14412,"##steg":14413,"utlan":14414,"senior":14415,"vancouver":14416,"chri":14417,"1806":14418,"syskon":14419,"##givande":14420,"sjung":14421,"stadsfullmaktige":14422,"##stadsregionen":14423,"cod":14424,"##ariaceae":14425,"relationer":14426,"hoce":14427,"beni":14428,"hundratal":14429,"##embran":14430,"belagna":14431,"##handa":14432,"fiske":14433,"starkare":14434,"iss":14435,"diskografi":14436,"hoceima":14437,"slar":14438,"##stro":14439,"soul":14440,"1802":14441,"skilja":14442,"##opia":14443,"##apel":14444,"game":14445,"originaltitel":14446,"##elef":14447,"##andi":14448,"vila":14449,"##spartiet":14450,"landshovding":14451,"##byggda":14452,"walt":14453,"##ellaceae":14454,"hittats":14455,"fiender":14456,"##com":14457,"medier":14458,"##icana":14459,"1803":14460,"bilj":14461,"helgon":14462,"ya":14463,"turnerade":14464,"risken":14465,"##rapp":14466,"anj":14467,"##ansvar":14468,"gustafsson":14469,"sasongerna":14470,"##kak":14471,"##ositionen":14472,"bali":14473,"annexforsamling":14474,"zu":14475,"atlanten":14476,"##etik":14477,"riktiga":14478,"rostratt":14479,"##uens":14480,"##say":14481,"centralt":14482,"##ibia":14483,"makedonien":14484,"california":14485,"stran":14486,"dater":14487,"1805":14488,"dansflugor":14489,"indelad":14490,"varor":14491,"kapellet":14492,"processen":14493,"ortodoxa":14494,"hd":14495,"##hals":14496,"##drakt":14497,"lex":14498,"##ights":14499,"agen":14500,"arj":14501,"fut":14502,"mist":14503,"rekommen":14504,"bransle":14505,"fysiska":14506,"pakistan":14507,"carlyle":14508,"cauca":14509,"##ididae":14510,"tidpunkt":14511,"landskrona":14512,"skandinavien":14513,"banks":14514,"karen":14515,"vincent":14516,"##ammar":14517,"village":14518,"spott":14519,"##annen":14520,"begravdes":14521,"forcipomyia":14522,"doth":14523,"forsakring":14524,"libr":14525,"##shem":14526,"sockenhuvudort":14527,"##hti":14528,"butiker":14529,"sofla":14530,"kottflugor":14531,"nahr":14532,"##samlingar":14533,"uttrycket":14534,"ragnar":14535,"vientiane":14536,"pseudoc":14537,"hyres":14538,"konferens":14539,"spetsen":14540,"mg":14541,"##armen":14542,"##skanal":14543,"stangdes":14544,"mecklenburg":14545,"dact":14546,"bamako":14547,"04":14548,"hagg":14549,"##ries":14550,"underratt":14551,"##indel":14552,"burk":14553,
[...]
