[unused0]
[unused1]
[unused2]
[unused3]
[unused4]
[unused5]
[unused6]
[unused7]
[unused8]
[unused9]
[unused10]
[unused11]
[unused12]
[unused13]
[unused14]
[unused15]
[unused16]
[unused17]
[unused18]
[unused19]
[unused20]
[unused21]
[unused22]
[unused23]
[unused24]
[unused25]
[unused26]
[unused27]
[unused28]
[unused29]
[unused30]
[unused31]
[unused32]
[unused33]
[unused34]
[unused35]
[unused36]
[unused37]
[unused38]
[unused39]
[unused40]
[unused41]
[unused42]
[unused43]
[unused44]
[unused45]
[unused46]
[unused47]
[unused48]
[unused49]
[unused50]
[unused51]
[unused52]
[unused53]
[unused54]
[unused55]
[unused56]
[unused57]
[unused58]
[unused59]
[unused60]
[unused61]
[unused62]
[unused63]
[unused64]
[unused65]
[unused66]
[unused67]
[unused68]
[unused69]
[unused70]
[unused71]
[unused72]
[unused73]
[unused74]
[unused75]
[unused76]
[unused77]
[unused78]
[unused79]
[unused80]
[unused81]
[unused82]
[unused83]
[unused84]
[unused85]
[unused86]
[unused87]
[unused88]
[unused89]
[unused90]
[unused91]
[unused92]
[unused93]
[unused94]
[unused95]
[unused96]
[unused97]
[unused98]
[unused99]
[unused100]
[unused101]
[unused102]
[unused103]
[unused104]
[unused105]
[unused106]
[unused107]
[unused108]
[unused109]
[unused110]
[unused111]
[unused112]
[unused113]
[unused114]
[unused115]
[unused116]
[unused117]
[unused118]
[unused119]
[unused120]
[unused121]
[unused122]
[unused123]
[unused124]
[unused125]
[unused126]
[unused127]
[unused128]
[unused129]
[unused130]
[unused131]
[unused132]
[unused133]
[unused134]
[unused135]
[unused136]
[unused137]
[unused138]
[unused139]
[unused140]
[unused141]
[unused142]
[unused143]
[unused144]
[unused145]
[unused146]
[unused147]
[unused148]
[unused149]
[unused150]
[unused151]
[unused152]
[unused153]
[unused154]
[unused155]
[unused156]
[unused157]
[unused158]
[unused159]
[unused160]
[unused161]
[unused162]
[unused163]
[unused164]
[unused165]
[unused166]
[unused167]
[unused168]
[unused169]
[unused170]
[unused171]
[unused172]
[unused173]
[unused174]
[unused175]
[unused176]
[unused177]
[unused178]
[unused179]
[unused180]
[unused181]
[unused182]
[unused183]
[unused184]
[unused185]
[unused186]
[unused187]
[unused188]
[unused189]
[unused190]
[unused191]
[unused192]
[unused193]
[unused194]
[unused195]
[unused196]
[unused197]
[unused198]
[unused199]
[unused200]
[unused201]
[unused202]
[unused203]
[unused204]
[unused205]
[unused206]
[unused207]
[unused208]
[unused209]
[unused210]
[unused211]
[unused212]
[unused213]
[unused214]
[unused215]
[unused216]
[unused217]
[unused218]
[unused219]
[unused220]
[unused221]
[unused222]
[unused223]
[unused224]
[unused225]
[unused226]
[unused227]
[unused228]
[unused229]
[unused230]
[unused231]
[unused232]
[unused233]
[unused234]
[unused235]
[unused236]
[unused237]
[unused238]
[unused239]
[unused240]
[unused241]
[unused242]
[unused243]
[unused244]
[unused245]
[unused246]
[unused247]
[unused248]
[unused249]
[unused250]
[unused251]
[unused252]
[unused253]
[unused254]
[unused255]
[unused256]
[unused257]
[unused258]
[unused259]
[unused260]
[unused261]
[unused262]
[unused263]
[unused264]
[unused265]
[unused266]
[unused267]
[unused268]
[unused269]
[unused270]
[unused271]
[unused272]
[unused273]
[unused274]
[unused275]
[unused276]
[unused277]
[unused278]
[unused279]
[unused280]
[unused281]
[unused282]
[unused283]
[unused284]
[unused285]
[unused286]
[unused287]
[unused288]
[unused289]
[unused290]
[unused291]
[unused292]
[unused293]
[unused294]
[unused295]
[unused296]
[unused297]
[unused298]
[unused299]
[unused300]
[unused301]
[unused302]
[unused303]
[unused304]
[unused305]
[unused306]
[unused307]
[unused308]
[unused309]
[unused310]
[unused311]
[unused312]
[unused313]
[unused314]
[unused315]
[unused316]
[unused317]
[unused318]
[unused319]
[unused320]
[unused321]
[unused322]
[unused323]
[unused324]
[unused325]
[unused326]
[unused327]
[unused328]
[unused329]
[unused330]
[unused331]
[unused332]
[unused333]
[unused334]
[unused335]
[unused336]
[unused337]
[unused338]
[unused339]
[unused340]
[unused341]
[unused342]
[unused343]
[unused344]
[unused345]
[unused346]
[unused347]
[unused348]
[unused349]
[unused350]
[unused351]
[unused352]
[unused353]
[unused354]
[unused355]
[unused356]
[unused357]
[unused358]
[unused359]
[unused360]
[unused361]
[unused362]
[unused363]
[unused364]
[unused365]
[unused366]
[unused367]
[unused368]
[unused369]
[unused370]
[unused371]
[unused372]
[unused373]
[unused374]
[unused375]
[unused376]
[unused377]
[unused378]
[unused379]
[unused380]
[unused381]
[unused382]
[unused383]
[unused384]
[unused385]
[unused386]
[unused387]
[unused388]
[unused389]
[unused390]
[unused391]
[unused392]
[unused393]
[unused394]
[unused395]
[unused396]
[unused397]
[unused398]
[unused399]
[unused400]
[unused401]
[unused402]
[unused403]
[unused404]
[unused405]
[unused406]
[unused407]
[unused408]
[unused409]
[unused410]
[unused411]
[unused412]
[unused413]
[unused414]
[unused415]
[unused416]
[unused417]
[unused418]
[unused419]
[unused420]
[unused421]
[unused422]
[unused423]
[unused424]
[unused425]
[unused426]
[unused427]
[unused428]
[unused429]
[unused430]
[unused431]
[unused432]
[unused433]
[unused434]
[unused435]
[unused436]
[unused437]
[unused438]
[unused439]
[unused440]
[unused441]
[unused442]
[unused443]
[unused444]
[unused445]
[unused446]
[unused447]
[unused448]
[unused449]
[unused450]
[unused451]
[unused452]
[unused453]
[unused454]
[unused455]
[unused456]
[unused457]
[unused458]
[unused459]
[unused460]
[unused461]
[unused462]
[unused463]
[unused464]
[unused465]
[unused466]
[unused467]
[unused468]
[unused469]
[unused470]
[unused471]
[unused472]
[unused473]
[unused474]
[unused475]
[unused476]
[unused477]
[unused478]
[unused479]
[unused480]
[unused481]
[unused482]
[unused483]
[unused484]
[unused485]
[unused486]
[unused487]
[unused488]
[unused489]
[unused490]
[unused491]
[unused492]
[unused493]
[unused494]
[unused495]
[unused496]
[unused497]
[unused498]
[unused499]
[CLS]
[MASK]
[PAD]
[SEP]
[UNK]
!
"
#
$
%
&
'
(
)
*
+
,
-
.
/
0
1
2
3
4
5
6
7
8
9
:
;
<
=
>
?
@
[
\
]
^
_
`
a
b
c
d
e
f
g
h
i
j
k
l
m
n
o
p
q
r
s
t
u
v
w
x
y
z
{
|
}
~
¡
¢
£
¤
¥
¦
§
¨
©
ª
«
¬
®
¯
°
±
²
³
´
µ
¶
·
¸
¹
º
»
¼
½
¾
¿
×
ß
æ
ð
÷
ø
þ
đ
ħ
ı
ł
ŋ
œ
ƒ
ɑ
ɔ
ə
ɛ
ʹ
ʿ
ˆ
ˇ
ˈ
ː
˚
ˮ
ͼ
α
β
γ
δ
ε
ζ
η
θ
ι
κ
λ
μ
ν
ξ
ο
π
ρ
ς
σ
τ
υ
φ
χ
ψ
ω
ϕ
а
б
в
г
д
е
ж
з
и
к
л
м
н
о
п
р
с
т
у
ф
х
ц
ч
ш
щ
ъ
ы
ь
э
ю
я
ђ
є
ѕ
і
ј
љ
ґ
һ
ա
ե
ն
ո
ր
א
ב
ג
ד
ה
ו
ז
ח
ט
י
כ
ל
ם
מ
ן
נ
ס
ע
פ
צ
ק
ר
ש
ת
،
ء
ا
ب
ة
ت
ث
ج
ح
خ
د
ذ
ر
ز
س
ش
ص
ض
ط
ظ
ع
غ
ـ
ف
ق
ك
ل
م
ن
ه
و
ى
ي
پ
چ
ک
گ
ی
ە
क
ग
ज
त
द
न
प
ब
म
य
र
ल
व
स
ह
ा
ि
ी
ो
ক
ত
ন
ব
ম
য
র
ল
া
ি
ে
க
த
ன
ப
ம
ர
ா
ி
ு
ก
ข
ค
ง
จ
ช
ด
ต
ท
น
บ
ป
พ
ม
ย
ร
ล
ว
ส
ห
อ
ะ
า
฿
เ
แ
โ
ไ
་
ა
ე
ი
ლ
მ
ნ
ო
რ
ს
ᄀ
ᄂ
ᄃ
ᄅ
ᄆ
ᄇ
ᄉ
ᄋ
ᄌ
ᄎ
ᄏ
ᄐ
ᄑ
ᄒ
ᅡ
ᅢ
ᅥ
ᅦ
ᅧ
ᅩ
ᅪ
ᅬ
ᅭ
ᅮ
ᅲ
ᅳ
ᅴ
ᅵ
ᆨ
ᆫ
ᆯ
ᆷ
ᆸ
ᆼ
ᐈ
‐
‑
‒
–
—
―
‘
’
‚
“
”
„
†
‡
•
…
‰
′
″
‹
›
₂
₨
€
℃
№
™
←
↑
→
↓
⇒
−
√
≈
≤
≥
⋅
─
■
□
▪
▫
▲
▶
►
▻
▼
○
●
☀
★
☆
☺
♀
♡
♣
♥
♦
✅
✌
✓
✔
✚
✨
✭
✰
❄
❑
❤
➔
⠀
⭐
ⰰ
、
。
「
」
【
】
あ
い
う
え
お
か
き
く
け
こ
さ
し
す
せ
そ
た
ち
っ
つ
て
と
な
に
の
は
ま
み
め
も
や
よ
ら
り
る
れ
わ
を
ん
ア
ィ
イ
ウ
ェ
エ
オ
カ
キ
ク
ケ
コ
サ
シ
ス
セ
タ
チ
ッ
ツ
テ
ト
ナ
ニ
ネ
ハ
ヒ
フ
ヘ
ホ
マ
ミ
ム
メ
モ
ャ
ュ
ョ
ラ
リ
ル
レ
ロ
ワ
ン
・
ー
䄀
䈀
䐀
䔀
䜀
䠀
䤀
䬀
䰀
䴀
一
七
万
三
上
下
不
与
世
业
东
个
中
为
主
么
之
乐
九
也
乡
买
了
争
事
二
于
五
交
产
京
人
什
今
他
仙
代
以
们
件
伀
会
传
位
体
何
作
你
使
供
保
信
元
光
克
免
入
全
八
公
六
关
其
内
円
册
准
出
刀
分
划
创
利
到
制
前
力
加
务
动
势
動
匀
化
北
区
十
华
单
南
博
原
县
及
双
发
取
口
古
可
台
号
司
吀
合
同
名
后
吗
和
品
哪
唀
商
器
四
回
国
图
在
地
场
址
坛
城
堂
場
士
外
多
大
天
太
头
奖
女
好
如
姐
娱
婆
子
字
学
安
官
定
宝
实
客
室
家
富
对
小
少
就
尾
展
山
川
州
工
巧
市
布
平
年
广
庆
库
店
度
建
开
式
当
录
彩
影
律
得
微
德
心
必
快
怎
思
性
总
情
意
感
戏
成
我
户
所
手
打
技
投
报
拉
持
挂
推
提
播
教
数
文
料
斯
新
方
族
无
日
时
明
星
是
時
更
最
月
有
服
期
木
本
机
杀
村
来
東
林
枚
果
校
样
格
業
次
正
比
民
氓
水
江
沙
河
法
波
注
活
流
测
海
清
港
游
湖
源
澳
点
爱
片
版
牌
牛
物
特
狗
玄
王
玩
现
球
理
生
用
田
电
画
界
登
白
百
的
皇
盘
目
盲
直
相
看
県
真
着
知
石
码
社
神
票
福
科
程
空
立
站
第
等
算
管
精
系
红
线
组
经
结
网
美
群
老
者
肖
能
自
色
花
英
行
街
表
西
要
見
规
视
解
語
计
记
论
设
诗
财
费
资
赌
赛
赢
走
足
跑
路
身
车
软
载
过
这
进
送
选
通
道
部
都
里
重
金
钱
铁
镇
长
間
门
阳
际
限
院
集
霸
青
面
音
预
食
香
马
高
黄
龙
ﬁ
ﬂ
！
（
）
，
：
？
ｩ
ﾞ
𝐞
🌟
🌸
🎉
🏻
🏼
👊
👌
👍
👏
💕
💖
💗
💙
💚
💛
💜
💪
🔥
😀
😁
😂
😃
😄
😅
😆
😉
😊
😋
😍
😎
😘
😛
😜
😦
😬
😱
😳
🙁
🙂
🙄
🙈
🙌
🙏
🤔
🤗
00
000
01
02
03
04
05
06
07
070
08
09
10
100
1000
101
102
103
104
105
106
107
108
109
11
110
1100
111
112
114
115
117
118
119
12
120
1200
123
125
128
129
13
130
1300
135
139
14
140
1400
145
149
15
150
1500
155
159
16
160
1600
165
167
168
169
17
170
1700
174
175
177
178
179
18
180
1800
183
1830
184
185
1850
186
1860
1862
1863
1865
1866
187
1870
1871
1874
1875
1876
1877
1878
1879
188
1880
1881
1882
1883
1884
1885
1886
1887
1888
1889
189
1890
1891
1892
1893
1894
1895
1896
1897
1898
1899
19
190
1900
1901
1902
1903
1904
1905
1906
1907
1908
1909
191
1910
1911
1912
1913
1914
1915
1916
1917
1918
1919
192
1920
1921
1922
1923
1924
1925
1926
1927
1928
1929
193
1930
1931
1932
1933
1934
1935
1936
1937
1938
1939
194
1940
1941
1942
1943
1944
1945
1946
1947
1948
1949
195
1950
1951
1952
1953
1954
1955
1956
1957
1958
1959
196
1960
1961
1962
1963
1964
1965
1966
1967
1968
1969
197
1970
1971
1972
1973
1974
1975
1976
1977
1978
1979
198
1980
1981
1982
1983
1984
1985
1986
1987
1988
1989
199
1990
1991
1992
1993
1994
1995
1996
1997
1998
1999
1a
20
200
2000
2001
2002
2003
2004
2005
2006
2007
2008
2009
201
2010
2011
2012
2013
2014
2015
2016
2017
2018
2019
2020
2021
2030
21
210
22
220
225
23
230
24
240
25
250
2500
26
260
27
270
28
280
29
290
299
2a
2x
30
300
3000
31
32
320
33
330
34
35
350
36
360
365
37
38
39
3d
3g
40
400
4000
41
42
43
44
45
450
46
47
48
49
4k
50
500
5000
51
52
53
54
55
550
56
57
58
59
60
600
6000
61
62
63
64
65
650
66
67
68
69
70
700
71
72
73
74
75
750
76
77
78
79
80
800
81
82
83
84
85
850
86
87
88
89
90
900
91
92
93
94
95
96
97
98
99
a1
a3
a4
aa
aaa
aar
ab
abb
abc
abd
aber
abo
abonn
abonnemang
abort
about
abra
abraham
abs
absol
absolut
absoluta
absolutt
absor
absorber
abstrakt
abu
ac
academ
academy
acc
accel
acceler
accep
accept
acceptans
acceptera
accepterar
accepteras
accepterat
access
accessoarer
account
ace
ach
ack
ackligt
ackrediter
ackumul
ackumulerade
act
action
active
ad
ada
adam
adams
adapter
adcirca
add
address
ade
adekv
adekvat
adel
adgang
adhd
adidas
admin
administ
administr
administrasjon
administrasjonen
administrat
administration
administrativ
administrativa
administrative
administrativt
administrator
administrera
ado
adobe
adol
adolf
adoos
adop
adren
adress
adresse
adressen
adresser
adri
adrian
ads
adult
advan
advent
advok
advokat
advokater
aer
af
aff
affar
affaren
affarer
affars
affarside
affili
affisch
afg
afghan
afghanistan
afri
afrik
afrika
afrikansk
afrikanska
afro
aften
aftenposten
after
afton
aftonbladet
ag
aga
again
agande
agar
agare
agaren
agarna
agde
agder
age
agen
agenda
agendan
agent
agentur
ager
agera
agerande
agerar
agg
aggen
aggress
aggressiv
agil
agility
agna
agnade
agnar
agnat
agnes
agnet
agneta
ago
ags
agt
ah
aha
ahh
ahl
ahlens
ai
aik
ain
air
aires
airport
aj
aja
ak
aka
akade
akadem
akademi
akademien
akademiker
akademin
akademisk
akademiska
ake
aker
akershus
akesson
akkurat
akl
aklag
aklagare
aklagaren
akryl
aks
aksep
aksjer
aksjon
akt
akta
akte
akten
aktenskap
aktenskapet
akter
akti
aktie
aktieagare
aktiebolag
aktiek
aktien
aktier
aktierna
akties
aktiv
aktiva
aktive
aktiver
aktivera
aktiverar
aktiveras
aktivitet
aktiviteten
aktiviteter
aktivt
aktor
aktorer
aktorerna
aktuell
aktuella
aktuelle
aktuellt
aktuelt
aktører
akup
akust
akut
akuta
akuten
akutt
akvar
akvare
akvarell
al
ala
alan
aland
alarm
alb
alban
albert
albin
album
albumet
ald
alder
alderdom
alderen
aldern
alders
aldr
aldrande
aldrar
aldrarna
aldre
aldreomsorg
aldreomsorgen
aldri
aldrig
aldsta
ale
aleks
alene
alesund
alex
alexander
alexandra
alf
alfa
alfred
alg
alger
algeriet
algorit
ali
alice
alig
alingsas
alk
alko
alkohol
all
alla
allah
allan
allas
alldeles
alle
allehanda
allen
aller
allerede
allerg
allergi
allergisk
allian
allians
alliansen
allihop
allihopa
allikevel
allman
allmanhet
allmanheten
allmanna
allmant
allmenn
allra
alls
allsvenska
allsvenskan
allt
alltfor
alltid
alltifran
alltihop
allting
alltmer
alltsa
allvar
allvarlig
allvarliga
allvarligt
alm
alma
almedalen
alminn
alp
alpin
alsk
alska
alskad
alskade
alskar
alskare
alskat
alskling
alsklingen
also
alster
alt
alta
altan
altanen
alter
alternativ
alternativa
alternative
alternativen
alternativer
alternativet
alternativt
altfor
alto
altsa
alumin
aluminium
alv
alva
alven
alvor
alvorlig
alvorlige
alvsjo
am
ama
amal
amanda
amar
amat
amate
amateur
amator
amatorer
amatorporr
amatør
amazing
amazon
amb
ambassa
ambassad
ambassaden
ambassador
ambet
ambition
ambitionen
ambitioner
ambul
ambulans
amer
america
american
amerik
amerika
amerikan
amerikaner
amerikansk
amerikanska
amerikanske
amerikanskt
amf
aminos
ammun
amne
amnen
amnena
amnes
amnet
amning
amor
amorter
amortering
amp
amster
amsterdam
amy
an
ana
anal
analog
analsex
analy
analys
analyse
analysen
analyser
analysera
analyserar
analyseras
analyt
analytics
analytiker
anam
anar
anark
anat
anbef
anbefal
anbefale
anbefaler
anbefales
anbefalt
anbud
and
anda
andam
andamal
andamalet
andamalsen
andan
andas
ande
andel
andelar
andelen
anden
ander
anders
andersen
anderson
andersson
andetag
andlig
andliga
andning
andnings
andra
andrad
andrade
andrades
andrahand
andrar
andras
andrat
andrats
andre
andrea
andreas
andres
andrew
andring
andringar
andringen
andro
android
andy
aner
anerkj
anette
anfall
anfor
ang
anga
angaende
angar
ange
angel
angelagen
angelaget
angeles
angelholm
angelica
angen
anger
anges
angest
angesten
angi
angiv
angiven
angivna
anglar
angr
angra
angrar
angrep
angrepet
angrepp
angst
anhangare
anhor
anhorig
anhoriga
anim
animal
anime
animer
aning
aningen
anita
ank
anka
ankar
ankl
anklag
anknytning
ankom
ankomst
anl
anlagg
anlaggning
anlaggningar
anlaggningen
anlande
anlander
anled
anledning
anledningar
anledningarna
anledningen
anlegg
anlegget
anlit
anlita
anlitar
anm
anmal
anmala
anmalan
anmalda
anmaler
anmalning
anmalningar
anmalnings
anmalt
anmark
anmarkning
anmarkningar
anmarknings
anmel
ann
anna
annan
annans
annanstans
annars
annat
anne
annen
anner
annerledes
annet
annie
annika
annon
annons
annonse
annonsen
annonser
annonsera
annonsering
annorlunda
annu
anony
anonym
anonyma
anonymt
anor
anord
anordna
anordnar
anordnas
anpass
anpassa
anpassad
anpassade
anpassar
anpassas
anpassat
anpassning
ans
ansag
ansags
ansatt
ansatte
anse
anser
anses
ansett
ansikt
ansikte
ansikten
ansiktet
ansikts
anskaff
ansl
anslag
anslagstav
anslut
ansluta
ansluten
ansluter
anslutna
anslutning
anslutningar
ansok
ansoka
ansokan
ansoker
ansokningar
ansoknings
ansprak
anstall
anstalla
anstalld
anstallda
anstallde
anstallning
anstallningen
anstallnings
anstand
anstr
anstrang
anstrangning
ansvar
ansvara
ansvarar
ansvaret
ansvarig
ansvariga
ansvarlig
ant
anta
antag
antagande
antagen
antagligen
antagning
antal
antalet
antall
antallet
antar
antarktis
antas
anteck
anteckningar
antenn
anth
anti
antib
antibiot
antibiotika
antik
antika
antingen
antioxid
antioxidanter
antis
antisem
antisemit
antligen
antog
antogs
anton
antonio
antyd
antyder
anv
anvand
anvanda
anvandande
anvandandet
anvandar
anvandare
anvandaren
anvandarna
anvandarnamn
anvandas
anvandbar
anvandbara
anvandbart
anvande
anvander
anvandes
anvandning
anvandningen
anvandningsomraden
anvands
anvant
anvants
anvende
anvisningar
any
ap
apa
apart
apel
apelsin
apen
apenbart
apent
apne
apner
apnes
apnet
apning
apos
apost
apote
apotek
apoteket
app
appar
apparat
apparaten
apparater
appel
appen
appl
apple
applen
apples
applic
applicera
applik
applikation
applikationer
appro
apps
apr
april
apro
apropa
apt
aptit
aqu
ar
ara
arab
arabisk
arabiska
aran
arb
arbeid
arbeide
arbeider
arbeiderpartiet
arbeidet
arbeids
arbeidsgiver
arbeidsliv
arbeidslivet
arbeidsmark
arbeidsmarked
arbeidsmiljø
arbeidsplasser
arbeidst
arbeidstaker
arbeidstakere
arbet
arbeta
arbetade
arbetande
arbetar
arbetare
arbetark
arbetat
arbete
arbeten
arbetet
arbets
arbetsdag
arbetsdagar
arbetsformed
arbetsformedlingen
arbetsgiv
arbetsgivar
arbetsgivare
arbetsgivaren
arbetsgrupp
arbetskraft
arbetsliv
arbetslivet
arbetslos
arbetslosa
arbetsloshet
arbetslosheten
arbetsm
arbetsmark
arbetsmarknad
arbetsmarknaden
arbetsmilj
arbetsmiljo
arbetsmiljon
arbetsmiljoverket
arbetsplats
arbetsplatsen
arbetsplatser
arbetssatt
arbetssokande
arbetst
arbetstagare
arbetstagaren
arbetstid
arbetstillfallen
arbetsuppgifter
arbetsutskott
arboga
arc
arch
are
area
areal
arean
aren
arena
arenan
arendal
arende
arenden
arendet
arene
arens
aret
arets
arg
arga
argang
argent
argentina
argument
argumenter
arhund
arhundraden
arhundre
arig
ariga
arige
aring
aringar
aringen
arist
ark
arke
arkite
arkitekt
arkitekten
arkitekter
arkitektur
arkiv
arkiver
arkivet
arlanda
arlig
arliga
arlige
arligen
arligt
arm
armar
armarna
armat
armband
arme
armen
arn
arne
aro
arom
aron
arr
arrang
arrangemang
arrangemanget
arrangement
arrangementer
arrangementet
arrangera
arrangerade
arrangerar
arrangeras
arrangeres
arrangert
arrangor
arrester
arro
arrond
arrondiss
arrondissementet
ars
arsak
arsaken
arsaker
arsaldern
arsdag
arsen
arsenal
arsju
arsjubileum
arskurs
arskurser
arskurserna
arsm
arsmedel
arsmedeltemperaturen
arsmote
arsmotet
arsmøte
arsmøtet
arsn
arsnederbord
arsredovis
arsredovisning
arsskiftet
arsta
arstid
arstider
art
arten
artene
artens
arter
arthur
artific
artig
artik
artikel
artikeln
artikelnummer
artikkel
artikkelen
artiklar
artiklarna
artikler
artiller
artion
artionden
artist
artisten
artister
arton
arts
arv
arvet
arvid
arvika
as
asa
asb
ase
asf
asfalt
ash
ashley
asia
asian
asiat
asiatisk
asiatiska
asiatiske
asido
asien
asikt
asikter
ask
aska
askad
askadare
asker
asp
aspekt
aspekter
asper
ass
assa
assist
assistans
assistent
assoc
associ
association
ast
astad
astadkomma
aster
astma
astr
astrid
astronom
asyl
asylsokande
at
ata
ataganden
atal
atanke
ate
atel
atelje
aten
ater
ateranvand
aterbetal
aterbetalning
aterf
aterfinns
aterforsaljare
aterfukt
aterga
aterhamt
aterhamta
aterhamtning
aterigen
aterin
aterkall
aterkomma
aterkommande
aterkommer
aterkoppling
aterskap
aterspeg
aterstaende
aterstall
aterstalla
aterstar
aterupp
aterv
atervand
atervanda
atervande
atervander
atervin
atervinning
atervinnings
atferd
atgard
atgarda
atgardas
atgarden
atgarder
atgarderna
atit
atkomst
atl
atlant
atlanten
atlas
atlet
atmin
atminstone
atmos
atmosf
atmosfar
atmosfaren
atn
atom
ats
atskill
atskilliga
att
atta
attack
attacker
atte
attit
attity
attityd
attityder
attonde
attra
attrah
attrakt
attraktion
attraktiv
attraktiva
attraktivt
attri
attribut
au
aud
audi
audio
auf
aug
august
augusti
auktion
auktor
auktoriserad
aur
aust
austral
australia
australien
aut
autent
author
autism
auto
autom
automat
automatis
automatisk
automatiska
automatiskt
autonom
autor
av
ava
availa
available
avanc
avancerad
avancerade
avancerat
avanser
avbetalning
avbetalningar
avbild
avbok
avbr
avbrott
avbryt
avbryta
avd
avde
avdel
avdeling
avdelingen
avdelning
avdelningar
avdelningen
avdrag
avel
aven
aventyr
aventyret
avesta
avfall
avg
avgang
avgar
avgift
avgiften
avgifter
avgjordes
avgjort
avgjør
avgjøre
avgjørelse
avgjørende
avgor
avgora
avgorande
avgors
avgrans
avhandling
avhengig
avholdt
avi
avis
avisen
avkast
avkastning
avkastningen
avklar
avklarad
avkopp
avkopplande
avkoppling
avl
avlag
avlagsna
avled
avlid
avlon
avloningsdag
avlopp
avn
avok
avokado
avratt
avrinning
avrinningsomradet
avrund
avs
avsak
avsaknad
avsatt
avse
avsedd
avsedda
avseende
avser
avses
avsett
avsevart
avsikt
avsikten
avsk
avskaff
avsked
avskyr
avsl
avslag
avslapp
avslappnad
avslappnande
avslo
avsloj
avsloja
avslojade
avslojar
avslut
avsluta
avslutad
avslutade
avslutades
avslutande
avslutar
avslutas
avslutat
avslutning
avslutningen
avslutningsvis
avslutt
avsluttet
avsnitt
avsnitten
avsnittet
avst
avsta
avstand
avstandet
avstang
avstangd
avsug
avsugning
avt
avtag
avtal
avtale
avtalen
avtaler
avtalet
avtalt
avtryck
avund
avundsjuk
avvag
avvatt
avvattnar
avveck
avveckling
avverk
avvik
avvikande
avvikelse
avvikelser
avviker
avvisa
avvist
aw
award
awards
away
awesome
ax
axel
axeln
axlar
axlarna
ay
az
a¤r
b2
ba
bab
babe
babes
baby
babys
bacc
bachel
bachelor
back
backa
backar
backe
backen
backup
bacon
bad
bada
badade
badar
badd
baddar
badds
bade
badet
badkar
badoo
badrum
badrummet
bag
bagage
bagaget
bagar
bagge
bah
baj
bajs
bak
baka
bakade
bakar
bakat
baker
bakgr
bakgrund
bakgrunden
bakgrunder
bakgrunn
bakgrunnen
bakifran
bakken
bakom
bakplat
bakplatspapper
bakre
baksida
baksidan
bakt
bakter
bakterier
bakverk
bal
balans
balanse
balansen
balanser
balansera
balanserad
bali
balkon
balkong
balkongen
ball
ballen
baller
ballong
balsam
balt
balte
bam
ban
bana
banan
band
banden
bandet
bandets
bandy
bane
banen
bang
bangkok
bank
banken
bankens
banker
bankerna
bankid
bankkonto
bankkort
banklan
banks
bann
banor
bant
bapt
bar
bara
barbar
barbara
barber
barbro
barcel
barcelona
bard
bare
baren
barer
bark
barn
barna
barnas
barnbarn
barndom
barne
barneh
barnehag
barnehage
barnehagen
barnehager
barnen
barnens
barnet
barnets
barnever
barnevern
barnmor
barns
barnvagn
barnvakt
barr
barri
barrskog
bars
bart
bas
base
baseb
basen
baserad
baserade
baseras
baserat
basert
basic
basil
basilika
basis
basket
bass
bast
basta
bastad
bastu
bat
batar
baten
bater
batman
batt
batter
batteri
batterier
batterierna
batteriet
battle
battre
bay
bayern
bb
bbc
bbw
bc
bd
bdsm
be
bea
beach
beakt
beakta
beaktande
beaktas
bearbet
bearbeta
bearbetning
beat
beatles
beaut
beautiful
beauty
beb
bebis
bebisar
bebisen
bebo
bebygg
bebyggelse
bebyggelsen
beck
bed
bedom
bedoma
bedomas
bedomer
bedomning
bedomningar
bedomningen
bedoms
bedrag
bedrageri
bedre
bedrift
bedriften
bedrifter
bedriv
bedriva
bedriver
bedrivs
bedrov
bedt
been
bef
befal
befann
befar
befatt
befinna
befinner
befint
befintlig
befintliga
befintligt
befolk
befolkning
befolkningen
befolknings
befolkningsutveckling
before
befri
beg
bega
begag
begagnad
begagnade
begar
begara
begaran
begart
begatt
begav
bege
beger
begge
begr
begra
begran
begrans
begransa
begransad
begransade
begransar
begransas
begransat
begransning
begransningar
begrav
begravning
begrens
begrense
begrenset
begrep
begrepet
begrepp
begreppen
begreppet
begrunn
begyn
begynn
begynne
begynnelse
begynnelsen
begynner
begynt
begynte
beh
behag
behagelig
behaglig
behagligt
behall
behalla
behallare
behaller
behand
behandla
behandlade
behandlar
behandlas
behandle
behandler
behandles
behandlet
behandling
behandlingar
behandlingen
behar
behol
beholde
behor
behorig
behoriga
behorighet
behov
behova
behovas
behovde
behovdes
behoven
behover
behovet
behovs
behovt
beige
beij
beijing
bein
beina
bek
bekampa
bekampning
bekant
bekanta
bekantskap
bekjem
bekl
bekost
bekostnad
bekraft
bekrafta
bekraftade
bekraftar
bekraftat
bekraftelse
bekre
bekreftet
bekv
bekvam
bekvama
bekvamlighet
bekvamligheter
bekvamt
bekym
bekymmer
bel
belagen
belaget
belagg
belagna
belast
belastning
belg
belgien
beliggen
bell
bella
belon
beloning
belopp
beloppet
bely
belys
belysa
belyser
belysning
beløn
beløp
beløpet
bem
beman
bemanning
bemark
bemer
bemot
bemota
bemotande
ben
benam
benamn
benamning
bened
benen
benet
beng
bengt
bengtsson
benj
benjamin
benny
bens
bensin
bent
benytte
benytter
benyttes
benyttet
benz
beord
beprov
ber
berak
berakna
beraknad
beraknade
beraknas
beraknat
berakning
berakningar
berakningen
beratt
beratta
berattade
berattar
berattas
berattat
berattelse
berattelsen
berattelser
berattig
berattigad
berattigade
bered
beredd
beredda
beredning
beredskap
bereg
beregnet
berg
bergen
bergens
berget
bergig
berglund
bergman
bergs
bergstopp
bergstrom
berit
berl
berlin
bern
bernt
bero
berodde
beroende
berom
beromda
beror
berord
berorda
beroring
berors
berre
bert
bertil
beru
bes
besatt
besattning
beseg
besegrade
besikt
besiktning
besitt
besitter
besk
beskatt
besked
beskedet
beskjed
beskrev
beskrevet
beskrevs
beskriv
beskriva
beskrivas
beskrive
beskrivelse
beskriver
beskrivning
beskrivningar
beskrivningen
beskrivs
beskytt
beskytte
beskyttelse
besl
beslag
beslot
beslut
besluta
beslutade
beslutande
beslutar
beslutat
besluten
beslutet
besluts
beslutsfatt
beslutsfattare
besluttet
besok
besoka
besokare
besokarna
besoker
besoket
besokt
besokte
bespar
besparingar
best
besta
bestaende
bestall
bestalla
bestallas
bestallde
bestaller
bestallning
bestallningar
bestallningen
bestallt
bestam
bestamd
bestamda
bestamde
bestamm
bestamma
bestammelse
bestammelsen
bestammelser
bestammelserna
bestammer
bestams
bestamt
bestand
bestands
bestar
bestatt
beste
bestem
bestemm
bestemme
bestemmelser
bestemmer
bestemt
bestemte
bestill
bestille
bestilling
bestod
besvar
besvara
besvaras
besvik
besvikelse
besviken
besvikna
besø
besøk
besøke
besøkende
besøker
besøkt
besøkte
bet
beta
betal
betala
betalade
betalar
betalas
betalat
betald
betalda
betale
betaler
betaling
betalkort
betalning
betalningar
betalningen
betalnings
betalningsanmark
betalningsanmarkning
betalningsanmarkningar
betalt
betank
bete
beteck
beteende
beteenden
beteendet
betegn
beter
betes
beting
beton
betonar
betong
betraff
betraffande
betrakt
betrakta
betraktar
betraktas
bett
better
betting
bety
betyd
betyda
betydande
betydde
betydelig
betydelse
betydelsen
betyder
betydligt
betydning
betydningen
betyg
betyget
betyr
beund
bev
bevaka
bevakning
bevar
bevara
bevarade
bevaras
beveg
bevege
bevegelse
beveger
bevil
bevilj
beviljas
beviljats
bevis
bevisa
bevisst
bevitt
bf
bh
bi
bian
bibe
bibehalla
bibel
bibelen
bibeln
bibl
bibli
bibliote
bibliotek
bibliotekar
biblioteket
biblioteks
bid
bidr
bidra
bidrag
bidraget
bidragit
bidrags
bidrar
bidratt
bidro
bidrog
bie
bieber
bif
bifall
biff
biflo
biflodesordning
bifog
big
bik
bikin
bikini
bil
bilaga
bilagor
bilar
bilarna
bild
bilda
bildade
bildades
bildar
bildas
bilde
bilden
bildene
bilder
bilderna
bildet
bilen
bilens
biler
bilhandlare
bilj
biljett
biljetter
biljetterna
bill
billan
billett
billig
billiga
billigare
billigaste
billige
billigt
billy
biltillverk
bim
bin
bind
binda
bindande
binder
bing
bingo
bio
biod
biog
biogas
biograf
biografi
biologi
biologisk
biologiska
biom
bios
biotekn
bioteknologisk
bir
birger
birgitt
birgitta
birth
bis
bisex
biskop
bist
bista
bistand
bit
bita
bitar
bitco
bitcoin
biten
biter
bitradande
bitt
bitter
biv
biverk
biverkningar
bj
bjar
bjer
bjod
bjods
bjor
bjork
bjorklund
bjorn
bjud
bjuda
bjuden
bjuder
bjudit
bjuds
bjur
bjør
bjørn
bk
bl
bla
blaa
blabar
black
blackjack
blad
bladd
bladdra
bladen
bladet
blam
blan
blanc
blancolan
bland
blanda
blandad
blandade
blandar
blandas
blandat
blanding
blandning
blandningen
blandskog
blank
blankett
blanketten
blant
blas
blasa
blaser
blast
blaste
blatt
ble
blei
blek
blekinge
blev
bli
blick
blickar
blicken
blikk
blin
blind
blink
blir
blitt
blivande
blivit
blixt
blo
block
blocket
blod
blodet
blods
blodsocker
blodtryck
blog
blogg
blogga
bloggar
bloggare
bloggat
bloggen
blogger
blogginlagg
blom
blomm
blomma
blommar
blommor
blommorna
blomst
blomster
blond
blonda
blonde
blondin
blood
bloom
blot
blota
blott
blow
blowjob
blu
blue
blues
bluet
bluetooth
bluff
blund
blus
bly
blyg
bm
bmw
bn
bnp
bo
board
bob
bock
bocker
bockerna
bod
bodde
boden
body
bodø
boende
boenden
boendet
bog
bogota
bohus
bohuslan
boj
bok
boka
bokad
bokade
bokar
bokas
bokat
boken
bokens
bokfor
bokforing
bokmark
bokning
bokningar
bokslut
boksta
bokstav
bokstaven
bokstaver
bokstavligen
bokstavligt
bokt
bol
bolag
bolagen
bolaget
bolagets
bolags
bolan
bolig
boligen
boliger
boliv
bolivia
boll
bollar
bollen
bollnas
bom
bomb
bomber
bomull
bon
bond
bondag
bondage
bonde
bonden
bonder
bonn
bonnier
bonor
bonus
bonusar
bonusen
bonuss
boob
boobs
book
boost
boot
booty
bor
boras
bord
borde
border
bordet
bore
boreala
borg
borgar
borgen
borgenarer
borger
borgerliga
borj
borja
borjade
borjan
borjar
borjat
borlange
born
borr
borsen
borst
borsta
bort
borta
borte
bortglom
bortom
bortsett
bortskam
bortt
bos
bosatt
bosatta
bosatte
bosn
bosnien
boss
bosse
bost
bostad
bostaden
bostader
bostads
bostadslan
bostadsmarknaden
bostadsratt
bostadsratter
boston
bot
bota
botan
boter
botkyrka
bott
botten
bou
boverket
bow
bowling
box
boxen
boy
boys
bp
br
bra
brack
brad
bradskande
brak
bran
brand
branden
brann
branna
brannande
branner
brans
bransch
branschen
branscher
bransje
bransjen
bransl
bransle
branslen
brant
brasil
brasilia
brasilien
bratt
brattom
bre
break
bred
breda
bredare
bredband
bredd
bredde
bredden
bredt
bredvid
brem
brett
brev
brevet
brevid
brevladan
brf
bri
brian
brid
bridge
brig
brilj
bring
bringe
brinna
brinnande
brinner
bris
brist
bristande
bristen
brister
bristfall
brit
brita
british
britisk
britiske
britt
brittisk
brittiska
bro
broad
broar
brocc
brod
broder
broderna
brodet
brok
brokparasit
brokparasitsteklar
brollop
brollopet
brom
bromma
broms
bromsar
bron
brons
bronse
brook
bror
brorsan
brosch
brost
brostcancer
brosten
brostet
brostvart
brot
brother
brott
brottet
brotts
brottslighet
brow
brown
browser
bru
bruce
brud
brudar
brudd
bruk
brukade
brukar
brukare
bruke
bruken
bruker
brukere
brukeren
brukerne
brukes
bruket
bruks
brukt
brukte
brun
bruna
brunch
brunett
brunn
brunt
brus
brut
brutal
brutalt
bruten
brutit
brutt
bry
brydde
brygg
brygga
bryggan
brygger
bryll
bryn
brynas
bryr
bryssel
bryst
bryt
bryta
bryte
bryter
bryts
brø
brød
brønn
bt
btw
bu
bubb
bubbel
bubbla
buck
bucks
bud
budapest
budd
buddh
budget
budgeten
budsj
budsjett
budskap
budskapet
buen
buenos
buff
buffe
bug
bugg
buk
bukt
bul
bulgar
bulgarien
bull
bullar
buller
bult
bun
bund
bunden
bundet
bunke
bunn
bunnen
bunt
bur
burde
buren
burit
burk
burkar
burken
bursdag
bus
bush
business
busk
buskar
busker
buskerud
busklandskap
buss
bussar
bussen
bust
busty
but
butik
butiken
butiker
butikerna
butikk
butikken
butikker
butt
butter
buy
bvc
by
byar
bydel
byen
byene
byens
byer
byg
bygd
bygde
bygg
bygga
byggande
byggandet
byggar
byggas
byggd
byggda
byggde
byggdes
bygge
bygger
bygges
bygget
byggher
bygging
bygglov
byggnad
byggnaden
byggnadens
byggnader
byggnaderna
byggnads
byggs
byggt
byggts
bygningen
bygninger
byn
byr
byra
byrak
byrakrat
byran
bys
byt
byta
bytas
byte
byten
byter
byts
bytt
bytte
byttes
byttet
byx
byxor
byxorna
bæ
bær
bære
bærekraft
bærekraftig
bærer
bærum
bø
bøkene
bøker
bøl
bøn
bør
ca
cad
cafe
cafeer
cal
californ
california
call
calle
cam
camilla
camp
camping
campingen
campus
cams
can
canad
canada
cancer
cand
canna
cannabis
canon
cant
cap
cape
capp
car
card
care
carin
carina
carl
carlos
carlsson
carol
carolina
caroline
carro
cart
cartoon
cas
casa
case
cash
casin
casino
casinon
casinos
casinospel
casinot
cass
cast
castle
casual
cat
catalog
catalogue
categor
category
catering
cav
cb
cc
cd
ce
cec
cecilia
ceder
cel
celeb
cell
celler
cellul
cens
cent
center
centerpartiet
centimeter
centr
central
centrala
centralen
centralt
centre
centrum
cer
ceremon
cerro
cert
certifier
certifierad
certifierade
certifiering
certifikat
ces
cet
cf
ch
cha
chal
challen
challenge
chalmers
cham
champ
champagne
champion
champions
championship
chan
chang
change
chann
chans
chansen
chanser
chap
char
chara
charl
charles
charlie
charlotte
charm
charmig
charmiga
charter
chass
chat
chatt
chatta
chatten
chauffor
che
check
checka
chef
chefen
chefer
chefredaktor
chelse
chelsea
cher
chesh
cheshmeh
chev
chi
chic
chicago
chick
chil
child
chile
chili
chill
china
chip
chips
cho
chock
chockad
chok
choklad
chokladen
chr
chris
christ
christer
christian
christina
christine
christmas
christoffer
christop
christopher
chrome
church
ci
cia
cialis
cider
cigar
cigaretter
cin
cir
cirk
cirka
cirkel
cirkul
cirkus
cit
citat
citer
citron
citrus
city
civ
civil
civila
ck
cl
cla
claes
clar
clara
clark
clas
class
classic
cle
clean
clear
click
client
clin
clint
clinton
clips
clo
close
cloud
club
cm
co
co2
coach
coaching
coca
cock
cockta
code
coffe
col
cola
coll
collect
collection
college
colomb
colombia
color
colorado
columb
columbia
com
come
comeback
comfort
comm
comment
comments
commun
communic
community
comp
compan
company
compl
computer
con
conne
connect
cons
consult
cont
conta
contact
container
content
contest
contin
continue
control
cook
cookie
cookies
cool
coola
coolt
coop
cop
copyr
copyright
cor
cord
core
corn
corpor
cos
cost
costa
cott
cou
cougar
coun
count
country
county
countyt
cour
court
cover
cow
cp
cr
cra
craig
crazy
cre
cream
creamp
creampie
creative
cred
credit
creek
creme
cri
crist
cro
cross
cru
cruise
cruz
cry
cs
csn
ct
cu
cub
cuck
cuckold
cum
cumshot
cup
cupen
cur
curry
cust
custom
cut
cv
cy
cyber
cyk
cykel
cykeln
cykl
cykla
cyklade
cyklar
cykling
cyklister
cyl
cylinder
cyn
cypern
cyt
da
dack
dacken
dad
dag
dagar
dagarna
dagars
dagbladet
dagbok
dagen
dagene
dagens
dager
dagg
dagis
daglig
dagliga
daglige
dagligen
dags
dagslaget
dagsljus
dagstid
dagtid
dagvatten
dahl
daily
dal
dala
dalarna
dalarnas
dalen
dalig
daliga
daligt
dall
dam
dama
dame
damen
damer
damerna
damm
dammen
damms
dammsug
damp
dan
dance
dander
dani
daniel
danielsson
danmark
danmarks
dann
danne
danner
dannet
danny
dans
dansa
dansade
dansar
dansare
danse
dansen
danser
dansk
danska
danske
dar
darav
dare
darefter
daremellan
daremot
darfor
dari
daribland
darifran
darigenom
dark
darlig
darlige
darligere
darmed
darpa
dart
dartill
darute
darutover
darvid
das
dat
data
datab
databas
databasen
databaser
datainspektionen
datak
datama
datamaskin
datan
datas
dataskydd
dataskyddsfor
datat
date
dating
datings
datingside
datingsider
datingsidor
dato
dator
datorer
datorn
datt
datter
datteren
datum
datumet
davarande
david
davis
dax
day
days
db
dc
dd
de
dead
deal
dealer
death
deb
debatt
debattartikel
debatten
debatter
debiter
debiteras
debut
debuter
debuterade
dec
december
decenn
decennier
deckare
ded
dedik
dee
deep
def
defa
default
defekt
defens
defin
definert
definier
definiera
definierar
definieras
definisjon
definit
definition
definitionen
definitioner
definitivt
deg
degen
deger
dei
deil
deilig
deilige
dej
dejt
dejta
dejtar
dejtat
dejten
dejting
dejtingapp
dejtingsa
dejtingsajt
dejtingsajten
dejtingsajter
dejtingsida
dejtingsidan
dejtingsidor
dejtingsidorna
dek
dekk
dekke
dekker
dekket
deklar
dekning
dekor
dekoration
dekorera
del
dela
delad
delade
delades
delagare
delakt
delaktig
delaktiga
delaktighet
delar
delarna
delars
delas
delat
delav
delavrinning
delavrinningsomrade
dele
deleg
delegation
delen
delene
deler
deles
delhi
delikat
dell
delmal
dels
delst
delstaten
delstats
delstatshuvudstaden
delt
delta
deltag
deltagande
deltagare
deltagarna
deltagit
deltakelse
deltaker
deltakere
deltakerne
deltar
deltatt
deltav
delte
deltid
deltog
deltok
delux
deluxe
delvis
dem
demen
demens
demo
demokrat
demokrati
demokratin
demokratisk
demokratiska
demokratiskt
demon
demonst
demonstr
demonstration
den
denna
denne
dennes
dennis
dens
densamma
dep
depart
departem
departementet
depon
depp
depress
depression
depri
deprimerad
der
deras
derby
dere
deres
deretter
derfor
derfra
derimot
deriv
dermed
dersom
des
desa
desc
desember
desig
design
designa
designad
designade
designat
designen
designer
designet
desp
desper
desperat
dess
dessa
desse
dessert
dessuten
dessutom
dessvarre
dessverre
dest
destin
destination
desto
destrukt
det
deta
detalj
detaljer
detaljerad
detaljerade
detaljerna
detaljplan
detaljvarer
detroit
dets
detsamma
detta
dette
deut
deutsch
dev
devel
develop
development
dh
di
dia
diabet
diabetes
diagn
diagnos
diagnosen
diagnoser
diagnost
diagram
dial
dialekt
dialog
dialogen
diam
diamant
diameter
diamond
diana
diar
dic
dick
did
die
diego
diesel
diet
diff
differ
different
dig
digit
digital
digitala
digitale
digitalisering
digitalt
dikt
dikter
dil
dild
dildo
dildos
dilem
dilemma
dill
dim
dimension
dimensioner
dimensjon
dimma
din
dina
dine
ding
dinosa
dipl
diplom
dir
dire
direct
director
direkt
direkta
direkte
direktiv
direktivet
direktor
direktør
dirig
dirt
dirty
dis
disa
disc
discipl
disciplin
disco
discover
disk
diska
disken
diskmaskin
diskret
diskrimin
diskriminering
diskusjon
diskuss
diskussion
diskussionen
diskussioner
diskuter
diskutera
diskuterade
diskuterar
diskuteras
diskutere
disney
disp
dispens
dispensasjon
display
dispon
disse
dist
distans
distin
distinkt
distri
distribu
distribusjon
distribut
distribution
district
distrikt
distriktet
dit
ditt
div
diverse
divis
division
divisionen
divisjon
dj
djav
dje
dju
djung
djungel
djup
djupa
djupare
djupet
djupt
djur
djuren
djuret
djurgarden
dk
dl
dla
dm
dn
dna
dnr
do
dobb
dobbel
dobbelt
doc
docent
dock
docka
dod
doda
dodade
dodar
doden
dods
dodsfall
doft
doftar
doften
dofter
dog
dogg
dok
dokt
doktor
doktorand
doktorn
dokument
dokumentar
dokumentaren
dokumentasjon
dokumentation
dokumenter
dokumentera
dokumentet
dol
dold
dolda
dolj
dolja
doljer
doll
dollar
dom
doma
doman
domanen
domar
domare
domaren
domd
domdes
domen
domin
domina
dominans
dominant
dominerande
dominerar
dommer
doms
domstol
domstolen
don
donald
dong
dop
doping
dopp
doppa
dor
dorr
dorrar
dorrarna
dorren
dos
dosen
doser
dosering
dot
dott
dotter
dotterbolag
dottern
dottrar
dou
double
doug
douglas
dov
dow
down
downlo
download
dr
dra
drabb
drabbade
drabbades
drabbar
drabbas
drabbats
drack
drag
dragit
dragkedja
dragning
dragon
drak
drakt
dram
drama
dramat
dramatisk
dramatiska
dramatiskt
drammen
dran
drap
drar
dras
drast
drastiskt
dre
dream
dreier
drept
dress
dressyr
drev
drevet
dri
drick
dricka
dricker
dricksvatten
drift
driften
drikke
drin
drink
drinkar
driv
driva
drivande
drive
driven
driver
drives
drivit
drivkraft
drivmedel
drivs
dro
drog
droger
drogs
droj
droja
drojde
drojer
drojsmal
drom
dromde
dromm
dromma
drommar
drommen
drommer
dromt
dron
dronning
drop
dropp
droppar
dros
drott
drottning
dru
druckit
dry
dryck
drycker
dryg
dryga
drygt
drø
drøm
drømmer
ds
dt
du
dubai
dubb
dubbel
dubbels
dubbelsang
dubbelt
dubbla
dublin
dug
duga
duger
dugg
duk
dukker
dukket
dukt
duktig
duktiga
dum
dumma
dumt
dun
dunder
duo
dur
dusch
duscha
duschen
duss
dv
dvar
dvarg
dvd
dvs
dy
dyb
dyg
dygn
dygnet
dyk
dyka
dyker
dykt
dyktige
dyl
dylan
dylikt
dyn
dynam
dynamisk
dynast
dyp
dypt
dyr
dyra
dyrare
dyraste
dyre
dyrt
dys
dø
død
døde
døden
døds
døgn
dømt
døpt
dør
døren
e4
e6
ea
ear
earth
east
easy
eb
ebba
eben
ebenholts
ebon
ebony
ec
eco
econom
ecu
ed
eddie
eder
edge
edin
edit
edition
edu
education
edvard
edward
ees
ef
eff
effekt
effekten
effekter
effekterna
effektiv
effektiva
effektivare
effektive
effektivisera
effektivitet
effektiviteten
effektivt
efter
efterat
efterfoljande
efterfrag
efterfragan
efterhand
efterlangt
efterlangtade
efterlev
eftermid
eftermiddag
eftermiddagen
efternamn
efterratt
eftersom
efterstra
eftertrad
eftertrakt
eg
egen
egendom
egenskap
egenskaper
egent
egentlig
egentliga
egentligen
eget
egg
egna
egne
egner
egnet
ego
egypt
egypten
eh
ei
eid
eide
eiendom
eiendommen
eier
eiere
eig
ein
einar
eir
eit
ej
ek
eke
eken
eker
ekip
eklund
ekman
eko
ekologisk
ekologiska
ekologiskt
ekonom
ekonomi
ekonomin
ekonomisk
ekonomiska
ekonomiskt
ekosystem
eks
eksam
eksamen
eksempel
eksempelvis
eksempl
eksempler
eksister
eksisterende
eksjo
ekskl
eksp
eksped
eksper
ekspert
ekspl
ekspon
ekster
eksterne
ekstra
ekstre
ekstremt
ekte
ekteskap
ekteskapet
ekv
el
ela
elak
elaka
elande
elast
elbil
eld
elden
eldre
eldste
ele
elect
elef
elefant
eleg
elegant
eleganta
elekt
elektric
elektriker
elektrisk
elektriska
elektriske
elektro
elektrom
elektron
elektronik
elektronikk
elektronisk
elektroniska
elektroniske
elektroniskt
element
elementer
elen
elev
eleven
elevene
elevens
elever
eleverna
elevernas
elevers
elf
elfsborg
elg
elias
elimin
eliminera
elin
elisa
elisabet
elisabeth
elit
elite
elitserien
eliza
elizabeth
ell
ella
elle
ellen
eller
ellers
elm
elsa
else
elsker
elv
elva
elven
elver
elvis
em
email
emball
eme
emelie
emellan
emellanat
emeller
emellertid
emer
emig
emil
emilia
emission
emitt
emma
emot
emotion
emp
empati
empir
en
ena
enastaende
enbart
end
enda
endast
ende
endel
endelig
ender
ending
endr
endre
endrer
endres
endret
endring
endringene
endringer
endte
ene
ener
energ
energi
energie
energieffektiv
energik
energim
energin
energis
energy
eneste
eng
engag
engagemang
engagera
engagerad
engagerade
engagerar
engang
engasj
engasjement
engasjer
engasjert
engel
engelsk
engelska
engelske
engine
engl
england
english
engro
engroshandel
enhet
enheten
enheter
enhetlig
enhetschef
enhver
enig
enige
enighet
enjoy
enk
enkat
enkaten
enkel
enkelhet
enkelt
enkelte
enkl
enkla
enklare
enklast
enklaste
enkle
enklere
enkoping
enl
enlighet
enligt
enn
enna
enor
enorm
enorma
enorme
enormt
ens
ensam
ensamhet
ensamkommande
ensamma
ensamstaende
ensamt
ensem
enskil
enskild
enskilda
enskilde
enskilt
enst
enstaka
enstem
ent
enten
enter
entertainment
entre
entren
entrepren
entreprenad
entreprenor
entreprenorer
entreprenorskap
entusi
entusias
entusiast
entusiaster
envis
enz
ep
epide
epis
episode
episoder
epost
eq
equ
er
era
eran
erb
erbjod
erbjud
erbjuda
erbjudande
erbjudanden
erbjudandet
erbjudas
erbjuder
erbjuds
ere
erf
erfar
erfaren
erfarenhet
erfarenheten
erfarenheter
erfaring
erfaringer
erfarna
erfarne
erfor
erg
ergonom
erhall
erhalla
erhallas
erhaller
erhallit
erholl
eric
erica
ericsson
erik
erika
eriksson
erin
erk
erkanna
erkannande
erkanner
erkant
ern
ernst
ero
erot
erotic
erotik
erotikk
erotisk
erotiska
erotiske
erov
ersatt
ersatta
ersattare
ersattas
ersatter
ersattes
ersattning
ersattningar
ersattningen
ersattnings
ersatts
erst
erstat
erstatning
erstatt
erstattet
ert
es
esc
escort
escorte
escorter
escorts
escortt
escorttjej
escorttjejer
esk
eskil
eskilstuna
eskort
eskorte
eskorter
eskortt
eskorttjejer
eslov
esp
espress
ess
essa
est
ester
estet
estetiska
estland
et
eta
etabl
etablera
etablerad
etablerade
etablerat
etablere
etablering
etablert
etablerte
etapp
etasje
etc
eter
etik
etikett
etiketter
etiop
etisk
etiska
etn
etnisk
etniska
ett
etta
ettan
etter
etterhvert
ettermiddag
etterpa
ettersom
ettersp
etterspørsel
ettertid
eu
eur
euro
europ
europa
europaparlam
europaparlamentet
europas
europe
european
europeisk
europeiska
europeiske
eurovision
eus
ev
eva
eval
evalu
evaluering
evangel
evel
even
evenemang
evenemanget
event
eventet
events
eventuell
eventuella
eventuelle
eventuellt
eventuelt
eventyr
ever
every
evidens
evig
eviga
evighet
evigheter
evigt
evne
evnen
evner
evolution
evt
ex
exakt
exakta
exam
examen
examens
examensarbete
examin
excel
excell
excellent
exception
exempel
exempelvis
exempl
exemplar
exemplet
exist
existens
existerande
existerar
exkl
exklus
exklusiv
exklusiva
exklusive
exklusivt
exot
exotiska
exp
expand
expandera
expans
expansion
exped
expedition
exper
experience
experiment
experimenter
experimentera
expert
experter
expertis
expl
explo
exploat
exploatering
explorer
explos
expon
exponering
export
exporter
express
expressen
ext
extern
externa
externt
extra
extre
extrem
extrema
extreme
extremt
ey
eye
eøs
fa
fab
fabrik
fabriken
fac
face
facebook
faciliteter
facit
fack
facket
fackliga
fact
factor
fad
fader
fadern
fag
fagel
fageln
fager
faget
faglar
faglarna
faglig
faglige
fair
fak
fake
fakt
fakta
faktisk
faktiska
faktiskt
faktist
faktor
faktorer
faktum
faktur
faktura
fakturan
fakturering
fakturor
fakult
fakultet
fal
falk
falken
falkenberg
falkoping
fall
falla
fallande
falle
fallen
faller
fallet
fallit
falls
false
falsk
falska
falskt
falt
faltet
falun
fam
famil
famili
familie
familien
familier
familj
familje
familjemedlem
familjemedlemmar
familjen
familjens
familjer
familjerna
family
famn
fan
fang
fanga
fangade
fangar
fange
fangelse
fanget
fangst
fann
fanns
fanny
fans
fansen
fant
fantas
fantasi
fantasier
fantasin
fantast
fantastisk
fantastiska
fantastiske
fantastiskt
fantasy
fantes
far
fara
farbror
fard
fardas
farden
fardig
fardiga
fardigheter
fardigt
fardt
fare
faren
farfar
farg
farga
fargade
fargat
farge
fargen
farger
fargerna
fargglada
fargmodellen
fargton
fargutrymmet
farj
farjan
farjestad
farlig
farliga
farligt
farm
farmas
farmasøyt
farmasøytisk
farmor
farre
fars
farsk
farska
farskt
farsta
fart
farten
fartyg
fartyget
fas
fasad
fasaden
fasc
fascin
fascinerande
fase
fasen
faser
fashion
fast
fasta
fastan
faste
faster
fastighet
fastigheten
fastigheter
fastighets
fastighetsag
fastighetsagare
fastighetsagaren
fastighetsmak
fastlandet
fastna
fastnade
fastnar
fastnat
fastsatt
faststall
faststalla
faststallande
faststalld
faststallda
faststalls
fat
fatal
fatol
fatt
fatta
fattade
fattar
fattas
fattat
fattig
fattiga
fattigdom
fattige
fav
favor
favorit
favoriter
favoritt
favoritter
fax
fb
fc
fd
fe
feat
feb
feber
febru
februar
februari
fed
feder
feed
feedback
feel
feg
feil
fej
fekk
fel
felakt
felaktig
felaktiga
felaktigt
felet
felicia
felix
fell
felle
felles
fellesskap
felt
feltet
fem
female
femin
femma
femt
femte
femtio
femton
fen
feng
fengsel
fenomen
fenomenet
fer
ferd
ferdig
ferdigheter
ferdin
ferdinand
ferie
fern
ferr
fersk
fert
fest
festa
festen
fester
festival
festivalen
festivaler
fet
feta
fetisch
fetish
fetma
fett
fetter
ff
fi
fia
fiber
fibr
fibrer
fick
ficka
fickan
fickor
fiction
fien
fiende
fienden
fiender
fifa
fiff
fig
figh
fight
figur
figuren
figurer
fik
fika
fikade
fikat
fikk
fikt
fil
file
filen
filer
filial
filip
filipp
film
filma
filmade
filme
filmen
filmens
filmer
filmerna
filmin
filosof
filosofi
filt
filter
filtr
filtrera
fin
fina
final
finale
finalen
finan
finans
finansiell
finansiella
finansiellt
finansier
finansiera
finansieras
finansiering
finansieringen
finansierings
finansinspektionen
finansinstitut
finansk
finansminister
finare
finaste
find
fine
fing
finger
fingrar
fingrarna
fingret
finish
finland
finlands
finlandska
finn
finna
finnas
finne
finner
finnes
finnmark
finns
finsk
finska
fint
fir
fira
firade
firande
firar
firas
fire
firma
firman
first
fish
fisk
fiska
fiskar
fiskart
fiske
fisken
fisker
fisket
fit
fitness
fitt
fitta
fittan
fitte
fittor
five
fix
fixa
fixade
fixar
fixas
fixat
fj
fjad
fjader
fjall
fjallen
fjar
fjarde
fjardedel
fjaril
fjarilar
fjarils
fjarilsart
fjarr
fjarran
fjarrvarme
fjell
fjellet
fjer
fjerde
fjern
fjerne
fjernet
fjol
fjor
fjord
fjorden
fjort
fjorton
fk
fl
fla
flack
flackar
flad
flag
flagg
flagga
flaggan
flakt
flam
flash
flashback
flask
flaska
flaskan
flaskor
flat
fle
flee
fleece
fleire
flek
fleksi
fler
flera
flerbostadshus
flere
flert
flertal
flertalet
flertall
flesh
fleshlight
flest
flesta
fleste
flex
flexi
flexibel
flexibelt
flexibilitet
flexibla
flick
flicka
flickan
flickor
flickorna
flickvan
flik
fliken
flin
fling
flink
flinke
flir
flirt
flis
flit
flitigt
flo
flock
flod
flodar
flode
floden
flodet
flog
flor
flora
florida
flot
flott
flotte
flow
flu
fluff
flug
fly
flydde
flyet
flyg
flyga
flygande
flygbolag
flyger
flyget
flygplan
flygplats
flygplatsen
flykt
flykting
flyktingar
flyktninger
flyplassen
flyr
flys
flyt
flytande
flyter
flytt
flytta
flyttade
flyttades
flyttar
flyttas
flyttat
flytte
flytten
flytter
flyttet
fløy
fm
fn
fns
fo
foc
focus
fod
foda
fodd
fodda
foddes
fodels
fodelse
fodelsed
fodelsedag
fodelsedagspresent
foder
fodral
fods
fog
foga
fokus
fokusera
fokuserade
fokuserar
fokuserat
fokusere
fokuset
fol
folj
folja
foljaktligen
foljande
foljare
foljas
foljd
foljde
foljer
foljs
foljt
folk
folkbok
folke
folkeh
folkem
folket
folkets
folkhals
folkhog
folkhogskola
folkm
folkom
folkpartiet
folks
folkt
foll
follow
fon
fond
fonden
fonder
fonster
fonstren
fonstret
font
food
foot
football
for
fora
forad
forakt
foral
forald
foralder
foraldr
foraldra
foraldral
foraldrar
foraldrarna
foraldrars
foralskad
foran
forand
forandra
forandrade
forandrar
forandras
forandrat
forandrats
forandring
forandringar
forandringarna
forandringen
forank
forankring
forar
forare
foraren
forarsa
foras
forb
forban
forband
forbannad
forbannat
forbatt
forbattra
forbattrad
forbattrade
forbattrar
forbattras
forbattring
forbattringar
forbe
forbed
forbedre
forbedring
forbehaller
forber
forbered
forbereda
forberedd
forberedel
forberedelse
forberedelser
forbereder
forberedt
forberett
forbi
forbin
forbindelse
forbindelser
forbinder
forbjud
forbjuda
forbjudet
forbjudna
forbl
forbli
forblir
forbran
forbru
forbruk
forbruker
forbrukning
forbud
forbudet
forbudt
forbund
forbundet
forbundets
forbunds
forbundskapten
force
ford
forde
fordel
fordela
fordelade
fordelar
fordelarna
fordelas
fordelat
fordelen
fordeler
fordeling
fordelning
fordelningen
fordelt
fordes
fordi
fordju
fordjupa
fordjupning
fordom
fordomar
fordon
fordonet
fordons
fordr
fordringar
fordro
fordubb
fore
foreb
forebild
forebilder
forebygg
forebygga
forebyggande
forebygge
fored
foredra
foredrag
foredrar
foref
forefaller
foreg
foregaende
foregang
foregangare
foregar
forek
forekom
forekomm
forekomma
forekommande
forekommer
forekommit
forekomst
forekomsten
forel
forelas
forelasare
forelasning
forelasningar
forelasningen
foreldre
foreldrene
forelig
foreligger
forelsket
foreløp
foreløpig
forem
foremal
foren
forenade
forening
foreningar
foreningen
foreningens
foreninger
forenings
forenkl
forenkla
forens
fores
foreskrifter
foreskriv
foreskrivs
foresla
foreslag
foreslagna
foreslar
foreslas
foreslatt
foreslog
foresp
forespra
foresprak
forest
forestall
forestalla
forestaller
forestallning
forestallningar
forestallningen
forestill
foret
foreta
foretag
foretagande
foretagare
foretagen
foretagens
foretaget
foretagets
foretags
foretak
foretatt
forete
foretradare
foretrades
foretrekker
forev
forf
forfall
forfar
forfarande
forfatt
forfattar
forfattare
forfattaren
forfattarna
forfatter
forfatteren
forfl
forflutna
forflytt
forfog
forfogande
forfolj
forfor
forfrag
forfragan
forfragningar
forg
forgift
forh
forha
forhall
forhalla
forhallande
forhallanden
forhallandena
forhallandet
forhallandevis
forhaller
forhallningssatt
forhand
forhandla
forhandling
forhandlingar
forhandlingarna
forhap
forhapentlig
forhapentligvis
forhin
forhindra
forhindrar
forhindre
forhold
forholde
forholdene
forholdet
forholdsvis
forhopp
forhoppning
forhoppningar
forhoppningsvis
forhor
forint
fork
forkant
forkast
forklar
forklara
forklarade
forklarar
forklaras
forklarat
forklare
forklarer
forklaring
forklaringar
forklaringen
forknipp
forknippas
forkort
forkyl
forkyld
forkylning
forl
forlag
forlaget
forlagets
forlang
forlanga
forlangning
forlangningen
forlat
forlate
forlor
forlora
forlorad
forlorade
forlorar
forlorat
forloss
forlossning
forlossningen
forlot
forlov
forlust
forlusten
forluster
form
forma
formaga
formagan
formagor
formal
formalet
forman
formanen
formaner
formann
formar
formas
format
formatet
formed
formedla
formedlar
formel
formell
formella
formellt
formen
former
formid
formiddag
formiddagen
formidle
formod
formodligen
formogenhet
formul
formula
formular
formularet
formulera
forn
forna
forne
forned
fornuft
fornuftig
forny
fornya
fornybar
fornyelse
fornøyd
fornøyde
forodande
forord
forordning
forordningen
fororen
forov
forovrigt
forpack
forpackning
forpackningar
forpackningen
forplikt
forpliktelser
forr
forra
forrad
forran
forratt
forre
forresten
forret
forretnings
forrgar
forrige
fors
forsak
forsakra
forsakrade
forsakring
forsakringar
forsakringen
forsakrings
forsakringsbolag
forsakringsk
forsakringskassan
forsalj
forsaljning
forsaljningen
forsaljnings
forsam
forsamling
forsamlingar
forsamlingen
forsav
forsavitt
forsberg
forse
forsedd
forsen
forsenad
forsent
forser
forsikring
forsikt
forsiktig
forsiktighet
forsiktigt
forsin
forsk
forskar
forskare
forskarna
forsker
forskere
forskerne
forskjell
forskjellen
forskjeller
forskjellig
forskjellige
forskning
forskningen
forsknings
forskol
forskola
forskolan
forskole
forskollar
forskollarare
forskolor
forskott
forskrack
forskrift
forskriv
forslag
forslagen
forslaget
forsok
forsoka
forsoker
forsoket
forsokt
forsokte
forson
forsor
forsorja
forsorjning
forst
forsta
forstaelse
forstaelsen
forstand
forstar
forstark
forstarka
forstarker
forstarkning
forstarkt
forstas
forstatt
forste
forster
forstklass
forstod
forstor
forstora
forstyr
forsv
forsvag
forsvann
forsvant
forsvar
forsvara
forsvarar
forsvaret
forsvarets
forsvarlig
forsvars
forsvarsmakt
forsvarsmakten
forsvinna
forsvinner
forsvunnit
forsø
forsøk
forsøke
forsøker
forsøkt
forsøkte
fort
fortalt
fortalte
fortare
forte
forteckning
fortell
fortelle
forteller
fortfarande
fortid
fortjan
fortjanar
fortjen
fortjus
fortjust
fortlop
fortlopande
fortr
fortroende
fortroendet
fortroendevalda
fortryck
forts
fortsatt
fortsatta
fortsatte
fortsatter
fortsattning
fortsattningen
fortsattningsvis
fortsett
fortsette
fortsetter
fortune
fortviv
fortydlig
forum
forumet
forund
forurens
forut
foruten
forutom
forutsag
forutsatt
forutsatter
forutsattning
forutsattningar
forutsattningarna
forutse
forutsetning
forutsetninger
forv
forvag
forval
forvalt
forvalta
forvaltar
forvaltare
forvaltning
forvaltningen
forvaltnings
forvan
forvanad
forvanade
forvanande
forvanansvart
forvand
forvandla
forvandlas
forvaning
forvant
forvanta
forvantade
forvantan
forvantans
forvantar
forvantas
forvantat
forvantningar
forvantningarna
forvar
forvara
forvaras
forvaring
forvarings
forvarv
forvarva
forvarvade
forvax
forvent
forvente
forventer
forventes
forventet
forventninger
forverk
forverklig
forverkliga
forvir
forvirrad
forvirring
forvis
forvisso
forward
forøvrig
fos
fosfor
foss
fossil
fost
foster
fot
fota
fotade
fotat
fotball
fotballspiller
fotboll
fotbollen
fotbolls
fotbollsspelare
foten
foto
fotograf
fotografen
fotografer
fotografera
fotografering
fotografi
fotografier
foton
fotot
fots
fott
fotter
fotterna
fou
found
foundation
four
fox
fp
fr
fra
fracka
frag
fraga
fragade
fragan
fragar
fragat
fragestall
fragestallningar
fraget
fragetecken
fragor
fragorna
fraiche
frakt
fral
frals
fram
framat
framfor
framfora
framforallt
framga
framgang
framgangar
framgangs
framgangsrik
framgangsrika
framgangsrikt
framgar
framja
framjar
framkall
framkant
framkom
framling
framlingar
frammande
framme
framover
framre
framsidan
framst
framsta
framstaende
framstalla
framstallning
framstalls
framstar
framsteg
framt
framtagen
framtid
framtida
framtiden
framtidens
framtradande
fran
france
franch
francis
francisco
franco
frank
frankf
frankfurt
frankrike
frans
fransk
franska
franske
franvaro
franz
fras
frasch
frascha
frascht
fraser
frat
fravær
fre
fred
fredag
fredagar
fredagen
fredags
freder
fredrik
fredrikstad
free
freesp
freespins
frek
frekv
frekvens
frem
fremdeles
fremfor
fremme
fremmed
fremover
fremst
fremste
fremtid
fremtiden
fremtidige
fren
french
fresh
frest
fri
fria
frid
frida
friday
frie
fried
friedrich
friend
friends
frig
frigor
frihet
friheten
friid
friidrett
friidrott
frik
fril
frilans
friluft
friluftsliv
fris
frisk
friska
friskare
friske
friskt
friskvard
frisor
frist
frista
fristaende
frisyr
frit
fritid
fritiden
fritids
fritidshem
fritidshus
fritt
friv
frivill
frivillig
frivilliga
frivillige
frivilligt
frn
fro
frojd
froken
frokost
frol
frolunda
from
fron
front
fronten
fros
frost
frp
fru
frukost
frukosten
frukt
fruktansvard
fruktansvart
frukten
frukter
frus
frustr
frustration
frustrerad
frustrerande
fry
frykt
frys
frysa
frysen
fryser
frø
fs
ft
fu
fuck
fucked
fucking
fug
fukt
fuktig
fuktighet
fuktigt
ful
fula
fulgt
fulgte
full
fulla
fullbord
fulle
fullført
fullgora
fullkomligt
fullmakt
fullmaktige
fullo
fullstand
fullstandig
fullstandiga
fullstandigt
fullstendig
fullt
fult
fun
function
fund
fundament
funder
fundera
funderade
funderar
funderat
funderingar
funger
fungera
fungerade
fungerande
fungerar
fungerat
fungere
fungerer
fungerte
funk
funka
funkade
funkar
funksjon
funksjonen
funksjoner
funksjonshem
funktion
funktionalitet
funktionell
funktionella
funktionen
funktioner
funktionerna
funktionsh
funktionshinder
funktionshindrade
funktionsned
funktionsnedsattning
funktionsnedsattningar
funn
funnet
funnit
funnits
fur
furu
fus
fusion
fusk
fut
future
fv
fy
fyfan
fyl
fylke
fylkes
fylkeskommun
fylkeskommune
fylkesmannen
fylket
fyll
fylla
fyllas
fylld
fyllda
fyllde
fylle
fyller
fyllning
fylls
fyllt
fylt
fynd
fynda
fyr
fyra
fyrhjul
fyrkant
fyrt
fyrtio
fyrverker
fys
fysi
fysik
fysio
fysisk
fysiska
fysiske
fysiskt
fær
færre
fø
føds
fødsel
født
føl
føle
følelse
følelsen
følelser
føler
føles
følg
følge
følgende
følger
følges
følte
før
føre
fører
først
første
ført
førte
fцr
ga
gabri
gabriel
gad
gadd
gadda
gaende
gaffel
gag
gal
gala
galan
galaxy
galden
galen
galet
gall
galla
gallande
gallde
galler
galleri
gallerier
galleries
gallivare
galna
galopp
galt
gam
gambling
game
gamers
games
gaming
gamla
gamle
gamm
gammal
gammaldags
gammalt
gammel
gammelt
gang
gangavstand
gangbang
gangen
ganger
gangerna
ganget
gangna
gangs
gangvag
ganska
ganske
gap
gar
garage
garaget
garant
garanter
garantera
garanterar
garanterat
garantert
garanti
garantier
gard
gardagen
gardagens
gardar
garde
garden
gardens
garder
garderob
garderoben
garderober
gardiner
gards
garn
garna
garnet
garning
garningsm
garningsmannen
gas
gass
gast
gaster
gasterna
gat
gata
gatan
gate
gator
gatorna
gatt
gatu
gav
gava
gave
gaver
gavle
gavleborg
gavor
gavs
gay
gaza
gb
gbg
gd
gdpr
ge
geb
ged
gedig
gedigen
gef
geir
gel
gem
gemen
gemensam
gemensamma
gemensamt
gemenskap
gemenskapen
gen
genast
gener
general
generald
generals
generasjon
generat
generation
generationen
generationer
generell
generella
generelle
generellt
generelt
generera
genererar
generisk
generos
generosa
genet
genom
genombrott
genomfor
genomfora
genomforande
genomforandet
genomforas
genomford
genomforda
genomforde
genomfordes
genomfors
genomfort
genomforts
genomga
genomgaende
genomgang
genomgar
genomgatt
genomskin
genomslag
genomsnitt
genomsnittet
genomsnittlig
genomsnittliga
genomtan
genomtankt
genre
genren
gent
gentemot
gentlem
genu
genuin
genuint
genus
geograf
geografi
geografisk
geografiska
geografiskt
geomet
georg
george
ger
german
gert
ges
gest
gestalt
get
gett
gev
gf
ggr
gh
ghar
gi
gick
gif
gift
gifta
gifte
gifter
giftet
giftiga
gig
gigant
gigantisk
gigantiska
gikk
gil
gill
gilla
gillade
gillar
gillat
gilt
giltig
giltighet
giltigt
gin
gina
gips
gir
girl
girls
gis
giss
gissa
gissar
gitar
gitarr
gitt
giv
givande
give
given
givet
givetvis
givit
givna
gj
gjaldt
gje
gjekk
gjel
gjeld
gjelde
gjeldende
gjelder
gjen
gjeng
gjennom
gjennomføre
gjennomføres
gjennomføring
gjennomført
gjennomførte
gjennomgang
gjennomsikt
gjennomsnitt
gjennomsnittlig
gjenopp
gjenopprett
gjenoppretting
gjens
gjensid
gjenstand
gjenstander
gjent
gjer
gjerne
gjest
gjestene
gjester
gjord
gjorda
gjorde
gjordes
gjort
gjorts
gjut
gjø
gjør
gjøre
gjøres
gk
gl
gla
glad
glada
gladare
glade
gladjande
gladje
gladjen
glam
glans
glas
glaset
glasogon
glass
glatt
gled
glede
gleden
gleder
glem
glemme
glemt
gles
glesbefolkat
glid
glida
glider
glidmedel
glim
glimt
glitt
glitter
glo
glob
global
globala
globale
globalt
globen
glod
glogg
glom
glomde
glomma
glommer
glomt
gluk
gluten
glutenfria
gm
gmail
gn
gna
gnall
go
goa
god
goda
godare
godaste
gode
godis
godk
godkand
godkanda
godkann
godkanna
godkannande
godkannas
godkanner
godkant
godkj
godkjen
godkjenning
godkjent
godmorgon
godnatt
gods
godsaker
godt
gok
gol
gold
golden
golf
golfklubb
golv
golvet
gom
gomma
gommer
gon
gong
good
goog
googla
google
googles
gor
gora
goran
goras
gord
gors
gos
goss
gosta
got
gota
gotaland
gotalands
gote
goteborg
goteborgs
goth
gothenburg
gotland
gotlands
gott
gow
gp
gps
gr
gra
graa
grabb
grabbar
grabbarna
grace
grad
gradd
gradda
gradde
gradden
graden
grader
graders
gradvis
graf
grafik
grafikk
grafisk
grafiska
graham
gram
grammat
gran
grand
grande
granen
granit
grann
grannar
grannarna
granne
grannen
granny
grans
gransen
granser
granserna
gransk
granska
granskar
granskas
granskning
granskningen
granssnitt
grant
gras
graset
grasklipp
grasm
grasmarker
grasmattan
grat
grata
grater
gratis
gratisporr
gratt
grattis
gratul
grav
grava
gravde
graven
graver
gravid
gravida
graviditet
graviditeten
gre
great
green
gregor
greit
grej
grejen
grejer
grek
grekisk
grekiska
grekland
gren
grenar
grens
grense
grensen
grenser
grep
grepp
greps
gresk
greske
gress
greta
grev
greve
grevskapet
grey
gri
grill
grilla
grillad
grillade
grillat
grillen
grim
grin
grind
grip
gripen
gris
gro
grodor
gron
grona
gronland
gronom
gronsak
gronsaker
gront
gross
grot
grott
group
grov
grova
grovt
gru
grum
grun
grund
grundade
grundades
grundar
grundare
grundat
grunden
grunder
grunderna
grundig
grundlag
grundlaggande
grundskola
grundskolan
grunn
grunnen
grunner
grunnet
grunnlag
grunnlaget
grunnlagt
grunnleg
grunnleggende
grupp
gruppa
gruppe
gruppen
gruppene
gruppens
grupper
grupperna
grus
gruv
gry
grym
grymma
grymt
gryt
gryta
grytan
grøn
grønn
grønne
grønnsaker
grønt
gt
gu
guard
guat
gubb
gubbar
gubbe
gubben
gud
gudom
guds
gudstjanst
guest
guid
guide
guiden
guider
gul
gula
guld
guldet
gule
gull
gullig
gulliga
gulligt
gult
gulv
gulvet
gum
gumm
gummi
gun
gung
gunilla
gunn
gunnar
gunung
gur
gurk
gurka
gusta
gustaf
gustafsson
gustav
gustavs
gustavsson
gutt
gutta
gutten
guttene
gutter
guvern
guvernementet
guy
guys
gw
gy
gyl
gyll
gyllen
gyllene
gym
gymmet
gymnas
gymnasie
gymnasieskola
gymnasieskolan
gymnasiet
gymnasium
gymnast
gymnastik
gyn
gynek
gynn
gynna
gynnar
gøy
h2
ha
habit
hack
hacka
hackar
hacken
had
hadde
hade
haf
haft
haftig
haftiga
haftigt
hag
haga
hage
hagen
hager
hagg
hah
haha
hahah
hahaha
hair
haj
hak
haka
hakan
hakon
hakt
hal
hala
halden
halen
halet
half
halften
hall
halla
halland
hallands
hallas
hallbar
hallbara
hallbarhet
hallbarhets
hallbart
halle
hallen
haller
hallet
hallit
hallning
hallon
hallow
halloween
halls
hallt
halm
halmstad
hals
halsa
halsade
halsan
halsar
halsband
halsen
halsing
halsingland
halsning
halsningar
halso
halsok
halsosam
halsosamt
halsovard
halt
halter
halv
halva
halvan
halvar
halvaret
halver
halvlek
halvleken
halvor
halvparten
halvt
halvtid
halvtim
halvtimme
halvvags
ham
hamar
hambur
hamburg
hamburgare
hamilton
hammar
hammarby
hammer
hamn
hamna
hamnade
hamnar
hamnat
hamnd
hamnen
hamp
hampus
hamster
hamt
hamta
hamtad
hamtade
hamtar
hamtas
hamtat
hamtning
han
hand
handa
handball
handbok
handboll
handduk
handdukar
hande
handel
handeln
handels
handelsbanken
handelse
handelsen
handelser
handelserna
handen
hander
handerna
handfull
handika
handikapp
handjob
handla
handlade
handlaggare
handlaggning
handlar
handlare
handlat
handle
handled
handledare
handledning
handler
handlet
handling
handlingar
handlingarna
handlingen
handlinger
handlingsplan
handpenning
hands
handskar
handtag
handtere
handtering
handverk
hane
hanfor
hang
hanga
hangande
hangde
hanger
hangt
haninge
hann
hanna
hannah
hanne
hans
hansen
hansson
hansyn
hant
hanter
hantera
hanterar
hanteras
hantering
hanteringen
hantverk
hantverkare
hanvisa
hanvisar
hanvisning
hap
haper
hapet
happ
happy
happypan
happypancake
har
harad
harald
hard
harda
hardare
hardcore
harddisk
harde
hardrock
hardt
hare
haret
harifran
harig
hariga
harjed
harlig
harliga
harligt
harmed
harmon
harmoni
harnos
harnosand
harom
haromdagen
harris
harry
harstammar
hart
harvard
has
hash
hass
hasse
hassel
hassle
hassleholm
hast
hastar
hastarna
hasten
hastens
hastighet
hastigheten
hastigheter
hastigt
hat
hata
hatar
hatt
hatten
hau
haug
haugesund
hav
hava
havd
havda
havdade
havdar
have
haven
haver
havet
havn
havne
havnet
havre
havregryn
havs
haw
hawa
hawaii
hax
hay
hb
hbt
hbtq
hc
hd
he
head
header
headset
healing
health
heart
heat
heav
heb
hed
heden
heder
hedmark
heg
hehe
hei
heidi
heile
heim
hein
heinrich
hej
heja
hejda
hejsan
hek
hekt
hektar
hel
hela
heldag
heldig
heldigvis
hele
helen
helena
helene
helg
helga
helge
helgen
helgens
helger
helgerna
helhet
helheten
helhetlig
heliga
helige
helik
helikopter
hell
hellas
heller
hellige
hello
hellre
help
hels
helse
helsepersonell
helset
helsing
helsingborg
helsingborgs
helsingfors
helsingor
helst
helt
heltack
heltackande
heltid
helvete
helvetet
hem
hemat
hembesok
hembygd
hemib
hemiboreala
hemifran
heminredning
hemlag
hemlagad
hemland
hemlig
hemliga
hemlighet
hemligheter
hemligt
hemm
hemma
hemmafru
hemmag
hemmagjord
hemmal
hemmalaget
hemmamatch
hemmaplan
hemmel
hemmet
hemsida
hemsidan
hemsidor
hemsk
hemska
hemskt
hemt
hemtjanst
hemvist
hen
hendel
hendelsen
hendelser
hendene
hender
henge
henger
henhold
henholdsvis
henne
hennes
henning
henri
henrik
henry
hens
hensikt
hensikten
hensyn
henta
hentai
hente
hentet
henv
henvendel
her
herc
herceg
hercegovina
here
herlig
herman
hero
herpes
herr
herrar
herre
herreg
herregud
herren
herrens
herrgard
hert
hertig
herunder
hes
hest
het
heta
hetaste
heter
hets
hett
hetta
hette
hev
hevder
hevdet
hex
hexdec
hexdecimalsfargkoden
hey
hf
hi
hid
hier
hierark
high
hihi
hil
hilde
hill
hills
hilsen
him
himla
himlen
himm
himmel
himmelen
hin
hind
hinder
hindra
hindrar
hindre
hindret
hindu
hing
hinna
hinner
hint
hip
hiphop
hipp
hir
his
hiss
histor
historia
historie
historien
historier
historik
historiken
historiker
historisk
historiska
historiske
historiskt
history
hit
hitler
hits
hitt
hitta
hittade
hittades
hittar
hittas
hittat
hittats
hittil
hittills
hiv
hj
hjal
hjalm
hjalmar
hjalp
hjalpa
hjalpen
hjalper
hjalpmedel
hjalpsam
hjalpsamma
hjalpt
hjalpte
hjaltar
hjalte
hjar
hjarn
hjarna
hjarnan
hjart
hjarta
hjartan
hjartans
hjartat
hjel
hjelp
hjelpe
hjelper
hjem
hjemme
hjemmel
hjemmelaget
hjemmes
hjemmeside
hjemmet
hjer
hjernen
hjerte
hjertet
hjort
hjul
hjulen
hjulet
hjør
hk
hl
hm
hmm
hms
ho
hobb
hobby
hocke
hockey
hode
hodet
hof
hoff
hoft
hofter
hog
hoga
hoganas
hoger
hogkval
hogkvalitativ
hogkvalitativa
hogra
hogre
hogskol
hogskola
hogskolan
hogskole
hogskolepoang
hogskolor
hogst
hogsta
hogstadiet
hogt
hogtal
hogtalare
hogtid
hogtryck
hoj
hoja
hojd
hojdare
hojden
hojder
hojdpunkt
hojer
hojning
hojs
hojt
hok
hol
hold
holde
holder
holdes
holding
holdninger
holdt
holl
holland
holls
hollywood
holm
holmen
hom
home
homo
homofil
homofile
homosex
homosexuell
homosexuella
hon
hona
honan
hong
honom
honor
hons
honung
hood
hook
hop
hope
hopp
hoppa
hoppade
hoppades
hoppar
hoppas
hoppat
hoppats
hoppe
hoppet
hopplost
hoppning
hor
hora
horas
hord
hordaland
horde
hordes
horison
horisont
horlur
horlurar
hormon
hormoner
horn
horna
hornet
horor
horr
hors
horse
horsel
hort
hos
hosp
hospital
host
hosta
hostas
hosten
hostens
hostlov
hostter
hostterminen
hot
hotad
hotade
hotar
hotel
hotell
hotellen
hoteller
hotellet
hotellets
hotellrum
hotels
hotet
hotmail
hott
hour
house
hov
hoved
hovedsa
hovedsak
hovedsakelig
hovedstaden
hovratt
hovratten
hovud
how
hp
hr
hsb
hsl
ht
html
htt
http
https
hu
hua
hub
hud
huddinge
huden
hudens
hudik
hudiksvall
hudvard
hug
hugg
hugo
hul
hull
hult
hum
human
humor
humoret
hun
hund
hundar
hundarna
hunde
hunden
hundens
hunder
hundra
hundrat
hundratals
hundre
hunger
hungr
hungrig
hungriga
hunnit
hunt
hur
hurra
hursomhelst
hurt
hurtig
huruvida
hus
husbil
husdjur
husen
huset
husets
hushall
husk
huske
husker
husse
hust
hustr
hustru
hustrun
husvagn
hut
huv
huvud
huvuden
huvudet
huvudkontor
huvudman
huvudmannen
huvudperson
huvudpersonen
huvudrollen
huvudsak
huvudsakliga
huvudsakligen
huvudstad
huvudstaden
huvudvark
hv
hva
hvar
hvem
hver
hverandre
hverdag
hverdagen
hvert
hvil
hvile
hvilke
hvilken
hvilket
hvis
hvit
hvite
hvitt
hvor
hvorav
hvordan
hvorfor
hvorvidt
hy
hybrid
hyd
hydr
hydra
hydraul
hydro
hyf
hyfsat
hygg
hyggelig
hygien
hyl
hyll
hylla
hyllan
hyllning
hyllor
hyp
hyper
hypote
hypotek
hypotekslan
hypp
hyr
hyra
hyran
hyrbil
hyrde
hyre
hyres
hyresg
hyresgast
hyresgaster
hyresvard
hyster
hytt
hytta
hytte
hær
hæren
hø
høg
høgskolen
hør
høre
hører
høres
høring
hørt
hørte
høst
høsten
høy
høyde
høye
høyere
høyest
høyeste
høyester
høyre
høyt
ia
iaf
iaktt
iakttag
iall
ialla
iallafall
ian
ib
ibland
ibra
ic
ica
ice
icke
id
ida
idag
ide
ideal
idealisk
ideell
ideella
ideen
ideer
iden
ident
identif
identifier
identifiera
identifierar
identifisere
identitet
ideologi
idet
idio
idiot
idioter
idol
idr
idrett
idrettslag
idrott
idrotten
idrotts
idyll
if
ifall
ifk
ifra
ifraga
ifragas
ifragasatt
ifragasatta
ifragasatter
ifran
ifølge
ig
igang
igar
igarkvall
igen
igenom
igjen
igjennom
ign
ignor
ignorera
ih
ihag
ihjal
ihop
ii
iii
ik
ikapp
ike
ikea
ikke
ikkje
ikon
ikt
ikvall
il
ill
illa
illama
illamaende
illeg
illust
illustr
illustration
illustrationer
ilska
im
image
images
imid
imidlertid
immun
immunforsvar
imon
imor
imorgon
imorn
imorr
imorrn
imorse
imot
imp
imper
imperial
impl
implant
implementer
implementera
implementering
impon
imponerad
imponerade
imponerande
imponerende
import
importer
impro
improvis
impul
in
inaktiver
inat
inatt
inb
inbeg
inbjud
inbjudan
inbjudande
inbjudna
inbland
inblandad
inblandade
inblick
inborde
inbrott
inbyggd
inbyggda
inc
incest
incheck
incid
incit
incitament
incl
ind
inde
indel
independent
index
indexering
india
indian
indie
indien
indik
indikator
indikatorer
indikerar
indirekt
indisk
indiska
indiv
individ
individen
individens
individer
individuell
individuella
individuelle
individuellt
indones
indonesien
indre
indu
industi
industr
industri
industriell
industriella
industrier
industrin
ine
inf
infall
infekt
infektion
infektioner
infl
inflamm
inflammation
inflation
influ
influen
influensa
inflyt
inflytande
inflytt
info
infor
infora
inforande
inforandet
infordes
inform
informasjon
informasjonen
informasjonskap
informasjonskapsler
information
informationen
informations
informer
informera
informerade
informerar
infors
inforskaff
inforskaffa
infort
infr
infrast
infrastruktur
ing
inga
ingaende
ingang
ingangen
ingar
ingatt
inge
ingefara
ingemar
ingen
ingeniør
ingenjor
ingenjorer
ingenstans
ingenting
inger
inget
ingick
ingr
ingred
ingredi
ingrediens
ingredienser
ingredienserna
ingrepp
ingrid
ingvar
inhand
inhem
inhemska
inifran
init
initi
initialt
initiativ
initiativet
inj
inje
injektion
ink
inkl
inklu
inkluder
inkludera
inkluderande
inkluderar
inkluderer
inkludert
inklusive
inkom
inkommit
inkomst
inkomster
inkop
inl
inlag
inlagg
inlaggen
inlagget
inlam
inland
inlandsklimat
inlar
inlarning
inled
inleda
inledande
inledde
inleddes
inleder
inledning
inledningen
inledningsvis
inleds
inlett
inlogg
inloggad
inloggning
inlosen
inn
innan
innanfor
innbyg
innbygg
innbygger
innbyggere
innbyggerne
innbyggjar
inne
inneb
inneband
innebandy
innebar
innebara
innebord
inneborden
inneburit
innebærer
innefatt
innefattar
inneh
inneha
innehall
innehalla
innehallande
innehaller
innehallet
innehallsfor
innehallsforteckning
innehar
innehav
innehavare
inneholde
inneholder
inneholl
innen
innenfor
inner
innerligt
innerst
innflyt
innflytelse
innføre
innføring
innført
inng
innga
inngang
inngar
inngatt
innh
innhold
innholdet
innkall
innkjøp
innled
innlegg
innlegget
innom
innov
innovasjon
innovation
innovationer
innovativ
innovativa
innr
innsats
innsatsen
innsikt
innsj
innskudd
innspill
innstilling
inntekt
inntekter
inntil
inntrykk
innv
innvand
innvandrere
innvandring
innvil
inom
inomhus
inram
inratt
inre
inred
inreda
inredda
inredning
inredningen
inrednings
inrikes
inrikt
inriktad
inriktning
inrym
ins
insag
insam
insamling
insats
insatsen
insatser
insatserna
insatt
insattning
insattningar
inse
insekt
insekter
insektsart
inser
insett
insida
insidan
insikt
insikter
insjuk
inskran
inslag
insp
inspekt
inspel
inspelning
inspelningen
inspir
inspirasjon
inspiration
inspirationen
inspirera
inspirerad
inspirerade
inspirerande
inspirerar
inspireras
inspirerat
inspirert
inst
insta
instagram
install
installation
installationen
installationer
installd
installda
installera
installerar
installeras
installerat
installert
installning
installningar
installningarna
installningen
installt
instammer
instanser
instin
instit
institu
institusjon
institusjoner
institut
institute
institutet
institution
institutionen
institutioner
institutt
instru
instrukt
instruktion
instruktioner
instruktionerna
instruktor
instrum
instrument
insulin
insyn
int
inta
intag
intakt
intakter
intakterna
inte
inteckning
integr
integration
integrera
integrerad
integrerade
integrering
integrert
integritet
integritetspolicy
intel
intell
intellekt
intellig
intelligen
intelligens
intelligent
intens
intensitet
intensiv
intensiva
intensivt
inter
intera
interaktion
interes
interess
interessant
interessante
interesse
interesser
interessert
interior
interiør
intern
interna
internasjon
internasjonal
internasjonale
internasjonalt
internation
international
internationell
internationella
internationellt
interne
internet
internett
internt
interra
interracial
interv
intervall
intervaller
intervju
intervjuer
intervjuet
intervjun
intet
intill
intim
into
intra
intrade
intraff
intraffa
intraffade
intraffar
intraffat
intrang
intress
intressant
intressanta
intresse
intressen
intressenter
intresserad
intresserade
intresserar
intresset
intro
introdu
introduc
introduksjon
introduktion
introdus
intryck
intrycket
intu
intyg
inuti
inv
invader
inval
invalid
invan
invanare
invanarna
invand
invanda
invandrar
invandrare
invandring
invas
inventar
inventer
inventering
inverkan
invest
invester
investera
investerar
investerare
investering
investeringar
investeringen
investeringer
investment
invig
invigdes
invigningen
inviter
inviterer
invitert
invol
involver
involverade
involverar
involvert
iofs
iordning
ios
ip
ipad
iphone
ipod
iq
ir
irak
iran
irene
iris
irland
iron
irri
irrit
irritation
irriter
irriterad
irriterande
is
isa
isabella
isafall
isak
isar
isb
isbn
isen
isf
ish
ishockey
isk
isl
islam
island
islands
iso
isol
isolering
isra
israel
israels
iss
ist
istallet
istan
istanbul
isteden
it
ital
italia
italien
italiensk
italienska
italienske
item
its
itu
itunes
iuc
iucn
iv
ivag
ivan
ivar
ivaret
ivareta
iver
iverk
ivrig
ix
iz
ja
jaa
jabal
jac
jack
jacka
jackan
jackor
jackp
jackpot
jackpott
jackson
jacob
jad
jag
jaga
jagar
jagare
jaha
jaja
jak
jakarta
jakla
jakligt
jakob
jakt
jakten
jam
jama
james
jamfor
jamfora
jamforas
jamforelse
jamforelser
jamfort
jamlik
jamlikhet
jamn
jamna
jamnt
jamstalld
jamstalldhet
jamt
jamte
jamtland
jamtlands
jan
jane
janne
jansson
janu
januar
januari
jap
japan
japansk
japanska
japanske
japp
jar
jarfalla
jarl
jarn
jarnvag
jarnvagen
jas
jasa
jason
jast
jatt
jatte
jattebra
jattef
jattefin
jattefina
jattefint
jatteg
jatteglad
jattekul
jattel
jattem
jattemycket
jattemys
jatten
jatter
jatteroligt
jattes
jattest
jattet
jav
java
javascript
javla
javlar
javligt
jawa
jay
jazz
je
jean
jeans
jeff
jeg
jen
jenn
jennie
jennifer
jenny
jens
jensen
jenta
jente
jentene
jenter
jer
jern
jernban
jerry
jersey
jerus
jerusalem
jes
jesper
jess
jessica
jesu
jesus
jet
jev
jevn
jevnlig
jevnt
jf
jfr
ji
jih
jim
jimm
jimmie
jimmy
jm
jo
joakim
job
jobb
jobba
jobbade
jobbar
jobbat
jobbe
jobben
jobber
jobbet
jobbig
jobbiga
jobbigt
jobs
jocke
joda
joe
joel
jog
jogg
jogging
joh
johan
johann
johanna
johannes
johans
johansen
johansson
john
johnny
johnson
join
jol
jom
jon
jonas
jonathan
jones
jonkoping
jonkopings
jonna
jonsson
jor
jord
jorda
jordan
jordb
jordbruk
jordbruket
jordbruks
jordbruksmark
jordbær
jorden
jordens
jordgubb
jordgubbar
jorgen
jos
jose
josef
josefin
joseph
joss
jour
journ
journal
journalist
journalisten
journalister
journalistik
joy
jpg
jr
ju
juan
jubileum
jud
judar
judarna
jude
judiska
jugos
jugoslav
juice
jul
jula
julafton
julbord
julen
julgran
juli
julia
julie
julius
julkalender
julkla
julklapp
julklappar
julkort
jull
julp
jult
jum
jun
jung
jungfru
juni
junior
jur
jurid
juridik
juridisk
juridiska
juridiskt
jurist
jurister
jury
juryn
just
juster
justera
justeras
justerbar
justering
justeringar
justin
justiti
juvel
jø
jød
jør
jørgen
ka
kabel
kabin
kablar
kabul
kad
kafe
kaff
kaffe
kaffek
kaffet
kai
kaj
kajak
kajsa
kak
kaka
kakade
kakan
kakao
kakel
kakor
kal
kala
kalas
kalaset
kalcium
kald
kalde
kaldt
kalen
kalender
kalenderar
kalendern
kali
kaliforn
kalifornien
kalix
kalk
kalkyl
kall
kalla
kallad
kallade
kallades
kallan
kallar
kallare
kallaren
kallas
kallaste
kallat
kalle
kallelse
kaller
kalles
kallor
kallt
kalmar
kalorier
kalsonger
kalt
kalv
kam
kamer
kamera
kameran
kameror
kammar
kamp
kampa
kampade
kampan
kampanj
kampanjen
kampanjer
kampar
kampat
kampen
kampene
kamper
kamrat
kamrater
kan
kanad
kanada
kanadens
kanal
kanalen
kanaler
kand
kanda
kande
kandes
kandid
kandidat
kandidater
kandis
kandisar
kanel
kang
kanin
kaniner
kann
kanna
kannas
kannedom
kanner
kannet
kanneteck
kannetecknas
kanns
kanon
kanot
kans
kanske
kanskje
kansl
kansla
kanslan
kansli
kanslig
kansliga
kanslighet
kanslom
kanslor
kanslorna
kant
kantare
kanten
kanter
kanterna
kantonen
kants
kaos
kap
kapa
kapacitet
kapas
kapasitet
kapell
kapit
kapital
kapitalet
kapitel
kapitlet
kapittel
kapp
kappa
kaps
kapten
kar
kara
karakt
karaktar
karaktaren
karaktarer
karaktarerna
karakter
karam
kard
kare
karen
karet
kari
karib
karin
karis
karl
karlek
karleken
karlshamn
karlskoga
karlskrona
karlsson
karlstad
karm
karn
karna
karnan
karnkraft
karnvapen
karol
karolin
karolinska
kaross
karri
karriar
karriaren
karriere
kart
karta
kartan
kartlagga
kartlaggning
kartlegging
kartong
kartonger
kartor
kas
kasin
kasino
kasinon
kass
kassa
kassaflode
kassan
kasser
kassor
kast
kasta
kastade
kastar
kastas
kaste
kastet
kastrull
kat
kata
katal
katalog
katalogen
katarina
katastro
katastrof
kate
kated
kategor
kategori
kategorien
kategorier
kategorierna
kategorin
kategoriserar
katol
katolska
katolske
katrine
katrineholm
katt
katten
katter
katterna
kav
kava
kax
kay
kaz
kb
kd
ke
keb
kebab
ked
kedja
kedjan
kee
keep
keeper
keiser
kej
kejs
kejsar
kel
kelly
kem
kemi
kemikal
kemikalie
kemikalier
kemisk
kemiska
ken
kenn
kennel
kenneth
kent
kenya
keps
ker
keram
keramik
kerstin
kes
ket
kevin
kex
key
kf
kg
kh
khal
khan
ki
kick
kid
kidnapp
kids
kik
kika
kikade
kikar
kil
kilde
kilder
kill
killar
killarna
kille
killen
kilo
kilometer
kim
kin
kina
kinas
kind
kinder
kines
kinesisk
kinesiska
kinesiske
king
kings
kink
kinky
kinn
kino
kio
kir
kirk
kirke
kirken
kiroprakt
kiruna
kirurg
kirurgi
kis
kiss
kissa
kista
kit
kitch
kitt
kitty
kiv
kj
kja
kje
kjedelig
kjell
kjeller
kjem
kjemisk
kjemp
kjempe
kjend
kjendiser
kjenn
kjenne
kjenner
kjennet
kjennskap
kjent
kjente
kjer
kjerne
kjol
kjolen
kjær
kjære
kjæreste
kjæresten
kjærlighet
kjærligheten
kjø
kjøkken
kjøkkenet
kjøle
kjøn
kjønn
kjønns
kjønnsle
kjøp
kjøpe
kjøper
kjøpes
kjøpt
kjøpte
kjør
kjøre
kjører
kjøretøy
kjøring
kjørt
kjørte
kjøtt
kk
kl
kla
klack
klad
kladd
kladda
kladde
kladdkaka
klader
kladerna
kladogram
kladsel
klag
klaga
klagar
klage
klager
klagomal
klam
klamma
klan
klang
klanning
klanningar
klanningen
klapp
klappa
klappar
klar
klara
klarade
klarar
klarat
klare
klarer
klarhet
klarna
klart
klarte
klas
klass
klassas
klasse
klassen
klasser
klasserna
klassific
klassiker
klassisk
klassiska
klassiske
klassiskt
klassrum
klassrummet
klat
klatt
klattra
kle
klem
klev
kli
kliar
klick
klicka
klickar
klient
klienten
klienter
klikk
klikke
klim
klima
klimat
klimatet
klimatforandring
klimats
klimatzonen
klin
kling
klinik
kliniken
klinisk
kliniska
klinker
klipp
klippa
klipper
klippet
klippt
klippte
klist
klister
klistra
klitor
klitoris
kliva
kliver
klock
klocka
klockan
klockor
klok
kloka
klokka
klokke
klokken
klokker
klokt
klor
klost
kloster
klot
klubb
klubbar
klubbarna
klubben
klubbens
klubber
klum
klump
klur
kly
klyft
klær
km
km²
kn
kna
knack
knacka
knall
knana
knapp
knappa
knappar
knappast
knappen
knappt
knapt
knark
knas
knat
kne
knep
knepigt
kniv
kniven
knopp
know
knubb
knuff
knull
knulla
knullad
knullade
knullar
knulle
knullfilm
knullkontakt
knut
knuten
knyt
knyta
knyter
knyttet
ko
koble
kock
kod
kode
koden
koder
koffe
kofta
kogn
kognitiv
koh
kok
koka
kokar
koket
kokos
koks
kokt
kol
kold
koldioxid
kolester
kolesterol
kolhydr
kolhydrater
koll
kolla
kollade
kollaps
kollar
kollat
kolleg
kollega
kolleger
kollegor
kollektion
kollektionen
kollektiv
kollektivavtal
kollektivt
kollektivtrafik
kollektivtrafiken
kolon
kolum
kom
komb
kombin
kombinasjon
kombination
kombinationen
kombinationer
kombinera
kombinerar
kombineras
kombinerat
kombinert
komed
komedi
komfor
komfort
komite
komm
komma
kommand
kommande
kommando
komme
kommende
komment
kommentar
kommentaren
kommentarer
kommentarerna
kommentars
kommenter
kommentera
kommenterade
kommenterar
kommer
kommers
kommersi
kommersiell
kommersiella
kommersiellt
kommet
kommission
kommissionen
kommissionens
kommit
kommitte
kommitten
kommun
kommunal
kommunala
kommunale
kommunalt
kommune
kommunen
kommunene
kommunens
kommuner
kommunerna
kommunernas
kommunestyr
kommunestyret
kommunfull
kommunfullmaktige
kommunic
kommunicera
kommunicerar
kommunik
kommunikasjon
kommunikation
kommunikationen
kommunikationer
kommunikations
kommunisere
kommunist
kommuns
kommunstyrelsen
kommunstyrelsens
komp
kompa
kompakt
kompan
kompat
kompati
kompatibel
kompens
kompensation
kompensera
kompet
kompetans
kompetanse
kompetens
kompetenser
kompetensutveckling
kompetent
kompetenta
kompis
kompisar
kompisen
kompl
komplement
komplett
kompletta
kompletter
komplettera
kompletterande
kompletterar
kompletteras
komplex
komplexa
komplic
komplicerad
komplicerade
komplicerat
komplikationer
komplim
kompon
komponent
komponenter
kompos
komposit
kompost
kompress
kompri
komprom
kon
kona
koncentr
koncentration
koncentrera
koncept
konceptet
koncer
koncern
koncernen
koncernens
kond
kondens
kondition
kondom
kondomer
kone
konen
konf
konfer
konferens
konferensen
konferenser
konfigur
konfir
konfirm
konflikt
konflikten
konflikter
konfron
kong
konge
kongen
kongo
kongress
kongressen
konjunktur
konkl
konkluder
konklusjon
konkret
konkreta
konkrete
konkur
konkurr
konkurran
konkurrans
konkurranse
konkurransen
konkurranser
konkurren
konkurrens
konkurrensen
konkurrenskraft
konkurrenskraftiga
konkurrenter
konkurrera
konkurs
kons
konsek
konsekv
konsekvens
konsekvenser
konsekvenserna
konsekvent
konsent
konsentr
konsept
konser
konsert
konserten
konserter
konserv
konservativa
konsesjon
konsistens
konsol
konspir
konst
konstant
konstater
konstatera
konstaterade
konstaterar
konstaterat
konsten
konstig
konstiga
konstigt
konstnar
konstnaren
konstnarer
konstnarlig
konstnarliga
konstru
konstrukt
konstruktion
konstruktionen
konstverk
konsul
konsult
konsulter
konsum
konsument
konsumenten
konsumenter
konsumenterna
konsumer
konsumtion
kont
kontak
kontakt
kontakta
kontaktade
kontaktann
kontaktannons
kontaktannonser
kontaktar
kontakte
kontakten
kontakter
kontaktperson
kontaktsidor
kontaktuppgifter
kontant
kontanter
kontext
kontin
kontinu
kontinuer
kontinuerlig
kontinuerligt
kontinuitet
konto
konton
kontor
kontoret
kontors
kontot
kontra
kontrakt
kontrakten
kontraktet
kontrast
kontraster
kontro
kontroll
kontrollen
kontroller
kontrollera
kontrollerade
kontrollerar
kontrolleras
kontrollere
kontroversi
konung
konvensjon
konvention
konver
konvers
konversation
konvertering
koordin
kop
kopa
kopare
koparen
kopas
kopcentrum
kopen
kopenhamn
koper
kopet
kopi
kopia
kopier
kopiera
koping
kopior
kopman
kopp
koppar
koppel
koppla
kopplad
kopplade
kopplar
kopplas
kopplat
koppling
kopplingar
kopplingen
kopt
kopte
koptes
kor
kora
korall
koranen
koras
korde
kore
korea
koreanska
koren
korg
korkort
korn
korning
korr
korrekt
korrekta
korresp
korrid
korrig
korru
korruption
kors
korsbar
korset
korsord
kort
korta
kortare
korte
korten
kortere
kortet
kortfatt
korthet
kortsikt
kortsiktiga
korttid
kortvar
korv
kos
kose
koselig
kosm
kosmet
kost
kosta
kostade
kostar
koste
kosten
koster
kosthold
kostnad
kostnaden
kostnadene
kostnader
kostnaderna
kostnads
kostnadseffektiv
kostnadsfri
kostnadsfria
kostnadsfritt
kosttill
kosttillskott
kostym
kostymer
kot
kott
kottbullar
kottet
kottfar
koud
kp
kr
kra
kraft
kraftdjursart
kraften
krafter
krafterna
kraftfull
kraftfulla
kraftfullt
kraftig
kraftiga
kraftigt
kraftverk
krage
kragen
krak
kram
krama
kramar
kramig
kran
krang
krangel
krangligt
krankande
krasch
krav
krava
kravande
kravas
kravde
kravdes
kraven
kravene
kraver
kravet
kravs
kre
kreativ
kreativa
kreative
kreativitet
kreativt
kred
kredit
kreditbetyg
krediter
kreditkort
kreditt
kreditupp
kreditupplys
kreditupplysning
kreditvardering
kreditvardighet
kreft
krefter
kret
krets
kretsar
kretsen
krev
kreve
krevende
krever
kreves
krf
kri
krig
krigen
kriget
krigs
krim
krimin
kriminal
kriminalitet
kriminella
kring
kris
krisen
kriser
krist
kristall
kristdemokrat
kristdemokraterna
kristen
kristendom
kristendomen
krister
kristi
kristian
kristians
kristiansand
kristianstad
kristin
kristina
kristine
kristinehamn
kristna
kristne
kristoffer
kristus
krit
kriter
kriterier
kriterierna
kritik
kritiken
kritiker
kritikk
kritisk
kritiska
kritiskt
kro
kroat
kroatien
krock
krog
krogen
krok
krom
kron
krona
kronan
kroner
kronika
kronikor
kronisk
krono
kronofog
kronofogden
kronor
kronprins
krop
kropp
kroppar
kroppen
kroppens
kropps
krossa
krossade
kru
kruk
kruka
krukor
krus
krut
kry
krydd
krydda
kryddor
krym
kryp
krypa
kryper
krypt
kryss
krysset
kryssning
ks
kth
ku
kub
kuba
kud
kudd
kuddar
kudde
kudden
kuh
kuk
kukar
kuken
kul
kull
kullar
kulle
kullen
kulor
kult
kultur
kulturarv
kulture
kulturell
kulturella
kulturelle
kulturen
kulturer
kulturhistor
kulturhuset
kulturm
kum
kumla
kun
kund
kunde
kunden
kundene
kundens
kunder
kunderna
kundernas
kunders
kundservice
kundtjanst
kung
kunga
kungalv
kungar
kungen
kungens
kungliga
kungs
kungsbacka
kungsholmen
kunn
kunna
kunnande
kunnat
kunne
kunnig
kunniga
kunnskap
kunnskapen
kunnskaps
kunskap
kunskapen
kunskaper
kunskaps
kunst
kunstner
kunstnere
kup
kuper
kuperad
kupong
kupp
kur
kurd
kurs
kursen
kurser
kurserna
kurset
kurt
kurv
kus
kusin
kusiner
kust
kusten
kustklimat
kuvert
kv
kva
kvad
kvadrat
kvadratkilometer
kvadratmeter
kval
kvalet
kvalif
kvalific
kvalificerad
kvalificerade
kvalifik
kvalitativ
kvalitativa
kvalite
kvaliten
kvalitet
kvaliteten
kvaliteter
kvalitets
kvalitetss
kvalitetssak
kvall
kvallar
kvallarna
kvallen
kvallens
kvallstid
kvant
kvantitet
kvar
kvarn
kvarstar
kvart
kvartal
kvartalet
kvarter
kvarteret
kvarts
kvarvarande
kvave
kveld
kvelden
kvick
kvinn
kvinna
kvinnan
kvinnans
kvinne
kvinnelige
kvinnen
kvinnene
kvinner
kvinners
kvinnlig
kvinnliga
kvinno
kvinnor
kvinnorna
kvinnors
kvist
kvitt
kvitto
kvm
kw
kwh
ky
kyck
kyckling
kycklingen
kyl
kyla
kylan
kylen
kyll
kylskap
kylskapet
kyr
kyrk
kyrka
kyrkan
kyrkans
kyrko
kyrkog
kyrkogard
kyrkoher
kyrkor
kyss
kyst
kysten
kø
køben
københavn
la
laa
lab
labb
labor
laborator
lac
lack
lacker
lackra
lad
lada
ladan
ladd
ladda
laddad
laddade
laddar
laddare
laddas
laddat
laddning
lade
lader
lades
ladies
lador
lady
lag
laga
lagade
lagar
lagat
lagd
lage
lagen
lagene
lagenhet
lagenheten
lagenheter
lagenheterna
lagens
lager
lages
laget
lagets
lagg
lagga
laggas
lagger
laggning
laggs
lagkon
lagligt
lagom
lagra
lagrar
lagras
lagre
lagret
lagring
lagst
lagsta
lagstad
lagstift
lagstiftning
lagstiftningen
lagt
lagts
laguna
lak
laka
lakan
lakar
lakare
lakaren
lakarna
lake
lakem
lakemed
lakemedel
lakemedlet
lakrits
lakt
laktos
lam
lamin
lamm
lamn
lamna
lamnade
lamnades
lamnar
lamnas
lamnat
lamnats
lamp
lampa
lampan
lampar
lamplig
lampliga
lampligt
lampor
lan
lana
lanade
lanar
lanat
land
landa
landade
landar
landat
landbruk
lande
landene
lander
landerna
landet
landets
lands
landsby
landsbyg
landsbygd
landsbygden
landshov
landskap
landskapet
landskaps
landskommun
landskrona
landslag
landslaget
landst
landsting
landstinget
landstingets
landstings
lane
lanebel
lanen
lanet
lanets
lang
langa
langd
langden
lange
langesen
langhorningar
langiv
langivare
langivaren
langre
langrenn
langs
langsam
langsammare
langsamt
langsikt
langsiktig
langsiktiga
langsiktigt
langst
langsta
langt
langta
langtan
langtar
langtat
langtid
langu
langvar
langvarig
lank
lanka
lankar
lankarna
lanken
lans
lanser
lanserade
lanserades
lanserar
lanseras
lansering
lanseringen
lansert
lansforsakringar
lansstyrelsen
lant
lantagare
lantagaren
lantbruk
lantbruks
lantmater
lapp
lappar
lapparna
lappen
lappland
lappstift
laptop
lar
lara
larande
larar
larare
lararen
lararexamen
lararna
larde
large
larjun
larm
larmet
larom
laroplan
laror
laros
larosaten
lars
larsen
larsson
lart
larvik
las
lasa
lasar
lasare
lasaren
lasaret
lasarna
lasas
laser
lases
lask
laskigt
lasning
lasningen
lass
lasse
last
lasta
lastbil
lastbilar
laste
lat
lata
latar
latarna
late
laten
later
latest
latex
latin
latina
latit
latsas
latt
latta
lattare
lattast
lattaste
latter
latthet
lattillgang
lattlast
lattnad
laur
laura
lauren
lav
lave
lavendel
lavere
laveste
lavt
law
lax
laxa
laxor
lay
layout
lb
lc
lcd
lchf
le
leader
league
lean
learning
leasing
leave
led
leda
ledam
ledamot
ledamoter
ledande
ledar
ledare
ledaren
ledarna
ledarskap
ledd
ledde
lede
ledelse
ledelsen
leden
ledende
leder
ledere
ledet
ledig
lediga
ledighet
ledigt
ledning
ledningen
lednings
leds
ledsagare
ledsen
ledtrad
lee
leende
left
leg
legat
lege
legen
legend
legendar
leger
legg
legge
legger
legges
legiti
legitim
legitimation
lego
lei
leie
leif
leil
leilighet
leir
lejon
lek
leka
lekar
leke
leken
leker
leks
leksak
leksaker
leksand
lekt
lekte
lektion
lektionen
lektioner
lektor
lem
len
lena
leng
lengde
lenge
lenger
lengre
lengst
lenn
lennart
lens
leo
leon
leonard
leop
lept
ler
lera
les
lesb
lesbian
lesbisk
lesbiska
lese
leser
lesere
less
lest
leste
let
leta
letade
letar
letat
lete
leter
lett
lette
lettere
lettland
lev
leva
levande
levde
leve
level
levende
lever
leveran
leverand
leverandør
leverandører
leverans
leveransen
leveranser
leveranstid
leverant
leverantor
leverantoren
leverantorer
levere
leverer
leverera
levererade
levererar
levereras
levererat
leveres
levering
levert
levitra
levnad
levnads
levt
lew
lewis
lex
lg
li
liam
lib
liban
libanon
liber
liberal
liberala
liberalerna
lic
licens
lid
lida
lidande
liden
lider
lidingo
lidkoping
lie
lif
life
lift
lig
liga
ligan
ligg
ligga
liggande
ligge
liggende
ligger
light
lignende
lik
lika
likabehandling
likad
likadan
likadana
likadant
likasa
likasin
likasinnade
like
liker
likes
likest
likestilling
likevel
likhet
likheter
likna
liknande
liknar
liksom
likt
likte
likval
likvid
likviditet
lil
lila
lilj
lilje
lill
lilla
lillasyster
lille
lillebror
lillehammer
lim
lime
limited
lin
lina
lind
linda
lindberg
linde
linder
lindes
lindex
lindgren
lindqvist
lindr
lindra
lindstrom
line
ling
lingon
linj
linje
linjen
linjer
link
linkedin
linkoping
linkopings
links
linn
linne
linnea
linser
linus
linux
lion
lip
lir
lis
lisa
lise
liseberg
lisens
list
lista
listade
listan
listar
listas
liste
listen
lister
listor
lit
lita
litar
litauen
lite
liten
liter
litet
litt
litter
litterara
litteratur
litteraturen
little
liv
live
liver
liverpool
lives
livet
livets
living
livlig
livmoder
livradd
livs
livskraft
livskraftig
livskvalitet
livsl
livslangd
livsmedel
livsstil
livstid
lix
lixom
lj
lju
ljud
ljudet
ljuga
ljuger
ljung
ljungby
ljus
ljusa
ljusare
ljuset
ljusst
ljusstyrka
ljust
ljuv
ljuvlig
ljuvliga
ljuvligt
ll
lm
lo
lobby
local
lock
locka
lockade
lockande
lockar
locket
lod
lof
loft
lofte
loften
lofven
log
logg
logga
loggar
logi
logik
login
logiskt
logist
logistik
logistikk
logn
logner
logo
logotyp
loj
lojalitet
lojligt
lok
lokal
lokala
lokalbefolkningen
lokale
lokalen
lokaler
lokalerna
lokalisera
lokalt
loken
lol
lom
loma
lon
lona
lonar
lond
london
lone
lonen
loner
long
lonn
lonsamhet
lont
look
looking
lop
lopande
lopar
lopare
loper
lopning
lopp
loppet
loppis
loptid
lor
lord
lordag
lordagar
lordagen
lordagens
lordags
los
losa
losas
losen
losenord
loser
losning
losningar
losningen
loss
lost
loste
lot
lott
lotta
lotter
lotteri
lotto
lotus
lou
louis
louise
lounge
lov
lova
lovade
lovande
lovar
lovat
love
loven
lover
lovet
lovisa
lovlig
lovskog
low
lp
lr
lrf
ls
lss
lt
ltd
lu
luc
lucas
luci
lucia
luck
lucka
luckan
luckor
lucky
lud
ludvig
ludvika
ludwig
luft
lufta
luften
luftfart
luftfukt
luftk
luftkondition
luftkonditionering
luftt
lug
lugn
lugna
lugnande
lugnare
lugnet
lugnt
luk
lukas
luks
lukt
lukta
luktade
luktar
lukten
lul
lulea
lum
lun
lunch
lunchen
lund
lundberg
lundgren
lunds
lung
lungt
lunsj
lur
lura
lurad
lurar
lure
lurer
lurt
lus
luss
lust
lusten
lustigt
lut
luta
lutar
luther
lux
luxem
lv
ly
lyck
lycka
lyckad
lyckade
lyckades
lyckan
lyckas
lyckat
lyckats
lycklig
lyckliga
lyckligt
lyckligtvis
lyd
lydelse
lyder
lydnad
lyft
lyfta
lyfte
lyfter
lyfts
lyhord
lyk
lykke
lykkes
lym
lymf
lyn
lyr
lyrics
lys
lysa
lysande
lyse
lysek
lyser
lyset
lyss
lyssna
lyssnade
lyssnar
lyssnat
lyst
lyste
lyster
lytte
lyx
lyxig
lyxiga
lyxigt
lær
lære
lærer
lærere
læring
lært
lærte
lø
løfte
løn
lønn
lønns
løp
løpe
løpende
løper
løpet
lør
lørdag
løs
løse
løsning
løsningen
løsninger
løst
løy
m2
m3
ma
mac
mach
machine
mack
macka
mackor
mad
madde
made
madele
madeleine
madison
madrass
madrid
maff
mag
magasin
magasinet
magaz
magazine
magdalen
magdalena
mage
magen
mager
magi
magic
magisk
magiska
magiskt
magn
magnes
magnesium
magnet
magnus
magnusson
mags
mah
mai
mail
maila
mailadress
main
maj
maja
majest
major
majoritet
majoriteten
majs
mak
makal
makar
make
makedon
maken
makeup
maklar
maklare
makro
maks
maksim
makt
makten
maktiga
mal
mala
malade
malar
malard
malare
malaren
malas
malat
malays
malaysia
male
malen
malene
maler
maleri
malet
malgrupp
malgruppen
malgrupper
malin
maling
mall
mallar
mallorca
malm
malmo
malning
malningar
malsattning
malsattningen
malt
malta
malte
maltid
maltider
malvakt
malvakten
mam
mamm
mamma
mamman
mammas
mammor
man
mana
manad
manaden
manadens
manader
manaderna
manaders
manads
manag
management
manager
manat
manatliga
manchester
mand
mandag
mandagar
mandagen
mandags
mandat
mandel
maned
maneden
maneder
manen
mang
manga
mangd
mangden
mangder
mange
mangel
mangf
mangfald
mangfalden
mangfold
manglende
mangler
mango
mangsid
manhattan
manifest
manipul
manlig
manliga
mann
mannen
mannens
mannisk
manniska
manniskan
manniskans
mannisko
manniskor
manniskorna
manniskors
mannlige
mans
mansk
mansklig
manskliga
manskligheten
manskligt
mant
manu
manual
manuell
manuellt
manus
manuset
many
map
mapp
mar
mara
marathon
maraton
marc
march
marcus
mardrom
mare
marg
margar
margaret
margareta
margin
marginal
mari
maria
marian
marianne
marie
mariestad
marin
marina
marine
mario
marit
mark
marka
markant
marke
marked
markedet
markedsf
markedsføring
marken
marker
markera
markerade
markerar
markering
markes
market
marketing
marklig
markliga
markligt
marknad
marknaden
marknadens
marknader
marknads
marknadsfor
marknadsfora
marknadsforing
markning
marks
markt
markta
markte
marktes
markus
marmor
marock
marocko
mars
marsch
mart
marta
marten
martin
martina
marx
mary
mas
masc
mascara
mask
maskerad
maskin
maskinen
maskiner
mass
massa
massage
massan
massasje
masse
masser
massera
massing
massiv
massiva
massor
massvis
mast
mastare
maste
masten
master
mastercard
masterskap
mat
mata
matar
matare
matas
match
matcha
matchande
matchar
matchen
matcher
matcherna
matchmak
matchmaking
mate
matemat
matematik
matematikk
maten
mater
material
materiale
materialer
materialet
materiell
materiella
math
mathias
matilda
matlag
matlagning
matning
matningar
mats
matsal
matsalen
matt
matta
mattan
matte
matten
mattet
mattias
mattlig
mattnad
mattor
mattsson
mature
maur
max
maxi
maxim
maximal
maximala
maximalt
maximera
may
maya
maz
mazily
mb
mc
mcc
mcdon
mcdonalds
md
me
meck
med
medal
medalj
medaljer
medan
medans
medarbeider
medarbeidere
medarbet
medarbetare
medarbetarna
medbor
medborg
medborgar
medborgare
medborgarna
medborgarskap
meddel
meddela
meddelade
meddelande
meddelanden
meddelandet
meddelar
meddelas
meddelat
medel
medelalder
medelaldern
medelalders
medelhav
medelhavet
medelhavsklimat
medelhojden
medelin
medell
medelstora
medeltemperaturen
medeltid
medeltida
medeltiden
medfoljande
medfoljer
medfor
medfora
medfort
medføre
medfører
medger
medgivande
medi
media
medias
medic
medical
medicin
medicinen
mediciner
medicinsk
medicinska
medicinskt
medie
medier
medierna
medis
medisin
medisinsk
medisinske
meditation
medium
medlem
medlemmar
medlemmarna
medlemmen
medlemmene
medlemmer
medlems
medlemskap
medlemskapet
medlemsst
medlemsstat
medlemsstaterna
medverk
medverka
medverkade
medverkan
medverkande
medverkar
medverkat
medvet
medvetande
medveten
medvetenhet
medvetet
medvetna
meet
meg
mega
meget
meir
mej
mejer
mejl
mejla
mek
mekan
mekanis
mekanisk
mekaniska
mekt
mel
melan
meld
melde
melder
melding
meldinger
meldt
melk
mell
mellan
mellanmal
mellanostern
mellanrum
mellans
meller
mellersta
mellom
melod
melodi
melodifest
melodifestivalen
mem
member
membran
memor
men
menade
menar
menas
mener
meng
mengde
mengden
mengder
menighet
mening
meningar
meningen
meninger
menings
menn
menne
mennene
mennesk
menneske
menneskene
mennesker
menneskerett
mennesket
mens
ment
mental
mentala
mentalt
mente
mentor
menu
meny
menyn
mer
mera
merc
mercedes
mere
merit
meriter
meriterande
merk
merke
merker
merket
merparten
mes
mess
messen
mest
mesta
mestadels
meste
mester
mestring
met
meta
metabol
metal
metall
metaller
mete
meteor
meter
meters
metod
metode
metoden
metoder
metro
mex
mexico
mexiko
mf
mff
mfl
mg
mi
mia
miam
miami
mic
mich
micha
michael
michel
mick
micke
micro
microgam
microgaming
microsoft
mid
midd
middag
middagar
middagen
middel
midja
midjan
midler
midlertid
midlertidig
midnatt
midsommar
midt
midten
mig
migr
migran
migration
migrations
migrationsverket
mik
mika
mikael
mike
mikro
mikrofon
mikrovag
mil
milan
milano
mild
milda
miles
milf
milfs
milit
militar
militara
militart
militær
militære
milj
miljard
miljarder
miljo
miljob
miljobalken
miljoer
miljok
miljom
miljon
miljoner
miljontals
miljop
miljopa
miljopart
miljopartiet
miljopaverkan
miljovan
miljovanliga
miljovanligt
miljø
miljøet
mill
miller
milli
milliarder
millimeter
million
millioner
milt
mim
min
mina
mind
mindf
mindful
mindre
mine
miner
mineral
mineraler
ming
mingel
mini
miniat
minim
minimal
minimalt
minimer
minimera
minimum
minister
minn
minnas
minne
minnen
minner
minnes
minnet
minns
minor
minoritet
mins
minsann
minsk
minska
minskad
minskade
minskar
minskas
minskat
minskning
minst
minsta
minste
mint
minus
minusgrader
minut
minuten
minuter
minuterna
minuters
minutt
minutter
mio
mir
mira
mirakel
mis
misjon
misl
miss
missa
missade
missar
missat
missbru
missbruk
missfor
missforstand
misshand
misshandel
mission
misslyck
misslyckades
misslyckas
misslyckats
missn
missnojd
misst
misstag
misstan
misstank
misstanke
misstanker
misstanks
misstankt
misstankta
misstankte
missupp
mist
miste
misten
mister
mistet
mit
mitt
mitten
mittfalt
mix
mixa
mj
mjol
mjolk
mjolken
mju
mjuk
mjuka
mjukare
mjukt
mjukvara
mk
mkr
mkt
ml
mm
mmm
mn
mo
moa
mobb
mobbing
mobbning
mobel
mobil
mobila
mobile
mobilen
mobiler
mobilt
mobiltelefon
mobiltelefoner
mobl
mobler
mock
mod
mode
model
modell
modellen
modeller
modellerna
models
moden
moder
moderat
moderaterna
modern
moderna
moderne
modernt
modersmal
modet
modig
modo
modul
moduler
mog
mogel
mogen
mogna
mognad
moh
moj
mojlig
mojliga
mojligen
mojliggor
mojliggora
mojlighet
mojligheten
mojligheter
mojligheterna
mojligt
mojligtvis
mol
molde
molekyl
moll
molly
moln
molndal
mom
moment
moms
mon
mona
monark
monetar
money
mongol
monica
monopol
monst
monster
monstret
monsun
monsunklimat
mont
montage
monte
monter
montera
monteras
montering
monterings
montreal
monument
moon
moore
mop
moped
mor
mora
moral
moraliska
mord
mordet
more
moren
morfar
morg
morgan
morgen
morgenen
morgon
morgondagen
morgondagens
morgonen
mork
morka
morkare
morker
morkret
morkt
mormor
mormors
moro
morot
morotter
morr
mors
morse
morsom
morsomme
morsomt
mort
morten
mos
mosa
mosaik
mosk
moske
moskva
moss
mossa
mossan
mossor
most
moster
mot
mota
motala
motas
mote
moten
moter
motes
motesplats
motesplatsen
motesplatser
motet
mother
motion
motionen
motiv
motivasjon
motivation
motivationen
motiver
motivera
motiverad
motivering
motiveringen
motivet
motor
motorcykel
motoren
motorer
motorfordon
motorn
mots
motsats
motsatsen
motsatt
motsatta
motsatte
motsetning
motsta
motstand
motstandare
motstandet
motsvar
motsvarande
motsvarar
motsvarighet
mott
motta
mottag
mottagande
mottagare
mottagaren
mottagit
mottagning
mottak
mottar
mottatt
motte
mottes
mottok
motverka
motverkar
moun
mount
mountain
mov
movie
movies
moz
mp
mp3
mr
ms
msek
msk
msn
mt
mu
much
muff
muffins
mugg
mul
mulet
mulig
mulige
muligens
mulighet
muligheten
mulighetene
muligheter
mull
muller
mulliga
mult
multi
multim
multip
multipl
mum
mums
mun
munch
munchen
munk
munn
munnen
munt
muntlig
mur
muren
mus
muse
museer
museet
musen
museum
music
musik
musikal
musikaliska
musiken
musiker
musikk
musikken
musk
muskel
muskl
muskler
musklerna
muskul
musl
muslim
muslimer
muslimsk
muslimska
muss
must
mut
mutt
mv
mvh
mw
my
mycke
mycket
mye
mygg
myk
mykje
myn
mynd
myndighet
myndigheten
myndighetene
myndigheter
myndigheterna
mynt
myr
myror
mys
mysa
myser
mysig
mysiga
mysigt
myst
myster
mystisk
mystiska
myt
myter
m²
mø
møn
mønster
mør
møre
mørk
mørke
møt
møte
møteplass
møteplassen
møter
møtes
møtet
møtt
møtte
na
nabo
nack
nacka
nackdel
nackdelar
nackdelen
nacke
nacken
nad
nadde
nade
nag
nagel
nagellack
naglar
naglarna
nagon
nagons
nagonsin
nagonstans
nagonting
nagorlunda
nagot
nagra
naja
najs
nak
naked
naken
nakenbilder
nakna
nakne
nal
nam
name
namligen
namn
namna
namnas
namnd
namnda
namnde
namnden
namndens
namnder
namnen
namner
namnet
namns
namnt
namnts
nan
nans
nanstans
nanting
napol
napoleon
napp
napra
nar
nara
narhet
narheten
naring
narings
naringsamnen
naringsid
naringsliv
naringslivet
nark
narkot
narkotika
narliggande
narm
narma
narmade
narmar
narmare
narmast
narmaste
narmre
narmsta
naromradet
narstaende
narvarande
narvaro
nas
nasa
nasan
nash
nasjon
nasjonal
nasjonale
nasjonalt
nass
nassjo
nast
nasta
nastan
nastintill
nastkommande
nat
natal
natdejting
natet
nathal
nation
national
nationalpark
nationell
nationella
nationellt
nationer
nato
natrium
natt
natta
natten
natter
natterna
nattetid
nattflyn
natur
natural
naturen
naturens
naturlig
naturliga
naturlige
naturligt
naturligtvis
naturligvis
naturreserv
naturreservat
naturskydd
naturvards
naturvardsverket
naturvetenskap
natverk
natverket
nav
naval
navig
navigation
navigera
navn
navnet
naværende
naz
nb
nd
ne
ned
nedan
nedanfor
nedanstaende
nedat
nedbryt
nedbør
nede
nedenfor
neder
nederbord
nederlag
nederland
nederlanderna
nederst
nedgang
nedladd
nedladdning
nedover
nedre
nedsatt
need
neg
negativ
negativa
negative
negativt
nei
nej
nek
nekt
nektet
nel
nell
nelly
nelson
nem
nemlig
neo
neon
nepal
neppe
ner
nerat
nere
nerv
nervos
nervs
nes
nest
neste
nesten
net
netent
netflix
nett
netta
nettapotek
nettbutikk
nettdating
nettet
nettles
netto
nettopp
nettside
nettsiden
nettsider
nettst
nettsted
nettsteder
nettstedet
nettverk
nettverket
network
neur
neuro
neut
neutr
neutral
nev
never
nevne
nevnes
nevnt
nevnte
new
news
next
ng
ngn
ngt
nhl
ni
nic
nice
nich
nick
nicklas
niclas
nicole
nielsen
nig
niger
nigeria
night
nik
nike
niklas
nikola
nil
nils
nilsen
nilsson
nin
nina
nint
nintendo
nio
nionde
nisch
niss
nissan
nisse
nit
nitt
niva
nivaer
nivaet
nivan
nj
nja
njot
njur
njut
njuta
njuter
njutning
nk
nl
nm
nn
no
nobel
nod
nodsitu
nodvand
nodvandig
nodvandiga
nodvandigt
nodvandigtvis
noe
noen
noens
noensinne
nog
noga
noggran
noggrann
noggrant
noj
noja
nojd
nojda
noje
nojer
nojes
nok
nokia
noko
nokre
noksa
noll
nom
nomin
nominerade
non
nor
nora
nord
norda
nordamerika
norde
nordea
norden
nordens
nordic
nordisk
nordiska
nordiske
nordland
nordlige
nordmenn
nordost
nordostra
nordvast
nordvastra
nordvest
noreg
norg
norge
norges
norm
normal
normala
normalt
normen
normer
norr
norra
norrbotten
norrbottens
norrkoping
norrkopings
norrland
norrlands
norrtalje
norrut
norsk
norska
norske
nort
north
norw
norway
norweg
norwegian
nos
nost
nostalg
nostalgi
not
note
noter
notera
noterade
noterar
noteras
noterat
nott
notter
nov
nova
novell
noveller
november
now
np
nr
nrk
ns
nt
ntb
ntnu
nu
nud
nude
nudist
nuet
nufor
nufortiden
nul
nulaget
null
num
number
numer
numera
nummer
numret
nur
nuru
nut
nutid
nutida
nuvarande
ny
nya
nyan
nyanlanda
nyans
nyanser
nyar
nyare
nyarsafton
nyaste
nybl
nyborj
nyborjare
nybro
nybygg
nyck
nyckel
nyckeln
nyckeltal
nycklar
nydelig
nye
nyere
nyeste
nyfik
nyfiken
nyfikenhet
nyfikna
nyg
nyhet
nyheten
nyheter
nyheterna
nyhets
nyhetsbrev
nyhetsbrevet
nyin
nykom
nykoping
nykter
nylig
nyligen
nylon
nynas
nynashamn
nyrenover
nysgjer
nyss
nystart
nyt
nytankande
nyte
nytt
nytta
nyttar
nytte
nyttig
nyttiga
nyttigt
nyttja
nær
nære
nærheten
næring
nærings
næringsliv
næringslivet
næringsmiddel
nærm
nærmer
nærmere
nærmest
nærmeste
nært
nø
nød
nødnummer
nødt
nødv
nødvendig
nødvendige
nødvendigvis
nøk
nøkkel
nøy
nøyaktig
nøye
oakt
oand
oandliga
oandligt
oar
oarna
oas
oav
oavsett
ob
obal
obama
obe
obef
obefint
obefolkad
obeg
obegransat
obehag
obehagligt
obehor
obekv
ober
oberoende
obes
obest
obet
objekt
objektet
objektiv
oblig
obligator
obligatorisk
obligatoriska
obligatoriskt
obs
obser
observ
observationer
observer
observera
oc
occ
oce
ocean
och
ock
ocksa
ockup
oct
od
odd
odds
oddsen
ode
oden
odla
odlar
odlas
odling
odm
odmjuk
oec
oer
oerhort
of
ofar
off
offens
offensiv
offent
offentlig
offentliga
offentlige
offentlighet
offentligt
offer
offert
offic
office
officer
officiell
officiella
officiellt
offis
offisielle
offisielt
offsh
ofor
oforand
oforglom
oforuts
ofrivill
ofrukt
ofruktbar
oft
ofta
oftare
oftast
ofte
oftere
oftest
ofull
ofver
og
oga
ogat
ogillar
ogilt
ogon
ogonblick
ogonblicket
ogonbryn
ogonen
ogonlock
ogras
ogsa
oh
ohalsa
ohl
ohlsson
oil
ointress
oj
ojam
ojamn
ok
oka
okad
okade
okand
okanda
okande
okant
okar
okat
oke
okej
oken
okenklimat
oklar
oklart
okning
okningen
okom
okomplic
okomplicerad
oks
okt
oktober
okunn
ol
ola
olag
olagligt
olamp
oland
olav
old
older
ole
olen
olik
olika
oliv
oliver
olivia
olivolja
olj
olja
oljan
olje
oljem
oljemassage
oljor
oll
olle
olof
olofsson
olov
olsen
olsson
olyck
olycka
olyckan
olyckligt
olyckor
olycksfall
olymp
olympisk
olympiska
olympiske
om
ombord
ombud
ombyggnad
omd
omdom
omdome
omdomen
omed
omedel
omedelbar
omedelbara
omedelbart
omega
omfang
omfatt
omfatta
omfattade
omfattande
omfattar
omfattas
omfattende
omfatter
omfattning
omfor
omg
omgaende
omgang
omgangar
omgangen
omgiv
omgivande
omgivelser
omgiven
omgivning
omgivningarna
omgivningen
omhand
omhandert
omk
omklad
omkladnings
omkom
omkring
omnam
omne
omnejd
omoj
omojlig
omojliga
omojligt
omrade
omraden
omradena
omradene
omrader
omradet
omradets
omrostning
omsattning
omsattningen
omsesid
omsetning
omslag
omslaget
omsorg
omsorgs
omstallning
omstand
omstandighet
omstandigheter
omstandigheterna
omt
omtal
omtalade
omtale
omtalt
omtank
omtanke
omtr
omtrent
omtyck
omtyckt
omv
omvand
omvandlas
omvard
omvardnad
omvarld
omvarlden
omvax
omvaxlande
on
onan
onanerar
onani
ond
onda
one
onekligen
onl
onlin
online
onlinek
onlinekasinon
onlines
onlinespel
only
onod
onodan
onodig
onodiga
onodigt
ons
onsdag
onsdagen
onsdags
onsk
onska
onskad
onskade
onskan
onskar
onskas
onskat
onskel
onskelista
onskemal
onskningar
onskvart
ont
ontar
ontario
onytt
oon
oonskade
op
open
oper
opera
operan
operasjon
operat
operation
operationen
operationer
operativ
operativa
operativsystem
operator
opin
opinion
opinions
opp
oppbevar
oppdag
oppdage
oppdaget
oppdat
oppdater
oppdatere
oppdatering
oppdatert
oppdrag
oppdraget
oppdrags
oppdrett
oppe
oppen
oppenhet
oppet
oppett
oppettider
oppf
oppfat
oppfatning
oppfatt
oppfor
oppfordrer
oppfyll
oppfylle
oppfylt
oppfølg
oppfølging
oppført
oppga
oppgave
oppgaven
oppgavene
oppgaver
oppgir
oppgitt
oppgjør
oppgra
oppgrader
opph
opphav
opphold
oppland
opplev
opplevd
opplevde
oppleve
opplevelse
opplevelsen
opplevelser
opplever
oppleves
opplys
opplyser
opplysningene
opplysninger
opplæring
oppmer
oppmerksom
oppmerksomhet
oppna
oppnad
oppnade
oppnades
oppnar
oppnas
oppnat
oppning
oppos
opposition
oppositionen
oppover
oppr
oppret
opprett
opprette
opprettet
opprettholde
opprinn
opprinnelig
opprinnelige
opprinnelse
opprør
oppskrift
oppsta
oppstar
oppstart
oppsummer
opptak
opptatt
opptil
oppvarm
oppvarming
oppvekst
ops
opt
optim
optimal
optimala
optimalt
optimer
optimera
option
or
ora
oral
oralsex
orange
orat
oratt
orattvist
orch
ord
ordbok
orden
ordene
ordent
ordentlig
ordentligt
order
ordet
ordfor
ordforande
ordforanden
ordfører
ordin
ordinarie
ordinære
ordna
ordnade
ordnar
ordnas
ordnat
ordning
ordningen
ordnings
ordre
ore
orebro
oreg
oresund
org
organ
organis
organisasjon
organisasjonen
organisasjoner
organisation
organisationen
organisationens
organisationer
organisationsnummer
organisator
organisera
organiserad
organiserade
organisering
organisert
organisk
organiska
organismer
orgas
orgasm
orgel
orgie
orhangen
ori
oriental
orienter
orientering
orig
origin
original
originalet
orim
orimligt
ork
orka
orkade
orkar
orkat
orkester
orkide
orkideart
orkideer
orm
orn
ornskold
ornskoldsvik
oro
oroa
oroar
orolig
oroliga
oron
oronen
orsa
orsak
orsaka
orsakade
orsakar
orsakas
orsakat
orsaken
orsaker
orsakerna
ort
orten
orter
ortod
os
osa
osaker
osakerhet
osakert
osakra
osann
osannol
osc
oscar
oser
osk
oskar
oskarshamn
oskuld
oskydd
oskyld
oskyldiga
osl
oslag
oslo
osm
oss
ost
oste
osten
oster
ostergotland
ostergotlands
ostermalm
osterrik
osterrike
ostersjon
ostersund
osterut
ostra
osv
osyn
ot
otack
otal
otaliga
other
otill
otillrack
otr
otro
otrogen
otrogna
otrohet
otrolig
otroliga
otroligt
ott
ottawa
otto
otur
ou
ound
oundvik
oupp
our
out
outf
outfit
outlet
outlook
ov
ova
oval
ovan
ovanfor
ovanlig
ovanliga
ovanligt
ovanpa
ovans
ovanstaende
ovant
ovantad
ovantade
ovantat
ovar
ove
ovenfor
over
overallt
overbel
overbev
overblick
overd
overdr
overdrivet
overen
overens
overenskomm
overenskommelse
overensstamm
overensstammer
overfl
overflod
overfor
overfora
overforing
overfors
overføring
overført
overg
overga
overgang
overgangen
overgar
overgick
overgrep
overgrepp
overgripande
overhuvud
overhuvudtaget
overk
overkl
overklag
overl
overlag
overlagsen
overlagset
overlam
overlat
overlatelse
overlev
overleva
overlevde
overlever
overlevnad
overnatt
overnatting
overnattning
overnatur
overord
overra
overrask
overraska
overraskad
overraskade
overraskande
overraskende
overrasket
overraskning
overraskningar
overrepresenter
overs
oversatt
oversatta
oversattning
oversett
oversikt
overskott
overskudd
overst
oversta
overstiger
oversv
oversvam
oversyn
overt
overta
overtal
overtid
overtok
overtra
overtyg
overtyga
overtygad
overtygade
overtygande
overtygelse
overv
overvag
overvaga
overvagande
overvager
overvak
overvaka
overvakning
overvaldig
overvaningen
overvikt
ovning
ovningar
ovningarna
ovningen
ovr
ovre
ovrig
ovriga
ovrigt
ow
own
ox
oxa
oxford
oy
oz
p1
p3
p4
pa
pabor
paborj
paborja
paborjade
paborjades
paborjas
paborjat
pack
packa
packade
packar
packat
packning
pad
padd
paf
pafrest
pafyll
pafølgende
pag
paga
pagaende
pagar
pagatt
page
pagick
pah
pahitt
pai
paint
paj
pak
paket
paketet
pakistan
pakke
pal
pala
palace
palats
pale
palest
palestin
palestina
palit
palitlig
palitliga
pall
pallar
palm
palme
pals
palsen
pam
pamin
paminde
paminn
paminna
paminnelse
paminner
pan
pancake
pand
panel
panelen
pang
panik
pann
panna
pannan
pannkak
pannkakor
panor
pans
pant
pap
papek
papeka
papekade
papekar
papeker
paper
papir
papp
pappa
pappan
pappas
papper
pappers
pappret
paprika
par
para
parad
paradis
paradise
paradox
parag
paragraf
paral
parall
parallell
parallellt
param
paramet
parametrar
paraply
paras
paren
paret
parf
parfym
parfymer
paris
park
parken
parker
parkera
parkering
parkeringen
parkerings
parkeringsplatser
parkett
parl
parla
parlam
parlament
parlamentar
parlamentet
parlor
paron
part
parten
partene
parter
parterna
parti
partier
partierna
partiet
partiets
partik
partiklar
partiled
partiledare
partille
partis
partner
partnere
partners
partnerskap
party
parørende
pas
pasar
pase
pasen
pasi
pasient
pasienten
pasientene
pasienter
pask
paske
pasken
pass
passa
passade
passager
passagerare
passande
passar
passasjer
passat
passe
passer
passera
passerade
passerar
passerat
passet
passform
passion
passiv
past
pasta
pastaende
pastaenden
pastar
pastas
pastod
pastor
pat
patag
patagligt
patent
patenter
patient
patienten
patientens
patienter
patienterna
patraff
patri
patriark
patric
patrick
patrik
patt
paul
paulus
paus
pause
pav
pavag
pave
paven
paverk
paverka
paverkade
paverkan
paverkar
paverkas
paverkat
pavir
pavirke
pavirker
pavirket
pay
payday
paypal
pa¥
pb
pc
pdf
pe
peace
peak
ped
pedagog
pedagoger
pedagogik
pedagogisk
pedagogiska
pedagogiskt
peder
pedersen
pek
peka
pekade
pekar
peker
peking
pel
pell
pelle
pen
pend
pendel
penetr
peng
pengar
pengarna
pengene
penger
penis
penn
penna
penning
pens
pensel
pension
pensionar
pensionarer
pensionars
pensions
pensjon
pent
people
pepp
peppar
peppark
pepparkak
pepparkakor
pepper
per
perf
perfect
perfekt
perfekta
perfekte
performan
performance
peri
perio
period
periode
perioden
perioder
periodiskt
perm
permal
permalanken
perman
permanent
permanenta
pern
pernilla
pers
persiska
person
personal
personalen
personals
personbil
personell
personen
personens
personer
personerna
personlig
personliga
personlige
personligen
personlighet
personligheter
personligt
personnummer
personopplysninger
persons
personuppgift
personuppgifter
personuppgifterna
personvern
perspektiv
perspektivet
persson
peru
pest
pet
peter
petersburg
petite
petra
petrol
petroleum
petter
pettersson
pf
pg
pga
ph
phil
philadel
philip
philips
phone
phot
photo
photos
photoshop
php
phu
pi
pia
pian
piano
pic
pick
picknick
pics
pict
picture
pictures
pie
pier
pierre
pig
pigg
pigga
piggare
pigment
pik
pil
pilg
pill
piller
pilot
pim
pin
ping
pingst
pink
pinn
pinnar
pinne
pinsamt
pinter
pinterest
pion
pip
piper
pippi
pir
pirat
pisk
piss
pist
pistol
pit
pite
pitea
pitt
pix
piz
pizz
pizza
pizzer
pj
pjas
pk
pkt
pl
pla
plac
place
placera
placerad
placerade
placerar
placeras
placerat
placering
placeringar
placeringen
plag
plagg
plan
planbok
planboken
planen
planer
planera
planerad
planerade
planerar
planeras
planerat
planering
planeringen
planerna
planet
planeten
plank
planlagt
planlegge
planlegger
planlegging
planlosning
plant
plante
planter
plantera
plantor
plas
plass
plassen
plasser
plassering
plassert
plast
plaster
plat
plata
plate
platen
plats
platsen
platser
platserna
platt
platta
plattan
plattform
plattformar
plattformen
plattor
play
player
playstation
ple
please
pleier
plikt
plikter
plock
plocka
plockade
plockar
plockas
plockat
plog
plomm
plots
plotsligt
plug
plugg
plugga
pluggar
pluggat
pluk
plus
pluss
plut
pluts
plutselig
pm
po
poang
poangen
pock
pocket
pod
podcast
podd
poeng
poesi
poet
point
poj
pojk
pojkar
pojkarna
pojke
pojken
pojkv
pojkvan
pok
pokemon
poker
pol
polar
polare
polen
polic
policy
polis
polisen
polisens
poliser
polism
polit
politi
politid
politiet
politik
politiken
politiker
politikere
politikerna
politikk
politisk
politiska
politiske
politiskt
poll
pollen
polsk
polska
poly
polyester
pom
pommes
pon
ponn
ponny
pont
pontus
pool
poolen
pop
popcorn
popp
popul
popular
populara
popularaste
popularitet
populart
populær
populære
populært
por
porn
pornhub
porno
pornografi
pornografiska
pornos
pornstar
pornstars
porr
porrbilder
porrfilm
porrfilmer
porriga
porrsajter
porrstjarnor
pors
porslin
port
portal
portar
porten
portfol
portfolj
portion
portioner
porto
portratt
portug
portugal
portugis
pos
posisjon
posit
position
positionen
positioner
positiv
positiva
positive
positivt
poss
post
posta
postades
postadress
postadresse
postadressen
postat
posted
posten
poster
postnummer
pot
potatis
potatisen
potens
potensial
potensielle
potent
potential
potentiella
potentiellt
pott
potter
pov
pow
power
powered
pp
pr
pra
prag
pragel
praglas
praksis
prakt
praktfjarilar
praktik
praktiken
praktisk
praktiska
praktiske
praktiskt
prast
prasten
praster
prat
prata
pratade
pratar
pratat
praxis
pre
precis
precision
pred
predik
prefekt
prefer
preferenser
preg
preget
prel
prelimin
prem
premi
premiar
premiaren
premiarminister
premie
premier
premium
pren
prenumer
prenumeration
prenumerera
prepar
preparat
pres
presen
present
presentasjon
presentation
presentationen
presentationer
presenter
presentera
presenterade
presenterades
presenterar
presenteras
presenterat
presentere
presenterer
presentert
presentkort
presid
president
presidenten
press
pressa
pressade
presse
pressen
presset
pressmeddelande
prest
prestand
prestanda
prestation
prestationer
prester
prestera
prestige
pretty
prevent
pri
price
prick
prickar
pride
prim
prima
primar
primara
primart
primært
prin
prince
princi
princip
principen
principer
prins
prinsen
prinsessa
prinsessan
prinsipp
prinsippet
print
prior
prioriter
prioritera
prioriterade
prioriterar
prioriteras
prioritering
prioriteringar
prioritet
pris
prisbel
prisen
prisene
priser
priserna
priset
prisk
prist
prisut
prisvard
prisvarda
prisvart
priv
privat
privata
private
privatlan
privatliv
privatperson
privatpersoner
privileg
prix
pro
problem
problemat
problemen
problemene
problemer
problemet
proced
procedur
procent
procentenheter
proces
process
processen
processer
produ
produc
producent
producenter
producera
producerade
producerar
produceras
producerat
product
products
produksjon
produksjonen
produkt
produkten
produktene
produkter
produkterna
produktet
produktion
produktionen
produktiv
produktivitet
produs
produsent
produsenter
produsere
produserer
produsert
prof
profesjon
profesjonell
profesjonelle
profess
profession
professional
professionell
professionella
professionellt
professor
profet
profeten
proff
proffs
profil
profilen
profiler
prog
progn
prognos
prognosen
prognoser
program
programledare
programmen
programmer
programmering
programmet
programvara
programvare
progress
progressiva
proje
project
projekt
projekten
projektet
projektets
projektledare
prom
promen
promenad
promenaden
promenader
promenera
promenerade
pron
prop
propag
propaganda
proport
proportion
proposition
propp
pros
prosed
prosent
prosess
prosessen
prosesser
prosjekt
prosjektene
prosjekter
prosjektet
prosjektleder
prospekt
prost
prostata
prostitu
prostituerade
prostitution
prot
prote
protected
protein
proteiner
protest
protester
protokoll
protokollet
prov
prova
provade
provar
provas
provat
prover
provet
provin
provincia
provins
provinsen
provinshuvud
provinshuvudstaden
provning
provoc
provtagning
pryd
pryl
prylar
prø
prøv
prøvd
prøvde
prøve
prøver
ps
ps3
psal
pse
pseud
psy
psych
psyk
psykiat
psykiatri
psykisk
psykiska
psykiske
psykiskt
psyko
psykolog
psykologi
psykologisk
psykologiska
psykos
pt
pts
pu
pub
publ
public
publicera
publicerad
publicerade
publicerades
publicerar
publiceras
publicerat
publicerats
publicering
publik
publiken
publikum
publisert
publish
published
puck
pud
puerto
puh
pul
pull
puls
pulsen
pulver
pum
puma
pump
pumpa
pumpar
pumpen
pun
pund
punk
punkt
punkten
punkter
punkterna
punta
pupp
pupper
pur
pure
pus
push
puss
pussel
pussy
pust
put
putin
puts
putt
pvc
pw
py
pyjam
pyjamas
pyn
pynt
pyr
pyram
pyss
pyssel
pyssla
pytt
qa
qu
quad
qual
quality
que
quebec
quebra
quebrada
queen
queens
quest
quick
quiz
quot
quote
ra
raa
rabarber
rabat
rabatt
rabatten
rabatter
rabattkod
rabattkoder
rabb
rabbit
race
racer
racing
rack
racka
racker
rackte
rackvidd
rad
rada
radande
radar
radd
radda
raddade
raddar
radde
raddning
raddnings
raddningst
raddningstjanst
raddningstjansten
raden
rader
radera
radet
radets
radgiv
radgivare
radgiver
radgivning
radhus
radi
radik
radikal
radikalt
radio
radion
radios
radiost
radjur
radmannen
radon
radsla
radslan
raff
rag
ragg
ragn
ragnar
rain
rak
raka
rakade
rakar
rakat
raken
rakenskap
rakenskapsaret
raket
rakna
raknade
raknar
raknas
raknat
rakning
rakningar
rakor
rakt
ral
rall
rally
ram
rama
ramar
ramen
ramla
ramlade
ramlar
ramm
ramme
rammer
rammet
ramp
ran
rand
random
rang
range
rank
ranking
rann
rans
rant
ranta
rantan
rante
rantor
rap
rapp
rapport
rapporten
rapporter
rapportera
rapporterade
rapporterar
rapporteras
rapportering
raps
rar
rart
ras
rasande
rasen
raser
rasism
rask
raskere
raskt
rasmus
rast
rat
rating
ration
ratt
ratta
rattare
rattegang
rattegangen
ratten
ratter
rattfard
rattighet
rattigheter
rattigheterna
ratts
rattsliga
rattvis
rattvisa
rattvist
rav
ravar
ravaror
raw
ray
rb
rc
rd
re
rea
read
reading
reag
reager
reagera
reagerade
reagerar
reaksjon
reaksjoner
reaktion
reaktioner
real
realist
realistisk
realistiska
reality
really
realt
realtid
rebecca
rebeck
rec
recens
recension
recensioner
recept
receptet
receptfritt
reception
receptionen
records
red
reda
redaksjon
redakt
redaktion
redaktionen
redaktor
redaktør
redan
redd
redde
reddit
reder
redig
redigera
redigering
redo
redog
redogor
redov
redovis
redovisa
redovisade
redovisar
redovisas
redovisning
redovisningen
redskap
redu
reduc
reducera
reducerad
reduksjon
redus
redusere
reduserer
reduseres
redusert
reell
ref
refer
referanse
referat
referens
referenser
refinansiering
refl
reflekt
reflektera
reflekterar
reflektion
reflektioner
reflex
reform
reformer
reg
regel
regelbunden
regelbundet
regelbundna
regelmessig
regeln
regelverk
regelverket
regering
regeringen
regeringens
regi
regim
region
regional
regionala
regionale
regionalt
regionen
regionens
regioner
regiss
regisser
regissor
regissoren
regist
register
registr
registrera
registrerad
registrerade
registrerar
registreras
registrerat
registrere
registrering
registreringen
registrert
registrerte
registret
regjer
regjering
regjeringen
regjeringens
regl
reglem
reglene
regler
reglera
reglerar
regleras
reglering
reglerna
regn
regna
regnade
regnar
regne
regner
regnes
regnet
regnigaste
regnskap
regnskog
regnskogsklimat
regul
regulering
reha
rehab
rehabiliter
rehabilitering
rein
reinfeldt
reis
reise
reiseliv
reisen
reiser
reist
reiste
rej
rejal
rejala
rejalt
rek
rekke
reklam
reklame
reklamen
rekomen
rekommen
rekommend
rekommendation
rekommendationer
rekommendera
rekommenderad
rekommenderade
rekommenderar
rekommenderas
rekommenderat
rekonstru
rekord
rekre
rekreation
rekrutt
rekruttering
rekry
rekryter
rekrytera
rekrytering
rekryterings
rekt
rektor
rektorn
rel
relasjon
relasjoner
relater
relaterade
relaterat
relation
relationen
relationer
relativ
relativt
relax
rele
release
relev
relevans
relevant
relevanta
relevante
relig
religi
religion
religionen
religioner
religios
religiosa
religiøse
rem
remiss
ren
rena
renault
rencont
rencontre
rene
reng
rengjøring
rengor
rengora
rengoring
renn
renod
renover
renovera
renovering
renoveringen
rens
rensa
rent
rentav
rente
rep
repa
repar
reparation
reparationer
reparera
repert
repet
repl
replik
reply
report
reportage
reporter
represent
representant
representanter
representation
representer
representera
representerade
representerar
representerer
representert
representerte
repris
reprodu
reproducerande
republ
republiken
requ
res
resa
resan
resande
rese
research
reseb
resen
resenarer
resept
reseptfritt
reser
reserv
reservation
reservdelar
reserve
reserver
residens
resmal
reson
resonemang
resor
resort
resp
respekt
respektera
respekterar
respektive
respon
respons
ress
ressur
ressurs
ressurser
rest
restaur
restaurang
restaurangen
restauranger
restaurant
restauranter
reste
resten
rester
resterande
restri
resul
result
resultat
resultaten
resultatene
resultater
resultatet
resultera
resulterade
resulterar
resulterat
resur
resurs
resurser
resurserna
ret
reta
retning
retningslin
retningslinjer
retor
retro
rett
rette
retten
retter
rettet
rettigheter
retur
return
returner
reum
reuter
rev
revider
review
reviews
revis
revision
revisions
revisjon
revisor
revisorer
revol
revolusjon
revolut
revolution
revolutionen
reyk
rf
rgb
rh
rhod
ri
ribb
ric
rica
rich
richard
rick
rickard
rid
rida
ridd
riddar
ride
rider
ridhuset
ridit
ridning
rig
riga
right
rights
rik
rika
rikare
rike
rikedom
riket
rikets
rikligt
riks
riksbanken
riksdag
riksdagen
riksdagens
riksdagsled
riksdelen
riksforbund
riksrevis
riksrevisjonens
rikt
rikta
riktad
riktade
riktar
riktas
riktat
riktig
riktiga
riktige
riktignok
riktigt
riktlinjer
riktlinjerna
riktning
rim
rimelig
rimlig
rimliga
rimligt
rin
ring
ringa
ringar
ringde
ringe
ringen
ringer
ringt
rinna
rinner
rio
ris
risik
risiko
risikoen
risk
risken
risker
riskera
riskerar
riskerna
rist
rit
rita
ritade
ritat
ritningar
ritu
riv
riva
riven
river
riz
ro
roa
road
rob
robb
robert
roberts
robin
robot
robotar
robu
robust
rock
rod
roda
rodbet
rodd
rog
rogaland
roger
roj
rok
roka
roker
rokning
rokt
rol
roland
rolf
rolig
roliga
roligare
roligaste
roligt
roll
rolle
rollen
roller
rollspel
rom
roma
roman
romanen
romaner
romant
romantik
romantisk
romantiska
romer
romersk
romerska
romerske
rommet
romsdal
ron
ronn
ronne
ronneby
ront
rontgen
room
rooms
rop
ropade
ropar
ror
rora
rorande
rorde
rorels
rorelse
rorelsen
rorelser
rorelseresultat
roret
rorlig
rorliga
rorlighet
rort
ros
rosa
rose
rosen
rosor
ross
rost
rosta
rostade
rostar
rostat
rosten
roster
rosterna
rostfritt
rostratt
rot
roten
roth
rott
rotter
roulette
router
rov
rovdjur
roven
row
roy
royal
rp
rs
rss
rt
ru
rub
rubb
rubrik
rubriken
rubriker
rud
rudolf
rug
ruisseau
rull
rulla
rullade
rullar
rulle
rullstol
rum
rumanien
rummen
rummet
rumpa
rumpan
run
rund
runda
rundan
runde
runder
rundt
rune
runka
runt
runtom
runtomkring
rus
rusar
russ
russisk
russiske
russland
rust
rusta
rut
ruta
rutan
rute
ruter
rutin
rutiner
rutor
rutt
rv
ry
ryan
ryck
rycka
ryd
rydd
rygg
ryggen
ryggsack
rykt
rykte
rykten
rym
rymd
rymden
rymlig
rymliga
rymmer
ryms
ryn
rys
rysk
ryska
ryss
ryssland
ryt
rytm
rytt
ryttare
rø
rød
røde
rødt
røn
rør
røy
sa
saa
saaa
saaaa
saab
sab
sabb
sac
sack
sad
sadan
sadana
sadant
sadar
sade
sadel
sadeln
sades
saf
safari
safe
saff
saffran
saft
sag
saga
sagan
sagas
sager
sagor
sags
sagt
sahar
sahl
saint
sajt
sajten
sajter
sak
sakalt
sakalte
saken
sakene
saker
sakerhet
sakerheten
sakerhets
sakerligen
sakerna
sakerstalla
sakerstaller
sakert
sakkunn
saklart
sakna
saknad
saknade
saknades
saknar
saknas
saknat
sakra
sakrade
sakrare
saks
sakta
sakte
sal
sala
sald
salda
salde
saldes
sale
saledes
salen
salg
salgs
salj
salja
saljare
saljaren
saljas
saljer
saljes
saljs
sall
sallad
sallan
sallskap
sallskapet
sallsyn
sallsynt
sallsynta
salong
salongen
salonger
salt
salta
salts
salu
salunda
salv
sam
saman
samarbeid
samarbeide
samarbeider
samarbeidet
samarbeidspartnere
samarbet
samarbeta
samarbetar
samarbete
samarbeten
samarbetet
samarbetspart
samarbetspartner
samarbetspartners
samband
sambandet
sambo
samboer
sambon
same
samer
samfall
samfund
samfunn
samfunnet
samhall
samhalle
samhallen
samhallet
samhallets
samhalls
samhallsbyggnad
samhandling
samisk
samiska
samla
samlad
samlade
samlades
samlag
samlar
samlas
samlat
samlats
samle
samlede
samler
samlet
samling
samlingar
samlingen
samlinger
samliv
samm
samma
samman
sammandrag
sammanfatt
sammanfatta
sammanfattar
sammanfattning
sammanfattningsvis
sammanhang
sammanhangande
sammanhanget
sammank
sammanlagda
sammanlagt
sammansattning
sammanstallning
sammant
sammantaget
sammantrade
samme
sammen
sammenhen
sammenheng
sammenlig
sammenligne
sammenlignet
sammenlik
sammens
samord
samordna
samordning
samrad
samre
sams
samspel
samst
samsta
samsung
samsvar
samt
samtal
samtala
samtale
samtalen
samtaler
samtalet
samtid
samtida
samtidig
samtidigt
samtliga
samtlige
samtycke
samtycker
samtykke
samuel
samverk
samverka
samverkan
samverkans
samverkar
samvete
san
sana
sand
sanda
sandberg
sande
sandefjord
sanden
sander
sandes
sandnes
sandra
sands
sandvik
sandviken
sang
sangar
sangare
sangaren
sangen
sanger
sangklader
sank
sanka
sanker
sanks
sankt
sanktion
sann
sanna
sanne
sannerligen
sanning
sanningen
sannol
sannolik
sannolikhet
sannolikheten
sannolikt
sannsyn
sannsynlig
sannsynligvis
sans
sant
santa
santiago
sao
sap
sapass
sar
sara
sarah
sarajevo
sarbar
saret
sark
sarp
sarpsborg
sarskil
sarskild
sarskilda
sarskilt
sas
sasen
sasom
sason
sasong
sasongen
sasongens
sasonger
sat
satan
sate
satell
satellit
sater
sats
satsa
satsar
satsat
satse
satser
satsing
satsning
satsningar
satsningen
satt
satta
sattas
satte
satter
sattes
sattet
satts
sau
saudi
sav
saval
savann
savannklimat
savannskog
save
savida
savitt
saw
sax
say
sa¥
sb
sc
scan
scand
scandic
scandinav
scanpix
scar
scb
scen
scenar
scenario
scene
scenen
scener
sch
scha
schabl
schack
schakt
schampo
schema
schemal
schemat
schen
school
schwe
schweiz
schysst
sci
science
scient
sco
score
scoret
scot
scott
scout
scra
scrap
screen
sd
se
sea
search
seb
sebast
sebastian
sec
second
secret
secur
security
sed
sedan
seder
sedermera
see
sees
seg
sega
segel
seger
segern
segla
seglar
segling
segment
segrar
segt
seier
seil
sein
seinare
sej
sek
sekel
sekret
sekretari
sekreterare
sekretes
sekretess
seks
seksjon
seksuell
seksuelle
sekt
sektion
sektionen
sektor
sektorer
sektorn
sekund
sekunder
sel
select
self
selge
selger
selges
sell
selma
selskap
selskapene
selskaper
selskapet
selskapets
selv
selve
selvføl
selvfølgelig
selvsagt
selvstendig
sem
semest
semester
semestern
semi
semif
semifinal
semifinalen
seminar
seminari
seminarier
seminariet
seminarium
sen
sena
senare
senast
senaste
send
sende
sender
sendes
sendt
sendte
senere
senest
seni
senior
seniorer
sens
sensation
sensor
sensorer
sensuell
sent
senter
senteret
sentr
sentral
sentrale
sentralt
sentrum
seo
seoul
sep
separ
separat
separata
sept
septem
september
ser
serb
serge
seri
serie
serien
seriens
serier
series
seriet
serios
seriosa
seriost
sert
serum
serv
server
servera
serverades
serverar
serveras
servering
servic
service
servicen
services
servit
servrar
ses
sesong
sesongen
sess
session
set
sett
sette
setter
settes
setts
sevard
sevardheter
sex
sexbutik
sexfilm
sexfilmer
sexig
sexiga
sexkontakt
sexlek
sexleksaker
sexliv
sexshop
sexstallningar
sext
sexton
sexual
sexualitet
sexuell
sexuella
sexuellt
sexy
sf
sfi
sfs
sg
sh
sha
shad
shakes
shang
shanghai
shar
share
she
shem
shemale
sher
shir
shirt
shirts
shit
shl
sho
shop
shopp
shoppa
shoppade
shopping
short
shorts
shot
show
showen
shower
si
sia
sic
sick
sid
sida
sidan
side
siden
sidene
sider
sido
sidor
sidorna
sie
sier
sierra
sies
sif
siff
siffra
siffran
siffror
siffrorna
sig
sight
sign
signal
signaler
signat
signatur
signer
signifik
signifikant
sigrid
sigt
sigtuna
sigurd
sik
sikker
sikkerhet
sikkerhets
sikkert
sikre
sikrer
sikret
sikt
siktar
sikte
siktet
sil
silden
sildenafil
silikon
sill
silver
sim
simma
simmar
simning
simon
simpel
sims
simul
sin
sina
sine
sing
singap
singapore
singel
singeln
singelt
singlar
single
singler
singles
sinn
sinne
sinnen
sinnes
sinnet
sir
siri
sirius
sis
sisa
sisadar
sist
sista
siste
sistnamnda
sistnevnte
sistone
sit
site
sites
sits
sitt
sitta
sittande
sitte
sitter
sittplatser
situ
situasjon
situasjonen
situasjoner
situation
situationen
situationer
siv
sivil
sivile
size
sj
sja
sjal
sjalar
sjalen
sjalv
sjalva
sjalvaste
sjalvbi
sjalvfallet
sjalvfort
sjalvfortroende
sjalvkansla
sjalvklar
sjalvklara
sjalvklarhet
sjalvklart
sjalvmord
sjalvrisk
sjalvstand
sjalvstandig
sjalvstandiga
sjalvstandighet
sjalvstandigt
sjalvt
sjanse
sjansen
sjanser
sjatte
sjef
sjek
sjekk
sjekke
sjekket
sjel
sjeld
sjelden
sjo
sjoar
sjoarna
sjoberg
sjof
sjofart
sjog
sjok
sjom
sjon
sjong
sjonk
sjoprocent
sjost
sju
sjuk
sjuka
sjukdom
sjukdomar
sjukdomen
sjukgym
sjukgymnast
sjukhus
sjukhuset
sjukskoter
sjukskoterska
sjukskoterskor
sjukskriven
sjukt
sjukvard
sjukvarden
sjukvards
sjun
sjunde
sjung
sjunga
sjunger
sjunka
sjunker
sjunkit
sjutt
sjutton
sjø
sjøen
sjøl
sjølv
sjøm
sk
ska
skad
skada
skadad
skadade
skadades
skadan
skadar
skadas
skadat
skade
skader
skadespel
skadespelare
skadespelaren
skadespeler
skadestand
skadet
skadliga
skador
skaff
skaffa
skaffade
skaffar
skaffat
skaffe
skaft
skagg
skak
skaka
skakade
skakar
skal
skala
skalar
skalbagg
skalbaggsart
skaldjur
skalen
skalet
skall
skallen
skam
skamlosa
skamm
skammas
skams
skamt
skan
skand
skandal
skandinav
skandinavien
skandinaviska
skane
skanes
skank
skanka
skanker
skansen
skanska
skap
skapa
skapad
skapade
skapades
skapande
skapandet
skapar
skapas
skapat
skapats
skape
skapel
skapelse
skaper
skapet
skapt
skapte
skar
skara
skaraborg
skargard
skargarden
skarm
skarmar
skarmen
skarp
skarpa
skarpt
skars
skat
skatt
skatte
skattebetal
skattef
skattem
skattemassiga
skatten
skatter
skattes
skatteverket
skav
ske
sked
skedde
skede
skelett
skell
skelleftea
sken
skepp
skept
skeptisk
sker
sket
skett
ski
skick
skicka
skickade
skickades
skickar
skickas
skickat
skickats
skicklig
skickliga
skicklighet
skid
skidakning
skidor
skien
skift
skiftande
skifte
skiftet
skik
skikkelig
skikt
skil
skilda
skildrar
skildring
skilj
skilja
skiljer
skill
skille
skiller
skillnad
skillnaden
skillnader
skillnaderna
skilsm
skilsmassa
skilt
skim
skin
skiner
skinka
skinn
skip
skipet
skipp
skippa
skiss
skisser
skit
skiten
skiter
skiv
skiva
skivan
skivor
skj
skje
skjedd
skjedde
skjema
skjer
skjerm
skjermen
skjor
skjort
skjorta
skjul
skjut
skjuta
skjuter
skjuts
skjøn
skjønn
skjønner
skjønnhet
skl
sko
skog
skogar
skogarna
skogbruk
skogen
skogs
skogsbruk
skoj
skol
skola
skolan
skolans
skolav
skold
skole
skolen
skolene
skolens
skoler
skolj
skoll
skollagen
skolor
skolorna
skolverket
skon
skona
skonare
skonhet
skont
skop
skor
skord
skorna
skot
skota
skoter
skots
skotsel
skott
skotte
skottland
skov
skovde
skr
skra
skrack
skradd
skraddars
skraddarsydda
skram
skramma
skrammande
skrap
skrapa
skratt
skratta
skrattade
skrattar
skre
skred
skrek
skrev
skrevet
skrevs
skri
skrib
skribent
skrid
skrift
skriften
skrifter
skriftlig
skriftliga
skriftligen
skriftligt
skrik
skrika
skriker
skritt
skriv
skriva
skrivande
skrivare
skrivas
skrivbord
skrivbordet
skrive
skrivelse
skriven
skriver
skrivet
skrivit
skrivits
skrivna
skrivs
skro
skrot
skru
skruv
skruva
skruvar
skry
skrym
sku
skudd
skuespiller
skuff
skugg
skugga
skuggan
skul
skuld
skulden
skulder
skuldkonsolidering
skulds
skull
skulle
skulpt
skulptur
skum
skumt
skur
skutt
skv
skvaller
skvatt
sky
skydd
skydda
skyddad
skyddade
skyddande
skyddar
skyddas
skyddet
skydds
skyl
skyld
skyldes
skyldig
skyldiga
skyldighet
skyldigheter
skyll
skylla
skyller
skylt
skyltar
skylten
skym
skynd
skynda
skype
skyte
skytt
skøy
sl
sla
slack
slacka
slad
sladd
slag
slaget
slagit
slags
slak
slakt
slakte
slakten
slaktet
slakting
slaktingar
slal
slalom
slam
slampa
slang
slanga
slangde
slanger
slank
slant
slap
slapp
slappa
slappas
slappe
slapper
slappna
slapps
slappt
slappte
slapptes
slappts
slar
slarv
slas
slass
slat
slatt
slav
sle
slekt
slekten
slem
slet
slett
sli
slick
slicka
slickar
slik
slike
slikt
slim
sling
slip
slipp
slippa
slippe
slipper
slit
slita
slitage
sliten
sliter
slitna
slo
slock
slog
slogs
slojd
slos
slosa
slot
slots
slott
slottet
slov
slovak
sloven
slow
slu
sluk
slum
slump
slupp
slussen
slut
sluta
slutade
slutandan
slutar
slutat
sluten
slutet
slutfor
slutfora
slutgilt
slutgiltiga
slutliga
slutligen
slutna
slutresultatet
sluts
slutsats
slutsatsen
slutsatser
slutspel
slutspelet
slutt
sluttar
slutte
slutten
slutter
sluttet
sm
sma
smabarn
smaforetag
smag
smahus
smak
smaka
smakade
smakar
smaken
smaker
smaksatt
smal
smala
smaland
smalare
small
smalt
smalta
smalter
smaning
smaningom
smar
smart
smarta
smartan
smartare
smartphone
smartphones
smarttelefon
smas
smask
smat
smatt
smed
smek
smeknamn
smer
smerte
smerter
smet
smeten
smhi
smid
smidig
smidiga
smidigare
smidigt
smil
smile
smin
smink
smith
smitt
smooth
smoothie
smor
smoret
smorg
smorgas
smorj
sms
smslan
smula
smult
smut
smuts
smutsiga
smyck
smycken
smyg
sn
sna
snabb
snabba
snabbare
snabbast
snabbaste
snabbis
snabblan
snabbt
snack
snacka
snackade
snackar
snacks
snakk
snakke
snakker
snakket
snal
snall
snalla
snallt
snap
snapchat
snapp
snar
snarare
snarast
snart
sne
sneakers
sned
snett
snick
snig
snill
snitt
sno
snon
snor
snow
snu
snubb
snur
snurr
snurra
snurrar
snus
snusk
snygg
snygga
snyggare
snyggaste
snyggt
snø
so
soc
soci
social
sociala
socialdemokrat
socialdemokraterna
socialdemokratiska
socialnamnden
socialstyrelsen
socialstyrelsens
socialt
socialtjanst
socialtjansten
societ
society
sock
socken
socker
sod
soder
soderberg
soderhamn
sodermalm
sodermanland
sodertalje
soderut
sodra
sof
sofa
soff
soffa
soffan
soffor
sofia
sofie
sofistik
soft
software
sog
sogn
soja
sok
soka
sokande
sokanden
soker
sokes
sokmotor
sokning
sokt
sokte
sol
sola
solar
solarium
solberg
solcell
solceller
sold
soldat
soldater
solen
solens
solglasogon
solgt
solgte
solid
solidar
solidaritet
solig
soliga
soligt
soll
solleftea
sollentuna
solljus
solna
solned
solnedgangen
solo
solsken
solskydd
solut
som
somal
some
somliga
sommar
sommaren
sommarens
sommarjobb
sommark
sommarlov
sommarlovet
sommart
sommartid
sommer
sommeren
somn
somna
somnade
somnar
somnat
somnen
somras
son
sondag
sondagar
sondagen
sondagens
sondags
sonder
sonen
soner
song
songen
sony
sop
soph
sophie
sopp
soppa
sor
soren
sorg
sorgen
sorgligt
sorm
sormland
sorry
sort
sorten
sortens
sorter
sortera
sortering
sorters
sortiment
sortimentet
sorts
sos
sosial
sosiale
sosialt
sot
sota
sott
sou
soul
sound
sour
source
south
sov
sova
sove
sover
sovit
sovjet
sovjetunionen
sovmorgon
sovrum
sovrummet
sp
spa
space
spack
spad
spag
spam
span
spana
spand
spania
spanien
spann
spannande
spanner
spanning
spanningen
spannmal
spansk
spanska
spanske
spar
spara
sparade
sparande
sparar
sparas
sparat
spare
sparen
sparet
spark
sparka
sparkar
sparken
spe
spec
speci
special
specialis
specialiserade
specialist
specialister
specialpedagog
speciell
speciella
speciellt
specif
specific
specifik
specifika
specifikationer
specifikt
speed
speg
spegel
spegeln
speglar
speil
spekt
spektak
spektakulara
spektrum
spekul
spel
spela
spelade
spelades
spelande
spelar
spelare
spelaren
spelarna
spelas
spelat
spelats
spelautom
spelautomater
spelbolag
spelen
spelet
spelets
spell
spelning
spelningar
spelt
speltitlar
spelverksamhet
spen
spender
spendera
spenderade
spenderar
spenderat
spennende
spenning
sper
sperma
spes
spesi
spesial
spesialis
spesialist
spesiell
spesielle
spesielt
spesif
spesifik
spesifikke
spet
spets
spetsen
spik
spill
spille
spilleautom
spiller
spillere
spilleren
spillerne
spilles
spillet
spilt
spilte
spin
spindel
spindelart
spinn
spinning
spins
spion
spir
spiral
spis
spise
spisen
spiser
spiste
spj
split
splitt
spo
spok
spol
spons
sponsor
sponsorer
spont
spontan
spontant
spor
sport
sporten
sporter
sportlov
sports
spot
spotify
spott
spr
spra
sprack
sprak
spraket
sprang
spray
spre
spred
spri
sprid
sprida
spridas
sprider
spridning
sprids
spring
springa
springer
sprint
sprit
spru
sprungit
sprut
spruta
sprutar
spur
spurt
spurte
spy
spør
spørre
spørsmal
spørsmalene
spørsmalet
sq
squ
square
sr
sri
ss
ssb
st
sta
stab
stabil
stabila
stabilitet
stabilt
stack
stackars
stad
stada
stadade
stadar
stadat
staden
stadens
stader
staderna
stadgar
stadig
stadigt
stadion
stadium
stadning
stads
stadsbyggnad
stadsdel
stadsdelen
stadsegron
staende
staf
stafett
staffan
stak
staket
stal
stalin
stall
stalla
stallas
stallda
stallde
stalldes
stalle
stallen
staller
stallet
stallning
stallningar
stallningst
stallningstagande
stalls
stallt
stam
stamde
stamm
stamma
stamman
stammer
stamning
stamningen
stamnings
stamp
stampel
stan
stand
standard
standarden
standarder
standig
standiga
standigt
standpunkt
stang
stanga
stangd
stangda
stangde
stanger
stangning
stangs
stangt
stank
stanley
stann
stanna
stannade
stannar
stannat
stans
stapel
stapeln
stapp
stappklimat
star
stark
starka
starkare
starkaste
starker
starkt
stars
start
starta
startade
startades
startar
startas
startat
starte
starten
starter
startet
startsida
startsidan
stasjon
stasjonen
stat
state
staten
statens
stater
staterna
states
station
stationen
stationer
statist
statistik
statistiken
statistikk
statistisk
statistiska
stativ
statlig
statliga
statlige
statligt
statoil
stats
statsbor
statsbudsj
statsminister
statsrad
statt
status
stav
stavanger
stay
ste
steam
sted
stede
steder
stedet
steel
stefan
steg
stegen
steget
stein
stek
stekel
stekelart
stekpanna
stekt
stel
stell
stella
stem
stemme
stemmer
sten
stenar
stenen
steng
stengt
stenhart
stenkast
stens
step
steph
stephen
ster
stere
steril
sterk
sterke
sterkere
sterkt
steve
sthl
sthlm
sti
stick
sticka
stickade
sticker
stift
stiftelse
stiftelsen
stiftet
stig
stiga
stigande
stigen
stiger
stigit
stikk
stil
stilar
stilen
stilig
still
stilla
stille
stiller
stilles
stilling
stillingen
stillinger
stilren
stilt
stilte
stimul
stimulans
stimulera
stimulerande
stimulerar
stina
stipend
stipendium
stir
stj
stjal
stjarn
stjarna
stjarnan
stjarnor
stjarnorna
stjer
stjerne
stk
sto
stock
stockholm
stockholms
stod
stoder
stodet
stodja
stodjer
stods
stoff
stoffer
stoffet
stog
stok
stol
stolar
stold
stolen
stolt
stolta
stolte
stolthet
ston
stone
stop
stopp
stoppa
stoppade
stoppar
stoppas
stoppe
stopper
stoppet
stor
stora
storande
storasyster
storbr
storbritann
storbritannia
storbritannien
stord
store
storebror
storhet
stories
storlek
storlekar
storleken
storm
stormen
storning
storningar
storre
storst
storsta
storstad
stort
storting
stortinget
story
storyn
stot
stota
stoter
stott
stotta
stottar
stotte
stov
stovlar
str
stra
strack
stracka
strackan
stracker
strackor
straff
straffe
straffet
strak
straks
stral
stralande
stralar
stralende
stralning
stram
strand
stranden
strander
strang
strangnas
strap
strapon
strat
strateg
strategi
strategier
strategin
strategisk
strategiska
strategiskt
strava
stravan
stravar
strax
stre
stream
streama
streaming
streck
street
strej
strek
strekker
streng
stress
stressa
stressad
stressade
stressen
stressigt
stretch
stri
strid
striden
strider
strids
strik
strikk
strikt
strim
strind
string
strip
stro
stroke
strom
stromm
strommar
strommen
strong
stru
strukt
struktur
strukturen
strukturer
strukturerad
strukturerat
strum
strump
strumpbyxor
strumpor
strunt
strunta
struntar
stry
stryk
stryka
strøk
strøm
stu
stubb
stud
studen
student
studenten
studentene
studenter
studenterna
studer
studera
studerade
studerande
studerar
studerat
studere
studerte
studi
studie
studiebesok
studiel
studien
studier
studierna
studies
studiet
studio
studion
studios
stug
stuga
stugan
stugor
stul
stum
stund
stunden
stunder
stundtals
stup
sture
sty
styck
stycke
stycken
stycket
stygg
stykke
styl
style
styling
styr
styra
styrande
styrde
styre
styrels
styrelse
styrelseled
styrelseledamot
styrelseledamoter
styrelsen
styrelsens
styrelseordforande
styremedlem
styrer
styret
styrets
styring
styrings
styrka
styrkan
styrke
styrker
styrket
styrketraning
styrkor
styrning
styrs
styrt
styv
stø
stør
størr
større
størrelse
størrelsen
størst
største
støtt
støtte
støtter
støttet
støv
støy
su
sub
subjekt
subst
substans
subt
subtrop
subtropiskt
suc
succ
succe
success
successivt
suck
sud
sudd
sug
suga
sugar
sugen
suger
sugna
sukker
suks
suksess
sul
sula
sult
sum
summa
summan
summer
summor
sun
sund
sunda
sundby
sundbyberg
sundsvall
sunn
sunne
sunt
super
superbra
supert
supp
supple
support
supporter
sur
sura
surf
surfa
surfar
surfplatta
surfplattor
surt
sus
susanne
sushi
sutt
suttit
suver
suveran
sv
sva
svag
svaga
svagare
svager
svagt
svak
sval
svalbard
svalja
svalna
svalt
svamp
svampar
svampart
svan
svang
svanga
svanger
svans
svansen
svante
svar
svara
svarade
svarar
svarare
svaraste
svarat
svard
svare
svaren
svarer
svaret
svarighet
svarigheter
svarmor
svart
svarta
svarte
svarts
svd
sve
svea
sved
svein
sveits
svek
sven
svensk
svenska
svenskan
svenskar
svenskarna
svenske
svensken
svenskt
svensson
svep
sver
sverig
sverige
sverigedem
sverigedemokrat
sverigedemokraterna
sveriges
svet
svets
svett
svettas
svettig
svikt
svim
svin
svind
sving
svt
svull
svært
svømme
sw
swe
swed
swedbank
sweden
swedish
sweet
swing
swinger
swingers
swish
switch
sy
syd
syda
sydafrika
sydamerika
sydde
sydkorea
sydlig
sydney
sydost
sydostra
sydvast
sydvastra
syft
syfta
syftar
syfte
syften
syftet
syk
sykdom
sykdommen
sykdommer
syke
sykehjem
sykehus
sykehuset
sykeple
sykkel
sykl
syl
sylt
sym
symbol
symbolen
symboler
symfon
sympat
sympt
symptom
symptomer
symt
symtom
symtomen
syn
synas
synd
synder
syndrom
synen
syner
synes
synkron
synlig
synliga
synligt
synner
synnerhet
synnerligen
synonym
synpunkt
synpunkter
syns
synsatt
syntes
syntet
synvinkel
syr
syra
syre
syri
syria
syrien
syrran
syskon
syss
syssel
sysselsatta
sysselsattning
sysslar
system
systematisk
systematiskt
systembolaget
systemen
systemer
systemet
systems
syster
systrar
sytt
syv
sz
sæ
sær
særlig
sø
søk
søke
søkemot
søker
søkere
søkes
søknad
søknaden
søknader
søkt
søkte
sølv
søn
søndag
sønn
sønnen
sør
sørge
sørger
sørget
sørvest
sørøst
søster
søt
søte
søvn
ta
tab
tabell
tabellen
tabeller
tabl
tablett
tabletter
tabu
taby
tack
tacka
tackade
tackar
tacke
tacker
tacket
tackning
tacksam
tacksamhet
tacksamma
tacksamt
tackt
tacos
tad
tadalafil
tag
tagen
taget
tagg
taggad
taggar
tagit
tagits
tagna
tags
tai
taiwan
taj
tajt
tak
take
taket
takk
takket
takt
taktik
tal
tala
talade
talam
talamod
talan
talang
talanger
talar
talare
talas
talat
tale
talen
talent
taler
tales
talet
talets
talk
tall
tallene
tallet
tallrik
talman
talmod
tals
talt
taltet
tam
tamligen
tamp
tan
tand
tanda
tande
tander
tanderna
tandlak
tandlakare
tandlakaren
tandvard
tang
tangent
tangentbord
tank
tanka
tankande
tankar
tankarna
tankas
tankbara
tanke
tanken
tankene
tanker
tankt
tankta
tankte
tann
tant
tanter
tantra
tanzan
tap
tape
tapet
tapeten
tapeter
tapetser
tapp
tappa
tappade
tappar
tappat
tapt
tapte
tar
tarar
tararna
tarm
tarna
tart
tarta
tartan
tas
tass
tast
taste
tat
tata
tatbefolkat
tatort
tatt
tatu
tatuering
tav
tavla
tavlade
tavlan
tavlande
tavlar
tavlat
tavling
tavlingar
tavlingarna
tavlingen
tavlings
tavlor
tax
taxi
tayl
taylor
tb
te
tea
team
teamet
teat
teater
teatern
tech
techn
technology
teck
tecken
teckens
teckna
tecknad
tecknade
tecknar
tecknat
teckning
teckningar
tecknings
ted
teen
teg
tegel
tegn
tegnes
tegnet
teheran
tej
tejp
tek
tekn
teknik
tekniken
tekniker
teknikk
teknisk
tekniska
tekniske
tekniskt
teknolog
teknologi
teknologien
tekst
teksten
tekster
tel
tele
tele2
telef
telefon
telefonen
telefoner
telefoni
telefonnummer
telefonsamtal
telefonsex
teleg
telemark
telen
telenor
teleskop
televis
television
telia
tell
tem
tema
temaer
temaet
teman
temat
temp
tempel
temper
temperat
temperatur
temperaturen
temperaturer
tempererat
tempo
tempor
tempot
ten
tenar
tenaring
tend
tendens
tenderar
teng
tenk
tenke
tenker
tenkt
tenkte
tenn
tennis
tent
tenta
teologi
teor
teoret
teoretisk
teoretiska
teori
teorier
teorin
ter
tera
terapeut
terapi
terje
term
termen
termer
termin
terminal
terminen
terr
terra
terrang
terrangen
terrass
terreng
territ
territor
territorium
terror
terrorist
tes
tesla
tess
test
testa
testade
testam
testamente
testamentet
testar
testas
testat
teste
testen
tester
testet
testosteron
tet
tett
tex
texas
text
texten
texter
texterna
textil
textilier
tf
tfn
th
tha
thai
thailand
thailandska
thaim
thaimassage
than
thank
that
the
their
them
then
theo
ther
there
theres
therese
these
they
things
think
this
thom
thomas
thor
thorn
three
thriller
thro
through
thunder
ti
tiar
tibet
tid
tida
tide
tiden
tidens
tider
tiderna
tidig
tidiga
tidigare
tidigast
tidigt
tidleg
tidlegare
tidlig
tidligere
tidning
tidningar
tidningarna
tidningen
tidnings
tidpunkt
tidpunkten
tids
tidsbeg
tidskrift
tidskriften
tidskrifter
tidsperiod
tidspunkt
tidspunktet
tidsskrift
tidta
tidvis
tier
tig
tiger
tight
tights
tik
til
tilb
tilbak
tilbake
tilbakem
tilbakemelding
tilbakemeldinger
tilbehør
tilbud
tilbudet
tilby
tilbyr
tilbys
tildeling
tildelt
tilf
tilfeldig
tilfelle
tilfeller
tilfellet
tilfred
tilfredsst
tilfredsstill
tilgang
tilgjen
tilgjengel
tilgjengelig
tilgjengelige
tilgjengelighet
tilh
tilhør
tilhørende
tilhører
tilkn
tilknytning
tilknyttet
till
tillag
tillagg
tillagga
tillamp
tillampa
tillampar
tillampas
tillampliga
tillampning
tillampningen
tillat
tillata
tillate
tillatelse
tillaten
tillater
tillatet
tillatna
tillats
tillatt
tillb
tillbak
tillbaka
tillbaks
tillbehor
tillbring
tillbringa
tillbringade
tillbringar
tillbringat
tilldel
tilldelades
tilldelas
tilldelats
tillegg
tillfall
tillfalle
tillfallen
tillfallet
tillfallig
tillfalliga
tillfalligt
tillfor
tillfora
tillforlit
tillfrag
tillfreds
tillfredsstalla
tillfredsstallande
tillga
tillgang
tillgangar
tillgangen
tillganglig
tillgangliga
tillganglighet
tillgangligheten
tillgangligt
tillgod
tillgodos
tillgodose
tillh
tillhanda
tillhandahalla
tillhandahaller
tillhandahalls
tillhor
tillhora
tillhorande
tillhorde
tillhorighet
tillika
tillit
tillitsvalg
tillkann
tillkannag
tillkom
tillkommer
tillkommit
tillmote
tillmotes
tillrack
tillracklig
tillrackliga
tillrackligt
tills
tillsammans
tillsatser
tillsatt
tillsatta
tillskott
tillslut
tillstand
tillstandet
tillsvid
tillsvidare
tillsyn
tillt
tilltal
tilltalande
tilltalar
tilltrade
tillvag
tillvagagangssatt
tillval
tillvar
tillvara
tillvaro
tillvaron
tillvaxt
tillvaxten
tillverk
tillverka
tillverkad
tillverkade
tillverkades
tillverkar
tillverkare
tillverkaren
tillverkas
tillverkat
tillverkning
tillverkningen
tilnær
tilnærming
tilpas
tilpass
tilpasse
tilpasset
tilrettel
tils
tilskudd
tilst
tilstand
tilstede
tilstrek
tilstrekkelig
tilsvar
tilsvarende
tilsvarer
tilsyn
tilsynelat
tilt
tiltak
tiltakene
tiltaket
tiltre
tim
time
timer
times
timma
timmar
timmarna
timmars
timme
timmen
timmer
timmes
timra
tin
tina
tinder
ting
tingene
tings
tingsratt
tingsratten
tio
tionde
tiot
tiotal
tip
tipp
tips
tipsa
tipsar
tipsen
tipset
tir
tirsdag
tisdag
tisdagen
tisdags
tit
titan
titel
titeln
titlar
title
tits
titt
titta
tittade
tittar
tittare
tittat
tittel
tittelen
tj
tja
tjan
tjana
tjanar
tjanst
tjanste
tjanstem
tjansteman
tjansten
tjanster
tjansterna
tjanstgor
tjat
tje
tjeck
tjeckien
tjeckiska
tjej
tjejen
tjejer
tjejerna
tjen
tjene
tjener
tjenest
tjeneste
tjenesten
tjenestene
tjenester
tjo
tjock
tjocka
tjockare
tjocklek
tjockt
tju
tjug
tjugo
tjur
tjus
tjuv
tkr
tl
tm
to
toa
toal
toalett
toaletten
toaletter
tob
tobak
tobias
toda
today
tog
toget
togs
tok
tokig
tokyo
tol
toler
tolk
tolka
tolkar
tolkas
tolkning
tolkningar
toll
tolv
tom
tomas
tomat
tomater
tomm
tomma
tommy
tomt
tomte
tomten
tomter
ton
tonar
tonaren
tonaring
tonaringar
tonars
tone
tonen
toner
tonn
tont
tony
too
top
topp
toppa
toppar
toppen
tor
torbjorn
torde
tore
torg
torget
tork
torka
torkade
torkar
torkat
torkt
torktum
torn
tornet
toronto
torp
torr
torra
torraste
torrent
torrt
tors
torsdag
torsdagar
torsdagen
torsdags
torsk
torsten
tort
torv
tos
tot
total
totala
totale
totalt
touch
tour
tove
tower
town
tox
toy
toyota
tr
tra
track
trad
trada
tradar
tradde
trade
traden
trader
tradera
tradet
tradgard
tradgardar
tradgarden
tradgards
tradisjon
tradisjonell
tradisjonelle
tradisjonelt
tradisjoner
tradition
traditionell
traditionella
traditionellt
traditionen
traditioner
tradlos
tradlosa
tradlost
traf
traff
traffa
traffade
traffades
traffar
traffas
traffat
traffats
traffen
trafik
trafiken
trafikk
trafikken
trafikverket
trag
tragiskt
trail
trailer
trak
trakasser
trakasserier
trakig
trakiga
trakigt
trakk
trakt
trakten
traktor
tral
tram
tran
trana
tranade
tranar
tranare
tranaren
tranas
tranat
trang
tranga
tranger
trangsel
trangt
traning
traningar
traningen
tranings
traningsklader
traningspass
traningsvark
tranny
trans
transa
transaktion
transaktioner
transf
transfer
transform
transl
transp
transpar
transparent
transport
transporten
transporter
transportera
transporteras
trapp
trappa
trappan
trappor
tras
trasig
trasiga
trass
tratt
traum
trav
travel
tre
trea
tred
tredj
tredje
tredjedel
tredjepart
tree
treff
treffe
trek
trekant
trekk
trekke
trekker
trell
trelleborg
tren
trend
trenden
trender
trene
trener
treng
trenger
trengs
trengte
trening
trenings
trent
trer
trett
trettio
tretton
trev
trevlig
trevliga
trevligare
trevligt
tri
triang
trick
trig
trill
trilog
trim
trin
trinn
trio
tripad
tripadvisor
tripp
trist
trium
triv
trivas
trivdes
trives
trivs
trivsel
trix
tro
trodde
troende
trog
trogen
trogna
troja
trojan
trojor
trol
trolig
troligen
troligt
troligtvis
troll
trollhattan
trom
troms
tromsø
tron
trond
trondheim
trop
tropiskt
tror
tros
trosa
trosk
trosor
tross
trost
trot
trots
trott
trotta
trotthet
trottnar
trottnat
trovardig
trovardighet
tru
truck
true
trukket
trum
trummor
trump
trupp
truppen
trupper
trust
try
tryck
trycka
trycker
trycket
tryckt
tryckta
tryckte
tryg
trygg
trygga
tryggare
trygge
trygghet
tryggheten
tryggt
trygt
trykk
trykke
trykket
trær
trøn
trøndelag
ts
tsj
tsjekk
tsk
tt
tu
tub
tube
tuber
tuff
tuffa
tuffare
tufft
tugg
tugga
tul
tull
tulpan
tum
tumbl
tumblr
tummarna
tummen
tun
tung
tunga
tungan
tunge
tungt
tunis
tunn
tunna
tunnare
tunnel
tunnelban
tunnelbana
tunnelbanan
tunt
tupp
tur
turbo
turbul
turen
turer
turism
turist
turistattra
turister
turk
turkiet
turkiska
turn
turne
turner
turnering
turneringar
turneringen
tus
tusan
tusen
tusentals
tusenvis
tut
tuttar
tv
tv3
tv4
tva
tvaa
tvaan
tvahjartbladig
tval
tvang
tvangs
tvar
tvars
tvart
tvartom
tvas
tvatt
tvatta
tvattar
tvattas
tvattat
tvatten
tvattmaskin
tvattstugan
tvavinge
tvavingeart
tvek
tveka
tvekan
tveksam
tveksamt
tver
tverr
tvers
tvil
tvill
tvilling
tving
tvinga
tvingade
tvingades
tvingar
tvingas
tvingats
tvist
tviv
tvivel
tvivlar
tvn
tvungen
tvunget
tvungna
tw
twe
twil
twilight
twin
twist
twitter
two
ty
tyck
tycka
tyckas
tycke
tycker
tycks
tyckt
tyckte
tyd
tydelig
tyder
tydlig
tydliga
tydligare
tydligen
tydligt
tyg
tyger
tyget
tyn
tyng
tyngd
tyngre
tynn
typ
type
typen
typer
typisk
typiska
typiskt
tyr
tyres
tyreso
tyrk
tyrkia
tysk
tyska
tyske
tyskland
tysklands
tyst
tysta
tystnad
tyvarr
tø
tøff
tømmer
tøns
tønsberg
tør
tørr
tørre
tøy
uansett
uav
uavhengig
ub
ube
ubehag
uber
uc
ud
udda
udde
uddevalla
uen
uf
ufc
ufor
ug
ugg
ugn
ugnen
ugns
uh
uk
uka
uke
uken
ukene
uker
ukjent
ukra
ukraina
ukrainska
ul
ulem
ulf
ulik
ulike
ull
ulla
ullared
ulovlig
ulrika
ult
ultim
ultimata
ultimate
ultra
ultral
ultraljud
ulv
ulyk
um
ume
umea
umeas
umgang
umgange
umgas
umiddel
umiddelbart
umu
umulig
un
und
undan
undant
undantag
undantaget
under
underarter
underbar
underbara
underbart
underhall
underhalla
underhallande
underhallning
underholdning
underjord
underklader
underl
underlag
underlaget
underlagt
underlatt
underlatta
underlattar
underlever
underliggande
underligt
underratt
underrattelse
underskatt
underskott
undersok
undersoka
undersoker
undersokning
undersokningar
undersokningen
undersokt
underst
understod
understre
understreker
understry
undersø
undersøke
undersøkel
undersøkelse
undersøkelsen
undersøkelser
underteck
undertecknad
undertøy
underveis
underverk
undervis
undervisa
undervisning
undervisningen
undervisnings
undra
undrade
undrar
undre
undvik
undvika
undvikas
undviker
unes
ung
unga
ungar
ungarna
ungdom
ungdomar
ungdomarna
ungdommer
ungdoms
unge
ungefar
ungefarlig
ungen
ungene
unger
ungern
ungt
uni
unibet
unic
uniform
unik
unika
unike
unikt
union
unionen
unionens
united
univers
universal
universitet
universitetet
universitets
universitetssjuk
university
universum
unn
unna
unnga
unnt
unntak
unød
up
update
upp
uppat
uppbyggd
uppbyggnad
uppdat
uppdater
uppdatera
uppdaterad
uppdaterade
uppdaterar
uppdateras
uppdaterat
uppdatering
uppdateringar
uppdateringen
uppdel
uppdelad
uppdrag
uppdraget
uppdrags
uppdragsgivare
uppe
uppehall
uppehallstillstand
uppen
uppenbar
uppenbara
uppenbarligen
uppenbart
uppf
uppfatt
uppfattar
uppfattas
uppfattning
uppfattningar
uppfattningen
uppfin
uppfod
uppfodare
uppfolj
uppfoljare
uppfoljning
uppfor
uppforande
uppfordes
uppfost
uppfrisk
uppfriskande
uppfy
uppfyll
uppfylla
uppfyllda
uppfyller
uppga
uppgang
uppgar
uppgav
uppge
uppger
uppges
uppgick
uppgift
uppgiften
uppgifter
uppgifterna
uppgorelse
uppgra
uppgrader
uppgradera
upph
upphand
upphandling
upphav
upphor
upphora
upphorde
upphort
upphov
upphovsratt
uppkall
uppkommer
uppkommit
uppkopp
uppkopplad
uppl
upplag
upplaga
upplagan
upplagg
upplagget
uppland
upplands
upplat
upplev
uppleva
upplevas
upplevde
upplevelse
upplevelsen
upplevelser
upplever
upplevs
upplevt
upplosning
upply
upplys
upplysning
upplysningar
uppman
uppmanar
uppmaning
uppmark
uppmarksam
uppmarksamhet
uppmarksamm
uppmarksamma
uppmarksammade
uppmarksammar
uppmarksammas
uppmunt
uppmuntra
uppmuntrar
uppna
uppnar
uppnas
uppnatt
uppr
uppratt
uppratta
upprattas
uppratthalla
uppre
upprep
upprepa
upprepade
upprepas
upprikt
uppriktig
uppror
upprord
upps
uppsagning
uppsala
uppsats
uppsatta
uppsattning
uppsjo
uppsk
uppskatt
uppskatta
uppskattad
uppskattade
uppskattar
uppskattas
uppskattat
uppskattning
uppslag
uppst
uppsta
uppstar
uppstatt
uppstod
uppstroms
uppt
uppta
upptack
upptacka
upptacker
upptackt
upptackte
upptacktes
upptackts
upptag
upptagen
upptagna
upptrad
upptrada
upptrader
uppvarm
uppvarmning
uppvaxt
uppvisa
uppvisar
uppvuxen
ups
ur
uran
urban
urin
url
uro
ursa
ursakt
ursakta
urspr
ursprung
ursprungliga
ursprungligen
urval
urvalet
us
usa
usas
usb
usch
usd
use
used
user
usikker
ut
utan
utanfor
utanforskap
utarbe
utarbeide
utarbeidet
utarbet
utat
utav
utb
utbetal
utbetalning
utbetalningar
utbild
utbilda
utbildad
utbildade
utbildar
utbildning
utbildningar
utbildningen
utbildnings
utbr
utbred
utbredelse
utbredning
utbredningsomrade
utbredt
utbrott
utbud
utbudet
utby
utbygg
utbygging
utbyggnad
utbyte
utd
utdan
utdannelse
utdannet
utdanning
utdannings
utdel
utdelning
utdrag
ute
utebl
utefter
utel
uteluk
utem
uten
utendørs
utenfor
utenland
utenlandske
utenom
utenrik
uteplats
uter
uteserver
utesl
uteslut
utesluta
uteslutande
utfall
utfallet
utfar
utfard
utflykt
utflykter
utfor
utfora
utforande
utforas
utford
utforda
utforde
utfordes
utfordr
utfordrende
utfordring
utfordringene
utfordringer
utform
utforma
utformad
utformade
utformas
utformat
utforming
utformning
utformningen
utfors
utforska
utforske
utfort
utforts
utfyll
utfør
utføre
utfører
utføres
utført
utg
utga
utgaende
utgang
utgangen
utgangsp
utgangspun
utgangspunkt
utgangspunkten
utgangspunktet
utgar
utgatt
utgava
utgave
utgaven
utgift
utgifter
utgitt
utgiv
utgivare
utgiven
utgjorde
utgjør
utgor
utgora
utgors
utgrav
uthall
uthallighet
uthyr
uthyrning
uti
utifran
util
utk
utkanten
utkast
utkik
utkom
utl
utlam
utlan
utland
utlandet
utlandsk
utlandska
utlaning
utlanings
utlaningsprodukter
utlopp
utlov
utlø
utman
utmana
utmanande
utmanar
utmaning
utmaningar
utmaningen
utmar
utmark
utmarkelsen
utmarkelser
utmarker
utmarkt
utmarkta
utmatt
utmed
utmer
utmerket
utnamn
utnevnt
utnytt
utnytte
utnyttj
utnyttja
utnyttjande
utnyttjar
utnyttjas
utok
utoka
utokad
utokade
utokat
utom
utomhus
utomlands
utomord
utomstaende
utov
utova
utovar
utover
utpek
utr
utred
utreda
utredning
utredningar
utredningen
utrednings
utrikes
utrikesminister
utro
utrolig
utrop
utrot
utru
utrust
utrustad
utrustade
utrustat
utrustning
utrustningen
utrym
utrymme
utrymmen
utrymmet
uts
utsag
utsags
utsatt
utsatta
utsatts
utse
utsedd
utseende
utseendet
utser
utses
utsett
utsetts
utsidan
utsikt
utsikten
utskick
utskott
utskottet
utskrift
utsl
utslag
utslapp
utslappen
utslipp
utsm
utsmyck
utsokt
utsp
utspel
utspelar
utst
utstall
utstallare
utstallning
utstallningar
utstallningen
utstallnings
utstilling
utstillingen
utstra
utstrackning
utstyr
utstyret
utstyrt
utt
uttag
uttal
uttala
uttalade
uttalande
uttalanden
uttalat
uttr
uttrak
uttryck
uttrycka
uttrycker
uttrycket
uttryckt
uttryckte
uttrykk
utv
utval
utvalda
utvalg
utvalget
utvalgte
utvand
utvar
utvardera
utvardering
utveck
utveckla
utvecklad
utvecklade
utvecklades
utvecklande
utvecklar
utvecklare
utvecklas
utvecklat
utvecklats
utveckling
utvecklingen
utvecklings
utvecklingsarbete
utvek
utvid
utvide
utvidet
utvik
utvikle
utvikler
utvikles
utviklet
utvikling
utviklingen
utvil
utvisning
utø
utøver
utøvere
uv
uvanlig
v75
va
vaccin
vaccination
vack
vacka
vacker
vackert
vackra
vackraste
vackt
vackte
vad
vada
vader
vadret
vag
vaga
vagade
vagar
vagarna
vagat
vagbeskrivning
vagde
vagen
vager
vagg
vaggar
vaggarna
vaggen
vagina
vaglangd
vagled
vagledning
vagn
vagnar
vagnen
vagor
vagrade
vagrar
vak
vaken
vakker
vakkert
vakna
vaknade
vaknar
vaknat
vakre
vakt
vaku
val
valbef
valbefinnande
valbehov
valbered
valberedningen
valborg
vald
valda
valde
valdes
valdet
valdig
valdigt
valdsamma
valdtakt
valen
valent
valet
valfar
valfard
valfarden
valfards
valfri
valfrihet
valfritt
valg
valget
valgor
valgorande
valgorenhet
valgt
valgte
valj
valja
valjare
valjarna
valjas
valjer
valjs
valk
valkand
valkanda
valkom
valkommen
valkomna
valkomnande
valkomnar
valkomst
valkomstbonus
vall
vallentuna
valley
valling
valma
valmaende
valp
valpar
valparna
valpen
vals
valskott
valt
valut
valuta
vamp
vampyr
van
vana
vand
vanda
vande
vander
vandra
vandrade
vandrar
vandrarhem
vandring
vaner
vanersborg
vanilj
vaning
vaningar
vaningen
vanja
vank
vanlig
vanliga
vanligare
vanligast
vanligaste
vanlige
vanligen
vanligste
vanligt
vanligtvis
vanligvis
vann
vannen
vanner
vannerna
vannet
vanor
vans
vansinn
vansinnigt
vansk
vanskap
vanskelig
vanskelige
vanskeligere
vanster
vanstern
vansterpartiet
vanstra
vant
vanta
vantade
vantan
vantar
vantas
vantat
vap
vapen
var
vara
varade
varan
varandra
varandras
varann
varannan
varar
varas
varat
varav
varberg
vard
varda
vardag
vardagar
vardagen
vardagliga
vardags
vardagsrum
vardagsrummet
vardar
vardcentral
vardcentralen
varde
vardefull
vardefulla
vardefullt
vardegrund
vardel
vardelos
varden
vardena
vardenafil
vardepapper
vardera
varderas
vardering
varderingar
vardet
vardgivare
vardnad
vardnadshavare
vare
varefter
varelser
varen
varenda
varens
varer
varfor
varg
vari
varia
variabel
variabler
variant
varianten
varianter
variasjon
variation
variationer
varier
variera
varierad
varierande
varierar
varierat
variere
varierer
varifran
varit
varje
vark
varken
varl
varld
varldar
varlden
varldens
varlds
varldsc
varldsklass
varldskriget
varldsledande
varm
varma
varmande
varmare
varmaste
varmdo
varme
varmek
varmen
varmepum
varmepump
varmer
varmland
varmlands
varmt
varmvatten
varn
varna
varnamo
varnar
varning
varnplikt
varor
varorna
varpa
varre
vars
varsel
varsin
varslet
varst
varsta
vart
vartannat
varte
varu
varuk
varum
varumark
varumarke
varumarken
varumarkes
varumarket
varv
varva
varvet
varvid
vas
vasa
vasal
vasby
vasen
vasent
vasentlig
vasentliga
vasentligt
vask
vaska
vaskan
vaskor
vass
vassa
vast
vaster
vasteras
vasterbotten
vasterbottens
vastergotland
vasterlandska
vastern
vasternorr
vasternorrland
vasterut
vastervik
vastkusten
vastlig
vastmanland
vastra
vastt
vat
vata
vatska
vatskan
vatske
vatt
vatten
vattendrag
vattenfall
vattenkraft
vattens
vattent
vattenytor
vattern
vattnet
vav
vax
vaxa
vaxande
vaxel
vaxell
vaxer
vaxjo
vaxla
vaxlar
vaxt
vaxtart
vaxte
vaxter
vaxterna
vaxthus
vaxtlighet
vd
ve
veck
vecka
veckan
veckans
veckas
veckor
veckorna
veckors
ved
veder
vedkommende
vedlegg
vedlike
vedlikehold
vedr
vedrørende
vedtak
vedtaket
vedtatt
vedtok
veg
vegan
vegas
veget
vegeta
vegetabil
vegetar
vegetari
vegetarianer
vegetarisk
vegg
veggen
vegne
vei
veien
veier
veiled
veileder
veiledning
vek
vekk
vekst
vekt
vel
velat
veldig
velferd
velg
velge
velger
velkommen
vell
vellykket
velvære
vem
ven
vend
vende
vene
venedig
venn
venner
vennlig
vennskap
venstre
vent
vente
venter
ventet
ventil
ventilation
ver
vera
verb
verd
verden
verdens
verdenskrig
verdi
verdien
verdier
verdif
verdt
vere
verifiera
verk
verka
verkade
verkan
verkar
verken
verket
verklig
verkliga
verkligen
verklighet
verkligheten
verkligt
verksam
verksamhet
verksamheten
verksamhetens
verksamheter
verksamheterna
verksamhets
verksamhetschef
verksamma
verkstad
verkstall
verkstallande
verkt
verktyg
verktygen
verktyget
verktøy
vern
verne
veron
veronica
verre
vers
versa
version
versionen
versioner
versjon
versjonen
verste
vert
vertik
very
ves
vesentlig
vest
vestfold
vestlige
vet
veta
vetat
vete
vetemjol
vetenskap
vetenskapen
vetenskaplig
vetenskapliga
vetenskapligt
veter
veteran
veterin
veterinar
veterinaren
vetlanda
vett
vettig
vettigt
vev
vg
vi
via
viagra
vib
vibr
vibrat
vibrator
vice
victor
victoria
vid
vida
vidar
vidare
vidareutveck
vide
video
videoen
videoer
videok
videoklipp
videon
videop
videopoker
videor
videos
videospel
vider
videre
videref
videregaende
videreutvik
vidt
vidta
vidtas
viet
vietnam
view
vig
vigg
vigsel
vik
vika
vikar
viken
viker
viking
vikt
vikten
vikter
viktig
viktiga
viktigare
viktigast
viktigaste
viktige
viktigere
viktigste
viktigt
viktminskning
viktor
viktoria
vil
vila
vilar
vild
vilda
vilhelm
vilja
viljan
vilje
vilka
vilkar
vilkarene
vilken
vilket
vill
villa
village
villan
ville
villig
villiga
villkor
villkoren
villor
vilse
vilsel
vilt
vim
vimmer
vimmerby
vin
vincent
vind
vindar
vinden
vindkraft
vindkraftverk
vindu
viner
vinet
ving
vingar
vingard
vinkel
vinklar
vinn
vinna
vinnande
vinnar
vinnare
vinnaren
vinnarna
vinne
vinner
vinst
vinsten
vinster
vinsterna
vint
vintage
vinter
vinterdack
vinteren
vintern
vintertid
vinyl
viol
vip
vips
vir
virgin
virginia
virk
virka
virke
virkel
virkelig
virkelige
virkeligheten
virker
virket
virkning
virksom
virksomhet
virksomheten
virksomheter
virt
virtual
virtuell
virtuella
virus
viruset
vis
visa
visade
visades
visar
visas
visat
visats
visby
visdom
vise
viser
vises
viset
vision
visionen
visioner
visit
visjon
visning
visningar
visp
vispa
viss
vissa
visse
visserligen
visst
visste
vist
vista
vistas
viste
vistelse
visu
visuell
visum
vit
vita
vital
vitamin
vitaminer
vite
viten
vitenskap
vitenskapelig
vitlok
vitr
vits
vitt
vittna
vittnar
vittnen
vittnes
viv
vivan
vivanza
vl
vlad
vladimir
vm
vo
vod
vog
vok
vokse
voksen
vokser
voksne
vokst
vokste
vol
vold
volks
volksw
volkswagen
voll
volley
volont
volontar
volt
volum
volvo
volym
volymen
volymer
von
vond
vondt
vor
vore
vov
voyeur
vp
vr
vra
vred
vri
vrid
vrida
vrider
vs
vt
vu
vul
vulkan
vunnet
vunnit
vur
vurder
vurdere
vurderer
vurderes
vurdering
vurderinger
vurdert
vux
vuxen
vuxit
vuxna
vvs
vy
vyer
vyk
vykort
væ
vær
være
været
vært
wa
wadi
wahl
wal
wales
walk
walker
wall
wallen
walter
want
war
wars
was
wash
washington
wat
watch
water
watt
way
wc
we
web
webb
webbas
webben
webbhotell
webbkamera
webblas
webblasare
webblasaren
webbpl
webbplats
webbplatsen
webbplatser
webbshop
webbsida
webbsidan
webbsidor
webcam
webs
webshop
website
week
weekend
wel
welcome
well
wen
wer
were
west
wester
western
wet
wh
what
whe
when
where
which
whisk
whisky
white
who
why
wi
wid
wide
widoczny
wien
wifi
wii
wik
wiki
wikip
wikipedia
wil
wild
wilhelm
will
william
williams
wilma
wilson
win
wind
windows
winter
wir
wis
with
wo
wol
wolf
woman
women
wonder
wood
wor
word
wordpress
work
works
workshop
workshops
world
would
wow
ww
www
xbox
xd
xen
xhamster
xi
xl
xn
xnxx
xp
xvideos
xx
xxl
xxx
ya
yah
yahoo
yang
ye
year
years
yes
yl
ylva
yn
yng
yngre
yngsta
yngste
yo
yog
yoga
yoghurt
york
you
young
your
yout
youtube
ypper
yr
yrk
yrke
yrken
yrkes
yrkesutbildningar
yrket
ystad
yt
yta
ytan
ytor
ytre
ytt
ytter
ytterlig
ytterligare
ytterligere
ytterst
yttersta
yttrande
yttrandefrihet
yttre
za
zag
zaland
zalando
zalog
zalogowanych
zam
zar
zara
ze
zealand
zeeland
zel
zen
zero
zetter
zie
ziehen
zim
zink
zlat
zlatan
zo
zomb
zombie
zon
zoo
zoom
zoosk
zu
zum
zur
°c
ær
ære
ærlig
ødel
ødelagt
øk
øke
økende
øker
økning
økonom
økonomi
økonomisk
økonomiske
økt
økte
øl
øn
ønsk
ønske
ønsker
ønsket
ør
øre
øst
øster
østfold
øv
øvelser
øver
øverst
øverste
øvre
øvrig
øvrige
øy
øya
øye
øyebl
øyeblikk
øyeblikket
øyne
øynene
на
пр
ال
کوه
##0
##00
##000
##01
##1
##10
##100
##11
##12
##13
##14
##15
##16
##17
##18
##19
##2
##20
##200
##21
##22
##23
##24
##25
##26
##27
##28
##29
##3
##30
##31
##32
##33
##34
##35
##36
##37
##38
##39
##4
##40
##41
##42
##43
##44
##45
##46
##47
##48
##49
##5
##50
##500
##55
##6
##60
##61
##62
##63
##64
##65
##66
##67
##68
##69
##7
##70
##71
##72
##73
##75
##77
##79
##8
##80
##83
##85
##86
##87
##88
##89
##9
##90
##95
##99
##a
##aa
##aaa
##aaaa
##ab
##ac
##ace
##ach
##ack
##acka
##acker
##ad
##ada
##adan
##add
##adde
##addy
##ade
##adel
##adels
##adem
##ademien
##aden
##ader
##ades
##adet
##adi
##ading
##administ
##ado
##ador
##adress
##ads
##ae
##af
##afil
##ag
##aga
##agan
##agande
##aganden
##agangs
##agangssatt
##agar
##agare
##agaren
##agarens
##agarna
##agasin
##agasinet
##agatan
##agaz
##agd
##agda
##age
##agen
##agenhet
##ager
##agerar
##ages
##aget
##agg
##agga
##aggande
##agget
##aggning
##agn
##agna
##agne
##agner
##agnet
##agning
##agningen
##ago
##agon
##agor
##agra
##agram
##ags
##agt
##ague
##ah
##ai
##ak
##aka
##akade
##akan
##akar
##akare
##akat
##ake
##aken
##aker
##akere
##akers
##akes
##aket
##aki
##akim
##akk
##akning
##akningen
##akon
##akor
##aks
##aksjon
##aksjoner
##akt
##aktig
##aktiv
##aktiva
##aktiver
##aktivitet
##aktiviteter
##aktivt
##aktor
##aktorer
##aktt
##aku
##al
##ala
##alafil
##alag
##alan
##aland
##alar
##alas
##album
##albumet
##ald
##alden
##alder
##alderen
##aldern
##aldigt
##aldo
##aldr
##alds
##aldt
##ale
##alem
##alen
##alender
##alens
##aler
##alerna
##ales
##alet
##alg
##algi
##ali
##alia
##alin
##aling
##alis
##alisera
##aliserad
##aliserade
##aliseras
##alisere
##alisering
##aliseringen
##alisert
##alism
##alismen
##alist
##alistisk
##alistiska
##alitet
##aliteten
##alj
##aljer
##alk
##alken
##all
##alla
##allar
##alle
##allen
##aller
##allet
##allor
##alls
##allt
##ally
##alo
##alog
##als
##also
##alt
##altar
##alte
##alten
##alternativ
##altet
##alth
##alus
##alv
##alven
##am
##ama
##amal
##aman
##amar
##amatch
##amd
##ame
##amen
##ament
##amer
##amerika
##amerikanska
##amet
##ami
##amin
##aminer
##amm
##amma
##ammad
##ammar
##ammare
##ammation
##ammer
##amn
##amnande
##amnar
##amnden
##amne
##amnen
##amo
##amot
##amoter
##amp
##ampa
##ampar
##ampen
##ampning
##ampo
##ampor
##ams
##amt
##an
##ana
##anal
##analys
##analyser
##anan
##anas
##anc
##ance
##and
##anda
##andan
##andare
##ande
##andel
##andelar
##andelen
##andelse
##anden
##andena
##ander
##anderatt
##anders
##andes
##andet
##andets
##andid
##andning
##ando
##andra
##andrag
##andras
##andre
##andring
##andringar
##ands
##ane
##anen
##aner
##anes
##ang
##anga
##angar
##angare
##angd
##angden
##ange
##angel
##angen
##anger
##angest
##angs
##angt
##ani
##ania
##anien
##aning
##anis
##anism
##anj
##anjer
##ank
##ankande
##ankar
##anke
##anken
##anlaggning
##anlaggningar
##anlegg
##anmal
##anmalan
##anmark
##ann
##anna
##annan
##annande
##annat
##anne
##annelse
##annen
##anner
##annes
##annet
##annonser
##anns
##annsyn
##ano
##anol
##anor
##anpass
##anpassa
##anpassade
##ans
##ansch
##anse
##ansen
##anser
##anserna
##ansett
##ansk
##anska
##anske
##anslutning
##ansokan
##ansvar
##ansvard
##ansvarda
##ansvaret
##ansvarig
##ansvariga
##ansvarlig
##ansvart
##ant
##anta
##antal
##antalet
##antan
##antar
##ante
##anten
##anter
##antering
##anterna
##antik
##anting
##antor
##antorer
##ants
##anvand
##anvandare
##anvandning
##anvisning
##any
##anza
##ap
##ape
##apest
##apital
##app
##appar
##ar
##ara
##arab
##arar
##arare
##arat
##arbe
##arbeid
##arbeide
##arbeider
##arbeidet
##arbet
##arbetare
##arbete
##arbeten
##arbetet
##arch
##ard
##arden
##arder
##ards
##are
##area
##areal
##ared
##aren
##arena
##arenden
##arens
##arer
##arerna
##ares
##aret
##arets
##arg
##ari
##aria
##arie
##arig
##ariga
##arige
##arin
##arina
##aring
##aringen
##arium
##ark
##arka
##arke
##arken
##arker
##arkite
##arkitekt
##arkiv
##arkivet
##arl
##arm
##arma
##armad
##armen
##armer
##arn
##arna
##arnas
##arning
##aro
##arp
##arrang
##arrangemang
##ars
##art
##arta
##artad
##artade
##artan
##artat
##arten
##arter
##arth
##artik
##artikel
##artiklar
##artist
##artor
##arts
##arv
##ary
##as
##asa
##asar
##asc
##ascript
##ase
##asen
##aser
##ash
##ashion
##asi
##asin
##asing
##asinon
##asj
##asje
##asjen
##asjer
##asjon
##asjonen
##asjonene
##asjoner
##asjons
##ason
##asongen
##ass
##assa
##assage
##assan
##assans
##asse
##assen
##asser
##assiga
##assigt
##assist
##assistent
##asso
##ast
##asta
##astad
##astaende
##aste
##asten
##aster
##astning
##astro
##asy
##asyster
##at
##ata
##atal
##atan
##atar
##atch
##ate
##ated
##atelse
##aten
##atene
##ater
##atera
##aterade
##aterial
##atern
##aterna
##ates
##atet
##atets
##atgarder
##ath
##athan
##ather
##athl
##athon
##ati
##atik
##atin
##ating
##ation
##ationen
##ationer
##ationerna
##ations
##atis
##atisering
##atisk
##atiska
##atiske
##atiskt
##ativ
##ativa
##ative
##ativt
##atning
##ato
##aton
##ator
##atoren
##atorer
##atorerna
##atoriet
##atoriska
##atorn
##ators
##atra
##atre
##ats
##atsas
##atsen
##atser
##att
##atta
##attack
##attan
##atte
##atten
##atter
##attra
##atts
##atum
##atur
##aturen
##atus
##au
##auf
##auffor
##aufforen
##autom
##aux
##av
##avagen
##avan
##avdelning
##avdelningen
##avdrag
##ave
##avfall
##avgift
##avgiften
##avgifter
##avling
##avn
##avstand
##avtal
##avtalet
##awa
##ax
##ay
##b
##ba
##bab
##bach
##back
##backa
##backen
##backs
##bad
##badd
##badet
##bag
##bagar
##bage
##bagen
##bagg
##baggar
##bai
##bak
##bakken
##bal
##ball
##ban
##bana
##banan
##band
##banden
##bandet
##bane
##banen
##bang
##bank
##banken
##banker
##banor
##bar
##bara
##barande
##barare
##barber
##bard
##bare
##baren
##barhet
##barn
##barnen
##barnet
##barns
##bart
##bas
##basen
##baserad
##baserade
##baserat
##basert
##baserte
##bat
##batar
##baten
##batt
##batten
##bay
##bb
##bba
##bbar
##bbe
##bbel
##bben
##bber
##bby
##be
##bec
##becca
##beck
##bed
##bedom
##bedomning
##bef
##befolk
##befolkad
##befolkat
##befolkningen
##beg
##behand
##behandling
##behandlingar
##behandlingen
##behor
##behov
##behovet
##behør
##beid
##beide
##beider
##bek
##bel
##bell
##bella
##belle
##beller
##belopp
##beloppet
##bels
##belt
##belysning
##ben
##benen
##benet
##bens
##bent
##ber
##beratt
##berattelse
##berattelser
##berattig
##bered
##berg
##berga
##bergen
##berget
##bergs
##beroende
##berry
##bers
##bert
##berts
##bes
##besikt
##besked
##beskriv
##beskrivning
##beskrivningar
##beslut
##besok
##bespar
##best
##bestall
##bestamm
##bestand
##besvar
##bet
##betal
##betala
##betalda
##betaling
##betalning
##betalningar
##betalt
##bete
##beteck
##betet
##beth
##beting
##betyg
##bev
##bevar
##beveg
##bevis
##bi
##bia
##bibli
##bibliotek
##biblioteket
##bid
##bidrag
##bie
##bil
##bilar
##bild
##bilda
##bilde
##bilden
##bilder
##bildet
##bildning
##bildningar
##bildningen
##bile
##bilen
##biler
##bileum
##biliter
##bilitet
##bility
##bilj
##biljett
##biljetter
##bill
##bin
##bind
##bir
##bis
##biskop
##bit
##bitar
##biten
##bjorn
##bjud
##bjudande
##bjudanden
##bjørn
##bl
##bla
##blad
##bladen
##bladet
##bladets
##bladig
##bland
##blandning
##blandningen
##blank
##blar
##blas
##blast
##blatt
##ble
##blem
##bler
##bles
##blet
##bletter
##bli
##blick
##blikk
##blin
##bling
##blo
##block
##blod
##blog
##blogg
##bloggar
##bloggen
##blom
##blomm
##blommor
##bo
##board
##bock
##bocker
##bockerna
##bod
##boda
##boende
##boenden
##boj
##bok
##boka
##boken
##boks
##bol
##bolag
##bolagen
##bolaget
##boll
##bollar
##bom
##bon
##bonat
##bonus
##book
##bor
##bord
##borden
##bordet
##bords
##borg
##borgs
##borj
##born
##borna
##borste
##bos
##bost
##bostad
##bostader
##bostadshus
##bot
##bott
##botten
##bottens
##bour
##bourne
##bow
##box
##boy
##br
##bra
##brad
##brada
##bran
##brand
##branschen
##bransjen
##bransle
##bre
##bred
##bredd
##brett
##brev
##bri
##brid
##bridge
##brikk
##bring
##bris
##brist
##bro
##brod
##bron
##bror
##brott
##bru
##brudd
##bruk
##bruket
##bruks
##brun
##brunn
##brygg
##bryn
##bryt
##brytande
##brytare
##bs
##bt
##bu
##bud
##budet
##budget
##budsj
##buffe
##buk
##bul
##bull
##bullar
##bum
##bun
##bund
##bunden
##bundet
##bundna
##bur
##buren
##burg
##burit
##burst
##bury
##bus
##busjon
##buss
##but
##butik
##butiken
##butiker
##butikk
##butikken
##by
##byen
##byg
##bygd
##bygg
##byggd
##byggda
##bygge
##bygget
##bygging
##byggnad
##byggnaden
##byggnader
##byggt
##byn
##byr
##byra
##byran
##bys
##byte
##byten
##byxor
##bø
##bøker
##bør
##c
##ca
##cafe
##cake
##cakes
##cal
##call
##cam
##camp
##can
##cancer
##car
##card
##care
##cas
##casin
##casino
##casinon
##cast
##cat
##cation
##cc
##ccin
##cco
##ce
##ceae
##ced
##cel
##cell
##celler
##cen
##cent
##center
##centr
##central
##centralen
##centraler
##centret
##centrum
##cep
##ceph
##cept
##ception
##cer
##cerades
##cerande
##cerats
##cernen
##cers
##cert
##ces
##cess
##cessen
##cesser
##cet
##ch
##cha
##chal
##chan
##char
##chat
##chatt
##che
##check
##chef
##chefen
##chel
##chen
##cher
##ches
##chester
##chf
##chi
##chin
##cho
##chs
##cht
##chus
##chy
##ci
##cia
##cial
##cialist
##cier
##cif
##cil
##cin
##cing
##cio
##cion
##cipl
##cir
##circa
##cirkel
##cirkul
##cis
##cit
##cium
##ck
##cka
##ckan
##ckande
##ckar
##ckare
##cke
##cken
##cker
##cket
##ckit
##ckning
##ckor
##cks
##ckt
##cl
##cle
##cm
##co
##coach
##cock
##col
##com
##come
##con
##cons
##cont
##core
##corn
##cos
##cot
##count
##craft
##cre
##cs
##ct
##cta
##cted
##ctic
##ction
##ctive
##ctor
##cts
##cu
##cul
##cup
##cupen
##cus
##cy
##cykel
##cykl
##cyklar
##cz
##d
##da
##dack
##dad
##dag
##dagar
##dagarna
##dagen
##dagens
##dags
##dahl
##dal
##dalen
##dals
##dam
##damp
##dan
##dans
##dar
##das
##dat
##data
##date
##dater
##dating
##dato
##datter
##datum
##dav
##day
##db
##dd
##dde
##de
##debatt
##debatten
##dec
##dedel
##deg
##dejt
##dejta
##dejting
##dekk
##deklar
##deklaration
##dekor
##del
##dela
##delag
##delar
##delarna
##delen
##deler
##deles
##delig
##delige
##deling
##delingen
##dell
##delning
##delningar
##delningen
##dels
##delse
##delsen
##delser
##delt
##deltag
##dem
##demokrat
##demokrater
##den
##dende
##dene
##dens
##denter
##departementet
##der
##dera
##derad
##derade
##derar
##deras
##derat
##dere
##deren
##dering
##deringar
##deringen
##derings
##derlig
##dern
##derna
##ders
##des
##desig
##design
##designer
##desordning
##det
##detaljer
##dex
##df
##di
##die
##dig
##dige
##dikt
##ding
##dinge
##direkt
##direktor
##dis
##disk
##djur
##djursart
##dl
##do
##dog
##dokument
##dom
##domar
##domen
##domet
##dommer
##domstol
##domstolen
##don
##dor
##dorr
##dorrar
##dorren
##dotter
##dr
##dra
##drag
##dragen
##draget
##drakt
##drar
##dras
##drat
##dre
##dren
##drene
##drer
##dres
##dress
##dret
##drett
##drift
##dring
##dringar
##dringen
##dringer
##driv
##driven
##drivna
##dro
##drom
##ds
##dsel
##dt
##du
##dubb
##duk
##dukar
##duken
##dus
##dy
##dyn
##dyr
##e
##ea
##eb
##eback
##ebel
##ebo
##ebok
##eborg
##ebr
##ebra
##ebror
##eby
##ebygg
##ebyggande
##ec
##eck
##ecken
##ect
##ection
##ed
##eda
##edag
##edagen
##edagog
##edal
##edalen
##edan
##edare
##edd
##edda
##edde
##ede
##edel
##edelig
##edem
##eden
##eder
##ederbord
##edes
##edet
##edi
##edia
##edig
##edighet
##edin
##edjur
##edlar
##edlem
##edning
##edo
##edom
##edomning
##edon
##eds
##edt
##edy
##edyr
##ee
##eeee
##een
##eep
##ef
##efa
##efall
##effekt
##efil
##efon
##efte
##eftea
##eg
##ega
##egaende
##egang
##egangen
##egard
##egarden
##egas
##egatan
##ege
##egen
##egenskaper
##eger
##egg
##egge
##egger
##egging
##egj
##egler
##egn
##egnet
##ego
##egor
##egr
##egro
##egron
##egrupp
##egu
##eh
##ei
##ej
##ek
##eka
##ekan
##ekar
##ekj
##ekk
##eklass
##ekn
##eknik
##ekom
##ekon
##ekonom
##ekonomi
##ekont
##ekort
##ekostnader
##ekraft
##ekret
##ekreterare
##ekretær
##eks
##eksjon
##eksjoner
##ekt
##ekte
##ektion
##ektionen
##ektioner
##ektiv
##ektiva
##ektive
##ektor
##ektoren
##ektorn
##ekul
##ekv
##ekyl
##el
##ela
##elag
##elagen
##elaget
##eland
##elat
##eld
##elden
##eldig
##elding
##eldingen
##eldinger
##eldt
##ele
##eled
##eleder
##elefon
##eleg
##elekt
##elektron
##element
##elen
##eler
##eles
##elet
##elett
##elever
##eli
##elia
##elie
##elig
##eliga
##elige
##elighet
##eligt
##elin
##eling
##elius
##eliv
##ell
##ella
##ellack
##ellan
##elle
##ellen
##eller
##ellet
##elli
##ello
##ellom
##ells
##ellt
##elly
##eln
##elo
##elos
##eloven
##els
##else
##elsen
##elsene
##elsens
##elser
##elserna
##elses
##elsest
##elset
##elt
##elu
##elv
##elva
##ely
##em
##ema
##emal
##emala
##eman
##emang
##emann
##emar
##emark
##emaskin
##emat
##ember
##eme
##emed
##emedel
##emedlem
##emellan
##emen
##ement
##emente
##ementen
##ementer
##ementet
##emer
##emester
##emet
##emi
##emid
##emiddel
##emidler
##emin
##emjol
##emm
##emo
##emon
##emor
##emot
##emote
##empel
##empl
##emt
##emus
##emy
##en
##ena
##ence
##end
##enda
##endal
##ende
##endel
##enden
##ender
##endet
##endig
##endige
##ending
##endo
##endt
##endørs
##ene
##ener
##energi
##enes
##enfor
##eng
##enge
##enget
##engt
##enhet
##enheter
##enn
##enne
##ennelse
##ennende
##enner
##ennes
##ennis
##ennom
##enny
##ens
##ense
##ensen
##enser
##enset
##ension
##ensioner
##ensis
##ensjon
##enskap
##ent
##enta
##ental
##entals
##entar
##ente
##enten
##entene
##enter
##enterna
##entes
##entet
##entets
##ential
##enting
##ention
##entlig
##entlige
##entligt
##entr
##entralen
##entre
##entrepren
##ents
##entuna
##entusi
##entyr
##eo
##eon
##ep
##er
##era
##erad
##erade
##erades
##erande
##erapeut
##erapi
##erar
##eras
##erat
##erats
##eratur
##eraturen
##erav
##ere
##eren
##erende
##erer
##eres
##erext
##ergi
##eri
##erie
##erier
##ering
##eringar
##eringen
##eringer
##erings
##erligen
##ern
##erna
##ernas
##erne
##ero
##eron
##ers
##ert
##erte
##ertid
##erto
##ery
##es
##esc
##escort
##ese
##esel
##esen
##esenter
##eser
##esex
##esh
##esi
##esis
##esjon
##eslag
##esn
##esome
##esp
##espill
##espiller
##ess
##essa
##essan
##esse
##essen
##esser
##essig
##essige
##ession
##esson
##essor
##est
##esta
##estad
##estaende
##estall
##estaur
##este
##ested
##esten
##estene
##ester
##estr
##estrøm
##estyr
##esultat
##esund
##esystem
##et
##eta
##etabl
##etag
##etar
##etaten
##etch
##ete
##eten
##eter
##eth
##ethe
##etid
##etiden
##etik
##etil
##etning
##etr
##ets
##ett
##etta
##ettan
##ette
##etten
##etter
##ettere
##ettet
##etti
##ettig
##etting
##etts
##etty
##etøy
##eum
##eus
##ev
##eval
##eve
##evel
##even
##ever
##everket
##evi
##evik
##evin
##evis
##evær
##ew
##ex
##examen
##exempel
##exper
##ext
##ey
##ez
##f
##fa
##fab
##fabrik
##fabriken
##fack
##fag
##fagel
##faglar
##faglig
##fakt
##faktor
##faktorer
##fal
##fall
##falla
##fallande
##falle
##fallen
##faller
##fallet
##falt
##faltet
##fam
##famil
##familien
##familj
##familjen
##familjer
##fan
##fang
##far
##fara
##farande
##fard
##fardig
##faren
##farenhet
##farg
##fargad
##fargade
##fargat
##fargen
##farger
##fargkoden
##fari
##farlig
##farliga
##fart
##farten
##fartyg
##fas
##fasen
##fast
##faste
##fat
##fatt
##fattning
##fav
##fe
##feber
##fect
##fekt
##fektion
##fel
##feld
##feldt
##fell
##feller
##felt
##feltet
##fem
##fen
##fer
##ferd
##ferdig
##ferds
##ferens
##fest
##festen
##festival
##festivalen
##fet
##fett
##ff
##ffa
##ffan
##ffar
##ffaren
##ffarer
##ffe
##ffekt
##ffekter
##ffektiv
##ffel
##ffen
##ffer
##ffet
##ffin
##fflor
##ffs
##fft
##fi
##fiber
##ficka
##fickor
##field
##fig
##figur
##figurer
##fik
##fiken
##fikk
##fil
##file
##filen
##filer
##film
##filmen
##filmer
##filosof
##filt
##filter
##filtr
##fin
##fina
##final
##finalen
##finans
##finansiering
##fing
##fint
##fir
##firande
##firma
##firmor
##fisk
##fiskar
##fiske
##fit
##fix
##fj
##fjar
##fjarilar
##fjell
##fjord
##fjorden
##fl
##fla
##flaska
##flaskor
##flicka
##flickor
##flikt
##flix
##flo
##flode
##floden
##flodet
##flugor
##fly
##flyg
##flykt
##flykter
##flyn
##flyt
##flytt
##flyttning
##fo
##fod
##fodd
##fodda
##foder
##fodral
##fog
##fokus
##fol
##fold
##folj
##folja
##foljande
##foljd
##foljer
##folk
##folket
##fon
##fond
##fonden
##fonder
##fonster
##food
##for
##fora
##foral
##foraldrar
##forande
##forandring
##forandringar
##forare
##forbin
##forbruk
##forbrukning
##forbrukningen
##forbud
##forbund
##forbundet
##forbundets
##ford
##forda
##fordon
##fore
##forel
##foren
##forening
##foreningar
##foreningen
##forestall
##foret
##foretag
##foretagare
##foretagen
##foretaget
##foretak
##forfatt
##forfattare
##forhallanden
##forhold
##foring
##forklar
##forlust
##form
##formad
##formade
##formaga
##formagan
##forman
##formar
##format
##formed
##formen
##former
##formid
##formular
##forpack
##fors
##forsakring
##forsakringar
##forsakringen
##forsalj
##forsaljare
##forsaljning
##forsamling
##forsamlingen
##forsk
##forskare
##forskning
##forskningen
##forslag
##forslaget
##forsok
##forsor
##forsorjning
##forsta
##forstaelse
##forstor
##forsvar
##fort
##forum
##forvalt
##forvaltning
##forvaltningen
##forvar
##fos
##foss
##fot
##fota
##fotboll
##foten
##foto
##fotograf
##fox
##fr
##fra
##frag
##fraga
##fragan
##fragas
##fragor
##fragorna
##fram
##framkallande
##fran
##fre
##fred
##freds
##frek
##frekvens
##fri
##fria
##frid
##friend
##frihet
##friheten
##frik
##frika
##frisk
##frist
##fristen
##fristiga
##fritt
##fro
##fron
##front
##fronten
##fru
##frukost
##fs
##fsat
##ft
##fta
##ftar
##fte
##ften
##fter
##ftere
##ftes
##ftet
##fton
##ftt
##fu
##fug
##fukt
##ful
##full
##fulla
##fulle
##fullt
##fun
##fund
##funksjon
##funktion
##funktionen
##funktioner
##funn
##funnet
##fy
##fyl
##fyll
##fylld
##fyllda
##fyller
##fyllt
##fynd
##fyr
##fys
##føl
##følg
##følge
##følgende
##før
##føre
##fører
##føres
##føring
##føringen
##førsel
##ført
##førte
##g
##ga
##gaard
##gad
##gade
##gaende
##galler
##gam
##gan
##gande
##gang
##gangar
##gangen
##gar
##garant
##garanti
##gard
##garda
##gardar
##garden
##gardens
##garder
##gards
##gare
##garen
##garn
##garna
##gas
##gaser
##gat
##gata
##gatan
##gate
##gatt
##gav
##gb
##ge
##gel
##gelig
##gelige
##gen
##gende
##gene
##gener
##genom
##ger
##gere
##geren
##gers
##ges
##gest
##get
##gett
##gg
##gi
##gick
##gift
##gifter
##gilt
##gin
##gio
##gir
##girl
##giro
##gitt
##giv
##givande
##givare
##givaren
##given
##giver
##givere
##givet
##givna
##givning
##givningen
##gj
##gjen
##gjennom
##gjord
##gjorda
##gjorde
##gjort
##gjør
##gjøre
##gjøres
##gjøring
##gl
##glad
##glada
##gladje
##glans
##glas
##glasogon
##glass
##glom
##gn
##gnet
##gning
##go
##god
##godis
##gol
##golv
##golvet
##gor
##gora
##gorande
##gorelse
##gorit
##gors
##gos
##got
##gotland
##gotlands
##gott
##gr
##gra
##grad
##graden
##grader
##gram
##gran
##grann
##grans
##gransen
##gras
##grat
##grav
##gre
##gren
##grens
##grepp
##gripande
##gro
##gron
##grona
##ground
##gru
##grund
##grunden
##grunder
##grunn
##grupp
##gruppa
##gruppe
##gruppen
##grupper
##grupperna
##gryn
##gryta
##gs
##gt
##gte
##gu
##gubb
##gud
##guide
##guiden
##gul
##gym
##gymnas
##h
##ha
##hack
##haft
##hag
##hagen
##haha
##hai
##hal
##hall
##halla
##hallande
##hallanden
##hallar
##hallare
##hallaren
##hallas
##hallen
##haller
##hallet
##hallna
##hallning
##halls
##hals
##halsa
##halsan
##halt
##halten
##halv
##halvaret
##ham
##hammar
##hammed
##hammer
##hamn
##hamster
##hamt
##hamta
##hamtning
##han
##hand
##handa
##handel
##handeln
##handlare
##handling
##handlingar
##handlingen
##hang
##hangare
##hangen
##hant
##hanter
##hantering
##har
##hara
##hard
##harig
##harina
##hart
##has
##hast
##hastar
##hastighet
##hat
##hatt
##hattan
##haug
##haus
##hav
##hava
##havare
##haver
##havet
##havn
##haw
##hc
##hd
##he
##head
##hed
##heim
##heimer
##hej
##hel
##helg
##helgen
##helm
##helset
##helst
##hem
##hemmet
##hen
##henburg
##heng
##henger
##hengig
##hengige
##hengighet
##her
##heran
##hern
##hes
##het
##heten
##heter
##heterna
##hets
##hett
##hev
##hh
##hi
##hib
##hild
##him
##hin
##hing
##histor
##historia
##historien
##historier
##hj
##hjal
##hjalp
##hjart
##hjartbladig
##hjel
##hjelp
##hjem
##hjul
##hjulet
##hl
##hm
##hn
##ho
##hof
##hog
##hogskolan
##hoj
##hojd
##hojden
##hol
##hold
##holde
##holdene
##holder
##holdes
##holdet
##holdning
##holds
##holdsvis
##holdt
##holl
##holm
##holmen
##holms
##holt
##holts
##hon
##hop
##hopp
##hor
##hord
##horighet
##horn
##horningar
##hort
##hos
##host
##hot
##hotell
##hou
##house
##hov
##how
##hr
##hs
##ht
##hu
##hua
##hub
##hugg
##hult
##hum
##hun
##hund
##hundar
##hundra
##hur
##hurt
##hus
##husen
##huset
##husets
##hushall
##hust
##huvud
##huvudet
##huvudstaden
##hv
##hver
##hvert
##hy
##hydr
##hyll
##hylla
##hyllan
##hyr
##hz
##hør
##i
##ia
##iaceae
##iago
##iak
##ial
##iala
##ialen
##ialis
##ialt
##iam
##ian
##iana
##iano
##ians
##iansk
##ianska
##ianske
##iant
##ianter
##iao
##iar
##ias
##iat
##iater
##ib
##iba
##ibelt
##iber
##ibl
##ibla
##ible
##ic
##ica
##ical
##ican
##icas
##ice
##icen
##icens
##icer
##icera
##ich
##iche
##icia
##icill
##icin
##icitet
##ick
##icka
##ickan
##ickor
##icks
##icle
##ico
##icon
##ics
##ict
##iction
##icum
##icus
##icy
##id
##ida
##idae
##idakt
##idan
##idar
##idas
##iday
##ide
##idelse
##iden
##idens
##ident
##ider
##idera
##idering
##iderna
##ides
##idi
##idning
##idningen
##ido
##idor
##idrag
##idrott
##ids
##ie
##ied
##ief
##iek
##iel
##ield
##iell
##iella
##ielle
##iellt
##ielt
##iem
##ien
##ience
##iendom
##iene
##iens
##ient
##ienten
##ienter
##ienterna
##ier
##iera
##ierad
##ierade
##ierar
##ieras
##ierat
##iere
##ieren
##iering
##ierna
##iers
##iert
##ierte
##ies
##iest
##iet
##iets
##iew
##if
##ifa
##ife
##ifer
##ifest
##iff
##ifi
##ific
##ified
##ifier
##ifiera
##ifierad
##ifierade
##ifiering
##ifik
##ifikat
##ifikation
##ifisering
##ifisert
##ifl
##ifor
##iforn
##ifran
##ifs
##ift
##ifta
##ifte
##iftet
##iful
##ify
##ig
##iga
##igan
##igar
##igare
##igas
##igaste
##ige
##igen
##igenom
##iger
##iges
##igg
##iggande
##iggen
##igh
##ighet
##igheten
##ighetene
##igheter
##igheterna
##ighets
##ight
##ights
##ign
##ignal
##ignaler
##igo
##igt
##ih
##ihop
##ii
##iii
##iiii
##ij
##ija
##ijer
##ik
##ika
##ikal
##ikan
##ikansk
##ikanska
##ikar
##ikas
##ikat
##ikation
##ikationer
##ike
##iken
##ikens
##iker
##ikere
##ikerer
##ikern
##ikerna
##iket
##ikevel
##iki
##ikk
##ikke
##ikken
##ikker
##ikkerhet
##ikket
##ikki
##iklar
##iknande
##iko
##ikon
##ikor
##ikre
##ikring
##iks
##ikt
##ikte
##iktigt
##ikum
##ikyr
##il
##ila
##iland
##ilar
##ilbud
##ild
##ilda
##ilding
##ile
##iled
##ileder
##ileg
##ilen
##iler
##iley
##ili
##ilia
##ilien
##ilitet
##iliteter
##ilj
##iljan
##iljo
##iljon
##iljø
##ill
##illa
##illar
##illas
##ille
##illen
##iller
##illes
##illgang
##illing
##illkor
##illo
##ills
##illstand
##illverk
##illy
##ilo
##ilog
##ilometer
##ils
##ilsynet
##ilt
##ilte
##ilton
##ilus
##ily
##im
##ima
##imal
##imals
##imalsfargkoden
##iman
##imat
##imate
##ime
##imen
##imension
##iment
##imente
##imenter
##imentet
##imer
##imera
##imeter
##imin
##imir
##imm
##immar
##immer
##imo
##imot
##imp
##ims
##imul
##in
##ina
##inal
##inalen
##inans
##inar
##inari
##inarie
##inas
##inav
##inci
##ind
##inde
##inder
##index
##indik
##indlar
##indra
##indrade
##indu
##industri
##industrien
##industrin
##ine
##inea
##inen
##inene
##iner
##inerades
##inerande
##ineras
##inerende
##inerer
##ineres
##inerna
##inerte
##ines
##iness
##inet
##inf
##infar
##infarkt
##infektion
##infl
##inflammation
##info
##inform
##informasjon
##information
##ing
##inga
##ingar
##ingarna
##inge
##ingen
##ingene
##ingenjor
##ingens
##inger
##inget
##ingo
##ings
##ingsas
##ingsdag
##ington
##inho
##ini
##ining
##inister
##injen
##ink
##inlagg
##inn
##inna
##innan
##innande
##innar
##innare
##inne
##inneha
##innehall
##innehavare
##innen
##inner
##innes
##innet
##inning
##innor
##inns
##ino
##inor
##inos
##inredning
##inrikt
##ins
##insats
##insatser
##insk
##inska
##inske
##inspekt
##inspektionen
##inspir
##inst
##install
##instit
##institut
##institutet
##instru
##instrument
##int
##intag
##intakter
##inte
##intens
##inter
##interv
##intervju
##intill
##intress
##intresse
##intressen
##intresserade
##ints
##intyg
##inus
##invest
##io
##iode
##ioder
##ion
##ionde
##ione
##ionen
##ionens
##ioner
##ions
##iop
##ior
##ios
##iosa
##iost
##iot
##iotal
##iotalet
##ious
##iox
##ioxid
##ip
##ipa
##ipan
##ipe
##ipend
##ipl
##ipp
##ippa
##ippe
##ipper
##ippi
##ips
##ipul
##ique
##ir
##ira
##irasjon
##ird
##ire
##irekt
##irektor
##irektoratet
##iren
##irer
##iret
##iri
##irk
##irkninger
##iro
##irs
##irt
##irus
##is
##isa
##isar
##isarna
##isation
##isch
##ischer
##ise
##isen
##iser
##isera
##iserad
##iserade
##iserande
##iserar
##iseras
##iserat
##iserats
##isere
##iserer
##iseres
##isering
##iseringen
##isert
##iserte
##ises
##iset
##ish
##isha
##isi
##isin
##ising
##ision
##isjon
##isjonen
##isjoner
##isk
##iska
##iskan
##iske
##iskop
##iskor
##iskt
##ism
##isme
##ismen
##ismens
##isol
##ison
##isont
##iss
##issa
##issar
##isse
##isseau
##issen
##isser
##isserna
##isses
##ission
##issionen
##isst
##ist
##ista
##istan
##istans
##iste
##isten
##istene
##istens
##ister
##isterande
##isterna
##istik
##istisk
##istiska
##istiske
##istiskt
##istor
##istr
##istret
##istri
##istrikt
##istriktet
##isy
##it
##ita
##ital
##italet
##itann
##itar
##itara
##itas
##itasjon
##itation
##itativ
##itativa
##itativt
##itch
##ite
##ited
##iteen
##itel
##iten
##itenskap
##iter
##iterna
##ites
##itet
##iteten
##iteter
##ith
##iti
##ities
##itim
##ition
##itionen
##itioner
##itiv
##itiva
##itive
##itlar
##ito
##itor
##itra
##its
##itt
##itta
##ittande
##itte
##ittel
##itten
##itter
##itu
##itus
##itusjon
##itut
##itution
##ity
##itz
##ium
##ius
##iv
##iva
##ival
##ivalen
##ivaler
##ivan
##ivande
##ivare
##ive
##iven
##iver
##ivers
##ives
##ivet
##ivit
##ivitet
##iviteter
##ivna
##ivt
##ix
##iy
##iz
##iza
##ize
##ized
##izer
##izo
##iør
##j
##ja
##jack
##jacka
##jade
##jag
##jak
##jakt
##jakten
##jal
##jam
##jan
##jande
##jandet
##jans
##janst
##jansten
##janster
##jant
##jar
##jarn
##jarnen
##jarvi
##jas
##jat
##jav
##jd
##jde
##je
##jed
##jef
##jej
##jejer
##jek
##jekt
##jekten
##jekter
##jel
##jell
##jeller
##jem
##jen
##jene
##jeneste
##jenesten
##jenester
##jent
##jente
##jenter
##jer
##jern
##jerna
##jes
##jet
##jev
##jevo
##ji
##jk
##jning
##jningen
##jnings
##jo
##job
##jobb
##jod
##jods
##jol
##jolk
##jon
##jonen
##jonens
##joner
##jong
##jor
##jord
##jorda
##jorden
##jordes
##jorer
##jorn
##jorna
##jort
##jour
##journ
##journalen
##journalist
##joy
##js
##jt
##jta
##jter
##jting
##jtnant
##ju
##jud
##juden
##juder
##juice
##juk
##juka
##jul
##jun
##jung
##junga
##junkt
##junktur
##jup
##jur
##juren
##jus
##just
##justering
##jut
##juta
##juter
##jøen
##jør
##jøring
##jørn
##k
##ka
##kabel
##kad
##kade
##kak
##kaka
##kakor
##kal
##kalas
##kalender
##kall
##kalla
##kallande
##kalt
##kam
##kamer
##kamera
##kameror
##kamp
##kampen
##kan
##kanalen
##kande
##kandid
##kann
##kanna
##kannas
##kans
##kansla
##kanslan
##kant
##kanten
##kap
##kapital
##kapp
##kapten
##kar
##kara
##kare
##karen
##karl
##karlek
##karna
##kart
##kas
##kass
##kasse
##kast
##kat
##katalog
##kategor
##ke
##ked
##kede
##kedja
##kedjan
##kel
##kelen
##kelig
##kelige
##kelse
##kelsen
##kelser
##kelt
##ken
##kende
##kene
##ker
##kere
##kerne
##kers
##kert
##kes
##kest
##ket
##ketter
##key
##kg
##ki
##kil
##kilometer
##kin
##king
##kins
##kir
##kit
##kj
##kje
##kjen
##kjent
##kjente
##kjø
##kjøp
##kjør
##kjøring
##kk
##kke
##kken
##kker
##kket
##kl
##kla
##klad
##kladd
##kladda
##klade
##klader
##klag
##klam
##klan
##kland
##klanning
##klar
##klara
##klare
##klart
##klass
##klassen
##klasser
##kle
##kler
##klet
##kligen
##klimat
##klin
##kling
##klipp
##klubb
##klubbar
##klubben
##klund
##klær
##klæring
##km
##kn
##kna
##knapp
##knappen
##kning
##kningar
##knipp
##knytning
##ko
##kobling
##kod
##koden
##koder
##kok
##kol
##koll
##kom
##kombin
##komlig
##komliga
##komligt
##komm
##komma
##kommande
##kommen
##kommende
##komment
##kommer
##kommit
##kommun
##komna
##kompis
##kompon
##komst
##komsten
##kon
##kong
##kons
##konsol
##konsolidering
##konst
##konstru
##kont
##kontakt
##kontakter
##konto
##kontor
##kontoret
##kontroll
##kontrollen
##kontroller
##kop
##koping
##kopings
##kopp
##koppling
##kor
##kore
##korea
##korg
##korgen
##korn
##korna
##korning
##kort
##kortet
##kost
##kostnad
##kostnaden
##kostnader
##kott
##kr
##kra
##kraft
##krafter
##kram
##kran
##krav
##kre
##krediter
##kret
##krets
##krig
##kring
##krit
##kro
##krok
##kron
##kropp
##kroppen
##kryss
##ks
##ksis
##ksjon
##ksjonen
##ksjoner
##ksom
##ksomhet
##kt
##kta
##ktar
##kte
##kten
##kter
##ktet
##ktig
##ktiga
##ktigt
##ktion
##ktionen
##ktioner
##ktions
##ktis
##ktligen
##ktor
##ktorn
##ku
##kul
##kult
##kultur
##kunder
##kunn
##kunskap
##kup
##kur
##kurat
##kurran
##kurs
##kursen
##kurser
##kust
##kusten
##kv
##kval
##kvalitet
##kvaliteten
##kvall
##kvallen
##kvar
##kvarter
##kvist
##ky
##kyl
##kyr
##kyrka
##kyrkan
##l
##la
##lack
##lad
##lada
##ladan
##ladd
##laddning
##lade
##laden
##lader
##lades
##lador
##lag
##laga
##lagd
##lagda
##lage
##lagen
##lager
##laget
##lagg
##lagga
##laggande
##laggare
##lagger
##lagget
##laggning
##laggningar
##laggningen
##lagt
##lagte
##lak
##lakare
##lakt
##lam
##lamp
##lampa
##lampor
##lan
##land
##landa
##lande
##lander
##landet
##lands
##landska
##landskap
##lang
##langd
##lange
##langt
##laning
##lank
##lanning
##lans
##lanta
##lapp
##lappar
##lappen
##lar
##larare
##lare
##laren
##larna
##larnas
##las
##lasare
##lasning
##lass
##lassen
##lasser
##last
##lat
##latande
##lats
##latt
##lav
##lay
##le
##leby
##led
##ledare
##ledaren
##lede
##leden
##leder
##ledes
##ledning
##ledningen
##leg
##lege
##legg
##legge
##leggene
##legger
##legges
##legget
##legging
##leggingen
##leie
##leis
##lek
##lem
##lement
##len
##lende
##lene
##ler
##lere
##lers
##lertid
##les
##less
##let
##lett
##lev
##leva
##lever
##lex
##ley
##li
##lich
##lid
##lie
##lig
##liga
##ligan
##ligare
##ligaste
##lige
##ligen
##liggande
##liggende
##ligh
##lighet
##ligheten
##lighetens
##ligheter
##ligheterna
##light
##lights
##ligt
##lik
##lika
##like
##liknande
##lim
##lin
##lind
##line
##lines
##ling
##lingar
##lingarna
##linge
##lingen
##linger
##lingor
##lings
##linje
##linjen
##linjer
##linjerna
##list
##lista
##listan
##listor
##lit
##litt
##litter
##litteratur
##liv
##livet
##ljud
##ljus
##ll
##lla
##lle
##llen
##ller
##llop
##llor
##lo
##lock
##lof
##log
##lok
##lon
##look
##lop
##lopp
##loppet
##lor
##lorna
##los
##losa
##losen
##loshet
##losning
##losningar
##losningen
##loss
##lossning
##lost
##lot
##lott
##lov
##loven
##ls
##lu
##lubb
##luft
##lund
##lunds
##lur
##lust
##lut
##ly
##lyft
##lys
##lyser
##lysning
##lyst
##lyste
##læring
##lø
##løk
##løp
##løpet
##løs
##løse
##løsning
##løst
##m
##ma
##mad
##made
##mail
##mak
##makt
##makten
##maktige
##mal
##mala
##malen
##malet
##malm
##malt
##man
##manad
##mande
##mang
##manland
##manlands
##mann
##mannen
##mannens
##manniskor
##manns
##mans
##mansk
##mant
##manuel
##mar
##mare
##maren
##marg
##mark
##marke
##markedet
##marken
##marker
##market
##marknad
##marknaden
##marknader
##marna
##marnas
##mart
##mas
##mask
##maskin
##maskinen
##maskiner
##mass
##massa
##massage
##massan
##massig
##massiga
##massigt
##mast
##mastare
##mastaren
##master
##mat
##matare
##match
##mater
##material
##materialet
##matning
##matt
##matta
##max
##me
##med
##medal
##medalen
##meddel
##meddelande
##meddelanden
##mede
##medel
##media
##medicin
##medlem
##medvet
##meh
##mek
##mel
##melig
##men
##mene
##menn
##menne
##mens
##ment
##menter
##mentet
##menyn
##mer
##mera
##merad
##merade
##mere
##mering
##merna
##mers
##mes
##messig
##mester
##met
##meter
##mets
##mg
##mi
##miar
##mid
##middag
##middagen
##middel
##midler
##mig
##mil
##miljo
##miljoer
##miljon
##miljø
##min
##mina
##mine
##minen
##ming
##minist
##minister
##minskning
##mir
##mis
##missbruk
##mit
##mitt
##mix
##mjol
##mjolk
##ml
##mm
##mmende
##mn
##mo
##mod
##mode
##modell
##modellen
##modeller
##moder
##moen
##mojligheter
##mok
##mol
##mon
##mond
##monster
##mont
##mor
##mord
##morgon
##mos
##moss
##mot
##mote
##moten
##motet
##motor
##motorer
##motstand
##mott
##ms
##mt
##mu
##mun
##mund
##munt
##mur
##mus
##muse
##museet
##museum
##musik
##musk
##my
##myggor
##myn
##myndigheten
##mys
##møte
##n
##na
##nabb
##nack
##nad
##nade
##naden
##nader
##nades
##nads
##nal
##nam
##namn
##namnd
##namnda
##namnden
##namndens
##namnet
##nan
##nande
##nandet
##nant
##napp
##nar
##nara
##nare
##naren
##narna
##nas
##nasjon
##nast
##nat
##natet
##nation
##nats
##natt
##natur
##nav
##navn
##nd
##nda
##ne
##ned
##nede
##nek
##nem
##nen
##nende
##nene
##nens
##ner
##nere
##ners
##nes
##ness
##nest
##net
##nets
##nett
##nev
##nevnt
##nevnte
##ney
##ng
##ni
##nia
##nick
##nik
##ning
##ningar
##ningarna
##ningarnas
##ningen
##ningene
##ningens
##ninger
##nings
##ningsb
##ningsbar
##ningsbara
##ningsfor
##ningsforetag
##ningsformaga
##ningsgrad
##ningsl
##ningsm
##ningsman
##ningsmedel
##ningsmet
##ningsmetoder
##ningss
##ningssatt
##ningst
##ningstid
##ningstiden
##ningstider
##ningsuppgifter
##ningsvis
##nis
##niska
##niva
##nivaer
##nivan
##nn
##no
##nojd
##nok
##nor
##nord
##norsk
##nos
##not
##notter
##nov
##noveller
##nr
##ns
##nt
##nte
##nu
##num
##nummer
##numret
##ny
##nyck
##nyheter
##nytt
##nær
##o
##oa
##oar
##oarer
##oarna
##ob
##oba
##obel
##ober
##obi
##objekt
##oc
##och
##oci
##ock
##ocka
##ocke
##ocken
##ocker
##ockey
##ockor
##ocol
##oczny
##od
##oda
##odag
##odagen
##odande
##odd
##odda
##odde
##odden
##ode
##odell
##odeller
##oden
##oder
##odes
##odet
##odi
##odling
##odor
##ods
##ody
##oe
##oen
##oende
##of
##ofer
##off
##offer
##ofog
##ofon
##ofs
##oft
##ofta
##og
##oga
##oge
##ogen
##ogenhet
##ogg
##ogging
##ogn
##ogna
##ogon
##ogra
##ograf
##ografi
##ografisk
##ografiska
##ogram
##ograph
##ogs
##oh
##oi
##oid
##oider
##oil
##oj
##ojd
##ojda
##oje
##ojligheter
##ojor
##ok
##oka
##okal
##okan
##okar
##oke
##oken
##oker
##oki
##okk
##okken
##okker
##okl
##oklad
##oklipp
##okning
##okningar
##okoll
##okrat
##okrater
##oks
##okt
##okta
##okument
##okus
##ol
##ola
##olade
##olag
##olan
##oland
##olar
##olas
##old
##ole
##olen
##oler
##olerans
##olet
##olf
##oli
##olia
##olig
##oliga
##oligt
##olin
##olit
##olja
##olje
##olk
##oll
##olla
##ollar
##ollen
##oller
##ollo
##olo
##olog
##ologen
##ologer
##ologi
##ologin
##ologisk
##ologiska
##ologiske
##ologiskt
##ology
##olor
##ols
##olt
##olut
##olution
##olv
##olyck
##olycka
##olyckor
##om
##oma
##omal
##oman
##omat
##omb
##ombud
##ome
##omen
##oment
##omer
##omet
##ometer
##ometern
##omi
##omin
##omm
##omme
##ommen
##ommene
##ommer
##ommes
##ommet
##ommun
##omo
##omon
##ompan
##omrade
##omraden
##omradene
##omrader
##omradet
##oms
##omsattning
##omsorg
##omsorgen
##omt
##omy
##omyia
##on
##ona
##ond
##onda
##onde
##onder
##ondition
##one
##onen
##oner
##ones
##ong
##ongen
##onger
##oni
##onia
##online
##onn
##onna
##onom
##onomi
##ons
##onse
##onser
##onster
##onstru
##ont
##onto
##ontroller
##onus
##ony
##onym
##oo
##ood
##ool
##oon
##ooo
##oooo
##ooth
##op
##opa
##opat
##ope
##oped
##open
##oper
##operat
##operativ
##oph
##ophila
##opia
##opl
##oplan
##ople
##opol
##opp
##oppa
##oppar
##oppen
##oppet
##oppga
##oppgave
##oppgaver
##oppgjør
##opplev
##opplys
##opplysninger
##opplæring
##oppning
##opro
##oproblem
##oprocent
##oprogram
##ops
##opsis
##opt
##opter
##optimer
##or
##ora
##orca
##ord
##orda
##ordan
##orde
##orden
##order
##ordes
##ordet
##ordforande
##ordin
##ordnad
##ordnare
##ordning
##ordningen
##ords
##ore
##oreala
##oren
##orer
##orerna
##ores
##oret
##orf
##org
##organ
##organis
##organisasjon
##organisation
##organisationen
##organisationer
##orge
##orgen
##orget
##orgon
##ori
##oria
##orienter
##orier
##orin
##oring
##orisk
##oriter
##ork
##orkester
##orks
##orl
##orld
##orlunda
##orm
##orn
##orna
##ornas
##ornet
##orns
##oro
##orp
##orps
##orr
##orrar
##orre
##orren
##orry
##ors
##ort
##orte
##orten
##orter
##ortering
##orterna
##orth
##orts
##ortt
##ory
##os
##osa
##ose
##osen
##oser
##osex
##osh
##osi
##osjon
##oskop
##osof
##osp
##ospel
##oss
##ossa
##ost
##osta
##ostat
##osten
##oster
##ostern
##osteron
##ostnader
##osyn
##osystem
##ot
##ota
##otal
##ote
##otek
##oteket
##otekn
##otell
##oteller
##oten
##oter
##otering
##otes
##otet
##oth
##otin
##otion
##otisk
##oto
##ots
##ott
##otta
##otte
##otten
##otter
##otterna
##otto
##oty
##otyp
##otypen
##otyper
##ou
##ough
##oul
##our
##ous
##out
##ov
##ova
##oval
##ovan
##ovar
##ovare
[...]
