[unused0]
[unused1]
[unused2]
[unused3]
[unused4]
[unused5]
[unused6]
[unused7]
[unused8]
[unused9]
[unused10]
[unused11]
[unused12]
[unused13]
[unused14]
[unused15]
[unused16]
[unused17]
[unused18]
[unused19]
[unused20]
[unused21]
[unused22]
[unused23]
[unused24]
[unused25]
[unused26]
[unused27]
[unused28]
[unused29]
[unused30]
[unused31]
[unused32]
[unused33]
[unused34]
[unused35]
[unused36]
[unused37]
[unused38]
[unused39]
[unused40]
[unused41]
[unused42]
[unused43]
[unused44]
[unused45]
[unused46]
[unused47]
[unused48]
[unused49]
[unused50]
[unused51]
[unused52]
[unused53]
[unused54]
[unused55]
[unused56]
[unused57]
[unused58]
[unused59]
[unused60]
[unused61]
[unused62]
[unused63]
[unused64]
[unused65]
[unused66]
[unused67]
[unused68]
[unused69]
[unused70]
[unused71]
[unused72]
[unused73]
[unused74]
[unused75]
[unused76]
[unused77]
[unused78]
[unused79]
[unused80]
[unused81]
[unused82]
[unused83]
[unused84]
[unused85]
[unused86]
[unused87]
[unused88]
[unused89]
[unused90]
[unused91]
[unused92]
[unused93]
[unused94]
[unused95]
[unused96]
[unused97]
[unused98]
[unused99]
[unused100]
[unused101]
[unused102]
[unused103]
[unused104]
[unused105]
[unused106]
[unused107]
[unused108]
[unused109]
[unused110]
[unused111]
[unused112]
[unused113]
[unused114]
[unused115]
[unused116]
[unused117]
[unused118]
[unused119]
[unused120]
[unused121]
[unused122]
[unused123]
[unused124]
[unused125]
[unused126]
[unused127]
[unused128]
[unused129]
[unused130]
[unused131]
[unused132]
[unused133]
[unused134]
[unused135]
[unused136]
[unused137]
[unused138]
[unused139]
[unused140]
[unused141]
[unused142]
[unused143]
[unused144]
[unused145]
[unused146]
[unused147]
[unused148]
[unused149]
[unused150]
[unused151]
[unused152]
[unused153]
[unused154]
[unused155]
[unused156]
[unused157]
[unused158]
[unused159]
[unused160]
[unused161]
[unused162]
[unused163]
[unused164]
[unused165]
[unused166]
[unused167]
[unused168]
[unused169]
[unused170]
[unused171]
[unused172]
[unused173]
[unused174]
[unused175]
[unused176]
[unused177]
[unused178]
[unused179]
[unused180]
[unused181]
[unused182]
[unused183]
[unused184]
[unused185]
[unused186]
[unused187]
[unused188]
[unused189]
[unused190]
[unused191]
[unused192]
[unused193]
[unused194]
[unused195]
[unused196]
[unused197]
[unused198]
[unused199]
[unused200]
[unused201]
[unused202]
[unused203]
[unused204]
[unused205]
[unused206]
[unused207]
[unused208]
[unused209]
[unused210]
[unused211]
[unused212]
[unused213]
[unused214]
[unused215]
[unused216]
[unused217]
[unused218]
[unused219]
[unused220]
[unused221]
[unused222]
[unused223]
[unused224]
[unused225]
[unused226]
[unused227]
[unused228]
[unused229]
[unused230]
[unused231]
[unused232]
[unused233]
[unused234]
[unused235]
[unused236]
[unused237]
[unused238]
[unused239]
[unused240]
[unused241]
[unused242]
[unused243]
[unused244]
[unused245]
[unused246]
[unused247]
[unused248]
[unused249]
[unused250]
[unused251]
[unused252]
[unused253]
[unused254]
[unused255]
[unused256]
[unused257]
[unused258]
[unused259]
[unused260]
[unused261]
[unused262]
[unused263]
[unused264]
[unused265]
[unused266]
[unused267]
[unused268]
[unused269]
[unused270]
[unused271]
[unused272]
[unused273]
[unused274]
[unused275]
[unused276]
[unused277]
[unused278]
[unused279]
[unused280]
[unused281]
[unused282]
[unused283]
[unused284]
[unused285]
[unused286]
[unused287]
[unused288]
[unused289]
[unused290]
[unused291]
[unused292]
[unused293]
[unused294]
[unused295]
[unused296]
[unused297]
[unused298]
[unused299]
[unused300]
[unused301]
[unused302]
[unused303]
[unused304]
[unused305]
[unused306]
[unused307]
[unused308]
[unused309]
[unused310]
[unused311]
[unused312]
[unused313]
[unused314]
[unused315]
[unused316]
[unused317]
[unused318]
[unused319]
[unused320]
[unused321]
[unused322]
[unused323]
[unused324]
[unused325]
[unused326]
[unused327]
[unused328]
[unused329]
[unused330]
[unused331]
[unused332]
[unused333]
[unused334]
[unused335]
[unused336]
[unused337]
[unused338]
[unused339]
[unused340]
[unused341]
[unused342]
[unused343]
[unused344]
[unused345]
[unused346]
[unused347]
[unused348]
[unused349]
[unused350]
[unused351]
[unused352]
[unused353]
[unused354]
[unused355]
[unused356]
[unused357]
[unused358]
[unused359]
[unused360]
[unused361]
[unused362]
[unused363]
[unused364]
[unused365]
[unused366]
[unused367]
[unused368]
[unused369]
[unused370]
[unused371]
[unused372]
[unused373]
[unused374]
[unused375]
[unused376]
[unused377]
[unused378]
[unused379]
[unused380]
[unused381]
[unused382]
[unused383]
[unused384]
[unused385]
[unused386]
[unused387]
[unused388]
[unused389]
[unused390]
[unused391]
[unused392]
[unused393]
[unused394]
[unused395]
[unused396]
[unused397]
[unused398]
[unused399]
[unused400]
[unused401]
[unused402]
[unused403]
[unused404]
[unused405]
[unused406]
[unused407]
[unused408]
[unused409]
[unused410]
[unused411]
[unused412]
[unused413]
[unused414]
[unused415]
[unused416]
[unused417]
[unused418]
[unused419]
[unused420]
[unused421]
[unused422]
[unused423]
[unused424]
[unused425]
[unused426]
[unused427]
[unused428]
[unused429]
[unused430]
[unused431]
[unused432]
[unused433]
[unused434]
[unused435]
[unused436]
[unused437]
[unused438]
[unused439]
[unused440]
[unused441]
[unused442]
[unused443]
[unused444]
[unused445]
[unused446]
[unused447]
[unused448]
[unused449]
[unused450]
[unused451]
[unused452]
[unused453]
[unused454]
[unused455]
[unused456]
[unused457]
[unused458]
[unused459]
[unused460]
[unused461]
[unused462]
[unused463]
[unused464]
[unused465]
[unused466]
[unused467]
[unused468]
[unused469]
[unused470]
[unused471]
[unused472]
[unused473]
[unused474]
[unused475]
[unused476]
[unused477]
[unused478]
[unused479]
[unused480]
[unused481]
[unused482]
[unused483]
[unused484]
[unused485]
[unused486]
[unused487]
[unused488]
[unused489]
[unused490]
[unused491]
[unused492]
[unused493]
[unused494]
[unused495]
[unused496]
[unused497]
[unused498]
[unused499]
[CLS]
[MASK]
[PAD]
[SEP]
[UNK]
!
"
#
$
%
&
'
(
)
*
+
,
-
.
/
0
1
2
3
4
5
6
7
8
9
:
;
<
=
>
?
@
[
\
]
^
_
`
a
b
c
d
e
f
g
h
i
j
k
l
m
n
o
p
q
r
s
t
u
v
w
x
y
z
{
|
}
~
¡
¢
£
¤
¥
¦
§
¨
©
ª
«
¬
®
¯
°
±
²
³
´
µ
¶
·
¸
¹
º
»
¼
½
¾
¿
×
ß
æ
ð
÷
ø
þ
đ
ı
ł
œ
ƒ
ɔ
ə
ɛ
ʹ
ʺ
ˆ
ˇ
ˈ
˚
˜
ˮ
ͼ
α
β
γ
δ
ε
ζ
η
θ
ι
κ
λ
μ
ν
ξ
ο
π
ρ
ς
σ
τ
υ
φ
χ
ψ
ω
ϕ
а
б
в
г
д
е
ж
з
и
к
л
м
н
о
п
р
с
т
у
ф
х
ц
ч
ш
щ
ъ
ы
ь
э
ю
я
ђ
є
ѕ
і
ј
љ
ґ
һ
ա
א
ב
ג
ד
ה
ו
ח
ט
י
כ
ל
ם
מ
ן
נ
ס
ע
פ
ק
ר
ש
ת
،
ء
ا
ب
ة
ت
ث
ج
ح
خ
د
ذ
ر
ز
س
ش
ص
ض
ط
ظ
ع
غ
ـ
ف
ق
ك
ل
م
ن
ه
و
ى
ي
پ
چ
ک
گ
ی
क
ग
ज
त
द
न
प
म
य
र
ल
व
स
ह
ा
ि
ी
ो
ক
ত
ন
ব
য
র
া
ি
ে
க
த
ன
ப
ம
ர
ா
ி
ு
ക
ാ
ി
ก
ข
ค
ง
จ
ช
ด
ต
ท
น
บ
ป
พ
ม
ย
ร
ล
ว
ส
ห
อ
ะ
า
฿
เ
แ
โ
ไ
ა
ე
ი
ᄀ
ᄂ
ᄃ
ᄅ
ᄆ
ᄇ
ᄉ
ᄋ
ᄌ
ᄎ
ᄏ
ᄐ
ᄑ
ᄒ
ᅡ
ᅢ
ᅥ
ᅦ
ᅧ
ᅩ
ᅪ
ᅬ
ᅭ
ᅮ
ᅳ
ᅴ
ᅵ
ᆨ
ᆫ
ᆯ
ᆷ
ᆸ
ᆻ
ᆼ
ᐈ
‐
‑
‒
–
—
―
‘
’
‚
“
”
„
†
‡
•
…
‰
′
″
‹
›
₂
₨
€
℃
№
™
←
↑
→
↓
⇒
−
√
≤
≥
─
■
□
▪
▫
▲
▶
►
▻
▼
◊
○
●
☀
★
☆
☺
♀
♂
♡
♣
♥
♦
✅
✌
✓
✔
✚
✨
✭
✰
❄
❑
❗
❤
➔
➧
⠀
⭐
ⰰ
、
。
「
」
【
】
あ
い
う
え
お
か
き
く
け
こ
さ
し
す
せ
そ
た
ち
っ
つ
て
と
な
に
の
は
ひ
へ
ま
み
め
も
や
よ
ら
り
る
れ
わ
を
ん
ア
ィ
イ
ウ
ェ
エ
オ
カ
キ
ク
ケ
コ
サ
シ
ス
セ
ソ
タ
チ
ッ
ツ
テ
ト
ナ
ニ
ネ
ハ
ヒ
フ
ヘ
ホ
マ
ミ
ム
メ
モ
ャ
ュ
ョ
ラ
リ
ル
レ
ロ
ワ
ン
・
ー
䄀
䈀
䔀
䜀
䠀
䤀
䬀
䰀
䴀
一
七
万
三
上
下
不
与
专
世
业
东
两
个
中
为
主
么
之
乐
九
也
买
了
争
事
二
于
五
亚
交
产
京
人
什
今
他
仙
代
以
们
件
任
伀
会
传
位
体
何
作
你
使
供
保
信
元
先
光
免
入
全
八
公
六
关
其
具
内
円
册
准
出
刀
分
划
创
利
到
制
前
力
加
务
动
势
動
匀
化
北
区
十
单
南
博
原
县
及
双
发
取
口
可
台
号
司
吀
合
同
名
后
吗
员
和
品
哪
唀
商
器
四
回
国
图
在
地
场
址
坛
型
城
基
堂
場
士
外
多
大
天
太
奇
奖
女
好
如
姐
娱
婆
子
字
学
安
官
定
宝
实
客
室
家
富
对
将
小
少
就
尾
展
山
川
州
工
巧
市
常
平
年
广
庆
库
店
度
建
开
式
当
录
彩
影
律
得
微
心
必
忙
快
怎
思
性
总
情
意
感
戏
成
我
户
所
手
打
技
投
报
持
挂
指
推
提
播
教
数
文
料
斯
新
方
无
日
时
明
星
是
時
更
最
月
有
服
期
未
本
机
杀
来
東
枚
果
校
样
格
業
次
正
比
民
氓
気
水
江
河
法
波
注
活
流
测
海
港
游
源
澳
点
然
爱
片
版
牌
牛
物
特
狗
玄
王
玩
现
球
理
生
用
田
电
画
界
登
白
百
的
皇
目
盲
直
相
看
県
真
着
知
码
社
神
票
福
科
程
空
立
站
第
等
算
管
精
系
红
线
组
经
结
统
网
美
群
老
者
而
肖
育
能
自
色
花
英
行
表
装
西
要
見
规
视
解
語
计
记
论
设
诗
财
费
资
赌
赛
赢
走
起
超
足
跑
路
身
车
软
载
过
运
这
进
送
选
通
道
選
部
都
酶
里
重
野
量
金
钱
长
間
门
间
际
限
院
集
霸
青
面
音
预
频
食
香
马
高
黄
龙
ﬁ
ﬂ
！
（
）
，
：
？
ｩ
ﾞ
￼
🌟
🌸
🍁
🎉
🏻
🏼
🏽
👊
👌
👍
👏
💕
💖
💗
💙
💚
💛
💜
💪
🔥
😀
😁
😂
😃
😄
😅
😆
😉
😊
😋
😍
😎
😘
😛
😜
😦
😬
😱
😳
🙁
🙂
🙄
🙈
🙌
🙏
🤔
🤗
🤣
🤩
00
000
01
02
03
04
05
06
07
070
08
09
10
100
1000
101
102
103
104
105
106
107
108
109
11
110
1100
111
112
114
115
117
118
119
12
120
1200
123
125
127
128
129
13
130
1300
135
14
140
1400
145
149
15
150
1500
155
159
16
160
1600
165
167
168
169
17
170
1700
175
177
178
179
18
180
1800
184
185
186
187
188
1880
189
1890
19
190
1900
191
1910
1914
1917
1918
1919
192
1920
193
1930
1936
1938
1939
194
1940
1941
1942
1943
1944
1945
1946
1947
1948
1949
195
1950
1951
1952
1953
1954
1955
1956
1957
1958
1959
196
1960
1961
1962
1963
1964
1965
1966
1967
1968
1969
197
1970
1971
1972
1973
1974
1975
1976
1977
1978
1979
198
1980
1981
1982
1983
1984
1985
1986
1987
1988
1989
199
1990
1991
1992
1993
1994
1995
1996
1997
1998
1999
1a
1½
20
200
2000
2001
2002
2003
2004
2005
2006
2007
2008
2009
201
2010
2011
2012
2013
2014
2015
2016
2017
2018
2019
2020
2030
21
210
22
220
225
23
230
24
240
25
250
2500
26
260
27
28
280
29
2x
30
300
3000
31
32
320
33
34
35
350
36
360
365
37
38
39
3d
3g
40
400
4000
41
42
43
44
45
450
46
47
48
49
4k
50
500
5000
51
52
53
54
55
550
56
57
58
59
60
600
6000
61
62
63
64
65
650
66
67
68
69
70
700
71
72
73
74
75
750
76
77
78
79
80
800
81
82
83
84
85
86
87
88
89
90
900
91
92
93
94
95
96
97
98
99
a3
a4
aa
aaa
aab
aal
aalborg
aar
aarhus
ab
abb
abc
aben
abenbart
abent
aber
abne
abnede
abner
abnes
abnet
abningstider
abo
abon
abonn
abonnem
abonnemang
abonnement
abort
about
abra
abraham
abs
absol
absolut
absoluta
absolutt
absor
absorber
abstra
abstrakt
ac
academ
academy
acc
acceler
accep
accept
acceptera
accepterar
accepterat
acceptere
accepterer
access
accessoarer
account
ack
ackligt
ackumul
act
action
activ
active
ad
ada
adam
adap
adcirca
add
address
ade
adekv
adel
adfærd
adgang
adgangskode
adhd
adidas
adm
admin
administr
administrasjon
administration
administrationen
administrativ
administrativa
administrative
administrativt
administrator
administrerende
ado
adobe
adolf
adoos
adop
adopt
adr
adren
adress
adresse
adressen
adresser
adri
ads
adskill
adskillige
adult
advan
advar
advarsel
advent
advok
advokat
advokater
aer
af
afbry
afd
afdeling
afdelingen
afdelinger
aff
affald
affalds
affar
affaren
affarer
affars
affil
affilierede
affære
afg
afgang
afghan
afghanistan
afgift
afgr
afgræns
afgør
afgørelse
afgørelsen
afgørelser
afgørende
afh
afholder
afholdes
afholdt
afhæng
afhænger
afhængig
afhængigt
afkast
aflever
afrik
afrika
afrikansk
afrikanska
afro
afs
afsked
afsl
afslapp
afslappet
afslutning
afsluttet
afslører
afsnit
afsp
afspej
afspejler
afstand
afsted
afstem
afsæt
aft
aftal
aftale
aftalen
aftaler
aftalt
aften
aftenen
aftens
aftensmad
after
afton
aftonbladet
afv
afvik
ag
aga
again
agar
agare
agaren
agarna
agde
agder
age
agen
agenda
agent
agentur
ager
agera
agerande
agerar
agg
aggr
aggress
aggressiv
agil
agility
agna
agnar
agnat
agnes
agnet
agneta
ago
ags
agt
ah
aha
ahh
ahl
ai
aik
air
airport
aj
aja
ak
aka
akadem
akademi
akademiker
akademisk
akademiska
ake
aker
akershus
akes
akesson
akk
akkur
akkurat
akl
aklag
aklagaren
akryl
aks
aksep
aksjer
aksjon
akt
akta
akte
aktenskap
akter
akti
aktie
aktieagare
aktiebolag
aktiek
aktien
aktier
akties
aktion
aktiv
aktiva
aktive
aktiver
aktivera
aktiveras
aktivering
aktivitet
aktiviteten
aktiviteter
aktivt
aktor
aktorer
aktu
aktuell
aktuella
aktuelle
aktuellt
aktuelt
aktører
akupunkt
akupunktur
akust
akut
akuta
akutt
akv
akvar
al
ala
aland
alar
alarm
alb
alban
albert
albin
album
albumet
ald
aldeles
alder
alderdom
alderen
aldern
alders
aldersgr
aldr
aldrar
aldre
aldri
aldrig
aldsta
ale
alene
alex
alexander
alexandra
alf
alfa
alfred
alg
alger
algorit
ali
alice
alig
alingsas
alko
alkohol
all
alla
allan
allas
alldeles
alle
allen
aller
allerede
allerg
allergi
allergisk
alles
allian
alliance
allians
alliansen
allig
alligevel
allih
allihop
allihopa
allikevel
allman
allmanhet
allmanheten
allmanna
allmant
allra
alls
allsvenskan
allt
alltfor
alltid
alltih
allting
alltmer
alltsa
allvar
allvarlig
allvarliga
allvarligt
alm
almed
almen
almene
almin
almindelig
almindelige
almindeligt
alp
als
alsk
alska
alskade
alskar
alskare
alskling
alsklingen
also
alster
alt
alta
altan
altanen
alter
alternat
alternativ
alternativa
alternative
alternativen
alternativer
alternativet
alternativt
altfor
altid
alting
altsa
alumin
aluminium
alv
alvor
alvorlig
alvorlige
alvorligt
alvsjo
am
ama
amager
amal
amanda
amar
amat
amate
amateur
amator
amatorer
amatorporr
amatør
amazon
amb
ambas
ambassa
ambassad
ambiti
ambition
ambitionen
ambitioner
ambul
ambulans
amer
america
american
amerik
amerika
amerikan
amerikansk
amerikanska
amerikanske
aminos
amne
amnen
amnes
amnet
amning
amp
amster
amsterdam
amt
an
ana
anal
analog
analsex
analy
analys
analyse
analysen
analyser
analysera
analysere
analyt
analytics
anam
anar
anat
anbef
anbefal
anbefale
anbefaler
anbefales
anbefaling
anbefalinger
anbud
and
anda
andam
andamal
andamalsen
andan
andas
ande
anded
andel
andelen
anden
ander
anderledes
anders
andersen
andersson
andet
andetag
andliga
andra
andrade
andrar
andras
andrat
andrats
andre
andrea
andreas
andres
andring
andringar
android
andy
ane
anelse
aner
anerk
anerkendelse
anerkendt
anette
anfall
anfor
anført
ang
angaende
angar
ange
angel
angelagen
angeles
angelholm
anger
anges
angest
angiv
angive
angiver
angivet
angivna
angr
angra
angrar
angre
angreb
angrep
angrepp
angri
angst
anhor
anhorig
anhoriga
anim
animal
anime
animer
aning
aningen
anita
ank
anka
anke
anker
ankl
anklag
ankn
anknytning
ankom
ankommer
ankomst
anl
anlagg
anlaggning
anlaggningar
anlaggningen
anlagt
anlande
anlander
anledning
anledningar
anledningarna
anledningen
anlegg
anlegget
anlit
anlita
anlæg
anlægget
anm
anmal
anmala
anmalan
anmalda
anmaler
anmalningar
anmalt
anmark
anmarkning
anmarknings
anmel
anmeldelse
anmeldelser
anmod
anmodning
ann
anna
annan
annans
annanstans
annars
annat
anne
annen
anner
annerledes
annet
annie
annika
annon
annonc
annonce
annoncen
annoncer
annons
annonsen
annonser
annonsera
annonsering
annorlunda
annu
annuller
anony
anonym
anonymt
anor
anord
anordnar
anordnas
anpas
anpass
anpassa
anpassad
anpassade
anpassar
anpassas
anpassat
anpassning
ans
ansag
ansags
ansat
ansatt
ansatte
anse
anser
anses
ansett
ansigt
ansigtet
ansikt
ansikte
ansikten
ansiktet
ansikts
anskaff
ansl
anslag
anslut
ansluta
ansluten
ansluter
anslutna
anslutning
ansok
ansoka
ansokan
ansoker
ansokningar
ansoknings
ansprak
anstall
anstalla
anstalld
anstallda
anstallning
anstallnings
anstr
anstrang
anstrangning
ansvar
ansvara
ansvarar
ansvaret
ansvarig
ansvariga
ansvarlig
ansvarlige
ansætt
ansættelse
ansættelses
ansø
ansøg
ansøger
ansøgning
ansøgningen
ansøgninger
ant
anta
antag
antagligen
antagning
antal
antalet
antall
antallet
antar
antas
anteck
anteckningar
antenn
anti
antib
antibiot
antibiotika
antik
antingen
antioxid
antioxidanter
antis
antisem
antligen
antogs
anton
antyder
anv
anvand
anvanda
anvandandet
anvandar
anvandare
anvandaren
anvandarna
anvandarnamn
anvandas
anvandbar
anvandbara
anvandbart
anvande
anvander
anvandes
anvandning
anvandningen
anvandningsomraden
anvands
anvant
anvants
anvend
anvende
anvendelse
anvendelsen
anvender
anvendes
anvendt
anvendte
anvisning
anvisningar
any
ap
apart
apel
apelsin
apen
apenbart
apent
apne
apner
apnet
apos
apost
apote
apotek
apoteket
app
appar
apparat
apparater
apparatet
appel
appels
appen
appet
appl
apple
applen
apples
applic
applicera
applik
applikation
applikationer
appro
apps
apr
april
apro
aps
apt
aptit
aqu
ar
ara
arab
arabisk
arabiska
aran
arb
arbeid
arbeide
arbeider
arbeidet
arbeids
arbeidsgiver
arbeidslivet
arbeidsmark
arbeidsmarked
arbeidsp
arbeidst
arbeidstak
arbej
arbejd
arbejde
arbejdede
arbejder
arbejdes
arbejdet
arbejds
arbejdsgiver
arbejdskraft
arbejdsløs
arbejdsmark
arbejdsmarked
arbejdsmarkedet
arbejdsmiljø
arbejdspl
arbejdsplads
arbejdspladsen
arbejdspladser
arbejdst
arbejdstid
arbet
arbeta
arbetade
arbetar
arbetare
arbetat
arbete
arbeten
arbetet
arbets
arbetsdag
arbetsdagar
arbetsformed
arbetsformedlingen
arbetsgiv
arbetsgivar
arbetsgivare
arbetsgivaren
arbetskraft
arbetsliv
arbetslivet
arbetslos
arbetslosa
arbetsloshet
arbetslosheten
arbetsm
arbetsmark
arbetsmarknad
arbetsmarknaden
arbetsmarknads
arbetsmilj
arbetsmiljo
arbetsplats
arbetsplatsen
arbetsplatser
arbetssatt
arbetst
arbetstagare
arbetstid
arbetsuppgifter
arc
arch
are
area
areal
arealer
arealet
aren
arena
arenan
arend
arende
arenden
arendet
arene
arens
aret
arets
arg
argang
argent
argentina
argument
argumenter
arhund
arhundrede
arhus
arig
ariga
arige
aring
aringar
aringen
ark
arke
arkite
arkitekt
arkitekter
arkitekton
arkitektur
arkiv
arkiver
arkivet
arkt
arlanda
arlig
arliga
arlige
arligen
arligt
arm
armar
armarna
armband
arme
armen
armene
armer
arn
arne
aro
arom
arr
arrang
arrangemang
arrangement
arrangementer
arrangementet
arranger
arrangera
arrangerade
arrangerar
arrangeras
arrangere
arrangerer
arrangeres
arrangert
arrangor
arrester
arrække
ars
arsag
arsagen
arsager
arsak
arsaken
arsaldern
arsen
arsenal
arsju
arskurs
arsm
arsmote
arsmotet
arsmøtet
arsredovis
arsredovisning
arsregn
arsskiftet
arstid
arstider
art
arten
arter
artier
artig
artik
artikel
artikeln
artikkel
artikkelen
artiklar
artiklen
artikler
artion
artist
artister
arts
arv
arvid
as
asa
asfalt
ash
ashley
asi
asia
asian
asiat
asiatisk
asiatiska
asiatiske
asien
asikt
asikter
ask
aska
askad
asker
asp
aspekt
aspekter
asper
ass
assa
assist
assistans
assistent
assister
assoc
associ
association
ast
astad
astadkomma
astma
astr
astrid
astronom
asyl
asylsokande
at
ata
ataganden
atal
atanke
ate
atel
ater
ateranvand
aterbetal
aterbetalning
aterfin
aterfinns
aterforsaljare
aterfukt
aterga
aterham
aterhamtning
aterigen
aterkall
aterkomma
aterkommande
aterkommer
aterstall
aterstalla
aterstar
aterupp
atervand
atervanda
atervande
atervander
atervin
atervinning
atgard
atgarda
atgarden
atgarder
atit
atkomst
atl
atlant
atlas
atlet
atmin
atminstone
atmos
atmosfar
atmosfaren
atmosfære
atom
atskill
atskilliga
att
atta
attack
atte
atter
attit
attity
attityd
attra
attrah
attrakt
attraktion
attraktioner
attraktiv
attraktiva
attraktive
attraktivt
attribut
au
aud
audi
audio
auf
aug
august
augusti
aukt
auktion
auktor
auktoriserad
aur
aus
aust
austral
australia
australien
aut
autent
author
autism
auto
autom
automat
automatis
automatisk
automatiska
automatiskt
autonom
autor
av
avail
available
avancer
avancerad
avancerade
avanser
avbr
avbrott
avbryt
avbryta
avd
avde
avdel
avdeling
avdelning
avdelningar
avdelningen
avdrag
aven
aventyr
avfall
avgang
avgift
avgiften
avgifter
avgj
avgjør
avgjørende
avgor
avgora
avgorande
avgors
avhandling
avhengig
avis
avisen
aviser
avkast
avkastning
avklar
avkopp
avkopplande
avkoppling
avl
avlag
avlagsna
avled
avlid
avlon
avloningsdag
avlopp
avnj
avok
avs
avsak
avse
avsedd
avsedda
avseende
avser
avses
avsett
avsevart
avsikt
avsked
avsl
avslag
avslapp
avslappnad
avslo
avsloj
avsloja
avslojar
avslut
avsluta
avslutad
avslutade
avslutades
avslutande
avslutar
avslutas
avslutat
avslutning
avsluttet
avsnitt
avsnittet
avst
avsta
avstand
avstandet
avstang
avstangd
avsugning
avta
avtal
avtale
avtalen
avtaler
avtalet
avtryck
avund
avveck
avverk
avvik
avvikelser
aw
award
awards
away
awesome
ax
axel
axeln
axlar
axlarna
ay
az
a¤r
b2
ba
bab
babe
babes
baby
babys
bach
bachel
bachelor
back
backa
backar
backen
backup
bacon
bad
bada
badade
baddar
bade
baden
badet
badevær
badeværelse
badeværelset
badkar
badminton
badoo
badrum
badrummet
bag
bagage
bage
bagefter
bager
bagge
baggrund
baggrunden
bah
baj
bak
baka
bakade
bakar
bakat
baker
bakgr
bakgrund
bakgrunden
bakgrunds
bakgrunn
bakgrunnen
bakifran
bakke
bakken
bakker
bakom
bakplat
bakre
baksida
baksidan
bakt
bakter
bakterier
bakverk
bal
balance
balans
balansen
balanser
balkon
balkong
balkongen
ball
ballen
baller
balsam
balt
bam
bamse
ban
bana
banan
band
bandet
bandy
bane
banen
baner
bang
bange
bangkok
bank
banken
bankens
banker
bankerna
bankid
bankkonto
banklan
banks
banner
banor
bant
bar
bara
barb
barbar
barbara
barber
barcel
barcelona
bare
baren
barer
barm
barn
barna
barnbarn
barndom
barne
barneh
barnehage
barnehagen
barnen
barnens
barnet
barnets
barnever
barnmor
barns
barnvakt
barri
bars
barsel
bart
bas
base
basen
baserad
baserade
baseras
baserat
baseret
basert
basic
basil
basis
basket
bass
bast
basta
bastu
bat
batar
baten
batt
batter
batteri
batterier
batteriet
battle
battre
bay
bb
bbc
bbw
bc
bd
bdsm
be
bea
beach
beakt
beakta
beaktas
bearbet
bearbeta
bearbetning
beat
beaut
beautiful
beauty
beb
bebis
bebisen
bebo
beboer
beboere
beboerne
bebygg
bebyggelse
beck
bed
bede
beder
bedes
bedom
bedoma
bedomer
bedomning
bedomningar
bedomningen
bedoms
bedrag
bedrager
bedrageri
bedre
bedrift
bedriften
bedrifter
bedriv
bedriva
bedriver
bedrivs
bedst
bedste
bedt
bedøm
been
bef
befal
befann
befar
befatt
befin
befinder
befinna
befinner
befint
befintlig
befintliga
befolk
befolkning
befolkningen
befolknings
befor
befri
beg
bega
begag
begagnade
begar
begara
begaran
begatt
begav
bege
begej
beger
begge
begiven
begivenhed
begivenheder
begr
begra
begran
begrans
begransa
begransad
begransade
begransar
begransas
begransat
begransning
begransningar
begrav
begravet
begravning
begre
begreb
begreber
begrebet
begrens
begrenset
begrepet
begrepp
begreppet
begri
begrun
begrunn
begræns
begrænse
begrænset
begrænsninger
begyn
begynde
begyndelsen
begynder
begyndt
begyndte
begynne
begynnelsen
begynner
begynt
begynte
beh
behag
behagelig
behageligt
behaglig
behagligt
behall
behalla
behaller
behand
behandla
behandlade
behandlar
behandlas
behandle
behandler
behandles
behandlet
behandling
behandlingar
behandlingen
behandlinger
behandlings
behar
beholde
beholder
behor
behorig
behorighet
behov
behova
behovas
behovde
behovdes
behoven
behover
behovet
behovs
behovt
behøver
beige
bek
bekamp
bekampa
bekan
bekant
bekanta
bekendt
bekendtgørelse
bekl
beklag
beklager
bekost
bekostnad
bekraft
bekrafta
bekraftar
bekraftat
bekraftelse
bekre
bekræ
bekræft
bekv
bekvam
bekvama
bekvamligheter
bekvamt
bekym
bekymmer
bekymre
bekymret
bekymring
bekymringer
bekæm
bel
belagen
belaget
belagg
belagna
belast
belastning
belg
belgien
belig
beliggen
beliggende
beliggenhed
bell
bella
belon
beloning
belopp
beloppet
bely
belys
belysa
belyser
belysning
belæg
beløb
beløbet
beløn
beløp
bem
beman
bemanning
bemot
bemotande
bemyndig
bemær
bemærk
bemærkninger
ben
benam
benen
benene
benet
bengt
bengtsson
benjamin
benny
bens
bensin
bent
benytte
benytter
benyttes
benyttet
benz
benzin
beord
beprov
ber
berak
berakna
beraknad
beraknas
berakning
berakningar
beratt
beratta
berattade
berattar
berattat
berattelse
berattelsen
berattelser
berattig
bered
beredd
beredda
beredskab
beredskap
bereg
beregne
beregnes
beregnet
beregning
beregninger
beretning
berettiget
berg
bergen
berget
berglund
bergman
bergs
bergstrom
berlin
berling
bern
bero
berodde
beroende
berom
beromda
beror
berorda
berors
bert
bertil
berømte
berørte
bes
besatt
beseg
besid
besikt
besiktning
besitter
besk
beskad
beskatt
besked
beskedet
beskjed
beskrev
beskrevet
beskriv
beskriva
beskrivas
beskrive
beskrivelse
beskriver
beskrives
beskrivning
beskrivningar
beskrivningen
beskrivs
beskyl
beskytt
beskytte
beskyttelse
beskyttelses
beskytter
beskyttet
beskæ
beskæft
beskæftig
beskæftigelse
beskæftigelses
beskæftiger
besl
beslag
beslot
beslut
besluta
beslutade
beslutande
beslutar
beslutat
besluten
beslutet
beslutning
beslutningen
beslutninger
besluts
beslutsfatt
beslutte
besluttede
beslutter
besluttet
besok
besoka
besokare
besokarna
besoker
besoket
besoks
besokt
besokte
bespar
besparelser
best
besta
bestaende
bestall
bestalla
bestallde
bestaller
bestallning
bestallningar
bestallningen
bestallt
bestam
bestamd
bestamde
bestamm
bestamma
bestammelsen
bestammelser
bestammelserna
bestammer
bestams
bestamt
bestand
bestar
bestatt
beste
bestem
bestemm
bestemme
bestemmelse
bestemmelsen
bestemmelser
bestemmer
bestemt
bestemte
bestil
bestille
bestiller
bestilling
bestilt
bestilte
bestod
bestræ
bestyr
bestyrelse
bestyrelsen
bestyrelsens
bestyrelses
bestyrelsesmedlem
besvar
besvara
besvare
besvik
besvikelse
besviken
besvær
besø
besøg
besøge
besøgende
besøger
besøgt
besøgte
besøk
besøke
besøkende
besøker
besøkte
bet
beta
betal
betala
betalade
betalar
betalas
betalat
betale
betaler
betales
betaling
betalings
betalkort
betalning
betalningar
betalningen
betalnings
betalningsanmark
betalningsanmarkning
betalningsanmarkningar
betalt
betalte
bete
beteck
beteende
beteenden
betegn
beter
beting
betingelser
betingelserne
betjen
betjening
beton
betong
betraffande
betrag
betragtes
betragtning
betrakt
betrakta
betraktas
bett
better
betting
bety
betyd
betyda
betydande
betydde
betyde
betydelig
betydelige
betydeligt
betydelse
betydelsen
betyder
betydligt
betydning
betydningen
betyg
betyget
betyr
betød
beund
bev
bevak
bevaka
bevar
bevara
bevare
beveg
bevegelse
bevid
bevidst
bevidsthed
bevil
bevilj
beviljas
bevis
bevisa
bevisst
bevist
bevæ
bevæg
bevæge
bevægelse
bevægelser
bevæger
bf
bh
bi
bibe
bibehalla
bibel
bibelen
bibeln
bibli
bibliote
bibliotek
biblioteket
biblioteks
bid
bidr
bidra
bidrag
bidrage
bidrager
bidraget
bidragit
bidrar
bidrog
bieber
bif
biff
bifog
big
bik
bikini
bil
bilag
bilaga
bilar
bilarna
bild
bilda
bildades
bildar
bildas
bilde
bilden
bildene
bilder
bilderna
bildet
bilen
bilens
biler
bilister
bilj
biljett
biljetter
bill
billan
billed
billede
billeder
billederne
billedet
billet
billetter
billig
billiga
billigare
billigaste
billige
billigere
billigste
billigt
billy
biltillverk
bim
bin
bind
bindande
binde
bindende
binder
bing
bingo
bio
biod
biogas
biograf
biologi
biologisk
biologiska
biologiske
biom
bios
biotekn
bir
birger
birgitt
birgitta
bis
bisex
biskop
bist
bista
bistand
bit
bita
bitar
bitco
bitcoin
biten
biter
bitt
bitter
biver
biverkningar
bivir
bivirkninger
bj
bjar
bjarne
bjer
bjerg
bjod
bjods
bjor
bjork
bjorn
bjud
bjuda
bjuder
bjudit
bjuds
bjør
bjørn
bk
bl
bla
blaa
blabar
black
blackjack
blad
bladd
bladdra
blade
bladen
bladet
blam
blan
blancolan
bland
blanda
blandad
blandade
blandar
blandas
blandat
blande
blandet
blanding
blandning
blandningen
blandt
blank
blankett
blant
blas
blasa
blaser
blast
blaste
blatt
ble
blek
blekinge
blev
blevet
bli
blick
blickar
blicken
blid
blik
blin
blind
blink
blir
blitt
bliv
blivande
blive
bliver
blivit
blix
blixt
blo
block
blocket
blod
blodet
blodpro
blods
blodsocker
blodtryck
blodtryk
blog
blogg
blogga
bloggar
bloggare
bloggat
bloggen
blogger
blogginlagg
bloj
blok
blom
blomm
blomma
blommar
blommor
blommorna
blomst
blomster
blomstr
blon
blond
blonda
blonde
blondin
blood
blot
blota
blott
blow
blowjob
blu
blue
blues
bluet
bluetooth
bluff
blus
bly
blyg
blæ
blød
bløde
blødt
bm
bmw
bn
bnp
bo
board
bob
bock
bocker
bockerna
bod
bodde
boden
body
bodø
boede
boende
boenden
boendet
boet
bog
bogen
bogstav
bohus
boj
bok
boka
bokade
bokar
bokat
boken
bokens
bokfor
bokforing
bokmark
bokning
boks
boksen
bokslut
bokstav
bokstaver
bokstavligen
bokt
bol
bolag
bolagen
bolaget
bolagets
bolags
bolan
bold
bolden
bolig
boligen
boliger
boll
bollar
bollen
boller
bollnas
bom
bomb
bomber
bomuld
bomull
bon
bond
bondage
bonde
bonder
bonn
bonor
bonus
bonusar
bonusen
boob
boobs
book
booke
booking
boost
boot
booty
bop
bopæl
bor
boras
bord
borde
bordel
border
bordet
borg
borgen
borgenarer
borger
borgere
borgeren
borgerliga
borgerne
borgmester
borj
borja
borjade
borjan
borjar
borjat
borlange
born
bornholm
borr
borsen
borsta
bort
borta
borte
bortom
bortset
bortsett
bortskam
bortt
bos
bosatt
bosatta
bosch
bosn
boss
bosse
bost
bostad
bostaden
bostader
bostads
bostadslan
bostadsratt
boston
bot
botan
boter
bott
botten
bour
bow
bowling
box
boxen
boy
boys
bp
br
bra
brad
bragt
bragte
brak
bran
branche
branchen
brand
brande
branden
brands
brann
branna
brannande
branner
brans
bransch
branschen
branscher
bransje
bransjen
bransle
brant
brasil
brasilian
brasilien
bratt
brattom
bre
break
bred
breda
bredare
bredband
bredd
bredde
bredden
brede
bredere
bredt
bredvid
brem
brett
brev
brevet
brevladan
brf
bri
brian
brid
bridge
brilj
briller
bring
bringe
bringer
brinnande
brinner
bris
brist
bristande
bristen
brister
brit
british
britiske
britt
brittisk
brittiska
bro
broad
brocc
brod
broder
broderna
brodet
broen
brollop
brollopet
brom
bromma
broms
bron
brons
bror
brosch
brost
brostet
brot
brother
brott
brottet
brotts
brow
brown
browser
bru
bruce
brud
brudar
brudd
brug
bruge
brugen
bruger
brugere
brugeren
brugerne
bruges
brugt
brugte
bruk
brukade
brukar
bruke
bruken
bruker
brukere
brukeren
brukerne
brukes
bruks
brukt
brukte
brun
bruna
brunch
brune
brunett
brunn
brunt
brus
brut
brutal
brutalt
brutit
brutt
brutto
bry
bryde
bryder
bryg
brygg
brygga
brygger
bryll
bryllup
bryllups
bryn
brynas
bryr
bryssel
bryst
bryster
brystet
bryt
bryta
bryter
bræn
brænd
brænde
brænder
brændstof
brø
brød
brøn
brønd
brøndby
bt
btw
bu
bubb
bubbel
buck
bud
budd
buddh
budget
budgeten
budgettet
budsj
budsjett
budskab
budskap
budskapet
buff
buffe
bug
buk
bukser
bukt
bul
bulgar
bull
bullar
buller
bult
bum
bun
bund
bunden
bundet
bunke
bunn
bur
burde
bureau
burger
burk
burkar
bus
bush
business
busk
buskar
busker
buss
bussar
bussen
busser
bust
busty
but
butik
butiken
butiker
butikerna
butikk
butikken
butikker
butt
butter
buy
by
byar
byde
bydel
byder
byen
byens
byer
byg
bygd
bygde
bygg
bygga
byggar
byggas
byggd
byggda
byggde
byggdes
bygge
bygger
byggeri
byggeriet
bygges
bygget
bygglov
byggnad
byggnaden
byggnader
byggnads
byggs
byggt
byggts
bygning
bygningen
bygninger
bygnings
byl
bym
byn
byr
byra
byrad
byradet
byrak
byrakrat
byt
byta
bytas
byte
byter
bytt
bytte
byttet
byx
byxor
byxorna
bæ
bæl
bær
bære
bæredygt
bæredygtig
bæredygtighed
bærekraft
bærekraftig
bærer
bø
bød
bøger
bøj
bøkene
bøker
bøl
bøn
bønder
bør
børn
børne
børnene
børnenes
børnet
børns
bøs
bøsse
ca
cad
caf
cafe
cafeer
cal
cali
californ
call
calle
cam
camilla
camp
camping
campus
cams
can
canada
cancer
cand
canna
cannabis
canon
cap
capital
car
card
care
carina
carl
carlsson
carol
carolina
caroline
carsten
cart
cas
casa
case
cash
casin
casino
casinon
casinospel
casinot
cass
cast
casual
cat
categor
category
catering
cav
cb
cc
cd
ce
cec
cecil
cecilia
ceder
cel
cell
celler
cement
cens
censur
cent
center
centerpartiet
centimeter
centr
central
centrala
centrale
centralt
centre
centret
centrum
cer
ceremon
cert
certific
certifier
certifierad
certifierade
certifiering
certifikat
cf
ch
cha
chal
chall
challenge
chalmers
champ
champagne
champion
champions
chan
chance
chancen
chancer
chang
change
chans
chansen
chanser
char
charl
charles
charlie
charlotte
charm
charmerende
charmiga
charter
chass
chat
chatt
chatta
chatten
chau
chauff
che
check
checka
chef
chefen
chefer
chefred
chelse
chelsea
cher
chi
chic
chicago
chick
chil
chile
chili
chill
chip
chips
cho
chock
chok
choklad
chokladen
chokolade
chr
chris
christ
christensen
christer
christian
christians
christina
christine
christoffer
christop
christopher
chrome
church
ci
cia
cialis
cigar
cigaretter
cin
cir
cirka
cirkel
cirkul
cirkus
cit
citat
citer
citron
citrus
city
civ
civil
civila
ck
cl
cla
claes
clar
clara
clas
class
classic
claus
cle
clean
clear
click
client
clin
clint
clips
clo
close
cloud
club
cm
co
co2
coach
coaching
cock
cockta
cocktail
code
coffe
col
cola
coll
collect
collection
college
colomb
color
com
come
comeback
comfort
comm
comment
comments
commun
community
comp
compan
company
compl
computer
computere
computeren
con
conne
connect
cons
consult
cont
conta
contact
container
content
contin
continue
control
cook
cookie
cookies
cool
coola
coolt
coop
cop
copen
copenhagen
copyr
copyright
cor
core
corn
corpor
cos
cost
costa
cou
cougar
coun
count
country
county
cour
court
cover
cow
cp
cr
cra
crazy
cre
cream
creamp
creampie
creative
cred
credit
creme
cri
crist
cro
cross
cru
cry
cs
ct
cu
cub
cuck
cuckold
cum
cumshot
cup
cupen
cur
cust
custom
cut
cv
cy
cyber
cyk
cykel
cykeln
cykl
cykla
cyklade
cyklar
cyklen
cykler
cykling
cyklister
cyl
cylinder
da
dab
dack
dad
dag
dagar
dagarna
dagars
dagbladet
dagbok
dage
dagen
dagene
dagens
dager
dages
dagg
dagis
daglig
dagliga
daglige
dagligen
dagligt
dagpenge
dags
dagsl
dagslaget
dagsorden
dagtid
dagtilbud
dahl
daily
dal
dala
dalarna
dalen
dalig
daliga
daligt
dam
dame
damen
damer
damm
damms
dammsug
damp
dan
dance
dander
dani
daniel
danish
danmark
danmarks
dann
danne
danner
dannes
dannet
dans
dansa
dansade
dansar
danse
dansen
danser
dansk
danska
danske
dansker
danskere
danskerne
dar
darav
dare
darefter
daremot
darfor
daribland
darifran
darigenom
dark
darlig
darlige
darligere
darligt
darmed
darpa
dart
dartill
darutover
das
dat
data
databas
database
databasen
databaser
datak
datama
datan
datas
dataskydds
datat
date
dater
dating
datings
datingside
datingsider
datingsidor
dato
datoen
datoer
dator
datorer
datorn
datter
datteren
datum
datumet
dav
davarande
david
daværende
dax
day
days
db
dba
dc
dd
de
dead
deal
dealer
death
deb
debat
debatt
debatten
debatter
debiter
debiteras
debut
debuter
dec
december
decenn
decennier
deci
deckare
ded
dediker
dee
deep
def
defa
defekt
defens
defin
definer
definere
definier
definiera
definieras
definition
definitionen
definitioner
definitivt
deg
degen
dei
deilig
dej
dejen
dejlig
dejlige
dejligt
dejt
dejta
dejtar
dejtat
dejten
dejting
dejtingsa
dejtingsajt
dejtingsajter
dejtingsida
dejtingsidan
dejtingsidor
dek
dekk
dekke
dekker
dekket
deklar
dekor
dekoration
dekorer
dekorera
del
dela
delad
delade
delades
delagare
delakt
delaktiga
delaktighet
delar
delarna
delars
delas
delat
dele
deleg
delen
deler
deles
delikat
dell
dels
delt
delta
deltag
deltagande
deltagare
deltagarna
deltage
deltagelse
deltager
deltagere
deltagerne
deltaget
deltagit
deltakelse
deltakere
deltakerne
deltar
deltav
delte
deltid
deltog
deltok
delux
deluxe
delvis
delvist
dem
demens
demo
demokrat
demokrati
demokratin
demokratisk
demokratiska
demokratiske
demon
demonstr
demonstration
den
dengang
denmark
denna
denne
dennes
dennis
dens
densamma
departem
departementet
depon
deposit
depp
depress
depression
deprimer
der
deraf
deras
derby
dere
derefter
deres
deretter
derfor
derfra
derhjemme
derimod
derimot
dermed
dern
dernæst
dersom
dertil
derude
derudover
derved
des
desember
desig
design
designad
designen
designer
designet
designs
desper
desperat
dess
dessa
desser
dessert
dessuten
dessutom
dessvarre
dessverre
dest
destin
destination
destinationer
desto
destrukt
desuden
desværre
det
detail
detalj
detaljer
detaljerad
detaljerade
detaljerna
detaljplan
detekt
dets
detsamma
detta
dette
deut
deutsch
dev
devel
develop
development
df
di
dia
diabet
diabetes
diagn
diagnos
diagnose
diagnosen
diagnoser
diagnost
diagram
dial
dialekt
dialog
dialogen
diam
diamant
diameter
diamond
diana
diar
diarre
dick
did
die
diesel
diet
diff
differ
different
dig
digit
digital
digitala
digitale
digitalisering
digitalt
digt
dikt
dikter
dil
dild
dildo
dildos
dilem
dilemma
dill
dim
dimension
dimensioner
din
dina
dine
dinosa
diplom
dir
dire
director
direkt
direkta
direkte
direktiv
direktivet
direktor
direktør
dirig
dirt
dis
disc
discipl
disciplin
disclaimer
disco
discover
disk
disken
diskmaskin
diskret
diskrimin
diskriminering
diskusjon
diskuss
diskussion
diskussionen
diskussioner
diskuter
diskutera
diskuterade
diskuterar
diskuteras
diskutere
disney
dispens
display
dispon
disposition
disse
dist
distans
distri
distribu
distribut
distribution
distrikt
distriktet
dit
ditt
div
diverse
division
divisjon
dj
djav
dju
djung
djup
djupa
djupare
djupet
djupt
djur
djuren
djurgarden
dk
dkk
dl
dla
dm
dn
dna
dnr
do
dobb
dobbel
dobbelt
doc
dock
dod
doda
doden
dods
dodsfall
doft
doftar
doften
dofter
dog
dogg
dogging
dok
dokt
doktor
doktorn
dokument
dokumentar
dokumentasjon
dokumentation
dokumenter
dokumentera
dokumentere
dokumentet
dol
dold
dolda
dolj
dolja
doljer
doll
dollar
dom
doma
doman
domanen
domar
domare
domaren
domdes
domen
domin
domina
dominans
dominer
dominerande
dominerar
dominerende
dommen
dommer
doms
domstol
domstolen
don
donald
dop
doping
dopp
dor
dorr
dorrar
dorrarna
dorren
dort
dos
doser
dosering
dosis
dott
dotter
dotterbolag
dottern
dottrar
double
doug
dov
dow
down
downlo
download
dr
dra
drabb
drabbade
drabbades
drabbar
drabbas
drabbats
drack
drag
drage
dragit
dragkedja
dragon
drakt
dram
drama
dramat
dramatisk
dramatiska
drammen
dran
drap
drar
dras
drast
dre
dream
dreier
dreje
drejer
dren
dreng
drenge
drengen
drengene
drept
dress
dressyr
drev
drevet
dri
drick
dricka
dricker
drift
driften
drifts
drikke
drikker
drikkevarer
drin
drink
drinkar
driv
driva
drive
driven
driver
drives
drivit
drivkraft
drivs
dro
drog
droger
droj
droja
drojer
drojsmal
drom
dromde
dromma
drommar
drommen
drommer
dromt
dron
dronning
drop
dropp
droppar
droppe
drott
drottning
dru
druckit
dry
dryck
drycker
dryg
dryga
drygt
dræ
dræbt
drø
drøft
drøm
drømme
drømmen
drømmer
ds
dsb
dt
du
dubai
dubb
dubbel
dubbels
dubbelt
dubbla
duft
dug
duger
dugg
duk
dukke
dukker
dukket
dukt
duktig
duktiga
dum
dumma
dumt
dun
duo
dur
dusch
duscha
duschen
duss
dv
dvar
dvd
dvs
dy
dyb
dybde
dybe
dybere
dybt
dyg
dygn
dygnet
dygt
dygtig
dygtige
dyk
dyka
dyker
dykker
dykt
dyl
dylikt
dyn
dynam
dynamisk
dyp
dyr
dyra
dyrare
dyre
dyrene
dyrere
dyrke
dyrker
dyrt
dys
dysfunktion
dæk
dække
dækker
dækket
dækning
dæm
dø
død
døde
døden
døds
døg
døgn
døgnet
dømt
døpt
dør
døre
døren
dørene
e4
ea
ear
earth
east
easy
eb
ebba
eben
ebon
ebony
ec
eco
econom
ed
eder
edge
edit
edition
eds
edu
education
edward
een
ef
effe
effekt
effekten
effekter
effekterna
effektiv
effektiva
effektivare
effektive
effektivisering
effektivitet
effektiviteten
effektivt
efter
efterar
efteraret
efterat
efterfoljande
efterfrag
efterfragan
efterfølgende
efterhand
efterhanden
efterl
efterlangt
efterlangtade
efterlev
eftermid
eftermiddag
eftermiddagen
efternamn
efterratt
efterskole
eftersom
eftersp
efterspørgsel
efterstra
eftert
eg
egen
egendom
egenskaber
egenskap
egenskaper
egent
egentlig
egentliga
egentlige
egentligen
egentligt
eget
egg
egna
egne
egner
egnet
ego
egypt
egypten
eh
ei
eid
eiendom
eier
ein
einar
eit
ej
eje
ejendom
ejendomme
ejendommen
ejer
ejere
ejeren
ek
eker
ekip
eko
ekologisk
ekologiska
ekologiskt
ekonom
ekonomi
ekonomin
ekonomisk
ekonomiska
ekonomiskt
eks
eksam
eksamen
eksamens
eksem
eksempel
eksempelvis
eksempl
eksempler
eksistens
eksister
eksisterende
eksisterer
ekskl
eksklus
eksklusive
eksp
eksper
eksperimenter
ekspert
eksperter
ekspl
eksplos
ekspon
eksport
ekst
ekster
ekstern
eksterne
ekstra
ekstraordin
ekstrem
ekstremt
ekte
ekteskap
ekv
el
elak
elast
elbil
eld
elden
eldre
eldste
ele
elec
elect
elef
elefant
eleg
elegant
eleganta
elekt
elektr
elektric
elektricitet
elektriker
elektrisk
elektriska
elektriske
elektro
elektron
elektronik
elektronikk
elektronisk
elektroniska
elektroniske
element
elementer
elen
elev
eleven
elevene
elevens
elever
eleverna
elevernas
eleverne
elevernes
elevers
elf
elg
elias
elim
elimin
eliminer
eliminera
elin
elisa
elisabeth
elit
elite
eliza
elizabeth
ell
ella
elle
ellen
eller
ellers
elsa
else
elske
elskede
elsker
elsket
elva
elvis
em
email
emball
emballage
embed
eme
emelie
emellan
emellanat
emeller
emellertid
emer
emil
emilia
emission
emma
emne
emner
emnet
emot
emotion
emp
empati
empir
en
ena
enastaende
enbart
end
enda
endast
endda
ende
endel
endelig
endelige
endeligt
enden
ender
ending
endnu
endre
endret
endring
endringer
endt
endte
endvidere
ene
ener
energ
energi
energibespar
energieffekt
energieffektiv
energien
energik
energim
energin
energis
energy
enestaende
eneste
eng
engag
engagemang
engagement
engager
engagera
engagerad
engagerade
engagerar
engang
engas
engasj
engasjement
engasjer
engasjert
engel
engelsk
engelska
engelske
engine
engl
england
english
engro
engroshandel
enhed
enheden
enheder
enhet
enheten
enheter
enhver
enig
enige
enighet
enjoy
enk
enkat
enkaten
enkel
enkelhet
enkelt
enkelte
enkl
enkla
enklare
enklast
enklaste
enkle
enklere
enkoping
enlighet
enligt
enn
enna
enor
enorm
enorma
enorme
enormt
ens
ensam
ensamhet
ensamkommande
ensamma
ensamstaende
ensartet
ensem
enskil
enskild
enskilda
enskilde
enskilt
ensom
enst
enstaka
enstem
ent
enten
enter
entertainment
entr
entre
entren
entrepren
entreprenad
entreprenor
entreprenorer
entreprenorskap
entreprenør
entusi
entusias
entusiast
envis
ep
epide
epis
episode
episoder
epost
equ
er
era
erb
erbjod
erbjud
erbjuda
erbjudande
erbjudanden
erbjudandet
erbjudas
erbjuder
erbjuds
ere
erektion
erf
erfar
erfaren
erfarenhet
erfarenheter
erfaring
erfaringer
erfarna
erfarne
erg
ergo
ergonom
erhall
erhalla
erhaller
erhver
erhverv
erhvervs
eric
ericsson
erik
erika
eriksen
eriksson
erin
erk
erkan
erkanna
erkannande
erkanner
erkl
erklær
erklæring
ern
erne
ernst
ernæring
erot
erotic
erotik
erotikk
erotisk
erotiska
erotiske
erov
ersatt
ersatta
ersattare
ersattas
ersatter
ersattning
ersattningen
ersattnings
ersatts
erst
erstat
erstatning
erstatt
erstatte
erstattet
ert
es
esb
esbjerg
esc
escort
escorte
escorter
escorts
escortt
escorttjej
escorttjejer
esk
eskil
eskilst
eskilstuna
eskort
eskorte
eskorter
eskortt
eskorttjejer
esp
espress
ess
essa
essent
est
estet
estland
et
eta
etabl
etablera
etablerade
etablerat
etablere
etableres
etableret
etablering
etableringen
etablert
etage
etager
etapp
etc
ethvert
etik
etikett
etiketter
etiop
etisk
etiska
etiske
etn
etnisk
ett
etta
ettan
etter
etterhvert
ettermiddag
etterpa
ettersom
ettersp
eu
eur
euro
europ
europa
europaparlam
europas
europe
european
europeisk
europeiska
europeiske
europæ
europæisk
europæiske
eurovision
eus
ev
eva
evaku
evalu
evaluering
evangel
even
evenemang
evenemanget
event
events
eventu
eventuel
eventuell
eventuella
eventuelle
eventuellt
eventuelt
eventyr
ever
every
evidens
evig
eviga
evighet
evigt
evne
evnen
evner
evolution
evt
ex
exakt
exakta
exam
examen
examens
examin
exc
excel
excell
exception
exempel
exempelvis
exempl
exemplar
exemplet
existens
exister
existerande
existerar
exkl
exklus
exklusiv
exklusiva
exklusivt
exp
expander
expans
expansion
expedition
exper
experience
experiment
experimenter
expert
experter
expertis
expl
explo
exploder
explorer
explos
expon
exponering
export
exporter
express
expressen
ext
extern
externa
extra
extre
extrem
extrema
extreme
extremt
ey
eye
eøs
fa
faa
fab
fabr
fabrik
fabriken
fac
face
facebook
faciliteter
facit
fack
facket
fackliga
factor
fad
fader
fadern
faet
fag
fagel
fager
faget
fagfolk
faglar
faglarna
faglig
faglige
fagligt
fair
fak
fake
fakt
fakta
faktisk
faktiska
faktiske
faktiskt
faktor
faktorer
faktum
faktur
faktura
fakturan
fakturering
fakturor
fakult
fakultet
fal
fald
falde
falder
faldet
faldt
falk
falken
falkenberg
fall
falla
fallen
faller
fallet
fallit
false
falsk
falska
falske
falster
falt
faltet
falun
fam
famil
famili
familie
familiemedlem
familien
familiens
familier
familj
familje
familjemedlem
familjen
familjens
familjer
family
fan
fand
fandt
fang
fanga
fangar
fange
fangelse
fanger
fanget
fangsl
fangst
fann
fanns
fanny
fans
fansen
fant
fantas
fantasi
fantasier
fantasin
fantast
fantastisk
fantastiska
fantastiske
fantastiskt
fantasy
far
fara
farbror
fard
fardig
fardiga
fardigheter
fardigt
fare
faren
farfar
farg
farga
fargade
farge
fargen
farger
fargerna
fargglad
fargglada
fargmodellen
fargt
fargton
fargutrymmet
farj
farlig
farliga
farlige
farligt
farm
farmas
farmasøyt
farmor
farre
fars
farsk
farska
fart
farten
fartyg
fartyget
farve
farvel
farven
farver
fas
fasad
fasc
fasciner
fascinerande
fascinerende
fase
fasen
faser
fashion
fast
fasta
fastan
faste
faster
fastholde
fastighet
fastigheten
fastigheter
fastighets
fastighetsag
fastighetsagare
fastighetsmak
fastna
fastnade
fastnar
fastnat
fastsat
fastsatt
faststall
faststalla
faststalls
fastsætte
fastsættes
fat
fatal
fatol
fatt
fatta
fattade
fattar
fattas
fattat
fattig
fattiga
fattigdom
fattige
fav
favor
favorit
favoriter
favoritt
favoritter
fax
fb
fc
fd
fe
featur
feb
feber
febru
februar
februari
fed
fede
feder
fedt
feed
feedback
feel
feil
feir
fej
fejl
fejre
fel
felakt
felaktig
felaktiga
felaktigt
felet
felicia
felix
fell
felles
fellesskap
fels
felt
feltet
fem
femin
femt
femte
femtio
femton
fen
feng
fengsel
fenomen
fenomenet
fer
ferd
ferdig
ferdigheter
feri
ferie
ferien
fern
fersk
fert
fest
festen
fester
festiv
festival
festivalen
festivaler
fet
feta
fetisch
fetish
fett
ff
fi
fia
fiber
fibr
fick
fickor
fiction
fien
fiende
fiender
fig
figh
fight
figur
figuren
figurer
fik
fika
fikade
fikk
fikt
fil
filen
filer
filial
filip
filipp
film
filma
filme
filmen
filmens
filmer
filmerna
filosof
filosofi
filt
filter
filtr
fin
fina
final
finale
finalen
finan
finans
finansiell
finansiella
finansielle
finansiellt
finansier
finansiera
finansieras
finansiering
finansieringen
finansierings
finansinstitut
finansk
finanskrisen
finansminister
finare
finaste
find
finde
finder
findes
fine
fineste
fing
finger
fingrar
fingrarna
fingre
fingrene
fingret
finish
finland
finlands
finn
finna
finnas
finne
finner
finnes
finnmark
finns
finsk
finska
fint
fir
fira
firade
firar
firas
fire
firma
firmaer
firmaet
first
fish
fisk
fiska
fiskar
fiske
fisken
fisker
fiskeri
fisket
fisse
fit
fitness
fitt
fitta
fittan
fitte
fittor
fix
fixa
fixade
fixar
fixat
fj
fjad
fjader
fjall
fjar
fjard
fjarde
fjaril
fjarr
fjarrvarme
fjell
fjellet
fjen
fjer
fjerde
fjern
fjerne
fjerner
fjernes
fjernet
fjernsyn
fjernvarme
fjol
fjor
fjord
fjorden
fjort
fk
fl
fla
flack
flackar
flad
flade
flag
flagg
flakt
flam
flash
flashback
flask
flaska
flaskan
flaske
flasker
flaskor
flat
fle
fleks
fleksibel
fleksibilitet
fleksible
flem
flemming
fler
flera
flere
flert
flertal
flertalet
flertall
flertallet
flesh
fleshlight
flest
flesta
fleste
flex
flexi
flexibel
flexibilitet
flexibla
flick
flicka
flickan
flickor
flickorna
flickvan
fliken
flin
flink
flinke
flir
flirt
flis
fliser
flit
flitigt
flitt
flo
flock
flod
flode
floden
flog
flok
flor
flora
florida
flot
flott
flotte
flow
flu
fluff
flug
fly
flybill
flydende
flyet
flyg
flyga
flygbolag
flyger
flyget
flygplan
flygplats
flygplatsen
flygtning
flygtninge
flykt
flykting
flyktingar
flyr
flys
flysel
flyt
flytande
flyter
flytning
flytt
flytta
flyttade
flyttar
flyttas
flyttat
flytte
flyttede
flytten
flytter
flyttes
flyttet
flyve
flyver
fløde
fløj
fm
fn
fns
fo
focus
fod
foda
fodbold
fodd
fodda
foddes
fodels
fodelse
fodelsedag
foder
fods
fog
foga
fokus
fokusera
fokuserar
fokusere
fokuserer
fol
folder
folie
folj
folja
foljaktligen
foljande
foljare
foljas
foljd
foljde
foljer
foljs
foljt
folk
folkbok
folke
folkeh
folkem
folkeparti
folkeskolen
folket
folketinget
folkets
folkhals
folkhog
folkhogskola
folks
foll
follow
fon
fond
fonden
fondens
fonder
fonster
fonstren
fonstret
font
food
foot
for
fora
forad
foral
forald
foralder
foraldr
foraldra
foraldral
foraldrar
foraldrarna
foran
forand
forandra
forandrade
forandrar
forandras
forandrats
forandring
forandringar
forandringen
forandringer
forank
forankring
foranstaltninger
forar
forare
foraren
foraret
forars
foras
forb
forban
forband
forbannad
forbatt
forbattra
forbattrad
forbattrar
forbattras
forbattring
forbattringar
forbe
forbed
forbedre
forbedret
forbedring
forbedringer
forbehaller
forbehold
forbeholder
forber
forbered
forbereda
forberedd
forberede
forberedelse
forberedelser
forbereder
forberedt
forberett
forbi
forbin
forbindelse
forbindelsen
forbindelser
forbinder
forbjud
forbjudet
forbl
forbli
forblir
forbliver
forbr
forbran
forbru
forbrug
forbruger
forbruk
forbruker
forbry
forbud
forbudet
forbudt
forbund
forbundet
forbundets
forbunds
force
ford
forde
fordel
fordela
fordelar
fordelarna
fordelas
fordelat
fordele
fordelen
fordelene
fordeler
fordeling
fordelning
fordelt
fordi
fordju
fordjupa
fordom
fordomar
fordon
fordonet
fordons
fordr
fordringar
fordro
fordubb
fordy
fore
foreb
forebild
forebygg
forebygga
forebyggande
forebygge
forebyggelse
forebyggende
fored
foredra
foredrag
foredrar
foref
foreg
forega
foregaende
foregang
foregar
forek
forekom
forekomm
forekomma
forekommande
forekomme
forekommer
forekomst
forekomsten
forel
forelas
forelasare
forelasning
forelasningar
foreldre
foreldrene
forelig
foreligger
forelsket
foreløb
foreløbig
foreløp
foreløpig
foremal
foren
forening
foreningar
foreningen
foreningens
foreninger
forenings
foreningsl
forenkl
forenkla
fores
foreskrifter
foreskriv
foresla
foreslag
foreslagna
foreslar
foreslas
foreslog
foresp
forest
forestall
forestalla
forestallning
forestallningar
forestallningen
forestille
forestilling
forestillingen
forestillinger
foret
foreta
foretag
foretagande
foretagare
foretage
foretagen
foretagens
foretager
foretages
foretaget
foretagets
foretags
foretak
forete
foretradare
foretrades
foretrukne
foretrækker
forev
forf
forfal
forfall
forfar
forfarande
forfatt
forfattar
forfattare
forfattaren
forfattarna
forfatter
forfattere
forfatteren
forfl
forflutna
forflytt
forfog
forfogande
forfolj
forfor
forfrag
forfragan
forfragningar
forfær
forg
forh
forha
forhab
forhabentlig
forhall
forhalla
forhallande
forhallanden
forhallandet
forhallandevis
forhallningssatt
forhand
forhandla
forhandler
forhandlere
forhandling
forhandlingar
forhandlinger
forhap
forhin
forhindra
forhindrar
forhindre
forhindrer
forhold
forholde
forholdene
forholder
forholdet
forholds
forholdsvis
forhopp
forhoppning
forhoppningar
forhoppningsvis
forhor
forinden
fork
forkant
forkert
forkerte
forkl
forklar
forklara
forklarade
forklarar
forklaras
forklare
forklarer
forklaring
forklaringar
forklaringen
forknipp
forkort
forkun
forkyl
forkyld
forkylning
forkyn
forkæl
forl
forlade
forlader
forlag
forlaget
forlagets
forlang
forlanga
forlangning
forlat
forleden
forlod
forlor
forlora
forlorad
forlorade
forlorar
forlorat
forloss
forlossning
forlossningen
forlov
forlust
forluster
forlæn
forlæng
forlængelse
forløb
forløbet
form
forma
formaga
formagan
formagor
formal
formalet
forman
formand
formanden
formaner
formann
formar
format
formatet
forme
formed
formedla
formedlar
formel
formen
formentlig
former
formid
formiddag
formiddagen
formidle
formidler
formidling
formod
formodligen
formogen
formue
formul
formular
formularet
formulera
formulering
forn
forna
forne
forned
fornem
fornemmelse
fornu
fornuft
fornuftig
fornuftigt
forny
fornya
fornybar
fornyelse
fornøjelse
fornøyd
forord
forordning
forordningen
fororen
forov
forovrigt
forp
forpack
forpackning
forpackningar
forpackningen
forpligt
forpligtelser
forpligtet
forplikt
forpliktelser
forr
forra
forrad
forran
forratt
forre
forresten
forret
forretning
forretnings
forretningsm
forrige
fors
forsak
forsakra
forsakrade
forsakring
forsakringar
forsakringen
forsakrings
forsakringsbolag
forsakringsk
forsakringskassan
forsalj
forsaljning
forsaljningen
forsaljnings
forsam
forsamling
forsamlingen
forsav
forsavitt
forse
forsedd
forsen
forside
forsiden
forsigt
forsigtigt
forsik
forsikring
forsikringen
forsikringssel
forsikt
forsiktig
forsiktighet
forsiktigt
forsin
forsinket
forsk
forskar
forskare
forskarna
forskel
forskell
forskelle
forskellen
forskellig
forskellige
forskelligt
forsker
forskere
forskerne
forskj
forskjell
forskjellen
forskjeller
forskjellig
forskjellige
forskning
forskningen
forsknings
forskol
forskola
forskolan
forskole
forskoll
forskolor
forskott
forskrift
forskrifter
forslag
forslagen
forslaget
forsok
forsoka
forsoker
forsokt
forsokte
forson
forsor
forst
forsta
forstaelse
forstaelsen
forstaet
forstand
forstar
forstark
forstarka
forstarker
forstarkning
forstarkt
forstas
forstatt
forste
forster
forstod
forstor
forstora
forstyr
forsv
forsvann
forsvar
forsvara
forsvarar
forsvare
forsvaret
forsvarets
forsvarlig
forsvars
forsvarsmakten
forsvin
forsvinder
forsvinna
forsvinner
forsvunnit
forsy
forsyning
forsø
forsøg
forsøge
forsøger
forsøgt
forsøgte
forsøk
forsøke
forsøker
forsøkt
fort
forta
fortalt
fortalte
fortare
forte
fortell
fortelle
forteller
fortfarande
fortid
fortiden
fortjan
fortjanar
fortjener
fortjust
fortol
fortr
fortroende
fortroendet
fortry
fortryck
forts
fortsat
fortsatt
fortsatta
fortsatte
fortsatter
fortsattning
fortsattningen
fortsette
fortsetter
fortsætte
fortsætter
fortviv
fortydlig
fortæll
fortælle
fortæller
fortælling
fortællinger
forud
foruden
forudsætning
forudsætninger
forum
forumet
forund
forur
foruren
forurens
forut
forutom
forutsag
forutsatt
forutsatter
forutsattning
forutsattningar
forutsattningarna
forutsetning
forv
forvag
forval
forvalt
forvalta
forvaltning
forvaltningen
forvaltnings
forvan
forvanad
forvanande
forvanansvart
forvand
forvandlas
forvant
forvanta
forvantade
forvantan
forvantar
forvantas
forvantat
forvantningar
forvantningarna
forvar
forvara
forvaras
forvaring
forvarv
forvarva
forvejen
forvent
forvente
forventede
forventer
forventes
forventet
forventning
forventninger
forverk
forverkliga
forvir
forvirrad
forvirring
forvis
forvisso
foræl
forældre
forældrene
fos
fosfor
foss
fossil
fost
foster
fot
fota
fotade
fotball
fotboll
fotbollen
fotbolls
foten
foto
fotograf
fotografen
fotografer
fotografera
fotografering
fotografi
fotografier
foton
fotos
fotot
fots
fott
fotter
fotterna
fou
found
foundation
four
fox
fp
fr
fra
fradrag
frag
fraga
fragade
fragan
fragar
fragat
fragestall
fragestallningar
fraget
fragor
fragorna
fragt
frakt
fral
frals
fram
framat
framfor
framfora
framforallt
framgang
framgangar
framgangs
framgangsrik
framgangsrika
framgangsrikt
framgar
framja
framjar
framkom
framling
frammande
framme
framover
framre
framsidan
framst
framsta
framstar
framsteg
framtagen
framtid
framtida
framtiden
framtidens
framtradande
fran
france
francis
francisco
frank
frankrig
frankrike
frans
fransk
franska
franske
franvaro
fras
frasch
frascha
frascht
fraser
frat
fravær
fre
fred
fredag
fredagen
fredags
freder
fredericia
frederik
frederiksberg
frederikshavn
fredrik
fredrikstad
free
freesp
freespins
frekv
frekvens
frem
fremad
fremdeles
fremfor
fremga
fremgang
fremgangsm
fremgar
fremh
fremhæ
fremme
fremmed
fremmede
fremmer
fremmest
fremover
fremragende
fremskr
fremst
fremstar
fremstillet
fremstilling
fremtid
fremtiden
fremtidens
fremtidig
fremtidige
fren
fri
fria
frid
frida
friday
frie
frien
friend
friends
frig
frigj
frihed
frihet
friheten
friidrott
frik
fril
friluft
friluftsliv
frim
fris
frisk
friska
friske
friskt
friskvard
frisor
frist
frista
fristaende
fristen
frit
fritid
fritiden
fritids
fritidshem
fritidshus
fritt
friv
frivill
frivillig
frivilliga
frivillige
frivilligt
fro
froken
frokost
frol
frolunda
from
fron
front
fronten
fros
frost
frp
fru
frug
frugt
fruk
frukost
frukosten
frukt
fruktansvart
frukter
frustr
frustration
frustrer
fry
fryg
frygt
frykt
frys
frysa
fryse
frysen
fryser
fræk
frække
frækt
frø
fs
ft
fu
fuck
fucking
fug
fugl
fugle
fugt
fukt
fuktig
fuktighet
ful
fula
fuld
fulde
fuldstændig
fuldstændigt
fuldt
fuldtid
fulgt
fulgte
full
fulla
fulle
fullgora
fullkomligt
fullmakt
fullmaktige
fullstand
fullstandig
fullstandiga
fullstandigt
fullstendig
fullt
fult
fun
function
fund
fundament
funder
fundera
funderade
funderar
funderat
funderingar
fundet
funger
fungera
fungerade
fungerande
fungerar
fungerat
fungere
fungerer
funk
funka
funkade
funkar
funksjon
funksjoner
funktion
funktionalitet
funktionen
funktioner
funktionsh
funktionshinder
funktionshindrade
funktionsned
funktionsnedsattning
funn
funnet
funnit
funnits
fur
fus
fusion
fusk
fut
fv
fx
fy
fyl
fyld
fylde
fylder
fyldt
fyldte
fylke
fylkes
fylkeskommun
fylkesmannen
fyll
fylla
fyllas
fylld
fyllda
fyllde
fylle
fyller
fylls
fyllt
fylt
fyn
fynd
fynda
fyr
fyra
fyre
fyrkant
fyrt
fys
fysi
fysik
fysio
fysioterapeut
fysisk
fysiska
fysiske
fysiskt
fæ
fæl
fæll
fælles
fællesskab
fællesskabet
fæn
fæng
fængsel
fænomen
fær
færdig
færdige
færdigheder
færdigt
færre
færreste
færø
fø
fød
fødder
føde
fødevar
fødevare
fødevarer
føds
fødsel
fødsels
fødselsdag
fødslen
født
føl
føle
følelse
følelsen
følelser
følelses
føler
føles
følg
følge
følgende
følger
følges
følte
før
føre
førende
fører
føres
først
første
førsteklass
førsteklasses
ført
førte
ga
gabri
gabriel
gad
gadd
gade
gaden
gader
gaende
gaet
gaffel
gag
gal
gala
galaxy
galden
galen
galet
gall
galla
gallande
gallde
galler
galleri
gallerier
galna
galopp
galt
gam
gambling
game
games
gaming
gamla
gamle
gamm
gammal
gammalt
gammel
gammeldags
gammelt
gang
gangavstand
gangbang
gange
gangen
ganger
gangerna
ganget
gangna
gangs
gangvag
ganska
ganske
gap
gar
garage
garaget
garant
garanter
garantera
garanterar
garanterat
garanterer
garanti
garantier
gard
gardagen
gardagens
gardar
garde
garden
garder
garderob
garderoben
gardin
gardiner
gards
garn
garna
garnet
gas
gass
gast
gaster
gasterna
gat
gata
gatan
gate
gator
gatorna
gatt
gatu
gav
gava
gave
gavekort
gaver
gavle
gavleborg
gavn
gavor
gavs
gay
gaza
gb
gbg
gd
gdpr
ge
gear
geb
gebyr
gebyrer
ged
gedigen
geir
gel
gem
gemen
gemensam
gemensamma
gemensamt
gemenskap
gemenskapen
gemme
gemmer
gemt
gen
genast
genbrug
gener
general
generalfor
generalforsamling
generalforsamlingen
generation
generationen
generationer
generations
generel
generell
generella
generelle
generellt
generelt
generera
genererar
generisk
generos
generosa
genet
geng
gengæld
genial
genkende
gennem
gennemføre
gennemførelse
gennemføres
gennemført
gennemga
gennemgaet
gennemgang
gennemgar
gennemsigt
gennemsnit
gennemsnitlig
gennemsnitlige
genom
genombrott
genomfor
genomfora
genomforande
genomforandet
genomforas
genomford
genomforde
genomfordes
genomfors
genomfort
genomforts
genomga
genomgaende
genomgang
genomgatt
genomskin
genomsnitt
genomsnittet
genomsnittliga
genomtan
genomtankt
genop
genre
genren
genrer
gens
genstand
genstande
gent
gentemot
gentlem
genu
genuint
genus
geograf
geografi
geografisk
geografiska
geomet
georg
george
ger
german
gerne
gert
ges
gest
gestalt
get
gett
gev
gevin
gevinst
gevinster
gf
ggr
gh
gi
gick
gid
gider
gif
gift
gifta
gifte
gifter
giftet
gig
gigant
gigantisk
gigantiska
gik
gikk
gil
gill
gilla
gillade
gillar
gillat
gilt
giltig
gin
gina
gips
gir
girl
girls
gis
giss
gissa
gissar
gitar
gitarr
gitt
gitte
giv
givande
give
given
giver
gives
givet
givetvis
givit
givna
gj
gjaldt
gjel
gjeldende
gjelder
gjen
gjeng
gjenn
gjennom
gjennomføre
gjennomføres
gjennomføring
gjennomført
gjennomgang
gjennomsnitt
gjennomsnittlig
gjenopp
gjenopprett
gjenoppretting
gjens
gjent
gjer
gjerne
gjest
gjester
gjord
gjorda
gjorde
gjordes
gjort
gjorts
gjut
gjø
gjør
gjøre
gjøres
gl
gla
glad
glada
gladare
glade
gladjande
gladje
gladjen
glam
glans
glas
glaset
glasogon
glass
glat
glatt
gled
glede
gleder
glem
glemme
glemmer
glemt
glemte
gles
glid
glida
glide
glider
glidmedel
glim
glimrende
glimt
glip
glitt
glitter
glo
glob
global
globala
globale
globalt
globen
glod
glogg
glom
glomde
glomma
glommer
glomt
glor
glostrup
gluk
gluten
glæ
glæde
glæder
gm
gmail
gn
gna
gnall
go
goa
god
goda
godare
godaste
gode
godis
godk
godkan
godkand
godkanda
godkann
godkanna
godkannande
godkanner
godkant
godkendelse
godkendes
godkendt
godkendte
godkjen
godkjenning
godkjent
godmorgon
godnatt
gods
godt
gol
gold
golden
golf
golv
golvet
gom
gomma
gommer
gon
good
goog
google
googles
gor
gora
goran
goras
gors
gos
got
gota
gotaland
gotalands
gote
goteborg
goteborgs
gotland
gott
gour
gp
gps
gr
gra
graa
grabb
grabbarna
grad
gradd
gradda
gradde
gradden
graden
grader
graders
gradvis
graf
grafik
grafikk
grafisk
grafiska
gram
grammat
gran
grand
granen
granit
grann
grannar
grannarna
granne
grannen
granny
grans
gransen
granser
granserna
gransk
granska
granskning
granssnitt
gras
graset
grasm
grasmattan
grat
grata
grater
gratis
gratt
grattis
gratul
grav
grava
grave
graven
graver
gravid
gravida
gravide
graviditet
graviditeten
gre
great
greb
green
greit
grej
grejen
grejer
grek
grekisk
grekiska
grekland
gren
grenar
grens
grense
grenser
grep
grepp
grev
greve
grey
gri
grill
grilla
grillade
grillen
grim
grin
grind
grip
gris
gro
gron
grona
gronsaker
gront
gross
grot
grott
group
grov
grova
grove
grovt
gru
grum
grun
grund
grundade
grundades
grundar
grundare
grunde
grunden
grunder
grunderna
grundet
grundig
grundigt
grundlag
grundlaget
grundlaggande
grundlagt
grundlæg
grundlæggende
grundskola
grundskolan
grundt
grundvand
grunn
grunnen
grunner
grunnlag
grunnlaget
grunnleg
grunnleggende
grupp
gruppe
gruppen
gruppens
grupper
grupperna
grus
gruv
gry
grym
grymma
grymt
græ
græn
grænse
grænsen
grænser
græs
græsk
grø
grøn
grønland
grønn
grønne
grønnsaker
grønt
grønts
grøntsager
gt
gu
guar
gubb
gubbe
gubben
gucca
gud
gudom
guds
guid
guide
guiden
guider
guitar
gul
gula
guld
guldet
gule
guler
gull
gullig
gulliga
gulligt
gult
gulv
gulvet
gumm
gummi
gun
gung
gunilla
gunn
gunnar
gur
gust
gustaf
gustafsson
gustav
gutt
gutta
gutter
guy
guys
gy
gyl
gylden
gyldig
gyll
gyllene
gym
gymmet
gymnas
gymnasie
gymnasieskola
gymnasieskolan
gymnasiet
gymnasium
gymnast
gymnastik
gyn
gynn
gynnar
gæ
gæl
gæld
gældende
gælder
gæst
gæster
gæsterne
gør
gøre
gøres
gøy
ha
hab
haber
habet
hack
hacka
had
hadde
hade
haderslev
haf
haft
haftig
haftiga
haftigt
hag
haga
hage
hagen
hager
hagg
haha
hahah
hahaha
hair
haj
hak
hakan
hakt
hal
hale
halen
halet
half
halften
hall
halla
halland
hallas
hallbar
hallbara
hallbarhet
hallbart
hallen
haller
hallet
hallit
hallning
hallon
hallow
halloween
halls
hallt
halm
halmstad
hals
halsa
halsade
halsan
halsar
halsband
halsen
halsing
halsning
halsningar
halso
halsosam
halt
halter
halv
halva
halvan
halvar
halvaret
halvdel
halvdelen
halve
halver
halvlek
halvparten
halvt
halvtim
halvtimme
halvvags
ham
hambur
hamburg
hamburgare
hammar
hammarby
hammer
hamn
hamna
hamnade
hamnar
hamnat
hamnen
hamp
hamster
hamt
hamta
hamtad
hamtade
hamtar
hamtas
hamtat
han
hand
handa
handbok
handbold
handboll
handduk
handdukar
hande
handel
handeln
handels
handelse
handelsen
handelser
handelserna
handen
hander
handerna
handfull
handica
handicap
handika
handikapp
handjob
handla
handlade
handlaggare
handlaggning
handlar
handlare
handlat
handle
handled
handledare
handledning
handler
handlet
handling
handlingar
handlingen
handlinger
handlingsplan
hands
handtag
handtere
handtering
handverk
handvær
handværk
handværker
hane
hanfor
hang
hanga
hangde
hanger
hangt
haninge
hann
hanna
hannah
hanne
hans
hansen
hansson
hansyn
hant
hantera
hanterar
hanteras
hantering
hanteringen
hantverk
hantverkare
hanvisar
hanvisning
hap
haper
hapet
happ
happy
happypan
happypancake
har
harald
hard
harda
hardare
hardcore
harddisk
harde
hardt
hare
haret
harifran
harig
hariga
harlig
harliga
harligt
harmed
harmon
harmoni
harmonisk
harnos
harnosand
harom
haromdagen
harris
harry
hart
harvard
has
hash
hass
hassel
hassle
hassleholm
hast
hastar
hastarna
hasten
hastighed
hastighet
hastigheten
hastigt
hat
hatar
hatt
hatten
haug
hav
hava
havda
havdar
havde
have
haven
haver
havet
havn
havne
havnen
havnet
havre
havregr
havs
hawa
hay
hb
hbt
hbtq
hc
hd
he
head
header
heads
headset
healing
health
heart
heat
heb
hed
hedder
hede
heden
heder
hedmark
heg
hehe
hei
heidi
heim
hein
hej
heja
hejda
hejsan
hek
hekt
hektar
hel
hela
helbr
helbred
held
heldag
heldig
heldige
heldigvis
hele
helen
helena
helene
helg
helga
helge
helgen
helgens
helger
helgerna
helhed
helhet
helheten
helhets
heliga
helikop
helikopter
hell
helle
heller
hellere
hellig
hellige
hello
hellre
help
hels
helse
helset
helsing
helsingborg
helsingfors
helsingør
helst
helt
helta
heltackande
heltid
helvete
hem
hemat
hembyg
hembygds
hemifran
hemlag
hemlagad
hemlig
hemliga
hemlighet
hemm
hemma
hemmafru
hemmag
hemmagjord
hemmal
hemmalaget
hemmaplan
hemmelig
hemmelige
hemmelighed
hemmet
hemsida
hemsidan
hemsidor
hemsk
hemska
hemskt
hemt
hemtjanst
hen
henblik
hende
hendel
hendelser
hender
hendes
henger
henhold
henholdsvis
henne
hennes
henning
henri
henrik
henry
hens
hensigt
hensikt
hensikten
hensyn
hent
henta
hentai
hente
henter
hentes
hentet
henv
henven
henvende
henvendelse
henvendelser
henvender
henvis
henviser
henvises
henvisning
her
hera
heraf
here
herefter
herfor
herfra
herhjemme
herlev
herlig
herman
hermed
herning
hero
herom
herpes
herr
herrar
herre
herred
herreg
herregud
herren
herrens
herrer
hert
hertil
herudover
herunder
herved
hest
heste
hesten
het
heta
hetaste
heter
hetero
hets
hett
hette
hev
hevder
hex
hexdec
hexdecimalsfargkoden
hey
hf
hhv
hi
hid
hidt
hidtil
hier
hierark
high
hih
hihi
hil
hill
hiller
hillerød
hilsen
him
himla
himlen
himmel
himmelen
hin
hinanden
hinandens
hind
hinder
hindra
hindrar
hindre
hing
hinna
hinner
hip
hiphop
hipp
hir
his
hiss
hist
histor
historia
historie
historien
historiens
historier
historik
historisk
historiska
historiske
historiskt
hit
hitler
hits
hitt
hitta
hittade
hittades
hittar
hittas
hittat
hittills
hiv
hj
hjal
hjalm
hjalmar
hjalp
hjalpa
hjalpen
hjalper
hjalpmedel
hjalpsam
hjalpt
hjalpte
hjalt
hjalte
hjar
hjarn
hjarna
hjarnan
hjart
hjarta
hjartan
hjartans
hjartat
hjel
hjelp
hjelpe
hjelper
hjem
hjemm
hjemme
hjemmefra
hjemmel
hjemmelavet
hjemmes
hjemmeside
hjemmesiden
hjemmesider
hjemmet
hjer
hjerne
hjernen
hjert
hjerte
hjerter
hjertes
hjertet
hjort
hjul
hjulen
hjulet
hjulpet
hjæl
hjælp
hjælpe
hjælpemidler
hjælper
hjælpsomme
hjør
hjørne
hjørnet
hjørring
hk
hl
hm
hmm
ho
hob
hobb
hobby
hocke
hockey
hode
hodet
hof
hoff
hoft
hofter
hog
hoga
hoger
hogkval
hogkvalitativ
hogkvalitativa
hogra
hogre
hogskol
hogskola
hogskolan
hogskole
hogskolor
hogst
hogsta
hogstadiet
hogt
hogtal
hogtalare
hogtid
hoj
hoja
hojd
hojden
hojder
hojdpunkt
hojer
hojt
hok
hol
holbæk
hold
holde
holder
holdes
holdet
holding
holdning
holdninger
holdt
holger
holl
holland
holls
hollywood
holm
holste
holstebro
hom
home
homo
homofil
homofile
homoseks
homoseksuelle
homosex
homosexuell
homosexuella
hon
hong
honning
honom
honor
honung
hood
hook
hop
hopp
hoppa
hoppade
hoppades
hoppar
hoppas
hoppat
hoppats
hoppe
hopper
hoppet
hor
hora
hord
horde
horison
horisont
horlur
horlurar
hormon
hormoner
horn
hornet
horor
hors
horsel
horsens
hort
hos
hosp
hospital
host
hosta
hostas
hosten
hostens
hot
hotade
hotar
hotel
hotell
hoteller
hotellet
hotellets
hotellrum
hotels
hott
hour
house
hov
hoved
hovedet
hovedsa
hovedsag
hovedsak
hovedsakelig
hovedstad
hovedstaden
hovratten
how
hp
hr
hsl
ht
html
htt
http
https
hu
hua
hud
huddinge
huden
hudens
hudik
hudiksvall
hudvard
hug
hugg
hugo
huk
hukomm
hukommelse
hul
hull
huller
hult
hum
human
humanit
humle
humor
humør
hun
hund
hundar
hundarna
hunde
hunden
hundene
hundens
hunder
hundra
hundrat
hundratals
hundre
hundred
hundrede
hunger
hungr
hungrig
hunnit
hur
hurra
hurt
hurtig
hurtige
hurtigere
hurtigst
hurtigt
huru
huruvida
hus
husbil
husdjur
husdyr
huse
husen
huset
husets
hushall
hushold
husk
huske
husker
husse
hust
hustr
hustru
huv
huvud
huvudet
huvudkontor
huvudman
huvudmannen
huvudsak
huvudsakliga
huvudsakligen
huvudstad
huvudstaden
huvudvark
hv
hva
hvad
hval
hvem
hver
hverandre
hverdag
hverdage
hverdagen
hverken
hvert
hvid
hvide
hvidløg
hvidovre
hvidt
hvil
hvile
hvilke
hvilken
hvilket
hvis
hvit
hvite
hvor
hvoraf
hvordan
hvorefter
hvorfor
hvorfra
hvori
hvorledes
hvornar
hvorpa
hvorved
hvorvidt
hy
hybrid
hyd
hydra
hydraul
hydro
hyf
hyfsat
hyg
hygg
hygge
hyggelig
hyggelige
hyggeligt
hygiej
hygien
hyl
hyll
hylla
hyllan
hyllor
hyp
hyper
hypot
hypotek
hypotekslan
hypp
hyppig
hyr
hyra
hyres
hyresg
hyresgast
hyresgaster
hyster
hytt
hytte
hæ
hæk
hæl
hæld
hæm
hæn
hænder
hænderne
hænge
hænger
hær
hæv
hæve
hø
høg
høj
højde
høje
højere
højest
højeste
højre
højst
højt
højtt
hør
høre
hører
høres
høring
hørt
hørte
høst
høsten
høy
høyde
høye
høyere
høyeste
høyre
høyt
iaf
iag
iagtt
iaktt
iall
ialla
iallafall
ib
ibland
ic
ica
ice
icke
id
ida
idag
ide
ideal
idealisk
ideell
ideella
ideelle
ideelt
ideen
ideer
iden
ident
identific
identificere
identifier
identifiera
identitet
ideologi
idet
idi
idio
idiot
idol
idr
idrett
idrott
idrotten
idrotts
idræt
idræts
idyll
if
ifall
ifk
ifr
ifra
ifraga
ifragas
ifragasatt
ifragasatta
ifran
ift
ifølge
ig
igang
igar
igarkvall
igen
igennem
igenom
igjen
igjennom
ign
ignor
ignorer
ih
ihag
ihjal
ihjel
ihop
ihvert
ii
iii
ik
ikapp
ike
ikea
ikk
ikke
ikkje
ikon
ikraftt
ikt
ikvall
il
ild
ill
illa
illama
illamaende
illeg
illust
illustr
illustration
illustrationer
ilska
im
image
images
imellem
imens
imidler
imidlertid
immun
immunforsvar
imod
imor
imorgon
imorn
imorrn
imorse
imot
imp
imper
impl
implant
implementer
implementering
impon
imponerad
imponerande
imponerende
import
importer
impro
improvis
impul
impuls
imøde
imødekommende
in
inat
inatt
inb
inbjud
inbjudan
inbland
inblandade
inblick
inbrott
inbygg
inbyggd
inbyggda
inc
incest
incit
incitament
incl
ind
indber
indblik
indbrud
indby
indbyggere
indbygget
inde
indebærer
indeholde
indeholder
indeks
indel
inden
indendørs
indenfor
indepen
independent
inder
index
indfly
indflydelse
indført
indga
indgaet
indgang
indgar
indh
indhold
indholdet
indholds
india
indian
indien
indik
indikation
indikator
indikatorer
indiker
indikerar
indikerer
indire
indirekt
indirekte
indisk
indiska
indiv
individ
individen
individens
individer
individual
individuel
individuell
individuella
individuelle
individuellt
individuelt
indkal
indkomst
indkøb
indled
indledende
indledning
indlæg
indones
indr
indre
indret
indretning
indrettet
indrømme
indsam
indsamling
indsat
indsats
indsatsen
indsatser
indsigt
indstillet
indstilling
indstillinger
indt
indtast
indtil
indtryk
indtægter
indust
industri
industrial
industriell
industrien
industrin
inf
infall
infekt
infektion
infektioner
infin
infl
inflamm
inflammation
inflation
influ
influen
inflytande
inflytt
info
infor
infora
infordes
inform
informasjon
informasjonen
informasjonskap
informasjonskapsler
information
informationen
informationer
informations
informer
informera
informerar
informere
infr
infrast
infrastruktur
ing
inga
ingaende
ingang
ingar
inge
ingefara
ingen
ingeniør
ingenjor
ingenstans
ingenting
inger
inget
ingick
ingr
ingred
ingredi
ingrediens
ingredienser
ingredienserna
ingrepp
ingrid
ingvar
inham
inhand
inhem
inifran
init
initi
initiat
initiativ
initiativer
initiativet
inje
injektion
ink
inkl
inklu
inkluder
inkludera
inkluderar
inkluderer
inkluderet
inkludert
inklusive
inkom
inkomst
inkomster
inkop
inl
inlag
inlagg
inlaggen
inlagget
inlam
inlar
inled
inleda
inledande
inledde
inleddes
inleder
inledning
inledningsvis
inleds
inlogg
inloggning
inn
innan
innanfor
innbyggere
inne
inneband
innebandy
innebar
innebara
inneburit
innebærer
innefatt
innefattar
inneha
innehall
innehalla
innehaller
innehallet
innehallsfor
innehallsforteckning
innehar
innehav
inneholder
inneholl
innen
innenfor
inner
innføring
innført
innga
inngar
inngatt
innhold
innholdet
innkall
innkjøp
innlegg
innlegget
innom
innov
innovasjon
innovation
innovationer
innovativ
innovativa
innovative
innr
inns
innsats
innsikt
innskudd
innspill
innstilling
innte
inntekt
inntil
inntrykk
inom
inomhus
input
inratt
inre
inred
inredning
inredningen
inrednings
inrikes
inrikt
inriktning
ins
insag
insamling
insats
insatsen
insatser
insatt
insattning
inse
insekt
insekter
inser
insett
insida
insidan
insikt
insikter
insister
inskran
inslag
insp
inspekt
inspektion
inspel
inspelning
inspir
inspirasjon
inspiration
inspirationen
inspirera
inspirerad
inspirerade
inspirerande
inspirerar
inspireras
inspirere
inspirerende
inspireret
inspirert
inst
instagram
install
installation
installationen
installationer
installd
installer
installera
installere
installeret
installning
installningar
installningen
instanser
instit
institusjon
institusjoner
institut
institute
institutet
institution
institutionen
institutioner
institutt
instru
instrukt
instruktion
instruktioner
instruktør
instrum
instrument
instrumenter
insulin
insyn
int
intag
intakt
intakter
inte
inteckning
integr
integration
integrerad
integreret
integritet
intell
intellekt
intellig
intelligen
intelligens
intelligent
inten
intens
intensitet
intensiv
intensiva
intensivt
intent
inter
intera
interaktion
interess
interessant
interessante
interesse
interessen
interesser
interesserede
interesseret
interessert
interior
interiør
intern
interna
internasjon
internasjonal
internasjonale
internasjonalt
internation
international
internationale
internationalt
internationell
internationella
internationellt
interne
internet
internett
internettet
internt
interra
interracial
interv
intervall
intervaller
interview
intervju
intervjuer
intervjun
intet
intill
intim
into
intr
intra
intrade
intraffade
intraffar
intraffat
intress
intressant
intressanta
intresse
intressen
intressenter
intresser
intresserad
intresserade
intresserar
intresset
intro
introdu
introducer
introduktion
intryck
intrycket
intu
intyg
inuti
inv
inval
invalid
invan
invanare
invanarna
invand
invandrare
invandring
invas
inventar
inventer
inverkan
invest
invester
investera
investerar
investerare
investere
investering
investeringar
investeringen
investeringer
investor
investorer
invig
invit
inviter
invitere
inviterer
inviteret
involver
involveret
involvert
iofs
iordning
ios
ip
ipad
iphone
ipod
ir
irak
iran
iris
irland
iron
irri
irrit
irritation
irriter
irriterad
irriterande
irriterende
is
isa
isabella
isak
isar
isb
isbn
isen
ish
ishockey
isk
isl
islam
island
islands
iso
isol
isolering
isra
israel
israels
iss
ist
istallet
isted
istedet
især
it
ital
italia
italien
italiensk
italienska
italienske
item
its
itu
itunes
iv
ivag
ivan
ivar
ivaret
ivareta
iver
ivrig
iværks
iværksætter
ja
jaa
jac
jack
jacka
jackan
jackp
jackpot
jackpott
jackson
jacob
jacobsen
jag
jaga
jagar
jagare
jagt
jaha
jaja
jak
jakke
jakla
jakligt
jakob
jakt
jakten
jam
jamen
james
jamfor
jamfora
jamforas
jamforelse
jamforelser
jamfort
jamlik
jamn
jamna
jamnt
jamstalld
jamstalldhet
jamt
jamte
jamtland
jan
jane
janne
jansson
janu
januar
januari
jap
japan
japansk
japanska
japanske
japp
jar
jarl
jarn
jarnvag
jas
jast
jatt
jatte
jattebra
jattef
jattefin
jattefint
jatteg
jattekul
jattel
jattem
jattemycket
jatten
jatter
jatteroligt
jattes
jattest
jattet
jav
java
javas
javascript
javla
javligt
jay
jazz
je
jean
jeans
jeg
jen
jenn
jennifer
jenny
jens
jensen
jenta
jente
jentene
jenter
jer
jeres
jern
jernban
jernbane
jerry
jersey
jerusalem
jes
jesper
jess
jessica
jesu
jesus
jet
jev
jevn
jf
jfr
jim
jimm
jimmy
jo
joakim
job
jobb
jobba
jobbade
jobbar
jobbat
jobbe
jobben
jobber
jobbet
jobbig
jobbiga
jobbigt
jobs
jocke
joda
joe
joel
jog
jogg
joh
johan
johann
johanna
johannes
johansen
johansson
john
johnny
johns
johnson
jok
joker
jom
jomfru
jon
jonas
jonathan
jones
jonkoping
jonkopings
jonsson
jor
jord
jordan
jordbruk
jordbruks
jordbær
jorde
jorden
jordens
jordgubb
jordgubbar
jorgen
jos
jose
josef
joseph
joss
jour
journal
journalist
journalisten
journalister
journalistik
joy
jpg
jr
ju
jubil
jubileum
jubilæ
jubilæum
jud
judar
judiska
juice
jul
julafton
julbord
jule
julef
juleg
julek
julem
julen
julet
juli
julia
julie
julkl
julklapp
julklappar
jull
jum
jun
jung
juni
junior
jur
jurid
juridik
juridisk
juridiska
juridiske
jurist
jury
just
juster
justera
justeras
justerbar
justere
justering
justin
justit
jylland
jysk
jyske
jæv
jævn
jævnligt
jø
jød
jøder
jødiske
jør
jørg
jørgen
jørgensen
ka
kabel
kabin
kad
kafe
kaff
kaffe
kaffeb
kaffek
kaffet
kage
kager
kai
kaj
kajak
kajsa
kak
kaka
kakade
kakan
kakao
kakel
kakor
kal
kalas
kald
kalde
kalder
kaldes
kaldet
kaldt
kaldte
kalen
kalender
kalenderar
kalendern
kali
kalibr
kalifornien
kalk
kalkyl
kall
kalla
kallad
kallade
kallades
kallan
kallar
kallare
kallaren
kallas
kallat
kalle
kallelse
kaller
kalles
kallor
kallt
kalmar
kalorier
kalt
kalv
kam
kamer
kamera
kameraet
kameran
kameror
kammar
kammer
kamp
kampa
kampade
kampagne
kampan
kampanj
kampanjen
kampanjer
kampar
kampat
kampe
kampen
kampene
kamper
kamrat
kan
kanada
kanadens
kanal
kanalen
kanaler
kand
kanda
kande
kandes
kandid
kandidat
kandidater
kandis
kandisar
kanel
kang
kanin
kaniner
kann
kanna
kannas
kanned
kannedom
kanner
kannet
kanneteck
kanns
kanon
kans
kanske
kanskje
kansl
kansla
kanslan
kanslig
kansliga
kanslom
kanslor
kanslorna
kant
kanten
kanter
kanterna
kants
kaos
kap
kapa
kapac
kapacitet
kapas
kapasitet
kapell
kapit
kapital
kapitel
kapitlet
kapittel
kapp
kapten
kar
kara
karakt
karaktar
karaktaren
karaktarer
karaktarerna
karakter
karakterer
karam
kard
kare
karen
karet
kari
karin
karl
karlek
karleken
karleks
karlsk
karlskoga
karlskrona
karlsson
karlstad
karn
karna
karnan
karnkraft
karol
karolin
karolinska
karri
karriar
karriaren
karriere
kart
karta
kartan
kartlaggning
kartof
kartofler
kartong
kartor
kas
kasino
kasinon
kasper
kass
kassa
kassaflode
kassan
kasse
kassen
kasser
kast
kasta
kastade
kastar
kaste
kaster
kastet
kastrull
kat
kata
katal
katalog
katalogen
katarina
katastro
katastrof
kate
kated
kategor
kategori
kategorien
kategorier
kategorin
katol
katolska
katolske
katrine
katt
katte
katten
katter
katterna
kav
kay
kb
kbh
kd
ke
keb
ked
kedel
kedja
kee
keep
kej
kejser
kel
kem
kemi
kemikal
kemikalier
kemisk
kemiska
ken
kend
kende
kender
kendet
kendskab
kendt
kendte
kenn
kennel
kennet
kenneth
kent
kenya
ker
keram
keramik
kerne
kerstin
ket
kevin
kex
key
kf
kg
kh
ki
kick
kid
kids
kig
kigge
kiggede
kigger
kik
kika
kikade
kikar
kil
kilde
kilder
kill
killar
killarna
kille
killen
kilo
kilometer
kim
kin
kina
kind
kinder
kines
kinesisk
kinesiska
kinesiske
king
kings
kink
kinky
kino
kio
kir
kirk
kirke
kirken
kirkens
kirker
kiroprakt
kirsten
kiru
kiruna
kirurg
kirurgi
kis
kiss
kista
kit
kitt
kj
kja
kjed
kjell
kjeller
kjem
kjemisk
kjempe
kjen
kjend
kjenn
kjenne
kjenner
kjent
kjente
kjer
kjerne
kjol
kjole
kjolen
kjoler
kjær
kjære
kjæreste
kjæresten
kjærlighet
kjærligheten
kjø
kjøkken
kjøkkenet
kjønn
kjønns
kjøp
kjøpe
kjøper
kjøpes
kjøpt
kjøpte
kjør
kjøre
kjører
kjøretøy
kjørt
kjørte
kjøtt
kk
kl
kla
klack
klad
kladd
klader
kladerna
klag
klaga
klagar
klage
klagen
klager
klagomal
klam
klamma
klan
klang
klanning
klanningar
klanningen
klapp
klar
klara
klarade
klarar
klarat
klare
klarer
klarna
klart
klarte
klas
klass
klasse
klassen
klasser
klassific
klassiker
klassisk
klassiska
klassiske
klassiskt
klassrum
klassrummet
klat
klatt
klattra
klaus
kle
klem
klev
kli
klick
klicka
klickar
klient
klienten
klienter
klik
klikk
klikke
klikker
klim
klima
klimat
klimatet
klin
kling
klinik
klinikken
klinisk
kliniska
kliniske
klinker
klip
klipp
klippa
klippe
klipper
klippet
klippt
klippte
klist
klister
klitoris
kliv
kliva
kliver
klo
kloak
klock
klocka
klockan
klockor
klog
klogere
klok
kloka
klokka
klokke
klokken
klokker
klokt
klor
klost
kloster
klub
klubb
klubbar
klubben
klubbens
klubber
klum
klump
klur
klyft
klæ
klæde
klædt
klær
klø
km
kn
kna
knack
knall
knap
knapp
knappa
knappar
knappast
knappen
knapper
knappt
knapt
knas
knat
kne
knep
kneppe
kni
kniv
kniven
knog
know
knu
knud
knull
knulla
knullad
knullade
knullar
knullfilm
knullkontakt
knut
knuten
kny
knyt
knyta
knytter
knyttet
knæ
ko
kob
kobber
koble
kock
kod
kode
koden
koder
kof
koffe
kog
koge
kognit
kognitiv
koh
kok
koka
koket
kokos
koks
kokt
kol
kold
kolde
kolding
koldioxid
koldt
kolester
kolesterol
kolhydrater
koll
kolla
kollade
kollar
kollat
kolleg
kollega
kollegaer
kolleger
kollegor
kollekt
kollektion
kollektionen
kollektiv
kollektivavtal
kollektivt
kollektivtrafik
kolon
koloni
kolum
kom
komb
kombin
kombinasjon
kombination
kombinationen
kombinationer
kombiner
kombinera
kombinerar
kombineras
kombinerat
kombinere
kombinerer
kombineret
komed
komfor
komfort
komforta
komfortabel
komfortabelt
komfortable
komite
komm
komma
kommand
kommande
kommando
komme
kommen
kommende
komment
kommentar
kommentaren
kommentarer
kommentarerna
kommentera
kommenterar
kommentere
kommer
kommerci
kommers
kommersiell
kommersiella
kommet
kommiss
kommissionen
kommissionens
kommit
kommun
kommunal
kommunala
kommunalbest
kommunalbestyrelsen
kommunale
kommunalt
kommune
kommunen
kommunene
kommunens
kommuner
kommunerna
kommunerne
kommunes
kommunestyr
kommunestyret
kommunfull
kommunfullmaktige
kommunic
kommunicera
kommunik
kommunikasjon
kommunikation
kommunikationen
kommunikations
kommunikere
kommuns
kommunstyrelsen
kommunstyrelsens
komp
kompa
kompakt
kompat
kompatibel
kompens
kompensation
kompet
kompetanse
kompetence
kompetencer
kompetens
kompetensutveckling
kompetent
kompetente
kompis
kompisar
kompl
komplek
kompleks
komplekse
komplement
komplet
komplett
kompletta
kompletter
komplettera
kompletterande
kompletterar
kompletteras
komplex
komplexa
komplic
komplicerade
komplicerat
komplikationer
kompon
komponent
komponenter
kompos
komposition
kompost
kompress
kompri
komprom
kompromis
kon
koncentr
koncentration
koncentrera
koncept
konceptet
koncer
koncern
koncernen
koncernens
koncert
koncerter
kond
kondens
kondition
kondom
kondomer
kone
konen
konf
konfer
konference
konferens
konferensen
konferenser
konfigur
konfir
konfirm
konfl
konflikt
konflikten
konflikter
konfron
kong
konge
kongelige
kongen
kongens
konger
kongr
kongress
kongressen
konjunktur
konkl
konkluder
konklus
konklusion
konkret
konkreta
konkrete
konkur
konkurr
konkurran
konkurrans
konkurranse
konkurransen
konkurren
konkurrenc
konkurrence
konkurrencen
konkurrens
konkurrensen
konkurrenskraft
konkurrenter
konkurrer
konkurs
kons
konsekv
konsekvens
konsekvensen
konsekvenser
konsekvenserna
konsekvent
konsent
konsept
konser
konsert
konserten
konserter
konserv
konservative
konsistens
konsol
konsolider
konspir
konst
konstant
konstater
konstatera
konstaterade
konstaterar
konstatere
konsten
konstig
konstiga
konstigt
konstitu
konstnar
konstnaren
konstnarer
konstnarliga
konstru
konstrukt
konstruktion
konstruktionen
konstruktioner
konstruktiv
konstverk
konsul
konsulent
konsulenter
konsult
konsultation
konsulter
konsum
konsument
konsumenten
konsumenter
konsumer
konsumtion
kont
kontakt
kontakta
kontaktannon
kontaktannons
kontaktannonser
kontaktar
kontakte
kontakten
kontakter
kontaktet
kontaktperson
kontaktuppgifter
kontant
kontanter
kontanthjælp
kontekst
kontin
konting
kontingent
kontinu
kontinuer
kontinuerlig
kontinuerligt
kontinuitet
konto
kontoen
konton
kontor
kontoret
kontot
kontra
kontrakt
kontrakten
kontrakter
kontraktet
kontrast
kontraster
kontro
kontrol
kontroll
kontrollen
kontroller
kontrollera
kontrollerar
kontrolleras
kontrollere
kontrovers
konung
konvention
konver
konvers
konversation
konvertering
koordin
koordiner
kop
kopa
kopare
koparen
kopas
kopen
kopenhamn
koper
kopet
kopi
kopia
kopier
kopiera
kopior
kopman
kopp
koppar
koppla
kopplad
kopplade
kopplar
kopplas
kopplat
koppling
kopplingar
kopplingen
kopt
kopte
kor
kora
koranen
korde
kore
korea
korg
korkort
korn
korning
korre
korrekt
korrekta
korrekte
korrespon
korrid
korrig
korriger
korru
korruption
kors
korsbar
korset
kort
korta
kortare
korte
korten
kortere
kortet
kortfatt
kortsikt
kortvar
korv
kos
koselig
kosm
kosmet
kost
kosta
kostade
kostar
koste
kosten
koster
kostnad
kostnaden
kostnader
kostnaderna
kostnads
kostnadseffekt
kostnadsfri
kostnadsfritt
kostt
kosttillskott
kosttilskud
kostym
kot
kott
kottbullar
kottet
kottfar
kr
kra
kraft
kraften
krafter
kraftfull
kraftfulla
kraftig
kraftiga
kraftige
kraftigt
krak
kram
krama
kramar
kran
krang
krankande
krasch
krav
krava
kravande
kravas
kravde
kraven
kravene
kraver
kravet
kravs
kre
kreativ
kreativa
kreative
kreativitet
kreativt
kred
kredit
kreditbetyg
krediter
kreditkort
kreditt
kreditupp
kreditupplys
kreditupplysning
kreditvar
kreditvardighet
kreft
krem
kret
krets
kretsar
krev
kreve
krevende
krever
kreves
kri
krig
krigen
kriget
krigs
krim
krimin
kriminal
kriminalitet
kriminella
kriminelle
kring
kris
krise
krisen
kriser
krist
kristall
kristdem
kristen
kristendom
kristensen
krister
kristi
kristian
kristians
kristiansand
kristianstad
kristin
kristina
kristine
kristna
kristne
kristoffer
kristus
krit
kriter
kriterier
kritik
kritiken
kritiker
kritikk
kritisk
kritiska
kritiske
kritiskt
kro
kroat
kroatien
krog
krogen
krok
krom
kron
krona
kronan
krone
kroner
kronika
kronisk
krono
kronofog
kronofogden
kronor
kronprins
krop
kropp
kroppar
kroppen
kroppens
kropps
krops
kros
kru
krum
krus
kry
kryd
krydd
krydda
krydder
kryddor
kryds
krym
kryp
krypa
kryper
krypt
krys
kryss
kræ
kræft
kræfter
kræn
kræv
kræve
kræver
kræves
krø
ks
kth
ku
kub
kud
kuddar
kudde
kug
kuk
kukar
kuken
kul
kulde
kull
kullen
kulor
kult
kultur
kulturarv
kulture
kulturell
kulturella
kulturelle
kulturen
kulturer
kulturhistor
kum
kun
kund
kunde
kunden
kundene
kundens
kunder
kunderna
kunderne
kunders
kundeservice
kundservice
kundtjanst
kung
kungalv
kungen
kungliga
kungs
kungsb
kungsbacka
kunn
kunna
kunnat
kunne
kunnet
kunnig
kunniga
kunnskap
kunskap
kunskapen
kunskaper
kunskaps
kunst
kunsten
kunstner
kunstnere
kup
kupong
kur
kurs
kursen
kurser
kurserna
kurset
kursus
kurt
kurv
kus
kusin
kusse
kust
kusten
kuvert
kv
kva
kvad
kvadrat
kvadratmeter
kval
kvalet
kvalific
kvalificerad
kvalificerade
kvalificeret
kvalifik
kvalifikationer
kvalitativ
kvalite
kvaliten
kvalitet
kvaliteten
kvaliteter
kvalitets
kvalitetss
kvall
kvallar
kvallarna
kvallen
kvallens
kvant
kvantitet
kvar
kvarn
kvarstar
kvart
kvartal
kvartalet
kvarter
kvarteret
kvarts
kvav
kvel
kveld
kvelden
kvick
kvik
kvin
kvinde
kvindelige
kvinden
kvinder
kvinderne
kvinn
kvinna
kvinnan
kvinnans
kvinne
kvinnelige
kvinnen
kvinnene
kvinner
kvinnlig
kvinnliga
kvinno
kvinnor
kvinnorna
kvinnors
kvist
kvitt
kvm
kw
kwh
ky
kyck
kyckling
kyl
kyla
kylan
kylen
kyll
kylling
kylskap
kylskapet
kyr
kyrk
kyrka
kyrkan
kyrkans
kyrko
kyrkog
kyrkor
kys
kyss
kyst
kysten
kæ
kæde
kæl
kælder
kæledyr
kæm
kæmp
kæmpe
kæmper
kær
kære
kæreste
kærlig
kærlighed
kærligheden
kø
køb
købe
københav
københavn
københavns
køber
købes
købet
købt
købte
kød
kødet
køge
køkken
køkkenet
køl
køle
køleskab
køleskabet
køn
køns
kør
køre
kører
køret
køretøj
køretøjer
kørsel
kørt
kørte
la
laa
lab
labor
laborator
lack
lacker
lackra
lad
lada
ladan
ladd
ladda
laddade
laddar
laddas
laddat
laddning
lade
lader
lades
ladies
lador
lady
lag
laga
lagade
lagar
lagat
lagde
lage
lagen
lagene
lagenhet
lagenheten
lagenheter
lager
lagerstatus
lages
laget
lagets
lagg
lagga
laggas
lagger
laggning
laggs
lagligt
lagom
lagra
lagras
lagre
lagret
lagring
lagst
lagsta
lagstift
lagstiftning
lagstiftningen
lagt
lagts
lak
lakan
lakar
lakare
lakaren
lake
lakem
lakemed
lakemedel
lakemedels
lakemedlet
laks
lakt
lam
lamm
lamna
lamnade
lamnar
lamnas
lamnat
lamnats
lamp
lampa
lampan
lampar
lampe
lamper
lamplig
lampliga
lampligt
lampor
lan
lana
lanade
lanar
lanat
lancer
land
landa
landade
landar
landat
landbru
landbrug
landbruk
lande
landene
lander
landerna
landet
landets
lands
landsb
landsby
landsbyen
landsbyg
landsbygd
landsbygden
landsd
landsdækkende
landskab
landskabet
landskap
landskapet
landskrona
landslag
landslaget
landst
landsting
landstinget
landstings
lane
lanebel
lanet
lanets
lang
langa
langd
langden
lange
langesen
langiv
langivare
langivaren
langre
langs
langsam
langsamt
langsigt
langsikt
langsiktig
langsiktiga
langsiktigt
langsom
langsomt
langst
langsta
langt
langta
langtan
langtar
langtat
langtid
langu
langvar
langvarig
lank
lanka
lankar
lankarna
lanken
lans
lanser
lanserades
lanserar
lanseras
lanseringen
lansert
lansstyrelsen
lant
lantagare
lantbruk
lapp
lappar
lapparna
lappen
lapt
laptop
lar
lara
larande
larar
larare
lararen
lararexamen
lararna
larde
large
larm
laroplan
laror
laros
lars
larsen
larsson
lart
las
lasa
lasar
lasare
lasaren
lasas
laser
lases
lask
laskigt
lasning
lass
lasse
last
lasta
lastbil
lastbilar
laste
lat
lata
latar
latarna
laten
later
latest
latex
latin
latina
latit
latsas
latt
latta
lattare
latter
lattillgang
laur
laura
lav
lave
lavede
laver
lavere
laves
laveste
lavet
lavt
law
lax
laxor
lay
layout
lb
lcd
lchf
le
leag
league
lean
learning
leasing
leave
led
leda
ledam
ledamot
ledamoter
ledande
ledar
ledare
ledaren
ledarskap
ledd
ledde
lede
ledelse
ledelsen
ledelses
leden
ledende
leder
ledere
lederen
ledes
ledet
ledig
lediga
ledige
ledighet
ledigt
ledning
ledningen
lednings
leds
ledsag
ledsagare
ledsen
lee
leende
left
leg
legal
legat
lege
legem
legen
legendar
leger
legetøj
legg
legge
legger
legges
legit
legitim
legitimation
legitimer
lego
lei
leie
leif
leilighet
lej
leje
lejer
lejlighed
lejligheden
lejligheder
lejon
lek
leka
lekar
leke
leken
leker
leksak
leksaker
leksand
lekt
lekte
lektion
lektionen
lektioner
lektor
lem
len
lena
lene
leng
lengde
lenge
lenger
lengre
lenn
lennart
leo
leon
leop
ler
lera
les
lesb
lesbian
lesbisk
lesbiska
lesbiske
lese
leser
less
lest
let
leta
letade
letar
letat
leter
lett
lette
letter
lettere
lev
leva
levande
levde
leve
levede
level
levende
lever
leveran
leverand
leverandør
leverandøren
leverandører
leverans
leveransen
leveranser
leverant
leverantor
leverantoren
leverantorer
levere
leverer
leverera
levererade
levererar
levereras
levererat
leveres
leveret
levering
levert
levetid
levitra
levnads
levt
lew
lex
lg
li
liam
liban
liber
liberal
lic
licens
lid
lida
lidande
lide
lidelse
lidelser
liden
lider
liderlig
liderlige
lidingo
lidkoping
lidt
lie
lif
life
lift
lig
liga
ligan
lige
ligefrem
ligeg
ligegyl
ligeledes
liges
ligesa
ligesom
ligg
ligga
liggande
ligge
liggende
ligger
ligget
light
lign
lignende
ligner
lik
lika
likad
likadan
likadana
likadant
likasa
like
liker
likes
likevel
likhet
likheter
liknande
liknar
liksom
likt
likte
likval
likvar
likvid
likviditet
lil
lila
lilj
lilje
lill
lilla
lillasyster
lille
lillebror
lim
lime
lin
lina
lind
linda
lindberg
linde
lindgren
lindra
lindstrom
line
ling
linj
linje
linjen
linjer
link
linkedin
linket
linkoping
linkopings
links
linn
linne
linnea
linser
linus
linux
lip
lir
lis
lisa
lisbeth
lise
liseberg
list
lista
listan
listar
liste
listen
lister
listor
lit
lita
litar
litau
lite
liten
liter
litet
litt
litter
litteratur
litteraturen
little
liv
live
liver
liverpool
lives
livet
livets
living
livlig
livmoder
livradd
livs
livsk
livskvalitet
livsl
livslangd
livsmed
livsmedel
livsmedels
livsstil
livstid
lix
lixom
lj
lju
ljud
ljudet
ljung
ljungby
ljus
ljusa
ljusare
ljuset
ljusstyrka
ljust
ljuv
ll
lm
lo
lobby
local
lock
locka
lockade
lockande
lockar
locket
lod
lof
loft
lofte
loften
loftet
lofven
log
logg
logga
loggar
logge
logik
login
logisk
logiskt
logist
logistik
logistikk
logo
logotyp
loj
lojalitet
lojligt
lok
lokal
lokala
lokale
lokalen
lokaler
lokalerna
lokalplan
lokalt
loken
lol
loll
lolland
lom
lomme
lon
lond
london
lone
lonen
loner
long
lonsamhet
look
looking
loop
lop
lopande
lopar
lopare
loper
lopning
lopp
loppet
loppis
lor
lord
lordag
lordagen
lordags
los
losa
losas
losen
losenord
loser
losning
losningar
losningen
loss
lost
loste
lot
lott
lotta
lotter
lotto
lotus
lou
louis
louise
lounge
lov
lova
lovade
lovande
lovar
lovat
love
loven
lovens
lover
lovet
lovgivning
lovgivningen
lovisa
lovlig
lovligt
low
loy
lp
lr
lrf
ls
lss
lt
ltd
lu
lucas
luci
lucia
luck
lucka
lucky
lud
luder
ludvig
ludvika
luft
luften
luftfart
luftfukt
lufthav
lufthavn
lufthavnen
luftkondition
luftkonditionering
luftt
lug
lugn
lugna
lugnande
lugnare
lugnet
lugnt
lugt
luk
lukas
lukke
lukkede
lukker
lukket
luks
luksus
lukt
luktar
lule
lulea
lum
lun
lunch
lunchen
lund
lundberg
lunds
lung
lunge
lunsj
lur
lura
lurer
lurt
lus
lust
lut
luta
lutar
luther
lux
lv
ly
lyck
lycka
lyckad
lyckades
lyckan
lyckas
lyckat
lyckats
lycklig
lyckliga
lyckligt
lyckligtvis
lyd
lyde
lyden
lyder
lydnad
lyft
lyfta
lyfte
lyfter
lyfts
lyk
lykke
lykkedes
lykkelig
lykkes
lym
lymf
lyn
lyng
lyngby
lyr
lyrics
lys
lysa
lysande
lyse
lyser
lyset
lyss
lyssna
lyssnade
lyssnar
lyssnat
lyst
lyste
lysten
lyster
lytte
lytter
lyx
lyxig
lyxiga
lyxigt
læ
læber
læder
læg
læge
lægemiddel
lægemidler
lægen
læger
lægge
lægger
lægges
lækker
lækkert
lækre
læn
læng
længde
længden
længe
længere
længst
lær
lære
lærer
lærere
læreren
lærerne
læring
lærings
lært
lærte
læs
læse
læser
læsere
læseren
læses
læsning
læst
læste
lø
løb
løbe
løbende
løber
løbet
lød
løft
løfte
løfter
løftet
løg
løn
lønmod
lønn
lønns
løp
løpe
løper
løpet
lør
lørdag
løs
løse
løser
løses
løsning
løsningen
løsninger
løst
løv
m2
m3
ma
maa
mac
mach
machine
mad
madde
made
maden
mader
madlav
madras
madrid
mads
madsen
maff
mag
magasin
magasinet
magaz
magazine
mage
magen
mager
magi
magic
magisk
magiska
magiskt
magn
magnes
magnesium
magnet
magnus
magt
mah
mai
mail
maila
mails
main
maj
maja
majest
major
majoritet
majoriteten
majs
mak
make
maken
makeup
maklar
maklare
makro
maks
maksim
maksimal
maksimalt
makt
makten
mal
mala
malade
malar
malat
malays
male
malen
malene
maler
maleri
malerier
males
malet
malgrupp
malgruppe
malgruppen
malgrupper
malin
maling
malinger
mall
mallor
mallorca
malm
malmo
malning
malrettet
malsattning
malsattningen
malsætning
malt
malta
malte
maltid
maltider
malvakt
malvakten
mam
mamm
mamma
mamman
mammas
mammor
man
manad
manaden
manadens
manader
manaderna
manaders
manads
manag
management
manager
manat
manatliga
manchester
mand
mandag
mandagen
mandags
mandat
mandel
manden
mandlige
mands
maned
maneden
maneder
maneders
maneds
manen
mang
manga
mangd
mangden
mangder
mange
mangel
mangfald
mangfol
manglede
manglende
mangler
mango
manifest
manipul
manlig
manliga
mann
mannen
mannens
mannisk
manniska
manniskan
manniskans
mannisko
manniskor
manniskorna
manniskors
mans
mansk
mansklig
manskliga
manskligheten
manu
manual
manuel
manuell
manuellt
manuelt
manus
mapp
mar
marathon
maraton
marc
march
marcus
mardrom
marg
margar
margareta
margin
marginal
margr
mari
maria
marian
marianne
marie
marin
marina
marine
mario
marit
mark
marka
markant
marke
marked
markeder
markedet
markeds
markedsføring
marken
marker
markera
markere
markering
market
marketing
marklig
markliga
markligt
marknad
marknaden
marknadens
marknader
marknads
marknadsfor
marknadsfora
marknadsforing
markning
marks
markt
markta
markte
marktes
markus
marmor
mars
mart
martin
marts
marx
mary
mas
masc
mascara
mask
maske
masker
maskerad
maskin
maskine
maskinen
maskiner
mass
massa
massag
massage
massagen
massan
massasje
masse
masser
massing
massiv
massive
massivt
massor
massvis
mast
mastare
maste
masten
master
mastercard
mastur
mat
mata
matas
match
matcha
matchande
matchar
matchen
matcher
matcherna
matchmak
matchmaking
mate
matemat
matematik
matematikk
maten
mater
material
materiale
materialer
materialet
materiel
materiella
math
mathias
matilda
matlag
matlagning
matning
matningar
matrik
mats
matsal
matt
matta
mattan
matte
matten
mattet
mattias
mattnad
mattor
mature
maur
mav
mave
maven
max
maxi
maxim
maximal
maximalt
maximer
may
maz
mazily
mb
mc
mcc
mcdon
mcdonalds
md
mdr
me
med
medalj
medaljer
medan
medans
medarbeider
medarbeidere
medarbej
medarbejder
medarbejdere
medarbejderen
medarbejderne
medarbet
medarbetare
medarbetarna
medbor
medborg
medborgar
medborgare
medborgarna
meddel
meddela
meddelade
meddelande
meddelanden
meddelandet
meddelar
meddelas
meddelelse
medel
medelalder
medelaldern
medelalders
medelhavet
medelstora
medeltid
medeltida
medeltiden
medfoljande
medfoljer
medfor
medfora
medfølger
medfør
medføre
medfører
medger
medgivande
medi
media
medic
medicin
medicinen
mediciner
medicinsk
medicinska
medie
medier
medierna
medierne
medis
medisin
medisinsk
meditation
medium
medlem
medlemmar
medlemmarna
medlemmene
medlemmer
medlemmerne
medlems
medlemskab
medlemskap
medlemsl
medlemsst
medlemsstat
medlemsstater
medmindre
medverk
medverka
medverkan
medverkande
medverkar
medvet
medvetande
medveten
medvetenhet
medvetet
medvetna
medvir
medvirke
meet
meg
mega
megen
meget
mej
mejeri
mejl
mejla
mek
mekan
mekanis
mekanisk
mel
meld
melde
melder
melding
meldinger
meldt
meldte
mell
mellan
mellanmal
mellanoster
mellanostern
mellanrum
mellem
mellemrum
meller
mellom
melod
melodi
melodifest
melodifestivalen
mem
member
men
menade
menar
menas
mene
mener
menes
meng
mengde
mengder
menighed
mening
meningar
meningen
meninger
menings
meningsl
menn
menne
mennesk
menneske
menneskelig
menneskelige
menneskene
mennesker
menneskerett
menneskers
mennesket
menneskets
mens
menstru
menstruation
ment
mental
mentala
mentale
mentalt
mente
mentor
menu
menuen
meny
menyn
mer
mera
merc
mercedes
mere
merit
meriter
meriterande
merk
merke
merker
merket
merparten
mes
mess
messen
mest
mesta
mestadels
meste
mester
mestre
met
meta
metabol
metal
metall
metaller
mete
meteor
meter
meters
metod
metode
metoden
metoder
metro
mette
mex
mexico
mexik
mf
mfl
mg
mht
mi
mia
miami
mic
mich
micha
michael
michel
mick
micke
micro
microg
microsoft
mid
middag
middagen
middel
middelalder
midjan
midler
midlertid
midlertidig
midlertidige
midnatt
midsommar
midt
midten
midtjylland
mig
migr
migran
migration
migrations
migrationsverket
mik
mika
mikael
mike
mikkel
mikro
mikrofon
mil
milan
milano
mild
miles
milf
milfs
milit
militar
militara
militær
militære
milj
miljard
miljarder
miljo
miljob
miljoer
miljok
miljom
miljon
miljoner
miljontals
miljop
miljopa
miljopart
miljopartiet
miljopaverkan
miljovan
miljø
miljøer
miljøet
miljøm
mill
milli
milliarder
millimeter
million
millioner
mim
min
mina
mind
minde
minder
mindful
mindfulness
mindre
mindst
mindste
mine
miner
mineral
mineraler
ming
mini
minim
minimal
minimer
minimera
minimum
minister
ministeren
ministeriet
minnas
minne
minnen
minner
minnes
minnet
minns
minor
minoritet
mins
minsann
minsk
minska
minskad
minskade
minskar
minskat
minskning
minst
minsta
minste
mint
minus
minut
minuten
minuter
minuters
minutt
minutter
minutters
mio
mir
mira
mirakel
mis
misbru
misbrug
misforsta
misl
miss
missa
missade
missar
missat
missbru
missbruk
missfor
misshand
misshandel
mission
misslyck
misslyckas
missn
misst
misstag
misstan
misstank
misstanker
misstankt
misstankta
mist
mistan
mistanke
miste
mistede
misten
mister
mistet
mit
mitt
mitten
mix
mixa
mj
mjol
mjolk
mjolken
mju
mjuk
mjuka
mjukare
mjukt
mjukvara
mk
mkr
mkt
ml
mm
mn
mo
moa
mob
mobb
mobel
mobil
mobila
mobile
mobilen
mobiler
mobilitet
mobilt
mobiltelefon
mobiltelefoner
mobl
mobler
mod
mode
model
modell
modellen
modeller
modellerna
models
moden
moder
moderat
moderaterna
modern
moderna
moderne
modernt
modersmal
modet
modifier
modig
modne
modsat
modsatte
modstand
modstander
modsætning
modt
modtag
modtage
modtagelse
modtager
modtaget
modtog
modul
moduler
mog
mogel
mogen
mogens
mogna
moh
moj
mojlig
mojliga
mojligen
mojliggor
mojliggora
mojlighet
mojligheten
mojligheter
mojligheterna
mojligt
mojligtvis
mol
molde
molek
moll
molly
moln
mom
moment
moms
mon
mona
money
monica
monitor
monopol
monster
monstret
mont
montage
monte
monter
montera
monteras
monteres
monteret
montering
monterings
monument
moon
moped
mor
mora
moral
mord
mordet
more
moren
morfar
morg
morgan
morgen
morgenen
morgenmad
morgenmaden
morgon
morgondagen
morgondagens
morgonen
mork
morka
morkare
morker
morkret
morkt
mormor
moro
morot
morotter
mors
morse
morsom
morsomme
morsomt
mort
morten
mos
mosa
mose
mosk
moske
moskva
moss
mossa
most
moster
mot
mota
motala
motas
mote
moten
moter
motes
motesplats
motesplatsen
motet
motion
motionen
motioner
motiv
motivasjon
motivation
motivationen
motiver
motivera
motivering
motivet
motor
motorcykel
motoren
motorer
motorn
mots
motsats
motsatsen
motsatt
motsatta
motsetning
motsta
motstand
motstandare
motstandet
motsvar
motsvarande
motsvarar
mott
motta
mottag
mottagande
mottagare
mottagaren
mottagning
mottak
mottar
mottatt
motte
mottes
motverka
moun
mountain
mov
movie
movies
moz
mp
mp3
mr
ms
msek
msk
msn
mt
mu
mud
muff
muffins
mugg
mul
mulig
mulige
mulighed
muligheden
muligheder
mulighederne
mulighet
muligheten
mulighetene
muligheter
muligt
muligvis
mull
mulliga
mult
multi
multif
multipl
mum
mums
mun
munchen
mund
munden
mundt
munk
munnen
munt
muntlig
mur
muren
mus
muse
museer
museet
museets
musen
museum
music
musik
musikal
musiken
musiker
musikere
musikk
musikken
musk
muskel
muskler
musklerna
muskul
musl
muslim
muslimer
muslimska
muslimske
must
mut
mv
mvh
mw
my
mycke
mycket
mye
mygg
myk
myn
myndig
myndighed
myndigheder
myndighet
myndigheten
myndighetene
myndigheter
myndigheterna
mynt
myr
mys
mysa
mysig
mysiga
mysigt
myst
myster
mystisk
myt
myter
m²
mæl
mælk
mælke
mæn
mænd
mændene
mæng
mængde
mængden
mængder
mær
mærk
mærke
mærkeligt
mærker
mærket
mø
møbel
møbler
mød
møde
møder
mødes
mødet
mødre
mødt
mødte
mølle
møller
møn
mønster
mønstre
mør
møre
mørk
mørke
mørket
mørkt
møt
møte
møteplass
møteplassen
møter
møtes
møtet
møtt
møtte
na
naar
nabo
naboer
nack
nacka
nackdel
nackdelar
nackdelen
nacke
nacken
nad
nadde
nade
naede
naet
nag
nagel
nagellack
naglar
naglarna
nagon
nagons
nagonsin
nagonstans
nagonting
nagorlunda
nagot
nagra
naja
nak
naked
naken
nakenbilder
nakke
nakken
nakna
nakne
nal
nam
name
namligen
namn
namna
namnas
namnd
namnda
namnde
namnden
namnen
namner
namnet
namns
namnt
nan
nanstans
nanting
nap
napp
nar
nara
narhet
narheten
naring
narings
naringsamnen
naringsl
naringsliv
naringslivet
nark
narkot
narkotika
narliggande
narm
narma
narmade
narmar
narmare
narmast
narmaste
narmsta
narstaende
narvarande
narvaro
nas
nasa
nasan
nasjon
nasjonal
nasjonale
nasjonalt
nass
nassjo
nast
nasta
nastan
nat
natal
natdejting
natet
nation
national
nationale
nationalpark
nationell
nationella
nationellt
nationer
nato
natt
natta
natten
natter
natterna
natur
natural
naturen
naturens
naturgas
naturlig
naturliga
naturlige
naturligt
naturligtvis
naturligvis
naturreser
naturreservat
naturvards
naturvardsverket
naturvetenskap
natverk
natverket
natverks
nav
naval
navig
navigation
navn
navne
navnet
naværende
naz
nb
nd
ne
ned
nedan
nedanfor
nedanstaende
nedat
nedbr
nede
neden
nedenfor
nedenstaende
neder
nederlag
nederlanderna
nederst
nederste
nedgang
nedladdning
nedlagt
nedover
nedre
nedsat
nedsatt
need
neg
negativ
negativa
negative
negativt
neger
negle
nei
nej
nek
nekt
nel
nell
nelly
nem
nemlig
nemme
nemmere
nemt
neo
neon
nepal
ner
nere
nerv
nerver
nervos
nervøs
nes
nest
neste
nesten
net
netent
netflix
netop
nett
netta
nettapotek
nettbutikk
nettdating
nettet
nettles
netto
nettopp
nettside
nettsiden
nettsider
nettsted
nettsteder
nettstedet
nettverk
netværk
netværket
netværks
network
neur
neuro
neut
neutr
neutral
nev
never
nevne
nevnt
nevnte
new
news
nex
next
ng
ngn
ngt
nhl
ni
nic
nice
nick
nicklas
niclas
nicola
nicole
niels
nielsen
niger
night
nik
nike
nikk
niklas
nikola
nil
nils
nilsson
nin
nina
ninten
nintendo
nio
nisch
niss
nisse
nit
nitt
niva
nivaer
nivan
niveau
niveauer
niveauet
nj
nja
njot
njur
njut
njuta
njuter
njutning
nk
nl
nm
no
nobel
nod
nodvand
nodvandig
nodvandiga
nodvandigt
nodvandigtvis
noe
noen
noens
nog
noga
nogen
nogenlunde
nogens
nogensinde
noget
noggr
noggrann
noggrant
nogle
noj
noja
nojd
nojda
noje
nojes
nok
nokia
nol
noll
nom
nomin
nominer
non
nor
nora
nord
nordamerika
norde
nordea
norden
nordens
nordic
nordisk
nordiska
nordiske
nordjylland
nordland
nordlige
nordmenn
nordost
nordsj
nordsjælland
nordvast
nordvest
norge
norges
norm
normal
normala
normale
normalt
normen
normer
norr
norra
norrbotten
norrkoping
norrland
norrtalje
norrut
norsk
norska
norske
nort
north
norway
norweg
norwegian
nos
nost
nostalg
nostalgi
not
notat
note
noter
notera
noterade
notter
nov
nova
novell
noveller
november
now
np
nr
nrk
ns
nt
ntb
ntnu
nu
nuancer
nud
nude
nudist
nuet
nufor
nufortiden
nul
nulaget
null
num
number
numer
numera
nummer
numre
numret
nur
nuru
nut
nutid
nuvarande
nuværende
nv
ny
nya
nyan
nyanlanda
nyans
nyanser
nyar
nyare
nyaste
nybegyn
nybor
nyborg
nyborjare
nybygg
nyck
nyckel
nyckeln
nyckeltal
nycklar
nyd
nyde
nydelig
nyder
nye
nyere
nyeste
nyfik
nyfiken
nyfikenhet
nyfikna
nyhed
nyheder
nyhedsbrev
nyhet
nyheten
nyheter
nyheterna
nyhets
nyhetsbrev
nyin
nykoping
nykter
nykøbing
nylig
nyligen
nylon
nynas
nys
nysger
nyss
nystart
nyt
nytar
nyte
nytt
nytta
nytte
nyttig
nyttiga
nyttige
nyttigt
nyttja
næ
næppe
nær
nære
nærheden
nærheten
næring
nærings
næringsl
næringsliv
næringsmiddel
nærliggende
nærmer
nærmere
nærmest
nærmeste
nært
nærvær
nærværende
næse
næst
næste
næsten
næstved
nætter
næv
nævne
nævner
nævnes
nævnt
nævnte
nø
nød
nødt
nødven
nødvendig
nødvendige
nødvendigt
nødvendigvis
nøg
nøgen
nøgle
nøgne
nøj
nøjagt
nøje
nøjes
nøk
nøkkel
nør
nørre
nørrebro
nøy
nøyaktig
nøye
oand
oandliga
oandligt
oar
oarna
oas
oav
oavsett
ob
obal
obama
obeg
obehag
obehagligt
obek
obekv
ober
oberoende
objekt
objektiv
oblig
obligationer
obligator
obligatorisk
obligatoriska
obligatoriskt
obs
observ
observation
observationer
observer
observera
oc
oce
ocean
och
ock
ocksa
oct
od
odd
odds
ode
oden
odense
odla
odling
odm
odmjuk
oec
oer
oerhort
of
off
offens
offensiv
offent
offentlig
offentliga
offentlige
offentliggjort
offentligt
offer
offert
offic
office
officer
officiell
officiella
officielle
officiellt
offis
offline
offsh
ofor
oforand
ofre
oft
ofta
oftare
oftast
ofte
oftere
oftest
ofver
og
oga
ogat
ogon
ogonblick
ogonbryn
ogonen
ogsa
ogsaa
oh
ohalsa
ohl
oil
oj
ojam
ok
oka
okad
okade
okand
okanda
okande
okant
okar
okat
okay
oke
okej
oklart
okning
okningen
okomplic
oks
okt
oktober
ol
ola
olag
olagligt
olamp
oland
olav
old
older
ole
olie
olik
olika
oliv
oliven
oliver
olivia
olivolja
olj
olja
oljan
olje
oljem
oljemassage
oljor
oll
olle
olof
olofsson
olov
olsen
olsson
olyck
olycka
olyckan
olyckor
olycksfall
olymp
om
omb
ombord
ombud
ombygg
omd
omdom
omdome
omdomen
omdre
omed
omedel
omedelbar
omedelbart
omega
omegn
omfang
omfanget
omfatt
omfatta
omfattande
omfattar
omfattas
omfatte
omfattende
omfatter
omfattet
omfattning
omg
omgaende
omgang
omgangar
omgangen
omgiv
omgivande
omgivelser
omgivet
omgivning
omgivningen
omh
omhand
omhander
omhandler
omhygg
omklad
omkost
omkostninger
omkring
omne
omnejd
omoj
omojlig
omojligt
omrade
omraden
omradena
omradene
omrader
omradet
omradets
omsattning
omses
omslag
omslaget
omsorg
omsorgs
omstallning
omstand
omstandigheter
omstandigheterna
omstilling
omstændig
omstændigheder
omsætning
omt
omtal
omtale
omtalt
omtalte
omtanke
omtr
omtrent
omty
omvand
omvard
omvardnad
omvarlden
omvax
omvendt
on
onan
onanerar
onani
ond
onda
onde
ondt
one
onekligen
onl
onlin
online
onlinek
onlinekasinon
onlines
onlinespel
only
onod
onodan
onodig
onodiga
onodigt
ons
onsdag
onsdagen
onsdags
onsk
onska
onskad
onskade
onskan
onskar
onskas
onskat
onskel
onskemal
onskningar
ont
oon
op
opad
opbak
opbakning
opbevar
opbevares
opbevaring
opbygge
opbygget
opbygning
opdag
opdage
opdagede
opdagelse
opdager
opdaget
opdater
opdatere
opdateret
opdatering
opdelt
open
oper
opera
operasjon
operat
operation
operationen
operationer
operativ
operativsystem
operator
opfatt
opfattelse
opfin
opfor
opfordrer
opfyl
opfylde
opfylder
opfyldt
opfølg
opfølgning
opført
opgav
opgave
opgaven
opgaver
opgaverne
opgrader
opgør
oph
ophold
opholds
opin
opinion
opinions
opkald
opkræ
oplagt
oplev
opleve
oplevede
oplevelse
oplevelsen
oplevelser
oplever
opleves
oplevet
oplys
oplyse
oplyser
oplysning
oplysninger
oplysningerne
oplyst
oplæg
opløsning
opmær
opmærksom
opmærksomhed
opmærksomme
opna
opnaet
opnar
opnas
opp
oppbevar
oppdag
oppdaget
oppdater
oppdatert
oppdr
oppdrag
oppe
oppen
oppenhet
oppet
oppett
oppettider
oppfatt
oppfor
oppfordrer
oppfyll
oppfølg
oppfølging
oppgav
oppgave
oppgaven
oppgaver
oppgitt
oppgjør
oppgrader
opph
opphold
opplev
opplevd
opplevde
oppleve
opplevelse
opplevelser
opplever
opplyser
opplysning
opplysningene
opplysninger
opplær
opplæring
oppmerksom
oppmerksomhet
oppna
oppnad
oppnade
oppnades
oppnar
oppnas
oppnat
oppning
opposition
oppover
oppr
opprett
opprette
opprettet
opprettholde
opprinn
opprinnelig
opprinnelige
opps
oppstar
oppstart
oppsummer
opptak
opptatt
opptil
opr
opret
opretholde
oprett
oprette
oprettet
oprin
oprinde
oprindelige
oprindeligt
ops
opskrift
opskriften
opskrifter
opslag
opsta
opstaet
opstar
opstart
opstod
opsætning
opt
optag
optage
optagelse
optaget
optim
optimal
optimala
optimale
optimalt
optimer
optimera
optimering
option
optræder
opvarm
opvarmning
opvask
or
ora
oral
oralsex
orange
orat
oratt
ord
orden
ordene
ordent
ordentlig
ordentligt
order
ordet
ordfor
ordforande
ordforanden
ordfører
ordin
ordinar
ordinarie
ordinær
ordinære
ordna
ordnade
ordnar
ordnas
ordnat
ordning
ordningen
ordnings
ordre
ore
orebro
oresund
org
organ
organer
organis
organisasjon
organisasjonen
organisasjoner
organisation
organisationen
organisationens
organisationer
organisations
organisator
organisera
organisering
organisert
organisk
orgas
orgasm
orgasme
orgasmer
orgie
ori
orienter
orientering
orig
origin
original
originale
originalet
orim
ork
orka
orkade
orkar
orkat
orkester
orm
orn
ornskolds
ornskoldsvik
oro
oroa
oroar
orolig
oroliga
oron
oronen
orsa
orsak
orsaka
orsakade
orsakar
orsakas
orsakat
orsaken
orsaker
orsakerna
ort
orten
orter
ortod
os
osa
osaker
osakerhet
osakra
osann
osannol
osc
oscar
oser
osk
oskar
oskarshamn
oskyl
osl
oslo
oss
ost
oste
osten
oster
ostergot
ostergotland
osterrike
ostersjon
ostersund
ostra
osv
osyn
ot
ota
otal
otaliga
other
otill
otillrack
otr
otro
otrogen
otrohet
otrolig
otroliga
otroligt
ott
otte
otto
otur
ound
our
out
outf
outfit
outlet
outlook
ov
ova
ovan
ovanfor
ovanlig
ovanliga
ovanligt
ovanpa
ovanstaende
ovant
ovantade
ovantat
ovar
ove
oven
ovenfor
ovennævnte
ovenpa
ovenstaende
over
overallt
overalt
overbel
overbev
overbevis
overbevist
overblick
overblik
overd
overdr
overdre
overdrivet
overen
overens
overenskom
overenskomm
overenskommelse
overenskomst
overensstemmelse
overfl
overflade
overfladen
overflod
overfor
overfora
overforing
overfør
overføre
overføres
overført
overg
overga
overgang
overgangen
overgangs
overgar
overgre
overgrepp
overgripande
overh
overholde
overhovedet
overhuvud
overhuvudtaget
overk
overkl
overklag
overl
overlag
overlagsen
overlam
overlat
overlev
overleva
overlevde
overleve
overlever
overlevnad
overnat
overnatning
overnatt
overnattning
overord
overordnede
overordnet
overra
overrask
overraskad
overraskande
overraskelse
overraskende
overrasket
overraskning
overre
overs
oversatt
oversatta
oversattning
oversigt
oversikt
oversk
overskott
overskri
overskriften
oversku
overskud
overst
oversta
overstiger
oversv
oversvam
oversyn
oversættelse
overt
overta
overtal
overtid
overtog
overtra
overtræ
overtyg
overtygad
overv
overvag
overvaga
overvagande
overvager
overvagning
overvak
overvakning
overvej
overveje
overvejelser
overvejer
overvikt
overvin
overvægt
ovn
ovnen
ovning
ovningar
ovningen
ovr
ovre
ovrig
ovriga
ovrigt
ow
ox
oxa
oz
p1
p3
p4
pa
paa
pabegyn
pabor
paborj
paborja
paborjade
paborjas
paborjat
pack
packa
packade
packat
pad
padd
pafre
pafyll
pag
paga
pagaende
pagar
pagatt
page
pagick
pagældende
pah
pahitt
paj
pak
paket
paketet
pakistan
pakke
pakken
pakker
pakket
pal
pala
palace
palagt
pale
palest
palestin
palide
palit
palitlig
pall
palm
palme
pals
palæg
palæst
pam
pamin
paminna
paminnelse
paminner
pan
pancake
pand
pande
panel
panik
pann
panna
pannan
pannkakor
panor
pant
pap
pape
papek
papeka
papekar
paper
papir
papp
pappa
pappan
pappas
papper
pappers
pappret
papr
paprika
par
para
parad
paradis
paradise
parag
paragraf
parall
parallell
parallellt
paramet
paraply
paras
parat
paret
parf
parforhold
parfy
parfym
paris
park
parken
parker
parkering
parkeringen
parkerings
parla
parlam
parlamentar
parlamentet
parlor
paron
part
partene
parter
parterna
parterne
parti
partier
partierna
partiet
partiets
partik
partiled
partiledare
partner
partnere
partners
partnerskap
party
parørende
pas
pasar
pase
pasen
pasient
pasienten
pasienter
pask
paske
pasken
pass
passa
passade
passager
passagerare
passande
passar
passasjer
passe
passende
passer
passera
passerade
passerar
passerat
passet
passform
passion
passioner
passiv
past
pasta
pastaenden
pastand
pastar
pastas
pastod
pastor
pat
patag
patent
patenter
patient
patienten
patientens
patienter
patienterna
patienterne
patri
patrick
patrik
patt
patter
paul
paulus
paus
pause
pausen
pauser
pavag
paven
paverk
paverka
paverkade
paverkan
paverkar
paverkas
paverkat
pavir
pavirke
pavirker
pavirket
pavirkning
pay
payday
payp
paypal
pa¥
pb
pc
pct
pdf
pe
peber
ped
pedagog
pedagoger
pedagogik
pedagogisk
pedagogiska
peder
pedersen
peg
peger
pej
pek
peka
pekar
pel
pell
pelle
pels
pen
pend
pendel
penetr
peng
pengar
pengarna
penge
pengene
penger
penis
penn
penna
penning
pens
pensel
pension
pensionar
pensionarer
pensioner
pensions
pensjon
pent
people
pepp
peppar
peppark
per
perf
perfect
perfekt
perfekta
perfekte
perfektion
perform
performance
perio
period
periode
perioden
perioder
perm
permal
permalanken
perman
permanent
pern
pernilla
pernille
pers
person
personal
personale
personalen
personalet
personbil
personen
personens
personer
personerna
personlig
personliga
personlige
personligen
personlighed
personlighet
personligt
personnummer
personoplysninger
personopplysninger
persons
personuppgift
personuppgifter
personuppgifts
perspekt
perspektiv
perspektiver
perspektivet
persson
peru
pest
pet
peter
petersen
petr
petra
petter
pettersson
pga
ph
phil
philip
philips
phone
phot
photo
photos
photoshop
php
phu
pi
pia
pian
piano
pic
pick
picknick
pics
picture
pictures
pie
pier
pierre
pig
pige
pigen
piger
pigerne
pigg
piggare
pigment
pik
pil
pilgrim
pill
piller
pilot
pim
pin
ping
pink
pinne
pinsamt
pinter
pinterest
pion
pip
pir
pirat
pisk
piss
pist
pistol
pite
pitea
pitt
pix
piz
pizz
pizza
pjas
pk
pkt
pl
pla
plac
place
placer
placera
placerad
placerade
placerar
placeras
placerat
placere
placeres
placeret
placering
placeringar
placeringen
plad
plade
plader
plads
pladsen
pladser
plag
plagg
plak
plan
planbok
planboken
planen
planer
planera
planerad
planerade
planerar
planeras
planerat
planering
planeringen
planerna
planet
planeten
planlagt
planlagte
planleg
planlegging
planlæg
planlægge
planlægger
planlægning
plant
plante
planter
plantera
plas
plass
plassen
plasser
plassert
plast
plaster
plastik
plat
platform
plats
platsen
platser
platserna
platt
platta
plattan
plattform
plattformar
plattformen
play
player
playstation
ple
please
pleje
plejehjem
plejer
pligt
plikt
plikter
plock
plocka
plockade
plockar
plockat
plots
plotsligt
plud
pludsel
pludselig
plug
plugg
plugga
pluggar
pluggat
plus
pluss
pluts
plutselig
pm
po
poang
poangen
pock
pocket
pod
podcast
poeng
poesi
poet
poin
point
poj
pojk
pojkar
pojkarna
pojke
pojken
pojkvan
pok
poker
pol
polar
polen
polic
policy
polis
polisen
polisens
poliser
polism
polit
politi
politiet
politiets
politik
politiken
politiker
politikere
politikerna
politikerne
politikk
politisk
politiska
politiske
politiskt
poll
pollen
polska
polske
poly
polyester
pom
pommes
pon
ponny
pont
pontus
pool
poolen
pop
popc
popcorn
popp
popul
popular
populara
popularaste
popularitet
populart
populær
populære
populært
por
porn
pornhub
porno
pornofilm
pornograf
pornografi
pornografiska
pornos
pornost
pornostjerne
pornstar
porr
porrbilder
porrfilm
porrfilmer
porrstjarnor
porslin
port
portal
porte
porten
portfol
portfolj
portion
portioner
porto
portratt
portug
portugal
portugis
pos
pose
poser
posisjon
posit
position
positioner
positiv
positiva
positive
positivt
post
postad
postades
postadres
postadress
postadresse
postadressen
postat
posted
posten
poster
postnummer
pot
potatis
potens
potent
potential
potentiale
potentiella
potentielle
pott
potter
poul
poulsen
pov
pow
power
pp
pr
pra
prag
praglas
praksis
prakt
praktik
praktiken
praktisk
praktiska
praktiske
praktiskt
prast
praster
prat
prata
pratade
pratar
pratat
praxis
pre
precis
precision
pred
predik
prefer
preget
prel
prelimin
prem
premiar
premiaren
premie
premier
premium
pren
prenumer
prenumeration
prenumerera
prepar
pres
present
presentasjon
presentation
presentationer
presenter
presentera
presenterade
presenterades
presenterar
presenteras
presentere
presentert
presentkort
president
presidenten
press
pressa
presse
pressen
presset
pressmeddelande
prest
prestand
prestanda
prestation
prester
prestera
prestige
pretty
prevent
pri
price
prick
pride
prim
primar
primara
primær
primære
primært
prin
princi
princip
principen
principer
principper
princippet
prins
prinsessan
print
prior
prioriter
prioritera
prioritere
prioritering
prioritet
pris
prisen
priser
priserna
priserne
priset
prisk
prisvard
prisvarda
prisvart
priv
privat
privata
private
privatlan
privatliv
privatperson
privatpersoner
privileg
prix
pro
problem
problemat
problematisk
problemen
problemer
problemet
problemstillinger
proc
proced
procedurer
procent
proces
process
processen
processer
produ
produc
producent
producenten
producenter
producer
producera
producerar
produceras
producerat
producere
producerer
produceret
product
produksjon
produksjonen
produkt
produkten
produktene
produkter
produkterna
produkterne
produktet
produktion
produktionen
produktioner
produktions
produktiv
produktivitet
produs
produsere
produsert
prof
profesjon
profesjonelle
profess
profession
professional
professionel
professionell
professionella
professionelle
professionellt
professionelt
professor
profet
proff
proffs
profil
profilen
profiler
progn
prognos
prognosen
prognoser
program
programledare
programmen
programmer
programmering
programmet
programvara
programvare
progress
project
projekt
projekten
projekter
projektering
projektet
projektets
projektledare
prom
promen
promenad
promenaden
promenader
promenera
pron
prop
propag
propaganda
proport
proportion
proposition
propp
pros
prosent
prosess
prosessen
prosesser
prosjekt
prosjekter
prosjektet
prosjektleder
prospekt
prost
prostata
prostitu
prostituerade
prostitution
prot
prote
protected
protein
proteiner
protest
protester
protokoll
protokollet
prov
prova
provade
provar
provas
provat
proven
prover
provet
provin
provinsen
provning
pryd
prylar
præ
præcis
præcise
præcist
præd
præg
præget
præm
præmie
præsen
præsent
præsentation
præsentere
præsenterer
præsenteres
præsenteret
præsident
præst
præstation
præster
prø
prøv
prøvd
prøvde
prøve
prøvede
prøven
prøver
prøvet
ps
pse
pseud
psy
psyk
psykiat
psykiatri
psykiatrisk
psykisk
psykiska
psykiske
psykiskt
psyko
psykolog
psykologi
psykologisk
psykos
pt
pts
pu
pub
publ
public
publicera
publicerad
publicerade
publicerades
publicerar
publiceras
publicerat
publicering
publik
publiken
publikum
publisert
published
pud
puder
pul
pull
puls
pulsen
pulver
pum
pump
pumpa
pumpe
pumpen
pun
pund
punk
punkt
punkten
punkter
punkterna
punktet
pupp
pupper
pur
pure
pus
push
puss
pussel
pussy
pust
put
putin
putt
putte
pvc
pw
py
pyjam
pyn
pynt
pyr
pyram
pyss
pyssel
pyssla
pæ
pædagog
pædagogisk
pædagogiske
pæn
pæne
pænt
pøl
qu
qual
quality
que
queen
quest
quick
quiz
quot
quote
ra
raa
rab
rabarber
rabat
rabatt
rabatten
rabatter
rabattkod
rabattkoder
rabb
race
racer
racing
rack
racka
racker
rackte
rad
rada
radande
radar
radd
radda
raddning
raddnings
raddningstjansten
raden
rader
radera
radet
radets
radgivare
radgiver
radgivning
radhus
radhuset
radi
radighed
radik
radikal
radikale
radio
radion
radjur
radon
radsla
radslan
raff
rag
ragg
rain
rak
raka
rakade
rakar
rakat
rakenskap
rakna
raknade
raknar
raknas
raknat
rakning
rakningar
rakor
rakt
ral
rall
rally
ram
ramar
ramen
ramme
rammen
rammer
rammerne
ramt
ramte
ran
rand
randers
random
rang
ranger
rank
ranking
rann
rans
rant
ranta
rantan
rante
rantor
rap
rapp
rapport
rapporten
rapporter
rapportera
rapporterade
rapporterar
rapportering
raps
rar
rart
ras
rasen
raser
rasism
rask
raske
raskere
raskt
rasmus
rasmussen
rast
rat
rating
ration
ratt
ratta
rattare
rattegang
ratten
ratter
rattighet
rattigheter
rattigheterna
ratts
rattsliga
rattvis
rattvisa
rattvist
rav
ravar
ravarer
ravaror
raw
ray
rb
rc
rd
re
rea
read
reading
reager
reagera
reagerar
reagere
reagerer
reaktion
reaktioner
real
realistisk
realitet
reality
realkredit
realtid
rebe
rebecca
rec
recens
recension
recensioner
recept
receptet
receptfritt
reception
receptionen
red
reda
redakt
redaktion
redaktionen
redaktor
redaktør
redan
redd
redde
reddit
rede
redeg
redegj
redegørelse
reder
redig
rediger
redigera
redigering
rednings
redo
redog
redogor
redov
redovis
redovisa
redovisar
redovisas
redovisning
redskab
redskaber
redskap
redu
reducer
reducere
reduceret
reduktion
redus
redusere
redusert
reel
reelle
reelt
ref
refer
referat
referens
referenser
refinansiering
refle
refleks
reflekt
reflekter
reflektera
reflektion
reflex
reform
reformer
refunder
reg
regel
regelb
regelbunden
regelbundet
regelbundna
regeln
regelverk
regelverket
regering
regeringen
regeringens
regerings
regi
regim
region
regional
regionala
regionale
regionalt
regionen
regionens
regioner
regiss
regisser
regissoren
register
registr
registrera
registrerad
registrerade
registrerar
registreras
registrerat
registrere
registrerer
registreres
registreret
registrering
registreringen
registrert
registret
regjer
regjering
regjeringen
regl
reglene
regler
reglera
reglerar
regleras
reglering
reglerna
reglerne
regn
regna
regnade
regnar
regne
regner
regnes
regnet
regning
regnskab
regnskap
regul
regulering
reha
rehab
rehabil
rehabiliter
rehabilitering
rein
reinfeldt
reis
reise
reiseliv
reiser
reiste
rej
rejal
rejala
rejalt
rejs
rejse
rejsen
rejser
rejst
rejste
rek
rekke
reklam
reklame
reklamen
reklamer
rekommen
rekommend
rekommendation
rekommendationer
rekommender
rekommendera
rekommenderade
rekommenderar
rekommenderas
rekommenderat
rekon
rekonstru
rekord
rekre
rekrutt
rekruttering
rekry
rekrytera
rekrytering
rekt
rektor
rel
relasjoner
relater
relaterade
relation
relationen
relationer
relativ
relativt
relax
rele
release
relev
relevans
relevant
relevanta
relevante
relig
religi
religion
religioner
religios
religiosa
religiøse
rem
remiss
ren
rena
rene
rengor
rengora
rengoring
rengør
rengøring
renover
renovera
renovering
renoveringen
rens
rensa
rense
rent
rente
renter
rep
repar
reparation
reparationer
reper
reperto
repet
repl
reply
report
reportage
reporter
repr
repres
represent
representant
representanter
representer
representera
representerade
representerar
representerer
repræ
repræsen
repræsent
repræsentant
repræsentanter
repræsenterer
repræsenteret
repu
republ
republik
requ
res
resa
resan
resande
rese
research
reseb
resen
resenarer
resept
reseptfritt
reser
reserv
reservation
reservdelar
reserver
residens
resmal
reson
resonemang
resor
resort
resp
respekt
respektera
respektive
respon
responden
respons
ress
ressour
ressource
ressourcer
ressur
ressurser
rest
restaur
restaurang
restaurangen
restauranger
restaurant
restauranten
restauranter
reste
resten
rester
resterande
resterende
restri
resul
result
resultat
resultaten
resultatene
resultater
resultaterne
resultatet
resulterade
resulterar
resur
resurs
resurser
ret
retfær
retning
retninger
retningslin
retningslinjer
retor
retro
rets
rett
rette
retten
retter
rettes
rettet
rettigheder
rettigheter
retur
returner
reuter
rev
revet
revider
review
reviews
revis
revision
revisions
revisjon
revisor
revisorer
revol
revolut
revolution
revolutionen
revolutioner
rf
rgb
rh
ri
rib
ribb
rich
richard
rick
rickard
rid
rida
ride
rider
ridning
rig
rige
rigeligt
right
rigt
rigtig
rigtige
rigtigt
rik
rika
rike
riket
rikligt
riks
riksdag
riksdagen
riksdagens
riksdags
riksdagsled
riksforbund
riksrevis
rikt
rikta
riktad
riktade
riktar
riktig
riktiga
riktige
riktigt
riktlinjer
riktning
rim
rimelig
rimelige
rimeligt
rimlig
rimliga
rimligt
rin
ring
ringa
ringar
ringde
ringe
ringede
ringen
ringer
ringsted
ringt
rinna
rinner
rio
ris
risik
risikere
risikerer
risiko
risikoen
risk
risken
risker
riskera
riskerar
riskerna
rist
rit
rita
ritu
riv
riva
river
ro
road
rob
robert
robin
robot
robu
robust
rock
rod
roda
rog
rogaland
roger
rok
roka
rokning
rol
roland
rolf
rolig
roliga
roligare
roligaste
rolige
roligt
roll
rolle
rollen
roller
rollspel
rom
roma
roman
romanen
romaner
romant
romantik
romantisk
romantiska
romantiske
romer
rommet
ron
ronn
ronne
ront
rontgen
room
rop
ropade
ropar
ror
rora
rorande
rorde
rorelse
rorelsen
rorelser
roret
rorlig
rorliga
rorlighet
ros
rosa
rose
rosen
roser
roskilde
rosor
ross
rost
rosta
rostade
rostar
rostat
rosten
roster
rosterna
rostfritt
rot
rott
rotter
roulette
router
rov
row
roy
royal
rs
rss
rt
ru
rub
rubb
rubrik
rubriken
rud
rug
rul
rull
rulla
rullade
rullar
rulle
ruller
rullstol
rum
rummen
rummer
rummet
rumpa
rumpan
run
rund
runda
rundan
runde
runder
rundt
rune
runka
runt
runtom
rus
rusk
rusland
russ
russisk
russiske
russland
rust
rut
ruta
rutan
rute
ruten
ruter
rutin
rutiner
rutt
ry
ryan
ryck
ryd
rydde
ryg
ryge
ryger
rygg
ryggen
rygs
ryk
rykker
rykt
rykte
rykten
rym
rymd
rymden
rymliga
rymmer
ryn
rysk
ryska
ryss
ryssland
ryt
rytm
rytt
ryttare
ræ
række
rækker
rø
rød
røde
rødovre
rødt
røg
røn
rør
røre
røv
røy
røyk
sa
saa
saaa
saaaa
saab
sab
sad
sadan
sadana
sadanne
sadant
sadar
sade
sadel
saf
safari
safe
saff
safremt
saft
saftig
sag
saga
sagan
sagar
sagas
sagde
sagen
sagens
sager
sags
sagt
sagtens
sah
sahar
saint
sajt
sajten
sajter
sak
sakaldt
sakaldte
sakalte
saken
saker
sakerhet
sakerheten
sakerhets
sakerligen
sakerna
sakerstalla
sakerstaller
sakert
saklart
sakna
saknade
saknades
saknar
saknas
saknat
sakra
sakrade
sakrare
saks
sakta
sal
sala
salat
sald
salda
salde
saldes
sale
saledes
salen
salg
salget
salgs
salj
salja
saljare
saljaren
saljas
saljer
saljs
sall
sallad
sallan
sallskap
sallskapet
sallsyn
sallsynt
sallsynta
salong
salongen
salonger
salt
salta
salts
salu
salunda
salv
sam
samarbeid
samarbeide
samarbeidet
samarbej
samarbejd
samarbejde
samarbejder
samarbejdet
samarbejdspartnere
samarbet
samarbeta
samarbetar
samarbete
samarbeten
samarbetet
samarbetspartners
samband
sambo
sambon
same
samf
samfund
samfundet
samfunn
samfunnet
samfunns
samhall
samhalle
samhallen
samhallet
samhallets
samhalls
samla
samlad
samlade
samlades
samlag
samlar
samlas
samlat
samle
samlede
samleje
samler
samles
samlet
samling
samlingar
samlingen
samlinger
samliv
samma
samman
sammanfatt
sammanfatta
sammanfattning
sammanfattningsvis
sammanhang
sammanhanget
sammanlagt
sammansattning
sammanstallning
sammant
sammantaget
sammantrade
samme
sammen
sammenhen
sammenheng
sammenhæn
sammenhæng
sammenhænge
sammenhængende
sammenlig
sammenlign
sammenligne
sammenlignet
sammenligning
sammens
sammensat
samord
samordning
samrad
samre
sams
samspel
samspil
samst
samsta
samsung
samsvar
samt
samtal
samtale
samtalen
samtaler
samtalet
samtid
samtida
samtidig
samtidigt
samtliga
samtlige
samtycke
samtycker
samtykke
samuel
samverk
samverkan
samvete
samvitt
samvittighed
samvær
san
sana
sand
sanda
sandaler
sandberg
sande
sanden
sander
sandhed
sandheden
sandnes
sandra
sands
sandsyn
sandsynlighed
sandsynligt
sandsynligvis
sandt
sandviken
sandwich
sang
sangar
sangare
sange
sangen
sanger
sank
sanka
sanker
sankt
sanktion
sann
sanna
sanne
sanner
sannerligen
sanning
sanningen
sannol
sannolik
sannolikhet
sannolikheten
sannolikt
sannsyn
sannsynlig
sannsynligvis
sans
sant
santa
sap
sapass
sar
sara
sarah
sarbar
sarbare
saret
sark
sarskil
sarskild
sarskilda
sarskilt
sas
sasen
sasom
sason
sasong
sasongen
sasongens
sasonger
sat
satan
sate
satell
satellit
sats
satsa
satsar
satse
satser
satsning
satsningar
satsningen
satt
satta
sattas
satte
satter
sattes
sattet
satts
sau
saudi
sauna
sav
saval
save
savel
savida
savner
savnet
sax
say
sa¥
sb
sc
scan
scand
scandic
scandinav
scanpix
scb
scen
scenar
scenario
scene
scenen
scener
sch
scha
schack
schamp
schema
schemat
school
schwe
schweiz
schys
sci
science
scient
sco
scor
score
scoret
scott
scout
scrap
scre
screen
screening
sd
se
sea
search
seb
sebast
sebastian
sec
second
secret
secur
security
sed
sedan
seder
see
seg
segel
seger
segern
segling
segment
segrar
segt
seier
seil
sein
sej
sejl
sejr
sek
sekel
sekret
sekretari
sekretariatet
sekreterare
sekretes
sekretess
seks
seksjon
seksualitet
seksuel
seksuelle
seksuelt
sektion
sektionen
sektor
sektorer
sektorn
sekund
sekunder
sel
select
selekt
self
selge
selger
selma
selskab
selskaber
selskabet
selskabets
selskap
selskaper
selskapet
selskapets
selv
selve
selvføl
selvfølgelig
selvmord
selvom
selvsagt
selvstændig
selvstændige
selvstændigt
selvtill
sem
semester
semestern
semi
semif
semifin
semifinal
seminar
seminarier
seminariet
seminarium
sen
sena
senare
senast
senaste
send
sende
sender
sendes
sendt
sendte
senere
senest
seneste
seng
senge
sengen
senget
seni
senior
seniorer
sens
sensor
sensorer
sensuell
sent
senter
sentr
sentral
sentrale
sentralt
sentrum
seo
sep
separ
separat
separata
sept
septem
september
ser
serb
seri
serie
serien
serier
series
seriet
serios
seriosa
seriost
seriøs
seriøse
seriøst
sert
serum
serv
server
servera
serverar
serveras
servere
serveres
serveret
servering
servic
service
servicen
services
servit
ses
sesong
sesongen
session
set
sett
sette
setter
settes
sevard
sevardheter
seværdig
seværdigheder
sex
sexbutik
sexede
sexet
sexfilm
sexfilmer
sexig
sexiga
sexkontakt
sexlegetøj
sexlek
sexleksaker
sexliv
sexnoveller
sexshop
sexstallningar
sext
sexual
sexualitet
sexuell
sexuella
sexuellt
sexy
sf
sfo
sfs
sg
sgu
sh
sha
shad
shang
shar
share
she
shem
shemale
sher
shir
shirt
shirts
shit
shl
sho
shop
shopp
shoppa
shopping
short
shorts
show
shower
si
sic
sick
sid
sida
sidan
sidde
sidder
side
sidel
siden
sidene
sider
siderne
sido
sidor
sidorna
sidst
sidste
sidstnævnte
sie
sier
sies
sif
siff
siffra
siffran
siffror
siffrorna
sig
sige
siger
siges
sight
sign
signal
signaler
signatur
signe
signer
signifik
signifikant
sigt
sik
sikke
sikker
sikkerhed
sikkerheden
sikkerheds
sikkerhet
sikkert
sikre
sikrer
sikres
sikret
sikring
sikt
siktar
sikte
siktet
sil
sildenafil
silikon
silke
silkeborg
sill
silver
sim
simma
simon
simpel
simpelt
simpelthen
simple
sims
simul
sin
sina
sind
sine
sing
singap
singapore
singel
singlar
single
singler
singles
sinn
sinne
sinnen
sinnes
sir
siri
sis
sist
sista
siste
sistnamnda
sistone
sit
site
sites
sitt
sitta
sittande
sitte
sitter
situ
situasjon
situasjonen
situasjoner
situation
situationen
situationer
siv
sivil
six
size
sj
sja
sjal
sjalen
sjalv
sjalva
sjalvfallet
sjalvfort
sjalvfortroende
sjalvkansla
sjalvklar
sjalvklara
sjalvklarhet
sjalvklart
sjalvmord
sjalvstand
sjalvstandighet
sjalvstandigt
sjalvt
sjanse
sjansen
sjatte
sje
sjef
sjek
sjekk
sjekke
sjekket
sjel
sjelden
sjo
sjoar
sjof
sjok
sjon
sjong
sjonk
sjost
sjov
sjove
sjovt
sju
sjuk
sjuka
sjukdom
sjukdomar
sjukdomen
sjukgym
sjukgymnast
sjukhus
sjukhuset
sjukskoter
sjukskoterska
sjukskoterskor
sjukt
sjukvard
sjukvarden
sjukvards
sjun
sjunde
sjunga
sjunger
sjunka
sjunker
sjutt
sjutton
sjæl
sjæld
sjældent
sjældne
sjælland
sjø
sk
ska
skab
skabe
skaber
skabes
skabt
skabte
skad
skada
skadad
skadade
skadan
skadar
skadas
skadat
skade
skadelige
skaden
skader
skadespel
skadespelare
skadespeler
skadestand
skadet
skadliga
skador
skaffa
skaffar
skaffat
skaffe
skaffer
skagen
skagg
skak
skaka
skal
skala
skaldjur
skalen
skalet
skall
skallen
skam
skamm
skams
skamt
skan
skand
skandal
skander
skanderborg
skandinav
skandinavien
skandinavisk
skane
skanes
skanker
skanska
skap
skapa
skapad
skapade
skapades
skapande
skapar
skapas
skapat
skapats
skape
skaper
skapet
skapt
skar
skara
skaret
skargard
skargarden
skarm
skarmar
skarmen
skarp
skarpa
skarpe
skarpt
skat
skatt
skatte
skattef
skattem
skatten
skatter
skattes
skatteverket
skav
ske
sked
skedde
skede
skeden
skel
skell
skelleftea
skema
sken
skepp
skept
skeptisk
sker
sket
skete
skett
ski
skib
skibe
skibet
skick
skicka
skickade
skickades
skickar
skickas
skickat
skid
skidor
skidt
skift
skifte
skifter
skiftet
skik
skikkelig
skikt
skil
skild
skilda
skilj
skilja
skiljer
skill
skille
skiller
skillnad
skillnaden
skillnader
skillnaderna
skilsm
skilsmisse
skilt
skilte
skim
skin
skiner
skinn
skinner
skip
skipp
skit
skiten
skiter
skiv
skiva
skivan
skive
skiver
skivor
skj
skje
skjedd
skjedde
skjema
skjer
skjerm
skjermen
skjold
skjor
skjort
skjorta
skjul
skjule
skjult
skjulte
skjut
skjuta
skjuter
skjuts
skjøn
skjønn
skjønner
skjønnhet
skl
sko
skog
skogar
skogbruk
skogen
skogs
skoj
skol
skola
skolan
skolans
skold
skole
skoleb
skolen
skolens
skoler
skolerne
skolj
skoll
skolor
skolorna
skolverket
skon
skona
skonhet
skont
skor
skord
skorna
skot
skota
skoter
skots
skotsel
skott
skotte
skottland
skov
skovde
skoven
skr
skra
skrack
skradd
skraddars
skram
skrammande
skrap
skratt
skratta
skrattade
skrattar
skred
skrek
skrev
skrevet
skrevs
skri
skrib
skribent
skrid
skridt
skrift
skriften
skrifter
skriftlig
skriftliga
skriftlige
skriftligt
skrik
skrika
skriker
skritt
skriv
skriva
skrivande
skrivare
skrivas
skrivbord
skrivbordet
skrive
skrivelse
skriven
skriver
skrives
skrivet
skrivit
skrivna
skrivs
skro
skrot
skru
skruv
skruva
skry
skræ
skrædder
skræddersy
sku
skubb
skud
skudt
skuespiller
skuespillere
skuff
skuffet
skugg
skugga
skuggan
skul
skuld
skulde
skulden
skulder
skull
skulle
skulpt
skulptur
skum
skur
skutt
skv
sky
skyd
skydd
skydda
skyddad
skyddade
skyddar
skyddas
skyddet
skydds
skyde
skygge
skyl
skyld
skyldes
skyldig
skyldiga
skyldighet
skyldigheter
skyll
skylla
skylt
skyltar
skym
skyn
skynda
skype
skys
skyscan
skytt
skæb
skær
skære
skærm
skærmen
skæv
skøn
skønhed
skønne
skønt
sl
sla
slack
slad
sladd
slaet
slag
slagelse
slaget
slagit
slags
slakt
slakten
slaktingar
slam
slang
slanga
slangde
slanger
slank
slanke
slant
slap
slapp
slappa
slappe
slapper
slappna
slapps
slappt
slappte
slapptes
slar
slas
slass
slat
slatt
slav
slave
sle
slekt
slem
slet
slett
slette
slettet
sli
slick
slicka
slickar
slid
slik
slike
slikke
slikt
slim
sling
slip
slipp
slippa
slippe
slipper
slit
slita
slitage
sliten
sliter
slitna
slo
slog
slogs
slot
slots
slott
slottet
slov
slovak
sloven
slow
slu
sluk
slum
slump
slut
sluta
slutade
slutandan
slutar
slutat
sluten
slutet
slutfora
slutgilt
slutliga
slutligen
slutningen
slutresultatet
sluts
slutsats
slutsatsen
slutsatser
slutt
slutte
sluttede
slutten
slutter
sluttet
sm
sma
smabarn
smad
smag
smage
smagen
smager
smak
smaka
smakade
smakar
smaken
smaker
smal
smala
smaland
small
smalt
smalta
smalter
smaning
smaningom
smar
smart
smarta
smartan
smarte
smartphone
smartphones
smartt
smas
smask
smat
smatt
smed
smek
smer
smerte
smerter
smet
smeten
smid
smide
smidig
smidigt
smil
smile
smiler
smin
smink
smith
smitt
smooth
smoothie
smor
smoret
smorgas
sms
smslan
smuk
smukke
smukkeste
smukt
smul
smula
smule
smut
smuts
smutsiga
smyck
smycken
smyg
smykker
smør
sn
sna
snabb
snabba
snabbare
snabbast
snabbaste
snabblan
snabbt
snack
snacka
snackade
snackar
snacks
snak
snakk
snakke
snakker
snakket
snall
snalla
snallt
snap
snapchat
snar
snarare
snarast
snarere
snarest
snart
sne
sneakers
sned
sneg
snett
snick
snig
snit
snitt
sno
snon
snor
snow
snu
snubb
snur
snurr
snurra
snurrar
snus
snusk
snygg
snygga
snyggare
snyggaste
snyggt
snø
so
soci
social
sociala
socialdem
socialdemokrat
socialdemokrater
socialdemokraterna
sociale
socialnamnden
socialstyrelsen
socialt
socialtjanst
socialtjansten
sock
socken
socker
sod
soder
sodermalm
sodertalje
soderut
sodra
sof
sofa
sofaen
soff
soffa
soffan
sofia
sofie
sofistiker
soft
software
sog
sogn
sogne
soja
sok
soka
sokande
soker
sokmotor
sokning
sokt
sokte
sol
sola
solar
solarium
solberg
solceller
soldat
soldater
solen
solens
solglasogon
solgt
solgte
solid
solidar
solidaritet
solig
soligt
soll
sollentuna
solna
solned
solnedgang
solo
solsken
solut
som
somal
some
somliga
sommar
sommaren
sommarens
sommarjobb
sommark
sommarlov
sommart
sommer
sommeren
sommerferien
sommerhus
somn
somna
somnade
somnar
somnat
somnen
somras
son
sondag
sondagar
sondagen
sondags
sonder
sonen
soner
song
sony
sop
soph
sophie
sopp
soppa
sor
sorg
sorgen
sorgligt
sorm
sorry
sort
sorte
sortens
sorter
sortera
sortering
sorters
sortiment
sortimentet
sorts
sos
sosial
sosiale
sosialt
sot
sota
sott
sou
soul
sound
sour
source
south
sov
sova
sove
sover
sovevær
soveværelse
sovit
sovjet
sovjetun
sovjetunionen
sovmorgon
sovrum
sovrummet
sp
spa
space
spack
spad
spag
spam
span
spana
spand
spania
spanien
spann
spannande
spanning
spanningen
spannmal
spansk
spanska
spanske
spar
spara
sparade
sparande
sparar
sparas
sparat
spare
sparen
sparer
sparet
spark
sparring
spart
spe
speci
special
speciale
specialist
specialister
speciall
speciel
speciell
speciella
specielle
speciellt
specielt
specif
specific
specifik
specifika
specifikationer
specifikke
specifikt
speed
speg
spegel
spegeln
speglar
spej
spekt
spektakul
spekul
spel
spela
spelade
spelades
spelande
spelar
spelare
spelaren
spelarna
spelas
spelat
spelautomater
spelen
spelet
spelets
spell
spelverksamhet
spen
spender
spendera
spenderade
spenderar
spenderat
spennende
sper
sperm
sperma
spes
spesial
spesiell
spesielle
spesielt
spesif
spet
spets
spetsen
spid
spidsen
spik
spil
spilde
spildevand
spill
spille
spillea
spillede
spiller
spillere
spilleren
spillerne
spilles
spillet
spilt
spilte
spin
spindel
spinn
spinning
spins
spion
spir
spiral
spiritu
spis
spise
spisen
spiser
spist
spiste
spj
spl
split
splitt
spo
spok
spol
spons
sponsor
sponsorer
spont
spontan
spontant
spor
sporet
sport
sporten
sporter
sportlov
sports
spot
spotify
spott
spr
spra
sprak
spraket
sprang
spray
spre
spred
spredt
spri
sprid
sprida
sprider
spridning
sprids
spring
springa
springe
springer
sprint
sprit
spro
sprog
sproget
sprungit
sprut
spruta
sprutar
sprøj
sprøjt
sprøjte
spur
spurgt
spurgte
spurt
spurte
spy
spæn
spænd
spændende
spænding
spændt
spær
spør
spørg
spørge
spørger
spørgeskema
spørgsmal
spørgsmalet
spørre
spørsmal
spørsmalene
spørsmalet
sq
squ
square
sr
sri
ss
st
sta
stab
stabil
stabila
stabilitet
stabilt
stack
stackars
stad
stada
stadade
stadat
staden
stadens
stader
staderna
stadgar
stadig
stadigt
stadigvæk
stadion
stadium
stadning
stads
stadsdel
stadsdelen
staende
staet
staffan
stak
staket
stal
stall
stalla
stallas
stallde
stalldes
stalle
stallen
staller
stallet
stallning
stallningar
stallningst
stalls
stallt
stam
stamm
stamma
stamman
stammer
stamning
stamningen
stamp
stan
stand
standard
standarden
standarder
standig
standiga
standigt
standpunkt
stang
stanga
stangd
stangde
stanger
stangs
stangt
stann
stanna
stannade
stannar
stannat
stans
stapel
stapeln
star
stark
starka
starkare
starkaste
starker
starkt
stars
start
starta
startade
startades
startar
startat
starte
startede
starten
starter
startet
stasjon
stat
state
staten
statens
stater
station
stationen
stationer
statist
statistik
statistiken
statistikk
statistisk
statistiska
stativ
statlig
statliga
statligt
stats
statsbor
statsborger
statsminister
statt
status
stav
stavanger
stay
ste
steam
sted
stede
steder
stedet
steen
stefan
steg
stege
stegen
steget
stein
stek
stekt
stel
stella
stem
stemme
stemmer
stemning
stemningen
sten
stenar
stenen
stens
step
steph
stephen
ster
stere
steril
sterk
sterke
sterkere
sterkt
stev
steve
sthlm
sti
stick
sticka
sticker
stier
stift
stiftelse
stiftelsen
stiftet
stig
stiga
stigande
stige
stigende
stiger
stigning
stik
stikk
stikke
stikker
stil
stilar
stilen
still
stilla
stille
stillede
stiller
stilles
stillet
stilling
stillingen
stillinger
stilren
stilt
stilte
stimul
stimulera
stimulerande
stimulerar
stimulere
stina
stipen
stipendi
stir
stiv
stj
stjal
stjarn
stjarna
stjarnan
stjarnor
stjarnorna
stjer
stjerne
stjerner
stk
sto
stock
stockholm
stockholms
stod
stoder
stodet
stodja
stodjer
stof
stoff
stoffer
stoffet
stok
stol
stolar
stold
stole
stolen
stolt
stolta
stolte
stolthet
ston
stone
stop
stopp
stoppa
stoppade
stoppar
stoppe
stoppede
stopper
stoppet
stor
stora
storande
storbr
storbritann
storbritannia
storbritannien
storby
stord
store
storebror
stories
storlek
storlekar
storleken
storm
stormen
storningar
storre
storst
storsta
storstad
stort
stortinget
story
stot
stoter
stott
stotta
stottar
stov
stovlar
str
stra
strack
stracka
strackan
stracker
straf
straff
straffe
straffes
straffet
straks
stral
stralande
stralar
stralende
stralning
stram
stramme
strand
stranden
strander
strang
strangnas
strap
strapon
strateg
strategi
strategier
strategin
strategisk
strategiska
strategiske
strategiskt
strava
stravan
stravar
strax
stre
stream
streama
streaming
streck
street
strej
stren
streng
strenge
strengt
stres
stress
stressa
stressad
stressen
stretch
stri
strid
strider
strik
strikk
strikke
strikket
strikt
strim
string
strip
stro
stroke
strom
stromm
strommen
strong
stru
strukt
struktur
strukturen
strukturer
strum
strump
strumpor
strunt
stry
stryk
stræk
strækker
strøm
strømmen
stu
stubb
stud
studen
student
studenten
studentene
studenter
studenterna
studer
studera
studerade
studerande
studerar
studerat
studere
studerende
studi
studie
studiel
studien
studier
studierna
studiet
studio
studion
studios
stue
stuen
stug
stuga
stugan
stugor
stul
stum
stund
stunden
stunder
stundtals
sture
sty
styck
stycke
stycken
stycket
stygg
stykke
stykker
styl
style
styling
styr
styra
styrde
styre
styrels
styrelse
styrelseled
styrelsen
styrelsens
styrem
styrer
styres
styret
styring
styrings
styrka
styrkan
styrke
styrker
styrket
styrketraning
styrkor
styrning
styrs
styrt
styv
stær
stærk
stærke
stærkere
stærkt
stæv
stø
støj
stør
størr
større
størrelse
størrelsen
størrelser
størst
største
størstedelen
støtt
støtte
støtter
støttet
støv
støvler
støvs
støy
su
sub
subjekt
subst
suc
succ
succe
succes
success
successivt
suck
sud
sug
suga
sugar
sugen
suger
sugna
suk
sukker
suks
suksess
sul
sult
sum
summa
summan
summer
summor
sun
sund
sundby
sunde
sunder
sundhed
sundheds
sundhedsv
sundsvall
sundt
sunn
sunt
super
superbra
supert
supp
supple
supplement
suppler
supplerende
support
supporter
sur
sura
sure
surf
surfa
surfplatta
surfplattor
surt
sus
susanne
sushi
sut
sutt
suttit
suver
suz
sv
svag
svaga
svagt
svak
sval
svalja
svalna
svalt
svamp
svan
svang
svanger
svans
svar
svara
svarade
svarar
svarare
svaraste
svarat
svard
svare
svarede
svaren
svarende
svarer
svaret
svarighet
svarigheter
svarmor
svart
svarta
svarte
svav
svd
sve
svea
sved
svein
svej
svek
sven
svend
svendborg
svensk
svenska
svenskar
svenskarna
svenske
svenskt
svensson
sver
sverig
sverige
sverigedem
sverigedemokraterna
sveriges
svets
svett
sviger
svikt
svim
svin
svind
sving
svt
svull
svær
svære
sværere
svært
svøm
svømme
sw
swe
swed
swedbank
sweden
swedish
sweet
swim
swing
swinger
swingerklub
swingers
swish
switch
sy
syd
syda
sydafr
sydafrika
sydamerika
sydlige
sydney
sydost
syds
sydvast
syftar
syfte
syften
syftet
syg
sygdom
sygdomme
sygdommen
syge
sygehus
sygep
sygeplejer
sygeplejerske
syk
sykdom
sykdommen
sykdommer
syke
sykehus
sykehuset
sykeple
sykkel
syl
sylt
sym
symbol
symbolen
symboler
symfon
symp
symptom
symptomer
symtom
syn
synas
synd
synder
syndrom
synen
syner
synes
synet
synge
synger
synkron
synlig
synliga
synlige
synligt
synner
synnerhet
synnerligen
synonym
synpunkter
syns
synsatt
synspunkter
syntes
syntet
syr
syra
syre
syri
syrien
syrran
syskon
syss
syssel
sysselsattning
sysslar
system
systematisk
systematiskt
systemer
systemet
systems
syster
systrar
sytt
syv
sæ
sæd
sædceller
sæde
sædvanlig
sædvanlige
sæl
sælge
sælger
sælges
sæn
sær
særdeles
sære
særlig
særlige
særligt
særskilt
sæson
sæsonen
sæt
sætte
sætter
sættes
sø
sød
søde
søen
søer
søg
søge
søger
søges
søgning
søgt
søgte
søk
søke
søker
søknad
søknaden
sølv
søm
søn
søndag
sønder
sønderborg
sønderjylland
sønn
sønnen
sør
søren
sørensen
sørg
sørge
sørger
sørget
søskende
søster
søt
søte
søvn
ta
tab
tabe
tabel
tabell
tabellen
tabeller
taber
tabl
tablet
tablett
tabletter
tabt
tabte
tabu
taby
tack
tacka
tackade
tackar
tacke
tacker
tacket
tackning
tacksam
tacksamma
tackt
tacos
tad
tadalafil
tag
tage
tagen
tager
tages
taget
tagg
taggad
taggar
tagit
tagits
tagna
tags
tai
taj
tak
take
taket
takk
takke
takker
takket
taknem
takt
taktik
tal
tala
talade
talam
talamod
talan
talang
talar
talas
talat
tale
talen
talent
taler
tales
talet
talets
talk
tall
tallene
taller
tallerken
tallet
tallrik
talmod
tals
talt
talte
tam
tamligen
tan
tand
tanda
tande
tander
tanderna
tandlak
tandlakare
tandlakaren
tandlæge
tandvard
tang
tangent
tank
tanka
tankande
tankar
tankarna
tankas
tankbara
tanke
tankegang
tanken
tanker
tankerne
tankes
tankt
tankte
tann
tant
tanter
tantra
tap
tapas
tape
tapet
tapeter
tapp
tappa
tappade
tappar
tappat
tar
tarar
tararna
tarm
tarn
tarna
tart
tarta
tartan
tas
task
taske
tass
tast
taste
tat
tata
tatover
tatt
tatu
tatuering
tav
tavla
tavlade
tavlan
tavlande
tavlar
tavling
tavlingar
tavlingarna
tavlingen
tavlings
tavlor
tax
taxa
taxi
tayl
taylor
tb
td
tdc
te
tea
team
teamet
teat
teater
teatern
tech
techn
technology
teck
tecken
teckna
tecknad
tecknade
tecknat
teckning
ted
teen
teg
tegel
tegl
tegn
tegne
tegner
tegnes
tegnet
tegning
tegninger
tej
tek
tekn
teknik
tekniken
tekniker
teknikker
teknisk
tekniska
tekniske
tekniskt
teknolog
teknologi
teknologien
teknologier
teknologiske
tekst
teksten
tekster
tekstil
tel
tele
telefon
telefonen
telefoner
telefoni
telefonnummer
telefonsamtal
telefonsex
telemark
telen
telenor
telia
tell
telt
tem
tema
temaer
temaet
teman
temat
temmelig
temp
tempel
temper
temperament
temperatur
temperaturen
temperaturer
templet
tempo
tempor
tempot
ten
tenar
tenden
tendens
tendenser
tender
tenderar
tenk
tenke
tenker
tenkt
tenkte
tenn
tennis
tent
teor
teoret
teoretisk
teoretiska
teori
teorier
teorin
ter
tera
terapeut
terapi
term
termer
termin
terminal
terminen
terr
terra
terrang
terras
terrass
terrasse
terrassen
territ
territor
terror
terræn
tes
tesla
test
testa
testade
testam
testamente
testar
testat
teste
testen
tester
testet
testosteron
tet
tett
tex
texas
text
texten
texter
texterna
textil
tf
th
tha
thai
thailand
thailandska
thaim
thaimassage
than
that
the
their
them
ther
there
theres
therese
these
they
thi
think
this
thom
thomas
thor
thriller
thro
thy
ti
tiar
tid
tida
tide
tiden
tidens
tider
tiderna
tidig
tidiga
tidigare
tidigast
tidigt
tidlig
tidlige
tidligere
tidligt
tidning
tidningar
tidningarna
tidningen
tidnings
tidpunkt
tidpunkten
tids
tidsbeg
tidsfor
tidskrift
tidsperiod
tidspunkt
tidspunkter
tidspunktet
tidsskrift
tig
tiger
tight
tights
tik
til
tilb
tilbag
tilbage
tilbak
tilbake
tilbakemelding
tilbehør
tilbered
tilbringe
tilbud
tilbuddet
tilbudet
tilbudt
tilby
tilbyde
tilbyder
tilbydes
tilbyr
tildeling
tildelt
tilf
tilfel
tilfeldig
tilfelle
tilfeller
tilfred
tilfreds
tilfredse
tilfredshed
tilfredsst
tilfredsstille
tilfredsstillende
tilfæl
tilfælde
tilfældet
tilføj
tilføje
tilføjer
tilføjet
tilg
tilgang
tilgjen
tilgjengelig
tilgjengelige
tilgæng
tilgængelig
tilgængelige
tilgængeligt
tilh
tilhørende
tilhører
tilkn
tilknytning
tilknyttet
till
tillade
tilladelse
tillader
tilladt
tillag
tillagg
tillagga
tillamp
tillampa
tillampar
tillampas
tillampning
tillat
tillata
tillate
tillatelse
tillaten
tillater
tillatet
tillatna
tillats
tillb
tillbaka
tillbaks
tillbehor
tillbring
tillbringa
tillbringade
tilldel
tilldelas
tillegg
tillfall
tillfalle
tillfallen
tillfallet
tillfallig
tillfalliga
tillfalligt
tillfor
tillfora
tillforlit
tillfrag
tillfreds
tillfredsstallande
tillga
tillgang
tillgangar
tillgangen
tillganglig
tillgangliga
tillganglighet
tillgangligt
tillgod
tillgodose
tillhanda
tillhandahalla
tillhandahaller
tillhandahalls
tillhor
tillhorande
tillhorde
tillid
tillige
tillika
tillit
tillkann
tillkommer
tillrack
tillracklig
tillrackliga
tillrackligt
tills
tillsammans
tillsatt
tillsatta
tillskott
tillslut
tillstand
tillstandet
tillsvid
tillsvidare
tillsyn
tillsyns
tilltal
tilltalande
tilltrade
tillvag
tillvagagangssatt
tillval
tillvara
tillvaro
tillvaron
tillvaxt
tillvaxten
tillverk
tillverka
tillverkad
tillverkade
tillverkar
tillverkare
tillverkaren
tillverkas
tillverkat
tillverkning
tillykke
tillæg
tilmel
tilmeld
tilmelde
tilmelding
tilmeldt
tilnær
tilpas
tilpasning
tilpass
tilpasse
tilpasses
tilpasset
tilrettel
tilrettelagt
tilrettelæg
tils
tilsammen
tilsendt
tilsku
tilskud
tilskudd
tilsl
tilslutning
tilstand
tilstanden
tilsted
tilstede
tilstedevær
tilstedeværelse
tilstrek
tilstrekkelig
tilstræk
tilstrækkelig
tilstrækkeligt
tilsvar
tilsvarende
tilsyn
tilsynel
tilsyneladende
tilsynet
tilsyns
tilsæt
tilt
tiltag
tiltak
tiltal
tiltr
tiltrække
tim
time
timen
timer
timers
times
timma
timmar
timmarna
timmars
timme
timmen
timmer
timmes
tin
tina
tinder
ting
tingene
tings
tingsratt
tingsratten
tio
tionde
tiot
tip
tipp
tips
tipsa
tipsar
tipset
tir
tirsdag
tis
tisdag
tisdagen
tisdags
tit
titan
titel
titeln
titlar
title
titlen
titler
tits
titt
titta
tittade
tittar
tittat
tiv
tivoli
tj
tja
tjan
tjana
tjanar
tjanst
tjanste
tjanstem
tjansteman
tjansten
tjanster
tjansterna
tjat
tje
tjeck
tjeckien
tjej
tjejen
tjejer
tjejerna
tjek
tjekke
tjen
tjene
tjener
tjenest
tjeneste
tjenesten
tjenestene
tjenester
tjock
tjocka
tjockare
tjockt
tju
tjug
tjugo
tjur
tjus
tjuv
tkr
tl
tlf
tm
to
toa
toal
toalett
toaletten
toaletter
tob
tobak
tobias
tod
today
tog
toget
togs
toil
toilet
tok
tokyo
tol
told
toler
tolk
tolka
tolkar
tolkas
tolkning
toll
tolv
tom
tomas
tomat
tomater
tomm
tomma
tomme
tommer
tommy
tomt
tomte
tomten
ton
tonar
tonaring
tonaringar
tonars
tone
tonen
toner
tonn
tons
tony
too
tool
top
topp
toppar
toppen
tor
torben
torbjorn
torde
tore
torg
torget
tork
torka
torkade
torkar
torkt
torktum
torn
torp
torr
torra
torrt
tors
torsdag
torsdagen
torsdags
torsk
tort
torv
tos
tot
total
totala
totale
totalt
touch
tour
tov
tove
town
toy
toyota
tr
tra
track
trad
trada
tradar
trade
traden
trader
tradera
tradet
tradgard
tradgardar
tradgarden
tradgards
tradisjon
tradisjonelle
tradition
traditionel
traditionell
traditionella
traditionelle
traditionellt
traditionen
traditioner
tradlos
tradlosa
tradlost
tradte
traf
traff
traffa
traffade
traffades
traffar
traffas
traffat
trafik
trafiken
trafikk
trafikken
trafikverket
trag
trail
trailer
trak
trakasser
trakasserier
trakig
trakiga
trakigt
trakt
traktor
tral
tram
tran
trana
tranade
tranar
tranare
tranaren
tranas
tranat
trang
tranga
trangt
traning
traningen
tranings
traningspass
traningsvark
tranny
trans
transa
transaktion
transaktioner
transfer
transform
transl
transp
transpar
transparent
transport
transporten
transporter
trapp
trappa
trappan
trappen
tras
traum
trav
travel
travl
travlt
tre
trea
tred
tredj
tredje
tredjedel
tredjepart
tree
treff
treffe
trek
trekant
trekk
trekke
trekker
trell
trelleborg
tren
trend
trenden
trender
trene
trener
treng
trenger
trengte
trening
trenings
trett
trettio
tretton
trev
trevlig
trevliga
trevligt
tri
trick
tricks
trig
trill
trilog
trim
trin
trine
trinn
trio
tripad
tripadvisor
tripp
trist
trium
triv
trivas
trives
trivs
trivsel
tro
tro4for
trodde
trods
troede
troen
troende
trog
troja
trojan
trojor
trol
trolig
troligen
troligt
troligtvis
troll
trollhattan
trom
troms
tromsø
tron
trond
trondheim
trop
tror
tros
trosa
trosor
tross
trost
trot
trots
trott
trotta
trotthet
trottnat
trovar
trovardig
tru
truck
true
truet
truffet
trukket
trum
trump
trumps
trupp
truppen
trus
trusler
trussel
trust
try
tryck
trycka
trycker
trycket
tryckt
tryckte
tryg
trygg
trygga
trygge
trygghet
tryggt
tryghed
trygt
tryk
trykk
trykke
trykker
trykket
træ
træde
træder
træer
træet
træffe
træffer
træffes
træk
trække
trækker
trækkes
træn
træne
træner
trænger
træning
træningen
trænings
træt
trø
trøn
trøndelag
ts
tsk
tt
tu
tub
tube
tuff
tuffa
tuffare
tufft
tugg
tul
tull
tulpan
tum
tumbl
tumblr
tumm
tummarna
tummen
tun
tung
tunga
tungan
tunge
tungt
tunn
tunna
tunnel
tunnelbanan
tunt
tupp
tur
turbo
ture
turen
turer
turism
turist
turistattra
turister
turk
turkiet
turn
turne
turner
turnering
turneringen
tus
tusan
tusen
tusentals
tusenvis
tusind
tusinde
tusindvis
tuttar
tv
tv2
tv3
tv4
tva
tvaa
tvaan
tval
tvang
tvangs
tvar
tvars
tvart
tvartom
tvatt
tvatta
tvattar
tvatten
tvattmaskin
tvek
tveka
tvekan
tveksam
tver
tverr
tvers
tvil
tvilling
tving
tvinga
tvingade
tvingades
tvingar
tvingas
tvist
tviv
tvivel
tvivl
tvn
tvungen
tvunget
tvungna
tvær
tværs
tvært
tværtimod
tw
twe
twin
twist
twitter
two
ty
tyck
tycka
tyckas
tycke
tycker
tycks
tyckt
tyckte
tyd
tyde
tydelig
tydelige
tydeligt
tydeligvis
tyder
tydlig
tydliga
tydligare
tydligen
tydligt
tyg
tyger
tyget
tyk
tykk
tykke
tyn
tynd
tynde
tyng
tyngd
tyngre
typ
type
typen
typer
typisk
typiska
typiske
typiskt
tyr
tyreso
tyrk
tysk
tyska
tyske
tyskerne
tyskland
tysklands
tyst
tysta
tystnad
tyvarr
tæ
tæller
tæn
tænd
tænder
tændt
tænk
tænke
tænker
tænkt
tænkte
tær
tæt
tættere
tø
tøff
tøj
tøjet
tøm
tømmer
tøn
tønder
tør
tørr
tørre
tørt
uaf
uafhæng
uafhængigt
uans
uanset
uansett
uav
uavhengig
ub
ubeg
ubehag
uber
ubet
uc
ud
udarbej
udarbejde
udarbejdelse
udarbejdes
udarbejdet
udbetal
udbetaling
udbetalt
udbred
udbredt
udbud
udby
udbyder
udbytte
udda
uddann
uddannelse
uddannelsen
uddannelser
uddannelses
uddannet
udde
uddevalla
uddy
ude
udefra
udel
udeluk
udelukkende
uden
udendørs
udenfor
udenlandske
udenrig
udfl
udfol
udfor
udfordrende
udfordring
udfordringer
udform
udforske
udfyl
udfylde
udføre
udførelse
udfører
udføres
udført
udgang
udgangen
udgangspunkt
udgangspunktet
udgave
udgift
udgifter
udgifterne
udgiv
udgivet
udgør
udkig
udl
udlandet
udlej
udlejer
udlejning
udlever
udlænd
udlænding
udlø
udløb
udmær
udmærket
udn
udnytt
udnytte
udover
udpeg
udpeget
uds
udsalg
udsat
udsatte
udseende
udsigt
udsigten
udskift
udskiftning
udst
udstilling
udstillingen
udstyr
udstyret
udt
udtal
udtaler
udtryk
udval
udvalg
udvalget
udvalgt
udvalgte
udvek
udvi
udvid
udvide
udvidelse
udvidet
udvik
udvikle
udviklede
udvikler
udvikles
udviklet
udvikling
udviklingen
udviklings
udvæl
uen
uende
uf
ufor
uform
uforpligt
uforpligtende
ug
uge
ugen
ugens
uger
ugers
uges
ugg
ugn
ugnen
ugns
uh
uhel
uheld
uk
uka
uke
uken
ukendt
uker
ukjent
ukra
ukraina
ul
uld
ulem
ulemper
ulf
ulik
ulike
ull
ulla
ulov
ulovlig
ulrik
ulrika
ultim
ultimata
ultra
ultral
ultraljud
ulv
ulyk
ulykke
ulykker
um
ume
umea
umeas
umgange
umgas
umiddel
umiddelbart
umu
umulig
umuligt
un
und
undan
undant
undantag
under
underbar
underbara
underbart
underhall
underhalla
underhallande
underhallning
underholdende
underholdning
underk
underklader
underl
underlag
underlaget
underlagt
underlatt
underlatta
underlattar
underliggande
underligt
underlivet
underord
underratt
unders
underskrift
underskud
undersok
undersoka
undersoker
undersokning
undersokningar
undersokningen
undersokt
underst
understre
understreger
understø
understøtte
understøtter
undersø
undersøg
undersøge
undersøgelse
undersøgelsen
undersøgelser
undersøger
undersøgt
undersøke
undersøkelse
undersøkelsen
undersøkelser
undert
underteck
undertecknad
underveis
undervejs
undervis
underviser
undervisning
undervisningen
undervisnings
undga
undgar
undra
undrade
undrar
undre
undskyl
undt
undtagelse
undvik
undvika
undviker
unes
ung
unga
ungar
ungarna
ungdom
ungdomar
ungdomarna
ungdoms
unge
ungefar
ungefarlig
unger
ungern
unges
ungt
uni
unibet
unic
unik
unika
unike
unikke
unikt
union
unionen
united
univer
univers
universal
universe
universitet
universiteter
universitetet
universitets
universitetssjuk
university
universum
unn
unna
unnga
unntak
unød
uop
uover
up
update
uplo
upp
uppat
uppbygg
uppdater
uppdatera
uppdaterad
uppdaterade
uppdaterar
uppdateras
uppdaterat
uppdatering
uppdateringar
uppdel
uppdrag
uppdraget
uppdrags
uppe
uppehall
uppehallstillstand
uppen
uppenbar
uppenbara
uppenbarligen
uppenbart
uppfatt
uppfattar
uppfattas
uppfattning
uppfattningen
uppfin
uppfod
uppfolj
uppfoljning
uppfor
uppfost
uppfyll
uppfylla
uppfyller
uppgar
uppger
uppgick
uppgift
uppgiften
uppgifter
uppgifterna
uppgrader
upphand
upphandling
upphav
upphor
upphov
upphovsratt
uppkommer
uppkopp
uppkopplad
uppl
upplag
upplaga
upplagg
upplands
upplev
uppleva
upplevde
upplevelse
upplevelsen
upplevelser
upplever
upplevs
upplevt
upplosning
upplys
upplysningar
uppman
uppmanar
uppmark
uppmarksam
uppmarksamhet
uppmarksamm
uppmarksamma
uppmarksammade
uppmun
uppmuntra
uppmuntrar
uppna
uppnas
uppnatt
uppr
uppratt
uppratta
upprattas
uppratthalla
uppre
upprepa
upprepade
upprikt
uppror
upprord
upps
uppsag
uppsagning
uppsala
uppsats
uppsattning
uppskatt
uppskatta
uppskattad
uppskattade
uppskattar
uppskattas
uppskattat
uppskattning
uppslag
uppsta
uppstar
uppstatt
uppstod
uppta
upptack
upptacka
upptacker
upptackt
upptackte
upptagen
upptra
upptrader
uppvarm
uppvarmning
uppvaxt
uppvuxen
ups
ur
urban
uret
uri
urin
url
uro
ursa
ursakt
ursakta
urspr
ursprung
ursprungliga
ursprungligen
urval
urvalet
us
usa
usas
usb
usch
usd
use
user
usikker
usikkerhed
usyn
usæd
ut
utal
utall
utallige
utan
utanfor
utarbeidet
utarbet
utat
utav
utb
utbetal
utbetalning
utbild
utbilda
utbildad
utbildade
utbildning
utbildningar
utbildningen
utbildnings
utbred
utbrott
utbud
utbudet
utby
utbygg
utbygging
utbyggnad
utbyte
utdan
utdann
utdanning
utdannings
utdel
utdelning
utdrag
ute
utel
uten
utenfor
utenlandske
utenom
utenrik
uteplats
uter
uteser
uteslut
uteslutande
utfall
utfar
utfard
utfly
utflykt
utflykter
utfor
utfora
utforande
utforas
utford
utfordrende
utfordring
utfordringer
utform
utforma
utformad
utformade
utformas
utforming
utformning
utfors
utforska
utforske
utfort
utføre
utfører
utføres
utført
utga
utgaende
utgang
utgangen
utgangspunkt
utgangspunkten
utgangspunktet
utgar
utgav
utgave
utgift
utgifter
utgitt
utgiv
utgjorde
utgjør
utgor
utgora
utgors
uthall
uthyr
uthyrning
utifran
util
utk
utkast
utkik
utl
utlam
utlan
utland
utlandet
utlandsk
utlandska
utlaning
utlaningsprodukter
utlov
utman
utmana
utmanande
utmanar
utmaning
utmaningar
utmaningen
utmar
utmark
utmarkt
utmarkta
utmatt
utmed
utmer
utmerket
utn
utnytt
utnyttj
utnyttja
utnyttjar
utnyttjas
utok
utoka
utom
utomhus
utomlands
utov
utova
utover
utr
utred
utreda
utredning
utredningar
utredningen
utrikes
utro
utrolig
utroligt
utru
utrust
utrustad
utrustade
utrustat
utrustning
utrustningen
utrym
utrymme
utrymmen
utrymmet
uts
utsag
utsatt
utsatta
utsatts
utse
utseende
utseendet
utses
utsett
utsidan
utsikt
utsikten
utskick
utskott
utskrift
utsl
utslag
utslapp
utslappen
utslipp
utsokt
utspel
utspelar
utstall
utstallning
utstallningar
utstallningen
utstra
utstrackning
utstyr
utt
uttag
uttal
uttala
uttalande
uttalanden
uttr
uttry
uttryck
uttrycka
uttrycker
uttrycket
uttryckt
uttrykk
utv
utval
utvalda
utvalg
utvalget
utvalgte
utvand
utvar
utvarder
utvardera
utvardering
utveck
utveckla
utvecklad
utvecklade
utvecklades
utvecklar
utvecklare
utvecklas
utvecklat
utvecklats
utveckling
utvecklingen
utvecklings
utvi
utvid
utvidet
utvik
utvikle
utvikler
utviklet
utvikling
utviklingen
utvil
utøver
uund
uv
uøn
va
vaben
vacc
vaccin
vaccination
vack
vacka
vacker
vackert
vackra
vackraste
vackt
vackte
vad
vade
vader
vadret
vag
vaga
vagade
vagar
vagarna
vagat
vagbeskrivning
vagde
vagen
vager
vagg
vaggar
vaggarna
vaggen
vagina
vaglangd
vagled
vagledning
vagn
vagnar
vagnen
vagor
vagrade
vagrar
vagt
vak
vaken
vakker
vakna
vaknade
vaknar
vaknat
vakre
vakt
vaku
vakuum
val
valbefin
valbefinnande
valbehov
valbered
valborg
valby
vald
valda
valde
valdes
valdigt
valds
valdtakt
valen
valent
valet
valfar
valfard
valfarden
valfards
valfri
valg
valget
valgor
valgorande
valgt
valgte
valj
valja
valjare
valjarna
valjer
valjs
valk
valkanda
valkom
valkommen
valkomna
valkomnande
valkomnar
valkomst
valkomstbonus
vall
valley
valling
valma
valmaende
valp
valpar
valparna
vals
valsig
valt
valut
valuta
vamp
vampyr
van
vana
vand
vanda
vande
vander
vandet
vandløb
vandra
vandrar
vandrarhem
vandre
vandret
vandring
vandt
vaner
vanersborg
vanilj
vaning
vaningar
vaningen
vanja
vanlig
vanliga
vanligare
vanligast
vanligaste
vanlige
vanligen
vanligt
vanligtvis
vanligvis
vann
vannen
vanner
vannerna
vannet
vanor
vans
vansinn
vansk
vanskap
vanskelig
vanskelige
vanskeligere
vanskeligt
vanster
vansterpartiet
vanstra
vant
vanta
vantade
vantan
vantar
vantas
vantat
vanvitt
vap
vapen
var
vara
varakt
varan
varandra
varandras
varann
varannan
varar
varas
varat
varav
varberg
vard
varda
vardag
vardagar
vardagen
vardagliga
vardags
vardagsrum
vardagsrummet
vardar
vardcentral
vardcentralen
varde
vardefull
vardefulla
vardefullt
vardegrund
vardel
varden
vardenafil
vardepapper
varder
vardera
vardering
varderingar
vardet
vardnads
vardnadshavare
vare
varelser
varem
varen
varenda
varens
varer
varet
varetage
varfor
varg
vari
varia
variabel
variant
varianten
varianter
variation
variationer
varier
variera
varierande
varierar
varierat
variere
varierende
varierer
varieret
varifran
varighed
varit
varje
vark
varken
varl
varld
varldar
varlden
varldens
varlds
varldsklass
varldskriget
varm
varma
varmare
varme
varmek
varmen
varmepum
varmepump
varmer
varmland
varmt
varmvatten
varn
varna
varnamo
varnar
varning
varor
varorna
varpa
varre
vars
varsel
varsin
varslet
varst
varsta
vart
varu
varuk
varum
varumark
varumarke
varumarken
varumarket
varv
varva
varvet
varvid
vas
vasa
vasal
vasby
vasen
vasent
vasentlig
vasentliga
vasentligt
vask
vaska
vaskan
vaske
vasker
vasket
vaskor
vass
vassa
vast
vaster
vasteras
vasterbotten
vasterbottens
vasternorr
vastervik
vastmanland
vastra
vat
vata
vatska
vatt
vatten
vattendrag
vattenfall
vattens
vattent
vatter
vattnet
vav
vax
vaxa
vaxande
vaxel
vaxer
vaxjo
vaxla
vaxlar
vaxt
vaxte
vaxter
vaxthus
vd
ve
veck
vecka
veckan
veckans
veckas
veckor
veckorna
veckors
ved
veder
vederlag
vedkommende
vedlegg
vedlige
vedligeholdelse
vedlike
vedlikehold
vedr
vedrørende
vedrører
vedt
vedtaget
vedtak
vedtatt
vedtægter
vedvarende
veg
vegan
vegas
veget
vegeta
vegetabil
vegetar
vegetarian
vegetarisk
vegg
vegne
vei
veien
veier
veil
veiled
veiledning
vej
veje
vejen
vejer
vejle
vejleder
vejledning
vejr
vejret
vek
vekk
vekst
vekt
vel
velat
veldig
velegnet
velfungerende
velfærd
velg
velge
velger
velkommen
velkomne
velkomst
vell
vellykket
vels
velsmag
velsmagende
velvære
vem
ven
vend
vende
vender
vendt
vendte
vene
venez
veninde
veninder
venlig
venlige
venligst
venligt
venn
venner
vennlig
vennskap
venskab
venstre
vent
vente
ventede
venter
ventet
ventetid
ventil
ventilation
ver
vera
verb
verd
verden
verdens
verdenskrig
verdi
verdier
verdt
verifier
verk
verka
verkade
verkan
verkar
verken
verket
verklig
verkliga
verkligen
verklighet
verkligheten
verkligt
verksam
verksamhet
verksamheten
verksamhetens
verksamheter
verksamhets
verksamma
verkstad
verkstallande
verkt
verktyg
verktyget
verktøy
vern
verne
veron
veronica
verre
vers
versa
version
versionen
versioner
versjon
verste
vert
vertik
very
ves
vesentlig
vest
vesten
vester
vesterbro
vestfold
vestlige
vet
veta
vetat
vete
vetenskap
vetenskaplig
vetenskapliga
vetenskapligt
veter
veteran
veterin
veterinar
veterinaren
vett
vettigt
vev
vg
vi
via
viagra
vibe
viborg
vibr
vibrator
vice
victor
victoria
vid
vida
vidare
vide
viden
videnskab
videnskabelige
video
videoen
videoer
videok
videokl
videoklip
videoklipp
videon
videop
videor
videos
videospel
vider
videre
videref
videreg
videregaende
vidner
vidr
vidste
vidt
vidta
vidunder
vidunderlige
viet
vietnam
view
vifte
vig
vigsel
vigt
vigtig
vigtige
vigtigste
vigtigt
vik
vika
vikar
viken
viking
vikt
vikten
viktig
viktiga
viktigare
viktigast
viktigaste
viktige
viktigere
viktigste
viktigt
viktor
vil
vila
vilar
vild
vilda
vilde
vilds
vildt
vilja
viljan
vilje
vilka
vilkar
vilkarene
vilken
vilket
vill
villa
villan
ville
villig
villiga
villige
villkor
villkoren
villor
vilt
vim
vin
vincent
vind
vindar
vinde
vinden
vinder
vindkraft
vindmø
vindu
vindue
vinduer
vinduet
vine
vinen
viner
vinet
ving
vingar
vingard
vinkel
vinklar
vinn
vinna
vinnande
vinnare
vinnaren
vinne
vinner
vinst
vinsten
vinster
vintage
vinter
vinteren
vintern
vinyl
viol
vip
vipp
vips
vir
virgin
virk
virke
virkede
virkel
virkelig
virkelige
virkelighed
virkeligheden
virkeligheten
virkeligt
virkemidler
virker
virket
virkning
virksom
virksomhed
virksomheden
virksomhedens
virksomheder
virksomhederne
virksomheds
virksomhet
virksomheten
virksomheter
virt
virtual
virus
vis
visa
visade
visades
visar
visas
visat
visby
visdom
vise
viser
vises
viset
vision
visionen
visioner
visit
visk
visning
visningar
visp
vispa
viss
vissa
visse
visser
visserligen
visst
visste
vist
vistas
viste
vistelse
visual
visuelle
visum
vit
vita
vital
vitamin
vitaminer
vite
viten
vitenskap
vitlok
vits
vitt
vittnes
vivan
vivanza
vl
vm
vo
vod
vog
vogn
vok
vokal
voks
vokse
voksen
voksende
vokser
vokset
voksne
vol
vold
voldsom
voldsomme
voldsomt
voldt
volks
volksw
volkswagen
voll
volley
volont
volt
volvo
volym
volymen
volymer
von
vondt
vor
vord
vore
vores
vort
vov
vp
vr
vra
vred
vrede
vri
vrid
vrida
vs
vt
vu
vul
vulkan
vundet
vunnet
vunnit
vur
vurder
vurdere
vurderer
vurderes
vurderet
vurdering
vurderingen
vurderinger
vurdert
vux
vuxen
vuxit
vuxna
vv
vvs
vy
vyk
vykort
væ
væg
vægge
væggen
vægt
vægten
vægtt
vægttab
væk
vækst
væl
væld
vælg
vælge
vælger
vælges
væn
vær
værd
værdi
værdien
værdier
være
værelse
værelser
værelserne
værelset
værende
været
værk
værker
værket
værksted
værkt
værktøj
værktøjer
værre
værste
vært
væsen
væsent
væsentlig
væsentlige
væsentligt
væske
wa
wahl
wal
walk
wall
want
war
wars
was
wash
washington
wat
watch
water
watt
way
wc
we
web
webb
webbas
webben
webbkamera
webblas
webblasare
webbplats
webbplatsen
webbplatser
webbsida
webbsidan
webbsidor
webcam
webs
webshop
website
websites
websted
wed
week
weekend
weekenden
wel
welcome
well
wellness
wer
were
west
wester
western
wet
wh
what
whe
when
where
which
whisk
whisky
white
who
why
wi
wid
wide
widoczny
wien
wifi
wii
wik
wiki
wikip
wikipedia
wil
wild
wilhelm
will
william
williams
win
wind
windows
winter
wir
wis
with
wo
wol
wolf
woman
women
wonder
wood
wor
word
wordpress
work
works
workshop
workshops
world
would
wow
ww
www
xbox
xd
xhamster
xl
xn
xnxx
xtra
xx
xxl
xxx
ya
yah
yahoo
yde
ydelse
ydelser
yder
yderligere
yderst
ydes
ydm
ydre
ye
year
years
yes
yl
yn
ynd
yndling
yng
yngre
yngsta
yngste
yo
yog
yoga
yoghurt
york
you
young
your
yout
youtube
ypper
yr
yrke
yrken
yrkes
yrkesutbildningar
yrket
ystad
yt
yta
ytan
ytor
ytre
ytring
ytt
ytter
ytterligare
ytterligere
ytterst
yttersta
yttrande
yttre
za
zalog
zalogowanych
zar
zara
ze
zen
zero
zie
zink
zlat
zlatan
zo
zomb
zon
zone
zoo
zoom
zu
°c
æble
æg
ægte
ægtef
ægtefælle
ægteskab
æl
æld
ældre
ældste
æn
ændre
ændrede
ændrer
ændres
ændret
ændring
ændringer
ær
ære
ærger
ærlig
ærligt
øde
ødel
ødelagt
ødelæg
ødelægge
øen
øer
øge
øger
øges
øget
øj
øje
øjeblik
øjeblikket
øjen
øjet
øjne
øjnene
øk
øke
økende
øker
økning
økologisk
økologiske
økonom
økonomi
økonomien
økonomisk
økonomiske
økt
økte
øl
øm
øn
ønsk
ønske
ønskede
ønsker
ønskes
ønsket
ør
øre
øst
øster
østerbro
østfold
østr
østrig
øv
øve
øvelse
øvelser
øver
øverst
øverste
øvre
øvrig
øvrige
øvrigt
øy
øya
øye
øyeblik
øyeblikk
øyne
øynene
на
по
ال
##0
##00
##000
##1
##10
##100
##11
##12
##13
##14
##15
##16
##17
##18
##19
##2
##20
##200
##21
##22
##23
##24
##25
##26
##27
##28
##29
##3
##30
##31
##32
##33
##34
##35
##36
##37
##38
##39
##4
##40
##41
##42
##43
##44
##45
##46
##47
##48
##49
##4for
##5
##50
##500
##55
##6
##60
##61
##62
##63
##64
##65
##66
##67
##68
##69
##7
##70
##71
##75
##77
##8
##80
##83
##85
##86
##87
##88
##89
##9
##90
##95
##99
##a
##aa
##aaa
##aaaa
##ab
##able
##abon
##ac
##ace
##ach
##ack
##acka
##acken
##acker
##ad
##ada
##adan
##add
##adde
##ade
##adel
##adels
##adelse
##adem
##ademin
##aden
##adende
##adens
##ader
##aderna
##ades
##adet
##administr
##ado
##ador
##adres
##adress
##adresse
##ads
##adsen
##adser
##adt
##ae
##af
##afe
##aff
##aft
##aften
##afton
##ag
##aga
##agan
##agande
##aganden
##agangs
##agangssatt
##agar
##agare
##agaren
##agarens
##agarna
##agas
##agd
##agda
##age
##agel
##agelse
##agelser
##agen
##agens
##ager
##agera
##agere
##agerne
##ages
##aget
##agg
##agn
##agna
##agne
##agnen
##agner
##agning
##agningen
##ago
##agon
##agor
##agra
##agram
##ags
##agt
##agte
##agtig
##agtige
##ah
##ahl
##ai
##ail
##aj
##ak
##aka
##akadem
##akare
##ake
##aken
##aker
##akers
##akes
##aket
##aki
##akim
##akk
##akker
##akning
##akon
##akor
##aks
##aksjon
##aksjoner
##akt
##akta
##akte
##akter
##aktig
##aktiga
##aktigt
##aktiv
##aktiva
##aktive
##aktiver
##aktivitet
##aktiviteter
##aktivt
##aktor
##aktorer
##aktt
##aku
##akul
##al
##ala
##alafil
##alag
##alan
##aland
##alands
##alar
##alat
##album
##ald
##alde
##alder
##alderen
##aldern
##aldo
##alds
##aldt
##aldte
##ale
##alem
##alen
##alender
##alens
##aler
##alere
##alerne
##alet
##alg
##algi
##alin
##aling
##alitet
##aliteten
##alj
##alje
##aljen
##aljer
##alken
##all
##alla
##alle
##allen
##aller
##allet
##alls
##allt
##ally
##alo
##alog
##alom
##als
##also
##alt
##alte
##alten
##alternativ
##altet
##alth
##alv
##alven
##am
##ama
##amal
##aman
##amat
##amatch
##amd
##ame
##amen
##ament
##amer
##amerik
##amerika
##amet
##ameter
##ami
##amin
##aminer
##aming
##amm
##amma
##amman
##ammare
##ammen
##ammer
##amn
##amnen
##amo
##amot
##amoter
##amp
##ampa
##ampe
##ampen
##amper
##ampoo
##ams
##amt
##an
##ana
##anal
##analys
##analyse
##analyser
##anas
##anc
##ance
##ancen
##ancer
##and
##anda
##andan
##andare
##ande
##andel
##andelse
##anden
##andens
##ander
##anderna
##anders
##andes
##andet
##andets
##andid
##andning
##ando
##andra
##andras
##andre
##andring
##andringar
##ands
##andt
##ane
##anen
##aner
##ang
##anga
##angar
##angd
##angden
##ange
##angel
##angen
##anger
##angiv
##angre
##angs
##angt
##ani
##anie
##anien
##aning
##anis
##anj
##ank
##ankande
##anke
##anken
##anker
##ankningar
##anlaggning
##anlaggningar
##anlegg
##anlæg
##anmal
##anmalan
##anmark
##ann
##anna
##annan
##annande
##annat
##anne
##annen
##annes
##annet
##anning
##annon
##annons
##annonser
##anny
##ano
##anol
##anpas
##anpass
##ans
##ansar
##anse
##ansen
##anser
##anserna
##ansk
##anska
##anske
##ansokan
##ansvar
##ansvaret
##ansvarig
##ansvarlig
##ansvart
##ant
##anta
##antal
##ante
##anten
##anter
##antering
##anterna
##antik
##anting
##antor
##antorer
##ants
##anv
##anvand
##anvandning
##anvisning
##any
##anych
##ap
##apital
##apning
##app
##appar
##apparat
##appen
##apper
##ar
##ara
##arande
##arare
##arbe
##arbeid
##arbeide
##arbeider
##arbeidet
##arbej
##arbejde
##arbejder
##arbejdet
##arbet
##arbetare
##arbete
##arbeten
##arbetet
##arch
##ard
##arden
##arder
##ards
##are
##areal
##arealer
##ared
##arell
##aren
##arena
##arenden
##arens
##arer
##arerna
##ares
##aret
##arets
##arg
##ari
##aria
##arie
##arig
##ariga
##arige
##arin
##arina
##aring
##ark
##arke
##arken
##arkite
##arkitekt
##arkiv
##arkivet
##arkvall
##arl
##arm
##arma
##armen
##arn
##arna
##arnas
##arning
##aro
##arp
##arrang
##ars
##art
##arta
##artad
##artade
##artan
##artat
##arten
##arter
##artet
##arth
##artik
##artikel
##artiklar
##artikler
##artner
##artor
##arts
##arv
##ary
##as
##asa
##asar
##ase
##asen
##aser
##ash
##asi
##asin
##asing
##asino
##asinon
##asje
##asjen
##asjer
##asjon
##asjonen
##asjonene
##asjoner
##asjons
##ask
##ason
##ass
##assa
##assage
##assan
##asse
##assen
##asser
##assig
##assiga
##assigt
##assistent
##asso
##ast
##asta
##astad
##astaende
##aste
##asten
##aster
##astning
##astro
##astrup
##asy
##asyster
##at
##ata
##atal
##atan
##atar
##atch
##ate
##ated
##ateg
##ategor
##ategori
##ategorier
##aten
##ater
##atere
##aterial
##ateriale
##atering
##atern
##aterna
##aterne
##ates
##atet
##atets
##atgarder
##ath
##athan
##ather
##athon
##ati
##atik
##atin
##ating
##ation
##ationen
##ationer
##ationerna
##ations
##atis
##atisering
##atisk
##atiska
##atiske
##atiskt
##ativ
##ativa
##ative
##ativt
##atning
##ato
##aton
##ator
##atoren
##atorer
##atorerna
##atorn
##ats
##atsas
##atsen
##atser
##att
##atta
##attan
##atte
##atten
##atter
##attra
##atts
##atum
##atur
##aturen
##aturer
##atør
##au
##aux
##av
##ava
##avagen
##avan
##avdelning
##avdelningen
##ave
##aven
##avet
##avfall
##avgift
##avgifter
##avir
##avisen
##avn
##avstand
##avtal
##avtalet
##ax
##ay
##az
##b
##ba
##back
##backa
##backen
##bad
##bade
##badet
##bag
##bage
##bai
##bak
##bakken
##bal
##ball
##ban
##bana
##banan
##band
##banden
##bandet
##bane
##banen
##baner
##bang
##bank
##banken
##banker
##banor
##bar
##bara
##barber
##bare
##baren
##barhed
##barhet
##barn
##barns
##bart
##bas
##base
##basen
##baserad
##baserade
##baserat
##baseret
##basert
##bass
##bat
##batar
##batter
##bb
##bba
##bbar
##bbe
##bbel
##bben
##bber
##bby
##be
##bebygg
##beck
##bed
##bedom
##bedomning
##bef
##befin
##befolk
##befolkningen
##beg
##begre
##begyn
##beh
##behag
##behand
##behandler
##behandling
##behandlingar
##behandlingen
##behor
##behov
##behovet
##behør
##beid
##beide
##beider
##bej
##bek
##bekendt
##bel
##bell
##bella
##belon
##belopp
##beloppet
##belt
##belysning
##ben
##bende
##benen
##benet
##bens
##bent
##ber
##beratt
##berattelse
##berattig
##bered
##berg
##berga
##berget
##bergs
##beroende
##berry
##bert
##berts
##bes
##besk
##beskriv
##beskrivelse
##beskrivning
##beskrivningar
##beskytt
##beskyttelse
##beskyttelses
##beslut
##besok
##bespar
##best
##bestall
##bestamm
##bestand
##bestem
##besvar
##besøg
##bet
##betal
##betaling
##betalning
##betalningar
##betalt
##bete
##betet
##beth
##beting
##betingelser
##betyg
##betændelse
##bev
##bevar
##bevis
##bevæg
##bi
##bibli
##bibliotek
##bid
##bidrag
##bil
##bilar
##bild
##bilda
##bilde
##bilden
##bilder
##bildet
##bildning
##bildningen
##bile
##bilen
##biler
##bileum
##bilitet
##bility
##bilj
##biljett
##biljetter
##bill
##billede
##billeder
##bin
##bind
##bir
##bis
##bit
##bitar
##bj
##bjerg
##bjorn
##bjud
##bjudande
##bjudanden
##bjørn
##bl
##bla
##blad
##blade
##bladet
##bladets
##bland
##blank
##blar
##blas
##blast
##ble
##blem
##blen
##bler
##bles
##blet
##bletter
##bli
##blick
##blik
##blikk
##blin
##bling
##bliv
##bliven
##blivna
##blo
##block
##blod
##blog
##blogg
##bloggar
##bloggen
##blok
##blom
##blomm
##blommor
##bo
##board
##bock
##bocker
##bod
##boda
##boende
##bog
##bogen
##bok
##boka
##boken
##boks
##bol
##bolag
##bolagen
##bolaget
##bold
##bolig
##boliger
##boll
##bollar
##bom
##bon
##bonat
##bonus
##book
##bor
##bord
##borden
##bordet
##bords
##borg
##borgs
##bos
##bost
##bostader
##bostads
##bostadshus
##bot
##bott
##botten
##bottens
##bour
##box
##boy
##br
##bra
##brad
##bragt
##bragte
##bran
##branchen
##brand
##brans
##branschen
##bre
##bred
##bredd
##brett
##brev
##bri
##brid
##brik
##briken
##briker
##bring
##bringe
##bringes
##bris
##brist
##bro
##brod
##bron
##bror
##brott
##bru
##brud
##brudd
##brudt
##brug
##bruk
##bruket
##bruks
##brun
##bry
##brygg
##bryn
##bryt
##brød
##bs
##bt
##bu
##bud
##budet
##budget
##budsj
##buffe
##buk
##bukser
##bul
##bull
##bullar
##bum
##bun
##bund
##bunden
##bundet
##bur
##bureau
##burg
##burit
##bus
##buss
##bussen
##but
##butik
##butiken
##butiker
##butikk
##butikken
##butikker
##by
##byen
##byg
##bygd
##bygg
##bygge
##byggede
##bygger
##byggere
##byggerne
##bygget
##bygging
##byggnad
##byggnaden
##bygning
##bygningen
##byn
##byr
##byra
##byran
##byrdes
##bys
##byte
##bytte
##byxor
##bæk
##bær
##bærer
##bø
##bøger
##bøker
##bøl
##bør
##børn
##c
##ca
##cafe
##cake
##cakes
##cal
##cam
##camp
##can
##cancer
##car
##card
##care
##cas
##casino
##cast
##cat
##cation
##cc
##cca
##cco
##cd
##ce
##ced
##cel
##cell
##celle
##celler
##cen
##cent
##center
##centr
##central
##centralen
##centre
##centret
##centrum
##cep
##cept
##ception
##cer
##cera
##cere
##cering
##cert
##ces
##cess
##cet
##ch
##cha
##chat
##chatt
##che
##check
##chef
##chefen
##chel
##chen
##chens
##cher
##ches
##chester
##chf
##chi
##cho
##chok
##chs
##cht
##ci
##cia
##cial
##cil
##cin
##cing
##cion
##cipl
##cir
##circa
##cirkel
##cirkul
##cis
##cist
##cium
##ck
##cka
##ckan
##ckande
##ckar
##ckare
##cke
##cken
##cker
##cket
##ckit
##ckning
##ckor
##cks
##ckt
##ckta
##cl
##cle
##cm
##co
##coach
##col
##colan
##com
##come
##con
##cont
##core
##cos
##craft
##cre
##creme
##cript
##cs
##ct
##cted
##ction
##ctive
##ctor
##cts
##cu
##cul
##cup
##cus
##cy
##cykel
##cykl
##cyklar
##d
##da
##dack
##dade
##dag
##dagar
##dagarna
##dage
##dagen
##dagens
##dagog
##dags
##dahl
##dal
##dalen
##dals
##dam
##damp
##dan
##danmark
##dann
##danne
##dannelse
##dans
##dansk
##dar
##das
##dat
##data
##date
##dater
##datere
##dating
##dato
##datter
##datum
##day
##db
##dd
##dde
##dder
##de
##deb
##debatt
##debatten
##dec
##ded
##dede
##deg
##dej
##dejt
##dejta
##dejting
##deklar
##dekor
##del
##delag
##delar
##dele
##delen
##deler
##deles
##delig
##delige
##deligt
##deling
##delingen
##delinger
##dell
##delning
##delningen
##dels
##delse
##delsen
##delser
##delses
##delt
##deltag
##dem
##demokrat
##den
##dena
##denafil
##dende
##dene
##dens
##dent
##departementet
##der
##dera
##derar
##dere
##deren
##deret
##dering
##derna
##derne
##ders
##derslev
##des
##desig
##design
##dest
##det
##detaljer
##dex
##df
##di
##diagn
##die
##dien
##dier
##dig
##diga
##dige
##dighed
##dighet
##digt
##digvis
##ding
##dinge
##dingen
##dinger
##direkt
##direktivet
##direktor
##direktoratet
##direktør
##dis
##disk
##distrikt
##djur
##dm
##dne
##dning
##do
##dog
##dokument
##dom
##domar
##domen
##dommer
##domstolen
##don
##dor
##dorr
##dorrar
##dorren
##dos
##dotter
##dr
##dra
##drag
##drage
##dragelse
##dragen
##drages
##draget
##drakt
##dran
##drar
##drat
##dre
##drede
##dren
##drende
##drene
##drenes
##drer
##dres
##dress
##dret
##drift
##dring
##dringar
##dringen
##dringer
##drings
##driv
##drivende
##drivna
##drom
##ds
##dsel
##dsels
##dt
##dte
##du
##dubb
##duk
##dukar
##dus
##dy
##dyr
##dæk
##dækning
##dør
##dørs
##e
##ea
##eb
##eback
##ebel
##ebo
##eborg
##ebr
##ebra
##ebror
##eby
##ebygg
##ec
##ece
##eck
##ecken
##ect
##ection
##ed
##eda
##edag
##edagen
##edagog
##edal
##edan
##edd
##edda
##edde
##ede
##edel
##edelen
##edem
##eden
##eder
##edes
##edet
##edi
##edia
##edig
##edin
##edirekt
##edition
##edlem
##edning
##edom
##edon
##edrag
##eds
##edt
##edy
##edygt
##edyr
##ee
##eeee
##een
##ef
##effekt
##efil
##efon
##efte
##eftea
##efter
##eg
##ega
##egaard
##egade
##egaende
##egang
##egangen
##egar
##egard
##egarden
##ege
##egen
##egenskaper
##eger
##eget
##egg
##egge
##egger
##egle
##egler
##egn
##egne
##egner
##egnes
##egnet
##egning
##ego
##egor
##egr
##egra
##egrupp
##egrupper
##egu
##ej
##eje
##ejen
##ejer
##ejl
##ek
##ekan
##ekanis
##ekj
##ekk
##eklass
##ekn
##eknik
##ekom
##ekon
##ekonom
##ekonomi
##ekont
##ekort
##eks
##eksjon
##ekt
##ekte
##ektion
##ekul
##el
##ela
##elag
##elagen
##eland
##elater
##eld
##elden
##ele
##eled
##eleder
##eledes
##elefon
##elefoner
##elekt
##element
##elen
##eler
##elet
##elever
##eli
##elia
##elie
##elig
##eliga
##elige
##elighed
##eligt
##elin
##eling
##eliste
##elius
##eliv
##ell
##ella
##ellack
##ellan
##elle
##ellem
##ellen
##eller
##elles
##ellet
##ellige
##ello
##ellt
##elly
##eln
##eloven
##elovens
##els
##else
##elsen
##elsene
##elsens
##elser
##elserna
##elserne
##elses
##elsess
##elset
##elt
##elte
##eltet
##ely
##em
##ema
##emal
##emalet
##eman
##emand
##emang
##emann
##emar
##emark
##emarked
##emask
##emaskine
##emaskinen
##emaskiner
##emat
##ember
##emed
##emeddel
##emedlem
##emel
##emeld
##emelding
##emeldinger
##emellan
##emen
##ement
##ementer
##ementet
##emester
##emet
##emi
##emiddel
##emidler
##eminar
##eminister
##emo
##emon
##emor
##emot
##empel
##empl
##emt
##en
##ena
##enc
##ence
##encen
##encer
##end
##ende
##endel
##endelse
##endelsen
##endelser
##endelses
##enden
##ender
##endes
##endet
##endt
##ene
##ener
##energi
##enes
##eng
##enge
##enget
##enhav
##enhet
##enheter
##ening
##enn
##enne
##ennende
##enner
##enny
##ens
##ensborg
##ensen
##enser
##ension
##ensioner
##ensjon
##enskap
##ensor
##ensson
##ent
##enta
##ental
##entals
##entar
##ente
##enten
##entene
##enter
##enterna
##entes
##entet
##entets
##ential
##enting
##ention
##entlig
##entlige
##entre
##entrepren
##ents
##entuna
##entusi
##entyr
##eo
##ep
##er
##era
##erad
##erade
##erades
##eran
##erande
##erapeut
##erapi
##erar
##erare
##eras
##erat
##erats
##eratur
##eraturen
##ere
##erede
##eren
##erende
##erer
##eres
##eret
##ergi
##eri
##erie
##erier
##ering
##eringar
##eringen
##eringer
##erings
##ern
##erna
##ernas
##erne
##ernes
##ero
##ers
##ert
##erte
##es
##esa
##esam
##esc
##escort
##ese
##esel
##esen
##eser
##esex
##esh
##esi
##esis
##esjon
##esl
##eslag
##eslut
##eso
##esome
##esp
##espil
##espiller
##ess
##essa
##essan
##esse
##essen
##esser
##essig
##essige
##ession
##essor
##est
##esta
##estad
##estaende
##estall
##estaur
##este
##ested
##esteder
##esten
##ester
##estilling
##estr
##estrøm
##estyr
##estyrelsen
##esult
##esultat
##esund
##esystem
##esø
##esøster
##et
##eta
##etabl
##etar
##etch
##ete
##eten
##eter
##eth
##ethe
##etid
##etiden
##etik
##etil
##etisk
##etning
##etningen
##etninger
##etr
##ets
##ett
##etta
##ettan
##ette
##ettede
##etten
##etter
##ettes
##ettet
##etti
##ettig
##ettigede
##ettiget
##etting
##etts
##etty
##ety
##etøj
##etøy
##ev
##eva
##eval
##eve
##evej
##evel
##even
##evin
##evir
##evis
##evne
##evær
##ew
##ex
##ey
##ez
##f
##fa
##fabr
##fabrik
##fac
##fack
##fag
##faglig
##faglige
##fakt
##faktor
##faktorer
##fal
##fald
##faldet
##falds
##fall
##falla
##falle
##fallen
##faller
##fallet
##falt
##faltet
##fam
##famil
##familj
##familjer
##fan
##fang
##far
##fara
##farande
##fard
##fardig
##faren
##farg
##fargad
##fargade
##fargen
##farger
##fargkoden
##fari
##farlig
##farliga
##farligt
##fart
##farten
##fartyg
##farve
##fas
##fasen
##fast
##faste
##fat
##fatning
##fatt
##fattning
##fav
##fe
##fect
##fekt
##fektion
##fel
##feldt
##felt
##feltet
##fem
##fen
##fer
##ferd
##ferdig
##ferens
##ferie
##ferien
##fest
##festen
##festival
##festivalen
##fet
##fett
##ff
##ffa
##ffade
##ffan
##ffar
##ffarer
##ffat
##ffe
##ffekt
##ffel
##ffen
##ffer
##ffes
##ffet
##fflor
##ffor
##ffs
##fft
##fi
##fiber
##fic
##field
##fig
##figur
##figurer
##fik
##fika
##fiken
##fil
##file
##filen
##filer
##film
##filmen
##filmer
##filosof
##filter
##filtr
##fin
##fina
##final
##finalen
##finans
##finansier
##finansiering
##finer
##fing
##finger
##fint
##fir
##firma
##firmor
##fisk
##fiske
##fit
##fix
##fj
##fjell
##fjord
##fjorden
##fl
##fla
##flade
##flader
##flaska
##fler
##flickor
##flix
##flo
##flode
##floden
##flodet
##fly
##flyg
##flykt
##flyt
##flytt
##fo
##fod
##fodda
##foder
##fog
##fokus
##fol
##fold
##folj
##folja
##foljande
##foljer
##folk
##folket
##folkning
##fon
##fond
##fonden
##fonster
##food
##for
##fora
##foral
##foraldrar
##forand
##forande
##forandring
##forandringar
##forare
##forb
##forbered
##forbin
##forbindelse
##forbru
##forbrug
##forbruk
##forbrukning
##forbud
##forbund
##forbundet
##forbundets
##ford
##fordel
##fordeling
##fordon
##forel
##foren
##forening
##foreningar
##foreningen
##foreningens
##foreninger
##forenings
##forestall
##foret
##foretag
##foretagare
##foretagen
##foretaget
##foretak
##forfatt
##forfattare
##forhallanden
##forhandling
##forhold
##forholdet
##foring
##forklar
##forl
##forlit
##forløb
##forløbet
##form
##formaga
##formagan
##formal
##formand
##formar
##format
##formation
##forme
##formed
##formen
##former
##formid
##formul
##formular
##forn
##fornien
##forordning
##forordningen
##forpack
##fors
##forsakring
##forsakringar
##forsakringen
##forsalj
##forsaljare
##forsaljning
##forsikring
##forsk
##forsker
##forskning
##forskningen
##forslag
##forslaget
##forsok
##forsor
##forsorjning
##forsta
##forstaelse
##forstyr
##forsvar
##forsvaret
##forsy
##forsyning
##fort
##forum
##forvalt
##forvaltning
##forvaltningen
##forvar
##foræl
##fos
##foss
##fost
##fot
##foten
##foto
##fotograf
##fox
##fr
##fra
##frag
##fraga
##fragan
##fragor
##fragorna
##fram
##fran
##fre
##fred
##freds
##frekvens
##frem
##fri
##fria
##frid
##frie
##frihet
##frisk
##frist
##fristen
##fristiga
##frit
##fritt
##fro
##fron
##front
##fronten
##fru
##fs
##ft
##fta
##ftar
##fte
##ftelse
##ften
##fter
##ftere
##ftet
##ftig
##ftt
##fu
##fug
##fukt
##ful
##fuld
##fulde
##fuldt
##fulgt
##full
##fulla
##fulle
##fullt
##fun
##fund
##funger
##fungerende
##funktion
##funktionen
##funktioner
##funnet
##fur
##fy
##fyl
##fyldt
##fyll
##fylld
##fyllda
##fyller
##fyllt
##fylt
##fyn
##fyr
##fys
##fæl
##fær
##færd
##færdig
##færds
##fære
##færen
##fø
##fødte
##føl
##følelse
##følg
##følge
##følgende
##følger
##før
##føre
##førelse
##førelsen
##førende
##fører
##føres
##føring
##føringen
##førsel
##ført
##førte
##g
##ga
##gaard
##gad
##gade
##gaende
##gal
##galler
##gam
##gan
##gande
##gang
##gangar
##gange
##gangen
##gangspunkt
##gar
##garant
##garanti
##gard
##garda
##gardar
##garde
##garden
##gardens
##garder
##gards
##gare
##garen
##garn
##garna
##gas
##gaser
##gat
##gata
##gatan
##gatt
##gav
##gave
##gaven
##gaver
##gb
##ge
##gebyr
##gede
##gel
##gelig
##gelige
##gelse
##gelsen
##gem
##gen
##gende
##gene
##gener
##gennem
##genom
##ger
##gere
##geren
##gerne
##gers
##ges
##gest
##get
##gets
##gettet
##gg
##gi
##gick
##gift
##giften
##gifter
##gik
##gilt
##gin
##gio
##gir
##girl
##giro
##gis
##git
##gitt
##giv
##givande
##givare
##givaren
##give
##givelse
##given
##givende
##giver
##gives
##givet
##givna
##givning
##givningen
##gj
##gjen
##gjor
##gjord
##gjorda
##gjorde
##gjordes
##gjort
##gjør
##gjøre
##gjøring
##gl
##glad
##gladje
##glas
##glasogon
##glass
##glom
##gn
##gning
##go
##god
##godis
##gol
##golv
##gor
##gora
##gorande
##gorelse
##goring
##gorit
##got
##gott
##gr
##gra
##grad
##graden
##grader
##gram
##gran
##grann
##grans
##gransen
##grav
##gre
##greb
##gren
##grens
##grepp
##gress
##gri
##grim
##gro
##gron
##grona
##ground
##gru
##grund
##grunden
##grundlag
##grunn
##grupp
##gruppe
##gruppen
##gruppens
##grupper
##grupperna
##gs
##gt
##gte
##gu
##gubb
##gud
##guide
##guiden
##gul
##gy
##gym
##gymnas
##gør
##gøre
##gørelse
##gørelsen
##gørende
##gøres
##h
##ha
##haft
##hag
##hagen
##haha
##hai
##hal
##hall
##halla
##hallande
##hallanden
##hallare
##hallen
##haller
##hallet
##hallning
##halls
##hals
##halsa
##halt
##halv
##halvaret
##ham
##hammar
##hammed
##hammer
##hamn
##hamns
##hamster
##hamtning
##han
##hand
##handa
##handel
##handeln
##handlare
##handler
##handling
##handlingar
##handlingen
##handtering
##hang
##hangare
##hangen
##hant
##hanter
##hantering
##har
##hard
##harig
##hart
##has
##hast
##hastighet
##hat
##hatt
##hattan
##haug
##haus
##hav
##havare
##havaren
##have
##haven
##haver
##havet
##havn
##havs
##hc
##hd
##he
##head
##hed
##heden
##heder
##hederne
##heim
##heimer
##hej
##hel
##helg
##helgen
##helm
##helst
##hem
##hemmet
##hen
##henburg
##heng
##henger
##hengig
##hengige
##hente
##her
##herre
##hers
##hes
##het
##heten
##heter
##heterna
##hets
##hett
##hh
##hi
##hib
##hild
##him
##hin
##hing
##hion
##histor
##historia
##historie
##historien
##historier
##hj
##hjal
##hjalp
##hjel
##hjelp
##hjem
##hjemme
##hjer
##hjul
##hjulet
##hjæl
##hjælp
##hl
##hlm
##hm
##hn
##ho
##hof
##hog
##hogskolan
##hoj
##hojd
##hol
##hold
##holde
##holdelse
##holdelses
##holden
##holdende
##holdene
##holder
##holdere
##holdes
##holdet
##holdning
##holds
##holdsvis
##holdt
##holdte
##holl
##holm
##holmen
##holms
##holt
##holts
##hon
##hop
##hopp
##hor
##hord
##horde
##hormon
##horn
##hort
##host
##hot
##hotel
##hotell
##house
##hov
##hoved
##hovedet
##how
##hr
##hs
##ht
##hu
##hua
##hub
##hug
##hul
##hult
##hum
##hun
##hund
##hundar
##hur
##hurt
##hus
##huse
##husen
##huset
##husets
##hust
##huvud
##hv
##hver
##hvert
##hy
##hydr
##hydrat
##hydrater
##hyg
##hyll
##hylla
##hyr
##hytt
##hz
##hæ
##hæn
##hæng
##hænger
##høj
##højde
##hør
##i
##ia
##iak
##ial
##iale
##ialen
##ialis
##ialt
##iam
##ian
##iana
##iano
##ians
##ianter
##iar
##iaren
##ias
##iat
##iate
##ib
##ibel
##ibelt
##ibilitet
##ibland
##iblandt
##ible
##ic
##ica
##ical
##ican
##ice
##icera
##ices
##ich
##iche
##ici
##icia
##icin
##icit
##icitet
##ick
##icka
##ickor
##ickt
##icle
##ico
##icon
##ics
##ict
##iction
##icy
##id
##ida
##idan
##idas
##iddag
##iddel
##ide
##ideer
##iden
##idens
##ident
##ider
##idering
##ides
##idi
##idig
##idigt
##idler
##idning
##ido
##idor
##idrag
##idrett
##idrott
##ids
##idst
##idt
##ie
##ieber
##ied
##ief
##ieffekt
##iej
##iek
##iel
##ield
##iell
##iella
##ielle
##iellt
##ielt
##iem
##ien
##ience
##iendom
##iene
##iens
##ient
##ienter
##ier
##iera
##ierad
##ierade
##iere
##ierede
##ieren
##iering
##ierna
##ierne
##iers
##ies
##iet
##iets
##iew
##if
##ifa
##ife
##ifer
##ifest
##iff
##ifi
##ific
##ified
##ifier
##ifiering
##ifik
##ifikat
##ifikation
##ifisere
##ifisering
##ifisert
##ifran
##ift
##ifta
##ifte
##iful
##ify
##ig
##iga
##igan
##igar
##igare
##igaste
##ige
##igelse
##igen
##igenom
##iger
##iges
##iget
##igg
##iggande
##iggede
##igh
##ighed
##igheden
##igheder
##ighet
##igheten
##igheter
##igheterna
##ight
##ights
##ign
##ignal
##igo
##igt
##igter
##ih
##ii
##iii
##ij
##ik
##ika
##ikal
##ikan
##ikar
##ikat
##ikation
##ikationer
##ike
##iken
##iker
##ikere
##ikeren
##ikerer
##ikern
##ikerna
##iket
##ikevel
##iki
##ikk
##ikke
##ikken
##ikkens
##ikker
##iknande
##iko
##ikon
##ikop
##ikor
##ikre
##ikring
##iks
##ikt
##ikte
##ikter
##iktion
##ikum
##ikyr
##il
##ila
##iland
##ilbud
##ild
##ilda
##ilde
##ilder
##ilding
##ile
##iled
##ileg
##ilen
##iler
##ilitet
##iliteter
##ilj
##iljon
##iljø
##ilkar
##ill
##illa
##illar
##ille
##illede
##illen
##iller
##illes
##illet
##illgang
##illing
##illingen
##illinger
##illings
##illkor
##ills
##illskott
##illstand
##illverk
##ilog
##ils
##ilskud
##ilsynet
##ilt
##ily
##im
##ima
##imal
##imals
##imalsfargkoden
##imat
##ime
##imension
##iment
##imenter
##imentet
##imer
##imeter
##imin
##imm
##immar
##immer
##imo
##imod
##imot
##imp
##ims
##imul
##in
##ina
##inal
##inar
##inas
##inat
##ination
##inav
##inci
##ind
##inde
##inden
##inder
##index
##indhold
##indik
##indlæg
##indra
##indrade
##inds
##indsats
##indt
##indu
##industri
##industrien
##industrin
##ine
##inen
##inens
##iner
##inerad
##inerade
##ineret
##inerna
##ines
##iness
##inet
##infektion
##infl
##inflamm
##inflammation
##info
##inform
##informasjon
##information
##ing
##inga
##ingar
##ingarna
##inge
##ingen
##ingene
##ingenjor
##ingens
##inger
##inget
##ingets
##ingo
##ings
##ingsas
##ingsdag
##ingsl
##ingsm
##ingsmiddel
##ington
##ini
##ining
##inister
##injen
##ink
##inkt
##inlagg
##inn
##inna
##innan
##innande
##inne
##innehall
##inner
##innor
##ino
##inor
##inos
##inredning
##inrikt
##ins
##insats
##insatser
##inska
##inske
##inspekt
##inspektionen
##inspir
##inst
##install
##instit
##institut
##institutet
##institution
##institutioner
##instru
##instrument
##int
##intakter
##inte
##intens
##inter
##interesser
##interv
##intervju
##intill
##intr
##intress
##intresse
##intresser
##intresserade
##ints
##intyg
##invest
##io
##iod
##iode
##ioden
##ioder
##ion
##ionen
##ionens
##ioner
##ions
##iop
##ior
##ios
##iosa
##iot
##iotal
##iotalet
##ious
##ioxid
##ip
##ipl
##ipp
##ippa
##ippe
##ipper
##ippet
##ippi
##ips
##ipul
##ique
##ir
##ira
##irasjon
##ire
##irekt
##iren
##irer
##ires
##iro
##irs
##irt
##is
##isa
##isade
##isar
##isation
##isch
##ischer
##ise
##isen
##iser
##isera
##iserad
##iserade
##iserande
##iserar
##iseras
##iserat
##iserats
##isere
##iserede
##iserende
##iserer
##iseres
##iseret
##isering
##iseringen
##isert
##iserte
##ises
##iset
##isex
##ish
##ished
##isi
##isin
##ising
##ision
##isjon
##isjonen
##isjoner
##isk
##iska
##iske
##isken
##isker
##iskop
##iskor
##iskt
##ism
##isme
##ismen
##ismens
##isol
##isolering
##ison
##isont
##iss
##issa
##issar
##isse
##issen
##isser
##ission
##issionen
##ist
##ista
##istan
##istans
##iste
##isted
##isten
##istene
##istens
##istensen
##istent
##ister
##istere
##isterna
##isterne
##istik
##istiker
##istisk
##istiska
##istiske
##istiskt
##istor
##istr
##istrasjon
##istre
##istret
##istrikt
##istyr
##it
##ita
##ital
##itann
##itar
##itas
##itation
##itativ
##itativa
##itativt
##itch
##ite
##ited
##iteen
##itel
##iten
##itenskap
##iter
##itering
##ites
##itet
##iteten
##iteter
##ith
##iti
##ities
##ition
##itionen
##itioner
##itis
##itiv
##itive
##itivt
##ito
##itor
##itoris
##itra
##its
##itt
##itta
##itte
##ittel
##itten
##itter
##itteratur
##itu
##itus
##itut
##itute
##itution
##ity
##itz
##ium
##ius
##iv
##iva
##ival
##ivalen
##ivan
##ivande
##ivare
##ive
##iveau
##iven
##iver
##ivers
##ives
##ivet
##ivir
##ivitet
##iviteter
##ivt
##ix
##iz
##iza
##ize
##ized
##izer
##izz
##iør
##j
##ja
##jack
##jacka
##jade
##jader
##jag
##jak
##jakt
##jal
##jalp
##jam
##jamin
##jan
##jande
##janst
##jansten
##janster
##jant
##jar
##jare
##jarn
##jarna
##jas
##jat
##jav
##jd
##je
##ject
##jed
##jede
##jef
##jej
##jejer
##jek
##jekt
##jekter
##jel
##jeller
##jem
##jen
##jendom
##jene
##jener
##jeneste
##jenesten
##jenester
##jening
##jent
##jente
##jer
##jerg
##jern
##jerne
##jerner
##jes
##jet
##jev
##ji
##jk
##jning
##jningen
##jnings
##jo
##job
##jobb
##jod
##jol
##jon
##jonen
##jonens
##joner
##jong
##jor
##jord
##jorden
##jorer
##jour
##journal
##joy
##js
##jt
##jter
##jting
##jtn
##ju
##jud
##juden
##juder
##juice
##juk
##juka
##jul
##jun
##jung
##junga
##junkt
##junktur
##jur
##jus
##just
##juster
##juter
##jylland
##jyllands
##jyske
##jæl
##jø
##k
##ka
##kabel
##kad
##kade
##kage
##kak
##kaka
##kakor
##kal
##kalas
##kald
##kalender
##kall
##kalla
##kallande
##kam
##kamer
##kamera
##kameror
##kammer
##kamp
##kampen
##kan
##kande
##kandid
##kann
##kans
##kansla
##kant
##kanten
##kap
##kapital
##kapp
##kar
##kare
##karen
##karl
##karna
##kart
##kas
##kass
##kasse
##kassen
##kast
##kastet
##kastning
##kat
##ke
##keby
##ked
##kede
##kedja
##kedjan
##kel
##kelen
##kelig
##kelige
##keligt
##kell
##kelse
##kelsen
##kelser
##kelses
##kem
##ken
##kende
##kendelse
##kender
##kendt
##kendte
##kene
##kens
##ker
##kere
##kerne
##kers
##kert
##kerte
##kes
##kester
##ket
##kets
##ketter
##key
##kg
##ki
##kig
##kil
##kin
##king
##kins
##kir
##kirken
##kit
##kj
##kjen
##kjent
##kjøp
##kjøring
##kk
##kke
##kkede
##kken
##kker
##kket
##kl
##kla
##klad
##kladd
##kladda
##klader
##klag
##klam
##klan
##kland
##klanning
##klar
##klara
##klare
##klaring
##klart
##klass
##klasse
##klassen
##klasser
##kle
##kler
##klet
##kligen
##klima
##klin
##kling
##klipp
##klub
##klubb
##klubbar
##klubben
##klund
##klus
##klæ
##klæde
##klæder
##klær
##klæring
##km
##kn
##kna
##knapp
##kning
##kningar
##kningen
##kninger
##knipp
##ko
##kobling
##kod
##kode
##koden
##koder
##kok
##kol
##koll
##kom
##kombin
##komligt
##komm
##komma
##kommande
##komme
##kommen
##kommende
##komment
##kommer
##kommet
##kommit
##kommun
##komna
##komne
##komp
##kompet
##kompis
##komplic
##kompon
##komst
##komsten
##komster
##kon
##kond
##kondition
##konfer
##konkur
##konom
##kons
##konsol
##konst
##konstru
##konstruktion
##kont
##kontakt
##kontakter
##konto
##kontor
##kontoret
##kontroll
##kontrollen
##kontroller
##kop
##koping
##kopings
##kopp
##koppling
##kor
##korea
##korn
##korning
##kort
##kortet
##kost
##kostnad
##kostnaden
##kostnader
##kostninger
##kott
##kr
##kra
##kraft
##kraften
##krafter
##kram
##kran
##krav
##kre
##kred
##kredit
##krediter
##kret
##krets
##krig
##kring
##krit
##kro
##kron
##kropp
##kroppen
##kryss
##kræ
##kræft
##ks
##ksis
##ksjon
##ksjonen
##ksjoner
##ksom
##ksomhed
##ksomhet
##kt
##kta
##ktar
##kte
##kten
##kter
##ktig
##ktion
##ktionen
##ktioner
##ktligen
##ktor
##ktoren
##ktorer
##ktorn
##ku
##kul
##kull
##kult
##kultur
##kun
##kund
##kunder
##kunn
##kunskap
##kunst
##kup
##kur
##kurs
##kurser
##kus
##kust
##kusten
##kv
##kval
##kvalitet
##kvaliteten
##kvall
##kvar
##kvens
##kvist
##ky
##kyl
##kyr
##kyrka
##kø
##køb
##købing
##kørsel
##l
##la
##lack
##lad
##lada
##ladan
##ladd
##laddning
##lade
##lader
##lades
##lador
##ladt
##lag
##lagd
##lagda
##lage
##lagen
##lager
##laget
##lagg
##lagga
##laggande
##laggare
##laggning
##laggningar
##laggningen
##lagt
##lagte
##laimer
##lak
##lakare
##lakt
##lam
##lamp
##lampa
##lampor
##lan
##land
##landa
##lande
##lander
##landerna
##landet
##lands
##landsk
##landska
##landske
##lang
##langd
##lange
##lans
##lapp
##lappar
##lappen
##lar
##larare
##lare
##laren
##larna
##las
##lasning
##lass
##lasse
##lassen
##lasser
##last
##lat
##latande
##lats
##latt
##lav
##lay
##ld
##le
##led
##ledare
##ledaren
##lede
##leden
##ledende
##leder
##ledere
##ledes
##ledning
##ledningar
##ledningen
##ledninger
##leg
##lege
##legen
##legetøj
##legg
##legge
##legget
##legging
##leie
##lej
##leje
##lejer
##lejning
##lek
##lekar
##leken
##leks
##lel
##lem
##lement
##len
##lende
##lene
##lens
##ler
##lere
##lering
##lerne
##lers
##les
##less
##let
##lett
##lev
##leva
##levelse
##levelsen
##levelser
##lever
##leverand
##leverantor
##lex
##ley
##li
##lich
##lid
##lig
##liga
##ligare
##ligaste
##lige
##ligen
##ligere
##liggande
##liggende
##ligh
##lighed
##ligheden
##ligheder
##lighet
##ligheten
##lighetens
##ligheter
##ligheterna
##light
##ligt
##ligter
##ligvis
##lik
##lika
##like
##liknande
##lim
##lin
##line
##lines
##ling
##lingar
##linge
##lingen
##linger
##lings
##linje
##linjen
##linjer
##list
##lista
##listan
##liste
##listen
##lister
##listor
##litteratur
##liv
##livet
##ljud
##ljus
##ll
##lla
##lle
##llen
##ller
##llet
##llop
##lo
##lock
##log
##lok
##lokal
##lokaler
##lon
##look
##lop
##lopp
##lor
##lorna
##los
##losa
##losen
##loshet
##losning
##losningar
##loss
##lost
##lov
##loven
##lovens
##ls
##lt
##lu
##lubb
##luft
##lund
##lunda
##lunde
##lur
##lust
##lut
##ly
##lyft
##lys
##lyse
##lyser
##lysning
##lysninger
##lyst
##lyste
##læ
##læg
##læge
##lægge
##læggelse
##lægger
##lægges
##lægning
##lær
##læring
##læsning
##lø
##løb
##løbet
##løg
##løn
##løp
##løpet
##løs
##løse
##løsning
##løst
##m
##ma
##mad
##made
##maden
##mag
##magasin
##mail
##mak
##makt
##makten
##maktige
##mal
##malet
##maling
##malm
##malt
##man
##mand
##mande
##manden
##mang
##manland
##manlands
##mann
##mannen
##mannens
##manns
##mans
##mant
##manuel
##mar
##mare
##maren
##mark
##marke
##marked
##markedet
##marken
##marker
##market
##marknad
##marknaden
##marna
##mart
##mas
##mask
##maskin
##maskinen
##maskiner
##mass
##massa
##massage
##massan
##massiga
##massigt
##mast
##mastare
##master
##mat
##match
##mater
##material
##materialet
##matning
##matt
##matta
##max
##me
##med
##meddel
##meddelande
##meddelanden
##mede
##medel
##media
##medicin
##medlem
##medvet
##mek
##mel
##melding
##melig
##melige
##meligt
##melse
##melsen
##melser
##men
##mende
##mene
##menn
##menne
##mens
##ment
##menter
##mentet
##meny
##menyn
##mer
##mera
##mere
##merende
##merksom
##merna
##merne
##mers
##merter
##mes
##messig
##mest
##meste
##mester
##met
##meter
##mets
##mg
##mi
##mid
##middag
##middagen
##middel
##midler
##midt
##mig
##mil
##milj
##miljo
##miljon
##miljø
##miljøet
##min
##mindre
##mine
##minen
##ming
##minister
##ministeriet
##ministr
##minskning
##minton
##mis
##mitt
##mix
##mjol
##mjolk
##ml
##mm
##mn
##mo
##mobler
##mod
##mode
##modell
##modellen
##modeller
##moder
##moen
##mojligheter
##mon
##monster
##mont
##mor
##mord
##morgon
##mos
##mot
##mote
##motes
##motet
##motor
##motorer
##mott
##ms
##mu
##muligheder
##mun
##mund
##mur
##mus
##muse
##museet
##museum
##musik
##musk
##my
##myndig
##myndighet
##myndigheten
##mys
##mænd
##mær
##mærker
##mæss
##mæssig
##mæssige
##mæssigt
##mø
##møde
##møn
##møte
##n
##na
##nack
##nad
##nade
##naden
##nadens
##nader
##naderna
##nades
##nads
##nal
##nalen
##nam
##namn
##namnd
##namnda
##namnden
##namndens
##namnet
##nan
##nande
##nandet
##napp
##nar
##nara
##nare
##naren
##narna
##nas
##nasjon
##nast
##nat
##natet
##nation
##nats
##natt
##natur
##nav
##navn
##nd
##ne
##ned
##nede
##nek
##nell
##nelse
##nelsen
##nem
##nement
##nen
##nende
##nene
##nenes
##ner
##nere
##neren
##nering
##nerne
##ners
##nes
##ness
##net
##nets
##nett
##nev
##nevnte
##ney
##ng
##ni
##nick
##nik
##ning
##ningar
##ningarna
##ningen
##ningene
##ningens
##ninger
##ningerne
##nings
##ningsb
##ningsbar
##ningsfor
##ningsforetag
##ningsgrad
##ningsk
##ningsl
##ningslagen
##ningslin
##ningsloven
##ningsm
##ningsman
##ningsmannen
##ningsmedel
##ningsmet
##ningsmetoder
##ningsrum
##ningss
##ningssatt
##ningst
##ningstid
##ningstiden
##ningstider
##ningsvis
##nis
##nit
##nitt
##niva
##nivaer
##nivan
##niveau
##nj
##nn
##no
##nojd
##nok
##nom
##nor
##nord
##norr
##nos
##not
##nov
##noveller
##nr
##ns
##nsyn
##nt
##nte
##nu
##num
##nummer
##ny
##nyck
##nytt
##nær
##nævn
##nævnte
##o
##oa
##oarer
##ob
##obb
##obe
##ober
##obi
##objekt
##oblig
##oc
##och
##oci
##ock
##ocka
##ocke
##ocken
##ocker
##ockey
##ockor
##ockt
##oczny
##od
##oda
##odag
##odande
##odd
##odde
##odden
##ode
##odell
##odeller
##oden
##oder
##odet
##odling
##odor
##ods
##ody
##oe
##oen
##oende
##oer
##of
##off
##offer
##offic
##ofog
##ofs
##oft
##ofte
##og
##oga
##ogas
##oge
##ogen
##ogg
##ogn
##ogna
##ogne
##ogon
##ogra
##ograf
##ografer
##ografi
##ogram
##ograph
##ogs
##ogt
##oh
##oid
##oider
##oil
##oj
##ojd
##ojda
##ojligheter
##ok
##oka
##okal
##okaler
##okan
##okande
##oke
##oken
##oker
##okk
##okl
##okning
##okningar
##okr
##okrat
##okrater
##okraterna
##oks
##okt
##okta
##okument
##okus
##ol
##ola
##olade
##olar
##olas
##old
##ole
##olen
##oler
##olet
##oleum
##olf
##oli
##olie
##olig
##oliga
##olige
##oligt
##olin
##olit
##olja
##olje
##oll
##ollen
##oller
##olo
##olog
##ologen
##ologer
##ologi
##ologien
##ologier
##ologin
##ologisk
##ologiska
##ologiske
##ologiskt
##ology
##olt
##olut
##olution
##olv
##olver
##olyck
##olycka
##om
##oma
##omal
##oman
##omb
##ombud
##ome
##omen
##oment
##omer
##omet
##ometer
##ometern
##omi
##omm
##omme
##ommen
##ommer
##ommes
##ommet
##ommun
##omon
##omrade
##omraden
##omradene
##omrader
##omradet
##oms
##omsorg
##omsorgen
##omt
##omy
##on
##ona
##ond
##onde
##onder
##ondition
##one
##onen
##oner
##ones
##ong
##ongen
##onger
##oni
##online
##onna
##onne
##onom
##ons
##ont
##onto
##onus
##ony
##onym
##oo
##ood
##ool
##oon
##ooo
##oooo
##ooth
##op
##opa
##opat
##ope
##oped
##oper
##operation
##opgaver
##ophold
##oplan
##ople
##oplevelse
##oplysninger
##opol
##opp
##oppa
##oppar
##oppen
##opper
##oppet
##oppgaver
##oppgjør
##opplysninger
##opplæring
##oppning
##opro
##ops
##opt
##optimer
##optimering
##or
##ora
##oratet
##ord
##orda
##ordan
##orde
##orden
##ordent
##order
##ordes
##ordet
##ordforande
##ordin
##ordiner
##ordning
##ordningen
##ordninger
##ords
##ore
##oren
##orer
##orerna
##ores
##oret
##orf
##org
##organ
##organis
##organisation
##organisationen
##organisationer
##orgas
##orge
##orgen
##orges
##orget
##orgon
##ori
##orienter
##orier
##oriter
##oritet
##ork
##orlunda
##orm
##orn
##orna
##ornas
##orp
##orps
##orr
##orre
##ors
##ort
##orte
##orten
##orter
##ortering
##orth
##orts
##ortt
##ory
##os
##osa
##ose
##oseks
##osen
##oser
##osition
##oskop
##oso
##osof
##oss
##ost
##osta
##ostat
##osten
##oster
##osteron
##ostnader
##ostrup
##ostyr
##osystem
##ot
##ota
##ote
##otek
##oteket
##otekn
##otell
##oteller
##oten
##oter
##otering
##otet
##oth
##otin
##otion
##otisk
##otiska
##otiske
##oto
##ots
##ott
##otta
##otte
##otten
##otter
##otterna
##otto
##oty
##otyp
##otyper
##ou
##ough
##ount
##our
##ous
##out
##ov
##ova
##oval
##ovan
##ovar
##ove
##oven
##ovens
##over
##overe
##overforing
##overket
##overskrid
##overskridande
##ovet
##ovic
##ovis
##ovn
##ovning
##ovningar
##ovo
##ovre
##ovs
##ow
##owanych
##ower
##own
##ows
##ox
##oy
##oz
##p
##pa
##pac
##pacitet
##pack
##pact
##pad
##pade
##paj
##pak
##paket
##pakke
##pal
##pan
##panel
##panna
##papir
##papp
##papper
##par
##parad
##paret
##park
##parken
##parker
##parlam
##part
##partem
##partementet
##parten
##parti
##partier
##partiet
##partiets
##partner
##pas
##pasar
##pase
##pass
##passet
##pat
##pati
##paverkan
##pe
##ped
##pedagog
##pef
##peg
##pek
##pekt
##pel
##pen
##pene
##pengar
##penge
##penger
##penning
##pens
##pension
##peppar
##per
##peratur
##peraturen
##period
##periode
##perioden
##pern
##perna
##perne
##pers
##person
##personal
##personell
##personen
##personer
##perspektiv
##pert
##pes
##pet
##peut
##peuter
##pg
##ph
##phone
##phones
##pi
##pig
##pige
##piger
##pil
##pill
##piller
##pin
##pine
##ping
##pir
##pis
##pist
##pix
##pl
##pla
##plac
##placer
##placering
##plade
##plader
##plads
##pladsen
##pladser
##plan
##planen
##planer
##plant
##planter
##plar
##plass
##plassen
##plasser
##plast
##plat
##plats
##platsen
##platser
##platt
##platta
##plattan
##plattor
##play
##ple
##pleje
##pler
##ples
##plet
##plic
##pligt
##pligtige
##plikt
[...]
