[unused0]
[unused1]
[unused2]
[unused3]
[unused4]
[unused5]
[unused6]
[unused7]
[unused8]
[unused9]
[unused10]
[unused11]
[unused12]
[unused13]
[unused14]
[unused15]
[unused16]
[unused17]
[unused18]
[unused19]
[unused20]
[unused21]
[unused22]
[unused23]
[unused24]
[unused25]
[unused26]
[unused27]
[unused28]
[unused29]
[unused30]
[unused31]
[unused32]
[unused33]
[unused34]
[unused35]
[unused36]
[unused37]
[unused38]
[unused39]
[unused40]
[unused41]
[unused42]
[unused43]
[unused44]
[unused45]
[unused46]
[unused47]
[unused48]
[unused49]
[unused50]
[unused51]
[unused52]
[unused53]
[unused54]
[unused55]
[unused56]
[unused57]
[unused58]
[unused59]
[unused60]
[unused61]
[unused62]
[unused63]
[unused64]
[unused65]
[unused66]
[unused67]
[unused68]
[unused69]
[unused70]
[unused71]
[unused72]
[unused73]
[unused74]
[unused75]
[unused76]
[unused77]
[unused78]
[unused79]
[unused80]
[unused81]
[unused82]
[unused83]
[unused84]
[unused85]
[unused86]
[unused87]
[unused88]
[unused89]
[unused90]
[unused91]
[unused92]
[unused93]
[unused94]
[unused95]
[unused96]
[unused97]
[unused98]
[unused99]
[unused100]
[unused101]
[unused102]
[unused103]
[unused104]
[unused105]
[unused106]
[unused107]
[unused108]
[unused109]
[unused110]
[unused111]
[unused112]
[unused113]
[unused114]
[unused115]
[unused116]
[unused117]
[unused118]
[unused119]
[unused120]
[unused121]
[unused122]
[unused123]
[unused124]
[unused125]
[unused126]
[unused127]
[unused128]
[unused129]
[unused130]
[unused131]
[unused132]
[unused133]
[unused134]
[unused135]
[unused136]
[unused137]
[unused138]
[unused139]
[unused140]
[unused141]
[unused142]
[unused143]
[unused144]
[unused145]
[unused146]
[unused147]
[unused148]
[unused149]
[unused150]
[unused151]
[unused152]
[unused153]
[unused154]
[unused155]
[unused156]
[unused157]
[unused158]
[unused159]
[unused160]
[unused161]
[unused162]
[unused163]
[unused164]
[unused165]
[unused166]
[unused167]
[unused168]
[unused169]
[unused170]
[unused171]
[unused172]
[unused173]
[unused174]
[unused175]
[unused176]
[unused177]
[unused178]
[unused179]
[unused180]
[unused181]
[unused182]
[unused183]
[unused184]
[unused185]
[unused186]
[unused187]
[unused188]
[unused189]
[unused190]
[unused191]
[unused192]
[unused193]
[unused194]
[unused195]
[unused196]
[unused197]
[unused198]
[unused199]
[unused200]
[unused201]
[unused202]
[unused203]
[unused204]
[unused205]
[unused206]
[unused207]
[unused208]
[unused209]
[unused210]
[unused211]
[unused212]
[unused213]
[unused214]
[unused215]
[unused216]
[unused217]
[unused218]
[unused219]
[unused220]
[unused221]
[unused222]
[unused223]
[unused224]
[unused225]
[unused226]
[unused227]
[unused228]
[unused229]
[unused230]
[unused231]
[unused232]
[unused233]
[unused234]
[unused235]
[unused236]
[unused237]
[unused238]
[unused239]
[unused240]
[unused241]
[unused242]
[unused243]
[unused244]
[unused245]
[unused246]
[unused247]
[unused248]
[unused249]
[unused250]
[unused251]
[unused252]
[unused253]
[unused254]
[unused255]
[unused256]
[unused257]
[unused258]
[unused259]
[unused260]
[unused261]
[unused262]
[unused263]
[unused264]
[unused265]
[unused266]
[unused267]
[unused268]
[unused269]
[unused270]
[unused271]
[unused272]
[unused273]
[unused274]
[unused275]
[unused276]
[unused277]
[unused278]
[unused279]
[unused280]
[unused281]
[unused282]
[unused283]
[unused284]
[unused285]
[unused286]
[unused287]
[unused288]
[unused289]
[unused290]
[unused291]
[unused292]
[unused293]
[unused294]
[unused295]
[unused296]
[unused297]
[unused298]
[unused299]
[unused300]
[unused301]
[unused302]
[unused303]
[unused304]
[unused305]
[unused306]
[unused307]
[unused308]
[unused309]
[unused310]
[unused311]
[unused312]
[unused313]
[unused314]
[unused315]
[unused316]
[unused317]
[unused318]
[unused319]
[unused320]
[unused321]
[unused322]
[unused323]
[unused324]
[unused325]
[unused326]
[unused327]
[unused328]
[unused329]
[unused330]
[unused331]
[unused332]
[unused333]
[unused334]
[unused335]
[unused336]
[unused337]
[unused338]
[unused339]
[unused340]
[unused341]
[unused342]
[unused343]
[unused344]
[unused345]
[unused346]
[unused347]
[unused348]
[unused349]
[unused350]
[unused351]
[unused352]
[unused353]
[unused354]
[unused355]
[unused356]
[unused357]
[unused358]
[unused359]
[unused360]
[unused361]
[unused362]
[unused363]
[unused364]
[unused365]
[unused366]
[unused367]
[unused368]
[unused369]
[unused370]
[unused371]
[unused372]
[unused373]
[unused374]
[unused375]
[unused376]
[unused377]
[unused378]
[unused379]
[unused380]
[unused381]
[unused382]
[unused383]
[unused384]
[unused385]
[unused386]
[unused387]
[unused388]
[unused389]
[unused390]
[unused391]
[unused392]
[unused393]
[unused394]
[unused395]
[unused396]
[unused397]
[unused398]
[unused399]
[unused400]
[unused401]
[unused402]
[unused403]
[unused404]
[unused405]
[unused406]
[unused407]
[unused408]
[unused409]
[unused410]
[unused411]
[unused412]
[unused413]
[unused414]
[unused415]
[unused416]
[unused417]
[unused418]
[unused419]
[unused420]
[unused421]
[unused422]
[unused423]
[unused424]
[unused425]
[unused426]
[unused427]
[unused428]
[unused429]
[unused430]
[unused431]
[unused432]
[unused433]
[unused434]
[unused435]
[unused436]
[unused437]
[unused438]
[unused439]
[unused440]
[unused441]
[unused442]
[unused443]
[unused444]
[unused445]
[unused446]
[unused447]
[unused448]
[unused449]
[unused450]
[unused451]
[unused452]
[unused453]
[unused454]
[unused455]
[unused456]
[unused457]
[unused458]
[unused459]
[unused460]
[unused461]
[unused462]
[unused463]
[unused464]
[unused465]
[unused466]
[unused467]
[unused468]
[unused469]
[unused470]
[unused471]
[unused472]
[unused473]
[unused474]
[unused475]
[unused476]
[unused477]
[unused478]
[unused479]
[unused480]
[unused481]
[unused482]
[unused483]
[unused484]
[unused485]
[unused486]
[unused487]
[unused488]
[unused489]
[unused490]
[unused491]
[unused492]
[unused493]
[unused494]
[unused495]
[unused496]
[unused497]
[unused498]
[unused499]
[CLS]
[MASK]
[PAD]
[SEP]
[UNK]
!
"
#
$
%
&
'
(
)
*
+
,
-
.
/
0
1
2
3
4
5
6
7
8
9
:
;
=
?
@
[
\
]
^
_
`
a
b
c
d
e
f
g
h
i
j
k
l
m
n
o
p
q
r
s
t
u
v
w
x
y
z
{
|
}
~
¡
£
§
¨
«
¬
®
°
±
²
³
´
µ
·
¹
º
»
¼
½
×
ß
æ
ð
ø
þ
đ
ħ
ı
ł
ŋ
œ
ƒ
ɐ
ɑ
ɔ
ə
ɛ
ɡ
ɨ
ɪ
ɾ
ʀ
ʁ
ʃ
ʊ
ʒ
ʔ
ʰ
ʲ
ʹ
ʻ
ʼ
ʾ
ʿ
ˈ
ː
˚
α
β
γ
δ
ε
ζ
η
θ
ι
κ
λ
μ
ν
ξ
ο
π
ρ
ς
σ
τ
υ
φ
χ
ψ
ω
а
б
в
г
д
е
ж
з
и
к
л
м
н
о
п
р
с
т
у
ф
х
ц
ч
ш
щ
ъ
ы
ь
э
ю
я
ђ
є
і
ј
љ
њ
ћ
џ
қ
ү
ә
ө
ա
բ
գ
դ
ե
զ
թ
ի
լ
խ
ծ
կ
հ
ղ
մ
յ
ն
շ
ո
չ
պ
ջ
ռ
ս
վ
տ
ր
ց
ւ
ք
א
ב
ג
ד
ה
ו
ז
ח
ט
י
כ
ל
ם
מ
ן
נ
ס
ע
ף
פ
צ
ק
ר
ש
ת
ء
ا
ب
ة
ت
ث
ج
ح
خ
د
ذ
ر
ز
س
ش
ص
ض
ط
ظ
ع
غ
ـ
ف
ق
ك
ل
م
ن
ه
و
ى
ي
پ
چ
ډ
ژ
ک
گ
ہ
ۆ
ی
ێ
ې
ە
ܐ
ܝ
ܪ
ܬ
क
ग
च
ज
ट
ड
त
द
न
प
ब
म
य
र
ल
व
श
ष
स
ह
ा
ि
ी
ो
গ
জ
দ
ন
ব
ম
র
ল
া
ি
ে
க
ச
ட
த
ன
ப
ம
ர
வ
ா
ி
ு
ാ
ก
ง
ช
ด
ต
ท
น
บ
พ
ม
ย
ร
ล
ว
ส
ห
อ
ะ
า
เ
་
ག
ང
བ
ར
ས
ა
ბ
გ
დ
ე
ვ
ზ
თ
ი
კ
ლ
მ
ნ
ო
პ
რ
ს
ტ
უ
ფ
ქ
ღ
ყ
შ
ჩ
ც
ძ
წ
ჭ
ხ
ჯ
ᄀ
ᄂ
ᄃ
ᄅ
ᄆ
ᄇ
ᄉ
ᄊ
ᄋ
ᄌ
ᄎ
ᄏ
ᄐ
ᄑ
ᄒ
ᅡ
ᅢ
ᅣ
ᅥ
ᅦ
ᅧ
ᅨ
ᅩ
ᅪ
ᅬ
ᅭ
ᅮ
ᅯ
ᅱ
ᅲ
ᅳ
ᅴ
ᅵ
ᆨ
ᆫ
ᆯ
ᆷ
ᆸ
ᆺ
ᆼ
ᚠ
ᚢ
ᚦ
ᚱ
ᚴ
ᚼ
ᚾ
ᛁ
ᛅ
ᛋ
ᛏ
ᛒ
ᛚ
ᛦ
᛫
᛬
‐
‑
–
—
‘
’
‚
“
”
„
†
•
…
‰
′
″
›
₂
€
№
ℝ
ℵ
→
∈
−
√
∞
≈
≤
≥
⋅
─
│
└
├
★
☉
♭
⟨
⟩
い
か
き
し
と
の
り
ん
ア
イ
ウ
オ
カ
キ
ク
コ
サ
シ
ス
タ
ッ
テ
ト
ハ
ヒ
フ
ホ
マ
ラ
リ
ル
レ
ロ
ン
・
ー
一
丁
七
万
三
上
下
世
东
两
中
丰
临
丹
义
之
乌
乐
九
乡
二
云
五
井
亚
京
亭
人
什
仁
仓
仙
代
伊
会
何
佛
依
保
信
候
元
光
克
八
公
六
兰
关
兴
其
内
军
农
凤
切
刘
则
利
前
力
加
勒
包
化
北
区
十
千
华
卓
南
博
卡
卫
厂
原
县
双
发
口
古
台
叶
号
司
合
吉
同
后
吐
向
吴
吾
周
呼
咀
和
哈
唐
喀
嘉
嘎
四
回
团
园
国
图
國
土
圩
地
场
坊
坑
坝
坡
坪
垭
城
埠
基
堂
堆
堡
堰
場
塔
塘
墩
夏
外
多
大
天
太
头
如
子
孔
字
孙
孜
学
宁
安
宋
宗
官
定
宝
宫
家
富
寨
寺
寿
小
尔
尖
尼
尾
居
屯
山
屿
岔
岗
岛
岩
岭
岳
峡
峪
峰
島
川
州
工
巴
市
布
帝
常
干
平
年
广
庄
庆
库
底
店
庙
府
康
建
式
张
当
彝
彦
徐
德
心
恰
成
房
所
扎
托
拉
排
政
敖
文
斗
斯
新
方
族
旗
日
昌
明
星
春
普
景
曲
曹
月
朗
望
朝
木
本
朱
机
李
村
杜
来
杨
東
松
板
林
果
柏
查
柳
树
株
根
格
桂
桃
桐
桑
桥
梁
梅
楼
榆
樟
横
正
武
毛
民
水
永
汉
江
池
汤
沙
沟
河
治
泉
法
泡
波
泥
泰
泽
洋
洛
洞
津
洪
洲
流
浦
浪
海
清
渡
温
港
湖
湾
源
溪
满
滩
潭
澳
灣
火
灵
热
燕
牙
牛
物
特
狮
玉
王
玛
珠
理
琼
瑶
瓦
甘
生
田
甲
甸
界
登
白
百
皇
盖
盘
盛
相
真
石
矿
磨
社
神
福
秀
秋
科
秦
窝
立
站
章
竹
米
索
紫
红
纳
结
罗
羊
美
群
老
联
育
胜
胡
自
良
色
芦
花
苏
苗
英
茅
茶
草
荣
莫
莲
营
萨
董
蒙
蒲
藏
虎
街
西
观
角
解
谷
象
贡
赛
赤
赵
路
车
辛
边
达
进
连
通
道
那
郊
郎
郑
郡
部
郭
都
里
野
金
钦
铁
铜
银
铺
错
镇
长
門
门
阳
阿
陈
院
陵
陶
隆
雄
雅
集
雪
雷
青
面
音
顶
顺
风
香
馬
马
高
鱼
鲁
鸡
鹤
鹿
麦
麻
黄
黑
鼓
龙
00
000
01
02
03
04
05
06
07
08
09
10
100
1000
101
102
103
104
105
106
107
108
1086
109
11
110
1100
111
112
114
115
116
117
119
12
120
1200
124
125
126
127
128
129
13
130
1300
133
134
135
136
137
139
14
140
1400
143
144
145
146
147
149
15
150
1500
152
1520
153
154
1540
155
1550
156
157
158
159
16
160
1600
162
1620
1625
163
1630
1634
164
1640
1642
1644
1645
1647
1648
165
1650
1651
1654
1655
1658
166
1660
1664
1667
1668
167
1670
1674
1675
1676
1679
168
1680
1682
1683
1685
1686
1688
1689
169
1690
1693
1695
1697
17
170
1700
1701
1702
1704
1707
1709
171
1710
1711
1712
1713
1714
1715
1716
1717
1718
1719
172
1720
1721
1723
1727
1728
173
1730
1731
1732
1733
1734
1735
1736
1737
1738
1739
174
1740
1741
1742
1743
1744
1745
1746
1747
1748
1749
175
1750
1751
1752
1753
1754
1755
1756
1757
1758
1759
176
1760
1761
1762
1763
1764
1765
1766
1767
1768
1769
177
1770
1771
1772
1773
1774
1775
1776
1777
1778
1779
178
1780
1781
1782
1783
1784
1785
1786
1787
1788
1789
179
1790
1791
1792
1793
1794
1795
1796
1797
1798
1799
18
180
1800
1801
1802
1803
1804
1805
1806
1807
1808
1809
181
1810
1811
1812
1813
1814
1815
1816
1817
1818
1819
182
1820
1821
1822
1823
1824
1825
1826
1827
1828
1829
183
1830
1831
1832
1833
1834
1835
1836
1837
1838
1839
184
1840
1841
1842
1843
1844
1845
1846
1847
1848
1849
185
1850
1851
1852
1853
1854
1855
1856
1857
1858
1859
186
1860
1861
1862
1863
1864
1865
1866
1867
1868
1869
187
1870
1871
1872
1873
1874
1875
1876
1877
1878
1879
188
1880
1881
1882
1883
1884
1885
1886
1887
1888
1889
189
1890
1891
1892
1893
1894
1895
1896
1897
1898
1899
19
190
1900
1901
1902
1903
1904
1905
1906
1907
1908
1909
191
1910
1911
1912
1913
1914
1915
1916
1917
1918
1919
192
1920
1921
1922
1923
1924
1925
1926
1927
1928
1929
193
1930
1931
1932
1933
1934
1935
1936
1937
1938
1939
194
1940
1941
1942
1943
1944
1945
1946
1947
1948
1949
195
1950
1951
1952
1953
1954
1955
1956
1957
1958
1959
196
1960
1961
1962
1963
1964
1965
1966
1967
1968
1969
197
1970
1971
1972
1973
1974
1975
1976
1977
1978
1979
198
1980
1981
1982
1983
1984
1985
1986
1987
1988
1989
199
1990
1991
1992
1993
1994
1995
1996
1997
1998
1999
20
200
2000
2001
2002
2003
2004
2005
2006
2007
2008
2009
201
2010
2011
2012
2013
2014
2015
2016
2017
2018
2019
2020
2021
21
210
22
220
23
230
24
240
25
250
26
260
27
270
28
280
29
290
30
300
3000
31
310
32
320
33
330
34
340
35
350
36
360
37
370
38
380
39
390
3d
40
400
41
410
42
420
43
430
44
440
45
450
46
460
47
470
48
480
49
50
500
5000
51
52
53
54
55
550
56
57
58
59
60
600
61
62
63
64
640
65
650
66
67
68
69
70
700
71
72
73
74
75
750
76
77
78
79
80
800
81
82
83
84
85
850
86
87
88
89
90
900
91
92
93
94
95
96
97
98
99
a3
aa
aak
aar
aaron
ab
aba
abb
abba
abbas
abbey
abbor
abborr
abborre
abc
abd
abda
abeba
abel
aber
aberde
aberg
abit
abitibi
abo
aboland
abort
about
abra
abraham
abraxas
abs
absid
absolut
absoluta
absor
abstrakt
abu
aby
abyss
ac
acacia
academ
academie
academy
acanth
acc
acceler
accep
acceptera
accepterade
accra
ace
aceh
acer
ach
achille
ack
ackompanj
ackum
ackumulerade
acon
acraea
acroc
acrol
acron
acronicta
acrop
act
actin
action
acude
acuminata
acut
ad
ada
adal
adam
adams
add
addis
addison
ade
adel
adela
adelaide
adeln
adels
adelsman
aden
adh
adi
adjunkt
adlades
adler
adliga
administ
administrat
administration
administrationen
administrativ
administrativa
administrativt
adolf
adolfs
adolph
adonis
adopt
adopter
ador
adoretus
adrar
adress
adri
adrian
adrien
adulta
advan
advent
advok
advokat
ae
aedes
aeg
aen
aequ
aer
aesch
aeschyn
aet
aethi
af
afc
aff
affar
affaren
affarer
affars
affarsman
affinis
afg
afghan
afghanistan
afric
africana
afrik
afrika
afrikansk
afrikanska
afrikas
afro
after
afton
aftonbladet
ag
aga
agap
agar
agare
agaren
agaric
agaricomycetes
agarna
agath
agda
agde
agdes
age
agen
agent
ager
agera
agerade
agg
aggen
aggress
agh
agios
agla
agn
agna
agnade
agnar
agnat
agnes
agnet
agneta
ago
agor
agri
agrias
agrotis
ags
agt
agu
agua
aguada
agustin
ah
ahl
ahm
ahmad
ahmar
ahmed
ahu
ai
aif
aig
aik
aim
ain
air
aires
airlines
airport
aisen
aisne
ait
aj
ajax
ak
aka
akac
akacior
akadem
akademi
akademien
akademiens
akademin
akademisk
akademiska
akantus
akantusvaxtart
akantusvaxter
ake
aker
akers
akh
aklagare
akra
akt
akta
akte
akten
aktenskap
aktenskapet
akter
akti
aktie
aktiebolag
aktier
aktion
aktiv
aktiva
aktiver
aktivitet
aktiviteter
aktivt
aktorer
aktuell
aktuella
aktuellt
akust
akut
akvar
akvarell
akvari
al
ala
alab
alabama
alag
alam
alan
aland
alands
alaska
alb
alba
albanien
albansk
albanska
albany
alber
albert
alberta
alberto
albin
albrecht
albrekt
album
albumen
albumet
albumets
albumlistan
alc
alchemilla
ald
alder
alderdom
aldern
aldre
aldrig
aldsta
aldste
ale
aleg
alegre
alek
aleksand
aleksandr
alekse
aleppo
aless
alex
alexand
alexander
alexandra
alexandre
alexandria
alf
alfa
alfabet
alfabetet
alfons
alfred
alg
algar
algebra
alger
algeriet
algoma
algorit
ali
alice
alig
alingsas
alk
alkoh
alkohol
alkoholi
all
alla
allah
allan
alldeles
alle
allehanda
allen
allende
aller
alli
alliance
allians
alliansen
allierade
allium
allm
allman
allmanhet
allmanheten
allmanna
allmant
alloc
allra
alls
allsvenska
allsvenskan
allt
alltfor
alltid
allting
alltjamt
alltmer
alltsa
allvar
allvarlig
allvarliga
allvarligt
alm
alma
almqvist
alo
aloe
alonso
alp
alperna
alpes
alph
alpin
alpina
als
alsace
alskade
alskar
alskare
alskarinna
alst
alster
alstrom
alt
alta
altar
altaret
altart
alten
alter
altern
alternat
alternativ
alternativa
alternativt
alto
alumin
aluminium
alv
alvar
alvarez
alvdal
alvdalens
alven
alvsborgs
am
ama
amal
amalia
aman
amanda
amanuens
amar
amarant
amarantvaxtart
amarantvaxter
amaryllis
amaryllisvaxtart
amaryllisvaxter
amata
amator
amaz
amazon
amazonas
amb
ambass
ambassad
ambassaden
ambassador
ambet
ambete
ambetet
ambetsman
ambl
ambly
amblyp
amer
americ
america
american
americana
amerik
amerika
amerikanen
amerikansk
amerikanska
amerikanske
amerikanskt
ames
amf
amir
amiral
amm
amman
ammun
ammunition
amn
amne
amnen
amnes
amnet
amo
amor
amorph
amp
ampel
amph
amphin
amphip
amster
amsterdam
amt
amy
an
ana
anab
anac
anag
anah
anal
analys
analyser
analyt
anap
anark
anast
anat
anatoli
anatom
anatomi
anax
anc
anch
ancist
and
anda
andalus
andalusien
andam
andamal
andar
ande
andel
andelen
anden
ander
anderna
anders
andersen
anderson
andersson
andes
andhra
andlig
andliga
andorra
andra
andrad
andrade
andrades
andraplats
andrar
andras
andre
andrea
andreas
andrej
andrena
andres
andrew
andrews
andring
andringar
andy
ane
anfall
anfalla
anfallare
anfallet
anfoll
ang
angaende
angar
angav
ange
angel
angela
angelagen
angeles
angelholm
anger
angermanland
anges
angest
angola
angra
angrans
angransande
angrepp
angrip
angssk
angsskinnbaggar
angust
anhalt
anhang
anhangare
anhui
anim
animerad
animerade
anis
anisodes
anita
anj
ank
anka
ankan
ankar
anklag
anklagade
anklagades
anklagelser
ankn
anknyt
anknytning
ankomst
anlade
anlades
anlag
anlagg
anlagga
anlaggning
anlaggningar
anlaggningen
anlande
anlander
anled
anledning
anledningen
anlit
anlitade
anlitades
anmal
anmark
anmarknings
ann
anna
annan
annars
annat
anne
annekt
annex
annexforsamling
annie
annika
annons
annorlunda
annu
ano
anom
anomala
anonym
anoph
anopheles
anor
anord
anordnade
anordnades
anordnas
anpas
anpass
anpassa
anpassad
anpassade
anpassning
ans
ansag
ansags
anse
anseende
anser
anses
ansetts
ansi
ansikt
ansikte
ansiktet
anskaff
ansl
anslag
anslot
anslut
ansluta
ansluter
anslutna
anslutning
ansokan
ansokte
anspel
ansprak
anst
anstall
anstalld
anstallda
anstalldes
anstallning
anstrang
ansvar
ansvarade
ansvarar
ansvaret
ansvarig
ansvariga
ant
anta
antag
antagligen
antal
antalet
antanan
antananarivo
antar
antarct
antarktis
antartica
antas
anteckningar
anten
antenn
anth
anthony
anthrax
anthur
anthurium
anti
antib
antik
antika
antiken
antikens
antill
antingen
antio
antioquia
antip
antis
antisem
antisemit
anto
antofag
antofagasta
antog
antogs
antoine
antoinette
anton
antonio
antonius
antrop
antwer
antwerpen
antyder
anvand
anvanda
anvandandet
anvandare
anvandaren
anvandas
anvande
anvander
anvandes
anvandning
anvandningen
anvandningsomraden
anvands
anvant
anvants
anyo
ao
aou
ap
apamea
apanteles
aph
aphan
aphel
aphis
aphod
aphodiidae
api
apicalis
apogonia
apoll
apollo
apor
apost
apostoli
apotek
apoteket
app
appar
appel
append
apple
applic
approxim
april
aprost
aprostocetus
apt
aq
aqa
aqu
aquitaine
ar
ara
arab
arabemi
arabemiraten
arabisk
arabiska
arach
arachn
arag
aragonien
aral
arali
araliavaxtart
aran
araneus
arauc
arb
arbet
arbeta
arbetade
arbetar
arbetare
arbetark
arbetarna
arbetat
arbete
arbeten
arbetet
arbets
arbetsgiv
arbetsgivare
arbetskraft
arbetslos
arbetsloshet
arbetsmark
arbetsmarknad
arboga
arbor
arc
arch
arct
arcu
ard
ardabil
arden
ardenne
ardis
ardisia
are
area
areal
arean
arec
arecaceae
aren
arena
arenan
arenden
arens
aret
arets
arft
arg
argent
argentina
argentinska
argoviensis
argument
argumenter
argy
arhund
arhundraden
arhundradet
arhus
ari
arida
arig
ariga
arige
aring
arist
aristokrat
aristot
aristoteles
ariz
arizona
arj
arjep
arjeplogs
ark
arkad
arkansas
arke
arkeb
arkebiskop
arkebiskopen
arkeolog
arkeologiska
arkit
arkitekt
arkitekten
arkitekter
arkitekterna
arkitektkontor
arkitekton
arkitektur
arkitekturen
arkiv
arkt
arlig
arliga
arligen
arm
armad
armand
armar
arme
armen
armenien
armeniska
armens
armst
armstrong
army
arn
arna
arne
arnold
aro
aron
arrang
arrangemang
arranger
arrangera
arrangerade
arrangerades
arrangerar
arrangeras
arrangor
arren
arrest
arrester
arresterades
arri
arro
arroio
arrond
arrondiss
arrondissementet
arrow
arroyo
ars
arsdag
arsen
arsenal
arsj
arsjubileum
arskurs
arsmed
arsmedeltemperaturen
arsn
arsnederbord
arsskiftet
arsta
arstid
art
arte
artem
arten
artens
arter
arterna
arth
arthur
artific
artik
artikel
artikeln
artiklar
artiller
artilleri
artilleriet
artilleriregemente
artion
artionden
artist
artisten
artister
artisterna
artistnamn
artistnamnet
artnamn
arton
arts
artur
artvaxtart
artvaxter
arv
arvde
arvid
arvidsja
arvidsjaurs
arvika
arvt
as
asa
asb
asc
asele
ash
ashme
ashmead
asia
asiat
asiatisk
asiatiska
asien
asikt
asikter
ask
aska
askad
askadare
askers
asm
asmara
asp
aspekt
aspekter
asper
asph
aspid
asplen
asplenium
asplund
ass
assa
assam
assessor
assist
assistent
assisterande
assoc
association
assy
assyriska
ast
asta
astad
astadkomma
astana
aster
asteroid
asteroiden
asteroidgruppen
aston
astrag
astragalus
astrid
astrof
astrofysiska
astrom
astron
astrona
astronaut
astronom
astronomen
astronomerna
astronomi
astronomiska
astur
asura
asyl
at
ata
atac
atacama
atal
ate
atel
atelje
aten
ater
ateranvand
aterb
aterf
aterfanns
aterfick
aterfinns
aterforen
aterforenades
aterforening
atergick
aterham
aterigen
aterin
aterkom
aterkomm
aterkommande
aterkommer
aterkomst
aterkomsten
aterskap
aterspeg
aterstaende
aterstar
aterstod
aterta
atertog
aterupp
aterupptog
aterupptogs
aterut
atervand
atervanda
atervande
atervander
atervant
atfolj
atgard
atgarder
ath
ather
athl
athletic
athy
atl
atlant
atlanta
atlanten
atlantic
atlas
atlet
atmin
atminstone
atmos
atmosfar
atmosfaren
atnj
atom
atp
atra
atract
atrich
atrichopogon
ats
atskill
atskilliga
att
atta
attack
attacken
attacker
attems
atten
attent
attika
attling
attlingar
attond
attonde
attondels
attrakt
atvida
au
aub
aud
audi
auf
aug
augu
august
augusta
auguste
augusti
augustin
augustus
aukt
auktion
auktor
auktoritet
auktoriteter
auktors
auktorsforkortning
aul
aur
aurantia
aure
auriv
aurivilli
aurivillius
aurora
aus
aust
austin
austral
australia
australien
australiens
australis
australisk
australiska
austro
austur
austurland
aut
auto
autom
automat
automatiskt
autonom
autonoma
auvergne
aux
av
avanc
avancerad
avancerade
avant
avb
avbild
avboj
avbro
avbrot
avbrots
avbrott
avbry
avbryta
avdel
avdelning
avdelningar
avdelningen
avdelnings
avel
aven
aventyr
avenue
avesta
avf
avfall
avfard
avg
avga
avgang
avgick
avgift
avgjordes
avgor
avgora
avgorande
avgran
avgrans
avgransar
avgransas
avhand
avhandling
avhandlingar
avhandlingen
avila
avlade
avlag
avlagsn
avlagsna
avled
avlid
avlidit
avlidna
avlopp
avratt
avrattades
avrinningsom
avrinningsomrade
avrinningsomraden
avrinningsomradena
avrinningsomradet
avrinningsomradets
avs
avsag
avsak
avsatt
avsattes
avse
avsedd
avsedda
avseende
avser
avses
avsett
avsevart
avsikt
avsikten
avsk
avskaff
avskaffades
avsked
avsl
avslo
avsloj
avslojade
avslojades
avslojar
avslut
avsluta
avslutad
avslutade
avslutades
avslutande
avslutas
avslutat
avsnitt
avsnitten
avsnittet
avst
avsta
avstand
avstandet
avt
avtal
avtalet
avvatt
avvattnar
avvattnas
avveck
avvecklades
avvecklas
avveckling
avvik
avvikande
aw
award
awards
ax
axel
ay
ayn
az
azerb
azerbaj
azerbajdz
azerbajdzjan
azte
azul
azur
ba
baalbek
bab
baba
baby
babylon
bac
bach
back
backar
backe
backen
backhopp
backhoppning
backslandeart
bact
bactrocera
bad
bada
badakh
badakhshan
bade
baden
badghis
bae
bag
bagdad
bagg
bagge
bagh
baghlan
bah
baha
bahamas
bahia
bahr
bailey
baillon
baj
baja
bak
bakat
baker
bakf
bakgrund
bakgrunden
bakkropp
bakkroppen
bakom
bakre
baksidan
bakt
bakter
bakteri
bakterier
baku
bal
bala
balan
balans
bald
bale
balet
balett
bali
balkan
ball
ballad
balogh
balsam
balsamin
balsaminvaxter
balt
baltimore
baltiska
baluch
baluchistan
bam
bamako
bamb
bamiyan
ban
bana
banan
banbrytande
band
banden
bandet
bandets
bandy
bang
banglades
bangladesh
bank
banken
banker
banks
bann
banor
bant
banten
bap
bapt
bapti
baptist
baptiste
bar
bara
barang
barangayer
barat
barb
barbar
barbara
barber
barbro
barcel
barcelona
bard
bare
barend
barf
barg
bari
bark
barn
barna
barnard
barnbarn
barnbok
barndom
barneby
barnen
barnens
barnes
barnet
barns
barock
baron
barr
barra
barrage
barran
barre
barrio
barrskog
barry
bars
bart
barton
bartram
bas
base
baseb
baseball
baseboll
basel
basen
baserad
baserade
baserades
baseras
baserat
bash
basid
basidies
basidiesvampar
basil
basin
basist
basisten
bask
basket
basketspelare
bass
bast
basta
baste
bat
batalj
bataljon
batar
baten
bates
bath
batman
batrac
batracomorphus
batt
batter
battle
battre
batu
bau
bauh
bauhinia
bay
bayadh
bayan
bayd
bayer
bayern
baz
bbc
be
bea
beach
bear
bearbet
bearbetning
beat
beata
beatles
beau
beaut
beaver
bebod
bebygg
bebyggelse
bebyggelsen
becc
beck
becker
bed
bedom
bedomning
bedoms
bedrev
bedrevs
bedriv
bedriva
bedriver
bedrivs
beet
beethoven
bef
befal
befalet
befalhavare
befall
befann
befast
befatt
befattning
befinna
befinner
befint
befintliga
befogenheter
befolk
befolkad
befolkade
befolkning
befolkningen
befolknings
befolkningsutveckling
beford
befordrades
befri
befrukt
beg
bega
begar
begaran
begarde
begav
begick
begran
begrans
begransad
begransade
begransas
begransat
begransningar
begrav
begravd
begravda
begravdes
begravning
begravningsplats
begravningsplatsen
begrepp
begreppet
beh
behalla
behand
behandla
behandlade
behandlades
behandlar
behandlas
behandling
behandlingen
behar
beholl
behov
behova
behovde
behovdes
behover
behovet
behovs
bei
beier
beinn
beirut
bek
bekamp
bekampa
bekan
bekann
bekant
bekanta
bekost
bekostnad
bekraft
bekraftade
bekraftades
bekym
bel
bela
belag
belagen
belaget
belagg
belagna
belagring
belagringen
belagt
belarus
belg
belgien
belgisk
belgiska
belgrad
belize
bell
bella
belle
bellev
bellman
belok
belon
belonades
beloning
bely
belysning
bem
bemann
bemark
bemb
bembidion
ben
benam
benamn
benamnd
benamndes
benamning
benamningen
benamns
bend
bened
benedict
benedikt
benen
beng
bengt
bengts
bengtsson
beni
benito
benj
benjamin
benn
bennett
benny
beno
bens
bensin
bent
bentham
benved
benvedsvaxtart
benz
beord
beordrade
beqaa
ber
berak
berakna
beraknades
beraknas
berakning
berakningar
beratt
beratta
berattade
berattar
berattas
berattelse
berattelsen
berattelser
berattelserna
berb
berberis
bered
beredskap
berg
berga
bergarter
bergen
berger
berget
bergig
berglund
bergman
bergs
bergsked
bergskedja
bergskedjan
bergslag
bergsp
bergspass
bergst
bergstopp
bergstrakter
bergstrom
berk
berkeley
berlin
berlins
berm
bern
bernad
bernard
bernhard
bero
berodde
beroende
berom
beromd
beromda
beromde
beror
berry
bert
berth
bertil
bes
besar
besatt
besattning
besattningen
beseg
besegra
besegrade
besegrades
besegrat
besitt
besittning
besk
besked
beskick
beskrev
beskrevs
beskriv
beskriva
beskrivas
beskriver
beskrivit
beskrivits
beskrivning
beskrivningar
beskrivs
beskydd
beslakt
beslaktade
beslot
beslut
beslutade
beslutades
beslutar
beslutat
beslutet
besok
besoka
besokare
besoker
besokt
besokte
bess
best
besta
bestaende
bestall
bestam
bestamd
bestamde
bestamdes
bestamm
bestamma
bestammelser
bestammer
bestams
bestamt
bestand
bestandet
bestar
bestod
bestraff
besvar
besvik
bet
beta
betal
betala
betalade
betalning
bete
beteck
beteckna
betecknar
betecknas
beteckning
beteckningen
beteende
betes
beth
bethune
beton
betong
betraff
betraffande
betrakt
betrakta
betraktade
betraktades
betraktar
betraktas
bett
betta
betty
bety
betyd
betyda
betydande
betydde
betydel
betydelse
betydelsef
betydelsefull
betydelsefulla
betydelsen
betydelser
betyder
betydligt
betyg
beund
bev
bevak
bevap
bevar
bevara
bevarad
bevarade
bevarande
bevarat
bevarats
bevatt
bevattning
bever
bevilj
beviljades
bevis
bevisa
bey
bez
bezirk
bezz
bezzi
bh
bhar
bi
bia
bian
biart
bib
bibeh
bibel
bibeln
bibli
bibliografi
bibliotek
bibliotekarie
biblioteket
bibliska
bic
bick
bicolor
bid
bidra
bidrag
bidragande
bidragen
bidraget
bidragit
bidrar
bidrog
biel
bielke
bien
bif
bifl
biflodes
biflodesordning
big
bij
bik
bil
bilar
bilarna
bild
bilda
bildad
bildade
bildades
bildande
bildandet
bildar
bildas
bildat
bildats
bilden
bilder
bilderna
bildning
bilen
bilj
biljett
bill
billboard
billigare
billy
biltillverk
biltillverkaren
bim
bin
bind
binda
binder
bing
bingham
bio
biob
biobio
biograf
biografen
biografer
biografi
biok
biologi
biologisk
biologiska
biop
biopremiar
biot
bip
bir
birch
bird
birdlife
birg
birger
birgitta
birk
birkaland
birm
birmingham
biroll
bis
bish
bishop
bisjk
bisjkek
bisk
biskop
biskopar
biskopen
biskops
bismarck
bist
bistand
bit
bitar
bitradande
bitt
bitter
biv
biz
bj
bjod
bjor
bjork
bjorkman
bjorn
bjorneborg
bjorneborgs
bjornspinnare
bjur
bjørn
bk
bl
bla
black
blackburn
blackfisk
blad
bladbaggar
bladen
bladhorningar
bladmossart
bladmossor
blag
blake
blan
blanc
blanca
blanchard
blanche
blanco
bland
blanda
blandad
blandade
blandas
blandat
blandning
blandskog
blank
blas
blasonering
blast
blatt
ble
bled
blek
blekinge
bleph
blephar
blev
bli
blind
blir
blivande
blivit
blix
blixt
blo
block
blod
blodet
blogg
blom
blomflugor
blomm
blommar
blommor
blommorna
blomst
blomster
blomsterflugor
blood
bloom
blot
blotdjur
blotdjursart
blott
blotta
blu
blue
blues
bluff
blume
bly
blyg
bm
bmw
bnp
bo
boa
board
bob
bobby
boc
boca
bock
bocker
bockerna
bod
bodde
boden
bodens
boe
boeing
boende
boer
boet
bog
bogota
boh
bohmen
bohus
bohuslan
bois
boisduv
boisduval
boiss
boissier
boj
bojk
bok
boken
bokens
bokfor
bokforlag
boksta
bokstav
bokstaven
bokstaver
bokt
boktryck
bokvaxtart
bokvaxter
bol
bolag
bolaget
bolagets
bolagh
bolaghi
bolb
bold
boli
bolivar
bolivi
bolivia
boll
bollen
bollnas
bolog
bologna
bols
bolton
bom
bomb
bomber
bombyli
bomull
bon
bona
bond
bonde
bonden
bonder
bonderna
boneh
bong
bonn
bonnier
bonniers
bons
bonsyr
bonsyrseart
bonus
book
boot
bop
boplats
boplatser
bor
boras
bord
borde
bordeaux
bordten
bordtennis
bore
boreala
borealis
borg
borga
borgar
borgare
borgen
borger
borgerliga
borgmastare
borgmastaren
borgmeier
boris
borja
borjade
borjan
borjar
borjat
borje
borl
borlange
born
borne
borough
borr
borrflugor
bors
borst
bort
borta
bortgang
bortom
bortsett
bos
bosatt
bosatta
bosatte
bosattning
bosattningar
bosattningen
boskap
bosn
bosnien
boss
bost
bostad
bostader
bostads
bostadshus
bostadsomrade
boston
bot
botan
botanik
botaniker
botaniska
boter
both
botkyrka
botry
bots
botswana
bott
botten
bottenhavet
bottenvaningen
bottenviken
bou
bouc
boug
boul
boulemane
boulenger
bour
bourbon
bourg
bourgogne
bout
bouv
bov
bow
box
boxare
boxning
boy
boyaca
boys
boz
bozorg
br
bra
brach
brachy
brachyc
brachyp
brachyst
brachyth
brack
bracke
bracksteklar
bracon
brad
bradford
bradysia
brag
brahe
brahm
brak
brakved
brakvedsvaxtart
brakvedsvaxter
bram
bran
branch
branche
brand
brande
branden
brandenburg
brandes
brandt
brann
bransch
bransl
bransle
brant
branta
bras
brasil
brasilia
brasiliansk
brasilianska
brasilien
brasiliensis
brass
brat
bratt
braun
braunsch
braunschweig
bravo
braxen
brazz
brazzaville
brdo
bre
break
bred
breda
bredare
bredd
bredden
bredlarsteklar
bredmun
bredmunsflugor
bredvid
breg
brem
bremen
bremer
bren
brent
bres
breslau
brest
bret
bretagne
breton
bretonon
brett
breuning
brev
brevet
brevis
brez
bri
brian
brick
brid
bridge
brien
brig
brigad
brigaden
bris
brisbane
brist
bristande
bristen
brister
bristol
brit
brita
british
britt
britterna
brittisk
brittiska
brittiske
brittiskt
britton
bro
broad
broadway
broar
brock
brod
broder
brodern
broderna
brodra
brok
brokparasit
brokparasitsteklar
broll
brollop
brollopet
brom
bromeliaceae
bromma
broms
bromsar
bron
brons
bronsaldern
bronsmedalj
bronsmedaljor
brook
brooklyn
brooks
bror
brorson
bros
brost
brostet
brot
broth
brother
brothers
brotherus
brots
brott
brottet
brotts
brow
brown
bru
bruce
bruch
brud
bruins
bruk
brukade
brukar
bruket
bruks
brum
brun
bruna
brunn
brunne
brunnea
brunner
bruno
bruns
brunswick
brunt
brus
brut
brutit
bry
bryaceae
bryan
brygg
brygger
bryggeri
bryn
bryssel
bryt
bryta
bryter
brytning
bryts
bryum
bu
bub
bubb
buc
bucc
buch
buck
bud
budapest
budd
buddh
budget
budskap
buen
buena
buenavista
buenos
buff
buffalo
bug
buj
bujumbura
buk
buken
bukit
buksamlar
buksamlarbin
bukt
buku
bul
bulb
bulbophyllum
bulgari
bulgarien
bulgariska
bull
bulu
bulud
bum
bun
bund
bundes
bundesliga
bung
bunge
bunt
buntu
bur
bure
bureau
burg
burgos
burits
burk
burke
burkina
burma
burman
burmeister
burn
burni
burns
burton
burtt
burundi
bus
bush
bushehr
business
busk
buskar
buskland
busklandskap
buss
bussar
but
butik
butiker
butler
butt
buttu
bux
buyu
buz
by
byar
byarna
byg
bygd
bygg
bygga
byggandet
byggas
byggd
byggda
byggde
byggdes
bygger
bygget
byggmastare
byggnad
byggnaden
byggnadens
byggnader
byggnaderna
byggnads
byggnadsm
byggnadsminne
byggs
byggt
byggts
byn
byns
byr
byra
byran
bys
bysant
bysantinska
byt
byta
byte
byten
byter
bytes
bytet
bytt
bytte
byttes
ca
cab
cabo
cac
cach
cacho
cachoeira
cad
caec
caen
caer
caes
caesar
cafe
cah
caj
cal
cala
calais
calam
calamus
calc
cald
calder
calgary
californ
california
californica
calig
call
calli
callip
callist
calv
calyc
calypt
cam
camar
camb
cambridge
camer
cameron
camillo
camp
campan
campbell
campo
camponotus
campos
campt
campus
campyl
can
cana
canad
canada
canadi
canadiens
canadon
canal
canc
cancer
cand
candel
candida
candido
cann
canna
cannes
cano
cant
canth
canton
canyon
cap
cape
capensis
capit
capital
capp
caqueta
car
cara
carab
carac
carbon
carc
card
carden
cardenas
care
carex
cari
caribou
carin
carl
carlo
carlos
carlsson
carlyle
carm
carmen
carn
carol
carolina
caroline
carp
carpenter
carri
cart
carter
carval
cary
cas
casa
casan
casas
casc
case
casey
cash
cass
cast
castan
castell
castillo
castle
castor
castro
cat
catal
catalog
catalogue
catarina
cath
cathar
catharina
cather
catherine
catocala
cauc
cauca
caud
cav
cave
cay
cayenne
cayo
caz
cc
cd
ce
ceara
ceb
cec
cecid
cecil
cecilia
ced
ceder
cel
celastraceae
celeb
celest
celestin
cell
celle
celler
cels
celt
cem
cement
cemeter
cemetery
cen
cens
censur
census
cent
center
centerpartiet
centimeter
centr
central
centrala
centralaf
centralamerika
centralasien
centralb
centrale
centralort
centralorten
centralp
centralprovinsen
centralt
centre
centro
centrum
ceph
cephal
cer
cerat
cerc
ceremon
ceremoni
cern
cerop
cerro
cerros
cert
certifier
ces
cesar
cesjma
cesma
cest
cet
cetoniidae
ch
cha
chab
chabet
chac
chae
chaet
chaeton
chag
chah
chahar
chak
chal
chalc
chall
challenge
chalmers
cham
chama
chamber
chamberlin
champ
champagne
champion
champions
championship
chan
chand
chang
changsha
chann
channel
chans
chansen
chant
chao
chaouia
chap
chapman
char
chara
characidae
charaxes
charente
chari
charl
charles
charlie
charlotta
charlotte
chart
charter
chas
chase
chass
chat
chateau
chav
che
cheb
chef
chefen
chefredaktor
chefs
cheh
cheil
chel
chelonus
chelse
chelsea
chem
chen
chenar
cheng
chengdu
cher
ches
cheshmeh
chester
chet
chev
cheval
chevrol
chhattis
chhattisgarh
chi
chia
chiapas
chic
chicago
chich
chick
chico
chief
chihu
chil
child
chile
chilena
chim
chimarra
chin
china
chinensis
ching
chion
chios
chip
chiqu
chir
chiri
chironomus
chis
chit
chitt
chlef
chlor
chloroc
chloroclystis
chlorops
cho
chock
choco
chok
choklad
chond
chong
chongqing
chop
chopard
chor
chorebus
chou
chr
chrarda
chri
chris
christ
christensen
christer
christian
christina
christine
christmas
christoffer
christoph
christopher
chrom
chry
chrys
chrysop
chrysosoma
chu
chub
chubut
chun
chung
chungcheong
chuqu
chur
church
churchill
ci
cia
cib
cic
cich
cichlidae
cid
cien
cienaga
cig
cigar
cik
cil
cili
cim
cima
cin
cinc
ciner
cing
cinn
cinnam
cip
cir
circ
circu
cirk
cirka
cirkel
cirkul
cirkus
cis
cit
citat
citer
citron
city
ciudad
civ
civil
civila
civilingenjor
civilis
cix
cl
cla
clad
claes
clair
claire
clar
clara
claren
clarence
clark
clarke
clas
class
classic
clath
claud
claude
claus
clav
clay
clayton
cle
clear
clem
clemens
clement
cler
clev
cleveland
cli
cliff
clin
clinton
club
clubiona
clus
clype
cm
cn
co
coach
coast
cob
coc
cocc
coch
cochrane
cock
cocker
cockerell
cod
coel
coen
coenonympha
coenosia
cog
cogniaux
coh
cohen
col
cola
cold
cole
coli
colin
coll
collect
colleg
college
collin
collins
colomb
colombia
colombo
colon
colonia
color
colorada
colorado
colum
columb
columbia
columbus
com
comb
combret
come
comeback
comics
comm
common
commun
commune
community
comp
compan
company
comps
comte
con
conakry
conc
concep
concepcion
conch
cond
condyl
conf
confer
conference
cong
coni
conn
conna
conne
connectic
connecticut
conrad
cons
conserv
conservation
const
constan
constant
cont
contest
contin
conv
cook
cooke
cool
cooper
cop
copa
copeland
copelatus
copp
copt
coqu
coquill
coquillett
coquimbo
cor
cord
cordillera
cordoba
cordon
core
cork
corn
cornelis
cornelius
corner
cornwall
coron
corpor
corporation
corps
corral
corrego
cort
cortinarius
coryd
corydalis
coryn
cos
cosm
cost
costa
cot
cote
cotes
cott
cou
coul
counc
council
count
country
county
countyt
cour
cours
court
cov
cove
cover
cow
cox
coy
cr
cra
craig
cram
crambidae
cramer
cran
crass
crat
craw
crawford
cre
creek
crem
cremat
crematogaster
cren
cres
cresson
cret
cri
cric
crin
crique
cris
crist
cristobal
crit
crni
cro
croc
croix
crom
cron
crook
cross
crotal
crotalaria
croton
crow
crown
cru
cruc
crus
cruz
cry
crypt
crystal
cs
cten
cu
cub
cuc
cuch
cuchilla
cue
cuesta
cuk
cuka
cul
culex
culi
culicoides
cum
cumb
cun
cundin
cundinamarca
cune
cunningham
cup
cupen
cur
curran
curt
curtis
curv
cus
cuspid
cut
cuv
cuy
cy
cyan
cyathea
cyb
cyc
cycl
cyclop
cyg
cyk
cykel
cykl
cykli
cyl
cylind
cylinder
cym
cymb
cyn
cyp
cyper
cypern
cyperus
cyph
cyr
cyrt
cyrtandra
cyrus
cyt
cyther
cz
da
dab
dac
dack
dact
dactyl
dad
dag
dagar
dagarna
dagars
dagblad
dagbladet
dagbok
dagen
dagens
dagg
daggdjur
daggdjursart
daggflugor
dagh
daghi
dagliga
dagligen
dagligt
dags
dagstid
dagı
dah
dahaneh
dahl
dahlberg
dahlgren
dahr
daik
daikondi
daim
dak
dakota
dal
dala
dalarna
dalarnas
dalb
dale
dalen
dalgang
dalig
daliga
daligt
dall
dallas
daller
dallerspindlar
dalmat
dalmatien
dals
dalsland
dalton
dam
damask
damaskus
dame
damer
damernas
damm
dammbyggnad
dammen
dammflickslandor
damp
dan
dana
danau
dance
dander
danderyds
dang
dani
daniel
daniels
danielsson
danmark
danmarks
dann
danny
dans
dansare
dansband
dansflugor
dansk
danska
danskarna
danske
danskt
danzig
dao
daph
dar
darah
darav
dard
dare
darefter
daremot
darfor
dari
daribland
darifran
darigenom
dark
darm
darmed
darom
darpa
darreh
darrehsi
dart
dartill
darutover
darvid
darwin
darya
das
dasch
dash
dasht
dasineura
dasy
dasych
dasychira
dasyhelea
dat
data
datab
databasen
dater
dateras
datida
datidens
dator
datorer
datorn
datorspel
datum
dav
davarande
dave
david
davidson
davies
davis
daw
day
db
dc
ddr
de
dead
dean
death
deb
debatt
debatten
debatter
debut
debutalbum
debutalbumet
debuten
debuterade
dec
december
decenn
decennier
decennierna
decennium
decharge
decim
deck
ded
deep
deer
def
defens
defin
definier
definiera
definierar
definieras
definition
definitionen
defla
deg
deger
degerfors
deh
dei
dek
deklar
dekor
dekoration
del
dela
delad
delade
delades
delagare
delar
delarna
delas
delat
delats
delav
delavrinningsom
delavrinningsomrade
delavrinningsomraden
delavrinningsomradet
delaw
deleg
delen
delhi
delia
delic
dell
della
delning
delong
delph
dels
delst
delstat
delstaten
delstatens
delstater
delstaterna
delstats
delstatshuvudstaden
delt
delta
deltag
deltagande
deltagare
deltagarna
deltagit
deltar
deltavling
deltavlingen
deltog
delvis
dem
demer
demo
demografi
demokrat
demokraten
demokraternas
demokrati
demokratisk
demokratiska
demon
demonst
demonstration
den
dend
dendrob
dendrobium
dendrop
deng
denis
denna
denne
dennes
dennis
dens
densamma
dent
denver
dep
depart
departamento
departement
departementet
deport
deporter
depress
depression
der
dera
deras
derb
derbidae
derby
deriv
dermat
des
desa
desc
descamps
desert
desig
design
desm
desmod
dess
dessa
dessfor
dessforinnan
dessutom
dest
desto
desv
desvoid
desvoidy
det
detalj
detaljer
detekt
detroit
detsamma
detta
deutsch
deutsche
deux
dev
devils
devon
dew
dex
dh
dhabi
dhaka
dhar
dhora
di
dia
diabetes
diad
diagn
diagnos
diagnost
diagon
diakon
dial
dialekt
dialekter
dialog
diam
diamant
diameter
diamond
diana
diap
diapher
diapheromeridae
diaport
diar
dias
diast
diaz
dib
dic
dich
dichaet
dick
dickson
dicran
dicranaceae
dicranomyia
dicty
dictyoph
did
didym
die
diego
diels
dies
diesel
dieselm
diet
dieter
dietrich
diff
differ
dig
digit
digital
digitala
digitalt
dik
dikt
dikten
dikter
diktsamling
diktsamlingen
dil
dill
dim
dimashq
dimens
dimension
dimensioner
din
dina
ding
dinosaur
dio
dion
dios
diosc
dioscorea
diosp
diospyros
dip
dipl
diplaz
diplazium
diplom
diplomat
diplomatiska
dipter
dir
dire
direkt
direkta
direktor
direktoren
dirig
dirigent
dis
disc
disciplin
disco
discover
discovery
disk
diskografi
diskrimin
diskriminering
disksvampar
diskuss
diskussion
diskussioner
diskuter
diskutera
disn
disney
disp
dispar
dispon
disponent
disputerade
diss
dist
distans
distant
distin
distri
distribu
distribut
distribution
district
distrikt
distrikten
distriktet
dit
ditt
dittills
div
divers
diverse
divis
division
divisionen
divisioner
dix
dixon
dj
djav
djebel
djel
djelfa
djib
djibouti
djung
djup
djupa
djupare
djupt
djur
djurart
djuren
djuret
djurgard
djurgarden
djurgardens
dm
dmit
dmitri
dn
dna
do
dob
doc
docent
dock
doctor
dod
doda
dodade
dodades
dodar
dodas
doden
dods
dodsfall
dodsstraff
doft
dog
dognin
doh
dok
dokt
doktor
doktors
doktorsav
doktorsavhandling
doktorsexamen
dokument
dokumentar
dokumentarfilm
dokumenter
dokumenterade
dol
doli
dolich
dolichopus
doll
dollar
dolok
dom
doma
domar
domare
domaren
domb
domd
domde
domdes
dome
domedag
domen
domes
domin
dominerade
dominerande
dominerar
domineras
domingo
dominikanska
domkyrk
domkyrka
domkyrko
domsag
domsaga
domsagas
domsagor
domstol
domstolen
don
donald
donation
donau
donerade
dong
dongar
dongri
dop
dopf
dopfunt
dopt
dopte
doptes
dor
dorcadion
dorn
doro
dorr
dorrar
dorren
dors
dos
doth
dothide
dothideomycetes
dott
dotter
dotterbo
dotterbolag
dottern
dottrar
dou
doub
doug
douglas
douk
doukala
dov
dow
down
dr
dra
draa
drabb
drabbade
drabbades
drabbas
drabbats
drae
draft
draftades
drag
dragit
dragon
drain
drak
drake
draken
drakt
draktigheten
dram
drama
dramafilm
dramat
dramaten
dramatik
dramatiker
dramatiska
dran
drar
dras
drast
draudt
dre
dream
drepan
dres
dresden
dress
drev
drevs
drew
dri
drick
dricka
drift
driften
drin
driv
driva
drivande
drive
driver
drivs
dro
drog
droger
drogs
drojde
drom
drosophila
drott
drottning
drottningen
drottningens
drottninggatan
dru
druce
drum
drunk
druv
dry
dryck
dryg
drygt
dryopteridaceae
dryopteris
ds
du
dub
dubb
dubbel
dubbels
dubbelstjarna
dubbelt
dubbla
dubia
dublin
dubrov
dubrovnik
duc
duck
dud
duell
duett
dug
duk
dukt
dul
dum
dun
dunc
duncan
dung
dunn
duon
dup
dur
dura
durham
dus
dusona
duss
dusseldorf
dut
duv
duzee
dv
dvarg
dvargsteklar
dvargstritar
dvd
dvs
dw
dworak
dworakowska
dy
dyar
dyg
dygn
dygnet
dyk
dykare
dyker
dylan
dylikt
dyn
dynam
dynast
dynastidae
dynastin
dyntaxa
dyr
dyra
dys
dz
e4
e6
eag
eagle
earl
earth
east
eastern
eau
eb
ebb
ebba
eben
eber
ec
ech
echin
echo
eck
ecole
econom
ect
ecu
ecuador
ed
edd
eddie
edel
eden
edgar
edge
edin
edinburgh
edith
edition
edm
edmond
edmonton
edmund
edouard
eds
edu
eduard
educ
edvard
edward
edwards
edwin
ef
eff
effekt
effekten
effekter
effektiv
effektiva
effektivt
efter
efterat
efterfolj
efterfoljande
efterfoljare
efterfragan
efterhand
efterlamnade
efterleden
eftermale
eftermid
efternamn
efternamnet
eftersom
eftert
eftertrad
eftertradare
eftertradde
eftertraddes
eg
egen
egendom
egendomar
egendomen
egenskap
egenskaper
egent
egentliga
egentligen
eget
egg
egna
egyp
egypt
egypten
egyptens
egyptiska
eh
ehren
eich
eid
eil
eilema
ein
einar
eis
eisen
ej
ejido
ek
ekar
ekeby
eken
eklund
ekman
ekologi
ekonom
ekonomi
ekonomin
ekonomisk
ekonomiska
ekonomiskt
ekor
eksjo
ekv
ekvator
el
ela
elae
elaeocarpus
elaph
elaphoglossum
elat
elatostema
elb
eld
elden
ele
elect
electric
elef
elefant
eleg
elegans
elegant
elekt
elektric
elektricitet
elektrif
elektrisk
elektriska
elektro
elektrom
elektromagnet
elektron
elektronik
elektronisk
elektroniska
element
elementar
elena
eleon
eleonora
eleph
elephant
eleuther
elev
elever
eleverna
elf
elfen
elfenben
elfenbenskusten
elfte
eli
elias
elim
elimin
elin
elis
elisa
elisabet
elisabeth
elit
elitserien
elix
eliza
elizabeth
ell
ellen
eller
elli
elliot
ellipt
ellis
elm
elmer
elong
elongata
els
elsa
elva
elvis
em
emanuel
emb
embal
emblik
emblikavaxtart
emblikavaxter
embrik
emellan
emeller
emellertid
emer
emeritus
emery
emig
emigrerade
emil
emile
emilia
emiliano
emilio
emirat
emiratet
emm
emma
emmy
emot
emp
empire
empis
empo
empoasca
en
ena
enare
enbart
enc
end
enda
endast
ende
endem
endemisk
ender
enderlein
energ
energi
energin
eng
engag
engagemang
engagerad
engagerade
engagerades
engel
engelb
engelbrekt
engels
engelsk
engelska
engelskans
engelske
engelsksprakiga
engelskt
engelsmannen
engine
england
englands
engler
english
engstrom
enhet
enheten
enheter
enhetlig
enhjartbladig
enic
enicospilus
enk
enkel
enkelt
enkl
enkla
enklare
enkoping
enkopings
enlighet
enligt
enorm
enorma
enri
enrico
ens
ensam
ensamma
enskil
enskild
enskilda
enskilt
enst
enstaka
ent
enter
entertain
entertainment
entiteten
entom
entre
entrepren
entreprenor
enz
enzym
eos
ep
eparchia
eph
ephraim
epic
epid
epidendrum
epig
epil
epip
epirus
epis
epist
epit
epok
equ
er
era
erag
eran
erat
erbj
erbjod
erbjods
erbjud
erbjuda
erbjuder
ere
ereb
erebia
erem
erfaren
erfarenhet
erfarenheter
erg
erhalla
erhallit
erholl
eri
eric
erica
erich
erichson
ericson
ericsson
erik
eriksson
erin
erioca
eriocaulaceae
eriocaulon
erit
eritrea
erk
erkand
erkande
erkandes
erkanna
erkannande
erkanner
erland
ern
ernest
ernst
eros
erot
erov
erovra
erovrade
erovrades
erovring
erovringen
ers
ersatt
ersatta
ersattare
ersattas
ersatte
ersattes
ersattning
ersatts
ery
erys
eryth
erythrox
es
esa
esb
esbo
esc
esch
esen
esenbeck
esf
esfahan
esh
esk
eskil
eskilstuna
esl
esm
esmer
esp
esper
esperanza
espi
ess
essa
essen
essex
est
esta
estad
estan
este
ester
estero
estland
estlands
estniska
et
eta
etabler
etablera
etablerade
etablerades
etablerat
etapp
etappen
etapper
etc
eth
etienne
etik
etiop
etiopien
etn
etnisk
etniska
ett
etta
etym
etymologi
eu
eub
euc
eucalyp
eucalyptus
euch
eud
eudorylas
eug
eugen
eugene
eugenia
euk
eul
eum
eumen
eumenidae
eun
eup
euph
euphor
euphorbia
euphyia
eupithecia
euploea
eupro
euproctis
eur
eure
euro
europ
europa
europam
europamasterskapet
europap
europaparl
europaparlament
europaparlamentet
europas
europav
europavag
europe
european
europeisk
europeiska
eurovis
eurovision
eury
euryc
euryt
eurytoma
eus
eust
eut
euth
euthalia
eux
euxoa
ev
eva
evaku
evan
evangel
evangelisk
evangeliska
evans
even
evenemang
event
eventuell
eventuella
eventuellt
ever
evert
evolution
ew
ex
exakt
exakta
exam
examen
exc
excent
exek
exekut
exem
exempel
exempelvis
exemplar
exemplet
exil
exist
existens
existerade
existerande
existerar
exkl
exklus
exocentrus
exoprosopa
exp
expand
expanderade
expans
expansion
exped
expedition
expeditionen
exper
experim
experiment
expert
experter
expl
explo
exploder
explos
expon
export
exporter
express
expressen
expression
ext
exter
exteri
extern
externa
extra
extrem
extrema
extremadura
extremiteter
extremt
ey
eyst
eystra
ez
f1
fa
fab
fabod
fabric
fabricius
fabrik
fabriken
fabriker
fac
facebook
fack
fackel
fact
factor
fader
fadern
faderns
fag
fagel
fageln
fagelns
fagels
fager
faglar
faglarna
fah
fair
fairmaire
fak
fakt
fakta
faktiskt
faktning
faktor
faktorer
faktum
fakult
fakulteten
fal
falc
falk
falken
falkenberg
falkenbergs
falkopings
fall
falla
fallen
faller
fallet
fallit
falls
fallskarm
fals
falsk
falska
falt
faltet
faltt
falttag
falttaget
falu
falun
fam
fame
familj
familjen
familjens
familjer
familjerna
family
fan
fang
fanga
fangar
fangarna
fangats
fangelse
fangelset
fangen
fangenskap
fangs
fangsl
fangslades
fangst
fann
fanns
fanny
fanrik
fans
fant
fantas
fantast
fantasy
far
fara
farah
farbror
fard
fardas
fardig
fardiga
fardigstalldes
fardigt
farfar
farfars
farg
fargade
fargen
farger
fargerna
farj
fark
farkosten
farl
farliga
farm
farmor
faro
faroarna
farre
fars
farsk
fart
fartyg
fartygen
fartyget
fas
fasad
fasaden
fasader
fasaderna
fasc
fasciata
faso
fast
fasta
fastan
faste
faster
fastighet
fastigheten
fastigheter
fastighets
fastlandet
fastning
fastningen
faststalla
faststalldes
fat
fatal
fatt
fattade
fattig
fattiga
fattigdom
faust
fav
favor
favorit
faw
fay
faz
fc
fd
fe
feber
febru
februari
fed
feder
federal
federala
federation
federationen
fej
fel
felaktigt
feld
felder
felipe
felix
fell
felt
fem
femin
femma
femt
femte
femtio
femton
fen
fenest
feng
fenn
fenomen
fenomenet
fer
ferdin
ferdinand
ferg
fergus
ferguson
fern
fernandez
fernando
ferr
ferrari
ferre
ferrug
fes
fest
festiv
festival
festivalen
festuca
fet
fetbladsvaxtart
fetbladsvaxter
fett
ff
fi
fia
fiat
fib
fick
fiction
ficus
fid
fide
fideikomm
field
fien
fiende
fienden
fiender
fifa
fig
fight
fighting
figur
figuren
figurer
figurerna
fiji
fik
fikon
fikt
fiktiv
fiktiva
fil
filer
filial
filip
filipp
filippinerna
filippo
film
filmatis
filmdeb
filmdebuterade
filmen
filmens
filmer
filmerna
filmfestival
filmfestivalen
filmin
filmmusik
filmografi
filmregissor
filosof
filosofen
filosofi
filosofie
filosofin
filosofisk
filosofiska
filt
fimb
fin
fina
final
finalen
finals
finan
finans
finansiella
finansier
finansiera
finansiering
finansminister
find
fing
finger
finglanssteklar
finland
finlands
finlandsk
finlandska
finlandssven
finlandssvensk
finn
finna
finnas
finner
finns
finsk
finska
finskt
finsp
fint
fiol
fior
fir
fira
firade
firas
fire
firma
firman
firmin
firmino
first
fisch
fischer
fish
fisher
fisk
fiskar
fiskare
fiskart
fiske
fisken
fiss
fit
fitt
fitz
five
fix
fj
fjad
fjader
fjadermyggor
fjadrar
fjall
fjar
fjard
fjarde
fjardedel
fjardeplats
fjaril
fjarilar
fjarilsart
fjarilsmyggor
fjarr
fjord
fjort
fjorton
fk
fl
fla
flac
flack
flackar
fladder
fladdermoss
fladdermus
flag
flagg
flagga
flaggan
flam
flames
flamm
fland
flandern
flank
flash
flask
flat
flatidae
flav
flava
flavescens
fle
flem
fleming
flen
flenortsvaxtart
flenortsvaxter
flens
fler
flera
flertal
flertalet
flest
flesta
fletcher
flex
fli
flick
flicka
flickan
flickor
flickvan
flink
flint
flit
flitig
flitigt
flo
flock
flockar
flockblomm
flockblommig
flockblommiga
flod
flodar
floden
floder
floderna
flodmyn
flodtrollslandor
flog
flojt
flor
flora
floren
florens
flores
florid
florida
flott
flotta
flottan
flottans
flottilj
flottiljen
flu
flug
fly
flydde
flyers
flyg
flyga
flygande
flygbas
flygbolag
flygbolaget
flygel
flygeln
flyger
flygflottilj
flygning
flygningen
flygpl
flygplan
flygplanen
flygplanet
flygplats
flygplatsen
flygv
flygvap
flygvapen
flygvapnet
flygvapnets
flykt
flykten
flykting
flyktingar
flyr
flyt
flytande
flyter
flytt
flytta
flyttade
flyttades
flyttar
flyttas
flyttat
flyttats
flytten
fm
fn
fo
fod
foda
fodan
fodd
fodda
fodde
foddes
fodels
fodelse
fodelsedag
fodelsen
foder
fodos
fods
fog
foga
fogder
fogderier
fok
fokus
fokusera
fokuserade
fokuserar
fol
foli
folj
folja
foljakt
foljaktligen
foljande
foljd
foljde
foljdes
foljer
foljes
foljeslagare
foljs
foljt
folk
folkbok
folke
folket
folketinget
folkets
folkhogskola
folkliga
folkm
folkmangd
folkmangden
folkmun
folkmusik
folkom
folkomrostning
folkpartiet
folkrak
folkrakning
folkrakningen
folkrepubliken
folkskol
folkskollarare
folkt
foll
fon
fond
fonst
fonster
fonstren
font
foot
football
for
fora
foral
forald
foraldra
foraldrar
foraldrarna
foralskad
foran
forand
forandra
forandrade
forandrades
forandras
forandrats
forandring
forandringar
forank
foranled
foranledde
forare
foraren
foras
forb
forband
forbandet
forbatt
forbattra
forbattrade
forbattringar
forber
forbered
forbereda
forbes
forbi
forbind
forbindelse
forbindelseb
forbindelsebryggan
forbindelser
forbinder
forbj
forbjod
forbjods
forbjudet
forbjudna
forblev
forbli
forbran
forbruk
forbud
forbund
forbundet
forbundets
forbunds
forbundskapten
forbundslandet
force
forcip
forcipomyia
ford
forde
fordel
fordelade
fordelar
fordes
fordjup
fordom
fordon
fordrag
fordraget
fore
foreb
forebild
forebygg
fored
foredrag
foredrar
foredrog
foref
forefaller
foreg
forega
foregaende
foregang
foregangare
foregangaren
forek
forekom
forekomm
forekomma
forekommande
forekommer
forekommit
forekomst
forekomsten
forel
forela
forelas
forelasare
forelasningar
forelig
forem
foremal
foren
forena
forenade
forenades
forening
foreningar
foreningen
foreningens
forenings
forenkl
forenta
fores
foreslag
foreslagits
foreslog
foreslogs
foresprak
foresprakade
foresprakare
forest
forestall
forestallande
forestaller
forestallning
forestallningar
forestallningen
forestandare
foret
foretag
foretagare
foretagen
foretaget
foretagets
foretags
foretagsledare
forete
foretog
foretrad
foretradare
foretrades
foretradesvis
forf
forfader
forfal
forfatt
forfattade
forfattar
forfattare
forfattaren
forfattarna
forfattarskap
forfattning
forfl
forflut
forflytt
forflyttades
forfog
forfolj
forg
forgav
forgaves
forgift
forgren
forh
forhall
forhallande
forhallanden
forhallandena
forhallandet
forhallandevis
forhand
forhandlingar
forhandlingarna
forhind
forhindra
forhopp
forhor
forint
fork
forkast
forklar
forklara
forklarade
forklarades
forklarar
forklaras
forklaring
forknipp
forknippas
forkort
forkortat
forkortning
forl
forlades
forlag
forlaga
forlagd
forlaget
forlagg
forlan
forlang
forlangde
forlangdes
forlangning
forleden
forli
forlor
forlora
forlorad
forlorade
forlorar
forlorat
forlos
forlov
forlust
forlusten
forluster
form
forma
formad
formade
formaga
formagan
formagor
forman
formar
format
formatet
formed
formel
formell
formella
formellt
formeln
formen
former
formgivare
formod
formodligen
formogenhet
formos
formosa
formul
formula
formynd
forn
forna
fornam
fornamn
fornamsta
fornborg
fornlam
fornlamning
fornlamningar
fornm
fornnord
forntida
fornuft
forny
forod
forord
forordning
forort
fororter
forpack
forr
forra
forrad
forran
forre
fors
forsags
forsak
forsakring
forsalj
forsaljning
forsaljningen
forsaljnings
forsam
forsamling
forsamlingar
forsamlingarna
forsamlingen
forsamlingens
forsamlingskyrka
forsberg
forse
forsedd
forsedda
forsen
forsikt
forsk
forskar
forskare
forskarna
forskning
forskningen
forsknings
forskola
forslag
forslaget
forsok
forsoka
forsoken
forsoker
forsoket
forsokt
forsokte
forson
forsor
forsorj
forsorja
forss
forst
forsta
forstaelse
forstaplatsen
forstar
forstark
forstarkt
forstas
forste
forster
forstnamnda
forstod
forstor
forstora
forstorde
forstordes
forsv
forsvag
forsvann
forsvar
forsvara
forsvarade
forsvarare
forsvaret
forsvarets
forsvars
forsvarsbeslut
forsvarsbeslutet
forsvarsmakten
forsvarsmaktens
forsvarsminister
forsvarsomrade
forsvinner
forsvunnit
fort
fortal
forteckning
fortet
fortfarande
fortjanst
fortplant
fortplantning
fortro
fortroende
fortryck
forts
fortsatt
fortsatta
fortsatte
fortsatter
fortsattning
forum
forut
forutom
foruts
forutsatt
forutsattning
forutsattningar
forv
forvag
forvalt
forvaltas
forvaltning
forvaltningen
forvaltnings
forvan
forvand
forvant
forvantas
forvar
forvaras
forvarv
forvarvade
forvarvades
forvax
forvaxlas
forverk
forverklig
forvir
forward
fos
foss
fossil
fossila
fost
foster
fot
fotboll
fotbollen
fotbolls
fotbollsklubb
fotbollsland
fotbollsspelare
foten
foto
fotograf
fotografen
fotografi
fotografier
fotomod
fotomodell
fotos
fotosfar
fots
fott
fotter
fotterna
fou
foum
found
foundation
four
fow
fowler
fox
fr
fra
fraccion
fraccionamiento
frag
fraga
fragade
fragan
fragar
fragment
fragor
fragorna
frakt
fral
fralsnings
fram
framat
framfor
framfora
framforallt
framford
framforde
framfordes
framfors
framgang
framgangar
framgangarna
framgangen
framgangs
framgangsrik
framgangsrika
framgangsrikt
framgar
framja
framkom
frammande
framre
framst
framsta
framstaende
framstall
framstalla
framstallning
framstalls
framste
framsteg
framt
framtid
framtida
framtiden
framtrad
framtradande
framtradanden
framtradde
framtrader
fran
franc
franca
france
frances
francesco
franche
franchet
francis
francisco
francisk
franco
francois
frang
frank
franken
frankfurt
franklin
frankrike
frankrikes
frans
fransk
franska
franske
franskt
fransmannen
franvaro
franz
fras
fraser
frat
fre
fred
fredag
freden
freder
frederic
frederick
frederik
fredrik
fredrika
fredriks
fredrikshamn
freds
free
freeman
freg
frei
freiburg
frekv
frekvens
frem
fren
french
fres
frey
fri
fria
frid
frida
fried
friedrich
friend
fries
friese
frig
friher
friherr
friherre
frihet
friidrott
friidrottare
frik
fril
frilans
friluft
frimur
fris
frisim
frisk
friska
frist
fristaende
frit
fritflugor
fritid
fritt
fritz
frivill
frivillig
frivilliga
frivilligt
fro
frod
frog
froken
frol
frolunda
from
fron
front
fronten
fros
frost
fru
fruh
fruhstor
fruhstorfer
frukt
frukten
frukter
frut
fry
fu
fuch
fuente
fug
fujian
fuk
fukt
fuktiga
fuktigt
ful
full
fulla
fullangd
fullbord
fuller
fullfolj
fullstand
fullstandig
fullstandiga
fullstandigt
fullt
fulv
fum
fun
fund
fundament
funger
fungera
fungerade
fungerande
fungerar
fungerat
funk
funktion
funktionen
funktioner
funktionsned
funna
funnit
funnits
fur
furc
furst
furste
fursten
fus
fusc
fusca
fuscip
fusion
fut
fuz
fuzhou
fy
fyl
fylke
fyll
fylla
fylld
fyllde
fyller
fyllt
fylumet
fyn
fynd
fynden
fyr
fyra
fyren
fyrk
fyrkant
fys
fysi
fysik
fysiker
fysiologi
fysisk
fysiska
fysiskt
ga
gab
gabon
gabor
gaborone
gabri
gabriel
gach
gad
gadd
gadda
gag
gagn
gah
gais
gal
gala
galan
galax
gale
galen
gali
galicien
galile
galileo
galium
gall
galla
gallande
gallde
gallen
galler
galleri
gallery
galli
gallivare
gallm
gallmyggesteklar
gallmyggor
gallo
gam
game
games
gamla
gamle
gamm
gamma
gammal
gammalt
gammel
gan
gand
gang
gangen
ganger
gangwon
gans
ganska
gao
gap
gar
gara
garanter
garcia
garcinia
gard
gardaneh
gardar
gardarna
garde
garden
gardens
gardie
gardner
gards
garet
gari
garm
garn
garna
garning
garnis
garnison
garonne
gary
gas
gash
gasp
gast
gaster
gastrik
gastrikland
gastspel
gat
gata
gatan
gate
gator
gatorna
gatt
gatun
gau
gaud
gauld
gav
gava
gavle
gavleborgs
gavor
gavs
gay
gaz
ge
geb
gebel
geck
geckood
geckoodlor
ged
geer
gef
geh
geijer
gel
gem
gemen
gemensam
gemensamma
gemensamt
gemenskap
gen
genast
gene
gener
general
generald
generaldirektor
generalen
generalgu
generalguvern
generall
generallojtnant
generalma
generalmajor
generals
generalsekreterare
generat
generation
generationen
generationer
generellt
genetiska
geneve
genom
genombrott
genombrottet
genomfor
genomfora
genomforas
genomforde
genomfordes
genomfors
genomfort
genomg
genomgaende
genomgar
genomgatt
genomgick
genomslag
genomsnitt
genomsnittlig
genomsnittliga
genre
genren
genrer
gent
gentemot
gentian
gentianavaxtart
gentianavaxter
genus
geoff
geografi
geografisk
geografiska
geografiskt
geolog
geologi
geologiska
geomet
georg
george
georges
georgetown
georgia
georgien
georgiska
ger
gera
gerais
gerald
geran
gerard
gerd
gerda
gerhard
germain
german
germanska
gers
gert
gertrud
gertsch
ges
gesch
geschichte
gesner
gesneriaceae
gest
gestalt
get
getingar
getingart
gett
getts
gevar
gh
gha
ghan
ghana
ghar
gharb
ghaz
ghazni
ghost
ghowr
ghundey
gi
giac
gib
gibb
gibson
gick
gif
gift
gifta
gifte
gifter
giftermal
giftiga
gig
gigan
gigant
gil
gilan
gilbert
gilg
gill
gillar
gilli
gilt
gim
gin
gio
giord
giordani
giovan
giovanni
gir
gira
girault
gird
girl
girls
giro
gis
giss
git
gitar
gitarr
gitarrist
gitarristen
giuse
giuseppe
giv
given
givet
givit
givits
gj
gjord
gjorda
gjorde
gjordes
gjort
gjorts
gjut
gl
gla
glab
glac
glaci
glaciar
glacier
glad
glada
gladi
gladje
glam
gland
glans
glas
glasbruk
glasgow
glasogon
glass
glatt
glauc
glav
glava
glavica
gle
glen
glenea
glenn
gles
glesbefolkad
glesbefolkat
glest
gletscher
gli
glid
glim
glo
glob
global
globala
globalt
globe
gloch
glod
glom
glomer
gloria
gloss
glouc
glyc
glypt
glypta
gm
gn
gnagare
gnath
gne
gnoph
gnophos
go
gob
god
goda
godar
godfrey
godk
godkand
godkande
godkandes
godkannande
godkant
gods
godsagare
godset
godt
godtyck
goet
gog
gogae
goh
goias
gok
gol
gola
gold
golden
golestan
golf
golfen
golfklubb
goli
golo
golv
golvet
gom
gomez
gommer
gomph
gon
gond
gong
goni
gonomyia
gonzal
gonzalez
good
goog
google
gor
gora
goran
goras
gord
gordon
gorg
gorn
gorochov
gors
gory
gos
goss
gosta
got
gota
gotaland
gotalands
goteborg
goteborgs
goth
gotiska
gotland
gotlands
gott
gottfried
gottingen
gottlieb
gou
gour
gover
gow
gp
gr
gra
grab
grabrun
grac
grace
gracil
gracilis
grad
gradac
graden
grader
gradina
gradvis
graf
grafik
grafiker
grafisk
grafiska
graham
gram
gramm
grammat
grammatik
grammy
gran
granada
granat
grand
grande
grandis
granit
grann
granne
grans
gransar
gransen
granser
granserna
granskning
grant
graph
gras
grasart
grashoppor
grasmarker
grass
grastrad
grastradsvaxtart
grastradsvaxter
grasvaxtart
grat
gratis
gratt
graub
graubunden
grav
grava
gravar
gravbin
graven
graver
gravfalt
gravhog
gravid
gravit
gravitation
gravrosen
gravsattes
gray
graz
gre
great
greatest
gred
greda
green
greene
greg
gregor
gregorianska
gregory
grek
grekisk
grekiska
grekiskans
grekland
gren
grenar
grenen
grepp
greps
gress
gressitt
greta
grev
greve
greven
grevillea
grevinnan
grevskap
grevskapet
grey
gri
griff
griffith
grigor
grill
grim
grind
grip
gripen
gris
grise
grisebach
gro
grobladsvaxtart
grobladsvaxter
grod
groddjur
groddjursart
grodor
groen
gron
grona
gronland
gronsaker
gront
grop
gros
gross
grosshandlare
grosshandlaren
grosso
grote
grott
grotta
grottor
group
grov
grova
grovt
groß
gru
grubb
grun
grund
grunda
grundad
grundade
grundades
grundande
grundandet
grundar
grundare
grundaren
grundarna
grundat
grunden
grunder
grundlag
grundlagg
grundlaggande
grundserien
grupp
gruppen
gruppens
grupper
grupperna
gruppspel
gruppspelet
grus
gruv
gruva
gruvan
gruvor
gry
grym
gryt
gt
gu
gua
guad
guadal
guadala
guadalupe
guadel
guadeloupe
guaj
guan
guana
guanaju
guanajuato
guang
guangdong
guangxi
guangzhou
guar
guard
guatem
guatemala
guay
gubb
gud
gudar
gudarna
gudda
gudde
guden
gudom
guds
gudstjanst
gue
guelb
guenee
guer
guern
guerrero
gug
guide
guido
guil
guill
guilla
guillaume
guine
guinea
guizhou
gul
gula
gulakt
guld
guldet
guldmedalj
guldmedaljor
guldog
guldogonslandor
guldsmed
gull
gully
gult
gum
gun
gund
guni
gunilla
gunn
gunnar
gunt
gunther
gunung
gupta
gur
gurk
gurkvaxtart
gurkvaxter
gus
gust
gustaf
gustafsson
gustav
gustavs
gut
gutt
gutta
guvern
guvernementet
guvernor
guvernoren
guvernorsvalet
guy
guyana
guzman
gw
gy
gyeong
gyeonggi
gyeongsang
gyl
gyll
gyllen
gyllene
gym
gymn
gymnas
gymnasie
gymnasiet
gymnasium
gymnast
gymnastik
gyn
gynn
gyp
ha
haag
hab
habenaria
habit
habitat
habitatet
habsburg
hac
hack
hackar
hackning
hacknings
hackspett
had
hadd
hade
hadena
hadi
haem
haemat
haematopota
haf
haft
hag
haga
hagen
hager
hagg
hain
hainan
haiti
haj
hajji
hak
hakan
hakon
hakt
hal
hala
hale
halen
half
halft
halften
halic
haliclona
haligheter
hall
halla
halland
hallands
hallas
hallbar
halle
hallen
haller
hallet
hallit
hallits
hallning
halls
halm
halmstad
halmstads
halom
hals
halsa
halsen
halsing
halsingland
halso
halt
halv
halva
halvan
halvar
halvbror
halvgra
halvgras
halvgrasart
halvo
halvon
halvt
ham
hamadan
hamburg
hamilton
hamm
hammar
hammarby
hammer
hamn
hamna
hamnade
hamnar
hamnat
hamnd
hamnen
hamp
hampshire
hampson
hamra
hamt
hamta
hamtade
hamtades
hamtat
han
hanar
hanarna
hancock
hand
handboll
handbollsspelare
hande
handel
handeln
handels
handelse
handelsen
handelser
handelserna
handelshogskolan
handelsman
handen
hander
handerna
handikapp
handla
handlade
handlar
handling
handlingar
handlingen
hane
hanen
hang
hangar
hanger
hango
hangzhou
hank
hann
hanna
hannar
hannover
hans
hanseende
hansen
hansson
hansyn
hant
hantera
hantverk
hantverkare
hanvisning
haouz
hap
hapl
happ
har
hara
harad
harader
haradet
harads
haradshovding
harald
harbin
harbour
hard
harda
hardare
hardrock
hardy
hare
haren
hari
harifran
harjed
harjedalen
harjedalens
harkomst
harled
harm
harmon
harms
harnos
harnosand
harnosands
harold
harp
harri
harriet
harris
harrison
harror
harry
harskare
harstam
harstamm
harstammade
harstammar
harsy
harsyrev
hart
hartman
hartmann
harvard
harvey
has
hasan
hash
hass
hasse
hassel
hassle
hast
hastar
hastarna
hasten
hastighet
hastigheten
hastings
hat
hatt
hauk
haupt
haus
haut
haute
hauts
hav
havanna
havd
havda
havdade
havdar
have
haven
haver
havet
havets
havs
havsb
havskanal
havsspind
havsspindelart
havsytan
haw
hawa
hawaii
hawk
hawks
haworth
hax
hay
haz
hb
hc
hd
he
head
heart
heat
heath
heav
heavy
heb
hebard
hebre
hebreiska
hec
hector
hed
hedemora
heden
heder
heders
hedersd
hedersdoktor
hedersledamot
hedlund
hedra
hedrar
hedvig
heg
hegy
hei
heid
heidelberg
heil
heilong
heilongjiang
heim
hein
heinrich
heinz
hej
hekt
hektar
hel
hela
helen
helena
helene
helg
helga
helge
helgon
helhet
heli
helic
heliconius
helig
heliga
helige
helik
helikopt
helikopter
helina
heliocent
heliot
heliotrop
hell
hellen
heller
hellre
hellstrom
helm
helmand
hels
helsing
helsingborg
helsingborgs
helsingfors
helst
helt
heltal
heltid
helvet
hem
hembygd
hemer
hemib
hemiboreala
hemic
hemip
hemland
hemlandet
hemlig
hemliga
hemlighet
hemm
hemma
hemmaarena
hemmamatcher
hemman
hemmaplan
hemmet
hems
hemsida
hemstad
hen
henan
hend
hendel
hender
henderson
hendrik
henne
hennes
henning
henri
henrik
henry
hens
hep
her
herac
herald
herat
herb
herbert
herc
herceg
hercegovina
hercostomus
here
hering
herm
herman
hermann
hermel
hern
hero
herr
herrar
herrarnas
herre
herren
herrgard
herrgarden
herrich
herrlandslag
hert
hertig
hertigdom
hertigdomet
hertigen
herz
hes
hesper
hess
hessen
het
heta
heter
hett
hette
hew
hewit
hewitson
hex
hexatoma
hey
heyd
hf
hi
hib
hick
hid
hidalgo
hier
hierark
higgins
high
highland
hil
hilara
hild
hilda
hildebrand
hill
hilli
hills
him
himachal
himala
himlen
himm
himmel
himmels
hin
hind
hinder
hindra
hindrade
hindu
hing
hinter
hip
hiphop
hipp
hipparcos
hipparcosuppdraget
hippol
hir
hiro
hirs
hirsch
hirsut
hirsuta
hirt
his
hisp
hispan
hiss
hist
histor
histori
historia
historie
historien
historier
historik
historiker
historikern
historisk
historiska
historiskt
history
hit
hitch
hitchcock
hitler
hitlers
hits
hitt
hitta
hittade
hittades
hittar
hittas
hittat
hittats
hittills
hiv
hj
hjal
hjalm
hjalmar
hjalp
hjalpa
hjalper
hjalpt
hjalpte
hjalt
hjalte
hjarn
hjarnan
hjart
hjarta
hjartat
hjort
hjul
hjuldjursart
hjulspindlar
hk
hms
ho
hob
hobart
hoce
hoceima
hoch
hockey
hockeyallsvenskan
hod
hof
hoff
hoffmann
hog
hoga
hoganas
hoger
hogkvarter
hogland
hoglandsklimat
hogra
hogre
hogskol
hogskola
hogskolan
hogskolor
hogslatt
hogst
hogsta
hogstad
hogste
hogt
hogtid
hoh
hohen
hohhot
hoj
hoja
hojd
hojden
hojder
hojdes
hojdhopp
hojdpunkt
hojer
hok
hol
hold
holding
hole
holger
holl
holland
hollandska
holls
holly
hollywood
holm
holmberg
holme
holmes
holmgren
holstein
holt
holzsch
hom
homal
home
homer
homo
homoneura
homosex
homosexuella
homs
hon
hona
honan
hond
honda
honduras
hong
hongkong
honom
honor
honorna
honung
hood
hook
hooker
hop
hope
hopkins
hopl
hopp
hoppa
hoppade
hoppades
hoppflugor
hoppspindlar
hor
hora
horace
horde
horis
horisont
horm
hormon
hormoz
hormozgan
horn
hornet
hornstritar
hors
horse
horsel
horses
horst
hort
hos
hoseyn
hosp
hospital
host
hosten
hot
hotad
hotade
hotas
hotel
hotell
hotellet
hotet
hou
house
houst
houston
hov
hovdam
hovding
hovet
hovkap
hovratt
hovratten
how
howard
howz
hoya
hp
hr
hs
hssen
ht
htt
http
hu
hua
huang
hub
hubb
hubbard
hubei
huber
hubert
hubner
hud
huddinge
huden
hudik
hudiksvall
hudiksvalls
hudson
hue
hug
hugg
hugh
hughes
hugo
huidu
huila
hul
hull
hult
hultsf
hum
human
humb
humilis
humor
hun
hunan
hund
hundar
hunden
hundra
hundratal
hundratals
hung
hunger
hunnit
hunt
hunter
hur
huruvida
hus
husar
husby
husen
huset
husets
husflugor
hushall
hust
hustru
hustrun
hut
huvud
huvudb
huvudbaltet
huvudbyggnad
huvudbyggnaden
huvuddelen
huvudet
huvudkontor
huvudkontoret
huvudman
huvudort
huvudorten
huvudperson
huvudpersonen
huvudroll
huvudrollen
huvudroller
huvudrollerna
huvudsak
huvudsakliga
huvudsakligen
huvudserien
huvudstad
huvudstaden
huvudtranare
hv
hw
hwang
hy
hyal
hyb
hybos
hybrid
hyd
hyde
hydr
hydra
hydraena
hydri
hydro
hydrop
hydroptila
hyg
hygien
hyl
hyla
hylaeus
hyll
hyllade
hyllning
hym
hymen
hyon
hyp
hypena
hyper
hyph
hypoc
hypogast
hypot
hypotes
hyps
hyr
hyra
hyrde
hyres
hyser
hyster
hytt
hø
ia
iakt
iakttag
ian
ib
iber
ibland
ibm
ibn
ibrahim
ic
ica
ice
ich
ichneumon
icke
id
ida
idaea
idag
idaho
ide
ideal
ideell
ideella
ideer
iden
ident
identifier
identifiera
identisk
identiska
identitet
ideologi
idi
idol
idrott
idrottare
idrotts
idrottsforening
if
ifall
ifk
ifragas
ifragasatt
ifran
ig
igang
igar
igarape
igel
igen
igenom
igir
ign
igna
ignacio
ignat
ignatz
ignaz
igor
ih
ihag
ihjal
ihop
ii
iii
ik
ikon
il
ilam
ile
iles
ilex
ilha
ili
ill
illa
illeg
illi
illin
illinois
illizi
illus
illust
illustrat
illustrationer
illustrator
illustrerade
im
imb
imm
immig
immun
imp
impatiens
imper
imperial
imperiet
impl
implem
impon
import
importer
impro
improvis
in
inat
inb
inbeg
inbj
inbland
inblandad
inblandade
inblandning
inborde
inbordes
inbordeskrig
inbordeskriget
inc
incident
incis
ind
indel
indelad
indelade
indelas
indelat
indelning
indelta
indep
independen
independent
index
indian
indiana
indica
indien
indiens
indig
indigofera
indik
indikerar
indirekt
indisk
indiska
individ
individen
individer
individerna
individuell
individuella
individuellt
indones
indonesien
indonesiska
indust
industri
industriell
industriella
industrier
industrin
iner
inf
infaller
infanter
infanteri
infanteriet
infekt
infektion
infin
infl
influ
influenser
influerad
inflyt
inflytande
inflytels
inflytelserik
inflytelserika
inflytt
infor
infora
inforande
inforandet
inforde
infordes
inforliv
inforlivades
inform
information
informationen
informations
infrast
infrastruktur
ing
inga
ingaende
ingang
ingangen
ingar
ingatt
inge
ingeborg
ingemar
ingen
ingenj
ingenjor
ingenjoren
ingenting
inger
inget
ingick
ingmar
ingrediens
ingrid
ingvar
inh
inhem
inhemska
inhopp
init
initi
initialt
initiativ
initiativet
initiativt
initiativtagare
ink
inkl
inkluder
inkluderade
inkluderar
inkluderas
inklusive
inkom
inkomst
inkomster
inkop
inkoptes
inkor
inkorpor
inkorporerades
inland
inlandsklimat
inled
inleda
inledande
inledde
inleddes
inledning
inledningen
inledningsvis
inleds
inloppet
inn
innan
innanfor
inne
inneb
innebandy
innebar
innebara
innef
innefattade
innefattar
inneh
inneha
innehade
innehall
innehalla
innehallande
innehaller
innehallet
innehar
innehavare
inneholl
inner
innerstad
innov
innsbru
innsbruck
inoffic
inom
inomhus
inratt
inrattade
inrattades
inre
inred
inredning
inredningen
inrikes
inrikesminister
inrikt
inriktad
inriktade
inriktning
inrym
ins
insag
insam
insamling
insats
insatser
insekt
insekter
insektsart
inser
insign
insignis
insjo
insjoar
insjuk
insk
inskran
inskriften
inskript
inslag
insp
inspekt
inspektor
inspel
inspelad
inspelade
inspelning
inspelningar
inspelningarna
inspelningen
inspelnings
inspir
inspiration
inspirerad
inspirerade
inspirerades
inspirerat
inst
install
installerades
installning
instift
instiftades
institut
institute
institutet
institution
institutionen
institutioner
instrument
instrumentet
insularis
int
inta
intag
intakt
inte
integ
integration
intel
intelle
intellekt
intellektuella
intellig
intelligens
intelligent
intendent
intens
intensiv
intensivt
inter
interi
interior
interioren
intermed
intermedia
intern
interna
internation
international
internationell
internationella
internationellt
internet
interst
interv
intervall
intervju
intervjuer
intill
intilliggande
intog
intogs
intradde
intrade
intraff
intraffade
intraffar
intres
intress
intressant
intressanta
intresse
intressen
intresserad
intresserade
intresset
intrig
introduc
introducerade
introducerades
intryck
inuti
inv
invader
invaderade
inval
invald
invaldes
invan
invanarant
invanarantalet
invanare
invanarna
invand
invandrare
invandring
invari
invas
invasion
invasionen
invent
inventarier
inverkan
invest
investering
investeringar
invid
invig
invigdes
invigningen
involver
io
iowa
ip
iph
ipomoea
iq
ir
ira
irak
iran
iranska
irena
irene
irid
iris
iriska
irisvaxtart
irisvaxter
irland
irlandsk
irlandska
iron
irwin
is
isa
isaac
isabel
isabella
isak
isar
isb
ischn
isen
ish
ishan
ishavet
ishocke
ishockey
ishockeyspelare
isid
isidro
isk
isl
isla
islam
islamiska
island
islands
islandsk
islandska
isle
islote
ism
iso
isol
isolerade
ison
isortsvaxtart
isortsvaxter
isot
isra
israel
israeliska
israels
iss
ist
istallet
istan
istanbul
it
ita
ital
italia
italien
italiens
italiensk
italienska
ith
iucn
iv
ivag
ivan
ivanovich
ivar
ivrig
iw
ix
ixora
iz
ja
jab
jabal
jac
jack
jackson
jacob
jacobus
jacques
jad
jae
jag
jaga
jagar
jagare
jagas
jah
jak
jakarta
jakob
jakt
jakten
jal
jalis
jalisco
jam
jama
jamaic
jamaica
james
jamfor
jamfora
jamforas
jamforelse
jamfort
jamm
jammu
jamn
jamna
jamnt
jamstalld
jamstalldhet
jamt
jamte
jamtland
jamtlands
jan
jane
janeiro
jang
janne
jansson
januari
jap
japan
japans
japansk
japanska
japonica
jar
jard
jarfalla
jarl
jarn
jarnalder
jarnaldern
jarnek
jarnvag
jarnvagar
jarnvagen
jarnvags
jarnvagsst
jarnvagsstation
jarnvagsstationen
jaroslav
jarv
jas
jason
jast
jat
jatt
jatte
jattek
jattekackerlackor
jattekra
jattekrabbspindlar
jattestjarna
jav
java
jaw
jawa
jay
jaz
jazz
jbel
je
jean
jeanne
jebel
jed
jeff
jeffer
jefferson
jel
jen
jenn
jennifer
jenny
jens
jensen
jeolla
jer
jere
jerevan
jern
jeronimo
jerry
jersey
jerus
jerusalem
jes
jesper
jess
jessica
jesu
jesus
jet
jez
ji
jia
jiang
jiangsu
jiangxi
jim
jimmy
jin
jinan
jing
jo
joa
joachim
joakim
joan
joao
job
jobb
jobba
jobbade
jobbar
jobbet
joc
joe
joel
joens
joensuu
joh
johan
johann
johanna
johannes
johans
johansson
john
johnny
johns
johnson
johnston
jok
jokk
jokkmok
jokkmokks
jol
jon
jonas
jonathan
jones
jong
joniska
jonkoping
jonkopings
jons
jonsson
jor
jord
jordan
jordanien
jordbav
jordbavningen
jordbruk
jordbruket
jordbruks
jordbruksmark
jorden
jordens
jordlopare
jorg
jorge
jorgen
jos
jose
josef
joseph
jour
journal
journalist
journalisten
journalister
jow
joy
jr
ju
juan
juarez
jub
jubileum
jud
judar
judarna
judisk
judiska
jug
jugend
jugoslav
jugoslavien
jugoslaviska
juk
jul
jula
julen
jules
juli
julia
julian
julianska
julie
julien
julius
jum
jun
jung
jungfr
jungfru
jungfrulins
jungfrulinsvaxtart
jungfrulinsvaxter
juni
junior
jup
jupiter
jur
jura
jurid
juridik
juridisk
juridiska
juris
jurist
juristexamen
jury
juryn
jus
just
justicia
justin
justit
justiti
justitiem
justitieminister
juv
juvel
juvelvingar
juven
jy
jylland
jyvask
jyvaskyla
jør
ka
kab
kabel
kabinett
kabul
kabupaten
kach
kackerlack
kackerlacksart
kad
kaf
kafe
kaffe
kag
kagel
kah
kai
kain
kairo
kaiser
kaj
kajan
kajanaland
kak
kaka
kakt
kaktus
kaktusvaxtart
kaktusvaxter
kal
kala
kalan
kalat
kalateh
kalc
kalcium
kaledonien
kalen
kalender
kalendern
kalfjall
kalif
kaliforn
kalifornien
kalim
kalimantan
kalin
kalix
kalk
kalksten
kall
kalla
kallad
kallade
kallades
kallan
kallar
kallare
kallas
kallaste
kallat
kallats
kallavaxtart
kallavaxter
kalle
kalleh
kallor
kallorna
kallt
kalmar
kalv
kam
kamar
kambod
kambodja
kamen
kamer
kamera
kameran
kamerun
kamm
kammar
kammare
kammaren
kammarmusik
kamp
kampa
kampade
kampan
kampanj
kampanjen
kampar
kampen
kamrat
kan
kana
kanada
kanadas
kanadens
kanadensisk
kanadensiska
kanal
kanalen
kanaler
kanarie
kanarieoarna
kand
kanda
kandahar
kande
kandi
kandid
kandidat
kandidater
kandidatexamen
kandiderade
kang
kani
kann
kanna
kannedom
kanner
kannet
kanneteck
kannetecken
kannetecknas
kanns
kanon
kanoner
kanot
kanotist
kans
kansas
kanske
kansl
kansla
kansli
kansliga
kanslor
kant
kantbrakenvaxtart
kanten
kanter
kanton
kantonen
kap
kapacitet
kapell
kapellet
kapellmastare
kapit
kapital
kapitel
kapp
kaprifol
kapten
kaptenen
kar
kara
karak
karakt
karaktar
karaktaren
karaktarer
karaktaris
karaktarist
karaktars
karakter
karam
karang
kard
kardinal
kare
karel
karelen
karen
karez
kari
karib
karibiska
karin
kark
karl
karleby
karlek
karleken
karls
karlshamn
karlsk
karlskoga
karlskrona
karlsson
karlstad
karlstads
karm
karn
karna
karnan
karnat
karnataka
karnkraft
karnten
karnvapen
karol
karolinska
kaross
karp
karpfiskar
karr
karrbrakenvaxtart
karriar
karriaren
karsch
karst
kart
karta
kartan
kartor
kas
kasern
kash
kashm
kashmir
kaspar
kass
kassel
kast
kasta
kastade
kastar
kastilien
kat
kata
katal
katalanska
katalog
katalonien
katarina
katastro
katastrof
kate
katedral
katedralen
kategor
kategori
kategorier
kategorin
kategoriserar
kategoriseras
kath
kato
katol
katoli
katolik
katoliker
katolsk
katolska
katrin
katrineholm
kats
katt
katter
kau
kaukas
kaukasus
kav
kavalleri
kavalleriet
kaw
kawm
kay
kaz
kazak
kazakstan
kb
ke
keb
kec
kecamatan
ked
kef
keh
keith
kej
kejs
kejsar
kejsard
kejsardomet
kejsare
kejsaren
kejsarens
kejsarinna
kejsarinnan
kejser
kejserliga
kek
kel
keli
kell
keller
kelly
kelt
kelurahan
kem
kemi
kemisk
kemiska
kemist
kemp
ken
kend
keng
kenn
kennedy
kennet
kenneth
kenora
kens
kent
kentuck
kentucky
kenya
kep
kepulauan
ker
keram
keramik
kerman
kermanshah
kern
kerstin
kes
kesh
kess
ket
kett
kevin
key
keyboard
keyser
kf
kg
kh
kha
khak
khal
khallet
kham
khan
khaneh
khani
khar
khas
khe
khen
khl
khor
khorasan
khosh
khulah
khus
khuz
khuzestan
khwa
khwajah
khwar
ki
kib
kick
kid
kidnapp
kieffer
kiel
kiev
kik
kil
kill
kilo
kilogram
kilometer
kilstritar
kim
kimito
kimitoon
kin
kina
kinas
kind
kines
kinesisk
kinesiska
kinestrad
kinestradsvaxtart
kinestradsvaxter
king
kings
kingston
kinn
kinsh
kinshasa
kio
kip
kir
kirby
kirch
kirg
kirgiz
kirgizistan
kiri
kirim
kirimoj
kirimojavaxtart
kirimojavaxter
kirk
kirke
kiruna
kirurg
kis
kish
kiss
kit
kitt
kiv
kivi
kj
kjell
kk
kl
kla
klack
klacks
klad
kladd
kladda
klader
kladogram
klag
klan
klang
klar
klara
klarade
klarar
klart
klas
klass
klassas
klassen
klasser
klassific
klassificeras
klassificering
klassiker
klassisk
klassiska
klassiskt
klatt
klattrar
klaus
kle
klein
klev
kli
klim
klimat
klimatet
klimatforhallandena
klimatzonen
klin
kling
klipp
klippa
klippiga
klippor
klo
klock
klockan
klockor
klockstapel
klockvaxtart
klockvaxter
klor
klost
kloster
klostret
klot
klotspindlar
klov
klubb
klubbar
klubbarna
klubben
klubbens
klubbkarriar
klubblag
klump
km
km2
km²
kn
kna
knapp
knappast
knappt
kne
knight
kniv
knock
knot
knott
know
knud
knut
knuten
knutna
knutsson
ko
koal
koalition
kob
koch
kock
kod
koden
kodra
kof
kogae
kogn
koh
kohl
koj
kok
koket
kol
kola
kold
koldioxid
koli
kolk
kolkarnsvampar
koll
kolla
kollaps
kollega
kollegor
kollekt
kollektiv
kollektivt
kollektivtrafik
kolli
kollis
kolm
koln
kolon
koloni
kolonial
kolonier
kolonierna
kolonin
kolonis
kolv
kom
koma
kombin
kombination
kombinerad
kombinerade
komed
komedi
komedifilm
komiker
komm
komma
kommand
kommande
kommend
kommendant
kommendor
komment
kommentarer
kommenterade
kommer
kommers
kommersiell
kommersiella
kommersiellt
kommiss
kommission
kommissionen
kommit
kommitte
kommitten
kommun
kommunal
kommunala
kommunalforbundet
kommunalforord
kommunalforordningar
kommunalt
kommund
kommunen
kommunens
kommuner
kommunerna
kommunfullmaktige
kommunhuvudort
kommunik
kommunikation
kommunikationer
kommunist
kommunistiska
kommunistpartiet
kommunreformen
kommuns
komp
kompakt
kompan
kompani
kompaniet
kompens
kompetens
kompl
komplement
komplett
kompletter
komplex
komplexa
komplic
kompon
komponen
komponenter
komponerad
komponerade
komponerades
komponerat
komposit
komposition
kompositioner
kompositor
kompositoren
komprom
kon
koncent
koncentration
koncentrations
koncept
konceptet
koncern
koncernen
kond
konda
kondens
konen
konf
konfeder
konfer
konferens
konferensen
konfli
konflikt
konflikten
konflikter
kong
kongelige
kongo
kongress
kongressen
kongressledamot
kongressvalet
konig
konk
konkur
konkurr
konkurren
konkurrens
konkurs
konrad
kons
konsek
konsekv
konsekvens
konsekvenser
konser
konsert
konserten
konserter
konserv
konservativ
konservativa
konsm
konsmogna
konson
konsonant
konsp
konst
konstak
konstakademien
konstant
konstantin
konstantinopel
konstater
konstaterade
konsten
konstfack
konstforening
konstforenings
konsthall
konsthantverk
konsthogskolan
konstindustri
konstitut
konstitution
konstitutionen
konstmuseum
konstnar
konstnaren
konstnarer
konstnarerna
konstnarlig
konstnarliga
konstru
konstruerade
konstruerades
konstrukt
konstruktion
konstruktionen
konstruktioner
konstverk
konsul
konsult
konsument
konsumenter
konsumt
kont
kontakt
kontakten
kontakter
kontin
kontinent
kontinental
kontinenten
kontinuer
kontinuerligt
kontor
kontors
kontra
kontrakt
kontraktet
kontrast
kontro
kontroll
kontrollen
kontroller
kontrollera
kontrollerade
kontrolleras
kontrovers
kontroversiell
kontroversiella
konung
konungen
konungens
konv
konvent
konvention
konventionen
konver
kooper
koordin
koordinaterna
kop
kopa
kopen
kopenhamn
kopenhamns
koper
kopet
kopia
koping
kopingar
kopingen
kopinghuvudort
kopior
kopman
kopmannen
kopp
koppar
kopparbergs
kopplad
kopplade
kopplas
koppling
kopplingar
kopt
kopte
koptes
kor
kora
korall
korallart
koranen
kord
korde
kordes
kore
korea
koreanska
koren
koret
korg
korgblommiga
korn
korp
korre
korrekt
korrespond
korrupt
korruption
kors
korsar
korsblomm
korsblommig
korsblommiga
korset
korsningen
kort
korta
kortare
kortfilm
kortliv
kortt
korttungebin
kortvar
kortvingar
korv
kos
kosa
kosm
kosovo
kost
kosta
kostade
koster
kostermans
kostnad
kostnaden
kostnader
kostnaderna
kostym
kot
kotal
kotka
kott
kottflugor
kou
koud
koudia
koudiat
koudiet
koudyet
kour
kourou
kov
kow
koz
kr
kra
krabbspindlar
kraft
kraftdjur
kraftdjursart
kraften
krafter
kraftfull
kraftig
kraftiga
kraftigare
kraftigt
kraftverk
krag
kragglanssteklar
krak
krakow
kral
kram
kramfors
kran
kransblomm
krasch
krat
krav
krava
kravde
kravdes
kraven
kraver
kravet
kravs
kre
kred
kredit
krediter
krediterad
kreis
krem
kreta
krets
kretsar
kretsen
kreuger
kreuz
kri
krig
krigare
krigen
kriget
krigets
krigs
krigsf
krigsfor
krigsslutet
krigsvetenskapsakademien
krim
krimin
kriminal
kriminella
krims
kring
kris
krisen
krist
kristall
kristdemokrat
kristen
kristend
kristendom
kristendomen
krister
kristi
kristian
kristiania
kristianstad
kristianstads
kristin
kristina
kristinehamn
kristna
kristus
krit
kriter
kriterier
kritik
kritiken
kritiker
kritikerna
kritis
kritiserade
kritiserades
kritiserats
kritisk
kritiska
kriv
kro
kroat
kroatien
kroatisk
kroatiska
krog
krok
krokoms
krom
kron
krona
kronan
kronikor
kroning
kronobergs
kronor
kronprin
kronprins
kropp
kroppar
kroppen
kroppens
kropps
kroppslangd
kroppslangden
kross
kru
kruk
krum
krus
krut
kry
kryd
kryp
krypt
krys
kryss
kth
ku
kub
kuba
kubik
kuch
kud
kuh
kuk
kul
kula
kuli
kull
kullar
kulle
kullen
kulor
kulsp
kulsprut
kult
kultur
kulturell
kulturella
kulturellt
kulturen
kulturer
kulturhistoriska
kulturhistoriskt
kulturm
kum
kumla
kun
kund
kunde
kunder
kung
kungad
kungadomet
kungaf
kungah
kungalv
kungar
kungariket
kungarna
kungen
kungens
kungl
kunglig
kungliga
kungligt
kungs
kungsbacka
kungsgard
kungsholmen
kunming
kunna
kunnat
kunskap
kunskapen
kunskaper
kunst
kunt
kunth
kuntze
kuopio
kup
kuperad
kupol
kupp
kur
kurd
kurdiska
kurdistan
kurfurst
kurs
kurser
kurt
kus
kush
kusin
kust
kustart
kustartilleri
kusten
kustklimat
kut
kuus
kuwait
kuz
kv
kvadrat
kvadratkilometer
kvadratmeter
kval
kvalet
kvalific
kvalificerade
kvalitet
kvall
kvallen
kvalserien
kvalspel
kvalster
kvalsterart
kvant
kvar
kvarken
kvarlev
kvarn
kvarnen
kvarstod
kvart
kvarter
kvarteret
kvartsf
kvartsfinal
kvartsfinalen
kvarvarande
kvick
kvinn
kvinna
kvinnan
kvinnans
kvinnlig
kvinnliga
kvinno
kvinnor
kvinnorna
kvinnors
kvist
kvitt
kw
ky
kyl
kym
kymmen
kymmenedalen
kyr
kyrk
kyrka
kyrkan
kyrkans
kyrkby
kyrkbyn
kyrklig
kyrkliga
kyrkligt
kyrko
kyrkob
kyrkobyggnad
kyrkobyggnaden
kyrkog
kyrkogard
kyrkogarden
kyrkoher
kyrkoherde
kyrkoherden
kyrkom
kyrkor
kyrkorna
kyrkorum
kyrkorummet
la
lab
labor
laborator
laboratorium
labour
labrador
lac
lacc
lach
lack
lacs
lad
lada
ladd
lade
lader
lades
ladug
ladugard
lady
lae
laev
laevis
laf
lag
laga
lagar
lage
lagen
lagenhet
lagenheter
lager
lagervaxtart
lagervaxter
laget
lagets
lagg
lagga
laggas
lagger
laggs
lagkapten
laglandet
lagman
lago
lagoa
lagoon
lagos
lagras
lagre
lagret
lagring
lagst
lagsta
lagstift
lagstiftande
lagstiftning
lagt
lagtavlingen
lagts
lagun
laguna
lah
laht
lahtis
laj
lak
lakar
lakare
lakaren
lake
lakem
lakemed
lakemedel
lakemedels
lakes
lakh
lakt
lal
lam
lama
lamar
lamarck
lamb
lambert
lamm
lamn
lamna
lamnade
lamnades
lamnar
lamnas
lamnat
lamningar
lamp
lamplig
lampliga
lampligt
lan
lana
lanades
lanaudiere
lanc
lance
land
landa
landade
landarea
lander
landerna
landet
landets
landh
landhockey
landhockeyt
landkreis
lands
landsbygd
landsbygden
landsfisk
landsfiskal
landsfiskalsdistrikt
landsfor
landshovding
landshovdingen
landsk
landskamp
landskamper
landskap
landskapet
landskapsmal
landskommun
landskommunen
landskommuner
landskrona
landslag
landslaget
landslagskarriar
landsmannen
landst
landstig
landsting
landstinget
landsvag
landsvagen
lane
lanet
lang
langa
langd
langden
langdhopp
langdistans
langdskid
lange
langfilm
langhorn
langhorningar
langhornsslandor
langhus
langhuset
langhusets
langre
langror
langrorsbladloss
langs
langsam
langsamt
langsikt
langst
langsta
langstrackt
langt
langtjarnen
langtungebin
langu
langvar
langvarig
lank
lanka
lankar
lans
lanserade
lanserades
lansstyrelsen
lansvag
lant
lantbruk
lantbrukare
lantbruks
lantern
laos
lap
laph
lapp
lappland
lapplands
lar
lara
laran
larar
larare
lard
larda
larde
larga
lari
larjung
larjunge
lark
larling
larob
laros
laroverk
laroverket
larry
lars
larsen
larson
larsson
lart
larv
larven
larver
larverna
las
lasa
lasare
lasarett
laser
lasi
lasioglossum
lasning
lass
lasse
last
lastbil
lastbilar
laste
lat
lata
latakia
latar
latarna
late
laten
latens
later
latet
lath
latin
latinamerika
latinets
latinska
latit
latlista
latskrivare
latt
latta
lattare
lattvikt
laur
laura
lauren
laurence
laurent
laurentides
laus
laut
lav
lavar
lavart
law
lawren
lawrence
lax
lay
laz
lazar
lazaro
lc
le
lea
leafs
league
leb
lec
lecan
lecanor
lech
leconte
led
leda
ledamo
ledamot
ledamoter
ledamoterna
ledande
ledar
ledare
ledaren
ledarna
ledarskap
ledd
ledda
ledde
leddes
leddjur
leden
leder
ledning
ledningen
lednings
leds
lee
leech
leeds
lef
left
leg
legat
legend
legenden
legitim
leh
lehr
lei
leic
leif
leijon
lein
leip
leipzig
leitao
lejon
lek
leks
leksands
lektor
lel
lem
lemp
lempke
len
lena
leng
lenin
leningrad
lenn
lennart
lennon
lent
leo
leon
leonard
leonardo
leone
leonhard
leop
leopold
leotiomycetes
lep
lepanthes
lepid
lepp
lept
lepton
ler
lera
lerr
les
leslie
less
lest
let
leta
letar
leth
lett
letter
lettiska
lettland
leuc
leucania
leucoph
lev
leva
levande
levde
lever
leverera
levererade
levererades
levi
levnad
levnadssatt
levt
levu
lew
lewis
lex
lg
lh
lhasa
li
lia
liang
liaoning
lib
liban
libanon
libanonberget
liber
liberal
liberala
liberia
libert
libr
librett
libretto
libreville
liby
libyen
lic
licens
licent
licentiat
lich
lichen
lid
lidande
lider
liding
lidingo
lidkoping
lie
lieb
lif
life
lig
liga
ligamatcher
ligan
ligga
liggande
ligger
light
lik
lika
likad
likasa
like
likhet
likheter
liknade
liknande
liknar
liksom
likt
likval
lil
lilj
liljeval
liljevalchs
lill
lilla
lillan
lille
lilli
lilongwe
lily
lim
lima
limen
limenitis
limn
limon
lin
lina
lincol
lincoln
lincolnshire
lind
linda
lindberg
linde
linden
linder
lindes
lindgren
lindley
lindqvist
lindstrom
line
lineata
ling
lingvist
linj
linje
linjen
linjer
linjerna
link
linkoping
linkopings
linn
linna
linnavuori
linne
lins
linsley
linux
lion
lip
lipar
liparis
liri
liriomyza
lis
lisa
lise
lisp
liss
lissa
lissabon
lisson
lissonota
list
lista
listade
listan
listar
listas
lit
lita
litau
litauen
litauiska
lite
liten
liter
litet
lith
lithobius
litsea
litt
litter
litterar
litterara
litteratur
litteraturen
little
liturg
liu
liv
live
livealbum
liver
liverpool
livet
livets
living
livland
livlig
livnar
livregementets
livs
livskraft
livskraftig
livsmed
livsmedel
livsmedels
livsmiljo
livsstil
livstid
lj
ljub
ljud
ljudet
ljung
ljungby
ljungvaxtart
ljungvaxter
ljus
ljusa
ljusar
ljusare
ljusdals
ljuset
ljusfororeningar
ljusgra
ljusk
ljusn
ljust
lk
ll
llan
llano
lle
llo
lloyd
lm
lo
lob
loc
loch
lock
locka
lod
loew
lof
loft
lofte
log
logan
logotyp
loh
loi
loire
loj
lojtnant
lok
lokal
lokala
lokalen
lokaler
lokalerna
lokalt
lol
lom
loma
lomas
lomb
lombard
lombardiet
lombok
lon
lonch
lond
london
londons
lone
long
longicornis
longip
longipes
lonn
look
lop
lopande
loper
lopez
loph
lopp
loppart
loppet
lor
loranthaceae
lord
lordag
loren
lorentz
lorenz
lorenzo
lorestan
loric
lorra
lorraine
los
losa
losning
losningar
losningen
loss
lost
lot
loth
lott
lotta
lotus
lou
louis
louise
louisiana
lour
louv
lov
lovade
love
lovfallande
lovflugor
lovisa
lovskog
lovtrad
low
lower
lox
loy
loz
lp
lt
ltd
lu
luanda
lub
lubeck
luc
lucas
lucia
lucien
luck
lucky
lud
ludvig
ludvika
ludwig
luer
luf
luft
luften
luftt
luftvarn
luftvarns
lug
lugn
luigi
luis
luk
lukas
luke
lukt
lulea
lum
lumb
lun
luna
lund
lundberg
lundell
lundgren
lundin
lundqvist
lunds
lundstrom
lung
lup
lur
lus
lust
lut
lute
luth
luther
lutherska
lutz
lutzomyia
lux
luxemburg
luz
luzon
ly
lyc
lycaena
lyck
lycka
lyckade
lyckades
lyckas
lyckats
lycksele
lyd
lydde
lyder
lyft
lyfta
lyg
lykt
lym
lyman
lyn
lynch
lynn
lyon
lyong
lyrik
lys
lysande
lysandra
lyssn
lyssna
lyx
læ
lø
ma
mab
mac
macar
macdonald
mach
macha
mack
macle
macquart
macro
macroc
macrom
macromitrium
macrop
macroph
macros
macrost
maculata
maculi
mad
madag
madaga
madagasc
madagaskar
madame
made
madele
madeleine
madh
madhya
madison
madonna
madrid
madura
mae
maff
mag
magall
magallanes
magasin
magasinet
magaz
magazine
magdalena
magg
magi
magiska
magister
magn
magna
magnet
magnif
magnitud
magnus
magnusson
mah
mahal
mahar
maharashtra
mahm
mahren
mahunka
mai
maiden
main
maine
maj
maja
majest
major
majoritet
majoriteten
majoritets
mak
maka
makarna
make
makedon
makedonien
makedonska
maken
makens
makes
makt
makten
maktiga
maktover
mal
mala
malad
malade
maladera
malades
malar
malare
malaren
malarskola
malat
malawi
malaysia
malc
malcolm
mald
maldiverna
male
malen
maleri
malet
mali
malicky
malin
mall
malloch
malm
malmo
malmohus
malning
malningar
malningarna
malningen
malo
malp
malpigh
malpighiaceae
malskytt
malt
malta
malung
malv
malvakt
malvavaxtart
malvavaxter
mam
mamm
mamma
man
manad
manaden
manader
manaders
manag
management
manager
managua
manch
mancha
manchester
mand
mandag
mandat
mandatperiod
mandatperioden
mande
mandeh
mane
manen
manens
manfred
mang
manga
mangan
mangd
mangden
mangder
mangfald
mangfot
mangfotingar
mangfotingart
manhattan
mani
manifest
manip
manit
manitoba
manlig
manliga
mann
mannen
mannens
manner
mannerheim
mannisk
manniska
manniskan
manniskans
manniskor
manniskorna
manniskors
mans
mansk
mansklig
manskliga
manskligheten
mant
mantal
mantidae
manuel
manuf
manus
manuset
manusforfattare
manuskript
manz
mao
map
maple
maq
mar
mara
maran
maranhao
maraton
marc
marcel
march
marco
marcos
marcus
mard
mare
marevaxtart
marevaxter
marg
margar
margaret
margareta
marge
margin
marginal
marginata
marguer
mari
maria
marianne
marie
mariehamn
marin
marina
marinen
marino
mario
marion
marit
maritime
marius
mark
markant
markazi
marke
marken
marker
markera
markerade
markerar
market
markgrev
marknad
marknaden
marknader
marknads
marknadsfor
marknadsforing
marks
markt
markus
marl
marm
marmor
marne
marocko
marrak
marrakech
mars
marsch
marsden
marse
marseille
marsh
marshall
marshalloarna
mart
marta
marten
martens
martha
martin
martine
martinez
martini
martins
martius
martyr
marx
mary
maryland
mas
masdeval
masdevallia
mash
mask
maskin
maskiner
mason
mass
massa
massachus
massachusetts
massak
massan
massmed
massor
mast
mastare
mastaren
mastarna
maste
master
masters
masterskap
masterskapen
masterskapet
mat
mata
matar
matare
matas
match
matchen
matcher
matcherna
matemat
matematik
matematiken
matematiker
matematisk
matematiska
maten
mater
materi
material
materialet
materiel
math
mathias
matilda
matlag
matning
matningar
mato
matris
mats
matsum
matsumura
matt
matte
matthew
matti
mattias
mattsson
maud
maur
mauret
mauretanien
mauric
maurice
mauricie
maurit
mauritius
mauritz
maus
mav
maw
max
maxim
maximalt
maximilian
maxwell
may
maya
mayo
mayr
maz
mazandaran
mazar
mazz
mb
mc
mcc
mccart
mccartney
mccl
mcd
mcdonald
mcg
mck
mcle
md
me
meadow
mec
mech
meck
mecklenburg
med
medalj
medaljen
medaljer
medan
medarbetare
medborg
medborgar
medborgare
medborgarskap
meddel
meddelade
meddelades
meddelande
meddelanden
medea
medel
medelh
medelhav
medelhavet
medelhavsklimat
medelhojden
medelpad
medelst
medelstor
medeltemperaturen
medeltid
medeltida
medeltiden
medetera
medfor
medforde
medhjalp
medhjalpare
medi
media
medic
medicin
medicine
medicinsk
medicinska
medier
medina
medio
medium
medlem
medlemmar
medlemmarna
medlemmen
medlems
medlemskap
medlemsst
medlemsstater
medverk
medverka
medverkade
medverkan
medverkande
medverkar
medverkat
medvet
medveten
medvetet
meg
mega
megac
megach
megachile
megal
megap
megas
megaselia
meh
mei
meigen
meijer
mein
mej
mek
mekan
mekanis
mekanisk
mekaniska
meknes
mel
melale
melan
melanagromyza
melander
melast
melastomataceae
melbourne
melichar
melin
melit
melitaea
mell
mellan
mellanostern
mellanrum
mellans
mellanvikt
meller
mellersta
mello
melod
melodi
melodier
melodifestivalen
melodin
melolon
melolonthidae
mem
membran
memo
memoarer
memor
memorial
men
menade
menar
menas
mend
mendo
mendoza
meng
mening
meningen
menings
mens
ment
mental
mer
mera
merc
mercedes
merid
meridion
meridionalis
merit
meriter
merparten
merrill
mes
mesa
mesnil
mesoch
mesochorus
mess
mest
mesta
mestadels
met
meta
metab
metac
metal
metall
metaller
metam
metaph
metaphycus
mete
meteor
meter
meters
meth
metod
metoden
metoder
metro
metrop
metropolit
metropolitan
metropolitana
metta
meur
mex
mexic
mexicana
mexico
mexik
mexikansk
mexikanska
mexiko
mey
meyer
meyrick
mez
mg
mh
mi
mia
miami
mian
mic
mich
micha
michael
michail
michel
michigan
micho
michoacan
mick
miconia
micro
microc
microd
microp
microph
micros
microsoft
microst
microt
mid
midd
middag
middle
mids
mig
miguel
mik
mika
mikael
mike
mikhail
mikro
mil
milan
milano
mild
mile
miles
milit
militar
militara
militard
militaren
militark
militart
milj
miljard
miljarder
miljo
miljoer
miljon
miljoner
miljop
miljopart
miljopartiet
mill
millenn
miller
milles
milli
millimeter
mills
milne
milt
milton
mim
mimosa
min
mina
minas
mind
mindre
mine
miner
mineral
minerar
minerarflugor
ming
mini
miniat
miniatyr
minim
minima
minist
minister
minn
minne
minnen
minnes
minnesota
minnet
minor
minoritet
minoritets
minsk
minska
minskad
minskade
minskar
minskat
minst
minsta
minus
minut
minuta
minuten
minuter
minutus
miquel
mir
mira
mirabilis
mirador
mirak
miranda
miri
mis
mish
misk
miss
missade
missbruk
misshand
mission
missions
mississ
mississippi
misslyck
misslyckade
misslyckades
misslyckats
missn
missnoje
missouri
misst
misstag
misstan
misstank
misstankt
misstankta
mist
miste
mit
mitchell
mits
mitt
mitten
mittfalt
mittfaltare
mix
miy
miz
mj
mjol
mjolby
mjolk
mjuk
mjuka
mk
ml
mlb
mm
mma
mn
mo
mob
mobel
mobil
mobilis
mobilt
mobiltelef
mobler
moc
mocamb
mocambique
mock
mod
mode
model
modell
modellen
modeller
modellerna
moder
moderat
moderata
moderaterna
moderforsamling
moderklubb
modern
moderna
modernare
moderns
modernt
modersmal
modesta
modifier
mog
mogote
moh
mohaf
mohafazat
mohammad
mohammed
moj
mojlig
mojliga
mojligen
mojliggjorde
mojliggor
mojliggora
mojlighet
mojligheten
mojligheter
mojligt
mok
mol
mold
moldav
molek
molekyl
molekyler
moli
moll
molla
molle
moller
mollis
moln
molophilus
moluck
moluckerna
mom
moment
mon
mona
monaco
monark
monarken
monc
mong
mongol
mongoli
mongoliet
mongoliska
monica
monopol
monotyp
monotypisk
monrovia
mons
monst
monster
monstret
monsun
monsunklimat
mont
montagne
montana
montanus
monte
monten
monteneg
montenegro
monter
monterades
montes
montg
montgomer
montgomery
monticola
montreal
monts
monument
moon
moore
moose
mor
mora
moral
moraliska
moran
mord
morda
mordad
mordade
mordades
mordet
more
morelos
moreno
morf
morfar
morg
morgan
morgon
morgonen
moritz
mork
morka
morkare
morkbrun
morker
morkt
morm
mormor
morn
morne
morning
morph
morpho
morris
morrison
morro
mors
mort
morton
mos
mosa
mosaik
moselle
moser
moses
mosk
moskva
moss
mossdjur
mossdjursart
mosse
mossl
mosslummer
most
mot
mota
motala
mote
moten
moter
motes
motet
motion
motiv
motiver
motiveringen
motivet
motor
motorcykel
motorer
motorn
motors
motorvag
motorvagen
mots
motsats
motsatsen
motsatt
motsatta
motsatte
motstand
motstandare
motstandet
motsvar
motsvarade
motsvarande
motsvarar
motsvarighet
motsvarigheten
mott
motta
mottag
mottagande
mottagare
motte
mottes
mottog
motverka
mou
mount
mountain
mountains
mour
mov
mow
moz
mozart
mp
mq
mr
mrs
ms
mt
mta
mtv
mu
mua
muaskar
muc
much
mud
mueller
mug
muh
muhammad
muhammed
muhl
muir
muk
mul
mull
mullbar
mullbarsvaxtart
mullbarsvaxter
muller
mullvad
mult
multi
multip
mum
mun
munch
munchen
mund
mung
municip
municipal
municipality
municipalsamhalle
municipio
munk
munkar
munnen
munster
munt
mur
mura
murar
murcia
muren
murphy
murray
mus
musa
musc
musca
muse
museer
museet
museets
musei
museum
music
musik
musikal
musikalbum
musikalen
musikalisk
musikaliska
musikaliskt
musiken
musiker
musikern
musikgrupp
musikgruppen
musikhogskolan
musikkon
musikproducent
musikstil
musikt
musikvide
musikvideo
musikvideon
musk
muskel
muslim
muslimer
muslimska
muss
musselart
must
mut
mv
mw
my
myanmar
myc
mycalesis
mycet
mycetophila
mycket
mycomya
mycosphaer
mycosphaerella
mycosphaerellaceae
myd
myeon
myers
myll
myn
mynd
myndighet
myndigheten
myndigheter
myndigheterna
mynnar
mynning
mynt
myr
myrart
myrcia
myri
myrist
myrlej
myrlejonslandor
myrm
myrmec
myror
myrten
myrtenvaxtart
myrtenvaxter
mys
mysidae
myst
myster
mystiska
myt
myter
myth
mytologi
mytologin
myx
myz
m²
na
nab
nabaa
nabat
nabatiye
nabb
nabben
nac
nach
nacional
nack
nacka
nacken
nad
nadde
naden
nadi
nag
nagon
nagonsin
nagonstans
nagonting
nagot
nagra
nagu
nagy
nah
nahr
nairo
nairobi
nak
naken
nakna
nal
nam
namb
name
namibia
namligen
namn
namnand
namnas
namnd
namnda
namnden
namndes
namnen
namner
namnet
namngavs
namngiven
namns
namnsdag
nan
nana
nanchang
nancy
nand
nang
nanjing
nann
nap
napole
napoleon
naq
nar
nara
narbel
narbelagna
narbeslakt
narcis
narhet
narheten
naring
narings
naringsliv
naringslivet
narino
narke
narkot
narkotik
narliggande
narm
narmade
narmare
narmast
narmaste
narvar
narvarande
narvaro
nas
nasa
nash
nashville
nass
nassau
nassel
nasseldjursart
nasselvaxtart
nasselvaxter
nassjo
nast
nasta
nastan
nat
natal
natet
nath
nathan
nathaniel
nation
national
nationale
nationalekonom
nationalekonomi
nationalforsamlingen
nationalmuseum
nationalp
nationalpark
nationalparken
nationals
nationalsocial
nationell
nationella
nationellt
nationen
nationer
nationerna
nationernas
nations
nato
natrium
natt
natten
nattflyn
nattslandeart
natur
natura
natural
naturen
naturlig
naturliga
naturligt
naturreserv
naturreservat
naturreservatet
naturskydd
naturskyddat
naturvard
naturvardsunionen
naturvetenskap
natverk
natverket
naut
nav
navarra
navas
navig
naw
nay
naypy
naypyidaw
naz
nazisterna
nazistiska
nazity
nazityskland
nba
nd
ne
nea
neapel
neb
nebraska
nec
nect
ned
nedan
nedanfor
nedat
neder
nederbord
nederlag
nederland
nederlanderna
nederlandsk
nederlandska
nedflytt
nedgang
nedlagda
nedre
nedsatt
need
nees
nef
neg
negativ
negativa
negativt
negra
negro
neil
nej
nejlik
nejlikvaxtart
nejlikvaxter
nek
nel
nelson
nem
nemat
neo
neob
neoc
neom
neon
neop
neos
neosei
neot
nep
nepal
neph
nephrotoma
nept
neptis
ner
nere
nerv
nes
ness
nest
net
nett
network
neu
neuquen
neur
neut
neutral
neutron
nev
nevada
never
neville
new
newcastle
newfound
newfoundland
newman
newport
news
newton
ney
ng
ngo
ngu
nhl
ni
nia
nic
nicar
nicaragua
nice
nich
nicholas
nick
nickel
nico
nicola
nicolai
nicolas
nicolaus
nicosia
nid
nied
nieder
niederosterreich
niedersachsen
niel
niels
nielsen
nig
niger
nigeria
night
nigra
nigric
nik
niklas
nikola
nikolai
nikolaj
nikolaus
nil
nils
nilsson
nim
nin
nina
nine
ning
ninten
nintendo
nio
nionde
nip
nipissing
nipp
nir
nis
niss
nit
nitid
nitida
nitt
niv
niva
nivaer
nivan
nive
nix
nixon
niz
nj
njur
nk
nm
no
nob
nobel
nobelpriset
nobelprist
noc
noct
nod
nodvand
nodvandig
nodvandiga
nodvandigt
nodvandigtvis
noel
nog
noggran
noggrann
noir
noj
nojes
nok
nol
noll
nom
nomada
nomin
nominat
nominatformen
nominerad
nominerade
nominerades
nomos
non
nor
nora
norberg
nord
nordafrika
nordamerika
nordamerikanska
norden
nordens
nordic
nordin
nordir
nordirland
nordisk
nordiska
nordk
nordkhorasan
nordkorea
nordlig
nordliga
nordligaste
nordmak
nordmakedonien
nordost
nordostlig
nordostra
nordsjon
nordst
nordstrom
nordvast
nordvastlig
nordvastprovinsen
nordvastra
norfolk
norge
norges
norm
normal
normala
normalar
normalb
normalt
norman
normand
normandie
normer
norr
norra
norrb
norrbotten
norrbottens
norris
norrkoping
norrkopings
norrland
norrlands
norrmalm
norrtalje
norrut
norsk
norska
norske
norskt
norte
north
northern
northwest
norðurland
nos
nosen
nost
not
noter
notera
noterade
noterades
noth
notre
nott
nottingham
nou
nouakch
nouakchott
nouv
nouvelle
nov
nova
novell
novellen
noveller
november
novgor
novi
novo
now
nr
ns
nt
nu
nuaf
nub
nuc
nud
nue
nueva
nuevo
nuk
num
number
numer
numera
nummer
numret
nun
nunatak
nunavut
nunn
nur
nurn
nurnberg
nus
nusa
nut
nutid
nutida
nutt
nuuk
nuv
nuvarande
ny
nya
nyar
nyare
nyb
nybildade
nybro
nybygg
nybyggda
nyc
nyck
nyckel
nyct
nyctem
nyctemera
nye
nyf
nyg
nyhet
nyheter
nyhets
nyklass
nykom
nykoping
nykopings
nykter
nyland
nylander
nyligen
nym
nymph
nyn
nynashamn
nyong
nyslott
nyslotts
nyss
nyst
nystadsregionen
nystrom
nytt
nytta
nyupp
nyzeeland
oak
oand
oar
oarna
oav
oavgjort
oavs
oavsett
oax
oaxaca
ob
obad
obadiah
obebod
obefolkad
obeh
ober
oberg
oberoende
oberosterreich
oberth
oberthur
obes
obet
objekt
objektet
oblast
oblastet
obli
oblig
obligator
oblong
oblusu
oblystet
obsc
obscur
obscura
observ
observation
observationer
observator
observatoriet
observatorium
observer
observera
observeras
observerats
obsjtina
obsol
obtus
oc
ocampo
occ
occident
occidentalis
occit
occitanien
oce
ocean
oceanen
och
ochth
ochthebius
ock
ocksa
ockup
ockupation
ockupationen
ockuper
ockuperade
ockuperades
ocotea
oct
octave
od
odd
ode
odel
oden
oder
odes
odla
odlade
odlas
odle
odleart
odling
odlor
odo
odont
oec
oecetis
oed
oen
oer
oerhort
of
off
offens
offensiv
offent
offentlig
offentliga
offentligt
offer
offic
office
officer
officerare
officiell
officiella
officiellt
ofor
oforand
oform
ofruktbar
oft
ofta
oftare
oftast
ofull
ofver
og
oga
ogat
ogift
ogill
ogon
ogonblick
ogonbryn
ogonen
ogonflugor
ogooue
ogruppen
oh
ohaus
ohio
ohl
oil
oise
oj
ojo
ok
oka
okad
okade
okand
okanda
okande
okant
okar
okat
oken
okenklimat
oklah
oklahoma
oklar
oklart
okning
okt
oktober
ol
ola
olag
oland
olands
olat
olaus
olav
old
olden
ole
oleander
oleandervaxtart
oleandervaxter
olga
oli
oliarus
olig
olik
olika
oliv
oliver
olivier
olj
olja
olje
oljemal
olle
olof
olofsson
olov
olsen
olsson
olyck
olycka
olyckan
olyckor
olymp
olympia
olympic
olympisk
olympiska
om
oman
omar
omarbet
ombild
ombildades
ombord
ombud
ombyggnad
ombyggnaden
omd
omdisk
omedel
omedelbart
omfatt
omfatta
omfattade
omfattande
omfattar
omfattas
omfattning
omgang
omgangar
omgangen
omges
omgiv
omgivande
omgiven
omgivning
omgivningarna
omgivningen
omk
omkom
omkring
omlopp
omloppsbana
ommat
ommatius
omnamn
omnamnd
omnamns
omoj
omojlig
omojligt
omorganis
omph
omrade
omraden
omradena
omradet
omradets
omrostning
omrostningen
oms
omsattning
omsesid
omslag
omslaget
omsorg
omstand
omstandigheter
omstrid
omt
omtal
omtalas
omtyc
omtyckt
omval
omvaldes
omvand
omvandlades
omvandlas
omvarlden
omvax
omvaxlande
on
onc
ond
onda
one
ong
online
only
onlyinclude
ons
onsk
onskade
onskan
onskar
ont
ontario
onth
onthophagus
onych
op
open
oper
opera
operan
operas
operation
operationen
operationer
operativ
operativsystem
operett
operor
oph
ophi
opin
opinion
opist
opius
opp
oppen
oppet
oppna
oppnade
oppnades
oppnar
oppnas
oppning
opposition
oppositionen
opsjtina
opt
optim
or
ora
oran
orang
orange
oranger
orat
oratt
orb
orch
orchestra
ord
orden
ordens
order
ordet
ordfor
ordforande
ordforanden
ordin
ordinarie
ordnade
ordning
ordningen
ore
orebro
oreg
oregel
oregon
oresund
org
organ
organis
organisation
organisationen
organisationens
organisationer
organisator
organisera
organiserad
organiserade
organiserades
organiska
organismer
organist
orgel
orgeln
orgry
orgryte
ori
oribat
orient
oriental
orientalis
orienter
orientering
orig
origin
original
originalet
originalt
originaltitel
ork
orkest
orkester
orkestern
orkid
orkideart
orkideer
orle
orleans
orlog
orlov
orm
ormar
ormart
ormb
ormbunk
ormbunkeart
ormen
ormos
ormst
ormstjarneart
orn
ornament
ornata
ornit
ornith
ornskold
ornskoldsvik
ornskoldsviks
oro
orol
oromia
oron
oronen
oros
orph
orsak
orsaka
orsakade
orsakar
orsakas
orsakat
orsaken
orsaker
orsakerna
ort
orten
ortens
orter
orterna
orth
ortnamn
ortodox
ortodoxa
oruro
os
osak
osaka
osaker
osakert
osb
osborn
osc
oscar
oscars
osh
osk
oskar
oskarshamn
oskyld
oslo
osm
osman
osmanska
oss
ossian
ost
osta
ostaf
ostantarktis
ostazar
ostazarbaijan
oste
osten
oster
osterbotten
ostergotland
ostergotlands
ostermalm
osterrik
osterrike
osterrikes
osterrikisk
osterrikiska
ostersj
ostersjon
ostersund
ostersunds
osterut
osteuropa
ostgota
ostkust
ostlig
ostra
osttyskland
osu
osv
oswald
osyn
ot
otal
oth
otill
otillrackligt
ott
ottawa
otte
otter
otto
ou
oua
ouadi
ouag
ouagadougou
ouardig
ouardigha
oud
oue
oued
ouest
oul
oulad
oum
our
out
outa
outaouais
ov
oval
ovan
ovanfor
ovanlig
ovanliga
ovanligt
ovanpa
ovansida
ovansidan
ove
over
overallt
overb
overbefal
overdriv
overens
overenskomm
overenskommelse
overfamiljen
overfor
overfordes
overforing
overg
overgang
overgangen
overgar
overgav
overgavs
overgick
overgrepp
overgripande
overhog
overhuvud
overk
overklag
overlag
overlakare
overlamn
overlamnade
overlamnades
overlat
overlev
overleva
overlevande
overlevde
overlevnad
overnatur
overra
overrask
overraskande
overs
oversatt
oversatta
oversattare
oversatte
oversattes
oversattning
oversattningar
oversattningen
oversatts
oversikt
overskott
overst
oversta
overste
overstel
overstelojtnant
oversv
oversvam
overt
overta
overtal
overtog
overtogs
overtyg
overtygad
overv
overvag
overvagande
overvak
overvakning
overvint
overvintrar
ovre
ovrig
ovriga
ovrigt
ow
owen
ox
oxalis
oxen
oxenstierna
oxford
oxid
oxy
oxyp
oxyt
oxytropis
oy
oz
ozero
p1
p3
p4
pa
pablo
pabor
paborjade
paborjades
pac
pach
pachy
pachyc
pacif
pacific
pacifica
pack
pad
padd
paepal
paepalanthus
paf
pafag
pafagels
pafagelsspinnare
pafoljande
pag
paga
pagaende
pagar
page
pagick
pah
pahar
paij
paijanne
paj
pajala
pak
paket
pakistan
pakt
paktika
pal
pala
palace
palae
palang
palats
palatset
pale
palen
palest
palestina
palindi
pall
pallid
pallida
palm
palma
palmar
palmas
palme
palmer
palo
palomar
palp
pals
palsen
pam
paminner
pamp
pampa
pan
pana
panama
pand
pandan
pandanaceae
pandanus
panel
pang
pann
panor
pans
pansar
pansarskoldloss
pant
panth
panzer
paolo
pap
papa
papegoj
papp
pappa
papper
papua
papyrus
par
para
parab
parac
parach
parad
paradis
paradox
parag
paragu
paraguay
paraiso
paral
parall
parallax
parallaxmatning
parallell
parallella
parallellt
param
paramo
paran
parana
parap
paraph
parar
paras
parasit
parasitflugor
parast
parat
parc
pard
pardosa
pare
parent
paret
parf
pargas
pari
paris
parish
parishen
park
parken
parker
parkering
parl
parlament
parlamentet
parlamentsvalet
parma
parmel
parmeliaceae
parning
parningen
parodi
parque
parry
parsek
part
parten
parter
parterna
parti
partier
partierna
partiet
partiets
partik
partiklar
partiled
partiledare
partip
partis
partner
party
parv
parva
parvi
pas
pascoe
pasir
pask
paso
pass
passa
passade
passage
passager
passagerar
passagerare
passar
passera
passerade
passerar
passet
passiflora
passion
passionsblom
past
pasta
pastar
pastas
pastod
pastor
pastorat
pastoratet
pat
pata
patag
patent
pater
pati
patient
patienten
patienter
patraff
patraffades
patraffas
patraffats
patri
patriark
patricia
patrick
patrik
patron
patryck
patt
pau
pauc
paul
paula
pauli
paulo
paulus
paus
pav
pave
pavel
paven
paverk
paverka
paverkad
paverkade
paverkades
paverkan
paverkar
paverkas
paverkat
pavetta
pavilj
pavis
pavlov
pax
pay
pays
paz
pc
pe
peace
peak
peaks
pear
pearl
pec
pecina
peck
pect
ped
pedagog
pedagogiska
pedal
peder
pedersen
pedicularis
pedra
pedro
peg
pegunungan
pehr
pei
pek
pekar
peking
pel
pelare
pelarg
pell
pelle
pelopon
peloponnes
peloponnesos
pelt
pem
pematang
pen
pena
pend
pendel
pendeltag
peng
pengar
pengarna
penguins
penh
penic
penins
peninsula
penn
penning
pennsyl
pennsylvania
pens
pension
pensionering
pent
people
pep
peper
peperom
peperomia
peperomior
peppar
pepparvaxtart
pepparvaxter
per
perc
percy
perd
perdita
pereval
perez
perfekt
perfor
performan
perg
peric
peril
period
perioden
perioder
periodisk
periodiskt
perkins
perm
perman
permanent
permanenta
pern
pernamb
pero
perp
perrier
perry
pers
persien
persiska
person
personal
personalen
personbil
personen
personer
personerna
personlig
personliga
personligen
personlighet
personligt
perspektiv
persson
perth
peru
peruv
pes
pest
pet
petal
pete
peter
peters
petersburg
petersen
peterson
petersson
petit
petite
petr
petra
petri
petro
petrol
petroleum
petrov
petrovich
petrus
pett
petter
pettersson
peuc
pey
pez
pf
pfalz
pga
ph
pha
phac
phae
phaen
phal
phan
phaner
phaonia
phas
phasmatidae
pheid
pheidole
phel
phen
phil
philadel
philadelphia
philip
philipp
philippe
philippi
phillip
phillips
philodendron
philos
phnom
phnum
pho
phoen
phoenix
phor
phot
phou
phrag
phryn
phth
phyll
phylla
phyllach
phyllachora
phyllachoraceae
phyllanthus
phyllod
phyllophaga
phys
phyt
phytomyza
phytosei
phytoseiidae
pi
pia
pian
pianist
piano
piaui
pic
pich
pichincha
pick
pickard
pico
pict
pictur
pid
pie
pied
piedra
piedras
piel
piemonte
pien
pieni
pier
pierre
piet
pieter
pietro
pig
pigment
pihla
pik
pil
pile
pilea
pilg
pilgrim
pilos
pilosa
pilot
pim
pimp
pin
pinar
pine
ping
pingst
pink
pinn
pint
pion
pionjar
pip
piper
pipran
pipranke
pir
pira
pirat
pis
pist
pistol
pit
pitca
pitcair
pitcairnia
pitch
pitea
pitt
pittsburg
pittsburgh
pius
pix
piz
pizzo
pjas
pjasen
pjaser
pl
pla
plac
place
placera
placerad
placerade
placerades
placerar
placeras
placerat
placering
placeringar
plag
plagi
plaine
plan
plana
planen
planer
planerad
planerade
planerades
planerar
planeras
planerat
planering
planerna
planet
planeten
planeter
planina
plant
plast
plat
plata
platan
platina
platnick
platon
plats
platsen
platser
platserna
platt
platta
plattbuk
plattbuksspindlar
plattform
plattmaskar
plattmaskart
platy
platyc
platygaster
platyp
platypalpus
platys
play
playa
playoff
playst
playstation
plaza
ple
pleb
plebejus
plect
plectris
pleospor
pleosporales
pleur
pleuroth
pleurothallis
pli
plock
plots
plotsligt
plum
plund
plur
plural
plus
plut
po
poa
poang
pob
poc
pocock
pod
podgor
podgorica
poe
poec
poecil
poem
poes
poesi
poet
poeten
pog
pogon
poh
point
pointe
poj
pojk
pojkar
pojke
pojken
pok
poker
pol
pola
polar
polaris
pole
polen
polens
poli
polis
polisen
poliser
polit
politik
politiken
politiker
politikern
politischer
politisk
politiska
politiskt
polk
polkinghorne
poll
pollen
polsk
polska
poly
polyc
polyg
polygala
polym
polyn
polyp
polypedilum
polypod
polypodiaceae
polyrhachis
polyst
polystichum
polyt
pom
pommern
pomp
pon
pond
pong
ponn
pont
ponta
ponte
pontus
pool
pop
popp
pops
popul
popular
populara
popularaste
popularitet
populark
populart
population
populationen
populationer
por
porc
porcelli
porn
porph
pors
porsche
porslin
port
porta
portal
porten
porter
portez
portezuelo
portillo
portland
porto
portrat
portratt
portug
portugal
portugis
portugisiska
porvenir
pos
posht
poshteh
posit
position
positionen
positioner
positiv
positiva
positivt
post
posten
poster
postumt
pot
potam
potat
potatis
potatisslaktet
potatisvaxtart
potatisvaxter
potent
potential
potentilla
potok
potosi
potsdam
pott
potter
pottiaceae
pou
poul
pour
pow
powell
power
poz
pozo
pr
pra
pradesh
prag
pragel
praglade
praglades
praglas
praia
prakt
praktfjarilar
praktik
praktiken
praktisk
praktiska
praktiskt
pram
pras
prast
prasten
praster
prastgard
prastvig
prastvigdes
prat
prata
pre
precis
pred
predik
predikant
predikstolen
prefect
prefecture
prefekt
prefektur
prefekturen
prel
prem
premi
premiar
premiaren
premiarminister
premiarministern
premiarvisades
premier
pren
prep
prepar
pres
present
presenter
presenterade
presenterades
presenterar
presenteras
president
presidenten
presidentvalet
press
pressen
prest
prestand
prestanda
prestig
prestigef
pret
preuss
preussen
preussiska
prev
pri
price
prick
prim
prima
primar
primara
primarstjarnan
primera
primtal
primula
prin
prince
princi
princip
principen
principer
prins
prinsen
prinsessa
prinsessan
prion
prior
priori
pris
prisbel
priser
priset
prist
pristim
pristimantis
pristina
prit
priv
privat
privata
privatliv
privatpersoner
privileg
privilegier
prix
pro
prob
problem
problemen
problemet
proc
procent
process
processen
processer
prod
produc
producent
producenten
producenter
producera
producerad
producerade
producerades
producerar
produceras
producerat
product
productions
produkt
produkten
produkter
produktion
produktionen
produktioner
produktions
produktiv
prof
profess
profession
professionell
professionella
professor
professorn
professors
professur
professuren
profeten
proff
proffs
profil
prog
program
programledare
programm
programmen
programmet
programvara
progreso
progress
progressiva
proj
project
projekt
projektet
prom
promen
promover
promoverades
pron
pronomen
prop
propag
propaganda
propeller
proport
proportion
proposition
pros
prosa
prosop
prost
prostitu
prot
prota
prote
proteaceae
protein
proteiner
protest
protestant
protestantiska
protester
protokoll
proton
prototyp
prout
prov
prova
proven
provence
provfiske
provid
provin
province
provincia
provincial
provins
provinsen
provinser
provinserna
provinsh
provinshuvudstaden
provinsi
provisor
prox
pru
pry
pryd
prydnad
ps
psal
psalm
psalmbok
psalmen
psalmer
psamm
pse
pseud
pseudo
pseudob
pseudoc
pseudoh
pseudom
pseudon
pseudonym
pseudonymen
pseudop
pseudoph
pseudos
pseudot
psil
psor
psych
psychoda
psychotria
psyk
psykiat
psykisk
psykiska
psyko
psykolog
psykologi
psykologiska
psylla
pt
pter
pteridaceae
pteris
pterolophia
ptil
ptol
ptych
pu
pub
pubescens
publi
public
publicera
publicerad
publicerade
publicerades
publiceras
publicerat
publicerats
publicist
publik
publikationer
publiken
puc
puccin
puccinia
puck
puckeldansflugor
puckelflugor
pud
pue
puebla
pueblo
puente
puerto
pug
puig
puk
pul
pula
pulau
pulch
pulchella
pulcher
pulchra
puli
pull
pulver
pum
pump
pun
punct
punctata
pund
pung
punjab
punk
punkt
punkten
punkter
punt
punta
pup
pupp
puppg
puppglanssteklar
pur
purp
purpur
pus
push
pushtah
pusilla
puss
pust
put
puts
puy
py
pyc
pycn
pyg
pygm
pyong
pyongyang
pyr
pyram
pyramid
pyren
pyrene
pyrenees
pyrg
pyth
qa
qaasu
qaasuitsup
qab
qafa
qal
qala
qalaat
qar
qara
qarah
qarat
qark
qarku
qas
qatar
qay
qayah
qaz
qazvin
qe
qer
qesh
qez
qezel
qim
qimmat
qin
qing
qol
qolleh
qor
qornet
qu
quad
quart
que
queb
quebec
quebrada
queen
queens
queensland
quem
quer
quercus
quin
quint
quito
qur
ra
raa
rab
rabat
rac
race
racer
racerforare
rach
racing
racingkarriar
rack
racker
rackte
rackvidd
rad
rada
radande
radar
radcliffe
radd
radda
raddade
radde
raddning
raddnings
raden
rader
radet
radets
radgivare
radhus
radhuset
radi
radial
radie
radik
radikal
radikala
radio
radiop
radioprogram
radios
radiost
radsla
radsomradet
raf
rafael
rag
ragg
ragn
ragnar
rah
rail
railway
rain
rainbow
rainy
raj
rajast
rajasthan
rak
raka
rakade
rakar
raket
rakna
raknade
raknades
raknar
raknas
raknat
rakning
rakt
ral
rall
rally
ralph
ram
ramb
ramen
ramire
ramirez
ramm
ramon
ramos
ramp
ran
ranch
rancho
rand
randall
rang
range
rangers
rank
rankade
rankades
rann
rant
ranunculus
ranunkel
ranunkelvaxtart
ranunkelvaxter
ranunkler
rap
rapides
rapids
rapp
rapport
rapporten
rapporter
rapporterade
rapporterades
ras
raseborg
rasen
raser
rash
rasmus
rast
rat
rath
ratific
ration
ratt
ratta
rattegang
rattegangen
ratten
rattfard
rattigheter
rattigheterna
ratts
rattsliga
rattvis
rattvisa
rau
rauno
raut
rav
raven
ravin
raw
ray
raym
raymond
rayon
rayonu
raz
rc
re
rea
read
reag
reaktion
reaktioner
real
realism
reb
rebel
rec
recens
recension
recensioner
recept
rech
record
records
rect
red
reda
redakt
redaktion
redaktionen
redaktor
redan
reder
rederi
redig
redigerade
redo
redog
redondo
redovis
redskap
reduc
reed
reeder
ref
refer
referens
referenser
refererar
reflekt
reflex
refor
reform
reformationen
reformer
reg
regel
regelbunden
regelbundet
regelbundna
regement
regemente
regementet
regent
regerade
regerande
regering
regeringar
regeringen
regeringens
regerings
regeringschef
regeringstid
regg
reggae
regi
regier
regierungsb
regierungsbezirk
regim
regimen
regin
regina
region
regional
regionala
regionalt
regionen
regionens
regioner
regionerna
regionhuvudstaden
regiss
regisserad
regisserade
regisserades
regisserat
regissor
regissoren
register
registr
registrerade
registrerades
registrering
regler
reglerar
regleras
reglerna
regn
regnigaste
regnskog
regnskogsklimat
regul
reh
rehn
reich
reichenbach
reid
rein
reinhard
reinhold
rej
rek
reka
rekl
reklam
rekommen
rekommend
rekommender
rekonst
rekonstru
rekord
rekordet
rekry
rekt
rektang
rektor
rel
relaterade
relation
relationen
relationer
relationerna
relativ
relativt
rele
relief
relig
religion
religionen
religioner
religios
religiosa
religiost
relizane
rem
rema
remi
remix
ren
rena
renass
renassans
renassansen
renault
rend
rene
reng
renod
renover
renoverades
renovering
rens
rent
rep
repar
reperto
repertoar
repet
report
reportage
reporter
repres
represent
representant
representanter
representanthuset
representation
representer
representera
representerad
representerade
representerar
representeras
representerat
repris
reproduc
reproducerande
reproducerar
rept
republi
republik
republika
republikan
republikansk
republikanska
republiken
republikens
res
resa
resan
resande
rese
research
resen
reser
reserv
reservat
reservatet
reserve
reserver
reservo
reservoar
reservoir
residens
reson
resor
resp
respekt
respektive
rest
restaur
restaurang
restaurangen
restauranger
restaurerades
restaurering
reste
resten
rester
resterande
resterna
restes
resul
result
resultat
resultaten
resultatet
resulterade
resulterar
resurser
ret
reticulata
retir
retor
retur
reuter
rev
revid
revir
revis
revision
revol
revolut
revolution
revolutionara
revolutionen
revs
revy
rex
rey
reyes
reyk
reykjavik
reyn
reynolds
rf
rh
rhabd
rhac
rhag
rhamph
rhamphomyia
rhaph
rhe
rhein
rheinland
rhen
rhin
rhip
rhiz
rhod
rhode
rhodes
rhododendron
rhomb
rhone
rhopal
rhyac
rhyacophila
rhynch
rhyt
ri
ria
riacho
riau
rib
ribb
ribeira
ribeirao
ric
rica
ricardo
rice
rich
richard
richards
richardson
richmond
richter
rick
rico
rid
ridd
riddar
riddare
riddarhuset
ridder
ridge
ridley
rif
rig
riga
right
rij
rijeka
rik
rika
rikard
rikaste
rike
rikedom
riket
rikets
riks
riksantik
riksb
riksbank
riksd
riksdag
riksdagen
riksdagens
riksdags
riksdagsledamot
riksdagsman
riksdagsvalet
riksdaler
riksdelen
riksforbund
riksrad
riksradet
riksvag
rikt
riktad
riktade
riktar
riktig
riktiga
riktigt
riktning
riktningar
riktningen
riley
rim
rin
rincon
ring
ringa
ringar
ringen
ringmaskar
ringmaskart
rinner
rio
riodinidae
rioja
rios
rip
ris
risk
risken
rist
rit
rita
ritad
ritade
ritades
ritat
ritningar
riv
riva
rival
rivas
river
riviere
riz
ro
road
roadracing
rob
robb
rober
robert
roberto
roberts
robertson
robin
robineau
robinson
robot
robotar
roboten
robust
robusta
roc
roch
roche
rock
rockband
rockbandet
rockgruppen
rocks
rocky
rod
roda
rodahavsregionen
rodbrun
rodd
roddare
roddt
roddtavlingarna
rodlistan
rodnik
rododendron
rodolfo
rodrig
rodrigues
rodriguez
rog
roger
rogers
roh
roj
rok
rol
roland
rolf
roll
rollen
roller
rollerna
rollfigur
rolling
rom
roma
roman
romanen
romaner
romanis
romant
romantisk
romantiska
romar
romarna
romeo
romer
romersk
romerska
roms
ron
ronald
rond
ronn
ronneby
ront
rontgen
rook
roos
roosev
roosevelt
rop
ror
rora
rorande
rorde
rorels
rorelse
rorelsen
rorelser
rorliga
rort
ros
rosa
rosario
rose
rosen
rosenberg
roslag
ross
rossi
rost
rosta
rostade
rosten
roster
rosterna
rostock
rostratt
rosvaxtart
rosvaxter
rot
rotation
roten
roterande
roth
rothschild
rott
rotter
rotterdam
rotund
rou
roua
rouge
round
rov
rovan
rovaniemi
rovdjur
rovflugor
row
rox
roy
royal
roz
rt
ru
rub
rubrik
rubus
rubusar
rud
rudbeck
rudolf
rudolph
ruellia
ruf
rufescens
rug
rugby
ruin
ruiner
ruisseau
ruiz
rujm
rul
rull
rum
rumanien
rumansk
rumanska
rummet
run
rund
runda
rundan
rundbladloppor
rundmaskar
rundmaskart
rune
runor
runsten
runt
runtom
rup
rupert
rur
rurale
rus
rush
russ
russell
rust
rut
rutelidae
ruth
rutt
ruv
rw
ry
ryan
ryd
rydberg
rygg
ryggen
ryggrad
ryggradslosa
rykt
rykte
rykten
rym
rymd
rymde
rymden
rymdfar
rymdstationen
rymmer
ryong
rys
rysk
ryska
ryske
ryskt
ryss
ryssarna
ryssjenattslandor
ryssland
rysslands
ryt
rytm
rytt
ryttare
rø
sa
saab
saar
saari
saarijarvi
sab
sabz
sac
sacc
saccardo
sacchar
sach
sachs
sachsen
sack
sackspinnare
sad
sadan
sadana
sadant
sadd
sade
sadeltak
sades
saf
safed
saff
sag
saga
sagan
sagas
sagen
sager
sagitt
sagor
sags
sagt
saguenay
sagverk
sah
sahara
sahl
said
saimen
saint
sainte
saj
sak
saken
saker
sakerhet
sakerhets
sakerstalla
sakert
sakkunnig
saknade
saknades
saknar
saknas
sakra
sakrist
sakristia
sakristian
sakta
sal
sala
salam
salamanca
salar
salda
salde
saldes
sale
saledes
salem
salen
salic
salinas
salix
salja
saljas
saljer
saljs
sall
sallan
sallskap
sallskapet
sallsyn
sallsynt
sallsynta
salmon
salo
salomon
salong
salt
salta
salto
salts
saltsjo
saltsjob
salu
salunda
salv
salvador
salzburg
sam
samarbet
samarbeta
samarbetade
samarbetar
samarbetat
samarbete
samarbetet
samarbets
samband
samer
samfund
samfundet
samhall
samhalle
samhallen
samhallet
samhallets
samhalls
samhallsvetenskap
samiska
samla
samlade
samlades
samlar
samlare
samlas
samlat
samling
samlingar
samlingarna
samlingen
samlings
samlingsalbum
samlingsut
samlingsutstallningar
samma
samman
sammanfatt
sammanhang
sammanhangande
sammanhanget
sammanlagt
sammans
sammansatt
sammansattning
sammanslag
sammanslagning
sammanslagningen
sammanslut
sammant
samoa
samord
samp
samre
samsta
samt
samtal
samtid
samtida
samtidigt
samtliga
samu
samuel
samverkan
san
sanchez
sanct
sand
sanda
sandas
sandberg
sandbin
sanddyn
sande
sandebud
sandeltrad
sandeltradsvaxter
sander
sandes
sandning
sandningar
sandor
sands
sandsten
sandy
sang
sangar
sangare
sangaren
sangen
sanger
sangerna
sangerska
sangerskan
sangu
sank
sanka
sankmarker
sankt
sankta
sanktes
sann
sanna
sanning
sanningen
sannoli
sannolik
sannolikhet
sannolikt
sans
sanskrit
sant
santa
santana
santander
santi
santiago
santo
santos
sao
saone
sap
sapotaceae
sapp
saq
saqiet
sar
sara
sarab
sarah
sarajevo
sarbar
sarc
sarcophaga
sard
sardinien
sare
sarg
sari
sark
sars
sarskil
sarskild
sarskilda
sarskilt
sart
sas
saskat
saskatchewan
sasom
sason
sasong
sasongen
sasongens
sasonger
sasongerna
sass
sat
satak
satakunta
satan
sate
satelli
satellit
sater
sateri
sates
satir
sats
satsa
satsade
satsning
satt
satta
sattas
satte
satter
sattes
sattet
satts
satur
satyrus
sauc
saud
saudiarab
saudiarabien
saul
saur
saura
saurauia
sauss
saussure
saut
sauv
sav
saval
savann
savannklimat
savannskog
save
savolax
saw
sax
saxif
saxifraga
saxofon
say
sc
scab
scal
scand
scandinav
scap
scaph
scapt
scar
scb
scel
scelionidae
scen
scenen
scener
sch
scha
schack
schaf
schaffer
schaus
sche
scheff
schefflera
schel
schen
schist
schiz
schl
schle
schlech
schlechter
schles
schlesien
schleswig
schloss
schm
schmid
schmidt
schne
schneider
scho
schoen
schol
schon
school
schroder
schul
schult
schultz
schum
schumacher
schumann
schw
schwar
schwarz
schwein
schweiz
schweizisk
schweiziska
schwerin
sci
scien
science
scient
scler
scol
scolop
scop
scopula
scot
scotia
scott
scout
scre
scut
sd
se
sea
sean
seat
seattle
seb
sebast
sebastian
sec
seca
seccion
seco
second
secret
section
secur
sed
sedan
seder
sedermera
sedvan
see
sef
sefid
seg
sega
segel
segelt
segeltrollslandor
seger
segern
seglade
seglare
segling
segment
segrade
segrande
segrar
segrare
seh
sei
seine
sek
sekel
sekelskiftet
sekret
sekreterare
sekt
sektion
sektionen
sektioner
sektorn
sekund
sekundar
sekunder
sel
selag
selaginella
selatan
selekt
selen
sell
selma
sem
semat
semester
semi
semif
semifinal
semifinalen
semin
semiothisa
semnan
sen
sena
senare
senast
senaste
senat
senaten
senator
senators
senegal
senior
sens
sent
seoul
sep
separ
separat
separata
separerade
sept
septem
september
ser
sera
serb
serbien
serbisk
serbiska
serg
serge
sergej
sergey
sergius
seri
seric
serica
serie
serief
serien
seriens
serier
serierna
series
seriet
sermer
sermerso
sermersooq
serp
serpent
serra
sert
serv
server
serveras
servic
service
ses
sess
set
sett
setts
sev
sevard
sevardheter
seven
sever
sevilla
sex
sexa
sexton
sexuell
sexuella
sexuellt
sey
seym
seymour
seyy
seyyed
sf
sg
sh
sha
shaan
shaanxi
shab
shad
shah
shahr
shak
shakes
shakespe
shakespeare
shakespeares
shakh
sham
shan
shand
shandong
shang
shanghai
shannon
shar
shark
sharp
shaw
shay
shaykh
she
shef
sheffield
shek
shekasteh
shel
shelah
shen
shenyang
sher
shet
shey
sheykh
shi
shim
shin
ship
shir
shire
shl
sho
shog
shor
short
show
shu
shuiku
shur
si
sia
siah
sib
sibiri
sibirien
sic
sich
sichuan
sicilien
sick
sid
sida
sidan
side
siden
sidi
sidney
sido
sidor
sidorna
sie
sieg
sierra
sif
siff
siffran
siffror
siffrorna
sig
sigfrid
sigill
sigism
sigismund
sign
signal
signaler
signatur
signe
sigrid
sigtuna
sigurd
sik
sikt
sil
sila
silene
silj
silkes
sill
silv
silva
silver
silvermedalj
silvermedaljor
silvest
silvestri
sim
similis
simm
simmare
simon
simp
simplex
simpson
simpsons
simris
simulium
sin
sina
sinaloa
sincla
sinclair
sind
sinensis
sing
singap
singapore
singel
singelli
singellistan
singeln
singer
singh
singlar
singlarna
singularis
sinn
sinness
sion
sip
siph
siphon
sir
siri
sirius
sis
sist
sista
sistan
siste
sistnamnda
sit
sitt
sitta
sittande
sitter
sittplatser
situ
situation
situationen
situationer
siv
six
siyah
sj
sjal
sjalland
sjalv
sjalva
sjalvbet
sjalvbetit
sjalvbetitlade
sjalvbi
sjalvbiografi
sjalvbiografiska
sjalvmord
sjalvstand
sjalvstandig
sjalvstandiga
sjalvstandighet
sjalvstandigt
sjalvstyr
sjalvstyre
sjatte
sjo
sjoar
sjoarna
sjob
sjoberg
sjofart
sjog
sjogren
sjok
sjom
sjoman
sjon
sjong
sjonk
sjons
sjoprocent
sjopung
sjopungsart
sjor
sjos
sjosattes
sjoss
sjost
sjostjarneart
sjov
sju
sjuk
sjuka
sjukdom
sjukdomar
sjukdomen
sjukhus
sjukhuset
sjukskoter
sjukvard
sjun
sjunde
sjung
sjunga
sjunger
sjunk
sjunker
sjutt
sjutton
sk
ska
skad
skada
skadad
skadade
skadades
skade
skadespel
skadespelare
skadespelaren
skadespelarna
skadespelerska
skadespelerskan
skadestand
skador
skaff
skaffa
skaffade
skaft
skagg
skak
skal
skala
skalan
skalb
skalbagg
skalbaggar
skalbaggsart
skald
skalet
skall
skalskoldloss
skam
skamt
skan
skand
skandal
skandinav
skandinavien
skandinaviska
skane
skanes
skankte
skans
skansen
skanska
skap
skapa
skapad
skapade
skapades
skapande
skapandet
skapar
skapare
skapas
skapat
skapats
skar
skara
skaraborgs
skargard
skargarden
skargardshavet
skarm
skarp
skarpa
skarpt
skat
skatt
skatte
skatter
ske
sked
skedde
skede
skel
skelett
skelle
skelleftea
sken
skenbar
skepp
skeppet
skepps
skept
sker
skett
ski
skick
skicka
skickade
skickades
skickar
skickas
skicklig
skicklighet
skid
skidor
skift
skik
skikda
skikt
skil
skild
skilda
skilde
skildes
skildrade
skildrar
skildras
skildring
skildringar
skilj
skilja
skiljer
skiljs
skill
skillnad
skillnaden
skillnader
skillnaderna
skilsmassa
skin
skinkar
skinn
skiv
skiva
skivan
skivbolag
skivbolaget
skivkontrakt
skivor
skj
skjut
skjuta
skjuter
sko
skog
skogar
skogen
skogs
skogsb
skogsbruk
skogsbygd
skol
skola
skolan
skolans
skold
skoldlussteklar
skoldpadd
skolk
skolor
skolorna
skom
skon
skonhet
skonlitter
skop
skopje
skor
skord
skorp
skot
skota
skoter
skots
skotsk
skotska
skott
skottar
skotte
skottland
skov
skovde
skra
skrack
skrad
skram
skratt
skrev
skrevs
skri
skribent
skrid
skrift
skriften
skrifter
skriftliga
skriftstallare
skriv
skriva
skrivas
skriven
skriver
skrivet
skrivit
skrivits
skrivna
skrivs
skrot
skrov
skruv
skugg
skugga
skul
skuld
skulder
skull
skulle
skulpt
skulptor
skulptoren
skulptur
skulpturen
skulpturer
skur
skvadron
sky
skydd
skydda
skyddad
skyddade
skyddar
skyddas
skyddat
skydds
skyl
skyld
skyldig
skylt
skym
skytt
sl
sla
slag
slagen
slaget
slagit
slags
slakt
slakte
slakten
slaktestillhorighet
slaktet
slakting
slaktingar
slaktskap
slalom
slam
slang
slap
slapp
slappa
slappas
slapper
slapps
slappt
slappte
slapptes
slappts
slar
slas
slass
slat
slatt
slatter
slav
slavar
slaver
slaviska
sle
slem
slemmaskar
sli
slide
slidevaxtart
slidevaxter
sling
slip
slit
slo
slog
slogs
slojd
slot
slots
slott
slottet
slotts
slov
slovak
slovakien
sloven
slovenien
slovenska
slump
slussen
slut
sluta
slutade
slutar
slutat
sluten
slutet
slutgilt
slutgiltiga
slutliga
slutligen
sluts
slutsatsen
slutspel
slutspelet
slutt
sluttar
sm
sma
smab
smaharkrankar
smak
smakackerlackor
smal
smala
smaland
smalands
smalare
smalb
smalbin
small
smalt
sman
smanattslandor
smaningom
smaort
smaorten
smaorter
smar
smarre
smart
smarta
smed
smek
smeknamn
smeknamnet
smhi
smid
smil
smith
smithi
smitt
smor
smorbult
smorbultsfiskar
smugg
smyck
sn
sna
snabb
snabba
snabbare
snabbaste
snabbt
snack
snackart
snackor
snapp
snar
snarare
snart
sned
snick
snitt
sno
snokar
snorre
snow
snylt
snyltrots
snyltrotsvaxtart
snyltrotsvaxter
so
sob
soc
soci
social
sociala
socialdemokrat
socialdemokraterna
socialdemokratisk
socialdemokratiska
socialist
socialistiska
socialt
societ
society
sock
socken
sockenhuvudort
sockenkyrkan
socker
socknar
socknen
socknens
sod
soder
soderb
soderberg
soderhamn
soderhamns
sodermalm
sodermanland
sodermanlands
sodertalje
sodertorn
soderut
sodra
sof
sofia
sofla
soft
sog
soika
soj
sojuz
sok
soka
sokande
soker
sokt
sokte
sol
solan
solanum
sold
soldat
soldater
soldaterna
soledad
solen
solens
soli
solid
solidar
solit
soll
solle
solleftea
sollentuna
solm
solna
solo
soloalbum
soloartist
solokar
solokarriar
som
somalia
somers
somerset
somliga
somm
sommar
sommaren
sommarspelen
sommart
sommartid
somme
sommer
somn
somrarna
son
sond
sondag
sondagen
sonder
sonen
soner
sonerna
song
songs
sonic
sons
sonson
sony
sop
soph
sophia
sophie
sopran
sor
sord
sordari
sordariomycetes
sorg
sorgmyggor
sork
sorkh
sorm
sors
sorsele
sort
sorter
sorters
sorts
sos
sot
sotvatten
sou
soul
sound
soundtrack
sour
sous
souss
south
southern
sov
sovjet
sovjetisk
sovjetiska
sovjetun
sovjetunionen
sovjetunionens
sow
sp
spa
space
spad
span
spanien
spaniens
spanjor
spann
spanning
spannmal
spansk
spanska
spar
spara
sparas
sparbank
sparen
sparet
spark
sparken
sparre
sparris
sparrisvaxtart
sparrisvaxter
spart
sparvag
sparvagn
spat
spath
spathius
spe
spec
speci
special
specialiserad
specialiserade
specialist
speciell
speciella
speciellt
specif
specific
specifik
specifika
specifikt
spect
specta
speed
speedway
speg
spegel
speglar
spek
spekt
spektak
spektral
spektralklass
spektrum
spekul
spel
spela
spelad
spelade
spelades
spelar
spelare
spelaren
spelarkarriar
spelarna
spelas
spelat
spelats
spelen
spelet
spelets
spelning
spelningar
spels
speltid
spen
spencer
sper
sperm
spet
spets
spetsen
sph
sphaer
sphec
sphen
spi
spik
spil
spill
spilosoma
spin
spind
spindel
spindelart
spindeldjur
spindeldjursart
spindlar
spinn
spinosa
spion
spir
spira
spiral
spirit
spiro
spiror
spirostre
spitze
spjut
spl
split
splitt
splittrades
spok
spong
spons
spont
spor
sporad
sporr
sporrstritar
sporsack
sporsacksvampar
sport
sporten
sporter
sports
spott
spottstritar
sprak
spraken
spraket
sprakliga
sprang
spred
spreds
spreng
sprick
sprid
sprida
spridd
spridda
spridning
sprids
sprin
spring
springa
springer
springfield
springs
sprint
sprit
spru
spruce
spy
spyflugor
squ
squam
square
sr
sred
sri
srp
srpska
ss
ssr
st
sta
stab
stabil
stabilis
stabschef
stack
stad
staden
stadens
stader
staderna
stadion
stadium
stads
stadsarkitekt
stadsb
stadsbibliotek
stadsd
stadsdel
stadsdelar
stadsdelarna
stadsdelen
stadsdels
stadsdistrikt
stadsdistriktet
stadsegron
stadsfullmaktige
stadshus
stadsk
stadskarnan
stadskommun
stadsm
stadsmuseum
stadsplan
stadsrattigheter
stadsteater
staende
staf
stafett
staff
staffan
stahl
stal
stalin
stall
stalla
stallas
stallde
stalldes
stalle
stallen
staller
stallet
stallforet
stallforetradande
stallning
stalls
stallt
stam
stambanan
stamfader
stamm
stamma
stammar
stammen
stammer
stammor
stamp
stan
stand
standard
standarden
standiga
standigt
standley
standpunkt
stang
stanga
stangde
stangdes
stanis
stanley
stann
stanna
stannade
stannar
stap
stapeln
stapf
stapp
stappklimat
star
stark
starka
starkare
starkaste
starkt
starr
starrar
stars
start
starta
startade
startades
startar
startat
starten
starter
stat
state
staten
statens
stater
staterna
states
station
stationen
stationer
stationerna
statist
statistik
statistiska
statlig
statliga
statligt
stats
statsk
statskupp
statsminister
statsrad
statsradet
statssekreterare
statsvetenskap
statt
status
staty
statyn
stau
staud
staudinger
staur
stav
stavat
stavning
stavningen
ste
steel
steen
stef
stefan
steg
steget
steiermark
stein
stek
stekelart
steklar
stel
stelis
stell
stem
sten
stenaldern
stenar
stenb
stenbock
stenbrack
stenen
steng
stenkrypare
stens
stensote
stensotevaxtart
stent
step
steph
stephan
stephen
stephens
ster
stere
stern
stev
steve
steven
stevens
stewart
steyer
steyermark
stich
stick
stickmyggor
stict
stiern
stift
stiftelse
stiftelsen
stig
stiger
stigmat
stil
stilen
stilett
stilettflugor
still
stilla
stillahav
stilleben
stim
stina
stip
stipend
stipendium
stir
stj
stjarn
stjarna
stjarnan
stjarnans
stjarnbild
stjarnbilden
stjarnor
stjarnorna
stjart
stjarten
sto
stock
stockholm
stockholms
stod
stodde
stoder
stodet
stodja
stodjer
stoft
stok
stol
stolt
stom
ston
stone
stones
stop
stopp
stoppa
stoppades
stor
stora
storb
storbritann
storbritannien
storbritanniens
store
storh
storharkrankar
storhet
storhetstid
storlek
storleken
storm
storningar
storre
stors
storskal
storst
storsta
storstad
storstadsomrade
storstadsomradet
storstadsregionen
stort
story
stot
stott
str
stra
strack
stracka
strackan
stracker
strackning
strackor
strackte
straff
strak
stral
stralning
stram
stran
strand
stranden
strander
strandlinjen
strang
strangnas
strat
strateg
strategi
strategiska
strauss
strav
stravan
stravbladig
stravbladiga
strax
straz
stre
streck
stred
street
strejk
strept
stress
stri
striata
strid
striden
strider
striderna
strids
stridsvagn
stridsvagnar
strig
strikt
strim
strind
strindberg
stro
strobil
strobilanthes
strom
stromberg
stromm
strommen
stromsunds
strong
strongyl
stru
struktur
strukturen
strukturer
strum
strup
stry
stu
stuart
stubb
stuck
stud
studen
student
studenten
studenter
studenterna
studentexamen
studentkar
studer
studera
studerad
studerade
studerar
studerat
studi
studie
studien
studier
studieresor
studierna
studies
studiet
studio
studioalbum
studioalbumet
studion
studios
stum
stump
stumpbaggar
stund
stup
stupade
stur
sture
stutt
stuttgart
sty
styck
stycke
stycken
stycket
styg
styl
stylt
styltflugor
styltmalar
styr
styra
styrande
styrde
styrdes
styre
styrelse
styrelseled
styrelseledamot
styrelsen
styrelseordforande
styret
styrk
styrka
styrkan
styrkor
styrkorna
styrman
styrs
styv
su
sub
subarkt
subc
subjekt
subst
substant
substantiv
subt
subtropiskt
suc
succe
success
successivt
such
sucre
sud
sudan
sudbury
sue
suf
suff
suffolk
sug
suk
sul
sula
sulaw
sulawesi
sulayman
sulli
sullivan
sult
sultan
sum
sumak
sumakvaxter
sumat
sumatera
sumba
summa
summan
summer
sump
sumpmark
sun
sund
sundby
sundet
sundsvall
sundsvalls
sune
sung
sunn
sunne
sup
super
superb
superettan
supp
supple
suppleant
support
supporter
sur
sura
surf
surin
surkh
sus
susan
sussex
sut
sutt
suttit
sutton
suv
suva
suver
suz
suzuki
sv
svag
svaga
svagare
svager
svagt
sval
svalb
svalt
svamp
svampar
svampart
svampdjursart
svampmyggor
svan
svang
svans
svansen
svanslangd
svante
svar
svara
svarade
svarar
svarare
svard
svarigheter
svarmare
svart
svarta
svav
svavel
svavflugor
sve
svea
svealand
sved
sven
svens
svensk
svenska
svenskan
svenskar
svenskarna
svenske
svensksprakiga
svenskt
svensktoppen
svensson
sver
sverig
sverige
sverigedemokrat
sveriges
svet
sveti
svid
svidknott
svin
svt
sw
swa
swamp
swan
swartz
swed
sweden
swedish
sweet
swin
swinhoe
sy
sybra
syd
sydaf
sydafrik
sydafrika
sydamerika
sydegeiska
sydkore
sydkorea
sydkoreansk
sydlig
sydliga
sydligaste
sydney
sydost
sydostasien
sydostra
syds
sydshet
sydshetlandsoarna
sydvast
sydvastra
syf
syft
syfta
syftade
syftar
syfte
syftet
syl
sylv
sylvain
sylvia
sym
symb
symbol
symbolen
symboler
symboli
symbolis
symboliser
symboliserar
symfon
symfoni
symmet
symp
sympat
symph
sympl
symploc
symplocos
sympt
symptom
symtom
syn
syna
synd
syndrom
synen
synes
synlig
synliga
synner
synnerhet
synnerligen
synonym
syns
synt
syntes
synth
syr
syra
syre
syri
syrien
syriska
syrsor
syskon
syss
syssels
syst
system
systematik
systemet
systems
syster
systern
systrar
systrarna
syz
syzygium
sz
szep
szeplig
szepligeti
sø
søn
sør
ta
tab
tabanus
tabell
tabellen
taby
tac
tach
tack
tacka
tackade
tacker
tacks
tackt
tackta
tackvavarspindlar
tad
tae
taen
taeni
taf
tafil
tafilalet
tag
tage
tagen
taget
tagg
taggar
tagit
tagits
tah
tai
taip
taiwan
taj
tak
takah
take
taket
takht
takt
tal
tala
talade
talang
talar
talare
talas
talat
talb
talbot
talen
tales
talet
talets
talk
tall
tallet
tallinn
talman
talrika
tals
talt
tam
tama
taman
tamanrasset
tamar
tamb
tamer
tamerlan
tamil
tamligen
tamm
tammer
tammerfors
tamp
tan
tana
tand
tander
tandspinnare
tanete
tang
tangeh
tangent
tanger
tanjung
tank
tanka
tankande
tankar
tanke
tanken
tanker
tankes
tankt
tankte
tann
tant
tanytarsus
tanz
tanzania
taoun
taounate
taour
tap
tapah
tapets
tapetserar
tapetserarbin
tapp
tappade
tappeh
taq
tar
tara
tarap
tarapaca
tarf
tari
tarm
tarn
tarna
tars
tart
taruik
tas
tasman
tasmanien
tass
tat
tata
tatbebygg
tatbebyggt
tatbefolkad
tatbefolkat
tatort
tatorten
tatorter
tatortsgraden
tatt
tattingar
tau
taube
taung
taur
tav
tavast
tavaste
tavastehus
tavastland
tavla
tavlade
tavlan
tavlande
tavlar
tavlat
tavling
tavlingar
tavlingarna
tavlingen
tavlings
tavlingscyk
tavlingscyklist
tavlor
taw
tax
taxon
taxonom
taxonomi
tay
tayg
taygh
taylor
taz
taza
tbilis
tbilisi
tch
te
tea
team
teamet
teat
teater
teatern
teaterns
teatrar
teb
tec
tech
techn
technology
teck
tecken
tecknad
tecknade
tecknare
teckning
teckningar
tecknings
tect
ted
teen
teg
tegel
tegelbruk
tegner
tegucigalpa
teh
teheran
tej
tek
tekn
teknik
tekniken
tekniker
teknisk
tekniska
tekniskt
teknologi
tel
telaga
tele
telef
telefon
teleg
telegraf
telek
teleskop
television
tell
teluk
tem
tema
teman
temat
temisc
temiscam
temiscamingue
temp
tempel
temper
temperatur
temperaturen
temperaturer
tempererade
tempererat
templet
tempo
tempor
ten
tend
tendens
tenderar
tener
teng
tengah
tenggara
teniet
tenn
tennes
tennessee
tennis
tennisspelare
tens
tensift
tent
tenu
tenuis
teodor
teolog
teologi
teologie
teologiska
teor
teoretisk
teoretiska
teori
teorier
teorin
tep
teph
tephrosia
ter
terara
tereb
teresa
terg
term
termen
termer
termin
terminal
tern
terra
terran
terrang
terrangen
terre
territ
territor
territori
territorier
territories
territoriet
territoriets
territorium
territory
terror
terrorist
terry
tes
tess
tessin
test
testa
testament
testamente
testamentet
tester
tet
teto
tetouan
tetra
tetrac
tetrag
tetram
tetramorium
tetran
tetranychidae
tetrast
teuch
tex
texas
text
texten
texter
texterna
textil
th
tha
thailand
thal
thalass
tham
than
that
thaum
the
theater
theatre
thec
thecla
thel
thelypter
thelypteridaceae
thelypteris
them
then
theod
theodor
theodore
ther
there
therese
theridion
thes
thess
thi
thiel
thier
thin
this
thom
thomas
thomp
thompson
thomson
thor
thorac
thorell
thorn
three
thriller
thulin
thun
thunberg
thunder
thur
thuringen
thy
thyr
ti
tian
tib
tibast
tibet
tibetanska
tic
tich
ticino
tid
tiden
tidens
tider
tiderna
tidig
tidiga
tidigare
tidigast
tidigaste
tidigt
tidning
tidningar
tidningarna
tidningen
tidningens
tidnings
tidpunkt
tidpunkten
tids
tidskrift
tidskriften
tidskrifter
tidvis
tier
tierra
tif
tig
tiger
tigh
tigre
tik
til
till
tillag
tillagg
tillamp
tillampas
tillampningar
tillands
tillandsia
tillat
tillata
tillatelse
tillater
tillatet
tillatna
tillats
tillb
tillbak
tillbaka
tillbakad
tillbring
tillbringade
tilldel
tilldelades
tilldelas
tilldelats
tillf
tillfall
tillfalle
tillfallen
tillfallet
tillfallig
tillfalliga
tillfalligt
tillfang
tillfangat
tillfangatogs
tillfoll
tillfor
tillfordes
tillforlit
tillforord
tillforordnad
tillgang
tillgangar
tillgangen
tillganglig
tillgangliga
tillgangligt
tillgod
tillhand
tillhanda
tillhandah
tillhor
tillhora
tillhorande
tillhorde
tillhorighet
tillhorigheten
tillhort
tilli
tillika
tillkann
tillkannag
tillkannagav
tillkom
tillkommit
tillkomst
tillracklig
tillrackligt
tills
tillsammans
tillsattes
tillskriv
tillstand
tillstandet
tillsyn
tillt
tilltal
tilltalsnamn
tilltradde
tilltrade
tillvar
tillvaxt
tillverk
tillverka
tillverkad
tillverkade
tillverkades
tillverkar
tillverkare
tillverkas
tillverkat
tillverkats
tillverkning
tillverkningen
tim
timb
timber
timberlake
timbuktu
time
times
timiskaming
timmar
timmars
timme
timmer
timra
timur
tin
tina
ting
tings
tingslag
tingslaget
tingsratt
tint
tintin
tio
tionde
tiotal
tip
tipp
tipula
tir
tirana
tis
tiss
tit
titan
titel
titeln
titelrollen
titlar
titlarna
titt
tittar
tittare
tittarna
tiv
tiz
tizi
tj
tjan
tjana
tjanade
tjanar
tjanare
tjanst
tjanste
tjansteman
tjansten
tjanster
tjanstgjorde
tjanstgoring
tjar
tje
tjeck
tjeckien
tjeckisk
tjeckiska
tjeckoslov
tjeckoslovak
tjeckoslovakien
tjej
tjern
tjock
tjocka
tjockhuvuden
tjug
tjugo
tjugotal
tjur
tjuv
tl
tla
to
toalet
tob
tobak
tobias
toc
tod
todd
tof
tofs
tofsspinnare
tog
togs
toh
tok
tokyo
tol
toledo
toler
tolf
tolfte
tolima
tolk
tolkas
tolkning
tolkningar
toll
tolv
tom
tomas
tomb
toment
tomm
tomma
tommy
tomt
tomten
tomter
ton
tonar
tonaren
toner
tong
tongivande
tonsatt
tonsattare
tony
top
topografiskt
topp
toppade
toppar
topparna
toppen
tor
tord
torde
tore
torel
torelvaxtart
torelvaxter
torg
torget
tork
torka
torlar
torn
torne
tornea
tornet
torngrashoppor
toro
toronto
torp
torped
torpet
torr
torra
torraste
torre
torres
torsby
torsten
tort
tortyr
torv
tos
tosc
toscana
tot
total
totala
totalt
tott
totten
tou
touch
toul
tour
touren
tov
tow
tower
town
townes
townsen
townsend
tox
toy
tr
tra
trach
trad
tradde
trade
traden
tradet
tradgard
tradgardar
tradgarden
tradgards
tradition
traditionell
traditionella
traditionellt
traditionen
traditioner
traf
traff
traffa
traffade
traffades
traffar
traffas
trafik
trafiken
trafikerade
trafikerar
trafikeras
trag
tragspinnare
train
trajon
trajonvaxtart
trak
trakt
trakten
tral
tram
tran
trana
tranade
tranar
tranare
tranaren
tranas
trang
tranga
traning
tranings
trans
transf
transp
transport
transporter
transportera
trap
trapp
trappa
trask
tratt
trav
tre
trea
trearskontrakt
treb
tred
tredj
tredje
tredjedel
tredjeplats
tree
trelle
trelleborg
trelleborgs
trem
tren
trent
tres
trett
trettio
tretton
trev
tri
triang
triangel
trib
tric
trich
trick
tricolor
trid
trident
trift
trig
trigon
trik
tril
trim
trin
trinidad
trio
trip
tripoli
trippel
tris
trist
trit
trium
triumf
triv
trivial
trivs
tro
troch
trod
trodde
troende
trog
trogen
trogkrypare
trois
troja
trojan
trol
troligen
troligt
troligtvis
troll
trolle
trollhattan
trollkarl
trollslandeart
trom
tron
trond
trondheim
tronen
tronfolj
trop
trophy
tropid
tropiska
tropiskt
tror
tros
trot
trots
trott
trout
tru
trum
truman
trumm
trummis
trummisen
trummor
trump
trumpet
trunc
trupp
truppen
trupper
trupperna
try
tryck
trycka
tryckeri
trycket
tryckt
tryckta
trycktes
trygg
tryp
ts
tsa
tsar
tsaren
tsch
tsun
tt
tu
tub
tuber
tuberc
tuberkul
tuberkulos
tubu
tuc
tucker
tud
tuff
tuk
tul
tula
tull
tum
tumba
tun
tuna
tung
tunga
tungt
tungvikt
tunis
tunisien
tunn
tunna
tunnel
tunnelban
tunnelbana
tunnelbanan
tunnelbanest
tunneln
tunt
tup
tur
turb
turbin
turc
ture
turin
turism
turist
turister
turk
turkiet
turkisk
turkiska
turkmen
turn
turne
turneer
turnen
turner
turnera
turnerade
turnerat
turnering
turneringar
turneringen
turt
tus
tusen
tusentals
tut
tutt
tuv
tux
tv
tv3
tv4
tva
tvaa
tvaan
tvaarskontrakt
tvahjartbladig
tvahjartbladiga
tvang
tvangs
tvar
tvars
tvart
tvartom
tvatt
tvav
tvaving
tvavingar
tvavingeart
tvill
tvilling
tving
tvinga
tvingade
tvingades
tvingas
tvingats
tviv
tvivel
tvung
tvungen
tvungna
tw
twin
two
ty
tyck
tycker
tycks
tyckte
tyd
tyder
tydlig
tydliga
tydligare
tydligt
tyg
tyl
tyler
tym
tyn
tyng
tyngd
tyngre
typ
type
typen
typer
typh
typhl
typhlodromus
typisk
typiska
typiskt
tyr
tyran
tyrann
tyrolen
tysk
tyska
tyskar
tyskarna
tyske
tyskland
tysklands
tyskt
tyst
tz
u21
ub
ubat
ubatar
ubats
uber
uch
ud
udd
udda
udde
udden
uddevalla
uef
uefa
ufc
ug
uganda
ugg
uggla
uh
ujung
uk
ukra
ukraina
ukrainsk
ukrainska
ul
ula
ulaan
ulaanbaatar
ule
uleaborg
ulf
ull
ulla
ullskoldloss
ulric
ulricehamn
ulrich
ulrik
ulrika
ulster
ult
ultim
ultimate
ultra
ulv
um
umb
umea
umm
un
und
undan
undant
undantag
undantaget
under
underart
underarten
underarter
underb
underfamiljen
underg
underhall
underhallning
underhuset
underj
underjord
underjordisk
underjordiska
underk
underl
underlag
underlatta
underlojtnant
underord
underratt
unders
undersida
undersidan
undersok
undersoka
undersokning
undersokningar
undersokningen
undersokt
undersokte
underst
understod
underteck
undertecknade
undertecknades
undervis
undervisa
undervisade
undervisning
undervisningen
undre
undvika
unes
unescos
ung
unga
ungar
ungarna
ungdjur
ungdom
ungdomar
ungdoms
ungdomsforbund
unge
ungefar
unger
ungern
ungerns
ungersk
ungerska
uni
unic
unicolor
uniform
unik
unika
unikt
union
unionen
unionens
united
univers
universal
universitet
universiteten
universitetet
universitetets
universitets
universitetsbibliotek
university
universum
uno
unter
up
upon
upp
uppat
uppbyggd
uppbyggnad
uppd
uppdat
uppdaterad
uppdel
uppdelad
uppdelade
uppdelat
uppdelning
uppdrag
uppdraget
uppe
uppeh
uppehall
uppemot
uppen
uppenbar
uppenbart
upper
uppf
uppfann
uppfanns
uppfatt
uppfattas
uppfattning
uppfattningen
uppfin
uppfinnare
uppflytt
uppfod
uppfolj
uppfoljare
uppfoljaren
uppfor
uppfora
uppforande
uppforandet
uppforas
uppford
uppforda
uppforde
uppfordes
uppfort
uppforts
uppfost
uppfyll
uppfylla
uppfyller
uppg
uppgar
uppgav
uppger
uppges
uppgick
uppgift
uppgiften
uppgifter
uppgifterna
uppgrader
upph
upphav
upphoj
upphojdes
upphor
upphora
upphorde
upphort
upphov
upphovsman
uppkall
uppkallad
uppkallade
uppkallat
uppkom
uppkommer
uppkomst
upplag
upplaga
upplagan
upplagor
uppland
upplands
upplev
uppleva
upplevde
upplevelser
upplever
upplosning
upplost
upplostes
upply
upplysning
uppm
uppman
uppmanade
uppmark
uppmarksam
uppmarksamhet
uppmarksamm
uppmarksammad
uppmarksammade
uppmarksammades
uppmarksammats
uppmunt
uppna
uppnad
uppnadde
uppnatt
uppr
uppratt
uppratta
upprattade
upprattades
uppratthalla
upprep
upprepade
uppror
upproret
upps
uppsala
uppsatser
uppsatt
uppsattning
uppsattningar
uppsattningen
uppskatt
uppskattad
uppskattade
uppskattades
uppskattas
uppskattats
uppskattningsvis
uppskjut
uppslag
uppsta
uppstar
uppstatt
uppstod
uppstroms
uppt
uppta
upptack
upptacka
upptacker
upptackt
upptackte
upptackten
upptacktes
upptackts
upptag
upptagen
upptar
upptogs
upptrad
upptrada
upptradande
upptradde
upptrader
upptratt
uppvakt
uppvarm
uppvaxt
uppvisar
uppvuxen
ups
ur
uran
urb
urban
uri
urin
urinsekt
urinsektsart
urs
urskilj
urskiljs
ursprung
ursprunget
ursprungliga
ursprungligen
ursprungs
urt
uru
urugu
uruguay
urum
urumqi
urupp
urval
us
usa
ush
uss
ust
ut
utah
utan
utanfor
utara
utarbet
utarbetade
utat
utb
utbild
utbilda
utbildad
utbildade
utbildades
utbildning
utbildningar
utbildningen
utbildnings
utbred
utbredd
utbredning
utbredningsom
utbredningsomrade
utbredningsomradet
utbrot
utbrots
utbrott
utbryt
utbrytning
utbygg
utbyggnad
utbyggnaden
utbyte
utd
utdel
utdelas
utdod
utdoda
utdrag
ute
uteb
utefter
utes
uteslut
uteslutande
utexamin
utexaminerades
utfard
utfardade
utfardades
utflode
utfor
utfora
utforande
utforas
utford
utforda
utforde
utfordes
utform
utformad
utformade
utformning
utformningen
utfors
utfort
utg
utgang
utgangen
utgangsp
utgangspunkt
utgar
utgav
utgava
utgavan
utgavor
utgavs
utgick
utgiv
utgivare
utgiven
utgivet
utgivna
utgivning
utgivningen
utgj
utgjorde
utgjordes
utgor
utgora
utgors
utgrav
utgravningar
utifran
utk
utkamp
utkampades
utkanten
utkast
utkom
utlan
utlanad
utlandet
utlandsk
utlandska
utlopp
utloppet
utman
utmar
utmark
utmarkande
utmarkelse
utmarkelsen
utmarkelser
utmarker
utmarkt
utmarkte
utmed
utnam
utnamn
utnamnd
utnamnde
utnamndes
utnytt
utnyttja
utnyttjade
utnyttjas
utok
utoka
utokade
utokades
utom
utomhus
utomjord
utomlands
utov
utova
utovade
utovare
utover
utp
utprag
utred
utreda
utredning
utredningar
utredningen
utrikes
utrikesdepartementet
utrikesminister
utrop
utropade
utrot
utru
utrust
utrustad
utrustade
utrustning
utrym
utrymme
uts
utsag
utsags
utsander
utsatt
utsatta
utsattes
utsatts
utse
utsedd
utseende
utseendet
utses
utsikt
utskott
utskottet
utsl
utslag
utslagen
utslapp
utsmyck
utspel
utspelar
utspelas
utstall
utstallning
utstallningar
utstallningen
utstallnings
utstrackning
utt
uttag
uttagen
uttal
uttalade
uttalande
uttalas
uttalat
uttar
uttry
uttryck
uttrycka
uttrycker
uttrycket
uttryckt
uttryckte
utvalda
utvand
utvarder
utveck
utveckla
utvecklad
utvecklade
utvecklades
utvecklar
utvecklas
utvecklat
utvecklats
utveckling
utvecklingen
utvecklings
utvid
utvidg
utvidgades
uul
uv
uvar
uz
uzbek
uzbekistan
va
vac
vaccin
vack
vacka
vacker
vackert
vackra
vackte
vad
vader
vadstena
vag
vaga
vagar
vagarna
vagbin
vagde
vagen
vager
vagg
vaggar
vaggarna
vaggen
vagn
vagnar
vagnarna
vagnen
vagrade
vagrar
vain
vaj
vak
vakt
val
vala
valais
valbar
valbevar
vald
valda
valde
valdeltag
valdeltagandet
valdemar
valdes
valdigt
valdsam
valdsamma
vale
valen
valenc
valencia
valent
valentin
valer
valet
valfard
valg
valgoren
valgorenhet
valja
valjer
valjs
valk
valkand
valkanda
valkom
valkrets
valkretsen
vall
valle
valley
vallmov
vallmovaxter
valpara
valparaiso
vals
valt
valts
valut
valuta
valv
vamp
van
vana
vancou
vancouver
vand
vanda
vande
vander
vandrar
vandring
vaner
vanersborg
vaning
vaningar
vaningen
vanlig
vanliga
vanligare
vanligast
vanligaste
vanligen
vanligt
vanligtvis
vann
vanner
vanns
vanor
vanorter
vans
vanska
vanskap
vanster
vansterpartiet
vanstra
vant
vanta
vantade
vantan
vantar
vanua
vap
vapen
vapenflugor
vapenhus
vapenhuset
vapnet
var
vara
varade
varandra
varandras
varar
varav
varberg
varbergs
vard
varda
vardag
vardags
varde
vardef
vardefull
vardefulla
varden
varder
vardera
varderingar
vardet
vardighet
vardshus
vare
varefter
varelser
varen
varfor
varg
vargas
vargspindlar
vari
varia
variabel
variabilis
variabler
varian
variant
varianten
varianter
variation
variationer
varieg
variegata
varier
variera
varierad
varierade
varierande
varierar
varierat
variet
varifran
varigenom
varit
varje
varkaus
varken
varl
varld
varlden
varldens
varlds
varldsar
varldsarv
varldsarvs
varldsc
varldscupen
varldskrig
varldskriget
varldskrigets
varldsm
varldsmastare
varldsmaster
varldsmasterskap
varldsmasterskapen
varldsmasterskapet
varldsp
varldspopul
varldspopulationen
varldsrekord
varm
varma
varmaste
varmblod
varmdo
varme
varmland
varmlands
varmt
varn
varna
varnamo
varnplikt
varor
varpa
vars
varsin
varsta
vart
vartannat
vartbitare
varu
varuhus
varum
varumark
varumarke
varumarket
varv
varvade
varvades
varvet
varvid
vas
vasa
vasas
vasby
vasen
vasentligt
vasil
vasilj
vasiljevitj
vass
vast
vastantarktis
vastazarbaijan
vaste
vaster
vasteras
vasterb
vasterbotten
vasterbottens
vastergotland
vasterlandska
vasternorr
vasternorrlands
vasterut
vastervik
vasterviks
vasteuropa
vastfjord
vastfjordarna
vastgota
vastindien
vastkust
vastkusten
vastlig
vastliga
vastmanland
vastmanlands
vastra
vastsa
vasttyskland
vastvarlden
vat
vate
vatmark
vatmarker
vatska
vatt
vatten
vattenbryn
vattenbrynsbaggar
vattenbyggnad
vattendrag
vattendraget
vattenfall
vattenflugor
vattenhal
vattenkraft
vattenpol
vattent
vattenytan
vattenytor
vattnet
vaud
vav
vax
vaxa
vaxande
vaxel
vaxell
vaxer
vaxjo
vaxt
vaxtart
vaxtdelar
vaxte
vaxten
vaxter
vaxtlighet
vaxtlussteklar
vaz
vd
ve
veck
vecka
veckan
vecklare
veckor
veckot
ved
veder
vedlar
veg
vega
vegas
veget
vegetation
vej
vektor
vel
velat
velika
veliki
vell
vella
velut
vem
ven
vend
venedig
venez
venezuel
venezuela
venstre
vent
ventil
venus
venust
ver
vera
veracruz
verb
verband
verbandsgemeinde
verbascum
verd
verde
verho
verhoeff
verk
verka
verkade
verkan
verkar
verkat
verken
verket
verklig
verkliga
verkligen
verklighet
verkligheten
verksam
verksamhet
verksamheten
verksamheter
verksamma
verksamt
verkstad
verkstader
verkstads
verkstallande
verktyg
verm
vermont
vern
vernon
veron
veronica
verruc
vers
versa
versailles
verser
version
versionen
versioner
versionerna
vert
vertic
ves
vest
vet
veta
vetenskap
vetenskapen
vetenskaplig
vetenskapliga
vetenskapligt
vetenskaps
vetenskapsak
vetenskapsakademien
vetenskapsman
veter
veterinar
vetlanda
vi
via
vib
viborg
vic
vice
vicegu
viceguvernor
vicek
vicente
vicep
vicepresident
vich
vick
victor
victoria
vid
vida
vidare
vidareutveck
vide
video
videon
videvaxtart
videvaxter
vidstrackt
vie
viejo
vient
vientiane
vier
viet
vietnam
viette
vig
vii
viii
viit
viitasaari
vik
viken
viking
vikingat
vikingatiden
vikt
vikten
viktig
viktiga
viktigare
viktigaste
viktigt
viktor
viktoria
vil
vila
vilar
vild
vilda
vilhelm
vilhelmina
vilj
vilja
vilka
vilken
vilket
vill
villa
village
villan
villar
ville
villene
villeneuve
villi
villiers
villkor
villman
villor
vilnius
vilt
vimm
vimmerby
vin
vincent
vind
vinde
vinden
vindevaxtart
vindevaxter
vindkraft
viner
ving
vingar
vingarna
vingen
vink
vinkel
vinn
vinna
vinnande
vinnare
vinnaren
vinnarna
vinner
vinrute
vinrutevaxtart
vinrutevaxter
vinst
vinsten
vinster
vint
vinter
vintern
vinterspelen
vintertid
vinvaxter
vinyl
viol
viola
violin
violinist
violvaxtart
violvaxter
vir
virg
virgin
virginia
virid
viridis
virt
virus
vis
visa
visade
visades
visar
visas
visat
visats
visby
visc
vision
visor
viss
vissa
visserligen
visst
visste
vist
vista
vistades
vistas
vistelse
visuell
vit
vita
vitaktig
vitamin
vitfjarilar
viti
vitry
vitryska
vitryssland
vits
vitt
vitter
vittnar
vittnen
vittnes
viv
vive
vivevaxtart
vivevaxter
vivlar
vl
vlad
vladimir
vm
vo
voblast
voblasten
vod
voda
vog
vogel
voj
vojvod
vojvodskap
vok
vokal
vokaler
vol
volcan
volk
volksw
volkswagen
volley
volleyboll
volta
volvo
volym
volymer
von
vor
vorarl
vorarlberg
vord
vore
vorp
vorpommern
vos
voy
vr
vran
vrch
vrh
vrid
vries
vriesea
vrv
vs
vu
vul
vulkan
vunnit
vux
vuxen
vuxit
vuxna
vy
vys
wa
wacht
wad
wadi
wag
wagner
wah
wahl
wain
wak
wal
wald
wales
walk
walker
wall
walla
wallace
wallen
wallenberg
wallich
wallin
walt
walter
wan
wander
wang
want
wap
war
ward
wardak
warn
warner
warren
wars
warszawa
warwick
was
wash
washington
wat
watch
water
wats
watson
watt
watten
wattenwyl
waw
way
wayne
we
web
webb
webbplats
webbplatsen
weber
wed
wedd
week
wehr
wei
weimar
wein
weiss
wel
well
wells
wen
wend
wenn
wer
wern
werner
wes
west
wester
western
westf
westfalen
westminster
westwood
wet
wetter
wh
what
whe
wheeler
when
whisk
whit
white
whitt
who
wi
wick
wid
wied
wiedemann
wien
wiener
wiens
wies
wig
wight
wik
wikip
wikipedia
wil
wild
wilhelm
will
willden
willdenow
willem
willi
william
williams
willis
willy
wilson
wilt
wiltshire
wimb
wimbled
wimbledon
win
wind
windows
wing
wings
winn
winst
winter
wir
wirth
wis
wisc
wisconsin
wit
with
witt
witten
wo
wol
wolf
wolff
wolfgang
woll
wolo
woman
women
won
wood
woods
wor
worc
work
world
wrang
wrangel
wright
wu
wuhan
wul
wur
wurtt
wurttemberg
www
wy
wyoming
xanth
xanthop
xanthoparmelia
xanthor
xanthorhoe
xav
xbox
xen
xer
xest
xi
xia
xian
xiang
xii
xiii
xin
xing
xinjiang
xiph
xiv
xu
xv
xvi
xyl
xyris
xyst
xysticus
ya
yah
yak
yal
yale
yam
yamo
yamoussoukro
yan
yang
yao
yar
yas
yaz
yazd
ye
year
yek
yel
yellow
yes
yi
yin
ying
yl
yng
yngre
yngsta
yngste
yngve
yo
yog
yok
yon
yong
yongan
york
yorkshire
yosh
you
young
your
yout
youtube
yp
yr
yrke
yrkes
yrket
ystad
ystads
yt
yta
ytan
ytor
ytt
ytter
ytterligare
ytterst
yttersta
yttrande
yttre
yu
yuan
yuc
yuk
yukon
yun
yunn
yunnan
yus
yuz
yuzhong
yv
yves
yx
za
zab
zac
zach
zad
zaer
zag
zagreb
zah
zahr
zahrat
zak
zal
zam
zamb
zamora
zan
zang
zanjan
zap
zapata
zar
zarago
zaragoza
zard
zav
zaw
ze
zeb
zeeland
zel
zelotes
zem
zemmour
zen
zer
zetter
zetterstedt
zh
zha
zhang
zhe
zhejiang
zhen
zheng
zhengzhou
zhong
zhou
zhu
zi
zimb
zimbab
zimbabwe
zimmer
zin
zing
zingiber
zingiberaceae
zink
zir
ziz
zo
zod
zomb
zon
zonen
zoolog
zor
zorn
zu
zum
zur
zurich
zw
zyg
°c
гор
ре
اب
اباد
ال
الم
بر
بلاغ
تل
تنگ
تپ
تپه
جبل
داغ
در
دره
ده
سر
سف
سي
سی
قل
كوه
مر
نهر
وادي
چاه
چش
چشمه
کوه
گرد
##0
##00
##000
##1
##10
##11
##12
##13
##14
##15
##16
##17
##18
##19
##2
##20
##21
##22
##23
##24
##25
##26
##27
##28
##29
##3
##30
##31
##32
##33
##34
##35
##36
##37
##38
##39
##4
##40
##43
##44
##45
##46
##47
##49
##5
##50
##55
##6
##60
##64
##65
##66
##67
##69
##7
##70
##71
##75
##77
##79
##8
##80
##81
##82
##83
##84
##85
##86
##87
##88
##89
##9
##90
##95
##99
##a
##aa
##ab
##aba
##abad
##abal
##abat
##abd
##abe
##abel
##abet
##abi
##abil
##abilis
##able
##abo
##aborg
##aborgs
##abrik
##aby
##ac
##aca
##acan
##acanth
##acantha
##acanthus
##acarus
##ace
##acea
##aceae
##aceus
##ach
##acha
##achal
##ache
##acher
##achi
##achim
##acht
##aci
##acia
##acidae
##acion
##acional
##acitet
##aciteten
##ack
##acka
##acken
##acker
##ackerlack
##ackerlackor
##ackor
##aco
##acris
##acruz
##act
##acta
##actis
##actus
##acty
##actylus
##acu
##acula
##aculata
##aculatus
##acupen
##acus
##ad
##ada
##adah
##adal
##adan
##adar
##adas
##add
##adda
##adder
##ade
##adeh
##adel
##adels
##adem
##ademi
##ademien
##ademiens
##ademin
##aden
##adena
##adendron
##adenia
##adens
##adensis
##ader
##adera
##adern
##aderna
##adero
##ades
##adesh
##adespel
##adet
##adh
##adi
##adia
##adin
##adir
##adis
##adium
##adjar
##ado
##ador
##adores
##ados
##adougou
##adow
##adrat
##ads
##adu
##adura
##ady
##ae
##aea
##aec
##aeidae
##ael
##aen
##aena
##aeus
##aev
##af
##afa
##afilm
##afrika
##ag
##aga
##agan
##agande
##agang
##agar
##agare
##agaren
##agarna
##agasin
##agasinet
##agatan
##agd
##agda
##age
##agel
##agen
##ager
##agerar
##ages
##aget
##agg
##aggar
##agge
##agh
##agi
##agin
##agn
##agna
##agne
##agnes
##agnet
##ago
##agog
##agon
##agor
##agos
##agra
##agram
##agrion
##agromyza
##ags
##agt
##agu
##agua
##ague
##agus
##ah
##aha
##ahan
##ahar
##ahavs
##ahavsregionen
##ahl
##ahn
##aholm
##ahr
##ahu
##ahua
##ai
##ain
##ainen
##ains
##aj
##ak
##aka
##akan
##akar
##akare
##akch
##ake
##aken
##aker
##akers
##akes
##aket
##akh
##aki
##akia
##akien
##akim
##akk
##akka
##akning
##akningen
##ako
##akoff
##akon
##akra
##akry
##aks
##akt
##akter
##aktig
##aktiga
##aktigt
##aktion
##aktiv
##aktiva
##aktor
##aku
##al
##ala
##alac
##alag
##alah
##alak
##alam
##alan
##aland
##alande
##alang
##alapa
##alar
##alas
##alb
##alba
##albek
##albo
##album
##albumet
##alc
##ald
##alda
##alde
##alder
##aldern
##aldi
##aldo
##ale
##alea
##alem
##alen
##alens
##alensis
##aler
##alerna
##ales
##alesis
##alet
##alg
##algo
##ali
##alia
##alidae
##alin
##alina
##alis
##alisera
##aliserad
##aliserade
##aliserades
##aliseras
##alisering
##aliseringen
##alisk
##aliska
##alism
##alismen
##alistiska
##alitet
##alj
##aljer
##alk
##alken
##all
##alla
##alland
##allar
##allas
##allax
##alle
##allen
##aller
##alleri
##alleriet
##alli
##allia
##allis
##allo
##allskap
##allskapet
##allsvenskan
##allt
##ally
##alm
##almi
##alo
##aloa
##alom
##alon
##alos
##alp
##alpa
##alpus
##als
##alt
##alta
##alten
##alter
##altet
##alth
##alton
##alu
##alum
##alus
##alv
##alva
##alvakt
##alven
##alvens
##alvon
##alvor
##aly
##alyp
##am
##ama
##amaa
##amak
##amal
##aman
##amanca
##amar
##amarca
##amas
##amat
##amatan
##amatch
##amatcher
##amb
##amba
##ambar
##ambetet
##ambo
##ame
##amea
##amed
##amen
##amensis
##ament
##amentet
##amento
##amer
##amerik
##amerika
##amerikansk
##amerikanska
##amet
##ami
##amia
##amiento
##amik
##amilj
##amiljen
##amin
##aming
##amiral
##amis
##amiska
##amm
##amma
##ammad
##ammar
##ammare
##ammaren
##ammation
##ammed
##ammen
##amn
##amne
##amnen
##amnet
##amnus
##amo
##amot
##amoter
##amoto
##amp
##ampa
##ampar
##amper
##amph
##ampi
##ampo
##ampor
##amps
##ampton
##ams
##amt
##amu
##amus
##an
##ana
##anah
##anal
##analys
##anan
##anas
##anat
##anc
##ance
##ancer
##anch
##ancist
##ancy
##and
##anda
##andan
##andar
##andaran
##andare
##ande
##andel
##anden
##andena
##ander
##anders
##andes
##andet
##andez
##andi
##andid
##ando
##andra
##andras
##andro
##ands
##andy
##ane
##anea
##aneh
##anen
##anensis
##aner
##anerna
##anes
##aneus
##anfall
##ang
##anga
##angan
##angar
##angare
##angaren
##angd
##angden
##angdong
##ange
##angel
##angen
##angensis
##anger
##angers
##angerska
##angi
##ango
##angs
##angu
##ani
##ania
##anias
##anica
##anien
##aniens
##anis
##anism
##anj
##anjing
##ank
##anka
##ankande
##ankar
##anke
##anken
##anlaggning
##anlaggningar
##anmar
##ann
##anna
##annan
##annande
##annas
##annat
##anne
##annen
##anner
##annon
##anns
##ano
##anol
##anor
##anov
##ans
##ansas
##ansen
##anser
##ansflugor
##ansk
##anska
##anski
##anskt
##ansson
##anst
##anstalt
##ansvar
##ansvarig
##ant
##anta
##antan
##antarktis
##ante
##anteles
##anten
##anter
##anterna
##antes
##anth
##antha
##anthaceae
##anthe
##anthemum
##anthera
##anthes
##anthor
##anthum
##anthura
##anthus
##anti
##antia
##antik
##antis
##anto
##anton
##antor
##antrop
##ants
##antus
##anu
##anum
##anus
##anvand
##any
##anz
##anza
##ao
##ap
##apa
##apan
##ape
##apel
##apen
##apest
##apeut
##aph
##aphes
##aphis
##api
##apis
##aplan
##apnet
##apo
##apolis
##app
##apper
##aps
##apt
##apten
##aptera
##apu
##apur
##apus
##aq
##ar
##ara
##arab
##arad
##arag
##arah
##arak
##aran
##aranda
##arande
##arant
##aras
##arat
##aray
##arbet
##arbetare
##arbete
##arbeten
##arbetet
##arby
##arc
##arch
##archia
##arcos
##arct
##ard
##arda
##arden
##ardens
##arder
##ardi
##ardia
##ardig
##ardo
##ards
##are
##area
##areg
##aregionen
##areh
##aren
##arena
##arens
##arensis
##arer
##arerna
##ares
##arest
##aret
##arett
##arez
##arg
##argia
##arginata
##argus
##arh
##ari
##aria
##ariaceae
##ariae
##arian
##arias
##aric
##arica
##aricus
##aridae
##arie
##arien
##ariensis
##arier
##ariet
##arif
##arig
##ariga
##arigt
##arii
##ariidae
##ariket
##arin
##arina
##aring
##arinia
##ario
##arion
##aris
##arisk
##ariska
##arist
##arit
##arium
##arius
##arivo
##ark
##arka
##arkar
##arkarriar
##arke
##arken
##arkitekt
##arkitekten
##arkitektur
##arkiv
##arkivet
##arkt
##arktis
##arl
##arlo
##arm
##armelia
##armen
##armia
##arn
##arna
##arnan
##arnas
##arne
##arnsvampar
##aro
##aror
##aros
##arov
##arp
##arpa
##arps
##arpus
##arra
##arrang
##arro
##ars
##arsia
##arsis
##arskap
##arskontrakt
##arspindlar
##arsus
##art
##arta
##artad
##artade
##arte
##arten
##arter
##arth
##artica
##artik
##artikel
##artiklar
##artist
##artister
##artor
##artyg
##artz
##aru
##arum
##arus
##arv
##ary
##as
##asa
##asaari
##asaki
##asan
##asar
##asc
##asca
##asch
##asciata
##asco
##ascum
##ase
##asen
##aser
##ash
##ashamn
##ashi
##ashq
##asht
##ashtra
##asi
##asia
##asiat
##asien
##asin
##asis
##asit
##asj
##asjarvi
##asjon
##ask
##asm
##asma
##ason
##asongen
##asp
##aspis
##asprak
##ass
##assa
##assan
##asse
##asser
##assi
##assist
##assistent
##asso
##assor
##ast
##asta
##astad
##astaende
##astare
##astaren
##aste
##asteh
##asten
##aster
##asterskap
##asterskapen
##asterskapet
##astes
##astik
##astin
##astins
##astning
##astor
##astra
##astraceae
##astro
##astrof
##astrum
##astus
##asu
##asy
##at
##ata
##atak
##atal
##atalj
##ataljon
##ataljonen
##atalog
##atan
##atar
##atare
##atas
##atch
##ate
##atea
##ateatern
##atec
##atel
##atella
##atem
##aten
##atepec
##ater
##atera
##aterad
##aterade
##aterat
##aterial
##atern
##aterna
##aternas
##ates
##atet
##ath
##atha
##athan
##athe
##athea
##ather
##athes
##athia
##athis
##athus
##ati
##atia
##atica
##aticus
##atidae
##atiens
##atik
##atin
##atina
##atio
##ation
##ationen
##ationens
##ationer
##ationerna
##ations
##atis
##atisk
##atiska
##atiskt
##ativ
##ativa
##ative
##ativt
##atl
##atlan
##ato
##atom
##atoma
##aton
##ator
##atoren
##atorer
##atorerna
##atoria
##atorium
##atorn
##ators
##atos
##atra
##atre
##atret
##atro
##ats
##atsch
##atsen
##atser
##atset
##atsu
##att
##atta
##attack
##attade
##attar
##atte
##atten
##atter
##attes
##atti
##attle
##attnet
##attning
##attningar
##attrakt
##atts
##attslandor
##atu
##atula
##atum
##atur
##atura
##aturen
##atus
##atz
##au
##auer
##auf
##av
##ava
##avaara
##avagen
##avan
##avar
##avax
##avaxtart
##avaxter
##avdel
##avdelning
##avdelningen
##ave
##avel
##aven
##aver
##avesi
##avet
##avi
##avia
##aville
##avirus
##avis
##avista
##avla
##avlan
##avling
##avlingar
##avlingarna
##avlingen
##avlor
##avo
##avs
##avtal
##avtalet
##avu
##avuori
##avut
##aw
##awa
##awah
##ax
##axa
##axel
##axes
##axia
##axis
##axtart
##axter
##ay
##aya
##aye
##ayer
##ayi
##ayo
##az
##aza
##azar
##azarbaijan
##azat
##azi
##b
##ba
##baatar
##bach
##bacher
##back
##backa
##backen
##backslandor
##bad
##bag
##bage
##baggar
##bagge
##bah
##bai
##baijan
##bak
##bal
##ball
##ban
##bana
##banan
##band
##bandet
##bane
##bang
##bank
##banken
##banor
##bant
##bar
##bara
##barare
##barhet
##barn
##bart
##bas
##baserad
##baserade
##bat
##bata
##batar
##baten
##bats
##bau
##bav
##bay
##baz
##bb
##bba
##bbar
##bbspindlar
##bc
##be
##bebygg
##beck
##bef
##befal
##befolk
##befolkad
##befolkat
##befolkningen
##beg
##beh
##behandling
##bek
##bel
##bell
##bella
##ben
##benen
##ber
##bera
##beratt
##berattigade
##bered
##berg
##berga
##bergen
##berger
##berget
##bergia
##bergs
##berland
##berlin
##bern
##berna
##berry
##bers
##bert
##bertia
##bes
##beslakt
##best
##bet
##bete
##beteck
##betes
##betet
##beth
##betyg
##bev
##bevar
##bh
##bi
##bia
##bibliotek
##bid
##bidae
##bil
##bilar
##bild
##bildade
##bilden
##bilder
##bildning
##bildningen
##bilis
##bin
##bind
##bing
##bir
##bis
##bit
##bitare
##bj
##bjorn
##bl
##bla
##blad
##bladet
##bladig
##bladiga
##bladloppor
##bladsvaxtart
##bladsvaxter
##bland
##blatt
##ble
##blem
##bler
##blick
##blo
##block
##blod
##blom
##blomflugor
##blomm
##blommiga
##blommor
##blomster
##blomsvaxtart
##blomsvaxter
##bo
##board
##bocker
##bod
##boende
##boj
##bok
##boken
##bol
##bolag
##bolaget
##boll
##bom
##bomb
##bon
##bong
##bor
##bord
##borg
##borgs
##born
##borna
##borough
##bos
##bost
##bostad
##bostader
##bot
##bott
##bou
##bour
##bourne
##bow
##box
##boy
##br
##bra
##brahim
##braken
##brakenvaxtart
##bran
##brand
##branschen
##bre
##bred
##brev
##brid
##bridge
##bring
##brist
##bro
##brod
##broder
##bron
##brook
##bror
##brott
##brottet
##bru
##bruk
##bruket
##brun
##bruna
##brunn
##brunt
##bryn
##bryt
##brytande
##brytare
##brytning
##bs
##bu
##buch
##bud
##buk
##bul
##bult
##bund
##bunden
##bundet
##bundna
##bur
##burg
##burger
##burgh
##burn
##bury
##bus
##but
##by
##bygd
##bygg
##byggare
##byggd
##byggda
##byggdes
##byggnad
##byggnaden
##byggnader
##byggt
##byl
##byn
##byra
##byran
##bys
##byt
##byte
##c
##ca
##cad
##cadion
##cal
##can
##cana
##cancer
##car
##cas
##cast
##castle
##cat
##cata
##catus
##cc
##ccion
##ce
##cea
##ceae
##ced
##cel
##celer
##cell
##celler
##cen
##cens
##cent
##center
##central
##centret
##centrum
##centrus
##cep
##ceps
##cept
##cer
##ceremon
##cern
##cernen
##ces
##cess
##ceum
##ceus
##ch
##cha
##chaet
##chaeta
##chah
##chal
##chan
##chang
##char
##chard
##charge
##che
##chef
##chefen
##cheh
##chel
##chell
##chem
##chemilla
##chen
##cheng
##chenko
##cheon
##cheong
##cher
##ches
##chester
##chet
##chewan
##chez
##chi
##chia
##chidae
##chin
##chis
##chium
##chl
##chn
##chne
##cho
##chon
##chos
##chow
##chs
##chsen
##cht
##chth
##chu
##chun
##chus
##chy
##ci
##cia
##cial
##ciata
##ciatus
##cic
##cil
##cin
##cina
##cing
##cini
##cinia
##cio
##cion
##cip
##cipen
##ciplin
##cir
##cis
##cismen
##ck
##cka
##ckar
##cke
##ckel
##cken
##cker
##cki
##cks
##ckt
##ckte
##ckten
##cl
##cla
##cle
##cli
##cliffe
##co
##cock
##coe
##coides
##col
##com
##con
##cor
##core
##cos
##cott
##cou
##court
##crantz
##cre
##cs
##ct
##cta
##cte
##ctes
##ctic
##ction
##ctis
##ctor
##ctum
##ctus
##cu
##cula
##culus
##cum
##cus
##cy
##cyk
##cykel
##cykl
##cylind
##cyrtus
##cz
##d
##da
##dack
##dad
##dae
##dag
##dagar
##dagen
##dah
##dahl
##dal
##dale
##dalen
##dalena
##dals
##dam
##dan
##dans
##dar
##dare
##das
##dat
##day
##de
##deb
##deh
##del
##delar
##delarna
##delen
##deles
##delning
##deltag
##dem
##demokrat
##den
##dens
##departementet
##der
##dera
##derade
##derar
##dern
##derna
##ders
##des
##design
##desmus
##det
##deval
##dex
##di
##dia
##die
##dikt
##din
##ding
##dinge
##dingen
##direktor
##dis
##distans
##distanslopning
##distrikt
##divisionen
##djur
##djuret
##djursart
##dle
##do
##dom
##domen
##don
##donald
##dor
##dorf
##dos
##dotter
##dr
##dra
##drag
##dragen
##drakt
##drakten
##dras
##dre
##drift
##driv
##dron
##ds
##dt
##du
##dubbelfotingar
##duv
##dy
##dyn
##dynastin
##dz
##e
##ea
##ean
##eart
##eau
##eaux
##eb
##eba
##ebach
##eback
##ebe
##ebel
##eben
##eberg
##ebergs
##ebin
##ebius
##ebo
##ebod
##eboda
##ebok
##eboken
##ebong
##ebook
##eborg
##ebra
##ebrand
##ebro
##ebru
##eburg
##ebus
##ebut
##eby
##ebygg
##ec
##eca
##ech
##ecia
##ecium
##eck
##ecken
##ecker
##ecki
##eco
##ect
##ecta
##ectes
##ection
##ectus
##ecus
##ed
##eda
##edad
##edag
##edal
##edalen
##edals
##edan
##edare
##edd
##edda
##ede
##edel
##edemokrat
##eden
##eder
##ederb
##ederbord
##edes
##edi
##edia
##edig
##edilum
##edlar
##edlem
##edo
##edom
##edon
##edonien
##edra
##edral
##eds
##edt
##edy
##ee
##een
##eer
##eet
##ef
##efal
##efar
##efer
##eff
##effekt
##effekten
##effekter
##effer
##efield
##efin
##efiskar
##efj
##efl
##efor
##eford
##eform
##efors
##eft
##efter
##eg
##ega
##egal
##egan
##egang
##egangen
##egard
##egatan
##ege
##egeiska
##egel
##egen
##eger
##egg
##egh
##egi
##egia
##egie
##ego
##egoj
##egor
##egren
##egrin
##egron
##egu
##eh
##eham
##ehamn
##ehand
##ehandling
##ehav
##ehe
##ehl
##eho
##eholm
##ehor
##ehov
##ehr
##ei
##eia
##eid
##eim
##ein
##eira
##eiro
##eis
##eiz
##ej
##ejo
##ejus
##ek
##eka
##ekade
##ekamp
##ekan
##ekanis
##ekar
##eke
##eker
##eki
##ekn
##eknik
##eko
##ekon
##ekonom
##ekonomi
##ekreterare
##eks
##eksam
##ekt
##ekten
##ektor
##ekunder
##ekv
##el
##ela
##elagen
##elan
##eland
##elar
##elart
##elas
##elatus
##elb
##elbana
##elberg
##eld
##eldansflugor
##eldjursart
##eldorf
##ele
##elea
##elef
##eleia
##elekt
##element
##elen
##eleon
##eler
##eles
##elet
##elflugor
##eli
##elia
##eliaceae
##elidae
##elie
##elig
##eliga
##eligan
##elige
##elii
##elin
##elina
##eling
##elis
##elium
##elius
##elj
##elka
##ell
##ella
##ellaceae
##ellan
##ellaria
##ellaris
##ellata
##ellatus
##elle
##ellen
##eller
##ellerna
##elles
##ellet
##elli
##ellia
##ellidae
##ellii
##ellina
##elling
##ellis
##ello
##ellow
##ells
##ellt
##ellum
##ellus
##elly
##elm
##elma
##elmann
##elmat
##elmo
##eln
##elns
##elo
##elon
##elop
##elos
##els
##else
##elseb
##elsef
##elsel
##elseled
##elsen
##elsens
##elser
##elserna
##elset
##elsh
##elsson
##elt
##eltak
##eltem
##eltemperaturen
##eltis
##eltrad
##elu
##elund
##elus
##ely
##em
##ema
##emaeus
##emal
##eman
##emane
##emang
##emanget
##emann
##emans
##emar
##emark
##emat
##emataceae
##ematang
##ematcher
##emb
##ember
##emberg
##embl
##emble
##embran
##emburg
##eme
##emedlem
##emeinde
##emen
##emens
##emenskapen
##ement
##emente
##ementet
##emer
##emet
##emi
##emia
##emiar
##emin
##emis
##emma
##emo
##emokrat
##emon
##emoni
##emont
##emonte
##emora
##emot
##ems
##emum
##emura
##emus
##emy
##en
##ena
##enaria
##enas
##enau
##enbach
##enbar
##enberg
##enburg
##enc
##ence
##encia
##end
##enda
##endal
##ende
##enden
##endens
##endent
##ender
##endet
##endi
##endom
##endomen
##endomet
##endorf
##endron
##endrum
##ene
##enee
##enen
##ener
##enes
##eng
##enga
##enge
##enger
##engren
##enhet
##eni
##enia
##eniaceae
##enidae
##enik
##enius
##enk
##enko
##enn
##enne
##ennis
##eno
##enos
##enosia
##ens
##ensa
##ensam
##ensch
##ense
##ensee
##ensen
##enser
##ension
##ensis
##enska
##enskap
##enskomm
##enson
##ensp
##ent
##enta
##ental
##entals
##ente
##enten
##enter
##entera
##enterade
##enterna
##entes
##enthal
##enti
##entia
##ential
##entin
##enting
##entlig
##entliga
##entligt
##ento
##entomon
##entris
##ents
##entuna
##entus
##entyr
##entz
##enus
##enz
##enza
##enzie
##eo
##eon
##ep
##epa
##epal
##epala
##epart
##epartement
##epartementet
##epe
##epec
##eph
##ephala
##ephalus
##ephan
##epid
##epis
##eplats
##eplatsen
##epoh
##eps
##ept
##eptor
##er
##era
##erad
##erade
##erades
##eran
##erande
##erar
##eras
##erat
##erats
##erb
##erbach
##erback
##erbar
##erbara
##erberg
##erbo
##erbotten
##erby
##erc
##ercops
##erd
##ere
##eres
##erg
##ergi
##eri
##eria
##eriana
##erias
##erie
##eriella
##erier
##eriet
##erik
##erin
##erina
##ering
##eringar
##eringen
##erings
##eris
##erk
##erligen
##ern
##erna
##ernas
##erner
##ernes
##erns
##ero
##eros
##erov
##ers
##erska
##erskan
##ert
##erta
##erte
##ertig
##erto
##erty
##erus
##erv
##ery
##es
##esa
##esc
##escens
##esch
##ese
##esen
##eser
##esh
##esi
##esia
##esid
##esii
##esis
##esiska
##esjon
##esk
##eslaktet
##eslut
##eso
##esok
##eson
##esor
##esp
##ess
##essa
##essan
##essen
##esson
##essor
##essus
##est
##esta
##estad
##estads
##estall
##estam
##estan
##estand
##estandare
##este
##ester
##estershire
##estes
##esthes
##esti
##estillhorighet
##estjarna
##estra
##estrad
##estris
##estus
##esund
##esvig
##et
##eta
##etab
##etaceae
##etag
##etaget
##etal
##etala
##etalum
##etcher
##ete
##eteck
##eteckning
##eten
##etens
##etenskap
##eter
##etera
##eterna
##etes
##eth
##ether
##ethes
##ethus
##eti
##etia
##etic
##etid
##etidae
##etik
##etin
##etis
##etisk
##etiska
##etiskt
##eto
##eton
##etown
##etra
##ets
##etscher
##ett
##etta
##ettan
##ette
##etten
##etter
##ettes
##etti
##ettia
##ettig
##ettix
##etto
##etts
##etum
##etus
##etz
##eu
##eum
##eur
##euria
##europa
##eus
##eux
##ev
##eva
##evac
##eval
##evangel
##evangeliet
##evard
##evaxtart
##evaxter
##eve
##even
##eves
##evich
##eville
##evitj
##evo
##ew
##ex
##examen
##examin
##exia
##exp
##ext
##ey
##eya
##eyer
##eyi
##eyn
##ez
##eza
##ezen
##ezirk
##ezzia
##f
##fa
##fabrik
##fabriken
##fack
##fader
##fadern
##fag
##fagel
##faglar
##fakt
##fal
##fald
##fall
##falla
##fallande
##fallen
##faller
##fallet
##falt
##faltet
##falz
##familj
##familjen
##familjer
##fan
##fang
##far
##fara
##farande
##fard
##faren
##farg
##fargad
##fargade
##fark
##fars
##fart
##farten
##fartyg
##fartyget
##fas
##fast
##fasta
##fat
##fatt
##fattande
##fc
##fe
##fect
##fei
##fekt
##fekten
##fel
##feld
##feldt
##fell
##fels
##felt
##fen
##fenan
##feng
##fer
##fera
##ferens
##ferensen
##fest
##festen
##festiv
##festival
##festivalen
##ff
##ffa
##ffar
##ffaren
##ffarer
##ffe
##ffel
##ffen
##ffer
##fficer
##ffin
##ffs
##fi
##fia
##fiber
##field
##figur
##figuren
##fil
##film
##filmen
##filmer
##filosof
##fin
##final
##finalen
##fir
##firman
##fish
##fisk
##fiskar
##fiske
##fit
##fix
##fj
##fjad
##fjall
##fjarden
##fjaril
##fjarilar
##fjord
##fjorden
##fl
##flack
##fli
##flick
##flickslandor
##flod
##flode
##floden
##flodet
##flora
##florum
##florus
##flott
##flottan
##flottilj
##flu
##fluga
##flugor
##fly
##flyg
##flygning
##flygplan
##flykt
##flyn
##flytt
##fo
##fod
##fodd
##fodda
##fog
##foli
##folj
##foljande
##folk
##folket
##foll
##fon
##fond
##foni
##fonster
##for
##fora
##forand
##forande
##forandringar
##forare
##forband
##forbind
##forbindelse
##forbud
##forbund
##forbundet
##forbundets
##ford
##forda
##forde
##fordel
##fordelning
##fordes
##fordon
##fordraget
##foremal
##foren
##forening
##foreningar
##foreningen
##foreningens
##forenings
##forestall
##foret
##foretag
##foretaget
##forfatt
##forfattare
##forfattaren
##forhall
##forhallanden
##forhallandena
##foring
##foringen
##forklar
##forkort
##forkortning
##forlust
##form
##formad
##formade
##formaga
##formar
##format
##formation
##forme
##formen
##former
##formes
##formiga
##formis
##forord
##fororeningar
##fors
##forsakring
##forsalj
##forsaljning
##forsamling
##forsamlingen
##forsk
##forskare
##forskning
##forslag
##forsok
##forsorj
##forstand
##forstor
##forsvar
##forsvaret
##fort
##forvalt
##forvaltningen
##fos
##fot
##fotboll
##fotingar
##fotograf
##found
##four
##fr
##fra
##frag
##fragan
##fragor
##fram
##fran
##fre
##fred
##frekv
##frey
##fri
##fria
##frid
##fried
##fries
##frihet
##fritt
##fro
##fron
##fronten
##fru
##frukt
##fs
##ft
##fta
##ftar
##fte
##ftea
##ften
##fter
##fton
##fu
##fuhrer
##ful
##full
##fulla
##fullmaktige
##fullt
##fun
##fund
##funktion
##fur
##furst
##furt
##fus
##fv
##fvud
##fyl
##fyll
##fynd
##fys
##g
##ga
##gaard
##gad
##gade
##gaende
##gah
##gal
##galan
##gam
##gan
##gande
##gang
##gangar
##gangen
##gar
##gara
##gard
##gardar
##garde
##garden
##garder
##gardet
##garh
##gari
##garn
##gart
##gary
##gas
##gast
##gat
##gata
##gatan
##gate
##gau
##gav
##gavs
##ge
##geb
##gel
##gen
##gend
##gener
##genom
##gens
##geon
##georg
##ger
##geri
##gerna
##gero
##gers
##ges
##gest
##get
##gh
##ghis
##gi
##gick
##gift
##gifter
##gil
##gilt
##gin
##gitar
##gitarr
##giv
##givande
##givare
##given
##givet
##givna
##givning
##givningen
##gj
##gjord
##gjorda
##gjorde
##gjordes
##gjort
##gl
##glanssteklar
##glas
##go
##god
##gods
##gogae
##gol
##gon
##gor
##gora
##gorande
##goring
##gorit
##got
##gota
##gotland
##gotlands
##gow
##gp
##gr
##gra
##grad
##graden
##gran
##grans
##gransen
##gras
##grashoppor
##grav
##gren
##grens
##grev
##grodor
##gron
##grop
##grund
##grunden
##grupp
##gruppen
##grupper
##grupperna
##gs
##gu
##gud
##guer
##gui
##gul
##gula
##gun
##gus
##gy
##h
##ha
##hab
##hachis
##had
##hae
##haer
##hag
##hagen
##hah
##hai
##hail
##haj
##hak
##hal
##hali
##hall
##halla
##hallande
##hallar
##hallare
##hallaren
##hallas
##halle
##hallen
##haller
##hallet
##hallit
##hallning
##halls
##hallus
##hals
##halt
##halvon
##ham
##hammar
##hammars
##hamn
##hamnen
##hamns
##han
##hand
##handa
##handel
##handeln
##handels
##handlare
##handlaren
##handling
##handlingar
##handlingarna
##hane
##haneh
##hang
##hani
##hania
##hant
##hantering
##hantverk
##hao
##har
##hara
##hard
##hardt
##hari
##hark
##harkrankar
##harmon
##hart
##has
##hast
##hastar
##hasten
##hastighet
##hastigheten
##hat
##hatt
##hattan
##hattis
##haupt
##haus
##hausen
##hav
##havare
##havaren
##havet
##haw
##hawks
##hay
##he
##head
##hed
##heh
##heid
##heim
##heimer
##hein
##heit
##hel
##helea
##helm
##hem
##hemmet
##hems
##hen
##her
##here
##herre
##herren
##hes
##het
##heta
##heten
##heter
##heterna
##hetis
##hets
##hew
##hi
##hia
##hias
##hielm
##hii
##hil
##hild
##hill
##him
##hin
##hina
##hipp
##hir
##hira
##hire
##hiro
##hirser
##his
##histor
##historia
##historien
##historiker
##historisk
##historiska
##historiskt
##hius
##hiz
##hiza
##hj
##hjal
##hjalp
##hjart
##hjartbladig
##hjartbladiga
##hjul
##hjulsd
##hk
##hl
##hla
##hm
##hman
##hmeh
##hn
##hna
##ho
##hoe
##hof
##hoff
##hog
##hogskola
##hogskolan
##hojd
##hojden
##hol
##hold
##holl
##holm
##holmen
##holmens
##holms
##hon
##hong
##hop
##hopala
##hopp
##hor
##hora
##horasan
##horax
##horde
##horighet
##horn
##horne
##horningar
##horst
##hort
##horus
##hos
##hot
##hou
##hous
##house
##hov
##hoven
##hr
##hra
##hrens
##hrer
##hs
##ht
##htar
##hteh
##hti
##hu
##hua
##huang
##hud
##hug
##hugg
##huggare
##hui
##hult
##hults
##hum
##hun
##hund
##hundar
##hundra
##hur
##hurst
##hus
##husen
##huset
##huv
##huvud
##huvuden
##huvudort
##huvudstaden
##hwa
##hy
##hyd
##hynch
##hynchus
##i
##ia
##iac
##iaceae
##iae
##iah
##iak
##ial
##iala
##iale
##iales
##ialet
##ialis
##ian
##iana
##iane
##ianer
##ianerna
##iang
##iani
##iano
##ians
##iansk
##ianska
##ianum
##ianus
##iao
##iar
##iarab
##ias
##iat
##iata
##iate
##iater
##iation
##iatum
##ib
##iba
##ibal
##ibar
##ibat
##ibe
##ibel
##iber
##ibi
##ibia
##ible
##ibliotek
##ibo
##iburg
##ibus
##ic
##ica
##icae
##ical
##icalis
##ican
##icana
##icans
##icaria
##icata
##icaud
##icauda
##icaulis
##ice
##icea
##icella
##iceps
##icer
##icera
##ices
##ich
##icha
##ichar
##iche
##ichi
##ichneumon
##icht
##ichte
##ichth
##ichthys
##ichum
##ichus
##ici
##icia
##icidae
##icien
##icin
##icip
##icism
##icitet
##ick
##icka
##icke
##icki
##icks
##icky
##ico
##icol
##icola
##icollis
##icolor
##icon
##icornis
##ics
##ict
##icta
##iction
##ictus
##icty
##icul
##icula
##icularis
##iculata
##iculatum
##iculatus
##icum
##icus
##icz
##id
##ida
##idaceae
##idad
##idae
##idan
##idar
##idas
##idaw
##ide
##idea
##ideer
##iden
##idens
##ident
##identer
##ider
##iderna
##ides
##idi
##idia
##idiaceae
##ididae
##idiidae
##idion
##idis
##idium
##idius
##idning
##idningar
##idningen
##ido
##idon
##idor
##idos
##idrott
##ids
##idu
##idula
##idum
##idus
##ie
##iebo
##iebolag
##iebolaget
##ief
##iei
##iel
##ield
##iell
##iella
##iellt
##iemi
##ien
##ienne
##iennes
##iens
##iense
##iensis
##ient
##ienter
##ier
##iera
##ierad
##ierade
##ierades
##ieras
##iere
##ieres
##ieri
##iering
##iermark
##iern
##ierna
##iernas
##ierra
##ierre
##iers
##ies
##iet
##iets
##ieu
##ieux
##iev
##ievich
##iew
##if
##ifa
##ifas
##ife
##ifer
##ifera
##iferum
##iff
##iffer
##iffror
##ifi
##ific
##ifier
##ifik
##ifikat
##ifikation
##ifilm
##iflora
##ifoli
##ifolia
##ifolium
##ifolius
##ifor
##iformis
##iforn
##ifran
##ifrons
##ifs
##ift
##ifta
##ifte
##ifter
##iftet
##ig
##iga
##igade
##igalpa
##igan
##igare
##igas
##igaste
##ige
##igen
##igena
##igenom
##iger
##igera
##igg
##iggande
##iggins
##igh
##ighet
##igheten
##igheter
##igheterna
##ight
##ighton
##ights
##igi
##igia
##igma
##ign
##igna
##ignata
##igne
##igner
##ignon
##igny
##igo
##igona
##igor
##igra
##igt
##igu
##igua
##igur
##iguren
##ih
##ii
##iidae
##iii
##ij
##ija
##ijarvi
##ijer
##iji
##ijk
##ijon
##ik
##ika
##ikal
##ikala
##ikan
##ikanska
##ikapp
##ikat
##ikation
##ike
##iken
##ikens
##iker
##ikern
##ikerna
##ikh
##iki
##ikk
##ikki
##iklar
##iko
##ikomm
##ikon
##ikor
##ikos
##ikou
##ikov
##iks
##ikt
##ikte
##ikten
##ikter
##iku
##ikum
##il
##ila
##ilab
##ilal
##ilan
##iland
##ilar
##ilas
##ild
##ilda
##ilden
##ilder
##ile
##iled
##ileg
##ilen
##ilep
##iler
##iles
##iley
##ili
##ilia
##ilian
##ilien
##ilin
##ilinea
##iling
##ilio
##ilis
##ilitet
##ilius
##ilj
##ilja
##iljo
##iljon
##iljor
##ill
##illa
##illac
##illan
##illar
##illard
##illaria
##illas
##illata
##ille
##illea
##iller
##illera
##illeri
##illes
##illet
##illgang
##illhorighet
##illi
##illia
##illidae
##illium
##illo
##illon
##illos
##ills
##illstand
##illus
##illverk
##illverkning
##illy
##ilm
##ilo
##ilom
##ilometer
##ilon
##ilota
##ils
##ilt
##ilton
##ilu
##ilum
##ilus
##ily
##im
##ima
##iman
##imar
##imb
##imba
##imbo
##ime
##imen
##imension
##iment
##imer
##imeter
##imi
##imia
##imidae
##imil
##imilis
##imin
##imir
##imm
##immer
##imo
##imon
##imore
##imp
##imper
##impla
##ims
##imum
##imus
##in
##ina
##inac
##inae
##inal
##inalen
##inaler
##inalis
##inan
##inar
##inaria
##inarius
##inas
##inat
##inata
##ination
##inationer
##inatus
##inav
##inc
##incha
##inck
##include
##incta
##ind
##inda
##inde
##indel
##indelningen
##inder
##indi
##indien
##indiska
##indo
##indra
##inds
##industri
##industrin
##ine
##inea
##ineata
##ineatus
##inella
##inen
##inensis
##iner
##inerna
##inervis
##ines
##iness
##inet
##inett
##inette
##ineura
##ineus
##inf
##infl
##inflammation
##ing
##inga
##ingar
##ingarna
##ingart
##inge
##ingel
##ingen
##ingenj
##ingenjor
##ingens
##inger
##inget
##ingham
##inghorne
##inglar
##ingo
##ingom
##ingrad
##ings
##ingsas
##ingt
##ington
##ingue
##inha
##inho
##ini
##inia
##inica
##inidae
##inien
##inii
##inis
##inist
##inister
##inium
##inj
##inje
##injen
##ink
##inka
##inn
##inna
##innade
##innan
##innande
##innare
##innbaggar
##inne
##innehav
##innen
##inner
##innes
##innet
##innor
##inns
##ino
##inos
##inosa
##inosus
##inot
##inratt
##inrikt
##ins
##insk
##inska
##inski
##inskt
##inson
##inspekt
##inspektor
##inspel
##inspelning
##inspelningar
##inst
##institut
##institutet
##instrument
##int
##inta
##inte
##intendent
##inter
##inth
##intla
##into
##inton
##intosh
##intress
##intresse
##inum
##inus
##inx
##inz
##io
##ioch
##iod
##ioder
##iodes
##iof
##ioides
##iol
##iola
##ion
##iona
##ionde
##ione
##ionella
##ionen
##ionens
##ioner
##ionerna
##ionidae
##ions
##iop
##iopsis
##ior
##ios
##iosa
##iost
##iosus
##iot
##ious
##iox
##ioxid
##ioxys
##ip
##ipa
##ipalp
##ipalpis
##ipalpus
##ipan
##ipe
##ipend
##ipendium
##ipennis
##ipes
##iph
##ipha
##iphon
##iphora
##ipona
##ipp
##ippa
##ippi
##ippus
##ips
##ipus
##iq
##ique
##iques
##ir
##ira
##iracar
##iracarus
##irah
##iral
##iran
##iras
##irat
##iration
##irationen
##ird
##ire
##irekt
##irektor
##iren
##ires
##iret
##iri
##irig
##iris
##iriska
##irk
##irn
##iro
##iron
##irost
##irostris
##irs
##irt
##irta
##irus
##is
##isa
##isaari
##isan
##isar
##isc
##isca
##isch
##ische
##ischen
##ischer
##iscidae
##iscus
##ise
##isen
##iser
##isera
##iserad
##iserade
##iserades
##iserande
##iserar
##iseras
##iserat
##iserie
##isering
##iseringen
##iset
##ish
##isha
##ishan
##ishi
##isi
##isia
##isium
##isj
##isjarvi
##isjte
##isk
##iska
##iskaming
##iskan
##iskar
##iske
##iskop
##iskt
##islav
##ism
##ismat
##ismen
##ismens
##iso
##ison
##isp
##ispina
##ispora
##iss
##issa
##isse
##isseau
##issen
##isser
##isset
##issima
##issimus
##issing
##ission
##issionen
##isslaktet
##isso
##isson
##issus
##ist
##ista
##istan
##istans
##istansen
##iste
##isten
##istens
##ister
##isterande
##istern
##isterna
##isternas
##istes
##istexamen
##istik
##istis
##istisk
##istiska
##istiskt
##isto
##istor
##istr
##istra
##istret
##istri
##istrikt
##istriktet
##istus
##istyr
##it
##ita
##itaine
##ital
##itan
##itao
##itar
##itara
##itarsis
##itas
##itat
##itata
##itation
##itch
##ite
##ited
##itekt
##itekten
##itel
##iteln
##iten
##iter
##itering
##iterna
##ites
##itet
##iteten
##iteter
##itets
##ith
##ithecia
##ithi
##iti
##itia
##itidae
##itim
##ition
##itionen
##itioner
##itis
##itiska
##itiv
##itiva
##itivt
##itj
##itla
##itlan
##itlar
##ito
##iton
##itor
##itos
##itra
##itre
##itri
##itrium
##its
##itsa
##itsch
##itsup
##itt
##itta
##ittata
##itte
##itten
##itter
##itu
##itud
##itum
##itung
##itus
##itut
##itution
##ity
##itz
##itze
##iu
##ium
##iura
##ius
##iuse
##iv
##iva
##ival
##ivan
##ive
##iven
##iventris
##iver
##iverna
##ivesi
##ivet
##ivi
##ivid
##ivis
##ivision
##ivisionen
##ivism
##ivitet
##ivo
##ivt
##ix
##iy
##iya
##iyah
##iyan
##iyang
##iyat
##iye
##iyeh
##iyya
##iz
##iza
##izane
##ization
##ize
##izhou
##izi
##izu
##j
##ja
##jab
##jad
##jade
##jades
##jae
##jag
##jah
##jak
##jakka
##jakt
##jal
##jam
##jamt
##jamte
##jan
##jana
##jande
##jandet
##jang
##jans
##janska
##janst
##jansten
##janster
##jant
##jar
##jara
##jare
##jaren
##jaril
##jarn
##jarna
##jarnarna
##jarne
##jarneart
##jarnen
##jarnet
##jarnor
##jarv
##jarvi
##jas
##jat
##jaure
##jav
##javesi
##javik
##jd
##jde
##je
##jean
##jeb
##jed
##jeg
##jeh
##jekt
##jektet
##jektiv
##jel
##jem
##jen
##jenattslandor
##jenko
##jer
##jerna
##jes
##jet
##jev
##jeva
##jevik
##jevitj
##jevo
##ji
##jia
##jian
##jiang
##jic
##jin
##jk
##jka
##jken
##jm
##jma
##jn
##jo
##job
##jok
##joki
##jol
##jolk
##jon
##jong
##jor
##jord
##jordkrypare
##jorn
##jou
##jour
##journal
##jov
##js
##jt
##ju
##jud
##juk
##juka
##jul
##jun
##jung
##junkt
##jup
##jur
##jus
##jut
##jutant
##jutning
##jylland
##k
##ka
##kab
##kah
##kai
##kajarvi
##kak
##kal
##kalen
##kall
##kalla
##kallade
##kallades
##kam
##kamm
##kammar
##kammare
##kammaren
##kamp
##kampen
##kamrat
##kan
##kanalen
##kandid
##kandidat
##kann
##kanna
##kans
##kant
##kanten
##kanter
##kap
##kapit
##kapp
##kapten
##kar
##kara
##kare
##karen
##kari
##karl
##karna
##karriar
##kas
##kast
##kastare
##kastning
##kat
##kategor
##kaus
##kay
##ke
##ked
##keh
##kel
##keley
##ken
##kens
##ker
##kes
##ket
##key
##kh
##khan
##ki
##kilometer
##kin
##kins
##kinson
##kir
##kirchen
##kis
##kk
##kl
##kla
##klad
##klader
##klam
##klar
##klara
##klart
##klass
##klassen
##klimat
##klin
##klipp
##klock
##klokrypare
##klotet
##klubb
##klubbar
##klubben
##klund
##kn
##knande
##knipp
##knopp
##knott
##ko
##kod
##koden
##kogel
##kok
##kol
##kolon
##kom
##komm
##komma
##kommande
##kommen
##kommer
##kommit
##kommitte
##kommitten
##kommun
##komp
##koms
##komst
##komsten
##kon
##kong
##konom
##kons
##konst
##konsten
##konstnar
##konstruktion
##konsul
##kont
##kontor
##kontoret
##kontrakt
##kontroll
##kop
##kopf
##koping
##kopings
##kopp
##kor
##kore
##korea
##korn
##kors
##kort
##kos
##kost
##kot
##kott
##kov
##kow
##kra
##kraft
##krafter
##kraftor
##kre
##kreis
##krets
##krig
##krigen
##kriget
##krigstiden
##krit
##kritiker
##kro
##kron
##kropp
##kroppen
##krypare
##ks
##kt
##kta
##ktar
##kte
##kten
##ktens
##ktenskap
##kter
##ktes
##ktet
##ktion
##ktionen
##ktioner
##ktjarnen
##kton
##ktor
##ktorer
##ktorn
##ktyg
##ku
##kul
##kulla
##kultur
##kulturen
##kun
##kung
##kunn
##kunnig
##kur
##kust
##kusten
##kv
##kval
##kvarn
##kvarter
##kved
##kvist
##ky
##kyrk
##kyrka
##kyrkan
##l
##la
##lab
##lac
##lach
##lack
##lad
##lada
##ladd
##laddning
##lade
##lades
##lag
##laga
##lagar
##lagare
##lagaren
##lagd
##lagda
##lage
##lagen
##lager
##laget
##lagg
##lagga
##laggning
##laggningar
##laggningen
##lagh
##lagret
##lagt
##lah
##lain
##lak
##lakare
##lake
##lakt
##lakte
##laktet
##lam
##lamn
##lamna
##lamnade
##lamys
##lan
##lana
##land
##landa
##lande
##lander
##landet
##landia
##landor
##lands
##landsk
##landska
##landskap
##landsklimat
##landskt
##landslag
##landslaget
##landsoarna
##lang
##langd
##lans
##lanssteklar
##lant
##lanta
##lap
##lapp
##lappar
##laq
##lar
##lara
##larare
##lare
##laren
##larna
##larsteklar
##las
##lasare
##lass
##lassen
##last
##lat
##lata
##latar
##laten
##lats
##latsen
##latt
##lau
##laus
##lav
##lava
##law
##lax
##lay
##laz
##le
##lea
##leb
##leby
##lect
##lecta
##led
##ledamot
##ledare
##ledaren
##leden
##ledet
##ledning
##ledningen
##lef
##leg
##leh
##lei
##lein
##lej
##lek
##lekar
##leken
##lekt
##lem
##lema
##lemma
##len
##lenburg
##ler
##lera
##leri
##leria
##lerna
##lers
##les
##less
##let
##leton
##lets
##lett
##leura
##lev
##levande
##lever
##lex
##lexa
##ley
##leyi
##leys
##li
##lia
##lib
##liber
##lic
##lica
##licata
##lich
##liche
##lick
##lid
##lida
##lidae
##liden
##lidium
##lie
##lieb
##lier
##lies
##liet
##lif
##life
##lig
##liga
##ligan
##ligare
##ligaste
##lige
##ligen
##liggande
##lighet
##ligheten
##ligheter
##light
##ligt
##lii
##lik
##lika
##likation
##likationer
##liknande
##likt
##lim
##lima
##limat
##limeter
##lin
##lind
##line
##lines
##ling
##linga
##lingar
##linge
##lingen
##linger
##lings
##lington
##linje
##linjen
##linjer
##lins
##lio
##liotek
##lip
##lipp
##lips
##lis
##lish
##liss
##list
##lista
##listan
##listor
##lit
##litis
##lits
##litt
##litter
##litteratur
##litz
##lius
##liv
##livare
##live
##livet
##lj
##lja
##ljud
##ljung
##ljunga
##ljus
##lo
##lob
##lock
##lod
##loe
##loea
##lof
##log
##logs
##lok
##lokal
##lom
##lon
##lona
##long
##loo
##lop
##lopare
##lopning
##lopp
##loppet
##loppor
##lops
##lor
##los
##losa
##losis
##losning
##losningen
##loss
##lossa
##lost
##lot
##lots
##lov
##low
##ls
##lu
##lubb
##lude
##lum
##lund
##lunda
##lunds
##lung
##lus
##lussteklar
##lust
##lusu
##lut
##ly
##lyft
##lyn
##lys
##lyst
##lystet
##lystis
##lı
##m
##ma
##maa
##mac
##mad
##made
##mae
##mah
##main
##maire
##mak
##makare
##makt
##makterna
##maktig
##maktige
##mal
##mala
##malar
##malare
##male
##malet
##malm
##malms
##malning
##malningar
##man
##mand
##mande
##mane
##mang
##mani
##manland
##manlands
##mann
##manna
##mannen
##manni
##mannia
##mannii
##manns
##mans
##mant
##manuel
##manus
##mar
##marck
##mare
##marg
##mari
##mark
##marke
##marken
##marker
##market
##marknaden
##marks
##marna
##marskalk
##mas
##mask
##maskar
##maskart
##maskin
##maskiner
##mass
##massa
##massigt
##mast
##mastar
##mastare
##mastaren
##maste
##mat
##mata
##matare
##match
##matchen
##mater
##material
##matidae
##matning
##matt
##me
##med
##medalj
##medel
##medlem
##medlemmar
##medlemmarna
##meier
##meister
##mekan
##mel
##men
##mens
##ment
##mer
##mera
##meria
##mers
##mes
##met
##meter
##mets
##mez
##mi
##mia
##mid
##midae
##mig
##mil
##min
##mine
##ming
##minist
##minister
##ministern
##mins
##minster
##mir
##mis
##mit
##mitt
##mium
##ml
##mo
##mod
##modell
##moder
##modern
##mok
##mol
##mon
##mond
##mont
##monument
##mor
##mord
##more
##mos
##moss
##mossa
##mossart
##mossor
##mot
##motet
##motiv
##motor
##motorer
##mour
##mouth
##mov
##moz
##ms
##mu
##muller
##mun
##mund
##mur
##mus
##museet
##museum
##musik
##musiken
##musiker
##mut
##my
##myggor
##myn
##mynt
##myr
##myror
##n
##na
##nabb
##nabbad
##nac
##naceae
##nack
##nad
##nade
##naden
##nader
##naderna
##nades
##nah
##nal
##nalen
##nam
##namn
##namnda
##namnet
##nan
##nande
##nandet
##napp
##nar
##nara
##nare
##naren
##narna
##nas
##nat
##natha
##nathus
##nation
##nationen
##nats
##natt
##nattslandor
##natur
##nav
##nay
##ne
##nea
##ned
##neh
##nel
##nell
##nem
##nema
##nen
##nens
##ner
##neri
##neria
##ners
##nes
##ness
##net
##nets
##neum
##neumon
##nev
##neval
##ney
##neyoarna
##ng
##ni
##nia
##niaux
##nica
##nice
##nick
##nig
##nik
##nil
##nin
##ning
##ningar
##ningarna
##ninge
##ningen
##ningens
##ningham
##nings
##ningshot
##ningsm
##ningsom
##ningsomrade
##ningsomraden
##ningsomradet
##ningsp
##ningsplats
##ningsplatsen
##ningssatt
##ningssystem
##ningsvis
##nis
##nisk
##niska
##nit
##nitz
##nius
##niva
##nj
##no
##nod
##nom
##non
##nophila
##nor
##nord
##norr
##nos
##not
##nov
##np
##ns
##nt
##nu
##num
##nummer
##nus
##nut
##ny
##nytt
##o
##oa
##oang
##oar
##oarna
##ob
##oba
##obal
##obar
##obas
##obata
##obates
##obe
##obel
##ober
##oberg
##obergs
##obezzia
##obi
##obia
##obium
##obius
##objekt
##obl
##oblast
##oblatta
##oble
##obo
##obolus
##obot
##oboth
##obry
##observatoriet
##obus
##obyl
##oc
##oca
##ocal
##ocala
##ocalyx
##ocamp
##ocampa
##ocar
##ocarp
##ocarpa
##ocarpaceae
##ocarpus
##ocarya
##occ
##occus
##oce
##ocen
##ocent
##ocentrus
##oceph
##ocephala
##ocephalus
##ocer
##ocera
##oceras
##ocerat
##ocerus
##ocetus
##och
##ocha
##ochaeta
##ocharis
##oche
##ocheilus
##ochi
##ochia
##ochilus
##ochir
##ochiton
##ochl
##ochloa
##ochlor
##ochlora
##ochov
##ochroa
##ochrom
##ochromis
##ochrys
##ochrysa
##ochth
##ochthonius
##ochus
##oci
##ocial
##ocina
##ock
##ocke
##ocken
##ocker
##ockerna
##ockey
##ockeyt
##ocko
##ockt
##ocl
##oclad
##ocladius
##ocle
##ocnem
##ocnemis
##oco
##ococcus
##ocol
##ocom
##ocon
##ocopa
##ocor
##ocoris
##ocra
##ocrat
##ocrypt
##ocryptus
##octen
##octon
##ocus
##ocy
##ocybe
##ocyc
##ocyp
##ocyther
##od
##oda
##odactylus
##odde
##ode
##odel
##oden
##odendron
##oder
##odera
##oderma
##oderna
##oderus
##odes
##odesmidae
##odesmus
##odexia
##odi
##odia
##odicty
##odid
##odidae
##odin
##odina
##odinidae
##odip
##odiplosis
##odis
##odiscus
##odium
##odius
##odling
##odlingar
##odo
##odon
##odont
##odonta
##odor
##odox
##odrilus
##odrom
##odromia
##odromus
##odrosophila
##ods
##odus
##ody
##odyn
##odynerus
##oe
##oen
##oende
##oensis
##of
##ofag
##ofer
##ofera
##off
##offer
##offic
##officer
##ofj
##ofon
##oft
##ofta
##og
##oga
##ogae
##ogan
##ogarden
##ogast
##ogaster
##ogastra
##oge
##ogel
##ogen
##ogena
##ogenes
##ogenhet
##ogenheter
##ogenys
##ogg
##ogh
##ogi
##ogin
##ogl
##ogloss
##oglossa
##oglossum
##oglottis
##ogly
##ogn
##ogna
##ognat
##ognathus
##ogne
##ogo
##ogobius
##ogomphus
##ogon
##ogona
##ogonia
##ogonum
##ogorgia
##ogr
##ogra
##ograf
##ografen
##ografi
##ografin
##ografisk
##ografiska
##ografiskt
##ogram
##ogramma
##ograph
##ographa
##ogryllacris
##ogryllus
##ogs
##ogt
##ogu
##ogyne
##oh
##ohe
##ohelea
##oher
##ohistor
##ohn
##oho
##oholm
##ohus
##oi
##oia
##oid
##oidae
##oidea
##oider
##oides
##oie
##oire
##ois
##oj
##oja
##ojarvi
##ojd
##ojden
##oje
##ojen
##ojligheter
##ojt
##ojtn
##ojtnant
##ojtnanten
##ok
##oka
##okal
##okaler
##okan
##okar
##oke
##oken
##oker
##oki
##okk
##okning
##oko
##okoll
##okrat
##okrypare
##okt
##okta
##okte
##oktor
##oku
##okument
##ol
##ola
##olabis
##olac
##olagen
##olaimus
##olamp
##olan
##olana
##oland
##olar
##olas
##olata
##olatus
##olax
##old
##oldater
##olds
##oldt
##ole
##olen
##olens
##olensis
##oleon
##olep
##olepis
##olepta
##oler
##oles
##olet
##oleuc
##oleuca
##oleum
##olf
##olfo
##oli
##olia
##olica
##olid
##olidae
##olim
##olin
##olis
##olit
##olita
##olitan
##olitik
##olitiska
##olius
##olj
##olja
##oljaren
##olje
##olk
##olket
##oll
##olla
##olle
##olleg
##ollen
##oller
##ollo
##olls
##ollu
##olm
##olo
##olob
##olobium
##olobus
##olog
##ologen
##ologer
##ologi
##ological
##ologie
##ologier
##ologin
##ologisk
##ologiska
##ologiskt
##ology
##oloma
##olon
##olong
##oloph
##olophia
##olophus
##olor
##olph
##ols
##olt
##olu
##olum
##olus
##olut
##olution
##olutionen
##olver
##oly
##olyc
##olyck
##olycka
##om
##oma
##omac
##omaculata
##omal
##omalus
##oman
##omantis
##omar
##omas
##omass
##omast
##omat
##omataceae
##omatidae
##omb
##ombe
##ombo
##ome
##omed
##omella
##omen
##omena
##omene
##oment
##omer
##omera
##omeridae
##omerus
##omes
##omet
##ometer
##omgangen
##omi
##omia
##omidae
##omin
##oming
##omis
##omit
##omm
##omma
##ommar
##ommaren
##ommatus
##omme
##ommen
##ommend
##ommer
##ommern
##ommun
##omo
##omod
##omoea
##omon
##omor
##omorph
##omorpha
##omorphus
##omot
##omp
##ompan
##ompani
##ompanj
##omphus
##omrade
##omraden
##omradena
##omradet
##oms
##omum
##omus
##omy
##omya
##omyc
##omyces
##omycetes
##omyia
##omyrmex
##omys
##omysis
##omyza
##on
##ona
##onan
##onas
##onc
##ond
##onda
##onde
##onden
##onder
##ondi
##ondo
##ondyla
##one
##onella
##onem
##onema
##onen
##onensis
##oner
##onerna
##ones
##oneura
##oneurus
##ong
##onga
##ongen
##onger
##ongia
##ongo
##ongs
##ongwe
##oni
##onia
##oniaceae
##onica
##onicus
##onidae
##onien
##oniens
##onii
##oniidae
##onimo
##oning
##onis
##oniscus
##onium
##onius
##onn
##onna
##onne
##ono
##onom
##onoma
##onomus
##onor
##onot
##onotus
##onov
##ons
##onser
##onsin
##onslaktet
##onslandor
##onso
##onst
##ont
##onta
##ontal
##onte
##ontia
##onting
##onto
##onton
##onum
##onus
##ony
##onycha
##onychus
##onym
##onymen
##onympha
##onymus
##onyx
##oo
##ood
##oon
##ooue
##op
##opa
##opal
##opan
##ope
##oped
##opel
##opelma
##opeltis
##open
##oper
##opera
##operan
##operla
##opes
##opet
##opetalum
##opeza
##opf
##oph
##opha
##ophaga
##ophagus
##ophanes
##ophia
##ophil
##ophila
##ophilus
##ophis
##ophle
##ophlebia
##ophor
##ophora
##ophoridae
##ophorus
##ophry
##ophrys
##ophth
##ophthal
##ophthalmus
##ophus
##ophy
##ophyes
##ophylax
##ophylla
##ophyllaceae
##ophyllum
##ophyt
##ophytum
##opi
##opia
##opidae
##opil
##opio
##opis
##opius
##opl
##opla
##oplan
##ople
##opleura
##oplia
##oplist
##oplus
##opo
##opod
##opoda
##opodidae
##opodium
##opogon
##opol
##opolis
##opon
##opora
##oporidae
##oporus
##opot
##opota
##opotam
##opp
##oppa
##oppen
##oppet
##oppia
##opping
##oppor
##opro
##oprocent
##oproctus
##opros
##oprosopa
##ops
##opsidae
##opsis
##opsyche
##opsylla
##opsyllus
##opt
##opter
##optera
##opteridaceae
##opteris
##opterus
##opteryx
##optila
##optilia
##opul
##opung
##opus
##opyg
##opyga
##oq
##or
##ora
##oraceae
##orak
##oralis
##oran
##oras
##orata
##orca
##ord
##orda
##orde
##orden
##order
##ordes
##ordet
##ordforande
##ordia
##ordin
##ordning
##ordningen
##ords
##ore
##orea
##oreala
##oreg
##orella
##orelse
##orelsen
##oren
##oreningar
##orensis
##orer
##orerna
##ores
##oret
##orf
##orff
##org
##organ
##organis
##organisation
##organisationen
##organisationer
##orget
##orgia
##orh
##orhina
##orhiza
##orhynch
##orhynchus
##ori
##oria
##orib
##oribates
##orid
##oridae
##oriet
##orin
##orina
##orio
##oris
##orit
##oriter
##orium
##orj
##ork
##orkest
##orkester
##orl
##orld
##orlunda
##orm
##orma
##ormstjarnor
##orn
##orna
##ornas
##orne
##ornet
##ornis
##orno
##orns
##oro
##oros
##orp
##orph
##orpha
##orps
##orr
##orra
##orrar
##orre
##orrh
##ors
##orsak
##ort
##orte
##orten
##orter
##orth
##orts
##ortsvaxtart
##ortsvaxter
##orum
##orus
##ory
##orylas
##orz
##os
##osa
##osaari
##osam
##osan
##osaur
##osaurus
##osc
##oscelis
##osch
##osci
##oscia
##oscopus
##ose
##osei
##osema
##osen
##oser
##oserica
##oset
##osex
##osh
##oshi
##osi
##osia
##osiphon
##osis
##osit
##osita
##osition
##ositionen
##ositioner
##osjon
##oslav
##oslov
##osm
##osma
##oso
##osof
##osom
##osoma
##osp
##osperma
##ospermum
##ospha
##osphaer
##osphaeria
##osphaeriaceae
##ospila
##ospilus
##ospor
##ospora
##osporium
##osporum
##oss
##ossa
##ossen
##ossor
##ost
##osta
##ostad
##osteg
##ostema
##ostemma
##ostemon
##osten
##oster
##ostern
##osterreich
##osticta
##ostig
##ostigma
##ostola
##ostoma
##ostomum
##ostomus
##ostylis
##ostylus
##osum
##osus
##osyllis
##ot
##ota
##otaceae
##otaenia
##otal
##otan
##otarsus
##otata
##otaxis
##ote
##otea
##otek
##oten
##otepec
##oter
##otes
##otet
##otettix
##oth
##othea
##otheca
##othecium
##other
##othisa
##otho
##othoe
##othorax
##othrips
##othrix
##othrus
##othy
##oti
##otia
##otidae
##otin
##otiomycetes
##otis
##otisk
##otiska
##oto
##otoma
##oton
##otor
##otos
##otr
##otrema
##otria
##otrich
##otricha
##otrichia
##otrichum
##otro
##otrop
##otropis
##ots
##otsel
##ott
##otta
##otte
##otten
##ottens
##otter
##otterna
##otti
##ottis
##otum
##otus
##otyle
##otyp
##otyper
##ou
##oua
##ouais
##ouan
##ouane
##ouar
##ouard
##oub
##ouch
##oud
##oue
##ouf
##ough
##oui
##ouia
##ouine
##ouk
##oul
##oula
##oum
##oun
##oupe
##our
##oura
##ourd
##ourea
##ourg
##ouri
##ours
##ourt
##ous
##out
##outi
##oux
##ouz
##ov
##ova
##ovac
##ovaca
##ovan
##ovar
##ovard
##ovare
##ove
##ovec
##ovel
##oven
##over
##overk
##overket
##ovi
##ovia
##ovic
##ovica
##ovice
##ovich
##oviensis
##ovii
##ovina
##ovis
##ovit
##ovitj
##ovka
##ovning
##ovo
##ovs
##ovskij
##ovsky
##ovy
##ow
##oway
##ower
##owicz
##own
##owr
##ows
##owska
##owski
##ox
##oxia
##oxid
##oxylon
##oy
##oya
##oz
##ozetes
##ozo
##p
##pa
##pack
##pad
##padd
##pal
##palatset
##pan
##panel
##pann
##pans
##par
##para
##parasit
##paret
##park
##parken
##part
##parten
##parti
##partiet
##partiets
##pas
##pass
##passa
##pat
##pe
##ped
##pedagog
##pedition
##peditionen
##pel
##pelare
##peller
##pen
##penn
##pennis
##per
##pera
##perad
##peratur
##peraturen
##peri
##period
##perioden
##perioder
##perm
##perma
##permum
##perna
##pers
##person
##personal
##personer
##pert
##perto
##pes
##pet
##ph
##pha
##phaer
##pher
##phia
##phis
##phus
##phy
##pi
##pia
##pid
##pil
##pin
##pina
##ping
##pip
##pis
##pit
##pjas
##pl
##plac
##plan
##planen
##planet
##plant
##plar
##plat
##plats
##platsen
##platser
##platt
##plattor
##ple
##plen
##plet
##plikt
##po
##poang
##pol
##poli
##polit
##politik
##politiken
##politiska
##pool
##pop
##por
##pora
##port
##porten
##portratt
##post
##posten
##pot
##pp
##ppa
##ppar
##ppe
##ppel
##ppen
##pper
##ppo
##pr
##prak
##pre
##predik
##president
##press
##prin
##pris
##prise
##priset
##prist
##pro
##problem
##process
##processen
##produc
##producent
##produkt
##produkter
##produktion
##produktionen
##prof
##program
##programmet
##projekt
##projektet
##prov
##provinsen
##ps
##pt
##pta
##ptus
##pu
##pun
##punct
##punctata
##punkt
##punkten
##punkter
##pur
##pus
##put
##puts
##py
##q
##qa
##qaa
##qah
##qan
##qar
##qat
##qi
##qiao
##qing
##qq
##qu
##qua
##quart
##que
##quel
##quen
##quer
##ques
##quet
##queta
##quez
##qui
##quia
##quil
##quin
##quis
##quist
##quito
##qvist
##r
##ra
##rab
##rac
##rach
##racing
##rack
##racklig
##rackligt
##racon
##rad
##rada
##radande
##radd
##radde
##rade
##raden
##rader
##raderi
##rades
##radet
##radio
##rado
##rador
##rae
##raea
##raf
##raff
##rafik
##rafiken
##raft
##rag
##raga
##ragan
##ragas
##rage
##ragen
##raget
##ragor
##rah
##rai
##raim
##rain
##rak
##raken
##raket
##rakt
##rakter
##ral
##rala
##ralis
##rall
##ralt
##ram
##rama
##ran
##rana
##ranch
##rand
##rande
##randen
##rane
##rang
##ranger
##rani
##rania
##rank
##rankar
##rann
##rano
##rans
##ranschen
##ransen
##rant
##ranter
##ranth
##rantha
##ranthes
##ranthus
##rantz
##ranus
##ranychus
##rap
##rapp
##rapporter
##rar
##rare
##raren
##raria
##rarna
##ras
##rash
##rasia
##rask
##raska
##rasket
##rass
##rasse
##rasset
##rast
##rat
##rata
##ratal
##raten
##rater
##rath
##ration
##rationen
##rationer
##rations
##rats
##ratt
##ratta
##rattades
##ratten
##ratter
##rattigheter
##rattor
##ratts
##ratus
##rav
##raven
##rax
##ray
##raz
##re
##rea
##real
##reation
##reb
##recht
##rechus
##reck
##red
##redakt
##redaktor
##rede
##rediens
##redik
##redning
##redningen
##reds
##ree
##reform
##reformen
##reg
##regement
##regemente
##regementet
##regementets
##reger
##regering
##regeringen
##region
[...]
