[unused0]
[unused1]
[unused2]
[unused3]
[unused4]
[unused5]
[unused6]
[unused7]
[unused8]
[unused9]
[unused10]
[unused11]
[unused12]
[unused13]
[unused14]
[unused15]
[unused16]
[unused17]
[unused18]
[unused19]
[unused20]
[unused21]
[unused22]
[unused23]
[unused24]
[unused25]
[unused26]
[unused27]
[unused28]
[unused29]
[unused30]
[unused31]
[unused32]
[unused33]
[unused34]
[unused35]
[unused36]
[unused37]
[unused38]
[unused39]
[unused40]
[unused41]
[unused42]
[unused43]
[unused44]
[unused45]
[unused46]
[unused47]
[unused48]
[unused49]
[unused50]
[unused51]
[unused52]
[unused53]
[unused54]
[unused55]
[unused56]
[unused57]
[unused58]
[unused59]
[unused60]
[unused61]
[unused62]
[unused63]
[unused64]
[unused65]
[unused66]
[unused67]
[unused68]
[unused69]
[unused70]
[unused71]
[unused72]
[unused73]
[unused74]
[unused75]
[unused76]
[unused77]
[unused78]
[unused79]
[unused80]
[unused81]
[unused82]
[unused83]
[unused84]
[unused85]
[unused86]
[unused87]
[unused88]
[unused89]
[unused90]
[unused91]
[unused92]
[unused93]
[unused94]
[unused95]
[unused96]
[unused97]
[unused98]
[unused99]
[unused100]
[unused101]
[unused102]
[unused103]
[unused104]
[unused105]
[unused106]
[unused107]
[unused108]
[unused109]
[unused110]
[unused111]
[unused112]
[unused113]
[unused114]
[unused115]
[unused116]
[unused117]
[unused118]
[unused119]
[unused120]
[unused121]
[unused122]
[unused123]
[unused124]
[unused125]
[unused126]
[unused127]
[unused128]
[unused129]
[unused130]
[unused131]
[unused132]
[unused133]
[unused134]
[unused135]
[unused136]
[unused137]
[unused138]
[unused139]
[unused140]
[unused141]
[unused142]
[unused143]
[unused144]
[unused145]
[unused146]
[unused147]
[unused148]
[unused149]
[unused150]
[unused151]
[unused152]
[unused153]
[unused154]
[unused155]
[unused156]
[unused157]
[unused158]
[unused159]
[unused160]
[unused161]
[unused162]
[unused163]
[unused164]
[unused165]
[unused166]
[unused167]
[unused168]
[unused169]
[unused170]
[unused171]
[unused172]
[unused173]
[unused174]
[unused175]
[unused176]
[unused177]
[unused178]
[unused179]
[unused180]
[unused181]
[unused182]
[unused183]
[unused184]
[unused185]
[unused186]
[unused187]
[unused188]
[unused189]
[unused190]
[unused191]
[unused192]
[unused193]
[unused194]
[unused195]
[unused196]
[unused197]
[unused198]
[unused199]
[unused200]
[unused201]
[unused202]
[unused203]
[unused204]
[unused205]
[unused206]
[unused207]
[unused208]
[unused209]
[unused210]
[unused211]
[unused212]
[unused213]
[unused214]
[unused215]
[unused216]
[unused217]
[unused218]
[unused219]
[unused220]
[unused221]
[unused222]
[unused223]
[unused224]
[unused225]
[unused226]
[unused227]
[unused228]
[unused229]
[unused230]
[unused231]
[unused232]
[unused233]
[unused234]
[unused235]
[unused236]
[unused237]
[unused238]
[unused239]
[unused240]
[unused241]
[unused242]
[unused243]
[unused244]
[unused245]
[unused246]
[unused247]
[unused248]
[unused249]
[unused250]
[unused251]
[unused252]
[unused253]
[unused254]
[unused255]
[unused256]
[unused257]
[unused258]
[unused259]
[unused260]
[unused261]
[unused262]
[unused263]
[unused264]
[unused265]
[unused266]
[unused267]
[unused268]
[unused269]
[unused270]
[unused271]
[unused272]
[unused273]
[unused274]
[unused275]
[unused276]
[unused277]
[unused278]
[unused279]
[unused280]
[unused281]
[unused282]
[unused283]
[unused284]
[unused285]
[unused286]
[unused287]
[unused288]
[unused289]
[unused290]
[unused291]
[unused292]
[unused293]
[unused294]
[unused295]
[unused296]
[unused297]
[unused298]
[unused299]
[unused300]
[unused301]
[unused302]
[unused303]
[unused304]
[unused305]
[unused306]
[unused307]
[unused308]
[unused309]
[unused310]
[unused311]
[unused312]
[unused313]
[unused314]
[unused315]
[unused316]
[unused317]
[unused318]
[unused319]
[unused320]
[unused321]
[unused322]
[unused323]
[unused324]
[unused325]
[unused326]
[unused327]
[unused328]
[unused329]
[unused330]
[unused331]
[unused332]
[unused333]
[unused334]
[unused335]
[unused336]
[unused337]
[unused338]
[unused339]
[unused340]
[unused341]
[unused342]
[unused343]
[unused344]
[unused345]
[unused346]
[unused347]
[unused348]
[unused349]
[unused350]
[unused351]
[unused352]
[unused353]
[unused354]
[unused355]
[unused356]
[unused357]
[unused358]
[unused359]
[unused360]
[unused361]
[unused362]
[unused363]
[unused364]
[unused365]
[unused366]
[unused367]
[unused368]
[unused369]
[unused370]
[unused371]
[unused372]
[unused373]
[unused374]
[unused375]
[unused376]
[unused377]
[unused378]
[unused379]
[unused380]
[unused381]
[unused382]
[unused383]
[unused384]
[unused385]
[unused386]
[unused387]
[unused388]
[unused389]
[unused390]
[unused391]
[unused392]
[unused393]
[unused394]
[unused395]
[unused396]
[unused397]
[unused398]
[unused399]
[unused400]
[unused401]
[unused402]
[unused403]
[unused404]
[unused405]
[unused406]
[unused407]
[unused408]
[unused409]
[unused410]
[unused411]
[unused412]
[unused413]
[unused414]
[unused415]
[unused416]
[unused417]
[unused418]
[unused419]
[unused420]
[unused421]
[unused422]
[unused423]
[unused424]
[unused425]
[unused426]
[unused427]
[unused428]
[unused429]
[unused430]
[unused431]
[unused432]
[unused433]
[unused434]
[unused435]
[unused436]
[unused437]
[unused438]
[unused439]
[unused440]
[unused441]
[unused442]
[unused443]
[unused444]
[unused445]
[unused446]
[unused447]
[unused448]
[unused449]
[unused450]
[unused451]
[unused452]
[unused453]
[unused454]
[unused455]
[unused456]
[unused457]
[unused458]
[unused459]
[unused460]
[unused461]
[unused462]
[unused463]
[unused464]
[unused465]
[unused466]
[unused467]
[unused468]
[unused469]
[unused470]
[unused471]
[unused472]
[unused473]
[unused474]
[unused475]
[unused476]
[unused477]
[unused478]
[unused479]
[unused480]
[unused481]
[unused482]
[unused483]
[unused484]
[unused485]
[unused486]
[unused487]
[unused488]
[unused489]
[unused490]
[unused491]
[unused492]
[unused493]
[unused494]
[unused495]
[unused496]
[unused497]
[unused498]
[unused499]
[CLS]
[MASK]
[PAD]
[SEP]
[UNK]
!
"
#
$
%
&
'
(
)
*
+
,
-
.
/
0
1
2
3
4
5
6
7
8
9
:
;
<
=
>
?
@
[
\
]
^
_
`
a
b
c
d
e
f
g
h
i
j
k
l
m
n
o
p
q
r
s
t
u
v
w
x
y
z
{
|
}
~
¡
¢
£
¤
¥
¦
§
¨
©
ª
«
¬
®
°
±
²
³
´
µ
¶
·
¸
¹
º
»
¼
½
¾
¿
×
ß
æ
ð
÷
ø
þ
đ
ħ
ı
ł
ŋ
œ
ƒ
ɑ
ɔ
ə
ɛ
ɪ
ʃ
ʰ
ʹ
ʻ
ʼ
ʾ
ʿ
ˆ
ˇ
ˈ
ː
˚
˜
α
β
γ
δ
ε
ζ
η
θ
ι
κ
λ
μ
ν
ξ
ο
π
ρ
ς
σ
τ
υ
φ
χ
ψ
ω
а
б
в
г
д
е
ж
з
и
к
л
м
н
о
п
р
с
т
у
ф
х
ц
ч
ш
щ
ъ
ы
ь
э
ю
я
є
ѕ
і
ј
ћ
ґ
ա
ե
ի
յ
ն
ո
ս
ր
א
ב
ג
ד
ה
ו
ז
ח
ט
י
כ
ל
ם
מ
ן
נ
ס
ע
פ
צ
ק
ר
ש
ת
،
ء
ا
ب
ة
ت
ث
ج
ح
خ
د
ذ
ر
ز
س
ش
ص
ض
ط
ظ
ع
غ
ـ
ف
ق
ك
ل
م
ن
ه
و
ى
ي
ٱ
پ
چ
ک
گ
ہ
ی
क
ग
च
ज
त
द
न
प
ब
भ
म
य
र
ल
व
श
स
ह
ा
ि
ी
ो
॥
ক
ত
দ
ন
ব
ম
য
র
ল
স
া
ি
ে
ਕ
ਜ
ਤ
ਨ
ਪ
ਮ
ਰ
ਲ
ਵ
ਸ
ਹ
ਾ
ਿ
ੀ
க
ட
த
ம
ர
ா
ி
ு
ం
క
త
ద
న
ప
ర
ల
ు
ก
ค
ง
จ
ช
ด
ต
ท
น
บ
ป
พ
ม
ย
ร
ล
ว
ส
ห
อ
ะ
า
฿
เ
แ
ไ
་
ག
ང
ད
ན
པ
བ
མ
འ
ར
ལ
ས
ა
ე
ი
ლ
მ
ნ
ო
რ
ს
ღ
ᄀ
ᄂ
ᄃ
ᄅ
ᄆ
ᄇ
ᄉ
ᄋ
ᄌ
ᄎ
ᄏ
ᄐ
ᄑ
ᄒ
ᅡ
ᅢ
ᅥ
ᅦ
ᅧ
ᅩ
ᅪ
ᅭ
ᅮ
ᅲ
ᅳ
ᅴ
ᅵ
ᆨ
ᆫ
ᆯ
ᆷ
ᆸ
ᆻ
ᆼ
ា
‐
‑
‒
–
—
―
‘
’
‚
“
”
„
†
•
…
‰
′
″
‹
›
⁄
₂
₨
€
℃
℉
™
←
↑
→
↓
∂
−
∙
√
≈
≤
≥
⋅
─
│
├
╕
■
□
▫
►
▻
◆
○
●
☀
★
☆
☺
♀
♂
♠
♡
♣
♥
♦
✅
✓
✔
✚
✨
❄
❤
➢
➧
⠀
、
。
「
」
【
】
あ
い
う
え
お
か
き
く
け
こ
さ
し
す
せ
そ
た
ち
っ
つ
て
と
な
に
の
は
ひ
へ
ま
み
め
も
や
よ
ら
り
る
れ
わ
を
ん
ア
ィ
イ
ウ
ェ
エ
オ
カ
キ
ク
ケ
コ
サ
シ
ス
セ
ソ
タ
チ
ッ
ツ
テ
ト
ナ
ニ
ヌ
ネ
ハ
ヒ
フ
ヘ
ホ
マ
ミ
ム
メ
モ
ャ
ュ
ョ
ラ
リ
ル
レ
ロ
ワ
ン
・
ー
一
七
万
三
上
下
不
世
业
东
两
个
中
为
主
么
之
乐
九
也
乡
买
了
事
二
于
五
交
产
京
人
今
他
仙
代
以
们
件
任
会
传
位
体
何
佛
作
使
保
信
元
先
光
免
入
全
八
公
六
关
其
典
内
円
准
凤
出
分
创
利
到
制
前
力
加
动
動
化
北
区
十
华
单
南
博
原
县
及
双
发
取
口
古
句
可
台
史
号
司
合
同
名
后
周
和
品
商
啊
啥
器
四
回
国
图
國
圓
在
地
场
址
坛
城
基
堂
報
場
士
外
多
大
天
太
头
奇
奖
女
好
姐
婆
子
字
学
學
宁
安
宗
官
定
宝
实
客
家
富
对
寺
将
小
少
就
尾
展
山
島
川
州
工
市
布
帝
常
平
年
广
库
店
府
度
建
开
式
当
彩
律
得
德
心
必
快
思
性
情
意
感
成
我
所
手
技
报
持
挂
指
提
政
救
教
数
文
料
新
方
族
无
日
时
明
星
是
時
更
書
曾
最
月
有
服
期
木
本
机
杀
李
村
来
東
林
果
校
格
業
機
正
武
比
民
氓
気
水
江
河
治
法
波
活
流
海
清
港
湖
源
点
無
然
片
版
牌
牛
物
特
狗
玄
王
玩
现
球
理
生
用
田
电
画
界
白
百
的
皇
目
直
相
看
県
真
着
知
石
码
社
神
福
科
程
空
立
站
第
等
算
管
精
系
經
红
线
经
结
网
美
群
老
者
肖
能
自
色
花
英
行
表
西
要
見
规
解
言
語
计
记
论
设
诗
财
费
资
赌
赛
起
跑
路
车
这
进
通
道
部
都
酶
里
重
野
量
金
钱
铁
错
镇
長
长
開
間
门
阳
限
院
集
電
青
面
音
香
马
高
黄
龙
ﬀ
ﬁ
ﬂ
！
（
）
，
：
？
ﾆ
ﾊ
ﾟ
￼
🏻
🏼
👌
👍
👏
💪
💲
😀
😁
😂
😃
😄
😅
😆
😉
😊
😍
😎
😛
🙁
🙂
🙄
🙌
🤔
🤗
00
000
01
02
03
04
05
06
07
08
09
10
100
1000
100mg
101
102
103
104
105
106
107
108
109
11
110
1100
111
112
113
114
115
116
117
118
119
12
120
1200
121
122
123
124
125
126
127
128
129
13
130
1300
132
134
135
136
137
138
139
14
140
1400
144
145
146
147
148
149
15
150
1500
154
155
156
157
158
159
16
160
1600
164
165
166
167
168
169
17
170
1700
173
174
175
1750
176
177
178
1789
179
18
180
1800
1801
1807
1808
181
1810
1814
1815
1816
1818
182
1820
1821
1825
183
1830
1833
1836
1837
1838
1839
184
1840
1841
1842
1843
1844
1845
1846
1847
1848
1849
185
1850
1851
1852
1853
1854
1855
1856
1857
1858
1859
186
1860
1861
1862
1863
1864
1865
1866
1867
1868
1869
187
1870
1871
1872
1873
1874
1875
1876
1877
1878
1879
188
1880
1881
1882
1883
1884
1885
1886
1887
1888
1889
189
1890
1891
1892
1893
1894
1895
1896
1897
1898
1899
19
190
1900
1901
1902
1903
1904
1905
1906
1907
1908
1909
191
1910
1911
1912
1913
1914
1915
1916
1917
1918
1919
192
1920
1921
1922
1923
1924
1925
1926
1927
1928
1929
193
1930
1931
1932
1933
1934
1935
1936
1937
1938
1939
194
1940
1941
1942
1943
1944
1945
1946
1947
1948
1949
195
1950
1951
1952
1953
1954
1955
1956
1957
1958
1959
196
1960
1961
1962
1963
1964
1965
1966
1967
1968
1969
197
1970
1971
1972
1973
1974
1975
1976
1977
1978
1979
198
1980
1981
1982
1983
1984
1985
1986
1987
1988
1989
199
1990
1991
1992
1993
1994
1995
1996
1997
1998
1999
20
200
2000
2001
2002
2003
2004
2005
2006
2007
2008
2009
201
2010
2011
2012
2013
2014
2015
2016
2017
2018
2019
2020
2021
2025
2030
21
210
215
22
220
225
229
23
230
24
240
25
250
2500
26
260
27
270
28
280
29
2x
30
300
3000
31
32
320
33
330
34
35
350
36
360
365
37
38
39
3d
40
400
4000
41
42
420
43
44
45
450
46
47
48
49
4x
50
500
5000
51
52
53
54
55
550
56
57
58
59
60
600
6000
61
62
63
64
65
650
66
67
68
69
70
700
7000
71
72
73
74
75
750
76
77
78
79
80
800
8000
81
82
83
84
85
850
86
87
88
89
90
900
91
92
93
94
95
96
97
98
99
a1
a3
a4
aa
aaa
aal
aam
aar
aas
aasen
ab
abb
abc
abd
abel
aber
abo
abon
abonn
abonnement
abonnenter
abort
about
abra
abraham
abs
absolutt
absolutte
absor
absorber
absurd
abu
ac
academy
acc
access
account
ach
act
action
activ
active
ad
adam
adams
adap
adc
adcirca
add
address
ade
adel
adelen
aden
adferd
adgang
adgangen
adhd
adidas
adkomst
adm
admin
administ
administrasjon
administrasjonen
administrasjons
administrasjonssenteret
administrat
administrativ
administrative
administrativt
administrator
administrere
administrerende
admiral
adobe
adolf
adop
adopsjon
adre
adren
adress
adresse
adresseavisen
adressen
adresser
adri
adrian
adskilt
adult
advan
advar
advare
advarer
advarsel
advarsler
advart
advarte
advent
advisor
advisory
advok
advokat
advokaten
advokater
aer
af
aff
affære
afg
afgh
afghan
afghanistan
afghanske
afp
afri
afrik
afrika
afrikansk
afrikanske
afro
aft
aften
aftenposten
after
ag
aga
agder
age
agen
agency
agenda
agendaen
agent
agenter
agentur
agg
aggreg
aggresjon
aggress
aggressiv
aggressive
agn
agnes
ago
agoda
ah
ai
aids
air
airlines
airport
aj
aja
ak
aka
akadem
akademi
akademia
akademiet
akademisk
akademiske
ake
aker
akershus
akk
akkomp
akkred
akkum
akkurat
akryl
aks
akse
aksel
akseler
aksep
aksept
akseptabel
akseptabelt
akseptere
aksepterer
aksepteres
akseptert
aksepterte
aksje
aksjekapital
aksjem
aksjen
aksjene
aksjer
aksjesel
aksjeselskap
aksjon
aksjonen
aksjoner
aksjonær
aksjonærene
aksjonærer
akt
akter
aktiv
aktive
aktiver
aktivere
aktivert
aktivitet
aktiviteten
aktivitetene
aktiviteter
aktivitetsniva
aktivt
aktuell
aktuelle
aktuelt
aktør
aktørene
aktører
akup
akust
akustisk
akutt
akutte
akv
akvakultur
akvar
al
ala
alan
alarm
alaska
alb
alban
albania
albert
albu
album
albumet
aldeles
alder
alderen
alders
aldersgrense
aldersgruppe
aldersgruppen
aldersgrupper
alderspensjon
aldre
aldri
aldring
ale
aleine
aleks
aleksand
aleksander
alene
alesund
alex
alexand
alexander
alexandra
alf
alfa
alfab
alfabetet
alfred
alge
alger
algerie
algor
algorit
ali
alice
alko
alkohol
all
alla
allah
alle
allen
aller
allere
allerede
allereie
allerg
allergi
alles
alli
allianse
alliansen
alliert
allierte
allikevel
allmen
allmenn
allmenne
allmennheten
allment
allsidig
alltid
alltids
alm
alma
alminn
alminnelig
alminnelige
alp
alpene
alpin
alpint
also
alt
alta
alter
altern
alternativ
alternative
alternativene
alternativer
alternativet
alternativt
altfor
altinn
altsa
aluminium
alv
alvor
alvorlig
alvorlige
alvorlighet
am
ama
amalie
amanda
amateur
amatør
amatører
amazon
amb
ambass
ambassa
ambassad
ambassade
ambassaden
ambassadør
ambisi
ambisiøse
ambisjon
ambisjoner
ambul
ambulanse
amer
america
american
amerik
amerika
amerikanere
amerikanerne
amerikansk
amerikanske
amf
amfi
amig
amigos
amin
aminos
amme
amming
ammon
ammun
ammunisjon
amne
amor
amot
amp
amster
amsterdam
amt
amund
amundsen
amy
an
ana
anal
analog
analsex
analy
analys
analyse
analysen
analysene
analyser
analysere
analyserer
analysert
analyt
analytics
analytiske
anark
anat
anatomi
anavn
anbef
anbefale
anbefaler
anbefales
anbefaling
anbefalingene
anbefalinger
anbefalt
anbefalte
anbud
and
ande
andel
andelen
andeler
andelig
andelige
andelse
anden
ander
anders
andersen
anderson
andersson
andre
andrea
andreas
andreassen
andreplass
andreplassen
andres
andresen
andrew
andro
android
andsverk
andy
ane
anelse
aner
anerkj
anerkjenne
anerkjennelse
anerkjenner
anerkjent
anerkjente
anette
anfall
anført
ang
angaende
angar
angel
angeles
angelsaks
angi
angir
angis
angitt
angitte
angiv
angivelig
angre
angrep
angrepene
angrepet
angrer
angrerett
angri
angripe
angriper
angst
anim
animal
animasjon
anime
anita
anja
anke
anker
anket
ankl
anklager
anklaget
ankom
ankommer
ankomst
anlagt
anled
anledning
anledningen
anledninger
anlegg
anleggene
anlegget
anløp
anm
anmeld
anmeldelse
anmeldelsen
anmeldelser
anmelder
anmeldt
anmeldte
anmod
anmodning
ann
anna
annan
anne
annen
annenhver
anner
annerledes
annet
anno
annons
annonse
annonsen
annonsene
annonser
annonsere
annonsering
annonsert
annonserte
annunci
anonym
anonyme
anonymt
ans
ansa
ansatt
ansatte
ansattes
anse
ansees
anser
anses
ansett
ansette
ansettelse
ansettelser
ansettelses
ansi
ansiennitet
ansikt
ansikter
ansiktet
ansikts
anska
anskaff
anskaffelse
anskaffelser
anskaffelses
anslag
anslar
anslas
anslatt
anstr
anstreng
ansvar
ansvaret
ansvarlig
ansvarlige
ant
anta
antagelig
antak
antakelig
antall
antallet
antar
antarctic
antarkt
antarktis
antas
antatt
ante
antenne
antennene
antenner
anth
anthony
anti
antib
antibi
antibiotika
antid
antidoping
antik
antikk
antikke
antikken
antikkens
antioksid
antioksidanter
antis
antisem
antist
antok
anton
antonio
antrekk
antrekket
antrop
antwer
antwerpen
antyd
antyder
antydet
anvend
anvende
anvendelse
anvendes
anvendt
any
ap
apart
apen
apenbar
apenbare
apenbart
apenhet
apent
apne
apner
apnes
apnet
apning
apningen
apninger
apnings
apningstid
apningstider
apos
apost
apotek
apoteket
app
appar
apparat
apparater
apparatet
appell
appeller
appels
appelsin
appen
appene
apper
appet
appetitt
applaus
apple
apples
applik
applikasjon
applikasjonen
applikasjoner
apps
apr
april
apris
aps
aq
aqu
ar
ara
arab
arabia
arabisk
arabiske
arb
arbeid
arbeidde
arbeide
arbeidene
arbeider
arbeidere
arbeiderne
arbeiderparti
arbeiderpartiet
arbeiderpartiets
arbeides
arbeidet
arbeids
arbeidsb
arbeidsdag
arbeidsevne
arbeidsforhold
arbeidsgiver
arbeidsgiveravgift
arbeidsgivere
arbeidsgiveren
arbeidsgivers
arbeidsgruppe
arbeidsgruppen
arbeidsh
arbeidsinn
arbeidskraft
arbeidsled
arbeidsledighet
arbeidsliv
arbeidslivet
arbeidsm
arbeidsmarked
arbeidsmarkedet
arbeidsmiljø
arbeidsmiljøet
arbeidsmiljøloven
arbeidsoppgavene
arbeidsoppgaver
arbeidspl
arbeidsplass
arbeidsplassen
arbeidsplasser
arbeidssted
arbeidssøk
arbeidst
arbeidstaker
arbeidstakere
arbeidstakeren
arbeidstakerne
arbeidstid
arbeidstiden
arbeidstilsynet
arbeidsutvalget
arbeidsvilkar
arc
arch
arctic
ardal
are
area
areal
arealene
arealer
arealet
arena
arenaen
arenaer
arendal
arene
arenes
aret
arets
arevis
arg
argang
argent
argentina
argum
argument
argumentasjon
argumentene
argumenter
argumentere
argumenterer
argumentet
arhund
arhundre
arhundrer
arhundret
ari
arig
arige
arild
aring
aringen
aringer
arist
aristot
arizona
ark
arke
arkeologi
arkeologisk
arkeologiske
arket
arkite
arkitekt
arkitekten
arkitekter
arkitekton
arkitektur
arkitekturen
arkiv
arkivdel
arkiver
arkivet
arkt
arktis
arktiske
arlig
arlige
arm
armb
armband
arme
armen
armene
armenia
armer
army
arn
arna
arne
arnes
arnesen
arnold
arnt
arom
aroma
arr
arrang
arrangem
arrangement
arrangementene
arrangementer
arrangementet
arranger
arrangere
arrangerer
arrangeres
arrangert
arrangerte
arrangør
arrangøren
arrangørene
arrangører
arrekke
arrest
arrestert
ars
arsak
arsaken
arsakene
arsaker
arsaks
arsber
arsberetning
arsen
arsenal
arsjub
arsjubileum
arsm
arsmelding
arsmøte
arsmøtet
arsrapport
arsregn
arsregnskap
arsregnskapet
arsskiftet
arstid
arsverk
art
artar
arten
artene
arter
arthur
artig
artik
artikk
artikkel
artikkelen
artiklene
artikler
artiller
artist
artisten
artistene
artister
arts
artsrike
arv
arve
arven
arvet
arvid
as
asa
asane
asb
asbjørn
asche
aschehoug
ase
asen
aser
aserba
aserbajd
asf
asfalt
ash
asi
asia
asian
asiatisk
asiatiske
ask
aske
asker
askim
askøy
asl
asm
asp
aspe
aspekt
aspekter
aspektet
asper
ass
assist
assistanse
assistent
assistenter
assister
assisterende
assoc
association
assos
assosi
assosiasjoner
assosiert
asss
ast
astedet
aster
astma
astr
astrid
astron
astronom
asy
asyl
asylsøker
asylsøkere
at
ate
atelier
atferd
ath
athen
atlant
atlanta
atlanter
atlanterhavet
atlas
atle
atlet
atmosf
atmosfære
atmosfæren
atom
atomvapen
att
atte
atten
attende
attent
atter
attest
attra
attraksjon
attraksjoner
attraktiv
attraktive
attraktivt
atv
au
aud
audi
audio
audun
auf
aug
august
auk
auka
auksjon
aur
aurdal
aure
aurora
aurskog
aus
auschwitz
aust
auster
austin
austral
australia
australian
australsk
australske
aut
autent
autentisk
author
auto
autom
automat
automater
automatisering
automatisert
automatisk
automatiske
autonom
autonome
autor
autorisasjon
autorisert
autoritet
av
avail
avansert
avanserte
avb
avbildet
avbrudd
avbrutt
avbry
avbryte
avd
avde
avdekke
avdekker
avdekket
avdel
avdeling
avdelingen
avdelingene
avdelinger
avdelings
avdelingsleder
avdrag
avdu
avdøde
aven
aver
avfall
avfallet
avføring
avg
avgang
avganger
avgarde
avgi
avgift
avgiften
avgifter
avgir
avgitt
avgjort
avgjør
avgjøre
avgjørelse
avgjørelsen
avgjørelser
avgjørende
avgjøres
avgrens
avgrenset
avh
avhandling
avhandlingen
avhenge
avhenger
avhengig
avhengige
avhengighet
avhold
avholde
avholdes
avholdt
avhør
avinor
avis
avisa
avisen
avisene
aviser
avkast
avkastning
avkjør
avklar
avklare
avklares
avklaring
avklart
avkom
avl
avla
avlange
avlastning
avledet
avling
avls
avlyst
avløp
avreise
avrund
avsatt
avsk
avska
avskjed
avsl
avsla
avslag
avslapp
avslappende
avslappet
avslatt
avslut
avslutning
avslutningen
avslutt
avslutte
avsluttende
avslutter
avsluttes
avsluttet
avslør
avsløre
avslører
avslørt
avslørte
avsnitt
avsnittet
avsp
avst
avsta
avstand
avstanden
avstander
avstem
avt
avtale
avtalen
avtalene
avtaler
avtales
avtalt
avtalte
avv
avve
avveie
avver
avvik
avviker
avviket
avvikle
avvikles
avviklet
avvikling
avviks
avvise
avviser
avvisning
avvist
avviste
aw
award
awards
away
ax
axel
ay
ayl
aylar
az
a¥
b2
ba
baby
babyen
babyer
babylon
bac
bach
bachel
bachelor
bachelorgrad
back
backup
bacon
bad
bade
badekar
bader
baderom
badet
bading
bag
bagasje
bagasjen
bagat
bah
bak
bake
baker
bakerst
bakfra
bakgrunn
bakgrunnen
bakgrunner
bakhodet
bakk
bakke
bakken
bakkene
bakker
bakleng
bakover
bakre
baks
baksiden
bakt
bakte
bakter
bakterie
bakterier
bal
balanse
balansen
balanser
balansere
balansert
bale
balet
bali
balkan
balkong
ball
ballen
baller
ballett
ballong
balsam
balt
bam
bamble
ban
banan
band
bandene
bandet
bandets
bandy
bane
baneb
banebryt
banebrytende
banen
banene
baner
bang
bangkok
banglad
bangladesh
bank
banken
bankene
bankens
banker
banket
bankk
banks
bann
banner
bapt
bar
barack
barbar
barbara
barber
barbere
barbering
barbert
barcel
barcelona
bard
bardu
bare
baren
barent
barentshavet
barer
baret
bark
barn
barna
barnas
barndom
barndommen
barne
barnebarn
barnebok
barnebøker
barnefamilier
barneh
barnehag
barnehage
barnehagen
barnehagene
barnehagens
barnehager
barnehjem
barneklær
barner
barnes
barneskole
barneskolen
barnet
barnets
barnevern
barnevernet
barnevernt
barneverntjenesten
barns
barokk
baron
barri
barriere
barrierer
barry
barsel
bart
bas
base
baseb
baseball
basen
baser
basere
baserer
baseres
basert
baserte
basic
basil
basis
basket
basketball
bass
bassen
basseng
bassenget
bassist
bast
bat
bataljon
baten
batene
bater
batt
batter
batteri
batteriene
batterier
batteriet
battle
battur
bay
bayern
bb
bbc
bbw
bc
bd
bdsm
be
be2
beach
bearbeid
bearbeide
bearbeidet
bearbeiding
beat
beate
beatles
beaut
beautiful
beauty
beb
bebo
beboer
beboere
beboerne
bebygg
bebyggelse
bebyggelsen
beck
bed
bede
bedrager
bedre
bedret
bedrift
bedriften
bedriftene
bedriftens
bedrifter
bedrifts
bedring
bedt
bedømme
been
bef
befal
befant
befaring
befinner
befol
befolkning
befolkningen
befolkningens
befolknings
befri
befrukt
beg
bega
begatt
begeist
begeistret
begeistring
begge
begiven
begivenhet
begivenheter
begj
begjær
begrav
begravelse
begravet
begre
begrens
begrense
begrensede
begrenser
begrenses
begrenset
begrensning
begrensninger
begrep
begrepene
begreper
begrepet
begrunn
begrunne
begrunnelse
begrunnelsen
begrunnes
begrunnet
begyn
begynn
begynne
begynnelse
begynnelsen
begynner
begynt
begynte
beh
behag
behagelig
behagelige
behand
behandle
behandler
behandles
behandlet
behandling
behandlingen
behandlinger
behandlings
beher
beherske
behjelp
behold
beholde
beholder
beholdt
behov
behovene
behovet
behøver
bei
beij
beijing
bein
beina
beinet
beit
beite
bek
bekj
bekjemp
bekjempe
bekjent
bekjente
bekjentskap
bekk
bekke
bekken
bekker
bekl
beklager
bekost
bekostning
bekre
bekreft
bekrefte
bekreftelse
bekrefter
bekreftes
bekreftet
bekvem
bekym
bekymre
bekymret
bekymring
bekymringer
bel
belast
belastes
belastet
belastning
belastningen
belastninger
bele
belegg
beleir
belg
belgia
belgiske
belig
beliggen
beliggende
beliggenhet
beliggenheten
bell
belte
belys
belyse
belyser
belysning
belyst
belønn
belønnet
belønning
beløp
beløpene
beløpet
beman
bemanning
bemannings
bemerk
bemerkelses
bemerket
ben
bena
bend
bene
bened
beng
benj
benjamin
benk
benke
benken
benker
bens
bensin
bensinst
bent
bente
benytt
benytte
benytter
benyttes
benyttet
benz
beord
beordret
ber
bere
beredskap
beredskaps
bereg
beregne
beregnes
beregnet
beregning
beregningen
beregningene
beregninger
beregnings
beretning
berettiget
berg
bergarter
berge
bergen
bergens
berger
berget
bergg
berit
berlin
bern
bernard
bernhard
bernt
berntsen
berolig
beroligende
berre
bert
beruset
berømt
berømte
berør
berøre
berører
berøring
berørt
berørte
bes
besatt
bese
beseiret
besetning
besetningen
besitt
besittelse
besitter
besk
beskj
beskjed
beskjeden
beskjeder
beskjedne
beskrev
beskrevet
beskri
beskriv
beskrive
beskrivelse
beskrivelsen
beskrivelser
beskriver
beskrives
beskyld
beskyldt
beskytt
beskytte
beskyttelse
beskyttelses
beskyttende
beskytter
beskyttet
besl
beslag
beslekt
beslektede
beslektet
beslut
beslutning
beslutningen
beslutninger
beslutnings
beslutningst
besluttet
bespar
best
besta
bestaende
bestand
bestanden
bestandig
bestar
bestatt
beste
bestefar
besteforeldre
bestem
bestemm
bestemme
bestemmelse
bestemmelsen
bestemmelsene
bestemmelser
bestemmer
bestemmes
bestemor
bestemt
bestemte
bestevenn
bestikk
bestil
bestill
bestille
bestiller
bestilles
bestilling
bestillingen
bestillinger
bestilt
bestilte
besto
bestod
bestsel
bestselger
besvar
besvare
besvart
besø
besøk
besøke
besøkende
besøker
besøket
besøks
besøksadresse
besøkt
besøkte
bet
beta
betal
betale
betaler
betales
betaling
betalingen
betalinger
betalings
betalingsm
betalt
betalte
betegn
betegnelse
betegnelsen
betegner
betegnes
betegnet
beten
betenn
betennelse
beting
betingelsene
betingelser
betinget
betjen
betjene
betjening
betong
betra
betrakt
betrakte
betraktelig
betrakter
betraktes
betraktet
betraktning
betraktninger
betre
betrygg
betryggende
better
bety
betyd
betydde
betydelig
betydelige
betydning
betydningen
betydninger
betydnings
betydningsfulle
betyr
beund
bevar
bevare
bevaring
bevart
bevarte
beveg
bevege
bevegelighet
bevegelse
bevegelsen
bevegelsene
bevegelser
bevegelses
beveger
beveget
bever
bevil
bevilg
bevilget
bevilgning
bevilgninger
bevilling
bevis
bevise
beviser
bevisst
bevisste
bevisstgjøring
bevissthet
bevisstheten
bevist
bevæp
bh
bi
bib
bibel
bibelen
bibelske
bibli
bibliote
bibliotek
biblioteket
bid
bidra
bidrag
bidragene
bidraget
bidragsy
bidragsyter
bidragsytere
bidrar
bidratt
bidro
bieber
bier
bif
biff
bifil
bifile
big
bik
bikini
bil
bilag
bild
bilde
bildene
bilder
bildes
bildet
bilen
bilene
bilens
biler
bilete
bill
billboard
bille
billed
billedkunst
billene
biller
billett
billettene
billetter
billig
billige
billigere
billigste
billy
bim
bin
bind
binde
bindende
binder
binding
bing
bingo
bio
biod
biog
biogass
biograf
biografi
biok
biologi
biologisk
biologiske
biom
biotekn
bioteknologisk
bip
bir
bird
birger
birgitte
birk
birke
birkeland
birmingham
bis
bisk
biskop
biskopen
bislett
bisp
bisped
bispedømme
bist
bista
bistand
bistar
bit
bitcoin
bite
biter
bitt
bittel
bitter
biv
bivir
bivirkninger
bj
bjar
bjarne
bjel
bjer
bjerke
bjør
bjørg
bjørgen
bjørk
bjørke
bjørklund
bjørn
bjørnar
bjørne
bjørnson
bjørvika
bk
bl
bla
blab
blabær
blac
black
blackja
blackjack
blad
bladene
blader
bladet
blak
blan
bland
blande
blander
blandes
blandet
blanding
blandingen
blandt
blank
blanke
blankt
blant
blas
blase
blaser
blaskjell
blast
blaste
blatt
ble
blei
blekk
blender
bli
blid
blikk
blikket
blind
blinde
blink
blir
blitt
blo
block
blod
blodet
blodig
blodprøver
blodsirk
blodsukker
blodtrykk
blog
blogg
blogge
bloggen
blogger
bloggere
blogget
blogging
blogginnlegg
blokk
blokker
blokkere
blokkert
blom
blomst
blomstene
blomster
blomstr
blomstre
blomstrer
blond
blonde
blood
bloom
blow
blowjob
blu
blue
blues
bluet
bluetooth
bly
blø
blød
blødning
bløt
bm
bmw
bn
bnp
bnr
bo
board
bob
bobby
bobil
boble
bod
bodd
bodde
body
bodø
boe
boeing
boende
bog
boh
boik
boikott
bok
boka
boken
bokens
bokhandel
bokhyl
bokk
bokmal
bokmerk
boks
boksen
bokser
boksing
bokstav
bokstavelig
bokstaven
bokstavene
bokstaver
bol
bolig
boligbygg
boligen
boligene
boliger
boligkjøp
boliglan
boligmarkedet
boliv
bolivia
bolle
boller
bolsje
bolsjevik
bolt
bom
bomb
bombe
bomber
bombet
bompenger
bomull
bon
bond
bondage
bonde
bonden
bonder
bonderom
bonderomantikk
bondevik
bonn
bonus
bonusen
bonuser
boob
boobs
book
booke
booket
booking
boot
booty
bop
bor
bord
bordene
border
bordet
bore
borett
borettslag
borettslaget
borg
borge
borgen
borger
borgere
borgerkrig
borgerkrigen
borgerlig
borgerlige
boring
born
bort
borte
bortek
borti
bortimot
bortsett
bos
bosatt
bosatte
bosch
bosetning
bosette
bosetting
bosn
bosnia
boss
bost
bosted
boston
bot
botan
bott
bow
bowie
bowl
bowling
box
boy
boys
bp
br
bra
brad
brak
brakk
brakt
brakte
bran
brand
brann
brannen
brannvern
brannvesen
brannvesenet
brans
bransje
bransjen
bransjer
brant
brasil
brasiliansk
brasilianske
brat
bratt
bratte
brav
bre
break
bred
bredband
bredde
bredden
brede
bredere
bredt
breen
brei
breid
breiv
breivik
brekke
brem
bremse
bremser
brenn
brenne
brennende
brenner
brennevin
brens
brensel
brent
bret
brett
brettet
brev
brevet
brevik
bri
brian
bridge
brig
bright
brikke
brikker
briller
bring
bringe
bringebær
bringer
bringes
bris
brist
bristol
brit
britene
british
britisk
britiske
britt
bro
broad
broder
broen
broer
brom
bron
bronse
bronsemedalje
brook
bror
broren
brosj
brosjyrer
brother
brothers
brow
brown
bru
brua
bruce
brud
brudd
bruddet
brude
bruer
bruk
bruka
brukar
bruke
bruken
bruker
brukere
brukeren
brukerens
brukergrens
brukermedvirkning
brukernavn
brukerne
brukernes
brukeropplevelse
brukeropplevelsen
brukervenn
brukervennlig
brukervennlige
brukervennlighet
brukes
bruket
bruks
bruksan
bruksom
bruksomrader
brukt
brukte
brumund
brumunddal
brun
brune
brunt
brus
brussel
brut
brutal
brutale
brutalt
brutt
brutto
bry
brygg
brygga
brygge
brygger
bryggeri
bryll
bryllu
bryllup
bryllupet
bryllups
bryn
bryne
bryr
bryst
brystene
bryster
brystet
brystkreft
bryte
bryter
brytes
brø
brød
brødre
brødrene
brøk
brønn
brønnøysund
brøt
bt
bu
bud
budapest
budd
budde
buddh
budsjett
budsjetter
budsjettert
budsjettet
budskap
budskapet
bue
buen
buff
buffer
bug
bugge
building
buk
bukse
bukser
bukt
bukta
bul
bulgar
bulgaria
bull
bun
bunad
bund
bundes
bundet
bunn
bunnen
bup
bur
burde
buret
burg
burger
bursdag
bursdagen
bursdags
bus
buset
bush
business
busk
busker
buskerud
buss
bussen
bussene
busser
bust
bustad
but
butikk
butikken
butikkene
butikker
butt
butter
buy
buzz
by
bydel
bydelen
bydelene
bydeler
bye
byen
byene
byens
byer
byg
bygd
bygda
bygde
bygdene
bygdøy
bygg
bygge
byggen
byggene
byggeprosjekter
bygger
bygges
bygget
byggher
byggherre
byggherren
bygging
byggingen
byggverk
byggverket
bygning
bygningen
bygningene
bygninger
bygnings
bygningsloven
bygningsm
bymisjon
byr
byra
byrad
byradet
byrak
byrakrat
byrja
byrjinga
bys
bysant
bystyre
bystyret
bytt
bytte
bytter
byttes
byttet
byutvikling
bæ
bær
bærbare
bære
bærekraft
bærekraftig
bærekraftige
bærende
bærer
bæres
bærum
bø
bød
bøkene
bøker
bøl
bølge
bølgel
bølgen
bølgene
bølger
bøndene
bønder
bønn
bønner
bør
børge
børre
børs
børsen
børsnot
børste
bøter
bøy
bøye
bøyer
ca
cab
cad
cafe
cal
cali
californ
california
call
cam
cambridge
camer
camil
camilla
camp
camping
campus
can
canad
canada
canaria
cand
cann
cannabis
canon
cant
cap
cape
capp
cappelen
capt
car
card
cardi
care
carl
carlos
carlsen
carol
carolina
caroline
cart
cartoon
cas
case
cash
casin
casino
casinoer
casinoet
casinospill
casio
cass
cast
castle
casual
cat
catal
cath
cathrine
cato
cav
cc
cd
ce
cec
cecil
cecilie
cel
celeb
cell
celle
cellene
celler
celt
cent
center
centimeter
central
centre
cer
ceram
cerambyc
cerambycidae
cert
ces
cet
cf
ch
cha
chall
challenge
cham
champ
champagne
champion
champions
championship
chang
change
channel
chap
char
charles
charlie
charlo
charlotte
charter
chat
chate
chateau
chatro
chatroulette
chatt
chatte
chatter
chattes
chattesider
che
check
chelse
chelsea
chem
cher
chi
chic
chicago
chil
child
children
chile
chili
china
chip
cho
chris
christ
christensen
christer
christian
christiania
christiansen
christina
christine
christmas
christoffer
christopher
chrome
chry
church
ci
cia
cialis
cic
cin
cir
cirka
cis
cit
citizen
city
civ
ck
cl
cla
clar
clark
class
classic
claud
claus
cle
clean
clear
cli
click
clint
clinton
clo
cloud
club
cm
cnn
co
co2
coach
coaching
coast
cob
coc
coca
cock
code
col
cola
cole
coll
colle
collection
college
colom
colombia
color
colorado
colum
columbia
columbus
com
come
comeb
comeback
comm
comment
comments
committe
committee
common
commun
communic
community
comp
compan
company
computer
con
conc
cond
conf
confer
conference
cong
conne
connect
conrad
cons
const
consult
cont
contact
container
content
contest
contin
continue
control
cook
cookie
cookies
cool
coop
cooper
cop
copyr
copyright
cor
cord
core
corn
corner
corpor
corporation
cort
cos
cost
costa
cott
coug
cougar
coun
council
count
country
county
cour
court
cov
cover
cow
cp
cr
cra
craft
craig
crazy
cre
creamp
creampie
creative
cred
crew
crist
cro
cross
crow
cru
cruise
cry
cs
ct
cu
cub
cuba
cult
cum
cup
cupen
cur
curt
cust
custom
cut
cv
cy
cyber
cæ
cæsar
da
daa
dab
dad
dag
dagar
dagblad
dagbladet
dagbladets
dagbok
dagen
dagene
dagens
dager
dagers
daglig
dagligdag
daglige
dagliglivet
dagligvar
dagligvare
dagligvareb
dags
dagsavisen
dagslys
dagsorden
dagtid
dah
dahl
daily
dak
dal
dale
dalen
daler
dall
dallas
dam
dama
dame
damen
damene
damer
damli
damm
dammen
damp
dan
dance
dani
daniel
danielsen
danmark
danmarks
dann
danna
dannar
danne
dannelse
dannelsen
danner
dannes
dannet
dans
danse
dansen
danser
danset
dansk
danske
danskene
dap
dapen
dar
dark
darleg
darlig
darlige
darligere
darligste
darwin
das
dash
dat
data
datab
database
databasen
databaser
dataene
datag
datainn
datak
datam
datama
datamaskin
datamaskinen
datamaskiner
datas
dataspill
datat
datatilsynet
date
daten
dater
datering
datert
dates
datidens
dating
datingside
datingsidene
datingsider
datingt
datingtips
datingtjenester
dato
datoen
datoer
datter
datteren
datterselskap
dav
dave
david
davis
daværende
day
days
db
dc
dd
ddr
de
dead
deakt
deal
death
deb
debatt
debatten
debatter
debu
debut
debutalbumet
debuten
debuterte
dec
ded
dedik
dedikert
dedikerte
deep
def
defens
defin
definere
definerer
defineres
definert
definerte
definisjon
definisjonen
definisjoner
definit
definitivt
deg
dei
deigen
deil
deilig
deilige
deira
dej
dek
dekan
dekar
dekk
dekke
dekkene
dekker
dekkes
dekket
dekkvingene
dekning
deknings
dekor
dekorasjon
dekorert
deks
del
delar
dele
deleg
delegasjon
delegater
delegert
delen
delene
deler
deles
delhi
delikate
deling
dell
delmal
dels
delstat
delstaten
delt
delta
deltag
deltagelse
deltager
deltagere
deltagerne
deltak
deltakelse
deltakende
deltaker
deltakere
deltakerne
deltar
deltatt
delte
deltid
deltids
deltok
delvis
dem
demens
demningen
demo
demografi
demokrat
demokratene
demokrati
demokratiet
demokratisk
demokratiske
demon
demonst
demonstrasjon
demonstrasjoner
demonstrere
demp
dempe
demper
den
denmark
denne
dennes
dennis
dens
dep
departem
departement
departementet
departementets
depot
depresjon
deprimert
der
derav
derby
dere
deres
deretter
derfor
derfra
deriblant
derimot
deriv
dermed
dernest
dersom
dertil
derved
des
desember
desentral
desidert
desig
design
designe
designer
designere
designet
desper
desperat
desperate
dess
desse
dessert
dessutan
dessuten
dessverre
destin
destinasjon
destinasjoner
desto
destru
desverre
det
detal
detalj
detaljene
detaljer
detaljert
detaljerte
detaljvarer
dete
detroit
dets
dette
deuts
dev
devel
develop
development
di
dia
diabet
diabetes
diagn
diagnose
diagnosen
diagnoser
diagnost
diagnostikk
diagnostisert
diagram
diakon
dial
diale
dialekt
dialog
dialogen
diam
diamant
diameter
diamond
diare
dick
did
die
diego
dies
diesel
diet
diett
diff
differ
differens
difi
difor
dig
digg
digger
digit
digital
digitale
digitalisering
digitalt
dikt
diktatur
diktene
dikter
diktet
dil
dild
dildo
dilemma
dim
dimensjon
dimensjoner
din
dine
ding
dinosa
dip
diplom
diplomat
diplomatiske
dir
dire
director
direkt
direkte
direktiv
direktivet
direktoratet
direktør
direktøren
dirig
dirigent
dis
disc
discovery
disipl
disiplin
disk
diskret
diskrimin
diskriminering
diskriminerings
disku
diskusjon
diskusjonen
diskusjonene
diskusjoner
diskuter
diskutere
diskuterer
diskuteres
diskutert
diskuterte
disney
disp
dispens
dispensasjon
display
dispon
disponer
disponerer
disposisjon
disse
dist
distanse
distansen
distin
distrah
distri
distribu
distribuere
distribuert
distribusjon
distribut
distrikt
distriktene
distrikter
distriktet
dit
ditt
div
diver
diverse
division
divisjon
divisjonen
divisjoner
dj
dje
djev
djevel
djevelen
dju
djup
dk
dl
dm
dn
dna
dnb
dnt
do
dob
dobbel
dobbelt
doble
doblet
doc
doctor
document
dog
dogging
dok
dokt
doktor
doktorg
doktorgrad
dokum
dokument
dokumentar
dokumentaren
dokumentasjon
dokumentasjonen
dokumentene
dokumenter
dokumentere
dokumenterer
dokumenteres
dokumentert
dokumenterte
dokumentet
dol
dolce
doll
dollar
dom
domene
domenen
domin
dominans
dominerende
dominerer
dominert
dominerte
domkirke
dommen
dommer
dommere
dommeren
dommerne
domstol
domstolen
domstolene
don
donald
donau
dong
donne
dop
doping
dor
dort
dos
dose
doser
dosering
dotter
double
doug
douglas
dov
dovre
dow
down
download
dr
dra
drag
drage
dragon
drakk
drakt
drakter
dram
drama
dramat
dramatikk
dramatisk
dramatiske
drammen
drammens
drap
drapene
draper
drapet
draps
drar
drastisk
dratt
dre
dream
dreide
dreie
dreier
dreiv
drener
drenering
drepe
dreper
drept
drepte
dres
dress
drev
drevet
dri
drift
drifte
driften
drifter
drifts
driftsinn
driftsresultat
driftsutgifter
drikk
drikke
drikker
drikkevann
drink
drinker
drist
drit
dritt
driv
drive
driver
drives
drivhus
drivkraft
drivstoff
dro
drog
dron
dronning
dronningen
drop
droppe
droppet
drosje
dru
druk
drukket
dry
drø
drøbak
drøft
drøfte
drøftes
drøftet
drøfting
drøm
drømme
drømmen
drømmene
drømmer
drømt
drøy
drøye
drøyt
ds
dt
du
dubai
dublin
due
duell
duft
dug
dugnad
duken
duket
dukke
dukker
dukket
dum
dumme
dumping
dumt
dun
duo
duoen
dur
dus
dusin
dusj
dusjen
dv
dvd
dver
dverg
dvs
dy
dyb
dybde
dybden
dykk
dykke
dykker
dykking
dyktig
dyktige
dyktighet
dyl
dylan
dyn
dynam
dynamikk
dynamisk
dynamiske
dynast
dynastiet
dyp
dype
dypere
dypet
dypt
dyr
dyra
dyre
dyreliv
dyrene
dyrere
dyreste
dyret
dyrev
dyrevel
dyrke
dyrkes
dyrket
dyrking
dyrt
dys
dyst
dæ
dø
død
døde
dødelig
dødelige
dødelighet
døden
døds
dødsf
dødsfall
dødsfallet
dødsstraff
dødt
døg
døgn
døgnet
døm
døme
dømes
dømme
dømt
dømte
dønn
døpt
dør
døra
døren
dørene
dører
døtre
døv
døve
døy
døydde
e18
e39
e6
eag
ear
earth
eas
east
easy
eb
ebay
ebon
ebony
ec
eck
eco
econom
ecu
ed
edd
edderk
edel
edgar
edge
edin
edinburgh
edit
edition
edu
education
edvard
edward
ee
ef
eff
effe
effekt
effekten
effektene
effekter
effektiv
effektive
effektivisere
effektivisering
effektivitet
effektiviteten
effektivt
efter
eg
ege
egen
egenandel
egenart
egenhand
egenkapital
egenskap
egenskapene
egenskaper
egentlig
egentlige
eger
egersund
eget
egg
egge
eggen
eggene
egget
eggløsning
egil
egne
egnede
egner
egnet
ego
egypt
egyptiske
eh
ei
eid
eide
eidsv
eidsvoll
eie
eiend
eiendeler
eiendom
eiendommen
eiendommene
eiendommer
eiendoms
eiendomsm
eiendomsmegler
eiendomsmegling
eiendomsskatt
eier
eierandel
eiere
eieren
eierne
eierskap
eies
eig
eige
eigen
eigne
eik
eike
eiker
eil
eilert
ein
einar
einaste
eine
eirik
eit
eitt
eivind
ek
eke
ekeberg
ekk
eks
eksakt
eksam
eksamen
eksamens
ekse
eksemp
eksempel
eksempelet
eksempelvis
eksempl
eksemplar
eksemplarer
eksemplene
eksempler
eksepsjon
eksil
eksist
eksistens
eksister
eksistere
eksisterende
eksisterer
eksistert
eksisterte
ekskl
ekskluder
eksklus
eksklusiv
eksklusive
eksklusivt
eksotisk
eksotiske
eksp
ekspand
ekspans
ekspansjon
eksped
ekspedisjon
ekspedisjonen
eksper
eksperim
eksperiment
eksperimenter
eksperimentere
ekspert
ekspertene
eksperter
ekspertise
ekspl
eksplis
eksplisitt
eksplo
eksplosjon
eksplosjonen
eksponer
eksponering
eksponert
eksport
eksporter
ekst
ekster
ekstern
eksterne
eksternt
ekstra
ekstraordin
ekstraordinær
ekstraordinære
ekstraordinært
ekstrem
ekstreme
ekstremt
ekte
ektef
ektefelle
ektefellen
ektefeller
ektem
ektemann
ektemannen
ektepar
ekteparet
ekteskap
ekteskapet
ekv
el
elast
elastisk
elbil
elbiler
eld
eldre
eldrer
eldste
ele
elect
electric
elef
elefant
eleg
elegan
elegant
elegante
elekt
elektrif
elektris
elektrisitet
elektrisk
elektriske
elektro
elektrom
elektromagnet
elektron
elektronikk
elektronisk
elektroniske
elem
element
elementene
elementer
elementet
elend
elendig
elev
elevar
eleven
elevene
elevenes
elevens
elever
elg
eli
elias
elimin
eliminere
elin
elis
elisabeth
elise
elit
elite
eliten
elites
eliteserien
elitesingles
eliz
elizabeth
elkjøp
ella
elle
ellen
eller
ellers
elles
ellev
elleve
elli
elling
ellingsen
else
elsk
elske
elskede
elsker
elskere
elskerinne
elsket
elv
elva
elve
elven
elvene
elver
elverum
elvis
em
email
emb
emballasje
embed
embet
emer
emi
emig
emil
emilie
emma
emne
emnene
emner
emnet
emosjon
emosjonell
emosjonelle
emp
empati
empi
empire
en
end
enda
ende
endel
endelig
endelige
enden
ender
endet
ending
endr
endra
endre
endrede
endrer
endres
endret
endring
endringen
endringene
endringer
endrings
endt
endte
ene
eneb
enebakk
enebolig
ener
energ
energi
energibruk
energid
energieffe
energien
energiforbruk
energik
energil
energim
energis
energy
enestaende
eneste
eng
engang
engas
engasjem
engasjement
engasjementet
engasjer
engasjere
engasjerende
engasjerer
engasjert
engasjerte
engel
engelsk
engelske
enger
engine
engineering
england
englands
engler
english
engros
engroshandel
engst
engstelig
enhet
enheten
enhetene
enheter
enhetlig
enhver
enig
enige
enighet
enk
enke
enkel
enkelt
enkelte
enkeltes
enkeltperson
enkeltpersoner
enkeltvedtak
enkle
enklere
enkleste
enn
enna
enno
enor
enorm
enorme
enormt
enova
ens
ensemb
ensidig
enslig
enslige
ensom
ensomhet
ensomme
enstemm
enstemmig
ent
enten
enter
entert
entertainment
entre
entrep
entrepren
entreprenør
entreprenøren
entreprenører
entreprenørskap
entus
entusia
entusias
entusiasme
entydig
enzy
ep
epidem
epile
epis
episode
episoden
episodene
episoder
eple
epler
epo
epost
equ
er
era
ere
ereksjon
erfar
erfare
erfaren
erfarer
erfaring
erfaringen
erfaringene
erfaringer
erfarings
erfarne
erfart
erg
ergonom
eric
erich
erik
eriks
eriksen
erin
eritre
erke
erkebiskop
erkj
erkjenne
erkjennelse
erkjenner
erkl
erklær
erklære
erklæring
erklæringen
erklært
erklærte
erlend
erling
ern
erna
ernst
ernær
ernæring
ernærings
erob
erobre
erobret
eros
erosjon
erot
erotic
erotikk
erotisk
erotiske
erst
erstat
erstatning
erstatnings
erstatta
erstatte
erstatter
erstattes
erstattet
erver
erverv
ervervet
es
esa
esc
escort
escorte
escorts
esk
eskort
eskorte
eskorter
esp
espen
ess
essay
essens
essensielle
essensielt
essential
essentials
est
estet
estetikk
estetisk
estetiske
esti
estim
estimer
estimert
estland
et
eta
etab
etabler
etablere
etablerer
etableres
etablering
etableringen
etablert
etablerte
etappe
etappen
etapper
etasje
etasjer
etat
etaten
etater
etc
eter
etg
ethvert
etik
etikk
etiop
etiopia
etisk
etiske
etn
etnisitet
etnisk
etniske
ett
etter
etterfor
etterforsk
etterforsker
etterforskning
etterforskningen
etterful
etterfulgt
etterfølg
etterfølgende
etterfølger
etterhvert
etterkant
etterkom
etterkommer
etterkommere
etterkrig
etterl
etterlater
etterlatt
etterlatte
etterlig
etterlot
etterlyser
ettermid
ettermiddag
ettermiddagen
etternavn
etterpa
etterretning
etterretnings
ettersom
ettersp
etterspurt
etterspør
etterspørsel
etterspørselen
ettersyn
ettert
ettertid
ettertraktet
etterutdanning
etym
eu
eur
euro
europ
europa
europam
europap
europas
europe
european
europeisk
europeiske
eurovision
eus
ev
eva
evaku
evakuert
eval
evalu
evaluer
evaluere
evaluering
evalueringen
evaluert
evangel
evangeliet
evans
even
evensen
event
events
eventuell
eventuelle
eventuelt
eventyr
eventyret
ever
evert
every
evig
evige
evighet
evne
evnen
evner
evolusjon
evt
ex
exc
excel
exec
exp
exped
exper
experience
expl
explorer
express
ext
extender
extens
extra
ey
eye
eøs
fa
fab
fabel
fabrikk
fabrikken
fabrikker
fac
face
facebo
facebook
facebooks
fact
factor
fad
fadder
fader
faen
fag
fagbevegelsen
fagbladet
fagbrev
fagene
fager
faget
fagfelt
fagfeltet
fagfolk
fagforbundet
fagforening
faglig
faglige
fagmiljø
fagmiljøer
fagomrade
fagomradene
fagomrader
fagomradet
fagpersoner
fagskole
fair
fak
faks
fakt
fakta
faktisk
faktiske
faktor
faktorene
faktorer
faktum
faktur
faktura
fakturering
fakult
fakultet
fakultetet
fal
falk
fall
falle
fallende
faller
fallet
fallskjerm
falsk
falske
falt
fam
fame
famil
famili
familie
familiegjen
familiem
familiemedlem
familiemedlemmer
familien
familiene
familiens
familier
families
family
fan
fana
fancy
fanen
fang
fange
fangen
fangene
fangenskap
fanger
fanget
fangst
fangsten
fann
fans
fansen
fant
fantas
fantasi
fantasien
fantasier
fantast
fantastisk
fantastiske
fantasy
fantes
far
fare
faren
farens
farer
farfar
farg
farge
fargede
fargeleg
fargen
fargene
farger
fargerik
fargerike
farges
farget
farlig
farlige
farm
farmas
farmasøyt
farmasøytisk
farmen
farmor
fars
farsund
fart
farten
fartøy
fartøyene
fartøyer
fartøyet
farvann
farvel
fas
fasade
fasaden
fasc
fascinerende
fascinert
fase
fasen
faser
fasett
fashion
fasiliteter
fasit
fast
faste
fastlandet
fastlege
fastlegen
fasts
fastsatt
fastsatte
fastsette
fastsettelse
fastsetter
fastsettes
fastsla
fastslar
fat
fatall
fatt
fatte
fatter
fattes
fattet
fattig
fattigdom
fattige
fau
fauske
fav
favor
favoritt
favorittene
favoritter
favør
fb
fbi
fc
fd
fe
feb
feber
februar
fed
feder
fedme
fedre
feed
feel
feil
feilaktig
feilen
feilene
feir
feire
feirer
feires
feiret
feiring
feiringen
fekk
feks
fel
felix
fell
felle
feller
felles
felleskap
felleskj
fellesskap
fellesskapet
felling
felt
feltene
felter
feltet
feltt
fem
femin
femt
femte
femten
femteplass
femti
fen
feng
fengsel
fengselet
fengsels
fengsler
fengslet
fenom
fenomen
fenomener
fenomenet
fer
ferd
ferden
ferdes
ferdig
ferdige
ferdighet
ferdighetene
ferdigheter
ferdigstill
ferdigstillelse
ferdigstilt
ferdin
ferdinand
ferdsel
ferg
ferge
fergus
ferguson
feri
ferie
ferien
ferier
feriet
ferje
fern
ferrar
ferrari
fersk
ferske
ferskvann
fest
feste
festen
fester
festes
festet
festiv
festival
festivalen
festivaler
festning
festningen
festnings
fet
fete
fetish
fett
fetter
fettet
fetts
fettsyrer
ff
fi
fia
fib
fiber
fiction
fid
field
fiend
fiende
fienden
fiender
fiendt
fifa
fig
figur
figuren
figurene
figurer
fik
fikk
fiks
fikse
fikset
fiksjon
fiktive
fil
file
filen
filene
filer
filip
filipinske
filipp
filippinene
film
filme
filmen
filmene
filmens
filmer
filmet
filmpro
filmskap
filosof
filosofen
filosofi
filosofisk
filosofiske
filt
filter
filtr
filtrere
fin
final
finale
finalen
finan
finans
finansdepartementet
finansiell
finansielle
finansier
finansiere
finansieres
finansiering
finansieringen
finansierings
finansiert
finansk
finanskrisen
finansminister
finanstilsynet
find
fine
finere
fineste
fing
finger
fingeren
fingre
fingrene
finish
finland
finn
finne
finner
finnes
finnmark
finnmarks
fins
finsk
finske
finst
fint
fiolin
fir
fire
firefox
firehjul
firen
firenze
firkant
firm
firma
firmaer
firmaet
first
fis
fish
fisk
fiske
fisken
fiskene
fisker
fiskere
fiskeri
fiskerid
fiskes
fisket
fit
fitness
fitta
fitte
five
fix
fj
fjeld
fjell
fjella
fjellene
fjellet
fjellkj
fjellom
fjellt
fjer
fjerd
fjerde
fjerdeplass
fjern
fjerne
fjerner
fjernes
fjernet
fjerning
fjernsyn
fjernt
fjernvarme
fjes
fjor
fjoraret
fjorarets
fjord
fjordane
fjorden
fjorten
fjær
fjø
fjør
fk
fl
fla
flag
flagg
flagget
flak
flaks
flam
flamme
flash
flashback
flaske
flasken
flasker
flat
flate
flaten
flater
flatt
flau
flaut
fle
fleire
flekk
flekke
flekkefjord
flekker
fleks
fleksib
fleksibel
fleksibelt
fleksibilitet
fleksible
fler
flerbruks
flere
flerkultur
flert
flertall
flertallet
fles
flest
fleste
flex
fli
flight
flink
flinke
flinkere
flir
flirt
flis
fliser
flitt
flittig
flo
flokk
flokken
flom
flor
flora
florida
florø
flott
flotte
flotteste
flow
floyd
flu
flue
fluer
flukt
fluor
fly
flybilletter
flyene
flyet
flyfoto
flyg
flykt
flykte
flyktet
flyktning
flyktningene
flyktninger
flyplass
flyplassen
flyplasser
flyr
flyreiser
flyselskap
flyselskaper
flyselskapet
flyt
flyte
flytende
flyter
flytt
flytta
flytte
flytter
flyttes
flyttet
flytting
flø
flør
flørt
flørte
flørting
fløte
fløy
fm
fn
fns
fo
focus
fog
fokus
fokusere
fokuserer
fokusert
fokuserte
fokuset
fol
fold
folk
folke
folkeav
folkeavstemning
folked
folkeh
folkehelse
folkehelseinstituttet
folkehøg
folkehøgskole
folkelig
folkem
folkemord
folkemusikk
folkene
folkens
folkeparti
folker
folkere
folkereg
folkeregisteret
folkerepub
folkerepublikken
folkes
folkeslag
folket
folketallet
folketellingen
folketryg
folketrygd
folketrygden
folkets
folkevalgte
folks
follo
follow
fon
fond
fondet
font
food
foot
football
for
fora
forakt
foran
forand
forandre
forandrer
forandret
forandring
forandringer
forankret
forankring
forar
forarsak
forarsake
forarsaker
forarsaket
forb
forbe
forbed
forbedre
forbedrer
forbedres
forbedret
forbedring
forbedringer
forbehold
forbeholder
forbeholdt
forber
forbered
forberede
forberedelse
forberedelsene
forberedelser
forbereder
forberedt
forbi
forbig
forbilde
forbilder
forbindel
forbindelse
forbindelsen
forbindelser
forbinder
forble
forbli
forblir
forblø
forbren
forbrenning
forbru
forbruk
forbruker
forbrukere
forbrukeren
forbrukerne
forbrukerombudet
forbrukerradet
forbruket
forbruks
forbrukslan
forbry
forbryt
forbrytelser
forbud
forbudet
forbudt
forbund
forbundet
forbundets
forbunds
forby
forbyr
force
ford
fordel
fordele
fordelen
fordelene
fordeler
fordeles
fordeling
fordelingen
fordelt
fordi
fordommer
fordyp
fordype
fordypning
fordøy
fore
forebygge
forebyggende
forebygging
fored
foredrag
foredraget
foredrags
foredragsholder
foredragsholdere
foreg
forega
foregaende
foregar
foregatt
foregikk
forekom
forekomme
forekommer
forekomst
forekomsten
forekomster
forel
forela
foreld
forelder
foreldre
foreldrene
foreldrenes
foreldres
foreles
forelesning
forelesninger
forelig
foreligge
foreliggende
foreligger
forelsk
forelskelse
forelsket
foreløp
foreløpig
foreløpige
foren
forene
forening
foreningen
foreningens
foreninger
forenkle
forenkler
forenklet
forenkling
forente
fores
foresatte
foresl
foresla
foreslar
foreslas
foreslatt
foreslatte
foreslo
foresp
forespørsel
forespørselen
forespørsler
forest
forestil
forestille
forestilling
forestillingen
forestillinger
foret
foreta
foretak
foretaket
foretakets
foretaks
foretar
foretas
foretatt
foretok
foretre
foretrekke
foretrekker
foretrukket
foretrukne
forf
forfall
forfatt
forfattar
forfatter
forfattere
forfatteren
forfatterens
forfatterne
forfatterskap
forfed
forfedre
forferd
forferdelig
forferdelige
forfly
forfrem
forfri
forful
forfulgt
forfølg
forfølge
forfølgelse
forføre
forg
forgje
forgjenger
forgjengeren
forgjeves
forh
forhand
forhandle
forhandler
forhandlere
forhandlet
forhandling
forhandlingene
forhandlinger
forhands
forhandsbe
forhap
forhapentlig
forhapentligvis
forhin
forhindre
forhindrer
forhindret
forhistor
forhold
forholde
forholdene
forholder
forholdet
forholdsvis
forhøyet
foring
fork
forkant
forkast
forkastet
forkjøl
forkjøp
forkl
forklar
forklare
forklarer
forklares
forklaring
forklaringen
forklaringer
forklart
forklarte
forkort
forkortet
forkynn
forl
forlag
forlaget
forlagets
forlate
forlater
forlatt
forleng
forlenge
forlengelse
forlenger
forlenget
forli
forlik
forlo
forlot
forlov
forlovet
forløp
form
forma
formal
formalet
formann
formannskap
formannskapet
formannskapets
formannskapssalen
format
formater
formatet
forme
formel
formelen
formell
formelle
formelt
formen
formene
former
formet
formid
formiddag
formiddagen
formidle
formidler
formidles
formidlet
formidling
formue
formues
formula
formulere
formulert
forn
fornavn
forne
fornebu
fornem
fornuft
fornuftig
fornuftige
forny
fornybar
fornybare
fornye
fornyelse
fornyet
fornær
fornærmede
fornøy
fornøyd
fornøyde
fornøyelse
forord
forordning
forp
forpli
forplikt
forplikte
forpliktelse
forpliktelser
forpliktende
forplikter
forpliktet
forprosjekt
forresten
forret
forretning
forretninger
forretnings
forretningsm
forrige
fors
forsa
forsamling
forsamlingen
forsavidt
forseg
forsett
forside
forsiden
forsik
forsikre
forsikret
forsikring
forsikringen
forsikringer
forsikrings
forsikringsselskap
forsikringsselskapet
forsiktig
forsiktige
forsiktighet
forsink
forsinkelse
forsinkelser
forsinket
forsk
forske
forsker
forskere
forskeren
forskerne
forsket
forsking
forskjel
forskjell
forskjellen
forskjellene
forskjeller
forskjellig
forskjellige
forskjellsbehandling
forskning
forskningen
forsknings
forskningsbasert
forskningset
forskningsmiljø
forskningsprosjekt
forskningsprosjekter
forskningsprosjektet
forskningsrad
forskningsradet
forskrift
forskriften
forskriftens
forskrifter
forskudd
forsky
forslag
forslagene
forslaget
forson
forsoning
forst
forsta
forstad
forstaelig
forstaelse
forstaelsen
forstand
forstar
forstas
forstatt
forster
forsterke
forsterker
forsterkes
forsterket
forsto
forstod
forstyr
forstyrre
forstyrrelser
forstyrret
forstør
forsv
forsvant
forsvar
forsvare
forsvarer
forsvaret
forsvarets
forsvarlig
forsvars
forsvarsbygg
forsvarsdepartementet
forsvarsminister
forsvarte
forsvinne
forsvinner
forsvunnet
forsy
forsyne
forsyning
forsyninger
forsø
forsøk
forsøke
forsøkene
forsøker
forsøket
forsøks
forsøkt
forsøkte
forsør
fort
fortalt
fortalte
fortau
fortel
fortell
fortelle
forteller
fortelles
fortelling
fortellingen
fortellingene
fortellinger
fortere
fortet
fortid
fortiden
fortj
fortjener
fortjeneste
fortjent
fortjente
fortløpende
fortol
fortr
fortrinn
fortrinnsvis
forts
fortsatt
fortsatte
fortsett
fortsette
fortsettelse
fortsettelsen
fortsetter
fortvil
fortvilelse
forum
forumet
forund
forurens
forurenset
forurensning
forut
foruten
foruts
forutsatt
forutse
forutsetning
forutsetningen
forutsetningene
forutsetninger
forutsetter
forutsettes
forutsig
forutsigbar
forutsigbarhet
forv
forval
forvalt
forvalte
forvalter
forvaltes
forvaltning
forvaltningen
forvaltnings
forvaltningsloven
forvaltningsrevisjon
forvand
forvandlet
forvar
forveien
forveks
forveksles
forvent
forvente
forventede
forventer
forventes
forventet
forventning
forventningene
forventninger
forver
forvir
forvirrende
forvirret
forvirring
forøvrig
fos
fosen
fosfor
foss
fosse
fossen
fossil
fossile
fossum
fost
foster
fosteret
fosterhjem
fot
fotball
fotballen
fotballforbund
fotballklubb
fotballspelar
fotballspiller
fotballspillere
foten
fotgjenger
fotgjengere
foto
fotograf
fotografen
fotografer
fotografere
fotografering
fotografert
fotografi
fotografier
fotok
fotos
fots
fott
fou
found
foundation
four
fox
fr
fra
fradrag
frafall
frag
frakt
frakte
fraktet
fram
framdrift
framfor
framført
framgang
framgar
framhe
framleis
framme
framover
framstar
framstilling
framstilt
framtid
framtida
framtiden
framtidig
framtidige
fran
franc
france
franch
francis
francisco
franco
francois
frank
frankfurt
frankrike
frankrikes
frans
fransk
franske
franskmennene
franz
frar
frases
frat
fratatt
fratse
fravær
fraværende
fraværet
fre
fred
fredag
fredagen
fredelig
freden
freder
frederik
frederiks
fredet
fredrik
fredriks
fredriksen
fredrikstad
freds
fredspris
free
freg
frekk
frekke
frekvens
frel
frelse
frelser
frelses
frelsesarme
frelst
frem
fremdeles
fremdrift
fremfor
fremført
fremga
fremgang
fremgangsm
fremgangsmate
fremgangsmaten
fremgar
fremhe
fremheve
fremhever
fremhevet
fremkommer
fremlagt
fremme
fremmed
fremmede
fremmedsprak
fremmer
fremmes
fremmet
fremover
fremragende
fremsatt
fremska
fremskritt
fremskrittspartiet
fremst
fremsta
fremstar
fremste
fremstille
fremstilles
fremstilling
fremstilt
fremt
fremtid
fremtiden
fremtidens
fremtidig
fremtidige
fremtidsrettet
fremtredende
fren
french
fres
fresh
fri
frid
frida
friday
fridt
frie
fried
friedrich
friend
friends
friere
frig
frigjort
frigjør
frigjøre
frigjøres
frigjøring
frihet
friheten
friidrett
friidrettsutøver
frikjent
friksjon
fril
friluft
friluftsliv
fris
frisk
friske
friskt
frisp
frispark
frist
friste
fristen
fristende
frister
fristet
frisør
frit
fritak
fritid
fritiden
fritidsaktiviteter
fritidsb
fritt
frittstaende
fritz
frivil
frivillig
frivillige
frivillighet
fro
frode
frodig
frodige
frogn
frogner
frokost
frokosten
from
fron
front
fronten
fronter
frost
frp
frps
fru
frukt
frukten
frukter
frust
frustrasjon
frustrerende
frustrert
fry
fryd
frykt
frykte
fryktelig
frykten
frykter
fryktet
fryse
fryser
frø
frøken
frøy
frøya
fs
ft
fu
fuck
fug
fugl
fugle
fuglen
fuglene
fugler
fukt
fuktig
fuktige
fuktighet
ful
fulgt
fulgte
full
fulle
fullføre
fullfører
fullført
fullførte
fullmakt
fullmakter
fullmektig
fullstendig
fullstendige
fullt
fulltid
fullverdig
fult
fun
function
fund
fundament
fundamentet
funger
fungere
fungerende
fungerer
fungert
fungerte
funk
funker
funksjon
funksjonalitet
funksjonell
funksjonelle
funksjonelt
funksjonen
funksjonene
funksjoner
funksjonsevne
funksjonshem
funksjonshemmede
funksjonsned
funn
funne
funnene
funnet
fur
furu
fus
fusjon
fusjonen
fut
future
fv
fvt
fy
fyl
fyldig
fylke
fylkene
fylker
fylkes
fylkeskom
fylkeskommun
fylkeskommune
fylkeskommunen
fylkeskommunene
fylkeskommuner
fylkesmann
fylkesmannen
fylkesmannens
fylkesrad
fylkest
fylkesting
fylkestinget
fylkesveg
fylkesvei
fylket
fyll
fylle
fyller
fylles
fylling
fylt
fylte
fyr
fyren
fyrene
fyret
fyrst
fyrste
fyrt
fyrverker
fys
fysi
fysikk
fysioter
fysioterapeut
fysioterapi
fysisk
fysiske
fæ
fær
færre
færreste
færøy
færøyene
fø
fød
fødd
føde
føder
føderale
fødsel
fødselen
fødsels
født
fødte
føl
føle
følelse
følelsen
følelsene
følelser
følelses
følelsesmessig
følelsesmessige
føler
føles
følg
følge
følgelig
følgende
følger
følgere
følges
følgje
følsom
følsomme
følt
følte
føltes
før
førde
føre
fører
førere
føreren
førerkort
føres
føring
føringer
førjul
først
førstdato
første
førsteaman
førsteamanuensis
førstegang
førstehjelp
førsteinntrykk
førstekl
førsteklasses
førsteplass
førstkommende
førstnevnte
førstpris
ført
førte
førti
føttene
føtter
føyer
ga
gab
gabri
gabriel
gad
gaende
gag
gahr
gal
galax
galaxy
gale
galile
gall
galle
galler
galleri
gallerier
galleriet
gallery
galskap
galt
gam
gamal
gambling
game
gamer
games
gaming
gamle
gamlebyen
gammal
gammel
gammeld
gammeldags
gammelt
gand
gang
gangbang
gange
gangen
gangene
ganger
gangs
ganske
gap
gar
garant
garanter
garantere
garanterer
garantert
garanti
garantier
garasje
garasjen
gard
gardbruker
garde
garden
gardene
garder
gardermoen
garderobe
garderoben
gardiner
gardsbruk
garn
garnet
garsdagens
gartner
gary
gas
gass
gassen
gasser
gasskraft
gast
gat
gata
gate
gaten
gatene
gater
gatt
gaus
gausdal
gaust
gaute
gav
gave
gavekort
gaven
gavene
gaver
gay
gaz
gaza
gb
gd
gdansk
gdpr
ge
gear
geb
gebyr
gebyrer
geilo
geir
geist
geit
gel
gele
gem
gen
gene
gener
general
generalfor
generalforsamling
generalforsamlingen
generalsekretær
generasjon
generasjonen
generasjoner
generasjons
generell
generelle
generelt
generere
genererer
generert
generisk
genet
genetisk
genetiske
geneve
genialt
gens
genser
genseren
gent
genu
geo
geograf
geografi
geografisk
geografiske
geolog
geologi
geologiske
geomet
geometri
geor
georg
george
georgia
ger
gerd
gerhard
geril
german
ges
gest
get
gevin
gevinst
gevinsten
gevinster
gh
ghana
gi
gid
gidder
gif
gift
gifte
gifter
giftet
giftig
giftige
gig
gigant
gigantisk
gigantiske
gikk
gil
gilde
gim
giov
gir
girl
girls
gis
giske
git
gitar
gitarist
gitt
gitte
giv
give
givende
giver
gj
gjaldt
gje
gjedde
gjekk
gjeld
gjelde
gjelden
gjeldende
gjelder
gjem
gjemme
gjemmer
gjemt
gjen
gjenbruk
gjener
gjenerob
gjenfor
gjeng
gjengen
gjengi
gjengitt
gjengjeld
gjeninn
gjenkj
gjenkjenn
gjenkjenne
gjenlevende
gjenn
gjennom
gjennombrudd
gjennomfør
gjennomføre
gjennomfører
gjennomføres
gjennomføring
gjennomføringen
gjennomførings
gjennomført
gjennomførte
gjennomga
gjennomgaende
gjennomgang
gjennomgangen
gjennomgar
gjennomgas
gjennomgatt
gjennomgikk
gjennomsiktig
gjennomsiktige
gjennomslag
gjennomsnitt
gjennomsnittet
gjennomsnittlig
gjennomsnittlige
gjennomsnitts
gjennomtenkt
gjenopp
gjenopprett
gjenopprette
gjenoppretting
gjens
gjensidig
gjensidige
gjenskap
gjenskape
gjenspe
gjenspeiler
gjenspeiles
gjenstand
gjenstandene
gjenstander
gjenstar
gjensyn
gjent
gjenta
gjentar
gjentas
gjentatt
gjentatte
gjentok
gjenv
gjenvalg
gjenvalgt
gjenvinning
gjenværende
gjer
gjera
gjerd
gjerde
gjerdet
gjere
gjermund
gjerne
gjerning
gjerninger
gjerningsm
gjerningsmannen
gjert
gjesp
gjest
gjeste
gjestene
gjester
gjett
gjette
gjev
gjeve
gjeven
gjorde
gjort
gjær
gjø
gjød
gjødsel
gjør
gjøre
gjøremal
gjøres
gjøvik
gl
gla
glad
glade
glam
glamour
glans
glas
glasgow
glass
glasset
glatt
glatte
gled
glede
gledelig
gleden
gleder
gledet
glem
glemme
glemmer
glemt
glemte
glenn
gli
glid
glim
glimrende
glimt
glipp
glir
glitter
glo
glob
global
globale
globalt
glom
glomma
glu
gluten
gly
glø
glød
gm
gmail
gn
gnist
gnr
go
god
godbiter
gode
goder
godhet
godkj
godkjen
godkjenne
godkjennelse
godkjenner
godkjennes
godkjenning
godkjent
godkjente
gods
godset
godt
godta
godtar
godtatt
godter
godteri
godtgjør
godtgjørelse
gog
gol
gold
golden
golf
gom
gon
gong
gongen
gonger
good
goog
google
googles
goose
gor
gord
gordon
got
gote
goteborg
gott
gover
gps
gr
gra
grad
graden
grader
gradvis
graf
grafikk
grafisk
grafiske
graham
gram
grammat
grammatikk
grammy
gran
grand
grande
granitt
granny
gransk
grant
gras
grasrot
grat
grate
grater
gratis
gratt
gratulerer
grav
gravd
gravde
grave
graven
graver
gravid
gravide
graviditet
graviditeten
gravlagt
gre
great
green
gregor
grei
greia
greid
greide
greie
greier
greiner
greit
gren
grener
grenland
grens
grensa
grense
grensen
grensene
grenser
grensesnitt
grep
grepet
gres
gresk
greske
gress
gresset
grete
grethe
grev
greve
grevskapet
grey
gri
grieg
grill
grillen
grilling
grim
grimstad
grin
grind
gripe
griper
gris
gro
gror
grorud
grorudd
gross
group
grov
grove
grovt
gru
grue
grund
grunder
grundere
grundig
grundige
gruner
grunerløkka
grunn
grunne
grunneier
grunneiere
grunnen
grunnene
grunner
grunnet
grunnkurs
grunnla
grunnlag
grunnlagd
grunnlaget
grunnlagt
grunnlegg
grunnleggende
grunnlegger
grunnleggeren
grunnlov
grunnloven
grunnskole
grunnskolen
grunnvann
grupp
gruppa
gruppe
gruppen
gruppene
gruppens
grupper
gruppespillet
gruppet
grus
grusom
grusomme
gruve
gruvedrift
gry
gryte
grø
grøn
grønland
grønn
grønne
grønnsakene
grønnsaker
grønnsaks
grønt
grøt
gs
gt
gu
guang
guar
guardi
guardian
guatem
gud
gudbrand
gudbrandsdalen
guddom
guddommelig
guddommelige
guden
gudene
guder
guds
gudstjeneste
guess
guid
guide
guiden
guider
guidet
guine
guinea
gul
gulbrand
gulbrandsen
gule
gull
gullet
gullsmed
gulrot
gulrø
gult
gulv
gulvet
gum
gumm
gummi
gun
gunder
gundersen
gunhild
gunn
gunnar
gunst
gunstig
gunstige
gur
guri
guro
gust
gustav
gut
gutt
gutta
gutten
guttene
gutter
guvern
guvernør
guy
gw
gwh
gy
gyl
gyld
gylden
gyldendal
gyldig
gyldige
gylne
gym
gymna
gymnas
gymnastikk
gynek
gyte
gøte
gøteborg
gøy
h2
ha
haag
haakon
hab
habil
habilitering
habilitet
habit
hack
had
hadde
hadeland
hadsel
haf
hafslund
hag
haga
hage
hagem
hagen
hager
haha
hair
hak
hake
hakk
hakket
hakon
hal
hald
halde
halden
hale
halen
half
hall
halle
hallen
halling
hallingdal
hallo
halloween
halm
halog
halogaland
hals
halsen
halt
halv
halvannen
halvannet
halvar
halvdel
halvdelen
halve
halvor
halvorsen
halvparten
halvt
halvtime
halvveis
halvøya
ham
hamar
hamas
hamburg
hamil
hamilton
hammer
hammerfest
hamp
hamsun
han
hand
handa
handarbeid
handball
handbok
handel
handelen
handels
handelshøy
handelshøyskolen
handen
handfull
handhe
handicap
handkle
handklær
handle
handlekur
handler
handlet
handling
handlingen
handlingene
handlinger
handlingsplan
handlingsplanen
handlingsrom
hands
handtak
handtere
handterer
handteres
handtering
handtert
handverk
handverker
handverkere
handverks
hang
hann
hanna
hanne
hannen
hannene
hanner
hans
hansen
hansker
hanssen
hap
hape
haper
hapet
hapløst
happ
happy
har
harald
hard
hardanger
hardcore
hardd
harddisk
harde
hardere
hardt
hare
hareide
haret
harete
harmon
harmoni
harmonisk
harris
harrison
harry
harstad
hart
harvard
has
hasj
hass
hassel
hast
haster
hastighet
hastigheten
hastigheter
hat
hate
hater
hatet
hatt
hatten
hau
haug
haugaland
hauge
haugen
hauger
haugesund
haugland
hauk
haukeland
haus
haust
hausten
hav
havar
havard
havbruk
havbruks
have
havet
havn
havna
havne
havnen
havner
havnet
havre
havs
haw
hawai
hawaii
hay
hb
hc
hd
he
head
healing
health
heart
heat
heav
heavy
heb
hebra
hebraisk
hed
heden
heder
hedmark
hedret
heft
hefte
heftet
heftig
heg
hege
hegg
hehe
hei
heia
heid
heidelberg
heidi
heier
heil
heile
heilt
heim
heime
heimen
hein
heinrich
heis
heisann
heisen
heiter
hek
hekk
hekke
hekle
heks
hekt
hekte
hektisk
hektiske
hel
helbred
held
heldig
heldige
heldigvis
heldt
hele
helen
helena
helene
helg
helga
helge
helgeland
helgen
helgene
helgens
helger
helhet
helheten
helhetlig
helhetlige
helikop
helikopter
hell
helland
hellas
helle
heller
hellig
helligdager
hellige
help
hels
helsa
helse
helsed
helsedirektoratet
helsefag
helseforetak
helseforetakene
helseforetaket
helsefremmende
helsehjelp
helsemessige
helsen
helsepersonell
helseproblemer
helser
helsereg
helses
helsestasjon
helsesøster
helset
helsetil
helsetilsyn
helsetilsynet
helsetjeneste
helsetjenesten
helsetjenester
helsevern
helsevesen
helsevesenet
helsing
helsingfors
helst
helt
helten
helter
heltid
helvete
hem
hemmelig
hemmelige
hemmelighet
hemmeligheten
hemmeligheter
hems
hemsedal
hen
hend
hende
hendelse
hendelsen
hendelsene
hendelser
hendelses
hendene
hender
hendte
heng
henge
hengende
henger
hengt
henhold
henholdsvis
henn
hennar
henne
hennes
henning
henrett
henrettet
henri
henriette
henrik
henriksen
henry
hens
hensi
hensikt
hensikten
hensiktsmessig
hensiktsmessige
hensyn
hensynet
hent
henta
hentai
hente
henter
hentes
hentet
henting
henvend
henvende
henvendelse
henvendelser
henvender
henvise
henviser
henvises
henvisning
henvist
hepat
hepatitt
her
here
heretter
herfra
herjet
herlig
herlige
herlighet
herm
herman
hermann
hermet
hero
heroin
herpes
herr
herre
herred
herreg
herregud
herren
herrens
herrer
hersker
hersket
hert
hertug
herunder
herved
herøy
hes
hest
heste
hesten
hestene
hester
het
hete
heter
hett
hette
hev
hevde
hevder
hevdes
hevdet
heve
hever
hevet
heving
hevn
hey
heyerd
hf
hhv
hi
hid
hier
hierark
hig
high
hihi
hij
hijab
hil
hild
hilde
hill
hills
hilse
hilsen
hilsener
him
himmel
himmelen
hin
hind
hinder
hindi
hindre
hindrer
hindret
hindringer
hindu
hing
hint
hio
hioa
hip
hiphop
hipp
hir
his
hist
histor
histori
historia
historie
historielag
historien
historiene
historiens
historier
historiker
historikere
historikeren
historikk
historisk
historiske
history
hit
hitler
hitra
hits
hitt
hittil
hiv
hive
hj
hja
hjalp
hjel
hjelm
hjelp
hjelpe
hjelpemid
hjelpemiddel
hjelpemidler
hjelpen
hjelper
hjelpere
hjelpet
hjelpsomme
hjem
hjemland
hjemlandet
hjemme
hjemmebane
hjemmed
hjemmefra
hjemmekamp
hjemmel
hjemmelag
hjemmelaget
hjemmes
hjemmeside
hjemmesiden
hjemmesider
hjemmet
hjemover
hjer
hjerne
hjernen
hjernes
hjerneslag
hjert
hjerte
hjerteinfarkt
hjertelig
hjerter
hjertes
hjertesvikt
hjertesykdom
hjertet
hjort
hjorte
hjul
hjulene
hjulet
hjulpet
hjør
hjørne
hjørner
hjørnet
hk
hl
hm
hmm
hms
ho
hob
hobby
hockey
hod
hode
hodep
hodepine
hoder
hodet
hoel
hof
hoff
hoffet
hofte
hog
hokk
hol
hold
holdbarhet
holde
holder
holdes
holding
holdning
holdningen
holdninger
holdt
hole
holland
hollen
hollender
hollywood
holm
holmen
holmenk
holmenkollen
holmest
holmestrand
holoca
holocaust
holst
holt
hom
home
homo
homofil
homofile
homofili
homoseks
homse
hon
hong
hongkong
honn
honning
honor
hook
hop
hope
hopp
hoppe
hopper
hoppet
hor
hord
hordaland
horison
horisont
hormon
hormoner
horn
horten
hos
hosp
hospital
host
hoste
hot
hotel
hotell
hotellene
hoteller
hotellet
hotellets
hotellkjeder
hotellrom
hotels
hotte
house
houston
hov
hoved
hovedar
hovedfag
hovedfokus
hovedinn
hovedk
hovedkontor
hovedkontoret
hovedkvar
hovedkvarter
hovedmal
hovedmalet
hovedoppgave
hovedperson
hovedpersonen
hovedregel
hovedregelen
hovedrolle
hovedrollen
hovedrollene
hovedsak
hovedsakelig
hovedsaklig
hovedstad
hovedstaden
hovedstyret
hovedt
hovedtema
hovedtrener
hovedutvalg
hovedveien
hovud
hovudsak
hovudsakleg
hovudstaden
how
howard
hp
hpv
hr
hs
ht
html
htt
http
https
hu
hua
hub
hud
huden
hudpleie
huff
hug
hugh
hugo
hukomm
hukommelse
hul
hule
hull
hullene
hullet
hum
human
humanitær
humanitære
hummer
humor
humoristisk
humør
humøret
hun
hund
hunde
hunden
hundene
hunder
hundre
hundret
hundrevis
hunn
hunnen
hunt
hur
hurdal
hurra
hurt
hurtig
hurtigruten
hurum
hus
husbanken
husdyr
huse
huseier
husene
huser
huset
husets
husfl
hushold
husholdning
husholdninger
husk
huske
husker
husket
husleie
husmann
husmor
hust
hustru
hv
hva
hval
hvaler
hvem
hver
hverandre
hverandres
hverdag
hverdagen
hverdager
hverdags
hverdagslige
hverken
hvert
hvertfall
hvet
hvete
hvil
hvile
hviler
hvilke
hvilken
hvilket
hvis
hvit
hvite
hviter
hviterussland
hvitløk
hvitt
hvor
hvorav
hvordan
hvorfor
hvorpa
hvorvidt
hy
hybr
hybrid
hyd
hydr
hydra
hydrauli
hydro
hydrogen
hygg
hygge
hyggelig
hyggelige
hygien
hygiene
hyl
hylla
hylle
hyller
hyllest
hyllet
hyp
hyper
hypert
hypo
hypot
hypote
hypp
hyppig
hyppige
hyppigere
hyster
hytt
hytta
hytte
hytten
hyttene
hytter
hyttet
hæ
hæl
hæler
hær
hæren
hærens
hø
høf
høflig
høg
høgare
høgaste
høgd
høge
høgre
høgskole
høgskolen
høgskoler
høgt
høie
høl
høland
høn
høne
hønefoss
hør
høre
hører
høres
høring
høringen
hørings
høringsnot
høringsuttal
hørsel
hørsels
hørt
hørte
hørtes
høst
høste
høsten
høstens
høstet
høv
høvd
høve
høy
høyde
høydem
høydemeter
høyden
høydepunkt
høydepunktene
høydepunkter
høydepunktet
høyder
høye
høyere
høyest
høyeste
høyester
høyesterett
høyesteretts
høyhastighet
høykvalitet
høykvalitets
høyr
høyre
høyreklikk
høyrer
høyres
høyresiden
høyskole
høyskolen
høyskoler
høyst
høyt
høytid
høytidelig
høytider
høytrykk
høytt
høyttaler
høyttalere
ia
iall
ialle
iallefall
iallfall
ian
ib
iblant
ibm
ibsen
ibsens
ic
ice
id
ida
idag
ide
ideal
ideell
ideelle
ideelt
ideen
ideene
ideer
ident
identif
identifikasjon
identifisere
identifiserer
identifisering
identifisert
identisk
identiske
identitet
identiteten
ideologi
idet
idi
idol
idrett
idretten
idrettens
idretter
idretts
idrettsanlegg
idrettsforbund
idrettsh
idrettskrets
idrettslag
idrettslaget
idrettslagets
idrettsutøvere
idyl
ie
if
ifjor
ifra
ift
ifølge
iført
ig
igang
igangsatt
igar
igj
igjen
igjennom
iglesias
ign
ignor
ignorere
ih
iherd
iht
ihvert
ihvertfall
ii
iii
ik
ike
ikea
ikke
ikkje
ikon
ikonet
ikoniske
iks
ikt
il
ila
ilagt
ild
ilden
ilds
ildsjel
ill
ille
illeg
illegale
illinois
illusjon
illust
illustrasjon
illustrasjoner
illustrasjonsfoto
illustrat
illustrere
illustrerer
illustrert
iløpet
im
imag
image
imellom
imidler
imidlertid
imm
immig
immun
immunforsvaret
imorgen
imot
imp
imper
imperiet
implem
implement
implementer
implementere
implementering
implementert
imponer
imponere
imponerende
imponert
imponerte
import
importer
importere
importert
impro
improvis
impul
impulser
imøte
imøtekomme
imøtekommende
in
inc
incl
ind
inde
indeks
indeksen
independ
independent
inder
inderlig
index
india
indian
indik
indikasjon
indikasjoner
indikator
indikatorene
indikatorer
indikerer
indirekte
indisk
indiske
indiv
individ
individer
individet
individual
individuell
individuelle
individuelt
indones
indonesia
indre
indrem
indust
industi
industri
industrial
industriell
industrielle
industrien
ine
inf
infanter
infe
infeksjon
infeksjoner
infilt
infin
infl
inflamm
inflasjon
influens
influensa
info
inform
informantene
informasjon
informasjonen
informasjons
informasjonskap
informasjonskapslene
informasjonskapsler
informasjonssikkerhet
informatikk
information
informer
informere
informerer
informert
informerte
infra
infrastruktur
infrastrukturen
ing
inga
inge
ingeb
ingeborg
ingebrigt
ingebrigtsen
ingen
ingeniør
ingeniører
ingenting
inger
ingred
ingrediens
ingrediensene
ingredienser
ingrid
ingunn
ingvild
inhabil
init
initi
initiativ
initiativet
initiativtak
inje
injeksjon
ink
inkass
inkl
inkluder
inkludere
inkluderende
inkluderer
inkluderes
inkludering
inkludert
inkluderte
inklusive
inn
innad
innan
innanfor
innarbeidet
innb
innbef
innbet
innbetalt
innblanding
innblikk
innbrudd
innby
innbydende
innbygg
innbygger
innbyggere
innbyggerne
innbyggertall
innbyggjarane
innbyggjarar
innbyr
innbyrdes
innbytter
inndeling
inndelingen
inndelt
inne
inneb
innebandy
innebar
innebygd
innebygde
innebære
innebærer
inneh
inneha
innehar
innehaver
inneheld
inneholde
inneholder
inneholdt
innek
inneklima
innen
innendørs
innenfor
innenlands
innenriks
inner
innerst
innerste
inneværende
innfall
innfly
innflyt
innflytelse
innflytelses
innflytelsesrike
innfri
innfrid
innfødte
innføre
innfører
innføres
innføring
innføringen
innført
innførte
innga
inngaelse
inngaende
inngang
inngangen
inngar
inngas
inngatt
inngikk
inngrep
inngrepet
innh
innhente
innhentes
innhentet
innhenting
innhold
innholdet
innholds
innholdsfor
innholdsfortegnelse
inni
innimellom
innk
innkal
innkalles
innkalling
innkallingen
innkalt
innkjøp
innkjøpt
innkl
innklagede
innkomne
innkrev
innl
innlagt
innland
innlandet
innle
innled
innledende
innleder
innledet
innledning
innledningsvis
innlegg
innleggelse
innleggene
innlegget
innleie
innlem
innlemmet
innlever
innlevering
innlo
innlogging
innom
innov
innovasjon
innovation
innovativ
innovative
innover
innpa
innpass
innredet
innredning
innretning
innretninger
innrøm
innrømme
innrømmer
innrømmet
inns
innsa
innsam
innsamling
innsat
innsats
innsatsen
innsatt
innsatte
innse
innsend
innsending
innser
innsett
innsiden
innsig
innsikt
innsjø
innsjøen
innsjøer
innsk
innskren
innskudd
innslag
innsp
innspel
innspil
innspill
innspilling
innspillingen
innspilt
innst
innstilling
innstillingen
innstillingene
innstillinger
innstilt
innstram
innsyn
innt
innta
inntak
inntaket
inntar
inntatt
innte
inntekt
inntekten
inntektene
inntekter
inntekts
inntil
inntok
inntre
inntreffer
inntrykk
inntrykket
innvalgt
innvand
innvandrer
innvandrerbakgrunn
innvandrere
innvandring
innvandrings
innvend
innvendig
innvendige
innviet
innvil
innvilges
innvilget
innvirkning
input
ins
inse
insekt
insekter
insent
insister
inskripsjon
insp
inspe
inspeksjon
inspir
inspirasjon
inspirasjonen
inspirere
inspirerende
inspirerer
inspirert
inspirerte
inst
instagram
instal
install
installasjon
installasjonen
installasjoner
installer
installere
installert
instans
instanser
instin
instit
institu
institusjon
institusjonen
institusjonene
institusjonens
institusjoner
institute
institutt
instituttet
instru
instruks
instruksjon
instruksjonene
instruksjoner
instrukt
instruktør
instruktører
instrum
instrument
instrumenter
instrumentet
insulin
int
integ
integrasjon
integrer
integrere
integreres
integrering
integrert
integrerte
integrit
integritet
intel
intelle
intellekt
intellektuelle
intellig
intelligens
intelligent
intelligente
inten
intens
intense
intensitet
intensiv
intensjon
intensjonen
intensjoner
intenst
inter
interaksjon
interaktive
interes
interess
interessant
interessante
interesse
interessen
interessenter
interesser
interesserer
interessert
interesserte
interiør
interiøret
interkommun
intern
internasjon
internasjonal
internasjonale
internasjonalisering
internasjonalt
international
interne
internet
internett
internkontroll
internt
interra
interracial
interv
intervall
intervaller
intervensjon
intervj
intervju
intervjuene
intervjuer
intervjuet
intet
intim
intime
intimitet
into
intro
introdu
introduksjon
introdus
introdusere
introdusert
introduserte
intu
inv
invad
invasjon
invasjonen
inventar
invest
invester
investere
investerer
investering
investeringen
investeringene
investeringer
investerings
investert
investor
investorer
invit
invitasjon
invitasjonen
invitasjoner
invitere
inviterer
inviteres
invitert
inviterte
invol
involver
involvere
involverer
involvering
involvert
involverte
ion
ios
ip
ipad
iphone
ips
iq
ir
ira
irak
irakiske
iran
iranske
irene
iris
irland
iron
ironisk
irri
irrit
irritasjon
irriterende
irriterer
irritert
irsk
irske
is
isa
isak
isaksen
isb
isbn
isbre
isen
isf
ish
ishoc
ishockey
isk
isl
islam
islamsk
islamske
island
islands
islandsk
islandske
iso
isol
isolasjon
isolert
isolerte
isp
isra
israel
israels
israelsk
israelske
iss
ist
istan
istanbul
istand
isted
isteden
istedenfor
istedet
it
ital
italia
italien
italiensk
italienske
its
itunes
iv
ivan
ivar
ivaret
ivareta
ivaretar
ivaretas
ivaretatt
iver
iverks
iverksatt
iverksette
iverksettes
iversen
ivrig
ivrige
ix
ja
jac
jack
jackpot
jackson
jacob
jacobsen
jacques
jag
jager
jagerfly
jaget
jaja
jak
jakke
jakken
jakker
jakob
jakobsen
jakt
jakte
jakten
jakter
jam
jama
james
jammen
jan
jane
janeiro
janne
januar
jap
japan
japansk
japanske
jar
jarl
jarle
jarlsberg
jas
jason
jav
java
javas
javascript
jay
jazz
je
jean
jeans
jeff
jeg
jeger
jegere
jemen
jen
jenn
jennifer
jenny
jens
jensen
jenssen
jent
jenta
jente
jentene
jenter
jepp
jer
jere
jern
jernban
jernbane
jernbanen
jernbaneverket
jerry
jersey
jerusale
jerusalem
jerv
jes
jesper
jess
jessheim
jessica
jesu
jesus
jet
jevn
jevnaldrende
jevne
jevnere
jevnlig
jevnlige
jevnt
jew
jf
jfr
ji
jiang
jim
jimmy
jin
jo
joachim
joakim
job
jobb
jobba
jobbe
jobben
jobbene
jobber
jobbes
jobbet
jobbing
jod
joda
joe
jog
jogge
joggesko
joh
johan
johann
johanna
johanne
johannes
johannessen
johans
johansen
johansson
johaug
john
johnn
johnny
johns
johnsen
johnson
joker
jol
jom
jomfru
jon
jonas
jonat
jonathan
jones
jor
jord
jorda
jordan
jordbruk
jordbruket
jordbruks
jordbær
jorde
jorden
jordens
jordet
jordmor
jordskjel
jordskjelv
jorunn
jos
jose
josef
joseph
josh
jostein
jot
jotun
jotunheimen
journ
journal
journalist
journalisten
journalistene
journalister
journalistikk
joy
jr
ju
juan
jub
jubel
jubileum
jud
judo
jug
jugoslav
jugoslavia
juice
juks
jul
jula
julaften
jule
julebord
julegave
julegaver
julekalender
julem
julen
jules
julet
juletre
juli
julia
julian
julie
julius
jun
june
jung
jungelen
juni
junior
jup
jupiter
jur
jurid
juridisk
juridiske
juris
jurisdi
jurist
jury
juryen
jus
just
juster
justere
justeres
justering
justeringer
justert
justin
justis
justisdepartementet
justisminister
juvent
jæ
jær
jæren
jæv
jævla
jævlig
jø
jød
jøde
jødedom
jødene
jøder
jødisk
jødiske
jør
jørg
jørgen
jørgensen
jørn
ka
kab
kabel
kabler
kad
kaf
kafe
kafeen
kafeer
kaff
kaffe
kaffeb
kaffek
kaffen
kai
kaia
kaja
kajakk
kak
kaka
kakao
kake
kaken
kaker
kal
kald
kalde
kaldere
kaldt
kalender
kalenderen
kalib
kaliber
kalium
kalk
kall
kalla
kalle
kallen
kallenavn
kallenavnet
kaller
kalles
kalori
kalorier
kalsium
kalt
kalte
kalv
kam
kambod
kambodsja
kamer
kamera
kameraer
kameraet
kamerat
kammer
kamp
kampan
kampanje
kampanjen
kampanjer
kampen
kampene
kampens
kamper
kan
kanadiske
kanal
kanalen
kanalene
kanaler
kanari
kanariøyene
kandid
kandidat
kandidaten
kandidatene
kandidater
kanel
kanin
kanon
kanoner
kans
kansas
kanseller
kanskje
kant
kanten
kantene
kanter
kanton
kantonen
kaos
kap
kapasitet
kapasiteten
kapell
kapellet
kapit
kapital
kapitlene
kapitler
kapitlet
kapittel
kapittelet
kapp
kapte
kaptein
kapteinen
kar
kara
karakt
karakter
karakteren
karakterene
karakterer
karakteriseres
karakterisert
karakteristisk
karakteristiske
karam
karate
karb
karbo
karbohyd
karbohydrater
karbon
kard
kardash
kardi
kardin
kardinal
kare
karen
karer
karet
kari
karib
karin
karl
karls
karlsen
karm
karmøy
karoline
karri
karriere
karrieren
karsten
karsykdommer
kart
kartet
kartlagd
kartlagt
kartlegg
kartlegge
kartlegging
kartleggingen
kas
kasakh
kasino
kasinoer
kasper
kass
kassa
kasse
kassen
kasser
kasserer
kast
kaste
kaster
kastes
kastet
kat
katal
katalog
katalogen
katar
katarina
katastro
katastrofe
kate
kated
katedral
katedralen
kateg
kategor
kategori
kategorien
kategoriene
kategorier
kathr
kathrine
katol
katolikker
katolsk
katolske
katrine
katt
katte
katten
katter
kaut
kav
kavaler
kay
kb
kd
ke
keep
keeper
keis
keiser
keiseren
kel
kelly
kelt
kem
ken
kenn
kennedy
kennel
kenneth
kent
kenya
ker
keram
keramikk
ket
ketil
kevin
key
keyboard
kf
kg
kh
kha
khal
khan
ki
kick
kid
kidna
kidnappet
kids
kiell
kiev
kik
kikk
kikke
kikket
kil
kilde
kilden
kildene
kilder
kile
kill
kilo
kilometer
kim
kin
kina
kinas
kind
kines
kinesisk
kinesiske
king
kings
kink
kinn
kino
kio
kir
kirk
kirka
kirke
kirkegard
kirkegarden
kirkelig
kirkelige
kirken
kirkene
kirkenes
kirkens
kirker
kirkes
kiroprakt
kirsten
kirsti
kirur
kirurg
kirurgi
kirurgisk
kis
kiss
kit
kitt
kiwi
kj
kja
kjapp
kjappe
kjapt
kje
kjed
kjede
kjedelig
kjedelige
kjeden
kjeder
kjeft
kjekk
kjekke
kjeks
kjekt
kjel
kjeld
kjelder
kjell
kjeller
kjelleren
kjem
kjemi
kjemikal
kjemikalier
kjemisk
kjemiske
kjemp
kjempe
kjempebra
kjempefin
kjempefint
kjempeg
kjempek
kjemper
kjempes
kjempest
kjempet
kjend
kjende
kjendis
kjendiser
kjenn
kjenne
kjenner
kjennes
kjennet
kjennetegn
kjennetegner
kjennetegnes
kjennetegnet
kjennskap
kjens
kjent
kjente
kjer
kjern
kjerne
kjernen
kjerring
kjersti
kjetil
kjipt
kjole
kjolen
kjoler
kjæ
kjæled
kjæledyr
kjær
kjære
kjæreste
kjæresten
kjærester
kjærlig
kjærlighet
kjærligheten
kjærlighetens
kjærlighets
kjærlighetss
kjø
kjøkk
kjøkken
kjøkkenet
kjøl
kjøle
kjøleskap
kjøleskapet
kjølig
kjøling
kjølv
kjølvannet
kjønn
kjønnene
kjønns
kjønnsle
kjønnslem
kjønnslemlest
kjønnsleppene
kjønnslepper
kjønnsorgan
kjøp
kjøpe
kjøper
kjøpere
kjøperen
kjøpes
kjøpesenter
kjøpesenteret
kjøpesentre
kjøpesummen
kjøpet
kjøpmann
kjøpt
kjøpte
kjør
kjøre
kjører
kjøres
kjøret
kjøretur
kjøretøy
kjøretøyer
kjøretøyet
kjøring
kjøringen
kjørt
kjørte
kjøtt
kjøttet
kk
kl
kla
klag
klage
klagen
klagene
klagenem
klager
klages
klaget
klam
klang
klar
klare
klarer
klarere
klargjøre
klargjøring
klarhet
klart
klarte
klass
klasse
klassekampen
klassen
klassene
klasser
klasserom
klasserommet
klasset
klassif
klassifisering
klassifisert
klassiker
klassikere
klassisk
klassiske
klat
klatre
klatrer
klatret
klatring
klaus
klaver
kle
kledd
klein
klem
klemmer
klepp
kler
kles
klev
kli
klient
klienten
klienter
klikk
klikke
klikker
klim
klima
klimaendringene
klimaendringer
klimaet
klimag
klimagass
klimagasser
klimagassutslipp
klimak
klimam
klimap
klimas
klimat
klimav
klin
klinikk
klinikken
klinikker
klinisk
kliniske
klipp
klippe
klipper
klippet
klisje
klitor
klitoris
klo
kloakk
kloden
klok
kloke
klokka
klokke
klokken
klokker
klokkes
klokkeslett
klokt
klor
kloster
klosteret
klp
klubb
klubben
klubbene
klubbens
klubber
klubbhuset
klum
klut
klyn
klæ
klæbu
klær
klærne
klø
kløe
klør
kløver
km
km2
km²
kn
kna
knall
knapp
knappe
knappen
knappene
knapper
knapt
kne
knebøy
kneet
knekke
knep
knip
knippe
kniv
kniven
kniver
knop
know
knud
knudsen
knull
knulle
knuller
knullet
knus
knuse
knusk
knust
knuste
knut
knute
knutepunkt
knutsen
knytt
knytte
knytter
knyttes
knyttet
knærne
ko
koal
koalisjon
kob
kobber
koble
kobler
kobles
koblet
kobling
koblingen
koblingene
koblinger
kod
kode
koden
koder
koff
koffert
kofferten
kogn
kognitiv
kognitive
koh
kok
koke
koker
kokk
kokos
kokt
kol
kolbotn
kole
kolesterol
koll
kollap
kolle
kollega
kollegaer
kolleger
kolleksjon
kolleksjonen
kollektiv
kollektive
kollektivt
kollektivtransport
kollisjon
koln
kolon
koloni
kolonien
kolonne
kols
kolstad
kom
koma
komb
kombin
kombinasjon
kombinasjonen
kombinasjoner
kombinere
kombinerer
kombineres
kombinert
kombinerte
kome
komedie
komfort
komfortabel
komfortabelt
komfortable
komfyr
komite
komiteen
komiteens
komiteer
komm
kommand
kommando
kommandoen
kommandør
komme
kommende
komment
kommentar
kommentaren
kommentarene
kommentarer
kommentarfeltet
kommentator
kommentere
kommenterer
kommentert
kommenterte
kommer
kommersi
kommersiell
kommersielle
kommersielt
kommet
kommisjon
kommisjonen
kommisjonens
kommun
kommunal
kommunale
kommunalt
kommunane
kommune
kommunedel
kommunen
kommunene
kommunenes
kommunens
kommuneplan
kommuneplanens
kommuner
kommunere
kommunes
kommunesenteret
kommunesty
kommunestyre
kommunestyret
kommunestyrets
kommunikasjon
kommunikasjonen
kommunikasjons
kommunikasjonssjef
kommunisere
kommuniserer
kommunist
kommunistiske
komp
kompakt
kompan
kompani
kompass
kompatib
kompatibilitet
kompens
kompensasjon
kompensere
kompet
kompetans
kompetanse
kompetanseheving
kompetansemal
kompetansen
kompetansesenter
kompetanseutvikling
kompetent
kompetente
kompis
kompl
komplek
kompleks
komplekse
kompleksitet
komplett
komplette
komplikasjoner
komplisert
kompliserte
kompon
komponent
komponentene
komponenter
komponert
komponist
komponisten
komponister
komposisjon
komposisjoner
kompresjon
kompress
komprom
kompromiss
kon
kona
kond
kondens
kondisjon
kondom
kondomer
kone
konf
konfer
konferans
konferanse
konferansen
konferanser
konfidens
konfigu
konfigur
konfir
konfirm
konfirmasjon
konflikt
konflikten
konflikter
konfron
konfront
kong
konge
konged
kongedømmet
kongelig
kongelige
kongen
kongene
kongens
konger
kongeriket
kongo
kongre
kongress
kongressen
kongsberg
kongsv
kongsvinger
konkl
konkluder
konkludere
konkluderer
konkludert
konkluderte
konklusjon
konklusjonen
konklusjoner
konkret
konkrete
konkur
konkurr
konkurran
konkurrans
konkurranse
konkurransedy
konkurransedyktig
konkurransedyktige
konkurransegrunn
konkurransekraft
konkurransen
konkurranser
konkurransetilsynet
konkurrent
konkurrentene
konkurrenter
konkurrere
konkurrerende
konkurrerer
konkurrert
konkurrerte
konkurs
kons
konse
konsekvens
konsekvensen
konsekvensene
konsekvenser
konsekvent
konsent
konsentrasjon
konsentrasjonen
konsentrasjoner
konsentrasjonsle
konsentrere
konsentrert
konsept
konsepter
konseptet
konser
konsern
konsernet
konsernets
konsernsjef
konsert
konserten
konsertene
konserter
konserv
konservativ
konservative
konsesjon
konsist
konsistens
konsol
konspirasjon
konst
konstant
konstantin
konstantinopel
konstatere
konstaterer
konstitu
konstitusjon
konstru
konstruert
konstruksjon
konstruksjonen
konstruksjoner
konstruktiv
konsul
konsulent
konsulenter
konsult
konsultasjon
konsum
kont
kontak
kontakt
kontaktann
kontaktannonse
kontaktannonser
kontakte
kontakten
kontakter
kontaktet
kontaktinformasjon
kontaktperson
kontant
kontanter
kontekst
kontin
kontinent
kontinentet
kontingent
kontinu
kontinuer
kontinuerlig
kontinuitet
konto
kontoen
kontoer
kontor
kontorer
kontoret
kontra
kontrakt
kontrakten
kontrakter
kontrast
kontrol
kontroll
kontrollen
kontroller
kontrollere
kontrollerer
kontrolleres
kontrollert
kontrollerte
kontrollutvalget
kontrollutvalgets
kontrover
kontroversi
kontroversielle
konvensjon
konvensjonelle
konvensjonen
konver
konvert
konvertere
konvertering
konvertert
koord
koordin
koordinator
koordinere
koordinering
kop
kopi
kopier
kopiere
kopiering
kopp
kopper
kor
koranen
kore
korea
koreansk
koreanske
koret
korleis
korn
korps
korpset
korre
korrekt
korrekte
korrel
korresp
korrespond
korresponder
korresponderer
korrid
korrig
korrigere
korrigert
korro
korrosjon
korru
korrupsjon
kors
korset
kort
korte
kortene
kortere
kortet
kortsiktig
kortsiktige
korttid
kortvar
kortvarig
kos
kose
koselig
koselige
koser
kosmet
kosmetikk
kosovo
kost
kostbar
kostbare
kostbart
koste
kosten
koster
kostet
kosthold
kostholdet
kostnad
kostnaden
kostnadene
kostnader
kostnads
kostnadseffe
kosttilskudd
kosty
kostyme
kostymer
kot
kp
kr
kra
krab
krabbe
kraft
kraften
kraftfor
kraftig
kraftige
kraftigere
kraftproduksjon
kraftverk
kraftverket
krager
kragerø
krak
kram
kran
krang
krangel
krav
kravene
kravet
kravspesif
kre
kreativ
kreative
kreativitet
kreativt
kred
kredit
kreditt
kredittkort
kreft
kreftene
krefter
krem
kremen
kren
krenk
kreps
kret
kreta
krets
kretsen
kretser
krev
krevd
krevde
kreve
krevende
krever
kreves
krf
kri
krig
krigen
krigens
kriger
krigføring
krigs
krigsf
krigsfor
krigssk
krim
krimin
kriminal
kriminalitet
kriminell
kriminelle
kring
kringkast
kripos
kris
krise
krisen
kriser
krises
krist
kristelig
kristen
kristendom
kristendommen
kristensen
kristent
kristi
kristian
kristiania
kristians
kristiansand
kristiansen
kristiansund
kristin
kristina
kristine
kristne
kristoffer
kristoffersen
kristus
krit
kriter
kriteriene
kriterier
kritiker
kritikere
kritikerne
kritikk
kritikken
kritisere
kritiserer
kritisert
kritiserte
kritisk
kritiske
kritt
kro
kroatia
krog
krogh
krok
kroken
krom
kromos
kron
krone
kronen
kroner
kronet
kronikk
kronisk
kroniske
kronologisk
kronprin
kronprins
kropp
kroppen
kroppens
kropper
kropps
kroppssprak
kru
krum
krutt
kry
krydder
kryp
krypt
krys
kryss
krysse
krysser
krysset
kryssord
krystall
krø
krøl
ks
ku
kub
kubikk
kuk
kul
kulde
kule
kuler
kuleste
kull
kullet
kult
kultu
kultur
kulturarv
kulturdepartementet
kulturell
kulturelle
kulturelt
kulturen
kulturer
kulturhus
kulturlandskap
kulturminn
kulturminne
kulturminner
kulturrad
kulturskolen
kum
kun
kund
kunde
kunden
kundene
kundenes
kundens
kunder
kundes
kundeservice
kunn
kunne
kunnet
kunngjorde
kunngjort
kunngjør
kunngjøring
kunnskap
kunnskapen
kunnskaper
kunnskaps
kunnskapsbasert
kunnskapsdepartementet
kunnskapsløftet
kunnskapsrik
kunnskapsrike
kunst
kunsten
kunstgress
kunstig
kunstige
kunstløp
kunstner
kunstnere
kunstneren
kunstnerisk
kunstneriske
kunstnerne
kunstverk
kup
kupp
kur
kurd
kurs
kursdelt
kursen
kursene
kurset
kurt
kurv
kurven
kurver
kus
kutt
kutte
kutter
kuttet
kv
kva
kvad
kvadrat
kvadratmeter
kval
kvalif
kvalifikasjon
kvalifikasjoner
kvalifisere
kvalifiserer
kvalifisering
kvalifiseringen
kvalifiserings
kvalifisert
kvalifiserte
kvalit
kvalitativ
kvalitative
kvalitet
kvaliteten
kvaliteter
kvalitets
kvalitetssik
kvalitetssikring
kvalme
kvalt
kvam
kvant
kvantit
kvar
kvarandre
kvart
kvartal
kvartalet
kvarter
kvartfinalen
kve
kveld
kvelden
kveldene
kveldens
kvelder
kveldstid
kvele
kven
kvern
kvikk
kvikksølv
kvinn
kvinne
kvinnelig
kvinnelige
kvinnen
kvinnene
kvinnenes
kvinnens
kvinner
kvinners
kvinnes
kvist
kvit
kvite
kvitt
kvitte
kvitter
kvm
kvote
kvoter
kvæ
kvær
kw
kwh
ky
kyl
kylling
kyn
kypros
kyr
kyrk
kyrkj
kyrkja
kyrkje
kyss
kysse
kysset
kyst
kysten
kystverket
kø
køben
københavn
københavns
køen
køy
la
lab
labor
laborator
laboratorie
laboratoriet
laboratorium
lad
lade
ladet
ladies
lading
lady
lag
laga
lagd
lagde
lage
lagene
lager
lageret
lages
laget
lagets
lagkamer
lagkonkurransen
lagmann
lagmannsrett
lagmannsretten
lagre
lagrer
lagres
lagret
lagring
lagt
laila
lak
lake
lakk
laks
lakse
laksen
lakt
lam
lambert
lamme
lamp
lampe
lamper
lan
land
landa
landbruk
landbruket
landbruks
lande
landegrens
landene
lander
landet
landets
landeveis
landhockey
landing
lands
landsbasis
landsby
landsbyen
landsbyer
landsbygda
landsdekkende
landsdel
landsdelen
landsforbund
landsgjennomsnittet
landskamp
landskamper
landskap
landskapet
landskaps
landslag
landslaget
landslagssjef
landsmøte
landsmøtet
landsom
landsomfattende
lane
lanek
laner
lanet
lang
langdist
lange
langrenn
langrennsløp
langs
langsiktig
langsiktige
langsom
langsomt
langt
langtid
langu
langvar
langvarig
langvarige
lanka
lanser
lansere
lanserer
lanseres
lansering
lanseringen
lansert
lanserte
lant
lante
lap
lapp
lappen
lapper
lar
larene
lars
larsen
larven
larvene
larver
larvik
las
lase
laser
lass
lasse
last
laste
lastebil
lastebiler
laster
lastes
lastet
lat
lata
late
laten
latene
later
latex
latin
latina
latinsk
latinske
latskri
latskriver
latt
latter
latterlig
latvia
laur
laura
laurit
laus
lauv
lav
lave
lavere
lavest
laveste
lavkar
lavpris
lavt
law
lawrence
layo
layout
ld
le
league
lean
learning
leave
led
ledd
leddene
leddet
lede
ledelse
ledelsen
ledelses
ledende
leder
ledere
lederen
lederne
lederskap
ledes
ledet
ledig
ledige
ledning
ledninger
leds
lee
leeds
left
leg
lege
legem
legeme
legemid
legemiddel
legemidler
legen
legend
legendariske
legenden
legene
leger
legevakt
legg
legge
legger
legges
legion
legitim
legitimasjon
legitimitet
legning
lego
lei
leia
leiar
leic
leicester
leid
leide
leie
leiebil
leier
leies
leiet
leietaker
leif
leik
leil
leilighet
leiligheten
leilighetene
leiligheter
leip
leipzig
leir
leire
leiren
lek
leke
leken
lekene
lekeplass
leker
leketøy
lekk
lekkasje
lekker
lekkert
lekre
leks
lekse
lekser
leksikon
lekte
lektor
lem
len
lena
lene
leng
lengde
lengden
lengder
lenge
lenger
lengre
lengsel
lengst
lengste
lengter
lenin
lenke
lenken
lenker
lenn
lennon
lens
lensmann
leo
leon
leonard
leop
leppene
lepper
ler
lerret
les
lesbian
lesbisk
lesbiske
lese
leser
lesere
leseren
leserne
leses
lesing
lesning
lest
leste
let
lete
leter
leting
lett
lette
letter
lettere
lettet
lettvint
lev
levanger
levd
levde
leve
levealder
levekar
level
levende
lever
leverand
leverandør
leverandøren
leverandørene
leverandører
leveranse
leveransen
leveranser
levere
leveren
leverer
leveres
levering
leverings
levert
leverte
levet
levetid
levevis
levitra
lew
lewis
lex
lg
lh
li
lia
lib
liban
libanon
liber
liberal
liberale
libert
liby
libya
lid
lide
lidelse
lidelser
liden
lidenskap
lidenskapelig
lider
lie
lien
lier
life
lig
liga
ligaen
ligg
ligge
liggende
ligger
ligget
light
ligne
lignende
ligner
lignet
lik
like
likebehandling
likeg
likel
likeledes
liker
likes
likesa
likesinnede
likestilling
likestillings
liket
likevel
likeverd
likeverdig
likeverdige
likhet
likheter
liknande
liknende
liksom
likt
likte
likvid
likviditet
lil
lill
lilla
lille
lillebror
lillehammer
lilles
lillesand
lillestrøm
lillesøster
lim
lime
lin
lincol
lincoln
lind
linda
linde
lindes
lindesnes
lindre
line
ling
linja
linje
linjen
linjene
linjer
link
linkedin
linken
linker
linn
linne
linni
linser
linux
lion
lions
lip
lis
lisa
lisbeth
lisboa
lise
lisens
lisensen
lisenser
list
lista
liste
listen
listene
lister
listet
listhaug
lit
lita
litau
litauen
lite
liten
liter
litt
litter
litteratur
litteraturen
litterær
litterære
little
liv
live
livene
liver
liverpool
livet
livets
living
livlig
livmor
livmoren
livmorhal
livred
livs
livskvalitet
livsl
livslang
livssituasjon
livsstil
livssyn
livstid
lj
ll
lm
ln
lo
lob
lobby
local
lock
lod
lodd
lofot
lofoten
loft
loftet
log
logg
logge
logger
logget
logikk
login
logisk
logiske
logistikk
logo
logoen
loj
lojale
lojalitet
lok
lokal
lokalbefolkningen
lokale
lokalene
lokaler
lokalet
lokalisering
lokalisert
lokalitet
lokaliteter
lokall
lokallag
lokalpolit
lokalsamfunn
lokalsamfunnet
lokalt
lokk
lokke
lokket
lokomot
lol
lom
lomme
lommebok
lommer
lon
lond
london
long
longyear
look
looking
lopp
loppem
lor
lord
loren
lorent
los
lost
lot
lott
lotter
lotto
lou
louis
louise
lov
lovbrudd
love
loven
lovende
lovene
lovens
lover
lovet
lovgivning
lovlig
lovlige
lovpal
lovverk
lovverket
low
lp
lsk
lt
ltd
lu
lub
luc
lucas
lud
ludvig
lue
luft
lufta
lufte
luften
luftfart
luftfu
lufthavn
luftig
luftt
lug
luis
luk
lukas
luke
lukk
lukke
lukkede
lukker
lukkes
lukket
luks
luksuri
luksus
lukt
lukten
lukter
lum
lun
lunch
lund
lunde
lune
lunge
lungene
lunsj
lur
lure
lurer
lurt
lurte
lus
lut
luther
lutherske
lux
luxem
luxembourg
ly
lyd
lydbøker
lyde
lyden
lyder
lydighet
lydspor
lydsporet
lykke
lykkelig
lykkelige
lykken
lykkes
lyktes
lymf
lyn
lyng
lyngdal
lyngen
lyon
lyrikk
lys
lysaker
lysb
lyse
lysene
lyser
lysere
lyset
lyss
lyst
lysten
lyt
lytt
lytte
lytter
lyttet
læ
lær
lærar
lærdal
lærde
lærdom
lære
lærebøker
læren
læreplan
læreplanen
lærer
lærere
læreren
lærerikt
lærerne
lærerutdanning
læring
lærings
læringsm
læringsmiljø
læringsutbytte
lærling
lærlinger
lært
lærte
lø
lød
løft
løfte
løfter
løftes
løftet
løgn
løgner
løk
løken
løkke
lønn
lønne
lønnen
lønner
lønns
lønnsom
lønnsomhet
lønnsomme
lønnsomt
lønnsoppgjør
løp
løpe
løpeb
løpende
løpene
løper
løpere
løperen
løperne
løpet
løpetid
løping
løpt
lør
lørdag
lørdagen
lørdagens
lørdager
løren
lørenskog
løs
løse
løser
løses
løsl
løslatt
løsne
løsnet
løsning
løsningen
løsningene
løsninger
løsnings
løst
løste
løv
løve
løven
løy
løyp
løypa
løype
løypen
løypene
løyper
løytnant
m2
m3
ma
mac
mach
machine
mad
madaga
madagaskar
made
madra
madrid
mads
madsen
mafia
mag
magas
magasin
magasiner
magasinet
magaz
magazine
mage
magen
mager
mages
magi
magic
magisk
magiske
magn
magne
magnes
magnesium
magnet
magnus
mah
mai
mail
main
mais
maj
maja
maje
majestet
major
majoritet
majoriteten
majorstuen
mak
make
maked
makedonia
maker
makeup
makker
makrell
makro
maks
maksim
maksimal
maksimale
maksimalt
maksimum
makt
makta
makten
makter
maktet
mal
mala
malays
malaysia
male
malen
malene
maler
malere
maleren
maleri
malerier
maleriet
males
malestokk
malet
malg
malgru
malgruppe
malgruppen
malgrupper
mali
malin
maling
malingen
malingene
malinger
mall
malm
malmo
maloppnaelse
malrettede
malrettet
malsetning
malsetningen
malsett
malsetting
malsettingen
malsettinger
malt
malta
malte
maltid
maltider
maltidet
malvakt
mam
mamm
mamma
man
manad
manag
management
manager
manchester
mand
mandag
mandal
mandat
mandatet
mandel
mane
maned
maneden
manedene
manedens
maneder
maneders
manedlig
manedlige
maneds
manen
mang
mange
mangel
mangelen
mangelfull
mangfold
mangfoldet
mangfoldig
mangfoldige
mangle
manglende
mangler
manglet
mango
manhattan
manif
manifest
manip
mann
mannen
mannens
mannlig
mannlige
manns
mannskap
mannskapet
mant
manu
manuell
manuelt
manus
manuset
manuskript
many
manøv
mao
map
mappe
mappen
mar
maraton
marc
marco
marcus
maren
marer
mareritt
marg
margar
margaret
margin
marginal
margrethe
mari
maria
marian
marianne
marie
marin
marina
marine
marinen
mario
marion
marit
maritim
maritime
marius
mark
marka
markant
marked
markedene
markeder
markedet
markedets
markeds
markedsføre
markedsføring
markedsføringen
markedsførings
marker
markere
markerer
markering
markert
markerte
market
marketing
markus
marmor
marokk
marokko
mars
marsj
mart
marta
marte
martha
marthe
martin
martine
martinsen
marx
mary
mas
masasje
mask
maske
masker
maskin
maskinen
maskinene
maskiner
maskinvare
mass
massa
massachus
massachusetts
massage
massak
massasje
masse
massen
massene
masser
massevis
massiv
massive
massivt
mast
master
mastercard
mastergrad
masteroppgave
masteroppgaven
mastur
mat
match
matche
matcher
matchm
matchmaking
mate
matem
matemat
matematikk
matematisk
matematiske
maten
matene
mater
material
materiale
materialene
materialer
materialet
materiell
materielle
math
mathias
mathilde
mathisen
matlag
matlaging
matproduksjon
matri
matrikk
matrikkel
mats
matt
matte
matter
mattet
matthe
mattilsynet
mature
matvare
matvarer
maud
maur
maurit
max
maxim
may
maya
mb
mc
mcc
mccart
mccartney
md
mdg
me
med
medal
medalje
medaljen
medaljer
medan
medarbeid
medarbeider
medarbeidere
medarbeiderne
meddel
medfødt
medføre
medfører
medført
medførte
medhold
medi
media
medic
medical
medie
mediene
medier
mediet
medik
medikament
medikamenter
medisin
medisinen
medisiner
medisinsk
medisinske
meditasjon
medium
medlem
medlemmene
medlemmer
medlemmet
medlems
medlemskap
medlemskapet
medlemsland
medlemsst
medvir
medvirke
medvirkende
medvirket
medvirkning
meet
meg
mega
meget
megler
meier
meieri
meiner
meinte
meir
meister
mek
mekan
mekanisk
mekaniske
mekanismer
mekling
meks
meksikanske
mektig
mektige
mektigste
mel
melbourne
meld
melde
melder
meldes
melding
meldingen
meldingene
meldinger
meldings
meldt
meldte
melhus
melk
melke
melkes
mell
mellom
mellomkrig
mellomrom
mellomstore
mellomtiden
melod
melodi
melodien
mem
member
membran
men
mene
mener
menes
meng
mengde
mengden
mengder
menighet
menigheten
menigheter
mening
meningen
meninger
menings
meningsløst
meningsmal
menn
menne
mennene
mennesk
menneske
menneskehandel
menneskeheten
menneskelig
menneskelige
menneskene
menneskenes
mennesker
menneskerett
menneskerettighet
menneskerettighetene
menneskerettigheter
menneskers
menneskes
mennesket
menneskets
menns
mens
mensen
menstru
menstruasjon
ment
mental
mentale
mentalt
mente
mentor
menu
meny
menyen
mer
meraker
merc
mercedes
mere
merete
meritter
merk
merke
merkelig
merkelige
merken
merkene
merker
merkes
merket
merkevare
merkevarer
merking
merknad
merknader
merverdi
merverdiavgift
mes
mess
messe
messen
messer
messing
mest
meste
mesteparten
mester
mesterskap
mesterskapet
mestre
mestrer
mestring
mestrings
met
meta
metabol
metafor
metal
metall
metaller
mete
meteor
meter
meters
metod
metode
metoden
metodene
metoder
metodikk
metro
mett
mette
mettet
mex
mexico
meyer
mf
mg
mh
mht
mi
mia
miami
mic
mich
micha
michael
michel
michigan
micro
micros
microsoft
mid
midd
middag
middagen
middel
middelalder
middelalderen
middelaldrende
middelhav
middelhavet
middels
middelsst
middelsstor
middelsstore
middle
midlene
midler
midlertid
midlertidig
midlertidige
midnatt
midt
midtban
midten
midtre
midtøsten
mig
migrasjon
migrene
mik
mika
mikael
mike
mikk
mikkel
mikkelsen
mikro
mikrofon
mikroskop
miks
mil
milan
milano
mild
milde
mildere
mildt
mile
milep
miles
milf
milit
militær
militære
militæret
militært
milj
miljø
miljød
miljødirektoratet
miljøene
miljøer
miljøet
miljøgifter
miljøp
miljør
miljøvennlig
miljøvennlige
miljøvern
miljøverndepartementet
mill
miller
milli
milliard
milliarder
millimeter
million
millionar
millioner
mim
min
mind
mindf
mindre
mindrearige
mindret
mindretall
mine
miner
mineral
mineraler
ming
mini
minib
minim
minimal
minimalt
minimere
minimum
minister
minn
minne
minnene
minner
minnes
minnesota
minnet
minor
minoritet
minoriteter
minoritetssprak
minske
minst
minste
minus
minutt
minuttene
minutter
minutters
mir
mira
mirak
mis
misbru
misbruk
misbrukt
misfornøyd
misforsta
misforstaelser
misforstatt
mishandling
misjon
misjonær
misli
mislig
mislighold
misly
mislykkes
mislykket
mislyktes
misn
misnøye
miss
mission
mist
mista
mistanke
miste
misten
mistenkelig
mistenker
mistenkt
mistenkte
mister
mistet
misunn
mit
mitch
mitt
mix
mj
mjø
mjøl
mjøndalen
mjøsa
mk
ml
mm
mn
mnd
mnok
mo
mo1
mob
mobbet
mobbing
mobil
mobile
mobilen
mobilisere
mobilisering
mobilitet
mobilt
mobiltelefon
mobiltelefonen
mobiltelefoner
mod
mode
model
modell
modellen
modellene
modeller
moden
moder
moderat
moderate
modern
moderne
modernisering
modif
modifisert
modig
modne
modul
moduler
modum
modus
moe
moen
mog
mogleg
moh
moham
mol
mold
molde
molek
molekyl
mom
moment
momenter
moms
mon
mona
monaco
monark
money
mong
monica
monitor
monopol
monro
mons
monsen
monster
mont
monte
monten
montere
monteres
montering
montert
montreal
monum
monument
moon
moore
mor
mora
moral
moralsk
moralske
mord
more
moren
morens
morg
morgan
morgen
morgendagens
morgenen
morges
mormor
moro
morris
morro
mors
morsmal
morsom
morsomme
morsommere
morsomt
mort
morten
mos
mose
moses
mosjon
mosjøen
mosk
moske
moskva
moss
most
mot
mote
motet
motgang
motiv
motivasjon
motivasjonen
motivene
motiver
motivere
motiverende
motiverer
motivert
motiverte
motivet
motor
motoren
motorer
motorsport
motorsykkel
motorsykler
motorveien
motsatt
motsatte
motsetning
motsetninger
motsta
motstand
motstanden
motstander
motstandere
motstanderen
motstanderne
motstrid
mott
motta
mottak
mottakelse
mottaker
mottakere
mottakeren
mottaks
mottar
mottatt
motto
mottok
motvirke
mount
mountain
mountains
mov
movie
movies
moz
mozart
mp
mp3
mr
mrd
ms
mt
mu
mud
muff
mugg
muhammed
mul
mulig
mulige
muligens
muliggjør
mulighet
muligheten
mulighetene
muligheter
muller
mult
multi
multif
multim
multip
multipl
mum
mun
munch
munchen
munk
munn
munnen
munner
munningen
munt
muntlig
muntlige
mur
muren
murer
mus
muse
museer
museet
museets
museum
museums
music
musik
musikal
musikalsk
musikalske
musiker
musikere
musikerne
musikk
musikkalbum
musikken
musikkvideo
musk
muskel
muskelmasse
musklene
muskler
muskulatur
musli
muslim
muslimer
muslimsk
muslimske
must
mut
mv
mva
mvh
mw
my
mye
mygg
myhre
myk
myke
mykere
mykje
mykt
myl
myn
mynd
myndighet
myndighetene
myndighetenes
myndigheter
mynt
mynter
myr
myrdet
myster
mystisk
mystiske
myt
myte
myten
myter
mytologi
m²
mæ
mø
møbel
møbler
mød
mødre
møl
mølla
mølle
møller
møn
mønster
mønsteret
mønstre
mør
møre
mørk
mørke
mørkere
mørket
mørkt
møt
møte
møtedato
møteinn
møteinnkalling
møteleder
møtene
møteplass
møteplassen
møteplasser
møteprotokoll
møter
møterom
møtes
møtested
møtet
møtetid
møtt
møtte
møttes
na
nab
nabo
naboen
naboene
naboer
nabok
nabol
nabolag
nabolaget
naboland
nad
nadd
nadde
nade
naf
nag
naiv
nak
naked
naken
nakenbilder
nakke
nakken
nakne
nal
nale
nam
namdal
name
names
namn
namnet
namngje
namngjeven
namsos
nan
nannestad
nansen
nap
napole
napoleon
napoli
napp
nar
nark
narkotik
narkotika
narvik
nas
nasa
nash
nasjon
nasjonal
nasjonalbiblioteket
nasjonale
nasjonalfor
nasjonalitet
nasjonalpark
nasjonalparken
nasjonalsosial
nasjonalt
nasjonen
nasjoner
nat
natid
nation
national
nationalthe
nationaltheatret
nato
natos
natt
natta
natte
natten
natur
natural
naturen
naturens
naturfag
naturgass
naturlig
naturlige
naturligvis
naturmangfold
naturopp
naturreserv
naturreservat
naturvern
naturvitenskap
naturvitenskapelige
naust
naut
nautiske
nav
navar
navig
navigasjon
navigere
navn
navne
navnene
navnet
navngitt
navy
naværende
naz
nazi
nazistene
nb
nc
nd
ne
nebb
ned
nedb
nedbryt
nedbør
nede
neden
nedenfor
nedentil
neder
nederlag
nederland
nederlandsk
nederlandske
nederst
nederste
nedfelt
nedgang
nedgangen
nedlagt
nedlast
nedlasting
nedover
nedre
nedrykk
nedsatt
nedslag
nedt
nedtur
nedturer
need
neg
negativ
negative
negativt
negl
neglene
negler
nei
neida
neil
nek
nekte
nekter
nektet
nel
nelson
nem
nemlig
nemnd
nemnda
nepal
neppe
ner
nerd
nerv
nerve
nerver
nerves
nervesystemet
nervøs
nes
nesa
nese
nesen
neset
nesodden
ness
nest
neste
nesten
nestleder
net
netent
netflix
nett
nettapotek
nettavis
nettavisen
nettbasert
nettbaserte
nettbok
nettbrett
nettbutikk
nettbutikken
nettbutikker
nettcasino
nettdat
nettdate
nettdating
nettene
netter
nettet
netthandel
nettleser
nettlesere
nettleseren
netto
nettopp
nettside
nettsiden
nettsidene
nettsider
nettst
nettsted
nettstedene
nettsteder
nettstedet
nettstedets
nettverk
nettverket
nettverks
network
nev
never
nevne
nevner
nevnes
nevneverdig
nevnt
nevnte
nevr
nevro
nevø
new
newcastle
news
newton
next
nf
nff
nfl
ng
ngu
nh
nhat
nhh
nho
ni
nib
nic
nice
nichol
nick
nicol
nicolai
nid
nidar
nidaros
niels
nielsen
niende
nif
nifs
nig
niger
nigeria
night
nik
nike
nikol
nikola
nikolai
nil
nils
nilsen
nilsson
nin
nina
nint
nintendo
nis
nisje
niss
nissan
nissen
nit
nitrogen
nitt
nittedal
niva
nivaene
nivaer
nivaet
nixon
nj
nk
nkk
nkp
nl
nm
nmbu
nn
no
noah
nobel
nobelprisen
nobels
noe
noen
noenlunde
noens
noensinne
nof
nok
nokia
noko
nokon
nokre
noksa
nokut
nom
nomin
nominasjon
nominert
nominerte
non
nor
nora
nord
nordaust
nordby
nordea
norden
nordens
nordfjord
nordic
nordisk
nordiske
nordkapp
nordland
nordlege
nordlige
nordligste
nordlys
nordmann
nordmannen
nordmenn
nordmennene
nordmøre
nordnorsk
nordover
nordre
nordsida
nordsiden
nordsjøen
nordstrand
nordvest
nordøst
nore
noreg
noregs
norge
norges
norgesmester
norgesmesterskapet
norm
normal
normale
normalt
norman
normand
normann
normen
normer
norrø
norrøn
norrøne
norrønt
norsk
norske
norskekysten
nort
north
norther
northern
northug
norw
norway
norweg
norwegian
nost
nostalg
not
notat
notater
notatet
note
noter
notere
notert
notodden
nou
nov
nova
novelle
noveller
november
now
nr
nrk
nrks
ns
nsb
nsf
nt
ntb
ntnu
nu
nud
nude
nudist
null
num
numer
nummer
nummeret
nun
nuru
nut
nv
nve
ny
nyanser
nyaret
nybegynn
nybegynner
nybegynnere
nybygg
nydelig
nydelige
nye
nyere
nyeste
nyetabler
nyfødt
nyfødte
nygaard
nygard
nyhet
nyheten
nyhetene
nyheter
nyhets
nyhetsbrev
nyhetsbyraet
nyinn
nylig
nynorsk
nyopp
nyre
nys
nysgjer
nysgjerr
nysgjerrig
nysgjerrige
nysgjerrighet
nyskap
nyskapende
nyt
nyte
nytelse
nyten
nyter
nytt
nytta
nyttar
nyttarsaften
nytte
nytten
nytter
nyttig
nyttige
nyutdannede
næ
nær
nære
nærhet
nærheten
næring
næringen
næringer
nærings
næringsbygg
næringsdrivende
næringsliv
næringslivet
næringslivets
næringsm
næringsmiddel
næringsstoffer
næringsutvikling
næringsvirksomhet
nærliggende
nærme
nærmer
nærmere
nærmest
nærmeste
nærmet
nærmiljø
nærmiljøet
næromradet
nært
nærvær
næss
nø
nød
nødhjelp
nødnummer
nødt
nødvend
nødvendig
nødvendige
nødvendighet
nødvendigvis
nøk
nøkkel
nøkkelen
nøkkelord
nøkkelt
nøkler
nøkter
nøl
nør
nøt
nøtter
nøtterøy
nøy
nøya
nøyaktig
nøyaktige
nøyaktighet
nøye
nøyt
nøytr
nøytral
nøytrale
oak
ob
obama
ober
oberst
obje
objekt
objekter
objektet
objektiv
objektive
oblast
oblig
obligasjon
obligasjoner
obligator
obligatorisk
obligatoriske
obos
obs
obser
observ
observasjon
observasjoner
observatør
observer
observere
observert
observerte
oc
ocean
och
oct
od
oda
odal
odd
odda
odds
oddvar
odel
odin
oec
oecd
of
off
offens
offensiv
offensive
offent
offentleg
offentlig
offentlige
offentliggjort
offentlighet
offentligheten
offer
offeret
offic
office
offis
offiser
offiserer
offisiell
offisielle
offisielt
offsh
offshore
ofre
ofrene
ofret
oft
ofte
oftere
oftest
og
ogs
ogsa
oh
ohio
oi
oil
ok
okk
okkup
okkupasjon
okkupasjonen
okkuper
okkupert
okkuperte
oks
okse
oksy
oksygen
okt
oktober
ol
ola
olaf
olav
olavs
old
olde
oldid
oldtid
ole
oli
oliv
oliven
olivenolje
oliver
olje
oljefondet
oljem
oljen
oljeprisen
oljer
oljesel
olsdatter
olsen
oly
olymp
olympisk
olympiske
om
ombord
ombud
ombudet
ombygd
ombygging
omd
omdisk
omdømme
omdøpt
omega
omegn
omf
omfang
omfanget
omfatt
omfattar
omfatte
omfattende
omfatter
omfattes
omfattet
omfor
omg
omgang
omgangen
omganger
omgir
omgitt
omgiv
omgivelsene
omgivelser
omgjort
omhandler
omhandlet
omkom
omkring
omkringliggende
omlag
omlegging
omløp
omorgan
omrada
omrade
omradene
omrader
omradet
omringet
oms
omsetning
omsetningen
omsetnings
omsider
omskjæring
omsorg
omsorgen
omsorgs
omsorgsdepartementet
omsorgstjenester
omstend
omstendighetene
omstendigheter
omstilling
omstrid
omstridt
omt
omtale
omtalen
omtaler
omtales
omtalt
omtalte
omtanke
omtr
omtrent
omvendt
omverdenen
omvisning
on
onan
onani
ond
onde
ondskap
one
onkel
online
only
ons
onsdag
ont
op
open
oper
opera
operaen
operasjon
operasjonen
operasjoner
operasjonsleder
operativ
operative
operativsystem
operativsystemet
operatør
operatøren
operatører
operere
opererer
operert
opererte
opin
opna
opp
oppa
opparbeid
opparbeidet
oppbe
oppbevar
oppbevare
oppbevares
oppbevaring
oppbevart
oppbygging
oppd
oppdag
oppdaga
oppdage
oppdagelsen
oppdagelses
oppdager
oppdages
oppdaget
oppdal
oppdater
oppdatere
oppdaterer
oppdateres
oppdatering
oppdateringen
oppdateringer
oppdatert
oppdaterte
oppdrag
oppdragelse
oppdragene
oppdraget
oppdrags
oppdragsgiver
oppdragsgivere
oppdrett
oppdretter
oppdrettere
oppdrettslaks
oppe
oppegard
oppf
oppfat
oppfatning
oppfatningen
oppfatninger
oppfatte
oppfatter
oppfattes
oppfattet
oppfinn
oppfor
oppford
oppfordr
oppfordre
oppfordrer
oppfordres
oppfordret
oppfordring
oppfunnet
oppfyl
oppfylle
oppfyllelse
oppfyller
oppfylles
oppfylt
oppfølg
oppfølger
oppfølgeren
oppfølging
oppfølgingen
oppfølgings
oppføre
oppfører
oppføring
oppføringen
oppføringer
oppførsel
oppført
oppførte
oppg
oppga
oppgang
oppgav
oppgave
oppgaven
oppgavene
oppgaver
oppgi
oppgir
oppgis
oppgitt
oppgitte
oppgjør
oppgjøret
oppgrader
oppgradere
oppgradering
oppgraderinger
oppgradert
opph
opphav
opphavet
opphavleg
opphavsrett
opphe
oppheng
oppheve
opphevet
opphold
oppholde
oppholder
oppholdet
oppholdstillatelse
oppholdt
opphør
opphører
opphørte
opphøy
oppi
oppkalt
oppkast
oppkjøp
oppkjøpet
oppkobling
opplag
opplagt
oppland
opplegg
opplegget
opplev
opplevd
opplevde
oppleve
opplevelse
opplevelsen
opplevelsene
opplevelser
opplevelses
opplever
oppleves
opply
opplys
opplyse
opplyser
opplyses
opplysning
opplysningene
opplysninger
opplyst
opplyste
opplær
opplæring
opplæringen
opplærings
opplæringsloven
oppløsning
oppløst
oppm
oppmer
oppmerksom
oppmerksomhet
oppmerksomheten
oppmerksomme
oppmun
oppmunt
oppmuntre
oppmuntret
oppmuntring
oppmøte
oppn
oppna
oppnad
oppnadd
oppnadde
oppnar
oppnas
oppnev
oppnevnes
oppnevnt
opposisjon
opposisjonen
oppover
oppr
oppreis
oppreisning
oppreist
opprett
oppretta
opprette
opprettelse
opprettelsen
oppretter
opprettes
opprettet
opprettholde
opprettholder
opprettholdes
opprettholdt
oppri
oppriktig
opprinn
opprinnelig
opprinnelige
opprinnelse
opprinnelsen
opprinnelses
opprykk
opprør
opprørerne
opprøret
opprørt
opps
oppsamling
oppsatt
oppsett
oppsettet
oppsig
oppsigelse
oppsikt
oppsiktsvekkende
oppskrift
oppskriften
oppskriftene
oppskrifter
oppsl
oppslag
oppslutning
oppst
oppsta
oppstand
oppstar
oppstart
oppstarten
oppstatt
oppstilling
oppsto
oppstod
oppsummer
oppsummere
oppsummerer
oppsummering
oppsummert
oppsyn
oppsø
oppsøke
oppsøker
oppt
opptak
opptakene
opptaket
opptaks
opptar
opptatt
opptil
opptradt
opptradte
opptrapping
opptre
opptred
opptreden
opptredener
opptrer
oppuss
oppussing
oppvar
oppvarming
oppvask
oppvekst
oppveksten
oppvokst
ops
opsjon
opt
optim
optimal
optimale
optimalisere
optimalisering
optimalt
optisk
or
oral
orange
oransje
orch
ord
ordbok
orde
orden
ordene
ordenen
ordens
ordentlig
order
ordet
ordfor
ordfør
ordfører
ordføreren
ordin
ordinær
ordinære
ordinært
ordne
ordner
ordnet
ordning
ordningen
ordninger
ordre
ordren
ordtak
ore
org
organ
organer
organis
organisasjon
organisasjonen
organisasjonene
organisasjonens
organisasjoner
organisasjons
organisasjonsnummer
organisator
organisatorisk
organisatoriske
organisere
organiserer
organiseres
organisering
organiseringen
organisert
organiserte
organisk
organiske
organismer
orgas
orgasme
orgel
ori
orient
orienter
orientere
orientering
orientert
orienterte
orig
origin
original
originale
originalen
originalt
orion
ork
orkan
orkdal
orke
orker
orkester
orket
orkla
orle
orleans
orn
ort
ortod
ortodokse
ortoped
os
oscar
ose
oskar
osl
oslo
oslofjord
oslofjorden
oslos
osm
osmanske
oss
ost
oste
oster
osv
ot
other
ott
otta
ottar
otter
otto
ou
our
ous
out
outlook
ov
ove
oven
ovenfor
ovenfra
ovennevnte
over
overalt
overbe
overbevise
overbevisende
overbevisning
overbevist
overd
overdre
overdreven
overens
overenskom
overensstemmelse
overfl
overflate
overflaten
overflater
overflødig
overfor
overfør
overføre
overfører
overføres
overføring
overføringen
overføringer
overførings
overført
overga
overgang
overgangen
overganger
overgangs
overgrep
overh
overhode
overhodet
overholde
overkant
overl
overla
overlate
overlatt
overleg
overlege
overlegen
overlev
overlevd
overlevde
overleve
overlevelse
overlevende
overlever
overlevert
overn
overnatt
overnatte
overnatting
overnattings
overnattingsstedet
overord
overordnede
overordnet
overra
overrask
overraske
overraskelse
overraskelser
overraskende
overrasket
overs
oversatt
overse
oversendes
oversendt
oversett
oversette
oversettelse
oversettelsen
oversettelser
oversetter
oversiden
oversikt
oversikten
oversiktlig
oversk
overskrid
overskrift
overskriften
overskrifter
overskudd
overskuddet
oversky
overst
overstige
overstiger
oversv
overt
overta
overtak
overtakelse
overtale
overtar
overtatt
overtid
overtok
overtred
overv
overvak
overvake
overvaker
overvaking
overvakning
overvann
overve
overvekt
overvektige
overveld
overveldende
overvinne
ovn
ovnen
ow
own
ox
oxford
oz
p3
p4
pa
paa
pabeg
pabegynt
paber
pabud
pac
pack
pad
padd
padle
padri
padriver
padro
pafallende
pafyll
pafølgende
paføre
paføres
paført
pagaende
pagang
pagar
pagatt
page
pagikk
pagrepet
paint
pak
pakist
pakistan
pakistanske
pakjen
pakjørt
pakk
pakke
pakkeforløp
pakken
pakker
pakket
pakl
pakrevd
pakt
pal
palace
palagt
palasset
pale
palegg
palegge
palegger
palegges
palest
palestin
palestina
palestinere
palestinsk
palestinske
palit
palitelig
palitelige
palitelighet
pall
pallen
palme
palmer
palo
pam
pameld
pamelding
pameldings
pameldt
pameldte
paminn
paminnelse
pan
panama
pand
panel
panelet
panikk
panne
pannek
pannen
panor
panorama
panser
pant
pap
pape
papeke
papeker
papekt
papekte
paper
papi
papir
papirer
papiret
papp
pappa
paprika
par
para
parad
paradis
paradise
paradoks
paragraf
paral
parall
parallell
parallelle
parallelt
paralymp
paralympiske
paramet
parap
paraply
paras
paret
parforhold
parfy
parfyme
paris
park
parken
parker
parkere
parkering
parkerings
parkeringsplass
parkeringsplassen
parkeringsplasser
parkert
parl
parlament
parlamentet
pars
part
parten
partene
partenes
parter
parti
partiene
partier
partiet
partiets
partik
partikkel
partikler
partil
partileder
partis
partner
partnere
partneren
partnerskap
party
parørende
pas
pase
pasi
pasient
pasienten
pasientene
pasientens
pasienter
pask
paske
pasken
pasning
pass
passasjer
passasjerene
passasjerer
passe
passende
passer
passere
passerer
passert
passerte
passet
passform
passiv
passive
passord
passordet
past
pasta
pastand
pastanden
pastandene
pastander
pastar
pastatt
pastor
pat
pata
patale
patalemyndigheten
patar
patent
patri
patriark
patrick
patron
patrul
patt
pattedyr
paul
paulsen
paulus
paus
pause
pausen
pauser
pav
pave
paven
pavente
paverk
pavir
pavirke
pavirker
pavirkes
pavirket
pavirkning
pavise
pavist
pay
payp
paypal
pa¥
pb
pbl
pc
pcb
pcen
pcer
pd
pdf
pe
peak
pean
ped
pedagog
pedagogikk
pedagogisk
pedagogiske
peder
pedersen
peer
peiling
peis
pek
peke
peker
pekt
pekte
pel
pelle
pels
pelsen
pen
pend
pene
penet
peng
penge
pengene
penger
pengespill
penis
penn
pennsyl
pennsylvania
pens
pensjon
pensjonen
pensjonist
pensjonister
pensjons
pensjonsk
pensum
pent
people
pep
pepper
per
pere
perf
perfect
perfeksjon
perfekt
perfekte
perform
performance
peri
perifer
period
periode
perioden
periodene
perioder
perle
perler
perm
permalen
permalenken
perman
permanent
permanente
permisjon
permitter
pern
pernille
pers
persiske
person
personal
personale
personalet
personar
personbil
personbiler
personell
personen
personene
personer
personlig
personlige
personlighet
personligheter
personopplys
personopplysningene
personopplysninger
persons
personvern
personverner
personvernerklæringen
perspektiv
perspektiver
perspektivet
peru
pes
pest
pet
peter
petersburg
petersen
petra
petro
petroleum
petroleums
petter
pettersen
pf
pga
ph
phd
phil
philadel
philadelphia
philip
philips
philos
phone
phot
photo
photos
photoshop
php
pi
pia
pian
piano
pic
pick
pics
pict
pictures
pie
pier
piercing
pierre
piet
pig
pigg
pik
pike
piken
pikk
pil
pileg
pilegri
pilegrim
piller
pilot
pin
pine
ping
pink
pinlig
pinne
pinner
pinse
pint
pinyin
pioner
pip
pipe
piper
pir
pirat
pisk
pist
pistol
pit
pitt
pix
piz
pizza
pkt
pl
pla
plac
place
plag
plage
plagene
plager
plaget
plagg
plak
plakat
plakater
plan
planarbeidet
planen
planene
planer
planet
planeten
planla
planlagt
planlagte
planlegg
planlegge
planlegger
planlegges
planlegging
planleggingen
planleggings
planomradet
plans
plant
plante
planten
plantene
planter
plantet
plas
plass
plassen
plassene
plasser
plassere
plasserer
plasseres
plassering
plasseringen
plasseringer
plassert
plasserte
plast
plastikk
plat
plata
plate
platen
platene
plater
plateselskap
plateselskapet
platt
plattform
plattformen
plattformer
play
player
playstation
ple
please
pleide
pleie
pleier
plen
plikt
plikten
plikter
plo
plu
plug
plukke
plukker
plukket
plus
pluss
plut
pluts
plutselig
plynd
pm
po
pod
podcast
poeng
poengene
poenget
poengs
poengsum
poesi
poet
point
pok
poke
pokemon
poker
pol
polar
polen
police
policy
poliklin
poliklinikk
polish
polit
politi
politiattest
politibet
politid
politidistri
politidistrikt
politiet
politiets
politif
politifolk
politik
politiker
politikere
politikerne
politikk
politikken
politim
politimann
politimester
politisk
politiske
politist
pollen
polsk
polske
poly
polyg
pom
pompe
pon
ponn
pont
pop
popp
popul
popular
popularitet
populasjon
populasjonen
populær
populære
populært
por
porn
porno
pornofilm
pornofilmen
pornofilmer
pornografisk
pornografiske
pornos
pornost
pornostjer
pornstar
pors
porselen
porsgrunn
porsjon
porsjoner
port
portal
portalen
porteføl
portefølje
porteføljen
porten
porter
porto
portrett
portretter
portug
portugal
portugis
portugisisk
portugisiske
pos
pose
posen
poser
posisjon
posisjonen
posisjoner
posit
position
positiv
positive
positivt
post
postadresse
postadressen
postboks
poste
posted
posten
postene
poster
postet
posts
pot
potens
potensial
potensiale
potensialet
potensiell
potensielle
potensielt
potet
poteter
pott
potter
pow
power
powered
pp
ppt
pr
pra
prag
praha
praks
praksis
praksisen
prakt
praktisere
praktiserer
praktisert
praktisk
praktiske
prat
prate
prater
pratet
pre
pred
preferanser
preg
prege
preger
preges
preget
prem
premie
premien
premier
premiere
premieren
premiss
premisser
premium
prepar
prer
preribosome
pres
present
presentasjon
presentasjonen
presentasjoner
presenter
presentere
presenterer
presenteres
presentert
presenterte
presid
president
presidenten
presidentvalget
presis
presise
presisere
presiserer
presisjon
presist
press
presse
pressekonferanse
pressemelding
pressemeldingen
pressen
presser
presses
presset
prest
prestasjon
prestasjoner
preste
prestegjeld
presten
prester
prestere
prestis
prestisje
preussen
prev
prevensjon
pri
price
pride
prikker
prim
prima
primær
primære
primært
prin
prince
prins
prinsen
prinsesse
prinsi
prinsip
prinsipp
prinsippene
prinsipper
prinsippet
print
prior
priorit
prioriter
prioritere
prioriterer
prioriteres
prioritering
prioriteringer
prioritert
prioriterte
prioritet
pris
prisen
prisene
priser
priv
privat
private
privatliv
privatpersoner
privil
privileg
prix
pro
prob
problem
problematisk
problemene
problemer
problemet
problemstilling
problemstillingen
problemstillingene
problemstillinger
produ
product
products
produksjon
produksjonen
produksjoner
produksjons
produksjonskapasitet
produkt
produktene
produkter
produktet
produktiv
produktivitet
produktutvikling
produs
produsent
produsenten
produsentene
produsenter
produsere
produserer
produseres
produsert
produserte
prof
profesjon
profesjonell
profesjonelle
profesjonelt
profess
professional
professor
profet
profeten
proff
profil
profilen
profilene
profiler
profilering
profilerte
profitt
prog
progn
prognose
prognoser
program
programleder
programmene
programmer
programmering
programmet
programvare
programvaren
progresjon
progress
progressiv
progressive
proje
project
prom
promille
promot
promotere
pron
pronotum
prop
propag
propaganda
propor
proporsjon
pros
prosa
prosed
prosedyr
prosedyre
prosedyren
prosedyrer
prosent
prosentpoeng
proses
prosess
prosessen
prosessene
prosesser
prosessor
prosje
prosjekt
prosjektene
prosjekter
prosjektering
prosjektet
prosjektets
prosjektledelse
prosjektleder
prost
prostata
prostitu
prostituerte
prostitusjon
prot
prote
protein
proteiner
protest
protestant
protester
protok
protokoll
protokollen
protot
provin
provins
provinsen
provo
provos
prp
pry
prø
prøv
prøvd
prøvde
prøve
prøven
prøvene
prøver
prøves
prøvet
prøving
prøy
prøyss
ps
pse
pseud
pst
psy
psych
psyk
psykiat
psykiater
psykiatri
psykiatrisk
psykisk
psykiske
psyko
psykolog
psykologer
psykologi
psykologisk
psykologiske
psykop
psykos
psykosos
pt
pu
pub
pubert
publ
public
publik
publikasjon
publikasjoner
publikum
publisere
publiserer
publiseres
publisering
publisert
publiserte
publish
published
puerto
pul
puls
pulsen
pulver
pum
pump
pumpe
pumper
pun
pund
punk
punkt
punktene
punkter
punktet
punktum
pupp
puppene
pupper
pur
pure
pus
push
pusle
puss
pusse
pusset
pussy
pust
puste
pusten
puster
put
pute
puter
putin
putte
pv
pvc
py
pyn
pynt
pynte
pyntet
pyram
pøl
pølse
pølser
q500
qa
qatar
qu
qual
quality
quar
que
queen
queens
quest
quick
quis
quiz
quo
ra
rab
rabatt
rabatter
race
racer
racing
rad
radar
rade
radene
rader
radet
radgivende
radgiver
radgivere
radgivning
radhus
radhuset
radi
radighet
radik
radikal
radikale
radikalt
radio
radioen
radiok
radiost
radmann
radmannen
radmannens
radon
radyr
raf
raff
rag
raga
ragn
ragnar
ragnhild
raid
rail
rain
rak
rakett
rakk
rakke
rakkestad
ral
rally
ram
ramme
rammebetingelser
rammen
rammene
rammeplan
rammer
rammes
rammet
rammeverk
rammeverket
ramp
ran
rana
rand
randi
random
ranet
rang
range
ranger
rangering
rangers
rangert
ranheim
rank
rans
rant
rap
rapp
rapper
rapport
rapporten
rapportene
rapporter
rapportere
rapporterer
rapporteres
rapportering
rapportert
rapporterte
rar
rare
rart
ras
rase
rasen
rasende
raser
rasisme
rasjon
rasjonell
rask
raske
raskere
raskest
raskeste
raskt
rasmus
rasmussen
rast
raste
rastoff
rat
rate
rating
ratt
rattet
rau
raud
raufoss
raus
rav
ravarer
ravn
raw
ray
raym
raymond
rbk
rd
re
read
reading
reag
reagere
reagerer
reagerte
reaksjon
reaksjonen
reaksjonene
reaksjoner
real
reale
realesc
realescort
realfag
realisere
realisert
realistisk
realistiske
realitet
realiteten
reality
rec
rece
record
records
red
redaksjon
redaksjonen
redakt
redaktør
redaktøren
redd
redde
redder
reddet
rede
redegj
redegjør
redegjøre
redegjørelse
reder
rederiet
redig
rediger
redigere
redigering
redigert
redning
rednings
redsel
redskap
redskaper
redu
reduksjon
reduksjonen
redus
redusere
reduserer
reduseres
redusert
reduserte
reell
reelle
reelt
ref
refer
referans
referanse
referanser
referat
referer
referere
refererer
referert
refle
refleks
refleksjon
refleksjoner
reflekt
reflekter
reflektere
reflekterer
reflektert
reform
reformasjonen
reformen
reformer
refusjon
reg
regel
regelen
regelmessig
regelmessige
regelverk
regelverket
regi
regime
regimet
region
regional
regionale
regionalt
regionen
regionene
regionens
regioner
regiss
regissert
regissør
regissøren
regist
register
registeret
registre
registrene
registrer
registrere
registrerer
registreres
registrering
registreringen
registreringer
registrerings
registrert
registrerte
regjer
regjerende
regjering
regjeringa
regjeringen
regjeringens
regjeringer
regjerings
reglement
reglene
regler
regn
regne
regner
regnes
regnet
regning
regningen
regninger
regnskap
regnskapet
regnskaps
regnskog
regnvær
regul
reguler
regulere
regulerer
reguleres
regulering
reguleringer
regulerings
reguleringsplan
reguleringsplanen
regulert
rehabil
rehabiliter
rehabilitering
reich
reid
reidar
rein
reind
reindrift
reir
reis
reise
reisefølge
reiseliv
reisem
reisemal
reisen
reisende
reiser
reises
reist
reiste
rek
reker
rekk
rekke
rekkefølge
rekkefølgen
rekken
rekker
rekkevidde
rekkje
rekkverk
reklam
reklamasjon
reklame
rekna
rekonstru
rekord
rekorden
rekorder
rekre
rekreasjon
rekru
rekrutt
rekrutter
rekruttere
rekruttering
rekrutteringen
rekrutterings
rekruttert
rekt
rektor
rekvis
rel
relasjon
relasjonen
relasjonene
relasjoner
relatert
relaterte
relativ
relative
relativt
rele
relevans
relevant
relevante
relig
religi
religion
religionen
religioner
religiøs
religiøse
religiøst
rem
rema
ren
rena
rencont
rencontre
rend
rene
reness
renessanse
renessansen
reng
rengjør
rengjøre
rengjøring
renhold
renn
renne
renner
rennet
renovasjon
renover
rens
rense
renseanlegg
renset
rensing
rent
rente
renten
renter
rep
repar
reparasjon
reparasjoner
reparere
reparert
reperto
repet
repeter
repetisjon
repetisjoner
report
reportasje
reporter
repres
represent
representant
representanten
representantene
representanter
representantskapet
representasjon
representativt
representere
representerer
representert
representerte
reproduksjon
repub
republik
republikanske
republikk
republikken
requ
res
rese
research
resepsjon
resepsjonen
resept
reseptfritt
reser
reserv
reservasjon
reserve
reserved
reserver
reservere
reservert
reservo
resirk
resolusjon
reson
resort
resp
respe
respekt
respekter
respektere
respekterer
respektert
respektive
respon
respond
respondentene
respons
responsen
ressur
ressurs
ressursbruk
ressursen
ressursene
ressurser
rest
resta
restaur
restaurant
restauranten
restauranter
restaurer
restaurering
restaurert
resten
restene
rester
resterende
restitusjon
restri
restriksjoner
resul
result
resultat
resultatene
resultater
resultatet
resultere
resulterer
resultert
resulterte
ret
retning
retningen
retninger
retnings
retningslin
retningslinjene
retningslinjer
retor
retorikk
retro
rett
rette
retten
retter
rettes
rettet
rettferd
rettferdig
rettferdighet
rettighet
rettighetene
rettigheter
rettighetsha
retting
retts
rettshjelp
rettslig
rettslige
rettss
rettssak
rettssaken
rettsv
retur
return
returnere
returnerer
returnert
returnerte
reuters
rev
rever
revers
revet
revid
revidert
reviderte
review
revis
revisjon
revisjonen
revisor
revol
revolusjon
revolusjonen
revolusjonerende
revolusjonære
revy
rex
rey
rf
rh
rhf
ri
rib
ribbe
ric
rica
rich
richard
rick
rid
ridder
ride
rif
rig
riga
rigg
right
rights
riis
riise
rik
rikdom
rike
rikelig
rikere
rikeste
riket
riks
riksantik
riksantikvaren
rikshospitalet
riksrevisjon
riksrevisjonen
riksrevisjonens
riksveg
riksvei
rikt
riktig
riktige
riktignok
rim
rimelig
rimelige
rimeligere
ring
ringe
ringen
ringer
ringerike
rings
ringsaker
ringt
ringte
rio
ris
risik
risikere
risikerer
risiko
risikoen
risikof
risikofaktorer
risikov
risikovurdering
risk
rist
ristet
risør
rita
ritt
rittet
ritu
ritualer
riv
rival
rive
river
rives
riving
rju
rjukan
ro
road
roald
roar
rob
robert
robin
robinson
robot
roboter
robust
robuste
rock
rocke
rod
roe
roen
roer
roet
rog
rogaland
roger
rogn
roi
rok
rol
rolf
rolig
rolige
roligere
roll
rolle
rollem
rollen
rollene
roller
rollespill
rolling
rom
roma
roman
romanen
romaner
romania
romant
romantikk
romantisk
romantiske
rome
romer
romerike
romerne
romerriket
romersk
romerske
rommene
rommer
rommet
romsdal
romslig
ron
ronald
ronaldo
ronny
room
rop
rope
roper
ropte
ror
ros
rosa
rose
rosen
rosenborg
roser
ross
rost
rot
rotasjon
rote
roten
rotet
rotete
rotter
roulette
rov
rovdyr
rover
rovvilt
row
roy
royal
rs
rt
ru
rub
rud
rudolf
rug
rugby
ruinene
ruiner
rukket
rul
rull
rulle
ruller
rullestol
rullet
rum
rumen
rumpa
rumpe
run
runar
rund
runde
runden
rundene
runder
rundet
rundskriv
rundt
rune
rus
rush
rusmiddel
rusmidler
russ
russe
russerne
russian
russisk
russiske
russland
russlands
rust
rustet
rustfritt
rut
ruta
rute
ruten
rutene
ruter
ruth
rutine
rutinem
rutinemessig
rutinene
rutiner
ruud
rv
rw
ry
ryan
ryd
rydde
ryddet
ryddig
rydding
rygg
rygge
ryggen
rykk
rykke
rykker
rykket
rykte
ryktene
rykter
ryn
ryt
rytme
rytter
ryttere
ræ
rø
røa
rød
røde
rødgrø
rødgrønne
rødt
rødvin
røk
røm
rømme
rømt
rømte
rønn
rønning
rønt
røntgen
rør
røre
rørende
rører
røret
rørlegger
røros
rørt
røst
røttene
røtter
røy
røyk
røyke
røyken
røyker
røyking
sa
saa
saaa
sab
sabot
sac
sachsen
sad
sadan
sadd
safari
safe
safet
safety
saft
saftig
sag
saga
sagene
sagn
sagt
sahara
saint
sak
saka
sakalla
sakalt
sakalte
sakarkiv
saken
sakene
sakens
saker
sakk
sakkynd
sakkyndig
sakkyndige
saklig
sakprosa
saks
saksbehandler
saksbehandling
saksbehandlingen
saksfram
saksliste
saksnr
sakte
sal
salat
sale
saledes
salen
salg
salget
salgs
salme
salom
salong
salt
salten
saltvann
salv
sam
saman
samanheng
samarbeid
samarbeide
samarbeider
samarbeidet
samarbeids
samarbeidsavtale
samarbeidspart
samarbeidspartner
samarbeidspartnere
samarbeidsprosjekt
samband
sambo
samboer
samboere
samboeren
same
sameier
sameiet
samene
samer
samet
sametinget
samferd
samferdsel
samferdsels
samferdselsdepartementet
samfunn
samfunnet
samfunnets
samfunns
samfunnsansvar
samfunnsfag
samfunnskunnskap
samfunnsmessige
samfunnsutvikling
samfunnsvitenskap
samfunnsøkonom
samfunnsøkonomisk
samhandle
samhandling
samhold
samisk
samiske
samla
samle
samlede
samleie
samler
samles
samlet
samling
samlingen
samlingene
samlinger
samliv
samlivsbrudd
samlok
samme
sammen
sammendrag
sammenf
sammenheng
sammenhengen
sammenhengende
sammenhenger
sammenlagt
sammenlig
sammenlign
sammenlignbare
sammenligne
sammenligner
sammenlignes
sammenlignet
sammenligning
sammenlik
sammenlikne
sammenliknet
sammens
sammensatt
sammensatte
sammensetning
sammensetningen
sammensl
sammensla
sammenslaing
sammenslaingen
sammenstøt
samord
samordnet
samordning
samrad
sams
samspill
samspillet
samstund
samstundes
samsung
samsvar
samsvarer
samt
samtale
samtalen
samtalene
samtaler
samtid
samtidig
samtidige
samtlige
samtykke
samtykker
samuel
samvitt
samvittighet
samvær
san
sand
sandberg
sande
sandefjord
sanden
sander
sandnes
sandness
sandra
sandvik
sandvika
sang
sangen
sangene
sanger
sangeren
sanitet
sank
sanksjon
sanksjoner
sankt
sann
sanne
sannelig
sannhet
sannheten
sannheter
sannsyn
sannsynlig
sannsynlighet
sannsynligheten
sannsynligvis
sanntid
sans
sanse
sant
santa
santi
sao
sap
sapass
sape
sar
sara
sarah
sarbar
sarbare
sarbarhet
sard
sare
saret
sark
sarp
sarpsborg
sart
sas
sat
satan
satel
satellitt
sats
satse
satser
satset
satsing
satsingen
satsings
satsning
satt
satte
satur
sau
saud
saudi
saue
sauer
saus
sausen
sav
savel
savidt
savn
savne
savner
savnet
sax
say
sb
sc
scan
scand
scandic
scandinav
scanpix
scanpixvis
scar
scarab
scarabae
scen
scenar
scenario
scene
scenekunst
scenen
scener
sch
sche
schib
schibsted
school
science
scient
sco
scor
score
scorer
scoret
scoring
scoringer
scot
scott
screen
screening
sd
se
sea
search
seattle
seb
sebast
sebastian
sec
second
secret
securit
security
sed
sediment
see
seere
seerne
sees
seg
seher
sei
seie
seier
seieren
seig
seiko
seil
seile
seiler
seiling
seilte
sein
seinare
seinere
seint
seir
seire
seism
sek
sekk
sekken
sekret
sekretariat
sekretariatet
sekretær
seks
seksjon
seksjonen
seksjoner
seksten
seksual
seksualitet
seksuell
seksuelle
seksuelt
sektor
sektoren
sektorer
sekund
sekunder
sekundær
sekvens
sel
selbu
selde
sele
self
selge
selger
selgere
selgeren
selges
selje
selskap
selskapene
selskaper
selskapet
selskapets
selv
selvang
selvbi
selvbilde
selve
selveste
selvfor
selvfølelse
selvfølge
selvfølgelig
selvhjelp
selvmord
selvom
selvsagt
selvstend
selvstendig
selvstendige
selvstendighet
selvtil
selvtillit
sem
sement
semester
semi
semif
semifin
semifinale
semifinalen
semin
seminar
seminarer
seminaret
sen
senatet
senator
send
sende
sender
sendes
sending
sendingen
sendinger
sendt
sendte
sene
senere
senest
seneste
seng
senga
senge
sengen
senger
sengetøy
seni
senior
seniorer
seniorradgiver
senja
senke
senker
senket
sens
sensasjon
sensitiv
sensitive
sensor
sensorer
sensur
sent
senter
senteret
senterpartiet
sentr
sentral
sentralban
sentralbanken
sentralbyra
sentrale
sentralstyret
sentralt
sentre
sentrum
seo
seog
seoghør
seoul
sep
separ
separasjon
separat
separate
sept
septem
september
ser
serbia
seremon
seremoni
serge
seri
serie
seriem
serien
seriene
serier
serierunde
series
seriøs
seriøse
seriøst
sertif
sertifik
sertifikat
sertifisering
sertifisert
serv
server
servere
serveren
serverer
serveres
servering
serverings
servert
servic
service
servicen
services
servit
ses
sesjon
sesong
sesongen
sesongene
sesongens
sesonger
sess
set
sete
seter
setesdal
setet
setning
setningen
setninger
sett
sette
setter
settes
settet
setting
sev
sever
severd
severdighetene
severdigheter
sex
sexchat
sexdate
sexdating
sexle
sexleketøy
sexstillinger
sextreff
sexy
sf
sfo
sh
sha
shad
shah
shakes
shakespe
shakespeare
shang
shanghai
shar
share
she
shell
shem
shemale
sher
shet
shipping
sho
shop
shopp
shopping
short
shorts
show
showet
si
sibir
sicil
sicilia
sid
sida
sidan
side
side2
sideelv
siden
sidene
sider
sidesp
sidest
siem
siemens
sier
sierra
sies
sig
sigar
sigaretter
sigende
siger
sight
sightseeing
sigmund
sign
signal
signalene
signaler
signatur
signe
signere
signert
signerte
signif
signifikant
sigrid
sigur
sigurd
sik
sikker
sikkerhet
sikkerheten
sikkerhets
sikkerhetskop
sikkerhetstiltak
sikkert
sikre
sikrer
sikrere
sikres
sikret
sikring
sikrings
sikt
sikte
siktede
sikter
siktet
sil
sild
sildenafil
silikon
silje
silke
silver
sim
simen
simon
simonsen
simp
simpelt
simpelthen
simple
sims
sin
sindre
sine
sing
singap
singapore
singel
singelen
single
singler
singles
sink
sinn
sinne
sinnet
sinnsykt
sint
sinte
sintef
sir
siri
sirk
sirkel
sirkulasjon
sirkus
sis
sissel
sist
siste
sister
sistnevnte
sit
sitat
sitater
site
sites
sitron
sitt
sitte
sittende
sitteplasser
sitter
sittet
situ
situasjon
situasjonen
situasjonene
situasjoner
siv
sivert
sivertsen
sivil
sivile
sivilingeniør
sivilis
sivilisasjon
six
size
sizeg
sizegenet
sizegenetics
sj
sja
sjafør
sjaføren
sjafører
sjakk
sjal
sjalu
sjalusi
sjang
sjanger
sjangeren
sjangre
sjans
sjanse
sjansen
sjansene
sjanser
sjarm
sjarmer
sjarmerende
sje
sjef
sjefen
sjekk
sjekke
sjekker
sjekkes
sjekket
sjekketriks
sjekking
sjekkliste
sjel
sjeld
sjelden
sjeldent
sjeldne
sjeldnere
sjele
sjelen
sjeler
sjelevenn
sjen
sjener
sjenert
sjette
sjetteplass
sjo
sjokk
sjokker
sjokkert
sjokol
sjokolade
sju
sjuende
sjuk
sjø
sjøen
sjøfart
sjøfolk
sjøfugl
sjøl
sjølv
sjølve
sjølvsagt
sjømann
sjømat
sjør
sjøs
sjøørret
sk
ska
skad
skadd
skadde
skade
skadedyr
skadelig
skadelige
skaden
skadene
skader
skadet
skaff
skaffe
skaffer
skaffet
skagen
skager
skal
skala
skalaen
skall
skallet
skam
skamløs
skan
skand
skandale
skandinav
skandinavia
skandinavisk
skandinaviske
skane
skansom
skap
skape
skapende
skaper
skapes
skapet
skapt
skapte
skar
skarab
skarabider
skaret
skarp
skarpe
skarpt
skate
skatt
skatte
skatteetaten
skattek
skattel
skattem
skatten
skatter
skav
skavlan
ske
sked
skedsmo
skei
skeiv
skeive
skepsis
skept
skeptisk
skeptiske
ski
skib
skien
skiene
skif
skifer
skift
skifte
skiftende
skifter
skiftes
skiftet
skik
skikk
skikkelig
skikkelige
skikkelse
skikker
skil
skild
skildra
skildrer
skildring
skill
skille
skiller
skilles
skillet
skilsm
skilsmisse
skilt
skilte
skiltet
skilting
skiløy
skim
skin
skinn
skinne
skinnende
skinner
skip
skipa
skipene
skipet
skipper
skips
skis
skisk
skiskyting
skiskytter
skiss
skisse
skisser
skist
skit
skitne
skitt
skitten
skittent
skive
skiver
skj
skje
skjeb
skjebne
skjebnen
skjed
skjedd
skjedde
skjede
skjeden
skjegg
skjel
skjelett
skjell
skjem
skjema
skjemaer
skjemaet
skjen
skjenke
skjenkebevil
skjenket
skjer
skjerf
skjerm
skjermen
skjermer
skjermet
skjerpe
skjerpet
skjerv
skjev
skjevheter
skjold
skjorte
skjorter
skjul
skjule
skjuler
skjult
skjulte
skjær
skjære
skjærer
skjæring
skjø
skjønn
skjønne
skjønner
skjønnhet
skjønnheten
skjønnlitter
skjønnlitteratur
skjønt
skjønte
skjør
skjørt
skjøt
skjøte
skjøtsel
sko
skod
skoen
skoene
skog
skogbruk
skoge
skogen
skoger
skogs
skol
skole
skolear
skolearet
skoleeier
skolegang
skolem
skolen
skolene
skolens
skoler
skoles
skolestart
skolet
skolev
skom
skor
skot
skotsk
skotske
skott
skottland
skr
skra
skran
skrap
skrav
skre
skred
skredder
skreddersy
skreddersydd
skreiv
skrekk
skrem
skremme
skremmende
skremt
skrev
skrevet
skri
skrib
skribent
skrift
skriften
skrifter
skriftlig
skriftlige
skriker
skritt
skrittet
skriv
skrive
skrivebord
skrivebordet
skriven
skrivende
skriver
skrives
skriving
skro
skroget
skru
skrudd
skruer
skry
skryt
skryte
sku
skudd
skuddet
skuesp
skuespill
skuespiller
skuespillere
skuespilleren
skuespillerne
skuff
skuffelse
skuffende
skuffer
skuffet
skul
skulder
skulderen
skuldre
skuldrene
skule
skulen
skulle
skullerud
skulpt
skulptur
skulpturer
skum
skumle
skummelt
skur
skutt
skv
sky
skyene
skyer
skygg
skygge
skyggen
skyl
skyld
skylden
skylder
skyldes
skyldig
skyldtes
skype
skys
skysc
skyscanner
skyss
skyt
skyte
skyter
skyting
skytter
skyve
skøy
skøyen
skøyt
skøyte
skøyteløp
skøyter
sl
sla
slad
slag
slaget
slags
slakt
slakte
slakter
slalam
slam
slang
slange
slanger
slank
slanke
slapp
slappe
slappet
slar
slas
slass
slatt
slav
slave
slaver
sle
slekt
slekta
slekten
slekter
slektning
slektninger
slektskap
slem
slenge
slenger
slet
slett
slette
sletter
slettes
slettet
sletting
sli
slik
slike
slikke
slikt
slim
slimh
slip
slipp
slippe
slipper
slippes
slit
slitasje
slite
sliten
sliter
slitne
slitsomt
slitt
slo
slot
slots
slott
slottet
slovakia
sloven
slovenia
slu
sluk
slum
sluppet
slur
slutt
slutta
sluttbruker
slutte
slutten
slutter
sluttet
sluttrapport
sluttspill
sluttspillet
slyn
sløy
sløyfe
sm
sma
smab
smabarn
smabru
smag
smak
smake
smaken
smaker
smaks
smakt
smakte
smal
smale
smalere
small
smalt
smap
smar
smart
smarte
smartere
smartt
smarttelefon
smarttelefoner
smas
smating
smatt
sme
smed
smell
smelt
smelte
smelter
smeltet
smer
smert
smerte
smerten
smertene
smerter
smertestillende
smidig
smil
smile
smiler
smilte
sminke
smith
smitt
smitte
smittet
smooth
sms
smug
smule
smy
smykke
smykker
smør
smøre
sn
sna
snacks
snakk
snakka
snakke
snakker
snakkes
snakket
snap
snapchat
snar
snarere
snarest
snart
sne
snekker
snev
snik
snike
snill
snille
snitt
snittet
sno
snor
snork
snorre
snow
snowboard
snu
snub
snudd
snudde
snur
snus
snø
snøen
snøm
snør
snøs
snøsco
snøscooter
so
soc
social
societ
society
soder
sof
sofa
sofaen
sofia
sofie
sofistik
soft
software
sog
sogn
sogndal
sogne
sogneprest
sok
soker
sokkel
sokker
sokn
sokne
sol
sola
solar
solberg
solbr
solbriller
solcelle
sold
soldat
soldaten
soldatene
soldater
sole
solen
solgt
solgte
solheim
solid
solidaritet
solide
solli
sollys
solned
solo
solskinn
solutions
solveig
som
somal
somalia
some
sommar
sommaren
somme
sommer
sommeren
sommerens
sommerferie
sommerferien
sommerfugl
sommerfugler
son
sondre
sone
sonen
soner
song
songane
songar
songen
sonja
sony
sop
soph
sophie
sopp
sor
soren
sorg
sorgen
sorry
sort
sorte
sorter
sortere
sortering
sortert
sortiment
sortland
sos
sosi
sosial
sosialdemokrat
sosiale
sosialhjelp
sosialistisk
sosialistiske
sosialt
sosiologi
sot
sotsji
soul
sound
sour
sout
south
sov
sove
sover
soverom
soverommet
sovet
sovjet
sovjetisk
sovjetiske
sovjetun
sovjetunionen
sovnet
soy
sp
spa
space
spad
spalt
spalte
spam
span
spania
spanj
spansk
spanske
spar
spare
spareb
sparebank
sparebanken
sparer
sparing
spark
sparke
sparken
sparket
spart
sparta
spas
spasertur
spe
spec
special
sped
spedbarn
speed
speider
speil
speilet
spek
spekt
spektak
spektakulære
spekter
spektrum
spekul
spekulasjoner
spel
spela
spelar
spele
spelet
spelle
spellemann
spelt
spelte
spen
spenn
spennende
spenner
spenning
spenningen
spenninger
spennings
spenst
spent
spente
sper
sperre
sperret
spes
spesi
spesial
spesialenheten
spesialiserer
spesialisering
spesialisert
spesialiserte
spesialist
spesialister
spesialisthelset
spesialisthelsetjenesten
spesialitet
spesialpedagog
spesialt
spesialtil
spesialundervisning
spesiell
spesielle
spesielt
spesif
spesifikasjon
spesifikasjoner
spesifikk
spesifikke
spesifikt
spesifisert
spi
spiker
spil
spill
spille
spilleautom
spilleautomat
spilleautomater
spillem
spillene
spiller
spillere
spilleren
spillerne
spilles
spillet
spilletid
spillets
spilling
spilt
spilte
spin
spinn
spinner
spins
spion
spir
spiral
spirit
spis
spise
spiseforstyrrelser
spiser
spises
spisest
spisesteder
spiss
spisse
spissen
spist
spiste
spli
splitt
splitter
splittet
spon
spons
sponset
sponsor
sponsorer
spont
spontan
spor
spore
sporene
sporet
sporing
sport
sporten
sporter
sports
sportsb
sportslig
sportslige
sporty
spot
spotify
spr
spra
sprak
sprakene
spraket
sprakk
spraklig
spraklige
sprang
spray
spre
spred
spredd
spredning
spredt
spredte
sprekker
spreng
sprengt
sprer
spres
spring
springer
sprint
sprut
sprø
sprøy
sprøyte
spur
spurt
spurte
spy
spyd
spøk
spør
spørre
spørreskjema
spørreundersøkelse
spørs
spørsmal
spørsmalene
spørsmalet
spørsmalstegn
squ
square
sr
sri
ss
ssb
st
sta
stab
stabelen
staben
stabil
stabile
stabilitet
stabilt
stabæk
stad
staden
stader
stadier
stadiet
stadig
stadige
stadion
stadium
staende
staf
stafett
stafetten
staff
stakk
stakkars
stal
stale
stalin
stall
stallen
stam
stamme
stammen
stammer
stan
stand
standard
standardbest
standardbestselgerenavn
standarden
standardene
standarder
standardisering
standardisert
standardiserte
standpunkt
stang
stange
stanley
stans
stanse
stanser
stanset
star
stars
start
starta
starte
starten
starter
startes
startet
startsiden
stas
stasjon
stasjonen
stasjonene
stasjoner
stasjonert
stasjons
stasjonære
stast
stasted
stat
state
staten
statene
statens
stater
states
station
statist
statistikk
statistikken
statistisk
statistiske
stativ
statkraft
statlig
statlige
statnett
statoil
stats
statsb
statsborg
statsborger
statsborgere
statsborgerskap
statsbudsjett
statsbudsjettet
statsbygg
statsminister
statsministeren
statsrad
statsraden
statssekretær
statsvitenskap
statt
statue
statuen
status
statusen
stav
stavanger
stavern
stay
ste
steam
stearin
sted
stede
stedene
steder
stedet
stedsnavn
steel
steen
stefan
steffen
steg
steget
stein
steinalder
steinar
steinen
steinene
steiner
steink
steinkjer
stek
steke
stekt
stell
stella
stelle
stem
stemme
stemmeber
stemmen
stemmene
stemmer
stemmerett
stemning
stemningen
stemnings
stemp
stempel
stemplet
stemt
stemte
sten
stener
steng
stenge
stenger
stengt
stengte
stens
step
steph
stephen
ster
stere
stereot
steril
sterk
sterke
sterkere
sterkest
sterkeste
sterkt
steroider
stev
steve
steven
stevne
stevner
stevnet
stewart
sti
stian
stien
stier
stift
stifte
stiftelse
stiftelsen
stiftet
stig
stige
stigende
stiger
stigmat
stigning
stik
stikk
stikke
stikker
stikkord
stil
stilen
stiler
stilig
still
stille
stillehav
stillehavet
stiller
stilles
stillhet
stilling
stillingen
stillingene
stillinger
stillings
stilt
stilte
stim
stimulere
stimulerende
stimulerer
stimulering
stine
sting
stipend
stipendiat
stir
stiv
stive
stj
stjal
stjalet
stjel
stjele
stjeler
stjer
stjerne
stjernen
stjernene
stjerner
stjerners
stjør
stjørdal
stk
sto
stock
stockholm
stockholms
stod
stoff
stoffene
stoffer
stoffet
stok
stokk
stokke
stol
stole
stolen
stoler
stolpe
stolt
stolte
stoltenberg
stolthet
stone
stones
stop
stopp
stoppe
stopper
stoppet
stor
storb
storbrit
storbritann
storbritannia
storbritannias
storby
storbyen
stord
store
storeb
storebror
stores
storesøster
storfe
storhamar
storhet
storm
stormen
storsl
storslalam
stort
storting
stortinget
stortingets
stortings
stortingsm
stortingsmelding
stortingsrepresent
stortingsrepresentant
stortingsvalget
story
str
stra
straff
straffbare
straffbart
straffe
straffeloven
straffen
straffer
straffes
straffet
strake
straks
stral
strale
stralende
straler
straling
stram
stramme
strand
stranda
stranden
strapon
strat
strateg
strategi
strategien
strategier
strategisk
strategiske
straum
stre
stream
streaming
street
streik
strek
strekk
strekke
strekker
strekkjer
strekning
strekningen
strekninger
stren
strendene
strender
streng
strenge
strengere
strengt
stress
stresse
stressende
stresset
strev
strever
stri
strid
striden
strider
stridsv
strikk
strikke
strikker
strikket
stripe
striper
stripper
stro
strong
stru
struktur
strukturelle
strukturen
strukturer
strukturert
stry
stryke
strø
strøk
strøket
strøm
strømme
strømmen
strømmer
strømmet
strømp
strømper
strømsgodset
stu
stua
stud
student
studenten
studentene
studentenes
studenter
studer
studere
studerer
studert
studerte
studi
studie
studiekompetanse
studiel
studien
studiene
studiepoeng
studieprogram
studier
studies
studiest
studiet
studio
studioalbum
studioalbumet
studioet
studios
studium
stue
stuen
stukket
stum
stund
stundom
stup
stupe
stur
sty
stygg
stygge
stygt
stykk
stykke
stykker
stykket
style
styr
styre
styreleder
styrem
styremedlem
styremedlemmer
styremøte
styremøter
styrende
styrer
styres
styresak
styrescore
styret
styrets
styring
styringen
styrings
styrke
styrken
styrkene
styrker
styrkes
styrket
styrketrening
styrking
styrt
styrte
styrtet
stø
stødig
støl
stønad
stønn
støp
støpe
støpt
stør
støre
størr
større
størrelse
størrelsen
størrelser
størrelses
størst
største
størstedelen
støt
støtt
støtte
støtten
støttende
støtter
støttes
støttespiller
støttespillere
støttet
støv
støvler
støvs
støy
su
sub
subje
subsid
subst
substant
subt
sud
sudan
suff
sug
sugar
suge
suger
sukk
sukker
suks
suksess
suksessen
sul
sult
sultan
sulten
sultne
sum
summen
summer
sun
sund
sundby
sunde
sundet
sunget
sunket
sunn
sunndal
sunne
sunnere
sunnmøre
sunt
super
superh
superhost
supert
supp
suppe
supplement
suppler
support
supporter
supportere
supre
sur
sure
surf
surfe
surt
survey
sus
susanne
sushi
suspen
sut
suv
suver
suveren
suverene
suverent
suz
sv
sva
svak
svake
svakere
svakeste
svakhet
svakheter
svakt
sval
svalbard
svan
svanger
svangerskap
svangerskapet
svar
svare
svarene
svarer
svaret
svart
svarte
sve
svein
sveise
sveits
sveitsisk
sveitsiske
svekke
svekkes
svekket
svel
svelge
sven
svend
svendsen
svensk
svenska
svenske
svenskene
sver
sverd
sverdrup
sverige
sveriges
sverre
svette
svi
sviger
svik
svikt
sviktende
svikter
sviktet
svim
svimmel
svimmelhet
svin
svind
svindel
sving
svinge
svinger
svir
svol
svolvær
svov
svul
svært
svøm
svømme
svømmebasseng
svømmer
svømming
sw
swe
swed
sweden
sweet
swing
swinger
swingers
sy
syd
sydd
syden
sydney
syk
sykdom
sykdommen
sykdommer
syke
sykefravær
sykefraværet
sykehjem
sykehjemmet
sykehus
sykehusene
sykehuset
sykepenger
sykeple
sykepleie
sykepleier
sykepleiere
sykk
sykkel
sykkelen
sykkelt
sykl
sykle
sykler
syklet
sykling
syklist
syklister
syklus
sykt
syl
sylin
syltet
syltetøy
sylvi
symb
symbol
symboler
symbolet
symboliserer
symbolsk
symf
symfon
symmet
symp
sympati
symptom
symptomene
symptomer
syn
synd
synde
synder
syndrom
syne
syner
synes
synet
synge
synger
synke
synker
synkron
synlig
synlige
synliggjøre
synlighet
synn
synnøve
synonym
synonymer
syns
synspunkt
synspunkter
syntes
syntet
synth
syr
syre
syria
syriske
syssels
sysselsatte
sysselsetting
system
systemat
systematisk
systematiske
systemene
systemer
systemet
systems
sytt
syv
syvende
sz
sæ
sæd
sær
særdeles
sære
særegen
særegne
særleg
særlig
særlige
særpreg
særs
særskilt
særskilte
sært
sæter
sæther
sætre
sø
søgne
søk
søke
søkelys
søkelyset
søkemot
søkemotor
søkemotoren
søkemotorer
søkemotoroptimalisering
søken
søkeord
søker
søkere
søkeren
søkeresult
søkerne
søkes
søket
søknad
søknaden
søknadene
søknader
søknadsfrist
søknadsskjema
søks
søksmal
søkt
søkte
søl
sølv
sølvmedalje
søm
søn
sønd
søndag
søndagen
søndagens
søndager
søndre
sønn
sønnen
sønnene
sønner
søppel
sør
søra
søraf
sørafrik
søraust
søre
søren
sørensen
sørg
sørge
sørger
sørget
sørk
sørkore
sørland
sørlandet
sørlege
sørlige
sørover
sørsiden
sørum
sørvest
sørøst
søsken
søster
søsteren
søstre
søstrene
søt
søte
søtt
søvn
søy
ta
tab
tabell
tabellen
tabeller
tabl
tabletter
tabu
taco
tadal
tadalafil
tag
tai
taiwan
tak
take
taket
takk
takke
takker
takket
takknem
takknemlig
takknemlighet
takle
takler
taks
taksonom
takst
takt
taktikk
taktisk
tal
tale
talen
talent
talenter
taler
talet
talib
taliban
talk
tall
tallene
taller
tallerken
tallet
tallets
tallrike
talls
talmod
talmodig
talmodighet
talsmann
talt
talte
tam
tamil
tamp
tampen
tan
tana
tang
tangen
tank
tanke
tanken
tankene
tanker
tankes
tann
tannlege
tannlegen
tant
tante
tantra
tantrisk
tanz
tanzania
tap
tape
taper
tapet
tapt
tapte
tar
tare
tarene
tarer
tariff
tariffavtale
tarm
tarmen
tarn
tarnet
tas
tast
tastatur
tastaturet
taste
tasten
tastet
tat
tatover
tatt
tau
taus
taushet
taushetsplikt
tav
tax
taxi
taylor
td
te
team
teamet
teat
teater
teateret
teatret
tech
techn
technology
ted
teen
teg
tegl
tegn
tegne
tegnene
tegner
tegnes
tegneser
tegneserie
tegneserier
tegnet
tegning
tegningene
tegninger
teik
tek
teke
tekn
teknikk
teknikken
teknikkene
teknikker
teknisk
tekniske
teknolog
teknologi
teknologien
teknologier
teknologisk
teknologiske
tekst
teksten
tekstene
tekster
tekstil
tekstiler
tel
tele
telef
telefon
telefonen
telefoner
telefoni
telefonnummer
telefonsam
teleg
telegraf
telekom
telem
telemark
telen
telenor
telesex
teleskop
tell
telle
teller
telling
telt
teltet
tem
tema
temaene
temaer
temaet
temmelig
temp
tempel
tempelet
temper
temperatur
temperaturen
temperaturer
template
tempo
tempoet
ten
tenar
tenarene
tenaring
tenaringer
tenarings
tend
tendens
tendensen
tendenser
tene
tenk
tenke
tenkelige
tenker
tenkes
tenkning
tenkt
tenkte
tenn
tenne
tennene
tenner
tennes
tennis
tent
tente
teologi
teologiske
teor
teoret
teoretisk
teoretiske
teori
teorien
teorier
teppe
tepper
teppet
ter
terapeut
terapi
terje
term
termin
terminal
terning
terningkast
terr
terra
terrasse
terrassen
terreng
terrenget
territ
territorium
terror
terrorangrep
terrorisme
terrorister
tersk
terskel
terskelen
tert
tertial
tes
tesla
test
testam
testament
testamente
testamentet
teste
testen
testene
tester
testes
testet
testing
testoster
testosteron
tet
tett
tette
tettere
tetthet
tettstad
tettstaden
tettsted
tettsteder
tettstedet
tev
tex
texas
text
th
tha
thai
thail
thailand
thailandske
thaim
thaimassasje
than
that
the
thea
theatre
their
them
theodor
ther
there
theres
therese
these
they
thing
things
think
this
thom
thomas
thompson
thon
thor
thorbjørn
thoresen
thorvald
thr
three
thriller
through
thur
ti
tiar
tiarene
tiaret
tibet
tic
ticket
tid
tida
tide
tiden
tidende
tidene
tidenes
tidens
tider
tidkrevende
tidleg
tidlegare
tidlig
tidlige
tidligere
tidligst
tidligste
tids
tidsbegrens
tidsbruk
tidspunkt
tidspunktet
tidsrom
tidsrommet
tidssk
tidsskrift
tidsskrifter
tidsskriftet
tidvis
tiende
tig
tiger
tights
til
tilb
tilbak
tilbake
tilbakebet
tilbakebetaling
tilbakeblikk
tilbakefall
tilbakehold
tilbakemelding
tilbakemeldingene
tilbakemeldinger
tilbaket
tilbehør
tilber
tilbrag
tilbrakt
tilbrakte
tilbringe
tilbringer
tilbud
tilbudene
tilbudet
tilbudt
tilby
tilbyder
tilbydere
tilbygg
tilbyr
tilbys
tilbød
tilbøy
tildel
tildele
tildeles
tildeling
tildelingen
tildels
tildelt
tildelte
tilegne
tilegnet
tilf
tilfeld
tilfeldig
tilfeldige
tilfeldighet
tilfeldigvis
tilfelle
tilfellene
tilfeller
tilfellet
tilflukt
tilfred
tilfreds
tilfredshet
tilfredsstil
tilfredsstille
tilfredsstillende
tilfredsstiller
tilføre
tilfører
tilførsel
tilført
tilgang
tilgangen
tilgi
tilgivelse
tilgjeng
tilgjengelig
tilgjengelige
tilgjengelighet
tilgjengeligheten
tilh
tilhenger
tilhengere
tilhold
tilhør
tilhøre
tilhørende
tilhører
tilhørighet
tilhørte
tilkn
tilknyt
tilknytning
tilknyttede
tilknyttet
tilkob
tilkobling
till
tillagt
tillat
tillate
tillatelse
tillatelsen
tillatelser
tillater
tillates
tillatt
tillegg
tillegges
tillegget
tilleggs
tillit
tilliten
tillits
tillitsvalg
tillitsvalgt
tillitsvalgte
tillot
tilnavnet
tilnær
tilnærmet
tilnærming
tilnærmingen
tilnærminger
tilp
tilpas
tilpasning
tilpasninger
tilpass
tilpasse
tilpassede
tilpasser
tilpasses
tilpasset
tilrad
tilreisende
tilrett
tilrettelagt
tilretteleg
tilrettelegge
tilrettelegger
tilrettelegging
tils
tilsagn
tilsammen
tilsatt
tilsendt
tilsett
tilsette
tilsettes
tilsetting
tilsi
tilsier
tilsk
tilsku
tilskudd
tilskuddet
tilskuere
tilsl
tilslutning
tilslutt
tilsluttet
tilst
tilstand
tilstanden
tilstander
tilstede
tilstedeværelse
tilstre
tilstrekkelig
tilstrekkelige
tilsvar
tilsvarende
tilsvarer
tilsyn
tilsynelat
tilsynelatende
tilsynet
tilsyns
tilt
tiltak
tiltakene
tiltaket
tiltaks
tiltakshaver
tiltale
tiltalt
tiltalte
tiltre
tiltrekke
tiltrekker
tiltrukket
tilværelse
tilværelsen
tim
time
timen
timene
timer
timers
times
tin
tina
tinder
tine
ting
tingen
tingene
tinglys
tingrett
tingretten
tinn
tip
tipp
tippelig
tippeligaen
tipper
tipping
tips
tipsene
tipset
tir
tirsdag
tis
tispe
tiss
tisse
tit
titalls
titan
title
titler
tits
titt
titte
tittel
tittelen
titter
tittet
tiv
tj
tja
tjen
tjene
tjener
tjenest
tjeneste
tjenestegj
tjenestegjorde
tjenestem
tjenestemenn
tjenesten
tjenestene
tjenestepensjon
tjenester
tjenestet
tjenestetilbud
tjenesteyting
tjent
tjente
tju
tjue
tjø
tl
tlf
tm
to
toal
toalett
toaletter
toalettet
tob
tobakk
tobias
tod
today
todelt
tog
toget
tok
tokyo
tol
toler
toleranse
tolk
tolke
tolker
tolkes
tolket
tolkning
tolkninger
toll
tolv
tom
tomas
tomat
tomater
tomme
tommel
tommer
tommy
tomt
tomta
tomte
tomten
tomter
ton
tone
tonen
toner
tonje
tonn
tony
too
tool
top
topp
toppen
toppene
topper
toppet
toppidrett
toppløs
topps
toppscorer
tor
torbjørn
tord
torden
tore
torg
torgeir
torger
torgersen
torget
torino
torn
toronto
torp
torped
torsdag
torsk
torstein
tort
tortur
torv
tos
tot
total
totale
totalt
toten
totten
tottenham
touch
tour
tov
tove
tower
town
toy
toyota
tr
tra
track
trad
trade
traden
trader
tradisjon
tradisjonell
tradisjonelle
tradisjonelt
tradisjonen
tradisjoner
tradisjonsrike
tradløs
tradløse
tradløst
tradte
traf
traff
trafik
trafikk
trafikken
trafikker
trafikksikkerhet
trag
tragisk
tragiske
trail
trailer
trak
trakassering
trakk
trakt
traktaten
traktor
tramp
tran
trang
trange
trangt
tranny
trans
transa
transaksjon
transaksjonen
transaksjoner
transform
transformasjon
transl
transp
transpar
transpersoner
transport
transporten
transporter
transportere
transportplan
transportsentre
trapp
trappa
trappe
trappen
trappene
trapper
trappet
trase
traseen
trass
traum
traumer
trav
travel
travelt
travle
tre
trebu
trebukker
tred
tredje
tredjed
tredjedel
tredjepart
tredjeparter
tredjeparts
tredjeplass
treet
treff
treffe
treffer
treffes
treg
trek
trekant
trekk
trekke
trekker
trekkes
trekket
trekningen
trelast
trem
tren
trend
trenden
trender
trendy
trene
trener
trenere
treneren
treng
trenge
trenger
trengs
trengt
trengte
trening
treningen
treningene
treninger
trenings
treningssenter
treningsø
treningsøkt
trent
trente
trer
tres
trett
tretten
tretthet
tretti
treverk
tri
triana
triat
trib
tribun
tribunen
trig
trigger
triks
tril
trille
trilog
trim
trin
trine
trinn
trinnene
trinnet
trio
trip
tripad
tripadvisor
trist
triste
trium
triv
trivelig
trives
trivsel
tro
trodd
trodde
troen
troende
trofast
trofaste
trofe
trol
trolig
troll
trom
trommer
trommes
troms
tromsø
tron
trond
trondheim
trondhjem
tronen
trop
tropisk
tropiske
tropp
troppen
troppene
tropper
tror
tros
tross
trossamfunn
troverdig
troverdighet
tru
truck
trude
true
truende
truer
truet
truffet
trukket
truleg
truls
trump
trumps
trur
truse
truser
trusler
trussel
trusselen
trust
try
tryg
trygde
trygg
trygge
tryggere
trygghet
trygt
trygve
trykk
trykke
trykkende
trykker
trykket
trykt
trykte
tryl
trysil
træ
trær
trærne
trø
trøbbel
trønd
trøndelag
trønder
trøst
trøste
trøtt
ts
tsar
tsj
tsjekk
tsjekkia
tsjekkisk
tsjekkiske
tsjekkos
tsjekkoslovakia
tt
tu
tub
tube
tuber
tuberkul
tuberkulose
tul
tull
tum
tumblr
tun
tunet
tung
tunge
tungen
tungt
tunis
tunn
tunnel
tunnelen
tunneler
tur
turbin
turbo
turbul
turen
turene
turer
turisme
turist
turistattra
turistattraksjoner
turistene
turister
turk
turn
turne
turneen
turner
turnering
turneringen
turneringer
turnus
turt
turte
tus
tusen
tusener
tusenvis
tut
tv
tv2
tv3
tvang
tvangsekteskap
tve
tveit
tver
tverr
tverrfaglig
tverrfaglige
tvers
tvert
tvil
tviler
tvilling
tving
tvinge
tvinger
tvinges
tvist
tvister
tvnorge
tvunget
tw
twe
twh
twin
twitter
two
ty
tyde
tydelig
tydelige
tydeligere
tydeliggjøre
tydeligvis
tyder
tykk
tykke
tykkelse
tykkere
tykt
tyn
tyng
tyngde
tyngre
tynn
tynne
tynnere
tynset
tynt
typ
type
typen
typene
typer
typisk
typiske
tyr
tyrk
tyrkia
tyrkisk
tyrkiske
tysk
tyske
tysker
tyskere
tyskerne
tyskland
tysklands
tyve
tyver
tyveri
tø
tøff
tøffe
tøffere
tøffeste
tøft
tøm
tømme
tømmer
tømt
tønn
tønne
tønsberg
tør
tørk
tørke
tørker
tørket
tørr
tørre
tørt
tøy
tøyen
uaksept
uakt
uan
uansett
uav
uavgjort
uavhengig
uavhengige
uavhengighet
ub
ubat
ube
ubegrens
ubegrenset
ubeh
ubehag
ubehagelig
ubehagelige
uber
ubet
ubetinget
ubru
ud
udi
ue
uefa
uen
uend
uendelig
uendelige
uendret
uenig
uenige
uenighet
uer
uf
ufarlig
ufatt
ufattelig
uff
ufor
uforglem
uforglemmelig
uform
uformell
uformelle
uforplikt
uforpliktende
uforsta
uforuts
uforutsig
ufrivil
ufrivillig
ufull
ufør
uføre
uførepensjon
uføret
ug
uganda
ugyldig
uh
uheldig
uheldige
uhell
uhyre
uib
uio
uis
uit
uje
ujevn
uk
uka
uke
ukeblad
uken
ukene
ukens
ukentlig
ukentlige
uker
ukers
ukes
ukjent
ukjente
uklar
uklare
uklart
ukom
ukra
ukraina
ukrainsk
ukrainske
ul
ulem
ulempe
ulempen
ulempene
ulemper
ulf
ulik
ulike
ulikhet
ulikheter
ulikt
ull
ullens
ullensaker
uller
ullern
ullev
ulleval
ulov
ulovlig
ulovlige
ulstein
ult
ultim
ultimate
ultra
ultral
ultralyd
ulv
ulve
ulven
uly
ulykke
ulykken
ulykker
ulykkes
um
umb
umiddel
umiddelbar
umiddelbare
umiddelbart
umu
umulig
un
una
und
under
underfamilien
undergra
undergrunn
underhold
underholdende
underholdning
underjord
underkant
underlag
underlaget
underlagt
underleverandører
underlig
underliggende
underliv
underlivet
underord
undersiden
underskrift
underskudd
understre
understreke
understreker
understreket
undersø
undersøk
undersøke
undersøkelse
undersøkelsen
undersøkelsene
undersøkelser
undersøkelses
undersøker
undersøkes
undersøkt
undersøkte
undert
underteg
undertegnede
undertegnet
undertry
undertrykk
undertøy
undervann
underveis
undervis
undervise
underviser
undervisning
undervisningen
undervisnings
undervisningsopplegg
undervist
underviste
undervurder
undring
une
unesco
unescos
ung
ungar
ungarn
ungarsk
ungarske
ungdom
ungdommen
ungdommene
ungdommens
ungdommer
ungdoms
ungdomsbøker
ungdomssk
ungdomsskole
ungdomsskolen
ungdomstrinnet
unge
ungen
ungene
unger
unges
ungg
ungt
uni
unice
uniform
uniformer
unik
unike
unikt
union
unionen
united
univer
univers
universal
universell
universet
universitet
universitetene
universiteter
universitetet
universitetets
universitets
universitetssy
universitetssykehus
university
unn
unna
unnag
unnagjort
unnga
unngar
unngas
unngatt
unni
unnl
unnskyld
unnskyldning
unnskyldninger
unnsli
unntak
unntaket
unntaks
unntatt
unorm
unormalt
unød
unødig
unødvendig
unødvendige
uoffis
uopp
uover
uoversikt
up
upassende
upp
upps
uppsala
ups
ur
uran
urban
urbane
ureal
ured
uregel
uren
urett
urettferdig
uri
uriktige
urimelig
urin
url
uro
urolig
urter
uru
uruguay
urørt
us
usa
usann
usannsynlig
usas
usb
usd
use
used
usedvanlig
user
useri
usikker
usikkerhet
usikkerheten
usikkert
usikre
usk
uskyld
uskyldig
uskyldige
ustab
ustabil
usynlig
usynlige
ut
utad
utal
utallige
utan
utanfor
utarbeid
utarbeide
utarbeidelse
utarbeider
utarbeides
utarbeidet
utb
utbed
utbedring
utbet
utbetales
utbetaling
utbetalinger
utbetalt
utbre
utbred
utbredelse
utbredelsen
utbredt
utbrudd
utbruddet
utby
utbygd
utbygg
utbygger
utbygging
utbyggingen
utbytte
utd
utdan
utdann
utdanne
utdannede
utdannelse
utdannelsen
utdannet
utdanning
utdanningen
utdanninger
utdannings
utdanningsdirektoratet
utdanningsforbundet
utdanningsinstitusjoner
utdanningsniva
utdanningsprogram
utdatert
utdeling
utdelingen
utdelt
utdrag
utdyp
ute
uteb
uteksam
uteksaminert
utel
utelatt
uteliv
utelu
utelukke
utelukkende
uten
utendør
utendørs
utenfor
utenfra
utenkelig
utenland
utenlands
utenlandsk
utenlandske
utenom
utenpa
utenriks
utenriksdepartementet
utenriksminister
utenrikspolitikk
utest
utesteder
utesteng
utestengt
utfall
utfallet
utfl
utflod
utfol
utfolde
utfor
utfordr
utfordre
utfordrende
utfordrer
utfordret
utfordring
utfordringen
utfordringene
utfordringer
utform
utforme
utformes
utformet
utforming
utformingen
utforsk
utforske
utforsker
utforsket
utfra
utfyl
utfyllende
utfylling
utfør
utføre
utførelse
utførelsen
utfører
utføres
utført
utførte
utg
utga
utgaende
utgang
utgangen
utgangspunkt
utgangspunktet
utgav
utgave
utgaven
utgaver
utgi
utgift
utgiftene
utgifter
utgir
utgis
utgitt
utgiv
utgivelse
utgivelsen
utgivelser
utgiver
utgje
utgjer
utgjorde
utgjør
utgjøre
utgrav
uthold
utholdenhet
util
utilgjengelig
utilstrekkelig
utjev
utk
utkanten
utkast
utkikk
utkjemp
utkom
utl
utlan
utland
utlandet
utle
utlegg
utleie
utleier
utlend
utlending
utlendinger
utlendings
utlever
utlevering
utlevert
utlig
utlys
utlysning
utlø
utløp
utløper
utløpet
utløse
utløser
utløst
utløste
utm
utmark
utmatt
utmerk
utmerkede
utmerkelser
utmerker
utmerket
utn
utne
utnevnt
utnevnte
utnytt
utnytte
utnyttelse
utnytter
utnyttes
utnyttet
utover
utp
utpa
utpe
utpekt
utprø
utprøving
utr
utradisjon
utred
utrede
utredet
utredning
utredningen
utredninger
utrednings
utro
utrolig
utrolige
utroskap
utru
utry
utrygg
utrykk
uts
utsagn
utsalg
utsatt
utsatte
utse
utseende
utseendet
utsend
utsendt
utsett
utsette
utsetter
utsettes
utsiden
utsikt
utsikten
utskift
utskifting
utskrift
utsl
utslag
utslatt
utslett
utsli
utslipp
utslippene
utslitt
utsmy
utsolgt
utsp
utspill
utspiller
utspring
utsted
utsteder
utstedt
utstil
utstilling
utstillingen
utstillinger
utstilt
utstrakt
utstrekning
utstyr
utstyret
utstyrt
utt
uttak
uttal
uttale
uttalelse
uttalelsen
uttalelser
uttaler
uttalt
uttalte
uttelling
uttry
uttrykk
uttrykke
uttrykkelig
uttrykker
uttrykket
uttrykt
uttrykte
utv
utvalg
utvalget
utvalgets
utvalgt
utvalgte
utvand
utveks
utveksle
utveksling
utvel
utvendig
utvid
utvide
utvidede
utvidelse
utvidelsen
utvidelser
utvider
utvides
utvidet
utvik
utvikla
utvikle
utvikler
utviklere
utvikleren
utviklerne
utvikles
utviklet
utvikling
utviklinga
utviklingen
utviklings
utviklingsarbeid
utviklingshem
utviklingshemmede
utviklingshemming
utviklingsland
utvil
utvilsomt
utvinning
utvist
utø
utøv
utøve
utøvelse
utøvende
utøver
utøvere
utøveren
utøverne
utøves
utøya
uunn
uunnga
uut
uv
uvan
uvanlig
uvanlige
uvant
uvent
uventede
uventet
uvisst
uvitende
uvurder
uøn
uønskede
uønsket
va
vad
vadsø
vafler
vag
vaga
vage
vager
vaget
vagina
vak
vaken
vakker
vakkert
vakne
vakner
vaknet
vakre
vakreste
vaks
vaksinasjon
vaksine
vaksinen
vaksiner
vakt
vakte
vakter
vaku
val
vald
valde
valdres
vale
valen
valencia
valent
valentin
valer
valerenga
valg
valgene
valget
valgkamp
valgkampen
valgkomite
valgkomiteen
valgt
valgte
vall
valle
valley
valp
valpen
valpene
valper
valut
valuta
valutak
vamp
van
vancouver
vand
vandre
vandrer
vandret
vandring
vane
vaner
vang
vanil
vanilje
vanleg
vanlegvis
vanlig
vanlige
vanligere
vanligste
vanligvis
vann
vannd
vannet
vannføring
vannkraft
vannkraftverk
vannm
vannt
vansk
vanskeleg
vanskelig
vanskelige
vanskeligere
vanskelighet
vanskeligheter
vanskeligste
vansker
vant
vanvitt
vanvittig
vap
vapen
vapenet
vapnene
var
vara
varam
varamedlem
varamedlemmer
varanger
varaordfører
varare
vararepresent
vararepresentant
vardenafil
vardø
vare
vareb
varemerke
varemerker
varen
varene
varens
varer
vares
varete
varetekt
varetektsfeng
vari
varia
variabel
variable
variabler
variant
varianten
varianter
variasjon
variasjonen
variasjoner
varier
variere
varierende
varierer
variert
varierte
varig
varige
varighet
varm
varme
varmen
varmer
varmere
varmes
varmeste
varmet
varmt
vars
varsel
varsle
varsler
varsles
varslet
varsling
varsom
vart
varte
vas
vask
vaske
vasker
vaskes
vasket
vass
vassdrag
vassdraget
vat
vate
vatikan
vatn
vatnet
vatrom
vatt
ve
ved
veder
vederlag
vedkommende
vedlagt
vedlagte
vedlegg
vedlike
vedlikehold
vedlikeholde
vedlikeholdt
vedr
vedrørende
vedt
vedta
vedtak
vedtaket
vedtaks
vedtar
vedtas
vedtatt
vedtatte
vedtekt
vedtektene
vedtekter
vedtok
vedvarende
veg
vega
vegard
vegas
vegen
veger
veget
vegetar
vegetarian
vegetasjon
vegg
veggen
veggene
vegger
vegne
vegvesen
vegvesenet
vei
veib
veide
veidekke
veie
veien
veiene
veier
veik
veil
veiled
veilede
veiledende
veileder
veiledere
veilederen
veiledning
veiledningen
veis
veit
veiv
veivalg
vek
veke
veker
vekk
vekke
vekker
vekket
veks
veksel
veksle
veksler
vekst
veksten
vekt
vekten
vekter
vektlagt
vektlegger
vektlegges
vektor
vektt
vekttap
vel
veld
velded
veldig
velegnet
velferd
velfungerende
velg
velge
velger
velgere
velgerne
velges
velkjent
velkjente
velkom
velkommen
velkomne
velkomst
vell
velly
vellykkede
vellykket
vels
velsign
velsignelse
velsmak
velsmakende
velstaende
velstand
velt
velvære
vem
ven
vend
vende
vender
vendt
vendte
vene
venet
venez
venezia
venezuela
venn
venne
vennen
vennene
venner
vennes
vennesla
venninne
venninnen
venninner
vennlig
vennlige
vennligst
vennskap
vennskapet
venst
venstre
venstres
venstresiden
vent
vente
venter
ventes
ventet
ventetid
ventetiden
ventil
ventilasjon
ventilasjons
venus
ver
vera
verb
verd
verda
verdal
verden
verdenen
verdens
verdensarv
verdensbasis
verdenscup
verdenscupen
verdenskj
verdenskrig
verdensmester
verdensmesterskapet
verdensomsp
verdensomspennende
verdensrekord
verdensrommet
verdi
verdien
verdiene
verdier
verdif
verdifull
verdifulle
verdifullt
verdig
verdighet
verdik
verdikjeden
verdipapir
verdis
verdiskap
verdiskaping
verdiskapning
verds
verdsatt
verdskrigen
verdt
vere
verft
verftet
verge
verif
verk
verken
verkene
verker
verket
verks
verksem
verksted
verksteder
verkstedet
verktøy
verktøyene
verktøyet
vern
verne
verneombud
vernet
veron
veronica
verre
vers
versa
versjon
versjonen
versjonene
versjoner
verst
verste
vert
verte
verter
vertik
vertskap
verv
vervet
very
ves
vesen
vesener
vesentlig
vesentlige
veske
vesker
vesle
vest
vestbredden
vestby
vesten
vester
vesteralen
vestfold
vestkysten
vestland
vestlandet
vestlig
vestlige
vestover
vestre
vestsida
vestsiden
vet
veter
veteran
veteraner
veterin
veterinær
vett
vev
vg
vg1
vg2
vg3
vgs
vi
via
viagra
vib
vibe
vibeke
vibrasjon
vibrasjoner
vibrator
victor
victoria
vid
vidar
vidare
vide
viden
video
videoen
videoene
videoer
videok
videoklipp
videos
videre
videreformid
videreføre
videreføres
videreføring
videreført
videreg
videregaende
videres
videreutdanning
videreutvik
videreutvikle
videreutviklet
videreutvikling
vidt
vidunder
vie
viet
vietnam
view
vif
vifte
vig
vigdis
viggo
vii
viii
vik
vika
vikar
vike
viken
viker
viking
viktig
viktigaste
viktige
viktigere
viktigheten
viktigst
viktigste
viktor
vil
vilde
vilhelm
vilje
viljen
vilkar
vilkarene
vill
villa
village
ville
villig
villige
vilt
vin
vincent
vind
vinden
vindkraft
vindu
vinduene
vinduer
vinduet
vindus
vinen
viner
ving
vingen
vingene
vinger
vingesp
vinje
vink
vinkel
vinkler
vinmonopol
vinn
vinne
vinner
vinnere
vinneren
vinnerne
vint
vintage
vinter
vinteren
vinterstid
vinyl
vip
vippe
vipps
vips
vir
virgin
virginia
virk
virke
virkedager
virkelig
virkelige
virkelighet
virkeligheten
virkemiddel
virkemidlene
virkemidler
virker
virket
virkning
virkningen
virkningene
virkninger
virknings
virksom
virksomhet
virksomheten
virksomhetene
virksomhetens
virksomheter
virt
virtual
virtuelle
viru
virus
viruset
vis
visa
visdom
vise
visepresident
viser
vises
visit
visjon
visjonen
visjoner
visma
visning
visninger
viss
visse
visst
visste
visstnok
vist
viste
visual
visuell
visuelle
visuelt
visum
vit
vita
vitam
vitamin
vitaminer
vite
viten
vitenskap
vitenskapelig
vitenskapelige
vitenskapen
vitne
vitnemal
vitner
vitnes
vitnesbyrd
vitnet
vits
vitser
vitskap
vivan
vivanza
vlad
vladimir
vm
vo
vog
vogn
vogner
vognt
voice
vok
vokal
vokalist
voks
vokse
voksen
voksende
voksenopplæring
vokser
voksne
voksnes
vokst
vokste
vol
vold
volda
voldelig
voldelige
volden
volds
voldsom
voldsomme
voldsomt
voldtatt
voldtekt
volks
volkswagen
voll
volleyball
volum
volumet
volvo
von
vond
vonde
vondt
vor
vore
vorte
voss
votering
vp
vr
vrak
vraket
vrang
vre
vri
vrid
vs
vu
vul
vulk
vulkan
vunnet
vur
vurder
vurdere
vurderer
vurderes
vurdering
vurderingen
vurderingene
vurderinger
vurderings
vurdert
vurderte
vvs
væ
væp
væpnede
vær
være
værende
været
værnes
vært
væske
wa
wag
wal
wales
walk
walker
wall
walt
walter
wang
want
war
wars
warszawa
was
wash
washington
wat
watch
water
watt
way
wc
we
web
webcam
webkamera
websiden
website
wed
week
weekend
wel
well
wen
wenche
wer
were
wergeland
wes
west
wester
western
wet
wh
what
whe
when
where
which
whisk
whisky
whit
white
who
wi
wid
wide
wider
wien
wifi
wig
wii
wik
wiki
wikip
wikipedia
wil
wild
wilhelm
will
willi
william
williams
willy
wilson
win
wind
windows
winter
wir
wis
wit
with
wo
wol
wold
wolf
woman
women
wonder
wood
wor
word
wordpress
work
works
workshop
workshops
world
would
wow
wr
wri
wright
wu
wur
ww
www
wy
xbox
xi
xii
xl
xn
xnxx
xx
xxl
xxx
xxxxxx
ya
yahoo
yang
yards
yd
ydmy
ydmyk
ye
year
years
yes
ym
ymse
yn
ynd
yng
yngre
yngste
yngve
yo
yog
yoga
yoghurt
yor
york
yorks
you
young
your
yout
youtube
ypper
ypperlig
ypperste
yr
yrke
yrker
yrkes
yrkesaktive
yrkesfag
yrkesut
yrket
yt
yte
ytelse
ytelsen
ytelser
ytelses
yter
ytes
ytr
ytre
ytringer
ytrings
ytringsfrihet
ytringsfriheten
ytter
ytterligere
ytterst
ytterste
yu
za
zaland
zalando
zam
ze
zealand
zen
zero
zh
zimb
zimbab
zimbabwe
zo
zom
zoo
zoom
zoosk
zu
zuri
zurich
©ntb
°c
ær
ære
æren
æres
ærlig
ærlige
ærlighet
ød
øde
ødegaard
ødel
ødela
ødelagt
ødelagte
ødeleg
ødelegg
ødelegge
ødeleggelse
ødeleggende
ødelegger
øien
øivind
øk
øke
økende
øker
økes
økning
økningen
økok
økologisk
økologiske
økonom
økonomi
økonomien
økonomiplan
økonomisk
økonomiske
økonomist
økos
økosystem
øks
økt
økte
økten
økter
øl
ølet
øm
øn
ønsk
ønske
ønskede
ønskelig
ønsker
ønskes
ønsket
ør
øre
ørene
ører
øret
ørken
ørkenen
ørland
ørn
ørret
ørsta
øst
øste
østen
østens
østensjø
øster
østerrik
østerrike
østerriksk
østerrikske
østfold
østland
østlandet
østlige
østover
østre
østrogen
østsiden
øv
øve
øvelse
øvelsen
øvelsene
øvelser
øver
øverst
øverste
øving
øvings
øvre
øvrig
øvrige
øy
øya
øyane
øyas
øye
øyeb
øyeblikk
øyeblikkelig
øyeblikkene
øyeblikket
øyek
øyen
øyenbry
øyene
øyer
øyet
øyn
øyne
øynene
øystein
øyvind
на
пр
ال
##0
##00
##000
##1
##10
##100
##11
##12
##13
##14
##15
##16
##17
##18
##19
##2
##20
##200
##21
##22
##23
##24
##25
##26
##27
##28
##29
##3
##30
##31
##32
##33
##34
##35
##36
##37
##38
##39
##4
##40
##44
##45
##47
##48
##5
##50
##500
##55
##6
##60
##64
##65
##66
##7
##70
##75
##77
##8
##80
##85
##86
##88
##9
##90
##95
##99
##a
##aa
##aal
##aas
##ab
##aba
##abad
##abb
##abel
##abelt
##abeth
##abil
##abilitet
##abis
##able
##abler
##abol
##abole
##abor
##abu
##ac
##ace
##ach
##ache
##achim
##ack
##act
##acy
##ad
##ada
##adal
##adalen
##add
##adde
##ade
##adel
##adem
##ademi
##ademiet
##ademy
##aden
##adene
##ader
##ades
##adet
##adi
##ading
##adisk
##adiske
##administ
##administrasjon
##administrasjonen
##ado
##ador
##adress
##adresse
##adressen
##adresser
##adron
##ads
##advok
##advokat
##advokaten
##ady
##ae
##aen
##aende
##af
##aff
##afil
##afor
##aft
##aften
##ag
##aga
##agas
##age
##agede
##agelig
##agelse
##agelsen
##agen
##agende
##agene
##ager
##agere
##ages
##aget
##agn
##agne
##agnet
##ago
##agon
##agra
##agraf
##agram
##ags
##agt
##agte
##agu
##ague
##ah
##ahl
##ai
##ail
##ain
##ainer
##ainere
##ainment
##ains
##air
##ais
##aj
##ak
##aka
##akademiet
##ake
##akelse
##aken
##akene
##aker
##akere
##akeren
##akerne
##akers
##akes
##aket
##akh
##aki
##akim
##aking
##akk
##akken
##akom
##akon
##aks
##akse
##aksen
##aksept
##aksjon
##aksjonen
##aksjoner
##akt
##akte
##akten
##akter
##aktig
##aktige
##aktiv
##aktive
##aktivitet
##aktiviteten
##aktiviteter
##aktivt
##aktor
##aktorer
##aktør
##aktører
##aku
##akultur
##al
##ala
##alam
##aland
##alar
##album
##albumet
##ald
##alder
##alderen
##aldo
##aldrende
##aldt
##ale
##alen
##alende
##alender
##alene
##alens
##aler
##alere
##aleren
##alerne
##ales
##alet
##alg
##alget
##ali
##alia
##alie
##alin
##aling
##alingen
##alingene
##alinger
##alis
##alisere
##alisering
##alisert
##alisme
##alitet
##aliteten
##aljer
##aljon
##alk
##all
##alla
##alle
##allen
##allene
##aller
##allet
##alli
##alls
##ally
##alo
##alog
##alp
##als
##alsk
##alske
##alt
##alte
##altern
##alternativ
##alternativer
##alth
##althe
##alv
##am
##ama
##aman
##amar
##amas
##amb
##ambul
##ame
##amen
##ament
##amenter
##amentet
##amer
##amera
##amerikanske
##amet
##ameter
##amfunn
##ami
##amil
##amin
##aming
##amling
##amlingen
##amlinger
##amm
##amma
##amme
##ammen
##ammens
##ammensla
##ammer
##amn
##amo
##amp
##ampen
##amper
##ampo
##ams
##amus
##an
##ana
##anal
##analyse
##analysen
##analyser
##analyt
##anas
##ance
##and
##anda
##andaen
##ande
##andel
##andelen
##andeler
##anden
##ander
##anderende
##andet
##andid
##ando
##andre
##andres
##ands
##andy
##ane
##anel
##anen
##anene
##aner
##anere
##anerne
##anes
##ang
##anga
##ange
##angel
##angen
##anger
##angere
##angeren
##angfold
##angrep
##angrepet
##angs
##angst
##angt
##ani
##ania
##anje
##anjer
##ank
##anke
##anken
##anker
##anlegg
##anlegget
##anmar
##anmeld
##ann
##anna
##anne
##annel
##annelse
##annen
##anner
##annes
##annestad
##annet
##anni
##anning
##annonser
##anny
##ano
##ans
##ansatte
##anse
##ansen
##ansene
##ansens
##anser
##ansere
##ansert
##anserte
##anset
##ansett
##ansje
##ansjen
##ansk
##anske
##ansker
##ansom
##ansvar
##ansvaret
##ansvarlig
##ansvarlige
##ant
##ante
##anten
##antene
##anter
##anti
##antik
##antikk
##antrop
##ants
##any
##anz
##ao
##ap
##ape
##apen
##apent
##aper
##apest
##apet
##apeut
##apeuten
##apeuter
##api
##apir
##apne
##apnet
##apning
##apningen
##apo
##apotek
##app
##appar
##apparat
##apparater
##apparatet
##appen
##apper
##apro
##aprogram
##aps
##apt
##ar
##ara
##arane
##arar
##arbeid
##arbeide
##arbeidene
##arbeider
##arbeidere
##arbeiderne
##arbeidet
##arch
##ard
##arden
##arder
##ardo
##ards
##are
##areal
##arealer
##arealet
##aren
##arena
##arene
##arer
##ares
##aret
##arets
##arg
##ari
##aria
##ariat
##ariatet
##arig
##arige
##arin
##aring
##ario
##arisk
##ariske
##aritet
##ark
##arka
##arked
##arkedet
##arken
##arker
##arkite
##arkitekt
##arkiv
##arkivet
##arks
##arl
##arm
##arme
##armen
##armer
##arn
##arna
##arnet
##arning
##aro
##arrang
##ars
##art
##arta
##arte
##arten
##artene
##arter
##artet
##arth
##artiet
##artikkel
##artikler
##artist
##artner
##arv
##ary
##as
##asa
##ase
##asen
##aser
##ash
##asi
##asia
##asing
##asis
##asitet
##asiteten
##asj
##asje
##asjen
##asjene
##asjer
##asjon
##asjonen
##asjonene
##asjoner
##asjons
##ason
##ass
##assa
##assasje
##asse
##assen
##assende
##assene
##asser
##assering
##asses
##asset
##assist
##ast
##astad
##aste
##aster
##astning
##astro
##at
##ata
##atab
##atak
##atan
##atar
##atch
##ate
##ated
##ategor
##ategori
##ategorier
##atelse
##atem
##aten
##atene
##atens
##ater
##atere
##aterer
##ateriale
##aterialet
##ateriell
##atering
##atert
##aterte
##ates
##atet
##atferd
##ath
##ather
##athon
##ati
##atia
##atib
##atikk
##atikken
##atin
##ating
##ation
##ational
##ations
##atisert
##atisk
##atiske
##ativ
##ative
##ativer
##ativt
##atn
##atnet
##atning
##ato
##aton
##ator
##atoren
##atorer
##atoriet
##atorium
##atra
##atre
##atret
##ats
##att
##atta
##atte
##atten
##atter
##attes
##attest
##attet
##attle
##attra
##atur
##ature
##aturer
##aturlig
##atus
##atør
##atøren
##atører
##au
##aus
##aust
##aut
##autom
##aux
##av
##ava
##avdeling
##avdelingen
##avdelinger
##ave
##aven
##avet
##avfall
##avgift
##avgiften
##avhengige
##avhengighet
##avi
##avik
##avir
##avis
##avisa
##avisen
##aviser
##avl
##avn
##avnet
##avstand
##avt
##avtale
##avtalen
##avtaler
##avtrykk
##avvik
##aw
##away
##ax
##ay
##aya
##az
##b
##ba
##bach
##back
##bad
##badet
##bag
##bai
##bak
##bakgrunn
##bakk
##bakke
##bakken
##bakker
##bal
##balanse
##balansen
##ball
##ballasje
##baller
##ban
##bana
##band
##bandet
##bane
##banen
##baner
##bang
##bank
##banken
##bant
##bar
##bard
##bare
##baren
##barhet
##barheten
##barn
##barna
##barne
##barnet
##bart
##bas
##base
##basen
##basert
##baserte
##basis
##bassen
##basseng
##bat
##baten
##batene
##bater
##batter
##bb
##bbe
##bbel
##be
##bec
##beck
##bed
##bedrift
##bedrifter
##bef
##befol
##befolkning
##befolkningen
##beg
##begrens
##begynn
##beh
##behandler
##behandling
##behandlingen
##behov
##behovet
##behør
##beid
##bein
##bek
##bekk
##bekken
##bel
##belast
##belastning
##belegg
##bell
##bella
##bels
##belt
##belte
##beløp
##beløpet
##ben
##bene
##benken
##ber
##bere
##bered
##beredskap
##berg
##berge
##bergen
##berger
##berget
##bergs
##berne
##berry
##bers
##bert
##bes
##besk
##beskriv
##beskrivelse
##beskrivelsen
##beskrivelser
##beskytt
##beskyttelse
##besl
##best
##bestand
##bestanden
##bestemm
##bestemmelse
##bestemmelsene
##bestemmelser
##bestemt
##bestemte
##bestilling
##besøk
##bet
##betaling
##betennelse
##beth
##beting
##betingelser
##betjent
##beveg
##bevegelse
##bevegelsen
##bevegelser
##bevil
##bevis
##bevisst
##bey
##bi
##bia
##bian
##bibli
##bibliotek
##biblioteket
##bidrag
##bie
##bil
##bilde
##bildene
##bilder
##bildet
##bilen
##biler
##bill
##biller
##billetter
##bin
##bind
##bindel
##biner
##bing
##bir
##bisk
##biske
##biskop
##bit
##biter
##bjel
##bjør
##bjørn
##bk
##bl
##bla
##blad
##blader
##bladet
##bland
##blanding
##blant
##blas
##blast
##ble
##blene
##bler
##blikk
##blin
##bling
##blo
##blod
##blogg
##blogger
##blokk
##blokker
##blom
##blr
##bo
##boa
##board
##bod
##boe
##boende
##bok
##boka
##boken
##boks
##boksen
##bokser
##bol
##bolig
##boliger
##boller
##bom
##bon
##bonus
##book
##bor
##bord
##bordet
##borg
##borger
##bot
##botn
##bourg
##bourne
##box
##boy
##br
##bra
##bran
##brand
##brann
##bransjen
##braten
##bre
##bred
##bredde
##bredden
##brede
##breen
##brem
##brent
##brett
##brettet
##brev
##brevet
##bridge
##bring
##bro
##bror
##bru
##brua
##brudd
##bruddet
##bruk
##bruken
##bruker
##brukere
##bruket
##bruks
##brukt
##brun
##brune
##brutt
##bry
##brygg
##bryt
##bryter
##brød
##bs
##bt
##bu
##bud
##budet
##budsjett
##budsjettet
##bue
##bukta
##bul
##bum
##bun
##bund
##bundet
##bunn
##bunnen
##bur
##burg
##burger
##burgh
##burn
##bury
##bus
##busjon
##buss
##but
##butikk
##butikken
##butikker
##by
##byc
##bye
##byen
##byene
##byer
##byg
##bygd
##bygda
##bygde
##bygg
##bygge
##byggelse
##byggende
##bygger
##bygget
##bygging
##byggingen
##bygning
##bygningen
##bygninger
##byr
##byra
##byraer
##byraet
##byrd
##bytte
##bær
##bærer
##bø
##bøkene
##bøker
##bøl
##bølge
##bølgen
##bør
##bøy
##c
##ca
##cal
##cam
##camp
##can
##cao
##car
##card
##cas
##casino
##cast
##castle
##cat
##cation
##cc
##cci
##cco
##cd
##ce
##cean
##ced
##cel
##cell
##celle
##cellene
##celler
##cen
##cent
##cept
##cer
##cere
##ces
##cess
##cet
##ch
##cha
##chan
##chang
##change
##chat
##che
##chel
##chen
##cher
##ches
##chester
##chet
##chi
##cho
##chs
##chsen
##cht
##chus
##chwitz
##chy
##ci
##cia
##cial
##cil
##cin
##cing
##ck
##cke
##cken
##cker
##ckers
##cket
##ckey
##cking
##cks
##cky
##cl
##cle
##clo
##cm
##co
##code
##coin
##col
##com
##come
##con
##cons
##cont
##core
##cos
##count
##couver
##craft
##creen
##cript
##cross
##cs
##ct
##cted
##ctic
##ction
##ctions
##ctive
##ctor
##cts
##cture
##cu
##cup
##cupen
##cus
##cy
##cz
##d
##da
##dad
##dag
##dage
##dagen
##dagene
##dagens
##dager
##dahl
##dal
##dalen
##dals
##dam
##dan
##dann
##dar
##dat
##data
##date
##dater
##dating
##dato
##datter
##day
##dd
##dde
##dder
##ddet
##de
##dea
##deb
##debatt
##debatten
##deg
##deig
##dekk
##dekke
##dekkende
##dekket
##dekning
##del
##delag
##deleg
##delen
##delene
##deler
##deles
##delig
##delige
##deling
##delingen
##delingene
##delinger
##delt
##dem
##demokrat
##den
##denafil
##dende
##dene
##denes
##departementet
##departementets
##der
##dere
##deren
##deri
##derk
##derne
##ders
##dert
##derte
##des
##design
##det
##df
##di
##diagn
##dig
##dige
##dikt
##ding
##direktoratet
##direktør
##dis
##dist
##distri
##dning
##do
##dog
##dokum
##dokument
##dokumenter
##dom
##domen
##dommen
##dommer
##don
##donald
##down
##dr
##dra
##drag
##dragelse
##draget
##drakt
##drar
##dre
##dren
##drende
##drene
##drer
##dress
##dret
##drett
##dretter
##drevet
##drevne
##dri
##drift
##dring
##dringen
##dringer
##driv
##drive
##drivende
##drøm
##ds
##dt
##dtr
##du
##duksjon
##dus
##dy
##dyr
##dø
##dømmet
##e
##eb
##ebo
##ebra
##ebu
##ebær
##ec
##ed
##eda
##edag
##edagen
##edagene
##edager
##edagog
##edal
##edalen
##edata
##edato
##edd
##edde
##ede
##edek
##edel
##edelse
##edelt
##eden
##edene
##edepartementet
##eder
##ederlag
##edes
##edest
##edet
##edi
##edia
##edie
##edien
##edig
##edin
##edisin
##edlem
##edlemmer
##edning
##edo
##edom
##edrag
##edrift
##eds
##edskap
##edt
##edy
##edyr
##ee
##ef
##effe
##effekter
##eg
##ega
##egaard
##egaende
##egang
##egangen
##egard
##egarden
##egata
##ege
##egel
##egen
##egener
##egenskaper
##eger
##egg
##eggen
##egget
##egist
##egj
##egjeld
##egjen
##egjeng
##egjør
##egle
##eglene
##egler
##egling
##egn
##egne
##egnelse
##egner
##egnes
##egnet
##egning
##egninger
##ego
##egod
##egrens
##egro
##egru
##egrunn
##egruppa
##egruppe
##egruppen
##egrupper
##egu
##eier
##eiere
##eist
##ek
##ekj
##ekjøtt
##ekl
##ekn
##eknikk
##ekom
##ekont
##ekontakt
##ekontoret
##ekort
##ekret
##eks
##ekse
##ekst
##ekte
##ektoren
##el
##ela
##elag
##elager
##elaget
##elagt
##elagte
##eland
##elandet
##elas
##elast
##elat
##elaterte
##elberg
##eld
##elde
##elder
##eldig
##eldige
##elding
##eldingen
##eldinger
##ele
##eled
##eledelse
##eleder
##eledere
##elef
##elefon
##elefoner
##eleg
##elege
##eleir
##elekt
##elem
##element
##elementer
##elen
##eler
##eles
##elet
##elever
##eleverand
##eli
##elia
##elid
##elier
##elig
##elige
##elighet
##elin
##eline
##eling
##elinje
##elinjen
##elis
##eliste
##elisten
##elister
##elius
##eliv
##elivet
##elk
##ell
##ella
##elle
##ellen
##ellene
##eller
##ellere
##elles
##ellet
##elli
##elling
##ellingen
##ellinger
##ello
##ellom
##ells
##elly
##elo
##elok
##elov
##eloven
##elovens
##els
##else
##elsen
##elsene
##elsens
##elser
##elses
##elsesp
##elsess
##elset
##elskap
##elskaper
##elskapet
##elt
##elte
##elter
##eltet
##elu
##elund
##elus
##elv
##elva
##elven
##ely
##elys
##elyset
##elyst
##elær
##elærer
##elærere
##elø
##elønn
##eløp
##eløpet
##eløs
##eløse
##eløsning
##eløst
##em
##ema
##emal
##eman
##emann
##ember
##emed
##ement
##ementer
##emid
##emidler
##emma
##emon
##emperatur
##en
##ena
##enburg
##ence
##end
##enda
##endal
##endals
##ende
##endel
##enden
##endene
##ender
##endere
##endes
##endet
##ending
##endo
##endom
##endring
##endringen
##endringene
##endringer
##endt
##endør
##endørs
##ene
##enen
##ener
##energi
##enes
##enet
##enfor
##eng
##enga
##engde
##engden
##engder
##enge
##engen
##enger
##engt
##enhet
##enheten
##enheter
##enn
##enna
##enne
##ennelse
##ennelsen
##ennende
##ennene
##enner
##ennes
##ennet
##enning
##ennis
##ennitet
##ennom
##enny
##ens
##ensasjon
##ensen
##enser
##ensjon
##enskom
##ensus
##ensyn
##ent
##enta
##ental
##entar
##ente
##enten
##entene
##enter
##enterer
##enteres
##enteret
##entering
##entert
##enterte
##entes
##entet
##ential
##entil
##enting
##entleg
##entlig
##entlige
##ento
##entral
##entre
##entrep
##entrepren
##entreprenører
##ents
##entt
##entusia
##ep
##eper
##er
##era
##erd
##ere
##ereg
##eremon
##eren
##erende
##erer
##eres
##erest
##erfaring
##eri
##ering
##eringen
##erings
##erklæring
##ern
##erne
##ernes
##ero
##ers
##ert
##ertall
##erte
##erten
##ertif
##ertil
##erto
##ertur
##erty
##erv
##ervice
##es
##esam
##esc
##esco
##escos
##esdal
##ese
##esektoren
##esel
##esen
##esenet
##esenter
##eser
##esett
##esex
##esh
##esi
##esign
##esisk
##esiske
##esjon
##esl
##esn
##esnitt
##esnittet
##esong
##esongen
##esp
##espark
##espel
##espes
##espesial
##espill
##espiller
##espillere
##espillet
##esport
##ess
##esse
##essel
##essen
##esser
##essig
##essige
##essor
##essur
##est
##esta
##estad
##estaende
##estand
##estasjon
##estasjonen
##este
##ested
##esten
##ester
##esterskap
##esterskapet
##estil
##estra
##esult
##esund
##esy
##esyk
##esystem
##esystemet
##esøk
##et
##eta
##etab
##etabler
##etak
##etaten
##ete
##eten
##eter
##etet
##eth
##ethe
##etid
##etiden
##etil
##etilbud
##etilsynet
##etips
##etisk
##etiske
##etning
##etningen
##etninger
##etode
##etoder
##ets
##ett
##etta
##ette
##ettelse
##etten
##ettene
##etter
##ettes
##ettet
##etthet
##etti
##ettig
##ettigede
##ettiget
##etting
##ettingen
##ettings
##etto
##etts
##ettverk
##etty
##etøy
##ev
##event
##evne
##ey
##ez
##f
##fa
##fab
##fabrik
##fabrikk
##fabrikken
##fabrikker
##face
##fag
##fagene
##faget
##faglig
##faglige
##fakt
##faktor
##faktorer
##fal
##fall
##fallende
##fallet
##falt
##famil
##familie
##familien
##familier
##fan
##fang
##fanget
##fangst
##far
##fare
##faren
##farge
##fargede
##fargen
##farger
##farget
##fari
##faring
##faringer
##farkt
##farlig
##farlige
##fart
##farten
##fartøy
##fas
##fase
##fasen
##fast
##faste
##fat
##fatt
##fattende
##fav
##fd
##fe
##fect
##feil
##feksjon
##feksjoner
##fekt
##fekturet
##feld
##feldt
##fell
##felle
##feller
##felles
##fellesskap
##felling
##felt
##feltene
##feltet
##fem
##fen
##fer
##feranse
##feransen
##feranser
##ferd
##ferden
##ferdig
##ferdige
##ferdighet
##ferdigheter
##ferie
##ferien
##fest
##feste
##festede
##festen
##fester
##festet
##festiv
##festival
##festivalen
##fet
##fett
##ff
##ffe
##ffekt
##ffekter
##ffel
##ffen
##ffer
##ffet
##fi
##fia
##fiber
##field
##figur
##figurer
##fil
##filer
##film
##filmen
##filmer
##filosof
##filt
##filter
##fin
##finale
##finalen
##finans
##finansiering
##fine
##finer
##finger
##finn
##fint
##fir
##firma
##firmaet
##fisk
##fiske
##fisket
##fit
##fj
##fjell
##fjella
##fjellene
##fjellet
##fjer
##fjord
##fjorden
##fk
##fl
##fla
##flasker
##flate
##flaten
##flater
##fle
##fler
##fli
##flix
##flo
##fly
##flyt
##flytting
##fo
##fokus
##fol
##fold
##folk
##folkene
##folket
##fon
##fond
##fondet
##for
##forand
##forb
##forbered
##forbindel
##forbindelse
##forbindelser
##forbruk
##forbruket
##forbud
##forbudet
##forbund
##forbundet
##forbundets
##ford
##fordeling
##fordelingen
##fordr
##fore
##fored
##forekom
##foreld
##foreldre
##foreldrene
##foren
##forening
##foreningen
##foreningene
##foreningens
##foreninger
##foresp
##forestil
##forestillinger
##foret
##foretak
##foretaket
##forf
##forfatt
##forfatter
##forfattere
##forhold
##forholdene
##forholdet
##forlaget
##forløp
##forløpet
##form
##forma
##formal
##formann
##formasjon
##formasjonen
##format
##formede
##formen
##formene
##former
##formes
##formet
##formid
##formidling
##forming
##forn
##fornøyd
##forretning
##fors
##forsik
##forsikring
##forsk
##forsker
##forskere
##forskjell
##forskjellen
##forskjeller
##forskning
##forsknings
##forskningsinstituttet
##forskrift
##forskriften
##forslag
##forslaget
##forsta
##forstaelse
##forstatt
##forstyr
##forstyrrelser
##forsvar
##forsvaret
##forsy
##forsyning
##forsøk
##fort
##fortjent
##fortr
##forum
##forurens
##forvalt
##forvaltning
##forvaltningen
##fos
##foss
##fossen
##fot
##fotball
##foto
##fotograf
##fox
##fr
##fra
##fradrag
##fram
##fran
##fravær
##fre
##fred
##freds
##fredshet
##frekvens
##frem
##fremmende
##fri
##frid
##frie
##frihet
##friheten
##frist
##fristen
##fritt
##fro
##front
##fronten
##fru
##fry
##frø
##fs
##fsen
##ft
##fta
##fte
##ften
##ftene
##fter
##ftes
##ftet
##fting
##ftt
##fu
##fug
##fugl
##fuglen
##fuglene
##fugler
##ful
##full
##fulle
##fullmektig
##fullt
##fun
##fund
##fungerende
##funksjon
##funksjonen
##funksjoner
##funn
##funnet
##furt
##fusjon
##fy
##fyl
##fylke
##fyll
##fylling
##fylt
##fylte
##fyr
##fyrt
##fys
##fysi
##fær
##fø
##fød
##født
##fødte
##føl
##følelse
##følelsen
##følg
##følge
##følgelig
##følgen
##følgende
##følger
##følging
##før
##føre
##førende
##fører
##førere
##føreren
##føres
##føring
##føringen
##føringer
##førings
##førsel
##førselen
##ført
##førte
##g
##ga
##gaard
##gaende
##galler
##gam
##gan
##gande
##gane
##gang
##gangen
##ganger
##gar
##garanti
##gard
##garde
##garden
##garn
##garter
##gas
##gass
##gaste
##gata
##gate
##gaten
##gatt
##gav
##gave
##gaven
##gavene
##gaver
##gb
##gd
##gde
##ge
##geb
##gebyr
##ged
##gede
##geir
##gel
##geland
##gelse
##gen
##gende
##gene
##gener
##gens
##gent
##ger
##gere
##geren
##gerende
##gers
##gert
##ges
##gesen
##gest
##get
##gevin
##gg
##gge
##ggen
##gger
##gget
##gging
##gh
##gi
##gien
##giene
##gift
##giftene
##gifter
##giftning
##gikk
##gin
##ging
##gio
##gionen
##gir
##gis
##gitt
##gitte
##giv
##givelse
##givende
##giver
##givere
##givers
##giving
##givning
##givningen
##gj
##gja
##gjande
##gje
##gjeld
##gjen
##gjeng
##gjengelig
##gjengen
##gjenger
##gjengere
##gjennom
##gjennomsnittet
##gjenstander
##gjer
##gjerd
##gjering
##gjorde
##gjort
##gjorte
##gjød
##gjødsel
##gjør
##gjøre
##gjørelse
##gjørende
##gjøres
##gjøring
##gl
##glass
##glede
##glem
##gn
##gne
##gner
##go
##god
##gode
##godt
##godtgjørelse
##gor
##gori
##got
##gow
##gr
##gra
##grad
##graden
##grader
##gram
##grav
##gre
##greg
##gren
##grens
##grense
##grensen
##grep
##grepet
##gress
##gri
##grip
##gripende
##gro
##ground
##gru
##grunn
##grunnen
##grunnlag
##grunnlaget
##grupp
##gruppa
##gruppe
##gruppen
##gruppene
##gruppens
##grupper
##grø
##grønn
##gs
##gstad
##gt
##gte
##gu
##guay
##gud
##gull
##gutt
##gy
##h
##ha
##hab
##habil
##had
##hag
##hage
##hagen
##hai
##hal
##hald
##hall
##hallen
##halv
##halvaret
##halvøya
##ham
##hamar
##hammed
##hammer
##hamn
##hampton
##han
##hand
##handbok
##handel
##handelen
##handle
##handler
##handlere
##handlet
##handling
##handlingene
##handlinger
##handtering
##handverk
##har
##hara
##hard
##hardt
##harmon
##hast
##hastighet
##hat
##hatt
##hattan
##haug
##haugen
##haus
##hausen
##hav
##haven
##haver
##havet
##havn
##havns
##haw
##hd
##he
##hea
##head
##hed
##hefte
##hei
##heia
##heim
##heimen
##heimer
##heit
##hel
##helg
##helm
##helse
##helset
##helsetjenesten
##helt
##hem
##hemmede
##hen
##hend
##heng
##henger
##hengere
##hengig
##hengige
##hengighet
##hensyn
##her
##herad
##herine
##hern
##herred
##hers
##hes
##hest
##het
##heten
##hetene
##hetens
##heter
##hets
##heving
##hf
##hh
##hi
##hil
##hild
##him
##hin
##hing
##hinnen
##hion
##hire
##histor
##historie
##historien
##historier
##historisk
##historiske
##hjel
##hjelp
##hjelpen
##hjelper
##hjelps
##hjem
##hjemmet
##hjert
##hjul
##hjulet
##hjør
##hl
##hle
##hm
##hman
##hn
##ho
##hockey
##hode
##hodet
##hof
##hoff
##hog
##hol
##hold
##holde
##holdelse
##holder
##holdere
##holdes
##holdet
##holdig
##holdige
##holdning
##holdt
##holm
##holmen
##holms
##holt
##hon
##hoo
##hop
##hopp
##hopper
##hopping
##hor
##hord
##hordland
##horn
##hosp
##hospitalet
##hot
##hotell
##hou
##houg
##house
##hout
##hov
##hoved
##how
##hr
##hre
##hs
##ht
##hu
##hub
##hud
##hull
##hum
##hun
##hund
##hunder
##hur
##hurt
##hus
##husene
##huset
##hv
##hver
##hvert
##hvil
##hvit
##hy
##hyd
##hyl
##hytta
##hytte
##hø
##høg
##høgskole
##høgskolen
##hør
##hørighet
##hørt
##høy
##høyde
##høyden
##høye
##i
##ia
##ial
##iale
##ialer
##ialet
##ialis
##ialisme
##ialismen
##ialt
##ian
##iana
##iano
##ians
##iansk
##ianske
##ianter
##iar
##ias
##iat
##iater
##iation
##ib
##iba
##ibel
##iber
##ibet
##iblant
##ible
##ibli
##ibos
##ibosome
##ic
##ica
##ical
##ican
##icap
##ice
##ich
##ici
##ick
##icks
##icle
##ico
##icon
##ics
##ict
##iction
##icus
##icy
##id
##ida
##idae
##idar
##idas
##idd
##idde
##iddel
##ide
##idem
##iden
##idene
##idens
##ident
##idepartementet
##ider
##idere
##idering
##idert
##iderte
##ides
##idet
##idge
##idig
##idige
##iditet
##idler
##ido
##idrag
##idrett
##ids
##ie
##ieber
##ief
##ieffe
##iel
##ield
##iell
##ielle
##ielt
##iem
##ien
##ience
##iender
##iendom
##iene
##ienes
##iens
##ient
##ier
##iere
##ieren
##ierer
##ieres
##iering
##ierne
##iers
##iert
##ierte
##ies
##iet
##iets
##ieu
##iev
##iew
##iews
##if
##ifa
##ife
##ifer
##iff
##ifi
##ific
##ifisering
##ifisert
##ifiserte
##ifra
##ift
##ifte
##ifter
##iful
##ify
##ig
##iga
##igan
##ige
##igen
##iger
##igere
##iges
##iget
##igh
##ighet
##igheten
##ighetene
##igheter
##ight
##ights
##ign
##ignal
##igner
##ignet
##igu
##igur
##igurer
##ii
##iing
##ij
##ik
##ika
##ikal
##ikan
##ikansk
##ikanske
##ikant
##ikap
##ikar
##ikasjon
##ikasjonen
##ikasjoner
##ikat
##ikate
##ike
##iken
##iker
##ikere
##ikeren
##ikerne
##ikes
##iket
##iki
##ikk
##ikke
##ikkel
##ikken
##ikker
##ikkerhet
##ikkert
##ikket
##ikler
##iklin
##iko
##ikom
##ikon
##ikop
##ikre
##iks
##ikt
##iktig
##ikum
##il
##ila
##iland
##ilbud
##ilbudet
##ild
##ilde
##ildene
##ilder
##ilding
##ildsen
##ile
##ileet
##ilen
##iler
##iles
##ilet
##ileum
##iley
##ilg
##ili
##ilia
##iling
##ilitet
##iliteter
##ility
##iljø
##iljøet
##ill
##illa
##illatelse
##ille
##illen
##illene
##iller
##illere
##illes
##illet
##illi
##illing
##illit
##illo
##ilo
##ils
##ilskudd
##ilsynet
##ilt
##iltak
##ily
##im
##ima
##imal
##imar
##imb
##ime
##imellom
##imen
##imene
##imensjon
##iment
##imenter
##imentet
##imer
##imes
##imet
##imeter
##imir
##imo
##imot
##imp
##ims
##in
##ina
##inae
##inal
##inar
##inas
##inasjon
##inat
##inav
##ind
##inda
##indal
##inde
##indeks
##indeksen
##indel
##indelse
##inden
##inder
##indik
##indiv
##industri
##industrien
##ine
##inem
##inen
##inene
##iner
##inere
##inerende
##inerer
##ineres
##inering
##inert
##inerte
##ines
##iness
##inet
##inett
##inettet
##inf
##infarkt
##infeksjon
##info
##informasjon
##informasjonen
##ing
##inga
##ingane
##ingar
##inge
##ingen
##ingene
##ingeniør
##ingent
##inger
##inget
##ingles
##ings
##ingsarbeid
##ingsarbeidet
##ingsloven
##ingsm
##ingsmid
##ingsmiddel
##ingsmidler
##ingsmuligheter
##ingsverktøy
##ington
##ini
##inia
##ining
##ininga
##inister
##ink
##inke
##inken
##inker
##inket
##inn
##inna
##innd
##inne
##innede
##innen
##innene
##inner
##innet
##innhold
##innholdet
##innlegg
##innlegget
##innredning
##innsats
##inntak
##inntaket
##inntekt
##inntektene
##inntekter
##inntrykk
##ino
##inois
##inor
##ins
##insk
##inske
##inson
##inspe
##inspektør
##inst
##install
##installasjoner
##instans
##instit
##institusjon
##institusjonene
##institusjoner
##institutt
##instituttet
##instru
##instrum
##instrument
##instrumenter
##int
##inte
##inten
##intens
##inter
##interess
##interesse
##interesser
##interesserte
##interv
##intervju
##inus
##invester
##io
##ioder
##ion
##ional
##ione
##ionen
##ionens
##ioner
##ions
##iop
##ior
##ios
##ious
##ip
##ipa
##ipe
##ipend
##iper
##ipl
##ipler
##ipp
##ippe
##ippi
##ipping
##ips
##ipt
##ique
##ir
##ira
##iral
##irasjon
##irca
##ird
##ire
##ireg
##irekte
##irektivet
##irektorat
##irektoratet
##irektoratets
##irektør
##irektøren
##iren
##irer
##ires
##iret
##iri
##iring
##irk
##irken
##irkninger
##iro
##irs
##irt
##is
##isa
##isasjon
##ische
##ise
##isen
##isene
##iser
##isere
##iserende
##iserer
##iseres
##isering
##iseringen
##iseringer
##iserings
##isert
##iserte
##ises
##iset
##ish
##isi
##isiko
##isin
##isiner
##ising
##ision
##isitet
##isj
##isje
##isjef
##isjon
##isjonen
##isjoner
##isk
##iskap
##iske
##iskusjon
##ism
##isme
##ismen
##ismens
##ismer
##isol
##ison
##isont
##isp
##iss
##issa
##isse
##issen
##issene
##isser
##isset
##issi
##ist
##ista
##istan
##istar
##iste
##isten
##istene
##istenes
##istens
##ister
##isteret
##istik
##istikk
##istikken
##istisk
##istiske
##istor
##istre
##istri
##istrikt
##it
##ita
##ital
##italen
##italet
##itallet
##itan
##itar
##itas
##itasjon
##itch
##ite
##ited
##iteen
##iten
##itende
##itenskap
##iter
##itere
##iteres
##itering
##itert
##ites
##itet
##iteten
##iteter
##ith
##iti
##ities
##itim
##itime
##iting
##ition
##itiv
##itive
##itivt
##itler
##ito
##itor
##itra
##itre
##its
##itsj
##itt
##itta
##itte
##ittel
##ittelen
##itten
##ittene
##itter
##ittet
##ittisk
##ittiske
##itu
##ituasjon
##ituasjonen
##ituasjoner
##itus
##itusjon
##ity
##itz
##itær
##itære
##itært
##ium
##ius
##iv
##iva
##ivaet
##ival
##ive
##ivelse
##ivelsen
##iven
##ivende
##ivene
##ivenhet
##iver
##ivere
##ivers
##ivert
##ives
##ivet
##ivi
##ivind
##ivisjon
##ivisjonen
##ivt
##ix
##iy
##iz
##ization
##ize
##izen
##izer
##iør
##iører
##j
##ja
##jafør
##jak
##jakke
##jakt
##jal
##jan
##jande
##jar
##jarane
##jarar
##jas
##jazz
##jd
##je
##jed
##jeden
##jef
##jeg
##jekk
##jel
##jeld
##jell
##jeller
##jelp
##jem
##jema
##jemp
##jemper
##jen
##jene
##jener
##jenest
##jeneste
##jenesteloven
##jenesten
##jenestene
##jenester
##jening
##jennom
##jens
##jent
##jenta
##jente
##jentene
##jenter
##jer
##jere
##jern
##jernet
##jert
##jerte
##jes
##jesel
##jet
##jev
##ji
##jing
##jinga
##jo
##job
##jobb
##jobben
##jobber
##jof
##jon
##jong
##jor
##jord
##jort
##jour
##journal
##joy
##ju
##jul
##jun
##junkt
##just
##juster
##justering
##jø
##jøen
##jønn
##jør
##jøre
##jøring
##jørn
##jøtt
##k
##ka
##kab
##kabler
##kake
##kaker
##kal
##kalender
##kall
##kalle
##kalling
##kalt
##kam
##kamer
##kamera
##kammer
##kamp
##kampen
##kamper
##kan
##kanalen
##kandid
##kandidat
##kant
##kanten
##kap
##kapasitet
##kapital
##kapitalen
##kapp
##kar
##karakter
##karriere
##kart
##kas
##kassa
##kasse
##kassen
##kasser
##kast
##kaste
##kaster
##kastet
##kat
##katastro
##ke
##kede
##kehus
##kehuset
##kel
##kelen
##kelig
##kelige
##ken
##kende
##kene
##kenes
##ker
##kere
##keren
##kerne
##kers
##kes
##kess
##kester
##ket
##kete
##ketøy
##key
##kg
##kh
##ki
##kil
##kilde
##kilder
##kilometer
##kin
##king
##kingen
##kins
##kir
##kirke
##kirken
##kj
##kja
##kje
##kjeder
##kjemp
##kjen
##kjenn
##kjenning
##kjent
##kjente
##kjer
##kjert
##kjole
##kjær
##kjærlighet
##kjø
##kjøkken
##kjøl
##kjøling
##kjønn
##kjøp
##kjør
##kjører
##kjøretøy
##kjøring
##kjøringen
##kjørt
##kjøtt
##kjøttet
##kk
##kka
##kkar
##kke
##kkede
##kkel
##kkelen
##kkelig
##kkelige
##kkelse
##kkelt
##kken
##kkende
##kkene
##kker
##kkere
##kkert
##kkes
##kket
##kkete
##kking
##kkje
##kl
##kla
##klam
##kland
##klar
##klare
##klaring
##klart
##klass
##klasse
##klassen
##klasser
##klat
##kle
##kledd
##kledde
##klene
##kler
##klet
##kli
##klikk
##klin
##kling
##klipp
##klo
##klubb
##klubben
##klubber
##klund
##klær
##klæring
##klæringen
##km
##kn
##kna
##knappen
##kne
##kning
##kningen
##kningene
##kninger
##knings
##ko
##kob
##kobling
##kode
##koden
##koder
##kok
##kol
##kolle
##kom
##kombin
##komite
##komiteen
##komm
##kommand
##kommanderende
##komme
##kommelig
##kommen
##kommende
##komment
##kommer
##kommet
##kommun
##kommune
##kommunen
##kommuner
##komne
##komp
##kompan
##kompet
##kompetanse
##kompon
##komst
##komsten
##kon
##konf
##konferanse
##konferansen
##kong
##kongen
##konkur
##konkurran
##konkurranse
##konkurransen
##konom
##kons
##konse
##konsent
##konser
##konsert
##konstru
##konstruksjoner
##konsulent
##kont
##kontakt
##kontin
##konto
##kontor
##kontoret
##kontr
##kontrakt
##kontroll
##kontrollen
##kontroller
##konvensjon
##konvensjonen
##kop
##kor
##kord
##korn
##korps
##kors
##kort
##kortet
##kos
##kose
##kost
##kostnader
##kostninger
##kov
##kr
##kra
##kraft
##kraften
##kraftverk
##kran
##krav
##kravene
##kravet
##kre
##kreft
##krefter
##krem
##kret
##krets
##kretsen
##kretser
##kretær
##krevende
##krig
##krigen
##krimin
##kring
##krit
##kritikk
##kro
##kron
##kropp
##kroppen
##kry
##ks
##ksa
##ksam
##kse
##ksen
##ksene
##kser
##kset
##ksis
##ksjef
##ksjon
##ksjonen
##ksjonene
##ksjoner
##ksom
##ksomhet
##kson
##ksp
##ksped
##kspedisjonen
##kspert
##kt
##kta
##ktail
##kte
##kten
##ktene
##kter
##ktere
##ktes
##kteskap
##ktet
##ktig
##ktige
##ktighet
##ktiv
##ktive
##ktivet
##ktivitet
##ktivt
##kton
##ktor
##ktorat
##ktoratet
##ktoren
##ktorer
##ktt
##ktør
##ktøren
##ktøy
##ku
##kul
##kule
##kultur
##kulturen
##kun
##kunder
##kunnskap
##kunst
##kunsten
##kur
##kurran
##kurs
##kurset
##kv
##kval
##kvalitet
##kvaliteten
##kvart
##kveld
##kvens
##kvent
##ky
##kyr
##kysten
##l
##la
##lab
##lad
##lade
##lag
##lagd
##lage
##lagen
##lagene
##lager
##laget
##lagg
##lagt
##lagte
##lam
##lan
##land
##landet
##landing
##lands
##landskap
##landskapet
##landske
##lane
##lant
##lanter
##lar
##las
##lass
##last
##lat
##late
##lates
##laus
##lav
##lay
##ld
##le
##leb
##led
##ledd
##leddet
##lede
##ledelse
##ledelsen
##leden
##ledende
##leder
##ledere
##ledes
##ledning
##ledningen
##ledninger
##leg
##legaste
##lege
##legen
##legene
##leger
##legg
##legge
##leggelse
##legger
##leggere
##legges
##legget
##legging
##leggingen
##lei
##leiar
##leie
##leik
##leiken
##leir
##leis
##lek
##leker
##lekk
##leks
##lekt
##lekten
##lektet
##lelse
##lem
##lement
##lementet
##lemer
##len
##lend
##lende
##lene
##lenes
##leng
##ler
##lere
##leren
##lerne
##lers
##lert
##lerud
##les
##leser
##lesere
##lesias
##lesing
##lesning
##less
##lest
##lestad
##lesund
##let
##lete
##lett
##letter
##leum
##lev
##leve
##levelse
##levelser
##levende
##lever
##leverand
##leverandør
##leverandører
##ley
##lf
##li
##lia
##lian
##lic
##lica
##lid
##lie
##lien
##lier
##lies
##life
##lig
##liga
##ligaen
##lige
##ligere
##liggende
##lighet
##ligheten
##lighetene
##ligheter
##light
##lignende
##ligste
##lik
##likasjon
##likasjoner
##like
##likevel
##likk
##likken
##likket
##likning
##likt
##likten
##likter
##liktig
##liktige
##lim
##lima
##lin
##line
##lines
##ling
##linga
##lingen
##lingene
##linger
##lings
##linja
##linje
##linjen
##linjer
##lip
##lipp
##lir
##lis
##lish
##lisk
##liske
##list
##lista
##liste
##listen
##listene
##lister
##lit
##lite
##liten
##litt
##litter
##litteratur
##liv
##live
##livet
##ll
##lo
##load
##lock
##lof
##log
##logg
##lok
##lokk
##lon
##look
##lopp
##los
##lov
##lova
##lovak
##lovakia
##loven
##lovens
##low
##ls
##lsberg
##lu
##lubb
##lubben
##luft
##lukt
##lund
##lunde
##lus
##ly
##lyd
##lyden
##lyn
##lys
##lyse
##lyser
##lyset
##lysninger
##lyst
##lyste
##lytt
##lywood
##lær
##lærer
##lærere
##læring
##lært
##lø
##løft
##løk
##løkka
##lønn
##løp
##løpende
##løpet
##løs
##løse
##løsende
##løses
##løshet
##løsning
##løsningen
##løsninger
##løst
##løy
##løytnant
##m
##ma
##mad
##mag
##magas
##magasinet
##mail
##main
##mak
##maker
##makt
##makten
##maktene
##makter
##mal
##maler
##malet
##maling
##malinger
##malt
##man
##mand
##mane
##mangel
##mangfold
##mani
##mann
##mannen
##mannet
##manning
##manns
##mans
##mansk
##manske
##mappe
##mar
##maraton
##marg
##mari
##mark
##marka
##marked
##markedet
##marken
##marker
##marks
##marsj
##mas
##maskin
##maskinen
##maskiner
##masse
##massen
##mast
##master
##mat
##mate
##maten
##mater
##materiale
##materialer
##materialet
##materiell
##matisk
##matiske
##max
##mb
##me
##med
##medal
##medalje
##medaljen
##medaljer
##mede
##medes
##media
##medisin
##medlem
##medlemmer
##medvirkning
##meg
##meister
##mekan
##mektig
##mel
##meld
##melde
##melding
##meldingen
##meldingene
##meldinger
##meldt
##meldte
##melen
##melig
##melige
##melk
##mels
##melse
##melser
##melt
##men
##mende
##mene
##menes
##mengde
##mengden
##menn
##menne
##mennene
##mennesk
##mennesker
##mens
##ment
##menter
##mentet
##ments
##meny
##menyen
##mer
##mere
##merk
##merke
##merkene
##merker
##merket
##merking
[...]
