🍁
🎉
🏻
🏼
👌
👍
👏
👨
👩
💕
💙
💛
💪
💲
😀
😁
😂
😃
😄
😅
😆
😉
😊
😍
😎
😘
😛
😜
😦
🙁
🙂
🙄
🙈
🙌
🙏
🤔
🤗
🤩
𝐞
𝐨
🌟
🌸
🍁
🎉
🏻
🏼
🏽
👊
👌
👍
👏
💕
💖
💗
💙
💚
💛
💜
💞
💪
🔥
😀
😁
😂
😃
😄
😅
😆
😉
😊
😋
😍
😎
😏
😘
😛
😜
😝
😢
😦
😬
😭
😮
😱
😳
🙁
🙂
🙄
🙈
🙌
🙏
🤔
🤗
🤣
🇩
🇰
🌟
🌸
🍀
🍁
🍂
🎄
🎉
🏻
🏼
🏽
👌
👍
👏
💕
💙
💚
💪
🔥
🔺
🔻
😀
😁
😂
😃
😄
😅
😆
😉
😊
😋
😍
😎
😘
😛
😜
😱
😳
🙁
🙂
🙄
🙈
🙌
🙏
🤔
🤗
🤞
🤩
##🍁
##🎉
##🏻
##🏼
##👌
##👍
##👏
##👨
##👩
##💕
##💙
##💛
##💪
##💲
##😀
##😁
##😂
##😃
##😄
##😅
##😆
##😉
##😊
##😍
##😎
##😘
##😛
##😜
##🙁
##🙂
##🙄
##🙈
##🙌
##🙏
##🤔
##🤗
##🤩
##𝐞
##𝐨
##🌟
##🌸
##🍁
##🎉
##🏻
##🏼
##🏽
##👊
##👌
##👍
##👏
##💕
##💖
##💗
##💙
##💚
##💛
##💜
##💞
##💪
##🔥
##😀
##😁
##😂
##😃
##😄
##😅
##😆
##😉
##😊
##😋
##😍
##😎
##😏
##😘
##😛
##😜
##😝
##😢
##😦
##😬
##😭
##😮
##😱
##😳
##🙁
##🙂
##🙄
##🙈
##🙌
##🙏
##🤔
##🤗
##🤣
##🇩
##🇰
##🌟
##🌸
##🍀
##🍁
##🍂
##🎄
##🎉
##🏻
##🏼
##🏽
##👌
##👍
##👏
##💕
##💙
##💚
##💪
##🔥
##🔺
##🔻
##😀
##😁
##😂
##😃
##😄
##😅
##😆
##😉
##😊
##😋
##😍
##😎
##😘
##😛
##😜
##😱
##😳
##🙁
##🙂
##🙄
##🙈
##🙌
##🙏
##🤔
##🤗
##🤞
##🤩
##0000
##4for
##54
##57
##71
##72
##73
##74
##79
##81
##84
##92
##98
##aaa
##aaaaaaaa
##aal
##aard
##aas
##abb
##abe
##aben
##abent
##aber
##abl
##abla
##ablere
##abne
##abner
##abnet
##abning
##abningen
##abon
##abonnement
##abor
##aborg
##abri
##absor
##abu
##acc
##accept
##acer
##ache
##acitet
##aciteten
##acka
##acker
##acks
##aco
##adag
##adan
##adar
##adda
##adde
##adder
##addra
##addy
##adels
##adelse
##adelsen
##adelser
##ademy
##adende
##adene
##adens
##adere
##adern
##aderne
##adets
##adfærd
##adgang
##adgiver
##adgivning
##administ
##administrasjon
##administrasjonen
##administration
##adres
##adress
##adressen
##adser
##adset
##adsk
##adt
##advok
##advokat
##advokaten
##aede
##ael
##aer
##aet
##afdeling
##afdelingen
##afdelinger
##afe
##aff
##affald
##affar
##affarer
##affel
##afgang
##afgift
##afgiften
##afgifter
##afgr
##afgrøder
##afgørende
##afhæng
##afler
##afor
##afrik
##afrika
##afsnit
##afstand
##aft
##aftale
##aftalen
##aftaler
##aftener
##aftryk
##agaard
##agan
##agande
##aganden
##agandet
##agang
##agar
##agare
##agaren
##agarens
##agarna
##agarnas
##agas
##agasin
##agatan
##agaz
##agd
##agda
##agde
##aged
##agel
##agelig
##agelsen
##agement
##agene
##agenhet
##agens
##agent
##agenævnet
##agerede
##ageren
##agerende
##agerer
##ageret
##agerne
##agers
##agga
##aggande
##agge
##agget
##aggning
##aggregat
##agh
##aglar
##agna
##agnen
##agningar
##agningen
##agor
##agraf
##agtede
##agten
##agter
##agtet
##agtig
##agtige
##agtigt
##ague
##ainere
##ainment
##ais
##aj
##akade
##akademiet
##akan
##akande
##akar
##akare
##akaren
##akarna
##akat
##akelse
##akene
##akere
##akeren
##akerne
##akiet
##aking
##akk
##akke
##akor
##akra
##akse
##aksept
##aksjon
##aksjonen
##aksjoner
##akta
##akten
##akterier
##aktiga
##aktige
##aktigt
##aktikk
##aktion
##aktionen
##aktioner
##aktiva
##aktiviteten
##aktører
##akultur
##alade
##alafil
##alag
##alaget
##alam
##alan
##alans
##alar
##alas
##albumet
##alde
##alden
##aldern
##aldet
##aldigt
##alds
##alede
##alem
##alender
##alene
##alere
##aleren
##alerna
##algene
##algru
##alia
##alid
##alie
##alingene
##alisera
##aliserad
##aliserade
##aliserar
##aliseras
##aliserat
##aliserede
##aliserer
##aliseres
##aliseret
##alisert
##alism
##alist
##alisten
##alisterna
##alistiska
##alistiske
##alistiskt
##aliteten
##alition
##alj
##alje
##aljon
##alken
##allar
##allas
##allere
##allergi
##alleriet
##alli
##allor
##alls
##allsven
##allsvenskan
##allt
##alm
##almers
##almind
##alom
##alon
##along
##alsekreterare
##alsjef
##alskare
##alske
##also
##alten
##alter
##altern
##alternativer
##altet
##althe
##altid
##alu
##aluering
##alv
##alven
##alys
##amal
##amarbejde
##amat
##amatch
##amb
##ambul
##amd
##amerik
##amerikanska
##amerikanske
##ames
##ametre
##amfund
##amfunn
##amid
##amling
##amma
##amman
##ammar
##ammare
##ammaren
##amme
##ammor
##amn
##amnden
##amne
##amnen
##amnet
##amning
##ampa
##ampan
##ampanj
##ampar
##ampe
##ampel
##ampning
##ampo
##ampoo
##ampor
##amt
##amus
##analys
##anan
##anca
##ancake
##anced
##ancen
##ancere
##anceret
##ancerne
##anch
##anche
##anchen
##andaen
##andamal
##andan
##andare
##andaren
##andas
##andele
##andelen
##andeler
##andena
##anderatt
##anders
##andets
##andidat
##anding
##andning
##andra
##andrag
##andres
##andring
##andringar
##andt
##andy
##anel
##anene
##anering
##anes
##anfald
##anga
##angar
##angare
##angd
##angden
##angder
##angere
##angeren
##angest
##angfold
##angivelse
##angreb
##angrep
##angrepet
##angrepp
##anie
##anien
##anism
##anismen
##anismer
##anje
##anjer
##anka
##ankande
##ankar
##ankt
##ankta
##anlaggning
##anlaggningar
##anlaggningen
##anlegg
##anlegget
##anlæg
##anlægget
##anmal
##anmalan
##anmeld
##annade
##annan
##annande
##annat
##annede
##annel
##annelsen
##annelser
##annende
##annestad
##annet
##annon
##annonce
##annoncer
##annons
##anns
##anol
##anor
##anpass
##anpassad
##anpassade
##ansat
##ansch
##anse
##ansene
##ansens
##ansere
##ansert
##anserte
##ansje
##ansker
##anslag
##anslut
##anslutning
##ansokan
##ansokningar
##ansom
##anstallda
##anstallning
##anstalt
##anstaltninger
##ansvard
##ansvarda
##ansvarig
##ansvariga
##ansvarige
##ansvart
##ansættelse
##ansøg
##ansøgning
##anta
##antalet
##antan
##antar
##antene
##anterna
##anterne
##antikk
##anting
##antiske
##antor
##antorer
##antz
##anu
##anuensis
##anvand
##anvandare
##anvandning
##anvandningen
##anvend
##anvendelse
##anvisning
##anya
##anych
##anz
##anza
##apar
##apen
##apet
##apeuten
##apien
##apne
##apningen
##apotek
##appede
##appen
##apper
##apperne
##appet
##apport
##apro
##arac
##arande
##arane
##arar
##arat
##arav
##arbeid
##arbeide
##arbeidene
##arbeider
##arbeidere
##arbeiderne
##arbeidet
##arbej
##arbejd
##arbejde
##arbejdede
##arbejder
##arbejdere
##arbejderne
##arbejdes
##arbejdet
##arbejdning
##arbet
##arbeta
##arbetad
##arbetade
##arbetare
##arbete
##arbeten
##arbetet
##arbæk
##arde
##ardt
##area
##arealerne
##ared
##areg
##arenden
##arens
##arerna
##arerne
##aries
##ariga
##aringer
##ario
##aris
##arklass
##arkoll
##arkvall
##arma
##armad
##armerende
##arna
##arnas
##arne
##arning
##aron
##arp
##arrangemang
##arrangementer
##arre
##arta
##artad
##artade
##artalet
##artan
##artat
##artede
##artene
##artiet
##artik
##artikel
##artikkel
##artiklar
##artist
##artor
##arup
##arvet
##aryd
##asar
##asc
##asch
##asert
##aserte
##ashion
##asien
##asiner
##asino
##asinon
##asitet
##asiteten
##asj
##asje
##asjen
##asjene
##asjer
##asjes
##asjonen
##asjonene
##asjoner
##asjons
##ask
##aske
##asken
##asker
##asket
##askine
##askinen
##askiner
##asme
##asong
##asongen
##asp
##aspe
##assan
##assans
##assasje
##assede
##assende
##assene
##asseng
##assens
##assering
##asserne
##asses
##assig
##assiga
##assigt
##assistenter
##asson
##asta
##astaende
##astan
##astik
##astisk
##astiske
##astrof
##astrup
##asure
##asy
##asyster
##atab
##atal
##atan
##atande
##atas
##ateau
##ategi
##atel
##atelse
##atene
##atens
##aterats
##aterede
##ateres
##ateret
##ateri
##aterial
##aterialer
##ateriel
##ateriell
##atering
##atern
##aterna
##aterne
##atert
##aterte
##atets
##ateur
##atexamen
##atferd
##atgarder
##athan
##athl
##atia
##atib
##atiden
##atien
##atiken
##atikk
##atikker
##atil
##ational
##ationerna
##ationerne
##atisera
##atiseret
##atisert
##atiska
##atiskt
##atism
##ativa
##atn
##atnet
##atning
##atorene
##atorerna
##atoriska
##atoriske
##atorn
##ators
##atra
##atret
##atsen
##atser
##attack
##attacker
##attar
##atters
##attes
##attet
##attnet
##attor
##atts
##atum
##aturlig
##atus
##atøren
##atørene
##auff
##aur
##aus
##ause
##ava
##avagen
##avand
##avbrott
##avdeling
##avdelingen
##avdelinger
##avdelning
##avdelningen
##avdrag
##avede
##avej
##aventyr
##aver
##avgiften
##avgifter
##avhengige
##avhengighet
##avir
##avirk
##avirkning
##avisa
##avler
##avling
##avne
##avorit
##avt
##avtal
##avtale
##avtalen
##avtaler
##avtalet
##avtrykk
##avvik
##aw
##ays
##bab
##backa
##backen
##backs
##badd
##bade
##bagar
##bage
##bagen
##bagt
##bagte
##bakat
##bakgrund
##bakgrunn
##bakk
##bakt
##balance
##balans
##balanse
##balansen
##ballasje
##balle
##baller
##banan
##banden
##banor
##bara
##barande
##barare
##barber
##barhed
##barheten
##barna
##barne
##barnen
##barns
##baserad
##baserade
##baserat
##baserede
##baseret
##basert
##baserte
##basis
##basseng
##bassin
##batar
##bater
##batten
##batter
##bav
##bay
##bba
##bbade
##bbar
##bbel
##bben
##bber
##bby
##bbyn
##bearbet
##bebyg
##bebygg
##bech
##bede
##beder
##bedom
##bedomning
##bedrift
##bedrifter
##bedring
##bedst
##bedste
##befindende
##befinner
##befolk
##befolkning
##begrens
##begrepet
##begrepp
##begræn
##begynn
##beh
##behandler
##behandlere
##behandlingar
##behandlinger
##behold
##beholder
##behor
##beid
##bein
##bej
##bekendt
##bekendtgørelse
##bekendtgørelsen
##bekendtgørelsens
##bekk
##bekken
##beklædning
##bekraft
##bekræft
##bekæmpelse
##belagda
##belastning
##belegg
##bella
##belle
##beller
##beln
##belopp
##beloppet
##bels
##belte
##belæg
##belægning
##beløb
##beløbet
##beløp
##beløpet
##bem
##bende
##bene
##benen
##benhol
##benken
##bent
##berak
##beratt
##berattelse
##berattelsen
##berattelser
##berattigade
##beredare
##berede
##beredskab
##beret
##berettigede
##berettiget
##berga
##berge
##bergen
##beroende
##berts
##besikt
##besiktning
##beskat
##beskatning
##beskatt
##besked
##beskrivning
##beskrivningar
##beskytt
##beskyttelses
##beskyttet
##besl
##beslag
##beslut
##besok
##bestall
##bestamm
##bestanden
##bestemmelsene
##bestilling
##bestyr
##bestyrelsen
##besvar
##besvær
##besøg
##besøk
##betal
##betala
##betalda
##betalingen
##betalinger
##betalning
##betalningar
##betalt
##bete
##beteck
##beteckning
##beteende
##betennelse
##betet
##beting
##betingelser
##betjen
##betjening
##betjeningen
##beton
##betræk
##bett
##betyg
##betændelse
##bev
##beveg
##bevegelse
##bevegelsen
##bevegelser
##bevidst
##bevidste
##bevidsthed
##bevil
##beviser
##bevisst
##bevisste
##bevæg
##bevægelse
##bevægelsen
##bevægelser
##bex
##bh
##bians
##bias
##biblio
##bien
##biff
##bilag
##bilar
##bild
##bilda
##bilde
##bilden
##bildene
##bilderna
##bildet
##bildning
##bildningen
##bile
##bileum
##bilit
##bilitering
##bilitet
##bility
##bilje
##biljett
##biljetter
##billede
##billeder
##billedet
##billet
##billett
##bing
##bio
##bir
##bis
##bisk
##bitar
##bitarna
##biten
##biter
##bj
##bjel
##bjer
##bjerg
##bjorn
##bjud
##bjudande
##bjudanden
##bjæl
##bjærg
##bjør
##bjørg
##bk
##blade
##bladen
##blader
##bladets
##blandning
##blandningen
##blank
##blankett
##blant
##blar
##blatt
##bled
##blem
##blene
##bles
##blev
##bli
##blick
##blik
##blikk
##blikket
##blin
##blio
##block
##bloggar
##bloggare
##bloggen
##blogger
##blok
##blokk
##blokker
##blomm
##blomma
##blommor
##blomst
##blomster
##blr
##bly
##blæsning
##blød
##boa
##bob
##bock
##bocker
##bockerna
##boda
##body
##boenden
##boerne
##bog
##bogen
##boj
##boka
##bokser
##bolag
##bolagen
##bolaget
##bolagets
##bold
##bolde
##boll
##bollar
##bomb
##bonat
##boo
##books
##borde
##borden
##bordes
##bords
##borger
##borgere
##born
##borna
##borr
##borste
##bort
##bortt
##bos
##bost
##bostad
##bostader
##bostads
##bostadshus
##botn
##bott
##botten
##bottens
##bourg
##bourne
##bow
##boxen
##boys
##brack
##brad
##brada
##bragt
##bragte
##branchen
##brann
##brans
##bransch
##branschen
##bransjen
##bransle
##braten
##bredd
##brent
##brett
##brettet
##breve
##briken
##briker
##briller
##bringer
##bris
##brist
##brod
##broder
##broen
##brog
##brogade
##broms
##bron
##bros
##brot
##brott
##brottet
##browser
##brua
##brud
##brudd
##bruddet
##brudgom
##brudt
##brug
##bruger
##brugere
##bruget
##brugt
##bruken
##bruker
##brukere
##bruks
##brukt
##bruna
##brune
##brunn
##brusk
##brutt
##bryder
##bryg
##bryggare
##bryll
##bryllup
##brytande
##brytare
##bryter
##brytere
##bræ
##brænd
##bræt
##brættet
##brø
##bubb
##budet
##budsjett
##budsjettet
##bue
##buffe
##buffet
##building
##bukser
##bukta
##bull
##bullar
##bum
##bundna
##bunn
##bunnen
##bureau
##buren
##burger
##burgh
##burit
##burk
##burkar
##burn
##burna
##burst
##busjon
##busser
##bust
##butiken
##butiker
##butikk
##bygda
##bygde
##bygga
##byggande
##byggd
##byggda
##byggede
##byggeri
##bygges
##bygging
##byggingen
##byggnad
##byggnaden
##byggnader
##byggt
##byn
##byraet
##byran
##byt
##byte
##byten
##bytet
##bytte
##byxor
##bæk
##bæl
##bænk
##bø
##bøger
##bøgerne
##bøj
##bøkene
##bøker
##bølge
##bølgen
##bøll
##bølle
##børn
##bøy
##call
##cams
##cancer
##canner
##casin
##casinon
##cation
##cci
##cean
##cellene
##cellerne
##centeret
##centrat
##centre
##centrene
##cepter
##cerede
##cerende
##cerer
##ceres
##ceret
##cern
##cerne
##cernen
##certifik
##chan
##chans
##chanser
##chatt
##chauff
##check
##chema
##chet
##chf
##ching
##choklad
##chsen
##chy
##cif
##cio
##cion
##cir
##circa
##cirk
##cirkel
##cirkul
##city
##cka
##ckande
##ckar
##ckare
##ckey
##cking
##ckit
##ckning
##cksa
##club
##coach
##cock
##code
##coin
##coli
##compu
##computer
##cot
##cou
##couver
##cover
##cr
##cre
##creen
##crem
##creme
##cross
##cru
##ctic
##cu
##cur
##cyk
##cyklar
##cyklen
##cykler
##cykloped
##cyklopedin
##dack
##dad
##dafr
##dagar
##dagare
##dagarna
##dagene
##dager
##dagog
##dala
##damm
##damp
##danmark
##dann
##dannelse
##dannelsen
##dannet
##dans
##dansk
##danske
##daq
##dar
##das
##dater
##dateret
##dateringer
##datoen
##dator
##datum
##dav
##db
##dc
##ddet
##dec
##dede
##def
##definerede
##defineret
##deig
##dej
##dejt
##dejta
##dejting
##dekk
##dekke
##dekkende
##dekket
##deklaration
##dekning
##delag
##delar
##delarna
##dele
##deleg
##delig
##deligt
##delingene
##delings
##dell
##delning
##delningar
##delningen
##delse
##delses
##deltag
##deltagare
##delte
##deløb
##demp
##denes
##departementets
##dera
##derk
##dern
##derna
##derne
##dert
##designer
##dest
##dets
##dex
##dhet
##diag
##die
##dige
##dike
##dikt
##dinge
##dire
##direkt
##direktiv
##direktivet
##direktor
##distri
##dit
##dition
##dj
##djup
##djur
##djurs
##dk
##dning
##dod
##dokt
##dokum
##dokumenter
##domar
##dome
##domen
##domet
##domm
##domme
##dommene
##dommens
##dommer
##domstol
##domstolen
##door
##dorr
##dorrar
##dorren
##dos
##dotter
##down
##drad
##drade
##drage
##dragelsen
##dragen
##drager
##drages
##dragna
##dragning
##dragt
##dragter
##dram
##drande
##drarna
##drat
##dratt
##drede
##dressen
##drett
##dretter
##dreven
##drevet
##drevne
##dri
##drig
##dringar
##dringen
##dringene
##dringer
##drive
##driven
##driver
##drivna
##drom
##drommar
##drup
##dryck
##drø
##dtr
##dubb
##dug
##duk
##dukar
##duken
##duksjon
##dupp
##dus
##dusch
##dygt
##dygtig
##dyk
##dyn
##dæk
##dækning
##dæmp
##dø
##døde
##dør
##døre
##døren
##eap
##eas
##eau
##eband
##ebel
##eben
##ebet
##eboda
##ebr
##ebro
##ebrod
##ebu
##ebyg
##ebygg
##ebyggande
##ebyggende
##ebygging
##ebyra
##ebøker
##ebørn
##eck
##ecken
##ect
##edage
##edagene
##edager
##edan
##edande
##edann
##edare
##edata
##edato
##edatum
##edda
##edde
##eddel
##edek
##edele
##edels
##edene
##edepartementet
##ederen
##ederlag
##ederne
##edien
##edier
##edirektoratet
##edisin
##edition
##edjur
##edlemmene
##edlemmer
##edlen
##edler
##edr
##edraget
##edragt
##edren
##edrift
##edskab
##edskaber
##edskap
##edtak
##edu
##edygt
##edø
##edør
##eee
##eeee
##eeing
##efa
##efall
##efar
##effe
##effekten
##effektiv
##effektiva
##efon
##efoner
##efte
##eftea
##efter
##efuld
##efulde
##egade
##egaende
##egata
##egatan
##egem
##egener
##egenskaber
##egenskaper
##eget
##egg
##eggen
##egget
##egi
##egist
##egister
##egisteret
##egivende
##egj
##egjeld
##egjen
##egjeng
##egjengen
##egjennom
##egjør
##egl
##eglas
##eglene
##eglerne
##egling
##egnelser
##egnen
##egod
##egor
##egori
##egorier
##egrans
##egrav
##egrebet
##egrej
##egrens
##egrepp
##egrip
##egro
##egrunn
##egruppa
##egræn
##eguide
##egul
##egulv
##eh
##ei
##eier
##eiere
##eist
##eje
##ejede
##ejendom
##ejendomme
##ejer
##ejere
##ejern
##ejerne
##ejet
##ejl
##ejle
##ejlet
##ejo
##ejse
##ejser
##eka
##ekammer
##ekamp
##ekanis
##ekes
##ekj
##ekjøtt
##ekl
##ekniker
##eknikk
##ekompetanse
##ekonom
##ekonomi
##ekonomin
##ekonomiska
##ekontor
##ekontoret
##ekontrakt
##ekontrol
##ekost
##ekostnader
##ekreterare
##eksamen
##ekse
##ekt
##ekte
##ekterne
##ektion
##ektionen
##ektiv
##ektive
##ektor
##ektoren
##ektorer
##ektorn
##ekul
##ekvens
##ekyl
##elagen
##elager
##elaget
##elagt
##elagte
##elandet
##elar
##elaterade
##elaterte
##elde
##elder
##eldet
##eldig
##eldige
##elding
##eldingen
##eldinger
##eledam
##eledelse
##eledere
##eleg
##elege
##elej
##eleje
##elektor
##elektronik
##elene
##elengde
##eles
##eless
##elett
##elev
##elevant
##eleverand
##elid
##elie
##elier
##eliga
##eligen
##elighed
##eligheden
##eligheder
##elighet
##eligheten
##elight
##eligvis
##elinjer
##elis
##elister
##eliten
##elk
##ellack
##ellan
##ellem
##ellene
##ellerne
##ellerup
##ellingen
##ellinger
##ellom
##ellow
##ellt
##elm
##elmasse
##eln
##elns
##elo
##elok
##elor
##elos
##elsef
##elsene
##elserna
##elserne
##elsers
##elsesk
##elseskont
##elseskort
##elsesp
##elsk
##elskab
##elskaber
##elskabet
##elskap
##elskaper
##elskapet
##elske
##elsker
##elsæt
##eltoft
##elus
##elv
##elva
##elven
##elygter
##elyset
##elyst
##elæg
##elærere
##elø
##eløb
##eløbet
##eløn
##elønn
##eløp
##eløpet
##eløsning
##eløst
##emade
##emaer
##emaet
##emala
##emalen
##eman
##emand
##emang
##emanget
##emann
##emans
##emar
##emarkedet
##emaskine
##emaskiner
##emat
##emba
##eme
##emedel
##emedlem
##emellan
##emen
##emens
##emenskap
##emente
##ementen
##ementet
##emester
##emi
##emid
##eminarium
##emjol
##emo
##emokrat
##emonster
##emor
##emora
##emot
##emote
##empel
##emper
##emperatur
##ems
##emy
##emæssige
##endals
##ended
##endelse
##endelsen
##endelser
##endelses
##endem
##endende
##endene
##enderar
##endere
##ending
##endom
##endomme
##endrag
##endring
##endringen
##endringene
##endringer
##endskab
##endte
##enen
##eneste
##enfor
##enga
##engas
##engasjem
##engde
##engden
##engder
##engene
##enger
##engt
##enh
##enhavn
##enhed
##enheden
##enheder
##enhest
##enkel
##enmand
##enna
##ennelse
##ennelsen
##ennelser
##ennelses
##ennende
##ennene
##ennes
##enning
##ennlig
##ennom
##ensan
##ensasjon
##ensborg
##ensburg
##ensdatter
##ense
##ensens
##ensigt
##ensionen
##ensioner
##ensis
##ensjon
##enskap
##enske
##enskomm
##ensur
##ensus
##entals
##entarer
##entene
##entera
##enterad
##enterade
##enterat
##enterede
##enterer
##enteres
##enterna
##enterne
##entert
##enterte
##entes
##entets
##entiale
##entiella
##entil
##entin
##ention
##entliga
##entligen
##ento
##entral
##entrene
##entrep
##entreprenør
##entreprenører
##entt
##entuna
##entusia
##entusiaster
##entyr
##eon
##epay
##erad
##erade
##erades
##erande
##erapeut
##erapi
##erar
##erare
##eras
##erat
##erats
##eratur
##eraturen
##erav
##erbjudanden
##erd
##erede
##ereformen
##erem
##eremon
##erenc
##erence
##erencen
##erencer
##ererede
##ererer
##ereres
##erest
##eret
##erfaring
##erhverv
##erial
##erian
##eriella
##erierna
##eriets
##eringar
##eringarna
##eringer
##erk
##erligen
##erm
##erna
##ernas
##ernes
##ersattning
##ersj
##erslev
##ertall
##erte
##erten
##ertif
##ertil
##erty
##erup
##ery
##esa
##esam
##esar
##esat
##escort
##esdal
##esektoren
##eselskapet
##esenter
##esenteret
##esett
##eside
##esign
##esikring
##esis
##esiska
##esjon
##esk
##eskab
##eskabe
##eskader
##eske
##eskift
##eskind
##esko
##eskole
##eskolen
##eskov
##eskrift
##eskrifter
##eskriv
##eskyttelse
##eskyttelses
##esl
##eslag
##esn
##esnes
##esnitt
##esnittet
##esong
##esongen
##espel
##espes
##espesial
##espil
##espill
##espillere
##espillet
##espør
##espørg
##essa
##esser
##esserne
##essig
##essige
##ession
##essioner
##essour
##essur
##estaende
##estall
##estand
##estasjon
##estasjonen
##estasjoner
##este
##esteder
##estedet
##esterett
##esterol
##estil
##estr
##estrand
##estrup
##estud
##estyr
##estyrelsen
##estyrelsens
##esultat
##esund
##esvig
##esy
##esæt
##esø
##esøk
##etab
##etabl
##etag
##etage
##etagen
##etak
##etar
##etaten
##etch
##eteck
##etekt
##etemperatur
##etens
##etera
##etet
##ethe
##etik
##etikk
##etilbud
##etilsynet
##eting
##etips
##etisk
##etiska
##etiske
##etiskt
##etning
##etningen
##etninger
##eto
##etr
##etrad
##etrin
##etræ
##ettan
##ettelse
##ettene
##ettes
##ettet
##etthet
##ettig
##ettigede
##ettiget
##etting
##ettingen
##ettings
##ettverk
##etty
##ety
##etz
##etøj
##etøy
##eus
##eve
##even
##evenemang
##eves
##evi
##evin
##evis
##evision
##evnen
##evner
##examen
##exempel
##exper
##expert
##ext
##ey
##fabri
##fabriken
##fabrikk
##fabrikker
##fac
##faciliteter
##fack
##fad
##fader
##fagel
##fagene
##faglar
##fair
##fakta
##faldende
##falder
##faldet
##falla
##fallande
##falle
##fallen
##fallende
##faller
##faltet
##fam
##familj
##familjen
##familjer
##fanger
##fangst
##fant
##farande
##farandet
##fard
##fardig
##farenhet
##farg
##fargad
##fargade
##fargat
##farge
##farget
##fargkoden
##faringer
##farkt
##farliga
##fars
##farten
##fartyg
##fartøy
##farve
##farvede
##farver
##farvet
##fasta
##fattande
##fattare
##fattelse
##fattende
##fattet
##fattning
##fav
##favorit
##favoritt
##fd
##fedt
##feil
##feir
##feiring
##fejl
##fek
##feksjon
##feksjoner
##fekte
##felle
##feller
##felles
##fellesskap
##felling
##feltene
##felter
##feranse
##feransen
##feranser
##ferd
##ferdig
##ferdige
##ferdighet
##ferdigheter
##feren
##ferens
##ferenser
##fess
##feste
##festede
##festet
##festiv
##fetten
##feud
##ffa
##ffan
##ffar
##ffaren
##ffarer
##ffektiv
##ffektiva
##ffes
##ffici
##fflor
##ffs
##fia
##fib
##fibr
##fibre
##ficka
##fickor
##fid
##fika
##fiken
##fikke
##file
##filen
##filosof
##fina
##finale
##finansi
##finde
##fine
##finerte
##finn
##firande
##firm
##firmaer
##firman
##firmor
##fiskeri
##fix
##fjad
##fjall
##fjar
##fjell
##fjellet
##fk
##flade
##fladen
##flader
##flag
##flaska
##flaskor
##flate
##flaten
##flater
##fli
##flicka
##flickor
##flikt
##flode
##floden
##flodet
##flot
##flow
##flugt
##flyg
##flykt
##flyt
##flytt
##flytta
##flytting
##flyttning
##fløj
##fodbold
##fodd
##fodda
##foged
##foldelse
##folie
##folj
##folja
##foljande
##foljd
##foljer
##foll
##fonder
##fondet
##fonster
##fonstret
##fora
##foral
##foraldrar
##forande
##forandring
##forandringar
##forandringer
##foranstaltninger
##forare
##forbed
##forbin
##forbran
##forbrug
##forbruget
##forbruket
##forbrukning
##forbrukningen
##forbrænding
##forbudet
##forda
##fordelning
##fordon
##fordr
##fordring
##forebyggende
##fored
##forekom
##foreld
##foreldre
##foreldrene
##foreningar
##foreningene
##forenings
##forent
##forespør
##forest
##forestall
##forestallning
##forestil
##forestillinger
##foret
##foretag
##foretagare
##foretagen
##foretaget
##foretak
##foretaket
##foretrad
##forfat
##forfattare
##forfattere
##forhallande
##forhallanden
##forhandling
##forhor
##forhøj
##forhøjelse
##foring
##foringen
##forklar
##forlaget
##forlu
##forlust
##forluster
##forløb
##forløbet
##forløp
##forløpet
##formad
##formade
##formaga
##formagan
##formand
##formanden
##formann
##formar
##formasjon
##formasjonen
##formation
##forme
##formed
##formedling
##formene
##forming
##formul
##formularen
##formularet
##forny
##fornøyd
##fornøyde
##fororen
##forpack
##forpackning
##forrad
##forretninger
##forsakring
##forsakringar
##forsakringen
##forsalj
##forsaljare
##forsaljning
##forsamling
##forsen
##forsik
##forsikringen
##forskare
##forskel
##forskelle
##forskere
##forskjell
##forskjellen
##forskjeller
##forsknings
##forskningsinstituttet
##forskrift
##forskriften
##forsok
##forsorj
##forsorjning
##forsorjningen
##forst
##forstaet
##forstark
##forstatt
##forstor
##forsyningen
##forsøg
##forsøk
##forten
##fortjant
##fortjent
##fortælling
##foruren
##forurening
##forurens
##forvar
##forvaring
##foræl
##forældre
##fossen
##fota
##fotball
##fotboll
##foten
##fotografering
##foton
##fotos
##frag
##fraga
##fragan
##fragas
##fragor
##fragorna
##frakt
##framkallande
##fran
##fransar
##fransk
##fras
##frednings
##fredse
##fredshed
##fredshet
##free
##fremkaldende
##fremmende
##fremt
##frest
##fria
##friend
##frihed
##frister
##fristiga
##frit
##frokost
##fron
##frue
##frug
##frugt
##frugter
##frukost
##frukt
##frukter
##frun
##fry
##frygt
##fsen
##ftene
##ftere
##fterne
##ftersyn
##ftes
##fting
##fton
##fugle
##fuglene
##fugler
##fugt
##fukt
##fuld
##fulde
##fuldt
##fulgt
##fulla
##fulle
##fullmaktige
##fundet
##fungerende
##funksjon
##funksjonen
##funksjoner
##funn
##funnet
##fur
##fyl
##fyld
##fylde
##fyldning
##fyldt
##fyldte
##fylke
##fylld
##fyllda
##fylling
##fyllning
##fyllt
##fylt
##fylte
##fym
##fyn
##fynd
##fyrt
##fysi
##fæl
##fæld
##fælde
##fælge
##fælles
##fællesskab
##fænomen
##færd
##færden
##færdig
##færdige
##færdighed
##færdigheder
##fære
##færen
##fæst
##fæste
##fø
##fødsels
##følelsen
##følg
##følgelig
##følging
##følgning
##følsomhed
##følsomme
##førelse
##førelsen
##føringer
##førselen
##førslen
##førsler
##gaarden
##gaards
##gad
##gaden
##gaet
##gal
##gall
##gande
##gane
##gangar
##gangare
##gangarna
##gange
##ganger
##ganget
##gangne
##garantin
##garda
##gardar
##gardens
##garder
##gardiner
##gare
##garen
##garna
##gaser
##gass
##gasser
##gast
##gaster
##gat
##gatan
##gate
##gaten
##gations
##gava
##gavene
##gaves
##gavor
##gd
##gde
##gden
##gear
##geb
##geir
##geland
##gelig
##geligt
##gelsen
##gelser
##gelses
##gender
##generat
##genes
##gennem
##gennemsnit
##gennemsnittet
##genom
##genskaper
##genstande
##gerande
##geri
##gerne
##gesen
##gett
##getøj
##gevin
##gevinst
##gge
##ggen
##ggende
##ggene
##gger
##gges
##gget
##gging
##ggings
##gh
##gick
##gicks
##gien
##giene
##giftene
##gig
##gigt
##gik
##gikk
##gilt
##ginal
##girls
##giro
##gis
##gisk
##giske
##git
##gitt
##gitte
##givande
##givare
##givaren
##givarna
##give
##givelsen
##givelser
##givere
##givers
##gives
##giving
##givit
##givna
##givne
##gje
##gjeld
##gjen
##gjeng
##gjengelig
##gjengen
##gjenger
##gjengere
##gjennom
##gjennomsnittet
##gjer
##gjerd
##gjering
##gjord
##gjorda
##gjordes
##gjorts
##gjut
##gjød
##gjødsel
##gjør
##gjøre
##gjørelse
##gjørende
##gjøres
##gjøring
##glad
##glada
##glade
##gladje
##glans
##glasogon
##glede
##glom
##glæde
##gm
##gn
##gna
##gne
##gner
##gnos
##gode
##godis
##gods
##godsel
##godtgjørelse
##godtgørelse
##gol
##golv
##golvet
##gom
##gon
##gor
##gora
##gorande
##gorelse
##goring
##gorit
##gos
##got
##gott
##gradde
##grade
##gradere
##grammene
##grammer
##gran
##grand
##grann
##grans
##gransen
##grar
##gras
##grat
##gratang
##greb
##grense
##grensen
##grenska
##grep
##grepet
##grepp
##gress
##gressen
##grib
##gribende
##grid
##grill
##grip
##gripande
##gripende
##gron
##grona
##grunda
##grunde
##grunder
##grundlag
##grundlaget
##grunn
##grunnen
##grunnlag
##grunnlaget
##gruppa
##gruppene
##grupperna
##grupperne
##gry
##gryn
##gryta
##græn
##grænse
##grænsen
##grænser
##græs
##grø
##grød
##grøn
##grønn
##gstad
##gubb
##gul
##gull
##gulv
##gur
##gutt
##gyld
##gymnas
##gymnasiet
##gæld
##gæng
##gænger
##gængere
##gæster
##gødning
##gør
##gøre
##gørelse
##gørelsen
##gørelsens
##gørelser
##gørelses
##gørende
##gøres
##gøring
##habilitering
##hack
##haft
##haftande
##haga
##hage
##haha
##hald
##hale
##halla
##hallande
##hallanden
##hallandet
##hallar
##hallare
##hallaren
##hallas
##halle
##hallet
##hallna
##hallning
##hallningen
##halls
##hals
##halsa
##halsan
##halso
##halsom
##halt
##halten
##hamar
##hammar
##hamnen
##hampton
##hamt
##hamta
##hamtning
##handa
##handbok
##handelen
##handeln
##handen
##handla
##handlare
##handle
##handlen
##handleren
##handlingar
##handlingarna
##handlingene
##hands
##handskar
##handsker
##handverk
##handværk
##hang
##hangare
##hans
##hant
##hanter
##hantering
##hanteringen
##hantverk
##harda
##harede
##haret
##harig
##hariga
##harina
##harmon
##hart
##has
##hastar
##hastighed
##hastigheden
##hau
##haug
##haugen
##hava
##havande
##havar
##havare
##havaren
##havarna
##have
##haven
##havende
##havender
##havere
##havne
##havnen
##haw
##hc
##hde
##hea
##hede
##hedens
##heder
##heds
##hedsg
##hefte
##hegn
##hei
##heia
##heimen
##heimer
##heit
##helgen
##helmina
##helse
##helset
##helsetjenesten
##helt
##hemmede
##hemmet
##hems
##henburg
##hend
##heng
##henger
##hengere
##hengig
##hengige
##hengighet
##hente
##herad
##herre
##herred
##heste
##hetene
##hetens
##heterna
##hett
##heving
##hf
##hib
##hild
##him
##himmer
##hinden
##hinder
##hinnan
##historia
##historiska
##hjal
##hjalp
##hjalpen
##hjalpmedel
##hjartat
##hjelm
##hjelp
##hjelpen
##hjelper
##hjelps
##hjemme
##hjer
##hjert
##hjæl
##hjælp
##hjælpen
##hjælper
##hjælpere
##hjælps
##hjørne
##hlin
##hockey
##hode
##hodet
##hoff
##hog
##hoga
##hogskolan
##hoj
##hojd
##hojden
##hojning
##holdelsen
##holdelses
##holdende
##holdenhed
##holderen
##holdig
##holdte
##hole
##holl
##hoo
##hoppen
##hopping
##horda
##horde
##hordland
##horighet
##hormon
##horna
##hort
##hos
##hosp
##hospitalet
##host
##hotel
##hoteller
##hotellet
##hou
##houg
##hout
##hoveder
##hovedet
##hre
##hro
##hts
##htseeing
##hua
##hug
##hugg
##hugger
##hul
##hule
##hulen
##hull
##huller
##hullet
##hult
##hundar
##hunde
##hunder
##hundra
##huse
##husen
##hushall
##hust
##huvud
##huvudet
##hverdag
##hverdagen
##hverv
##hvervet
##hvid
##hvide
##hvit
##hydr
##hygge
##hygiej
##hygiejne
##hygien
##hyll
##hylla
##hyllan
##hyr
##hytt
##hytta
##hyttan
##hz
##hæ
##hæft
##hæfte
##hæl
##hænd
##hæng
##hængende
##hænger
##hængt
##hæv
##hæves
##høg
##høgskole
##høgskolen
##høj
##højde
##høje
##højeste
##højskole
##højskolen
##højt
##hørende
##hører
##hørighet
##høy
##høyde
##høyden
##høye
##iale
##ialer
##ialet
##ialis
##ialt
##iam
##iander
##iane
##ianne
##ianska
##iation
##iativer
##ibe
##ibet
##ibi
##ibla
##iblandt
##iblant
##ibli
##ibning
##ibos
##ibosome
##ibr
##ibre
##icas
##icen
##icens
##icera
##icere
##icerede
##icerer
##iceres
##iceret
##ichef
##icher
##icil
##icillin
##icka
##ickan
##ickar
##ickl
##ickor
##icyn
##idakt
##idar
##idare
##idd
##iddel
##iddende
##idelse
##idelser
##idem
##idende
##idene
##idenhed
##idenskab
##idepartementet
##iderede
##ideres
##ideret
##iderna
##iderne
##iders
##idert
##iderte
##idet
##iditet
##idlet
##idningar
##idningen
##idor
##idrett
##idrott
##idræt
##idsen
##idser
##idset
##idt
##idte
##idth
##ieffe
##iej
##iell
##iend
##iender
##iene
##ienes
##iera
##ierad
##ierade
##ierat
##ierede
##ieres
##ieret
##ierna
##iernes
##iert
##ierte
##ietter
##iety
##iev
##iews
##iffer
##ification
##ificere
##ificerede
##ificerer
##ificeres
##ificeret
##ificering
##ifier
##ifiera
##ifierad
##ifierade
##ifierat
##ifiering
##ifikasjon
##ifikat
##ifisering
##ifisert
##ifiserte
##ifra
##ifran
##ifta
##igad
##igade
##igande
##igar
##igare
##igas
##igaste
##igede
##igelse
##igelsen
##igelser
##igende
##igennem
##igenom
##igeret
##igg
##iggande
##iggare
##igger
##ighed
##igheden
##igheder
##ighederne
##igheds
##ighetene
##igheterna
##ighets
##igner
##ignet
##igning
##igo
##igr
##igter
##igtig
##igtige
##igtigelse
##igtigt
##igur
##igvis
##ih
##iiii
##iing
##ija
##ijer
##ikale
##ikan
##ikanska
##ikanske
##ikant
##ikap
##ikapp
##ikar
##ikas
##ikasjon
##ikasjonen
##ikasjoner
##ikate
##ikatorn
##ikel
##ikens
##ikern
##ikerna
##ikkel
##ikkelse
##ikkens
##ikkerhed
##ikkerheden
##ikkerhet
##ikkerheten
##ikkerne
##iklar
##iklene
##iklerne
##iklin
##iknande
##ikopt
##ikopter
##ikor
##ikos
##ikott
##ikrede
##ikret
##ikring
##ikringer
##ikte
##ikter
##iktet
##iktig
##iktigt
##iktion
##ikyr
##ilable
##ilar
##ilbehør
##ilbudet
##ilda
##ildsen
##ildt
##iled
##ileg
##ilegi
##iles
##iley
##ilfælde
##ilgang
##ilia
##ilianske
##ilien
##ilig
##iling
##ilja
##iljan
##ilje
##iljo
##iljon
##illadelse
##illan
##illar
##illas
##illatelse
##illbehor
##illede
##illeder
##illedet
##illegg
##illelse
##illende
##illene
##illere
##illerød
##illgang
##illi
##illin
##illingen
##illinger
##illings
##illit
##illkor
##illon
##illstand
##illverk
##illy
##illæg
##ilm
##ilo
##ilskud
##ilskudd
##ilsynet
##iltak
##ilte
##ilton
##ilæ
##imal
##imals
##imalsfargkoden
##iman
##imat
##imb
##imellem
##imellom
##imen
##imene
##imensjon
##imes
##imi
##imir
##imler
##imma
##immar
##imod
##imot
##imul
##inale
##inalen
##inarie
##inasjon
##inat
##inationen
##inationer
##indal
##inddragelse
##indede
##indehaver
##indeksen
##indel
##indende
##indes
##indet
##index
##indfl
##indhold
##indholdet
##inding
##indiv
##indkomst
##indkøb
##indlæg
##indra
##indre
##indretning
##indsamling
##indsat
##indsats
##indsatsen
##indsigt
##indstilling
##indstillinger
##indt
##indtag
##indtægt
##indtægter
##industrin
##inem
##inene
##inent
##inerad
##inerade
##inerande
##inerats
##inerede
##ineret
##inering
##inerna
##inerne
##inert
##inerte
##inett
##inettet
##infar
##infeksjon
##infektioner
##inflamm
##inflammation
##informasjon
##informasjonen
##informationer
##ingarna
##ingborg
##ingelsene
##ingelser
##ingene
##ingenjor
##ingent
##ingenten
##ingerne
##inglar
##ingles
##ingo
##ingsanlæg
##ingsarbeid
##ingsarbeidet
##ingsas
##ingsdag
##ingsforløb
##ingsloven
##ingsm
##ingsmid
##ingsmiddel
##ingsmidler
##ingsmuligheter
##ingsverktøy
##inister
##injen
##inka
##inkar
##inkel
##inkler
##inkomst
##inkomsten
##inks
##inlagg
##innade
##innan
##innande
##innar
##innas
##innd
##innede
##innehall
##innehallet
##innehav
##innene
##innes
##innhold
##innholdet
##innkjøp
##innlegg
##innlegget
##innor
##innredning
##inns
##innsats
##innskudd
##innstillinger
##inntak
##inntaket
##inntekt
##inntektene
##inntekter
##inntrykk
##inredning
##inrikt
##inriktad
##insamling
##insats
##insatser
##inse
##insen
##insi
##inska
##inspekt
##inspektionen
##inspektionens
##inspektør
##inspel
##installasjoner
##installation
##installationer
##installningar
##instinkt
##instit
##institusjon
##institusjonene
##institusjoner
##institutet
##institution
##institutionen
##institutioner
##institutt
##institutter
##instrukt
##instruktør
##instrum
##instrument
##intag
##intakter
##integ
##inten
##interess
##interesse
##interesserede
##interesserte
##interval
##intervall
##interview
##intet
##intill
##intra
##intress
##intresse
##intressen
##intresserad
##intresserade
##intresset
##ints
##intyg
##inv
##invester
##ional
##ionde
##ionens
##ionerede
##ionerna
##iop
##iosa
##iost
##iot
##iotal
##iotalet
##ioter
##ipa
##ipan
##iper
##ipl
##ipler
##ipolit
##ippa
##ipper
##ippet
##ippi
##ipro
##iprodu
##iprodukter
##ipros
##ipt
##irasjon
##irca
##ireg
##irekt
##irekte
##irektiv
##irektivet
##irektor
##irektorat
##irektoratet
##irektoratets
##irektøren
##irer
##ires
##iri
##irig
##irke
##irken
##irker
##irket
##irkninger
##irksomhed
##irl
##irm
##irma
##irts
##irur
##irut
##isar
##isarna
##isbrug
##ische
##ischer
##isco
##isem
##isene
##isera
##iserad
##iserade
##iserande
##iserar
##iseras
##iserat
##iserats
##iserede
##iseren
##iseret
##iseringer
##iserings
##isers
##iserte
##ises
##iset
##isha
##ished
##isiko
##isin
##isiner
##isionen
##isitet
##isjon
##isjonen
##isjoner
##iska
##iskab
##iskan
##iskap
##isken
##iskor
##iskt
##ismene
##ismer
##issar
##issene
##isserne
##isset
##issi
##issioner
##isson
##isst
##issær
##istad
##istans
##isted
##istene
##istenes
##isterande
##isteren
##isteri
##isteriets
##isterium
##isterna
##isternas
##isterne
##isternes
##isters
##istiken
##istikk
##istiska
##istiskt
##istrat
##istrativa
##istrer
##istri
##istrik
##istriktet
##istrup
##itage
##italer
##italet
##itallet
##itan
##itara
##itasjon
##itativ
##itative
##iteen
##itende
##itenskap
##itere
##iteret
##iterna
##itert
##itil
##itima
##itime
##iting
##itionen
##itis
##itiva
##itsj
##itta
##ittande
##ittel
##ittelen
##ittelse
##ittene
##itteratur
##itterne
##ittet
##ittning
##ituasjon
##ituasjonen
##ituasjoner
##itude
##itum
##itusjon
##itutter
##ityd
##itær
##ivaet
##ivaler
##ivan
##ivande
##ivare
##ivat
##iveau
##ivene
##ivenhet
##iverne
##iverset
##iversitet
##ivert
##ivil
##ivind
##ivisjon
##ivit
##ivitet
##iviteter
##ivl
##ivna
##ivning
##iza
##ized
##izen
##izo
##iører
##iøs
##iøse
##iøst
##jab
##jacka
##jackan
##jackor
##jad
##jade
##jafør
##jag
##jagt
##jakker
##jakten
##jal
##jala
##jall
##jalp
##jalv
##jam
##jamt
##jande
##jandet
##jans
##janst
##jansten
##janster
##jant
##jard
##jare
##jaren
##jarn
##jarna
##jart
##jarta
##jarvi
##jat
##jav
##jed
##jede
##jeden
##jef
##jefen
##jej
##jejer
##jek
##jekk
##jekter
##jektet
##jel
##jeld
##jell
##jeller
##jeloven
##jelp
##jem
##jema
##jemmet
##jenest
##jenesteloven
##jenestene
##jenestens
##jennom
##jenta
##jentene
##jenter
##jerg
##jerna
##jernen
##jernet
##jert
##jerte
##jesel
##jev
##jic
##jing
##jj
##jk
##jning
##jobben
##jobber
##jobbet
##jock
##jod
##jof
##jok
##jol
##jolk
##joner
##jons
##jorda
##jorde
##jorden
##jorer
##jorn
##jorna
##jorte
##jos
##jot
##journ
##journalen
##journalist
##jsa
##jt
##jta
##jter
##jting
##jud
##juice
##juk
##juka
##jukan
##jukt
##jung
##junga
##jungar
##junktur
##junkturen
##jup
##jur
##jus
##jut
##juta
##juter
##jylland
##jysk
##jyske
##jæl
##jælp
##jær
##jøen
##jønn
##jør
##jøre
##jøring
##jøtt
##kad
##kade
##kage
##kagen
##kager
##kak
##kaka
##kakan
##kake
##kaker
##kakor
##kalas
##kald
##kalde
##kaldelse
##kaldende
##kalder
##kaldes
##kaldt
##kaldte
##kalen
##kalla
##kallande
##kalle
##kallende
##kalling
##kalt
##kameran
##kameror
##kammare
##kammaren
##kammerat
##kammerater
##kampanj
##kampe
##kamper
##kamrat
##kamrater
##kanalen
##kand
##kande
##kandidat
##kann
##kanna
##kannande
##kannas
##kans
##kansla
##kanslan
##kanslighet
##kanslor
##kanter
##kapasitet
##kapten
##kara
##karaktar
##kare
##karen
##karl
##karlek
##karlen
##karna
##karta
##kass
##kassa
##kaste
##kaster
##kastning
##kateg
##kategor
##kategori
##kategorin
##katt
##kd
##ked
##kedja
##kedjan
##kedjor
##kegaard
##kelen
##kelig
##kelige
##kelse
##kelser
##kem
##kend
##kendelse
##kender
##kendes
##kendt
##kendte
##kene
##kenes
##keren
##kering
##kerner
##kers
##kerød
##kess
##kester
##kete
##ketøy
##kig
##kigt
##kingen
##kirk
##kirt
##kirtlen
##kirur
##kja
##kje
##kjede
##kjeden
##kjeder
##kjemp
##kjen
##kjenn
##kjenning
##kjent
##kjente
##kjert
##kjoler
##kjærlighet
##kjø
##kjøkken
##kjøl
##kjønn
##kjøp
##kjør
##kjøre
##kjørende
##kjøretøy
##kjøring
##kjøringen
##kjørt
##kjøtt
##kjøttet
##kked
##kkedes
##kkelen
##kkeligt
##kkels
##kkelsen
##kkelser
##kkelt
##kkens
##kkerne
##kkete
##kking
##kkje
##kko
##klack
##klad
##kladd
##kladda
##klade
##klader
##kladerna
##klaga
##klagar
##klagede
##klagenævnet
##klan
##klang
##klanning
##klap
##klara
##klaration
##klas
##klasses
##klat
##kledd
##kledde
##klede
##klen
##klene
##kler
##kles
##kli
##klicka
##kligen
##klikk
##klinik
##kliniken
##klinikk
##klinikker
##klip
##klipper
##klippt
##klocka
##klor
##klotet
##klub
##klubbar
##klus
##klæd
##klæde
##klæder
##klædning
##klædnings
##klædt
##klædte
##klæringen
##kløver
##knapp
##knappar
##kningar
##kningene
##kninger
##knings
##knipp
##knu
##kod
##kog
##kollen
##komiteen
##komlig
##komliga
##komligt
##komma
##kommand
##kommande
##kommelig
##kommelighet
##kommendes
##kommentarer
##kommere
##kommit
##kommor
##kommune
##kommunene
##kommunikasjon
##komna
##kompan
##kompet
##kompetanse
##kompeten
##kompetence
##kompetencer
##kompetens
##kompis
##kompisar
##koms
##koncentr
##koncer
##koncert
##kondition
##konf
##konferanse
##konferansen
##konferens
##konfl
##kong
##kongen
##konkur
##konkurran
##konkurranse
##konkurransen
##konkurren
##konkurrence
##konse
##konsent
##konsept
##konser
##konsert
##konsol
##konsolidering
##konst
##konstruksjoner
##konstruktioner
##konsult
##konsumtion
##kontakter
##konton
##kontrol
##konvensjon
##konvensjonen
##koordinator
##koping
##kopings
##kopp
##kopper
##koppling
##kord
##korder
##kore
##korg
##korgen
##korna
##korning
##korps
##korv
##kose
##kostnad
##kostnaden
##kostnadene
##kostnaderna
##kostningerne
##kott
##kout
##kraften
##krafter
##kram
##krat
##kravene
##kravet
##kred
##kredit
##kreds
##kredse
##kredsen
##kreft
##krefter
##krem
##kretsen
##kretær
##krevende
##krigen
##kriget
##kriter
##kritik
##kritikk
##krog
##krok
##kroner
##krop
##kroppar
##kru
##kry
##kryd
##kryss
##kræ
##kræft
##kræfter
##ksene
##kset
##ksis
##ksjon
##ksjonen
##ksjonene
##ksjoner
##ksomhed
##ksomhet
##ksprut
##ktail
##ktar
##ktede
##ktene
##ktere
##ktert
##ktes
##kteskap
##ktet
##ktiga
##ktige
##ktigt
##ktil
##ktions
##ktis
##ktiver
##ktligen
##kton
##ktop
##ktorat
##ktorn
##ktur
##ktyg
##ktygen
##ktører
##ktøy
##kugle
##kugler
##kull
##kult
##kulturen
##kun
##kunn
##kunnskap
##kunnskaper
##kunskap
##kunskaper
##kunsten
##kup
##kurran
##kurren
##kursen
##kurset
##kursus
##kurv
##kust
##kusten
##kvall
##kvallar
##kvallen
##kvarn
##kveld
##kvelder
##kvenser
##kvent
##kvinder
##kvinn
##kvinnor
##kvist
##kvæg
##kynd
##kyndig
##kyndige
##kyr
##kyrka
##kyrkan
##kyst
##kæde
##kæden
##kæder
##kælder
##kær
##køb
##københavn
##købing
##kød
##kødet
##køkken
##køl
##kør
##kørende
##kørsel
##kørslen
##lac
##lack
##lada
##ladan
##ladd
##laddning
##lades
##ladning
##lador
##lads
##ladsen
##ladser
##ladt
##laga
##lagare
##lagd
##lagda
##lagde
##lagene
##lagenhet
##lagga
##laggande
##laggare
##laggas
##lagger
##lagget
##laggning
##laggningar
##laggningen
##laggs
##lagret
##lah
##lakare
##lakt
##lament
##lamentet
##lamm
##lamn
##lampa
##lampan
##lampe
##lamper
##lampor
##landa
##landene
##landsk
##landska
##landskab
##landskapet
##landske
##landt
##langd
##lange
##langes
##langt
##laning
##lank
##lanken
##lanning
##lanningar
##lans
##lanter
##lapp
##lappar
##lappen
##larare
##lare
##laren
##larm
##larna
##larnas
##lasa
##lasare
##lasning
##laste
##latande
##late
##lates
##lats
##latt
##lau
##laus
##lavede
##lavet
##lax
##ldyr
##leb
##leby
##ledare
##ledaren
##ledarna
##ledd
##ledelsen
##lederen
##ledet
##ledningar
##lednings
##legemer
##legene
##leger
##legetøj
##legge
##leggelse
##legger
##legges
##legget
##legging
##leggingen
##lei
##leie
##leik
##leir
##leis
##lej
##leje
##lejen
##lejer
##lejet
##lejlighed
##lejning
##lejr
##lejren
##lekar
##leken
##lekk
##leksaker
##lektion
##lektioner
##lel
##lementer
##lemer
##lemet
##lemm
##lemme
##lemmene
##lemmerne
##lend
##lender
##lenes
##leng
##lengde
##lens
##lerose
##lert
##lerud
##lerup
##lesen
##leser
##lesere
##lesing
##lesk
##leskab
##lesning
##lespil
##lest
##lestad
##lestelse
##lesund
##lete
##lets
##leva
##levej
##levelsen
##levelser
##leven
##leverans
##leverant
##leverantor
##leverantorer
##levering
##levnad
##lf
##lia
##lian
##liber
##libris
##lich
##lien
##liet
##liga
##ligan
##ligare
##ligaste
##ligen
##liget
##ligevel
##liggande
##liggender
##liggor
##liggora
##lighed
##ligheden
##ligheder
##lighederne
##lighetene
##lighetens
##ligheterna
##lights
##lign
##ligter
##ligvis
##lika
##likasjon
##likasjoner
##like
##liket
##likevel
##likk
##likken
##liknande
##likning
##likter
##lima
##lina
##lind
##liner
##linga
##lingar
##lingarna
##lingene
##lingor
##liniken
##linja
##lip
##lipp
##lir
##lis
##listan
##listene
##listor
##lite
##liten
##litter
##live
##lix
##lju
##ljud
##ljus
##lla
##llan
##lle
##llen
##ller
##lleri
##llet
##llop
##llor
##llt
##load
##lod
##lof
##logg
##lokal
##lonen
##lop
##lopande
##loppet
##lorna
##losa
##losen
##loshet
##losning
##losningar
##losningen
##loss
##lossning
##lost
##losta
##lots
##lott
##lotta
##loud
##lova
##lovak
##lovakia
##lsberg
##lub
##lubben
##luck
##lukt
##lunda
##lunds
##lur
##lus
##lust
##lutning
##lyck
##lyden
##lyft
##lyn
##lysende
##lyser
##lyses
##lyset
##lysning
##lytt
##lywood
##læ
##læde
##læden
##læder
##læg
##læge
##lægen
##læger
##lægge
##læggelse
##læggelsen
##læggelser
##lægger
##lægges
##lægning
##lægningen
##læn
##lænd
##lænder
##lændere
##lænderne
##læng
##længde
##lærere
##læring
##lært
##læs
##læse
##læser
##læsning
##læst
##lø
##løb
##løbende
##løber
##løbet
##løg
##løk
##løkka
##løn
##lønn
##løp
##løpende
##løpet
##løsende
##løser
##løshed
##løshet
##løy
##m2
##mack
##macka
##made
##maden
##madras
##madrass
##mag
##magas
##magasinet
##mager
##magt
##magten
##main
##makare
##maker
##making
##maktig
##maktige
##maktiges
##mala
##malade
##malede
##malen
##malm
##malning
##maltid
##mamma
##manad
##manaden
##manaderna
##mand
##manden
##mands
##manedene
##manederne
##mangfold
##mani
##manland
##manlands
##mannens
##mannet
##manning
##manniska
##manniskor
##mansk
##mant
##map
##mappe
##maraton
##marg
##mari
##marin
##marka
##marke
##markeder
##market
##marknad
##marknaden
##marknader
##markt
##marna
##mars
##marta
##maske
##maskine
##maskinerne
##mass
##massa
##massan
##massasje
##massig
##massiga
##massigt
##massor
##mast
##mastare
##mastaren
##matare
##matchen
##mate
##mater
##material
##materiell
##matisk
##matiske
##matning
##matningar
##mats
##matt
##matta
##mattan
##mattor
##mband
##medal
##medalj
##medarbejder
##meddelande
##meddelanden
##meddelandet
##mede
##medel
##medels
##medisin
##medlemmar
##medlet
##medvirkning
##meget
##mekan
##mektig
##melade
##melde
##meldelse
##meldelser
##meldingen
##meldingene
##melk
##mene
##mengde
##mengden
##menn
##menne
##mennene
##mennesk
##mennesker
##mens
##mentert
##menu
##menuen
##meny
##menyen
##menyn
##mera
##mere
##merende
##merk
##merke
##merkede
##merkene
##merker
##merkes
##merket
##merking
##merkninger
##merne
##mers
##mess
##messig
##messige
##mestere
##mesteren
##mestre
##metal
##metall
##metod
##metode
##mh
##mhart
##mhjert
##miar
##miaren
##middagen
##midlene
##midt
##miks
##milj
##miljo
##miljoer
##miljon
##mina
##mind
##minde
##mindre
##minen
##minist
##ministeriet
##ministeriets
##ministern
##minn
##minne
##minner
##minnes
##mis
##misbrug
##misbruk
##misjon
##miss
##missbruk
##mitt
##mix
##mjol
##mjolk
##mmade
##mman
##mmande
##mmar
##mmas
##mmat
##mmeb
##mmelighed
##mmeligheder
##mmeligt
##mmels
##mmelse
##mmelsen
##mmelser
##mmelt
##mmenes
##mmeret
##mmering
##mmerne
##mmest
##mmi
##mmingen
##mn
##mnd
##mnda
##mob
##mobler
##mode
##model
##modern
##moderne
##modig
##modning
##modtagere
##modus
##moen
##moj
##mojligheter
##mol
##mom
##moment
##monopol
##monster
##monteret
##montert
##morgen
##morgon
##mork
##mose
##mosf
##mote
##moten
##motet
##motorn
##motstand
##mottagning
##mottagningen
##mottak
##mpe
##mpel
##mper
##mperatur
##mperaturen
##mpet
##mping
##mte
##mulighed
##muligheder
##mulighederne
##muligheter
##mun
##muren
##murer
##musikk
##musikken
##myk
##myndighed
##myndigheden
##myndighetene
##myndigheter
##myr
##myra
##mys
##mægtig
##mæl
##mælk
##mænd
##mændene
##mængde
##mængden
##mær
##mærk
##mærke
##mærkede
##mærker
##mærket
##mærkning
##mæss
##mæssig
##mæssige
##mæssigt
##møbler
##mød
##møde
##møder
##mødet
##møl
##mølle
##møller
##møn
##møre
##møte
##møter
##møtet
##nabb
##nack
##nade
##nadene
##nades
##nads
##nak
##namn
##namnd
##namnda
##namnden
##namndens
##namnet
##nan
##nande
##nandet
##nant
##napp
##nara
##nare
##naren
##naring
##naringen
##narna
##nars
##nasjon
##nast
##nastik
##natet
##nationen
##nats
##natten
##natter
##natur
##natverk
##nav
##navne
##nda
##ndal
##ndalen
##nden
##ndene
##nderne
##nderslev
##ndt
##neg
##negle
##nel
##nemm
##nemmelig
##nemmelse
##nemnd
##nemnda
##nep
##neret
##nerne
##nerup
##neset
##nesk
##nete
##nettverk
##netværk
##neut
##nev
##nevnt
##nevnte
##nic
##nick
##niers
##nig
##nin
##ninga
##ningar
##ningarna
##ningarnas
##ningene
##ningens
##ningerne
##ningsanlegg
##ningsanlæg
##ningsbar
##ningsbara
##ningsfor
##ningsforetag
##ningsformaga
##ningsgrad
##ningsl
##ningsloven
##ningsmedel
##ningsmidler
##ningsmuligheder
##ningsomrade
##ningss
##ningssatt
##ningsstod
##ningst
##ningstid
##ningsuppgifter
##nisk
##niska
##niske
##niss
##nivaet
##nivan
##niveau
##niveauer
##niveauet
##nne
##nner
##nod
##nojd
##noje
##non
##norge
##norsk
##norske
##nos
##nost
##noter
##notter
##nsberg
##nsjef
##ntb
##nte
##num
##numret
##nur
##nus
##nyck
##nyckel
##nygg
##nyttelse
##næring
##næringen
##næst
##nævn
##nævnet
##nævnte
##nø
##nød
##nødder
##nøg
##nøgle
##oar
##oaren
##oarer
##oarna
##oat
##oba
##obb
##obel
##oben
##obje
##objekter
##oblem
##oblemer
##oblet
##obligationer
##obok
##obs
##observ
##oca
##oces
##ociale
##ocka
##ockan
##ocke
##ocken
##ocker
##ockey
##ockor
##ocol
##oczny
##odag
##odagen
##odda
##odde
##odel
##odellen
##odene
##odens
##oderna
##oderne
##odi
##odis
##odkendelse
##odling
##odo
##odokse
##odral
##odser
##odtgørelse
##odu
##oduler
##odynam
##oed
##oende
##oes
##ofa
##offa
##offerne
##ofile
##ofilm
##ofix
##ofog
##ofs
##ofta
##oftande
##ogat
##oger
##ogg
##ogl
##ogna
##ogne
##ognen
##ogon
##ogonen
##ografien
##ografiska
##ogs
##ogt
##oider
##oil
##ois
##oja
##ojd
##ojda
##oje
##ojekt
##ojekter
##ojligheter
##ojning
##ojo
##ojor
##ojt
##okale
##okaler
##okalet
##okan
##okande
##okar
##okare
##okat
##okem
##oklad
##oklip
##oklipp
##oklub
##okning
##okningar
##okningen
##oko
##okoll
##okon
##okort
##okost
##okr
##okrater
##okratisk
##oksen
##okset
##oksid
##okt
##okta
##okumenter
##olag
##olan
##oland
##olaps
##oldater
##olde
##older
##oldt
##olene
##olerans
##oleranse
##olerne
##oleum
##olie
##olien
##oligende
##oliger
##olitik
##olitikk
##oliv
##olja
##oljan
##olje
##oljor
##olket
##olkning
##olla
##ollar
##ollene
##ollo
##ologene
##ologerne
##ologin
##ologiska
##ologiskt
##ologist
##ols
##olusjon
##olusjonen
##olutionen
##olv
##olvet
##olyck
##olycka
##olyckor
##olym
##omal
##omar
##omat
##ombudet
##ombudsmannen
##oment
##ometeret
##ometern
##ometr
##ometri
##omgang
##omin
##omiske
##omiteen
##omkostninger
##omkostningerne
##ommar
##ommaren
##ommarna
##ommelig
##ommelige
##ommende
##ommene
##ommeren
##ommerne
##ommes
##ommet
##ommunikasjon
##ommunikation
##ompan
##omra
##omraden
##omradena
##omradene
##omraderne
##omsp
##omst
##omstolen
##omsætning
##omy
##onas
##onasjon
##onderer
##ondet
##ondition
##onerande
##onere
##onerede
##onerer
##onering
##onerne
##onert
##onerte
##onkurran
##online
##onning
##onny
##ono
##onor
##onse
##onsen
##onsulent
##onsult
##onten
##ontroller
##onus
##onyma
##onyme
##oom
##ooo
##oooo
##opa
##opdat
##open
##operasjon
##operasjoner
##operat
##opfyld
##opgave
##opgaven
##opgaver
##opgør
##opgørelse
##opgørelsen
##ophold
##oping
##opkald
##oplan
##oplev
##oplevelse
##oplevelsen
##oplevelser
##oplys
##oplysninger
##oplysningerne
##oplæg
##opolit
##opos
##oppa
##oppar
##opparna
##oppdrag
##oppdrett
##oppe
##oppede
##oppene
##oppens
##opperne
##oppfølging
##oppgang
##oppgave
##oppgaven
##oppgavene
##oppgaver
##oppgjør
##oppgjøret
##opphold
##opplegg
##opplegget
##opplev
##opplevelse
##opplevelsen
##opplevelser
##opplys
##opplysning
##opplysninger
##opplær
##opplæring
##opplæringen
##oppna
##oppnaelse
##oppning
##oppsett
##oppt
##opptak
##opr
##oproblem
##opskrifter
##opslag
##optagelse
##optagelser
##opter
##optimal
##optimalisering
##opæd
##oral
##orator
##orca
##orda
##ordan
##ordane
##ordenen
##ordes
##ordforande
##ordnad
##ordnade
##ordnare
##ordningar
##orelsen
##orene
##orerna
##orerne
##orff
##organer
##organet
##organisasjon
##organisasjonen
##organisasjonene
##organisasjoner
##orger
##orges
##orgon
##orgrad
##oriasis
##orie
##orienterede
##orienteret
##orientering
##orientert
##orienterte
##orin
##oring
##oriseret
##orisert
##orisk
##oriteter
##oritt
##oritter
##orj
##orjning
##orl
##orld
##orlov
##orlunda
##orme
##ormon
##ormoner
##orna
##ornas
##ornet
##orno
##orns
##orr
##orrar
##orren
##orry
##orse
##orta
##orteføl
##ortene
##ortere
##ortering
##orterna
##ortert
##ortiment
##ortt
##orv
##orvet
##osaur
##oseks
##oselig
##osene
##osex
##osis
##osisjon
##osisjonen
##osisjoner
##osjon
##osp
##ospel
##ossa
##osser
##osta
##oste
##ostern
##ostnader
##ostrup
##ostyring
##osyn
##osystem
##otekn
##oteknik
##otel
##otell
##otene
##otera
##otere
##otering
##oterna
##oterte
##otet
##otiska
##otograf
##otokol
##oton
##otop
##otor
##otta
##otterna
##otto
##oty
##otyp
##otyper
##oul
##ound
##ount
##oux
##ovad
##ovagen
##ovan
##ovande
##ovar
##ovare
##ovasjon
##ovation
##oved
##ovede
##ovej
##ovens
##overe
##overenskom
##overfladen
##overflaten
##overforing
##overføring
##overførsel
##overgripande
##overing
##overket
##overn
##oversigt
##oversigten
##overskr
##overskridande
##overskridende
##overtræ
##overvagning
##overvaking
##overvakning
##overvej
##ovi
##ovide
##ovis
##ovit
##ovl
##ovlar
##ovne
##ovnen
##ovner
##ovning
##ovningar
##ovre
##oværd
##owanych
##owser
##pac
##pacitet
##paciteten
##pack
##packning
##pact
##padd
##pade
##padvisor
##page
##paj
##pak
##paket
##paketet
##pakka
##pande
##panelen
##pann
##panna
##pannan
##pannor
##pap
##papp
##papper
##pappers
##parat
##parende
##parkering
##parlam
##parna
##parret
##partement
##partementets
##partiets
##party
##pasar
##pase
##pasi
##pasienter
##passa
##passasjer
##passende
##passer
##past
##pasta
##patienter
##patroner
##paus
##paverk
##paverkan
##pavirk
##pavirkning
##pede
##pek
##pekt
##pelare
##pelet
##pell
##pende
##pendent
##pene
##peng
##pengar
##pengene
##penger
##penning
##pensjon
##peppar
##perat
##peraturen
##period
##perioder
##perne
##pers
##personal
##personale
##personalen
##personalet
##personell
##perten
##pest
##petanse
##pete
##peten
##peut
##peuter
##phia
##phy
##piga
##pige
##pigen
##piger
##pigerne
##pike
##piker
##pill
##pille
##pillet
##pilot
##pin
##pind
##pinde
##pine
##pinnar
##pital
##plad
##pladen
##plader
##pladerne
##plads
##pladsen
##pladser
##pladserne
##plager
##plak
##planene
##planering
##planerne
##planet
##plank
##planlegg
##planlegging
##planlægning
##plans
##plante
##plantillæg
##plantning
##plar
##plas
##plass
##plassen
##plassene
##plasser
##plassering
##plassert
##plate
##platen
##plater
##plats
##platsen
##platser
##platserna
##platta
##plattan
##plattform
##plattor
##pleie
##pleier
##pleiere
##plej
##pleje
##plejen
##plejer
##plejerske
##ples
##pli
##plic
##pligt
##pligtelser
##pligtig
##pligtige
##pligtigt
##plikten
##pliktig
##pliktige
##plock
##plos
##plu
##plugg
##ply
##pm
##pning
##poang
##poeng
##poj
##poker
##polar
##polen
##policy
##polis
##polisen
##politiken
##politiker
##politikk
##politiska
##ponenter
##porr
##porte
##porteføl
##portfolj
##portratt
##portræt
##posisjon
##posisjonen
##posisjoner
##positioner
##potatis
##potens
##potentiale
##poter
##power
##ppade
##ppan
##ppar
##ppede
##ppene
##ppens
##ppere
##pperne
##ppest
##ppi
##ppning
##pporter
##pps
##prag
##prak
##praktik
##preg
##preget
##prem
##premiar
##presentant
##presentanter
##president
##presjon
##pression
##prest
##prinsi
##priori
##priorit
##prisene
##priserna
##priserne
##priset
##prob
##proc
##proced
##procenten
##proces
##process
##processer
##produc
##producerade
##produksjon
##produksjonen
##produs
##produsent
##produsenten
##produsentene
##produsenter
##produsert
##produserte
##profesjon
##profess
##profession
##prog
##prognos
##projekter
##promen
##promenad
##promenaden
##prop
##propp
##propper
##pros
##prosa
##prosent
##prosess
##prosessen
##prosesser
##prosjekt
##prosjektene
##prosjekter
##prosjektet
##protein
##protokoll
##prover
##provet
##provning
##prylar
##præ
##præg
##prægede
##præget
##præm
##præmie
##præsent
##præsident
##præst
##prø
##prøv
##prøvene
##prøvet
##psis
##psjon
##pte
##pten
##pton
##pub
##publ
##pude
##puder
##pump
##pumpe
##pun
##punkten
##punktene
##puts
##py
##pædagog
##pærer
##ql
##quer
##qvist
##raa
##rab
##rabatt
##raber
##race
##rack
##radande
##radd
##radena
##radene
##raderne
##rades
##radgivare
##radisjon
##radisjonen
##radisjoner
##radition
##radrag
##rafiken
##rafikk
##rafikken
##rafta
##ragen
##rager
##ragte
##raket
##rakk
##raknade
##raknare
##raknat
##rakning
##rakningar
##rakningen
##raks
##raksis
##rakte
##raktik
##raktive
##rala
##rale
##raler
##rall
##rama
##ramar
##ramen
##ramid
##ramjande
##rammet
##ramte
##rana
##ranad
##rande
##rane
##range
##raning
##raningen
##rann
##ransaksjoner
##ransar
##ranschen
##ransjen
##ransle
##ranta
##rantan
##ranter
##raper
##raph
##rapping
##rappor
##rare
##rarna
##rasch
##rase
##rasjon
##rasjonen
##rasjoner
##rask
##rass
##rateg
##raten
##rates
##rative
##rator
##rats
##ratta
##ratten
##ratter
##rattsliga
##rave
##ravet
##ravær
##raz
##rea
##ream
##reber
##rebet
##rec
##recension
##recensioner
##recept
##reda
##redaktor
##redelse
##reden
##redende
##redes
##redi
##rediens
##redienser
##redit
##rediter
##redovis
##redovisning
##reds
##redse
##redsen
##redskab
##redskaber
##redskap
##redu
##reduksjon
##reduktion
##reff
##reform
##reft
##regat
##regelen
##regeln
##reger
##regering
##regeringen
##regist
##registeret
##registret
##regl
##reglement
##reglen
##reglene
##reglering
##reglerna
##reglerne
##regne
##regner
##regnes
##regningen
##regnskab
##regnskabet
##regnskap
##regnskapet
##rein
##reis
##reise
##reisen
##reisende
##reiser
##reist
##rej
##rejse
##rejsen
##rejsende
##rejser
##rejst
##rekk
##rekke
##rekker
##rekket
##rekking
##reklam
##rekry
##rekt
##relat
##relaterade
##relaterede
##relateret
##relatert
##relaterte
##relationer
##rele
##relsen
##remal
##rena
##render
##rener
##reng
##renge
##rengende
##rengjøring
##rengøring
##rening
##reningen
##renn
##renner
##rennet
##renning
##renovering
##rensa
##rense
##rensning
##renten
##repet
##repp
##reppen
##repres
##representerade
##repræsent
##repræsentant
##repræsentanter
##rera
##rerad
##rerade
##rerede
##reret
##rert
##rerte
##resa
##resan
##resande
##resen
##resent
##resenter
##reser
##resjon
##resor
##ressa
##resse
##resser
##ressour
##ressource
##ressurs
##ressursene
##ressurser
##restaurang
##resten
##resultaten
##resultatene
##resund
##resurs
##resurser
##retande
##reter
##reterare
##reteraren
##retlige
##retnings
##retsen
##rettes
##rettigheder
##rettigheter
##retting
##rettslige
##revd
##reve
##revende
##revis
##revisjon
##revisjonen
##revlig
##revliga
##revligt
##revolusjonen
##revyen
##rian
##riar
##ribende
##rica
##ricehamn
##ride
##rids
##rien
##rieren
##riet
##riga
##riger
##riget
##right
##riken
##rikk
##rikke
##rikken
##rikker
##riks
##riksen
##riktad
##riktade
##riktning
##rill
##riller
##rimer
##rimert
##riminalitet
##ringar
##ringelse
##ringene
##ringerne
##ringes
##ringet
##rinn
##rinnet
##ripa
##ripande
##riper
##ription
##riser
##rish
##rishamn
##riska
##riterende
##riterier
##ritet
##rits
##ritslev
##ritt
##rives
##rivill
##rn
##roda
##rodu
##roduksjon
##roende
##rof
##roit
##roja
##rok
##roken
##rollene
##romm
##rommet
##rona
##ronen
##ronik
##ront
##ronten
##roppar
##roppen
##rora
##rorelse
##rorelsen
##rorelsens
##rorelser
##roret
##rorna
##rosa
##rosion
##rosor
##rostning
##rostningen
##rota
##roth
##rotokoll
##rott
##rotter
##roulette
##rov
##rskov
##rubb
##rude
##ruder
##rudt
##rug
##rugt
##rukturen
##rukturer
##rull
##rullar
##ruller
##rument
##rummen
##runa
##runda
##rundan
##rundes
##rundlag
##rundlaget
##runn
##runnlag
##runnlaget
##rupp
##ruppe
##rupt
##rurgi
##rustad
##rustet
##rutan
##ruten
##rutor
##ruv
##ruvor
##ryck
##rycket
##ryckning
##ryckningar
##ryd
##rydd
##rydding
##ryg
##rygd
##rygende
##ryk
##rykk
##rym
##rys
##ræde
##ræder
##ræer
##ræft
##ræg
##ræk
##række
##rækken
##rækkende
##rækker
##rækket
##rækning
##ræn
##rænd
##rænde
##rænder
##rændes
##rænding
##rændt
##ræne
##ræner
##rænet
##ræng
##rængende
##rængning
##rængt
##ræning
##rær
##ræs
##ræsning
##ræt
##rø
##røg
##røje
##røm
##rømmen
##rønn
##røt
##røy
##sab
##sack
##sackar
##sacken
##sad
##sadminist
##sadresse
##sadressen
##sadvok
##sadvokat
##sadvokaten
##saf
##safari
##safdeling
##safdelingen
##saff
##saffald
##saffar
##safgift
##saftale
##saftalen
##saftaler
##safton
##sagen
##sager
##sagt
##sajt
##sajten
##sajter
##saka
##sakade
##sakadem
##sakene
##sakerhet
##sakerheten
##sakerhets
##sakert
##sakra
##sakring
##saks
##saktiver
##saktør
##saktører
##sale
##salen
##salget
##salj
##saljare
##sall
##sallad
##sallskap
##salt
##samarbeid
##samarbeidet
##same
##samen
##samfundet
##samfunn
##samfunnet
##samhalle
##samhallet
##samhet
##samin
##samlingar
##samlinger
##samm
##samma
##samman
##sammanhang
##sammans
##sammare
##sammenheng
##sammensetning
##sammensætning
##samnen
##samtal
##sanalys
##sanalyse
##sanlaggning
##sanlaggningar
##sanlegg
##sanlæg
##sanpass
##sansvarig
##sap
##sapparat
##sapparatet
##sarbeid
##sarbeider
##sarbeidet
##sarbejde
##sarbete
##sarbetet
##sarena
##sarene
##saret
##sarrange
##sas
##sasong
##sasongen
##satet
##satgarder
##satsen
##satta
##sattare
##sattas
##satter
##sattning
##sattningar
##sattningen
##sattnings
##satts
##sau
##sauce
##saus
##saut
##savdeling
##savdelingen
##savdelning
##savdelningen
##savfall
##savgifter
##savis
##savisen
##savklaring
##savt
##savtal
##savtale
##savtalen
##savtaler
##savtalet
##sax
##say
##sbach
##sback
##sbacka
##sbacke
##sbacken
##sbad
##sbakgrunn
##sbal
##sbalken
##sbanan
##sbane
##sbank
##sbarn
##sbaserad
##sbaserade
##sbaserede
##sbaseret
##sbasert
##sbaserte
##sbasis
##sbed
##sbedom
##sbedomning
##sbedrift
##sbedrifter
##sbef
##sbegiven
##sbegrens
##sbegræn
##sbehandlingar
##sbekendt
##sbelopp
##sbeloppet
##sbeløb
##sbeløbet
##sbeløp
##sbeløpet
##sben
##sberet
##sberetning
##sberettigede
##sbesk
##sbeskriv
##sbeskrivelse
##sbeskrivning
##sbeskyttelse
##sbeslut
##sbesok
##sbespar
##sbestamm
##sbestammelser
##sbestemm
##sbestemmelser
##sbestyr
##sbestyrelsen
##sbesvær
##sbesøg
##sbesøk
##sbeting
##sbetingelser
##sbetingelserne
##sbetændelse
##sbeveg
##sbevegelsen
##sbevidst
##sbevæg
##sbi
##sbibli
##sbid
##sbidraget
##sbilde
##sbilder
##sbildet
##sbillede
##sbilleder
##sbit
##sbjerg
##sbl
##sbocker
##sboende
##sbog
##sboken
##sbol
##sbolag
##sbolagen
##sbolaget
##sbolig
##sboliger
##sbon
##sbord
##sbordet
##sborger
##sborgere
##sbost
##sbranchen
##sbranschen
##sbransjen
##sbrevet
##sbrod
##sbroen
##sbron
##sbrott
##sbrudd
##sbrug
##sbruken
##sbu
##sbudsjett
##sbudsjettet
##sbutikk
##sbygg
##sbyggnad
##sbygning
##sbyn
##sbyra
##sbyran
##sbøger
##sbøker
##sbøl
##scene
##scentre
##scentret
##scentrum
##schefen
##schen
##sco
##scyk
##scykel
##scyklus
##sdagar
##sdage
##sdager
##sdalen
##sdatab
##sdatter
##sdatum
##sdelt
##sdirekt
##sdirektoratet
##sdirektør
##sdjur
##sdokum
##sdokument
##sdrift
##sdtr
##sdy
##sdygt
##sdø
##sea
##sebær
##sede
##seeing
##sefter
##seftermiddagen
##seg
##seid
##seiend
##seiendom
##seier
##seil
##sej
##sejendom
##sejendomme
##sejer
##sejere
##sejlads
##sekk
##sekken
##sekretariatet
##seksjon
##seksjonen
##sekt
##sekteskap
##sektor
##sekv
##selen
##self
##selgeren
##selgerenavn
##seln
##selskab
##selskaber
##selskabet
##selskap
##selskapene
##selskaper
##selskapet
##selva
##semester
##seminar
##semp
##send
##sende
##sendelse
##sendring
##sendringer
##sendt
##sene
##senge
##senhed
##senheden
##senheder
##senheter
##senter
##senteret
##sentral
##sentralen
##sentre
##sere
##seren
##serer
##seret
##serfarenhet
##serne
##sersattning
##serter
##sertif
##servic
##sesjon
##sesong
##sesongen
##sesse
##sessen
##sesser
##setaten
##sete
##seter
##seth
##setning
##setningen
##setningene
##setninger
##setnings
##sette
##settelse
##settelsen
##settelser
##setter
##settes
##settet
##setting
##sev
##sexamen
##sfac
##sfaciliteter
##sfaktorer
##sfall
##sfart
##sfast
##sfejl
##sfel
##sfelt
##sfeltet
##sfeng
##sfika
##sfin
##sfir
##sfirma
##sfjell
##sfjellet
##sfjord
##sfjorden
##sfly
##sfon
##sforanstaltninger
##sfordeling
##sfordelning
##sforebyg
##sforebyggande
##sforeningar
##sforeninger
##sforetag
##sforhallanden
##sforing
##sforklar
##sforløb
##sforløbet
##sformaga
##sformed
##sformedling
##sforsakring
##sforsalj
##sforskjell
##sforskjeller
##sforskriften
##sforsta
##sforstaelse
##sforstyrrelser
##sforsøg
##sforsøk
##sfort
##sfortegn
##sforvaltning
##sfoto
##sfotograf
##sfr
##sfra
##sfragor
##sfrem
##sfria
##sfrie
##sfrihed
##sfriheden
##sfrist
##sfrit
##sfuld
##sfulde
##sfuldt
##sfulla
##sfulle
##sfullt
##sfunksjoner
##sfælles
##sfæng
##sføring
##sgaard
##sgade
##sgata
##sgatan
##sgave
##sge
##sger
##sgivende
##sgiver
##sglede
##sgod
##sgodset
##sgran
##sgrans
##sgransen
##sgrens
##sgrense
##sgrensen
##sgrenser
##sgrot
##sgrupp
##sgruppen
##sgræn
##sgrænse
##sgrænsen
##sgu
##sha
##shal
##shallen
##shamn
##shand
##shanter
##shantering
##shast
##shav
##shavare
##shaver
##she
##shemning
##sherred
##shistoria
##shjalp
##shje
##shjelp
##shjælp
##shog
##shoj
##sholm
##shopp
##shoppen
##shosp
##shospital
##shospitalet
##shotell
##shoved
##shult
##shund
##shuse
##shæ
##shøj
##sia
##sian
##sias
##sidan
##siddende
##sidene
##sidig
##sido
##sidor
##sidorna
##sidrott
##sidste
##sif
##siff
##sige
##signal
##sigt
##sigtede
##sigter
##sigtet
##sik
##sikker
##sikkerhed
##sikkerhet
##sikkerheten
##sikre
##sikter
##siktig
##siktige
##silver
##sim
##sind
##sindex
##sindu
##sindustrin
##sinformasjon
##sinformation
##sinn
##sinne
##sinstitut
##sinter
##sion
##sirk
##sites
##situ
##situasjon
##situasjonen
##situasjoner
##sja
##sjafør
##sjakk
##sjef
##sjefen
##sjekk
##sjen
##sjer
##sjet
##sjett
##sjetter
##sjob
##sjoner
##sjubile
##sjuk
##sjuka
##sjukdom
##sjukdomar
##sjukvard
##sjæl
##sjæle
##sjælland
##sjø
##sjøen
##skabe
##skabel
##skabelse
##skabende
##skaber
##skaberne
##skabet
##skabets
##skabs
##skabt
##skada
##skadad
##skadade
##skador
##skaffa
##skalan
##skalas
##skalen
##skall
##skalla
##skallor
##skam
##skamera
##skampe
##skampen
##skamper
##skamrat
##skamrater
##skamt
##skanal
##skand
##skande
##skans
##skansla
##skansliet
##skapa
##skapacitet
##skapande
##skapare
##skapasitet
##skapende
##skapene
##skapital
##skapte
##skapten
##skara
##skarakter
##skare
##skaren
##skarm
##skarmar
##skarmen
##skarna
##skart
##skas
##skasse
##skassen
##skasser
##skatalog
##skateg
##skategor
##skattel
##skattelovens
##skatter
##skatteret
##sked
##skedet
##skedja
##skedjan
##skel
##skelig
##skelige
##skema
##skemaet
##skene
##skens
##skepp
##skere
##skerne
##skest
##skib
##skibe
##skibet
##skick
##skid
##skidor
##skigt
##skik
##skikk
##skikt
##skiktet
##skild
##skilj
##skilja
##skillig
##skillnad
##skillnaden
##skillnader
##skind
##skinen
##skiner
##sking
##skip
##skipet
##skir
##skit
##skiv
##skiva
##skivan
##skive
##skiver
##skivor
##skje
##skjeden
##skjel
##skjell
##skjem
##skjema
##skjemaet
##skjer
##skjerm
##skjermen
##skjermer
##skjut
##skjær
##skjære
##skjæring
##skjø
##skjør
##skjøring
##sklader
##sklass
##sklassen
##sklasser
##sklerna
##skli
##sklimat
##sklin
##sklipp
##sklo
##sklub
##sklær
##skna
##skningar
##skningen
##sknings
##skod
##skola
##skolan
##skolans
##skolds
##skolelærer
##skolene
##skolerne
##skoles
##skoll
##skolle
##skolor
##skolorna
##skomite
##skomiteen
##skommitten
##skompetanse
##skompeten
##skompetence
##skompetens
##skona
##skoncept
##skonen
##skonferanse
##skonferansen
##skonferens
##skonkurran
##skonkurranse
##skonse
##skonst
##skonstru
##skonsul
##skonsulent
##skonsult
##skontrol
##skontroller
##skorna
##skostnad
##skostnaden
##skostnadene
##skostnaderna
##skot
##skotare
##skoter
##skoterska
##skoterskor
##skots
##skotsel
##skott
##skottet
##skov
##skoven
##skra
##skram
##skran
##skravande
##skraven
##skred
##skreds
##skreft
##skrem
##skrevende
##skrid
##skridande
##skridt
##skriften
##skriftene
##skrigen
##skriget
##skrimin
##skriteriene
##skritt
##skrivare
##skriven
##skrives
##skrivet
##skriving
##skrivna
##skrivningar
##skrivningen
##skrivninger
##skrona
##skruv
##skræ
##skræft
##skræn
##skrævende
##skud
##skudd
##skue
##skul
##skuld
##skulen
##skum
##skunnskap
##skunskap
##skursen
##skursus
##skutt
##skval
##skvaliteten
##skvall
##skvallen
##skvartalet
##skveld
##skvelden
##skyd
##skydd
##skyddet
##skydds
##skyldighet
##skylt
##skyltar
##skyr
##skyrkan
##skysten
##skyt
##skyting
##skytt
##skytte
##skytter
##skæde
##skær
##skæring
##skæringer
##skærm
##skærme
##skærmen
##skøb
##skør
##skørsel
##slada
##slaede
##slaet
##slage
##slagen
##slagene
##slagenhet
##slagenheter
##slager
##slagna
##slaks
##slande
##slandene
##slander
##slandet
##slandskap
##slang
##slangd
##slapp
##slappen
##slarare
##slatte
##sledam
##sledande
##sledare
##sledaren
##sledd
##slede
##sledelsen
##sleden
##sledning
##sledningen
##slene
##slerne
##slesvig
##sletta
##slev
##sleverand
##sli
##slibning
##slid
##sliga
##slige
##sligt
##slingar
##slinjer
##slip
##slista
##slistan
##slisten
##slister
##slit
##slitt
##slitteratur
##sljus
##slog
##slojd
##slokal
##slokale
##slon
##slopp
##sloppet
##slor
##slos
##slosa
##sloshet
##slosning
##slosningar
##slost
##slot
##slott
##slovens
##sluck
##sluter
##slutningen
##slutt
##slutter
##sly
##slyft
##slæge
##slø
##sløb
##sløft
##sløftet
##sløg
##sløn
##slønn
##sløp
##sløpet
##sløshet
##sløy
##smad
##smade
##smag
##smagen
##smagning
##smakande
##smakt
##smalene
##smaler
##smals
##smand
##smanden
##smar
##smarked
##smarkedet
##smarknad
##smarknaden
##smass
##smassa
##smassan
##smassig
##smassiga
##smassigt
##smast
##smastare
##smaster
##smatch
##smate
##smater
##smaterial
##smaterialer
##smaterialet
##smateriell
##smatta
##smeddel
##smedel
##smedisin
##smedlemmer
##smekan
##smekanis
##smelding
##smen
##smenn
##smer
##smessig
##smessige
##smester
##smetod
##smid
##smiddag
##smiljo
##smiljøer
##smiljøet
##sminde
##sminder
##sministeriet
##sministeriets
##smobler
##smode
##smodel
##smodtager
##smodtagere
##smojligheter
##smon
##smorgon
##smorgonen
##smote
##smoten
##smotet
##smu
##smukt
##smulighed
##smuligheder
##smuligheter
##smusikk
##smy
##smyck
##smynd
##smyndigheten
##smys
##smægler
##smænd
##smærke
##smærker
##smæss
##smæssig
##smæssige
##smæssigt
##smøde
##smøder
##smødet
##smøn
##smønster
##smønstre
##smøte
##smøter
##smøtet
##sna
##snara
##snas
##snavn
##sner
##snes
##snett
##snettet
##sningen
##sninger
##snings
##snit
##snivaet
##snivan
##sniveau
##sniveauet
##sno
##snor
##snoter
##snr
##snygg
##snytt
##snæringen
##snæs
##snø
##sock
##socker
##sockret
##sok
##sokande
##sokning
##sombud
##somhed
##somhelst
##somhet
##somkostninger
##sommer
##somraden
##somradena
##somradene
##sone
##sop
##sopp
##soppdrag
##soppgaver
##soppgjør
##sopphold
##sopplysninger
##sopplæring
##sordninger
##sorgen
##sort
##sos
##sover
##spack
##spaket
##spang
##spann
##spannande
##spanning
##spapper
##sparet
##sparing
##sparr
##sparti
##spartiene
##spartnere
##spas
##spass
##special
##specifikke
##spedagog
##speg
##spektiver
##spelare
##spelaren
##spelen
##spelet
##spelning
##spels
##spenger
##spensjon
##spent
##speriod
##spersonal
##spersonalen
##spes
##spesial
##spesif
##spets
##spett
##spids
##spild
##spill
##spillene
##spilling
##spilt
##spinn
##spirasjon
##spis
##spisning
##spital
##splad
##splader
##splads
##spladsen
##spladser
##splanering
##splanlegg
##splanlegging
##splanlæg
##splanlægning
##splantasjon
##splass
##splassen
##splasser
##splats
##splatsen
##splatser
##spleje
##spli
##spligt
##spligten
##spligtige
##splikten
##spliktig
##spliktige
##spoang
##spoeng
##spolicy
##spolis
##spolisen
##spolitiken
##spolitikk
##spolitiska
##spons
##sposisjon
##spost
##sposter
##spotens
##spotensial
##spotentiale
##sprakiga
##spraklig
##spraklige
##spraktik
##spre
##spresent
##sprincipen
##sprincippet
##spring
##sprinsi
##sprinsippet
##spriset
##sprob
##sproc
##sproced
##sprocent
##sproces
##sprocess
##sproduksjon
##sproduktion
##sprof
##sprog
##sprogede
##sproget
##sprogra
##sprojekter
##spromen
##spromenad
##spros
##sprosess
##sprosessen
##sprosessene
##sprosesser
##sprosjekt
##sprosjekter
##sprosjektet
##sprotokol
##sprotokoll
##sprov
##sprovning
##spræ
##sprø
##sprøj
##sprøjtning
##sprøve
##sprøver
##spul
##spulje
##spuljen
##spænd
##spændende
##spænding
##spændt
##spær
##spærre
##spør
##spørg
##spørgsmal
##spørsmal
##srad
##sradet
##sradgiver
##sratt
##sreformen
##sreg
##sregionen
##sregist
##sregister
##sregisteret
##sreglene
##sregn
##srel
##sret
##srett
##srettede
##srettet
##srettigheder
##srige
##srika
##srike
##sris
##srisk
##srom
##srommet
##srorelsen
##srud
##srum
##ssa
##ssag
##ssager
##ssak
##ssakerhet
##ssal
##ssalen
##ssalg
##ssall
##ssamar
##ssamfund
##ssamfunn
##ssamman
##ssamtal
##ssan
##ssar
##ssas
##ssatt
##sseg
##ssekreterare
##ssekretær
##ssektoren
##ssektorn
##sselen
##ssels
##sselskab
##sselskaber
##sselskabet
##sselskap
##sselskapene
##sselskaper
##sselskapet
##ssent
##ssenter
##ssenteret
##ssentral
##ssentralen
##ssentre
##sserie
##sserne
##sservice
##sses
##ssex
##ssi
##ssida
##ssidan
##ssiff
##ssik
##ssikkerhed
##ssikkerhet
##ssikring
##ssing
##ssitu
##ssituasjon
##ssituasjonen
##ssituasjoner
##ssjef
##ssjefen
##ssjuk
##ssjukdom
##ssjukdomar
##sskatt
##sskill
##sskjema
##sskydd
##sskyld
##ssl
##ssnitt
##ssone
##ssons
##ssor
##sspar
##sspeci
##sspel
##sspelare
##sspelet
##sspes
##sspill
##sspiller
##sspr
##sspørsmal
##sstart
##sstaten
##sstater
##sstedet
##sstill
##sstod
##sstoffer
##sstor
##sstorning
##sstra
##sstraff
##sstrateg
##sstrategi
##sstruktur
##sstyr
##sstyret
##sstyrning
##sstø
##sstøtte
##ssund
##ssvarende
##ssven
##ssvikt
##ssygdom
##ssygdomme
##ssyge
##ssyk
##ssykdommer
##ssyke
##ssykehuset
##ssykl
##ssæsonen
##ssæt
##ssøk
##stable
##stackande
##stadda
##stade
##stader
##stadiet
##stadning
##staet
##stag
##stagande
##stagare
##stagaren
##stage
##stager
##staker
##stakere
##stalla
##stallande
##stallas
##stalld
##stallda
##stalle
##stallelse
##stallen
##stallene
##staller
##stallning
##stallningar
##stallningen
##stalls
##stallt
##staltninger
##stam
##stamm
##stamma
##stammar
##stammer
##stamning
##standa
##stande
##stander
##stangen
##stank
##stant
##stap
##stark
##starka
##starkt
##stars
##starta
##starten
##stasjon
##stasjonen
##stasjonene
##stasjoner
##statene
##stater
##statistikk
##statistikken
##stativ
##statter
##stavling
##steamet
##steater
##steatern
##stecken
##stede
##stedene
##stederne
##steds
##stedt
##stedts
##stegen
##stegt
##steinen
##steiner
##stekniker
##steknikk
##steknikker
##stekt
##stell
##stema
##stemann
##stemet
##stemmelser
##stena
##stenar
##stendig
##stendige
##stendighet
##stera
##sterande
##sterd
##sterdam
##steret
##sterk
##sterke
##stermin
##sterna
##stes
##stester
##steurop
##stevne
##stext
##stick
##stida
##stidende
##stidning
##stidningen
##stidspunkt
##stier
##stiftelsen
##stifter
##stiftning
##stiftningen
##stiga
##stiger
##stigninger
##stik
##stikk
##stilbudet
##stilen
##stilfælde
##stilladelse
##stillande
##stillat
##stillatelse
##stillede
##stillegg
##stillelse
##stillet
##stillfalle
##stillfallen
##stillfallet
##stillgangar
##stillingene
##stillings
##stillstand
##stillverk
##stillæg
##stilskud
##stilskudd
##stilsynets
##stilt
##stiltag
##stiltak
##stilte
##stinget
##stipend
##stisk
##stiske
##stit
##stitut
##stjanst
##stjansten
##stjanster
##stjarn
##stjarna
##stjarnan
##stjarnor
##stjejer
##stjek
##stjen
##stjenestene
##stjernen
##stodet
##stoff
##stoffene
##stokk
##stokken
##stolar
##stole
##stoler
##stolpe
##stoppen
##stopper
##stora
##storget
##storlek
##storning
##storningar
##storp
##storps
##stot
##strack
##stracka
##strad
##strade
##stradgarden
##straf
##strafik
##strafiken
##strafikk
##strak
##strakte
##stranda
##strande
##stranden
##strander
##strang
##straning
##stransport
##strar
##strarna
##strat
##strategien
##strav
##stream
##streck
##strede
##streg
##stregen
##streken
##strekk
##strekkelig
##strekning
##strende
##strener
##strening
##strik
##strikk
##strinn
##strinnet
##stroms
##strum
##strumpor
##stryck
##stræ
##stræde
##stræk
##strækning
##strækninger
##stræner
##stræning
##strø
##strøg
##strøk
##strømme
##strømning
##strømningen
##strømper
##stua
##student
##studentene
##studerende
##studiet
##studio
##studium
##stuga
##stugan
##stugor
##stull
##sturen
##sturer
##stycke
##stycken
##stycket
##style
##styp
##styrd
##styrda
##styrelse
##styrem
##styrene
##styrer
##styres
##styrets
##styrka
##styrkan
##styrkene
##styrker
##styrning
##styrt
##styrte
##stænd
##stændig
##stænger
##stæt
##stævne
##stø
##støb
##stød
##støj
##støl
##stør
##størr
##størrelser
##største
##støtende
##støtt
##støtten
##støtter
##støvler
##støy
##sud
##sugn
##sugna
##sum
##sun
##supp
##support
##sur
##sutbildning
##sutbyte
##sutfordr
##sutgifter
##sutred
##sutrustning
##sutry
##sutstyr
##sutvalg
##sutvalget
##sutvikling
##sutøvelse
##sutøver
##sutøvere
##svagen
##svall
##svan
##svand
##svang
##svann
##svannet
##svansker
##svarer
##svarsel
##svart
##svas
##svatnet
##svatten
##sveien
##svej
##svekkende
##sven
##svenn
##svenska
##sverige
##sverket
##sverksamhet
##svide
##svidenskab
##svikt
##svillkor
##svillkoren
##svind
##svindu
##svink
##svinkel
##svirk
##svirksomhed
##svirksomheder
##svist
##svitenskap
##svog
##svold
##svæ
##svægt
##svækkende
##svær
##svæsen
##svø
##sygdom
##sygdomme
##syge
##sykdom
##sykdommer
##syke
##sykehus
##sykkel
##sykler
##sykt
##syl
##symb
##synets
##synlig
##synlige
##synta
##synte
##syr
##syra
##sæ
##sæde
##sædet
##sækken
##sændringer
##sæson
##sæsonen
##sæt
##sætning
##sætningen
##sætninger
##sætnings
##sætt
##sætte
##sættelse
##sættelsen
##sættelser
##sættelses
##sættende
##sætter
##sættes
##sættet
##søe
##søen
##søg
##søgende
##søgning
##søgt
##søgte
##søk
##søkende
##søker
##søkere
##søket
##søking
##søkning
##søkt
##søkte
##sølv
##søster
##søy
##tab
##tabel
##tabelt
##table
##tack
##tagande
##tagare
##tage
##tagelse
##tagelsen
##tagelser
##tagelses
##tager
##tagere
##tagerne
##tages
##tagit
##tagits
##tagna
##tagne
##tainment
##taj
##takelse
##taket
##taks
##takt
##takter
##talande
##talen
##taler
##talere
##talerne
##talet
##talje
##tall
##tals
##talte
##tankt
##tapp
##tar
##taske
##tasker
##tat
##tatt
##tavla
##tavle
##tavling
##tavlingar
##tavlingen
##teater
##teborg
##teck
##tecken
##teckning
##teckningar
##teckningen
##ted
##tede
##tedes
##tefter
##teg
##tegn
##tegnede
##tein
##teker
##teket
##tekniker
##teknikk
##teknisk
##tekniska
##teks
##tekt
##tekten
##tektene
##tekter
##telefon
##telig
##telige
##teligt
##tell
##tella
##telse
##telsen
##telser
##telses
##teminde
##temot
##temp
##temperaturen
##tende
##tender
##tenkt
##tenkte
##tennis
##tens
##tera
##terad
##terade
##terande
##terapeut
##terar
##teras
##terat
##terede
##teringar
##teringer
##terna
##ternativ
##terras
##terrasse
##tersk
##tert
##terte
##tesk
##tets
##teur
##text
##texten
##texter
##the
##ther
##thers
##tida
##tider
##tige
##tigede
##tigelse
##tiget
##tighed
##tigheder
##tigt
##tilbudet
##tillbehor
##tillverk
##tilskud
##tilskudd
##tiltak
##tim
##timer
##timerne
##tio
##tion
##tips
##tit
##titlar
##tjanst
##tjansten
##tjanster
##tjejer
##tjenesten
##tjenester
##tland
##tm
##tning
##toft
##tok
##tokoll
##tokollen
##tomer
##tons
##torget
##torn
##torp
##tradition
##tradt
##tradte
##traf
##traff
##traffar
##trafiken
##trafikk
##trafikken
##traning
##tras
##trask
##treff
##trekk
##trener
##trening
##trer
##trin
##trol
##tron
##trop
##tru
##trup
##try
##tryck
##trycket
##tryk
##trykk
##tryks
##trykt
##træ
##træer
##træk
##trækning
##trækningen
##træning
##træt
##trøjer
##ttar
##ttav
##ttene
##tteratur
##ttere
##ttet
##tti
##ttill
##tting
##ttjanster
##tto
##tty
##tun
##tunn
##ture
##tv
##tvatt
##typ
##typen
##tysk
##tyskland
##tz
##tæt
##tøj
##tøy
##uan
##ubben
##ubber
##uber
##ubile
##ubl
##ucc
##uck
##udb
##udbud
##udbyder
##udbydere
##udbytte
##uddann
##uddannede
##uddannelse
##uddannelsen
##uddannelser
##uddannelserne
##uddannelses
##uddannet
##uddar
##udden
##uddet
##udding
##udere
##uderende
##udgave
##udgift
##udgiften
##udgifter
##udgifterne
##udiet
##udlejning
##udover
##udset
##udsig
##udsigt
##udsjett
##udstilling
##udstillingen
##udstyr
##udstyret
##udv
##udvalg
##udvalget
##udvalgets
##udveksling
##udvig
##udvik
##udviklede
##udviklet
##udvikling
##udviklingen
##uela
##uella
##uellt
##uet
##uffor
##ufforen
##uftende
##uga
##ugaard
##ugan
##ugg
##ugga
##uggar
##uggen
##uggor
##ughty
##ugle
##ugler
##ugn
##ugna
##ugning
##ugor
##ugt
##ugten
##ugter
##uh
##uheld
##uide
##uka
##uke
##uken
##uker
##ukker
##ukket
##uks
##ukser
##uksjon
##ukter
##ulan
##ulara
##ularen
##ulart
##ulasjon
##ulasjonen
##ulat
##ulationen
##ulde
##uldt
##ulenter
##ulera
##ulerede
##uleret
##ulert
##ulerte
##ulet
##ulf
##uli
##ulighed
##uligheder
##uligheter
##ulla
##ullar
##ullen
##ullet
##ulor
##ulpt
##uls
##ultat
##ulturen
##ultz
##ulu
##ulus
##ulvet
##uly
##uma
##uman
##umark
##umenter
##umet
##umi
##uminium
##umma
##umman
##ummere
##ummert
##ummi
##umo
##umpar
##umpe
##umpen
##umre
##umret
##umt
##umtion
##umtionen
##umul
##unch
##unchen
##unci
##unda
##undan
##underklader
##underlaget
##underlagg
##undersok
##undersokning
##undersokningar
##undersokningen
##undersøg
##undersøgelse
##undersøgelsen
##undersøgelser
##undersøk
##undersøkelse
##undersøkelsen
##undersøkelsene
##undersøkelser
##undert
##undertøy
##undhed
##undne
##undskab
##unen
##uner
##unet
##unga
##ungar
##ungarna
##ungdom
##ungene
##ungit
##ungna
##union
##unisjon
##universet
##universitetet
##unksjon
##unkten
##unktur
##unna
##unne
##unnelen
##unnen
##unnit
##unnskap
##unnskaper
##uns
##unskap
##unskaper
##unsten
##unta
##untre
##upe
##upen
##upet
##uppdat
##uppdrag
##uppfyll
##uppgang
##uppgift
##uppgifter
##upplev
##upplevelse
##upplevelsen
##upplevelser
##upplys
##upti
##upunkt
##ural
##uran
##urant
##urb
##urdere
##urderinger
##ureau
##urell
##urella
##urene
##urens
##urere
##urering
##urerne
##urert
##urf
##urgi
##urgt
##urgte
##urist
##urit
##urnal
##urne
##urop
##uropeiske
##uropp
##uropæiske
##ursus
##urte
##urud
##usal
##usch
##usene
##usener
##usentals
##usia
##usikk
##usiv
##usjon
##usjonen
##usjoner
##ussens
##usser
##usserne
##usset
##ussion
##usten
##uston
##ustri
##utan
##utbild
##utbildad
##utbildade
##utbildning
##utbildningar
##utbildningen
##utbud
##utbudet
##utbygging
##utbytte
##utd
##utdan
##utdannede
##utdannelse
##utdannet
##utdanning
##utdanningen
##utdanninger
##utdeling
##uterade
##utere
##uterede
##uters
##utert
##utet
##utfordr
##utfordringer
##utgave
##utgaven
##utgiftene
##utgifter
##utgiv
##uthyr
##uthyrning
##uti
##utiken
##utiker
##utikk
##utikken
##utions
##utit
##utive
##utlatande
##utleie
##utman
##utna
##utning
##utningen
##utninger
##uto
##utom
##utor
##utover
##utr
##utredningen
##utrust
##utrustning
##utry
##utrymme
##utrymmen
##utrymmet
##utsig
##utskott
##utskottet
##utslapp
##utsli
##utslipp
##utslippene
##utstallning
##utstilling
##utstillingen
##utstyr
##utstyret
##utta
##uttag
##uttak
##uttal
##utten
##uttene
##uttet
##uttryck
##uttrykk
##utvalg
##utvalget
##utvalgets
##utveck
##utvecklade
##utvecklare
##utveckling
##utvecklingen
##utveksling
##utvik
##utviklede
##utvikler
##utviklere
##utviklet
##utvikling
##utviklingen
##utvinning
##uum
##uuuu
##uva
##uver
##uxe
##vaben
##vack
##vackande
##vade
##vader
##vadret
##vaga
##vagar
##vagarna
##vagg
##vaggar
##vaggen
##vagn
##vagnar
##vagnen
##vags
##vagsin
##vagt
##vagten
##vaker
##vaking
##vakning
##vaks
##valda
##valen
##valet
##vall
##valla
##vallen
##valtning
##valtningen
##valu
##valuering
##vamp
##vana
##vanda
##vandet
##vanding
##vandning
##vandrere
##vaning
##vaningen
##vanliga
##vanlige
##vanligt
##vann
##vanner
##vannet
##vanor
##vans
##vansk
##vanskeligheder
##vansker
##vara
##varade
##varan
##varande
##varda
##vardare
##varde
##varden
##vardena
##varder
##vardering
##vardes
##vardet
##vardig
##vardiga
##vardighet
##vardigt
##vards
##varede
##varene
##varigheter
##vark
##varken
##varl
##varld
##varlden
##varldens
##varmare
##varmer
##varmet
##varn
##varna
##varo
##varon
##varor
##varr
##varre
##varsel
##varsler
##varter
##varteret
##varu
##varv
##vasendet
##vaska
##vaskan
##vaske
##vasken
##vaskor
##vass
##vast
##vatn
##vatnet
##vatska
##vatt
##vatten
##vattens
##vattnet
##vav
##vax
##vaxande
##vaxling
##vaxt
##vaxten
##vaxter
##vc
##veck
##vecka
##veckan
##veckor
##vede
##vederlag
##vedrift
##vedtak
##vedtaket
##veen
##veg
##vegen
##veger
##vegg
##veggen
##veggene
##vegger
##vei
##veien
##veiende
##veiene
##veier
##veig
##veil
##veiled
##veileder
##veiledning
##veis
##veisin
##veit
##vej
##veje
##vejen
##vejene
##vejleder
##vejledning
##vejledningen
##vejr
##vejret
##vejs
##vek
##vekkende
##vekst
##veksten
##vekt
##vekten
##vekter
##veld
##velfærd
##velse
##velt
##vember
##vendig
##vendige
##vene
##venlig
##venlige
##venligt
##venn
##venning
##vennlig
##vennlige
##vensjon
##vente
##ventioner
##ventyr
##verand
##verd
##verdens
##verdi
##verdien
##verdiene
##verdier
##verdig
##verdige
##verdighet
##veret
##verig
##verige
##vering
##verka
##verkan
##verkande
##verkar
##verken
##verkene
##verks
##verksamhet
##verksamheten
##verkstad
##verksted
##verktyg
##verktyget
##verktøy
##verktøyet
##verna
##verner
##vernet
##verre
##versionen
##versioner
##versjon
##versjonen
##versjoner
##verv
##vesen
##vesenet
##vester
##vetare
##veten
##vetenskap
##vetenskapliga
##vetet
##vetna
##vets
##vett
##vetyd
##vev
##vevet
##vgift
##vic
##vice
##vida
##vidd
##vidda
##vidden
##viden
##vidende
##videnskab
##videor
##videos
##videre
##vidst
##vidste
##view
##vigt
##viker
##vild
##vilkarene
##vill
##villig
##villigt
##villing
##villkor
##vilt
##vindende
##vinder
##vinding
##vindu
##vindue
##vinduer
##vine
##vingen
##vinger
##vinkel
##vinner
##vinnere
##vinneren
##vinnings
##vint
##virk
##virkende
##virket
##virksom
##virksomhed
##virksomheden
##virksomheder
##virksomhet
##virksomheten
##visa
##visad
##visade
##visande
##visar
##visas
##visat
##visionen
##visjon
##visningar
##visningerne
##visnings
##vita
##vitenskap
##vivl
##vnen
##vner
##vnet
##vninger
##vnt
##vnte
##vog
##vogne
##vognen
##vogner
##vokat
##vokater
##voksende
##vokst
##voll
##volum
##volym
##von
##vret
##vsjo
##vt
##vud
##vurderinger
##vux
##vuxen
##vy
##væd
##væg
##vægge
##væggen
##vægt
##vægten
##væk
##vækkende
##vækst
##væksten
##væl
##vænget
##væp
##værd
##værdi
##værdien
##værdier
##værdierne
##værdig
##værdige
##værdigt
##værelser
##værelserne
##værelses
##værelset
##værk
##værker
##værkeri
##værket
##værks
##værksted
##værkstedet
##værkt
##værktøj
##værktøjer
##værn
##værnet
##værre
##vært
##væsen
##væsenet
##væske
##væv
##vævet
##walk
##waren
##wc
##webb
##webbplatser
##week
##ween
##weg
##witz
##wl
##worth
##x1
##x2
##xa
##xamen
##xan
##xe
##xen
##xet
##xi
##xis
##xor
##xten
##xter
##ybde
##ybe
##yck
##ycke
##ycken
##ycker
##ycket
##yda
##ydate
##ydd
##ydda
##ydde
##yde
##ydelig
##ydelse
##ydelsen
##ydelser
##ydelses
##yden
##ydere
##yderne
##ydes
##ydia
##ydig
##ydigt
##ydlig
##ydliga
##ydligt
##ydnad
##ydning
##ydningen
##ydninger
##yds
##year
##yers
##yet
##yeur
##yft
##ygdom
##ygdomme
##yge
##ygen
##yger
##ygga
##yggar
##ygge
##yggelig
##yggelige
##yggeligt
##yggen
##ygiej
##ygien
##ygn
##ygning
##ygninger
##ygt
##ygte
##ygter
##ygtet
##ykdom
##ykdommer
##yke
##ykning
##ykningen
##yland
##ylar
##ylde
##ylden
##ylder
##yldes
##yldig
##yldt
##ylen
##yler
##ylland
##ylld
##yllda
##ylle
##ylor
##ylte
##ymbol
##ymboler
##yme
##ymnas
##ymnasiet
##ymt
##yna
##ynda
##ynder
##yndere
##yndes
##yndighed
##yndigheden
##yndigheder
##yndigheten
##yndighetene
##yndigheter
##yner
##ynes
##ynet
##ynge
##ynger
##yns
##ynta
##ynte
##yoga
##ypene
##ypisk
##ypten
##yran
##yrdes
##yreb
##yrene
##yrk
##yrkan
##yrker
##yror
##ysc
##ysch
##ysk
##yske
##yss
##ysse
##ysst
##yssta
##yste
##ysten
##yster
##yta
##ytan
##ytande
##ytelse
##ytelser
##ytende
##ytere
##ything
##yting
##ytning
##ytningen
##ytnings
##ytor
##yts
##ytta
##yttan
##yttelsen
##yttelses
##ytten
##yttende
##ytterne
##ywood
##yx
##zeg
##zny
##zol
##zone
##zu
##zymer
##zza
##zzy
##¤n
##¤r
##¥r
##´erne
##´n
##¸ˇ
##¸ˇ¸ˇ
##¸ˇ¸ˇ¸ˇ¸ˇ
##¸ˇ¸ˇ¸ˇ¸ˇ¸ˇ¸ˇ¸ˇ¸ˇ
##æb
##æbende
##æd
##ædagog
##æde
##æden
##æder
##æderne
##ædet
##ædre
##ædt
##ædvan
##æer
##æft
##æftigelse
##æg
##æge
##ægen
##æger
##ægere
##ægge
##ægler
##æglere
##ægning
##ægt
##ægte
##ægten
##ægter
##ægterne
##ægtig
##ægtige
##æiske
##ække
##ækkede
##ækken
##ækkende
##ækker
##ækkes
##ækket
##ækning
##ækningen
##æks
##æld
##ælde
##ælden
##ældende
##ælder
##ældning
##ældre
##æle
##æler
##ælk
##æller
##ælles
##ælling
##ællingen
##ællinger
##ælv
##æm
##æmi
##æmp
##æmpelse
##æmper
##æmpet
##æn
##ænd
##ænde
##ændelse
##ændene
##ænder
##ændes
##ænding
##ændring
##ændringen
##ændringer
##æne
##ænen
##æner
##æng
##ængde
##ængden
##ængder
##ænge
##ængen
##ænger
##ænget
##ænk
##ænke
##ænken
##ænkende
##ænker
##ænkes
##ænket
##ænkning
##ænkt
##ænkte
##ænning
##ænomen
##æppe
##æpper
##æppet
##æra
##ærd
##ærde
##ærede
##ærene
##ærerne
##æres
##ærg
##æringen
##ærings
##ærk
##ærke
##ærker
##ærket
##ærkning
##ærkt
##ærlighed
##ærm
##ærmet
##ærne
##ærte
##æser
##æske
##æsning
##æson
##æsonen
##æss
##æssig
##æssige
##æssigt
##æst
##æste
##æster
##æstet
##æt
##æter
##ætning
##ætningen
##ætte
##ættede
##ættelse
##ættelser
##ætten
##ætter
##ættet
##æv
##æve
##æver
##æves
##ævet
##ævn
##ævne
##ævner
##ævnes
##ævnet
##ævnt
##ævre
##øb
##øbe
##øbet
##øbt
##ødd
##ødder
##øde
##øden
##ødende
##øder
##ødes
##ødet
##ødig
##ødning
##ødre
##ødt
##ødte
##øer
##øften
##øfter
##øge
##øgen
##øgende
##øgene
##øger
##øgerne
##øgning
##øj
##øje
##øjede
##øjelse
##øjelser
##øjen
##øjer
##øjet
##øjlen
##øjne
##øjs
##øjt
##øjtn
##øjtnant
##øk
##øke
##økene
##øker
##øket
##økken
##økning
##økonomiske
##økt
##økter
##øla
##ølen
##øler
##ølge
##øm
##ømm
##ømmede
##ømmelse
##ømmelser
##ømmen
##ømmende
##ømmer
##ømmes
##ømmet
##ømning
##ømt
##ømte
##ønd
##ønde
##ønder
##ønn
##ønne
##ønnede
##ønnet
##øns
##ønsker
##ønster
##ønstre
##ønt
##øp
##øpe
##øper
##øpere
##øpet
##øpt
##øpte
##ørene
##ørerne
##øretøj
##øretøjer
##ørg
##ørge
##ørger
##øring
##ørn
##ørne
##ørr
##ørrer
##ørret
##ørsel
##ørsler
##ørsmal
##øser
##øsning
##øsse
##øste
##øte
##øtek
##øtene
##øter
##øtet
##øtre
##øtt
##øtter
##øvede
##øven
##øvende
##øves
##øvet
##øvler
##øvn
##øvning
##øvrig
##øvrigt
##øy
##øya
##øyd
##øyde
##øye
##øyen
##øyene
##øyer
##øyet
##øyne
##øyning
##øysund
##øyt
##øyta
##øyte
##øyter
##øyting
##øytn
##øytnant
##ŋ
##ɑ
##ɔ
##ʺ
##ʼ
##ˇ
##ː
##ˮ
##ͼ
##ϕ
##дr
##ени
##ле
##ля
##ор
##ск
##цr
##љ
##һ
##ז
##צ
##رر
##رررر
##رررررررر
##رررررررررررررررر
##رررررررررررررررررررررررررررررررر
##ٱ
##چ
##ہ
##ग
##ब
##ম
##ன
##ப
##ம
##ர
##வ
##ா
##ం
##క
##గ
##చ
##డ
##త
##ద
##న
##ప
##మ
##ర
##ల
##వ
##స
##ు
##ക
##ത
##ന
##യ
##ര
##ല
##വ
##ാ
##ി
##െ
##ำ
##฿
##โ
##მ
##ო
##ღ
##ᅲ
##₪
##∗
##≈
##⋅
##│
##├
##╕
##▲
##▷
##▸
##▼
##◆
##◊
##◦
##☎
##☕
##☝
##♢
##✭
##✰
##❑
##❗
##❣
##❾
##➔
##➜
##➤
##⬆
##ⰰ
##ヌ
##ﬀ
##５
##ｗ
##～
##ｩ
##ｲ
##ﾆ
##ﾊ
##ﾞ
##ﾟ
##ſ
010
070
10000
100mg
1080
1177
121
124
132
136
138
146
148
156
158
166
1801
1814
1830
1840
1864
1865
1866
1873
1875
1876
1877
1878
1881
1882
1883
1884
1885
1886
1887
1888
1889
1891
1892
1893
1894
1895
1896
1897
1898
1899
1902
1903
1904
1927
1931
2022
205
2050
20mg
2100
213
214
229
249
290
299
2a
2st
2½
3f
420
480
499
4a
aab
aaben
aabenraa
aaby
aagaard
aage
aah
aak
aalborg
aam
aand
aarhus
aars
aas
aasen
abe
abel
aben
abenbar
abenbaring
abenbart
abenhed
abenlyse
abenlyst
abent
aberg
aberop
abf
abild
abn
abne
abnede
abner
abnes
abnet
abning
abningen
abnings
abningstid
abningstider
abonnemang
abonnementer
abonnementet
absol
absoluta
absolutt
abstra
abstrakte
accel
acceptans
acceptera
accepterade
accepterar
accepteras
accepterat
acceptere
accepterede
accepterer
accepteres
accepteret
accessoarer
accessories
ace
ack
acklig
ackliga
ackligt
ackompan
ackord
ackredit
ackumul
activ
ada
adams
adc
adder
adekv
adekvat
adferd
adfærd
adgangs
adgangsk
adgangskode
adkomst
adl
adlibris
administ
administrasjon
administrasjonen
administrasjons
administrat
administrationen
administrations
administrativa
administrer
administrera
administreres
ado
adol
adoos
adopsjon
adoption
adre
adres
adresseavisen
ads
adsk
adskil
adskille
adskillelse
adskiller
adskillige
adskilte
adsp
adspurgte
adv
advanced
advaret
advarsels
advart
advarte
adventure
adwords
ae
aen
afb
afbal
afbalanceret
afbest
afbetaling
afbr
afbrudt
afbryde
afbrydelse
afbryder
afbrydes
afbrænding
afbud
afd
afdeling
afdelingen
afdelingens
afdelinger
afdelingerne
afdelings
afdelingsbestyrelsen
afdrag
afdække
afdækning
afdøde
affald
affaldet
affalds
affar
affaren
affarer
affarerna
affars
affarside
affarssystem
affarsutveckling
affil
affili
affiliate
affilierede
affisch
affischer
affyr
afføring
afgang
afgange
afgar
afgh
afghanske
afgift
afgiften
afgifter
afgive
afgivelse
afgiver
afgives
afgivet
afgivne
afgjort
afgr
afgrunden
afgræn
afgrænset
afgrænsning
afgrøder
afgør
afgøre
afgørelse
afgørelsen
afgørelser
afgørelserne
afgørende
afgøres
afh
afhandling
afhent
afhente
afhentes
afhentning
afhjæl
afhjælp
afhjælpe
afholde
afholdelse
afholder
afholdes
afholdt
afholdte
afhæng
afhænge
afhænger
afhængig
afhængige
afhængighed
afhængigt
afhør
afk
afkald
afkast
afkl
afklar
afklare
afklaret
afklaring
afkom
afkryd
afkræ
afkøl
afl
aflagt
aflast
aflastning
afled
afledt
afledte
aflej
aflever
aflevere
afleverer
afleveres
afleveret
aflevering
aflyse
aflyst
aflæ
aflægge
aflæse
afløb
afløn
afløser
afløst
afmon
afpr
afprøve
afprøvet
afprøvning
afr
afregnes
afregning
afrejse
afrikanska
afrod
afrund
afsagt
afsat
afsen
afsendelse
afsender
afsendt
afsk
afska
afskaff
afskaffe
afskaffet
afsked
afskriv
afskrivning
afskrivninger
afskygninger
afskærm
afsl
afslag
afslapning
afslapp
afslappede
afslappende
afslappet
afslut
afslutning
afslutningen
afslutte
afsluttede
afsluttende
afslutter
afsluttes
afsluttet
afslør
afsløre
afslørede
afslører
afsløret
afsnit
afsnittet
afsp
afspej
afspejle
afspejler
afspejles
afspil
afspille
afspiller
afspilning
afspænding
afspær
afst
afsta
afstand
afstande
afstanden
afsted
afstem
afstemning
afstemningen
afstemt
afsæt
afsætning
afsætte
afsættes
aftag
aftager
aftal
aftale
aftalen
aftalens
aftaler
aftales
aftalt
aftalte
aftenblad
aftenen
aftenens
aftener
aftenposten
aftens
aftensmad
aftensmaden
aftes
afton
aftonbladet
aftryk
afv
afvej
afventer
afvig
afvigelse
afvigelser
afviger
afvik
afvikle
afvikles
afviklet
afvikling
afviklingen
afvise
afviser
afvises
afvisning
afvist
afviste
afvær
afværge
again
agande
agar
agare
agaren
agarna
agde
agder
agency
agendaen
agendan
agentur
agera
agerande
agerar
agerat
agere
agerer
agf
aggen
agger
agget
aggr
aggreg
aggresjon
aggressiva
agil
agility
agn
agna
agnade
agnar
agnas
agnat
agnet
agneta
agod
agoda
ags
agter
agtig
agtigt
agurk
aha
ahh
ahhh
ahl
ahlens
ahor
ahorn
aik
airbag
airc
aircondition
airlines
aja
akade
akademia
akademien
akademiker
akademikere
akademin
akademiska
akare
akavet
akers
akershus
akesson
akkomp
akkred
akkredi
akkreditering
akl
aklagare
aklagaren
akseler
aksep
aksept
akseptabel
akseptabelt
akseptere
aksepterer
aksepteres
akseptert
aksepterte
aksje
aksjeeier
aksjef
aksjefond
aksjekapital
aksjem
aksjemarkedet
aksjen
aksjene
aksjer
aksjesel
aksjeselskap
aksjon
aksjonen
aksjoner
aksjonær
aksjonærene
aksjonærer
akta
akte
aktenskap
aktenskapet
akti
aktieagare
aktieagarna
aktiebolag
aktiek
aktiekapital
aktiem
aktiemark
aktierna
aktierne
aktieselskab
aktiespar
aktindsigt
aktioner
aktionær
aktionærer
aktiva
aktivera
aktiverar
aktiveras
aktiverat
aktiverer
aktiveret
aktivert
aktivister
aktivitetene
aktiviteterna
aktiviteterne
aktivitetsniva
aktivitetsniveau
aktor
aktorer
aktorerna
aktu
aktuel
aktuella
aktuellt
aktørene
akupunktur
akustik
akuta
akuten
akutt
akvakultur
akvare
akvarell
akvarium
aland
alands
alarmer
alaska
alber
albertslund
albin
alborg
albummet
aldern
aldersfor
aldersgrense
aldersgrupp
alderspensjon
aldrande
aldrar
aldrarna
aldreboende
aldreomsorg
aldreomsorgen
aldri
aldring
aldsta
aleine
aleks
aleksander
alen
alert
alesund
algar
alicia
alien
alig
alingsas
alla
allafall
allas
alldeles
allefall
allehanda
allen
allerbedst
allerbedste
allerfør
allerførste
allergier
allergiske
allermest
allerød
allesammen
allet
allian
alliance
allians
allianse
allierede
allierte
alligevel
allih
allihop
allihopa
allikevel
allinge
allm
allman
allmanhet
allmanheten
allmanhetens
allmann
allmanna
allmant
allmen
allmenn
allmenne
allmennheten
allment
allo
allra
allround
alls
allsang
allsid
allsidig
allsven
allsvenska
allsvenskan
allt
alltefter
alltfor
alltids
alltifran
alltih
alltihop
allting
alltjamt
alltmer
alltsa
allvar
allvarlig
allvarliga
allvarligare
allvarligt
alman
almed
almedalen
almedals
almen
almene
alment
almind
almindelig
almindelige
almindelighed
almindeligt
almindeligvis
alminn
alminnelig
alminnelige
alpakka
alperna
alpha
alpin
alrum
alsid
alsidig
alsidige
alsidigt
alsk
alska
alskad
alskade
alskar
alskare
alskat
alskling
alsklingen
alster
alta
altafgørende
altaner
altar
alternativa
alternativen
alternativene
altfor
altid
alting
altinn
alu
alufælge
alva
alvar
alvdal
alve
alvedon
alven
alverden
alverdens
alvorlighet
alvorligt
alvsjo
always
alz
amager
amar
amat
amate
amator
amatorer
amatorporr
amatorsex
amazing
ambas
ambassade
ambassador
ambet
ambisi
ambisiøse
ambisjon
ambisjonene
ambisjoner
ambiti
ambitiosa
ambitiøs
ambitiøse
ambulance
ambulans
ambulanse
ambulant
amerikan
amerikanska
amerikanskt
amfi
amig
amigos
amin
aminosyror
amir
amma
ammer
amming
ammoni
ammoniak
ammunisjon
amnen
amnena
amnes
amnesom
amnesty
amnet
amok
amor
amorter
amortering
amot
amts
amu
amund
amundsen
analoga
analt
analy
analysene
analysera
analyserar
analyseras
analyseres
analyseret
analysert
analytiker
analytiske
anar
anatom
anatomi
anavn
anbefal
anbefalede
anbefalet
anbefalingene
anbefalingerne
anbefalt
anbefalte
anbragt
anbragte
anbring
anbringelse
anbringes
anbuds
anci
anciennitet
anda
andamal
andamalet
andamalsen
andan
andar
andas
anded
andedræt
andelar
andele
andeler
andelsbolig
andelse
andelseier
andelshaver
andelsk
andens
anderledes
andersens
anderssons
andet
andetag
andetsteds
andlig
andliga
andning
andnings
andra
andrad
andrade
andrades
andrahand
andrar
andras
andrasprak
andrat
andrats
andreassen
andreplass
andresen
andring
andringar
andringarna
andringen
andsverk
anede
anekd
anerk
anerkende
anerkendelse
anerkendende
anerkender
anerkendes
anerkendt
anerkendte
anerkj
anerkjenne
anerkjennelse
anerkjenner
anerkjent
anerkjente
anf
anfald
anfor
anfort
anfører
anføres
anførte
anga
ange
angelagen
angelaget
angelagna
angelholm
angelica
angen
anger
angerratt
anges
angest
angesten
angett
angi
angir
angis
angitt
angitte
angive
angivelig
angiveligt
angivelse
angiven
angiver
angives
angivna
angivne
anglar
angra
angrans
angransande
angrar
angre
angreb
angrebet
angrep
angrepene
angrepet
angrepp
angrer
angrerett
angret
angribe
angriber
angrip
angripe
angriper
anhangare
anholdt
anhor
anhorig
anhoriga
anhænger
animasjon
animasjoner
animation
animerade
aning
aningen
anka
ankar
ankel
anken
ankenævnet
ankestyrelsen
anket
anklag
anklage
anklagemyndigheden
anknyt
anknytning
ankomme
ankommet
ankomsten
anl
anlagg
anlagga
anlaggning
anlaggningar
anlaggningen
anlaggnings
anlaggningstillgangar
anlande
anlander
anlant
anledningar
anledningarna
anledninger
anlegg
anleggene
anlegget
anleggs
anliggender
anlit
anlita
anlitar
anlæg
anlægge
anlægges
anlægget
anlæggets
anlægs
anlægsaktiver
anlægsg
anløp
anmal
anmala
anmalan
anmalas
anmalda
anmalde
anmaler
anmalning
anmalningar
anmalnings
anmalt
anmark
anmarkning
anmarkningar
anmarknings
anmarkningsvart
anmel
anmeldes
anmode
anmoder
anmodet
anmodningen
anmodninger
annans
annanstans
annars
annas
annat
anneli
annelie
annen
annenhver
anner
annerledes
annette
anni
annica
annie
annika
anniken
annonc
annonce
annoncelight
annoncen
annoncer
annoncerede
annonceret
annoncering
annonceside
annonse
annonsene
annonsera
annonsere
annonsert
annonserte
annonsører
annorlunda
annu
annul
annuller
annullere
annunci
anon
anonyma
anor
anord
anordna
anordnade
anordnar
anordnas
anpart
anpass
anpassa
anpassad
anpassade
anpassar
anpassas
anpassat
anpassning
anpassningar
anrika
ansag
ansags
ansat
ansatt
ansees
anset
ansett
ansette
ansettelse
ansettelser
ansettelses
ansetts
ansi
ansiennitet
ansigt
ansigter
ansigtet
ansigts
ansikte
ansikten
ansikter
ansiktsbehandling
ansiktsmask
anskaffe
anskaffelse
anskaffelser
anskaffelses
anskaffet
anskaffnings
ansku
ansl
anslaet
anslagstav
anslar
anslas
anslatt
anslut
ansluta
ansluten
ansluter
anslutna
anslutning
anslutningar
anslutningen
ansok
ansoka
ansokan
ansoker
ansokning
ansokningar
ansoknings
ansokt
ansprak
anstall
anstalla
anstalld
anstallda
anstallde
anstallning
anstallningar
anstallningen
anstallnings
anstand
anstendig
anstrang
anstranga
anstrangning
anstrangningar
anstren
anstænd
ansvara
ansvarar
ansvarig
ansvariga
ansvarlighed
ansvars
ansvarsforsikring
ansvarsfullt
ansvarsomrade
ansvarstagande
ansætt
ansætte
ansættelse
ansættelsen
ansættelses
ansættelsesforhold
ansætter
ansættes
ansøg
ansøge
ansøger
ansøgere
ansøgeren
ansøgning
ansøgningen
ansøgninger
ansøgnings
ansøgningsskema
ansøgt
ansøgte
antagande
antaganden
antage
antagelig
antagelse
antagelser
antagen
antager
antages
antaget
antagligen
antagna
antagning
antak
antakelig
antalet
antall
antarkt
antarktis
antatt
ante
anteck
anteckningar
antecknings
anten
antenn
antenne
anth
anthon
antib
antid
antidoping
antika
antikk
antikken
antikvar
antingen
antioksid
antioksidanter
antis
antisemit
antisemitt
antiv
antligen
antog
antogs
antonsen
antrekk
antrekket
antyd
antydet
anus
anv
anvand
anvanda
anvandande
anvandandet
anvandar
anvandare
anvandaren
anvandarens
anvandarna
anvandarnamn
anvandarvillkor
anvandas
anvandbar
anvandbara
anvandbart
anvande
anvander
anvandes
anvandning
anvandningen
anvandnings
anvandningsomrade
anvandningsomraden
anvands
anvant
anvants
anvendelig
anvendelige
anvendelsen
anvendelser
anvendelses
anvendte
anvis
anvisning
anvisningar
anvisningarna
anvisninger
anvist
anæst
aop
apa
apels
apelsin
apen
apenbar
apenbare
apenbaring
apenbart
apenhet
apent
apne
apner
apnes
apnet
apning
apningen
apninger
apnings
apningstid
apningstider
apo
apoteker
apparaten
appell
appellerer
appene
apper
appetit
appetitt
appl
appla
applaus
applen
applet
applicera
appliceras
applikasjon
applikasjonen
applikasjoner
apply
appro
apris
apro
apropa
apt
aptit
apv
aq
arabia
arabiska
aran
aratal
arbe
arbeid
arbeide
arbeidene
arbeider
arbeidere
arbeiderklassen
arbeiderne
arbeiderparti
arbeiderpartiet
arbeiderpartiets
arbeides
arbeidet
arbeids
arbeidsb
arbeidsdag
arbeidsdagen
arbeidserfaring
arbeidsevne
arbeidsforhold
arbeidsgiver
arbeidsgiveravgift
arbeidsgivere
arbeidsgiveren
arbeidsgivers
arbeidsgruppe
arbeidsgruppen
arbeidsgrupper
arbeidsinn
arbeidskraft
arbeidsled
arbeidsledige
arbeidsledighet
arbeidsledigheten
arbeidsliv
arbeidslivet
arbeidsm
arbeidsmarked
arbeidsmarkedet
arbeidsmater
arbeidsmiljø
arbeidsmiljøet
arbeidsmiljøloven
arbeidsoppgavene
arbeidsoppgaver
arbeidspl
arbeidsplass
arbeidsplassen
arbeidsplassene
arbeidsplasser
arbeidssted
arbeidssøk
arbeidssøkere
arbeidst
arbeidsta
arbeidstaker
arbeidstakere
arbeidstakeren
arbeidstakerne
arbeidstid
arbeidstiden
arbeidstilsynet
arbeidsutvalget
arbeidsvilkar
arbej
arbejd
arbejde
arbejdede
arbejdende
arbejder
arbejdere
arbejderklassen
arbejderne
arbejdernes
arbejdes
arbejdet
arbejdets
arbejds
arbejdsb
arbejdsdag
arbejdsdage
arbejdsfor
arbejdsforhold
arbejdsformer
arbejdsg
arbejdsgang
arbejdsgange
arbejdsgiver
arbejdsgivere
arbejdsgiveren
arbejdsgiverne
arbejdsglæde
arbejdsgruppe
arbejdsgruppen
arbejdsgrupper
arbejdskraft
arbejdsliv
arbejdslivet
arbejdsløs
arbejdsløse
arbejdsløshed
arbejdsm
arbejdsmark
arbejdsmarked
arbejdsmarkedet
arbejdsmarkedets
arbejdsmarkeds
arbejdsmilj
arbejdsmiljø
arbejdsmiljøet
arbejdsmiljøre
arbejdsomrade
arbejdsomrader
arbejdsopgaver
arbejdsplad
arbejdsplads
arbejdspladsen
arbejdspladser
arbejdspladserne
arbejdsskade
arbejdsstyrken
arbejdst
arbejdstagere
arbejdstid
arbejdstiden
arbejdstilsynet
arbejdstøj
arbejdsvilkar
arbet
arbeta
arbetade
arbetande
arbetar
arbetare
arbetarklass
arbetarna
arbetat
arbete
arbeten
arbetet
arbetets
arbets
arbetsb
arbetsdag
arbetsdagar
arbetsdomstolen
arbetsfor
arbetsformed
arbetsformedling
arbetsformedlingen
arbetsgiv
arbetsgivar
arbetsgivare
arbetsgivaren
arbetsgivarna
arbetsgrupp
arbetsgruppen
arbetskamrater
arbetskraft
arbetsl
arbetslag
arbetsliv
arbetslivet
arbetslos
arbetslosa
arbetsloshet
arbetslosheten
arbetsm
arbetsmark
arbetsmarknad
arbetsmarknaden
arbetsmarknads
arbetsmilj
arbetsmiljo
arbetsmiljon
arbetsmiljoverket
arbetsplats
arbetsplatsen
arbetsplatser
arbetss
arbetssatt
arbetssokande
arbetst
arbetstagare
arbetstagaren
arbetstid
arbetstider
arbetstillfallen
arbetsuppgifter
arbetsuppgifterna
arbetsutskott
arboga
arctic
arealdel
arealene
arealerne
arenaen
arenaer
arenan
arendal
arendals
arende
arenden
arendet
arenes
arens
arft
arga
argange
argumentasjon
argumentation
argumentene
argumentera
argumenterer
arh
arhundraden
arhundre
arhundrede
arhundreder
arhundrer
arhundret
arhus
ari
ariga
arild
aringar
aringene
aringer
arkeb
arkeologiske
arket
arkitektonisk
arkitektoniske
arkivdel
arkivfoto
arkivkode
arktis
arktiske
arkæ
arkæologiske
arlanda
arliga
arligen
armani
armar
armarna
armat
armatur
armb
armer
armlæn
arna
arnes
arnesen
arnt
aro
aron
aros
around
arrangem
arrangemang
arrangemanget
arrangementene
arrangera
arrangerade
arrangerades
arrangerar
arrangeras
arrangerat
arrangerede
arrangeret
arrangert
arrangerte
arrangor
arrangoren
arrangorer
arrangorerna
arrangøren
arrangørene
arrangører
arrangørerne
arrekke
arrestert
arrog
arrække
arsag
arsagen
arsager
arsagerne
arsak
arsaken
arsakene
arsaker
arsaks
arsaldern
arsber
arsberetning
arsdag
arsju
arsjubile
arskurs
arskurserna
arsmelding
arsmote
arsmotet
arsmøde
arsmøte
arsmøtet
arsplan
arsrapporten
arsredovis
arsredovisning
arsredovisningen
arsregnskab
arsregnskabet
arsregnskap
arsregnskapet
arsst
arsstamma
arsstamman
arsta
arstal
arsverk
arsværk
artene
arti
article
artier
artif
artifici
artig
artige
artikeln
artikelnummer
artikk
artikkel
artikkelen
artiklar
artiklarna
artiklen
artiklene
artiklerne
artiller
artion
artionden
artistene
artisterna
arton
artus
arven
arvika
arvinger
arvode
asane
asb
asbest
asbjørn
asch
asche
aschehoug
ase
asen
aser
asfal
asger
ashley
asia
asiatiska
asido
asikt
asikter
aska
askad
askadare
askan
asker
askers
askim
askøy
asl
asos
aspar
asparges
aspe
aspekten
aspektet
aspir
assa
assad
assens
assistance
assistans
assistanse
assister
assisterende
assistert
assos
assosi
assosiasjoner
assosiert
asss
astad
astadkomma
astedet
astron
asy
asylansøg
asylansøgere
asylmottak
asylsokande
asylsøker
asylsøkere
ata
atagande
ataganden
atal
atalas
atanke
atar
atas
atelje
aten
ater
ateranvand
aterbesok
aterbetal
aterbetala
aterbetalas
aterbetalning
aterbetalningar
aterbetalnings
aterf
aterfall
aterfinns
aterforsaljare
aterfu
aterfukt
aterga
atergar
aterge
aterhamt
aterhamta
aterhamtning
aterigen
aterin
aterkall
aterkalla
aterkomma
aterkommande
aterkommer
aterkomst
aterkoppling
aterskapa
aterspeg
aterstaende
aterstall
aterstalla
aterstar
aterupp
aterv
atervand
atervanda
atervande
atervander
atervin
atervinning
atervinnings
atferd
atgard
atgarda
atgardas
atgarden
atgarder
atgarderna
ath
atit
atkomst
atlanten
atle
atleter
atletik
atmin
atminstone
atmosf
atmosfar
atmosfaren
atn
atnjuter
atomvapen
atp
ats
atskill
atskilliga
atta
attack
attacken
attacker
atte
attende
attent
attitude
attity
attityd
attityder
attonde
attrah
attrahera
attraksjon
attraksjonene
attraksjoner
attrakt
attraktiva
attraktivitet
attribut
atv
audit
audun
augusti
auksjon
auktionen
auktioner
auktor
auktoriserad
auktoriserade
auktoritet
aurdal
aure
aurora
aurskog
austr
australia
australiens
autism
autoc
autocamper
autog
automater
automation
automatisering
automatisert
automatiska
automatiskt
autoris
autorisasjon
autorisation
autoriserede
autoriseret
autorisert
autoriserte
autorit
autost
autov
autoværk
ava
avail
avan
avanc
avancerad
avancerade
avancerat
avancerede
avanceret
avansert
avanserte
avb
avbetalning
avbetalningar
avbild
avbildet
avbok
avbr
avbrott
avbrudd
avbrutt
avbry
avbryt
avbryta
avbryte
avde
avdekke
avdekker
avdekket
avdeling
avdelingen
avdelingene
avdelinger
avdelings
avdelingsleder
avdelning
avdelningar
avdelningen
avdelnings
avdraget
avdu
avdøde
avel
avels
avent
aventyr
aventyret
aver
avesta
avfallet
avfalls
avfar
avfard
avføring
avg
avga
avganger
avgar
avgarde
avgas
avger
avgi
avgifterna
avgir
avgitt
avgjordes
avgjort
avgjør
avgjøre
avgjørelse
avgjørelsen
avgjørelser
avgjørende
avgjøres
avgor
avgora
avgorande
avgoras
avgors
avgrans
avgrens
avgrenset
avgrunden
avh
avhandling
avhandlingen
avheng
avhenge
avhenger
avhengig
avhengige
avhengighet
avhjal
avhold
avholde
avholdes
avholdt
avhør
avi
avinor
avisa
avisabonnement
avisene
avk
avkjø
avkjør
avkl
avklar
avklarad
avklarat
avklare
avklares
avklaring
avklart
avkom
avkopp
avkopplande
avkoppling
avla
avlag
avlagsna
avlast
avlastning
avled
avlid
avlidit
avling
avlon
avloningsdag
avlopp
avlopps
avls
avlyst
avløp
avløps
avløpsanlegg
avn
avnjut
avnjuta
avoc
avocado
avok
avokado
avratt
avregistr
avreise
avrenning
avresa
avs
avsag
avsak
avsaknad
avsaknaden
avsatt
avsatta
avse
avsedd
avsedda
avseende
avseenden
avsender
avser
avses
avsett
avsevart
avsikt
avsikten
avska
avskaff
avskaffa
avskarm
avsked
avskil
avskjed
avskrack
avskrivningar
avsky
avskyr
avsla
avslappende
avslappet
avslappnad
avslappnade
avslappnande
avslappnat
avslappning
avslatt
avsloj
avsloja
avslojade
avslojar
avslojas
avsluta
avslutad
avslutade
avslutades
avslutande
avslutar
avslutas
avslutat
avslutats
avslutt
avslutte
avsluttende
avslutter
avsluttes
avsluttet
avslør
avsløre
avslører
avslørt
avslørte
avsnitten
avsp
avspeg
avstanden
avstander
avstandet
avstang
avstangd
avstangning
avstar
avstemm
avsug
avsugning
avsugningar
avtag
avtale
avtalen
avtalene
avtalens
avtaler
avtales
avtalet
avtalt
avtalte
avtar
avtryck
avund
avunds
avundsjuk
avundsjuka
avv
avva
avvag
avvakt
avvakta
avve
avveck
avveckling
avveie
avver
avverk
avvikande
avvike
avvikelse
avvikelser
avviket
avvikle
avvikles
avviklet
avvikling
avviks
avvise
avviser
avvises
avvisning
avvist
avviste
avytt
awesome
axeln
axelsson
axlar
axlarna
ayl
aylar
a¤r
a¥
baade
babb
babyen
babyl
babyt
bacc
baccarat
bachel
bachelorgrad
backa
backar
backarna
backe
backen
backpage
bada
badade
badar
badat
badd
badda
baddar
badds
baddsoffa
badeland
baden
badene
baderom
badetøj
badeværelse
badeværelser
badeværelses
badeværelset
bading
badkar
badkaret
badmin
badminton
badrum
badrummet
badrums
bagagen
bagager
bagagerum
bagaget
bagar
bagasje
bagasjen
bagat
bagefter
bagen
bagepapir
bageplade
bagepulver
bager
bageri
bagerst
bagerste
bages
bagfra
bagge
baggrund
baggrunde
baggrunden
baggrunds
bagl
baglæn
baglæns
bagpa
bags
bagside
bagsiden
bagsværd
bagsædet
bagt
bagte
bagud
bagved
bagvedliggende
bagværk
bah
baj
bajs
baka
bakade
bakar
bakat
bake
baken
baker
bakerst
bakfra
bakgrund
bakgrunden
bakgrunder
bakgrunds
bakgrundsbilder
bakgrunn
bakgrunnen
bakgrunner
bakhodet
bakifran
baking
bakis
bakkene
bakket
baklanges
bakleng
bakning
bakom
bakomliggande
bakover
bakplat
bakplatspapper
bakpulver
baks
baksida
baksidan
baksiden
bakte
bakteri
bakverk
balanc
balance
balancen
balancer
balanceret
balans
balanse
balanser
balansera
balanserad
balansere
balansert
balansrakning
balder
balen
balett
balkongen
balkonger
ballade
balle
ballen
ballerup
ballet
ballett
ballon
balloner
ballonger
balte
baltiska
bamble
bambu
bambus
bana
banbrytande
bande
banden
bandene
bands
bandy
baneb
banebr
banebrydende
banebryt
banebrytende
baned
banene
banerne
bange
banglad
bangladesh
bankar
banke
bankede
bankene
bankerna
bankerne
banket
bankgiro
bankkort
banklan
banor
banorna
bant
bara
barack
barande
baras
barb
barbere
barberet
barbert
barbie
barbro
bard
bardu
barent
barentsh
barentshavet
barfota
barm
barmhjer
barnas
barnbarn
barnbok
barndomen
barnebok
barnebøker
barned
barnedab
barnefamilier
barneh
barnehag
barnehage
barnehagelærer
barnehagen
barnehagene
barnehagens
barnehageplass
barnehager
barneklær
barnen
barnens
barner
barnes
barneskole
barneskolen
barnevern
barnevernet
barneverntjenesten
barnevogn
barnfamiljer
barnkalas
barnklader
barnkon
barnmor
barnmorska
barnmorskan
barnomsorg
barnrum
barnslig
barnvagn
barnvakt
barr
bars
barsels
barsk
barske
bartender
basale
baser
baserad
baserade
baserar
baseras
baserat
basere
baserede
baseret
basert
baserte
basilika
bask
basseng
bassenget
bassin
basta
bastad
baste
bastu
bastun
batar
batarna
batene
bater
batman
batteriene
batterierna
batterierne
battra
battre
battur
bau
bayer
bbr
be2
bea
beakt
beakta
beaktande
beaktas
bearbeid
bearbeide
bearbeidet
bearbeiding
bearbejde
bearbejdet
bearbejdning
bearbet
bearbeta
bearbetning
beate
bebis
bebisar
bebisen
beboelse
beboelses
beboeren
beboernes
beboet
bebrej
bebyg
bebyggelses
bech
beder
bedes
bedom
bedoma
bedomas
bedomer
bedomning
bedomningar
bedomningen
bedomnings
bedoms
bedr
bedrag
bedragare
bedrageri
bedragerier
bedret
bedriften
bedriftene
bedriftens
bedrifts
bedriv
bedriva
bedrivas
bedriver
bedrivs
bedrov
bedst
bedste
bedstefar
bedsteforældre
bedstem
bedstemor
bedø
bedømm
bedømmelse
bedømmelsen
bedømmes
bedømt
beer
befal
befandt
befann
befant
befar
befaring
befatt
befattning
befattnings
befinde
befinder
befinna
befinne
befint
befintlig
befintliga
befintligt
befogen
befogenheter
befolkningsvekst
befor
befordring
before
befriande
befrielse
befriende
befrugt
befrugtning
befruktning
befæst
beføjelser
begaet
begag
begagnad
begagnade
begagnat
begara
begaran
begart
begavet
bege
begeist
begeistret
begeistring
begej
begejst
begejstrede
begejstret
begejstring
beger
begivenhed
begivenheden
begivenheder
begivenhederne
begivenhet
begivenheter
begiver
begj
begjær
begrans
begransa
begransad
begransade
begransar
begransas
begransat
begransning
begransningar
begravelses
begravning
begravnings
begre
begreb
begreber
begreberne
begrebet
begrens
begrense
begrensede
begrenser
begrenses
begrenset
begrensning
begrensninger
begrep
begrepene
begreper
begrepet
begrepp
begreppen
begreppet
begrip
begripa
begriper
begrund
begrunda
begrunde
begrundelse
begrundelsen
begrundet
begrunn
begrunne
begrunnelse
begrunnelsen
begrunner
begrunnes
begrunnet
begræn
begrænse
begrænsede
begrænser
begrænses
begrænset
begrænsning
begrænsninger
begunst
begyn
begynd
begynde
begyndelse
begyndelsen
begyndende
begynder
begyndere
begyndt
begyndte
begynne
begynnelse
begynnelsen
begynner
begynt
begynte
begær
begæring
behageligt
behaglig
behagligt
behall
behalla
behallare
behaller
behandla
behandlad
behandlade
behandlar
behandlas
behandlat
behandlats
behandlede
behandlere
behandlingar
behandlingsforløb
beharede
beharet
beharskar
beherske
behersker
behjelp
behjælp
behjælpelig
behjælpelige
beholdere
beholderen
beholdes
behor
behorig
behoriga
behorighet
behova
behovas
behovde
behovdes
behoven
behovene
behover
behovs
behovt
behøvede
behøves
beijing
bein
beina
beinet
being
beit
beite
beitost
bej
bekamp
bekampa
bekampningsmedel
bekan
bekann
bekant
bekanta
bekantskap
bekendt
bekendte
bekendtgørelse
bekendtgørelsen
bekendtgørelsens
bekendtgørelser
bekendtskab
bekj
bekje
bekjemp
bekjempe
bekjempelse
bekjent
bekjente
bekjentskap
bekk
bekke
bekken
bekker
beklagar
beklagelig
beklageligvis
beklædning
beklædt
bekostnad
bekraft
bekrafta
bekraftade
bekraftar
bekraftas
bekraftat
bekraftelse
bekre
bekreft
bekrefte
bekreftelse
bekrefter
bekreftes
bekreftet
bekræ
bekræft
bekræfte
bekræftede
bekræftelse
bekræfter
bekræftes
bekræftet
bekv
bekvam
bekvama
bekvamlighet
bekvamligheter
bekvamt
bekvem
bekvemt
beky
bekymmer
bekymrede
bekymrende
bekymrings
bekæm
bekæmp
bekæmpe
bekæmpelse
belagen
belaget
belagg
belaggning
belagna
belagt
belastende
belastes
belastet
bele
belegg
belej
belgi
belgia
belgiske
beliggende
beliggenhed
beliggenheden
beliggenhet
beliggenheten
belle
bellona
belon
belona
belonas
beloning
beloningar
belopp
beloppet
belte
bely
belysa
belysningen
belæg
belægning
belægninger
beløb
beløbet
beløn
belønn
beløp
beløpene
beløpet
bem
bemand
bemannings
bemark
bemarkelse
bemerk
bemerkelses
bemerket
bemot
bemota
bemotande
bemær
bemærk
bemærke
bemærkede
bemærkelses
bemærkelsesværdige
bemærkelsesværdigt
bemærker
bemærkes
bemærket
bemærkning
bemærkninger
bemærkningerne
bena
benagna
benam
benamn
benamning
benamningen
benamns
bench
benchmark
bendt
bene
benen
benene
beng
bengt
bengtsson
benk
benke
benken
benker
benn
bensinst
benyt
benytt
benyttede
benyttelse
benzin
benævnt
beor
beordret
beplant
beplantning
beprov
beprovad
berak
berakna
beraknad
beraknade
beraknar
beraknas
beraknat
berakning
berakningar
berakningen
beraknings
beratt
beratta
berattade
berattande
berattar
berattas
berattat
berattelse
berattelsen
berattelser
berattelserna
berattig
berattigad
berattigade
beredd
beredda
beredning
beredskab
beredskaps
beregn
beregnede
beregningene
beregningerne
beret
beretningen
beretninger
berette
beretter
berge
bergens
berger
berglund
bergman
bergs
bergstrom
beriget
berik
berit
berling
berlingske
bernt
berntsen
berodde
beroende
berolig
berom
beromda
berord
berorda
beroring
berors
berre
bertil
berus
berusad
bery
berø
berøre
besat
besatte
besattning
besattningen
bese
beseg
besegra
besegrade
besej
besid
besiddelse
besidder
besigtigelse
besikt
besiktning
besiktnings
besittelse
beskad
beskada
beskadige
beskadiget
beskaff
beskaffenhed
beskar
beskat
beskatning
beskatt
beskattes
beskattning
beskeden
beskeder
beskedet
beskedne
beskidt
beskidte
beskj
beskjed
beskjeden
beskjeder
beskjedne
beskr
beskrevne
beskri
beskriva
beskrivas
beskrivit
beskrivna
beskrivning
beskrivningar
beskrivningen
beskrivs
beskydd
beskyldt
beskytt
beskyttede
beskyttelsen
beskyttes
beskæft
beskæftig
beskæftige
beskæftigede
beskæftigelse
beskæftigelsen
beskæftigelses
beskæftigelsesindsats
beskæftiger
beskæftiget
beskæring
besle
beslektede
beslektet
beslot
besluta
beslutade
beslutades
beslutande
beslutar
beslutas
beslutat
besluten
beslutet
beslutningst
besluts
beslutsfattare
beslutsunderlag
beslutt
beslutte
besluttede
beslutter
besluttes
beslæg
beslægtede
besok
besoka
besokare
besokaren
besokarna
besoker
besoket
besoks
besoksadress
besokt
besokte
besparelse
besparelser
besparelses
besparingar
bestaet
bestall
bestalla
bestallare
bestallaren
bestallas
bestallde
bestaller
bestallning
bestallningar
bestallningen
bestallnings
bestallt
bestam
bestamd
bestamda
bestamde
bestamm
bestamma
bestammelse
bestammelsen
bestammelser
bestammelserna
bestammer
bestams
bestamt
bestandig
bestands
bestefar
besteforeldre
bestem
bestemmelsene
bestemmelserne
bestemor
bestevenn
bestick
bestik
bestikk
bestill
besto
bestr
bestraff
bestræ
bestræb
bestræbelser
bestræber
bestselger
bestseller
bestyr
bestyrelse
bestyrelsen
bestyrelsens
bestyrelser
bestyrelses
bestyrelsesformand
bestyrelsesmed
bestyrelsesmedlem
bestyrelsesmedlemmer
bestyrelsesmøde
bestyrelsesmøder
besv
besvara
besvarade
besvarar
besvaras
besvarelse
besvarelser
besvarer
besvares
besvaret
besvarligt
besvart
besvik
besvikelse
besviken
besvikna
besvær
besværet
besværlig
besværlige
besværligt
besynder
besæt
besætning
besætningen
besætninger
besættelse
besættelsen
besø
besøg
besøge
besøgende
besøger
besøges
besøget
besøgt
besøgte
besøk
besøke
besøkende
besøker
besøket
besøks
besøksadresse
besøkt
besøkte
betagende
betala
betalade
betalar
betalas
betalat
betalats
betald
betalda
betalende
betalingsform
betalingskort
betalingsm
betalingsmuligheder
betalkort
betalning
betalningar
betalningen
betalnings
betalningsanmark
betalningsanmarkning
betalningsanmarkningar
betank
betankande
bete
beteck
betecknas
beteckning
beteende
beteenden
beteendet
betegne
beten
betennelse
beter
betes
betingelse
betingelsene
betingelserne
betjan
betjenes
betjeningen
betjenings
betjent
betjente
betonar
betra
betraff
betraffande
betrag
betragt
betragte
betragtede
betragteligt
betragter
betragtes
betragtet
betragtning
betragtninger
betrakta
betraktar
betraktas
betrakte
betraktelig
betrakter
betraktes
betraktet
betraktning
betraktninger
betre
betro
betry
betryg
betræk
bets
betsson
betting
betyda
betydande
betydd
betyde
betydeligt
betydelse
betydelsef
betydelsefull
betydelsefulla
betydelsen
betydelser
betydet
betydligt
betydningsfulde
betyg
betyget
betyr
betytt
betænd
betændelse
betænk
betænkning
betød
beundrar
beundre
bevak
bevaka
bevakar
bevakning
bevap
bevara
bevarade
bevarande
bevaras
bevarede
bevarer
bevaret
bevarings
bevart
bevarte
beveg
bevege
bevegelighet
bevegelse
bevegelsen
bevegelsene
bevegelser
bevegelses
beveger
beveget
bever
bevidst
bevidste
bevidsthed
bevidstheden
bevilg
bevilgning
bevilgningen
bevilgninger
bevilj
bevilja
beviljade
beviljas
beviljat
beviljats
bevillinger
bevillings
bevirker
bevisa
bevisar
bevisat
bevisst
bevisste
bevisstgjøring
bevissthet
bevisstheten
bevitt
bevoks
bevæ
bevæb
bevæg
bevæge
bevægede
bevægelighed
bevægelse
bevægelsen
bevægelser
bevægelses
bevæger
bevæget
bevæp
bey
bibehalla
bibeln
biblio
bibliotekar
biblioteken
bibliotekene
biblioteker
bibliotekerne
biblioteks
bide
bider
bidr
bidragande
bidrage
bidragen
bidragene
bidrager
bidragit
bidrags
bidragsy
bidragsyter
bidragsytere
bidratt
bidro
bidt
bifall
bifil
bifile
bifog
bifoga
bifogade
bifogas
bikin
bikk
bilaga
bilagor
bilar
bilarna
bilda
bildade
bildades
bildar
bildas
bildats
bilde
bildelar
bilden
bildene
bilderna
bildes
bildet
bildning
bilds
bildspel
bildt
bilene
bilerne
bilete
bilhandlare
bilist
biljard
bilje
biljett
biljetten
biljetter
biljetterna
bilka
billan
bille
billede
billeder
billederne
billedet
billet
billett
billettene
billiga
billigare
billigast
billigaste
billigst
billund
billy
bilmarke
bilmarken
bilnummer
bilresa
bilsal
biltillverk
biltillverkare
binda
bindande
bindes
bindevæv
bindings
biob
biodriv
biodrivstoff
biogass
biografen
biografer
biografi
biok
biologiska
biologiskt
biomasse
bion
biop
biotekn
bioteknologisk
birgit
birgitta
birkebe
birkeland
birkerød
birth
birthe
bisar
bise
biseks
biseksuelle
bisex
bisexuell
bisexuella
bisk
biskopen
bislett
bisp
bispe
bispebjerg
bispedø
bistar
bita
bitar
bitarna
bitch
bite
bitradande
bitte
bittel
bitterhed
bitti
bitvis
biverk
biverkningar
bivir
bivirk
biz
bjel
bjerg
bjerge
bjergene
bjerget
bjerke
bjerre
bjerring
bjod
bjods
bjor
bjork
bjorkl
bjorklund
bjorn
bju
bjud
bjuda
bjuden
bjuder
bjudit
bjudna
bjuds
bjur
bjæl
bjælke
bjørg
bjørgen
bjørk
bjørke
bjørklund
bjørnar
bjørns
bjørnson
bjørvika
blaa
blabar
blac
blackj
bladdra
blade
bladen
blader
blag
blak
blam
blancolan
blanda
blandad
blandade
blandar
blandare
blandas
blandat
blandede
blandning
blandningen
blanka
blanket
blankett
blanketten
blanketter
blankt
blant
blasa
blase
blasigt
blaskjell
blat
blav
bleg
blege
blei
blek
bleka
blekinge
blekk
blend
bleven
blevet
blick
blicka
blickar
blicken
blidt
blif
blik
blikk
blikke
blinka
blinkar
blinker
blire
blit
blitt
bliv
blivande
blive
bliveenmand
bliver
blivit
blixt
blixten
blockera
blocket
blodarene
blodcirkul
blodig
blodkar
blodlegemer
blodning
blodprop
blodprov
blodprøve
blods
blodsirk
blodsocker
blodtryck
blodtryk
blodtrykk
blodtrykket
blogga
bloggade
bloggande
bloggandet
bloggar
bloggare
bloggaren
bloggat
bloggene
blogget
blogging
blogginlagg
blogginnlegg
blogginnlegget
blogindlæg
blogs
blogspot
bloj
bloja
blok
blokere
blokerer
blokeret
blokk
blokke
blokker
blokkere
blokkert
blomkal
blomm
blomma
blomman
blommar
blommor
blommorna
blomsten
blomstene
blomsterne
blomstr
blomstrende
blonda
blondin
blondine
blondiner
bloss
blota
blott
blotta
blowjobs
bluff
blund
blunda
bluse
bluser
blyant
blyg
blæ
blæk
blæksprut
blænd
blære
blærebetændelse
blæren
blæse
blæser
blæst
blæste
blø
bløde
bløder
blødere
blødninger
blødt
bløt
bnr
boat
bobil
bock
bocker
bockerna
boda
bodd
boden
boder
bodil
bodø
boe
boede
boenden
boendet
boet
bof
bofælles
bogen
bogens
bogføring
bogholder
bogstav
bogstavelig
bogstaveligt
bogstaver
bohus
bohuslan
boikott
boj
boja
bokad
bokade
bokar
bokas
bokat
bokfor
bokforing
bokhandel
bokhyl
bokhylla
bokhyllan
bokk
bokmal
bokmark
bokmassan
bokmerk
bokning
bokningar
bokningen
boknings
bokse
bokser
bokslut
boksta
bokstavelig
bokstaven
bokstavene
bokstaverna
bokstavligen
bokstavligt
bokt
bokus
bolag
bolagen
bolaget
bolagets
bolags
bolagsst
bolagsverket
bolan
bold
bolde
bolden
boldklub
boligbygg
boligejere
boligene
boligens
boligerne
boligkjøp
boliglan
boligomrade
boligomrader
boligprisene
boligs
boligselskab
boligsos
boligt
boliv
boll
bollar
bollen
bollerne
bolleven
bollnas
bolsje
bolt
boltre
bombar
bombet
bompenge
bompenger
bomuld
bondag
bonderna
bonderom
bonderomantikk
bondevik
bonn
bonnier
bonniers
bonor
bonusar
bonuser
bonusk
bonuss
bonusser
booker
bookmak
books
booli
boots
bopæl
boras
bordeaux
bordel
bordeller
borden
bordplade
bords
bordsspel
bordtennis
borett
borettslag
borettslaget
borgar
borge
borgenarer
borgeren
borgerens
borgerkrigen
borgerliga
borgerne
borgernes
borgerservice
borgmester
borgmesteren
boringer
borj
borja
borjade
borjan
borjar
borjat
borje
borlang
borlange
bornholm
bornholms
borr
borra
borrel
bors
borsen
borst
borsta
borstar
borste
borta
bortamatch
bortaplan
bortebane
bortfalder
bortgang
bortglom
borti
bortimot
bortom
bortover
bortse
bortser
bortset
bortskaff
bortskaffelse
bortskam
bortskamd
bortskjem
bortt
borttagning
borup
bosat
bosatta
bosatte
bosette
bosetting
bosiddende
bosn
bosnia
bosse
bostad
bostaden
bostader
bostads
bostadsb
bostadsbygg
bostadshus
bostadslan
bostadsmarknaden
bostadsomrade
bostadsratt
bostadsratter
bostadsrattsforening
bostadsrattsforeningen
bosted
bosæt
bota
botaniska
bote
boter
botilbud
botkyrka
botten
bottenvaningen
bottnar
bou
boule
boulev
boulevard
bov
boverket
boxen
bpa
brabrand
brack
brade
bradskande
brag
bragt
bragte
braka
brakar
brakk
brakt
brakte
bram
branch
branche
branchen
branchens
brancher
brander
brandet
branding
brandman
brands
brandskydd
brandt
brandvæsen
branna
brannande
brannen
branner
brannvern
brannvesen
brannvesenet
brans
bransch
branschen
branschens
branscher
bransje
bransjen
bransjens
bransjer
bransle
branslen
branslet
branta
bras
brasiliansk
brasilianska
bratte
brattom
breda
bredare
bredd
bredda
breder
bredte
bredvid
bree
breiv
breivik
brekke
brenn
brenne
brennende
brenner
brennevin
brens
brensel
brent
brette
brettet
brettspill
breve
brevid
brevik
brevkasse
brevlada
brevladan
brexit
brf
brick
bricka
brik
brikke
brilj
briljant
brille
brillene
bringebær
brinna
brinnande
brinner
brint
bristande
bristen
brister
bristfall
brita
britene
briterne
britta
brittisk
brittiska
broar
brob
broc
brocc
broch
brochure
brod
broderna
brodet
brog
brok
brol
brollop
brollopet
brollops
brombær
bromma
broms
bromsa
bromsar
brons
bronse
bronz
bronze
brook
broren
brors
brorsan
brosch
broschyr
brosj
brosjyre
brosjyren
brosjyrer
brost
brostcancer
brosten
brostet
brostvart
brostvartor
brot
brott
brottas
brottet
brotts
brottslighet
brows
browseren
browserversioner
brua
brudar
brudd
bruddet
bruden
brudt
brug
brugbar
brugbare
brugbart
bruge
brugen
bruger
brugere
brugeren
brugerens
brugernavn
brugerne
brugernes
brugervejledning
brugerven
brugervenlig
brugervenlighed
bruges
brugs
brugsan
brugsen
brugt
brugte
brukade
brukare
brukbar
brukbart
bruke
bruken
bruker
brukere
brukeren
brukerens
brukergrens
brukermedvirkning
brukernavn
brukerne
brukernes
brukeropplevelse
brukeropplevelsen
brukervenn
brukervennlig
brukervennlige
brukervennlighet
brukes
bruksom
bruksomrader
brukt
brukte
brumund
brumunddal
bruna
brunett
brunette
brunn
bruno
bruse
brusebad
brusen
bruseniche
bruser
bruseren
brussel
brutala
brutale
bruten
brutit
bruun
brux
bruxelles
bryde
bryder
brydes
bryg
bryggan
bryggen
bryggers
brygget
bryghus
bryllu
bryllupet
brylluppet
bryllups
brynas
bryne
bryssel
brystene
brysterne
brystkreft
brystkræft
brystv
brystvor
brystvorter
bryt
bryta
bryte
brytes
bryts
bræ
bræd
brædder
brækket
brænd
brænde
brændende
brændeovn
brænder
brændsel
brændsels
brændstof
brændt
brændte
bræt
brætspil
brøn
brønd
brøndby
brønderslev
brønn
brønnøysund
brønshøj
brøt
btw
bub
bubb
bubbel
bubbla
buch
buck
bucks
buda
budgeten
budgetter
budgettet
budsjett
budsjetter
budsjettert
budsjettet
budskab
budskaber
budskabet
budt
buffe
buffert
buffet
bugg
bugt
bugten
build
buket
bukett
buketter
bukke
buks
bukse
bukserne
bukt
bulgaria
buljong
bullar
buller
bult
bum
bump
bumser
bunad
bunde
bundlinjen
bundna
bung
bunker
bunn
bunnen
bunt
bup
bureau
bureauer
bureaukrat
buren
burg
burgare
burgere
burit
burk
burkar
burken
bursdag
bursdagen
bursdags
busa
buskar
buske
busker
buskerud
bussar
bussarna
bussene
busshall
bustad
busty
butiken
butiker
butikerna
butikk
butikkene
butikkerne
buttet
bvc
byar
byarna
byasen
byd
byde
bydelene
bydeler
bydelsutvalget
byder
bye
byene
byerne
byforny
bygd
bygda
bygden
bygdøy
bygga
byggande
byggandet
byggar
byggarbet
byggas
byggd
byggda
byggde
byggdes
byggede
byggel
byggematerialer
byggen
byggene
byggeplads
byggepladsen
byggeplass
byggeprojekt
byggeprosjekter
byggeri
byggerier
byggeriet
byggeriets
byggesag
byggherre
byggherren
bygging
byggingen
bygglov
byggnad
byggnaden
byggnadens
byggnader
byggnaderna
byggnads
byggnadsnamnden
byggnation
byggprojekt
byggs
byggt
byggts
byggverk
bygher
bygherre
bygherren
bygherrer
bygningene
bygningens
bygningerne
bygningsdele
bygningsloven
bygningsm
bygningsreg
byk
byl
byliv
bym
bymidt
bymidte
bymidten
bymisjon
byplan
byradets
byran
byrde
byrum
bystyre
bystyret
byta
bytas
byte
byten
byter
bytes
bytet
byts
byudvikling
byutvikling
byx
byxor
byxorna
bæ
bæger
bæk
bækken
bækkenbund
bæl
bælte
bænk
bænke
bænken
bæredygt
bæredygtig
bæredygtige
bæredygtighed
bæredygtigt
bærekraft
bærekraftig
bærekraftige
bærum
bøde
bøder
bøf
bøg
bøge
bøger
bøgerne
bøj
bøje
bøjede
bøjer
bøjet
bøjle
bøkene
bøker
bølgen
bølgene
bølgerne
bøn
bøndene
bønderne
bønn
børn
børne
børnebøger
børnebørn
børnefamilier
børnefødsels
børnehav
børnehave
børnehaven
børnehaver
børnehuset
børnel
børnem
børnene
børnenes
børnes
børnet
børnetøj
børneværelset
børns
børre
børs
børsno
børster
bøs
bøsse
bøsser
bøter
bøtte
bøv
bøy
bøye
bøyer
caf
cafeen
cafeet
calcium
california
californien
calle
campingen
campingplads
campingpladsen
campingpladser
campingvogn
campingvogne
canadiske
canaria
canc
candid
canna
cape
capital
capp
cappelen
capt
carbon
carib
carin
carina
carlos
carls
carlsberg
carlsson
carola
carolina
carport
carro
cars
carsten
cases
casinob
casinoene
casinon
casinos
casinospel
casinospill
casinot
casio
casper
casumo
catalog
catch
categor
categories
catharina
cato
cbd
cbs
cecilia
ceder
cele
celebr
cellene
cellerna
cellerne
cellul
cem
cen
cens
censor
centeret
centern
centerpartiet
centrala
centralbyran
centrale
centralen
centret
ceo
cere
certifi
certific
certificerede
certificeret
certificering
certifierad
certifierade
certifiering
certifik
chall
chalmers
champign
champin
championship
chance
chancen
chancer
chancerne
chang
chann
chans
chansen
chanser
chanserna
charac
chark
charlo
charlott
charlotta
charlotten
charlottenlund
charme
charmerende
charmig
charmiga
charmigt
chass
chate
chateau
chatroulette
chatta
chatter
chatterom
chattes
chattesider
chattrum
chauff
chauffor
chauffør
chaufføren
chauffører
checka
checklista
chees
cheferna
chefredaktor
chefredaktør
chefs
cheft
cheftræner
cherry
chev
chick
chik
chikane
chill
chilla
chillo
chin
chock
chockad
chok
chokeret
choklad
chokladen
chokol
chokolade
chokoladekage
chokoladen
chords
chr
christen
christians
christiansborg
christianshavn
christmas
christop
chur
cider
cif
cig
cigar
cigare
cigaret
cigarett
cigg
cirkeln
cirklar
cirkler
cirkul
cirkulære
cis
citater
citera
citerar
citizen
citr
citroen
citronsaft
civila
civile
civilingenjor
civilisation
claes
clas
claud
claus
clausen
clem
cli
client
clin
clip
clips
clos
cms
cnn
cob
cocktails
coffe
coffee
cogn
cold
collected
collections
colom
colorado
colour
columb
comeb
comics
commons
compl
compu
computere
computeren
computerspil
conny
conta
contain
containere
contest
converse
coola
coolt
cooper
copen
copenh
copy
cord
corner
cort
cot
cou
cougars
could
council
coup
covers
cowboy
cph
cpr
cpu
credit
crem
cremen
cremer
cremet
crew
cri
crm
cros
crus
crystal
csn
csr
css
ctr
cumshot
cupc
cupcakes
current
curry
cvr
cykelhjelm
cykeln
cykels
cykelst
cykelsti
cykelt
cykla
cyklade
cyklar
cykle
cyklede
cyklen
cykler
cyklus
cyl
cylin
cyn
cypern
cyt
daa
daben
dack
dacken
dacket
dagarna
dagars
dagbladets
dagbog
dage
dager
dagers
dages
dagfinn
dagg
daginstitution
daginstitutioner
dagis
dagliga
dagligdagen
dagligen
dagliglivet
dagligvare
dagligvareb
dagordning
dagordningen
dagpen
dagpenge
dagpleje
dagplejen
dagsavisen
dagslaget
dagsljus
dagsord
dagsordenen
dagstid
dagtilbud
dagtimerne
dagvatten
dah
daisy
dak
dala
dalarna
dalarnas
daler
dalig
daliga
daligt
dallas
dama
damek
damene
damerna
damerne
damet
dametøj
damli
damms
dammsu
dammsug
dammsuga
dammsugare
dampa
dander
danderyd
danfoss
danielsen
danielsson
danish
dankort
danm
danmarksmester
dannebrog
dannede
danny
dansa
dansade
dansar
dansare
dansband
dansede
dansere
dansgolvet
danska
danskene
dansker
danskere
danskerne
danskernes
dap
dapen
dara
darav
dare
darefter
daremellan
daremot
darfor
dari
daribland
darifran
darigenom
darinne
darligt
darmed
darpa
dart
dartill
darute
darutover
darvid
dase
daser
dash
databas
databe
databehandler
databeskyttelses
dataene
dataindsamling
datainn
datainspektionen
datama
datamaskin
datamaskinen
datamaskiner
datan
datapro
dataskydd
dataskydds
dataskyddsforordning
dataspill
datatil
daten
dater
dateret
datering
datert
datingnett
datingsida
datingsiden
datingsidene
datingsidor
datingt
datingtips
datingtjenester
datoene
dator
datorer
datorn
datt
datters
datterselskab
datterselskap
datum
datumet
davarande
dawn
dax
dba
dbu
deaktiveret
dealer
debat
debattartikel
debit
debiteras
debitor
debu
debuten
debuterade
debuterede
debuterte
decenn
decennier
decennium
decentr
decideret
deckar
deckare
dedikerede
dedikeret
dedikert
dedikerte
defa
default
defineret
definert
definerte
defini
definiera
definierar
definieras
definisjon
definisjonen
definisjoner
definit
degen
deger
degerfors
dei
deigen
deil
deilig
deilige
deine
deira
dejen
dejlig
dejlige
dejligste
dejligt
dejt
dejta
dejtar
dejtat
dejten
dejter
dejting
dejtingapp
dejtingprogram
dejtingsa
dejtingsajt
dejtingsajten
dejtingsajter
dejtingsida
dejtingsidan
dejtingsidor
dejtingsidorna
dekan
dekar
dekk
dekke
dekkene
dekker
dekkes
dekket
deklaration
dekning
deknings
dekorasjon
dekorative
dekorera
dekoreret
dekorert
deks
dela
delad
delade
delades
delagare
delakt
delaktig
delaktiga
delaktighet
delar
delarna
delars
delarsrapport
delas
delat
delegasjon
delegater
delegation
deleger
delegert
delhi
delikates
deliver
delo
deltaga
deltagande
deltagare
deltagaren
deltagarna
deltage
deltagende
deltageren
deltagernes
deltaget
deltagit
deltak
deltakelse
deltakelsen
deltakende
deltaker
deltakere
deltakeren
deltakerne
deltatt
deltav
deltok
delux
deluxe
delvist
demen
demokratene
demokratin
demokratiska
demokratiskt
demonstranter
demonstrasjon
demonstrasjoner
demonstrerer
demp
dempe
demper
dempet
dengang
denice
denna
densamma
depa
departement
departementet
departementets
depos
deposit
depositum
depp
depr
depresjon
deprim
deprimerad
deprimert
deraf
deras
derav
dere
derefter
deretter
derhen
derhjemme
deri
deriblandt
deriblant
derigennem
derimod
derimot
derind
derinde
deriv
derned
dernede
dernest
dernæst
derom
derop
deroppe
derover
derpa
derud
derude
derudover
desamma
desc
desember
desentral
desi
desidert
designa
designad
designade
designat
designen
designers
designs
desin
desp
desperate
dessa
desse
desser
desserter
dessfor
dessforinnan
dessuten
dessutom
dessvarre
dessverre
destill
destiller
destinasjon
destinasjoner
destrukt
desuden
desverre
desværre
deta
detail
detalje
detaljene
detaljerad
detaljerade
detaljerede
detaljeret
detaljerna
detaljerne
detaljert
detaljerte
detaljplan
detaljplanen
detaljvarer
detroit
detsamma
detta
deutsch
df
dgi
dh
diag
diagnos
diagnosticeret
diagnostik
diagnostikk
diagnostisert
diagon
diagrammet
diakon
diar
diare
diarien
dic
didakt
diett
dietten
differens
differenti
difi
difor
diger
digg
digger
digitala
digitaliseringen
digt
digte
digter
digtet
digtsamling
dik
diket
diktatur
diktene
diktet
dildoer
dildos
dilem
dilemm
dilemmaer
dill
dimensionering
dimensjon
dimensjoner
dimensjonering
dimitten
dimm
dimma
dina
dinosaur
dinside
dipl
direkta
direktion
direktionen
direktor
direktoratet
dirigenten
dirt
dirty
disa
disci
disciple
discipliner
discla
disclaimer
discover
disipl
disiplene
disiplin
diska
diskmaskin
diskr
diskreta
diskrete
diskrimination
diskriminerings
disku
diskus
diskusjon
diskusjonen
diskusjonene
diskusjoner
diskussionerna
diskutera
diskuterade
diskuterades
diskuterar
diskuteras
diskuterat
diskuterats
diskuteret
diskutert
diskuterte
dispensasjon
dispensation
displayen
displayet
disponer
disponere
disponerer
disposisjon
disposition
dispositioner
diss
disses
distance
distans
distanse
distansen
distinkt
distrah
distribuere
distribuert
distribusjon
distrik
distriktene
distrikts
dito
ditte
divid
divis
divisjon
divisjonen
diy
diæt
djar
djav
djavul
djavulen
dje
djev
djevel
djevelen
dju
djung
djungel
djupa
djupare
djupet
djupgaende
djupt
djuren
djurens
djuret
djurgarden
djurpark
djursland
djæv
djø
dkk
dla
dmi
dnb
dnr
dnt
dob
dobb
dobbel
dobbelte
dobbeltseng
doble
doblet
docent
dock
docka
dockor
dod
doda
dodade
dodades
dodar
dodas
doden
dodliga
dods
dodsfall
does
doft
doftar
doften
dofter
dogg
doggy
dokt
doktorand
doktorgrad
doktorn
dokumentasjon
dokumentasjonen
dokumentene
dokumentera
dokumenterade
dokumenteras
dokumenterede
dokumenteret
dokumentert
dokumenterte
dolce
dold
dolda
dolj
dolja
doljer
dollars
doma
doman
domanen
domar
domare
domaren
domarna
domas
domd
domdes
domen
domene
domenen
domer
domf
dominant
dominerade
dominerande
dominerar
domineret
dominert
dominerte
domm
domme
doms
domstolar
domstole
domstoler
domts
domæn
domæne
domænen
domæner
domænet
donation
donere
dong
donne
donor
dopet
dopp
doppa
dopt
doris
dorr
dorrar
dorrarna
dorren
dorte
dorthe
dose
dosis
dot
dott
dotter
dotterbolag
dottern
dottrar
douglas
dova
doven
dovre
downloade
downloades
dps
dr1
dr2
drab
drabb
drabba
drabbade
drabbades
drabbar
drabbas
drabbat
drabbats
drabe
draber
drack
drage
drager
draget
dragit
dragkedja
dragning
dragt
dragør
drake
drakk
drakter
dramatikk
dramatiska
dramatiskt
drammen
drammens
dran
dranering
drapene
draper
drapet
dras
drastiskt
dratt
dreide
dreie
dreier
drej
dreje
drejede
drejer
drejes
drejet
drejning
dren
drener
drenering
dreng
drenge
drengen
drengene
drepe
dreper
drept
drepte
dres
dressing
dressur
dressyr
drick
dricka
dricker
dricksvatten
drifte
drifter
driftes
driftsinn
driftskostnader
driftsomkostninger
driftsresultat
driftsudgifter
driftsutgifter
drik
drikk
drikkevand
drikkevann
drikkevarer
driller
drinkar
drinker
drinks
drist
drit
dritt
driva
drivande
drivas
driven
drivhuset
drivit
drivkrafter
drivmedel
drivs
drivstof
drivstoff
droger
drogs
droj
droja
drojde
drojer
drojsmal
drom
dromde
dromm
dromma
drommar
drommen
drommer
dromt
droner
dropp
droppar
drosje
drott
drottning
drottningen
drottninggatan
drs
druckit
druer
druerne
drunk
druv
druvor
dryck
drycken
drycker
dryckes
dryg
dryga
drygt
dryp
drys
dræ
dræb
dræbe
dræber
dræbt
dræbte
drægt
dræn
drøbak
drøftelse
drøftelser
drøfting
drømm
drømmene
drøn
drøy
drøye
drøyt
dtu
dubb
dubbel
dubbelrum
dubbels
dubbelsang
dubbelt
dubbla
dude
duell
duer
dufte
dufter
duga
duger
dugg
dugnad
dukar
duket
dukkede
duktig
duktiga
duktigt
dul
dumfrygt
dumm
dumma
dump
dumpet
dumping
dund
dunder
duoen
duon
dup
dusch
duscha
duschade
duschar
duschat
duschen
dusin
dusj
dusje
dusjen
duss
dussin
dvar
dvarg
dver
dvær
dværg
dybdegaende
dybe
dybere
dybest
dybeste
dybt
dyd
dyg
dygn
dygnet
dygt
dygtig
dygtige
dygtigere
dygtighed
dygtigste
dygtigt
dyka
dyker
dykk
dykking
dykt
dyktig
dyktige
dyktighet
dylan
dylikt
dynamics
dynamik
dynamikk
dynamiska
dynast
dyne
dynen
dyp
dype
dypere
dypet
dypt
dyrare
dyraste
dyreb
dyrenes
dyrev
dyrevel
dyrevelferd
dyrevelfærd
dyrevern
dyrinstinkt
dyrk
dyrkede
dyrking
dyrkning
dyrlæge
dyrlægen
dysfunksjon
dyst
dyttet
dæk
dække
dækkede
dækkende
dækker
dækkes
dækket
dækning
dækningen
dæknings
dæks
dæm
dæmon
dæmp
dæmpe
dæmper
døb
døbt
dødelig
dødelige
dødelighet
dødsannonser
dødsbo
dødsfald
dødsfall
dødsfallet
døende
døjer
dømte
dønn
døpt
døra
døre
dører
dørs
døv
døve
døy
e18
e39
e4
e6
ean
ebba
ebeltoft
ebenhol
ebenholts
eck
ects
edar
edb
edder
edderk
eddie
eddike
edel
eders
eds
educ
edvard
ee
een
ees
eet
effektene
effekterna
effektiva
effektivare
effektivisera
effektivisere
eft
efta
efterar
efteraret
efterarets
efterars
efterarsf
efterarsferien
efterat
efterbehandling
efterfolj
efterfoljande
efterforsk
efterforskning
efterfrag
efterfragan
efterfragar
efterfragas
efterfulgt
efterføl
efterfølgende
efterfølger
efterhand
efterhanden
efterisolering
efterkomm
efterkommere
efterl
efterlad
efterlade
efterlader
efterlades
efterladt
efterladte
efterlangt
efterlangtad
efterlangtade
efterlev
efterlevande
efterlig
efterlod
efterlys
efterlyser
efterløn
eftermid
efternamn
efternavn
efterratt
efterretning
efterskole
efterskoler
eftersmag
eftersmak
eftersp
efterspurgt
efterspurgte
efterspørg
efterspørger
efterspørgsel
efterspørgslen
efterstra
eftersyn
eftertr
eftertrad
eftertragtede
eftertrakt
efteruddannelse
ege
egedal
egenandel
egenart
egendom
egendomen
egenhand
egenskab
egenskaber
egenskapen
egenskapene
egenskaperna
egentliga
egentligen
egentligt
egersund
egetræ
egg
egge
eggen
eggene
egget
eggløsning
egil
egn
egna
egnen
egnethet
egy
egyptiske
eid
eide
eidsv
eidsvoll
eie
eiend
eiendeler
eiendom
eiendommen
eiendommene
eiendommer
eiendoms
eiendomsm
eiendomsmegler
eiendomsmegling
eiendomsskatt
eier
eierandel
eiere
eieren
eierne
eierskap
eierskapet
eies
eig
eigen
eik
eike
eiker
eil
eilert
eina
einar
eine
eirik
eit
eitt
eivind
ejak
ejakulation
eje
ejede
ejend
ejendele
ejendom
ejendomm
ejendomme
ejendommen
ejendommens
ejendoms
ejendomsm
ejendomsmægler
ejendomsmægleren
ejer
ejere
ejeren
ejerlej
ejerlejlighed
ejerlejligheder
ejerne
ejerskab
ejerskifte
ejes
ejet
eke
ekeberg
eken
eker
ekero
ekip
ekipage
ekk
ekkelt
ekle
eklund
ekman
eko
ekologisk
ekologiska
ekologiskt
ekonom
ekonomi
ekonomin
ekonomisk
ekonomiska
ekonomiskt
ekosystem
ekot
eksa
eksakt
eksamin
eksek
eksempelet
eksemplene
eksen
eksepsjon
eksil
eksistenti
eksisterede
eksisteret
eksistert
eksisterte
eksjo
eksk
ekskur
ekspansjon
ekspedisjon
ekspedisjonen
ekspedition
eksperim
eksperimenterende
ekspertene
eksperterne
eksplicit
eksplis
eksplisitt
eksplo
eksplosion
eksplosjon
eksplosjonen
ekspon
eksponer
eksponert
ekspor
eksporten
eksporter
eksprop
ekspropri
ekstrabladet
ekstraudstyr
ekstrautstyr
ekte
ektef
ektefelle
ektefellen
ektefeller
ektem
ektemann
ektemannen
ektepar
ekteparet
ekteskap
ekteskapet
elak
elaka
eland
elande
elastik
elbilar
elda
elden
eldre
eldrer
elds
eldste
elec
elefanter
elegan
elegance
elegans
eleganta
elektri
elektrif
elektrik
elektris
elektrisitet
elektriska
elektronikk
elektroniska
elektroniskt
elem
elementen
elementene
elementerne
elementet
elen
elendig
elevator
elevene
elevenes
eleverna
elevernas
eleverne
elevernes
elevers
elf
elforbrug
elfsborg
eliasson
eliminera
eliminere
elina
elinstall
elisa
elisabet
elise
elites
eliteserien
elitesingles
elits
elitserien
eliza
elk
elkjøp
ellev
elleve
elli
elling
ellingsen
elliot
ellos
elm
elnat
elsa
elskerinde
elskerinne
elv
elve
elven
elvene
elver
elverum
eman
emballage
emballagen
emballasje
embed
embedsmænd
embet
emelie
emellan
emellanat
emeller
emellertid
emh
emig
emilia
emily
emisjon
emitt
emmer
emnene
emnerne
emo
emosjon
emosjonell
emosjonelle
emot
ena
enas
enastaende
enbart
endast
endaste
endda
endegyld
endeligt
endetarmen
endnu
endog
endr
endre
endrede
endrer
endres
endret
endring
endringen
endringene
endringer
endrings
endvidere
eneb
enebakk
enebolig
energianvandning
energibespar
energibesparelser
energibruk
energid
energide
energie
energiforbrug
energiforbruget
energiforbruk
energiforbruket
energiforbrukning
energikilder
energikl
energil
energimyndigheten
energimærk
energimærke
energimærkning
energimærknings
energin
energinet
energipro
energiproduksjon
energir
energistyr
energistyrelsen
energitil
enest
engag
engagemang
engagemanget
engagement
engagera
engagerad
engagerade
engagerande
engagerar
engagerat
engagere
engagerede
engageret
engangs
engas
engasj
engasjem
engasjement
engasjementet
engasjer
engasjere
engasjerende
engasjerer
engasjert
engasjerte
enge
engels
engelska
engelskan
enger
engineering
engl
engle
engler
englænderne
engroshandel
engst
engstelig
engstrom
enhed
enheden
enheder
enhedslisten
enhetene
enheterna
enhetschef
enighed
enighet
enkat
enkaten
enkater
enkelhet
enkels
enkeltindiv
enkeltperson
enkeltsaker
enkeltstaende
enkeltvedtak
enkeltvis
enkl
enkla
enklare
enklast
enklaste
enklest
enkleste
enkoping
enl
enlig
enlige
enlighet
enligt
enn
enna
enorma
enova
ensam
ensamhet
ensamkommande
ensamma
ensamstaende
ensamt
ensartede
ensartet
ensbet
ensbetydende
ensem
ensid
ensidig
enskede
enskil
enskild
enskilda
enskilde
enskilt
enslig
enslige
ensomhed
ensomhet
enst
enstaka
enstemmig
entert
entreen
entren
entrep
entrepr
entreprenad
entreprenor
entreprenoren
entreprenorer
entreprenorskap
entreprenørskap
entreprise
entus
entusia
entusiasm
entusiasme
entusiast
entusiaster
entusiastisk
entyd
entydig
entydigt
envir
envis
enz
epid
epide
epidem
episodene
eple
epler
epok
eq
era
eran
erb
erbjod
erbju
erbjud
erbjuda
erbjudande
erbjudanden
erbjudandena
erbjudandet
erbjudas
erbjuder
erbjudit
erbjuds
ereksjon
erektil
eren
erf
erfare
erfarenhet
erfarenheten
erfarenheter
erfarer
erfaret
erfaringene
erfaringerne
erfarna
erfart
erfor
erforder
ergonomisk
ergoter
erhall
erhalla
erhallas
erhaller
erhallit
erhallits
erholl
erhver
erhverv
erhverve
erhvervelse
erhvervet
erhvervs
erhvervsakadem
erhvervsakademi
erhvervsdrivende
erhvervsk
erhvervsliv
erhvervslivet
erhvervsmæssig
erhvervsmæssige
erhvervsstyrelsen
erhvervsuddannelse
erhvervsuddannelser
erhvervsuddannelserne
erica
erich
ericsson
erika
eriksson
erind
erindring
erindringer
eritre
erk
erkanna
erkannande
erkanner
erkant
erke
erkeb
erkend
erkende
erkendelse
erkender
erkendt
erkj
erkjenne
erkjennelse
erkjenner
erkjent
erklære
erklærede
erklærer
erklæret
erklæringer
erklært
erklærte
erland
erlend
erna
erne
ernes
ernær
erobret
eros
erosjon
erotikk
erotiska
erov
ersatt
ersatta
ersattare
ersattas
ersatter
ersattes
ersattning
ersattningar
ersattningen
ersattnings
ersatts
erstatningen
erstatningsansvar
ert
erter
erver
erverv
ervervet
esa
esb
esben
esbjerg
escorte
escorter
escortpige
escortpiger
escortt
escorttjej
escorttjejer
eske
eskil
eskilst
eskilstuna
eskortejenter
eskorts
eskortt
eskorttjejer
eslov
espan
espanol
espen
esper
espresso
essens
essensen
essensielle
essensielt
essenti
essential
essentials
essentielle
essentielt
ester
estetikk
estetisk
estetiska
estetiske
estimer
estimert
etab
etabl
etablera
etablerad
etablerade
etablerat
etablerede
etableret
etablert
etablerte
etabliss
etage
etager
etanol
etape
etapp
etappe
etappen
etapper
etasje
etasjer
etat
etaten
etater
etg
eti
etiket
etikett
etiketten
etiketterna
etikk
etiopia
etiska
etnicitet
etnisitet
etniska
ets
etta
ettan
etter
etterfor
etterforsk
etterforsker
etterforskning
etterforskningen
etterful
etterfulgt
etterfølgende
etterfølger
etterhvert
etterkant
etterkommere
etterkrig
etterl
etterlater
etterlatt
etterlatte
etterleng
etterlengtet
etterlevelse
etterlig
etterlot
etterlyser
etterlyst
ettermiddag
ettermiddagen
etternavn
etterpa
etterretning
etterretnings
ettersle
ettersom
ettersp
etterspurt
etterspør
etterspørsel
etterspørselen
ettersyn
ettert
ettertanke
ettertid
ettertrakt
ettertraktet
etterutdanning
eud
eufor
euron
europaparlam
europaparlamentet
europaparlamentets
europeiska
europeiske
europeiskt
europæ
europæisk
europæiske
eurovision
eus
eut
eux
evakuert
eval
evaluer
evaluert
evel
evelina
evenemang
evenemanget
evensen
eventet
eventuel
eventuella
eventuellt
evert
eviga
evighed
evigheter
evje
evolusjon
ewa
exakt
exakta
exam
examen
examens
examensarbete
examin
exc
excell
excellent
exception
exchange
exec
exek
exem
exempel
exempelvis
exempl
exemplar
exemplet
exist
existens
existera
existerande
existerar
exit
exkl
exkluder
exklus
exklusiv
exklusiva
exklusive
exklusivt
exot
exotiska
expand
expandera
expans
expansion
expedition
experim
experiment
experimente
experimentera
experter
expertis
exploat
exploatering
exploder
explos
explosion
expo
expon
exponering
export
exporter
expressen
extender
extens
extension
extensions
exter
extern
externa
externt
extrakt
extraordin
extre
extrem
extrema
extreme
extremt
eyel
eyelash
eøf
faa
faaborg
faaet
faar
fabriken
fabriker
fabrikk
facade
facaden
facader
facebo
facebooksida
facebookside
facil
facili
facilitet
facit
fack
facket
fackforbund
fackliga
facon
facts
fadder
faddere
fade
faderen
faderens
fadern
fadet
fadøl
faen
faet
fagbevegelsen
fagbladet
fagbrev
fagel
fageln
fagersta
fagets
fagfelt
fagfeltet
fagforbundet
faggrupper
fagkunnskap
fagl
faglar
faglarna
faglighed
fagligt
faglærte
fagmiljø
fagmiljøer
fagomrade
fagomradene
fagomradet
fagskole
fairt
fairtrade
faks
faktab
faktiska
faktiskt
faktist
faktoren
faktorene
faktorn
fakturaen
fakturaer
fakturan
fakturor
fakul
fakulteten
fakultetet
falck
fald
falde
faldende
falder
faldet
faldt
falgar
falken
falkenberg
falkoping
falla
fallande
falle
fallen
fallende
fallit
falls
fallskjerm
falska
falskt
falten
faltet
falu
falun
familiegjen
familiel
familieliv
familiemed
familiene
familieret
familierne
familiesammen
familj
familje
familjehem
familjel
familjeliv
familjemedlem
familjemedlemmar
familjen
familjens
familjer
familjerna
famn
famnen
fana
fand
fanden
fandt
fandtes
fane
faneb
fanga
fangade
fangar
fangas
fangat
fangede
fangels
fangelse
fangelset
fangen
fangene
fangsl
fangsten
fanns
fanny
fantasifulde
fantasin
fantastiska
fantastiskt
fantes
fanø
fara
faran
farbror
fard
fardas
farden
fardig
fardiga
fardighet
fardigheter
fardigt
fardtjanst
farene
farens
farga
fargad
fargade
fargat
farge
fargeleg
fargene
fargerik
fargerike
fargerna
farges
farget
fargglada
fargmodellen
fargton
fargutrymmet
farja
farjan
farje
farjestad
farliga
farmace
farmak
farmas
farmasøyt
farmasøytisk
farmen
faro
faror
farre
farsk
farska
farskt
farsta
farsund
fartpilot
fartstid
fartyg
fartyget
fartøj
fartøjer
fartøy
fartøyer
fartøyet
farum
farv
farval
farvande
farvann
farve
farvede
farvek
farven
farver
farverig
farverige
farverne
farves
farvest
farvestr
farvestralende
farvet
fasad
fasade
fascin
fascination
fascinerad
fascinerande
fascineret
fascinert
fasiliteter
fasit
fasta
fastan
fastel
fastelavn
fastgøres
fastholde
fastholdelse
fastholder
fastholdes
fastholdt
fastighet
fastigheten
fastighetens
fastigheter
fastigheterna
fastighets
fastighetsagare
fastighetsagaren
fastighetsmak
fastighetsmaklare
fastlagt
fastlagte
fastlege
fastlegen
fastleger
fastlægge
fastlæggelse
fastlægger
fastlægges
fastna
fastnade
fastnar
fastnat
fasts
fastsat
fastsatt
fastsette
fastsettelse
fastsetter
fastsettes
fastsl
fastslaet
faststall
faststalla
faststallande
faststallas
faststalld
faststallda
faststaller
faststalls
faststallt
faststallts
fastsætte
fastsættelse
fastsætter
fastsættes
fatall
fatol
fatolj
fatta
fattade
fattades
fattar
fattas
fattat
fatte
fattes
fattet
fattiga
fau
fauske
favn
favoriten
favoriter
favorits
favoritt
favorittene
favrskov
favør
faxe
fbi
fck
fcm
fdf
fdm
feat
featur
features
febern
febr
februari
fede
federal
federala
fedeste
fedre
fedt
fedtet
fedts
fedtsyrer
feg
feil
feilaktig
feile
feilen
feilene
feir
feire
feirer
feires
feiret
feiring
feiringen
fejl
fejlagtigt
fejlen
fejler
fejlf
fejlfri
fejre
fejrede
fejrer
fejres
fejret
fekk
felakt
felaktig
felaktiga
felaktigt
felet
felicia
felix
fell
felle
feller
felles
felleskap
felleskj
felleskjøpet
fellesskap
fellesskapet
felling
fels
feltene
felterne
feminin
feminism
feminist
feminister
feministiska
feministiskt
femma
femten
femti
femtio
femton
feng
fengende
fengsel
fengselet
fengsels
fengsler
fengslet
fenom
fenomener
ferd
ferden
ferdes
ferdig
ferdige
ferdighet
ferdighetene
ferdigheter
ferdigstill
ferdigstillelse
ferdigstilt
ferdsel
ferg
ferge
fergus
feriebolig
ferieboliger
ferieg
feriehus
ferielej
ferielejlighed
ferielejligheder
feriepenge
feriet
ferje
ferr
ferske
ferskt
ferskvand
ferskvann
fert
fertil
fertilitet
festa
feste
festes
festet
festlig
festlige
festligt
festning
festningen
feta
fetaost
fete
fetisch
fetma
fetts
fettsyr
fettsyrer
fettsyror
fff
fg
fiasko
fib
fibre
fibrer
fic
fick
ficka
fickan
fickor
fid
fie
fien
fiend
fiendt
fif
fiff
figurene
figurerne
fika
fikade
fikar
fikat
fikk
fiks
fikser
fikset
fiksjon
fiktion
filene
filerna
filial
filipinske
filippa
filippinene
filippinerne
fill
filma
filmade
filmerna
filmklipp
filmp
films
filmskap
filos
filosofiska
filtar
filteret
filtre
filtrera
filtret
fina
finance
finansdepartementet
finansiel
finansiella
finansiellt
finansiera
finansieras
finansieret
finansieringsalternativ
finansiert
finansinspektionen
finansinstitut
finanskr
finanslov
finansloven
finansminister
finansministeriet
finare
finaste
finde
finder
findes
finess
fingeravtrykk
fingert
fingrar
fingrarna
fingret
finha
finhack
finlands
finlandska
finlandssven
finna
finnar
finnas
finne
finnmark
finnmarks
finns
fins
finska
finst
finur
fiol
fiolin
fira
firade
firades
firande
firandet
firar
firas
firat
firehjul
firk
firkantede
firkantet
firmaets
firman
fischer
fiska
fiskar
fiskare
fiskarna
fiskerid
fiskeriet
fisse
fissen
fisser
fist
fitnesscenter
fittan
fitte
fittor
fixa
fixade
fixar
fixas
fixat
fjad
fjader
fjadrar
fjall
fjallen
fjar
fjard
fjarde
fjardedel
fjaril
fjarilar
fjarr
fjarran
fjarrkontroll
fjarrvarme
fjell
fjellene
fjellet
fjellom
fjells
fjellt
fjen
fjende
fjenden
fjender
fjendt
fjerdedel
fjerkræ
fjernbetjening
fjernbetjeningen
fjernede
fjernelse
fjerneste
fjerning
fjernsynet
fjernvarm
fjes
fjolarets
fjollet
fjor
fjoraret
fjorarets
fjordane
fjorder
fjort
fjorten
fjorton
fjær
fjø
fjør
flack
flackar
flade
fladen
flader
fladskærm
fladskærms
fladt
flager
flaget
flagga
flaggan
flagget
flaggor
flak
flaks
flakt
flaktar
flakten
flammer
flas
flaska
flaskan
flaskor
flate
flaten
flater
flatt
flau
flaut
fleece
fleire
flekk
flekke
flekkefjord
flekker
fleksjob
flem
flemming
flensborg
flensburg
flera
flerbostadshus
flerbruks
flerkultur
flert
flertalet
flertall
fles
fleshlight
flesta
flet
flexi
flexibel
flexibelt
flexibilitet
flexibla
flg
fli
flick
flicka
flickan
flickor
flickorna
flickv
flickvan
flight
flik
fliken
flin
fling
flinkere
flip
flipp
flirta
flirte
flise
flitigt
flittige
flittigt
flock
floda
flode
floder
flodet
flog
flok
flokk
flom
floor
flort
florø
flottere
flov
fluff
flug
fluga
flugor
flugt
flukt
flumm
flybillet
flydde
flyde
flydende
flyder
flyene
flyga
flygande
flygbolag
flyger
flyget
flygplan
flygplats
flygplatsen
flygplatser
flygresor
flygt
flygte
flygtede
flygter
flygtning
flygtninge
flykte
flyktet
flykting
flyktingar
flyktning
flyktningene
flyktninger
flyplass
flyplassen
flyplasser
flyreiser
flyrejser
flys
flyselskab
flyselskaber
flyselskap
flyselskaper
flyselskapet
flyta
flytande
flyte
flytende
flytning
flytningen
flytninger
flyttade
flyttades
flyttar
flyttas
flyttat
flyttede
flytten
flytting
flyttstadning
flyv
flyve
flyvende
flyver
flyverdragt
flyvet
flyvning
flæ
flæskest
flø
fløde
fløden
flødeskum
fløj
fløjet
flør
flørt
flørte
flørter
flørting
fløte
fløy
fniss
fns
foa
fobi
foda
fodbold
fodboldspiller
fodd
fodda
fodde
foddes
fodels
fodelse
fodelsedag
fodelsedagen
fodelsedagspresent
foden
foderet
fodgænger
fodral
fodre
fodret
fodring
fodspor
fodtøj
foer
foga
foged
fogh
fokusera
fokuserad
fokuserade
fokuserar
fokuserat
fokuserede
fokuseres
fokuseret
fokusert
fokuserte
fokuset
fokusomrader
folde
folder
folj
folja
foljaktligen
foljande
foljare
foljas
foljd
foljde
foljden
foljder
foljdes
foljer
foljes
foljeslagare
foljs
foljt
folka
folkbok
folkeaf
folkeafstemning
folkeav
folkeh
folkehelse
folkehelseinstituttet
folkehjelp
folkehøg
folkehøgskole
folkekirk
folkekirken
folkekirkens
folkelige
folkemord
folkemusikk
folkemødet
folkens
folkeoplys
folkepension
folkeregisteret
folkes
folkesk
folkeskol
folkeskole
folkeskolen
folkeskolens
folkeskoler
folkesundhed
folketing
folketinget
folketingets
folketings
folketingsvalg
folketry
folketrygd
folketrygden
folkevalgte
folkhals
folkhalso
folkhog
folkhogskola
folkm
folkmusik
folkom
folkpartiet
folksam
folkt
foll
follo
fonde
fonder
fonderna
fondet
fonster
fonstren
fonstret
football
forad
foral
foralder
foraldern
foraldr
foraldra
foraldral
foraldraled
foraldrar
foraldrarna
foraldrarnas
foraldrars
foraldraskap
foralskad
forander
forandra
forandrad
forandrade
forandrades
forandrar
forandras
forandrat
forandrats
forandringar
forandringarna
forandringen
forankrad
foranstalt
foranstaltning
foranstaltninger
forarbejdning
forare
foraren
foraret
forarets
forars
forarsa
forarsage
forarsager
forarsaget
forarsake
forarsaker
forarsaket
foras
forba
forbann
forbanna
forbannad
forbannade
forbannat
forbatt
forbattra
forbattrad
forbattrade
forbattrar
forbattras
forbattrat
forbattrats
forbattring
forbattringar
forbav
forbedrede
forbedrings
forbehall
forbehaller
forbereda
forberedd
forberedda
forberedelsene
forberedelserna
forberedelserne
forberedte
forberett
forbilde
forbilder
forbillede
forbinde
forbindel
forbindes
forbju
forbjud
forbjuda
forbjuden
forbjudet
forbjudna
forble
forblev
forblive
forbliver
forbløff
forbløffende
forbr
forbran
forbranning
forbren
forbrenning
forbrug
forbruger
forbrugere
forbrugeren
forbrugerne
forbrugerradet
forbruget
forbrugs
forbrugslan
forbruker
forbrukere
forbrukeren
forbrukerkjøp
forbrukerne
forbrukerombudet
forbrukerradet
forbruket
forbrukning
forbruks
forbrukslan
forbrydelse
forbrydelser
forbryt
forbrytelser
forbrænd
forbrænding
forbuddet
forbudte
forbundne
forbunds
forbundskapten
forby
forbyde
forbyr
forde
fordela
fordelade
fordelagtige
fordelagtigt
fordelaktig
fordelaktigt
fordelar
fordelarna
fordelas
fordelat
fordelings
fordelning
fordelningen
fordes
fordju
fordjup
fordjupa
fordjupad
fordjupning
fordob
fordoblet
fordom
fordomar
fordomme
fordommer
fordon
fordonet
fordons
fordr
fordran
fordring
fordringar
fordro
fordubb
fordyb
fordybe
fordybelse
fordyp
fordype
fordypning
fordær
fordø
fordøj
fordøy
foreb
forebild
forebilder
foreby
forebyg
forebygga
forebyggande
forebyggelse
forebyggelses
forebygger
forebygging
foredra
foredragsholdere
foredrar
forefaller
forefindes
foregaet
foregang
foregangare
foregatt
foregik
foregikk
forekomma
forekommande
forekommende
forekommit
forela
forelas
forelasare
forelaser
forelasning
forelasningar
forelasningen
foreld
forelder
foreldre
foreldrem
foreldrene
foreldrenes
foreldreper
foreldres
foreles
forelesning
forelesninger
forelskede
forelæg
forelægges
forelæs
foreløb
foreløbig
foreløbige
foreløbigt
foreløp
foreløpig
foreløpige
foremal
foremalet
forena
forenade
forenar
forenas
forenede
forener
foreningar
foreningarna
foreningerne
forenkla
forenklar
forenklat
forenkle
forenkler
forenklet
forenkling
forenlig
forens
forenta
forente
foresatte
foresk
foreskrift
foreskrifter
foreskrifterna
foreskriv
foreskrivs
foreslaede
foreslaet
foreslag
foreslagit
foreslagna
foreslatt
foreslatte
foreslo
forespra
foresprak
foresprakar
forespør
forespørg
forespørgsel
forespørgsler
forespørsel
forespørselen
forespørsler
forestall
forestalla
forestaller
forestallning
forestallningar
forestallningen
foresten
forestiller
forestillet
foreta
foretagande
foretagare
foretagarna
foretage
foretagen
foretagens
foretager
foretages
foretagets
foretags
foretagsekonomi
foretagsh
foretak
foretakene
foretaket
foretakets
foretaks
foretar
foretas
foretatt
forete
foreteelser
foretog
foretok
foretrad
foretradare
foretrader
foretrades
foretre
foretrekke
foretrekker
foretrukket
foretrække
foretrækker
forev
forever
forex
forfal
forfald
forfallna
forfar
forfarande
forfarandet
forfat
forfatning
forfattar
forfattare
forfattaren
forfattarens
forfattarna
forfattarskap
forfatterskab
forfatterskap
forfattning
forfedre
forferd
forferdelig
forferdelige
forflutna
forfly
forflyt
forflytt
forflytta
forfog
forfogande
forfolj
forfor
forfra
forfrag
forfragan
forfragningar
forfri
forfrisk
forful
forfulgt
forfær
forfærd
forfærdelig
forfærdelige
forfærdeligt
forføl
forfølg
forfølgelse
forførende
forgangne
forgar
forgift
forgje
forgjenger
forgjengeren
forgjeves
forgy
forgænger
forgæves
forhab
forhabentlig
forhabentligt
forhall
forhalla
forhallande
forhallanden
forhallandena
forhallandet
forhallandevis
forhaller
forhallningssatt
forhandla
forhandleren
forhandles
forhandlet
forhandlingar
forhandlingarna
forhandlingene
forhandlingerne
forhandsbe
forhandsgod
forhap
forhapentlig
forhapentligvis
forhen
forhenværende
forhind
forhindra
forhindrar
forhindring
forhindringer
forhojd
forholdsvist
forhopp
forhoppning
forhoppningar
forhoppningen
forhoppningsvis
forhor
forhuden
forhøj
forhøjede
forhøjelse
forhøjet
forhøyet
forinden
foring
forint
forkastet
forker
forkert
forkerte
forkjøl
forkjølelse
forkjøp
forklara
forklarade
forklarar
forklaras
forklarat
forklarede
forklaret
forklaringar
forklart
forklarte
forknipp
forknippade
forknippar
forknippas
forkunskaper
forkyl
forkyld
forkylning
forkylningen
forkynd
forkynn
forkynnelse
forkæl
forkæle
forkælelse
forkælet
forkærlighed
forkøl
forkølelse
forlad
forlade
forlader
forladt
forlagets
forlanga
forlangd
forlange
forlangning
forlangningen
forlat
forlata
forlate
forlatelse
forlater
forlatt
forleden
forleng
forlenge
forlengelse
forlenger
forlenget
forlig
forlik
forlita
forlo
forlod
forlor
forlora
forlorad
forlorade
forlorar
forlorat
forloss
forlossning
forlossningen
forlossnings
forlot
forlovet
forlust
forlusten
forluster
forlyst
forlystelses
forlæng
forlænge
forlængelse
forlænger
forlænges
forlænget
forløb
forløber
forløbet
forløbne
forløp
forma
formad
formade
formaede
formaen
formaet
formaga
formagan
formagor
forman
formand
formanden
formandens
formanen
formaner
formanliga
formann
formannskap
formannskapet
formannskapets
formannskapssalen
formans
formas
formed
formedla
formedlar
formedling
formelen
formella
formellt
formene
formentlig
formerna
formgivning
formidabel
formidles
formind
formodan
formodentlig
formoder
formodes
formodligen
formogen
formogenhet
formues
formul
formula
formularen
formularet
formulera
formuleret
formulering
formulert
forna
fornamn
fornavn
fornebu
forned
forneden
forneka
fornekar
fornem
fornemm
fornemme
fornemmelse
fornemmelsen
fornemmer
fornuftigt
fornya
fornybara
fornybare
fornye
fornær
fornærm
fornærmede
fornød
fornødne
fornøj
fornøjelse
fornøjelsen
fornøy
fornøyd
fornøyde
fornøyelse
forod
forodande
forol
foror
forordningar
fororen
fororeningar
forov
foroven
forovrigt
forpack
forpackning
forpackningar
forpackningen
forpacknings
forplejning
forpli
forpligt
forpligtelse
forpligtelser
forpligtende
forpligter
forpligtet
forplikte
forpliktelse
forpliktende
forplikter
forpliktet
forprosjekt
forprosjektet
forr
forra
forrad
forradet
forran
forratt
forrent
forrest
forreste
forretningen
forretningsm
forretningsmæssige
forretningsorden
forrgar
forring
forrygende
forsa
forsak
forsakra
forsakrad
forsakrade
forsakrar
forsakring
forsakringar
forsakringen
forsakrings
forsakringsbolag
forsakringsbolaget
forsakringsk
forsakringskassan
forsalj
forsaljare
forsaljning
forsaljningen
forsaljnings
forsamlingar
forsamlings
forsamlingshus
forsamras
forsand
forsat
forsav
forsavidt
forsavitt
forsberg
forse
forsedd
forsedda
forsenad
forsenade
forsenat
forsendelse
forsendelsen
forsening
forseningar
forsent
forser
forses
forsett
forsigt
forsigtig
forsigtighed
forsigtigt
forsikringss
forsikringsselskab
forsikringsselskaber
forsikringsselskabet
forsikringsselskap
forsikringsselskapet
forsikt
forsiktiga
forsiktige
forsiktigt
forska
forskar
forskare
forskaren
forskarna
forske
forskel
forskelle
forskellen
forskellene
forskellig
forskelligartede
forskellige
forskellighed
forskelligt
forskels
forskelsbehandling
forskeren
forsket
forskjel
forskjell
forskjellen
forskjellene
forskjeller
forskjellig
forskjellige
forskjellsbehandling
forskjut
forskningsbasert
forskningset
forskningsmiljøer
forskningsprosjekt
forskningsprosjekter
forskningsprosjektet
forskningsrad
forskningsradet
forskol
forskola
forskolan
forskolans
forskole
forskoleklass
forskollar
forskollarare
forskolor
forskott
forskotts
forskrack
forskriften
forskriftene
forskriftens
forskud
forskudd
forsky
forslagen
forsok
forsoka
forsoker
forsoket
forsokt
forsokte
forson
forsoning
forsor
forsorj
forsorja
forsorjning
forspil
forstad
forstaelig
forstaeligt
forstaet
forstander
forstark
forstarka
forstarker
forstarkning
forstarkt
forste
forster
forsterke
forsterker
forsterkes
forsterket
forstklass
forstklassig
forsto
forstopp
forstoppelse
forstor
forstora
forstord
forstorde
forstort
forstud
forstyrrer
forstærk
forstærke
forstærker
forstærket
forstærkning
forstørrelse
forsumm
forsvag
forsvandt
forsvann
forsvant
forsvara
forsvarar
forsvarare
forsvarligt
forsvarsbygg
forsvarsdepartementet
forsvarsmakt
forsvarsmakten
forsvarsmaktens
forsvinde
forsvinder
forsvinna
forsvinne
forsvundet
forsvunna
forsvunnen
forsvunnet
forsvunnit
forsyn
forsynes
forsynet
forsynings
forsæt
forsø
forsøg
forsøge
forsøger
forsøget
forsøgt
forsøgte
forsøk
forsøke
forsøkene
forsøker
forsøket
forsøks
forsøkt
forsøkte
forsør
forsørg
forsørgelse
fortab
fortal
fortare
fortau
fortbildning
forteckning
fortel
fortell
fortelle
forteller
fortelles
fortelling
fortellingen
fortellingene
fortellinger
fortere
fortfarande
fortidens
fortj
fortjan
fortjanar
fortjanst
fortjente
fortjus
fortjusning
fortjust
fortlopande
fortløpende
fortolk
fortolke
fortolkning
fortov
fortr
fortraff
fortrin
fortrinn
fortrinnsrett
fortrinnsvis
fortrins
fortrinsvis
fortro
fortroende
fortroendet
fortroendevalda
fortrolige
fortrolighed
fortroligt
fortroll
fortrudt
fortryck
fortryde
fortrydelses
fortrydelsesret
fortryder
fortryl
fortryllende
fortræ
fortsat
fortsatta
fortsatter
fortsattning
fortsattningen
fortsattningsvis
fortsett
fortsette
fortsettelsen
fortsetter
fortsæt
fortsætte
fortsættelse
fortsætter
fortsættes
fortune
fortvil
fortvilelse
fortvilet
fortvivl
fortydlig
fortydliga
fortæl
fortælle
fortæller
fortælles
fortælling
fortællingen
fortællinger
forud
forude
foruden
forudgaende
foruds
forudsat
forudsig
forudsige
forudsætning
forudsætningen
forudsætninger
forudsætningerne
forudsætter
forudsættes
forunder
forundersokning
forur
foruren
forurenet
forurening
forureningen
forurens
forurenset
forurensing
forurensning
foruten
forutom
forutsag
forutsatter
forutsattning
forutsattningar
forutsattningarna
forutsetning
forutsetningen
forutsetningene
forutsetninger
forutsetter
forutsettes
forutsi
forutsig
forutsigbar
forutsigbare
forutsigbarhet
forvag
forvalta
forvaltar
forvaltare
forvalte
forvalter
forvaltes
forvaltningsloven
forvaltningsratten
forvaltningsrevisjon
forvan
forvanad
forvanade
forvanande
forvanansvart
forvandla
forvandlas
forvandle
forvandling
forvaning
forvant
forvanta
forvantade
forvantan
forvantans
forvantar
forvantas
forvantat
forvantningar
forvantningarna
forvar
forvara
forvaras
forvaring
forvarings
forvarv
forvarva
forvarvade
forvarvat
forvarvet
forvarvs
forvax
forveien
forvejen
forventningen
forventningene
forventningerne
forver
forverk
forverklig
forverkliga
forvirrad
forvirrande
forviss
forvisso
forvær
forward
foræl
foræld
forældede
forælder
forældet
forældr
forældre
forældrem
forældremyndighed
forældrene
forældrenes
forældres
forøg
forøge
forøgelse
forøget
forøvrig
fosen
fosse
fossen
fossila
fossum
fosteret
fosterhjem
fota
fotade
fotar
fotat
fotball
fotballen
fotballforbund
fotballkamp
fotballspiller
fotballspillere
fotboll
fotbollen
fotbolls
fotbollsmatch
fotbollsspelare
fotgjenger
fotgjengere
fotob
fotografera
fotograferade
fotograferar
fotograferet
fotografert
fotok
foton
fotot
fotter
fotterna
fotvard
fp
fps
frack
fracka
frafald
frafall
frafl
fraflytning
fraga
fragade
fragan
fragar
fragat
frage
fragest
fragestall
fragestallningar
frageteck
fragetecken
fragor
fragorna
fragt
fraiche
frakte
frakten
fraktet
fraktfritt
fral
frals
framat
framdrift
framemot
framfart
framfora
framforallt
framforde
framga
framgangar
framgangs
framgangsrik
framgangsrika
framgangsrikt
framhaller
framhe
framja
framjande
framjar
framkall
framkalla
framkant
framkom
framkommer
framkommit
framleis
framling
framlingar
framlingsf
framm
frammande
framre
framsida
framsidan
framst
framsta
framstaende
framstall
framstalla
framstallning
framstalls
framsteg
framstilling
framt
framtagen
framtagna
framtidens
framtidig
framtidige
framtids
framtill
framtrad
framtradande
framtrader
franco
frand
frandsen
frankf
frankrig
frankrigs
fransar
franska
franvarande
franvaro
fras
frasch
frascha
frascht
fraser
frases
fratatt
fratræ
fratrækkes
fratse
frav
fravig
fravæl
fravælge
fredagar
fredagskvallen
fredagsmys
fredede
fredelige
fredeligt
fredensborg
fredericia
frederiks
frederiksberg
frederiksborg
frederiksen
frederikshavn
frederikssund
frederiksværk
fredning
frednings
fredriks
fredriksen
fredriksson
fredrikstad
freds
fredspris
freel
frekk
frekke
frekv
frekvent
frelses
frelsesarme
frelst
fremad
fremadrettet
fremdeles
fremført
fremgangsmade
fremgangsmaden
fremgangsmate
fremgangsmaten
fremgik
fremhe
fremheve
fremhever
fremhevet
fremhæ
fremhæv
fremhæve
fremhævede
fremhæver
fremhæves
fremhævet
fremkalde
fremlagde
fremlægge
fremlæggelse
fremlægger
fremlægges
fremmedsprak
fremmedsprog
fremmes
fremmest
fremmet
fremmøde
fremmødte
fremmøtte
frems
fremsat
fremsatt
fremsende
fremsendes
fremsendt
fremsk
fremskridt
fremskritt
fremskrittspartiet
fremst
fremste
fremstillede
fremstiller
fremstillet
fremstillingen
fremstilt
fremsætte
fremt
fremtidigt
fremtids
fremtidsrettet
fremtidss
fremtredende
fremtræ
fremtrædende
fremtræder
fremvise
fremvisning
fres
frest
frete
fretex
fria
fridag
friere
frigives
frigivet
frigjort
frigjør
frigjøre
frigjøres
frigjøring
frigor
frigora
frigør
frigøre
frihed
friheden
frihets
friidrett
friidrott
friis
frikad
frikadeller
frikjent
friksjon
friland
frilans
frim
friska
friskare
friskere
friskis
friskol
friskole
friskvard
frisor
frisoren
frisp
frispark
fristaende
friste
frisure
frisyr
fritaget
fritak
fritatt
fritidsb
fritidshem
fritidshus
frittstaende
fritz
friv
frivill
frivilliga
frivillighed
frivillighet
frk
frn
frod
frode
frogn
frogner
frojd
froken
frolunda
frosne
frp
frps
fruar
frue
frug
frugt
frugten
frugter
frukost
frukostbuffe
frukosten
fruktansvard
fruktansvarda
fruktansvart
fruktig
frun
frus
frusen
frustrasjon
frustrationer
frustrerad
frustrerande
frustreret
frustrert
fryg
frygt
frygte
frygtede
frygtelig
frygteligt
frygten
frygter
frykt
frykte
fryktelig
frykten
frykter
fryktet
frysa
frysen
fryst
frysta
fræ
fræk
frække
frækkeste
frækt
frøs
frøy
frøya
fucked
fucks
fuge
fugls
fuglsang
fugt
fugtig
fugtige
fugtighed
fugtigt
fuktiga
fuktighet
fuktigt
fula
fuld
fuldbyr
fulde
fuldendt
fuldføre
fuldkommen
fuldkorn
fuldmagt
fuldstænd
fuldstændig
fuldstændige
fuldstændigt
fuldt
fuldtid
fuldtids
fulla
fulland
fullbok
fullbord
fulle
fullfolja
fullføre
fullfører
fullført
fullførte
fullgora
fullkomligt
fullkorn
fullm
fullmakten
fullmakter
fullmaktige
fullmektig
fullo
fullsatt
fullspack
fullstand
fullstandig
fullstandiga
fullstandigt
fullstendig
fullstendige
fulltid
fullverdig
fundamentale
fundera
funderade
funderar
funderat
funderet
funderingar
fundet
fungera
fungerade
fungerande
fungerar
fungerat
fungerede
fungeret
fungert
fungerte
funka
funkade
funkar
funkat
funker
funksjon
funksjonalitet
funksjonaliteten
funksjonell
funksjonelle
funksjonelt
funksjonen
funksjonene
funksjoner
funksjonsevne
funksjonshe
funksjonshemmede
funksjonshemming
funksjonsned
funktionarer
funktionel
funktionell
funktionella
funktionelle
funktionelt
funktionerna
funktionerne
funktions
funktionsevne
funktionsh
funktionshin
funktionshinder
funktionshindrade
funktionsnedsattning
funktionsnedsattningar
funktionær
funnene
funnet
funnit
funnits
fup
furesø
fusionen
fusjon
fusjonen
fx
fyfan
fyld
fylde
fylder
fyldes
fyldest
fyldestgørende
fyldet
fyldige
fyldt
fyldte
fylke
fylkene
fylker
fylkes
fylkeskomm
fylkeskommun
fylkeskommune
fylkeskommunen
fylkeskommunene
fylkeskommunens
fylkeskommuner
fylkesmann
fylkesmannen
fylkesmannens
fylkesrad
fylkesradet
fylkestinget
fylkesvei
fylket
fylla
fyllas
fylld
fyllda
fyllde
fylldes
fylle
fylles
fyllig
fylling
fyllning
fyllningen
fylls
fyllt
fylt
fylte
fynd
fynda
fyns
fynske
fyra
fyre
fyrene
fyrer
fyret
fyrhjul
fyrings
fyrkant
fyrret
fyrst
fyrste
fyrtio
fyrverkeri
fyrværkeri
fysikk
fysio
fysioterapeuter
fysiska
fysiskt
fz
fædr
fædre
fædreland
fæl
fælde
fælder
fælge
fælle
fælled
fælles
fællesk
fælless
fællesskab
fællesskaber
fællesskabet
fæng
fængsel
fængsels
fængslet
fænomen
fænomener
fænomenet
færd
færdes
færdig
færdige
færdiggjort
færdiggøre
færdighed
færdigheder
færdigt
færdsel
færdsels
færge
færgen
færger
færø
færøerne
færøyene
fæst
fæste
fætter
fødder
fødderne
fødes
fødevar
fødevare
fødevaremin
fødevarer
fødevarestyrelsen
fødselen
fødselsdag
fødselsdage
fødselsdagen
fødselsdagsgave
fødselsdato
fødslen
føj
føje
følelsene
følelserne
følelsesmessig
følelsesmessige
følelsesmæssig
følelsesmæssige
følelsesmæssigt
følgelig
følsomhed
føn
førde
førend
førende
førere
førerkort
førhen
føringer
førjul
førnævnte
førskole
førstdato
førsteam
førsteamanuensis
førstehjelp
førstehjælp
førsteinntrykk
førsteklass
førstepladsen
førstnevnte
førstnævnte
førstpris
førti
førtid
førtidspension
føtex
føttene
føtter
føyer
fцr
gaa
gaafstand
gaar
gaard
gabbana
gadd
gadda
gade
gaden
gader
gaderne
gadgets
gaet
gaff
gahr
gala
galan
galant
galde
galden
galdenar
galen
galet
galla
gallande
gallde
galle
galleries
gallivare
gallring
galna
galning
galoppen
galskap
galvan
gamb
gamers
gamla
gamlebyen
gammal
gammaldags
gammalt
gammeld
gan
gand
gangene
gangerna
ganget
gangna
gangvag
ganska
garagen
garaget
garan
garantera
garanterad
garanterade
garanterar
garanteras
garanterat
garanteret
garantert
garantin
garasje
garasjen
gardagen
gardagens
gardar
gardene
gardermoen
garderober
gardet
gardhave
gardin
gardinbussen
gardsbruk
garna
garning
garningar
garnings
garningsmannen
garsdagens
gary
gasen
gaser
gasol
gassen
gasskraft
gastar
gaster
gasterna
gastron
gastronom
gatan
gatek
gaten
gatene
gater
gator
gatorna
gatu
gatur
gature
gaus
gausdal
gaust
gaute
gava
gaveideer
gavekortet
gavene
gavl
gavle
gavleborg
gavleborgs
gavm
gavmild
gavn
gavne
gavner
gavnlige
gavor
gavs
gbg
gdansk
geark
gebyret
gede
gedig
gedigen
gediget
gef
gefle
geilo
geir
geit
gej
gejst
gelat
gellerup
gemen
gemensam
gemensamma
gemensamt
gemenskap
gemenskapen
gemme
gemmer
gemmes
gemt
gemte
genan
genanvend
genanvende
genanvendelse
genast
genbru
genbrug
genbrugsplads
gend
gendan
generald
generaldirektor
generalfor
generalforsamlingens
generalsekreterare
generalsekretær
generasjon
generasjonen
generasjoner
generasjons
generat
generationen
generationens
genere
generel
generella
generellt
generende
generer
generera
genererar
genererer
generert
generet
generos
generosa
generost
genert
genetiska
geneve
geng
gengivelse
gengivet
gengæld
geniale
genind
genkend
genkende
genkender
gennem
gennembrud
gennemfør
gennemføre
gennemførelse
gennemførelsen
gennemfører
gennemføres
gennemført
gennemførte
gennemga
gennemgaende
gennemgaet
gennemgang
gennemgangen
gennemgar
gennemgas
gennemgik
gennemgribende
gennems
gennemse
gennemsigt
gennemsigtig
gennemsigtige
gennemsigtighed
gennemsku
gennemskue
gennemslag
gennemsnit
gennemsnitlig
gennemsnitlige
gennemsnitligt
gennemsnits
gennemsnittet
gennemt
gennemtænkt
genom
genombrott
genomfor
genomfora
genomforande
genomforandet
genomforas
genomforbart
genomford
genomforda
genomforde
genomfordes
genomfors
genomfort
genomforts
genomga
genomgaende
genomgang
genomgar
genomgatt
genomskin
genomskinliga
genomslag
genomsnitt
genomsnittet
genomsnittlig
genomsnittliga
genomsyr
genomtankt
genomtankta
genop
genoprette
genoptage
genoptagelse
genoptræ
genoptræning
genser
gensere
genseren
gensidig
gensidige
gensidigt
genskabe
genstand
genstande
gensyn
gentag
gentage
gentagelse
gentagelser
gentager
gentages
gentaget
gentagne
gente
gentemot
gentleman
gentlemen
gentofte
genud
genuin
genuint
genus
genv
genvalg
genvej
genvinde
geo
geografiska
geografiskt
geometr
georgia
geotekn
gerd
gerhard
gerne
gerning
gerninger
gerningsm
gerningsmanden
gestal
gestalt
gets
gett
gev
gevald
gevaldigt
gevind
gevinstene
gg
ggr
ghetto
ghost
gib
gick
gidder
gider
gifta
giftede
giftes
giftet
giftig
giftiga
gigantiska
gigt
gik
gikk
gilde
gilla
gillade
gillar
gillat
gilleleje
gilt
giltig
giltiga
giltighet
giltigt
gim
ginza
gip
gira
giske
gislav
giss
gissa
gissar
gissel
gissning
git
gitarist
gitarr
gitt
gitter
givande
givare
givent
gives
givit
givna
givne
gje
gjedde
gjekk
gjeld
gjelde
gjelden
gjeldende
gjeldene
gjelder
gjem
gjemme
gjemmer
gjemt
gjenbru
gjenbruk
gjeng
gjengen
gjengi
gjengir
gjengitt
gjengjeld
gjeninn
gjenkj
gjenkjenn
gjenkjenne
gjenlevende
gjenn
gjennom
gjennombrudd
gjennomfør
gjennomføre
gjennomfører
gjennomføres
gjennomføring
gjennomføringen
gjennomførings
gjennomført
gjennomførte
gjennomga
gjennomgaende
gjennomgang
gjennomgangen
gjennomgar
gjennomgas
gjennomgatt
gjennomgikk
gjennomsiktig
gjennomsiktige
gjennomslag
gjennomsnitt
gjennomsnittet
gjennomsnittlig
gjennomsnittlige
gjennomsnitts
gjennomtenkt
gjenopp
gjenopprett
gjenopprette
gjenoppretting
gjens
gjensidig
gjensidige
gjenskap
gjenskape
gjenspe
gjenspeile
gjenspeiler
gjenspeiles
gjenstaende
gjenstand
gjenstandene
gjenstander
gjenstar
gjensyn
gjent
gjenta
gjentar
gjentas
gjentatt
gjentatte
gjentok
gjenv
gjenvalg
gjenvalgt
gjenvinne
gjenvinning
gjenværende
gjerd
gjerde
gjerder
gjerdet
gjere
gjermund
gjerne
gjerning
gjerninger
gjerningsm
gjerningsmannen
gjert
gjesp
gjest
gjeste
gjesten
gjestene
gjester
gjett
gjette
gjev
gjeve
gjord
gjorda
gjordes
gjorts
gjut
gjær
gjø
gjød
gjødsel
gjødsling
gjør
gjøre
gjøremal
gjøres
gjøvik
gla
glaci
glada
gladare
gladere
gladja
gladjande
gladjas
gladje
gladjen
gladsa
gladsaxe
glaset
glasfiber
glask
glasogon
glassen
glasur
glat
glatbar
glatbarberet
glede
gledelig
gleden
gleder
gledet
gles
gli
glida
glide
glidecreme
glidelas
glidende
glidmedel
glimmer
glip
glipp
glir
glit
glitt
globala
globen
glod
glogg
glom
glomde
glommer
glomt
glor
glostrup
gls
gluc
glukos
glukose
glutenfri
glutenfria
glyk
glæ
glæd
glæde
glædede
glædelig
glædeligt
glæden
glæder
glædes
glædet
glø
gnall
gnalla
gnaller
gne
gni
gnid
gnist
gnr
gnu
goa
goda
godare
godaste
godbid
godbidder
godbit
godbiter
godhet
godis
godkand
godkanda
godkann
godkanna
godkannande
godkannandet
godkannas
godkanner
godkanns
godkant
godkants
godkende
godkendelse
godkendelsen
godkendelses
godkender
godkendes
godkendt
godkendte
godkj
godkjen
godkjenne
godkjennelse
godkjenner
godkjennes
godkjenning
godkjennings
godkjent
godkjente
godmorgon
godnat
godnatt
godo
godsaker
godsel
godta
godtag
godtar
godtatt
godteri
godtgjør
godtgjørelse
godtgjøring
godtgørelse
godtyck
gog
going
gok
golfklub
golfklubb
golv
golvet
golvvarme
gom
gomda
gomma
gommer
gong
googla
googlade
goose
gora
goran
goras
gord
gorm
gors
gos
gosa
goss
gosta
gota
gotal
gotaland
gotalands
gotalandsregionen
goteborgs
goth
gothenburg
gotland
gotlands
gourmet
gover
gow
gp
graa
grabb
grabbar
grabbarna
grace
gradd
gradda
gradde
gradden
gradert
gradu
gradvist
grafiken
grafikk
grafikkort
grafiska
grammatikk
granat
granen
granitt
grann
granna
grannar
grannarna
granne
grannen
grans
gransen
granser
granserna
gransk
granska
granskar
granskas
granskat
gransking
granskning
granskningen
gransknings
gransoverskridande
granssnitt
graset
grasklipp
grasm
grasmatta
grasmattan
grasrot
grasten
grata
grate
gratisporr
gratiss
gratissnur
gratissnurr
gratisspinn
grattis
gratu
gratuit
gratul
gratulerer
grava
gravd
gravet
gravida
graving
gravlagt
gravsted
gravt
greb
grebet
grei
greia
greid
greide
greie
greier
greit
grejen
grejer
grejerna
grejor
grek
grekisk
grekiska
grekland
grena
grenaa
grenar
grene
grenen
grener
grenland
grens
grensa
grense
grensen
grensene
grenser
grensesnitt
grep
grepet
grepp
greppa
greppet
greps
gres
gresk
greske
gress
gresset
greta
grete
greve
grib
gribe
griber
gribskov
grid
grieg
grilla
grillad
grillade
grillar
grillat
grilling
grillning
grimme
grimstad
grimt
grindsted
grine
grinede
griner
grinte
gripa
gripande
gripe
gripen
griper
grisar
grise
grob
grobund
grod
grodor
groft
gron
grona
gronomrade
gronsak
gronsaker
gronsakerna
gronska
gront
grorud
grorudd
gros
grott
grova
grovre
grubb
grue
gruer
grum
grunda
grundad
grundade
grundades
grundar
grundare
grundaren
grundas
grundat
grunde
grundejer
grundene
grundere
grunderna
grundet
grundforløb
grundforløbet
grundfos
grundigt
grundlagde
grundlaget
grundlaggande
grundlagt
grundlig
grundligt
grundlov
grundloven
grundlæg
grundlæggende
grundlægger
grundskola
grundskolan
grundskole
grundskolen
grundt
grundtvig
grundval
grundvand
grundvandet
grundvatten
gruner
grunerløkka
grunn
grunne
grunneier
grunneiere
grunnen
grunnene
grunner
grunnet
grunnkurs
grunnla
grunnlag
grunnlaget
grunnlagt
grunnlegg
grunnleggende
grunnlegger
grunnleggeren
grunnlov
grunnloven
grunnskole
grunnskolen
grunnvann
gruppa
gruppearbeid
gruppearbejde
gruppene
grupperna
grupperne
gruppet
gruppsex
grusom
grusomme
gruv
gruve
gryde
gryden
gryder
grym
grymma
grymt
gryt
gryta
grytan
gryte
græ
græd
græde
græder
græken
grækenland
græn
grænse
grænsel
grænsen
grænseoverskridende
grænser
grænserne
grænseværdier
græs
græsk
græskar
græske
græspl
græsplæne
græsplænen
græsset
grø
grød
grønlands
grønlandsk
grønlandske
grønn
grønnsakene
grønnsaker
grønnsaks
grønsager
grønts
grøntsag
grøntsager
grøntsagerne
grøt
gs
guard
guardi
guardian
gubb
gubbar
gubbe
gubben
gucca
gudar
gudbrand
gudbrandsdalen
gudd
guddomm
guden
gudene
gudinde
gudmund
gudom
gudomliga
gudrun
gudstjanst
gudstjenesten
guess
guest
guidad
guidade
guidar
guides
guit
guitar
gula
gulbrand
gulbrandsen
guldborgs
guldborgsund
guldet
guldkorn
guldsmed
guler
gulerod
gulerødder
gullet
gulli
gullig
gulliga
gulligt
gullsmed
gulrot
gulrø
gulrøtter
gulvaf
gulve
gulvt
gulvvarme
gumman
gummist
gummistøvler
gunder
gundersen
gung
gunhild
gunilla
gunstig
gunstige
guri
gurk
gurka
guro
gusta
gustaf
gustafsson
gustavs
gustavsson
gutt
gutta
gutte
gutten
guttene
guvern
guys
gw
gwh
gyde
gyldighed
gyldighet
gyldigt
gyldne
gyll
gylle
gyllen
gyllene
gylne
gymmet
gymn
gymna
gymnasiale
gymnasier
gymnasieskola
gymnasieskolan
gymnast
gymnastikk
gympa
gynge
gynger
gynn
gynna
gynnar
gynnas
gynnsam
gynæk
gynækolog
gys
gyser
gyte
gæ
gæld
gælde
gælden
gældende
gælder
gæng
gængse
gær
gæst
gæste
gæster
gæsterne
gæt
gætte
gætter
gø
gød
gødning
gør
gøre
gøremal
gøres
gøte
gøteborg
gøy
haakon
haand
hab
habe
habede
haber
habet
habil
habilitering
habilitet
habitat
habo
hacka
hackad
hackade
hackar
hacken
hadde
hadeland
hader
haderslev
hads
hadsel
hadsten
hadsund
hafslund
haftad
haftig
haftiga
haftigt
hagel
hagem
hagg
hagl
hah
hahah
haka
hakan
hake
hakk
hakke
hakkede
hakon
hakt
hala
halde
halden
halet
halft
halften
halk
halka
halla
halland
hallands
hallare
hallas
hallbar
hallbara
hallbarhet
hallbarhets
hallbart
hallde
halle
hallet
halling
hallingdal
hallit
hallning
hallo
hallon
halls
hallsta
hallt
halmstad
halsa
halsade
halsan
halsar
halsat
halsb
halsband
halsduk
halsing
halsingland
halsk
halskæde
halsning
halsningar
halso
halsof
halsoframjande
halsok
halsosam
halsosamma
halsosamt
halsot
halsovard
halva
halvan
halvanden
halvandet
halvannen
halvannet
halvaret
halvdelen
halvleg
halvlek
halvleken
halvor
halvorsen
halvparten
halvtid
halvtime
halvtimm
halvtimme
halvtr
halvvags
halvveis
halvvejs
halvøen
halvøya
hamar
hamas
hamborg
hamburgare
hamilton
hammar
hammarby
hammare
hammel
hammerfest
hammers
hamn
hamna
hamnade
hamnar
hamnat
hamnd
hamnen
hampus
hamster
hamsun
hamt
hamta
hamtad
hamtade
hamtar
hamtas
hamtat
hamtning
hanar
handarbeid
handarbejde
handball
handbog
handbold
handboll
handduk
handdukar
hande
handeln
handelsbanken
handelse
handelsen
handelser
handelserna
handelshøy
handelshøyskolen
hander
handerna
handfuld
handgjorda
handhe
handicappede
handikapp
handikappade
handkl
handkle
handklæde
handklæder
handklær
handkøb
handla
handlade
handlaggare
handlaggning
handlande
handlar
handlare
handlas
handlat
handlavede
handlavet
handledare
handlede
handledning
handlekraft
handlekur
handlekurven
handlem
handlen
handleplan
handleplaner
handles
handlingar
handlingarna
handlingene
handlingsplanen
handlingsrom
handpenning
handpl
handplock
handskar
handsker
handtak
handteret
handtert
handvask
handverk
handverker
handverkere
handverks
handværk
handværker
handværkere
handværks
hanfor
hanga
hangande
hangde
hanger
hangt
haninge
hank
hannah
hanner
hansdatter
hansens
hansker
hanssen
hansson
hansyn
hant
hanter
hantera
hanterar
hanteras
hantering
hanteringen
hantverk
hantverkare
hanvisa
hanvisar
hanvisas
hanvisning
hapar
haparanda
hape
haper
hapet
hapløst
hapnads
hapnadsvackande
happyp
happypancake
harad
harbotten
harda
hardanger
hardare
hardd
hardeste
hardporr
hardrock
hardvara
hardware
hareide
harete
harfarg
harfarve
harfjer
harfjerning
harifran
harig
hariga
harj
harled
harlig
harliga
harligt
harmed
harnos
harnosand
harom
haromdagen
harp
harror
harstad
harstammar
hartab
hartørrer
harvard
hasj
haslev
hasse
hasselby
hassle
hassleholm
hastar
hastarna
hasten
hastens
haster
hastighed
hastigheden
hastigheder
hastt
hata
hatade
hatar
hate
hater
hatet
hatte
hau
haug
haugaland
hauge
haugen
hauger
haugesund
haugland
hauk
haukeland
hava
havar
havard
havbruk
havbruks
havd
havda
havdade
havdar
havde
havem
havemøbler
havens
haves
havforskningsinstituttet
havna
havstang
havsutsikt
havudsigt
havør
havørred
hax
hbt
hbtq
header
healt
heavy
hedde
hedder
hede
hedegaard
hedemora
hedensted
heders
hedmark
hedre
hedret
hee
hefte
heftet
heftig
heg
hege
hegg
hegn
hegnet
heia
heid
heier
heil
heile
heilt
heim
heime
heimen
hein
heis
heisann
heisen
heja
hejar
hejd
hejda
hejsa
hejsan
hek
hekk
hekle
heklet
heks
hekse
hekta
hekte
hektiske
hela
helars
helbrede
helbredelse
helbredet
helbreds
helbredsmæssige
heldag
heldigt
helena
helga
helgeland
helgene
helgerna
helgesen
helgon
helhed
helheden
helheds
helhedsorienteret
helhetlig
helhetlige
helhets
helig
heliga
helige
helik
helikop
helland
hellas
hellere
hellerup
helliganden
helligdage
helligdager
hellre
hellstrom
helm
helsa
helsearbeid
helsed
helsedirektoratet
helsefag
helseforetak
helseforetakene
helseforetaket
helsefremmende
helsehjelp
helsemessige
helsen
helsepersonell
helseproblemer
helser
helses
helsesektoren
helsestasjon
helsestasjonen
helsesøster
helset
helsetil
helsetilstand
helsetilsyn
helsetilsynet
helsetjeneste
helsetjenesten
helsetjenester
helsevern
helsevesen
helsevesenet
helsingborg
helsingborgs
helsinge
helsingfors
helsingor
helsingør
heltack
heltackande
helte
helten
helter
heltids
helv
helvede
helvet
helvetet
hemat
hembesok
hembyg
hembygds
hemifran
heminredning
hemkommen
hemlag
hemlagad
hemland
hemlandet
hemlig
hemliga
hemlighet
hemligheten
hemligheter
hemligt
hemlosa
hemma
hemmafru
hemmag
hemmagjord
hemmagjorda
hemmak
hemmal
hemmalaget
hemmamatch
hemman
hemmaplan
hemmat
hemmelighed
hemmeligheder
hemmelighet
hemmeligheten
hemmeligheter
hemmeligt
hemmer
hemmet
hemmets
hems
hemsedal
hemsida
hemsidan
hemsidor
hemsk
hemska
hemskt
hemstad
hemt
hemtjanst
hemtjansten
hemvagen
hemvist
henblik
hend
hendelse
hendelsen
hendelsene
hendelser
hendelses
hendene
hender
hendes
hendt
hendte
henføres
heng
henge
hengende
henger
hengt
henke
henn
henover
henrett
henrettet
henriksson
henseende
hensigt
hensigten
hensigtsmæssig
hensigtsmæssige
hensigtsmæssigt
hensikt
hensikten
hensiktsmessig
hensiktsmessige
hensyntagen
hentede
henting
henvendt
henvendte
henviste
hepatitt
heraf
herefter
heretter
herfor
herhjemme
heri
heriblandt
herinde
herjet
herkomst
herlev
herlighed
herlighet
herligt
herm
hermed
hermet
hernede
herning
heroin
herom
herover
herpa
herrar
herrarna
herregard
herret
herrgard
herskende
hertig
hertil
herude
herudover
herøy
hess
hessel
hestens
hester
heta
hetaste
hete
heteroseks
heterosex
hets
hetta
hette
hevde
hevder
hevdes
hevdet
heve
hevelse
hever
heving
hevn
hex
hexdec
hexdecimalsfargkoden
heyerd
hh
hhx
hidt
hidtidige
hidtil
hif
hig
hih
hijab
hild
hilde
hillary
hille
hillerød
hillerødposten
hills
hilsener
hilser
hilsner
himla
himmelen
himmer
hinanden
hinandens
hindbær
hindi
hindra
hindrar
hindring
hindringer
hindu
hingst
hink
hinna
hinner
hio
hioa
hiphop
hirt
hirtsh
hirtshals
hisingen
hiss
hissen
histori
historia
historielag
historiene
historierne
historiken
historikk
historiska
historiskt
hitra
hitta
hittade
hittades
hittar
hittas
hittat
hittats
hittil
hittills
hiver
hjal
hjalm
hjalmar
hjalpa
hjalpen
hjalper
hjalpmedel
hjalps
hjalpsam
hjalpsamma
hjalpt
hjalpte
hjalt
hjaltar
hjalte
hjar
hjarn
hjarna
hjarnan
hjart
hjarta
hjartan
hjartans
hjartat
hjartinfarkt
hjartligt
hjelp
hjelpe
hjelpemid
hjelpemiddel
hjelpemidler
hjelpen
hjelper
hjelpere
hjelpes
hjelpet
hjelpsom
hjelpsomme
hjemlige
hjemløse
hjemmeb
hjemmecomputer
hjemmed
hjemmehjælp
hjemmeholdet
hjemmehørende
hjemmekamp
hjemmelag
hjemmelaget
hjemmelavede
hjemmelavet
hjemmepleje
hjemmeplejen
hjemmesko
hjemmesyke
hjemover
hjems
hjemsted
hjernens
hjerner
hjernes
hjernesk
hjerneskade
hjerneslag
hjert
hjerteinfarkt
hjertek
hjertesvikt
hjertesykdom
hjorte
hjulen
hjæl
hjælp
hjælpe
hjælpemiddel
hjælpemidler
hjælpen
hjælpende
hjælper
hjælpere
hjælpes
hjælpsom
hjælpsomme
hjørring
hmmm
hms
hobro
hoc
hocke
hod
hode
hodene
hodep
hodepine
hoder
hodet
hoel
hoft
hoften
hoga
hoganas
hogen
hoger
hogerext
hoghastighet
hogklass
hogkval
hogkvalit
hogkvalitativ
hogkvalitativa
hogljud
hogra
hogre
hogskol
hogskola
hogskolan
hogskole
hogskolepoang
hogskolor
hogsta
hogstad
hogstadiet
hogt
hogtal
hogtalare
hogtalarna
hogtid
hogtider
hogtryck
hogupp
hoho
hoj
hoja
hojas
hojd
hojda
hojdare
hojde
hojden
hojder
hojdpunkt
hojdpunkter
hojer
hojning
hojs
hojt
hok
hokk
hokksund
holbæk
holdbar
holdbare
holdbarhed
holdbarheden
holdbarhet
holdbart
holdene
holdet
holdets
holdningen
holdningene
holdte
hole
holger
holida
holiday
holl
hollandsk
hollandska
hollandske
hollender
holls
holly
holmberg
holmen
holmenkollen
holmestrand
holoca
holocaust
holst
holste
holstebro
holsten
holt
holte
homes
homof
homofil
homofile
homofili
homoseksuel
homoseksuelle
homosex
homosexuell
homosexuella
homse
hona
honan
honda
honn
honnør
honom
hons
honung
hood
hoor
hoppa
hoppade
hoppades
hoppar
hoppas
hoppat
hoppats
hoppede
hopplost
hoppning
hora
horappar
horas
horby
hordaland
horde
hordes
horis
horlur
horlurar
horm
horna
hornbæk
hornen
hornet
horny
horor
horr
horror
hors
horse
horsel
horsens
hort
horten
hospitaler
hospitalet
hospitals
hosta
hostar
hostas
hosten
hostens
hosting
hostlov
hostter
hostterminen
hota
hotad
hotade
hotar
hotas
hotellen
hotellene
hotellerne
hotellkjeder
hotellrom
hotellrum
hotelværelse
hotet
hotmail
hott
hours
hovedar
hovedarsaken
hovedban
hovedbestyrelsen
hoveddøren
hovede
hoveder
hovedet
hovedfokus
hovedgade
hovedgaden
hovedinn
hovedkontor
hovedkontoret
hovedkvar
hovedkvarter
hovedmal
hovedmalet
hovedoppgave
hovedparten
hovedpine
hovedregelen
hovedret
hovedsa
hovedsag
hovedsagelig
hovedsageligt
hovedsak
hovedsakelig
hovedsaklig
hovedst
hovedstadens
hovedstads
hovedstadsomradet
hovedstyret
hovedsæde
hovedtema
hovedtrener
hovedutvalg
hovedveien
hovratt
hovratten
hovud
hs
hsb
hsl
htc
htx
huawei
huddinge
hudik
hudiksvall
hudpleie
hudpleje
huds
hudvard
hue
huff
huge
hugg
hugga
hukommelsen
hullene
huller
hullerne
hult
hults
hultsfred
humanit
humanitær
humanitære
hummel
humoret
hundagare
hundar
hundarna
hundet
hundra
hundrala
hundrat
hundratal
hundratals
hundratusentals
hundre
hundred
hundrede
hundredvis
hundret
hundrevis
hunger
hungr
hungrig
hungriga
hunn
hunnit
hurdal
hursomhelst
hurtige
hurtigere
hurtigruten
hurtigst
hurtigste
hurtigt
hurum
huruv
huruvida
husagare
husarbeid
husbanken
husbil
husdjur
huseier
husen
husfl
hushall
hushallen
hushallet
hushallning
hushalls
husholdnings
huskede
husleie
husleje
huslejen
husmand
husmann
husse
husstand
husstande
husstanden
hustr
hustrun
husvagn
hut
huv
huvud
huvuddelen
huvuden
huvudet
huvudkontor
huvudman
huvudmannen
huvudperson
huvudpersonen
huvudrollen
huvudsak
huvudsaken
huvudsakliga
huvudsakligen
huvudstad
huvudstaden
huvudvark
hvad
hvaler
hvalp
hvalpe
hvalpen
hvalpene
hvar
hvede
hvedemel
hvep
hverandre
hverandres
hverdage
hverdagens
hverdager
hverdagslige
hverdagsliv
hvertfald
hvertfall
hverv
hvet
hvete
hvid
hvide
hvidevarer
hvidløg
hvidovre
hvidt
hvidvask
hvidvin
hvir
hvirvel
hviskede
hvit
hvite
hviter
hvitevarer
hvitlø
hvitløk
hvitt
hvitvask
hvoraf
hvorav
hvorefter
hvorfra
hvori
hvorimod
hvorledes
hvormed
hvornar
hvorpa
hvortil
hvorved
hw
hybel
hydrauli
hydrogen
hyfs
hyfsad
hyfsat
hyg
hyggede
hyggeligt
hygger
hygges
hygget
hygiej
hygiejne
hygiene
hylde
hylden
hylder
hylderne
hyldest
hyll
hyllade
hyllan
hyllar
hylle
hyllene
hyller
hyllest
hyllet
hyllning
hyllor
hyllorna
hypert
hypn
hypnose
hypo
hypot
hypotek
hypotekslan
hyppigst
hyppigste
hyppigt
hyra
hyran
hyrbil
hyrde
hyres
hyresg
hyresgast
hyresgasten
hyresgaster
hyresgastforeningen
hyresratt
hyresratter
hyresvard
hyresvarden
hyrt
hysteriskt
hytta
hyttene
hyttet
hyv
hz
hæder
hæft
hæfte
hæfter
hæftet
hæk
hække
hækle
hæklet
hæld
hælde
hælder
hældes
hældning
hæle
hæler
hæm
hæmmer
hæmor
hæmorider
hænd
hænde
hændelse
hændelsen
hændelser
hænder
hænderne
hæng
hænge
hængek
hængende
hænger
hænges
hængt
hærværk
hætte
hæv
hævde
hævdede
hævder
hæve
hævede
hævelse
hæver
hæves
hævet
hævn
høgre
høgskole
høgskolen
høgskoler
høie
høj
højbjerg
højde
højden
højdepunkt
højdepunkter
højder
høje
højere
højest
højeste
højesteret
højkvalitet
højlyd
højlydt
højne
højre
højrefløj
højrekl
højskole
højskolen
højst
højsæ
højsædet
højsæsonen
højt
højtaler
højtalere
højtid
højtryks
højttaler
højttalere
høl
høland
høne
hønefoss
høns
hønse
hørelse
hørende
høret
høringen
høringsnot
høringssvar
høringsuttal
høringsuttalelse
hørsel
hørsels
hørsholm
hørtes
høstens
høvd
høve
høy
høyde
høydemeter
høyden
høydepunkt
høydepunktene
høydepunkter
høydepunktet
høyder
høye
høyere
høyest
høyeste
høyesterett
høyesteretts
høyfjell
høykvalitet
høykvalitets
høyre
høyreekst
høyreklikk
høyrer
høyres
høyresiden
høyskole
høyskolen
høyskoler
høyst
høyt
høytekn
høytid
høytidelig
høytider
høytrykk
høytt
høyttaler
høyttalere
ia
iaf
iagt
iagttage
iak
iaktt
iakttag
ialla
iallafall
ialle
iallefall
ialt
iar
iben
ibex
ibland
iblandt
iblant
ibm
ibra
ibrahim
ibrugt
ibsen
ica
ich
ick
icke
idealisk
idealiskt
ideas
ideel
ideella
ideellt
ideene
ideerna
ideerne
idel
iden
identif
identifi
identific
identificere
identificerer
identificeres
identificeret
identifier
identifiera
identifierade
identifierar
identifieras
identifiering
identifikasjon
identifikation
identifisere
identifiserer
identifisering
identifisert
identiska
identiteten
ideologiska
ideologiske
idio
idioter
idrett
idretten
idrettens
idretter
idretts
idrettsanlegg
idrettsforbund
idrettsh
idrettskrets
idrettslag
idrettslaget
idrettslagets
idrettsstyret
idrettsutøvere
idrott
idrottare
idrotten
idrotts
idræt
idræts
idrætsforening
idyl
idylli
idømt
ie
ifald
ifall
ifjol
ifjor
ifk
ifl
iflg
ifra
ifraga
ifragas
ifragasatt
ifragasatta
ifragasatter
ifran
ifred
igangsat
igangsatt
igangsetting
igangsætte
igangsættes
igangværende
igarkvall
igennem
igenom
igj
igjennom
igle
iglesias
ign
ignorera
ihag
iherd
iherdig
ihjal
ihop
ihvertfald
ihvertfall
ihærd
ikapp
ikast
ikk
ikkje
ikonen
ikoner
ikraft
ikraftt
ikrafttræ
ikrafttrædelses
ikrafttræden
iks
ikt
ikvall
ila
ilagt
ilde
ilds
ildsjel
ildsjeler
ildsjæle
illa
illama
illamaende
ille
illusion
illusjon
illustrasjon
illustrasjoner
illustrasjonsfoto
illustrat
illustrerad
illustreret
illustrert
ilska
ilt
iløpet
imellem
imellom
imens
immat
immateriella
immig
imod
imon
imorgon
imorn
imorr
imorrn
imorse
imot
imperi
implantat
implement
implementera
implementeres
implementeret
implementeringen
implementert
imponera
imponerad
imponerade
imponerande
imponeret
imponert
imponerte
impor
importera
importere
importeret
importert
importør
impot
impotens
improv
improvisasjon
impræg
impulser
imøde
imødega
imødekomme
imødekommende
imødekommer
imøtek
imøtekomme
imøtekommende
inakt
inaktiver
inat
inatt
inb
inbadd
inbju
inbjud
inbjudan
inbjudande
inbjuden
inbjuder
inbjudna
inbland
inblandad
inblandade
inblandning
inblick
inbok
inborde
inbordes
inbrott
inbunden
inbyggd
inbyggda
inbyggt
incent
incheck
incid
indad
indanding
indarbejdet
indb
indbakke
indbe
indberet
indberetning
indberetninger
indberette
indberettes
indberettet
indbet
indbetale
indbetales
indbetaling
indbetalinger
indbetalt
indblik
indbo
indbringes
indbrud
indbydende
indbyder
indbyg
indbyggede
indbygger
indbyggere
indbyggerne
indbygget
indbyrdes
indd
inddelt
inddr
inddrage
inddragelse
inddrager
inddrages
inddraget
indeb
indebære
indebærer
indefra
indehaver
indehaveren
indeholde
indeholdende
indeholder
indeholdt
indekl
indeklim
indeklima
indeksen
indekset
indel
inden
indendørs
indenfor
indeni
indenrig
indenrigs
independ
inderlig
inderligt
inders
indersiden
inderst
inderste
indeværende
indexering
indf
indfald
indfl
indflydelse
indflytning
indforstaet
indfri
indfriet
indfødte
indføre
indførelse
indførelsen
indfører
indføres
indføring
indført
indførte
indg
indga
indgaede
indgaelse
indgaende
indgaet
indgang
indgange
indgangen
indgar
indgas
indgik
indgives
indgivet
indgreb
indh
indhent
indhente
indhenter
indhentes
indhentet
indhold
indholdet
indholdsfortegn
indholdsfortegnelse
indie
indikasjon
indikasjoner
indikatorene
indikerar
indimellem
indire
indirekt
indiska
individen
individens
individual
individuel
individuella
individuellt
indk
indkal
indkald
indkalde
indkaldelse
indkaldelsen
indkalder
indkaldes
indkaldt
indklagede
indkom
indkomne
indkomst
indkomstar
indkvar
indkvartering
indkøb
indkøbs
indkøbskur
indkøbsmuligheder
indkøbt
indkørsel
indl
indlagt
indlagte
indled
indlede
indledende
indleder
indledes
indledning
indledningen
indledt
indledte
indlej
indlever
indlysende
indlæg
indlæggelse
indlæggelser
indlægget
indlægss
indlæring
indonesia
indp
indpakning
indr
indregnes
indregnet
indrejse
indret
indretning
indretningen
indrette
indrettede
indrettes
indrettet
indrømme
indrømmer
indrømmet
inds
indsa
indsam
indsamle
indsamlede
indsamler
indsamles
indsamlet
indsamling
indsamlingen
indsat
indsats
indsatsen
indsatser
indsatsomrader
indsatte
indse
indsende
indsendes
indsendt
indser
indset
indsig
indsigelse
indsigelser
indsigt
indsk
indskol
indskrevet
indskræn
indskud
indslag
indsn
indsp
indspil
indspillet
indstil
indstille
indstillede
indstiller
indstilles
indstillet
indstilling
indstillingen
indstillinger
indstillingerne
indsæt
indsætte
indsætter
indsættes
indt
indtag
indtage
indtagelse
indtager
indtages
indtaget
indtast
indtaste
indtaster
indtastet
indtil
indtjen
indtjening
indtog
indtryk
indtræ
indtræder
indtægt
indtægter
indtægterne
indtægts
indu
industi
industrial
industriel
industriella
industriens
industrier
industrin
industriv
indv
indvand
indvandrer
indvandrere
indvandring
indvend
indvendig
indvendige
indvendigt
indvi
indviet
indvik
indvind
indvinding
indvirkning
infall
infaller
infe
infeksjon
infeksjoner
infekt
infer
infilt
infiltr
infin
infinner
inflasjon
influenser
influenza
inflyt
inflytande
inflytt
inflyttning
infor
infora
inforande
inforandet
inforas
inforde
infordes
informantene
informasjon
informasjonen
informasjons
informasjonskap
informasjonskapsel
informasjonskapslene
informasjonskapsler
informasjonsmøte
informasjonssikkerhet
informasjonssjef
informatikk
informationer
informationerne
informativ
informera
informerade
informerar
informeras
informeret
informert
informerte
infors
inforskaff
inforskaffa
infort
infrast
ingaende
ingang
ingangen
ingar
ingatt
ingeb
ingeborg
ingebrigt
ingebrigtsen
ingef
ingefara
ingela
ingemar
ingeni
ingenjor
ingenjorer
ingenstans
inget
ingick
ingmar
ingr
ingrediensene
ingredienserna
ingredienserne
ingrepp
ingunn
ingvar
ingvild
inhabil
inhamt
inhand
inhandla
inhem
inhemska
inifran
initialt
initiativer
initiativt
injeksjon
inkall
inkar
inkass
inkludera
inkluderade
inkluderande
inkluderar
inkluderas
inkluderat
inkluderes
inkluderet
inkludering
inkludert
inkluderte
inklus
inklusion
inkom
inkommande
inkommit
inkomna
inkomst
inkomsten
inkomster
inkomstskatt
inkop
inkor
inl
inlag
inlagd
inlagg
inlaggen
inlagget
inlam
inlamn
inlar
inlarning
inled
inleda
inledande
inledde
inleddes
inleder
inledning
inledningen
inledningsvis
inleds
inlett
inlogg
inloggad
inloggning
inlosen
innad
innanfor
innarbeid
innarbeidet
innb
innbef
innbet
innbetaling
innbetalt
innblanding
innblikk
innbrudd
innby
innbydende
innbygg
innbygger
innbyggere
innbyggerne
innbyr
innbyrdes
innbytter
inndeling
inndelt
inneb
inneband
innebara
inneboende
innebord
inneborden
inneburit
inneby
innebygd
innebygde
innebygget
innebære
innebærer
innefatt
innefatta
innefattar
innehall
innehalla
innehallande
innehaller
innehallet
innehalls
innehallsfor
innehallsforteckning
innehav
innehavare
innehaver
inneholde
inneholder
inneholdt
inneholl
innek
inneklima
innen
innendørs
innenfor
innenland
innenlands
innenriks
innerligt
innersta
innerstad
innerste
inneværende
innf
innfall
innfly
innflyt
innflytelse
innflytelses
innfri
innfrid
innfødte
innføre
innfører
innføres
innføring
innføringen
innført
innførte
innga
inngaelse
inngaende
inngang
inngangen
inngar
inngas
inngatt
inngikk
inngrep
inngrepet
innh
innhente
innhenter
innhentes
innhentet
innhenting
innhold
innholdet
innholds
innholdsfort
innholdsfortegnelse
inni
innimellom
innk
innkal
innkalles
innkalling
innkallingen
innkalt
innkjøp
innkjøpt
innkl
innklagede
innkomne
innkrev
innkreving
innkvar
innlagt
innland
innlandet
innle
innled
innledende
innleder
innledet
innledning
innledningsvis
innleggelse
innleggene
innlegget
innleie
innlemmet
innlever
innlevering
innlo
innlogging
innmari
innmelding
innom
innovasjon
innovasjons
innovationer
innovativa
innovativt
innover
innpa
innpass
innred
innredet
innredning
innretning
innretninger
innrette
innrø
innrømme
innrømmer
innrømmet
inns
innsa
innsam
innsamling
innsat
innsats
innsatsen
innsatt
innsatte
innse
innsend
innsending
innsendt
innser
innsett
innside
innsiden
innsig
innsikt
innsje
innsjekking
innsjø
innsjøen
innsjøer
innsk
innskren
innskudd
innskuddsbon
innslag
innslaget
innsp
innspil
innspill
innspillene
innspilling
innspillingen
innst
innstilling
innstillingen
innstillingene
innstillinger
innstilt
innstra
innsyn
innt
innta
inntak
inntaket
inntar
inntatt
innte
inntekt
inntekten
inntektene
inntekter
inntekts
inntil
inntjening
inntok
inntre
inntreffer
inntrykk
inntrykket
innv
innvand
innvandrer
innvandrerbakgrunn
innvandrere
innvandring
innvandringen
innvandrings
innvend
innvendig
innvendige
innvendinger
innviet
innvil
innvilges
innvilget
innvirkning
inom
inombords
inomhus
inpa
inplan
inram
inratt
inratta
inre
inred
inreda
inredda
inredning
inredningen
inrednings
inrett
inrikes
inrikt
inriktad
inriktade
inriktning
inriktningar
inriktningen
insag
insam
insamling
insandare
insats
insatsen
insatser
insatserna
insatt
insatta
insattning
insattningar
insattnings
insattningsbonus
insent
inser
insett
insida
insidan
insikt
insikten
insikter
insisterer
insjuk
inskran
inskrivna
inslag
inslaget
inspeksjon
inspekt
inspektionen
inspel
inspelning
inspelningen
inspirasjon
inspirasjonen
inspirera
inspirerad
inspirerade
inspirerande
inspirerar
inspireras
inspirerat
inspirerede
[...]
