[unused0]
[unused1]
[unused2]
[unused3]
[unused4]
[unused5]
[unused6]
[unused7]
[unused8]
[unused9]
[unused10]
[unused11]
[unused12]
[unused13]
[unused14]
[unused15]
[unused16]
[unused17]
[unused18]
[unused19]
[unused20]
[unused21]
[unused22]
[unused23]
[unused24]
[unused25]
[unused26]
[unused27]
[unused28]
[unused29]
[unused30]
[unused31]
[unused32]
[unused33]
[unused34]
[unused35]
[unused36]
[unused37]
[unused38]
[unused39]
[unused40]
[unused41]
[unused42]
[unused43]
[unused44]
[unused45]
[unused46]
[unused47]
[unused48]
[unused49]
[unused50]
[unused51]
[unused52]
[unused53]
[unused54]
[unused55]
[unused56]
[unused57]
[unused58]
[unused59]
[unused60]
[unused61]
[unused62]
[unused63]
[unused64]
[unused65]
[unused66]
[unused67]
[unused68]
[unused69]
[unused70]
[unused71]
[unused72]
[unused73]
[unused74]
[unused75]
[unused76]
[unused77]
[unused78]
[unused79]
[unused80]
[unused81]
[unused82]
[unused83]
[unused84]
[unused85]
[unused86]
[unused87]
[unused88]
[unused89]
[unused90]
[unused91]
[unused92]
[unused93]
[unused94]
[unused95]
[unused96]
[unused97]
[unused98]
[unused99]
[unused100]
[unused101]
[unused102]
[unused103]
[unused104]
[unused105]
[unused106]
[unused107]
[unused108]
[unused109]
[unused110]
[unused111]
[unused112]
[unused113]
[unused114]
[unused115]
[unused116]
[unused117]
[unused118]
[unused119]
[unused120]
[unused121]
[unused122]
[unused123]
[unused124]
[unused125]
[unused126]
[unused127]
[unused128]
[unused129]
[unused130]
[unused131]
[unused132]
[unused133]
[unused134]
[unused135]
[unused136]
[unused137]
[unused138]
[unused139]
[unused140]
[unused141]
[unused142]
[unused143]
[unused144]
[unused145]
[unused146]
[unused147]
[unused148]
[unused149]
[unused150]
[unused151]
[unused152]
[unused153]
[unused154]
[unused155]
[unused156]
[unused157]
[unused158]
[unused159]
[unused160]
[unused161]
[unused162]
[unused163]
[unused164]
[unused165]
[unused166]
[unused167]
[unused168]
[unused169]
[unused170]
[unused171]
[unused172]
[unused173]
[unused174]
[unused175]
[unused176]
[unused177]
[unused178]
[unused179]
[unused180]
[unused181]
[unused182]
[unused183]
[unused184]
[unused185]
[unused186]
[unused187]
[unused188]
[unused189]
[unused190]
[unused191]
[unused192]
[unused193]
[unused194]
[unused195]
[unused196]
[unused197]
[unused198]
[unused199]
[unused200]
[unused201]
[unused202]
[unused203]
[unused204]
[unused205]
[unused206]
[unused207]
[unused208]
[unused209]
[unused210]
[unused211]
[unused212]
[unused213]
[unused214]
[unused215]
[unused216]
[unused217]
[unused218]
[unused219]
[unused220]
[unused221]
[unused222]
[unused223]
[unused224]
[unused225]
[unused226]
[unused227]
[unused228]
[unused229]
[unused230]
[unused231]
[unused232]
[unused233]
[unused234]
[unused235]
[unused236]
[unused237]
[unused238]
[unused239]
[unused240]
[unused241]
[unused242]
[unused243]
[unused244]
[unused245]
[unused246]
[unused247]
[unused248]
[unused249]
[unused250]
[unused251]
[unused252]
[unused253]
[unused254]
[unused255]
[unused256]
[unused257]
[unused258]
[unused259]
[unused260]
[unused261]
[unused262]
[unused263]
[unused264]
[unused265]
[unused266]
[unused267]
[unused268]
[unused269]
[unused270]
[unused271]
[unused272]
[unused273]
[unused274]
[unused275]
[unused276]
[unused277]
[unused278]
[unused279]
[unused280]
[unused281]
[unused282]
[unused283]
[unused284]
[unused285]
[unused286]
[unused287]
[unused288]
[unused289]
[unused290]
[unused291]
[unused292]
[unused293]
[unused294]
[unused295]
[unused296]
[unused297]
[unused298]
[unused299]
[unused300]
[unused301]
[unused302]
[unused303]
[unused304]
[unused305]
[unused306]
[unused307]
[unused308]
[unused309]
[unused310]
[unused311]
[unused312]
[unused313]
[unused314]
[unused315]
[unused316]
[unused317]
[unused318]
[unused319]
[unused320]
[unused321]
[unused322]
[unused323]
[unused324]
[unused325]
[unused326]
[unused327]
[unused328]
[unused329]
[unused330]
[unused331]
[unused332]
[unused333]
[unused334]
[unused335]
[unused336]
[unused337]
[unused338]
[unused339]
[unused340]
[unused341]
[unused342]
[unused343]
[unused344]
[unused345]
[unused346]
[unused347]
[unused348]
[unused349]
[unused350]
[unused351]
[unused352]
[unused353]
[unused354]
[unused355]
[unused356]
[unused357]
[unused358]
[unused359]
[unused360]
[unused361]
[unused362]
[unused363]
[unused364]
[unused365]
[unused366]
[unused367]
[unused368]
[unused369]
[unused370]
[unused371]
[unused372]
[unused373]
[unused374]
[unused375]
[unused376]
[unused377]
[unused378]
[unused379]
[unused380]
[unused381]
[unused382]
[unused383]
[unused384]
[unused385]
[unused386]
[unused387]
[unused388]
[unused389]
[unused390]
[unused391]
[unused392]
[unused393]
[unused394]
[unused395]
[unused396]
[unused397]
[unused398]
[unused399]
[unused400]
[unused401]
[unused402]
[unused403]
[unused404]
[unused405]
[unused406]
[unused407]
[unused408]
[unused409]
[unused410]
[unused411]
[unused412]
[unused413]
[unused414]
[unused415]
[unused416]
[unused417]
[unused418]
[unused419]
[unused420]
[unused421]
[unused422]
[unused423]
[unused424]
[unused425]
[unused426]
[unused427]
[unused428]
[unused429]
[unused430]
[unused431]
[unused432]
[unused433]
[unused434]
[unused435]
[unused436]
[unused437]
[unused438]
[unused439]
[unused440]
[unused441]
[unused442]
[unused443]
[unused444]
[unused445]
[unused446]
[unused447]
[unused448]
[unused449]
[unused450]
[unused451]
[unused452]
[unused453]
[unused454]
[unused455]
[unused456]
[unused457]
[unused458]
[unused459]
[unused460]
[unused461]
[unused462]
[unused463]
[unused464]
[unused465]
[unused466]
[unused467]
[unused468]
[unused469]
[unused470]
[unused471]
[unused472]
[unused473]
[unused474]
[unused475]
[unused476]
[unused477]
[unused478]
[unused479]
[unused480]
[unused481]
[unused482]
[unused483]
[unused484]
[unused485]
[unused486]
[unused487]
[unused488]
[unused489]
[unused490]
[unused491]
[unused492]
[unused493]
[unused494]
[unused495]
[unused496]
[unused497]
[unused498]
[unused499]
[CLS]
[MASK]
[PAD]
[SEP]
[UNK]
!
"
#
$
%
&
'
(
)
*
+
,
-
.
/
0
1
2
3
4
5
6
7
8
9
:
;
<
=
>
?
@
[
\
]
^
_
`
a
b
c
d
e
f
g
h
i
j
k
l
m
n
o
p
q
r
s
t
u
v
w
x
y
z
{
|
}
~
¡
¢
£
¤
¥
¦
§
¨
©
ª
«
¬
®
°
±
²
³
´
µ
¶
·
¸
¹
º
»
¼
½
¾
¿
×
ß
æ
ð
÷
ø
þ
đ
ı
ł
ŋ
œ
ƒ
ɑ
ə
ɛ
ˆ
ˇ
ˈ
ː
˚
˜
α
β
γ
δ
ε
ζ
η
θ
ι
κ
λ
μ
ν
ξ
ο
π
ρ
ς
σ
τ
υ
φ
χ
ψ
ω
а
б
в
г
д
е
ж
з
и
к
л
м
н
о
п
р
с
т
у
ф
х
ц
ч
ш
щ
ъ
ы
ь
э
ю
я
ѕ
і
ј
ґ
ա
א
ב
ג
ד
ה
ו
ז
ח
ט
י
כ
ל
ם
מ
ן
נ
ס
ע
פ
צ
ק
ר
ש
ת
،
ء
ا
ب
ة
ت
ث
ج
ح
خ
د
ذ
ر
ز
س
ش
ص
ض
ط
ظ
ع
غ
ـ
ف
ق
ك
ل
م
ن
ه
و
ى
ي
ٱ
پ
ک
گ
ہ
ی
क
त
द
न
प
म
य
र
ल
व
स
ह
ा
ि
ी
ক
ত
ন
ব
ম
য
র
ল
স
া
ি
ে
க
த
ி
ం
క
గ
చ
డ
త
ద
న
ప
మ
ర
ల
వ
స
ు
ก
ค
ง
ช
ด
ต
ท
น
บ
ป
พ
ม
ย
ร
ล
ว
ส
ห
อ
ะ
า
฿
เ
แ
ไ
ა
ე
ი
მ
ო
რ
ს
ღ
ᄀ
ᄂ
ᄃ
ᄅ
ᄆ
ᄇ
ᄉ
ᄋ
ᄌ
ᄎ
ᄏ
ᄐ
ᄑ
ᄒ
ᅡ
ᅢ
ᅥ
ᅦ
ᅧ
ᅩ
ᅪ
ᅬ
ᅭ
ᅮ
ᅲ
ᅳ
ᅴ
ᅵ
ᆨ
ᆫ
ᆯ
ᆷ
ᆸ
ᆻ
ᆼ
‐
‑
‒
–
—
―
‘
’
‚
“
”
„
†
•
…
‰
′
″
‹
›
※
⁄
₂
₨
₪
€
℃
℉
™
←
↑
→
↓
⇒
−
∙
√
≈
≤
≥
⋅
─
━
├
╕
■
□
▪
▫
▶
▷
►
▻
◆
○
●
◦
☀
★
☆
☺
♀
♂
♡
♢
♣
♥
♦
✅
✌
✓
✔
✚
✨
❄
❤
❾
➜
➢
➧
⠀
⭐
、
。
《
》
「
」
【
】
あ
い
う
え
お
か
き
く
け
こ
さ
し
す
せ
そ
た
ち
っ
つ
て
と
な
に
の
は
ひ
へ
ま
み
め
も
や
よ
ら
り
る
れ
ろ
わ
を
ん
ア
ィ
イ
ウ
ェ
エ
オ
カ
キ
ク
ケ
コ
サ
シ
ス
セ
ソ
タ
チ
ッ
ツ
テ
ト
ナ
ニ
ヌ
ネ
ノ
ハ
ヒ
フ
ヘ
ホ
マ
ミ
ム
メ
モ
ャ
ュ
ョ
ラ
リ
ル
レ
ロ
ワ
ン
・
ー
一
七
万
三
上
下
不
与
世
业
东
两
个
中
为
主
么
之
九
也
买
了
事
二
于
五
些
交
产
京
人
今
他
仙
代
以
们
件
任
企
会
传
位
体
何
作
你
使
供
保
信
做
像
元
先
光
免
入
全
八
公
六
关
其
具
典
内
円
准
凤
出
分
创
利
到
制
前
力
加
务
动
動
包
化
北
区
十
半
单
南
历
原
县
及
双
发
取
受
口
句
可
台
史
号
司
各
合
同
名
后
和
品
商
啊
啥
器
四
回
因
国
图
圓
在
地
场
址
坛
型
城
基
堂
報
場
士
外
多
大
天
太
头
奇
奖
女
好
如
姐
婆
子
字
学
安
官
定
宝
实
客
室
家
容
密
富
对
将
小
少
就
尾
展
山
川
州
工
市
布
师
常
平
年
广
库
店
府
度
建
开
式
当
录
彩
影
很
律
後
得
心
必
忙
快
思
性
总
情
想
意
感
成
我
所
手
技
报
持
挂
指
接
提
播
政
救
教
数
文
料
新
方
无
日
时
明
星
是
時
更
書
曾
最
月
有
服
期
木
本
机
杀
村
来
東
果
校
格
業
樂
機
次
正
比
民
氓
气
気
水
求
江
法
波
注
活
流
海
温
港
源
澳
点
無
然
片
版
牌
牛
物
特
狗
玄
率
王
玩
现
球
理
生
用
田
电
町
画
界
発
白
百
的
目
直
相
看
県
真
着
知
石
码
示
社
神
禁
福
科
程
空
立
站
童
第
等
算
管
精
系
红
线
经
结
绝
网
美
老
者
而
肖
能
自
色
花
英
蓝
行
表
装
西
要
見
规
解
言
語
计
记
论
设
诗
说
财
费
资
赌
赛
起
跑
路
身
车
过
运
近
这
进
送
选
透
通
道
選
部
都
酶
里
重
野
量
金
钱
铁
错
長
长
開
間
门
间
阳
限
院
集
電
面
音
食
香
马
高
黄
龙
ﬀ
ﬁ
ﬂ
！
（
）
，
：
？
ﾆ
ﾊ
ﾟ
￼
🍁
🎉
🏻
🏼
👌
👍
👏
👨
👩
💕
💙
💛
💪
💲
😀
😁
😂
😃
😄
😅
😆
😉
😊
😍
😎
😘
😛
😜
😦
🙁
🙂
🙄
🙈
🙌
🙏
🤔
🤗
🤩
00
000
01
02
03
04
05
06
07
08
09
10
100
1000
100mg
101
102
103
104
105
106
107
108
109
11
110
1100
111
112
113
114
115
116
117
118
119
12
120
1200
122
123
125
126
127
128
129
13
130
1300
132
135
136
137
139
14
140
1400
145
146
147
149
15
150
1500
155
156
157
159
16
160
1600
165
166
167
168
169
17
170
1700
174
175
176
177
178
179
18
180
1800
1801
1814
183
1830
184
1840
1848
185
1850
186
1860
1865
1866
187
1870
1873
1875
1876
1877
1878
188
1880
1881
1882
1883
1884
1885
1886
1887
1888
1889
189
1890
1891
1892
1893
1894
1895
1896
1897
1898
1899
19
190
1900
1901
1902
1903
1904
1905
1906
1907
1908
1909
191
1910
1911
1912
1913
1914
1915
1916
1917
1918
1919
192
1920
1921
1922
1923
1924
1925
1926
1927
1928
1929
193
1930
1931
1932
1933
1934
1935
1936
1937
1938
1939
194
1940
1941
1942
1943
1944
1945
1946
1947
1948
1949
195
1950
1951
1952
1953
1954
1955
1956
1957
1958
1959
196
1960
1961
1962
1963
1964
1965
1966
1967
1968
1969
197
1970
1971
1972
1973
1974
1975
1976
1977
1978
1979
198
1980
1981
1982
1983
1984
1985
1986
1987
1988
1989
199
1990
1991
1992
1993
1994
1995
1996
1997
1998
1999
20
200
2000
2001
2002
2003
2004
2005
2006
2007
2008
2009
201
2010
2011
2012
2013
2014
2015
2016
2017
2018
2019
2020
2021
2022
2025
2030
2050
21
210
212
215
22
220
225
229
23
230
24
240
25
250
2500
26
260
27
270
28
280
29
2x
30
300
3000
31
32
320
33
330
34
35
350
36
360
365
37
38
39
3d
3g
40
400
4000
41
42
420
43
44
45
450
46
47
48
49
4a
4k
4x
50
500
5000
51
52
53
54
55
550
56
57
58
59
60
600
6000
61
62
63
64
65
650
66
67
68
69
70
700
7000
71
72
73
74
75
750
76
77
78
79
80
800
8000
81
82
83
84
85
850
86
87
88
89
90
900
91
92
93
94
95
96
97
98
99
a1
a2
a3
a4
aa
aaa
aal
aam
aar
aas
aasen
ab
abb
abc
abd
abel
abo
abon
abonn
abonnem
abonnement
abonnenter
abort
about
abra
abraham
abs
absol
absolutt
absolutte
absor
absorber
absurd
abu
ac
academy
acc
access
account
act
action
activ
active
ad
adam
adap
adapt
adc
adcirca
add
address
ade
adel
adferd
adgang
adgangen
adhd
adidas
adkomst
adm
admin
administ
administrasjon
administrasjonen
administrasjons
administrat
administrativ
administrative
administrativt
administrator
administrere
administrerende
adobe
adolf
adop
adopsjon
adopt
adre
adren
adress
adresse
adresseavisen
adressen
adresser
adri
adrian
adskilt
adult
advan
advar
advare
advarer
advarsel
advarsler
advart
advarte
advent
adventure
advok
advokat
advokaten
advokater
aer
af
aff
affære
afg
afgh
afghan
afghanistan
afghanske
afp
afri
afrik
afrika
afrikansk
afrikanske
afro
aft
aften
aftenblad
aftenposten
after
ag
aga
agder
age
agen
agency
agenda
agendaen
agent
agenter
agentur
agg
aggreg
aggresjon
aggress
aggressiv
aggressive
agn
agnes
ago
agoda
agur
ah
ai
aids
air
airlines
airport
ajour
ak
aka
akadem
akademia
akademiet
akademisk
akademiske
ake
aker
akershus
akk
akkred
akkum
akkurat
akryl
aks
akse
aksel
akseler
aksep
aksept
akseptabel
akseptabelt
akseptere
aksepterer
aksepteres
akseptert
aksepterte
aksje
aksjeeier
aksjef
aksjefond
aksjekapital
aksjem
aksjemarkedet
aksjen
aksjene
aksjer
aksjesel
aksjeselskap
aksjon
aksjonen
aksjoner
aksjonær
aksjonærene
aksjonærer
akt
akter
aktiv
aktive
aktiver
aktivere
aktiveres
aktivert
aktivister
aktivitet
aktiviteten
aktivitetene
aktiviteter
aktivitets
aktivitetsniva
aktivt
aktuell
aktuelle
aktuelt
aktør
aktørene
aktører
akup
akust
akutt
akutte
akv
akvakultur
akvar
al
ala
alan
alarm
alarmen
alaska
alb
alban
albert
albu
album
albumet
aldeles
alder
alderen
alders
aldersgrense
aldersgruppe
aldersgruppen
aldersgrupper
alderspensjon
aldre
aldri
aldring
ale
aleine
aleks
aleksander
alene
alesund
alex
alexand
alexander
alexandra
alf
alfa
alfabet
alfred
alg
alge
alger
algorit
ali
alice
alko
alkohol
all
allah
alle
allefall
aller
allerede
allerg
allergi
allergisk
alles
alli
allianse
alliansen
allierte
allikevel
allmen
allmenn
allmenne
allmennheten
allment
allo
allsid
allsidig
alltid
alltids
alm
alma
alminn
alminnelig
alminnelige
alp
alpakka
alpin
also
alt
alta
alter
altern
alternativ
alternative
alternativene
alternativer
alternativet
alternativt
altfor
altinn
altsa
aluminium
alv
alvdal
alvor
alvorlig
alvorlige
alvorlighet
am
ama
amalie
amanda
amateur
amatør
amatører
amazon
amb
ambas
ambassa
ambassad
ambassaden
ambassadør
ambisi
ambisiøse
ambisjon
ambisjonene
ambisjoner
ambul
ambulanse
amer
america
american
amerik
amerika
amerikanere
amerikanerne
amerikansk
amerikanske
amfi
amig
amigos
amin
aminos
amm
amme
amming
ammunisjon
amne
amnesty
amor
amot
amp
amsterdam
amt
amund
amundsen
amy
an
ana
anal
analog
analsex
analy
analys
analyse
analysen
analysene
analyser
analysere
analyserer
analysert
analyt
analytics
analytiske
anark
anat
anavn
anbef
anbefale
anbefaler
anbefales
anbefaling
anbefalingene
anbefalinger
anbefalt
anbefalte
anbud
and
ande
andel
andelen
andeler
andelig
andelige
andelse
andelseier
anden
ander
anders
andersen
anderson
andersson
andre
andrea
andreas
andreassen
andreplass
andres
andresen
andrew
andro
android
andsverk
andy
ane
anelse
aner
anerkj
anerkjenne
anerkjennelse
anerkjenner
anerkjent
anerkjente
anette
anfall
anført
ang
angaende
angar
angel
angeles
angi
angir
angis
angitt
angitte
angiv
angivelig
angre
angrep
angrepene
angrepet
angrer
angrerett
angret
angri
angripe
angriper
angst
angsten
anim
animal
animasjon
animasjoner
anime
anita
anja
anke
anker
anket
ankl
anklager
anklaget
ankom
ankommer
ankomst
anlagt
anled
anledning
anledningen
anledninger
anlegg
anleggene
anlegget
anleggs
anløp
anm
anmeld
anmelde
anmeldelse
anmeldelsen
anmeldelser
anmelder
anmeldt
anmeldte
anmod
anmodning
ann
anna
annan
anne
annen
annenhver
anner
annerledes
annet
anniken
anno
annon
annons
annonse
annonsen
annonsene
annonser
annonsere
annonsering
annonsert
annonserte
annonsører
annunci
anon
anonym
anonyme
anonymt
ans
ansa
ansatt
ansatte
ansattes
anse
ansees
anser
anses
ansett
ansette
ansettelse
ansettelser
ansettelses
ansi
ansiennitet
ansikt
ansikter
ansiktet
ansikts
anska
anskaff
anskaffelse
anskaffelser
anskaffelses
anslag
anslar
anslas
anslatt
anstendig
anstr
anstreng
ansvar
ansvaret
ansvarlig
ansvarlige
ansvars
ansvarsomrade
ant
anta
antagelig
antak
antakelig
antall
antallet
antar
antarkt
antarktis
antas
antatt
ante
anthon
anti
antib
antibi
antibiotika
antid
antidoping
antik
antikk
antikke
antikken
antioksid
antioksidanter
antisem
antisemitt
antist
anton
antonio
antonsen
antrekk
antrekket
antrop
antyd
antyder
antydet
anvend
anvende
anvendelse
anvender
anvendes
anvendt
any
ap
apart
apen
apenbar
apenbare
apenbaring
apenbart
apenhet
apent
api
apne
apner
apnes
apnet
apning
apningen
apninger
apnings
apningstid
apningstider
apos
apost
apotek
apoteket
app
appar
apparat
apparater
apparatet
appell
appeller
appels
appelsin
appen
appene
apper
appet
appetitt
appla
applaus
apple
apples
applic
applik
applikasjon
applikasjonen
applikasjoner
apply
apps
apr
april
apris
aps
aq
aqu
ar
ara
arab
arabia
arabisk
arabiske
arb
arbeid
arbeide
arbeidene
arbeider
arbeidere
arbeiderklassen
arbeiderne
arbeiderparti
arbeiderpartiet
arbeiderpartiets
arbeides
arbeidet
arbeids
arbeidsb
arbeidsdag
arbeidsdagen
arbeidserfaring
arbeidsevne
arbeidsforhold
arbeidsgiver
arbeidsgiveravgift
arbeidsgivere
arbeidsgiveren
arbeidsgivers
arbeidsgruppe
arbeidsgruppen
arbeidsgrupper
arbeidsinn
arbeidskraft
arbeidsled
arbeidsledige
arbeidsledighet
arbeidsledigheten
arbeidsliv
arbeidslivet
arbeidsm
arbeidsmarked
arbeidsmarkedet
arbeidsmater
arbeidsmiljø
arbeidsmiljøet
arbeidsmiljøloven
arbeidsoppgavene
arbeidsoppgaver
arbeidspl
arbeidsplass
arbeidsplassen
arbeidsplassene
arbeidsplasser
arbeidssted
arbeidssøk
arbeidssøkere
arbeidst
arbeidsta
arbeidstaker
arbeidstakere
arbeidstakeren
arbeidstakerne
arbeidstid
arbeidstiden
arbeidstilsynet
arbeidsutvalget
arbeidsvilkar
arc
arch
arctic
are
area
areal
arealdel
arealene
arealer
arealet
arena
arenaen
arenaer
arendal
arendals
arene
arenes
aret
arets
arevis
arg
argang
argent
argentina
argum
argument
argumentasjon
argumentene
argumenter
argumentere
argumenterer
argumentet
arhund
arhundre
arhundrer
arhundret
ari
arig
arige
arild
aring
aringen
aringene
aringer
arist
ark
arke
arkeologiske
arket
arkite
arkitekt
arkitekten
arkitekter
arkitekton
arkitektur
arkiv
arkivdel
arkiver
arkivet
arkivkode
arkt
arktis
arktiske
arlig
arlige
arm
armani
armband
arme
armen
armene
armer
arn
arna
arne
arnes
arnesen
arnt
arom
aroma
arr
arrang
arrange
arrangem
arrangement
arrangementene
arrangementer
arrangementet
arranger
arrangere
arrangerer
arrangeres
arrangert
arrangerte
arrangør
arrangøren
arrangørene
arrangører
arrekke
arrest
arrestert
ars
arsak
arsaken
arsakene
arsaker
arsaks
arsber
arsberetning
arsen
arsenal
arsjubile
arsjubileum
arsm
arsmelding
arsmøte
arsmøtet
arsplan
arsrapport
arsregn
arsregnskap
arsregnskapet
arsskiftet
arstid
arsverk
art
arten
artene
arter
arthur
article
artig
artige
artik
artikk
artikkel
artikkelen
artiklene
artikler
artiller
artist
artisten
artistene
artister
arts
arv
arve
arven
arvet
arvid
as
asa
asane
asb
asbjørn
asche
aschehoug
ase
asen
aser
asfal
asfalt
ash
asi
asia
asian
asiatisk
asiatiske
ask
aske
asker
askim
askøy
asl
asm
asp
aspe
aspekt
aspekter
aspektet
asper
aspir
ass
assad
assist
assistanse
assistent
assistenter
assister
assisterende
assistert
assoc
association
assos
assosi
assosiasjoner
assosiert
asss
ast
astedet
astma
astrid
astron
asy
asyl
asylmottak
asylsøker
asylsøkere
at
ate
atelier
atferd
ath
athen
atlant
atlanter
atle
atlet
atmosf
atmosfære
atmosfæren
atom
atomvapen
att
atte
attende
attent
atter
attest
attra
attraksjon
attraksjonene
attraksjoner
attraktiv
attraktive
attraktivitet
attraktivt
atv
au
aud
audi
audio
audun
auf
aug
august
auksjon
aur
aurdal
aure
aurora
aurskog
aus
aust
austral
australia
australske
aut
autent
autentisk
autentiske
author
autisme
auto
autom
automat
automater
automatisering
automatisert
automatisk
automatiske
autonom
autor
autoris
autorisasjon
autorisert
autoriserte
autorit
autoritet
av
avail
available
avansert
avanserte
avb
avbildet
avbrudd
avbrutt
avbry
avbryte
avd
avde
avdekke
avdekker
avdekket
avdel
avdeling
avdelingen
avdelingene
avdelinger
avdelings
avdelingsleder
avdrag
avdu
avdøde
aven
aver
avfall
avfallet
avfalls
avføring
avg
avgang
avganger
avgarde
avgi
avgift
avgiften
avgifter
avgir
avgitt
avgjort
avgjør
avgjøre
avgjørelse
avgjørelsen
avgjørelser
avgjørende
avgjøres
avgrens
avgrenset
avh
avhandlingen
avheng
avhenge
avhenger
avhengig
avhengige
avhengighet
avhold
avholde
avholdes
avholdt
avhør
avinor
avis
avisa
avisen
avisene
aviser
avk
avkast
avkastning
avkastningen
avkjø
avkjør
avkl
avklare
avklares
avklaring
avklart
avkom
avl
avla
avlast
avlastning
avling
avls
avlyst
avløp
avløps
avløpsanlegg
avreise
avrenning
avrund
avsatt
avsender
avsk
avska
avskjed
avsl
avsla
avslag
avslapp
avslappende
avslappet
avslatt
avslut
avslutning
avslutningen
avslutningsvis
avslutt
avslutte
avsluttende
avslutter
avsluttes
avsluttet
avslør
avsløre
avslører
avslørt
avslørte
avsnitt
avsnittet
avsp
avst
avsta
avstand
avstanden
avstander
avstemm
avt
avtal
avtale
avtalen
avtalene
avtalens
avtaler
avtales
avtalt
avtalte
avtar
avv
avve
avveie
avver
avvik
avvike
avviker
avviket
avvikle
avvikles
avviklet
avvikling
avviks
avvise
avviser
avvises
avvisning
avvist
avviste
aw
award
awards
away
ax
axel
ay
ayl
aylar
az
a¥
b2
ba
bab
baby
babyen
babyer
babyl
bac
bach
bachel
bachelor
bachelorgrad
back
backup
bacon
bad
bade
badekar
bader
baderom
badet
bading
badoo
bag
bagasje
bagasjen
bagat
bak
bake
baker
bakerst
bakfra
bakgrunn
bakgrunnen
bakgrunner
bakhodet
baking
bakk
bakke
bakken
bakkene
bakker
bakleng
bakover
bakre
baks
baksiden
bakt
bakte
bakter
bakterie
bakterier
bal
balanse
balansen
balanser
balansere
balansert
balet
bali
balkon
balkong
ball
ballen
baller
ballett
ballong
balt
bam
bamble
ban
banan
band
bandene
bandet
bandets
bane
baneb
banebryt
banebrytende
banen
banene
baner
bang
bangkok
banglad
bangladesh
bank
banken
bankene
bankens
banker
banket
bankid
bankk
bankkonto
banks
bann
banner
bar
barack
barbar
barbara
barber
barbere
barbering
barbert
barcel
barcelona
bard
bardu
bare
baren
barent
barentsh
barentshavet
barer
baret
barn
barna
barnas
barnd
barndom
barndommen
barne
barnebarn
barnebok
barnebøker
barnefamilier
barneh
barnehag
barnehage
barnehagelærer
barnehagen
barnehagene
barnehagens
barnehageplass
barnehager
barneklær
barner
barnes
barneskole
barneskolen
barnet
barnets
barnevern
barnevernet
barneverntjenesten
barns
barnslig
barri
barriere
barrierer
barsel
bart
bas
base
baseb
basen
baser
basere
baserer
baseres
basert
baserte
basic
basil
basis
basket
basketball
bass
basseng
bassenget
bast
bat
baten
batene
bater
batt
batter
batteri
batteriene
batterier
batteriet
battle
battur
bay
bayer
bayern
bb
bbc
bbw
bc
bd
bdsm
be
be2
beach
bearbeid
bearbeide
bearbeidet
bearbeiding
beat
beate
beatles
beaut
beautiful
beauty
beb
bebo
beboer
beboere
beboerne
bebygg
bebyggelse
bebyggelsen
beck
bed
bede
bedrager
bedre
bedret
bedrift
bedriften
bedriftene
bedriftens
bedrifter
bedrifts
bedring
bedt
bedø
bedømme
been
bef
befant
befaring
befinne
befinner
befol
befolkning
befolkningen
befolkningens
befolknings
befolkningsvekst
befri
befrukt
befruktning
beg
bega
begatt
begeist
begeistret
begeistring
begge
begiven
begivenhet
begivenheter
begj
begjær
begrav
begravelse
begravet
begre
begrens
begrense
begrensede
begrenser
begrenses
begrenset
begrensning
begrensninger
begrep
begrepene
begreper
begrepet
begrunn
begrunne
begrunnelse
begrunnelsen
begrunner
begrunnes
begrunnet
begyn
begynn
begynne
begynnelse
begynnelsen
begynner
begynt
begynte
beh
behag
behagelig
behagelige
behand
behandle
behandler
behandles
behandlet
behandling
behandlingen
behandlinger
behandlings
beher
beherske
behersker
behjelp
behold
beholde
beholder
beholdes
beholdt
behov
behovene
behovet
behør
behøver
beij
beijing
bein
beina
beinet
beit
beite
beitost
bek
bekj
bekje
bekjemp
bekjempe
bekjempelse
bekjent
bekjente
bekjentskap
bekk
bekke
bekken
bekker
bekl
beklagelig
beklager
bekost
bekostning
bekre
bekreft
bekrefte
bekreftelse
bekrefter
bekreftes
bekreftet
bekve
bekym
bekymre
bekymrer
bekymret
bekymring
bekymringer
bekymrings
bel
belast
belastes
belastet
belastning
belastningen
belastninger
bele
belegg
belg
belgia
belig
beliggen
beliggenhet
beliggenheten
bell
bellona
belte
belys
belyse
belyser
belysning
belyst
belønn
belønnet
belønning
beløp
beløpene
beløpet
beman
bemanning
bemannings
bemerk
bemerkelses
bemerket
ben
bena
bend
bene
bened
benj
benjamin
benk
benke
benken
benker
benn
bens
bensin
bensinst
bent
bente
benytt
benytte
benytter
benyttes
benyttet
benz
beord
beordret
ber
beredskap
beredskaps
bereg
beregne
beregner
beregnes
beregnet
beregning
beregningen
beregningene
beregninger
beregnings
beretning
berettiget
berg
berge
bergen
bergens
berger
berget
berit
berlin
bern
bernt
berntsen
berolig
beroligende
berre
bert
beruset
bery
berø
berømt
berømte
berør
berøre
berører
berøring
berørings
berørt
berørte
bes
besatt
bese
besittelse
besitter
besk
beskj
beskjed
beskjeden
beskjeder
beskjedne
beskrev
beskrevet
beskri
beskriv
beskrive
beskrivelse
beskrivelsen
beskrivelser
beskriver
beskrives
beskyld
beskyldt
beskytt
beskytte
beskyttelse
beskyttelses
beskyttende
beskytter
beskyttet
besl
beslag
besle
beslektede
beslektet
beslut
beslutning
beslutningen
beslutninger
beslutnings
beslutt
besluttet
bespar
best
besta
bestaende
bestand
bestanden
bestandig
bestar
bestatt
beste
bestefar
besteforeldre
bestemm
bestemme
bestemmelse
bestemmelsen
bestemmelsene
bestemmelser
bestemmer
bestemmes
bestemor
bestemt
bestemte
bestevenn
bestikk
bestil
bestill
bestille
bestiller
bestilles
bestilling
bestillingen
bestillinger
bestilt
bestilte
besto
bestod
bestsel
bestselger
besvar
besvare
besvart
besø
besøk
besøke
besøkende
besøker
besøket
besøks
besøksadresse
besøkt
besøkte
bet
beta
betal
betale
betalende
betaler
betales
betaling
betalingen
betalinger
betalings
betalingsm
betalt
betalte
betegn
betegnelse
betegnelsen
betegner
betegnes
betegnet
beten
betennelse
beting
betingelsene
betingelser
betinget
betjen
betjene
betjening
betong
betra
betrakt
betrakte
betraktelig
betrakter
betraktes
betraktet
betraktning
betraktninger
betre
betry
betryggende
better
bety
betyd
betydd
betydde
betydelig
betydelige
betydning
betydningen
betydnings
betyr
beund
bevar
bevare
bevares
bevaring
bevart
bevarte
beveg
bevege
bevegelighet
bevegelse
bevegelsen
bevegelsene
bevegelser
bevegelses
beveger
beveget
bever
bevil
bevilg
bevilget
bevilgning
bevilgningen
bevilgninger
bevilling
bevis
bevise
beviser
bevisst
bevisste
bevisstgjøring
bevissthet
bevisstheten
bevist
bevæp
bf
bh
bi
bib
bibel
bibelen
bibli
bibliote
bibliotek
bibliotekene
biblioteket
bid
bidra
bidrag
bidragene
bidraget
bidragsy
bidragsyter
bidragsytere
bidrar
bidratt
bidro
bie
bieber
bier
bif
biff
bifil
bifile
big
bik
bikini
bikk
bil
bilag
bild
bilde
bildene
bilder
bildes
bildet
bilen
bilene
bilens
biler
bilete
bilister
bill
billed
billedkunst
billett
billetten
billettene
billetter
billig
billige
billigere
billigste
bim
bin
bind
binde
bindende
binder
binding
bing
bingo
bio
biod
biodriv
biodrivstoff
biog
biogass
biok
biologi
biologisk
biologiske
biom
biotekn
bioteknologisk
bip
bir
birger
birgitte
birk
birke
birkebe
birkeland
bis
biskop
biskopen
bislett
bisp
bispedø
bist
bista
bistand
bistar
bit
bitcoin
bite
biten
biter
bitt
bittel
bitter
biv
bivir
bivirkninger
bj
bjar
bjarne
bjel
bjer
bjerke
bjør
bjørg
bjørgen
bjørk
bjørke
bjørklund
bjørn
bjørnar
bjørne
bjørns
bjørnson
bjørvika
bk
bl
bla
blab
blabær
blac
black
blackj
blackjack
blad
bladene
blader
bladet
blak
blan
bland
blande
blander
blandes
blandet
blanding
blandingen
blandt
blank
blanke
blant
blas
blase
blaser
blaskjell
blast
blaste
blatt
ble
blei
blekk
blender
bli
blid
blide
blikk
blikket
blind
blinde
blink
blir
blit
blitt
blo
block
blod
blodarene
blodet
blodig
blodprøver
blodsirk
blodsukker
blodtrykk
blodtrykket
blog
blogg
blogge
bloggen
bloggene
blogger
bloggere
blogget
blogging
blogginnlegg
blogginnlegget
blokk
blokker
blokkere
blokkert
blom
blomst
blomstene
blomster
blomstr
blomstre
blomstrer
blond
blonde
blood
bloom
blow
blowjob
blu
blue
blues
bluet
bluetooth
bly
blø
blød
blødning
blødninger
bløt
bm
bmi
bmw
bn
bnp
bnr
bo
board
boat
bob
bobil
boble
bobler
bod
bodd
bodde
body
bodø
boende
bog
boikott
bok
boka
boken
bokens
bokhandel
bokhyl
bokk
bokmal
bokmerk
boks
boksen
bokser
bokstav
bokstavelig
bokstavene
bokstaver
bol
bolig
boligbygg
boligen
boligene
boliger
boligkjøp
boliglan
boligmarkedet
boligprisene
boligsos
boliv
bolle
boller
bolsje
bolt
boltre
bom
bomb
bombe
bomber
bombet
bompenge
bompenger
bomull
bon
bond
bondage
bonde
bonden
bonder
bonderom
bonderomantikk
bondevik
bonus
bonusen
bonuser
boob
boobs
book
booke
booket
booking
books
boost
boot
booty
bop
bor
bord
bordene
border
bordet
bore
borett
borettslag
borettslaget
borg
borge
borgen
borger
borgere
borgerkrig
borgerkrigen
borgerlig
borgerlige
boring
born
borrel
bort
borte
bortebane
borti
bortimot
bortover
bortsett
bortskjem
bos
bosatt
bosatte
bosch
bosette
bosetting
bosnia
boss
bost
bosted
boston
bot
botan
bott
bow
bowling
box
boy
boys
bp
bpa
br
bra
brad
brak
brakk
brakt
brakte
bran
brand
brann
brannen
brannvern
brannvesen
brannvesenet
brans
bransje
bransjen
bransjens
bransjer
brant
brasil
brasiliansk
brasilianske
brat
bratt
bratte
brav
bre
break
bred
bredband
bredde
bredden
brede
bredere
bredt
bree
breiv
breivik
brekke
brem
bremse
bremser
brenn
brenne
brennende
brenner
brennevin
brens
brensel
brent
brett
brette
brettet
brettspill
brev
brevet
brevik
bri
brian
brid
bridge
brig
bright
brikke
brikker
brillene
briller
bring
bringe
bringebær
bringer
bringes
bris
brist
brit
britene
british
britisk
britiske
britt
bro
broad
broder
broen
broer
bron
bronse
brook
bror
broren
brosj
brosjyre
brosjyren
brosjyrer
brother
brow
brown
bru
brua
bruce
brud
brudd
bruddet
brude
bruk
brukar
brukbar
brukbart
bruke
bruken
bruker
brukere
brukeren
brukerens
brukergrens
brukermedvirkning
brukernavn
brukerne
brukernes
brukeropplevelse
brukeropplevelsen
brukervenn
brukervennlig
brukervennlige
brukervennlighet
brukes
bruket
bruks
bruksan
bruksanvisning
bruksom
bruksomrader
brukt
brukte
brumund
brumunddal
brun
brune
brunt
brus
brussel
brut
brutal
brutale
brutalt
brutt
brutto
bry
brydde
brygg
brygga
brygge
bryggen
brygger
bryggeri
bryll
bryllup
bryllupet
bryn
bryne
bryr
bryst
brystene
bryster
brystet
brystkreft
brystv
bryte
bryter
brytes
brø
brød
brødet
brødre
brødrene
brøk
brønn
brønnøysund
brøt
bs
bt
bu
bud
budapest
budd
buddh
budsjett
budsjetter
budsjettert
budsjettet
budskap
budskapet
bue
buen
buff
bug
building
buk
bukse
bukser
bukt
bul
bulgar
bulgaria
bull
bun
bunad
bund
bundet
bunn
bunnen
bup
bur
burde
buret
burg
burger
bursdag
bursdagen
bursdags
bus
bush
business
busk
busker
buskerud
buss
bussen
bussene
busser
bust
bustad
but
butikk
butikken
butikkene
butikker
butt
butter
buy
buzz
by
byasen
bydel
bydelen
bydelene
bydeler
bydelsutvalget
bye
byen
byene
byens
byer
byg
bygd
bygda
bygde
bygdøy
bygg
bygge
byggen
byggene
byggeplass
byggeprosjekter
bygger
bygges
bygget
byggher
byggherre
byggherren
bygging
byggingen
byggverk
bygning
bygningen
bygningene
bygninger
bygnings
bygningsloven
bygningsm
bymisjon
byr
byra
byrad
byradet
byraer
byrak
byrakrat
bys
bystyre
bystyret
bytt
bytte
bytter
byttes
byttet
byutvikling
bæ
bær
bærbar
bærbare
bære
bærekraft
bærekraftig
bærekraftige
bærende
bærer
bæres
bærum
bø
bød
bøkene
bøker
bøl
bølge
bølgen
bølgene
bølger
bøndene
bønder
bønn
bønner
bør
børge
børre
børs
børsen
børsn
børste
bøter
bøtte
bøy
bøye
bøyer
ca
cab
cad
cafe
cal
cali
californ
california
call
cam
camilla
camp
camping
campus
cams
can
canada
canaria
cand
cann
cannab
cannabis
canon
cap
cape
capp
cappelen
capt
car
card
cardi
care
carl
carlos
carlsen
carol
caroline
cart
cartoon
cas
case
cash
casin
casino
casinoene
casinoer
casinoet
casinospill
casio
cast
casual
cat
categ
category
catering
cathrine
cato
cav
cc
cd
ce
cec
cecil
cecilie
cel
celeb
cell
celle
cellene
celler
cent
center
centimeter
central
centre
cer
cert
cf
ch
cha
chall
challenge
cham
champ
champagne
champion
champions
championship
change
chap
char
charles
charlie
charlo
charlotte
charter
chat
chate
chatroulette
chatt
chatte
chatter
chatterom
chattes
chattesider
che
check
chelse
chelsea
cher
chi
chic
chicago
chil
child
children
chile
chili
china
chip
chips
cho
choice
chris
christ
christensen
christer
christian
christiania
christiansen
christina
christine
christoffer
christopher
chrom
chrome
church
ci
cia
cialis
cir
cirka
cis
cit
citizen
city
civ
ck
cl
cla
clar
class
classic
cle
clean
clear
cli
click
clint
clinton
clo
close
cloud
club
cm
cnn
co
co2
coach
coaching
coc
coca
cock
cockta
code
col
cola
coll
colle
collection
college
colom
colombia
color
colour
colum
com
come
comeb
comeback
comfort
comm
comment
comments
commun
communic
community
comp
compan
company
computer
con
conc
cond
conne
connect
cons
consult
cont
contact
contain
container
content
contin
continue
control
cook
cookie
cookies
cool
coop
cooper
cop
copyr
copyright
cor
core
corn
corner
corpor
cos
cost
costa
cott
coug
cougar
cougars
coun
council
count
country
county
cour
court
cover
cow
cp
cr
cra
craft
craig
crazy
cre
creamp
creampie
creative
cred
crew
crist
cro
cross
cru
cruise
cry
cs
css
ct
cu
cub
cuba
cuck
cuckold
cult
cum
cup
cupen
cur
cust
custom
cut
cv
cy
cyber
da
daa
dab
dad
dag
dagar
dagblad
dagbladet
dagbladets
dagbok
dagen
dagene
dagens
dager
dagers
dagfinn
daglig
dagligdag
daglige
dagliglivet
dagligvar
dagligvare
dagligvareb
dags
dagsavisen
dagslys
dagsord
dagsorden
dagtid
dah
dahl
daily
dak
dal
dale
dalen
daler
dall
dam
dama
dame
damek
damen
damene
damer
damli
damm
dammen
damp
dan
dance
dani
daniel
danielsen
danmark
danmarks
danne
dannelse
dannelsen
danner
dannes
dannet
dans
danse
dansen
danser
dansere
danset
dansk
danske
danskene
dap
dapen
dar
dark
darlig
darlige
darligere
darligste
dash
dat
data
datab
database
databasen
databaser
databehandler
dataene
datag
datainn
datak
datam
datama
datamaskin
datamaskinen
datamaskiner
datapro
datas
dataspill
datat
datatilsynet
date
daten
dater
datering
datert
dates
datidens
dating
datingnett
datingside
datingsiden
datingsidene
datingsider
datingt
datingtips
datingtjenester
dato
datoen
datoene
datoer
datt
datter
datteren
datterselskap
dav
david
daværende
day
days
db
dc
dd
de
dead
deaktiver
deal
death
deb
debatt
debatten
debatter
debu
debut
debuten
debuterte
dec
ded
dedik
dedikert
dedikerte
dee
deep
def
defens
defin
definere
definerer
defineres
definert
definerte
definisjon
definisjonen
definisjoner
definit
definition
definitivt
deg
dei
deigen
deil
deilig
deilige
deira
dej
dek
dekan
dekar
dekk
dekke
dekkene
dekker
dekkes
dekket
dekning
deknings
dekor
dekorasjon
dekorert
deks
del
dele
deleg
delegasjon
delegater
delegert
delen
delene
deler
deles
delhi
delikat
delikate
deling
dell
delmal
dels
delstaten
delt
delta
deltag
deltagelse
deltager
deltagere
deltagerne
deltak
deltakelse
deltakelsen
deltakende
deltaker
deltakere
deltakeren
deltakerne
deltar
deltatt
delte
deltid
deltids
deltok
delvis
dem
demens
demo
demokrat
demokratene
demokrati
demokratiet
demokratisk
demokratiske
demon
demonst
demonstr
demonstranter
demonstrasjon
demonstrasjoner
demonstrere
demp
dempe
demper
dempet
den
denmark
denne
dennes
dennis
dens
dep
departem
departement
departementet
departementets
deposit
depot
depresjon
depress
deprimert
der
derav
derby
dere
deres
deretter
derfor
derfra
deriblant
derimot
deriv
dermed
dernest
dersom
dertil
derved
des
desember
desentral
desidert
desig
design
designe
designer
designere
designet
desper
desperat
desperate
dess
desse
dessert
dessuten
dessverre
destin
destinasjon
destinasjoner
desto
destru
desverre
det
detal
detalj
detaljene
detaljer
detaljert
detaljerte
detaljvarer
dete
dets
dette
dev
devel
develop
development
dg
di
dia
diabet
diabetes
diagn
diagnose
diagnosen
diagnoser
diagnost
diagnostikk
diagnostisert
diagra
diagram
diakon
dial
diale
dialekt
dialog
dialogen
diam
diamant
diameter
diamond
diare
dick
did
die
diego
dies
diesel
diet
diett
dietten
diff
differ
differens
difi
difor
dig
diger
digg
digger
digit
digital
digitale
digitalisering
digitalt
dikt
diktene
dikter
diktet
dil
dild
dildo
dile
dilemma
dim
dimensjon
dimensjoner
dimensjonering
din
dine
ding
dinosa
dinside
dipl
diplom
dir
dire
direct
director
direkt
direkte
direktiv
direktivet
direktoratet
direktør
direktøren
dirig
dirigent
dis
disc
disipl
disiplene
disiplin
disk
diskret
diskrimin
diskriminering
diskriminerings
diskusjon
diskusjonen
diskusjonene
diskusjoner
diskuter
diskutere
diskuterer
diskuteres
diskutert
diskuterte
disney
disp
dispens
dispensasjon
display
dispon
disponer
disponere
disponerer
disposisjon
disse
dist
distanse
distansen
distin
distrah
distri
distribu
distribuere
distribuert
distribusjon
distribut
distrikt
distriktene
distriktet
dit
ditt
div
diver
diverse
divisjon
divisjonen
dj
dje
djev
djevel
djevelen
djup
dk
dl
dm
dn
dna
dnb
dnt
do
dob
dobbel
dobbelt
doble
doblet
doc
document
dog
dogging
dok
dokt
doktor
doktorgrad
dokum
dokument
dokumentar
dokumentaren
dokumentasjon
dokumentasjonen
dokumentene
dokumenter
dokumentere
dokumenterer
dokumenteres
dokumentert
dokumenterte
dokumentet
dol
dolce
doll
dollar
dom
domene
domenen
domf
domin
dominans
dominerende
dominerer
dominert
dominerte
domkirke
dommen
dommer
dommere
dommeren
dommerne
domstol
domstolen
domstolene
domstoler
don
donald
donne
dop
doping
dor
dort
dos
dose
dosen
doser
dosering
double
doug
dov
dovre
dow
down
download
dps
dr
dra
drag
dragon
drakk
drakt
drakter
dram
drama
dramat
dramatikk
dramatisk
dramatiske
drammen
drammens
drap
drapene
draper
drapet
drar
drastisk
dratt
dre
dream
dreide
dreie
dreier
drener
drenering
drepe
dreper
drept
drepte
dress
drev
drevet
dri
drift
drifte
driften
drifter
driftes
drifts
driftsinn
driftskostnader
driftsresultat
driftsutgifter
drikk
drikke
drikker
drikkevann
drink
drinker
drit
dritt
driv
drive
driver
drives
drivhus
drivkraft
drivstof
drivstoff
dro
drog
dron
drone
droner
dronning
dronningen
drop
droppe
dropper
droppet
drosje
dru
druk
drukket
dry
drø
drøbak
drøft
drøfte
drøfter
drøftes
drøftet
drøfting
drøm
drømm
drømme
drømmen
drømmene
drømmer
drømt
drømte
drøy
drøye
drøyt
ds
dsb
dt
du
dubai
dubl
dublin
due
duell
duft
duften
dug
dugnad
duk
duken
duket
dukke
dukker
dukket
dum
dumme
dumpet
dumping
dumt
dun
dund
duo
duoen
dur
dus
dusin
dusj
dusje
dusjen
dv
dvd
dver
dvs
dy
dyb
dybde
dybden
dykk
dykke
dykker
dykking
dyktig
dyktige
dyktighet
dyl
dyn
dynam
dynamikk
dynamisk
dynamiske
dynast
dyp
dype
dypere
dypet
dypt
dyr
dyra
dyre
dyreliv
dyrene
dyrere
dyreste
dyret
dyrev
dyrevel
dyrevelferd
dyrevern
dyrke
dyrker
dyrkes
dyrket
dyrking
dyrt
dys
dysfunksjon
dyst
dyttet
dæ
dø
død
døde
dødelig
dødelige
dødelighet
døden
døds
dødsannonser
dødsf
dødsfall
dødsfallet
dødt
døg
døgn
døgnet
dømme
dømt
dønn
døpt
dør
døra
døren
dørene
dører
døtre
døv
døve
døy
e18
e39
e6
ea
ear
earth
eas
east
easy
eb
ebay
ebon
ebony
ec
eck
eco
econom
ed
edd
edderk
edel
edge
edin
edit
edition
edu
educ
education
edvard
edward
ee
ef
eff
effe
effekt
effekten
effektene
effekter
effektiv
effektive
effektivisere
effektivisering
effektivitet
effektiviteten
effektivt
efta
efter
eg
egen
egenandel
egenart
egenhand
egenkapital
egenskap
egenskapen
egenskapene
egenskaper
egent
egentlig
egentlige
eger
egersund
eget
egg
egge
eggen
eggene
egget
eggløsning
egil
egne
egnede
egner
egnet
egnethet
ego
egypt
egyptiske
eh
ei
eid
eide
eidsv
eidsvoll
eie
eiend
eiendeler
eiendom
eiendommen
eiendommene
eiendommer
eiendoms
eiendomsm
eiendomsmegler
eiendomsmegling
eiendomsskatt
eier
eierandel
eiere
eieren
eierne
eierskap
eierskapet
eies
eig
eigen
eik
eike
eiker
eil
eilert
ein
eina
einar
eine
eirik
eit
eitt
eivind
ek
eke
ekeberg
ekk
ekkelt
ekle
eks
eksa
eksakt
eksam
eksamen
eksamens
ekse
eksemp
eksempel
eksempelet
eksempelvis
eksempl
eksemplar
eksemplarer
eksemplene
eksempler
eksemplet
eksen
eksepsjon
eksil
eksist
eksistens
eksister
eksistere
eksisterende
eksisterer
eksistert
eksisterte
ekskl
ekskluder
eksklus
eksklusiv
eksklusive
eksklusivt
ekskur
eksotisk
eksotiske
eksp
ekspans
ekspansjon
eksped
ekspedisjon
ekspedisjonen
eksper
eksperim
eksperiment
eksperimenter
eksperimentere
ekspert
ekspertene
eksperter
ekspertise
ekspl
eksplis
eksplisitt
eksplo
eksploder
eksplos
eksplosjon
eksplosjonen
eksponer
eksponering
eksponert
eksport
eksporter
ekst
ekster
ekstern
eksterne
eksternt
ekstra
ekstrakt
ekstraordin
ekstraordinær
ekstraordinære
ekstraordinært
ekstrautstyr
ekstrem
ekstreme
ekstremt
ekte
ektef
ektefelle
ektefellen
ektefeller
ektem
ektemann
ektemannen
ektepar
ekteparet
ekteskap
ekteskapet
ekv
el
elast
elastisk
elbil
elbiler
eld
eldre
eldrer
eldste
ele
elect
electric
elef
eleg
elegan
elegant
elegante
elekt
elektri
elektrif
elektris
elektrisitet
elektrisk
elektriske
elektro
elektrom
elektron
elektronikk
elektronisk
elektroniske
elem
element
elementene
elementer
elementet
elend
elendig
elev
eleven
elevene
elevenes
elevens
elever
elg
eli
elias
elimin
eliminere
elin
elis
elisabeth
elise
elit
elite
eliten
elites
eliteserien
elitesingles
eliz
elizabeth
elkjøp
ella
elle
ellen
eller
ellers
ellev
elleve
elling
ellingsen
else
elsk
elske
elskede
elsker
elskere
elskerinne
elsket
elv
elva
elve
elven
elvene
elver
elverum
elvis
em
email
emb
emballasje
embet
emer
emig
emil
emilie
emisjon
emma
emne
emnene
emner
emnet
emosjon
emosjonell
emosjonelle
emp
empati
empi
en
end
enda
ende
endel
endelig
endelige
enden
ender
endet
ending
endr
endre
endrede
endrer
endres
endret
endring
endringen
endringene
endringer
endrings
endt
endte
ene
eneb
enebakk
enebolig
ener
energ
energi
energibruk
energid
energieffe
energieffektiv
energien
energiforbruk
energiforbruket
energik
energikilder
energil
energim
energipro
energiproduksjon
energis
energy
enestaende
eneste
eng
engang
engas
engasj
engasjem
engasjement
engasjementet
engasjer
engasjere
engasjerende
engasjerer
engasjert
engasjerte
engel
engelsk
engelske
enger
engine
engineering
england
engler
english
engros
engroshandel
engst
engstelig
enhet
enheten
enhetene
enheter
enhetlig
enhver
enig
enige
enighet
enjoy
enk
enke
enkel
enkelt
enkelte
enkeltes
enkeltindiv
enkeltperson
enkeltpersoner
enkeltsaker
enkeltvedtak
enkle
enklere
enklest
enkleste
enn
enna
enor
enorm
enorme
enormt
enova
ens
ensemb
ensidig
enslig
enslige
ensom
ensomhet
ensomme
enstemm
enstemmig
ent
enten
enter
entert
entertainment
entre
entrep
entrepren
entreprenør
entreprenøren
entreprenører
entreprenørskap
entus
entusia
entusias
entusiasme
entusiastisk
entydig
enz
enzym
ep
epidem
epile
epilepsi
epis
episode
episoden
episodene
episoder
eple
epler
epo
epost
equ
er
ere
ereksjon
erfar
erfare
erfaren
erfarer
erfaring
erfaringen
erfaringene
erfaringer
erfarings
erfarne
erfart
erg
ergo
ergonom
eric
erich
erik
eriks
eriksen
erin
eritre
erke
erkeb
erkj
erkjenne
erkjennelse
erkjenner
erkjent
erkl
erklær
erklæring
erklæringen
erklært
erklærte
erlend
erling
ern
erna
ernst
ernær
ernæring
ernærings
erob
erobret
eros
erosjon
erot
erotic
erotikk
erotisk
erotiske
erst
erstat
erstatning
erstatnings
erstatte
erstatter
erstattes
erstattet
erter
erver
erverv
ervervet
es
esa
esc
escort
escorte
escorts
esk
eske
eskort
eskorte
eskortejenter
eskorter
esp
espen
ess
essay
essens
essensielle
essensielt
essential
essentials
est
estet
estetikk
estetisk
estetiske
estim
estimer
estimert
estland
et
eta
etab
etabler
etablere
etablerer
etableres
etablering
etableringen
etablert
etablerte
etappe
etappen
etapper
etasje
etasjer
etat
etaten
etater
etc
eter
etg
ethvert
eti
etik
etiketter
etikk
etiop
etiopia
etisk
etiske
etn
etnisitet
etnisk
etniske
ett
etter
etterfor
etterforsk
etterforsker
etterforskning
etterforskningen
etterful
etterfulgt
etterfølgende
etterfølger
etterhvert
etterkant
etterkommere
etterkrig
etterl
etterlater
etterlatt
etterlatte
etterleng
etterlengtet
etterlevelse
etterlig
etterlot
etterlyser
etterlyst
ettermiddag
ettermiddagen
etternavn
etterpa
etterretning
etterretnings
ettersle
ettersom
ettersp
etterspurt
etterspør
etterspørsel
etterspørselen
ettersyn
ettert
ettertanke
ettertid
ettertrakt
ettertraktet
etterutdanning
eu
eur
euro
europ
europa
europas
europe
european
europeisk
europeiske
eus
ev
eva
evaku
evakuert
eval
evalu
evaluer
evaluere
evalueres
evaluering
evalueringen
evalueringer
evaluerings
evaluert
evangel
evangeliet
even
evensen
event
events
eventuell
eventuelle
eventuelt
eventyr
eventyret
ever
evert
every
evig
evige
evighet
evje
evne
evnen
evner
evolusjon
evt
ex
exc
excel
exchange
exec
exp
exper
experience
expert
expl
explorer
express
ext
extender
extens
extra
ey
eye
eøs
fa
fab
fabel
fabri
fabrikk
fabrikken
fabrikker
fac
face
facebo
facebook
facebooks
fact
factor
fad
fadder
faddere
fader
faen
fag
fagbevegelsen
fagbladet
fagbrev
fagene
fager
faget
fagfelt
fagfeltet
fagfolk
fagforbundet
fagforening
fagforeninger
fagkunnskap
faglig
faglige
fagmiljø
fagmiljøer
fagomrade
fagomradene
fagomrader
fagomradet
fagpersoner
fagskole
fair
fak
fake
faks
fakt
fakta
faktab
faktisk
faktiske
faktor
faktoren
faktorene
faktorer
faktum
faktura
fakturering
fakult
fakultet
fakultetet
fal
falk
fall
falle
fallende
faller
fallet
fallskjerm
falsk
falske
falt
fam
famil
famili
familie
familiegjen
familiem
familiemedlem
familiemedlemmer
familien
familiene
familiens
familier
families
familiet
family
fan
fana
fancy
fanen
fang
fange
fangen
fangene
fanger
fanget
fangst
fangsten
fann
fans
fansen
fant
fantas
fantasi
fantasien
fantasier
fantast
fantastisk
fantastiske
fantasy
fantes
far
fare
faren
farene
farens
farer
farg
farge
fargeleg
fargen
fargene
farger
fargerik
fargerike
farges
farget
farlig
farlige
farm
farmas
farmasøyt
farmasøytisk
farmen
farmor
fars
farsund
fart
farten
fartstid
fartøy
fartøyer
fartøyet
farvann
farvel
fas
fasade
fasaden
fasc
fascinerende
fascinert
fase
fasen
faser
fashion
fasiliteter
fasit
fast
faste
fastlandet
fastlege
fastlegen
fastleger
fastsatt
fastsatte
fastsette
fastsettelse
fastsetter
fastsettes
fastsla
fastslar
fat
fatall
fatt
fatte
fatter
fattes
fattet
fattig
fattigdom
fattige
fau
fauske
fav
favor
favoritt
favorittene
favoritter
favør
fb
fbi
fc
fd
fe
feb
feber
febru
februar
fed
feder
fedme
fedre
feed
feel
feil
feilaktig
feile
feilen
feilene
feir
feire
feirer
feires
feiret
feiring
feiringen
fekk
feks
fel
fell
felle
feller
felles
felleskap
felleskj
felleskjøpet
fellesskap
fellesskapet
felling
felt
feltene
felter
feltet
fem
female
femin
feminine
femt
femte
femten
femti
fen
feng
fengende
fengsel
fengselet
fengsels
fengsler
fengslet
fenom
fenomen
fenomener
fenomenet
fer
ferd
ferden
ferdes
ferdig
ferdige
ferdighet
ferdighetene
ferdigheter
ferdigstill
ferdigstillelse
ferdigstilt
ferdsel
ferg
ferge
fergus
feri
ferie
ferien
ferier
feriet
ferje
fern
ferrar
fersk
ferske
ferskt
ferskvann
fest
feste
festen
fester
festes
festet
festiv
festival
festivalen
festivaler
festning
festningen
fet
fete
fetish
fett
fetter
fettet
fetts
fettsyrer
ff
fg
fi
fia
fib
fiber
fiction
field
fiend
fiende
fienden
fiender
fiendt
fifa
fig
figur
figuren
figurene
figurer
fik
fikk
fiks
fikse
fikser
fikset
fiksjon
fil
file
filen
filene
filer
filip
filipinske
filipp
filippinene
film
filme
filmen
filmene
filmens
filmer
filmet
filmp
filmskap
filosof
filosofi
filosofiske
filt
filter
filteret
filtrere
fin
final
finale
finalen
finan
finans
finansdepartementet
finansiell
finansielle
finansier
finansiere
finansieres
finansiering
finansieringen
finansierings
finansiert
finansk
finanskrisen
finansminister
finanstilsynet
find
fine
finere
fineste
fing
finger
fingeravtrykk
fingeren
fingre
fingrene
finha
finish
finland
finn
finne
finner
finnes
finnmark
finnmarks
fins
finsk
finske
finst
fint
fiolin
fir
fire
firefox
firehjul
firen
firkant
firm
firma
firmaer
firmaet
first
fis
fish
fisk
fiske
fisken
fiskene
fisker
fiskere
fiskeri
fiskerid
fiskes
fisket
fit
fitness
fitt
fitta
fitte
five
fix
fj
fjeld
fjell
fjellene
fjellet
fjellom
fjells
fjellt
fjer
fjerd
fjerde
fjern
fjerne
fjerner
fjernes
fjernet
fjerning
fjernsyn
fjernt
fjernvarme
fjes
fjor
fjoraret
fjorarets
fjord
fjordane
fjorden
fjorder
fjorten
fjær
fjø
fjør
fk
fl
fla
flag
flagg
flagget
flak
flaks
flam
flamme
flash
flashback
flaske
flasken
flasker
flat
flate
flaten
flater
flatt
flau
flaut
fle
fleire
flekk
flekke
flekkefjord
flekker
fleks
fleksib
fleksibel
fleksibelt
fleksibilitet
fleksible
fler
flerbruks
flere
flerkultur
flert
flertall
flertallet
fles
flesh
flest
fleste
flex
fli
flight
flink
flinke
flinkere
flir
flirt
flis
fliser
flitt
flittig
flo
flokk
flokken
flom
flor
flora
florida
florø
flott
flotte
flotteste
flow
flu
flue
fluer
flukt
fluor
fly
flybilletter
flyene
flyet
flyg
flykt
flykte
flyktet
flyktning
flyktningene
flyktninger
flyplass
flyplassen
flyplasser
flyr
flyreiser
flyselskap
flyselskaper
flyselskapet
flyt
flyte
flytende
flyter
flytt
flytta
flytte
flytter
flyttes
flyttet
flytting
flø
flør
flørt
flørte
flørter
flørting
fløte
fløy
fm
fn
fns
fo
focus
fokus
fokusere
fokuserer
fokusert
fokuserte
fokuset
fol
fold
folk
folka
folke
folkeav
folkeh
folkehelse
folkehelseinstituttet
folkehjelp
folkehøg
folkehøgskole
folkelig
folkem
folkemord
folkemusikk
folkene
folkens
folkeparti
folker
folkeregisteret
folkeslag
folket
folketry
folketrygd
folketrygden
folkets
folkevalgte
folks
follo
follow
fon
fond
fondet
font
food
foot
football
for
fora
forakt
foran
forand
forandre
forandrer
forandret
forandring
forandringer
forank
forankret
forankring
forar
forarsa
forarsake
forarsaker
forarsaket
forb
forbanna
forbe
forbed
forbedre
forbedrer
forbedres
forbedret
forbedring
forbedringer
forbedrings
forbehold
forbeholder
forbeholdt
forber
forbered
forberede
forberedelse
forberedelsene
forberedelser
forbereder
forberedt
forbi
forbig
forbilde
forbilder
forbindel
forbindelse
forbindelsen
forbindelser
forbinder
forble
forbli
forblir
forblø
forbren
forbrenning
forbru
forbruk
forbruker
forbrukere
forbrukeren
forbrukerkjøp
forbrukerne
forbrukerombudet
forbrukerradet
forbruket
forbruks
forbrukslan
forbryt
forbrytelser
forbud
forbudet
forbudt
forbund
forbundet
forbundets
forby
forbyr
force
ford
fordel
fordelaktig
fordele
fordelen
fordelene
fordeler
fordeles
fordeling
fordelingen
fordelt
fordi
fordommer
fordringer
fordyp
fordype
fordypning
fordø
fordøy
fore
foreby
forebygge
forebyggende
forebygging
fored
foredrag
foredraget
foredrags
foredragsholder
foredragsholdere
foreg
forega
foregaende
foregar
foregatt
foregikk
forek
forekom
forekomme
forekommer
forekomst
forekomsten
forel
forela
forelagt
foreld
forelder
foreldre
foreldrem
foreldrene
foreldrenes
foreldreper
foreldres
foreles
forelesning
forelesninger
forelig
foreligge
foreliggende
foreligger
forelsk
forelskelse
forelsket
foreløp
foreløpig
foreløpige
foren
forene
forening
foreningen
foreningens
foreninger
forenk
forenkle
forenkler
forenklet
forenkling
forente
fores
foresatte
foresl
foresla
foreslar
foreslas
foreslatt
foreslatte
foreslo
forespør
forespørsel
forespørselen
forespørsler
forest
forestaende
forestil
forestille
forestilling
forestillingen
forestillinger
foret
foreta
foretak
foretakene
foretaket
foretakets
foretaks
foretar
foretas
foretatt
foretok
foretre
foretrekke
foretrekker
foretrukket
foretrukne
forf
forfall
forfatt
forfatter
forfattere
forfatteren
forfatterens
forfatterne
forfatterskap
forfedre
forferd
forferdelig
forferdelige
forfly
forflyt
forfri
forfriskende
forful
forfulgt
forfølg
forfølge
forfølgelse
forføre
forg
forgje
forgjenger
forgjengeren
forgjeves
forh
forhand
forhandle
forhandler
forhandlere
forhandling
forhandlingene
forhandlinger
forhands
forhandsbe
forhandsgod
forhap
forhapentlig
forhapentligvis
forhin
forhindre
forhindrer
forhindret
forhistor
forhold
forholde
forholdene
forholder
forholdet
forholdsregler
forholdsvis
forhøyet
foring
fork
forkant
forkastet
forkjøl
forkjølelse
forkjøp
forkl
forklar
forklare
forklarer
forklares
forklaring
forklaringen
forklaringer
forklart
forklarte
forkort
forkortet
forkynn
forkynnelse
forl
forlag
forlaget
forlagets
forlate
forlater
forlatt
forleng
forlenge
forlengelse
forlenger
forlenget
forlik
forlo
forlot
forlov
forlovet
forløp
form
formal
formalet
formann
formannskap
formannskapet
formannskapets
formannskapssalen
format
formater
formatet
forme
formel
formelen
formell
formelle
formelt
formen
formene
former
formet
formid
formidabel
formiddag
formiddagen
formidle
formidler
formidles
formidlet
formidling
formue
formues
formulere
formulert
forn
fornavn
forne
fornebu
fornuft
fornuftig
fornuftige
forny
fornybar
fornybare
fornye
fornyelse
fornyet
fornær
fornærm
fornærmede
fornøy
fornøyd
fornøyde
fornøyelse
forord
forordning
forordningen
forp
forpli
forplikt
forplikte
forpliktelse
forpliktelser
forpliktende
forplikter
forpliktet
forprosjekt
forprosjektet
forresten
forret
forretning
forretninger
forretnings
forretningsm
forrige
fors
forsa
forsamling
forsamlingen
forsavidt
forseg
forsen
forsett
forside
forsiden
forsik
forsikre
forsikrede
forsikret
forsikring
forsikringen
forsikringer
forsikrings
forsikringsselskap
forsikringsselskapet
forsiktig
forsiktige
forsiktighet
forsink
forsinkelse
forsinkelser
forsinket
forsk
forske
forsker
forskere
forskeren
forskerne
forsket
forskjel
forskjell
forskjellen
forskjellene
forskjeller
forskjellig
forskjellige
forskjellsbehandling
forskning
forskningen
forsknings
forskningsbasert
forskningset
forskningsmiljøer
forskningsprosjekt
forskningsprosjekter
forskningsprosjektet
forskningsrad
forskningsradet
forskrift
forskriften
forskriftene
forskriftens
forskrifter
forskudd
forsky
forslag
forslagene
forslaget
forson
forsoning
forst
forsta
forstaelig
forstaelse
forstaelsen
forstand
forstar
forstas
forstatt
forster
forsterke
forsterker
forsterkes
forsterket
forsto
forstod
forstyr
forstyrre
forstyrrelser
forstyrrende
forstyrret
forstør
forsv
forsvant
forsvar
forsvare
forsvarer
forsvaret
forsvarets
forsvarlig
forsvars
forsvarsbygg
forsvarsdepartementet
forsvinne
forsvinner
forsvunnet
forsy
forsyne
forsyning
forsø
forsøk
forsøke
forsøkene
forsøker
forsøket
forsøks
forsøkt
forsøkte
forsør
fort
fortalt
fortalte
fortau
fortel
fortell
fortelle
forteller
fortelles
fortelling
fortellingen
fortellingene
fortellinger
fortere
fortid
fortiden
fortj
fortjener
fortjeneste
fortjent
fortjente
fortløpende
fortol
fortrinn
fortrinnsrett
fortrinnsvis
fortrol
fortrolig
forts
fortsatt
fortsatte
fortsett
fortsette
fortsettelsen
fortsetter
fortvil
fortvilelse
fortvilet
forum
forumet
forund
forurens
forurenset
forurensing
forurensning
forut
foruten
forutsatt
forutse
forutsetning
forutsetningen
forutsetningene
forutsetninger
forutsetter
forutsettes
forutsi
forutsig
forutsigbar
forutsigbare
forutsigbarhet
forv
forval
forvalt
forvalte
forvalter
forvaltes
forvaltning
forvaltningen
forvaltnings
forvaltningsloven
forvaltningsrevisjon
forvand
forvandlet
forveien
forveks
forvent
forvente
forventede
forventer
forventes
forventet
forventning
forventningene
forventninger
forver
forvir
forvirrende
forvirret
forvirring
forøvrig
fos
fosen
fosfor
foss
fosse
fossen
fossil
fossile
fossum
fost
foster
fosteret
fosterhjem
fot
fotball
fotballen
fotballforbund
fotballkamp
fotballspiller
fotballspillere
foten
fotgjenger
fotgjengere
foto
fotob
fotograf
fotografen
fotografer
fotografere
fotografering
fotografert
fotografi
fotografier
fotok
fotos
fots
fott
fou
found
foundation
four
fox
fr
fra
fradrag
frafall
frag
frakt
frakte
fraktet
fram
framdrift
framfor
framgang
framgar
framhe
framleis
framm
framme
framover
framstar
framstilling
framtid
framtida
framtiden
framtidig
framtidige
fran
france
franch
francis
francisco
franco
frank
frankfurt
frankrike
frans
fransk
franske
frar
frases
frat
fratatt
fratse
fravær
fraværende
fraværet
fre
fred
fredag
fredagen
fredagens
fredelig
freden
freder
frederik
fredet
fredrik
fredriks
fredriksen
fredrikstad
freds
fredspris
free
freesp
freespins
frekk
frekke
frekvens
frel
frelse
frelser
frelses
frelsesarme
frelst
frem
fremdeles
fremdrift
fremfor
fremført
fremga
fremgang
fremgangsm
fremgangsmate
fremgangsmaten
fremgar
fremhe
fremheve
fremhever
fremhevet
fremkommer
fremlagt
fremm
fremme
fremmed
fremmede
fremmedsprak
fremmer
fremmes
fremmet
fremmøtte
fremover
fremragende
fremsatt
fremskritt
fremskrittspartiet
fremst
fremsta
fremstar
fremste
fremstille
fremstilles
fremstilling
fremstilt
fremt
fremtid
fremtiden
fremtidens
fremtidig
fremtidige
fremtidsrettet
fremtredende
fren
french
fres
fresh
frete
fretex
fri
frid
frida
friday
frie
fried
friend
friends
friere
frig
frigjort
frigjør
frigjøre
frigjøres
frigjøring
frihet
friheten
friidrett
frikjent
friksjon
fril
friluft
friluftsliv
fris
frisk
friske
friskere
friskt
frisp
frispark
frist
friste
fristen
fristende
frister
fristet
frisør
frit
fritak
fritatt
fritid
fritiden
fritidsaktiviteter
fritidsb
fritt
frittstaende
frivil
frivillig
frivillige
frivillighet
fro
frode
frodig
frodige
frogn
frogner
frokost
frokosten
from
fron
front
fronten
fronter
frost
frp
frps
fru
frukt
frukten
frukter
frust
frustrasjon
frustrerende
frustrert
fry
fryd
frykt
frykte
fryktelig
frykten
frykter
fryktet
fryse
fryser
fryseren
frø
frøken
frøy
frøya
fs
ft
fu
fuck
fug
fugl
fugle
fuglen
fuglene
fugler
fukt
fuktig
fuktighet
ful
fulgt
fulgte
full
fulle
fullføre
fullfører
fullført
fullførte
fullm
fullmakt
fullmakten
fullmakter
fullmektig
fullstendig
fullstendige
fullt
fulltid
fullverdig
fult
fun
function
fund
fundament
fundamentet
fung
funger
fungere
fungerende
fungerer
fungert
fungerte
funker
funksjon
funksjonalitet
funksjonaliteten
funksjonell
funksjonelle
funksjonelt
funksjonen
funksjonene
funksjoner
funksjonsevne
funksjonshe
funksjonshemmede
funksjonshemming
funksjonsned
funn
funnene
funnet
fur
furu
fus
fusjon
fusjonen
fusk
fut
future
fv
fy
fyl
fyldig
fylke
fylkene
fylker
fylkes
fylkeskomm
fylkeskommun
fylkeskommune
fylkeskommunen
fylkeskommunene
fylkeskommunens
fylkeskommuner
fylkesmann
fylkesmannen
fylkesmannens
fylkesrad
fylkesradet
fylkestinget
fylkesvei
fylket
fyll
fylle
fyller
fylles
fylling
fylt
fylte
fyr
fyren
fyrene
fyrings
fyrst
fyrste
fyrt
fyrverker
fyrverkeri
fys
fysi
fysikk
fysioter
fysioterapeut
fysioterapi
fysisk
fysiske
fæ
fær
færre
færreste
færøyene
fø
fød
føde
føder
fødsel
fødselen
fødsels
fødselsdato
født
fødte
føl
føle
følelse
følelsen
følelsene
følelser
følelses
følelsesmessig
følelsesmessige
føler
føles
følg
følge
følgelig
følgende
følger
følgere
følges
følsom
følsomme
følt
følte
føltes
før
førde
føre
fører
førere
føreren
førerkort
føres
føring
føringer
førjul
førskole
først
førstdato
første
førsteam
førsteamanuensis
førstegang
førstehjelp
førsteinntrykk
førsteklass
førsteklasses
førstkommende
førstnevnte
førstpris
ført
førte
førti
føttene
føtter
føyer
ga
gab
gabbana
gabri
gabriel
gad
gaende
gag
gahr
gal
galax
galaxy
gale
gall
galle
galler
galleri
gallerier
galleriet
gallery
galopp
galskap
galt
gam
gambling
game
gamer
games
gaming
gamle
gamlebyen
gamm
gammel
gammeld
gammeldags
gammelt
gand
gang
gangavstand
gangbang
gange
gangen
gangene
ganger
gangs
ganske
gap
gar
garant
garanter
garantere
garanterer
garantert
garanti
garantien
garantier
garasje
garasjen
gard
garde
garden
gardene
garder
gardermoen
garderobe
garderoben
gardiner
gards
gardsbruk
garmin
garn
garnet
garsdagens
gartner
gary
gas
gass
gassen
gasser
gasskraft
gat
gata
gate
gatek
gaten
gatene
gater
gatt
gaus
gausdal
gaust
gaute
gav
gave
gavekort
gaven
gavene
gaver
gay
gaz
gaza
gb
gd
gdansk
gdpr
ge
gear
geb
gebyr
gebyrer
geilo
geir
geit
gel
gele
gem
gen
gene
gener
general
generalfor
generalforsamling
generalforsamlingen
generalsekretær
generasjon
generasjonen
generasjoner
generasjons
generell
generelle
generelt
generere
genererer
generert
generisk
genet
genetisk
genetiske
geneve
genial
genialt
gens
genser
gensere
genseren
gent
gente
genu
geo
geograf
geografi
geografisk
geografiske
geologiske
geomet
georg
george
georgia
geotekn
ger
gerd
gerhard
german
ges
gest
get
gevin
gevinst
gevinsten
gevinstene
gevinster
gh
gi
gid
gidder
gif
gift
gifte
gifter
giftet
giftig
giftige
gig
gigant
gigantisk
gigantiske
gikk
gil
gilde
gim
gina
gips
gir
gira
girl
girls
gis
giske
gissel
git
gitar
gitarist
gitt
gitte
giv
give
givende
giver
gj
gjaldt
gje
gjedde
gjekk
gjeld
gjelde
gjelden
gjeldende
gjeldene
gjelder
gjem
gjemme
gjemmer
gjemt
gjen
gjenbru
gjenbruk
gjeng
gjengen
gjengi
gjengir
gjengitt
gjengjeld
gjeninn
gjenkj
gjenkjenn
gjenkjenne
gjenlevende
gjenn
gjennom
gjennombrudd
gjennomfør
gjennomføre
gjennomfører
gjennomføres
gjennomføring
gjennomføringen
gjennomførings
gjennomført
gjennomførte
gjennomga
gjennomgaende
gjennomgang
gjennomgangen
gjennomgar
gjennomgas
gjennomgatt
gjennomgikk
gjennomsiktig
gjennomsiktige
gjennomslag
gjennomsnitt
gjennomsnittet
gjennomsnittlig
gjennomsnittlige
gjennomsnitts
gjennomtenkt
gjenopp
gjenopprett
gjenopprette
gjenoppretting
gjens
gjensidig
gjensidige
gjenskap
gjenskape
gjenspe
gjenspeile
gjenspeiler
gjenspeiles
gjenstaende
gjenstand
gjenstandene
gjenstander
gjenstar
gjensyn
gjent
gjenta
gjentar
gjentas
gjentatt
gjentatte
gjentok
gjenv
gjenvalg
gjenvalgt
gjenvinne
gjenvinning
gjenværende
gjer
gjerd
gjerde
gjerder
gjerdet
gjere
gjermund
gjerne
gjerning
gjerninger
gjerningsm
gjerningsmannen
gjert
gjesp
gjest
gjeste
gjesten
gjestene
gjester
gjett
gjette
gjev
gjeve
gjorde
gjort
gjær
gjø
gjød
gjødsel
gjødsling
gjør
gjøre
gjøremal
gjøres
gjøvik
gk
gl
glad
glade
glam
glamour
glans
glas
glass
glasset
glatt
glatte
gle
gled
glede
gledelig
gleden
gleder
gledet
glem
glemme
glemmer
glemt
glemte
glenn
gli
glid
glidelas
glim
glimrende
glimt
glipp
glir
glit
glitter
glo
glob
global
globale
globalisering
globalt
glomma
glu
glukose
gluten
gly
glø
glød
gm
gmail
gn
gni
gnist
gnr
go
god
godbit
godbiter
gode
goder
godhet
godkj
godkjen
godkjenne
godkjennelse
godkjenner
godkjennes
godkjenning
godkjennings
godkjent
godkjente
gods
godset
godt
godta
godtar
godtatt
godteri
godtgjør
godtgjørelse
godtgjøring
gol
gold
golden
golf
gon
gong
good
goog
google
googles
goose
gor
gord
got
gote
goteborg
gover
gps
gr
gra
grad
graden
grader
graders
gradert
gradvis
graf
grafikk
grafisk
grafiske
gram
gramm
grammatikk
gran
grand
grande
granitt
granny
gransk
gransking
grant
gras
grasrot
grat
grate
grater
gratis
gratisspinn
gratt
gratu
gratuit
gratulerer
grav
gravd
gravde
grave
graven
graver
gravid
gravide
graviditet
graviditeten
graving
gravlagt
gre
great
green
greg
grei
greia
greid
greide
greie
greier
greit
gren
grener
grenland
grens
grensa
grense
grensen
grensene
grenser
grensesnitt
grep
grepet
gres
gresk
greske
gress
gresset
grete
grethe
grev
grey
gri
grieg
grill
grillen
grillet
grilling
grim
grimstad
grin
grind
grip
gripe
griper
gris
gro
gror
grorud
grorudd
gross
group
grov
grove
grovt
gru
grue
gruer
grund
grunder
grundere
grundig
grundige
gruner
grunerløkka
grunn
grunne
grunneier
grunneiere
grunnen
grunnene
grunner
grunnet
grunnkurs
grunnla
grunnlag
grunnlaget
grunnlagt
grunnlegg
grunnleggende
grunnlegger
grunnleggeren
grunnlov
grunnloven
grunnskole
grunnskolen
grunnvann
grupp
gruppa
gruppe
gruppearbeid
gruppen
gruppene
gruppens
grupper
gruppet
grus
grusom
grusomme
gruve
gry
gryte
grø
grøn
grønland
grønn
grønne
grønnsakene
grønnsaker
grønnsaks
grønt
grøt
gs
gt
gu
guardi
guardian
gud
gudbrand
gudbrandsdalen
gudd
guddommelige
gudene
guder
gudmund
guds
gudstjeneste
guess
guid
guide
guiden
guider
guidet
gul
gulbrand
gulbrandsen
gule
gull
gullet
gulli
gullsmed
gulrot
gulrø
gulrøtter
gult
gulv
gulvet
gumm
gummi
gun
gunder
gundersen
gunhild
gunn
gunnar
gunst
gunstig
gunstige
gur
guri
guro
gust
gustav
gut
gutt
gutta
gutte
gutten
guttene
gutter
guvern
guy
gwh
gy
gyl
gyld
gylden
gyldendal
gyldig
gyldige
gyldighet
gylne
gym
gymna
gymnas
gymnastikk
gynek
gyte
gøte
gøteborg
gøy
h2
ha
haakon
habil
habilitering
habilitet
habit
hack
had
hadde
hadeland
hadsel
haf
hafslund
hag
haga
hage
hagem
hagen
hager
haha
hahaha
hair
hak
hake
hakk
hakket
hakon
hal
hald
halde
halden
hale
halen
half
hall
hallen
halling
hallingdal
hallo
halloween
halm
hals
halsen
halt
halv
halvannen
halvannet
halvar
halvdel
halve
halvor
halvorsen
halvparten
halvt
halvtime
halvveis
halvøya
ham
hamar
hamas
hambur
hamburg
hamm
hammer
hammerfest
hamsun
han
hand
handa
handarbeid
handball
handbok
handel
handelen
handels
handelshøy
handelshøyskolen
handen
handfull
handhe
handic
handicap
handkle
handklær
handle
handled
handlekur
handlekurven
handler
handlet
handling
handlingen
handlingene
handlinger
handlingsplan
handlingsplanen
handlingsrom
handtak
handtere
handterer
handteres
handtering
handteringen
handtert
handverk
handverker
handverkere
handverks
hang
hann
hanna
hanne
hans
hansdatter
hansen
hansker
hanssen
hap
hape
haper
hapet
hapløst
happ
happy
har
harald
hard
hardanger
hardcore
hardd
harddisk
harde
hardere
hardt
hare
hareide
haret
harete
harmon
harmoni
harmonisk
harris
harry
harstad
hart
has
hasj
hass
hassel
hast
haster
hastighet
hastigheten
hastigheter
hat
hate
hater
hatet
hatt
hatten
hau
haug
haugaland
hauge
haugen
hauger
haugesund
haugland
hauk
haukeland
hav
havar
havard
havbruk
havbruks
have
havet
havforskningsinstituttet
havn
havna
havne
havnen
havner
havnet
havre
havreg
havs
haw
hawa
hawaii
hay
hc
hd
he
head
healing
health
heart
heat
heav
heavy
heb
hed
heder
hedmark
hedre
hedret
heft
hefte
heftet
heftig
heg
hege
hegg
hehe
hei
heia
heid
heidi
heier
heil
heile
heilt
heim
heime
heimen
heis
heisann
heisen
hek
hekk
hekle
heklet
hekt
hekta
hekte
hektisk
hektiske
hel
helar
helbr
helbred
held
heldig
heldige
heldigvis
hele
helen
helene
helg
helga
helge
helgeland
helgen
helgene
helgens
helger
helgesen
helhet
helheten
helhetlig
helhetlige
helikopter
hell
helland
hellas
helle
heller
hellig
helligdager
hellige
help
hels
helsa
helse
helsearbeid
helsed
helsedirektoratet
helsefag
helseforetak
helseforetakene
helseforetaket
helsefremmende
helsehjelp
helsemessige
helsen
helsepersonell
helseproblemer
helser
helses
helsesektoren
helsestasjon
helsestasjonen
helsesøster
helset
helsetil
helsetilstand
helsetilsyn
helsetilsynet
helsetjeneste
helsetjenesten
helsetjenester
helsevern
helsevesen
helsevesenet
helsing
helst
helt
helten
helter
heltid
helvete
hem
hemmelig
hemmelige
hemmelighet
hemmeligheten
hemmeligheter
hemmer
hems
hemsedal
hen
hend
hende
hendelse
hendelsen
hendelsene
hendelser
hendelses
hendene
hender
hendt
hendte
heng
henge
hengende
henger
hengt
henhold
henholdsvis
henn
henne
hennes
henning
henrett
henrettet
henri
henriette
henrik
henriksen
henry
hens
hensikt
hensikten
hensiktsmessig
hensiktsmessige
hensyn
hensynet
hent
henta
hentai
hente
henter
hentes
hentet
henting
henvend
henvende
henvendelse
henvendelser
henvender
henvise
henviser
henvises
henvisning
henvisninger
henvist
hepat
hepatitt
her
here
heretter
herfra
herjet
herlig
herlige
herlighet
herm
herman
hermet
hero
heroin
herpes
herr
herre
herred
herreg
herregud
herren
herrens
herrer
hersker
hert
hertug
herunder
herved
herøy
hes
hest
heste
hesten
hestene
hester
het
hete
heter
hett
hev
hevde
hevder
hevdes
hevdet
heve
hevelse
hever
hevet
heving
hevn
hey
heyerd
hf
hhv
hi
hier
hierark
hig
high
hihi
hijab
hil
hild
hilde
hill
hillary
hille
hilse
hilsen
hilsener
him
himm
himmel
himmelen
hin
hind
hinder
hindi
hindre
hindrer
hindret
hindringer
hindu
hing
hint
hio
hioa
hip
hipp
hir
his
hist
histor
histori
historie
historielag
historien
historiene
historiens
historier
historikk
historisk
historiske
history
hit
hitler
hitra
hitt
hittil
hiv
hive
hj
hjalp
hje
hjel
hjelm
hjelp
hjelpe
hjelpemid
hjelpemiddel
hjelpemidler
hjelpen
hjelper
hjelpere
hjelpes
hjelpet
hjelpsom
hjelpsomme
hjem
hjemland
hjemlandet
hjemm
hjemme
hjemmeb
hjemmebane
hjemmed
hjemmefra
hjemmek
hjemmekamp
hjemmel
hjemmelag
hjemmelaget
hjemmes
hjemmeside
hjemmesiden
hjemmesider
hjemmesyke
hjemmet
hjemover
hjer
hjerne
hjernen
hjernes
hjerneslag
hjert
hjerte
hjerteinfarkt
hjertelig
hjerter
hjertes
hjertesvikt
hjertesykdom
hjertet
hjort
hjorte
hjul
hjulene
hjulet
hjulpet
hjør
hjørne
hjørner
hjørnet
hk
hl
hm
hmm
hms
ho
hob
hobby
hockey
hod
hode
hodene
hodep
hodepine
hoder
hodet
hoel
hof
hoff
hofte
hog
hogst
hokk
hokksund
hol
hold
holdbarhet
holde
holder
holdes
holding
holdning
holdningen
holdningene
holdninger
holdt
hole
holland
hollender
hollywood
holm
holmen
holmenkollen
holmestrand
holoca
holocaust
holt
hom
home
homes
homo
homofil
homofile
homofili
homoseks
homse
hon
hong
honn
honning
honnør
honor
honorar
hook
hop
hope
hopp
hoppe
hopper
hoppet
hor
hord
hordaland
horison
horisont
hormon
hormoner
horn
horoskop
horten
hos
hosp
hospital
host
hoste
hot
hotel
hotell
hotellene
hoteller
hotellet
hotellets
hotellkjeder
hotellrom
hotels
hotte
hotteste
house
hov
hoved
hovedar
hovedarsaken
hovedfokus
hovedinn
hovedkontor
hovedkontoret
hovedkvar
hovedkvarter
hovedmal
hovedmalet
hovedoppgave
hovedperson
hovedpersonen
hovedregel
hovedregelen
hovedrollen
hovedsa
hovedsak
hovedsakelig
hovedsaklig
hovedstad
hovedstaden
hovedstyret
hovedt
hovedtema
hovedtrener
hovedutvalg
hovedveien
hovud
how
hp
hpv
hr
hs
ht
htm
html
htt
http
https
hu
hua
hub
hud
huden
hudpleie
huff
hug
hugo
hukomm
hukommelse
hul
hule
hull
hullene
hullet
hum
human
humanit
humanitær
humanitære
hummer
humor
humoristisk
humør
humøret
hun
hund
hunde
hunden
hundene
hundens
hunder
hundre
hundret
hundrevis
hunn
hunt
hur
hurdal
hurra
hurt
hurtig
hurtigruten
hurum
hus
husarbeid
husbanken
husdyr
huse
huseier
husene
huser
huset
husets
husfl
hushold
husholdning
husholdninger
husk
huske
husker
husket
husleie
husmann
husmor
hust
hustru
hv
hva
hval
hvaler
hvem
hver
hverandre
hverandres
hverdag
hverdagen
hverdager
hverdags
hverdagslige
hverken
hvert
hvertfall
hvet
hvete
hvil
hvile
hviler
hvilke
hvilken
hvilket
hvis
hvisk
hvit
hvite
hviter
hvitevarer
hvitlø
hvitløk
hvitt
hvitvask
hvor
hvorav
hvordan
hvorfor
hvorvidt
hy
hybel
hybrid
hyd
hydr
hydra
hydrauli
hydro
hydrogen
hygg
hygge
hyggelig
hyggelige
hygien
hygiene
hyl
hylla
hylle
hyllene
hyller
hyllest
hyllet
hyp
hyper
hypert
hypo
hypote
hypp
hyppig
hyppige
hyppigere
hyster
hytt
hytta
hytte
hytten
hyttene
hytter
hyttet
hæ
hæl
hæler
hær
hæren
hø
høf
høflig
høg
høgre
høgskole
høgskolen
høgskoler
høie
høl
høland
høn
høne
hønefoss
hør
høre
hører
høres
høring
høringen
hørings
høringsnot
høringss
høringsuttal
høringsuttalelse
hørsel
hørsels
hørt
hørte
hørtes
høst
høste
høsten
høstens
høstet
høv
høvd
høve
høy
høyde
høydemeter
høyden
høydepunkt
høydepunktene
høydepunkter
høydepunktet
høyder
høye
høyere
høyest
høyeste
høyesterett
høyesteretts
høyfjell
høykvalitet
høykvalitets
høyre
høyreekst
høyreklikk
høyrer
høyres
høyresiden
høyskole
høyskolen
høyskoler
høyst
høyt
høytekn
høytid
høytidelig
høytider
høytrykk
høytt
høyttaler
høyttalere
ia
iall
ialle
iallefall
iallfall
ian
ib
iblant
ibm
ibsen
ic
ice
id
ida
idag
ide
ideal
idealer
ideell
ideelle
ideelt
ideen
ideene
ideer
ident
identif
identifikasjon
identifisere
identifiserer
identifisering
identifisert
identisk
identiske
identitet
identiteten
ideologi
ideologiske
idet
idi
idol
idrett
idretten
idrettens
idretter
idretts
idrettsanlegg
idrettsforbund
idrettsh
idrettskrets
idrettslag
idrettslaget
idrettslagets
idrettsstyret
idrettsutøvere
idyl
idylli
idylliske
ie
if
ifjor
ifm
ifra
ift
ifølge
iført
ig
igang
igangsatt
igangsetting
igar
igj
igjen
igjennom
igle
iglesias
ign
ignor
ignorere
ih
iherd
iherdig
ihjel
iht
ihvert
ihvertfall
ii
iii
ik
ike
ikea
ikke
ikkje
ikon
ikonet
ikoniske
iks
ikt
il
ila
ilagt
ild
ilden
ilds
ildsjel
ildsjeler
ill
ille
illeg
illusjon
illust
illustrasjon
illustrasjoner
illustrasjonsfoto
illustrat
illustrere
illustrerer
illustrert
iløpet
im
imag
image
images
imellom
imidler
imidlertid
imm
immig
immun
immunforsvaret
imorgen
imot
imp
imper
implant
implem
implement
implementer
implementere
implementering
implementert
imponer
imponere
imponerende
imponert
imponerte
import
importer
importere
importert
importør
impro
improvis
improvisasjon
impul
impuls
impulser
imøtek
imøtekomme
imøtekommende
in
inc
incent
incest
incl
ind
inde
indeks
indeksen
independ
independent
inder
inderlig
index
india
indian
indik
indikasjon
indikasjoner
indikator
indikatorene
indikatorer
indikerer
indirekte
indisk
indiske
indiv
individ
individer
individet
individual
individuell
individuelle
individuelt
indones
indonesia
indre
indust
industi
industri
industrial
industriell
industrielle
industrien
ine
inf
infe
infeksjon
infeksjoner
infilt
infl
inflamm
inflasjon
influ
influen
influensa
info
inform
informantene
informasjon
informasjonen
informasjons
informasjonskap
informasjonskapsel
informasjonskapslene
informasjonskapsler
informasjonsmøte
informasjonssikkerhet
informasjonssjef
informatikk
information
informativ
informer
informere
informerer
informeres
informert
informerte
infrastruktur
infrastrukturen
ing
inga
inge
ingeb
ingeborg
ingebrigt
ingebrigtsen
ingefær
ingen
ingeniør
ingeniører
ingenting
inger
ingred
ingrediens
ingrediensene
ingredienser
ingrid
ingunn
ingvild
inhabil
init
initi
initiativ
initiativet
initiativt
inj
inje
injeksjon
ink
inkasso
inkl
inkluder
inkludere
inkluderende
inkluderer
inkluderes
inkludering
inkludert
inkluderte
inklusiv
inklusive
inn
innad
innan
innarbeid
innarbeidet
innb
innbef
innbet
innbetaling
innbetalt
innblanding
innblikk
innbrudd
innby
innbydende
innbygg
innbygger
innbyggere
innbyggerne
innbyr
innbyrdes
innbytter
inndeling
inndelt
inne
inneb
innebandy
innebar
inneby
innebygd
innebygde
innebygget
innebære
innebærer
inneha
innehar
innehaver
inneholde
inneholder
inneholdt
innek
inneklima
innen
innendørs
innenfor
innenland
innenlands
innenriks
inner
innerst
innerste
inneværende
innf
innfall
innfly
innflyt
innflytelse
innflytelses
innfri
innfrid
innfødte
innføre
innfører
innføres
innføring
innføringen
innført
innførte
innga
inngaelse
inngaende
inngang
inngangen
inngar
inngas
inngatt
inngikk
inngrep
inngrepet
innh
innhente
innhenter
innhentes
innhentet
innhenting
innhold
innholdet
innholds
innholdsfort
innholdsfortegnelse
inni
innimellom
innk
innkal
innkalles
innkalling
innkallingen
innkalt
innkjøp
innkjøpt
innkl
innklagede
innkomne
innkrev
innkreving
innkvar
innlagt
innland
innlandet
innle
innled
innledende
innleder
innledet
innledning
innledningsvis
innlegg
innleggelse
innleggene
innlegget
innleie
innlemmet
innlever
innlevering
innlo
innlogging
innmari
innmelding
innom
innov
innovasjon
innovasjons
innovation
innovativ
innovative
innover
innpa
innpass
innred
innredet
innredning
innretning
innretninger
innrette
innrø
innrømme
innrømmer
innrømmet
inns
innsa
innsam
innsamling
innsat
innsats
innsatsen
innsatt
innsatte
innse
innsend
innsending
innsendt
innser
innsett
innside
innsiden
innsig
innsikt
innsje
innsjekking
innsjø
innsjøen
innsjøer
innsk
innskren
innskudd
innskuddsbon
innslag
innslaget
innsp
innspil
innspill
innspillene
innspilling
innspillingen
innst
innstilling
innstillingen
innstillingene
innstillinger
innstilt
innstra
innsyn
innt
innta
inntak
inntaket
inntar
inntatt
innte
inntekt
inntekten
inntektene
inntekter
inntekts
inntil
inntjening
inntok
inntre
inntreffer
inntrykk
inntrykket
innv
innvand
innvandrer
innvandrerbakgrunn
innvandrere
innvandring
innvandringen
innvandrings
innvend
innvendig
innvendige
innvendinger
innviet
innvil
innvilges
innvilget
innvirkning
input
ins
inse
insekt
insekter
insent
insister
insp
inspe
inspeksjon
inspir
inspirasjon
inspirasjonen
inspirere
inspirerende
inspirerer
inspirert
inspirerte
inst
instagram
instal
install
installasjon
installasjonen
installasjoner
installer
installere
installeres
installert
instans
instanser
instant
instin
instit
institu
institusjon
institusjonen
institusjonene
institusjonens
institusjoner
institute
institutt
instituttet
instru
instruks
instrukser
instruksjon
instruksjonene
instruksjoner
instrukt
instruktør
instruktører
instrum
instrument
instrumenter
instrumentet
insulin
int
integ
integrasjon
integrer
integrere
integreres
integrering
integrert
integrerte
integritet
intel
intelle
intellekt
intellektuelle
intellig
intelligens
intelligent
intelligente
inten
intens
intense
intensitet
intensiteten
intensiv
intensjon
intensjonen
intensjoner
intenst
inter
interaksjon
interaktive
interes
interess
interessant
interessante
interesse
interessen
interessene
interessenter
interesser
interesserer
interessert
interesserte
interiør
interiøret
interkommun
interkommunale
intern
internasjon
internasjonal
internasjonale
internasjonalisering
internasjonalt
international
interne
internet
internett
internkontroll
internt
interra
interracial
interv
intervall
intervaller
intervensjon
intervj
intervju
intervjuene
intervjuer
intervjuet
intet
intim
intime
intimitet
into
intro
introdu
introduksjon
introdus
introdusere
introduserer
introdusert
introduserte
intu
inv
invad
invasjon
invasjonen
inventar
invest
invester
investere
investerer
investering
investeringen
investeringene
investeringer
investerings
investert
investor
investorer
invit
invitasjon
invitasjonen
invitasjoner
invitere
inviterer
inviteres
invitert
inviterte
invol
involver
involvere
involverer
involvering
involvert
involverte
ion
ios
ip
ipad
iph
iphone
ipod
ips
iq
ir
irak
iran
iranske
irene
iris
irland
iron
ironisk
irri
irrit
irritasjon
irriterende
irriterer
irritert
irsk
irske
is
isa
isak
isaksen
isb
isbn
isen
isf
ishockey
isk
iskrem
isl
islam
islamsk
islamske
island
islands
islandske
iso
isol
isolasjon
isolert
isolerte
isp
isra
israel
israels
israelsk
israelske
iss
istan
istanbul
istand
isted
isteden
istedenfor
istedet
it
ital
italia
italien
italiensk
italienske
item
its
itunes
iv
ivan
ivar
ivaret
ivareta
ivaretakelse
ivaretar
ivaretas
ivaretatt
iver
iverk
iverks
iverksatt
iverksette
iverksettes
iversen
ivrig
ivrige
iwc
ix
ja
jac
jack
jackpo
jackpot
jacks
jackson
jacob
jacobsen
jada
jag
jage
jager
jaget
jaggu
jaja
jak
jakke
jakken
jakker
jakob
jakobsen
jakt
jakte
jakten
jakter
jam
jama
james
jammen
jan
jane
janne
januar
jap
japan
japansk
japanske
jar
jarl
jarle
jas
jason
jav
java
javas
javascript
jay
jazz
je
jean
jeans
jeff
jeg
jeger
jegere
jem
jemen
jen
jenn
jennifer
jenny
jens
jensen
jenssen
jent
jenta
jente
jenten
jentene
jenter
jepp
jer
jere
jern
jernban
jernbane
jernbanen
jernbaneverket
jersey
jerusalem
jerv
jes
jess
jessheim
jessica
jesu
jesus
jet
jev
jevn
jevnaldrende
jevne
jevnere
jevnlig
jevnlige
jevnt
jew
jf
jfr
ji
jihad
jim
jo
joach
joachim
joakim
job
jobb
jobba
jobbe
jobben
jobbene
jobber
jobbes
jobbet
jobbing
jod
joda
joe
jog
jogge
joggesko
joh
johan
johann
johanna
johanne
johannes
johannessen
johans
johansen
johaug
john
johnn
johnny
johns
johnsen
johnson
joker
jol
jom
jomfru
jon
jonas
jonat
jonathan
jones
jor
jord
jorda
jordan
jordbruk
jordbruket
jordbruks
jordbær
jorden
jordens
jordet
jordmor
jordskjel
jordskjelv
jorunn
jose
josef
joseph
josh
jostein
jot
jotun
jotunheimen
journ
journal
journalist
journalisten
journalistene
journalister
journalistikk
joy
jpg
jr
ju
jub
jubel
jubile
jubileet
jubileum
jud
jug
jugoslav
juice
juks
jul
jula
julaften
jule
julebord
juledag
julegave
julegaver
julekalender
julekort
julem
julen
jules
julestemning
julet
juletre
juletreet
juli
julia
julie
julius
jun
june
jung
jungelen
juni
junior
jur
jurid
juridisk
juridiske
juris
jurist
jury
juryen
jus
just
juster
justere
justeres
justering
justeringer
justert
justin
justis
justisdepartementet
justisminister
jæ
jær
jæren
jæv
jævla
jævlig
jø
jød
jøde
jødene
jøder
jødisk
jødiske
jør
jørg
jørgen
jørgensen
jørn
ka
kab
kabel
kabler
kad
kaf
kafe
kafeen
kafeer
kaff
kaffe
kaffeb
kaffek
kaffen
kai
kaia
kaja
kajakk
kaka
kakao
kake
kaken
kaker
kal
kald
kalde
kaldere
kaldt
kalender
kalenderen
kalib
kalium
kalk
kalkulator
kalkun
kall
kalla
kalle
kallen
kallenavn
kaller
kalles
kalori
kalorier
kalsi
kalsium
kalt
kalte
kalv
kam
kambod
kamer
kamera
kameraer
kameraet
kamerat
kammer
kamp
kampan
kampanje
kampanjen
kampanjer
kampen
kampene
kampens
kamper
kan
kanadiske
kanal
kanalen
kanalene
kanaler
kanari
kanariøyene
kandid
kandidat
kandidaten
kandidatene
kandidater
kanel
kanin
kano
kanon
kans
kanseller
kanskje
kant
kanten
kantene
kanter
kaos
kap
kapasitet
kapasiteten
kapell
kapit
kapital
kapitlene
kapitler
kapitlet
kapittel
kapittelet
kapp
kapte
kaptein
kapteinen
kar
kara
karakt
karakter
karakteren
karakterene
karakterer
karakteriseres
karakteristisk
karakteristiske
karam
karantene
karate
karb
karbo
karbohyd
karbohydrater
karbon
kard
kardash
kardashian
kardi
kare
karen
karer
karet
kari
karib
karin
karl
karls
karlsen
karm
karmøy
karoline
karri
karriere
karrieren
karsten
karsykdom
karsykdommer
kart
kartet
kartlagt
kartlegg
kartlegge
kartlegging
kartleggingen
karus
kas
kasino
kasinoer
kasper
kass
kassa
kasse
kassen
kasser
kasserer
kast
kaste
kaster
kastes
kastet
kat
katal
katalog
katalogen
katar
katastro
katastrofe
kate
kated
katedral
katedralen
kateg
kategor
kategori
kategorien
kategoriene
kategorier
kathrine
katol
katolsk
katolske
katrine
katt
katte
katten
kattene
katter
kav
kay
kb
kd
ke
keep
keeper
keiser
keiseren
kel
kelly
kem
ken
kenn
kennedy
kennel
kenneth
kent
kenya
ker
keram
keramikk
ket
ketil
kevin
key
kf
kg
kh
khan
ki
kick
kid
kidna
kidnappet
kids
kiell
kiev
kik
kikk
kikke
kikker
kikket
kil
kilde
kilden
kildene
kilder
kildes
kill
kilo
kilomet
kilometer
kim
kin
kina
kinas
kind
kine
kines
kinesisk
kinesiske
king
kings
kink
kinky
kinn
kino
kio
kiosk
kir
kirk
kirka
kirke
kirkegard
kirkegarden
kirkelig
kirkelige
kirken
kirkene
kirkenes
kirkens
kirker
kirkes
kiroprakt
kirsten
kirsti
kirur
kirurg
kirurgi
kirurgisk
kit
kitt
kiwi
kj
kja
kjapp
kjappe
kjapt
kje
kjed
kjede
kjedelig
kjedelige
kjeden
kjeder
kjeft
kjekk
kjekke
kjeks
kjekt
kjel
kjell
kjeller
kjelleren
kjem
kjemi
kjemikal
kjemikalier
kjemisk
kjemiske
kjemp
kjempe
kjempebra
kjempefin
kjempefint
kjempeg
kjempegøy
kjempek
kjemper
kjempes
kjempest
kjempet
kjend
kjendis
kjendiser
kjenn
kjenne
kjennelse
kjenner
kjennes
kjennet
kjennetegn
kjennetegner
kjennetegnes
kjennetegnet
kjennskap
kjens
kjent
kjente
kjer
kjerne
kjernen
kjerring
kjersti
kjetil
kjipt
kjole
kjolen
kjoler
kjæ
kjæled
kjæledyr
kjær
kjære
kjæreste
kjæresten
kjærester
kjærlig
kjærlighet
kjærligheten
kjærlighetens
kjærlighets
kjærlighetss
kjært
kjø
kjød
kjøkk
kjøkken
kjøkkenet
kjøl
kjøle
kjøleskap
kjøleskapet
kjølig
kjøling
kjølvannet
kjønn
kjønnene
kjønnet
kjønns
kjønnsle
kjønnslem
kjønnslemlestelse
kjønnsleppene
kjønnslepper
kjønnsorgan
kjønnsroller
kjønnssykdommer
kjøp
kjøpe
kjøper
kjøpere
kjøperen
kjøpes
kjøpesenter
kjøpesenteret
kjøpesentre
kjøpesummen
kjøpet
kjøpmann
kjøpt
kjøpte
kjør
kjøre
kjører
kjøres
kjøret
kjøretur
kjøretøy
kjøretøyer
kjøretøyet
kjøring
kjøringen
kjørt
kjørte
kjøtt
kjøttet
kk
kl
kla
klag
klage
klagen
klagene
klager
klages
klaget
klam
klang
klapp
klar
klare
klarer
klarere
klargjøre
klargjøring
klarhet
klart
klarte
klass
klasse
klassekampen
klassen
klassene
klasser
klasserom
klasserommet
klassif
klassifisering
klassifisert
klassiker
klassikere
klassisk
klassiske
klat
klatre
klatrer
klatret
klatring
klaus
kle
kledd
kledde
klein
klem
klemme
klemmer
klepp
kler
kles
klev
kli
klient
klienten
klienter
klikk
klikke
klikker
klikket
klim
klima
klimaendringene
klimaendringer
klimaet
klimag
klimagass
klimagasser
klimagassutslipp
klimak
klimam
klimap
klimas
klimat
klimav
klin
klinikk
klinikken
klinikker
klinisk
kliniske
klipp
klippe
klipper
klippet
klis
klisje
klistre
klit
klitoris
klo
kloakk
kloden
klok
kloke
klokka
klokke
klokkebutikk
klokken
klokker
klokkes
klokkeslett
klokt
klor
kloster
klosteret
klp
klubb
klubben
klubbene
klubbens
klubber
klubbhuset
klubbmester
klum
klut
klyn
klæ
klæbu
klær
klærne
klø
kløe
klør
kløver
km
kn
kna
knall
knapp
knappe
knappen
knappene
knapper
knapt
kne
knebøy
kneet
knekke
knep
knip
knippe
kniv
kniven
kniver
knoll
know
knud
knudsen
knull
knulle
knuller
knullet
knus
knuse
knusk
knust
knuste
knut
knute
knutepunkt
knutsen
knytt
knytte
knytter
knyttes
knyttet
knærne
ko
koal
kob
kobber
koble
kobler
kobles
koblet
kobling
koblingen
koblingene
koblinger
kod
kode
koden
koder
koding
koff
koffe
koffert
kofferten
kogn
kognitiv
kognitive
koh
kok
koke
koker
kokk
kokken
kokker
kokos
kokt
kokte
kol
kolbotn
kole
kolesterol
koll
kollap
kolle
kollega
kollegaer
kolleger
kolleksjon
kolleksjonen
kollektiv
kollektive
kollektivt
kollektivtrafikk
kollektivtransport
kollisjon
kolon
koloni
kolonne
kols
kolstad
kom
koma
komb
kombin
kombinasjon
kombinasjonen
kombinasjoner
kombinere
kombinerer
kombineres
kombinert
kombinerte
kome
komedie
komfort
komfortabel
komfortabelt
komfortable
komite
komiteen
komiteens
komiteer
komm
kommand
kommando
komme
kommende
komment
kommentar
kommentaren
kommentarene
kommentarer
kommentarfeltet
kommentator
kommentere
kommenterer
kommentert
kommenterte
kommer
kommersi
kommersiell
kommersielle
kommersielt
kommet
kommisjon
kommisjonen
kommisjonens
kommun
kommunal
kommunale
kommunalt
kommune
kommunedel
kommunen
kommunene
kommunenes
kommunens
kommuneplan
kommuneplanen
kommuneplanens
kommuner
kommunere
kommunes
kommunesammens
kommunesammensla
kommunestyre
kommunestyret
kommunestyrets
kommunikasjon
kommunikasjonen
kommunikasjons
kommunikasjonssjef
kommunisere
kommuniserer
kommunist
kommunistiske
komp
kompakt
kompan
kompass
kompatib
kompatibilitet
kompens
kompensasjon
kompensere
kompet
kompetans
kompetanse
kompetanseheving
kompetansemal
kompetansen
kompetansesenter
kompetanseutvikling
kompetent
kompetente
kompis
kompl
komplek
kompleks
komplekse
kompleksitet
komplekst
komplett
komplette
kompli
komplikasjoner
komplisert
kompliserte
kompon
komponent
komponentene
komponenter
komponist
komposisjon
kompresjon
kompress
komprom
kompromiss
kon
kona
kond
kondens
kondisjon
kondom
kondomer
kone
koner
konf
konfer
konferans
konferanse
konferansen
konferanser
konfidens
konfig
konfigu
konfirm
konfirmasjon
konfirmert
konflikt
konflikten
konflikter
konfron
konfront
kong
konge
kongedø
kongelig
kongelige
kongen
kongens
konger
kongo
kongress
kongressen
kongsberg
kongsv
kongsvinger
konj
konkl
konkluder
konkludere
konkluderer
konkludert
konkluderte
konklusjon
konklusjonen
konklusjonene
konklusjoner
konkret
konkrete
konkur
konkurr
konkurran
konkurrans
konkurranse
konkurransedy
konkurransedyktig
konkurransedyktige
konkurransegrunn
konkurransegrunnlaget
konkurransekraft
konkurransen
konkurranser
konkurransetilsynet
konkurranseut
konkurrent
konkurrentene
konkurrenter
konkurrere
konkurrerende
konkurrerer
konkurs
kons
konse
konsekvens
konsekvensen
konsekvensene
konsekvenser
konsekvent
konsent
konsentrasjon
konsentrasjonen
konsentrasjoner
konsentrasjonsle
konsentrere
konsentrert
konsept
konsepter
konseptet
konser
konsern
konsernet
konsernets
konsernsjef
konsert
konserten
konsertene
konserter
konserv
konservative
konsesjon
konsist
konsistens
konsol
konsoll
konspirasjon
konst
konstant
konstat
konstatere
konstaterer
konstatert
konstitu
konstitusjon
konstru
konstruert
konstruksjon
konstruksjonen
konstruksjoner
konstruktiv
konsul
konsulent
konsulenter
konsult
konsultasjon
konsultasjoner
konsum
kont
kontak
kontakt
kontaktann
kontaktannonse
kontaktannonser
kontakte
kontakten
kontakter
kontaktes
kontaktet
kontaktinformasjon
kontaktperson
kontant
kontanter
kontekst
kontin
kontinent
kontinentet
kontingent
kontinu
kontinuer
kontinuerlig
kontinuitet
konto
kontoen
kontoer
kontor
kontorene
kontorer
kontoret
kontra
kontrakt
kontrakten
kontrakter
kontrast
kontraster
kontro
kontrol
kontroll
kontrollen
kontroller
kontrollere
kontrollerer
kontrolleres
kontrollert
kontrollerte
kontrollutvalg
kontrollutvalget
kontrollutvalgets
kontroversi
kontroversielle
konvensjon
konvensjonelle
konvensjonen
konvensjoner
konver
konvert
konvertere
konvertering
konvertert
konvol
koord
koordin
koordinator
koordinere
koordinering
koordinert
kop
kopi
kopier
kopiere
kopiering
kopp
kopper
kor
koranen
kore
korea
koreansk
koreanske
koret
korleis
korn
korps
korpset
korre
korrekt
korrekte
korrel
korresp
korrespond
korresponderer
korrid
korrig
korrigere
korrigert
korro
korrosjon
korru
korrupsjon
kors
korset
kort
korte
kortene
kortere
kortet
kortsiktig
kortsiktige
korttid
kortvar
kortvarig
kos
kose
koselig
koselige
koser
kosmet
kosmetikk
kosovo
kost
kostbar
kostbare
kostbart
koste
kosten
koster
kostet
kosthold
kostholdet
kostnad
kostnaden
kostnadene
kostnader
kostnads
kostnadseffe
kostra
kosttilskudd
kostyme
kostymer
kp
kr
kra
krabbe
kraft
kraften
kraftfor
kraftig
kraftige
kraftigere
kraftproduksjon
kraftverk
kraftverket
krager
kragerø
krak
kran
krang
krangel
krangler
krav
kravene
kravet
kravspesif
kre
kreativ
kreative
kreativitet
kreativiteten
kreativt
kred
kredit
kreditt
kredittkort
kreft
kreftene
krefter
kreftforeningen
krem
kremen
kren
krenk
krenkende
krenket
kret
krets
kretsen
kretser
krev
krevd
krevde
kreve
krevende
krever
kreves
krf
kri
krig
krigen
krigens
kriger
krigs
krim
krimin
kriminal
kriminalitet
kriminell
kriminelle
kring
kringkast
kripos
kris
krise
krisen
kriser
krises
krist
kristelig
kristen
kristend
kristendom
kristendommen
kristensen
kristent
kristi
kristian
kristiania
kristians
kristiansand
kristiansen
kristiansund
kristin
kristina
kristine
kristne
kristoffer
kristoffersen
kristus
krit
kriter
kriteriene
kriterier
kritiker
kritikere
kritikk
kritikken
kritikkverdige
kritisere
kritiserer
kritisert
kritisk
kritiske
kro
kroatia
krog
krogh
krok
kroken
krom
kron
krone
kronen
kroner
kronikk
kronisk
kroniske
kronologisk
kronpr
kronprin
kronprins
kropp
kroppen
kroppens
kropper
kropps
kroppssprak
kroppsvekt
kroppsø
kru
krutt
kry
krydder
kryp
krype
krypt
kryptoval
kryss
krysse
krysser
krysset
kryssord
krystall
krø
krøl
ks
ku
kub
kubikk
kuk
kul
kulde
kule
kuler
kuleste
kull
kullet
kult
kultu
kultur
kulturarv
kulturdepartementet
kulturell
kulturelle
kulturelt
kulturen
kulturer
kulturhus
kulturlandskap
kulturminn
kulturminne
kulturminner
kulturrad
kulturskole
kulturskolen
kum
kun
kund
kunde
kunden
kundene
kundenes
kundens
kunder
kunders
kundes
kundeservice
kunn
kunne
kunnet
kunngjort
kunngjør
kunngjøring
kunnskap
kunnskapen
kunnskaper
kunnskaps
kunnskapsbasert
kunnskapsdepartementet
kunnskapsløftet
kunnskapsrik
kunnskapsrike
kunst
kunsten
kunstgress
kunstig
kunstige
kunstner
kunstnere
kunstneren
kunstnerisk
kunstneriske
kunstnerne
kunstverk
kup
kupp
kur
kurat
kurd
kurs
kursdelt
kursen
kursene
kurset
kurt
kurv
kurven
kurver
kus
kutt
kutte
kutter
kuttet
kv
kva
kvad
kvadrat
kvadratmeter
kval
kvalif
kvalifikasjon
kvalifikasjoner
kvalifisere
kvalifiserer
kvalifisering
kvalifiseringen
kvalifisert
kvalifiserte
kvalit
kvalitativ
kvalitative
kvalitet
kvaliteten
kvaliteter
kvalitets
kvalitetssik
kvalitetssikre
kvalitetssikring
kvalm
kvalme
kvalt
kvam
kvant
kvantit
kvar
kvart
kvartal
kvartalet
kvarter
kve
kveld
kvelden
kveldene
kveldens
kvelder
kvelds
kveldstid
kvele
kven
kver
kvern
kvikk
kvikksølv
kvinn
kvinne
kvinnelig
kvinnelige
kvinnen
kvinnene
kvinnenes
kvinnens
kvinner
kvinners
kvinnes
kviser
kvist
kvit
kvitt
kvitte
kvitter
kvittering
kvm
kvote
kvoter
kvæ
kvær
kw
kwh
ky
kyl
kylling
kyn
kypros
kyr
kyrk
kyrkja
kyrkje
kyss
kysse
kysset
kyst
kysten
kystverket
kø
køben
københavn
køen
køy
la
lab
labor
laborator
laboratorie
laboratorier
laboratoriet
laboratorium
lad
lade
lader
ladet
ladies
lading
lady
ladyboy
lag
laga
lagd
lagde
lage
lagene
lager
lageret
lages
laget
lagets
lagkamer
lagleder
lagmann
lagmannsrett
lagmannsretten
lagre
lagrer
lagres
lagret
lagring
lagt
laila
lak
lake
lakk
laks
lakse
laksen
lakt
lam
lamin
lamp
lampe
lampen
lamper
lan
land
landbruk
landbruket
landbruks
lande
landegrens
landegrensene
landene
lander
landet
landets
landing
lands
landsbasis
landsby
landsbyen
landsbyer
landsbygda
landsdekkende
landsdel
landsdelen
landsforbund
landsgjennomsnittet
landskap
landskapet
landskaps
landslag
landslaget
landslagssjef
landsmøte
landsmøtet
landsom
landsomfattende
landsstyret
lane
lanek
laner
lanet
lang
langdist
lange
langrenn
langrennsløp
langs
langsiktig
langsiktige
langsomt
langt
langtid
langtur
langu
language
langvar
langvarig
langvarige
lanka
lanser
lansere
lanserer
lanseres
lansering
lanseringen
lansert
lanserte
lant
lante
lap
lapp
lappen
lapper
lapt
lar
larene
large
lars
larsen
larvik
las
lase
laser
lases
lass
lasse
last
laste
lastebil
lastebiler
laster
lastes
lastet
lat
lata
late
laten
latene
later
latex
latin
latina
latinske
latskriver
latt
latter
latterlig
latvia
laur
laura
laurit
lauv
lav
lave
lavere
lavest
laveste
lavkar
lavkarbo
lavpris
lavt
lavtersk
law
layo
layout
lcd
ld
le
lead
leag
league
lean
learn
learning
leave
led
ledd
leddene
lede
ledelse
ledelsen
ledelses
ledende
leder
ledere
lederen
lederne
lederskap
ledes
ledet
ledig
ledige
ledning
ledninger
lednings
leds
ledsager
lee
lef
left
leg
lege
legem
legeme
legemid
legemiddel
legemidler
legemidlet
legen
legend
legendariske
legenden
legene
leger
legevakt
legevakten
legg
legge
legger
legges
legit
legitim
legitimasjon
legitime
legitimitet
legning
lego
lei
leid
leide
leie
leiebil
leier
leies
leiet
leietaker
leietakere
leif
leik
leil
leilighet
leiligheten
leilighetene
leiligheter
leir
leire
leiren
lek
leke
leken
lekene
lekeplass
leker
leketøy
lekk
lekkasje
lekkasjer
lekker
lekkert
lekket
lekre
leks
lekse
lekser
leksikon
lekt
lekte
lektor
lem
len
lena
lene
leng
lengde
lengden
lengder
lenge
lenger
lengre
lengsel
lengst
lengste
lengter
lenin
lenke
lenken
lenkene
lenker
lenn
lens
lensmann
leo
leon
leppene
lepper
ler
lerret
les
lesb
lesbian
lesbisk
lesbiske
lese
leser
lesere
leseren
leserne
leses
lesest
lesing
lesning
lest
leste
let
lete
leter
leting
lett
lette
lettelse
letter
lettere
lettest
lettet
lettvint
lev
levanger
levd
levde
leve
levealder
levekar
level
levende
lever
leverand
leverandør
leverandøren
leverandørene
leverandører
leveranse
leveransen
leveranser
levere
leveren
leverer
leveres
levering
leverings
leveringstid
levert
leverte
levet
levetid
levetiden
levitra
lew
lewis
lex
lg
lh
li
lia
lib
liban
libanon
liber
liberal
liberale
liby
libya
lid
lide
lidelse
lidelser
liden
lidenskap
lidenskapelig
lider
lie
lien
lier
life
lig
liga
ligaen
ligg
ligge
liggende
ligger
ligget
light
ligne
lignende
ligner
lignet
lik
like
likebehandling
likeg
likekjønn
likel
likeledes
liker
likes
likesa
likesinnede
likestilling
likestillings
likestillingsloven
likestilt
liket
likevel
likeverd
likeverdig
likeverdige
likhet
likheter
liknende
liksom
likt
likte
likvid
likviditet
lil
lill
lilla
lille
lillebror
lillehammer
lillesand
lillestrøm
lillesøster
lim
lime
lin
lind
linda
linde
lindesnes
lindre
line
ling
linja
linje
linjen
linjene
linjer
link
linkedin
linken
linkene
linker
linn
linne
linni
linser
linux
lion
lions
lip
lis
lisa
lisbet
lisbeth
lisboa
lise
lisens
lisensen
lisenser
list
lista
liste
listen
listene
lister
listet
listhaug
lit
lita
litauen
lite
liten
liter
litt
litter
litteratur
litteraturen
litterære
little
liv
live
livene
liver
liverpool
livet
livets
living
livlig
livmor
livmoren
livmorhal
livred
livredd
livs
livskvalitet
livsl
livslang
livsløp
livssituasjon
livsstil
livssyn
livstruende
livsv
lj
ll
lm
ln
lo
lob
lobby
loc
local
lock
lod
lodd
lofot
lofoten
loft
loftet
log
logg
logge
logger
logget
logikk
login
logisk
logiske
logistikk
logo
logoen
loj
lojale
lojalitet
lok
lokal
lokalbefolkningen
lokale
lokalene
lokaler
lokalet
lokalisering
lokalisert
lokalitet
lokaliteter
lokall
lokallag
lokalmiljøet
lokalsamfunn
lokalsamfunnet
lokalt
lokasjon
lokk
lokke
lokker
lokket
lokomot
lol
lom
lomm
lomme
lommebok
lommer
lon
lond
london
long
longyear
look
looking
lopp
lor
lord
lorent
los
lost
lot
lott
lotter
lotto
lou
louis
louise
lov
lovbrudd
love
loven
lovende
lovene
lovens
lover
lovet
lovgivning
lovgivningen
lovlig
lovlige
lovpal
lovpalagt
lovpalagte
lovverk
lovverket
low
lp
ls
lsk
lt
ltd
lu
lub
luc
lud
ludvig
lue
luer
luft
lufta
luftambul
lufte
luften
luftet
luftfart
luftfu
lufthavn
luftig
luftt
luftveiene
lug
luk
lukas
luke
lukk
lukke
lukkede
lukker
lukkes
lukket
luks
luksuri
luksus
lukt
lukten
lukter
luktet
lum
lun
lunch
lund
lunde
lunge
lungene
lunges
lunner
lunsj
lur
lure
lurer
lurt
lurte
lus
lut
luther
lux
luxem
ly
lyd
lydbok
lydbøker
lyde
lyden
lydene
lyder
lydighet
lydkvaliteten
lydspor
lydsporet
lykke
lykkelig
lykkelige
lykken
lykkes
lyktes
lymf
lyn
lyng
lyngdal
lyngen
lyrics
lyrikk
lys
lysaker
lysb
lyse
lysene
lyser
lysere
lyset
lysløy
lyss
lyst
lysten
lyt
lytt
lytte
lytter
lyttet
læ
lær
lærdom
lære
lærebøker
læren
læreplan
læreplanen
lærer
lærere
læreren
lærerikt
lærerne
lærerutdanning
læres
læring
lærings
læringsm
læringsmal
læringsmiljø
læringsutbytte
lærling
lærlinger
lært
lærte
lø
lød
løft
løfte
løfter
løftes
løftet
løgn
løgner
løk
løken
løkke
lønn
lønne
lønnen
lønner
lønnet
lønns
lønnsom
lønnsomhet
lønnsomme
lønnsomt
lønnsoppgjør
løp
løpe
løpende
løpene
løper
løpere
løperen
løperne
løpesko
løpet
løpetid
løping
løpt
lør
lørdag
lørdagen
lørdagens
lørdager
løren
lørenskog
løs
løse
løser
løses
løslatt
løsm
løsne
løsnet
løsning
løsningen
løsningene
løsninger
løsnings
løst
løste
løten
løv
løve
løven
løy
løyp
løypa
løype
løypen
løypene
løyper
m2
m3
ma
mac
mach
machine
mad
made
madra
madrid
mads
madsen
mag
magas
magasin
magasiner
magasinet
magaz
magazine
mage
magen
mager
mages
magi
magic
magisk
magiske
magn
magne
magnes
magnesium
magnet
magnus
mah
mai
mail
main
mais
maj
maja
maje
majestet
major
majoritet
majoriteten
majorstuen
mak
make
maked
maken
maker
makeup
makker
makrell
makro
maks
maksim
maksimal
maksimale
maksimalt
maksimere
maksimum
makt
makten
makter
maktet
mal
mala
malay
malaysia
male
malen
malene
maler
malere
maleri
malerier
males
malestokk
malet
malg
malgru
malgruppe
malgruppen
malgrupper
malin
maling
malingen
malingene
malinger
mall
malm
maloppnaelse
malrettede
malrettet
malsetning
malsetningen
malsetninger
malsett
malsetting
malsettingen
malsettinger
malt
malta
malte
maltid
maltider
maltidet
malvik
mam
mamm
mamma
mammaen
man
manag
management
manager
manchester
mand
mandag
mandal
mandat
mandatet
mandel
mane
maned
maneden
manedene
manedens
maneder
maneders
manedlig
manedlige
maneds
manen
mang
mange
mangel
mangelen
mangelfull
mangelfulle
mangfold
mangfoldet
mangfoldig
mangfoldige
mangle
manglende
mangler
manglet
mango
mangt
manif
manifest
manip
manipulere
mann
mannen
mannens
mannlig
mannlige
manns
mannskap
mannskaper
mannskapet
manu
manuell
manuelle
manuelt
manus
many
manøv
mao
map
mappe
mappen
mapper
mar
maraton
marc
marco
marcus
maren
marer
mareritt
marg
margar
margin
marginal
margrethe
mari
maria
marianne
marid
marie
marin
marina
marine
mario
marit
maritim
maritime
marius
mark
marka
markant
marked
markedene
markeder
markedet
markedets
markeds
markedsføre
markedsføring
markedsføringen
markedsførings
marker
markere
markerer
markering
markeringen
markert
markerte
market
marketing
markus
marmor
marokk
marokko
mars
marsh
marsi
marsj
mart
marta
marte
martha
marthe
martin
martine
martinsen
marx
mary
mas
masasje
mask
maske
masker
maskin
maskinen
maskinene
maskiner
maskinvare
mass
massa
massage
massak
massasje
masse
massen
massene
masser
massevis
massiv
massive
massivt
massør
mast
master
mastercard
mastergrad
masteroppgave
masteroppgaven
mastur
masturb
mat
match
matche
matcher
matchmaking
mate
matemat
matematikk
matematisk
matematiske
maten
matene
mater
material
materiale
materialene
materialer
materialet
materiell
materielle
math
mathias
mathilde
mathisen
matlag
matlaging
matproduksjon
matri
matrikkel
matrikkelen
mats
matt
matte
matter
mattet
mattilsynet
mature
matvare
matvarer
maur
max
may
mb
mc
mcc
md
mdg
me
med
medal
medalje
medaljer
medan
medarbeid
medarbeider
medarbeidere
medarbeiderne
meddel
medfødt
medfølelse
medfølgende
medføre
medfører
medført
medførte
medhold
medi
media
medic
medical
medie
mediene
medier
mediet
medik
medikament
medikamenter
medisin
medisinen
medisiner
medisinsk
medisinske
medit
meditasjon
medium
medle
medlem
medlemmene
medlemmenes
medlemmer
medlemmet
medlems
medlemskap
medlemskapet
medlemskont
medlemsland
medlemslandene
medlemsst
medmenne
medmennesker
medvir
medvirke
medvirkende
medvirket
medvirkning
meet
meg
mega
meget
megler
meier
meiner
meir
meister
mek
mekan
mekanisk
mekaniske
mekanismer
mekling
meks
mektig
mektige
mektigste
mel
meld
melde
melder
meldes
melding
meldingen
meldingene
meldinger
meldings
meldt
meldte
melhus
melk
melke
melkes
mell
mellom
mellomrom
mellomstore
mellomtiden
melod
melodi
mem
membran
men
mene
mener
menes
meng
mengde
mengden
mengder
menighet
menigheten
menigheter
mening
meningen
meninger
menings
meningsfylt
meningsløst
meningsmal
menn
menne
mennene
mennesk
menneske
menneskehandel
menneskeheten
menneskelig
menneskelige
menneskene
menneskenes
mennesker
menneskerett
menneskerettighet
menneskerettighetene
menneskerettigheter
menneskers
menneskes
mennesket
menneskets
menns
mens
mensen
menstru
menstruasjon
ment
mental
mentale
mentalt
mente
mentor
menu
meny
menyen
mer
meraker
merc
mercedes
mere
merete
merk
merkbart
merke
merkel
merkelig
merkelige
merken
merkenavn
merkene
merker
merkes
merket
merkevar
merkevare
merkevaren
merkevarer
merking
merknad
merknader
merverdi
merverdiavgift
mes
mess
messe
messen
messer
messing
mest
meste
mesteparten
mester
mesterlig
mesterskap
mesterskapet
mestre
mestrer
mestring
mestrings
met
meta
metabol
metafor
metal
metall
metaller
mete
meteor
meter
meters
metod
metode
metoden
metodene
metoder
metodikk
metoo
metro
mett
mette
mettet
mex
mexico
meyer
mf
mfl
mg
mh
mht
mi
mia
miami
mic
mich
micha
michael
michel
micro
microg
microgaming
micros
microsoft
mid
midd
middag
middagen
middager
middel
middelalder
middelalderen
middelaldrende
middelhavet
middels
midlene
midler
midlertid
midlertidig
midlertidige
midnatt
midt
midtban
midten
midtre
midtveis
midtøsten
mig
migrasjon
migrene
mik
mika
mikael
mike
mikk
mikkel
mikkelsen
mikro
mikrof
mikrofon
mikroskop
miks
mil
milan
milano
mild
milde
mildere
mildt
mile
milep
miles
milf
milfs
milit
militær
militære
militæret
militært
milj
miljø
miljød
miljødirektoratet
miljøene
miljøer
miljøet
miljøgifter
miljøk
miljømessige
miljøp
miljør
miljøvennlig
miljøvennlige
miljøvern
miljøverndepartementet
mill
miller
milli
milliard
milliarder
millimeter
million
millioner
mim
min
mind
mindf
mindful
mindfulness
mindre
mindrearige
mindret
mindretall
mine
miner
mineral
mineraler
ming
mini
minib
minim
minimal
minimalt
minimere
minimum
minister
minn
minne
minnene
minner
minnes
minnet
minor
minoritet
minoriteter
minoritetssprak
minske
minst
minste
minus
minutt
minuttene
minutter
minutters
minuttet
mir
mira
mirak
mis
misbru
misbruk
misbrukt
misfornøyd
misforsta
misforstaelser
misforstatt
mishandling
misjon
misjons
misjonær
misli
mislig
mislighold
misly
mislykkes
mislykket
misn
misnøye
miss
mist
mistanke
miste
misten
mistenkelig
mistenker
mistenkt
mistenkte
mister
mistet
misunn
mit
mitt
mix
mj
mjø
mjøl
mjøndalen
mjøsa
mk
ml
mm
mn
mnd
mne
mnok
mo
mo1
mob
mobbe
mobbet
mobbing
mobil
mobile
mobilen
mobilisere
mobilisering
mobilitet
mobilt
mobiltelefon
mobiltelefonen
mobiltelefoner
mod
mode
model
modell
modellen
modellene
modeller
moden
moder
moderat
moderate
modern
moderne
modernisering
modif
modig
modige
modne
modul
modulen
moduler
modum
modus
moe
moen
mog
mogleg
moh
mol
mold
molde
molek
molekyl
mom
moment
momenter
moms
mon
mona
money
mong
monica
monitor
monopol
mons
monsen
monster
mont
monte
montere
monteres
montering
montert
monum
monument
moon
moped
mor
mora
moral
moralsk
moralske
mord
more
moren
morens
morg
morgan
morgen
morgendagens
morgenen
morges
mormor
moro
morro
mors
morsm
morsmal
morsom
morsomme
morsommere
morsomste
morsomt
mort
morten
mos
mose
moses
mosjon
mosjøen
mosk
moske
moskva
moss
most
mot
motba
mote
motet
motgang
motiv
motivasjon
motivasjonen
motivene
motiver
motivere
motiverende
motiverer
motivert
motiverte
motivet
motor
motoren
motorer
motorferd
motorsport
motorsykkel
motorsykler
motorveien
motparten
motsatt
motsatte
motsetning
motsetninger
motsta
motstand
motstanden
motstander
motstandere
motstanderen
motstanderne
motstandsdy
motstrid
mott
motta
mottak
mottaker
mottakere
mottakeren
mottaks
mottar
mottas
mottatt
motto
mottok
motvirke
mount
mountain
mourin
mourinho
mov
move
movie
movies
moz
mp
mp3
mr
mrd
ms
mt
mu
much
mud
muff
muffins
mugg
muhammed
mujer
mul
mulig
mulige
muligens
muliggjør
mulighet
muligheten
mulighetene
muligheter
mult
multi
multic
multif
multim
multip
multipl
mum
mun
munch
munchen
munn
munnen
munt
muntlig
muntlige
mur
muren
murer
mus
muse
museer
museet
museets
musen
museum
museums
music
musik
musikal
musikalsk
musikalske
musiker
musikere
musikk
musikken
musk
muskel
muskelmasse
musklene
muskler
muskul
musli
muslim
muslimer
muslimsk
muslimske
must
mut
mv
mva
mvh
mw
my
mye
mygg
myhre
myk
myke
mykere
mykje
mykt
myl
myn
mynd
myndighet
myndighetene
myndighetenes
myndigheter
mynt
mynter
myr
myra
myrdet
myster
mystisk
mystiske
myt
myte
myten
myter
m²
mæ
mæland
mø
møbel
møblene
møbler
mød
mødre
møl
mølla
møller
møn
mønster
mønsteret
mønstre
mør
møre
mørk
mørke
mørkere
mørket
mørkt
møt
møte
møtedato
møteinn
møteinnkalling
møteleder
møtene
møteplass
møteplassen
møteplasser
møteprotokoll
møter
møterom
møtes
møtested
møtet
møtetid
møtt
møtte
møttes
na
nab
nabo
naboen
naboene
naboer
nabok
nabol
nabolag
nabolaget
naboland
nad
nadd
nadde
nade
naf
nag
naiv
nak
naked
naken
nakenbilder
nakke
nakken
nakne
nal
nam
namdal
name
namn
namnet
namsos
nan
nannestad
nansen
nap
napole
napoleon
napoli
napp
nar
nark
narkotik
narkotika
narvik
nas
nasjon
nasjonal
nasjonalbiblioteket
nasjonale
nasjonalfor
nasjonalitet
nasjonalpark
nasjonalt
nasjonen
nasjoner
nat
natid
nation
national
nationalthe
nato
natos
natt
natta
natte
natten
natur
natural
naturen
naturens
naturfag
naturgass
naturlig
naturlige
naturligvis
naturmangfold
naturopp
naturressurser
naturvern
naturvitenskap
naturvitenskapelige
naust
naut
nav
navig
navigasjon
navigere
navn
navne
navnene
navnet
naværende
naz
nb
nc
ncc
nd
ne
neb
ned
nedbe
nedbryt
nedbør
nede
neden
nedenfor
nedentil
neder
nederlag
nederland
nederlandske
nederst
nederste
nedfelt
nedgang
nedgangen
nedi
nedlagt
nedlast
nedlasting
nedover
nedre
nedrykk
nedsatt
nedt
nedtur
nedturer
need
neg
negativ
negative
negativt
negl
neglene
negler
nei
neida
nek
nekte
nekter
nektet
nel
nelly
nem
nemlig
nemnd
nemnda
nepal
neppe
ner
nerd
nerv
nerve
nerver
nerves
nervesystemet
nervøs
nes
nesa
nese
nesen
nesodden
ness
nesset
nest
neste
nesten
nestleder
net
netent
netflix
nett
nettapotek
nettavis
nettavisen
nettbank
nettbasert
nettbaserte
nettbok
nettbokhandel
nettbrett
nettbrettet
nettbutikk
nettbutikken
nettbutikker
nettcasino
nettdat
nettdate
nettdating
nettdatings
nettene
netter
nettet
netthandel
nettleser
nettlesere
nettleseren
netto
nettopp
nettsamfunn
nettselskapet
nettside
nettsiden
nettsidene
nettsider
nettst
nettsted
nettstedene
nettsteder
nettstedet
nettstedets
nettverk
nettverket
nettverks
network
nev
never
nevne
nevner
nevnes
nevneverdig
nevnt
nevnte
nevro
nevrolog
new
newcast
newcastle
news
newton
next
nf
nff
ng
ngu
nh
nhat
nhh
nho
nhsr
ni
nib
nic
nice
nick
nicol
nicola
nid
nidar
nidaros
niels
nielsen
niende
nif
nifs
nig
niger
nigeria
night
nik
nike
nikola
nikolai
nil
nils
nilsen
nin
nina
nint
nintendo
nis
nisje
niss
nissan
nissen
nit
nitrogen
nitt
nittedal
niv
niva
nivaene
nivaer
nivaet
nix
nixon
nj
nk
nkk
nl
nm
nmbu
nn
no
noah
nobel
nobels
noe
noen
noenlunde
noens
noensinne
nof
nok
nokia
noko
nokon
nokre
noksa
nokut
nom
nomin
nominasjon
nominert
nominerte
non
nor
nora
norad
norc
nord
nordby
norde
nordea
norden
nordens
nordic
nordisk
nordiske
nordkapp
nordland
nordlige
nordligste
nordlys
nordmann
nordmannen
nordmenn
nordmennene
nordmenns
nordmøre
nordnorsk
nordover
nordre
nords
nordsjøen
nordstrand
nordvest
nordøst
nore
noreg
norge
norges
norgesdate
norgesmester
norm
normal
normale
normalen
normalt
normann
normen
normer
norrø
norsk
norske
norskekysten
nort
north
northampton
northug
nortura
norw
norway
norweg
norwegian
nost
nostalg
not
notat
notater
notatet
note
noter
notere
notert
notodden
nou
nov
nova
novelle
noveller
november
now
nr
nrk
nrks
ns
nsb
nsf
nt
ntb
ntnu
nu
nud
nude
nudist
null
num
numer
nummer
nummeret
nuru
nut
nv
nve
ny
nyan
nyanser
nyaret
nyb
nybegynn
nybegynner
nybegynnere
nybygg
nyc
nydelig
nydelige
nye
nyere
nyeste
nyetabler
nyfødt
nyfødte
nygaard
nygard
nyhet
nyheten
nyhetene
nyheter
nyhets
nyhetsbrev
nyhetsbyraet
nylig
nylon
nynorsk
nyopp
nyre
nys
nysgjer
nysgjerr
nysgjerrig
nysgjerrige
nysgjerrighet
nyskap
nyskapende
nyskaping
nyt
nyte
nytelse
nyten
nyter
nytes
nytt
nytta
nyttar
nyttarsaften
nytte
nytten
nytter
nyttig
nyttige
nyutdannede
næ
nær
nære
nærhet
nærheten
nærhetense
næring
næringen
næringer
nærings
næringsbygg
næringsdrivende
næringsliv
næringslivet
næringslivets
næringsm
næringsmiddel
næringsstoffer
næringsutvikling
næringsvirksomhet
nærliggende
nærm
nærme
nærmer
nærmere
nærmest
nærmeste
nærmet
nærmiljø
nærmiljøet
næromradet
nært
nærvær
næss
nø
nød
nødhjelp
nødnummer
nødt
nødvend
nødvendig
nødvendige
nødvendighet
nødvendigvis
nøk
nøkkel
nøkkelen
nøkkelord
nøkkelt
nøkkeltall
nøkler
nøkter
nøl
nøste
nøt
nøtter
nøtterøy
nøy
nøyaktig
nøyaktige
nøyaktighet
nøye
nøyt
nøytr
nøytral
nøytrale
ob
obama
ober
oberst
obil
obilgations
obje
objekt
objekter
objektet
objektiv
objektive
oblig
obligasjon
obligasjoner
obligator
obligatorisk
obligatoriske
obos
obs
obser
observ
observasjon
observasjoner
observer
observere
observert
observerte
oc
ocean
och
oct
od
oda
odal
odd
odda
odds
oddsen
oddvar
odel
odin
oec
oecd
of
off
offens
offensiv
offensive
offensivt
offent
offentlig
offentlige
offentliggjort
offentliggjøres
offentlighet
offentligheten
offer
offeret
offic
office
offis
offiser
offiserer
offisiell
offisielle
offisielt
offsh
offshore
ofre
ofrene
ofret
oft
ofte
oftere
oftest
og
ogs
ogsa
oh
oi
oil
ok
okk
okkup
okkupasjon
okkupasjonen
okkuper
okkupert
okkuperte
oks
okse
oksy
oksygen
okt
oktober
ol
ola
olaf
olav
olavs
old
olde
oldid
ole
oli
oliv
oliven
olivenolje
oliver
olje
oljef
oljefondet
oljem
oljen
oljeprisen
oljer
oljesel
olsdatter
olsen
oly
olymp
olympiske
om
ombord
ombud
ombudet
ombygging
omd
omdø
omdømme
omega
omegn
omf
omfang
omfanget
omfatt
omfatte
omfattende
omfatter
omfattes
omfattet
omfav
omg
omgang
omgangen
omganger
omgir
omgitt
omgiv
omgivelsene
omgivelser
omgjort
omhandler
omkom
omkring
omlag
omlegging
omløp
omorgan
omrade
omradene
omrader
omradet
omringet
omsetning
omsetningen
omsetnings
omsette
omsider
omskjæring
omsorg
omsorgen
omsorgs
omsorgsdepartementet
omsorgstjenester
omstend
omstendighetene
omstendigheter
omstilling
omstrid
omt
omtale
omtalen
omtaler
omtales
omtalt
omtalte
omtanke
omtrent
omvendt
omverdenen
omvisning
on
onan
onanere
onani
ond
onde
ondskap
ondt
one
onkel
online
only
ons
onsdag
op
open
oper
opera
operaen
operasjon
operasjonen
operasjoner
operasjonsleder
operat
operativ
operative
operativsystem
operativsystemet
operatør
operatøren
operatører
operere
opererer
operert
opin
opinion
opp
oppa
opparbeid
opparbeidet
oppbe
oppbevar
oppbevare
oppbevares
oppbevaring
oppbevarings
oppbevart
oppbygging
oppd
oppdag
oppdage
oppdagelses
oppdager
oppdages
oppdaget
oppdal
oppdater
oppdatere
oppdaterer
oppdateres
oppdatering
oppdateringen
oppdateringer
oppdatert
oppdaterte
oppdrag
oppdragelse
oppdragene
oppdraget
oppdrags
oppdragsgiver
oppdragsgivere
oppdrett
oppdretter
oppdrettere
oppdrettslaks
oppe
oppegaende
oppegard
oppf
oppfat
oppfatning
oppfatningen
oppfatninger
oppfatt
oppfatte
oppfatter
oppfattes
oppfattet
oppfinn
oppfor
oppford
oppfordr
oppfordre
oppfordrer
oppfordres
oppfordret
oppfordring
oppfunnet
oppfyl
oppfyll
oppfylle
oppfyllelse
oppfyller
oppfylles
oppfylt
oppfølg
oppfølger
oppfølgeren
oppfølging
oppfølgingen
oppfølgings
oppføre
oppfører
oppføring
oppføringen
oppføringer
oppførsel
oppført
oppførte
oppga
oppgang
oppgav
oppgave
oppgaven
oppgavene
oppgaver
oppgi
oppgir
oppgis
oppgitt
oppgitte
oppgjør
oppgjøret
oppgrader
oppgradere
oppgradering
oppgraderinger
oppgradert
opph
opphav
opphavet
opphavsrett
opphe
oppheng
oppheve
oppheves
opphevet
opphold
oppholde
oppholder
oppholdet
oppholdstillatelse
oppholdt
opphør
opphører
opphøy
oppi
oppkalt
oppkast
oppkjøp
oppkjøpet
oppkobling
opplag
opplagt
oppland
opple
opplegg
opplegget
opplev
opplevd
opplevde
oppleve
opplevelse
opplevelsen
opplevelsene
opplevelser
opplevelses
opplever
oppleves
opply
opplys
opplyse
opplyser
opplyses
opplysning
opplysningene
opplysninger
opplysnings
opplyst
opplyste
opplær
opplæring
opplæringen
opplærings
opplæringsloven
oppløft
oppløsning
oppløst
oppm
oppmer
oppmerksom
oppmerksomhet
oppmerksomheten
oppmerksomme
oppmunt
oppmuntre
oppmuntrer
oppmuntring
oppmøte
oppn
oppna
oppnad
oppnadd
oppnadde
oppnar
oppnas
oppne
oppnev
oppnevnes
oppnevnt
opposisjon
opposisjonen
oppover
oppr
oppreis
oppreisning
oppreist
opprett
opprette
opprettelse
opprettelsen
oppretter
opprettes
opprettet
opprettholde
opprettholder
opprettholdes
opprettholdt
oppri
oppriktig
oppring
opprinn
opprinnelig
opprinnelige
opprinnelse
opprinnelses
opprydding
opprykk
opprør
opprøret
opprørt
opps
oppsal
oppsamling
oppsatt
oppsett
oppsettet
oppsig
oppsigelse
oppsikt
oppsiktsvekkende
oppskrift
oppskriften
oppskriftene
oppskrifter
oppsl
oppslag
oppslutning
oppst
oppsta
oppstand
oppstar
oppstart
oppstarten
oppstatt
oppstilling
oppsto
oppstod
oppsummer
oppsummere
oppsummerer
oppsummering
oppsummert
oppsyn
oppsø
oppsøke
oppsøker
oppsøkte
oppt
opptak
opptakene
opptaket
opptaks
opptar
opptatt
opptil
opptjening
opptrad
opptradt
opptrapping
opptre
opptred
opptreden
opptrer
opptur
oppuss
oppussing
oppvar
oppvarm
oppvarming
oppvarmingen
oppvask
oppvaskmaskin
oppvekst
oppveksten
oppvokst
ops
opsjon
opsjoner
opt
optim
optimal
optimale
optimalisere
optimalisering
optimalt
optimisme
optimistisk
optisk
or
oral
oralsex
orange
oransje
ord
ordbok
orde
orden
ordene
ordens
ordentlig
ordentlige
order
ordet
ordfor
ordfør
ordfører
ordføreren
ordin
ordinær
ordinære
ordinært
ordlyden
ordne
ordner
ordnet
ordning
ordningen
ordninger
ordre
ordren
ordtak
ore
org
organ
organer
organet
organis
organisasjon
organisasjonen
organisasjonene
organisasjonens
organisasjoner
organisasjons
organisasjonsnummer
organisasjonsutvikling
organisator
organisatorisk
organisatoriske
organisere
organiserer
organiseres
organisering
organiseringen
organisert
organiserte
organisk
organiske
organismer
orgas
orgasme
orgel
ori
orient
orienter
orientere
orientering
orienterings
orientert
orienterte
orig
origin
original
originale
originalen
originalt
orion
ork
orkdal
orke
orker
orkester
orket
orkla
orm
ort
ortodokse
ortoped
os
oscar
ose
oskar
osl
oslo
oslofjord
oslofjorden
oslos
osm
oss
ost
oste
osteop
oster
osv
ot
other
ott
otta
ottar
otter
otto
our
ous
out
outlook
outs
ov
ove
oven
ovenfor
ovennevnte
over
overalt
overbe
overbevis
overbevise
overbevisende
overbevisning
overbevist
overblikk
overd
overdre
overdreven
overens
overenskom
overensstemmelse
overfl
overflate
overflaten
overflater
overflødig
overfor
overfør
overføre
overfører
overføres
overføring
overføringen
overføringer
overførings
overført
overgang
overgangen
overganger
overgangs
overgrep
overh
overhode
overhodet
overholde
overholdes
overkant
overl
overla
overlate
overlatt
overle
overlege
overlegen
overlev
overlevd
overlevde
overleve
overlevelse
overlevende
overlever
overlevert
overn
overnatt
overnatte
overnatting
overnattings
overnattingsstedet
overord
overordnede
overordnet
overra
overrask
overraske
overraskelse
overraskelser
overraskende
overrasket
overs
oversatt
overse
oversen
oversendes
oversendt
oversett
oversette
oversettelse
oversettelsen
oversettelser
oversetter
oversikt
oversikten
oversikter
oversiktlig
oversk
overskr
overskrid
overskrift
overskriften
overskrifter
overskudd
overskuddet
oversky
overst
overstige
overstiger
oversvø
overt
overta
overtak
overtakelse
overtale
overtar
overtatt
overtid
overtok
overtred
overtredelse
overv
overvak
overvake
overvaker
overvaket
overvaking
overvakning
overvann
overve
overvekt
overvektig
overvektige
overveld
overveldende
overvinne
ovn
ovnen
ow
own
ox
oxford
oz
p3
p4
pa
paa
pabeg
pabegynt
paber
pabud
pac
pack
pad
padd
padle
padriver
padro
pafallende
pafyll
pafølgende
paføre
pafører
paføres
paføring
paført
pagaende
pagang
pagar
pagatt
page
pagikk
pagrepet
paint
pak
pakist
pakistan
pakistanske
pakjen
pakjørt
pakk
pakke
pakkeforløp
pakken
pakkene
pakker
pakket
pakking
pakl
paklages
pakrevd
pakt
pal
palace
palagt
pale
palegg
palegge
palegger
palegges
palest
palestin
palestina
palestinere
palestinerne
palestinske
palit
palitelig
palitelige
palitelighet
pall
pallen
palme
palo
palogging
palydende
pam
pameld
pamelding
pameldingen
pameldings
pameldt
pameldte
paminn
paminnelse
pan
pand
panel
panelet
panikk
panne
pannen
panor
panorama
panser
pant
pap
pape
papeke
papeker
papekt
papekte
paper
papir
papirene
papirer
papiret
papp
pappa
paprika
par
para
parad
paradis
paradise
paradoks
paragraf
paral
parall
parallell
parallelle
parallelt
paramet
parap
paraply
paras
paret
parf
parforhold
parfyme
paris
park
parken
parker
parkere
parkering
parkerings
parkeringsplass
parkeringsplassen
parkeringsplasser
parkert
parkett
parlament
parlamentet
pars
part
parten
partene
partenes
parter
parti
partiene
partier
partiet
partiets
partikler
partil
partileder
partner
partnere
partneren
partnerne
partners
partnerskap
parts
party
parørende
pas
pase
pasi
pasient
pasienten
pasientene
pasientens
pasienter
pask
paske
pasken
pasning
pass
passasjer
passasjerene
passasjerer
passe
passende
passer
passere
passerer
passert
passerte
passet
passform
passiv
passive
passord
passordet
past
pasta
pastand
pastanden
pastandene
pastander
pastar
pastor
pat
pata
patale
patalemyndigheten
patar
patent
patri
patrick
patrul
patt
paul
paulsen
paulus
pause
pausen
pauser
pav
pave
paven
pavente
pavir
pavirke
pavirker
pavirkes
pavirket
pavirkning
pavise
pavist
pay
payp
paypal
pa¥
pb
pbl
pc
pcb
pcen
pcer
pd
pdf
pe
pean
pear
ped
pedagog
pedagogikk
pedagogisk
pedagogiske
peder
peders
pedersdatter
pedersen
peer
peiling
peis
pek
peke
peker
pekt
pekte
pel
pelle
pels
pelsen
pen
pend
pene
penere
penet
peng
penge
pengene
penger
pengespill
penis
penn
pens
pensjon
pensjonen
pensjonist
pensjonister
pensjons
pensjonsk
pensjonskasse
pensum
pent
people
pep
pepper
per
perf
perfe
perfect
perfeksjon
perfekt
perfekte
perform
performance
peri
period
periode
perioden
periodene
perioder
perle
perler
perm
permalen
permalenken
perman
permanent
permanente
permisjon
permitter
pern
pernille
pers
person
personal
personale
personalet
personbil
personbiler
personell
personen
personene
personer
personlig
personlige
personlighet
personligheter
personopplys
personopplysningene
personopplysninger
personopplysningsloven
persons
personvern
personverner
personvernerklæringen
perspektiv
perspektiver
perspektivet
peru
pes
pest
pet
peter
peters
petersburg
petra
petro
petrole
petroleum
petroleums
petter
pettersen
pf
pg
pga
ph
phd
phen
phil
philip
philips
phone
phot
photo
photos
photoshop
php
pi
pia
pian
piano
pic
pick
pics
pict
pictures
pie
pier
piercing
pierre
pig
pigg
pik
pike
piken
pikk
pikken
piks
pil
pileg
pilegrim
piller
pilot
pilotprosjekt
pin
pine
ping
pink
pinlig
pinne
pinner
pinse
pint
pinterest
pioner
pip
pipe
pir
pirat
pisk
pist
pistol
pit
pitt
pix
piz
pizz
pizza
pkt
pl
pla
plac
place
plag
plage
plagene
plager
plaget
plagg
plaggene
plak
plakat
plakaten
plakater
plan
planarbeidet
planen
planene
planer
planet
planeten
planforslaget
planla
planlagt
planlagte
planlegg
planlegge
planlegger
planlegges
planlegging
planleggingen
planleggings
planomradet
plant
plante
planten
plantene
planter
plantet
plantevern
plas
plass
plassen
plassene
plasser
plassere
plasserer
plasseres
plassering
plasseringen
plasseringer
plassert
plasserte
plast
plaster
plastikk
plat
plata
plate
platen
platene
plater
platt
plattform
plattformen
plattformer
play
player
playstation
ple
please
pleide
pleie
pleier
plen
pli
plikt
plikten
plikter
pliktig
plo
plu
plug
plukke
plukker
plukket
plus
pluss
pluts
plutselig
plynd
pm
po
pocket
pod
podcast
poeng
poengene
poenget
poengsum
poesi
poet
point
pok
poke
poker
pol
polar
polen
police
policy
poliklin
poliklinikk
polish
polit
politi
politiattest
politibet
politid
politidistri
politidistrikt
politiet
politiets
politif
politifolk
politik
politiker
politikere
politikerne
politikk
politikken
politim
politimann
politimester
politisk
politiske
politist
politistasjon
pollen
polsk
polske
poly
polyester
polyg
pom
pompe
pon
ponn
pont
pop
popp
popul
popular
popularitet
populasjonen
populær
populære
populært
por
porn
porno
pornofilm
pornofilmen
pornofilmer
pornografi
pornografisk
pornografiske
pornos
pornost
pornostjerne
pornostjerner
pornstar
pors
porselen
porsgrunn
porsjon
porsjoner
port
portal
portalen
porteføl
portefølje
porteføljen
porten
porter
porto
portrett
portug
portugal
portugis
pos
pose
posen
poser
posisjon
posisjonen
posisjoner
posit
position
positiv
positive
positivt
post
postad
postadresse
postadressen
postboks
poste
posted
posten
postene
poster
postet
posts
pot
potens
potensial
potensiale
potensialet
potensiell
potensielle
potensielt
potet
potetene
poteter
pott
potten
potter
pov
pow
power
powered
powerpoint
pp
ppt
pr
pra
prag
praha
praks
praksis
praksisen
prakt
praktisere
praktiserer
praktiseres
praktisert
praktisk
praktiske
prat
prate
prater
pratet
pre
pred
preferanser
preg
prege
preger
preges
preget
prem
premie
premien
premier
premiere
premiss
premisser
premium
prepar
prer
preribosome
pres
prescreen
prescreened
present
presentasjon
presentasjonen
presentasjoner
presenter
presentere
presenterer
presenteres
presentert
presenterte
presid
president
presidenten
presis
presise
presisere
presiserer
presisjon
presist
press
presse
pressekonferanse
pressemelding
pressemeldingen
pressen
presser
presses
presset
prest
prestasjon
prestasjoner
preste
prestegjeld
presten
prester
prestere
prestis
prestisje
prev
prevensjon
pri
price
pride
prikker
prim
prima
primær
primære
primært
prin
prince
prins
prinsen
prinsesse
prinsi
prinsip
prinsipp
prinsippene
prinsipper
prinsippet
print
priorit
prioriter
prioritere
prioriterer
prioriteres
prioritering
prioriteringer
prioriterings
prioritert
prioriterte
prioritet
pris
prisen
prisene
priser
priv
privat
private
privatliv
privatpersoner
privileg
prix
pro
prob
problem
problematikken
problematisk
problemene
problemer
problemet
problemstilling
problemstillingen
problemstillingene
problemstillinger
process
produ
product
products
produksjon
produksjonen
produksjoner
produksjons
produkt
produktene
produkter
produktet
produktiv
produktivitet
produktutvikling
produs
produsent
produsenten
produsentene
produsenter
produsere
produserer
produseres
produsert
produserte
prof
profesjon
profesjonell
profesjonelle
profesjonelt
profess
professional
professor
professoren
profet
profeten
proff
profil
profilen
profilene
profiler
profilering
profilerte
profitt
prog
progn
prognose
prognoser
progra
program
programfag
programleder
programm
programmene
programmer
programmering
programmet
programvare
programvaren
progresjon
progress
progressive
project
prom
promille
promotere
pron
prop
propag
propaganda
propor
proporsjon
pros
prosed
prosedyre
prosedyren
prosedyrer
prosent
prosentandel
prosentpoeng
proses
prosess
prosessen
prosessene
prosesser
prosessor
prosje
prosjekt
prosjektene
prosjekter
prosjektering
prosjekterings
prosjektet
prosjektets
prosjektgruppen
prosjektledelse
prosjektleder
prospe
prost
prostat
prostata
prostitu
prostituerte
prostitusjon
prot
prote
protein
proteiner
protest
protester
protok
protokoll
protokollen
protot
provid
provin
provinsen
provisjon
provo
provos
prp
pry
prø
prøv
prøvd
prøvde
prøve
prøven
prøvene
prøver
prøves
prøvet
prøvetaking
prøving
prøy
ps
pse
pseud
pseudonym
pst
psy
psyk
psykiat
psykiater
psykiatri
psykiatrisk
psykisk
psykiske
psykolog
psykologer
psykologi
psykologisk
psykologiske
psykop
psykos
psykosos
pt
pu
pub
pubert
publ
public
publik
publikasjon
publikasjoner
publikum
publisere
publiserer
publiseres
publisering
publisert
publiserte
publish
published
pudder
puerto
pukk
pul
pule
pulje
pull
puls
pulsen
pult
pulver
pum
puma
pump
pumpe
pumper
pun
pund
punkt
punktene
punkter
punktet
punktum
puppene
pupper
pur
pure
pus
push
pusle
puss
pusse
pusset
pussy
pust
puste
pusten
puster
put
pute
puter
putin
putte
pv
pvc
py
pyn
pynt
pynte
pyntet
pyramid
pøl
pølse
pølser
q500
qa
qatar
qu
qual
quality
que
queen
quest
quick
quiz
quo
ra
rab
rabatt
rabatter
race
racer
racing
rad
radar
rade
radene
rader
radet
radgivende
radgiver
radgivere
radgivning
radhus
radhuset
radi
radighet
radik
radikal
radikale
radikalt
radio
radioen
radiok
radiost
radmann
radmannen
radmannens
rado
radon
radyr
raff
rag
raga
ragn
ragnar
ragnhild
raid
rain
rak
rakett
raketter
rakk
rakke
rakkestad
ral
rally
ram
ramme
rammeavtale
rammeb
rammebet
rammebetingelser
rammen
rammene
rammeplan
rammer
rammes
rammet
rammeverk
rammeverket
rammevilkar
ramp
ran
rana
rand
randi
random
ranet
rang
ranger
rangering
rangert
ranheim
rans
rant
rap
rapp
rapport
rapporten
rapportene
rapporter
rapportere
rapporterer
rapporteres
rapportering
rapportert
rapporterte
rar
rare
rart
ras
rase
rasen
rasende
raser
rasisme
rasjon
rasjonell
rasjonelle
rasjonelt
rask
raske
raskere
raskest
raskeste
raskt
rasmus
rasmussen
rast
raste
rastoff
rat
rate
rating
ratt
rattet
rau
raufoss
raus
rav
ravarer
ravn
raw
ray
raym
raymond
rb
rbk
rd
re
read
reading
reag
reager
reagere
reagerer
reagert
reagerte
reaksjon
reaksjonen
reaksjonene
reaksjoner
real
reale
realesc
realescort
realfag
realisere
realiseres
realisering
realisert
realistisk
realistiske
realitet
realiteten
reality
realkompetanse
rebe
rec
rece
record
records
red
redaksjon
redaksjonelle
redaksjonen
redakt
redaktør
redaktøren
redd
redde
redder
reddet
reddit
rede
redegj
redegjør
redegjøre
redegjørelse
reder
redig
rediger
redigere
redigering
redigert
redning
rednings
redsel
redskap
redskaper
redu
reduksjon
reduksjonen
redus
redusere
reduserer
reduseres
redusert
reduserte
reell
reelle
reelt
ref
refer
referans
referanse
referanser
referat
referent
referer
refererer
referert
refle
refleks
refleksjon
refleksjoner
reflekter
reflektere
reflekterer
reflektert
reform
reformasjonen
reformen
reformer
refusjon
reg
regel
regelen
regelmessig
regelmessige
regelverk
regelverket
regi
regime
regimet
region
regional
regionale
regionalt
regionen
regionene
regionens
regioner
regiss
regissør
regissøren
regist
register
registeret
registre
registrene
registrer
registrere
registrerer
registreres
registrering
registreringen
registreringer
registrerings
registrert
registrerte
regjer
regjerende
regjering
regjeringa
regjeringen
regjeringens
regjeringer
regjerings
regjeringspartiene
reglement
reglene
regler
regn
regne
regner
regnes
regnet
regning
regningen
regninger
regnskap
regnskapet
regnskaps
regnskapsfører
regnskog
regnvær
regul
regulator
reguler
regulere
regulerer
reguleres
regulering
reguleringen
reguleringer
regulerings
reguleringsplan
reguleringsplanen
regulert
rehabil
rehabiliter
rehabilitering
reid
reidar
rein
reind
reindrift
reis
reise
reisebyra
reisefølge
reiseliv
reisem
reisemal
reisen
reisende
reiser
reises
reist
reiste
rek
reker
rekk
rekke
rekkefølge
rekkefølgen
rekken
rekker
rekkevidde
rekkverk
reklam
reklamasjon
reklame
rekonstru
rekord
rekorden
rekre
rekreasjon
rekru
rekrutt
rekrutter
rekruttere
rekruttering
rekrutteringen
rekrutterings
rekruttert
rekt
rektor
rekvir
rekvis
rel
relasjon
relasjonen
relasjonene
relasjoner
relatert
relaterte
relativ
relative
relativt
rele
relevans
relevant
relevante
relig
religi
religion
religionen
religioner
religiøs
religiøse
religiøst
rem
rema
ren
rena
rencont
rencontre
rend
rene
renere
reness
reng
rengjør
rengjøre
rengjøres
rengjøring
rengjørings
renhold
renn
renne
renner
rennet
renovasjon
renover
rens
rense
renseanlegg
renser
renset
rensing
rent
rente
renten
renter
rep
repar
reparasjon
reparasjoner
reparere
reparert
reperto
repet
repeter
repetisjon
repetisjoner
repli
report
reportasje
reportasjer
reporter
repres
represent
representant
representanten
representantene
representanter
representantskap
representantskapet
representasjon
representativt
representere
representerer
representert
representerte
reproduksjon
reprodus
repub
republik
republikk
republikken
requ
res
rese
research
resepsjon
resepsjonen
resept
reseptfritt
reser
reserv
reservasjon
reserve
reserved
reserver
reservere
reservert
resirk
resolusjon
reson
resort
resour
resp
respe
respekt
respekter
respektere
respekterer
respektert
respektive
respon
respond
respondentene
respons
responsen
ressur
ressurs
ressursbruk
ressursen
ressursene
ressurser
ressurskrevende
rest
resta
restaur
restaurant
restauranten
restaurantene
restauranter
restaurer
restaurering
restaurert
resten
restene
rester
resterende
restitusjon
restri
restriksjoner
resul
result
resultat
resultatene
resultater
resultatet
resultere
resulterer
resultert
resulterte
ret
retning
retningen
retninger
retnings
retningslin
retningslinjene
retningslinjer
retor
retorikk
retro
rett
rette
retten
retter
rettes
rettet
rettferd
rettferdig
rettferdige
rettferdighet
rettighet
rettighetene
rettigheter
rettighets
rettighetshaver
retting
retts
rettsa
rettshjelp
rettslig
rettslige
rettss
rettssak
rettssaken
rettssikkerhet
retur
returen
return
returner
returnere
returnerer
returnert
returnerte
reuters
rev
rever
revers
revet
revid
revidert
reviderte
review
revis
revisjon
revisjonen
revisjoner
revisjons
revisor
revisors
revol
revolusjon
revolusjonen
revolusjoner
revolusjonerende
revolusjonære
revy
rey
rf
rh
rhf
ri
rib
ribbe
ric
rica
rich
richard
rid
ridder
ride
rif
rig
rigg
right
rights
riis
riise
rik
rikdom
rike
rikelig
rikere
rikeste
riket
riks
riksantik
riksantikvaren
rikshospitalet
riksrevisjon
riksrevisjonen
riksrevisjonens
rikst
riksvei
rikt
riktig
riktige
riktignok
rim
rimelig
rimelige
rimeligere
ring
ringe
ringen
ringer
ringerike
ringsaker
ringt
ringte
ringvirkninger
rio
rip
ris
risik
risikere
risikerer
risiko
risikoen
risikofaktorer
risikov
risikovurdering
risikovurderinger
risk
rist
riste
ristet
risør
rita
ritt
rittet
ritu
ritualer
riv
rive
river
rives
riving
rju
rjukan
ro
road
roald
roar
rob
robert
robin
robot
roboter
robust
robuste
rock
rocke
rod
roe
roen
roet
rog
rogaland
roger
rogn
roi
rol
rolf
rolig
rolige
roligere
roll
rolle
rollem
rollen
rollene
roller
rollespill
rom
roma
roman
romanen
romaner
romania
romant
romantikk
romantisk
romantiske
romer
romerike
romerne
romersk
romerske
romjul
rommene
rommer
rommet
roms
romsdal
romslig
ron
ronald
ronaldo
ronny
room
rop
rope
roper
ropte
ror
ros
rosa
rose
rosen
rosenborg
roser
ross
rost
rot
rotary
rotasjon
rote
roten
rotet
rotete
rotter
roulette
rov
rovdyr
rover
rovvilt
roy
royal
rs
rss
rt
ru
rub
rud
rug
ruinene
rukket
rul
rull
rulle
ruller
rullestol
rullet
rum
rumpa
rumpe
run
runar
rund
runde
runden
rundene
runder
rundet
rundskriv
rundt
rune
rus
rusav
rush
ruslet
rusmiddel
rusmidler
rusmis
russ
russe
russejenter
russer
russerne
russian
russisk
russiske
russland
russlands
rust
rustet
rustfritt
rut
ruta
rute
ruten
rutene
ruter
ruth
rutine
rutinemessig
rutinene
rutiner
ruud
rv
ry
ryan
ryd
rydde
rydder
ryddet
ryddig
rydding
rygg
rygge
ryggen
rykk
rykke
rykker
rykket
rykte
ryktene
rykter
ryn
rynker
ryt
rytm
rytme
rytter
ryttere
ræ
rø
røa
rød
røde
rødgrø
rødgrønne
rødt
rødvin
røe
røk
røm
rømme
rømnings
rømt
rønn
rønning
rønt
røntgen
røpe
rør
røre
rørende
rører
røret
rørlegger
røros
rørt
røst
røttene
røtter
røy
røyk
røyke
røyken
røyker
røyking
sa
saa
saaa
sab
sabot
sac
sad
sadan
sadd
safari
safe
safet
safety
safremt
saft
saftig
sag
saga
sagene
sagn
sagt
sahara
saint
sak
saka
sakalt
sakalte
sakarkiv
saken
sakene
sakens
saker
sakk
sakkynd
sakkyndig
sakkyndige
saklart
saklig
sakprosa
saks
saksbehandler
saksbehandling
saksbehandlingen
saksfram
saksliste
saksnr
saksøker
sakte
sal
salat
sale
saledes
salen
salg
salget
salgs
salm
salom
salong
salongen
salt
salten
saltvann
salv
sam
saman
samarbeid
samarbeide
samarbeider
samarbeidet
samarbeids
samarbeidsavtale
samarbeidspart
samarbeidspartner
samarbeidspartnere
samarbeidsprosjekt
samband
sambo
samboer
samboere
samboeren
same
sameier
sameiet
samene
samer
samet
sametinget
samferd
samferdsel
samferdsels
samferdselsdepartementet
samfunn
samfunnet
samfunnets
samfunns
samfunnsansvar
samfunnsfag
samfunnskunnskap
samfunnsmessig
samfunnsmessige
samfunnssikkerhet
samfunnsutvikling
samfunnsvitenskap
samfunnsøkonom
samfunnsøkonomisk
samhandle
samhandling
samhandlingsreformen
samhold
samisk
samiske
samla
samle
samlede
samleie
samler
samles
samlet
samling
samlingen
samlingene
samlinger
samliv
samlivsbrudd
samlok
samm
samme
sammen
sammendrag
sammenf
sammenheng
sammenhengen
sammenhengende
sammenhenger
sammenlagt
sammenlig
sammenlign
sammenlignbare
sammenligne
sammenligner
sammenlignes
sammenlignet
sammenligning
sammenlik
sammenlikne
sammenliknet
sammenlikning
sammens
sammensatt
sammensatte
sammensetning
sammensetningen
sammensl
sammensla
sammenslaing
sammenslaingen
sammenstøt
samord
samordnet
samordning
samrad
sams
samspill
samspillet
samsung
samsvar
samsvarer
samt
samtale
samtalen
samtalene
samtaler
samtid
samtidig
samtlige
samtykke
samtykker
samtykket
samuel
samvirke
samvitt
samvittighet
samvær
san
sand
sandberg
sande
sandefjord
sanden
sander
sandnes
sandness
sandnessjøen
sandra
sandvik
sandvika
sang
sangen
sangene
sanger
sanit
sanitet
sanitær
sank
sanksjon
sanksjoner
sann
sanne
sannelig
sanner
sannhet
sannheten
sannheter
sannsyn
sannsynlig
sannsynlighet
sannsynligheten
sannsynligvis
sanntid
sans
sanse
sansen
sansene
sanser
sant
santa
sap
sapass
sape
sar
sara
sarah
sarbar
sarbare
sarbarhet
sare
saret
sark
sarp
sarpsborg
sart
sas
sat
satan
satel
satellitt
sats
satse
satser
satset
satsing
satsingen
satsings
satsning
satt
satte
sau
saud
saudi
saue
sauer
sauna
saus
sausen
sav
savel
savidt
savn
savne
savner
savnet
sax
say
sb
sc
scan
scand
scandic
scandinav
scanpix
scanpixvis
scen
scenar
scenario
scene
scenekunst
scenen
scener
sch
sche
schib
schibsted
school
science
scient
sco
scooter
scor
score
scorer
scoret
scoring
scoringer
scott
scra
screen
screening
sd
se
sea
search
seattle
seb
sebast
sebastian
sec
second
secret
securit
security
sed
see
seere
seerne
sees
seg
seher
sei
seie
seier
seieren
seig
seiko
seil
seile
seiler
seilte
sein
seinare
seinere
seint
seir
seire
sek
sekk
sekken
sekret
sekretariat
sekretariatet
sekretær
seks
seksjon
seksjonen
seksjoner
seksual
seksualitet
seksuell
seksuelle
seksuelt
sektor
sektoren
sektorer
sekund
sekunder
sekundær
sekvens
sel
selbu
sele
self
selge
selger
selgere
selgeren
selges
selskap
selskapene
selskaper
selskapet
selskapets
selv
selvang
selvbilde
selve
selveste
selvfor
selvfølelse
selvfølge
selvfølgelig
selvhjelp
selvmord
selvom
selvsagt
selvstendig
selvstendige
selvstendighet
selvtil
selvtillit
selvtilliten
sem
sement
semester
semesteret
semi
semifin
semifinale
semifinalen
semin
seminar
seminarer
seminaret
sen
send
sende
sender
sendes
sending
sendt
sendte
sene
senere
senest
seneste
seng
senga
senge
sengen
senger
sengetøy
sengs
seni
senior
seniord
seniorer
seniorradgiver
senja
senke
senker
senket
sens
sensasjon
sensitiv
sensitive
sensor
sensorer
sensuell
sensur
sent
senter
senteret
senterpartiet
sentr
sentral
sentralban
sentralbyra
sentrale
sentralstyret
sentralt
sentre
sentrene
sentrum
seo
seog
seoghør
sep
separ
separasjon
separat
separate
sept
septem
september
ser
serb
serbia
seremon
seri
serie
seriem
serien
seriene
serier
series
seriøs
seriøse
seriøst
sertif
sertifik
sertifikat
sertifisering
sertifisert
sertifiserte
serum
serv
server
servere
serveren
serverer
serveres
servering
serverings
servert
serverte
servi
servic
service
servicen
services
servit
ses
sesjon
sesong
sesongen
sesongene
sesongens
sesonger
sesongstart
sess
set
sete
seter
setesdal
setet
setning
setningen
setninger
sett
sette
setter
settes
settet
setting
sev
sever
severd
severdighetene
severdigheter
sex
sexannonser
sexchat
sexdate
sexdating
sexfilmer
sexkontakt
sexle
sexleketøy
sexshop
sexstillinger
sext
sextreff
sexy
sf
sfo
sh
sha
shad
shakes
shakespe
shang
shanghai
shar
share
sharepoint
she
shell
shem
shemale
sher
shi
shipping
sho
shop
shopp
shoppe
shopping
short
shorts
show
showet
si
sicil
sid
sida
sidan
side
side2
siden
sidene
sider
sidesp
sidest
siem
siemens
sier
sies
sig
sigar
sigaretter
sight
sightseeing
sigmund
sign
signal
signalene
signaler
signatur
signe
signer
signere
signert
signerte
signif
signifikant
sigrid
sigurd
sik
sikk
sikker
sikkerhet
sikkerheten
sikkerhets
sikkerhetskop
sikkerhetstiltak
sikkert
sikre
sikrede
sikrer
sikrere
sikres
sikret
sikring
sikrings
sikt
sikte
siktede
sikter
siktet
sil
sild
sildenafil
silikon
silje
silke
silver
sim
simen
simon
simonsen
simp
simpelt
simpelthen
simple
sims
sin
sindre
sine
sing
singap
singapore
singel
singelen
single
singler
singles
sink
sinn
sinne
sinnet
sinnsykt
sint
sinte
sintef
sir
siri
sirk
sirkel
sirkler
sirkulasjon
sirkus
sis
sissel
sist
siste
sistnevnte
sit
sitat
sitater
sitatet
site
sites
sitron
sitt
sitte
sittende
sitteplasser
sitter
sittet
situ
situasjon
situasjonen
situasjonene
situasjoner
siv
sivert
sivertsen
sivil
sivile
sivilingeniør
sivilis
sivilisasjon
six
size
sizeg
sizegenet
sizegenetics
sj
sja
sjafør
sjaføren
sjafører
sjakk
sjal
sjalu
sjalus
sjalusi
sjang
sjanger
sjangere
sjangeren
sjangre
sjans
sjanse
sjansen
sjansene
sjanser
sjarm
sjarmerende
sje
sjef
sjefen
sjekk
sjekke
sjekker
sjekkes
sjekkesider
sjekket
sjekketriks
sjekking
sjekkliste
sjel
sjeld
sjelden
sjeldent
sjeldne
sjeldnere
sjele
sjelen
sjeler
sjelevenn
sjen
sjener
sjenert
sjette
sjo
sjokk
sjokker
sjokkert
sjokol
sjokolade
sju
sjuende
sjuk
sjuke
sjø
sjøen
sjøfart
sjøfolk
sjøfugl
sjøk
sjøl
sjølv
sjølve
sjølvsagt
sjømann
sjømat
sjør
sjøs
sjøørret
sk
ska
skad
skadd
skadde
skade
skadedyr
skadelig
skadelige
skaden
skadene
skader
skadet
skaff
skaffe
skaffer
skaffet
skagen
skager
skal
skala
skalaen
skall
skallet
skam
skamløs
skamløse
skand
skandale
skandinav
skandinavia
skandinavisk
skandinaviske
skans
skap
skape
skapende
skaper
skapes
skapet
skapt
skapte
skar
skarer
skaret
skarp
skarpe
skarpt
skate
skatt
skatte
skattebet
skatteetaten
skattek
skattel
skattem
skatten
skatter
skattes
skav
skavlan
ske
sked
skedsmo
skei
skeiv
skeive
skeps
skepsis
skept
skeptisk
skeptiske
ski
skib
skien
skiene
skif
skifer
skift
skifte
skiftende
skifter
skiftes
skiftet
skik
skikk
skikkelig
skikkelige
skikker
skikket
skil
skildrer
skill
skille
skiller
skilles
skillet
skilsm
skilsmisse
skilt
skilte
skiltet
skilting
skiløpere
skiløy
skim
skin
skinn
skinne
skinnende
skinner
skinnet
skip
skipene
skipet
skipper
skips
skis
skisk
skiskyting
skiskytter
skiss
skisse
skisser
skist
skit
skitne
skitt
skitten
skittent
skive
skiver
skj
skje
skjeb
skjebne
skjebnen
skjed
skjedd
skjedde
skjede
skjeden
skjegg
skjel
skjelett
skjell
skjem
skjema
skjemaer
skjemaet
skjen
skjenke
skjenkebevil
skjenkebevilling
skjenket
skjer
skjerf
skjerm
skjermen
skjermer
skjermet
skjerpe
skjerpet
skjerv
skjev
skjevheter
skjold
skjorte
skjorter
skjul
skjule
skjuler
skjult
skjulte
skjær
skjære
skjærer
skjæring
skjø
skjønn
skjønne
skjønner
skjønnhet
skjønnheten
skjønnlitter
skjønnlitteratur
skjønt
skjønte
skjør
skjørt
skjørtet
skjøt
skjøte
skjøtsel
skli
sko
skod
skoen
skoene
skog
skogbruk
skoge
skogen
skoger
skogs
skol
skole
skolear
skolearet
skoledag
skoleeier
skolegang
skolem
skolen
skolene
skolens
skoler
skolestart
skolet
skolev
skom
skor
skot
skotske
skott
skottland
skr
skra
skran
skrap
skrav
skre
skred
skredder
skreddersy
skreddersydd
skreddersydde
skrek
skrekk
skrem
skremme
skremmende
skremt
skrev
skrevet
skri
skrib
skrift
skriften
skrifter
skriftlig
skriftlige
skrik
skriker
skritt
skrittet
skriv
skrive
skrivebord
skrivebordet
skrivende
skriver
skrives
skriving
skro
skru
skrudd
skruer
skrur
skry
skryt
skryte
skryter
sku
skudd
skuddet
skuesp
skuespill
skuespiller
skuespillere
skuespilleren
skuespillerne
skuff
skuffelse
skuffende
skuffer
skuffet
skul
skulder
skulderen
skuldre
skuldrene
skule
skulen
skulle
skullerud
skulpt
skulptur
skum
skumle
skummelt
skur
skutt
skv
sky
skyene
skyer
skygge
skyggen
skygger
skyl
skyld
skylde
skylden
skylder
skyldes
skyldig
skyldtes
skype
skys
skysc
skyscanner
skyss
skyt
skyte
skyter
skyting
skytter
skyve
skøyen
skøyt
skøyte
skøyter
sl
sla
slag
slaget
slagord
slags
slakt
slakte
slakter
slaktet
slam
slan
slang
slange
slanger
slank
slanke
slapp
slappe
slapper
slappet
slar
slas
slass
slatt
slav
slave
slaver
sle
slekt
slekten
slektning
slektninger
slem
sleng
slenge
slenger
slep
slet
slett
slette
sletter
slettes
slettet
sletting
sli
slik
slike
slikke
slikker
slikt
slim
slimh
slip
slipp
slippe
slipper
slippes
slit
slitasje
slite
sliten
sliter
slitne
slitsomt
slitt
slo
slot
slots
slott
slottet
sloven
slu
sluk
sluppet
slur
slutt
sluttbruker
slutte
slutten
slutter
sluttet
sluttrapport
sluttresultatet
sluttspill
sluttspillet
sluttvederlag
slyn
sløy
sløyfe
sm
sma
smab
smabarn
smabru
smag
smak
smake
smaken
smaker
smaks
smakt
smakte
smal
smale
smalere
small
smalt
smap
smar
smart
smarte
smartere
smartt
smarttelefon
smarttelefoner
smas
smating
smatt
sme
smed
smell
smelt
smelte
smelter
smeltet
smer
smert
smerte
smerten
smertene
smerter
smertestillende
smidig
smil
smile
smilende
smiler
smilte
sminke
smith
smitt
smitte
smitter
smittet
smittevern
smooth
sms
smug
smule
smuss
smy
smykke
smykker
smør
smøre
sn
sna
snacks
snakk
snakke
snakker
snakkes
snakket
snap
snapchat
snar
snarere
snarest
snart
sne
snekker
snev
snik
snike
snill
snille
snitt
snittet
snor
snork
snorre
snow
snowboard
snu
snub
snudd
snudde
snur
snus
snø
snød
snøen
snøk
snør
snøs
snøsco
snøscooter
so
soc
social
society
sof
sofa
sofaen
sofia
sofie
sofistik
soft
software
sog
sogn
sogndal
sogne
sok
soker
sokkel
sokker
sokn
sol
sola
solar
solberg
solbr
solbriller
solcelle
sold
soldat
soldaten
soldatene
soldater
sole
solen
solgt
solgte
solheim
solid
solidaritet
solide
solli
sollys
solned
solnedgang
solo
solskinn
solutions
solveig
solvik
som
somal
somalia
some
somm
sommar
sommer
sommeren
sommerens
sommerferie
sommerferien
sommerfugler
sommert
son
sondre
sone
sonen
soner
song
soning
sonja
sony
sop
soph
sophie
sopp
sor
sorg
sorgen
sorry
sort
sorte
sorter
sortere
sortering
sortert
sortiment
sortimentet
sortland
sos
sosi
sosial
sosialdemokrat
sosiale
sosialhjelp
sosialis
sosialistisk
sosialt
sosio
sosiologi
sot
soul
sound
sour
source
sout
south
sov
sove
sover
soverom
soverommet
sovet
sovjet
sovjetiske
sovjetun
sovjetunionen
sovnet
soy
soya
sp
spa
space
spad
spalt
spalte
spam
span
spand
spania
spanj
spann
spansk
spanske
spar
spare
spareb
sparebank
sparebanken
sparer
sparing
spark
sparke
sparken
sparket
spart
spas
spasert
spasertur
spe
spec
special
sped
spedbarn
speed
speid
speider
speil
speilet
spek
speke
spekt
spektak
spektakulære
spekter
spektrum
spekul
spekulasjoner
spel
spelle
spellemann
spen
spenn
spennende
spenner
spenning
spenningen
spenninger
spennings
spent
spente
sper
sperre
sperret
spes
spesi
spesial
spesialenheten
spesialiserer
spesialisering
spesialisert
spesialiserte
spesialist
spesialister
spesialisthelset
spesialisthelsetjenesten
spesialitet
spesialpedagog
spesialt
spesialtil
spesialundervisning
spesiell
spesielle
spesielt
spesif
spesifikasjon
spesifikasjoner
spesifikk
spesifikke
spesifikt
spesifisert
spi
spik
spiker
spil
spill
spille
spilleautom
spilleautomat
spilleautomaten
spilleautomater
spillem
spillene
spiller
spillere
spilleren
spillerne
spilles
spillet
spilletid
spillets
spilling
spillopp
spilt
spilte
spin
spinn
spins
spion
spir
spiral
spire
spirit
spis
spise
spiseforstyrrelser
spiser
spises
spisest
spisesteder
spiss
spisse
spissen
spist
spiste
spli
splitt
splitter
splittet
spon
spons
sponset
sponsor
sponsorer
spont
spontan
spontant
spor
spore
sporene
sporet
sporing
sport
sporten
sports
sportslig
sportslige
sporty
spot
spotify
spr
spra
sprak
spraket
sprakk
spraklig
spraklige
sprang
spray
spre
spred
spredd
spredning
spredt
spredte
spreke
sprekker
spreng
sprengt
sprer
spres
spring
springer
sprint
sprit
sprut
sprute
sprø
sprøy
sprøyte
sprøyter
spur
spurt
spurte
spy
spyd
spøk
spør
spørre
spørreskjema
spørreundersøkelse
spørreundersøkelsen
spørreundersøkelser
spørs
spørsmal
spørsmalene
spørsmalet
spørsmalstegn
squ
square
sr
sri
ss
ssb
st
sta
stab
stabelen
staben
stabil
stabile
stabilisere
stabilitet
stabilt
stabæk
stad
staden
stadier
stadiet
stadig
stadige
stadighet
stadion
stadium
staende
stafett
staff
stakk
stakkars
stal
stale
stalin
stall
stallen
stam
stamme
stammen
stammer
stan
stand
standard
standardbest
standardbestselgerenavn
standarden
standardene
standarder
standardisering
standardisert
standardiserte
standpunkt
stands
stang
stange
stans
stanse
stanser
stanset
stapp
star
start
starta
starte
starten
starter
startes
startet
startsiden
stas
stasjon
stasjonen
stasjonene
stasjoner
stasjonære
stast
stasted
stat
state
staten
statene
statens
stater
states
statisk
statist
statistikk
statistikken
statistisk
statistiske
stativ
statkraft
statlig
statlige
statnett
statoil
stats
statsb
statsborg
statsborger
statsborgere
statsborgerskap
statsbudsjett
statsbudsjettet
statsbygg
statsminister
statsministeren
statsrad
statsraden
statssekretær
statt
status
statusen
stav
stavanger
staver
stavern
stay
ste
steam
stearin
stearinlys
sted
stede
stedene
steder
stedet
stedfort
stedfortreder
stedsnavn
steel
steen
stefan
steffen
steg
steget
stein
steinar
steinen
steinene
steiner
steink
steinkjer
stek
steke
stekt
stell
stella
stelle
stem
stemm
stemme
stemmeber
stemmen
stemmene
stemmer
stemmerett
stemning
stemningen
stemnings
stemp
stempel
stemplet
stemt
stemte
sten
stener
steng
stenge
stenger
stenges
stengt
stengte
stens
step
steph
stephen
ster
stere
stereot
steril
sterk
sterke
sterkere
sterkest
sterkeste
sterkt
stero
steroider
stev
steve
steven
stevne
stevner
stevnet
sti
stian
stien
stier
stift
stifte
stiftelse
stiftelsen
stiftet
stig
stige
stigende
stiger
stigmat
stigning
stik
stikk
stikke
stikker
stikkont
stikkord
stil
stilen
stiler
stilig
stilige
still
stillas
stille
stillehavet
stiller
stilles
stillhet
stilling
stillingen
stillingene
stillinger
stillings
stilt
stilte
stim
stimulere
stimulerende
stimulerer
stimulering
stine
sting
stipend
stipendiat
stir
stiv
stive
stj
stjal
stjalet
stjel
stjele
stjeler
stjer
stjerne
stjernen
stjernene
stjerner
stjerners
stjør
stjørdal
stk
sto
stock
stockholm
stod
stoff
stoffene
stoffer
stoffet
stok
stokk
stokke
stol
stole
stolen
stoler
stolpe
stolt
stolte
stolten
stoltenberg
stolthet
stone
stop
stopp
stoppe
stopper
stoppet
stor
storb
storbrit
storbritann
storbritannia
storby
storbyen
stord
store
storeb
storebrand
storebror
stores
storesøster
storfe
storhamar
storhet
storko
storm
stormen
storslatt
stort
storting
stortinget
stortingets
stortings
stortingsm
stortingsmelding
stortingsrepresent
stortingsrepresentant
stortingsvalget
story
str
stra
straff
straffbare
straffbart
straffe
straffeloven
straffen
straffer
straffes
straffet
strake
straks
stral
strale
stralende
straler
straling
stram
stramme
stramt
strand
stranda
stranden
strap
strapon
strat
strateg
strategi
strategien
strategier
strategisk
strategiske
stre
stream
streaming
street
streik
strek
streken
strekk
strekke
strekker
strekning
strekningen
strekninger
stren
strendene
strender
streng
strenge
strengere
strengt
stress
stresse
stressende
stresset
stret
strev
strever
stri
strid
striden
strider
strikk
strikke
strikker
strikkes
strikket
strikking
stripe
striper
stripper
stro
strong
stru
struktur
strukturelle
strukturen
strukturer
strukturert
stry
stryke
strø
strøk
strøket
strøm
strømm
strømme
strømmen
strømmer
strømmet
strømp
strømper
strømsgodset
stu
stua
stud
student
studenten
studentene
studentenes
studenter
studer
studere
studerer
studert
studerte
studi
studie
studiear
studiekompetanse
studiel
studien
studiene
studiepoeng
studier
studies
studiest
studiet
studietilbud
studio
studioet
studios
studium
study
stue
stuen
stukket
stum
stund
stunder
stunt
stup
stupe
stur
sty
stygg
stygge
stygt
stykk
stykke
stykker
stykket
style
styling
styr
styre
styreleder
styrem
styremedlem
styremedlemmene
styremedlemmer
styremøte
styremøter
styrende
styrer
styres
styresak
styrescore
styret
styrets
styring
styringen
styrings
styringsgruppen
styrke
styrken
styrkene
styrker
styrkes
styrket
styrketrening
styrking
styrt
styrte
stø
stødig
støl
stønad
stønn
støp
støpe
støpt
stør
støre
størr
større
størrelse
størrelsen
størrelser
størrelses
størst
største
støt
støter
støtt
støtte
støttem
støtten
støttende
støtteordninger
støtter
støttes
støttespiller
støttespillere
støttet
støv
støvet
støvler
støvs
støy
su
sub
subje
subjektive
subsid
subst
substant
subt
sud
sudan
sug
sugar
suge
suger
suite
sukk
sukker
suks
suksess
suksessen
sul
sult
sulten
sultne
sum
summ
summen
summer
sun
sund
sundby
sunde
sunget
sunket
sunn
sunndal
sunne
sunnere
sunnmøre
sunt
sup
super
superh
superhost
supers
supert
superverter
supp
suppe
supplement
suppler
supplere
supplerende
support
supporter
supportere
sur
sure
surf
surfe
surt
sus
susanne
sushi
suspen
sut
suv
suver
suveren
suverene
suverent
suz
sv
sva
svak
svake
svakere
svakeste
svakhet
svakheter
svakt
svalb
svalbard
svanger
svangerskap
svangerskapet
svar
svare
svarene
svarer
svaret
svart
svarte
sve
svein
sveinmain
sveis
sveise
sveits
sveitsiske
svekke
svekker
svekkes
svekket
svel
svelge
sven
svend
svendsen
svensk
svenske
svenskene
svensker
sver
sverd
sverdrup
sverige
sveriges
sverre
svett
svette
svi
svig
sviger
svigerinne
svigermor
svigers
svik
svikt
sviktende
svikter
sviktet
svimmel
svimmelhet
svin
svind
svindel
svine
svinekjøtt
sving
svinge
svingen
svinger
svingninger
svir
svol
svolvær
svov
svs
svul
svære
svært
svø
svømme
svømmeb
svømmebasseng
svømmer
svømming
sw
swe
swed
sweden
swedish
sweet
swing
swinger
swingers
sy
syd
sydd
syden
sydney
syk
sykdom
sykdommen
sykdommene
sykdommer
syke
sykefravær
sykefraværet
sykehjem
sykehjemmet
sykehu
sykehus
sykehusene
sykehuset
sykelig
sykepenger
sykeple
sykepleie
sykepleier
sykepleiere
sykk
sykkel
sykkelen
sykkelt
sykkeltur
sykl
sykle
syklene
sykler
syklet
sykling
syklister
syklus
sykt
syl
sylin
syltet
syltetøy
sylvi
symb
symbol
symboler
symbolet
symbolsk
symf
symmet
symp
sympati
symptom
symptomene
symptomer
syn
synd
synde
synden
synder
syndrom
syne
syner
synes
synet
synge
synger
synke
synker
synkron
synlig
synlige
synliggjør
synliggjøre
synlighet
synn
synne
synnøve
synon
synonym
synonymer
syns
synspunkt
synspunkter
syntes
syntet
syr
syre
syria
syriske
syssel
syssels
sysselsatte
sysselsetting
sysselsettingen
system
systemat
systematisk
systematiske
systemene
systemer
systemet
systems
syv
syvende
sæ
sæd
sær
særav
særdeles
sære
særegen
særegne
særleg
særlig
særlige
særpreg
særskilt
særskilte
sært
sæter
sæther
sætre
sø
søgne
søk
søke
søkelys
søkelyset
søkemot
søkemotor
søkemotoren
søkemotorene
søkemotorer
søkemotoroptimalisering
søken
søkeord
søker
søkere
søkeren
søkeresult
søkerne
søkes
søket
søknad
søknaden
søknadene
søknader
søknadsfri
søknadsfrist
søknadsskjema
søks
søksmal
søkt
søkte
søl
sølv
søm
søn
sønd
søndag
søndagen
søndagens
søndager
søndre
sønn
sønnen
sønnene
sønner
søpp
søppel
sør
søre
søren
sørensen
sørg
sørge
sørger
sørget
sørk
sørland
sørlandet
sørlige
sørover
sørum
sørvest
sørøst
søsken
søster
søsteren
søstre
søstrene
søt
søte
søtt
søvn
søy
ta
tab
tabell
tabellen
tabellene
tabeller
tabl
tablet
tabletter
tabu
taco
tadal
tadalafil
tag
tags
tai
tak
take
taket
takk
takke
takker
takket
takknem
takknemlig
takknemlige
takknemlighet
takle
takler
taks
takst
takt
takter
taktikk
taktisk
tal
tale
talen
talent
talenter
taler
talet
talib
taliban
talk
tall
tallene
taller
tallerken
tallet
tallets
talls
talmod
talmodig
talmodighet
talsmann
talsperson
talt
talte
tam
tamil
tampen
tan
tana
tang
tangen
tank
tanke
tankegang
tanken
tankene
tanker
tankes
tann
tannhelse
tannlege
tannlegen
tannleger
tant
tante
tantra
tantric
tantrisk
tanz
tanzania
tap
tapas
tape
taper
tapet
tapt
tapte
tar
tare
tarene
tarer
tariff
tariffavtale
tarm
tarmen
tarn
tarnet
tas
tast
tastatur
tastaturet
taste
tasten
tastet
tat
tatover
tatt
tau
taus
taushet
taushetsplikt
tav
tax
taxi
taylor
tb
td
te
tea
teach
team
teamet
teat
teater
teaters
teatret
tech
techn
technology
teen
teg
tegl
tegn
tegne
tegnene
tegner
tegnes
tegneser
tegneserie
tegneserier
tegnet
tegning
tegningen
tegningene
tegninger
tegnsprak
tek
tekn
teknikk
teknikken
teknikkene
teknikker
teknisk
tekniske
teknolog
teknologi
teknologien
teknologier
teknologisk
teknologiske
tekst
teksten
tekstene
tekster
tekstil
tekstiler
tel
tele
telef
telefon
telefonen
telefoner
telefoni
telefonnummer
teleg
telem
telemark
telen
telenor
telesex
tell
telle
teller
telling
telt
teltet
tem
tema
temaene
temaer
temaet
tematikken
temmelig
temp
tempel
tempelet
temper
temperatur
temperaturen
temperaturer
template
tempo
tempoet
ten
tenar
tenarene
tenaring
tenaringer
tenarings
tend
tendens
tendensen
tendenser
tene
tenk
tenke
tenkelige
tenker
tenkes
tenkning
tenkt
tenkte
tenn
tenne
tennene
tenner
tennis
tent
tente
teologi
teologiske
teor
teoret
teoretisk
teoretiske
teori
teorien
teorier
teppe
tepper
teppet
ter
terapeut
terapi
terje
term
termin
terminal
terning
terningkast
terr
terra
terrasse
terrassen
terreng
terrenget
territ
territorium
terror
terrorangrep
terrorisme
terrorister
tersk
terskel
terskelen
tert
tertial
tes
tesla
test
testament
testamente
testamentet
teste
testen
testene
tester
testes
testet
testing
testoster
testosteron
tet
tett
tette
tettere
tetthet
tettsted
tettsteder
tex
texas
text
th
tha
thai
thailand
thailandske
thaim
thaimassasje
than
that
the
thea
their
them
then
ther
there
theres
therese
these
they
thing
things
think
third
this
thom
thomas
thon
thor
thorbjørn
thoresen
thro
through
ti
tiar
tiarene
tiaret
tibet
tic
ticket
tid
tida
tide
tiden
tidende
tidene
tidenes
tidens
tider
tidkrevende
tidleg
tidlegare
tidlig
tidlige
tidligere
tidligst
tidligste
tids
tidsbegrens
tidsbruk
tidsperiode
tidsplan
tidspunkt
tidspunktet
tidsrom
tidsrommet
tidssk
tidsskrift
tidsskrifter
tidsskriftet
tidvis
tiende
tig
tiger
tights
til
tilb
tilbak
tilbake
tilbakebet
tilbakebetaling
tilbakeblikk
tilbakefall
tilbakehold
tilbakemelding
tilbakemeldingene
tilbakemeldinger
tilbaket
tilbehør
tilber
tilbered
tilbrakt
tilbrakte
tilbringe
tilbringer
tilbud
tilbudene
tilbudet
tilbudt
tilby
tilbyd
tilbyder
tilbydere
tilbygg
tilbyr
tilbys
tilbød
tilbøy
tildel
tildele
tildeles
tildeling
tildelingen
tildelings
tildelt
tildelte
tilegne
tilegnet
tilf
tilfeld
tilfeldig
tilfeldige
tilfeldighet
tilfeldigheter
tilfeldigvis
tilfelle
tilfellene
tilfeller
tilfellet
tilflukt
tilfred
tilfreds
tilfredshet
tilfredsstil
tilfredsstill
tilfredsstille
tilfredsstillende
tilfredsstiller
tilføre
tilfører
tilføres
tilførsel
tilført
tilgang
tilgangen
tilgi
tilgivelse
tilgjeng
tilgjengelig
tilgjengelige
tilgjengelighet
tilgjengeligheten
tilh
tilhenger
tilhengere
tilhold
tilhør
tilhøre
tilhørende
tilhører
tilhørighet
tilhørte
tilkn
tilknyt
tilknytning
tilknyttede
tilknyttet
tilkob
tilkoblet
tilkobling
till
tillagt
tillat
tillate
tillatelse
tillatelsen
tillatelser
tillater
tillates
tillatt
tillegg
tillegges
tillegget
tilleggs
tiller
tillit
tilliten
tillits
tillitsvalg
tillitsvalgt
tillitsvalgte
tillot
tilnær
tilnærm
tilnærmet
tilnærming
tilnærmingen
tilnærminger
tilp
tilpas
tilpasning
tilpasninger
tilpass
tilpasse
tilpassede
tilpasser
tilpasses
tilpasset
tilrad
tilreisende
tilrett
tilrettelagt
tilretteleg
tilrettelegge
tilrettelegger
tilrettelegges
tilrettelegging
tils
tilsagn
tilsammen
tilsatt
tilsatte
tilsendt
tilsetnings
tilsett
tilsette
tilsettes
tilsetting
tilsi
tilsier
tilsk
tilsku
tilskudd
tilskuddet
tilskuere
tilsl
tilslutning
tilslutt
tilsluttet
tilstand
tilstanden
tilstander
tilstede
tilstedeværelse
tilstre
tilstrekkelig
tilstrekkelige
tilsvar
tilsvarende
tilsvarer
tilsyn
tilsynelat
tilsynelatende
tilsynet
tilsyns
tilsynsmynd
tilt
tiltak
tiltakene
tiltaket
tiltaks
tiltakshaver
tiltale
tiltalt
tiltalte
tiltre
tiltrekke
tiltrekker
tiltrekning
tiltrukket
tilværelse
tilværelsen
tim
time
timelønn
timen
timene
timer
timers
times
tin
tina
tinder
tine
ting
tingen
tingene
tinglys
tingrett
tingretten
tinn
tip
tipp
tippelig
tippeligaen
tipper
tipping
tips
tipsene
tipset
tir
tirsdag
tis
tispe
tiss
tisse
tit
titalls
titan
title
titler
tits
titt
titte
tittel
tittelen
titter
tittet
tiv
tj
tja
tjen
tjene
tjener
tjenest
tjeneste
tjenesteleverand
tjenestem
tjenestemann
tjenestemenn
tjenesten
tjenestene
tjenestepensjon
tjenester
tjenestet
tjenestetilbud
tjenestetilbudet
tjenesteyting
tjent
tjente
tju
tjue
tjø
tk
tl
tlf
tm
tns
to
toal
toalett
toaletter
toalettet
tob
tobakk
tobias
tod
today
tog
toget
tok
tokyo
tol
toler
toleranse
tolk
tolke
tolker
tolkes
tolket
tolkning
tolkninger
toll
tolv
tom
tomas
tomat
tomater
tomm
tomme
tommel
tommer
tommy
tomt
tomta
tomte
tomten
tomter
ton
tone
tonen
toner
tonje
tonn
tony
too
tool
top
topp
toppen
toppene
topper
toppet
toppidrett
toppleder
toppløs
topps
toppscorer
topptur
tor
torbjørn
tord
torden
tore
torg
torgeir
torger
torgersen
torget
toronto
torp
torsdag
torsk
torstein
tort
tortur
torv
tos
tot
total
totale
totalt
toten
totten
tottenham
touch
tour
tov
tove
tower
town
toy
toyota
tr
tra
track
trad
trade
traden
tradene
trader
tradisjon
tradisjonell
tradisjonelle
tradisjonelt
tradisjonen
tradisjoner
tradisjonsrike
tradløs
tradløse
tradløst
tradte
traf
traff
trafik
trafikk
trafikken
trafikksikkerhet
trag
tragisk
tragiske
trail
trailer
traine
training
trak
trakassering
trakk
trakke
trakket
trakt
traktor
tramp
tran
trang
trange
trangt
tranny
trans
transa
transaksjon
transaksjonen
transaksjoner
transform
transformasjon
transl
transp
transpar
transpersoner
transport
transporten
transporter
transportere
transportplan
transportsentre
transseks
trapp
trappa
trappe
trappen
trappene
trapper
trappet
trase
traseen
trass
traum
traumer
trav
travel
travelt
travle
tre
tred
tredje
tredjed
tredjedel
tredjepart
tredjeparter
tredjeparts
tredjeplass
treet
treff
treffe
treffer
treffes
treg
trek
trekant
trekk
trekke
trekker
trekkes
trekket
trekningen
trelast
trem
tren
trend
trenden
trendene
trender
trendy
trene
trener
trenere
treneren
trenerne
trenes
treng
trenge
trenger
trengs
trengt
trengte
trening
treningen
treningene
treninger
trenings
treningssenter
treningsstudio
treningsø
treningsøkt
treningsøkter
trent
trente
trer
tres
trett
tretten
tretthet
tretti
treverk
tri
triana
triat
tribun
tribunen
trig
trigger
triks
tril
trille
trillet
trim
trin
trine
trinn
trinnene
trinnet
trio
trip
tripad
tripadvisor
trist
triste
trium
triv
trivelig
trivelige
trives
trivsel
tro
trodd
trodde
troen
troende
trofast
trofaste
trofe
trol
trolig
troll
trom
tromm
trommer
troms
tromsø
tron
trond
trondheim
trondhjem
tronen
trop
tropiske
tropp
troppen
tropper
tror
tros
tross
trossamfunn
troverdig
troverdige
troverdighet
tru
truck
trude
true
truende
truer
truet
truffet
trukket
truls
trump
trumps
trur
truse
truser
trusler
trussel
trusselen
trust
trutt
try
tryg
trygd
trygde
trygg
trygge
tryggere
trygghet
tryggheten
trygt
trygve
trykk
trykke
trykkende
trykker
trykket
trykt
trykte
tryl
trynet
trysil
træ
trær
trærne
trø
trøbbel
trøkk
trønd
trøndelag
trønder
trøst
trøste
trøtt
ts
tsar
tsjekk
tsjekkia
tt
tu
tub
tube
tuber
tuberkul
tuberkulose
tul
tull
tum
tumblr
tun
tunet
tung
tunge
tungen
tungt
tunis
tunn
tunnel
tunnelen
tunneler
tur
turbo
turbul
turen
turene
turer
turid
turisme
turist
turistattra
turistattraksjoner
turistene
turister
turk
turn
turne
turner
turnering
turneringen
turneringer
turnus
turt
turte
tus
tusen
tusener
tusenvis
tut
tv
tv2
tv3
tvang
tvangs
tvangsekteskap
tve
tved
tvedt
tveit
tver
tverr
tverrfaglig
tverrfaglige
tvers
tvert
tvil
tviler
tvilling
tvilsomme
tvilsomt
tving
tvinge
tvinger
tvinges
tvist
tvister
tvnorge
tvungen
tvunget
tw
twe
twh
twin
twitter
two
ty
tyde
tydelig
tydelige
tydeligere
tydeliggjøre
tydeligvis
tyder
tygge
tykk
tykke
tykkelse
tykkere
tykt
tyn
tyng
tyngde
tyngre
tynn
tynne
tynnere
tynset
tynt
typ
type
typen
typene
typer
typisk
typiske
tyr
tyrk
tyrkia
tyrkisk
tyrkiske
tysk
tyske
tysker
tyskere
tyskerne
tyskland
tysklands
tyve
tyver
tyveri
tærne
tø
tøff
tøffe
tøffere
tøffeste
tøft
tøm
tømme
tømmer
tømt
tønn
tønsberg
tør
tørk
tørke
tørker
tørket
tørr
tørre
tørt
tøy
tøyen
uaksept
uakt
uan
uans
uansett
uav
uavgjort
uavhengig
uavhengige
uavhengighet
ub
ubalanse
ube
ubegrens
ubegrenset
ubeh
ubehag
ubehagelig
ubehagelige
uber
ubes
ubet
ubetinget
ubetydelig
ubevisst
ubru
ubrukelig
ud
udi
ue
uefa
uen
uend
uendelig
uendelige
uendret
uenig
uenige
uenighet
uer
uf
ufarlig
ufatt
ufattelig
uff
ufor
uforgle
uforglemmelig
uforhold
uform
uformell
uformelle
uforplikt
uforpliktende
uforsta
uforut
uforutsette
uforutsig
ufrivil
ufrivillig
ufull
ufør
uføre
uførepensjon
uføret
uføretrygd
ug
uganda
ugress
ugyldig
uh
uheldig
uheldige
uhell
uhyre
uib
uinteress
uio
uis
uit
uje
ujevn
uk
uka
ukas
uke
ukeblad
uken
ukene
ukens
ukentlig
ukentlige
uker
ukers
ukes
ukjent
ukjente
uklar
uklare
uklart
ukom
ukra
ukraina
ukrainske
ul
ule
ulemp
ulempe
ulempen
ulempene
ulemper
ulf
ulik
ulike
ulikhet
ulikheter
ulikt
ull
ullen
ullensaker
uller
ullern
ullev
ulleval
ulov
ulovlig
ulovlige
ulstein
ult
ultim
ultimate
ultra
ultral
ultralyd
ulv
ulve
ulven
ulver
uly
ulykke
ulykken
ulykker
ulykkes
um
umb
umiddel
umiddelbar
umiddelbare
umiddelbart
umu
umulig
umulige
un
una
unaturlig
und
under
undergra
underhold
underholde
underholdende
underholdning
underholdnings
underkant
underlag
underlaget
underlagt
underleverandører
underlig
underliggende
underliv
underlivet
underord
undersiden
underskrift
underskudd
understre
understreke
understreker
understrekes
understreket
undersø
undersøk
undersøke
undersøkelse
undersøkelsen
undersøkelsene
undersøkelser
undersøkelses
undersøker
undersøkes
undersøkt
undersøkte
undert
undertegnede
undertegnet
undertry
undertrykk
undertøy
undervann
underveis
undervis
undervise
underviser
undervisning
undervisningen
undervisnings
undervisningsopplegg
undervist
undervurder
undring
une
ung
ungar
ungarn
ungd
ungdom
ungdommen
ungdommene
ungdommens
ungdommer
ungdoms
ungdomsbøker
ungdomssk
ungdomsskole
ungdomsskolen
ungdomstrinnet
unge
ungen
ungene
unger
unges
ungg
ungt
uni
unice
unicef
uniform
unik
unike
unikt
union
unionen
united
univer
univers
universal
universell
universet
universitet
universitetene
universiteter
universitetet
universitetets
universitets
universitetssyke
universitetssykehus
university
unn
unna
unnag
unnagjort
unne
unnga
unngar
unngas
unngatt
unni
unnl
unnlater
unnskyld
unnskyldning
unnskyldninger
unntak
unntaket
unntaks
unntatt
unorm
unormalt
unød
unødig
unødvendig
unødvendige
uopp
uover
uoversikt
up
upak
upaklag
upassende
update
ups
ur
uran
urban
urbane
ureal
ured
uregel
uren
urett
urettferdig
uri
uriktige
urim
urimelig
urin
urinveisin
url
uro
urol
urolig
urte
urter
urørt
us
usa
usann
usannsynlig
usas
usb
usd
use
used
usedvanlig
user
useri
useriøse
usikker
usikkerhet
usikkerheten
usikkert
usikre
usk
uskyld
uskyldig
uskyldige
ustab
ustabil
usynlig
usynlige
ut
utad
utal
utallige
utan
utarbeid
utarbeide
utarbeidelse
utarbeider
utarbeides
utarbeidet
utbed
utbedring
utbet
utbetales
utbetaling
utbetalinger
utbetalt
utbred
utbredelse
utbredt
utbrudd
utbruddet
utby
utbygd
utbygg
utbygger
utbygging
utbyggingen
utbyggings
utbytte
utd
utdan
utdanne
utdannede
utdannelse
utdannelsen
utdannet
utdanning
utdanningen
utdanningene
utdanninger
utdannings
utdanningsdirektoratet
utdanningsforbundet
utdanningsinstitusjoner
utdanningsniva
utdanningsprogram
utdatert
utdeling
utdelingen
utdelt
utdrag
utdyp
utdype
utdyper
ute
uteb
utek
uteksamin
utel
utelatt
uteliv
utelu
utelukke
utelukkende
utelukker
uten
utendør
utendørs
utenfor
utenforstaende
utenfra
utenkelig
utenland
utenlands
utenlandsk
utenlandske
utenom
utenpa
utenriks
utenriksdepartementet
utenriksminister
utenrikspolitikk
uter
utest
utestaende
utesteder
utesteng
utestengt
utfall
utfallet
utfl
utflod
utflukter
utfol
utfolde
utfor
utfordr
utfordre
utfordrende
utfordrer
utfordret
utfordring
utfordringen
utfordringene
utfordringer
utform
utforme
utformes
utformet
utforming
utformingen
utforsk
utforske
utforsker
utforsket
utforskning
utfra
utfyl
utfyllende
utfylling
utfylt
utfør
utføre
utførelse
utførelsen
utfører
utføres
utført
utførte
utg
utga
utgaende
utgang
utgangen
utgangspunkt
utgangspunktet
utgave
utgaven
utgaver
utgi
utgift
utgiftene
utgifter
utgir
utgis
utgitt
utgiv
utgivelse
utgivelsen
utgivelser
utgiver
utgjorde
utgjør
utgjøre
utgrav
uthold
utholdenhet
uti
utifra
util
utilgjengelig
utilsikt
utilstrekkelig
utjev
utk
utkast
utkastet
utkikk
utl
utlan
utland
utlandet
utle
utlegg
utleie
utleier
utlend
utlending
utlendinger
utlendings
utlever
utlevering
utlevert
utlig
utlys
utlysning
utlø
utløp
utløper
utløpet
utløse
utløser
utløses
utløst
utløste
utm
utmark
utmatt
utmattelse
utmerk
utmerkede
utmerker
utmerket
utn
utne
utnevnt
utnytt
utnytte
utnyttelse
utnytter
utnyttes
utnyttet
utover
utp
utpa
utpe
utpekt
utprø
utprøving
utradisjon
utred
utrede
utredes
utredet
utredning
utredningen
utredninger
utrednings
utro
utrol
utrolig
utrolige
utroskap
utru
utry
utrygg
utrykk
utrykning
uts
utsagn
utsalg
utsatt
utsatte
utse
utseende
utseendet
utsend
utsendt
utsett
utsette
utsettelse
utsetter
utsettes
utsiden
utsikt
utsikten
utsiktene
utsk
utskift
utskifting
utskrift
utsl
utslag
utslett
utsli
utslipp
utslippene
utslippet
utslitt
utsmy
utsol
utsolgt
utsp
utspill
utspiller
utspring
utsted
utstedelse
utsteder
utstedt
utstillere
utstilling
utstillingen
utstillinger
utstilt
utstrakt
utstrekning
utstyr
utstyret
utstyrt
utsøkt
utt
uttak
uttaket
uttal
uttale
uttalelse
uttalelsen
uttalelsene
uttalelser
uttaler
uttalt
uttalte
uttelling
uttry
uttrykk
uttrykke
uttrykkelig
uttrykker
uttrykket
uttrykt
uttrykte
utv
utvalg
utvalget
utvalgets
utvalgt
utvalgte
utvand
utveks
utveksle
utveksling
utvel
utvendig
utvendige
utvid
utvide
utvidede
utvidelse
utvidelsen
utvidelser
utvider
utvides
utvidet
utvik
utvikle
utvikler
utviklere
utvikleren
utviklerne
utvikles
utviklet
utvikling
utviklingen
utviklings
utviklingsarbeid
utviklingshe
utviklingshemmede
utviklingshemming
utviklingsland
utviklingstrekk
utvil
utvilsomt
utvinning
utvist
utø
utøv
utøve
utøvelse
utøvende
utøver
utøvere
utøveren
utøverne
utøves
utøya
uunn
uunnga
uut
uv
uvanlig
uvanlige
uvant
uved
uventede
uventet
uvis
uvisst
uvitende
uvurder
uvurderlig
uøn
uønskede
uønsket
va
vad
vadsø
vafler
vag
vage
vager
vaget
vagina
vak
vaken
vakker
vakkert
vakne
vakner
vaknet
vakre
vakreste
vaks
vaksinasjon
vaksine
vaksinen
vaksiner
vakt
vakte
vakter
vaktmester
val
valdres
vale
valen
valencia
valent
valentin
valer
valerenga
valg
valgene
valget
valgfri
valgfritt
valgkamp
valgkampen
valgkomite
valgkomiteen
valgmuligheter
valgt
valgte
vall
valle
valley
valp
valpen
valpene
valper
valut
valuta
valutak
vamp
van
vand
vandre
vandrer
vandret
vandring
vane
vaner
vang
vanil
vanilje
vanleg
vanlig
vanlige
vanligere
vanligste
vanligvis
vann
vannd
vannet
vannføring
vannkraft
vannm
vannt
vanntett
vansk
vanskelig
vanskelige
vanskeligere
vanskelighet
vanskeligheter
vanskeligste
vansker
vant
vanvitt
vanvittig
vap
vapen
vapenet
vapnene
var
vara
varam
varamedlem
varamedlemmer
varanger
varaordfører
varare
vardenafil
vardø
vare
vareb
varemerke
varemerker
varen
varene
varens
varer
vares
varetekt
varetektsfeng
vari
variabel
variabler
variant
varianten
varianter
variasjon
variasjonen
variasjoner
varier
variere
varierende
varierer
variert
varierte
varig
varige
varighet
varm
varme
varmek
varmen
varmepum
varmepumpe
varmer
varmere
varmes
varmeste
varmet
varmt
vars
varsel
varsle
varsler
varsles
varslet
varsling
varsom
vart
varte
vas
vask
vaske
vasken
vasker
vaskes
vasket
vass
vassdrag
vassdraget
vat
vate
vatn
vatrom
vatt
ve
ved
veder
vederlag
vedkomm
vedkommende
vedkommendes
vedlagt
vedlagte
vedlegg
vedlike
vedlikehold
vedlikeholde
vedlikeholdes
vedlikeholds
vedlikeholdt
vedr
vedrørende
vedt
vedta
vedtak
vedtakene
vedtaket
vedtaks
vedtar
vedtas
vedtatt
vedtatte
vedtekt
vedtektene
vedtekter
vedtok
vedvarende
veg
vega
vegard
vegas
vegen
veger
veget
vegetar
vegetarian
vegetasjon
vegg
veggen
veggene
vegger
vegne
vegvesen
vegvesenet
vei
veib
veide
veidekke
veie
veien
veiene
veier
veik
veil
veiled
veilede
veiledende
veileder
veiledere
veilederen
veiledning
veiledningen
veis
veit
veiv
veivalg
vek
veke
vekk
vekke
vekker
vekket
veks
veksel
veksle
veksler
vekst
veksten
vekt
vekta
vekten
vekter
vektlagt
vektlegge
vektlegger
vektlegges
vektt
vekttap
vel
veld
velded
veldig
velegnet
velferd
velferdsstaten
velfortjent
velfungerende
velg
velge
velger
velgere
velgerne
velges
velkjent
velkjente
velkommen
velkomne
velkomst
vell
velly
vellykkede
vellykket
velsig
velsign
velsignelse
velsignet
velsmak
velsmakende
velstaende
velstand
velt
velvære
ven
vend
vende
vender
vendt
vendte
vene
venez
venezia
venn
venne
vennen
vennene
venner
vennes
vennesla
venninne
venninnen
venninnene
venninner
vennlig
vennlige
vennligst
vennskap
vennskapet
venst
venstre
venstres
venstresiden
vent
vente
venteliste
venter
ventes
ventet
ventetid
ventetiden
ventil
ventilasjon
ventilasjons
ventiler
venting
venus
ver
vera
verandaen
verb
verd
verda
verdal
verden
verdenen
verdens
verdensarv
verdensbasis
verdenscup
verdenskj
verdensklasse
verdenskrig
verdensmester
verdensomsp
verdensomspennende
verdensrommet
verdi
verdien
verdiene
verdier
verdif
verdifull
verdifulle
verdifullt
verdig
verdighet
verdik
verdikjeden
verdip
verdipapir
verdis
verdiskap
verdiskaping
verdiskapning
verdiv
verdsatt
verdsetter
verdt
vere
verft
verge
verif
verifisere
verk
verken
verkene
verker
verket
verks
verksted
verksteder
verkstedet
verktøy
verktøyene
verktøyet
vern
verne
verneombud
vernet
verneutstyr
veron
veronica
verre
vers
versa
versjon
versjonen
versjonene
versjoner
verst
verste
vert
vertene
verter
vertik
vertskap
verv
vervet
very
ves
vesen
vesener
vesentlig
vesentlige
veske
vesken
vesker
vesle
vest
vestbredden
vestby
vesten
vester
vesteralen
vestfold
vestland
vestlandet
vestlig
vestlige
vestover
vestre
vestsiden
vet
veter
veteran
veteraner
veterin
veterinær
vett
vev
vevet
vg
vg1
vg2
vg3
vgs
vi
via
viagra
vib
vibe
vibeke
vibrasjon
vibrasjoner
vibrator
victor
victoria
vid
vidar
vidare
vide
video
videoen
videoene
videoer
videok
videoklipp
videos
vider
videre
videreformid
videreføre
videreføres
videreføring
videreført
videregaende
videres
videreutdanning
videreutvik
videreutvikle
videreutvikles
videreutviklet
videreutvikling
vidt
vidunder
vie
viet
vietnam
vietnames
view
vif
vifte
vig
vigdis
vii
vik
vika
vikar
vike
viken
viker
viking
viktig
viktige
viktigere
viktigheten
viktigst
viktigste
viktor
vil
vilde
vilje
viljen
vilkar
vilkarene
vill
villa
ville
villig
villige
villrein
vilt
vin
vind
vinden
vindkraft
vindu
vinduene
vinduer
vinduet
vindus
vinen
viner
ving
vingene
vinger
vinje
vink
vinkel
vinkler
vinmonopol
vinn
vinne
vinner
vinnere
vinneren
vinnerne
vint
vintage
vinter
vinteren
vinterstid
vinyl
vip
vippe
vipper
vipps
vips
vir
virgin
virginia
virk
virke
virkedager
virkelig
virkelige
virkelighet
virkeligheten
virkemiddel
virkemidlene
virkemidler
virkeomrade
virker
virket
virkning
virkningen
virkningene
virkninger
virknings
virksom
virksomhet
virksomheten
virksomhetene
virksomhetens
virksomheter
virksomhets
virt
virtual
virtuell
virtuelle
viru
virus
viruset
vis
visa
visdom
vise
visepresident
viser
vises
visit
visjon
visjonen
visjoner
visma
visning
visningen
visninger
viss
visse
visst
visste
visstnok
vist
viste
visual
visuell
visuelle
visuelt
visum
vit
vita
vital
vitamin
vitaminer
vite
viten
vitenskap
vitenskapelig
vitenskapelige
vitenskapen
vitne
vitnemal
vitner
vitnes
vitnesbyrd
vitnet
vits
vitser
vivan
vivanza
vk
vlad
vladimir
vm
vo
vog
vogn
vogna
vognen
vognt
voice
vok
vokal
vokalist
voks
vokse
voksen
voksende
voksenopplæring
vokser
voksne
voksnes
vokst
vokste
vol
vold
volda
voldelig
voldelige
volden
volds
voldsom
voldsomme
voldsomt
voldtatt
voldtekt
volks
volksw
volkswagen
voll
volley
volleyball
volum
volumet
volvo
von
vond
vonde
vondt
vor
vore
voss
votering
votter
vp
vr
vrak
vraket
vrang
vre
vri
vrid
vs
vt
vu
vul
vulk
vulkan
vunnet
vur
vurder
vurdere
vurderer
vurderes
vurdering
vurderingen
vurderingene
vurderinger
vurderings
vurdert
vurderte
vvs
vw
væ
væp
væpnede
vær
være
værende
været
værforhold
værnes
vært
væske
wa
wal
wales
walk
wall
wang
want
war
wars
was
wash
washington
wat
watch
water
watt
way
wc
we
web
webcam
webkamera
webside
websiden
websider
website
websites
wed
week
weekend
wel
well
wen
wenche
wer
were
wergeland
west
wester
western
wet
wh
what
whe
when
where
which
whisk
whisky
white
who
wi
wid
wide
wider
wien
wifi
wig
wii
wik
wiki
wikip
wikipedia
wil
wild
wilhelm
will
willi
william
williams
willy
wilson
win
wind
windows
winter
wir
wis
wit
with
wo
wol
wold
wolf
woman
women
wonder
wood
wor
word
wordpress
work
works
workshop
workshops
world
would
wow
wr
wur
wurmer
ww
www
xbox
xi
xl
xn
xnxx
xx
xxl
xxx
xxxxxx
ya
yahoo
yd
ydmy
ydmyk
ye
year
years
yes
ym
ymse
yn
ynd
yng
yngre
yngste
yngve
yo
yog
yoga
yoghurt
yor
york
you
young
your
yout
youtube
ypper
ypperlig
ypperste
yr
yrke
yrker
yrkes
yrkesaktive
yrkesfag
yrkesgrupper
yrkesskade
yrkesut
yrket
ys
yt
yte
ytelse
ytelsen
ytelser
ytelses
yter
ytes
ytre
ytringer
ytrings
ytringsfrihet
ytringsfriheten
ytter
ytterligere
ytterst
ytterste
za
zaland
zalando
zam
ze
zealand
zen
zero
zimb
zo
zom
zoo
zoom
zoosk
zu
©ntb
°c
ær
ære
æren
æres
ærlig
ærlige
ærlighet
ød
øde
ødegaard
ødel
ødela
ødelagt
ødelagte
ødeleg
ødelegg
ødelegge
ødeleggelse
ødeleggende
ødelegger
øien
øivind
øk
øke
økende
øker
økes
økning
økningen
økok
økokrim
økologisk
økologiske
økonom
økonomi
økonomien
økonomiplan
økonomis
økonomisk
økonomiske
økonomist
økonomistyring
økos
økosystem
øks
økt
økte
økten
øktene
økter
øl
ølet
øm
øn
ønsk
ønske
ønskede
ønskelig
ønsker
ønskes
ønsket
ør
øre
ørene
ører
øret
ørken
ørkenen
ørland
ørn
ørret
øst
øste
østen
østens
østensjø
øster
østerd
østerrik
østerrike
østers
østfold
østland
østlandet
østlige
østover
østre
østrogen
østsiden
øv
øve
øvelse
øvelsen
øvelsene
øvelser
øver
øverst
øverste
øving
øvings
øvre
øvrig
øvrige
øy
øya
øye
øyeb
øyebli
øyeblikk
øyeblikkelig
øyeblikkene
øyeblikket
øyek
øyen
øyenbry
øyene
øyer
øyes
øyet
øyn
øyne
øynene
øystein
øyvind
на
по
ال
##0
##00
##000
##01
##1
##10
##100
##11
##12
##13
##14
##15
##16
##17
##18
##19
##2
##20
##200
##21
##22
##23
##24
##25
##26
##27
##28
##29
##3
##30
##31
##32
##33
##34
##35
##36
##37
##38
##39
##4
##40
##41
##42
##43
##44
##45
##46
##47
##48
##49
##5
##50
##500
##55
##6
##60
##65
##66
##7
##70
##75
##76
##77
##8
##80
##82
##83
##85
##86
##87
##88
##89
##9
##90
##95
##99
##a
##aa
##aal
##aas
##ab
##abad
##abb
##abel
##abelt
##abet
##abeth
##abil
##abilitet
##able
##abler
##abol
##abor
##abri
##abu
##aby
##ac
##ace
##ach
##ack
##act
##acy
##ad
##ada
##adal
##add
##adde
##adder
##ade
##adel
##adem
##ademy
##aden
##adene
##ader
##ades
##adet
##adisk
##adiske
##administ
##administrasjon
##administrasjonen
##ado
##ador
##adresse
##ads
##advok
##ae
##aen
##aende
##af
##afil
##afor
##aften
##ag
##aga
##agas
##age
##agede
##agelig
##agelse
##agen
##agende
##agene
##ager
##agere
##ages
##aget
##agg
##agn
##agne
##agner
##agnet
##ago
##agon
##agra
##agraf
##agram
##ags
##agt
##agte
##ah
##ahl
##ai
##ail
##ain
##ainer
##ainment
##air
##ak
##aka
##akadem
##akademiet
##ake
##akelse
##aken
##akene
##aker
##akere
##akeren
##akerne
##akers
##akes
##aket
##aki
##akim
##aking
##akk
##akken
##akker
##akon
##aks
##akse
##aksept
##aksjon
##aksjonen
##aksjoner
##akt
##akte
##akten
##akter
##aktig
##aktige
##aktikk
##aktiv
##aktive
##aktiver
##aktivitet
##aktiviteten
##aktiviteter
##aktivt
##aktør
##aktører
##aku
##akultur
##al
##ala
##alam
##aland
##alarm
##alb
##album
##albumet
##ald
##alder
##alderen
##aldrende
##aldt
##ale
##alen
##alende
##alender
##alene
##alens
##aler
##alere
##aleren
##alerne
##ales
##alet
##alg
##alget
##ali
##alia
##alie
##alin
##aling
##alingen
##alingene
##alinger
##alings
##alisere
##alisering
##alisert
##alisme
##alitet
##aliteten
##aliteter
##aljer
##aljon
##alk
##all
##alla
##alle
##allen
##allene
##aller
##alleri
##alleriet
##allet
##alli
##alls
##ally
##alo
##alog
##alogen
##alp
##als
##alsjef
##alsk
##alt
##alte
##altern
##alternativ
##alternativer
##alth
##althe
##am
##ama
##aman
##amas
##ambul
##ame
##amen
##ament
##amente
##amenter
##amentet
##amer
##amera
##amet
##ameter
##amfunn
##ami
##amil
##amin
##aminer
##aming
##ammen
##ammens
##amo
##amp
##ampen
##amper
##ampo
##ams
##amus
##an
##ana
##anal
##analyse
##analysen
##analyser
##analyt
##ance
##and
##anda
##andaen
##ande
##andel
##andelen
##andeler
##anden
##ander
##andid
##ando
##andre
##andres
##ands
##andy
##ane
##anel
##anen
##anene
##aner
##anere
##anerne
##anes
##anet
##ang
##ange
##angel
##angen
##anger
##angere
##angeren
##angfold
##angrep
##angrepet
##angs
##angst
##angt
##ani
##ania
##anje
##anjer
##ank
##anke
##anken
##anker
##anlegg
##anlegget
##anmeld
##ann
##anna
##anne
##annede
##annel
##annelse
##annelsen
##annelser
##annen
##annende
##anner
##annes
##annestad
##annet
##anni
##anning
##annonser
##anny
##ano
##ans
##ansatte
##anse
##ansen
##ansene
##ansens
##anser
##ansere
##ansert
##anserte
##anset
##ansje
##ansk
##anska
##anske
##ansker
##ansvar
##ansvaret
##ansvarlig
##ansvarlige
##ant
##ante
##anten
##antene
##anter
##anti
##antik
##antikk
##ants
##anu
##anuensis
##any
##ao
##ap
##apar
##ape
##apen
##aper
##apest
##apet
##apeut
##apeuten
##apeuter
##api
##apir
##apne
##apning
##apningen
##apotek
##app
##appar
##apparat
##apparater
##apparatet
##appen
##apper
##apro
##aps
##apt
##ar
##ara
##arane
##arar
##arbeid
##arbeide
##arbeidene
##arbeider
##arbeidere
##arbeiderne
##arbeidet
##arch
##ard
##arden
##arder
##ardi
##ardo
##ards
##are
##areal
##arealer
##arealet
##aren
##arena
##arene
##arer
##ares
##aret
##arets
##arg
##ari
##aria
##ariat
##ariatet
##arig
##arige
##arin
##aring
##aringen
##aringer
##ario
##arisk
##ariske
##aritet
##ark
##arka
##arked
##arkedet
##arken
##arkite
##arkitekt
##arkiv
##arkivet
##arks
##arm
##arme
##armen
##armer
##armerende
##arn
##arnet
##arning
##aro
##arrang
##arrange
##arrangement
##ars
##art
##artalet
##arten
##artene
##arter
##artet
##arth
##artiet
##artikkel
##artikler
##artner
##arv
##ary
##as
##asa
##ase
##asen
##aser
##asert
##aserte
##ash
##asi
##asing
##asis
##asitet
##asiteten
##asj
##asje
##asjen
##asjene
##asjer
##asjes
##asjon
##asjonen
##asjonene
##asjoner
##asjons
##ason
##aspe
##ass
##assa
##assasje
##asse
##assen
##assene
##asseng
##asser
##assering
##asset
##assist
##asso
##ast
##astad
##aste
##aster
##astro
##at
##ata
##atab
##atar
##atch
##ate
##ated
##atelse
##aten
##atene
##atens
##ater
##atere
##aterer
##ateriale
##aterialet
##ateriell
##atering
##atert
##aterte
##ates
##atet
##atferd
##ath
##ather
##ati
##atia
##atib
##atikk
##atikken
##atin
##ating
##ation
##ational
##ations
##atisert
##atisk
##atiske
##ativ
##ative
##ativer
##ativt
##atn
##atnet
##atning
##ato
##aton
##ator
##atoren
##atorene
##atorer
##atoriet
##atorium
##atret
##ats
##att
##atta
##atte
##atten
##atter
##attes
##attest
##attet
##attle
##attra
##atur
##ature
##aturen
##aturer
##aturlig
##atør
##atørene
##atører
##au
##aus
##aut
##autom
##av
##ava
##avdeling
##avdelingen
##avdelinger
##ave
##aven
##avet
##avfall
##avgift
##avgiften
##avhengige
##avhengighet
##avik
##avir
##avirkning
##avis
##avisa
##avisen
##aviser
##avl
##avn
##avnet
##avstand
##avt
##avtale
##avtalen
##avtaler
##avtrykk
##avvik
##away
##ax
##ay
##aya
##az
##b
##ba
##back
##bad
##badet
##bag
##bai
##bak
##bakgrunn
##bakk
##bakke
##bakken
##bal
##balanse
##balansen
##ball
##ballasje
##baller
##ban
##bana
##band
##bandet
##bane
##banen
##baner
##bang
##bank
##banken
##bar
##barber
##bare
##baren
##barhet
##barheten
##barn
##barna
##barne
##barnet
##bart
##bas
##base
##basen
##basert
##baserte
##basis
##basseng
##bat
##baten
##bater
##batt
##batter
##bb
##bbe
##bbel
##bber
##be
##bebygg
##beck
##bed
##bedrift
##bedrifter
##bedring
##bef
##befol
##befolkning
##befolkningen
##beg
##begrens
##begrepet
##begynn
##beh
##behandler
##behandlere
##behandlet
##behandling
##behandlingen
##behov
##behovet
##behør
##beid
##bein
##bek
##bekk
##bekken
##bel
##belast
##belastning
##belegg
##bell
##bels
##belt
##belte
##beløp
##beløpet
##ben
##bene
##benken
##ber
##bere
##bered
##beredskap
##beregning
##berg
##berge
##berget
##bergs
##berne
##berry
##bers
##bert
##bes
##besk
##beskriv
##beskrivelse
##beskrivelsen
##beskrivelser
##beskytt
##beskyttelse
##beskyttet
##besl
##best
##bestand
##bestanden
##bestemm
##bestemmelse
##bestemmelsene
##bestemmelser
##bestemt
##bestemte
##bestilling
##besøk
##bet
##betaling
##betennelse
##betjent
##beveg
##bevegelse
##bevegelsen
##bevegelser
##bevil
##bevis
##bevisst
##bevisste
##bi
##bia
##bibli
##bibliotek
##biblioteket
##bidrag
##bie
##bil
##bilde
##bildene
##bilder
##bildet
##bilen
##biler
##bill
##billett
##billetter
##bin
##bind
##bing
##bir
##bit
##biter
##bjel
##bjør
##bjørg
##bjørn
##bk
##bl
##bla
##blad
##blader
##bladet
##bland
##blanding
##blant
##blas
##blast
##ble
##blene
##bler
##blikk
##bling
##blo
##blod
##blogg
##blogger
##blokk
##blokker
##blom
##blr
##bo
##boa
##board
##bod
##boe
##boende
##bok
##boka
##boken
##boks
##boksen
##bokser
##bol
##bolig
##boliger
##boller
##bom
##bon
##bonus
##book
##bor
##bord
##bordet
##borg
##bot
##botn
##bourne
##box
##boy
##br
##bra
##bran
##brand
##brann
##brans
##bransjen
##braten
##bre
##bred
##bredde
##bredden
##brem
##brent
##brett
##brettet
##brev
##brevet
##bri
##brid
##bridge
##bring
##bringe
##bro
##bror
##bru
##brua
##brudd
##bruddet
##bruk
##bruken
##bruker
##brukere
##bruket
##bruks
##brukt
##brutt
##bry
##brygg
##bryt
##bryter
##brytere
##brø
##brød
##bs
##bt
##bu
##bud
##budet
##budsjett
##budsjettet
##bue
##buk
##bukta
##bul
##bun
##bund
##bundet
##bunn
##bunnen
##bur
##burg
##burgh
##burn
##bus
##busjon
##buss
##bust
##but
##butikk
##butikken
##butikker
##by
##bye
##byen
##byer
##byg
##bygd
##bygda
##bygde
##bygg
##bygge
##bygger
##bygget
##bygging
##byggingen
##bygning
##bygningen
##bygninger
##byr
##byra
##byraer
##byraet
##byrd
##bytte
##bær
##bærende
##bø
##bøkene
##bøker
##bøl
##bølge
##bølgen
##bør
##bøy
##c
##ca
##cal
##cam
##camp
##can
##car
##card
##care
##cas
##casino
##cast
##cat
##cc
##cca
##cco
##cd
##ce
##cean
##ced
##cel
##cell
##celle
##cellene
##celler
##cen
##cent
##cept
##cer
##cere
##ces
##cess
##cet
##ch
##cha
##change
##chat
##che
##chel
##chen
##cher
##ches
##chester
##chet
##chi
##ching
##cho
##chs
##chsen
##cht
##chy
##ci
##cia
##cial
##cil
##cin
##cing
##cis
##ck
##cke
##cken
##cker
##cket
##ckey
##cking
##cks
##cky
##cl
##cle
##cm
##co
##code
##coin
##col
##com
##come
##con
##cont
##core
##cos
##cou
##count
##couver
##craft
##creen
##cript
##cross
##cru
##cs
##ct
##cted
##ctic
##ction
##ctions
##ctive
##ctor
##cts
##cture
##cu
##cup
##cupen
##cus
##cy
##cz
##d
##da
##dag
##dage
##dagen
##dagene
##dagens
##dager
##dahl
##dal
##dalen
##dals
##dam
##dan
##dat
##data
##datab
##date
##dater
##dateringer
##dating
##dato
##datter
##day
##dc
##dd
##dde
##dder
##ddet
##de
##deb
##debatt
##debatten
##defin
##deg
##deig
##dekk
##dekke
##dekkende
##dekket
##dekning
##dekor
##del
##delag
##deleg
##delen
##delene
##deler
##deles
##delig
##delige
##deling
##delingen
##delingene
##delinger
##delsen
##delser
##delt
##dem
##demokrat
##demp
##den
##denafil
##dende
##dene
##denes
##departementet
##departementets
##der
##dere
##deren
##derk
##ders
##dert
##des
##design
##det
##detaljer
##df
##di
##diagn
##dig
##dige
##dikt
##ding
##direktoratet
##direktør
##dis
##disk
##dist
##distri
##dning
##do
##dog
##dokum
##dokument
##dokumenter
##dom
##dommen
##dommene
##dommer
##don
##donald
##dr
##dra
##drag
##dragelse
##draget
##drakt
##drar
##dratt
##dre
##dren
##drende
##drene
##drer
##dres
##dress
##dressen
##dret
##drett
##dretter
##drevet
##drevne
##dri
##drift
##dring
##dringen
##dringene
##dringer
##driv
##drive
##drivende
##driver
##drø
##ds
##dt
##dtr
##du
##duksjon
##dus
##dy
##dyr
##dø
##døde
##e
##eb
##eband
##ebet
##ebo
##ebok
##ebra
##ebu
##eby
##ebyggende
##ebygging
##ebyra
##ebær
##ebøker
##ec
##ed
##eda
##edag
##edagen
##edagene
##edager
##edagog
##edal
##edalen
##edata
##edato
##edd
##edde
##ede
##edek
##edel
##edelse
##edelt
##eden
##edene
##edepartementet
##eder
##ederlag
##edes
##edet
##edi
##edia
##edie
##edien
##edig
##edin
##edirektoratet
##edisin
##edlem
##edlemmene
##edlemmer
##edning
##edo
##edom
##edrag
##edre
##edrift
##eds
##edskap
##edt
##edtak
##edy
##edyr
##edø
##ee
##ef
##effe
##effekt
##effekter
##eg
##ega
##egaard
##egaende
##egang
##egangen
##egard
##egarden
##egata
##ege
##egel
##egen
##egener
##egenskaper
##egg
##eggen
##egget
##egist
##egister
##egisteret
##egj
##egjeld
##egjen
##egjeng
##egjengen
##egjennom
##egjør
##egle
##eglene
##egler
##egling
##egn
##egne
##egnede
##egnelse
##egner
##egnes
##egnet
##egning
##egningen
##egninger
##ego
##egod
##egori
##egorier
##egr
##egra
##egrens
##egro
##egru
##egrunn
##egruppa
##egruppe
##egruppen
##egrupper
##egu
##egulvet
##eier
##eiere
##eist
##ek
##ekamp
##ekan
##ekes
##ekj
##ekjøtt
##ekn
##eknikk
##ekom
##ekompetanse
##ekont
##ekontor
##ekontoret
##ekort
##ekraft
##ekret
##eks
##ekst
##ekte
##ektoren
##ekv
##el
##ela
##elag
##elager
##elaget
##elagt
##elagte
##eland
##elandet
##elas
##elast
##elat
##elaterte
##eld
##elde
##elder
##eldig
##eldige
##elding
##eldingen
##eldinger
##ele
##eled
##eledelse
##eleder
##eledere
##elef
##elefon
##elefoner
##eleg
##elege
##elekt
##elektor
##elem
##element
##elementer
##elen
##elene
##elengde
##eler
##eles
##elet
##elever
##eleverand
##eli
##elia
##elid
##elier
##elig
##elige
##elighet
##eligheten
##elin
##eline
##eling
##elinjen
##elinjer
##eliste
##elisten
##elister
##elius
##eliv
##elivet
##elk
##ell
##ella
##elle
##ellen
##ellene
##eller
##elles
##ellet
##elli
##elling
##ellingen
##ellinger
##ello
##ellom
##elly
##elo
##elok
##elov
##eloven
##elovens
##els
##else
##elsen
##elsene
##elsens
##elser
##elses
##elsesp
##elsess
##elset
##elskap
##elskaper
##elskapet
##elson
##elt
##elte
##elter
##eltet
##elund
##elus
##elv
##elva
##elven
##ely
##elys
##elyset
##elyst
##elær
##elærer
##elærere
##elø
##elønn
##eløp
##eløpet
##eløs
##eløse
##eløsning
##eløst
##em
##ema
##emal
##emann
##emark
##emarked
##emarkedet
##ember
##emed
##ement
##emid
##emiddel
##emidler
##emod
##emper
##en
##ena
##ence
##end
##enda
##endal
##endals
##ende
##endel
##enden
##endene
##ender
##endere
##endes
##endet
##ending
##endo
##endrag
##endring
##endringen
##endringene
##endringer
##endt
##endør
##endørs
##ene
##enen
##ener
##energi
##enes
##enet
##enfor
##eng
##enga
##engas
##engasjem
##engde
##engden
##engder
##enge
##engen
##engene
##enger
##engt
##enhet
##enheten
##enheter
##enn
##enna
##enne
##ennelse
##ennelsen
##ennelser
##ennelses
##ennende
##ennene
##enner
##ennes
##enning
##ennitet
##ennlig
##ennom
##ens
##ensasjon
##ensdatter
##ensen
##enser
##ensis
##ensjon
##enske
##enskom
##ensus
##ensyn
##ent
##enta
##ental
##entar
##ente
##enten
##entene
##enter
##enterer
##enteres
##enteret
##entering
##entert
##enterte
##entes
##entet
##ential
##entil
##enting
##entlig
##entlige
##entral
##entre
##entrene
##entrep
##entrepren
##entreprenør
##entreprenører
##ents
##entt
##entusia
##eo
##ep
##eper
##er
##era
##erd
##ere
##eremon
##eren
##erende
##erer
##eres
##erest
##erfaring
##eri
##erie
##ering
##eringen
##erings
##erklæring
##ern
##erne
##ero
##ers
##ersj
##erson
##ert
##ertall
##erte
##erten
##ertif
##ertil
##erto
##erty
##erv
##ervice
##es
##esam
##esc
##esco
##esdal
##ese
##esektoren
##esel
##eselskapet
##esen
##esenter
##esenteret
##eser
##esett
##esex
##esh
##esi
##esign
##esjon
##esl
##eslag
##esn
##esnes
##esnitt
##esnittet
##esome
##esong
##esongen
##esp
##espark
##espes
##espesial
##espill
##espiller
##espillere
##espillet
##espør
##ess
##esse
##essen
##esser
##essig
##essige
##esson
##essor
##essur
##est
##esta
##estad
##estaende
##estand
##estasjon
##estasjonen
##estasjoner
##este
##ested
##esten
##ester
##esterett
##estil
##estrand
##estre
##esult
##esund
##esy
##esystem
##esøk
##et
##eta
##etab
##etabler
##etak
##etaten
##ete
##etekt
##eten
##eter
##etet
##eth
##ethe
##etid
##etiden
##etikk
##etil
##etilbud
##etilsynet
##etips
##etisk
##etiske
##etning
##etningen
##etninger
##etode
##etoder
##ets
##ett
##etta
##ette
##ettelse
##etten
##ettene
##etter
##ettes
##ettet
##etthet
##etti
##ettig
##ettigede
##ettiget
##etting
##ettingen
##ettings
##etto
##etts
##ettverk
##etty
##etur
##etøy
##event
##evne
##ex
##f
##fa
##fab
##fabri
##fabrikk
##fabrikken
##fabrikker
##face
##fag
##fagene
##faget
##faglig
##faglige
##fakt
##faktor
##faktorer
##fal
##fall
##fallende
##fallet
##falt
##famil
##familie
##familien
##familier
##fan
##fang
##fanget
##fangst
##far
##fare
##faren
##farge
##fargen
##farger
##farget
##fari
##faring
##faringer
##farkt
##farlig
##farlige
##fart
##fartøy
##fas
##fase
##fasen
##fast
##faste
##fat
##fatt
##fattende
##fatter
##fav
##favoritt
##fd
##fe
##feil
##feir
##feiring
##feksjon
##feksjoner
##fekt
##feld
##feldt
##felle
##feller
##felles
##fellesskap
##felling
##felt
##feltene
##feltet
##fem
##fen
##fer
##feranse
##feransen
##feranser
##ferd
##ferdig
##ferdige
##ferdighet
##ferdigheter
##ference
##ferie
##ferien
##fest
##feste
##festede
##festen
##fester
##festet
##festiv
##festival
##festivalen
##fet
##fett
##fetten
##ff
##ffe
##ffekt
##ffekter
##ffel
##ffen
##ffer
##ffet
##fi
##fia
##fib
##fiber
##field
##fig
##figur
##figurer
##fil
##filer
##film
##filmen
##filmer
##filosof
##filt
##filter
##fin
##finale
##finalen
##finans
##finansiering
##fine
##finer
##finerte
##fing
##finger
##finn
##fint
##fir
##firma
##firmaet
##fisk
##fiske
##fisket
##fit
##fj
##fjell
##fjellet
##fjer
##fjord
##fjorden
##fk
##fl
##fla
##flaske
##flasker
##flate
##flaten
##flater
##fle
##fler
##fli
##flix
##flo
##fly
##flyt
##flytting
##fo
##fokus
##fol
##fold
##foldelse
##folk
##folkene
##folket
##fon
##fond
##fondet
##food
##for
##forand
##forandringer
##forb
##forbered
##forbin
##forbindelse
##forbindelser
##forbruk
##forbruket
##forbud
##forbudet
##forbund
##forbundet
##forbundets
##ford
##fordel
##fordeling
##fordelingen
##fordr
##fore
##forebyggende
##fored
##forekom
##foreld
##foreldre
##foreldrene
##foren
##forening
##foreningen
##foreningene
##foreningens
##foreninger
##forent
##forespør
##forestil
##forestillinger
##foret
##foretak
##foretaket
##forfatt
##forfatter
##forfattere
##forhold
##forholdene
##forholdet
##forlaget
##forløp
##forløpet
##form
##formal
##formann
##formasjon
##formasjonen
##format
##formede
##formen
##formene
##former
##formet
##formid
##formidling
##forming
##forn
##fornøyd
##fornøyde
##forretning
##fors
##forsik
##forsikring
##forsk
##forsker
##forskere
##forskjell
##forskjellen
##forskjeller
##forskning
##forsknings
##forskningsinstituttet
##forskrift
##forskriften
##forslag
##forslaget
##forsta
##forstaelse
##forstatt
##forstyr
##forstyrrelser
##forsvar
##forsvaret
##forsy
##forsyning
##forsøk
##fort
##fortjent
##forum
##forurens
##forvalt
##forvaltning
##forvaltningen
##fos
##foss
##fossen
##fot
##fotball
##foto
##fotograf
##fox
##fr
##fra
##fradrag
##fram
##frastruktur
##fravær
##fre
##fred
##freds
##fredshet
##free
##frekvens
##frem
##fremmende
##fremt
##fri
##frid
##frie
##frihet
##friheten
##frist
##fristen
##frister
##fritt
##fro
##front
##fronten
##fru
##fry
##frø
##fs
##fsen
##ft
##fta
##fte
##ften
##ftene
##fter
##ftes
##ftet
##fting
##ftt
##fu
##fug
##fugl
##fuglene
##fugler
##ful
##full
##fulle
##fullt
##fun
##fund
##fungerende
##funksjon
##funksjonen
##funksjoner
##funn
##funnet
##furt
##fy
##fyl
##fylke
##fyll
##fylling
##fylt
##fylte
##fyr
##fyrt
##fys
##fysi
##fær
##fø
##fød
##født
##fødte
##føl
##følelse
##følelsen
##følg
##følge
##følgelig
##følgen
##følgende
##følger
##følging
##før
##føre
##førende
##fører
##førere
##føreren
##føres
##føring
##føringen
##føringer
##førings
##førsel
##førselen
##førsler
##ført
##førte
##g
##ga
##gaard
##gaende
##gam
##gamle
##gan
##gane
##gang
##gangen
##ganger
##gar
##garanti
##gard
##garde
##garden
##garn
##gas
##gass
##gata
##gate
##gaten
##gations
##gatt
##gav
##gave
##gaven
##gavene
##gaver
##gb
##gd
##gde
##gden
##ge
##geb
##gebyr
##ged
##gede
##geir
##gel
##geland
##gelse
##gen
##gende
##gene
##gener
##gens
##gent
##ger
##gere
##geren
##gerende
##gers
##ges
##gesen
##get
##gevin
##gg
##gge
##ggen
##ggende
##ggene
##gger
##gges
##gget
##gging
##ggings
##gh
##gi
##gien
##giene
##gift
##giftene
##gifter
##giftning
##gikk
##gin
##ging
##gio
##gir
##girl
##gis
##gitt
##gitte
##giv
##givelse
##givende
##giver
##givere
##givers
##giving
##givning
##givningen
##gj
##gje
##gjeld
##gjen
##gjeng
##gjengelig
##gjengen
##gjenger
##gjengere
##gjennom
##gjennomsnittet
##gjer
##gjerd
##gjering
##gjorde
##gjort
##gjorte
##gjød
##gjødsel
##gjør
##gjøre
##gjørelse
##gjørende
##gjøres
##gjøring
##gl
##glass
##gle
##glede
##gn
##gne
##gner
##go
##god
##gode
##godt
##godtgjørelse
##gr
##gra
##grad
##graden
##grader
##gradere
##gram
##grammene
##grammer
##grammet
##grav
##gre
##greg
##gren
##grens
##grense
##grensen
##grep
##grepet
##gress
##gressen
##gri
##grip
##gripende
##gro
##ground
##gru
##grunn
##grunnen
##grunnlag
##grunnlaget
##grupp
##gruppa
##gruppe
##gruppen
##gruppene
##gruppens
##grupper
##grø
##grønn
##gs
##gstad
##gt
##gte
##gu
##gud
##guide
##gull
##gutt
##gy
##h
##ha
##hab
##habil
##habilitering
##had
##hag
##hage
##hagen
##hai
##hal
##hald
##hall
##hallen
##haller
##halv
##halvaret
##ham
##hamar
##hamm
##hammed
##hammer
##hamn
##hampton
##han
##hand
##handbok
##handel
##handelen
##handle
##handler
##handlere
##handlet
##handling
##handlingen
##handlingene
##handlinger
##handtering
##handverk
##har
##hara
##hard
##hardt
##harmon
##hast
##hastighet
##hatt
##hattan
##hau
##haug
##haugen
##hav
##haver
##havere
##havet
##havn
##hd
##he
##hea
##head
##hed
##hefte
##hei
##heia
##heim
##heimen
##heimer
##heit
##hel
##helg
##helm
##helse
##helset
##helsetjenesten
##helt
##hem
##hemmede
##hen
##hend
##heng
##henger
##hengere
##hengig
##hengige
##hengighet
##hensyn
##her
##herad
##here
##herred
##hest
##het
##heten
##hetene
##hetens
##heter
##hets
##heving
##hf
##hh
##hi
##hil
##hild
##hin
##hing
##hion
##hip
##histor
##historie
##historien
##historier
##historisk
##historiske
##hje
##hjel
##hjelp
##hjelpen
##hjelper
##hjelps
##hjem
##hjemmet
##hjert
##hjertet
##hjul
##hjulet
##hjør
##hl
##hm
##hn
##ho
##hockey
##hode
##hodet
##hoff
##hol
##hold
##holde
##holdelse
##holder
##holdere
##holdes
##holdet
##holdig
##holdige
##holdning
##holdt
##holm
##holmen
##holt
##hon
##hoo
##hop
##hopp
##hopping
##hor
##hord
##hordland
##horn
##hospital
##hospitalet
##hot
##hotell
##hou
##houg
##house
##hout
##hov
##hoved
##how
##hr
##hre
##hrine
##hs
##ht
##hu
##hub
##hud
##hull
##hum
##hun
##hund
##hunder
##hur
##hurt
##hus
##husene
##huset
##hv
##hver
##hverdag
##hverdagen
##hvert
##hvil
##hvit
##hy
##hyd
##hyl
##hytta
##hytte
##hø
##høg
##høgskole
##høgskolen
##hør
##hører
##hørighet
##hørt
##høy
##høyde
##høyden
##høye
##i
##ia
##ial
##iale
##ialer
##ialet
##ialis
##ialt
##ian
##iana
##iane
##ianne
##iano
##ians
##iansk
##ianske
##ianter
##iar
##ias
##iat
##iate
##iater
##iation
##ib
##ibel
##iber
##ibet
##iblant
##ible
##ibli
##ibos
##ibosome
##ic
##ica
##ical
##ican
##ice
##ich
##ici
##ick
##icks
##icle
##ico
##icon
##ics
##ict
##iction
##icy
##id
##ida
##idar
##idas
##idd
##ide
##idem
##iden
##idene
##idens
##ident
##idepartementet
##ider
##idere
##idering
##idert
##iderte
##ides
##idet
##idig
##idige
##iditet
##idler
##ido
##idrag
##idrett
##ids
##ie
##ief
##ieffe
##iel
##ield
##iell
##ielle
##ielt
##iem
##ien
##ience
##iend
##iender
##iene
##ienes
##iens
##ient
##ier
##iere
##ieren
##ierer
##ieres
##iering
##ierne
##iers
##iert
##ierte
##ies
##iet
##iets
##iety
##iev
##iew
##iews
##if
##ifa
##ife
##ifer
##iff
##ifi
##ific
##ifikasjon
##ifin
##ifisering
##ifisert
##ifiserte
##ifra
##ift
##ifte
##ifter
##iful
##ify
##ig
##iga
##igan
##ige
##igen
##iger
##igere
##iges
##iget
##igh
##ighet
##igheten
##ighetene
##igheter
##ighets
##ight
##ights
##ign
##igner
##ignet
##ii
##iii
##iing
##ij
##ik
##ika
##ikal
##ikansk
##ikanske
##ikant
##ikap
##ikasjon
##ikasjonen
##ikasjoner
##ikat
##ikate
##ike
##iken
##iker
##ikere
##ikeren
##ikerne
##iket
##iki
##ikk
##ikke
##ikkel
##ikken
##ikker
##ikkerhet
##ikkerheten
##ikkert
##ikket
##iklene
##ikler
##iklin
##iko
##ikon
##ikop
##ikopt
##ikopter
##ikott
##ikre
##iks
##ikt
##ikter
##iktet
##iktig
##ikum
##il
##ila
##iland
##ilbud
##ilbudet
##ild
##ilde
##ilder
##ilding
##ildsen
##ile
##ileg
##ilen
##iler
##iles
##ilet
##ilgang
##ilig
##iling
##ilitet
##iliteter
##ility
##ilj
##iljø
##iljøet
##ill
##illa
##illatelse
##ille
##illegg
##illen
##illene
##iller
##illere
##illes
##illet
##illi
##illing
##illit
##illo
##ilo
##ils
##ilskudd
##ilsynet
##ilt
##iltak
##ily
##im
##ima
##imal
##imb
##ime
##imellom
##imen
##imene
##imensjon
##iment
##imenter
##imentet
##imer
##imes
##imet
##imeter
##imir
##imo
##imot
##imp
##in
##ina
##inal
##inar
##inas
##inasjon
##inav
##ind
##inda
##indal
##inde
##indeks
##indeksen
##indel
##indelse
##inden
##inder
##indik
##indiv
##indu
##industri
##industrien
##ine
##inen
##inene
##iner
##inere
##inerende
##inerer
##ineres
##inering
##inert
##inerte
##ines
##iness
##inet
##inett
##inettet
##inf
##infarkt
##infeksjon
##info
##informasjon
##informasjonen
##ing
##inga
##ingar
##inge
##ingelsene
##ingelser
##ingen
##ingene
##ingeniør
##ingent
##ingenten
##inger
##inget
##ingles
##ings
##ingsarbeid
##ingsarbeidet
##ingsloven
##ingsm
##ingsmid
##ingsmiddel
##ingsmidler
##ingsmuligheter
##ingsverktøy
##ington
##ini
##ining
##inister
##ink
##inke
##inken
##inker
##inket
##inn
##inna
##innd
##inne
##innede
##innen
##innene
##inner
##innet
##innhold
##innholdet
##innkjøp
##innlegg
##innlegget
##innredning
##innsats
##innskudd
##innstillinger
##inntak
##inntaket
##inntekt
##inntektene
##inntekter
##inntrykk
##ino
##inor
##ins
##insi
##insk
##inske
##inson
##inspe
##inst
##install
##installasjoner
##instans
##instit
##institusjon
##institusjonene
##institusjoner
##institutt
##instituttet
##instru
##instrukt
##instrum
##instrumenter
##int
##inte
##integ
##inten
##intens
##inter
##interes
##interess
##interesse
##interesser
##interesserte
##interv
##intervju
##invester
##investeringer
##io
##ioder
##ion
##ional
##ione
##ionen
##ioner
##ions
##ior
##ios
##ious
##ip
##ipe
##ipend
##iper
##ipl
##ipler
##ipolit
##ipp
##ippe
##ipro
##iprodu
##iprodukter
##ipros
##ips
##ipt
##ique
##ir
##ira
##irasjon
##irca
##ird
##ire
##ireg
##irekte
##irektiv
##irektivet
##irektorat
##irektoratet
##irektoratets
##irektør
##irektøren
##iren
##irer
##ires
##iret
##irk
##irkninger
##irm
##iro
##irs
##irt
##irus
##irut
##is
##isa
##ise
##isem
##isen
##isene
##iser
##isere
##iseren
##iserende
##iserer
##iseres
##isering
##iseringen
##iseringer
##iserings
##isers
##isert
##iserte
##iset
##ish
##isi
##isiko
##isin
##isiner
##ising
##ision
##isitet
##isjon
##isjonen
##isjoner
##isk
##iskap
##iske
##iskop
##ism
##isme
##ismen
##ismene
##ismens
##ismer
##isol
##ison
##isont
##isp
##iss
##issa
##isse
##issen
##issene
##isser
##isset
##ission
##isson
##ist
##ista
##istad
##istan
##istand
##iste
##isten
##istene
##istenes
##istens
##ister
##isteret
##istik
##istikk
##istikken
##istisk
##istiske
##istor
##istre
##istri
##it
##ita
##ital
##italen
##itallet
##itan
##itar
##itas
##itasjon
##itch
##ite
##ited
##iteen
##iten
##itende
##itenskap
##iter
##itere
##itering
##itert
##itet
##iteten
##iteter
##ith
##iti
##ities
##iting
##ition
##itiv
##itive
##itivt
##ito
##itor
##itra
##itre
##its
##itsj
##itt
##itte
##ittel
##ittelen
##ittelse
##itten
##ittene
##itter
##ittet
##itu
##ituasjon
##ituasjonen
##ituasjoner
##itus
##itusjon
##ity
##itz
##itære
##ium
##ius
##iv
##iva
##ivaet
##ival
##ive
##ivelse
##ivelsen
##iven
##ivende
##ivene
##ivenhet
##iver
##ivere
##ivers
##ivert
##ives
##ivet
##ivind
##ivisjon
##ivt
##ix
##iz
##ization
##ize
##izen
##izer
##iør
##iører
##j
##ja
##jab
##jafør
##jak
##jakke
##jakt
##jan
##jar
##jas
##jd
##je
##ject
##jed
##jede
##jeden
##jef
##jefen
##jeg
##jekk
##jekt
##jekter
##jektet
##jel
##jeld
##jell
##jeller
##jeloven
##jelp
##jem
##jema
##jemmet
##jen
##jene
##jener
##jenest
##jeneste
##jenesteloven
##jenesten
##jenestene
##jenestens
##jenester
##jening
##jennom
##jens
##jent
##jenta
##jente
##jentene
##jenter
##jer
##jere
##jern
##jerne
##jernen
##jerner
##jernet
##jert
##jerte
##jes
##jesel
##jet
##jev
##ji
##jing
##jo
##job
##jobb
##jobben
##jobber
##jof
##jon
##jong
##jor
##jord
##jort
##jour
##journal
##joy
##ju
##jul
##just
##juster
##justering
##jø
##jøen
##jønn
##jør
##jøre
##jøring
##jørn
##jøtt
##k
##ka
##kab
##kake
##kaker
##kal
##kalender
##kall
##kalle
##kallende
##kalling
##kalt
##kam
##kamer
##kamera
##kammer
##kamp
##kampen
##kamper
##kan
##kandid
##kandidat
##kant
##kanten
##kap
##kapasitet
##kapital
##kapitalen
##kapp
##kar
##karakter
##kart
##kas
##kassa
##kasse
##kassen
##kasser
##kast
##kaste
##kaster
##kastet
##kat
##katastro
##kategori
##ke
##kede
##kel
##kelen
##kelig
##kelige
##ken
##kende
##kene
##kenes
##ker
##kere
##keren
##kering
##kerne
##kers
##kes
##kess
##kester
##ket
##kete
##ketøy
##key
##kg
##ki
##kil
##kilde
##kilder
##kin
##king
##kingen
##kins
##kir
##kirke
##kirken
##kj
##kja
##kje
##kjede
##kjeden
##kjeder
##kjemp
##kjen
##kjenn
##kjenning
##kjent
##kjente
##kjert
##kjole
##kjær
##kjærlighet
##kjø
##kjøkken
##kjøl
##kjønn
##kjøp
##kjør
##kjøre
##kjørende
##kjøretøy
##kjøring
##kjøringen
##kjørt
##kjøtt
##kjøttet
##kk
##kka
##kke
##kkede
##kkel
##kkelen
##kkelig
##kkelige
##kkelse
##kkelt
##kken
##kkende
##kkene
##kker
##kkere
##kkert
##kkes
##kket
##kkete
##kking
##kkje
##kl
##kla
##klam
##kland
##klar
##klare
##klaring
##klart
##klass
##klasse
##klassen
##klasser
##kle
##kledd
##kledde
##klene
##kler
##klet
##kli
##klikk
##klin
##klinikk
##klinikken
##klipp
##klo
##klubb
##klubben
##klubber
##klund
##klær
##klæring
##klæringen
##km
##kn
##kna
##knappen
##kne
##kning
##kningen
##kningene
##kninger
##knings
##ko
##kob
##kobling
##kode
##koden
##koder
##kok
##kol
##koll
##kolle
##kollen
##kom
##kombin
##komite
##komiteen
##komm
##komme
##kommelig
##kommelighet
##kommen
##kommende
##komment
##kommer
##kommere
##kommet
##kommun
##kommune
##kommunene
##kommunikasjon
##komne
##komp
##kompan
##kompet
##kompetanse
##komst
##kon
##konf
##konferanse
##konferansen
##kongen
##konkur
##konkurran
##konkurranse
##konkurransen
##konom
##kons
##konse
##konsent
##konsept
##konsert
##konstru
##konstruksjoner
##konsulent
##kont
##kontakt
##konto
##kontor
##kontoret
##kontrakt
##kontroll
##kontrollen
##kontroller
##konvensjon
##konvensjonen
##koordinator
##kop
##kor
##korn
##korps
##kort
##kortet
##kos
##kose
##kost
##kostnadene
##kostnader
##kostninger
##kr
##kra
##kraft
##kraften
##kran
##krav
##kravene
##kravet
##kre
##kreft
##krefter
##krem
##kret
##krets
##kretsen
##kretær
##krevende
##krig
##krigen
##kring
##krit
##kriter
##kritikk
##kro
##kron
##kropp
##kroppen
##kry
##ks
##kse
##ksen
##ksene
##kser
##kset
##ksis
##ksjon
##ksjonen
##ksjonene
##ksjoner
##ksom
##ksomhet
##ksomme
##ksp
##kt
##kta
##kte
##ktede
##kten
##ktene
##kter
##ktere
##ktert
##ktes
##kteskap
##ktet
##ktig
##ktige
##ktighet
##ktiv
##ktive
##ktivet
##ktivitet
##ktivt
##kton
##ktor
##ktorat
##ktoratet
##ktoren
##ktorer
##ktt
##ktør
##ktøren
##ktøy
##ku
##kul
##kultur
##kulturen
##kun
##kunder
##kunnskap
##kunnskaper
##kunst
##kunsten
##kur
##kurran
##kurs
##kurset
##kv
##kval
##kvalitet
##kvaliteten
##kvar
##kveld
##kvelder
##kvens
##kvent
##kvinn
##ky
##kysten
##l
##la
##lab
##lad
##lade
##ladet
##lag
##lage
##lagen
##lagene
##lager
##laget
##lagg
##lagt
##lagte
##lam
##lament
##lamentet
##lamm
##lan
##land
##landet
##landing
##lands
##landskap
##landskapet
##lant
##lanter
##lar
##las
##lass
##last
##lat
##late
##lates
##lav
##lay
##ld
##ldyr
##le
##led
##ledd
##lede
##ledelse
##ledelsen
##leden
##ledende
##leder
##ledere
##ledes
##ledet
##ledning
##ledningen
##ledninger
##leg
##lege
##legen
##legene
##leger
##legg
##legge
##leggelse
##legger
##legges
##legget
##legging
##leggingen
##lei
##leie
##leik
##leir
##leis
##lek
##lekk
##leks
##lem
##lement
##lementet
##lemer
##lemet
##lemmene
##lemmer
##len
##lend
##lende
##lender
##lene
##lenes
##leng
##lengde
##ler
##lere
##leren
##lerne
##lers
##lert
##lerud
##les
##leser
##lesere
##lesing
##lesning
##less
##lest
##lestad
##lestelse
##lesund
##let
##lete
##lett
##letter
##lev
##leve
##levelse
##levelsen
[...]
