[unused0]
[unused1]
[unused2]
[unused3]
[unused4]
[unused5]
[unused6]
[unused7]
[unused8]
[unused9]
[unused10]
[unused11]
[unused12]
[unused13]
[unused14]
[unused15]
[unused16]
[unused17]
[unused18]
[unused19]
[unused20]
[unused21]
[unused22]
[unused23]
[unused24]
[unused25]
[unused26]
[unused27]
[unused28]
[unused29]
[unused30]
[unused31]
[unused32]
[unused33]
[unused34]
[unused35]
[unused36]
[unused37]
[unused38]
[unused39]
[unused40]
[unused41]
[unused42]
[unused43]
[unused44]
[unused45]
[unused46]
[unused47]
[unused48]
[unused49]
[unused50]
[unused51]
[unused52]
[unused53]
[unused54]
[unused55]
[unused56]
[unused57]
[unused58]
[unused59]
[unused60]
[unused61]
[unused62]
[unused63]
[unused64]
[unused65]
[unused66]
[unused67]
[unused68]
[unused69]
[unused70]
[unused71]
[unused72]
[unused73]
[unused74]
[unused75]
[unused76]
[unused77]
[unused78]
[unused79]
[unused80]
[unused81]
[unused82]
[unused83]
[unused84]
[unused85]
[unused86]
[unused87]
[unused88]
[unused89]
[unused90]
[unused91]
[unused92]
[unused93]
[unused94]
[unused95]
[unused96]
[unused97]
[unused98]
[unused99]
[unused100]
[unused101]
[unused102]
[unused103]
[unused104]
[unused105]
[unused106]
[unused107]
[unused108]
[unused109]
[unused110]
[unused111]
[unused112]
[unused113]
[unused114]
[unused115]
[unused116]
[unused117]
[unused118]
[unused119]
[unused120]
[unused121]
[unused122]
[unused123]
[unused124]
[unused125]
[unused126]
[unused127]
[unused128]
[unused129]
[unused130]
[unused131]
[unused132]
[unused133]
[unused134]
[unused135]
[unused136]
[unused137]
[unused138]
[unused139]
[unused140]
[unused141]
[unused142]
[unused143]
[unused144]
[unused145]
[unused146]
[unused147]
[unused148]
[unused149]
[unused150]
[unused151]
[unused152]
[unused153]
[unused154]
[unused155]
[unused156]
[unused157]
[unused158]
[unused159]
[unused160]
[unused161]
[unused162]
[unused163]
[unused164]
[unused165]
[unused166]
[unused167]
[unused168]
[unused169]
[unused170]
[unused171]
[unused172]
[unused173]
[unused174]
[unused175]
[unused176]
[unused177]
[unused178]
[unused179]
[unused180]
[unused181]
[unused182]
[unused183]
[unused184]
[unused185]
[unused186]
[unused187]
[unused188]
[unused189]
[unused190]
[unused191]
[unused192]
[unused193]
[unused194]
[unused195]
[unused196]
[unused197]
[unused198]
[unused199]
[unused200]
[unused201]
[unused202]
[unused203]
[unused204]
[unused205]
[unused206]
[unused207]
[unused208]
[unused209]
[unused210]
[unused211]
[unused212]
[unused213]
[unused214]
[unused215]
[unused216]
[unused217]
[unused218]
[unused219]
[unused220]
[unused221]
[unused222]
[unused223]
[unused224]
[unused225]
[unused226]
[unused227]
[unused228]
[unused229]
[unused230]
[unused231]
[unused232]
[unused233]
[unused234]
[unused235]
[unused236]
[unused237]
[unused238]
[unused239]
[unused240]
[unused241]
[unused242]
[unused243]
[unused244]
[unused245]
[unused246]
[unused247]
[unused248]
[unused249]
[unused250]
[unused251]
[unused252]
[unused253]
[unused254]
[unused255]
[unused256]
[unused257]
[unused258]
[unused259]
[unused260]
[unused261]
[unused262]
[unused263]
[unused264]
[unused265]
[unused266]
[unused267]
[unused268]
[unused269]
[unused270]
[unused271]
[unused272]
[unused273]
[unused274]
[unused275]
[unused276]
[unused277]
[unused278]
[unused279]
[unused280]
[unused281]
[unused282]
[unused283]
[unused284]
[unused285]
[unused286]
[unused287]
[unused288]
[unused289]
[unused290]
[unused291]
[unused292]
[unused293]
[unused294]
[unused295]
[unused296]
[unused297]
[unused298]
[unused299]
[unused300]
[unused301]
[unused302]
[unused303]
[unused304]
[unused305]
[unused306]
[unused307]
[unused308]
[unused309]
[unused310]
[unused311]
[unused312]
[unused313]
[unused314]
[unused315]
[unused316]
[unused317]
[unused318]
[unused319]
[unused320]
[unused321]
[unused322]
[unused323]
[unused324]
[unused325]
[unused326]
[unused327]
[unused328]
[unused329]
[unused330]
[unused331]
[unused332]
[unused333]
[unused334]
[unused335]
[unused336]
[unused337]
[unused338]
[unused339]
[unused340]
[unused341]
[unused342]
[unused343]
[unused344]
[unused345]
[unused346]
[unused347]
[unused348]
[unused349]
[unused350]
[unused351]
[unused352]
[unused353]
[unused354]
[unused355]
[unused356]
[unused357]
[unused358]
[unused359]
[unused360]
[unused361]
[unused362]
[unused363]
[unused364]
[unused365]
[unused366]
[unused367]
[unused368]
[unused369]
[unused370]
[unused371]
[unused372]
[unused373]
[unused374]
[unused375]
[unused376]
[unused377]
[unused378]
[unused379]
[unused380]
[unused381]
[unused382]
[unused383]
[unused384]
[unused385]
[unused386]
[unused387]
[unused388]
[unused389]
[unused390]
[unused391]
[unused392]
[unused393]
[unused394]
[unused395]
[unused396]
[unused397]
[unused398]
[unused399]
[unused400]
[unused401]
[unused402]
[unused403]
[unused404]
[unused405]
[unused406]
[unused407]
[unused408]
[unused409]
[unused410]
[unused411]
[unused412]
[unused413]
[unused414]
[unused415]
[unused416]
[unused417]
[unused418]
[unused419]
[unused420]
[unused421]
[unused422]
[unused423]
[unused424]
[unused425]
[unused426]
[unused427]
[unused428]
[unused429]
[unused430]
[unused431]
[unused432]
[unused433]
[unused434]
[unused435]
[unused436]
[unused437]
[unused438]
[unused439]
[unused440]
[unused441]
[unused442]
[unused443]
[unused444]
[unused445]
[unused446]
[unused447]
[unused448]
[unused449]
[unused450]
[unused451]
[unused452]
[unused453]
[unused454]
[unused455]
[unused456]
[unused457]
[unused458]
[unused459]
[unused460]
[unused461]
[unused462]
[unused463]
[unused464]
[unused465]
[unused466]
[unused467]
[unused468]
[unused469]
[unused470]
[unused471]
[unused472]
[unused473]
[unused474]
[unused475]
[unused476]
[unused477]
[unused478]
[unused479]
[unused480]
[unused481]
[unused482]
[unused483]
[unused484]
[unused485]
[unused486]
[unused487]
[unused488]
[unused489]
[unused490]
[unused491]
[unused492]
[unused493]
[unused494]
[unused495]
[unused496]
[unused497]
[unused498]
[unused499]
[CLS]
[MASK]
[PAD]
[SEP]
[UNK]
!
"
#
$
%
&
'
(
)
*
+
,
-
.
/
0
1
2
3
4
5
6
7
8
9
:
;
=
?
@
[
\
]
^
_
`
a
b
c
d
e
f
g
h
i
j
k
l
m
n
o
p
q
r
s
t
u
v
w
x
y
z
{
|
}
~
¡
¢
£
¤
¥
§
¨
©
ª
«
¬
®
¯
°
±
²
³
´
µ
·
¹
º
»
¼
½
¾
¿
×
ß
æ
ð
÷
ø
þ
đ
ħ
ı
ĳ
ł
ŋ
œ
ɐ
ɑ
ɒ
ɓ
ɔ
ɕ
ə
ɛ
ɡ
ɣ
ɦ
ɨ
ɪ
ɫ
ɲ
ɾ
ʀ
ʁ
ʂ
ʃ
ʊ
ʋ
ʌ
ʎ
ʏ
ʒ
ʔ
ʕ
ʰ
ʲ
ʹ
ʻ
ʼ
ʾ
ʿ
ˀ
ˈ
ˌ
ː
˚
ˠ
ˡ
ˢ
α
β
γ
δ
ε
ζ
η
θ
ι
κ
λ
μ
ν
ξ
ο
π
ρ
ς
σ
τ
υ
φ
χ
ψ
ω
а
б
в
г
д
е
ж
з
и
к
л
м
н
о
п
р
с
т
у
ф
х
ц
ч
ш
щ
ъ
ы
ь
э
ю
я
ђ
є
і
ј
љ
њ
ћ
қ
ү
ә
ө
ա
բ
գ
դ
ե
զ
թ
ի
լ
կ
հ
մ
յ
ն
շ
ո
պ
ս
վ
տ
ր
ց
ւ
ֆ
׃
א
ב
ג
ד
ה
ו
ז
ח
ט
י
ך
כ
ל
ם
מ
ן
נ
ס
ע
פ
ץ
צ
ק
ר
ש
ת
ء
ا
ب
ة
ت
ث
ج
ح
خ
د
ذ
ر
ز
س
ش
ص
ض
ط
ظ
ع
غ
ف
ق
ك
ل
م
ن
ه
و
ى
ي
پ
چ
ک
گ
ھ
ہ
ۇ
ی
ێ
ە
ܐ
މ
अ
क
ग
च
ज
ट
ड
ण
त
द
ध
न
प
ब
भ
म
य
र
ल
व
श
स
ह
ा
ि
ी
ो
ত
ন
ব
ম
র
ল
া
ি
ਾ
க
ங
ச
த
ன
ப
ம
ர
ல
ழ
வ
ா
ி
ு
ం
క
జ
ద
న
ప
ర
ల
ు
ก
ค
ง
จ
ช
ญ
ณ
ด
ต
ท
ธ
น
บ
ป
พ
ภ
ม
ย
ร
ล
ว
ศ
ส
ห
อ
ะ
า
เ
แ
โ
ไ
་
ག
ང
ད
ན
བ
མ
འ
ར
ལ
ས
ა
ბ
გ
დ
ე
ვ
ზ
თ
ი
კ
ლ
მ
ნ
ო
რ
ს
ტ
უ
ფ
ქ
შ
ძ
ხ
ᄀ
ᄂ
ᄃ
ᄅ
ᄆ
ᄇ
ᄉ
ᄋ
ᄌ
ᄎ
ᄏ
ᄐ
ᄑ
ᄒ
ᅡ
ᅢ
ᅣ
ᅥ
ᅦ
ᅧ
ᅩ
ᅪ
ᅬ
ᅭ
ᅮ
ᅯ
ᅱ
ᅲ
ᅳ
ᅴ
ᅵ
ᆨ
ᆫ
ᆯ
ᆷ
ᆸ
ᆼ
ን
አ
ក
ត
រ
ស
ា
ᴧ
‐
‑
–
—
‗
‘
’
‚
“
”
„
†
‡
•
…
‰
′
″
⁄
₁
₂
₃
₤
€
ℓ
№
™
⅓
⅔
←
↑
→
↔
⇒
⇔
∀
∃
∇
∈
−
∙
√
∞
∪
≈
≡
≤
≥
⊆
⋅
─
│
└
├
═
║
╔
╗
╚
╝
●
◡
◦
☆
☉
♠
♣
♥
♦
♪
♭
♯
⟨
⟩
ⴕ
ⴰ
あ
い
う
お
か
き
く
け
こ
さ
し
す
た
ち
っ
つ
て
と
な
に
の
は
ひ
ふ
ほ
ま
み
ゆ
ょ
ら
り
る
れ
わ
ん
ァ
ア
ィ
イ
ウ
エ
オ
カ
キ
ク
ケ
コ
サ
シ
ス
セ
ソ
タ
チ
ッ
ツ
テ
ト
ナ
ニ
ネ
ノ
ハ
ヒ
フ
ヘ
ホ
マ
ミ
ム
メ
モ
ャ
ュ
ョ
ラ
リ
ル
レ
ロ
ン
・
ー
一
三
上
下
世
东
中
丸
丹
丽
之
乙
九
事
二
五
井
交
京
人
仁
仙
代
份
伊
会
伝
体
作
你
保
信
元
光
克
全
八
公
六
共
关
内
刀
分
剣
劉
力
加
勒
動
化
北
区
十
千
华
協
南
博
历
原
县
双
口
古
台
号
司
合
名
君
吳
吴
周
和
哈
唐
商
嘉
四
团
国
國
土
地
城
域
場
士
夏
外
多
大
天
太
夫
夷
女
委
姫
威
子
字
学
孫
學
宁
安
宗
定
宜
宮
家
富
寺
将
小
尔
尾
居
屋
山
岛
岡
岭
島
崎
川
州
工
市
布
帝
平
年
广
庆
店
府
康
廣
建
式
张
張
後
徐
御
徳
德
心
忠
愛
慶
成
战
戦
戰
所
手
拉
拳
政
教
文
斯
新
方
族
旗
日
昌
明
易
星
春
曆
曲
會
月
有
朝
木
本
朱
李
村
東
松
林
柔
柳
校
株
桥
梅
條
業
極
樂
橋
機
正
武
殿
民
気
氣
水
永
汉
江
汽
沖
沙
河
油
治
泉
法
波
泰
洋
津
流
海
清
港
湖
湾
漢
漬
灣
火
無
焼
爾
物
特
玄
玉
王
球
理
甘
生
産
田
由
甲
町
界
白
百
皇
盟
直
相
省
県
真
眼
石
社
神
福
秋
秦
空
第
節
米
精
約
紅
級
縣
红
羅
美
群
義
者
聖
股
育
自
臺
花
英
茶
草
華
葉
蒙
藏
藤
虎
行
術
西
解
記
象
貴
路
車
軍
輪
通
造
道
郎
郡
部
都
酒
里
重
野
金
鈴
鉄
銀
長
长
門
間
门
阳
阿
限
院
陳
陵
陽
隊
際
集
雪
青
韓
音
風
飛
飯
香
馬
马
高
魂
麗
黄
龍
龙
ﬁ
ﬂ
（
）
：
￼
00
000
01
02
03
04
05
06
07
08
09
10
100
1000
101
102
103
104
105
106
1066
107
108
109
11
110
1100
111
112
113
114
115
1150
116
117
118
119
12
120
1200
121
122
123
124
125
1250
126
127
128
129
13
130
1300
131
132
133
134
1340
135
1350
136
137
138
139
14
140
1400
141
142
143
144
145
1450
146
147
148
149
15
150
1500
151
152
1520
1521
1523
1525
153
1530
1534
1535
1536
1537
154
1540
155
1550
1559
156
1560
157
1570
158
1580
1588
159
1590
16
160
1600
1602
1603
1609
161
1610
1611
1612
1616
1617
1618
1619
162
1620
1622
1623
1624
1625
1627
1629
163
1630
1632
1634
1635
164
1640
1641
1642
1643
1644
1645
1648
1649
165
1650
1651
1652
1653
1654
1655
1656
1657
1658
1659
166
1660
1661
1662
1663
1664
1665
1666
1667
1668
1669
167
1670
1671
1672
1673
1674
1675
1676
1677
1678
1679
168
1680
1681
1682
1683
1684
1685
1686
1687
1688
1689
169
1690
1691
1692
1693
1694
1695
1696
1697
1698
1699
17
170
1700
1701
1702
1703
1704
1705
1706
1707
1708
1709
171
1710
1711
1712
1713
1714
1715
1716
1717
1718
1719
172
1720
1721
1722
1723
1724
1725
1726
1727
1728
1729
173
1730
1731
1732
1733
1734
1735
1736
1737
1738
1739
174
1740
1741
1742
1743
1744
1745
1746
1747
1748
1749
175
1750
1751
1752
1753
1754
1755
1756
1757
1758
1759
176
1760
1761
1762
1763
1764
1765
1766
1767
1768
1769
177
1770
1771
1772
1773
1774
1775
1776
1777
1778
1779
178
1780
1781
1782
1783
1784
1785
1786
1787
1788
1789
179
1790
1791
1792
1793
1794
1795
1796
1797
1798
1799
18
180
1800
1801
1802
1803
1804
1805
1806
1807
1808
1809
181
1810
1811
1812
1813
1814
1815
1816
1817
1818
1819
182
1820
1821
1822
1823
1824
1825
1826
1827
1828
1829
183
1830
1831
1832
1833
1834
1835
1836
1837
1838
1839
184
1840
1841
1842
1843
1844
1845
1846
1847
1848
1849
185
1850
1851
1852
1853
1854
1855
1856
1857
1858
1859
186
1860
1861
1862
1863
1864
1865
1866
1867
1868
1869
187
1870
1871
1872
1873
1874
1875
1876
1877
1878
1879
188
1880
1881
1882
1883
1884
1885
1886
1887
1888
1889
189
1890
1891
1892
1893
1894
1895
1896
1897
1898
1899
19
190
1900
1901
1902
1903
1904
1905
1906
1907
1908
1909
191
1910
1911
1912
1913
1914
1915
1916
1917
1918
1919
192
1920
1921
1922
1923
1924
1925
1926
1927
1928
1929
193
1930
1931
1932
1933
1934
1935
1936
1937
1938
1939
194
1940
1941
1942
1943
1944
1945
1946
1947
1948
1949
195
1950
1951
1952
1953
1954
1955
1956
1957
1958
1959
196
1960
1961
1962
1963
1964
1965
1966
1967
1968
1969
197
1970
1971
1972
1973
1974
1975
1976
1977
1978
1979
198
1980
1981
1982
1983
1984
1985
1986
1987
1988
1989
199
1990
1991
1992
1993
1994
1995
1996
1997
1998
1999
1½
20
200
2000
2001
2002
2003
2004
2005
2006
2007
2008
2009
201
2010
2011
2012
2013
2014
2015
2016
2017
2018
2019
202
2020
2021
2022
203
204
205
206
207
208
21
210
215
22
220
225
23
230
235
238
24
240
25
250
26
260
27
270
275
28
280
29
290
2½
30
300
3000
31
310
32
320
325
33
330
34
340
35
350
36
360
37
370
38
380
39
390
3d
40
400
4000
41
410
42
420
43
430
44
440
45
450
46
460
47
470
48
480
49
490
50
500
5000
51
510
52
520
53
530
54
540
55
550
56
560
57
570
58
580
59
60
600
6000
61
62
63
630
64
640
65
650
66
67
68
69
70
700
71
72
720
73
74
75
750
76
77
78
79
80
800
81
82
83
84
85
850
86
87
88
89
90
900
91
92
93
94
95
950
96
97
98
99
a3
a4
aa
aab
aaben
aabenraa
aaby
aachen
aagaard
aage
aak
aal
aalborg
aar
aarhus
aaron
aars
aas
ab
abbas
abbe
abbed
abbey
abc
abd
abdul
abe
abel
aben
abenbar
abenbaring
abenbart
abenlyst
abent
aber
abild
abne
abnede
abnedes
abner
abnes
abnet
abning
abningen
abnings
abo
abonn
abor
abort
about
abraham
abs
absalon
absol
absolut
absolute
absolutte
absor
absorber
abstrakt
abstrakte
abu
aby
ac
academ
academie
academy
acc
accel
acceler
accent
accep
accept
acceptere
accepterede
accepterer
accepteret
access
ace
acet
acetyl
ach
act
action
actor
ad
adal
adam
adams
add
adel
adela
adelaide
adelen
adelig
adelige
adels
adelsmand
adelsmænd
adelsslægt
aden
adfærd
adgang
adgangen
adjudant
adjunkt
adler
adlet
adm
administ
administr
administration
administrationen
administrations
administrationsby
administrationscenter
administrativ
administrative
administrativt
administrator
administrer
administrerende
administrerer
administreres
administreret
admiral
admiralitet
adolf
adolph
adop
adopt
adopteret
adoptiv
adresse
adressen
adresser
adri
adrian
adriater
adsk
adskil
adskill
adskille
adskillelse
adskiller
adskilles
adskillige
adskilt
adskilte
adv
advar
advarede
advarsel
advent
adventure
advok
advokat
aeg
aen
aer
af
afb
afbil
afbild
afbildet
afbrudt
afbry
afbryde
afbrød
afbud
afc
afd
afdeling
afdelingen
afdelinger
afdøde
aff
affa
affald
affyr
affyrede
affyret
affære
affæren
afg
afgang
afgange
afgav
afgh
afghan
afghanistan
afgift
afgifter
afgik
afgive
afgiver
afgivet
afgjorde
afgjort
afgræn
afgrænses
afgrænset
afgrænsning
afgrøder
afgør
afgøre
afgørelse
afgørelsen
afgørelser
afgørende
afgøres
afh
afhandling
afhandlingen
afhandlinger
afholde
afholdelse
afholder
afholdes
afholdt
afholdtes
afhæng
afhænger
afhængig
afhængige
afhængighed
afhængigt
afkald
afkast
afkom
afkø
afl
aflagde
afled
afledt
afledte
aflej
aflejringer
aflev
afly
aflyst
aflø
afløb
afløse
afløser
afløst
afløste
afløstes
afpr
afric
africa
african
afrik
afrika
afrikansk
afrikanske
afrikas
afro
afrund
afs
afsat
afsatte
afsk
afskaff
afskaffe
afskaffede
afskaffelse
afskaffet
afskaret
afsked
afskediget
afskære
afsl
afslog
afslut
afslutning
afslutningen
afslutte
afsluttede
afsluttedes
afsluttende
afsluttes
afsluttet
afslør
afsløre
afslørede
afslører
afsløret
afsnit
afsnittet
afson
afspej
afspejler
afst
afsta
afstamning
afstand
afstande
afstanden
afsted
afstemning
afstemningen
afstod
aft
aftale
aftalen
aftaler
aftalt
aftalte
aften
aftenen
aftens
after
afv
afvand
afvanding
afvandingsomrade
afvig
afviger
afvik
afvikledes
afvikles
afviklet
afvikling
afvise
afviser
afvisning
afvist
afviste
afvær
ag
aga
again
agat
agder
age
agen
agent
agenter
ager
agf
agg
agger
aggress
aggressiv
aggressive
agnes
agnete
agri
agt
agter
agu
ah
ahl
ahle
ahlefeldt
ahm
ahmad
ahmed
aids
aik
ain
air
airbus
aircraft
aires
airlines
airport
airways
aj
aja
ajax
ak
akadem
akademi
akademiet
akademiets
akademisk
akademiske
aker
akers
akershus
akk
akkomp
akkum
akr
aks
akse
aksel
aksem
akt
akter
aktie
aktier
aktierne
akties
aktieselskab
aktion
aktionen
aktioner
aktiv
aktive
aktiver
aktivist
aktivister
aktivitet
aktiviteter
aktiviteterne
aktivt
aktuel
aktuelle
aktuelt
aktør
aktører
akust
akustisk
akustiske
akut
akv
akvar
al
alab
alabama
alan
aland
alar
alarm
alask
alaska
alb
alba
alban
albanien
albansk
albanske
alber
albert
alberto
albertslund
alborg
albrecht
album
albummer
albummet
albummets
albums
alc
ald
aldeles
alder
alderdom
alderen
alders
aldrende
aldrig
ale
aleks
aleksand
aleksandr
alen
alene
ales
alessand
alesund
alev
alex
alexand
alexander
alexandra
alexandre
alexandria
alf
alfa
alfabet
alfons
alfonso
alfred
alg
alge
algebra
alger
algeriet
algier
algor
algorit
ali
alias
alice
alig
align
alk
alkal
alko
alkohol
all
allan
alle
allen
aller
allerede
allerførste
allian
alliance
alliancen
alliancer
allier
allierede
allieredes
allieret
alligevel
alling
allsvenskan
alm
alma
almen
almene
almennyt
alment
almindel
almindelig
almindelige
almindelighed
almindeligste
almindeligt
almindeligvis
alp
alpe
alper
alperne
alph
alpha
alpine
als
alsa
alsace
alsid
alsidig
alt
alten
alter
alteret
altern
alternat
alternativ
alternative
alternativt
altertav
altertavle
altertavlen
altid
alting
altinget
altona
altsa
alum
alumin
aluminium
alv
alvor
alvorlig
alvorlige
alvorligt
am
amadeus
amager
amal
amalie
amalienborg
amanda
amatør
amatører
amaz
amazon
amb
ambass
ambassa
ambassad
ambassade
ambassadør
ambiti
ambition
ambitioner
ambro
ambul
ambulance
amer
america
american
amerik
amerika
amerikan
amerikaner
amerikanere
amerikaneren
amerikanerne
amerikansk
amerikanske
amerikas
amf
amfib
aminos
aminosyrer
ammon
ammunition
amne
amor
amp
amsterdam
amt
amter
amtet
amtets
amtmand
amts
amtskreds
amtsrad
amund
amundsen
amy
an
ana
anab
anal
analog
analoge
analy
analys
analyse
analyser
analysere
analyt
anark
anastas
anat
anatol
anatolien
anatom
anatomi
anbe
anbef
anbefal
anbefalede
anbefaler
anbefales
anbefalet
anbefaling
anbefalinger
anbragt
anc
ancher
and
andalus
ande
anded
andel
andelen
andelig
andelige
andels
andelsmejeri
anden
andenplads
andenpladsen
andens
ander
anderledes
anders
andersen
andersens
anderson
andersson
andes
andet
andor
andorra
andre
andrea
andreas
andreasen
andres
andrew
andrews
androg
ands
andy
ane
aner
anerkende
anerkendelse
anerkender
anerkendes
anerkendt
anerkendte
anfald
anfører
anføres
anført
anførte
ang
angaende
angar
angav
angel
angela
angeles
angels
angelsaks
angelsaksiske
anger
angiv
angive
angiveligt
angiver
angives
angivet
anglo
angola
angreb
angrebene
angrebet
angri
angrib
angribe
angriber
angst
anh
anhalt
anholdt
anim
animation
animationsfilm
anime
animerede
animeret
anj
anja
anjou
anker
ankl
anklage
anklagede
anklagem
anklager
anklaget
ankom
ankommer
ankommet
ankomst
ankomsten
anlagde
anlagdes
anlagt
anlagte
anledning
anledningen
anliggender
anlæg
anlægge
anlæggelsen
anlægges
anlægget
anlægs
anløb
anmel
anmeldelse
anmeldelser
anmelder
anmeldere
anmelderne
anmod
anmodede
anmodning
ann
anna
anne
annek
anneks
annekteret
annette
annie
anno
annon
annonc
annoncerede
annonceret
annul
anonym
anonyme
anonymt
ans
ansa
ansas
ansat
ansatte
ansattes
anse
anseelse
anser
anses
anset
ansete
ansigt
ansigtet
anskaff
ansku
anskuelser
ansl
anslaet
anslas
anstren
ansvar
ansvaret
ansvarlig
ansvarlige
ansvarshavende
ansættelse
ansø
ansøg
ansøgning
ansøgte
ant
antag
antage
antagelig
antagelse
antager
antages
antaget
antal
antallet
antarkt
antarktis
anten
antenne
anth
anthony
anti
antibi
antibiotika
antik
antikke
antikken
antikkens
antikv
antil
antiluft
antiluftskyt
antio
antioch
antip
antis
antisem
antisemit
antist
anto
antog
antoine
antoinette
anton
antonio
antonius
antrop
antropologi
antwer
antwerpen
antyder
anv
anven
anvende
anvendelse
anvendelsen
anvendelser
anvender
anvendes
anvendt
anvendte
anvendtes
anz
anzac
ap
apart
apartheid
apo
apol
apoll
apollo
apost
apostlen
apote
apotek
apoteker
app
apparat
apparater
appel
apple
apr
april
aps
apsis
apul
apulien
aqu
ar
ara
arab
arabere
araberne
arabien
arabisk
arabiske
arag
aragon
aragonien
aram
arbe
arbeider
arbej
arbejd
arbejde
arbejdede
arbejder
arbejdere
arbejderne
arbejdernes
arbejderparti
arbejdes
arbejdet
arbejds
arbejdsg
arbejdsgiver
arbejdskraft
arbejdsløs
arbejdsløshed
arbejdsmark
arbejdsmarked
arbejdsmarkedet
arbejdsplads
arbejdspladser
arc
arch
archite
ard
arden
are
area
areal
arealer
arealet
aren
arena
arenaen
arendal
arene
arenes
aret
arets
arg
argang
argent
argentina
argentinas
argentinsk
argentinske
argum
argument
argumenter
argumenterede
argumenterer
arh
arhund
arhundred
arhundrede
arhundreder
arhundredes
arhundredeskiftet
arhundredet
arhus
ari
arig
arige
arist
aristokrat
aristotel
aristoteles
ariz
arizona
ark
arkansas
arkite
arkitekt
arkitekten
arkitekter
arkitekterne
arkitektonisk
arkitektoniske
arkitektskole
arkitektur
arkitekturen
arkiv
arkiver
arkt
arktiske
arkæ
arkæolog
arkæologer
arkæologi
arkæologisk
arkæologiske
arlig
arlige
arligt
arm
arme
armeer
armen
armenien
armensk
armenske
armes
armst
armstrong
army
arn
arne
arnold
aron
arrang
arrangement
arrangementer
arrangementet
arrangere
arrangerede
arrangerer
arrangeres
arrangeret
arrangør
arrest
arresteret
arrond
arrondisse
arrondissement
arrække
ars
arsag
arsagen
arsager
arsagerne
arsdagen
arsen
arsenal
arsskiftet
arstal
arstallet
arstid
art
arte
artem
arten
arter
arterne
arthur
arti
artier
artik
artikel
artiklen
artikler
artiller
artilleri
artilleriet
artist
artister
arts
artus
artusind
artusinde
arv
arve
arvede
arvefølge
arvefølgen
arven
arveprins
arveret
arvet
arving
arvinger
as
asa
asb
asc
aser
aserbajdsj
aserbajdsjan
asf
asfal
asfalt
asger
ash
asiat
asiatisk
asiatiske
asien
ask
aske
askov
asm
asp
aspekt
aspekter
ass
assem
assens
assessor
assimil
assist
assistance
assistens
assistent
assistenttræner
assisterende
assoc
associ
association
associeret
assy
ast
asta
aster
astero
astma
aston
astr
astra
astrid
astron
astronau
astronaut
astronom
astronomi
astronomiske
astrup
astur
asyl
asymmet
at
ate
atel
atelier
ath
athen
athlet
athletic
atl
atlant
atlanta
atlanter
atlanterhav
atlanterhavet
atlantic
atlantis
atlas
atlet
atleter
atletico
atletik
atmos
atmosfær
atmosfære
atmosfæren
atom
atomb
atomer
atomkraft
atomvaben
atp
att
atten
attent
attentat
attentatet
atter
attra
attraktioner
au
aub
aud
audi
audition
auf
aug
augsburg
august
augusta
auguste
augustenborg
augustin
augustus
auktion
aur
aus
auschwitz
aust
austin
austral
australia
australian
australien
australiens
australsk
australske
aut
autent
author
auto
autod
autom
automat
automatgear
automatisk
automobil
autonom
autonome
autonomi
autor
autoriserede
autoritet
aux
av
avanc
avancerede
avanceret
avant
avantgarde
aved
aven
avenue
aver
avis
avisen
avisens
aviser
aviv
avl
avls
avn
aw
award
awards
away
ax
axel
ay
az
ba
bab
baby
babylon
bac
bach
bachel
bachelor
back
bacon
bad
bade
baden
badene
badens
badm
badminton
baek
bag
bagager
bagdad
bage
bagefter
bager
bageri
baggrund
baggrunden
bagside
bagsiden
bagsværd
bagt
bagud
bagved
bah
bahn
bahrain
baht
bailey
baj
bak
baker
bakk
bakke
bakken
bakker
bakkerne
bakket
bakter
bakterier
bal
balance
bald
balder
balduin
bale
balkan
ball
ballade
balle
ballerup
ballet
balling
ballon
balt
baltikum
baltimore
baltiske
bam
bambus
bamse
ban
band
bande
banden
bandet
bandets
bands
bandy
bane
banebrydende
banecyk
banegard
banen
banens
baner
banet
banetrace
bang
bange
bangkok
bangladesh
bank
banke
banken
bankens
banker
banks
banner
bant
bapt
baptiste
bar
barbar
barbara
barber
barcel
barcelona
bard
bare
baret
bark
barken
barn
barnd
barndom
barndommen
barne
barnebarn
barnet
barnets
barok
baron
baronesse
baroniet
barry
barske
bart
barthol
bas
basale
basalt
base
baseball
basel
basen
baser
baserede
baserer
baseret
basil
basis
bask
basker
basket
basketball
bass
bassin
bassist
bassisten
bast
bat
batal
batalj
bataljon
bataljoner
bath
batman
batt
batter
batteri
batterier
batteriet
battle
bau
baud
bay
bayer
bayern
bayerske
bb
bbc
bd
be
beach
bearbej
beat
beatles
beau
beaut
beb
bebo
beboede
beboelse
beboelses
beboer
beboere
beboerne
beboet
bebygg
bebyggelse
bebyggelsen
bebyggelser
bebyggelserne
bebygget
bec
bech
beck
becker
bed
bede
beder
bedrager
bedre
bedrift
bedrifter
bedst
bedste
bedstefar
bedstem
bedstemor
bedt
bedøm
bedømmelse
been
beers
beersheba
beeth
beethoven
bef
befal
befaling
befandt
befinder
befolk
befolkede
befolket
befolkning
befolkningen
befolkningens
befolknings
befolkningsgrupper
befolkningstal
befolkningstallet
befolkningstæt
befolkningstæthed
befri
befrielse
befrielsen
befrielses
befriet
befru
befæst
befæstede
befæstet
befæstning
befæstninger
beføjelser
beg
bega
begaet
begav
begavet
begejst
begejstret
begejstring
begge
begik
begin
begiven
begivenhed
begivenheden
begivenheder
begivenhederne
begrav
begravelse
begravelsen
begravelses
begravet
begreb
begreber
begreberne
begrebet
begrund
begrundelse
begrundelsen
begrundet
begræn
begrænse
begrænsede
begrænser
begrænset
begrænsning
begrænsninger
begunst
begynd
begynde
begyndelse
begyndelsen
begyndende
begynder
begyndt
begyndte
beh
behag
behand
behandle
behandlede
behandler
behandles
behandlet
behandling
behandlingen
behandlinger
beher
beholde
beholder
beholdt
behov
behovet
behøvede
behøver
bei
beij
beijing
bej
bek
bekendt
bekendte
bekendtgjorde
bekendtskab
bekl
beklæd
beklædning
beklædt
beklædte
bekost
bekostning
bekræ
bekræft
bekræfte
bekræftede
bekræfter
bekræftet
bekym
bekymret
bekymring
bekymringer
bekæmp
bekæmpe
bekæmpelse
bel
belagt
belast
belastning
belej
belejrede
belejret
belejring
belejringen
belfast
belg
belgien
belgisk
belgiske
belig
beliggen
beliggende
beliggenhed
beliggenheden
bell
bella
belle
belysning
belæg
beløb
beløn
belønnet
belønning
bem
bemandede
bemandet
bemærk
bemærkede
bemærkelses
bemærkelsesværdig
bemærkelsesværdige
bemærkelsesværdigt
bemærker
bemærkes
bemærket
bemærkninger
ben
bend
bendix
bendt
bene
bened
benedikt
benene
beng
bengt
benj
benjamin
bennett
benny
bent
benyt
benytte
benyttede
benyttedes
benytter
benyttes
benyttet
benz
benzin
benzinmotor
benzinmotorer
benzon
benægt
benævn
benævnes
benævnt
beograd
beord
beordrede
beordret
ber
berber
bere
bered
beredne
beredskab
bereg
beregne
beregnes
beregnet
beregning
beregninger
beret
beretning
beretninger
berett
beretter
berettiget
berg
bergen
bergens
berger
bering
berk
berkeley
berlin
berliner
berling
berlingske
berlins
bern
bernad
bernard
bernhard
bernstorff
bero
berry
bert
bertel
bertelsen
berth
berygtede
berygtet
beryllium
berøm
berømmelse
berømt
berømte
berøring
berørt
berørte
bes
besad
besat
besatte
besej
besejre
besejrede
besejret
besid
besiddel
besiddelse
besiddelser
besidder
besk
beskad
beskadigede
beskadiget
beskat
beskatning
besked
beskeden
beskedne
beskrev
beskrevet
beskriv
beskrive
beskrivelse
beskrivelsen
beskrivelser
beskriver
beskrives
beskydning
beskyld
beskyldninger
beskyldt
beskyldte
beskyt
beskytte
beskyttede
beskyttelse
beskyttelses
beskytter
beskyttet
beskæft
beskæftig
beskæftigede
beskæftigelse
beskæftigelses
beskæftiger
beskæftiget
beslag
beslut
beslutning
beslutningen
beslutninger
besluttede
beslutter
besluttet
beslægt
beslægtede
beslægtet
best
besta
bestaende
bestaet
bestand
bestanddel
bestande
bestanden
bestar
besteg
bestem
bestemme
bestemmelse
bestemmelser
bestemmer
bestemmes
bestemt
bestemte
bestilling
bestilt
bestilte
bestod
bestred
bestræ
bestræb
bestræbelser
bestseller
bestyr
bestyrelse
bestyrelsen
bestyrelses
bestyrelsesformand
bestyrelsesmedlem
bestyrer
besvar
besvær
besværlig
besæt
besætning
besætningen
besætninger
besætningsmedlemmer
besætte
besættelse
besættelsen
besættelses
besættelsesmagt
besø
besøg
besøge
besøgende
besøger
besøges
besøgt
besøgte
bet
beta
betal
betale
betaler
betales
betaling
betalings
betalt
betalte
beteg
betegn
betegne
betegnede
betegnelse
betegnelsen
betegnelser
betegner
betegnes
betegnet
beting
betingelse
betingelser
betingelserne
betinget
betjen
betjene
betjener
betjenes
betjening
betjeningen
betjent
betjente
beton
betragt
betragte
betragtede
betragteligt
betragter
betragtes
betragtet
betragtning
betro
betty
bety
betyd
betyde
betydel
betydelig
betydelige
betydeligste
betydeligt
betydende
betyder
betydet
betydning
betydningen
betydninger
betydningsf
betydningsfuld
betydningsfulde
betænk
betænkning
betød
beund
beundring
bev
bevar
bevare
bevarede
bevarelse
bevares
bevaret
bevaring
bever
beverly
bevid
bevidst
bevidsthed
bevil
bevilling
bevirk
bevirkede
bevirker
bevis
bevise
beviser
bevist
bevog
bevoks
bevæb
bevæbnede
bevæbnet
bevæg
bevæge
bevægede
bevægelse
bevægelsen
bevægelser
bevægelses
bevæger
bey
bh
bhut
bi
bian
bib
bibe
bibeholdt
bibel
bibelen
bibelske
bibli
biblio
bibliografi
bibliote
bibliotek
bibliotekar
biblioteker
biblioteket
biblioteks
bid
bidrag
bidrage
bidrager
bidraget
bidrog
bie
biel
bier
bif
biflod
bifloder
big
bik
bil
bild
bilen
bilens
biler
bilfabrikant
bill
billboard
bille
billed
billede
billeder
billederne
billedet
billedhug
billedhugger
billedhuggeren
billedkunst
billedkunstner
billet
billets
billetter
billig
billige
billigere
billigt
billund
billy
bilm
bilmodeller
bin
bind
binde
bindende
binder
bindes
binding
bindinger
bindingsværk
bindingsværks
bing
bio
biod
biograf
biografen
biografer
biografi
biografier
biografisk
bioke
biologi
biologisk
biologiske
biom
bios
biot
bip
bir
birch
bird
birg
birger
birgit
birgitte
birk
birke
birker
birkerød
birmingham
birolle
bis
bisk
biskop
biskoppen
biskopper
bismar
bismarck
bisp
bispe
bispebjerg
bisped
bispedømme
bispes
bist
bistand
bit
bitter
biv
bivirkninger
biz
bj
bjarne
bjer
bjerg
bjergarter
bjerge
bjergene
bjerget
bjergk
bjergkæde
bjergkæden
bjergt
bjerre
bjerring
bjor
bjorn
bjæl
bjør
bjørn
bjørne
bk
bl
bla
blab
blach
black
blackburn
blad
blade
bladene
bladet
bladets
bladhj
blag
blair
blan
blanc
bland
blande
blandede
blander
blandes
blandet
blanding
blandt
blank
blas
blat
ble
bleg
blek
blekinge
blev
bleven
blevet
blicher
blik
blind
blinde
blink
blitz
blive
bliver
blix
blo
bloch
block
blod
blodet
blodige
blog
blok
blokere
blokke
blom
blomst
blomster
blomsterne
blomstr
blomstrede
blomstrende
blomstrer
blomstring
blomstringen
blond
blood
bloom
blot
blu
blue
blues
bly
blæ
blænd
blæse
blæser
blød
bløde
blødt
bm
bmw
bnp
bo
board
bob
bobby
boc
bock
bod
boden
bodil
body
boe
boede
boeing
boende
boer
boet
bog
bogen
bogens
boghandel
boghandler
bogst
bogstav
bogstaveligt
bogstaver
bogstaverne
bogstavet
bogtr
bogtrykker
boh
bohem
bohmen
bohr
bohus
bok
boks
bokse
boksede
bokser
boksere
bokset
boksning
bol
bold
bolden
boldklub
boldklubben
boldspil
bole
boleyn
bolig
boliger
boliv
bolivia
bolog
bologna
bolsje
bolsjevik
bom
bomb
bombar
bombard
bombardem
bombardement
bombe
bombefly
bomben
bomber
bombet
bomuld
bon
bonaparte
bond
bonde
bonden
bonn
bonus
book
boom
boot
bop
bopæl
bor
borch
bord
borde
bordeaux
bordet
bordt
bordtennis
bore
borg
borge
borgen
borger
borgerd
borgerdyd
borgere
borgerkrig
borgerkrigen
borgerlig
borgerlige
borgerligt
borgerne
borgerrepræsent
borgerrepræsentation
borgerskab
borgmester
borgmesteren
boris
born
borne
bornholm
bornholms
bornholmske
borough
borre
bort
borte
bortset
borup
borussia
bos
bosat
bosatte
bosiddende
bosn
bosnien
boston
bosæt
bosætning
bosætte
bosættelse
bosættelser
bosættere
bot
botan
botanik
botaniker
botanisk
botaniske
bott
bou
boul
boulev
boulevard
bour
bourbon
bourg
bov
bow
bowie
bowl
box
boy
boyk
boykot
boys
br
bra
brabant
brabrand
brad
bradley
brady
bragg
bragt
bragte
brah
brahe
brak
bram
bran
branche
branchen
brand
brande
branden
brandenburg
brandes
brandt
brasil
brasiliansk
brasilianske
brasilien
brasiliens
brat
bratis
bratislava
braun
braunsch
braunschweig
brav
bre
break
bred
bredde
breddegrad
breddekreds
bredden
bredder
brede
breder
bredere
bredt
bredte
breg
bregen
brem
bremen
bremer
bremse
bren
brend
brent
bres
breslau
brest
bret
bretagne
brev
breve
brevet
bri
brian
brid
bridge
brien
brig
brigade
brigadegeneral
brigaden
brigader
brigh
brik
brikker
briller
bringe
bringer
bringes
brint
bris
brisbane
bristol
brit
britann
briterne
british
britisk
britiske
britt
bro
broad
broadcast
broadcasting
broadway
broch
brock
brockdorff
brocken
brod
broder
broderen
broen
broer
brog
brol
brom
bron
bronz
bronze
bronzealder
bronzealderen
bronzek
bronzekampen
bronzemed
bronzemedalje
bronzemedaljer
bronzemedaljerne
brook
brooklyn
bror
bros
brother
brothers
brow
brown
bru
bruce
brud
bruddet
brude
brudt
brug
bruge
brugen
bruger
brugere
brugeren
brugerne
bruges
brugge
brugs
brugt
brugte
brugtes
brun
brune
bruno
brut
brutal
brutale
brutt
bruun
brux
bruxelles
bry
bryan
bryde
bryder
brydes
brydning
bryg
brygge
brygger
bryggeri
bryggerier
bryggeriet
bryll
bryllup
brylluppet
bryn
bryst
brystet
bræ
brænd
brænde
brændende
brænder
brændevin
brændsel
brændstof
brændt
brændte
bræt
brø
brød
brødre
brødrene
brøn
brønd
brøndby
brønder
brønderslev
brønshøj
bt
bu
bub
buc
buch
buck
buckingham
bud
budap
budapest
budd
buddh
buddha
buddhisme
buddhismen
buddhistiske
budget
budskab
bue
buen
buenos
buer
buff
buffalo
bug
bugt
bugten
building
buk
bukarest
bukser
bul
bulgar
bulgarien
bulgarsk
bulgarske
bull
bulld
bulow
bun
bund
bunde
bunden
bundes
bundesliga
bundesligaen
bundesstraße
bundet
bunker
bur
burde
bure
bureau
bureaukrat
burg
burger
burgund
burma
burn
burns
burt
burton
bus
bush
business
busk
buske
buslinjer
busser
busserne
bust
buste
buster
but
butik
butikken
butikker
butikkerne
butler
butter
by
bydel
bydele
bydelen
byder
byen
byens
byer
byerne
byg
bygd
bygden
bygder
bygg
bygge
byggede
byggedes
byggemat
bygger
byggeri
byggeriet
bygges
bygget
bygmester
bygning
bygningen
bygningens
bygninger
bygningerne
bygnings
bygningsinspektør
bymid
bymur
bymæssige
byomrade
byomrader
byomradet
byplan
byr
byrad
byradet
byret
bys
byt
bytte
byttet
byudvikling
byz
byzant
byzantinske
bæger
bæk
bækken
bæl
bælte
bæltet
bær
bære
bæredygt
bæredygtig
bærende
bærer
bæres
bø
bød
bøde
bøg
bøge
bøger
bøgerne
bøhmen
bøj
bøje
bøl
bølge
bølgel
bølger
bøn
bønd
bønder
bønderne
bøndernes
bønner
bør
børge
børn
børne
børnebog
børnebøger
børnebørn
børnefilm
børnehave
børnehjem
børnene
børnenes
børnes
børns
børs
børsen
børsno
børsnoteret
ca
cab
cabri
cabriolet
cad
caen
cafe
cafeer
cage
cairo
cal
calais
calc
calcium
californ
california
californien
call
calvin
cam
cambod
cambodja
cambridge
camer
cameron
cameroun
camilla
camp
campbell
camping
campus
can
canad
canada
canadas
canadian
canadisk
canadiske
canal
cancer
cand
cann
cannab
cannes
cant
canter
canterbury
canyon
cap
cape
capit
capital
capitol
capp
car
carbon
card
cardiff
care
carib
caribien
caribiske
carl
carlo
carlos
carlsberg
carlsen
carmen
carne
carol
carolina
caroline
carp
carr
carsten
cart
carter
cas
case
cash
casino
caspar
casper
cass
cast
castle
castro
cat
catal
catalansk
catalonien
cathar
catharina
catherine
cathrine
cav
cbs
cc
cd
cdu
ce
cec
cecil
cecilie
ced
ceder
cel
cell
celle
cellen
celler
cellerne
cellul
cels
celsius
celt
celtic
cem
cembal
cement
cemetery
cens
censor
censur
cent
center
centeret
centimeter
central
centralasien
centrale
centraleuropa
centralt
centre
centreret
centret
centrum
century
cer
cere
ceremon
ceremoni
ceremonien
ceremonier
cert
certificeret
cesar
cf
ch
cha
challen
challenge
cham
chamber
champ
champagne
champion
champions
championship
championships
chan
chance
chancen
chand
chang
chann
channel
chap
char
charl
charles
charlie
charlotte
charlotten
charlottenborg
charlottenlund
chart
charter
chass
chat
chateau
chau
chauff
che
chef
chefen
chefredaktør
cheft
cheftræner
chelse
chelsea
chem
chen
cher
cheroke
cherokee
cherokes
cherokeserne
ches
chester
chev
chi
chiang
chic
chicago
chick
chief
chik
chil
child
children
chile
chilen
chilenske
chili
chin
china
chip
cho
choice
chok
chokol
chokolade
chop
chopin
chr
chris
christ
christen
christensen
christian
christiane
christiania
christians
christiansborg
christiansen
christianshavn
christie
christina
christine
christmas
christoffer
christop
christoph
christopher
chron
chrys
chuck
church
churchill
ci
cia
cic
cicero
cif
cifre
cig
cigaret
cin
cinc
cir
circ
circle
circuit
cirk
cirka
cirkel
cirkus
cis
cit
citat
citater
citeret
citroen
citron
city
civ
civil
civile
civilingeniør
civilis
civilisation
civilt
cl
cla
claire
clap
clar
clara
clark
clarke
class
classic
claud
claude
claudius
claus
clausen
cle
clem
clemens
clement
cler
clev
cleveland
cliff
clin
clinton
clo
club
cm
cm³
cn
co
co2
coach
coast
cob
cobra
coburg
coc
coca
coch
cock
cockpit
cod
code
codex
col
cola
cold
cole
colin
coll
colle
college
collins
colomb
colombia
color
colorado
colum
columb
columbia
columbus
com
come
comeback
comedy
comics
comm
command
commission
committe
committee
common
commonwe
commonwealth
commun
communic
community
comp
company
computer
computere
computeren
computerspil
comune
con
conc
concert
cond
conf
confeder
confederations
conference
cong
congo
congress
conne
connectic
connecticut
connor
conrad
cons
conserv
constant
constantin
cont
contain
container
contemp
contest
control
cook
cool
cooper
cop
copa
copen
copenhagen
copp
cor
cord
core
corgan
corn
cornelius
cornwall
coron
coronavi
coronaviru
corpor
corporation
corps
cort
cos
cost
costa
cot
cote
cou
coun
council
count
counties
country
county
coupe
cour
court
cov
covent
cover
coverversion
covid
cow
cox
cp
cr
cra
craig
cran
crash
cre
creek
cri
cricket
crim
crist
crit
cro
croix
crom
cromwell
cros
cross
crow
crown
cru
cruz
cry
crystal
cs
cu
cub
cuba
cubanske
cul
cult
cum
cumberland
cun
cup
cuppen
cur
curling
curt
curtis
cut
cv
cy
cyan
cyc
cyk
cykel
cykelhold
cykelløb
cykelløbet
cykelrytter
cykl
cykle
cykler
cykling
cyklus
cyl
cylind
cylinder
cyp
cypern
cyr
cyt
cæs
cæsar
da
dab
daben
dad
daf
dag
dagblad
dagbladet
dagbog
dage
dagen
dagene
dagens
dages
daggry
daglig
daglige
dagligt
dagmar
dags
dagt
dagtimerne
dah
dahl
daily
daim
dais
dak
dakota
dal
dalby
dale
dalen
dallas
dals
dalt
dam
damask
damaskus
dame
damedo
damedouble
damer
dames
damesingle
damp
damplokomot
dampskib
dan
dance
dane
dani
daniel
danish
danm
danmark
danmarks
danmarksmester
danmarksmesterskabet
danmarksserien
danmarksturneringen
dann
danne
dannebrog
dannebrogordenen
dannebrogsmand
dannede
dannedes
dannelse
dannelsen
danner
dannes
danneskiold
dannet
dannevirke
danny
dans
danse
danser
dansk
danske
dansker
danskere
danskeren
danskerne
dante
danzig
dar
dare
darfur
dark
darlig
darlige
darligere
darligste
darligt
darm
darmstadt
darwin
das
dat
data
datab
database
date
dater
dateres
dateret
datering
datidens
dato
datoen
datter
datteren
datterselskab
datterselskaber
daug
daup
dav
dave
david
davids
davies
davis
daværende
daw
day
days
db
dbu
dc
dd
ddr
de
dead
dean
death
deb
debat
debatten
debatter
debattør
debut
debutalbum
debutalbummet
debuten
debuterede
dec
december
decideret
ded
dedik
dedikeret
deep
def
defens
defense
defensiv
defensive
defin
definere
definerede
definerer
defineres
defineret
definition
definitionen
definitioner
deg
dei
dej
dekan
deklar
dekor
dekoration
dekorationer
dekorative
dekoreret
dekret
del
delaw
delaware
dele
deleg
delegation
delegerede
delen
deler
deles
delfin
deling
delingen
dell
della
dels
delstat
delstaten
delstatens
delstater
delstaterne
delt
delta
deltag
deltage
deltagelse
deltagende
deltager
deltagere
deltagerne
deltaget
delte
deltog
delvis
delvist
dem
demo
democ
democrat
demografi
demokrat
demokrater
demokraterne
demokrati
demokratiet
demokratisk
demokratiske
demonstr
demonstranter
demonstration
demonstrationer
demonstrerede
den
dengang
denis
denmark
denne
dennes
dennis
dens
denver
dep
depart
departe
departem
departement
departementer
departementet
departementschef
department
deport
deporteret
depot
depress
depression
deputeret
der
deraf
derby
derefter
deres
derfor
derfra
deri
deriblandt
derigennem
derimod
dermed
dernæst
derpa
dertil
derudover
derved
des
desc
desert
desig
design
designe
designede
designer
designet
desper
desperat
dessau
dest
destinationer
desto
destroy
destroyer
destroyere
destru
desuden
desværre
det
detail
detaljer
detaljerede
detaljeret
dete
detektiv
deter
detro
detroit
dets
dette
dettes
deutsch
deutsche
deutschen
deutschland
dev
devel
develop
development
devil
devon
df
dfb
dh
di
dia
diabet
diabetes
diagn
diagnose
diagnosen
diagnost
diagon
diagram
diakon
dial
diale
dialekt
dialekter
dialog
diam
diamant
diameter
diamond
diana
diaz
dic
dick
did
die
diego
diem
dies
diesel
dieselm
dieselmotor
dieselmotorer
diet
dietrich
dif
diff
different
differential
dig
dige
digit
digital
digitale
digitalt
digt
digte
digter
digtere
digteren
digtet
digtning
digtsamling
digtsamlingen
dik
dikt
diktator
diktatur
dil
dim
dimension
dimensioner
dimit
dimitterede
dimitteret
din
dine
dinesen
dino
dinosa
dio
dion
dip
dipl
diplom
diplomat
diplomatisk
diplomatiske
dir
dire
director
direkte
direktion
direktionen
direktør
direktøren
dirig
dirigent
dirigerede
dirty
dis
disc
discip
disciple
disciplin
disciplinen
discipliner
disco
discovery
disk
diskografi
diskret
diskrim
diskuss
diskussion
diskussionen
diskussioner
diskutere
diskuterede
diskuteres
diskuteret
diskval
disney
disneys
disp
disput
disse
disses
dist
distance
distancen
distancer
distin
distri
distribu
distribueret
distribut
distribution
district
distrik
distrikt
distrikter
distriktet
dit
dith
dithmarschen
ditlev
div
diverse
divis
division
divisionen
divisioner
divisions
divisionsklubben
dj
djurg
djurs
djursland
djæv
djævelen
djævle
dk
dkk
dkp
dl
dm
dmitri
dn
dna
dne
dnepr
do
dob
dobb
dobbel
dobbelt
dobbelte
dobbeltturnering
doc
docent
doctor
dod
dog
dok
dokt
doktor
doktorg
doktorgrad
doktorgraden
doktr
dokum
dokument
dokumentar
dokumentaren
dokumentarfilm
dokumentarfilmen
dokumentarisk
dokumentation
dokumenter
dokumenterede
dokumenteret
dol
doll
dollar
dollars
dom
domin
dominans
dominerede
dominerende
dominerer
domineres
domineret
dominik
domkirke
domkirken
domme
dommed
dommen
dommer
dommere
dommeren
dommerne
domprov
domstol
domstole
domstolen
domstolene
domæne
don
donald
donau
donerede
doneret
dong
donna
doom
dop
doping
dor
dorothe
dorothea
dort
dorte
dorthe
dortmund
dos
dou
doub
double
dougl
douglas
dow
down
downlo
download
dr
dr1
dr2
dra
drab
drabet
draft
drag
drage
drager
draget
dragon
dragt
dragør
dram
drama
dramafilm
dramas
dramat
dramatiker
dramatisk
dramatiske
drammen
drast
drastisk
dre
dread
dream
drej
dreje
drejede
drejer
drejning
dren
dreng
drenge
drengen
drengenavn
drengene
dres
dresden
dress
drev
drevet
drew
dreyer
drift
driften
drik
drikke
drikker
drikkevand
drist
driv
drive
driver
drives
drivhus
dro
drog
dron
dronning
dronningen
dronningens
dronninger
droppede
droppet
dru
druk
drukn
druknede
drum
dry
dræ
dræbe
dræber
dræbt
dræbte
drøft
drøm
drømme
drømmen
drømmer
ds
dsb
dt
dtu
du
dua
dub
dublin
duc
dud
due
duel
duet
duft
dug
duke
dukke
dukkede
dukker
dul
dum
dumb
dumbled
dumbledore
dun
duncan
duo
duoen
dup
dur
dus
dusin
dussel
dusseldorf
dut
dv
dvd
dvs
dvær
dværg
dværge
dw
dy
dyb
dybbøl
dybde
dybden
dybe
dybere
dybeste
dybt
dybtgaende
dygt
dygtig
dygtige
dygtighed
dykker
dyl
dylan
dyn
dynam
dynamisk
dynamo
dynast
dynasti
dynastiet
dyr
dyre
dyrearter
dyreliv
dyrene
dyrenes
dyrere
dyreste
dyret
dyrk
dyrke
dyrkede
dyrker
dyrkes
dyrket
dyrkning
dyrknings
dyrt
dys
dyst
dz
dæ
dæk
dække
dækkede
dækker
dækkes
dækket
dækning
dæm
dæmning
dæmningen
dæmon
dæmoner
dæmp
dø
døb
døbefon
døbefont
døbefonten
døbt
død
døde
dødelig
dødeligt
døden
døds
dødsd
dødsf
dødsfald
dødsmetal
dødsstraf
døende
døg
døgn
døgnet
døm
dømme
dømt
dømte
dør
døre
døren
dørene
døtre
døv
e3
e4
ea
eag
ear
earl
early
earth
east
eastern
eastwood
easy
eb
ebbe
ebbes
ebeltoft
eber
ec
eck
eckers
eckersberg
ecole
econom
economic
ecu
ecuador
ed
edda
edder
edderkop
eddie
eddik
eden
edgar
edge
edin
edinburgh
edith
edition
edmund
edouard
edu
eduard
educ
education
edvard
edward
edwards
edwin
een
ef
eff
effe
effekt
effekten
effekter
effektiv
effektive
effektivitet
effektivt
efter
efterar
efteraret
efterars
efterforskning
efterforskningen
efterful
efterfulgt
efterfulgte
efterfulgtes
efterføl
efterfølgende
efterfølger
efterfølgere
efterfølgeren
efterhanden
efterkomm
efterkommer
efterkommere
efterkrig
efterkrigstiden
efterlade
efterlader
efterladt
efterladte
efterlig
efterlod
eftermid
eftermiddag
eftermiddagen
eftermæle
efternavn
efternavnet
efterretning
efterretninger
efterretningstjeneste
efterskole
eftersom
efterspil
efterspur
efterspørg
efterspørgsel
efterspørgslen
eftert
eftertiden
eftertragt
eg
ege
egede
egen
egenskab
egenskaber
egentlig
egentlige
egentligt
eger
egern
egernførde
eget
egetræ
egmont
egn
egne
egnede
egnen
egnet
ego
egon
egyp
egypt
egypten
egyptisk
egyptiske
eh
ehf
eich
eid
eig
eil
eiler
ein
einar
eind
eindhoven
einstein
eis
eisen
eisenhower
ej
ejder
ejderen
eje
ejede
ejen
ejendele
ejendom
ejendomme
ejendommen
ejendoms
ejer
ejere
ejeren
ejerne
ejerskab
ejerskabet
ejes
ejet
ejnar
ek
ekk
eks
eksamen
ekse
eksemp
eksempel
eksempelvis
eksempl
eksemplar
eksemplarer
eksempler
eksil
eksist
eksistens
eksistensen
eksistent
eksistere
eksisterede
eksisterende
eksisterer
eksisteret
ekskl
ekskluder
eksklus
eksklusive
eksotiske
eksp
ekspand
ekspans
ekspansion
ekspedition
ekspeditionen
ekspeditionens
ekspeditioner
eksper
eksperi
eksperimen
eksperiment
eksperimental
eksperimentalfilm
eksperimenter
eksperimenterede
eksperimenterende
ekspert
eksperter
ekspl
eksplod
eksploderede
eksplos
eksplosion
eksplosionen
ekspon
eksport
eksporteret
ekspression
ekst
ekstern
eksterne
ekstra
ekstraordin
ekstraordinær
ekstraudstyr
ekstrem
ekstreme
ekstremt
el
elben
ele
elec
elect
electric
electron
elef
elefant
elefanter
eleg
elegant
elekt
elektric
elektricitet
elektrif
elektrisk
elektriske
elektro
elektrom
elektromagnet
elektron
elektroner
elektronik
elektronisk
elektroniske
elem
element
elementar
elementer
elend
eleon
eleonora
elev
elevator
eleven
elever
eleverne
elevskole
elf
elfen
elfenben
eli
elias
elim
elis
elisabeth
elise
elit
elite
eliteserien
eliz
elizabeth
ell
elle
ellen
eller
ellers
elleve
elli
elling
ellip
elliptiske
elm
else
elsk
elskede
elsker
elskerinde
elton
elv
elven
elver
elvis
em
eman
emanuel
emb
embed
embede
embeder
embedet
embeds
embedseksamen
embedsmand
embedsmænd
emer
emi
emigr
emigrerede
emil
emile
emilie
emily
eminem
emir
emma
emmanuel
emmy
emne
emner
emnet
emp
empi
empire
en
encykl
encyklop
end
endda
ende
endegyldigt
endelig
endelige
endeligt
endelsen
endem
enden
ender
endestation
endestillede
endnu
endog
endt
endte
endvidere
ene
ener
eneret
energ
energi
energien
energifor
energik
energim
energisk
energy
enestaende
eneste
enev
enevæld
enevælden
eng
engag
engagement
engagerede
engageret
engang
enge
engel
engels
engelsk
engelske
engelsksprogede
engine
engineering
engl
england
englands
engle
english
englænder
englænderne
enhed
enheden
enheder
enhedslisten
enhver
enig
enige
enighed
enk
enke
enkedron
enkel
enkelt
enkelte
enkeltstaende
enkeltstart
enkeltturnering
enkeltvis
enken
enkl
enkle
enlige
enorm
enorme
enormt
enri
ens
ensartet
ensem
ensemble
ensid
enstemm
enstemmig
ent
ental
enten
enter
enterprise
entertain
entertainment
entre
entrepren
entreprenør
entusi
entyd
enz
enzy
enzym
enzymer
ep
epic
epide
epidemi
epile
epis
episode
episoden
episoder
epit
epitaf
epoke
equ
er
era
erd
ere
erem
eren
erf
erfar
erfaring
erfaringer
erfarne
erhver
erhverv
erhverve
erhvervede
erhvervet
erhvervs
erhvervsd
erhvervsliv
erhvervslivet
eric
erich
erichsen
erik
eriksen
eriksson
erind
erindring
erindringer
erit
eritrea
erkende
erkendelse
erkendte
erkl
erklær
erklære
erklærede
erklærer
erklæret
erklæring
erl
erling
ern
erne
ernes
ernest
ernst
ernærede
ernæring
erob
erobre
erobrede
erobret
erobring
erobringen
erobringer
erod
erosion
erotiske
erst
erstat
erstatning
erstatte
erstattede
erstattes
erstattet
erz
es
esa
esb
esben
esbjerg
esc
esch
esk
eskad
eskadr
eskadre
eskadrille
eskadron
eskil
eskorte
esp
espana
esper
esperg
espergærde
ess
essa
essay
essays
essen
essent
essex
est
estad
este
ester
estim
estimeret
estisk
estiske
estland
estlands
estrid
estrup
et
etab
etabler
etablere
etablerede
etableredes
etableres
etableret
etablering
etableringen
etage
etager
etap
etape
etapeløb
etapen
etaper
etats
etatsrad
etc
ethan
ethvert
etienne
etik
etiop
etiopien
etiske
etn
etnisk
etniske
etru
etter
etym
etymologi
eu
eug
eugen
eugene
euk
eur
euras
euro
europ
europa
europamester
europamesterskabet
europas
europavej
europe
european
europæ
europæere
europæerne
europæisk
europæiske
eurov
eurovision
ev
eva
evaku
evakueret
evalu
evangel
evangelisk
evans
even
event
events
eventuel
eventuelle
eventuelt
eventyr
eventyret
ever
everton
evig
evige
evigt
evil
evne
evnen
evner
evolution
evt
ewald
ex
excent
exchange
exec
execut
executive
exp
exper
expl
express
ext
ey
eyes
eyst
ez
f1
fa
faaborg
fab
faber
fabric
fabricius
fabrik
fabrikant
fabrikken
fabrikker
fabriks
fac
facade
facaden
face
facebook
facel
facelift
faciliteter
facto
factor
fad
fader
faderen
faderens
faders
faet
fag
faget
fagforening
fagforeninger
faglig
faglige
fair
faith
fak
fakt
fakta
faktisk
faktiske
faktor
faktorer
faktum
fakultet
fal
falck
fald
falde
faldende
falder
faldet
faldne
faldskærm
faldt
falk
falken
falkland
fall
falls
falsk
falske
falster
falsters
fam
fame
famil
famili
familie
familiemed
familiemedlemmer
familien
familiens
familier
families
family
fan
fand
fandt
fandtes
fane
fang
fange
fangede
fangen
fangenskab
fanger
fangerne
fanget
fangst
fanny
fans
fant
fantas
fantasi
fantast
fantastisk
fantastiske
fantasy
fanø
far
farbror
fare
faren
farer
farfar
farlig
farlige
farligt
farm
farmaceut
farmak
fars
fart
fartøj
fartøjer
fartøjet
farum
farvand
farvande
farve
farvede
farvel
farven
farver
farverne
farvest
farvet
fas
fasc
fascistiske
fase
faser
fash
fashion
fast
fastboende
faste
fastholde
fastholdt
fastlagt
fastland
fastlandet
fastsat
fastsatte
fastsl
fastsla
fastslaet
fastslog
fat
fatal
fatt
fattig
fattigdom
fattige
fauna
faust
fav
favor
favorit
favr
favrskov
faxe
fb
fbi
fc
fck
fd
fdf
fe
feat
feber
febru
februar
fed
feder
federal
federation
fedt
fedts
feed
fej
fejde
fejl
fejlagt
fejlagtigt
fejre
fejrede
fejres
fejret
fel
feld
felix
fellow
felt
felter
feltet
feltmarskal
felttog
felttoget
fem
femd
femdørs
femern
femin
feminist
femte
femten
fen
fenger
fer
ferdin
ferdinand
ferg
ferguson
feri
ferie
fern
fernando
ferr
ferrari
fersk
ferskvand
fest
festen
fester
festival
festivalen
festivaler
fet
feud
ff
fi
fia
fiasko
fiat
fib
fiber
fibre
fiction
fide
fideikom
field
fifa
fig
fight
fighter
fighting
figur
figuren
figurer
figurerne
fik
fikt
fiktion
fiktiv
fiktive
fil
filantrop
filer
filial
filip
filipp
filippinerne
film
filmat
filmatiseret
filmatisering
filmen
filmene
filmens
filmet
filmfestivalen
filminstruktør
filmmusik
filmografi
filmp
filmprod
films
filmskuespiller
filolog
filologi
filos
filosof
filosoff
filosoffen
filosoffer
filosofi
filosofien
filosofisk
filosofiske
filter
fin
final
finale
finalen
finaler
finalerne
finalesejr
finan
finans
finansiel
finansielle
finansier
finansiere
finansierede
finansieret
finansiering
finansk
finanskrisen
finansloven
finansminister
finansministeriet
find
finde
finder
findes
fine
fineste
fing
finger
fingre
finland
finlands
finn
finner
finnerne
finnmark
finsk
finske
fint
fior
fir
fire
fired
firehjulstræk
firenze
firer
firk
firkant
firkantede
firkantet
firma
firmaer
firmaet
firmaets
first
fis
fischer
fish
fisher
fisk
fiske
fisken
fisker
fiskere
fiskeri
fiskeriet
fiskerne
fit
fitz
five
fj
fjel
fjeld
fjeldet
fjen
fjende
fjenden
fjendens
fjender
fjendt
fjendtlig
fjendtlige
fjer
fjerd
fjerde
fjerdedel
fjerdeplads
fjern
fjerne
fjernede
fjernelse
fjerner
fjernes
fjernet
fjernstyret
fjernsyn
fjernt
fjerntog
fjerritslev
fjord
fjordarm
fjorde
fjorden
fjort
fjorten
fk
fl
fla
flad
flade
fladen
fladens
flader
flades
fladt
flag
flager
flagermus
flaget
flagskib
flair
flam
flamme
flammer
flamske
fland
flandern
flanke
flash
flaske
flat
flav
fle
fleet
fleks
flem
fleming
flemming
flensborg
fler
flerarig
flere
flertal
flertallet
flest
fleste
flet
flex
flg
flid
flight
flint
flitt
flittig
flittigt
flo
flod
floden
flodens
floder
floderne
flok
flokke
floor
floorball
flor
flora
florida
flot
flotte
flow
floyd
flu
flue
flugt
flugten
fly
flyde
flydende
flyder
flyene
flyet
flyets
flygt
flygte
flygtede
flygter
flygtet
flygtning
flygtninge
flying
flys
flyselskab
flyt
flytning
flytningen
flytte
flyttede
flyttedes
flytter
flyttes
flyttet
flyv
flyve
flyvemask
flyvende
flyveplads
flyvepladsen
flyver
flyvest
flyvestation
flyvet
flyvevabnet
flyvning
flyvninger
fløde
fløj
fløje
fløjet
fløjte
fløjten
fm
fn
fns
fo
fod
fodbold
fodbolddommer
fodboldforbund
fodboldhold
fodboldklub
fodboldklubben
fodboldklubber
fodboldlandshold
fodboldliga
fodboldrække
fodboldspiller
fodboldspillere
fodboldstadion
fodboldt
fodboldtræner
foden
foder
fodg
fods
fodspor
fog
foged
fogh
fokus
fokusere
fokuserede
fokuserer
fokuseret
fol
fold
folk
folke
folkeaf
folkeafstemning
folkeafstemningen
folked
folkeforbundet
folkekirken
folkelig
folkelige
folkem
folkemunde
folkemusik
folkene
folkeparti
folkepartis
folker
folkere
folkerepublikken
folkes
folkeskole
folkeskolen
folkeslag
folket
folkete
folketeatret
folketing
folketinget
folketingets
folketings
folketingskandidat
folketingsmedlem
folketingsvalg
folketingsvalget
folkets
folketæl
folketælling
folketællingen
folkevalgte
folkl
folks
fon
fond
fonde
fonden
fondens
font
food
foot
football
for
foragt
foran
forand
forandret
forandring
forandringer
foranled
foranledning
foranstalt
foranstaltninger
forar
foraret
forars
forarsage
forarsagede
forarsager
forarsaget
forarsudstilling
forb
forband
forbandt
forbe
forbed
forbedre
forbedrede
forbedret
forbedring
forbedringer
forbehold
forbeholdt
forber
forbered
forberede
forberedelse
forberedelser
forberedelserne
forberedt
forberedte
forbi
forbill
forbillede
forbilleder
forbinde
forbindel
forbindelse
forbindelsen
forbindelser
forbindelses
forbinder
forbindes
forbl
forblev
forblive
forbliver
forbru
forbrug
forbruger
forbry
forbrydelse
forbrydelser
forbrænding
forbud
forbuddet
forbudt
forbudte
forbund
forbundet
forbundne
forbunds
forby
forbød
force
forces
forch
ford
fordamp
fordel
fordele
fordelen
fordeler
fordeles
fordeling
fordelingen
fordelt
fordelte
fordi
fordob
fordrevet
fordyb
fordømte
fore
forebygge
forebyggelse
foredrag
foredrags
foredragsholder
foref
foreg
forega
foregaende
foregaet
foregar
foregik
forekom
forekomme
forekommende
forekommer
forekomst
forekomster
forel
forelig
foreligger
forelsker
forelsket
forelæs
forelæsninger
foreløb
foreløbig
foren
forene
forenede
forenet
forening
foreningen
foreningens
foreninger
forenings
forenk
forenklet
foresl
foresla
foreslaet
foreslar
foreslog
forest
forestaende
forestill
forestille
forestillede
forestiller
forestilling
forestillingen
forestillinger
forestod
foret
foretage
foretagen
foretager
foretages
foretaget
foretog
foretrak
foretrukne
foretrækker
forever
forf
forfal
forfald
forfat
forfatning
forfatningen
forfatnings
forfattede
forfatter
forfattere
forfatteren
forfatterens
forfatterne
forfatterskab
forfattet
forfl
forflyt
forflyttet
forfrem
forfremmet
forful
forfulgt
forfulgte
forfæd
forfædre
forfær
forføl
forfølge
forfølgelse
forg
forgift
forgren
forgrenede
forgrenet
forgænger
forgængere
forgængeren
forgæves
forh
forhand
forhandle
forhandlede
forhandler
forhandling
forhandlinger
forhandlingerne
forhen
forhenværende
forhind
forhindre
forhindrede
forhindrer
forhindret
forhindring
forhindringer
forhistorie
forhistorisk
forhistoriske
forhold
forholdene
forholdet
forholdsvis
forholdsvist
forhøj
forhøjet
forinden
fork
forkast
forker
forkert
forkerte
forkl
forklar
forklare
forklarede
forklarer
forklares
forklaret
forklaring
forklaringen
forklaringer
forkort
forkortelse
forkortelsen
forkortes
forkortet
forkærlighed
forl
forlade
forlader
forladt
forlag
forlaget
forlang
forlangte
forlen
forlig
forlod
forlov
forlovede
forlovet
forlyst
forlystelsesp
forlæg
forlægger
forlæng
forlænge
forlængede
forlængelse
forlænget
forløb
forløber
forløberen
forløbet
form
formaede
formaet
formal
formalet
formand
formanden
formar
format
formater
formatet
formation
forme
formede
formel
formelle
formelt
formen
formentlig
former
formet
formid
formidle
formidler
formidling
formind
formlen
formod
formodede
formodentlig
formodes
formue
formula
formulerede
formuleret
formynder
formænd
forn
fornavn
fornem
fornemme
fornemste
fornuft
forny
fornyede
fornyelse
fornyet
fornær
fornød
fornødne
forord
forordning
forordningen
forp
forpagter
forplig
forpligt
forpligtede
forpligtelser
forpligtet
forrest
forreste
forret
forretning
forretningen
forretninger
forretnings
forretningsmand
forrige
forring
forræder
forræderi
fors
forsamling
forsamlingen
forsamlinger
forsamlingshus
forsanger
forsangeren
forsat
forsatte
forside
forsiden
forsigt
forsik
forsikring
forsikringsselskab
forsin
forsink
forsinkede
forsinket
forsk
forskel
forskelle
forskellen
forskellig
forskellige
forskelligt
forsker
forskere
forskerne
forskning
forskningen
forsknings
forslag
forslaget
forson
forsoning
forst
forsta
forstad
forstaden
forstaelse
forstaelsen
forstaet
forstand
forstander
forstar
forstas
forstod
forstyr
forstyrrelser
forstæder
forstæderne
forstærk
forstærke
forstærkede
forstærker
forstærket
forstærkning
forstærkninger
forstør
forsv
forsvandt
forsvar
forsvare
forsvarede
forsvarende
forsvarer
forsvarere
forsvaret
forsvarets
forsvars
forsvarsminister
forsvarsspiller
forsvinde
forsvinder
forsvundet
forsvundne
forsy
forsyne
forsynede
forsynet
forsyning
forsyninger
forsynings
forsø
forsøg
forsøge
forsøger
forsøget
forsøgt
forsøgte
forsøm
fort
fortab
fortaler
fortalere
fortalt
fortalte
fortet
fortid
fortiden
fortidsminder
fortjen
fortjeneste
fortjenst
fortjent
fortol
fortolk
fortolkning
fortolkninger
fortr
fortrin
fortrinsvis
fortrol
fortræ
fortræn
fortsat
fortsatte
fortsæt
fortsætte
fortsættelse
fortsætter
fortuna
fortæl
fortælle
fortæller
fortælles
fortælling
fortællingen
fortællinger
forud
foruden
forudgaende
foruds
forudsig
forudsætning
forudsætninger
forudsætter
forum
foruren
forurening
forv
forvalt
forvalter
forvaltning
forvaltnings
forvand
forvandlet
forvejen
forveks
forveksles
forveksling
forvent
forvente
forventede
forventedes
forventer
forventes
forventet
forventning
forventninger
forvir
forvirring
forvist
forvær
foræld
forældede
forældet
forældre
forældrel
forældrene
forældrenes
forældres
forø
forøg
forøge
forøgede
forøgelse
forøget
fos
fosfat
fosfor
foss
fossil
fossile
fossiler
fost
foster
fot
foto
fotograf
fotografi
fotografier
fotos
found
foundation
four
fox
fr
fra
frag
fragmenter
fragt
fragtet
fraktion
fraktioner
fram
fran
franc
franca
france
frances
francesco
franch
francis
francisco
francisk
franco
francois
frank
franken
franker
frankerne
frankfurt
frankiske
franklin
frankrig
frankrigs
frans
fransk
franske
franskmanden
franskmænd
franskmændene
franz
frar
fras
fraser
frat
frataget
fratradte
fravær
fraværende
fre
fred
fredag
freddie
freddy
frede
fredede
fredelig
fredelige
freden
fredensborg
freder
frederic
fredericia
frederick
frederik
frederikke
frederiks
frederiksberg
frederiksborg
frederiksen
frederikshavn
frederikssund
frederiksværk
fredet
fredning
fredrik
freds
fredsaftale
fredsaftalen
fredsfor
fredspris
fredss
free
freedom
freel
freelance
freg
fregat
fregatten
fregatter
frei
freiburg
frej
freja
frekvens
frekvenser
frelse
frelser
frem
fremad
fremdeles
fremdrift
fremført
fremførte
fremgang
fremgangsmade
fremgar
fremherskende
fremhæv
fremhæve
fremhævede
fremhæver
fremhæves
fremhævet
fremkalde
fremkaldte
fremkom
fremkommer
fremkomsten
fremlagde
fremlagt
fremme
fremmed
fremmede
fremmest
fremover
fremragende
fremrykning
fremrykningen
fremsat
fremsatte
fremsk
fremskridt
fremst
fremsta
fremstar
fremstille
fremstillede
fremstiller
fremstilles
fremstillet
fremstilling
fremstillingen
fremstillinger
fremstod
fremstød
fremtid
fremtiden
fremtidens
fremtidig
fremtidige
fremtræ
fremtrædende
fremtræder
french
fres
freud
fri
frid
frie
fried
frieder
friedrich
friends
frig
frigivet
frigør
frigørelse
frihavn
frihed
friheden
friherre
friis
frijsen
frik
frikendt
fril
friland
friluft
frim
frimurer
frimærker
fris
frisisk
frisiske
frisk
friske
friskole
frist
frit
fritid
fritids
frits
fritz
frivil
frivillig
frivillige
frivilligt
fro
frod
frode
frokost
from
fron
front
fronten
frost
fru
frue
frugt
frugtbar
frugtbare
frugtbarhed
frugten
frugter
frugterne
frustr
fry
frygt
frygtede
frø
frøene
frøs
fs
ft
fu
fug
fugl
fugle
fuglearter
fuglebeskyttelses
fuglen
fuglene
fuglsang
fugt
fugtig
fugtige
fuj
ful
fuld
fulde
fulden
fuldendt
fuldført
fuldførte
fuldkommen
fuldmægtig
fuldstænd
fuldstændig
fuldstændige
fuldstændigt
fuldt
fulgt
fulgte
fulham
full
fun
fund
fundam
fundament
fundamental
fundamentet
funder
fundet
fundne
funger
fungere
fungerede
fungerende
fungerer
fungeret
funk
funktion
funktionelle
funktionen
funktioner
fur
fure
fus
fusion
fusionen
fusionerede
fusioneret
fut
future
fx
fy
fyens
fyl
fyld
fylde
fylder
fyldt
fyldte
fylke
fylkes
fylkesvej
fyn
fyns
fynske
fyr
fyret
fyrre
fyrst
fyrste
fyrsted
fyrsten
fyrstend
fyrstendømmet
fyrster
fys
fysi
fysik
fysiker
fysio
fysiologi
fysisk
fysiske
fæd
fædreland
fædrelandet
fædrelandets
fægt
fægtning
fæl
fælde
fælle
fælled
fælles
fællesskab
fællesskabet
fæng
fængsel
fængsels
fængsler
fængslet
fænomen
fænomener
fænomenet
fær
færd
færdes
færdig
færdigbygget
færdige
færdiggjorde
færdiggjort
færdiggøre
færdigheder
færdigt
færdsel
færge
færgeforbindelse
færgen
færger
færinger
færre
færø
færøerne
færøernes
færøsk
færøske
fæst
fæste
fæstning
fæstningen
fæstninger
fæstnings
fætter
fø
fød
fødder
føde
fødeby
føden
føder
føderal
føderale
føderation
fødes
fødevar
fødevare
fødevarer
fødsel
fødsels
fødselsdag
fødslen
født
fødte
fødtes
føl
føle
følelse
følelser
følelses
føler
følge
følgende
følger
følges
følsomme
følte
føn
fønik
før
føre
førende
fører
føreren
føres
førhen
føroya
først
første
førstehold
førsteholdet
førsteplads
førstepladsen
førstes
førstnævnte
ført
førte
førtes
ga
gab
gabri
gabriel
gad
gadd
gade
gaden
gadens
gader
gaderne
gaende
gaet
gaffa
gag
gaius
gal
galaks
galat
gale
galic
galicien
galile
gall
galler
galleri
gallery
gallien
galt
gam
game
games
gamle
gammel
gammeldags
gammelt
gan
gand
gang
gange
gangen
gangster
ganske
gar
garage
garan
garant
garcia
gard
garde
gardejer
garden
gardene
gardens
garder
garn
garnis
garnison
garnisonen
garnisons
gartner
gary
gas
gassen
gasser
gast
gasværk
gat
gate
gates
gau
gav
gave
gaver
gavl
gavle
gavn
gay
gaz
gaza
ge
gear
geark
gearkasse
ged
gede
geder
gedser
gehej
gehejme
gehejmekonferensrad
gehejmer
gehejmerad
gejst
gejstlige
gel
gem
gemme
gemmer
gemt
gemte
gen
genab
genabnet
genan
genbru
genbrug
gend
gendannet
gene
gener
general
generaler
generalforsamling
generalguvernør
generall
generalløjtnant
generalmajor
generalsekretær
generalstab
generalstaben
generation
generationer
generations
generel
generelle
generelt
generob
generobre
genetab
genetisk
genetiske
geneve
genf
genforen
genforenet
genforening
genforeningen
geng
gengivelse
gengivet
gengæld
genind
genindspil
genken
genkende
gennem
gennembrud
gennemføre
gennemførelse
gennemførelsen
gennemføres
gennemført
gennemførte
gennemførtes
gennemga
gennemgaende
gennemgaet
gennemgang
gennemgar
gennemgik
gennemgribende
gennemløb
gennemsigt
gennemsk
gennemsnit
gennemsnitlig
gennemsnitlige
gennemsnitligt
gennemsnitstemperatur
gennemsnittet
gennemtræn
genop
genopbygget
genopbygning
genopbygningen
genopført
genopliv
genoprette
genoprettet
genoptage
genoptaget
genoptog
genova
genre
genren
genrer
gens
gensid
gensidig
genskab
genskabe
genstand
genstande
gent
gentages
gentaget
gentagne
gentofte
gentog
genud
genudgivet
genv
genvalg
genvalgt
genvandt
genvinde
geo
geod
geoff
geograf
geografi
geografisk
geografiske
geolog
geologi
geologisk
geologiske
geomet
geometri
geometriske
georg
george
georges
georgia
georgien
ger
gerald
gerard
gerda
gerhard
germ
germain
german
germansk
germanske
gerne
gerning
gerninger
gers
gert
ges
gesandt
geschichte
gest
gestapo
get
gett
gettys
gettysburg
gevin
gevinst
gevær
gh
ghan
ghana
ghetto
ghost
gi
gian
gib
gibralt
gibraltar
gibson
gid
gids
gidsel
gidsler
gif
gift
gifte
giftede
gifter
giftet
giftig
giftige
gig
gik
gil
gilbert
gill
gilm
gim
gin
giov
giovanni
gips
gir
girl
girls
giro
gis
gitte
gitter
giuse
giuseppe
giv
give
given
giver
gives
givet
givne
gj
gjaldt
gjer
gjorde
gjort
gl
glad
glade
gladsa
gladsaxe
glam
glans
glas
glasgow
glass
glat
glatte
gle
glee
glem
glemme
glemt
glemte
glen
glenn
glet
glets
gletsj
gletsjer
gletsjere
glim
glimrende
glimt
glo
glob
global
globale
globalt
globe
glostrup
glouc
gluck
glucks
glucksborg
gluckstadt
gluk
glukose
gly
glæde
gm
gmbh
gn
gnu
go
gob
god
gode
godfred
godkende
godkendelse
godkendt
godkendte
gods
godsejer
godsejere
godser
godset
godstog
godt
goethe
gog
gogur
goguryeo
gol
gold
golden
golf
gon
gond
gonz
good
google
gor
gord
gordon
goring
gorm
gos
gosp
gospel
got
goteborg
goterne
goth
gotha
gotisk
gotiske
gotland
gott
gottfried
gottingen
gottlieb
gottlob
gottorp
gover
govern
government
gps
gr
gra
grace
grad
graden
grader
gradvis
gradvist
graf
graff
grafik
grafiker
grafisk
grafiske
gragrøn
graham
gral
gram
gramm
grammat
grammatik
grammy
gran
granat
granater
grand
grande
granit
grant
grasten
grat
gratis
grav
grave
graven
graver
gravet
gravhøj
gravhøje
gravid
graviditet
gravitation
gravsted
gravsten
gray
graz
gre
great
greater
greatest
greb
grebet
green
greenwich
greg
gregers
gregor
gregorianske
gregory
greifs
greifswald
gren
grena
grenaa
grene
grenen
gret
grethe
grev
greve
greven
grevens
grevinde
grevskab
grevskabet
grey
gri
grib
gribe
griber
grieg
griff
grim
grin
grind
grinde
grindsted
gris
gro
groft
gron
groningen
gror
gross
grosser
grosserer
grot
ground
group
grov
grove
groß
gru
grub
grum
grun
grund
grunde
grunden
grundene
grundet
grundig
grundigt
grundlag
grundlagde
grundlaget
grundlagt
grundlov
grundloven
grundlæg
grundlægge
grundlæggelse
grundlæggelsen
grundlæggende
grundlægger
grundlæggeren
grundlæggerne
grundspil
grundspillet
grundstof
grundstoffer
grundt
grundtvig
grundtvigs
grundvand
grupp
gruppe
gruppen
gruppens
grupper
grupperinger
grupperne
gruppespil
gruppespillet
grus
gry
græ
græken
grækenland
grækere
grækerne
græn
grænse
grænsel
grænsen
grænseover
grænser
grænserne
græs
græsk
græske
græsning
grøn
grønd
grønland
grønlands
grønlandsk
grønlandske
grønne
grønt
grønts
grøntsager
gt
gu
guadal
guadalcanal
guang
guard
guat
guatemala
gud
guddom
guddommelig
guddommelige
gude
guden
guder
guderne
gudernes
gudinde
gudinden
gudrun
guds
gudstjeneste
gudstjenester
gue
guer
guerilla
guide
guild
guilla
guin
guine
guinea
guit
guitar
guitarer
guitarist
guitaristen
gul
guld
guldalder
guldberg
guldborg
guldborgsund
guldet
guldmedalje
guldmedaljer
guldsmed
guldvinder
gule
gull
gult
gulv
gulvet
gum
gumm
gummi
gun
gund
gunder
gunn
gunnar
gunst
gunstige
gunt
gunther
gur
gust
gustaf
gustav
gut
guver
guvern
guvernement
guvernør
guvernøren
guy
guð
gw
gy
gyl
gyld
gylden
gyldendal
gyldenlø
gyldenløve
gyldighed
gyldne
gyllen
gymn
gymnas
gymnasie
gymnasier
gymnasiet
gymnasium
gymnast
gymnastik
gyn
gyser
gæ
gæl
gæld
gælde
gældende
gælder
gæng
gængse
gær
gæst
gæste
gæsteoptræden
gæster
gæsterne
gæstgiver
gø
gødning
gøg
gør
gøre
gøres
gøt
h2
ha
haag
haakon
haand
haar
hab
habede
haber
habet
habitat
habitatomrade
habsburg
hack
had
hader
haderslev
hadsten
hadsund
haf
haft
hag
hage
hagen
hager
haiti
haj
hak
hakon
hal
hald
hale
halen
half
hall
halland
halle
hallen
haller
halm
hals
halsen
halsh
halv
halvandet
halvar
halvbror
halvdel
halvdelen
halve
halvering
halveringstid
halvkugle
halvleg
halvt
halvvejs
halvø
halvøen
ham
hamborg
hamburg
hamburger
hamilton
hammar
hammel
hammer
hammond
hamp
hampshire
hampton
han
hancock
hand
handball
handbold
handboldklub
handboldlandshold
handboldspiller
handel
handelen
handels
handelsskibe
handen
handfuld
handhæv
handica
handicap
handle
handlede
handlen
handlende
handler
handlet
handling
handlingen
handlinger
handskrift
handskrifter
handtere
handtering
handværk
handværker
handværkere
handværks
hang
hangar
hangarskib
hangarskibe
hank
hann
hanna
hannah
hanne
hannen
hanner
hannerne
hannibal
hannover
hans
hanse
hansen
hansens
hanst
hanstholm
happ
happy
har
harald
harbor
hard
hardcore
harde
hardere
hardt
hardware
hardy
hare
haret
harmon
harmoni
harmonisk
harold
harp
harris
harrison
harry
hart
hartkorn
hartmann
hartvig
harvard
harvey
has
hash
hasle
haslev
hass
hassan
hassel
hast
hastighed
hastigheden
hastigheder
hastigt
hat
hatch
hatt
hatte
hatten
hau
haug
haus
haute
hav
havbunden
havde
have
havel
haven
haver
haves
havet
havets
havfru
havn
havne
havneby
havnebyen
havnede
havnen
havre
haw
hawa
hawaii
hay
hayd
hb
hc
hd
he
head
health
heart
hearts
heat
heath
heats
heav
heaven
heavy
heavyweight
hebra
hebraisk
hebraiske
hector
hed
hedde
hedder
hede
hedeby
hedegaard
heden
hedenske
hedensted
heder
hedes
hedevig
heeres
heeresgruppe
heft
heg
hegel
hegn
hei
heiberg
heide
heidel
heidelberg
heil
heim
hein
heinrich
heinz
hej
hek
heks
hekse
hektar
hel
helbred
held
heldig
heldigvis
hele
helen
helena
helene
helge
helgen
helhed
helikop
helikopter
helikoptere
helium
hell
helle
hellen
heller
hellere
hellerup
hellig
helligdom
hellige
helm
helr
helrandede
hels
helsing
helsingborg
helsingfors
helsingør
helsink
helsinki
helst
helt
heltal
helte
helten
helvede
hem
hemmelig
hemmelige
hemmelighed
hemmeligheder
hemmeligt
hen
henblik
hend
hende
hender
henderson
hendes
hendrik
henfald
henføres
henhold
henholdsvis
henne
henning
henningsen
henover
henret
henrettelse
henrettelsen
henrettet
henri
henriette
henrik
henriks
henriksen
henry
hens
henseende
henseender
hensigt
hensigten
hensyn
hent
hente
hentede
henter
hentes
hentet
hentyder
henved
henven
henvender
henvendte
henvis
henvise
henviser
henvises
henvisning
henvisninger
henvist
henviste
her
heraf
herak
herald
herbert
herc
hercegov
hercegovina
here
herefter
herfor
herfra
herfølge
heri
heriblandt
heritage
herkomst
herlev
herluf
herlufsholm
herm
herman
hermann
hermed
hermione
herning
hero
herod
herom
herpa
herr
herre
herred
herreder
herredet
herredo
herredouble
herredsf
herredsfoged
herredømme
herredømmet
herreg
herregard
herregarde
herregarden
herrem
herren
herrer
herres
herresingle
hers
herskab
herskede
herskende
hersker
herskere
hert
hertil
hertug
hertugd
hertugdømme
hertugdømmerne
hertugdømmet
hertugen
hertuger
hertuginde
hertz
herudover
herunder
herved
herz
herzogtum
hess
hessel
hessen
hest
heste
hesten
het
heter
hex
hey
hf
hh
hhv
hi
hid
hidtid
hidtidige
hidtil
hier
hierark
hig
high
highway
hik
hil
hilde
hill
hiller
hillerød
hills
him
himal
himalaya
himlen
himm
himmel
himmelle
himmer
himmerland
himmler
hin
hinanden
hinandens
hind
hinden
hindenburg
hindre
hindu
hing
hip
hiphop
hipp
hir
hiroshima
hirsch
hirtsh
hirtshals
his
hisp
hist
histor
historia
historie
historien
historiens
historier
historierne
historiker
historikere
historikeren
historisk
historiske
history
hit
hitch
hitl
hitler
hitlers
hitliste
hitlisten
hitlister
hitlisterne
hits
hittet
hiv
hj
hjal
hjalmar
hjalp
hjel
hjelm
hjem
hjemby
hjemkomst
hjemkomsten
hjemland
hjemlandet
hjemlige
hjemløse
hjemme
hjemmebane
hjemmehørende
hjemmekampe
hjemmel
hjemmes
hjemmeside
hjemmesiden
hjemmesider
hjemmest
hjemmet
hjemsted
hjer
hjerne
hjernen
hjerner
hjerneryst
hjerte
hjerter
hjertes
hjertet
hjort
hjorte
hjul
hjulpet
hjæl
hjælp
hjælpe
hjælpem
hjælper
hjør
hjørne
hjørner
hjørnet
hjørring
hk
hms
ho
hob
hobb
hobby
hobro
hoch
hockey
hod
hof
hofd
hoff
hoffet
hoffmann
hofjægermester
hog
hogan
hogwarts
hoh
hohen
hohenz
hol
holberg
holbergs
holbæk
holck
hold
holde
holdene
holdeplads
holder
holdes
holdet
holdets
holding
holdkammer
holdkonkurrencen
holdning
holdninger
holds
holdt
hole
holger
holl
holland
hollands
hollandsk
hollandske
holly
hollywood
hollænder
hollænderne
holm
holme
holmen
holmens
holmes
holocaust
holst
holste
holstebro
holstein
holsten
holstenske
holt
holte
holten
holz
hom
home
homer
homo
homoseks
homoseksuel
homoseksuelle
hon
hond
honda
hong
hongkong
honning
honor
hood
hooker
hop
hope
hopkins
hopp
hoppe
hopper
hor
horison
horisont
hormon
horn
hornbæk
horne
horns
horror
horse
horsens
hort
hos
hosp
hospital
hospitaler
hospitalet
host
hot
hotel
hoteller
hotellet
hou
house
houston
hov
hoved
hovedban
hovedbanegard
hovedbestyr
hovedbestyrelse
hovedby
hovedbyen
hovedbygning
hovedbygningen
hoveder
hovedet
hovedgard
hovedgarden
hovedind
hovedkontor
hovedkrateret
hovedkvarter
hovedkvarteret
hovedparten
hovedperson
hovedpersonen
hovedpersoner
hovedpersonerne
hovedrol
hovedrolle
hovedrollen
hovedrollerne
hovedrunden
hoveds
hovedsag
hovedsagelig
hovedsageligt
hovedsagen
hovedstad
hovedstaden
hovedstadens
hovedstadsomradet
hovedsæde
hovedt
hovedturneringen
hovedvej
hovedvejen
hovedværk
hovedværker
hover
how
howard
hr
ht
html
htt
http
https
hu
hub
hubert
hud
huden
hudson
hug
hugget
hugh
hughes
hugo
huitfeldt
hukomm
hukommelse
hul
hule
huler
hulk
hull
huller
hullet
hum
human
humanistiske
humle
humlebæk
humor
humoristisk
humoristiske
humph
humør
hun
hund
hunde
hunden
hunder
hundred
hundrede
hundredvis
hunger
hungersnød
hunnen
hunner
hunnerne
hunt
hunter
hur
hurt
hurtig
hurtige
hurtigere
hurtigst
hurtigste
hurtigt
hus
husby
husdyr
huse
husede
husene
huser
huset
husets
hushold
husholdning
huske
husker
huskes
huslærer
husmand
husmands
hussein
husstand
husstande
hust
hustru
hustruen
hustrus
husum
hut
hv
hvad
hval
hvaler
hvalfangst
hvede
hvem
hver
hverdag
hverdagen
hverken
hvert
hverv
hvervet
hvid
hvide
hvider
hviderus
hviderusland
hvideruss
hvidovre
hvidt
hvil
hvile
hviler
hvilke
hvilken
hvilket
hvirv
hvis
hvor
hvoraf
hvordan
hvorefter
hvorfor
hvorfra
hvori
hvorimod
hvorledes
hvormed
hvornar
hvorpa
hvortil
hvorunder
hvorved
hvorvidt
hvælv
hy
hybr
hybrid
hyd
hyde
hydra
hydraul
hydro
hydrogen
hyg
hygiej
hyl
hyld
hylde
hyldest
hyldet
hym
hyp
hyper
hypot
hypotese
hypp
hyppig
hyppige
hyppigst
hyppigt
hyr
hyrde
hyrede
hyret
hytte
hytter
hyund
hyundai
hæ
hæd
hæder
hædersbe
hædersbevisninger
hædret
hæfte
hæfter
hæk
hæl
hæm
hænd
hændelse
hændelsen
hændelser
hænder
hænderne
hæng
hænge
hængende
hænger
hængt
hær
hære
hæren
hærens
hærfører
hærgede
hærs
hæv
hævde
hævdede
hævder
hævdes
hævdet
hæve
hævede
hæver
hævet
hævn
hø
høeg
høegh
høg
høj
højd
højde
højdedrag
højden
højdepunkt
højder
højderyg
højderyggen
høje
højen
højer
højere
højest
højeste
højesteret
højesterets
højhastighed
højhed
højland
højre
højskole
højskolen
højst
højt
højtid
højtliggende
højtstaende
høn
hønse
hør
høre
hørende
hører
høres
hørs
hørsholm
hørt
hørte
høst
høv
høvding
høvdinge
høy
ia
iagt
ian
iata
iau
ib
iben
iber
iberiske
iblandt
ibm
ibn
ibsen
ic
ic4
icao
ice
ich
id
ida
ide
ideal
idealer
ideen
ideer
ident
identificere
identificerede
identificeret
identifikation
identisk
identiske
identitet
ideologi
ideologisk
ideologiske
idet
idi
idol
idræt
idræts
idrætsforening
idrætspark
idømt
if
ifk
ifl
ifølge
iført
ig
igang
igangsat
igangsatte
igangværende
igen
igennem
ign
ignor
igor
ih
ihjel
ihærd
ii
iihf
iii
ik
ikast
ikke
ikon
il
ild
ilde
ilden
ile
ill
illeg
illegale
illin
illinois
illusion
illust
illustr
illustrationer
illustrator
illustreret
ilt
im
imag
image
imam
imellem
imens
imid
imidlertid
imm
immateri
immateriel
immigr
immigranter
immun
imod
imp
imper
imperi
imperial
imperiet
imperium
implementer
implic
imponerende
imponeret
import
importerede
importeret
impression
improv
impul
impuls
imøde
imødega
in
inc
ind
indad
indb
indbe
indbefatter
indblanding
indblik
indbragte
indbygg
indbygger
indbyggere
indbyggerne
indbyggertal
indbyggertallet
indbygget
indbyrdes
indd
inddeles
inddeling
inddelt
inddraget
inde
indebar
indebærer
indehav
indehaver
indeholde
indeholdende
indeholder
indeholdt
indeks
inden
indendørs
indenfor
indenlandske
indenrig
indenrigs
indenrigsminister
indenrigsministeriet
indep
independent
inder
inders
indersiden
inderst
inderste
indespær
index
indf
indfald
indfly
indflydelse
indflydelses
indflydelsesrige
indfødte
indføre
indførelse
indførelsen
indført
indførte
indførtes
indg
indga
indgaende
indgaet
indgang
indgangen
indgar
indgav
indgik
indgreb
indgriben
indh
indhold
indholdet
india
indian
indiana
indianer
indianere
indianerne
indianske
indie
indien
indiens
indik
indikerer
indimellem
indirekte
indisk
indiske
indiv
individ
individer
individual
individuel
individuelle
individuelt
indkaldt
indkaldte
indkomst
indkøb
indkøbscenter
indl
indlagt
indlands
indled
indlede
indledende
indleder
indledes
indledning
indledningen
indledt
indledte
indledtes
indlem
indlemmet
indlev
indlæg
indløb
indløbet
indoe
indoeuropæiske
indones
indonesien
indpas
indr
indre
indretning
indrettede
indrettet
indrøm
indrømmede
inds
indsa
indsam
indsamle
indsamlede
indsamlet
indsamling
indsat
indsats
indsatsen
indsatte
indser
indsigt
indsk
indskrevet
indskrift
indskriften
indskrifter
indskræn
indskrænket
indslag
indspil
indspille
indspillede
indspillet
indspilning
indspilningen
indspilninger
indspilningerne
indsprøjtning
indst
indstiftet
indstille
indstillede
indstillet
indstilling
indsætte
indsættes
indt
indtage
indtagelse
indtager
indtaget
indtil
indtjening
indtog
indtra
indtradte
indtraf
indtryk
indtræ
indtræden
indtræn
indtrængende
indtægt
indtægter
indtægterne
indust
industri
industrial
industrialisering
industrialiseringen
industriel
industrielle
industrielt
industrien
industrier
industrim
industriv
industry
indv
indvalgt
indvand
indvandrede
indvandrer
indvandrere
indvandring
indvend
indvendigt
indvi
indviede
indviedes
indvielse
indvielsen
indviet
indvik
indvillig
indvirkning
ine
inf
infant
infanter
infanteri
infanterib
infanterid
infanteridivision
infanteriet
infanteriregiment
infektion
infektioner
infin
infl
inflation
influen
inform
information
informationer
informations
informer
infra
infrar
infrastruktur
ing
inge
ingeborg
ingem
ingemann
ingen
ingeni
ingeniør
ingeniører
ingenting
inger
ingr
ingrediens
ingredienser
ingrid
init
initi
initiat
initiativ
initiativer
initiativet
initiativtager
ink
inkar
inkl
inkluder
inkludere
inkluderede
inkluderer
inkluderet
inklus
inklusiv
inklusive
inkorpor
inn
inner
innov
innovation
inns
input
ins
inse
insekt
insekter
insist
insisterede
inskript
insp
inspe
inspektion
inspektør
inspir
inspiration
inspirationen
inspirere
inspirerede
inspireret
inst
instal
install
installation
installationer
installeret
instit
institut
institute
institution
institutionen
institutioner
instituttet
instru
instruerede
instrueret
instruktion
instruktioner
instruktør
instruktøren
instruktører
instrument
instrumental
instrumenter
instrumentet
int
intakt
integ
integr
integration
integreret
intel
intelle
intellekt
intellektuelle
intellig
intelligens
intelligent
inten
intens
intense
intensiv
intent
inter
interaktion
interc
intercontinental
interess
interessant
interessante
interesse
interessen
interesser
interesserede
interesseret
interi
interiør
intern
internation
international
internationale
internationalt
interne
interner
internet
internettet
internt
interval
intervention
interview
interviewet
interviews
intet
intim
into
intr
intrig
introd
introduc
introducerede
introduceret
introduktion
introduktionen
inuit
inv
invad
invadere
invaderede
inval
invas
invasion
invasionen
inventar
inver
invest
invester
investering
investeringer
investorer
invi
invitation
inviterede
inviteret
invol
involver
involverede
involverer
involveret
io
ioc
ion
ioner
iowa
ip
iq
ir
ira
irak
irakiske
iran
iransk
iranske
irene
iris
irish
irland
irlands
iron
ironisk
irreg
irsk
irske
is
isa
isaac
isab
isabella
isbn
iscenes
isen
ish
ishav
ishavet
ishockey
ishøj
isl
islam
islamisk
islamiske
island
islands
islandsk
islandske
isle
islænd
ism
iso
isol
isolation
isolerede
isoleret
isot
isotop
isotoper
isra
israel
israels
israelsk
israelske
iss
ist
istan
istanbul
istand
isted
istid
istiden
især
it
ita
ital
italia
italien
italienerne
italiens
italiensk
italienske
itunes
itze
itzehoe
iv
ivan
ivar
iver
iversen
ivrig
iværks
iværksat
iværksatte
iværksætter
iw
ix
iz
ja
jab
jac
jack
jackie
jacks
jackson
jacksons
jacob
jacobsen
jacobsens
jacques
jag
jage
jager
jagere
jagerfly
jagger
jagt
jagten
jah
jak
jake
jakob
jakobsen
jal
jam
jama
jamaica
james
jamie
jammer
jamt
jan
jane
janeiro
jann
januar
janus
jap
japan
japanerne
japans
japansk
japanske
jar
jarl
jarlen
jarls
jaroslav
jarv
jas
jason
jav
java
jay
jazz
je
jean
jeanne
jed
jeff
jefferson
jeg
jehov
jehovas
jek
jel
jelling
jen
jena
jenn
jennifer
jenny
jens
jensen
jensens
jep
jeppe
jer
jere
jeremy
jeri
jern
jernalder
jernalderen
jernban
jernbane
jernbanelin
jernbanen
jernbaner
jernbanest
jernbanestation
jernstøber
jerry
jersey
jerusalem
jes
jesper
jespersen
jess
jesse
jessen
jessica
jesu
jesus
jet
jf
ji
jiang
jim
jimmy
jin
jing
jo
joach
joachim
joak
joakim
joan
job
jobbet
jobs
jod
joe
joel
joensen
joey
jog
joh
johan
johann
johanna
johanne
johannes
johans
johansen
johansson
john
johnny
johnson
johnston
joint
jok
jol
jom
jomfru
jon
jonas
jonat
jonathan
jones
jong
jonsson
jor
jord
jordan
jordbrug
jordbund
jorde
jordebog
jorden
jordens
jorder
jordiske
jordoverfladen
jordsk
jordskælv
jordskælvet
jordstæng
jordt
jorge
jos
jose
josef
joseph
josephine
josh
journal
journalist
journalisten
journalister
journalisthøjskole
journalistik
jov
joy
jp
jpg
jr
ju
juan
jub
jubilæ
jubilæum
jud
judas
juel
jug
jugend
jugoslav
jugoslavien
jugoslaviske
jul
jule
julekalen
julekalender
julem
julen
jules
juli
julia
julian
juliane
julie
juliet
julius
jun
jung
jungle
juni
junior
jup
jupiter
jur
jura
jurgen
jurid
juridisk
juridiske
juris
jurisdik
jurisdiktion
jurist
jury
just
justice
justin
justit
justits
justitsminister
justitsministeriet
justitsrad
jut
juul
juvent
juventus
jyd
jydske
jylland
jyllands
jysk
jyske
jæger
jægere
jægersborg
jær
jæt
jævn
jævne
jævnlig
jævnligt
jævnt
jød
jøde
jødedom
jødedommen
jøder
jøderne
jødisk
jødiske
jør
jørg
jørgen
jørgens
jørgensen
jørn
ka
kaas
kab
kabel
kabinet
kad
kadet
kaffe
kag
kager
kah
kai
kairo
kaiser
kaj
kajak
kak
kaka
kal
kald
kalde
kalder
kaldes
kaldet
kaldt
kaldte
kaldtes
kalender
kalenderen
kaliber
kalif
kalium
kalk
kalkmalerier
kalksten
kalmar
kalundborg
kalv
kalve
kam
kamer
kamera
kameraer
kameraet
kammer
kammerat
kammerater
kammerherre
kammerjunker
kammermusik
kamp
kampagne
kampagnen
kampagner
kampe
kampen
kampene
kampens
kampesten
kampfly
kampmann
kampsport
kampvogn
kampvogne
kamre
kan
kanal
kanalen
kanaler
kancell
kancelli
kancellirad
kand
kandid
kandidat
kandidater
kane
kang
kann
kanon
kanonen
kanoner
kanonerne
kansas
kansler
kant
kanten
kanter
kanton
kantonen
kaos
kap
kapac
kapacitet
kapel
kapellan
kapellet
kapelmester
kapit
kapital
kapitel
kapitler
kapitulation
kapp
kappe
kappel
kapsler
kaptaj
kaptajn
kaptajnen
kaptajnløjtnant
kar
kara
karakter
karakteren
karakterer
karakteriseres
karakteriseret
karakterist
karakteristik
karakteristika
karakteristisk
karakteristiske
karant
karantæne
karate
kard
kardinal
karel
karelen
karelske
karen
karet
karik
karin
karis
karl
karls
karlsk
karlsru
karlsruhe
karn
karneval
karol
karp
karriere
karrieren
karrosser
karsten
kart
kartof
kartoff
kartoffel
kartofler
karup
kas
kasakh
kasakhstan
kaserne
kash
kashmir
kasp
kaspar
kasper
kaspiske
kass
kasse
kassel
kasser
kasserer
kassette
kast
kaste
kastede
kastellet
kaster
kastet
kastrup
kasus
kat
katal
katalog
kataly
katalysat
katalysator
katar
katarina
katastro
katastrof
katastrofe
katastrofen
kate
kated
katedral
katedralen
katedralskole
kateg
kategor
kategori
kategorien
kategorier
kategoriseret
kathar
katharina
katol
katolicismen
katolikker
katolsk
katolske
katrine
katt
katte
katteg
kattegat
kau
kaukas
kaukasus
kaut
kav
kavaler
kavaleri
kavaleriet
kaw
kay
kaz
kb
kc
ke
ked
keep
keg
kegle
keith
kej
kejser
kejsere
kejseren
kejserens
kejserinde
kejserlig
kejserlige
kejserrige
kejserriget
kel
keld
keller
kelly
kelt
keltisk
keltiske
kem
kemi
kemikal
kemikalier
kemiker
kemisk
kemiske
ken
kend
kende
kender
kendes
kendet
kendeteg
kendetegn
kendetegnes
kendetegnet
kendsger
kendskab
kendskabet
kendt
kendte
kenned
kennedy
kenneth
kenny
kens
kent
kentucky
kenya
kepler
ker
keram
keramik
kern
kerne
kernen
kerner
kertem
kerteminde
kessel
ket
kevin
key
keyboard
keynes
kf
kfum
kg
kgl
kh
kha
khal
khan
ki
kick
kid
kidna
kids
kiel
kieler
kier
kierkegaard
kig
kigger
kijev
kik
kil
kilde
kilden
kilder
kilderne
kile
kill
kilo
kilometer
kim
kin
kina
kinas
kind
kines
kinesere
kineserne
kinesisk
kinesiske
kinet
king
kingdom
kings
kio
kir
kirch
kirk
kirke
kirkeby
kirkegard
kirkegarden
kirkelig
kirkelige
kirken
kirkens
kirker
kirkerne
kirkes
kirket
kirsebær
kirsten
kirstine
kirurg
kis
kiss
kiste
kit
kitt
kj
kjeld
kjellerup
kjer
kjole
kjær
kjøb
kjøbenhavn
kjøbenhavns
kl
kla
klage
klagede
klager
klaks
klaksvik
klampenborg
klan
klanen
klang
klap
klar
klare
klarede
klarer
klarhed
klarinet
klart
klass
klasse
klassen
klasser
klassetrin
klassificeres
klassificeret
klassifikation
klassiker
klassikere
klassisk
klassiske
klat
klatre
klaus
klav
klaver
kle
klein
klem
klient
klim
klima
klimaet
klin
klinisk
kliniske
klint
klip
klipp
klippe
klipper
klippet
klit
klitter
klo
kloak
kloden
klog
klokk
klokke
klokken
klokker
klor
klost
kloster
klosteret
klostre
klostret
klov
klovn
klub
klubben
klubbens
klubber
klubberne
klubhold
klubhus
klubkarriere
klubplan
klyn
klæ
klæd
klæde
klæder
klædt
klø
kløft
kløver
km
km2
km²
kn
kna
knap
knapt
kne
knight
kniv
knob
knock
knockout
knog
knogle
knogler
knold
knop
knopperne
know
knowles
knud
knude
knudepunkt
knuds
knudsen
knust
knuste
knut
knuth
knyt
knytte
knyttede
knytter
knyttes
knyttet
knæ
ko
koalition
kob
kobber
kobberstik
koblet
koch
kod
kode
koden
koder
kof
koff
kog
koge
kogn
koh
kok
kokain
kokk
kol
kold
kolde
kolding
koldt
koll
kollap
kollapsede
kolle
kolleg
kollega
kolleger
kollegiet
kollegium
kollektiv
kollektive
kollision
koln
kolon
koloni
kolonial
kolonien
kolonier
kolonierne
kolonim
kolonisering
kolonister
kolonit
kolonne
kom
komb
kombin
kombination
kombinationen
kombinationer
kombinere
kombinerede
kombinerer
kombineres
kombineret
komed
komedie
komediefilm
komedier
komfort
komiker
komiske
komite
komiteen
komm
kommand
kommandant
kommanderede
kommando
kommandoen
kommandør
kommandørkaptajn
komme
kommen
kommende
komment
kommentar
kommentarer
kommentator
kommenterede
kommer
kommerc
kommerciel
kommercielle
kommercielt
kommet
kommiss
kommission
kommissionen
kommissionens
kommissioner
kommissær
kommun
kommuna
kommunal
kommunalbestyr
kommunalbestyrelse
kommunalbestyrelsen
kommunale
kommunalreformen
kommunalt
kommunalvalget
kommune
kommunen
kommunens
kommuner
kommunerne
kommunes
kommunik
kommunikation
kommunikations
kommunikere
kommunist
kommunister
kommunisterne
kommunistisk
kommunistiske
kommunistparti
komp
kompagn
kompagni
kompagnier
kompagniet
kompakt
kompas
kompat
kompens
kompensation
kompeten
kompetence
kompetencer
komplek
kompleks
komplekse
komplekset
komplekst
komplet
komplette
komplic
komplicerede
kompliceret
komplikationer
kompon
komponent
komponenter
komponere
komponerede
komponeret
komponist
komponisten
komponister
komposition
kompositioner
kompri
komprom
kompromis
komtes
komtesse
kon
koncentr
koncentration
koncentrations
koncentrere
koncentrerede
koncentreret
koncep
koncept
konceptet
koncer
koncern
koncernen
koncert
koncerten
koncerter
koncerterne
koncerts
koncertsal
koncess
koncil
kond
kondens
kondu
kone
konf
konfer
konference
konferencen
konferencer
konferensrad
konfir
konfirm
konfirmation
konfisk
konflik
konflikt
konflikten
konflikter
konfron
konfront
konføder
konfødererede
kong
konge
konged
kongedømme
kongedømmet
kongefamilien
kongehus
kongehuset
kongel
kongelig
kongelige
kongeligt
kongem
kongemagten
kongen
kongens
kongensgade
konger
kongerig
kongerige
kongeriger
kongeriget
kongerne
kongernes
konges
kongres
kongressen
konig
konigsberg
konjunkt
konk
konkl
konkluder
konkluderede
konklus
konklusion
konkret
konkrete
konkur
konkurr
konkurren
konkurrence
konkurrencen
konkurrencer
konkurrent
konkurrenter
konkurrere
konkurrerede
konkurrerende
konkurrerer
konkurs
konrad
kons
konse
konsekvens
konsekvenser
konsekvenserne
konsekvent
konsensus
konser
konserv
konservativ
konservative
konservatoriet
konsol
konson
konsort
konspir
konst
konstant
konstante
konstantin
konstantinopel
konstat
konstater
konstatere
konstaterede
konstateret
konstitueret
konstitution
konstru
konstruere
konstruerede
konstrueret
konstruktion
konstruktionen
konstruktioner
konstruktør
konsul
konsulent
kont
kontakt
kontaktede
kontakten
kontakter
kontant
kontekst
kontin
kontinent
kontinental
kontinentale
kontinenter
kontinentet
kontinu
kontinuer
kontor
kontorchef
kontorer
kontoret
kontra
kontrakt
kontrakten
kontrakter
kontrast
kontre
kontreadmiral
kontro
kontrol
kontrollen
kontroller
kontrollere
kontrollerede
kontrollerer
kontrolleres
kontrolleret
kontrover
kontrovers
kontroverser
kontroversiel
kontroversielle
konvent
konvention
konventionelle
konventionen
konver
konverterede
konverteret
konvo
kooper
koord
koordin
koordinat
kop
kopi
kopier
kopp
koppel
kor
koral
koranen
kore
korea
koreakrigen
koreansk
koreanske
koreograf
koret
korets
korn
kornet
korpor
korps
korpset
korre
korrekt
korrekte
korresp
korrespond
korrespondance
korrespondent
korrid
korru
korruption
kors
korset
korsf
korsfæst
korstog
korsør
kort
korte
kortere
korteste
kortet
kortfilm
kortvar
kortvarig
kortvarigt
korvet
korværker
kos
kosa
kosm
kosmet
kosovo
kost
koste
kostede
koster
kostet
kostskole
kot
kov
kr
kra
krab
krabbe
kraft
kraften
kraftig
kraftige
kraftigere
kraftigt
kraftværk
krag
kragh
kraj
krak
krakow
kraks
kram
kran
krans
krarup
krasn
krat
krater
kraterbunden
kratere
krateret
krav
kravene
kravet
kre
kreativ
kreative
kreb
krebs
kred
kredit
krediteret
kreds
kredse
kredsen
kredser
kredsløb
kreis
kreisen
krem
kreta
kri
kridt
krieg
krieger
krig
krige
krigen
krigene
krigens
kriger
krigere
krigs
krigsf
krigsfanger
krigsfor
krigsforbrydelser
krigsførelse
krigsminister
krigsskib
krigsskibe
krim
krimin
kriminal
kriminalitet
kriminelle
kris
krise
krisen
krish
krist
kristeligt
kristen
kristende
kristendom
kristendommen
kristendommens
kristensen
kristent
kristi
kristian
kristiania
kristiansand
kristiansen
kristina
kristne
kristoffer
kristus
krit
kriter
kriterier
kritik
kritiker
kritikere
kritikerne
kritikken
kritiserede
kritiseret
kritisk
kritiske
kro
kroat
kroatien
kroatisk
kroatiske
kroen
krog
krogh
krom
kromos
kromosom
kron
kronblade
kronborg
krone
kronen
kronens
kroner
kronet
krong
kronik
kroning
kronisk
kronologisk
kronpr
kronprins
kronprinsen
kronprinsesse
krop
kroppen
kroppens
krops
kru
krudt
krum
kry
kryb
krybdyr
krybende
kryd
krydder
krydderier
kryds
krydse
krydsede
krydser
krydsere
krydses
krydset
krydsning
krydsnings
kryp
krypt
kryst
krystal
krystall
kræ
kræft
kræfter
kræn
kræve
krævede
krævende
kræver
kræves
krævet
krø
krøn
krønike
krøyer
ks
ku
kub
kubik
kugle
kugler
kul
kuld
kulde
kuldioxid
kulhyd
kulmin
kulminerede
kulstof
kult
kultur
kulturarv
kulturarvsstyrelsen
kulturel
kulturelle
kulturelt
kulturen
kulturer
kulturhistorisk
kulturhistoriske
kulturhus
kulturkan
kulturminister
kum
kun
kund
kunde
kunder
kunderne
kundskab
kundskaber
kung
kungliga
kunne
kunnet
kunst
kunstakadem
kunstakademi
kunstakademiet
kunstakademiets
kunsten
kunster
kunstfond
kunsthand
kunsthandværk
kunsthistorie
kunstig
kunstige
kunstigt
kunstmaler
kunstmuseum
kunstner
kunstnere
kunstneren
kunstnerens
kunstnerisk
kunstneriske
kunstnernavn
kunstnernavnet
kunstnerne
kunstnernes
kunstners
kunstværker
kup
kuperet
kuppel
kuppet
kur
kurd
kurdiske
kurfyr
kurfyrst
kurfyrste
kurland
kurs
kursen
kurser
kursus
kurt
kurve
kus
kusine
kut
kuwa
kuwait
kv
kvad
kvadrat
kvadratkilometer
kvadratmeter
kval
kvalificere
kvalificerede
kvalificerer
kvalificeret
kvalifik
kvalifikation
kvalifikationen
kvalifikations
kvalifikationskamp
kvalifikationsrunde
kvalifikationsturneringen
kvalitet
kvaliteten
kvaliteter
kvant
kvante
kvantemekan
kvar
kvart
kvartal
kvarter
kvarterer
kvarteret
kvartfin
kvartfinale
kvartfinalen
kvartfinaler
kvartfinalerne
kviks
kviksølv
kvinde
kvindefod
kvindefodboldlandshold
kvindehandboldlandshold
kvindel
kvindelig
kvindelige
kvinden
kvindens
kvinder
kvinderne
kvindernes
kvinders
kvindes
kvist
kvit
kvote
kvæg
kvæl
kvælstof
kvær
kvæst
kw
ky
kyl
kylie
kylling
kyn
kyoto
kyr
kys
kyst
kysten
kyster
kysterne
kystlinje
kystnære
kz
kæ
kæde
kæden
kæder
kæl
kælder
kælderen
kælen
kælenavnet
kæmp
kæmpe
kæmpede
kæmper
kæmpet
kær
kære
kæreste
kærester
kærlighed
kærligheden
kætter
kø
køb
købe
københavn
københavns
københavnsk
københavnske
køber
købes
købet
købmand
købmands
købmænd
købstad
købstaden
købstæder
købstæderne
købt
købte
kød
kødet
køer
køge
køkken
køkkenet
køl
køle
køler
kølvandet
køn
køns
kør
køre
kørende
kører
køres
kørestol
køret
køretøj
køretøjer
kørsel
kørt
kørte
la
lab
labor
laborator
laboratorium
labour
lac
lad
lade
ladegard
laden
lader
ladet
ladies
ladning
ladoga
lady
laf
lag
lagde
lager
lagmand
lagt
lagting
lagtinget
lak
lake
laks
lakse
lam
lama
lamp
lan
lanc
lancaster
lancer
lancerede
lanceret
lancet
land
landbo
landbrug
landbruget
landbrugets
landbrugs
landdag
landdistrik
lande
landede
landene
lander
landes
landet
landets
landevej
landevejen
landevejscyk
landevejscykelrytter
landevejscykling
landgang
landing
landings
landk
landkre
landkreis
landkreisen
landmand
landmænd
landomrade
landomrader
lands
landsby
landsbyen
landsbyens
landsbyer
landsbyerne
landsdel
landsdele
landsdommer
landsdækkende
landsfor
landsforeningen
landsformand
landsh
landshold
landsholdet
landsholds
landsholdskarriere
landsholdsspiller
landsk
landskab
landskaber
landskabet
landskabs
landskabsmaler
landskamp
landskampe
landskrona
landsmand
landsmænd
landsp
landspokalt
landsret
landst
landsted
landsting
landstinget
landstræner
landt
lane
lang
langa
langdist
lange
langeland
langes
langob
langs
langsom
langsomme
langsommere
langsomt
langt
langu
langvar
langvarig
langvarige
lanka
lans
lant
lante
laos
lap
lapp
lar
lara
larry
lars
larsen
larsens
las
laser
lasse
lassen
last
lastbil
lastbiler
laste
lat
late
later
latin
latinamerika
latinsk
latinske
latinskole
latter
lau
laud
lauen
lauenburg
laug
laur
laura
laurbær
laurent
laurids
lauridsen
laurits
lauritz
lauritzen
laursen
laurvig
laus
lav
lava
lave
lavede
laver
lavere
laves
lavest
laveste
lavet
lavt
lavvandede
law
lawrence
lay
laz
lc
ld
le
lea
lead
league
lear
lec
lech
led
lede
ledede
ledelse
ledelsen
ledelses
ledende
leder
ledere
lederen
lederne
lederskab
ledes
ledet
ledig
ledige
ledning
leds
ledsagede
ledsaget
ledt
ledte
lee
leeds
lees
left
leg
legat
legater
lege
legem
legeme
legend
legendariske
legende
legenden
legender
legene
leger
leget
legetøj
legion
legitim
lego
leh
lehmann
leic
leicester
leiden
leif
leigh
leip
leipzig
lej
leje
lejede
lejer
lejes
lejesoldater
lejet
lejlighed
lejligheden
lejligheder
lejlighedsvis
lejr
lejre
lejren
leks
leksikon
lektor
lem
lemvig
len
lena
lene
lenin
leningrad
lenn
lennon
lens
lensgreve
lensmand
leo
leon
leonard
leonardo
leone
leop
leopold
ler
lerche
les
lesl
leslie
let
letbane
leth
letland
letlands
letsvær
letsværvægt
lett
lette
letter
lettere
lettisk
lettiske
letvægt
lev
leve
levear
levede
level
levende
lever
leverand
leverandør
levere
leverede
leverer
leveres
leveret
levering
levest
levet
levetid
levevilkar
levevis
levin
levn
levned
lew
lewis
lex
ley
lg
lh
li
lia
lib
libanon
liber
liberal
liberale
libert
liberty
library
libret
libretto
liby
libyen
lic
licens
lich
lid
lide
lidelse
lidelser
liden
lidenskab
lider
lidet
lidt
lie
lieb
liechten
liechtenstein
liege
life
lig
liga
ligaen
ligaens
ligaer
ligak
ligakampe
lige
ligefrem
ligeg
ligel
ligeledes
liges
ligesa
ligesom
ligest
ligestilling
liget
ligevægt
ligge
liggende
ligger
ligget
lighed
ligheder
light
lign
ligne
lignede
lignende
ligner
ligning
ligningen
ligue
lik
like
likvid
lil
lill
lilla
lille
lilleasien
lillebror
lillebælt
lillesøster
lily
lim
limfjorden
limited
lin
lincol
lincoln
lind
linda
linde
linden
lindholm
line
lines
lineær
ling
lingv
lingvist
linj
linje
linjeføring
linjen
linjer
linjerne
link
links
linne
linux
lion
lip
lis
lisa
lisbeth
lise
liss
lissabon
list
liste
listen
lister
listet
liszt
lit
litau
litauen
litauens
litauisk
litauiske
liter
liters
litersmotor
lith
lithium
litra
litt
litter
litteratur
litteraturen
litteraturpris
litterær
litterære
litterært
little
liturg
liv
live
livealbum
liver
liverpool
livet
livets
livgarden
living
livland
livlig
livregiment
livs
livsl
livsstil
livstid
livsvar
liz
lj
ll
llo
lloyd
lo
lob
loc
lock
locke
lod
lodret
lodrette
lodtræk
lodtrækning
lodtrækningen
lof
lofoten
loft
loftet
log
logik
logisk
logiske
logistik
logo
lok
lokal
lokalbefolkningen
lokale
lokaler
lokaliseret
lokalitet
lokaliteter
lokalt
loke
lokke
lokomot
lokomotiv
lokomotiver
lol
lolland
lom
lomb
lombard
lomme
lon
lond
london
londons
lone
long
longstreet
look
lope
lopez
lor
lord
loren
lorent
lorentz
lorentzen
lorenz
lorenzo
lorraine
los
lost
lot
lothar
lotte
lotus
lou
louis
louise
louisiana
louvre
lov
love
lovede
loven
lovende
lovene
lovens
lover
lovet
lovforslag
lovgivende
lovgivning
lovgivningen
lovlig
lovligt
low
loy
loyal
loyale
loyalitet
lp
lt
ltd
lu
lub
lubeck
luc
lucas
lucia
lucius
lucky
lucy
lud
ludvig
ludwig
luft
luftangreb
luftbarne
luften
luftfart
luftforsvar
lufthavn
lufthavne
lufthavnen
luftskib
luftvaben
luftwa
luftwaffe
lug
lugt
luigi
luis
luk
lukas
luke
lukke
lukkede
lukker
lukkes
lukket
lukning
lukningen
luks
luksus
lum
lun
lund
lunde
lunds
lune
luneburg
lung
lunge
lungebetændelse
lup
lur
lus
lut
luth
luther
luthers
luthersk
lutherske
lutt
lux
luxem
luxembourg
luxemburg
luz
ly
lyd
lyde
lyden
lyder
lykk
lykke
lykkedes
lykkelig
lykkelige
lykkeligt
lykken
lykkes
lym
lyn
lynch
lyng
lyngby
lynge
lyon
lyr
lyrik
lyriske
lys
lysabne
lyse
lysegrøn
lysende
lyser
lysere
lyserøde
lyset
lysets
lyst
lystbade
lytte
lytter
læ
læder
læg
læge
lægem
lægemiddel
lægemidler
lægen
læger
lægevidenskab
lægge
lægger
lægges
læk
læng
længde
længdekreds
længden
længe
længere
længerevarende
længst
længste
lær
lærd
lærde
lærdom
lære
læreanstalt
lærebog
lærebøger
læren
lærer
lærere
læring
lærling
lærred
lært
lærte
læs
læse
læser
læsere
læseren
læses
læsning
læss
læst
læste
læsø
lø
løb
løbe
løbende
løber
løbere
løbet
løbets
lød
løft
løfte
løfter
løftet
løg
løgn
løgstør
løgum
løjtnant
løkke
løkken
løn
lønmod
lør
lørdag
løs
løse
løses
løsg
løsl
løsladt
løsning
løsningen
løsninger
løst
løste
løv
løve
løven
løver
løvf
løvfældende
m2
m3
ma
mac
mach
machine
mack
mad
madag
madagask
madagaskar
madame
made
maden
mader
madison
madlav
madlavning
madonna
madrid
mads
madsen
maf
mafia
mag
magas
magasin
magasiner
magasinet
magaz
magazine
magdalen
magdalene
magde
magdeburg
mage
mager
magi
magic
magisk
magiske
magist
magister
magistrat
magle
magn
magnes
magnesium
magnet
magnetfelt
magnetiske
magnus
magnusson
magt
magten
magter
magtfulde
magtover
magtovertagelse
mah
mai
maiden
mail
main
maine
mainstream
mainz
maj
majest
majestæt
major
majs
mak
make
maked
makedon
makedonien
makker
makro
maksim
maksimal
maksimale
maksimalt
maksimum
mal
malaria
malays
malaysia
malcol
malcolm
male
malebord
malede
malene
maler
malere
maleren
maleri
malerier
malerierne
maleriet
maleris
males
malestok
malet
mali
maling
malinger
malling
mallor
mallorca
malm
malmand
malmo
malmø
malrettet
malt
malta
malte
mam
man
manag
management
manager
manch
manchester
manchur
manchuriet
mand
mandag
mandat
mandater
manden
mandlig
mandlige
mands
mandskab
mandskabet
mane
maned
maneden
maneder
maneders
maneds
manen
manens
maner
mang
manga
mange
mangearige
mangel
mangfold
mangfoldighed
manglede
manglen
manglende
mangler
manhattan
mani
manifest
manip
mank
mann
mans
manu
manuel
manuelt
manuskri
manuskrip
manuskript
manuskripter
manuskriptet
manuskriptforfatter
manøv
mao
map
mar
marathon
maraton
marc
marcel
march
marcherede
marco
marcus
mare
maren
marg
margar
margaret
marginal
margret
margrete
margrethe
mari
maria
mariager
marian
marianne
marias
maribo
marie
marien
marin
marina
marine
marinem
marinen
marines
mario
marion
maritim
maritime
marius
mark
markant
markante
marked
markeder
markedet
markeds
markedsf
markedsføring
markedsført
marken
marker
markere
markerede
markerer
markeret
market
marketing
markgrev
markt
markus
marl
marlborough
marmor
marokk
marokko
marqu
mars
marse
marseille
marsel
marselis
marsh
marshall
marsk
marskal
marstal
marstrand
mart
martha
martin
martine
martins
marts
martyr
marvel
marx
mary
maryland
mas
mask
maske
maskin
maskine
maskinen
maskiner
maskinge
maskingevær
maskingeværer
mason
mass
massa
massachus
massachusetts
massakr
massakren
masse
massen
masser
massiv
massive
massivt
mast
master
masters
mat
matador
match
matchen
matemat
matematik
matematiker
matematikken
matematisk
matematiske
mater
materi
material
materiale
materialer
materialet
materiel
materielle
math
mathemat
mathias
mathilde
matri
matrik
matrix
matt
matte
mattet
matth
matthew
matthias
maur
maurice
maus
mav
mave
maven
mavens
max
maxim
maximilian
may
maya
maz
mazda
mb
mc
mcc
mccart
mccartney
mccl
mcclellan
mcdonald
mcg
mck
mckin
mcmah
mcmahon
md
me
meade
mec
mech
meckl
mecklenburg
med
meda
medal
medalje
medaljen
medaljer
medarbej
medarbejder
medarbejdere
medbragte
medbringe
meddel
meddelelse
meddelelser
meddelt
meddelte
medejer
medens
medforfatter
medføre
medfører
medført
medførte
medhjælper
media
medic
medici
medicin
medicinal
medicinsk
medicinske
medie
medier
medierne
medina
meditation
medium
medlem
medlemmer
medlemmerne
medlems
medlemskab
medlemslande
medley
medmindre
medredaktør
medreg
medregnet
medstifter
medtaget
medvirk
medvirke
medvirkede
medvirken
medvirkende
medvirker
medvirket
meg
megen
meget
meh
mein
mej
mejer
mejeri
mek
mekan
mekanik
mekanis
mekanisk
mekaniske
mekanisme
mel
melan
melank
melbourne
melch
melchior
melde
meldt
meldte
mellem
mellemamerika
mellemklasse
mellemkrigstiden
mellemliggende
mellemrum
mellemste
mellemstore
mellemtiden
mellemvægt
mellemøsten
melod
melodi
melodien
melodier
melodisk
melodiske
mem
membran
memor
memorial
memphis
men
mendel
mener
menes
mengel
menige
menighed
menigheden
menigheder
mening
meningen
meninger
meningsmal
menne
mennesk
menneske
menneskeheden
menneskelig
menneskelige
menneskeliv
menneskene
menneskenes
mennesker
menneskeret
menneskerett
menneskerettighed
menneskerettigheder
menneskers
menneskes
mennesket
menneskets
mens
ment
mental
mentale
mentalt
mente
mentor
mer
merc
mercedes
mercury
mere
meret
meri
merkur
merlin
mes
mesop
mesopotam
mesopotamien
mess
messe
messen
messer
messing
mest
meste
mester
mesterhold
mesterholdenes
mesterskab
mesterskaber
mesterskaberne
mesterskabet
mesterskabs
mestre
met
meta
metaf
metal
metall
metaller
metallica
metam
mete
meteor
meter
meters
meth
metod
metode
metoden
metoder
metro
metrop
metropol
metropolit
metropolitan
metropolitansk
metropolitanskolen
mette
metz
mex
mexic
mexicansk
mexicanske
mexico
meyer
mg
mh
mht
mhz
mi
mia
miam
miami
mic
mich
micha
michael
michaels
michel
michelle
michelsen
michigan
mick
mickey
micros
microsoft
mid
midd
middag
middel
middelalder
middelaldercentret
middelalderen
middelalderens
middelalderlig
middelalderlige
middelfart
middelhav
middelhavet
middelhavsomradet
middle
midler
midlertid
midlertidig
midlertidige
midlertidigt
midnat
midt
midtban
midtbane
midtbanespiller
midte
midten
midter
midterforsvar
midterste
midtfyn
midtjylland
midtpunkt
mie
mig
miguel
mik
mika
mikael
mike
mikhail
mikk
mikkel
mikkelsen
mikro
mikroorganis
mikroskop
mil
milan
milano
mild
milde
mile
milep
miles
milit
military
milits
militær
militære
militæret
militærk
militært
militærtjeneste
milj
miljø
miljøer
miljøet
miljøm
mill
miller
milli
milliard
milliarder
millimeter
million
millioner
milton
mim
min
mind
minde
mindede
mindel
minder
mindes
mindesmærke
mindesmærker
mindesten
mindet
mindre
mindret
mindretal
mindretals
mindske
mindst
mindste
mine
minedrift
miner
mineral
mineraler
ming
minh
mini
miniat
miniature
minim
minimal
minimum
minist
minister
ministeren
ministeriet
ministerium
ministerpræsident
ministre
minnes
minnesota
minog
minogue
minor
minoritet
minoriteter
minsk
minus
minut
minutter
minutters
mio
mir
mira
mirak
mis
misbrug
misfor
misly
mislykkede
mislykkedes
mislykket
miss
missil
missiler
mission
missionen
missioner
missions
missionær
missionærer
mississipp
mississippi
missour
missouri
mist
mistanke
miste
mistede
mister
mistet
mistillid
mistænkt
mistænkte
mit
mitch
mitchell
mitokond
mits
mitsub
mitsubishi
mitt
mitte
mittel
mix
mixed
mj
mk
ml
mm
mma
mo
mob
mobil
mobile
mobiltel
mobiltelefon
mobiltelefoner
mod
modangreb
mode
model
modell
modellen
modeller
modellerne
moden
moder
moderat
moderate
moderen
moderens
modern
moderne
moderniseret
modernisering
moders
modersmal
modificerede
modificeret
modifikationer
modne
modner
mods
modsat
modsatte
modsta
modstand
modstanden
modstander
modstandere
modstanderen
modstanderne
modstands
modstandsbevæg
modstandsbevægelse
modstandsbevægelsen
modstandsmand
modstrid
modstridende
modsvar
modsætning
modsætninger
modtag
modtage
modtagelse
modtager
modtagere
modtageren
modtaget
modtog
modul
modvilje
modvirke
mog
mogens
mogensen
moh
moham
mohammed
mol
mold
molde
mole
moleky
molekyl
molekyle
molekyler
moll
molot
molotov
mols
molt
moltke
mom
moment
mon
mona
monaco
monark
monarki
monarkiet
mond
monet
money
mongol
mongolerne
mongoliet
mongolske
monica
mono
monopol
monrad
monroe
mons
monster
mont
montana
monte
monten
monteneg
montenegro
monteret
montes
montg
montgomer
montgomery
montreal
monum
monument
monumenter
monumentet
moon
moore
mor
moral
moralsk
moralske
mord
morder
morderen
mordet
more
moren
morf
morg
morgan
morgen
morgenen
moritz
mormon
mormor
morris
morrison
mors
morsø
mort
morten
mortensen
moræn
mos
mosa
mose
mosebog
mosen
moser
moses
mosk
moske
moskeen
moskva
moskvas
moss
mosser
most
mot
mother
motion
motiv
motiver
motivet
motor
motorcyk
motorcykel
motoren
motorer
motorerne
motors
motorsport
motort
motortrafik
motorvej
motorveje
motorvejen
motown
motto
mou
moun
mount
mountain
mountains
mour
mov
movie
moz
mozambi
mozambique
mozart
mozarts
mp
mr
mrs
ms
mt
mtv
mu
mud
mudder
mug
muh
muham
muhammad
muhammed
mul
muld
mulig
mulige
muliggjorde
muliggør
mulighed
muligheden
muligheder
mulighederne
muligt
muligvis
muller
mult
multi
multik
multination
multip
mum
mun
munch
munchen
mund
munden
munder
munding
mundingen
mundt
municip
munk
munke
munkene
munkesten
munster
munter
mur
mure
muren
murene
murer
murermester
murphy
murray
mursten
murstens
mus
musc
muse
museer
museet
museets
museum
museums
music
musical
musicalen
musik
musikalsk
musikalske
musiker
musikere
musikeren
musikken
musikkens
musikkonserv
musikkonservatoriet
musikkonservatorium
musikmagasinet
musikvide
musikvideo
musikvideoen
musikvideoer
musk
muskel
muskler
muslim
muslimer
muslimerne
muslimsk
muslimske
mussol
mussolini
must
mut
mv
mw
my
myg
myk
myl
myld
myldret
myn
mynd
myndighed
myndigheder
myndighederne
myr
myrde
myrdede
myrdet
mys
myst
myster
mystisk
mystiske
myt
myte
myten
myter
mytologi
mytologiske
m²
m³
mæ
mæg
mægtig
mægtige
mæl
mælk
mælke
mænd
mændene
mændenes
mænds
mæng
mængde
mængden
mængder
mærk
mærke
mærkelige
mærker
mærkes
mærket
mærsk
mø
møb
møbel
møbler
mød
møde
møder
mødes
mødet
mødre
mødt
mødte
mødtes
møl
mølle
møllen
møller
møllers
møn
mønster
mønstre
mønt
mønten
mønter
mør
møre
mørk
mørke
mørkeg
mørkegrøn
mørkere
mørket
mørkt
na
nab
nabo
naboer
nabok
nabokommun
nabokommuner
nabol
naboland
nabolandet
nac
nach
nacional
nad
nade
nadver
naede
naet
nag
nak
nakke
nakskov
nal
nale
nalet
nam
name
nan
nancy
nanna
nansen
nantes
nap
napole
napoleon
napoleons
napoleonskrigene
napoli
nar
nark
narkotika
naruto
nas
nasa
nash
nashville
nassau
nat
natal
nathan
nation
national
nationalbank
nationald
nationale
nationalforsamling
nationalforsamlingen
nationalisme
nationalistiske
nationalitet
nationalliber
nationalliberale
nationalmuseet
nationalpark
nationalparken
nationalparker
nationalrom
nationals
nationalsang
nationalsocial
nationalsocialistiske
nationalt
nationen
nationens
nationer
nations
nato
natrium
natt
natten
natur
natura
natural
naturaliseret
nature
naturen
naturens
naturfred
naturgas
naturlig
naturlige
naturligt
naturligvis
naturpark
naturreserv
naturreservat
naturstyrelsen
naturvidenskab
naturvidenskabelige
nau
naut
nav
naval
navar
navarra
navig
navigation
navn
navne
navnene
navnet
navngav
navngivet
navngivning
navnlig
navy
naz
nazi
nazismen
nazist
nazisterne
nazistiske
nazity
nazityskland
nba
nbc
nc
nd
ne
nebel
nebra
nebraska
ned
nedad
nedb
nedbr
nedbrudt
nedbry
nedbrydning
nedbrændte
nedbør
nede
neden
nedenfor
nedenstaende
neder
nederlag
nederlaget
nederland
nederlande
nederlandene
nederlandsk
nederlandske
nederst
nederste
nedgang
nedgraderet
nedkast
nedkæmp
nedkæmpe
nedkæmpet
nedlagde
nedlagt
nedlagte
nedlægge
nedlæggelse
nedlæggelsen
nedre
nedrevet
nedryk
nedrykning
nedsat
nedsatte
nedsk
nedskrevet
nedsl
nedslag
nedslagskrater
nedstammer
nedsætte
neer
neergaard
neg
negativ
negative
negativt
neil
nej
nell
nelson
nem
nemlig
nemmere
nemt
neo
neok
neon
nep
nepal
nept
neptun
ner
nero
nerv
nerve
nerves
nes
nest
net
netop
nettet
netto
netværk
netværket
netværks
network
neu
neuen
neum
neur
neust
neustadt
neut
neutral
neutrale
neutralitet
neutralt
neutron
neutroner
nev
nevada
never
neville
nevø
new
newcastle
newfound
newfoundland
news
newton
newze
newzealand
newzealandske
nex
next
nexø
nfl
ng
ngu
nhl
ni
nibe
nic
nicarag
nice
nich
nicholas
nick
nicola
nicolai
nicolas
nicolaus
nicole
nid
nidaros
nie
niece
nieder
niederosterreich
niedersa
niedersachsen
niels
nielsen
nielsens
niende
nietz
nig
niger
nigeri
nigeria
night
nik
nikk
nikkel
nikola
nikolai
nikolaj
nikolaus
nil
nils
nilsson
nim
nin
nina
ninja
nintend
nintendo
nir
nis
niss
nissan
nissen
nit
nitrogen
niva
niveau
niveauer
niveauet
nixon
nm
no
noah
nob
nobel
nobelpris
nobelprisen
nobels
noel
nog
nogen
nogenlunde
nogens
nogensinde
noget
nogle
nok
nol
nom
nomin
nominer
nominerede
nomineret
nominering
nomineringer
non
nonne
nor
nord
nordafrika
nordamerika
nordamerikanske
nordatl
nordborg
norde
norden
nordens
nordeuropa
nordfris
nordfrisisk
nordfrisiske
nordic
nordir
nordirland
nordisk
nordiske
norditalien
nordjylland
nordjyllands
nordjyske
nordkore
nordkorea
nordland
nordlig
nordlige
nordligste
nordmænd
nordmændene
nordover
nordpa
nordpolen
nordre
nordrhein
nordsiden
nordsjælland
nordslesvig
nordsø
nordsøen
nordt
nordtyske
nordtyskland
nordvest
nordvestlige
nordøst
nordøstlige
norfolk
norge
norges
norm
normal
normale
normalt
norman
normand
normandiet
normann
normannerne
normanniske
normer
norr
norrøne
norrønt
norsk
norske
nort
north
northern
not
note
noter
noteret
notre
nott
nottingham
nou
nov
nova
novelle
novellen
noveller
november
novgor
novgorod
novo
now
nr
nrk
nsb
nsd
nsdap
nt
nu
nub
nukle
nul
nulevende
nulmeridianen
num
numer
nummer
nummeret
numre
numrene
nun
nur
nurn
nurnberg
nut
nutid
nutiden
nutidens
nutidige
nuuk
nuværende
nwa
nwo
ny
nyborg
nybyggede
nybyggere
nydannede
nyde
nyder
nye
nyere
nyeste
nyfødte
nyhed
nyheden
nyheder
nyhederne
nyheds
nyklass
nykøbing
nylig
nyligt
nyop
nyoprettede
nyr
nyre
nysger
nyskab
nysted
nyt
nytar
nytorv
nytt
nytte
nyttige
næ
næb
nægtede
nægter
nægtet
næppe
nær
nære
nærede
nærhed
nærheden
næring
nærings
næringsstoffer
nærliggende
nærme
nærmede
nærmer
nærmere
nærmest
nærmeste
nært
nærum
næs
næsby
næse
næsen
næst
næstbedste
næste
næsten
næstformand
næsthøjeste
næstkommanderende
næststørste
næstved
næstældste
næv
nævn
nævne
nævner
nævnes
nævnt
nævnte
nø
nød
nødder
nøds
nødsaget
nødt
nødvend
nødvendig
nødvendige
nødvendighed
nødvendigt
nødvendigvis
nøg
nøgen
nøgle
nøglen
nøgler
nøgne
nøj
nøjagtig
nøjagtige
nøjagtighed
nøjagtigt
nøje
nøjes
nør
nørgaard
nørre
nørreb
nørrebro
nørrebrogade
nørreg
nørregade
nørrej
nørreport
nørresund
nørresundby
oak
ob
obama
ober
oberbayern
oberp
oberst
oberstløjtnant
obje
objekt
objekter
objektet
objektiv
oblast
oblasten
oblig
obligatorisk
obser
observ
observation
observationer
observatoriet
observatør
observer
observere
observerede
observeret
oc
occ
oce
ocean
oceanien
och
oct
od
odd
odde
odder
oden
odense
oder
odin
odins
odsherred
odysse
odysseus
oe
oec
oehlensch
oehlenschlager
of
off
offens
offensiv
offensive
offensiven
offent
offentlig
offentlige
offentliggjorde
offentliggjort
offentlighed
offentligheden
offentligt
offer
offic
office
officer
officerer
officers
officiel
officielle
officielt
ofre
ofrene
ofte
oftere
oftest
og
ogsa
ogsaa
oh
ohio
oil
ok
okk
okkup
okl
oklah
oklahoma
oks
okse
okt
oktober
ol
olaf
olav
olavs
old
olde
olden
oldenborg
oldenburg
oldgræ
oldnordisk
oldt
oldtid
oldtiden
oldtidens
ole
olesen
olga
olie
oliem
olier
olig
oliv
oliven
oliver
olivia
olof
olrik
olsen
oluf
oly
olymp
olympia
olympic
olympique
olympisk
olympiske
om
omar
ombord
ombyggede
ombygget
ombygning
ombygningen
omd
omdann
omdanne
omdannede
omdannelse
omdannes
omdannet
omdisk
omdiskuteret
omdrej
omdrejning
omdøb
omdøbt
omdøbte
omdømme
omeg
omega
omegn
omegnen
omend
omf
omfang
omfanget
omfart
omfatte
omfattede
omfattende
omfatter
omfattet
omga
omgaende
omgang
omgange
omgiv
omgivelser
omgivelserne
omgivende
omgiver
omgivet
omhand
omhandlede
omhandler
omhyg
omhyggelig
omhyggeligt
omkom
omkost
omkostninger
omkostningerne
omkr
omkranset
omkring
omkringliggende
omkv
omlagt
omliggende
omløb
omra
omrade
omrader
omraderne
omradet
omradets
omring
omringet
omsider
omsk
omsorg
omstridt
omstridte
omstænd
omstændigheder
omstændighederne
omsætning
omsætningen
omtale
omtaler
omtales
omtalt
omtalte
omtr
omtrent
omvendt
omverdenen
on
ond
onde
ondskab
ondt
one
onkel
online
only
onsdag
ontar
ontario
op
opad
opbak
opbakning
opbevar
opbevares
opbevaret
opbevaring
opblomstring
opbygge
opbyggede
opbygget
opbygning
opbygningen
opd
opdag
opdage
opdagede
opdagelse
opdagelsen
opdagelser
opdagelses
opdagelsesrejsende
opdager
opdaget
opdater
opdateret
opdeles
opdeling
opdelingen
opdelt
opdrag
opdragelse
opdraget
opdræt
opdyr
opel
open
oper
opera
operaen
operaer
operas
operasanger
operation
operationen
operationer
operations
operativ
operative
operatør
operere
opererede
opererer
opf
opfandt
opfat
opfatt
opfatte
opfattede
opfattelse
opfattelsen
opfattelser
opfatter
opfattes
opfattet
opfindel
opfindelse
opfindelsen
opfindelser
opfinder
opford
opfordrede
opfordrer
opfordret
opfordring
opfost
opfundet
opfyl
opfylde
opfylder
opfyldt
opfyldte
opføl
opfør
opføre
opførelse
opførelsen
opfører
opføres
opførsel
opført
opførte
opførtes
opg
opgav
opgave
opgaven
opgaver
opgaverne
opgive
opgives
opgivet
opgjort
opgrader
opgraderet
opgør
opgørelse
oph
ophav
ophavsmand
ophavsret
ophold
opholde
opholder
opholdet
opholdt
ophængt
ophæv
ophæve
ophævede
ophævelse
ophævet
ophøj
ophøjet
ophør
ophørt
ophørte
opkaldt
opklar
opkræ
opkøb
opkøbt
opkøbte
opl
oplag
opland
oplev
opleve
oplevede
oplevelse
oplevelser
oplever
opleves
oplevet
oply
oplyser
oplysning
oplysninger
oplyst
oplyste
oplø
opløse
opløses
opløsning
opløsningen
opløst
opløste
opløstes
opmun
opmær
opmærksom
opmærksomhed
opmærksomheden
opna
opnaede
opnaet
opnar
opnas
opp
oppe
opposition
oppositionen
opr
opret
opretholde
opretholdt
oprette
oprettede
oprettedes
oprettelse
oprettelsen
oprettes
oprettet
oprindel
oprindelig
oprindelige
oprindeligt
oprindelse
oprindelsen
opryk
oprykning
oprør
oprørere
oprørerne
oprøret
oprørs
oprørske
ops
opsam
opsamling
opsamlings
opsamlingsalbum
opsat
opsendt
opsigt
opsl
opslag
opst
opsta
opstaet
opstand
opstandelse
opstanden
opstar
opstigende
opstille
opstillede
opstillet
opstilling
opstod
opsummer
opsving
opsyn
opsætning
opsø
opsøger
opt
optag
optage
optagelse
optagelsen
optagelser
optagelserne
optager
optages
optaget
optakt
optegnelser
optim
optisk
optiske
optog
optoges
optradt
optradte
optræ
optræde
optræden
optrædener
optræder
opus
opvar
opvarmning
opvokset
opvækst
or
orange
orch
orchestra
ord
ordbog
orden
ordene
ordenen
ordener
ordens
ordentlig
ordentligt
order
ordet
ordfører
ordin
ordinære
ordnet
ordning
ordningen
ordre
ordren
ordrer
ordrup
oreg
oregon
org
organ
organer
organis
organisation
organisationen
organisationens
organisationer
organisatorisk
organisere
organiserede
organiseret
organisering
organisk
organiske
organisme
organismer
organist
orgel
orglet
ori
orient
oriental
orientales
orientalske
orienter
orienterede
orienteret
orientering
orig
origin
original
originale
originalt
originaltitel
ork
orkan
orke
orkester
orkesteret
orkesterværker
orkestre
orkestret
orla
orland
orlando
orleans
orlog
orlogs
orlov
orm
ornam
oro
ort
ortod
ortodoks
ortodokse
os
osa
osaka
osb
osc
oscar
oscars
oskar
osl
oslo
oslof
osm
osmann
osmannerne
osmannisk
osmanniske
oss
ost
oste
osten
oster
ostind
osv
ot
other
ott
otta
otte
ottek
ottekant
ottende
ottendedels
ottendedelsfin
ottendedelsfinalerne
otter
ottes
otto
ou
our
out
output
outstanding
ov
ovale
ove
oven
ovenfor
ovennævnte
ovenpa
ovenstaende
over
overalt
overbe
overbevise
overbevisende
overbevisning
overbevist
overbeviste
overblik
overbygning
overd
overdraget
overdrev
overdrog
overens
overenskom
overenskomst
overensstemmelse
overfald
overfaldet
overfl
overflad
overflade
overfladen
overflød
overfor
overfør
overføre
overføres
overførsel
overført
overførte
overg
overga
overgaet
overgang
overgangen
overgav
overgik
overgive
overgivelse
overgivet
overgreb
overh
overherredømme
overhof
overholde
overhoved
overhovedet
overhuset
overhængende
overhøj
overhøjhed
overkommando
overl
overla
overlade
overladt
overle
overlegen
overlegenhed
overlegne
overlev
overleve
overlevede
overlevelse
overlevende
overlever
overleveret
overlevet
overlod
overlæge
overn
overnat
overnatur
overnaturlige
overord
overordentlig
overordnede
overordnet
overra
overrask
overraskede
overraskelse
overraskende
overrasket
overret
oversat
oversatte
oversiden
oversigt
oversk
overskud
overskuddet
overst
overstaet
oversv
oversvøm
oversvømmelse
oversvømmelser
oversvømmet
oversæt
oversætte
oversættelse
oversættelsen
oversættelser
oversætter
oversættes
oversø
oversøiske
overt
overtage
overtagelse
overtagelsen
overtager
overtaget
overtale
overtalt
overtalte
overtog
overtræ
overtrædelse
overv
overvage
overvagning
overvej
overvejede
overvejelser
overvejende
overvin
overvinde
overvægt
overvældende
overvær
ovre
owen
ox
oxford
oxid
oxidation
oxygen
oy
oz
p1
p3
p4
pa
paa
pabeg
pabegynd
pabegyndt
pabegyndte
pabegyndtes
pablo
pac
pacific
pack
pad
padrog
pafaldende
pafølgende
pag
pagasten
pagasts
page
pagt
pagten
pagældende
pais
paisjarv
pak
pakhus
pakist
pakistan
pakke
pakker
pal
palace
palad
palads
paladset
palagt
pale
paler
palid
pall
pallad
palle
palm
palme
palmer
paludan
palæ
palæet
palæst
palæstina
palæstinens
palæstinensiske
pam
pan
panama
pand
pande
panel
panik
panor
pans
panser
panserdivision
panserskibe
pansrede
pant
panther
panzer
pap
papeg
papegede
papir
papirer
papiret
papy
par
parad
parade
paradis
paradise
paradoks
parag
paragraf
paraguay
parall
parallel
parallelle
parallelt
parametre
parap
paraply
paras
parat
parcel
parentes
parf
paris
pariser
park
parken
parkens
parker
parkering
parlam
parlament
parlamentar
parlamentarisk
parlamentariske
parlamentet
parlamentets
parlaments
parlamentsvalg
parlamentsvalget
parma
parodi
parret
parrets
part
parter
parterne
parti
partier
partierne
partiet
partiets
partiformand
partik
partikel
partikler
partil
partileder
partis
partner
partnere
partnerskab
party
parørende
pas
pasc
paske
pass
passage
passager
passagerer
passagererne
passat
passe
passede
passende
passer
passere
passerede
passerer
passeret
passet
passion
passiv
past
pasta
pastaede
pastaet
pastand
pastande
pastar
pastod
pastor
pastorat
pat
patent
patenter
patient
patienten
patienter
patog
patri
patriark
patric
patrick
patriots
patron
patrul
patrulje
patruljer
patt
pattedyr
patton
paul
pauli
paulo
paulsen
paulus
pause
pav
pave
paven
pavens
pavirk
pavirke
pavirkede
pavirker
pavirkes
pavirket
pavirkning
pavirkninger
pavise
pavist
paviste
pay
pc
pct
pe
peace
peak
pearl
peber
ped
peder
peders
pedersen
pedro
peer
peg
pegede
peger
pek
pel
pelle
pels
pen
pend
penge
pengem
pengene
pengepræ
penges
penn
penns
pennsylvania
pens
pension
pensioneret
pensionering
pent
people
pep
per
perc
percussion
percy
pere
perf
perfekt
perfekte
perform
performance
peri
period
periode
perioden
perioder
periodiske
perle
perm
perman
permanent
permanente
pern
pernille
perp
perpignan
perron
perroner
perronerne
perry
pers
perserne
persien
persisk
persiske
person
personal
personale
personalet
personbil
personel
personen
personer
personerne
personlig
personlige
personlighed
personligheder
personligt
persons
persontog
perspekt
perspektiv
perth
peru
pes
pest
pet
pete
peter
peters
petersborg
petersburg
petersen
petersens
petra
petri
petro
petrole
petroleum
petter
peuge
peugeot
pf
pfalz
pga
ph
pharm
phil
philadel
philadelphia
philharmon
philip
philipp
philippe
philips
phill
phillip
phillips
philos
philosoph
phoe
phoen
phoenix
php
phys
pi
pia
pian
pianist
piano
pic
picc
pick
picture
pictures
pie
pier
pierre
piet
pietro
pig
pige
pigen
pigenavn
piger
pigerne
pigt
pik
pil
pile
pilgrim
pill
piller
pilot
piloten
piloter
pin
pind
ping
pink
pinse
pinyin
pioner
pip
piper
pir
pirat
pirater
pis
pisk
pist
pistol
pit
pitch
pitt
pittsburg
pittsburgh
pius
pix
piz
pj
pl
pla
plac
place
placere
placerede
placerer
placeres
placeret
placering
placeringen
placeringer
placeringerne
plad
plade
pladekontrakt
pladen
plader
pladeselskab
pladeselskabet
plads
pladsen
pladser
plaget
plak
plan
planen
planer
planerne
planet
planeten
planeter
planlagde
planlagt
planlagte
planlægge
planlægger
planlægning
planlægningen
plant
plantage
plantagen
plante
plantearter
planten
planter
planterne
plantes
plantet
plas
plast
plastic
plastik
plat
plate
plateau
platform
platforme
platformen
platin
platon
platt
play
player
playoff
playstation
ple
plej
pleje
plejede
plejehjem
plejer
ples
plessen
plet
pletter
plig
pligt
pligter
plinius
plo
plon
plot
plov
plud
pludselig
pludselige
pludseligt
plum
plur
plus
plut
plutonium
plymouth
plynd
plyndrede
plyndret
plyndring
po
pod
podcast
poes
poesi
poet
poetisk
poetiske
pog
point
points
poir
poirot
pok
pokal
pokalen
pokalt
pokalturnering
pokalturneringen
pokalvinder
poke
pokemon
poker
pol
polakker
polar
polem
polen
polens
police
polit
politi
politibet
politibetjent
politiet
politiets
politif
politifolk
politik
politiken
politikens
politiker
politikere
politikeren
politikken
politim
politisk
politiske
politist
pollen
polo
polsk
polske
poly
polyg
polymer
polytekn
polyteknisk
pom
pommern
pomp
pompej
pon
pont
pontopp
pony
pop
popul
popular
popularitet
population
populær
populære
populærk
populært
por
porcel
porcelæn
porn
porno
port
portal
porte
porteføl
porten
porter
portland
porto
portræt
portrætfilm
portrætmaleri
portrætter
portrætteret
portsmouth
portug
portugal
portugals
portugis
portugisisk
portugisiske
pos
pose
posit
position
positionen
positioner
positiv
positive
positivt
post
poste
posten
poster
posthum
posthumt
posthus
postkontor
postmod
pot
potent
potentiale
potentiel
potentielle
potentielt
potomac
potsd
potsdam
potter
poul
poulsen
pour
povl
pow
powell
power
poz
pp
pr
pra
pradesh
prag
pragt
praksis
prakt
praktik
praktiserende
praktisk
praktiske
pram
pre
preben
prem
premier
premiere
premieren
premierløjtnant
premierminister
pres
president
presley
press
presse
pressede
pressemeddel
pressen
presses
presset
prest
prestige
prestigefyldte
preston
pret
preuss
preussen
preussisk
preussiske
pri
price
priest
prim
primera
primitive
primtal
primær
primære
primærrute
primært
prin
princ
prince
princess
princeton
princip
principper
princippet
prins
prinsen
prinsens
prinsesse
prinsessen
print
prior
priori
pris
prisbel
prisen
priser
priserne
priv
privat
private
privatliv
privileg
privilegier
privilegium
prix
prize
pro
prob
problem
problemer
problemerne
problemet
problemstillinger
proced
procent
proces
process
processen
processer
prod
produc
producent
producenter
producer
producere
producerede
produceren
producerer
produceres
produceret
product
productions
produkt
produkter
produktet
produktion
produktionen
produktioner
produktions
produktiv
prof
profess
profession
professional
professionel
professionelle
professionelt
professor
professorat
profet
profeten
profil
profiler
profit
prog
program
programmer
programmering
programmerings
programmeringssprog
programmerne
programmet
programmets
progress
progressiv
progressive
proje
project
projekt
projekter
projektet
proklam
proklamerede
prom
prominente
promover
promovere
prop
propag
propagand
propaganda
propel
proport
proportion
propriet
proprietær
prosa
prostituerede
prostitution
prot
prote
protein
proteiner
protektor
protektorat
protest
protestant
protestanter
protestantisk
protestantiske
protester
protesterede
proto
protokol
proton
protot
prototype
protour
prov
provence
provin
provins
provinsen
provinsens
provinser
provinserne
provisor
provisoriske
provok
provst
provsti
pryd
præ
præc
præcis
præcise
præcision
præcist
prædik
prædikest
prædikestol
prædikestolen
præfektur
præfekturet
præfik
præg
præge
prægede
præger
præges
præget
præm
præmie
præmier
præmies
præmiesum
præpar
prær
præsen
præsent
præsentation
præsentere
præsenterede
præsenterer
præsenteres
præsenteret
præsid
præsiden
præsident
præsidenten
præsidentens
præsidenter
præsidentkandidat
præsidentvalg
præsidentvalget
præst
præstation
præstationer
præste
præstegard
præsten
præster
præsterne
præstø
prøv
prøve
prøvede
prøver
prøvet
ps
pse
pseud
pseudonym
pseudonymet
psv
psy
psych
psyk
psykiat
psykiatri
psykiatrisk
psykisk
psykiske
psyko
psykolog
psykologi
psykologisk
psykologiske
pt
ptolem
pu
pub
publ
public
publicerede
publiceret
publik
publikationer
publikum
publikums
pud
puer
puerto
pug
pul
pulje
puljer
puls
pulver
pum
pump
pumpe
pumpkins
pun
pund
punk
punkt
punkter
pur
purple
pus
put
py
pyn
pyr
pyram
pyramide
pyrene
pyrenees
pyrenæ
pyrenæerne
pyt
pyth
pæ
pædagog
pædagogik
pædagogisk
pædagogiske
pæn
pøl
qa
qatar
qing
qu
qua
quar
quarter
que
quebec
queen
queens
queensland
quest
quinn
quint
quiz
ra
rab
raben
rabte
rac
race
racen
racer
rachel
racing
racisme
rad
radar
rade
radede
rader
radet
radgivende
radgiver
radgivere
radgivning
radhus
radhuset
radhuspladsen
radi
radighed
radik
radikal
radikale
radikalt
radio
radioaktiv
radioaktive
radioaktivt
radioen
radiok
radiom
radiopr
radioprogram
radios
radiostation
radiov
radiovært
radius
radmand
rads
raf
rafael
rag
ragn
ragnar
ragnarok
rah
rahbek
rail
railroad
railway
rain
raj
rak
raket
raketter
ral
ralph
ram
ramme
rammen
rammer
rammerne
rammes
ramt
ramte
ran
rand
randen
randers
randy
rang
range
ranger
rangerede
rangerende
rangeret
rangering
rangers
rangliste
rank
rantz
rantzau
rap
rapp
rapper
rapperen
rappor
rapport
rapporten
rapporter
rapporterede
rapporteret
ras
rasende
rask
raske
rasmus
rasmussen
rasmussens
rast
rat
rating
ration
rav
ravarer
raven
ravn
raw
ray
raymond
rc
rca
rdl
re
read
reag
reagan
reagere
reagerede
reagerer
reaktion
reaktionen
reaktioner
real
reale
realiseret
realisme
realistisk
realistiske
realitet
realiteten
reality
realkredit
realskole
reb
rebel
rebild
rec
recept
record
recording
records
red
redaktion
redaktionen
redaktør
redde
reddede
redder
reddet
rede
redegørelse
reden
reder
rederi
rederiet
redig
redigerede
redigeret
redning
rednings
redskab
redskaber
reduc
reducere
reducerede
reducerer
reduceres
reduceret
reduktion
reed
reedtz
reel
reelle
reelt
ref
refer
reference
referencer
referer
referere
refererer
refle
refleks
reflekter
reform
reformation
reformationen
reformen
reformer
reformerte
reg
regel
regelm
regelmæssig
regelmæssige
regelmæssigt
regent
regenter
regere
regerede
regerende
regeret
regering
regeringen
regeringens
regeringer
regerings
regeringstid
regga
regi
regierung
regierungsbe
regierungsbezirk
regime
regiment
regimenter
regimentet
regimet
regin
region
regional
regionale
regionalt
regionen
regionens
regioner
regionerne
regionsrad
regist
register
registr
registrere
registrerede
registreret
registrering
reglen
regler
reglerne
regn
regne
regnede
regnedes
regner
regnes
regnet
regning
regnskab
regnskov
reguler
regulere
reguleres
reguleret
regulering
regulære
rehab
rehabil
reich
reichs
rein
rej
rejse
rejsel
rejsen
rejsende
rejser
rejset
rejst
rejste
rek
rekl
reklam
reklame
reklamer
rekogn
rekognoscering
rekonstru
rekonstruktion
rekord
rekorden
rekorder
rekre
rekrut
rekt
rektang
rektor
rel
relaterede
relateret
relation
relationer
relativ
relative
relativt
rele
relev
relevant
relevante
relie
relief
relieffer
relig
religi
religion
religionen
religioner
religions
religiøs
religiøse
religiøst
relik
rem
remise
remix
ren
renault
rend
rendsborg
rene
rengøring
renover
renoveret
renovering
rens
rensdyr
rense
rent
rente
rentek
rentekammeret
renter
renæss
renæssanc
renæssance
renæssancen
reorganis
rep
repar
reparation
reparere
repareret
reperto
repertoire
replik
report
reporter
reproduktion
repræ
repræsen
repræsent
repræsentant
repræsentanter
repræsentanternes
repræsentantskab
repræsentantskabet
repræsentation
repræsentere
repræsenterede
repræsenterer
repræsenteret
repub
republic
republik
republikanerne
republikansk
republikanske
republikken
republikkens
res
resear
research
reser
reserv
reserve
reserved
reserven
reserver
reserveret
reservo
residens
resolution
reson
resp
respek
respekt
respekteret
respektive
respons
ress
ressour
ressourcer
rest
restaur
restaurant
restauranten
restauranter
restaureret
restaurering
restaureringen
resten
rester
resterende
resterne
restrikt
restriktioner
resul
result
resultat
resultater
resultaterne
resultatet
resultere
resulterede
resulterer
resulteret
ret
retfærd
retfærdig
retfærdighed
retning
retningen
retninger
retningslinjer
retor
retorik
retro
rets
retsp
retss
retssag
retssagen
retssager
retsvidenskab
rett
rette
rettede
retten
retter
rettet
rettigheder
rettighederne
retur
return
returner
returnerede
reumer
rev
revent
reventlow
revet
revideret
review
revis
revision
revol
revolut
revolution
revolutionen
revolutionær
revolutionære
revolver
revy
revyen
rex
rey
reyk
reykj
reykjavik
reyn
reynolds
rh
rhe
rhein
rhin
rhinen
rho
rhod
rhodes
ri
rib
ribe
ric
rica
rice
rich
richard
richards
richmond
richter
rick
rico
rid
ridder
riddere
ride
rider
ridge
rie
rieg
rif
riff
riffel
rig
riga
rigdom
rige
riger
riges
rigeste
riget
rigets
right
rights
rigs
rigsd
rigsdag
rigsdagen
rigsdaler
rigsfor
rigsg
rigshospitalet
rigskansler
rigsrad
rigsradet
rigsvej
rigt
rigtig
rigtige
rigtigt
riis
rik
rikke
riks
riksv
rim
rimelig
rimeligt
rin
rind
ring
ringe
ringede
ringen
ringenes
ringer
ringere
ringkøbing
ringsted
ringvej
rio
rip
ris
rise
risik
risikere
risiko
risikoen
risk
rist
rit
ritmester
ritter
ritu
ritual
ritualer
ritz
riv
rival
rivaler
rivaliserende
rive
river
rk
rna
ro
road
rob
robb
robert
roberto
roberts
robertson
robin
robinson
robot
roc
rock
rockband
rocker
rockgruppe
rocks
rocky
rod
rode
roden
rodnettet
rodrig
rodriguez
rodsystemet
roer
rog
rogaland
roger
rogers
roh
rok
roklub
rol
roland
rolf
rolig
roligt
roll
rolle
rollen
roller
rollespil
rolling
rolls
rom
roma
roman
romanen
romaner
romansk
romanske
romant
romantikken
romantisk
romantiske
rome
romeo
romer
romerne
romerriget
romersk
romerske
rommel
roms
romsdal
ron
ronald
roning
ronnie
room
roos
roosev
roosevelt
ror
ros
rosa
rose
rosen
rosenberg
rosenborg
rosenkr
rosenkrantz
roser
roses
roskilde
ross
rost
roste
rostock
rot
rotation
roterende
roth
rothe
rotten
rotter
rotterdam
round
rousse
rousseau
route
rov
rovdyr
rover
rovers
row
rox
roy
royal
royale
royce
rs
rt
ru
rub
ruben
rubin
ruc
rud
rude
ruder
rudolf
rudolph
rue
rug
rugby
rugen
ruhr
ruin
ruiner
ruinerne
rul
rulle
rullet
rum
rumfang
rumfart
rumfær
rumfærge
rumfærgen
rumme
rummede
rummer
rummet
rumson
rumstation
rumæn
rumænien
rumæniens
rumænsk
rumænske
run
rund
runde
runder
rundt
rune
runesten
rung
rungsted
rup
rus
rush
rusland
ruslands
russ
russell
russere
russerne
russisk
russiske
rust
rustning
rut
rute
ruten
ruter
ruth
rw
ry
ryan
ryd
rydde
ryddet
rye
ryg
ryggen
rygs
rygte
rygter
rykke
rykkede
rykker
rykket
ryn
ryst
ryt
rytme
rytmisk
rytter
ryttere
ryu
ræ
ræd
række
rækkefølge
rækkefølgen
rækken
rækker
rækkevidde
ræv
rø
rød
rødbrun
rødby
rødder
rødderne
rødding
røde
rødovre
rødt
røg
røm
røn
rønne
rønt
røntgen
rør
røre
røver
sa
saa
saab
saar
sab
sabb
sabbath
sabel
sabot
sabotage
sac
sachs
sachsen
sad
sadan
sadanne
sadant
saf
safremt
saft
sag
saga
sagaen
sagar
sagde
sagen
sagens
sager
sagfører
sagn
sagnet
sagt
sagtens
sahara
said
saint
sak
sakaldt
sakaldte
saks
sal
salad
salam
sale
saledes
salen
salg
salget
salling
sally
salme
salmebog
salmer
salomon
salomonsen
salon
salt
salte
saltvand
salv
salvador
salz
salzburg
sam
samarbej
samarbejd
samarbejde
samarbejdede
samarbejder
samarbejdet
samarbejdspart
samfund
samfundet
samfundets
samfunds
samfundsmæssige
samfundsvidenskab
samfærd
samfærdsel
samisk
samle
samlede
samledes
samler
samles
samlet
samling
samlingen
samlinger
samme
sammen
sammenbrud
sammenf
sammenh
sammenhæng
sammenhænge
sammenhængen
sammenhængende
sammenlagt
sammenlig
sammenlign
sammenligne
sammenlignes
sammenlignet
sammenligning
sammenlægning
sammenlægningen
sammens
sammensat
sammensatte
sammenslut
sammenslutning
sammenslutningen
sammenstød
sammensvær
sammensætning
sammensætningen
samment
sammest
sammesteds
samp
sams
samspil
samsø
samsøe
samt
samtale
samtaler
samtgeme
samtgemeinde
samtid
samtiden
samtidens
samtidig
samtidige
samtidigt
samtlige
samtykke
samu
samuel
samvitt
samvittighed
san
sanchez
sand
sande
sander
sanders
sandet
sandhed
sandheden
sands
sandsten
sandsyn
sandsynlig
sandsynlighed
sandsynligheden
sandsynligt
sandsynligvis
sandt
sang
sange
sangen
sangene
sangens
sanger
sangere
sangeren
sangerinde
sangerinden
sangskriver
sangtekster
sank
sankt
sanne
sans
sansk
sanskrit
sant
santa
santi
santiago
santo
santos
sao
sap
sapp
sar
sara
sarah
sarajevo
sarbar
sarbare
sard
sardinien
sardisk
sarede
saret
sark
sart
sas
sasom
sass
sasuke
sat
satan
satell
satellit
satellitkratere
satellitkrateret
satellitkraterets
satellitter
sati
satire
satirisk
satiriske
sats
satse
satser
satte
satur
saturn
saudi
sav
savage
savann
save
savel
savn
savnede
savoy
savoyen
saw
sawyer
sax
saxo
saxofon
say
sb
sc
scan
scand
scandinav
scar
scen
scene
scenen
scener
sch
schack
schal
schar
schaum
sche
scheel
scher
schi
schimmel
schl
schle
schles
schlesien
schloss
schm
schmidt
schne
schol
schon
school
schou
schrøder
schu
schul
schultz
schum
schumacher
schw
schwaben
schwar
schwartz
schwarz
schwarzen
schwe
schweiz
schweizer
schweizisk
schweiziske
schwer
schwerin
scien
science
sciences
scient
scor
score
scorede
scoret
scoring
scoringer
scot
scott
scottish
screen
script
sct
sd
se
sea
sean
seat
seattle
seb
sebast
sebastian
sec
second
secret
section
secur
security
sed
sedan
sediment
sedler
see
seebach
seed
seedede
seedet
seer
seere
seerne
seertal
seg
segeberg
segl
seh
sehested
seine
sej
sejl
sejlads
sejle
sejlede
sejler
sejlet
sejr
sejre
sejrede
sejren
sejrs
sek
sekond
sekondløjtnant
sekret
sekretariat
sekretær
seks
seksten
seksualitet
seksuel
seksuelle
seksuelt
sektion
sektioner
sektor
sekund
sekunder
sekundær
sekundære
sekundærrute
sekvens
sel
sele
selskab
selskaber
selskabet
selskabets
selskabs
selv
selvbet
selvbi
selvbiografi
selve
selvej
selvejende
selvfor
selvføl
selvfølgelig
selvmord
selvom
selvstyr
selvstyre
selvstyrende
selvstænd
selvstændig
selvstændige
selvstændighed
selvstændigt
sem
semi
semif
semifin
semifinal
semifinale
semifinalen
semifinaler
semifinalerne
semin
seminar
seminarium
sen
senat
senatet
senator
send
sende
sender
sendes
sendt
sendte
sendtes
sene
seneg
senegal
senere
senest
seneste
seng
senge
sengotisk
seni
senior
seniork
seniorkarriere
senmiddel
senmiddelalderen
sens
sensation
sensor
sent
seoul
sep
separ
separat
separate
septem
september
ser
serb
serbien
serbisk
serbiske
serg
serge
sergej
sergent
seri
serie
seriem
serien
seriens
serier
serierne
series
serv
server
servere
serveres
servic
service
services
ses
session
set
sete
sev
seven
sever
severin
sevilla
seværd
seværdigheder
sex
sey
sf
sg
sh
sha
shack
shad
shah
shak
shakesp
shakespe
shakespear
shakespeare
shakespeares
sham
shan
shang
shanghai
shar
sharon
shaw
shawn
she
sheffield
sheik
shel
shell
shen
shep
shepher
shepherd
sher
sheridan
sherman
shetland
shi
shield
shim
shin
ship
shir
sho
shop
shopp
short
show
showet
showets
shows
shu
si
siam
sib
sibi
sibirien
sibyl
sic
sich
sicil
sicilien
sid
sidde
siddende
siddepladser
sidder
siddet
side
sideløb
sideløbende
siden
sidenhen
sider
siderne
siderødder
sidespor
sidney
sidst
sidste
sidstnævnte
sie
sieg
siegfried
siemens
sier
sierra
sig
sige
sigende
siger
siges
sigismund
sigmund
sign
signal
signaler
signalet
signatur
signe
sigrid
sigt
sigte
sigter
sigtet
sigur
sigurd
sik
sikker
sikkerhed
sikkerheden
sikkerheds
sikkert
sikre
sikrede
sikrer
sikret
sikring
sil
sild
silde
silic
silke
silkeborg
silla
silva
silver
sim
simon
simone
simonsen
simp
simpel
simpelt
simpelthen
simpl
simple
simpson
simpsons
sin
sinai
sind
sinde
sindss
sindssyge
sine
sing
singap
singapore
singer
single
singlen
singler
singlerne
singles
sir
sirius
sis
sit
sitcom
situ
situation
situationen
situationer
siv
sivas
six
sj
sjet
sjette
sjov
sjæl
sjæld
sjælden
sjældent
sjældne
sjældnere
sjæle
sjælen
sjælland
sjællands
sjællandske
sk
ska
skab
skabe
skabelse
skabelsen
skaber
skabes
skabt
skabte
skad
skade
skadede
skadelige
skader
skadet
skaff
skaffe
skaffede
skaffet
skaft
skagen
skagens
skak
skaks
skal
skala
skalaen
skald
skam
skan
skand
skandale
skander
skanderborg
skandinav
skandinavien
skandinavisk
skandinaviske
skane
skanse
skanske
skar
skaret
skarp
skarpe
skarpt
skat
skatt
skatte
skattem
skatten
skatter
skattes
ske
skeel
skel
skelet
skelne
skelner
skelnes
skept
sker
sket
skete
ski
skib
skibe
skibene
skibet
skibets
skibs
skibsfart
skibsvær
skibsværft
skien
skifer
skift
skifte
skiftede
skiftende
skifter
skiftes
skiftet
skiftevis
skik
skikk
skikke
skikkelse
skikkelser
skil
skild
skildrede
skildrer
skildres
skildret
skildring
skildringer
skille
skiller
skilles
skilsm
skilsmisse
skilt
skilte
skiløb
skin
skind
skinne
skinner
skipper
skis
skit
skitse
skitser
skive
skiz
skj
skjern
skjold
skjul
skjule
skjult
skjulte
sko
skol
skole
skolegang
skolelærer
skolem
skolen
skolens
skoler
skolerne
skolev
skolevæsen
skom
skomager
skor
skot
skotland
skotlands
skotsk
skotske
skov
skovbrug
skove
skoven
skovene
skovgaard
skovomrader
skr
skra
skram
skran
skraninger
skred
skrev
skrevet
skrevne
skrib
skribent
skridt
skrift
skrifter
skriftet
skriftlig
skriftlige
skriftsprog
skrig
skriv
skrive
skriver
skrives
skrog
skroget
skrot
skru
skrue
skræ
skrædder
skræk
skræm
skræn
skrænter
skrøb
skt
sku
skub
skud
skudar
skudt
skue
skuesp
skuespil
skuespiller
skuespillere
skuespilleren
skuespillerinde
skuespillerinden
skuespillerne
skuespillerskolen
skuespillet
skuff
skuffelse
skuffende
skul
skuld
skulde
skulder
skulle
skulpt
skulptur
skulpturen
skulpturer
skum
skur
sky
skyde
skyder
skydes
skydning
skyer
skyg
skygge
skyggen
skyl
skyld
skylden
skyldes
skyldig
skyldige
skyldsat
skyldtes
skyt
skytte
skæb
skæbne
skæg
skæl
skælskør
skænder
skænkede
skænket
skær
skære
skærer
skærm
skærmen
skærp
skæv
skød
skøjt
skøjte
skøn
skønhed
skønlitter
skønne
skønnes
skønt
skør
sl
sla
slaet
slag
slagelse
slaget
slagmarken
slags
slagskibe
slagt
slagter
slam
slang
slange
slanger
slangerup
slanke
slap
slar
slas
slav
slave
slaver
slaveri
slaveriet
slaverne
slaviske
sle
slem
slesvig
slesvigske
slet
slette
sletten
slid
slien
slik
slim
slip
slippe
slipper
slog
slot
slots
slotte
slottet
slottets
slov
slovak
slovakiet
slovakiske
sloven
slovenien
slovensk
slu
slum
sluse
slut
slutning
slutningen
slutrunde
slutrunden
slutspil
slutspillet
slutt
slutte
sluttede
slutter
sluttet
slyn
slæ
slægt
slægten
slægtens
slægter
slægtning
slægtninge
slægtskab
sløj
sløjd
sløjdlærer
sm
sma
smab
smad
smag
smal
smaland
small
smalle
smallere
smalt
smart
smash
smashing
smat
smed
smede
smel
smelt
smelte
smeltet
smeltevand
smer
smerte
smerter
smet
smid
smidt
smil
smit
smith
smiths
smitte
smittet
sms
smst
smug
smuk
smukke
smukkeste
smukt
smule
smykker
smør
sn
sna
snakker
snap
snarere
snart
sne
sned
snedker
snegle
sner
snes
snig
snit
sno
snor
snorre
snow
snæv
snæver
so
sob
soc
soccer
soci
social
socialdem
socialdemokrat
socialdemokrater
socialdemokraterne
socialdemokratiet
socialdemokratisk
socialdemokratiske
sociale
socialisme
socialist
socialistisk
socialistiske
socialt
societ
society
sociologi
sod
soder
sof
sofia
sofie
soft
software
sog
sogn
sogne
sognekirke
sognekommune
sognekommuner
sognepræst
sogner
sognet
sognets
soj
sojuz
sok
sokkel
sokrat
sokrates
sol
solbjerg
sold
soldat
soldater
soldaterne
solen
solens
solgt
solgte
solgtes
solid
solidar
solist
sollys
solo
soloalbum
solok
solokarriere
solop
solsystemet
som
somal
somalia
some
somme
sommer
sommeren
sommerfugl
sommerfugle
sommerhus
sommetider
somre
son
sond
song
songs
songw
songwriter
sonja
sony
sop
soph
sophia
sophie
sophus
sopran
sor
sorg
sorgen
sort
sorte
sortehavet
sorter
sorø
sos
sot
sou
soul
sound
soundtra
soundtrack
soundtracket
sour
source
south
southampton
southern
sov
sove
sover
sovjet
sovjetisk
sovjetiske
sovjetrepublik
sovjetun
sovjetunionen
sovjetunionens
sp
spa
space
spad
spalt
span
spang
spanien
spaniens
spanierne
spansk
spanske
spar
spare
sparek
sparekasse
sparekassen
spark
spart
sparta
spd
spe
spec
speci
special
speciale
specialiserede
specialiseret
speciel
specielle
specielt
specifik
specifikke
specifikt
sped
speed
speer
spej
spejder
spejl
spek
spekt
spektak
spektrum
spekul
spekulationer
spen
spencer
sper
spid
spider
spids
spidse
spidsen
spiel
spil
spilde
spildevand
spill
spille
spillede
spillefilm
spillem
spillene
spiller
spillere
spilleren
spillerne
spilles
spillested
spillet
spilletid
spillets
spin
spion
spir
spiral
spirit
spiritus
spis
spise
spiser
spises
spist
spiste
spit
spl
split
splittelse
splittet
spo
spons
sponsor
spont
spor
spore
sporene
spores
sporet
sport
sporten
sporting
sports
sportsgren
sportsgrene
sportslige
sporvej
sporveje
sporvejsmuseet
sporvogn
sporvogne
spot
spr
sprang
spred
sprede
spredes
spredning
spredt
spredte
spring
springe
springer
springfield
sprint
sprit
sprog
sprogbrug
sproget
sproglig
sproglige
sprogs
spræn
spræng
sprængt
spur
spurgt
spurgte
spurve
spy
spyd
spyro
spæd
spæk
spænd
spændende
spænder
spænding
spændingen
spændinger
spændings
spændt
spær
spø
spøg
spør
spørg
spørge
spørger
spørgsmal
spørgsmalet
spørgsmalstegn
squ
squar
square
sr
sri
ss
ssr
st
sta
stab
stabil
stabile
stabilitet
stabilt
stabschef
stad
stade
stadfæst
stadie
stadier
stadig
stadige
stadighed
stadigt
stadigvæk
stadion
stadionet
stadium
stads
stadt
staende
staet
stafet
staff
stage
stak
stal
stald
stalin
stalingrad
stalins
stall
stam
stamfader
stamhuset
stamme
stammede
stammen
stammens
stammer
stampe
stan
stand
standard
standarden
standarder
standardudstyr
stande
standpunkt
standse
standsede
standset
stang
stanis
stanley
star
stark
stars
start
starte
startede
starten
startende
starter
startet
stas
stasjon
stat
state
staten
statens
stater
staterne
staters
states
statholder
station
stationcar
stationen
stationens
stationer
stationeret
stationerne
stations
stationsby
stationsbyen
stationsbygning
stationsbygningen
statist
statistik
statistisk
statistiske
stats
statsb
statsborger
statsborgere
statsborgerskab
statsd
statsejede
statsk
statskundskab
statskup
statslig
statslige
statsmand
statsminister
statsministeren
statsover
statsoverhoved
statsrad
statsradet
statsskole
statu
statue
statuen
statuer
status
stau
staun
stav
stavanger
stavem
stavet
stavn
ste
sted
stede
steder
stedet
stedets
stedfor
stedfortræ
stedfortræder
stedlige
stednavn
stednavne
stednavnet
stedse
steel
steen
stef
stefan
steff
steffen
steg
stege
steget
stein
steinburg
steiner
stejl
stejle
stem
stemme
stemmeberettigede
stemmen
stemmer
stemmeret
stemmerne
stemmes
stemning
stemningen
stemt
stemte
sten
stenalder
stenalderen
stenen
stenene
stens
step
steph
stephan
stephen
steppe
ster
stere
sterling
stern
stett
stettin
stev
steve
steven
stevens
stevns
stewart
sti
stien
stier
stift
stiftamt
stiftamtmand
stifte
stiftede
stiftedes
stiftelse
stiftelsen
stiftende
stifter
stiftet
stiftstidende
stig
stige
stigende
stiger
stigning
stik
stikk
stikke
stikker
stil
stilarter
stilen
stilhed
still
stille
stillede
stillehav
stillehavet
stiller
stilles
stillet
stilling
stillingen
stillinger
stim
stine
sting
stipend
stipendium
stir
stiv
stive
stj
stjal
stjalet
stjer
stjerne
stjernen
stjerner
stjernerne
stjæle
stk
sto
stock
stockholm
stockholms
stod
stof
stoff
stoffer
stoffet
stok
stol
stole
stolt
stone
stones
stop
stopp
stoppe
stoppede
stopper
stoppested
stoppet
stor
stora
storbrit
storbritann
storbritannien
storbritanniens
storby
storbyer
store
storebror
storebælt
stores
storesøster
storfyr
storfyrst
storfyrstendømmet
storhed
storhedstid
storhertug
storhertugdømmet
storklub
storkors
storkreds
storkøb
storm
stormagt
stormagter
storme
stormen
stormester
stormænd
storsl
storstil
storstrøms
stort
storting
stortinget
story
str
stra
straf
straff
straffe
straffelov
straffen
straffes
straffesp
straffespark
straffet
straks
strakte
stral
strale
straler
straling
strals
stram
strand
strande
strandede
stranden
strandvejen
strasbourg
strat
strateg
strategi
strategisk
strategiske
strauss
stre
stream
streaming
street
streg
strej
stren
streng
strenge
strengt
stress
stri
strib
stribe
striber
strid
striden
stridigheder
strik
stro
strofe
strom
stru
struensee
struer
struktur
strukturelle
strukturen
strukturer
strukturreformen
stry
stryge
stræ
strædet
stræk
strækker
strækning
strækningen
strækninger
strø
strøg
strøget
strøm
strømme
strømmede
strømmen
strømmer
strømning
strømninger
sts
stu
stuart
stub
stubbe
stud
student
studenter
studentereksamen
studer
studere
studerede
studerende
studerer
studeret
studie
studiealbum
studier
studiere
studierejse
studierne
studies
studiet
studievært
studio
studios
studium
stue
stueetagen
stukket
stum
stumfilm
stund
stur
sturm
stutt
stuttgart
sty
styk
stykke
stykker
stykket
style
styr
styre
styrede
styrelse
styrelsen
styrende
styrer
styres
styresystem
styret
styring
styrke
styrkede
styrken
styrker
styrkerne
styrket
styrmand
styrt
styrtede
styrtet
stænder
stænderforsamling
stæng
stængel
stængler
stænglerne
stær
stærk
stærke
stærkere
stærkeste
stærkt
stævn
stævne
støb
støbt
stød
støde
støder
stødt
stødte
støj
stør
størr
større
størrelse
størrelsen
størrelser
størrelses
størst
største
størsted
størstedelen
støt
støtte
støttede
støtten
støtter
støttes
støttet
støv
su
sub
subjekt
substans
substant
subtrop
suc
succes
succesen
succesfuld
succesfulde
succesfuldt
succesrige
success
sud
sudan
sue
suez
suff
sug
suite
suk
sukk
sukker
sul
sulliv
sullivan
sult
sultan
sum
sumer
summen
summer
sump
sun
sund
sundby
sunde
sunderland
sundet
sundhed
sundheds
sunget
sunn
sup
super
superh
superlig
superliga
superligaen
supermarked
supern
supp
suppleant
supplement
suppler
suppleret
support
sur
sure
surreal
sus
susan
susanne
suspen
suspenderet
sussex
sut
suver
suveræn
suverænitet
suz
suzuki
suður
suðuroy
sv
svag
svage
svagere
svaghed
svagt
sval
svalbard
svale
svamp
svampe
svan
svane
svanem
svar
svare
svarede
svarende
svarer
svaret
svart
sve
sved
svej
sven
svend
svendborg
svendsen
svens
svensk
svenska
svenske
svenskere
svenskerne
svenstrup
sver
sverige
sveriges
svig
sviger
svigersøn
svigt
svin
svine
sving
svinger
svoger
svovl
svul
svæ
svækkede
svækket
svær
sværd
sværdet
svære
sværere
svært
sværvægt
svæv
svæve
svævefly
svøm
svømme
svømmehal
svømmer
svømning
sw
swan
swe
sweet
swift
swing
sy
syd
sydafrik
sydafrika
sydafrikanske
sydamerika
sydamerikanske
syddanmark
syddansk
syde
syden
sydeuropa
sydfrankrig
sydfyn
syditalien
sydkore
sydkorea
sydkoreanske
sydlig
sydlige
sydligste
sydney
sydover
sydpa
sydsiden
sydsjælland
sydslesvig
sydstat
sydstaterne
sydstaternes
sydt
sydvest
sydvestlige
sydøst
sydøstasien
sydøstlige
syg
sygdom
sygdomme
sygdommen
syge
sygehus
sygehuset
sygeple
sygepleje
sygeplejer
sygeplejerske
syl
sylv
sylvester
sym
symbol
symboler
symbolet
symboliserer
symbolsk
symbolske
symfon
symfoni
symfonier
symfonior
symfoniorkester
symmet
symp
sympat
sympati
symph
symphony
sympt
symptomer
symptomerne
syn
synag
synd
synder
syndrom
synes
synet
synge
synger
synges
synkron
synlig
synlige
synligt
synonym
synonymt
synspunkt
synspunkter
synsvinkel
syntes
syntese
syntet
synth
synthes
syr
syre
syrien
syriske
syssel
syssels
system
systematisk
systematiske
systemer
systemet
systems
syt
syv
syvar
syvende
sz
sæ
sæbe
sæby
sæd
sæde
sæder
sædvan
sædvanlige
sædvanligvis
sæl
sæler
sælge
sælgende
sælger
sælges
sænk
sænke
sænkede
sænket
sær
særdeles
særdeleshed
sære
særlig
særlige
særligt
særskilt
sæson
sæsonen
sæsonens
sæsoner
sæt
sætning
sætningen
sætninger
sætte
sætter
sættes
sø
søb
søborg
søby
sød
søde
søen
søens
søer
søerne
søfart
søfolk
søg
søge
søgen
søger
søges
søgt
søgte
søj
søjle
søjler
søl
søllerød
sølv
sølvmedalje
sølvmedaljer
sølvmedaljerne
søm
sømand
sømil
sømænd
søn
sønd
søndag
sønder
sønderborg
søndergaard
sønderj
sønderjylland
sønderjyllands
sønderjysk
sønderjyske
søndre
sønnen
sønner
sønnerne
sønnesøn
søofficer
sør
søren
sørensen
sørg
sørge
sørgede
sørger
sørøver
søs
søsat
søskende
søslag
søster
søsteren
søsters
søstre
søstrene
søv
søvn
søvær
søværnet
søværnets
ta
taarbæk
taastrup
tab
tabe
tabel
tabellen
taber
tabet
tabt
tabte
tac
tacitus
tad
tag
tage
tager
tages
taget
tah
tai
taiwan
tak
take
takke
takkede
takket
taknem
taks
takt
taktik
taktisk
taktiske
tal
tale
talen
talende
talent
talenter
talentfulde
taler
tales
talib
taliban
talksh
tallene
tallet
tallets
tallige
tallin
tallinn
talrige
talsmand
talt
talte
tam
tamil
tamp
tan
tand
tandlæge
tang
tange
tank
tanke
tankegang
tanken
tanker
tankerne
tann
tante
tanz
tanzania
tap
tapper
tar
tarm
tarn
tarnby
tarne
tarnet
tarnets
tart
tartu
tas
task
tasman
tast
tastatur
tat
tatover
tau
tauson
tav
tavs
tax
taxa
tayl
taylor
tb
tc
tch
tchad
td
tdi
tdr
te
team
teamet
teat
teater
teateret
teaters
teaterskole
teatre
teatret
teatrets
tech
techn
technology
ted
teen
teenage
teenager
teg
tegl
teglsten
teglværk
tegn
tegne
tegnede
tegnefilm
tegner
tegnes
tegneser
tegneserie
tegneserien
tegneserier
tegnestue
tegnet
tegning
tegninger
tegningerne
tek
tekn
teknik
teknikken
teknikker
teknisk
tekniske
teknologi
teknologien
teknologier
teknologisk
teknologiske
tekst
teksten
tekster
teksterne
tekstforfatter
tekstil
tekstiler
tel
tele
telef
telefon
teleg
telegraf
telegram
telemark
teleskop
television
tell
telt
tem
tema
temaer
temaet
temmelig
temp
tempel
temper
temperament
temperatur
temperaturen
temperaturer
tempererede
temple
templer
templet
tempo
ten
tendens
tendenser
tenn
tennes
tennessee
tennis
tennisspiller
tennist
tennisturnering
tenor
teolog
teologi
teologisk
teologiske
teor
teoret
teoretisk
teoretiske
teori
teorien
teorier
ter
terapi
term
termen
termin
terminal
terning
terra
territ
territor
territori
territorial
territoriale
territorier
territoriet
territorium
terror
terrorangreb
terrorangrebet
terrorisme
terrorister
terry
terræn
terrænet
tes
tesla
test
testamente
testamenter
teste
testet
tests
tet
tetra
tex
texas
th
tha
thai
thail
thailand
thailandske
thal
than
that
the
theater
theatre
them
themsen
theod
theodor
theodore
theodos
theol
ther
there
theres
thess
they
thi
thing
things
this
thisted
thom
thomas
thompson
thomsen
thor
thork
thorkild
thorn
thorning
thorup
thorvald
thorvaldsen
thorvaldsens
thott
thra
thrak
thrash
three
thriller
thule
thumb
thunder
thur
thura
thuringen
thy
thøger
ti
tib
tiber
tibet
tibetanske
tid
tide
tiden
tidende
tidens
tider
tiderne
tiders
tidevand
tidl
tidlig
tidlige
tidligere
tidligst
tidligste
tidligt
tids
tidsalder
tidsplan
tidspunkt
tidspunkter
tidspunktet
tidsrum
tidsrummet
tidsskrift
tidsskrifter
tidsskriftet
tie
tien
tiende
tiet
tig
tiger
tik
til
tilb
tilbag
tilbage
tilbagegang
tilbagel
tilbaget
tilbagetog
tilbagetrækning
tilbagevend
tilbagevenden
tilbagevendende
tilbageværende
tilbed
tilbehør
tilbered
tilbliv
tilbragt
tilbragte
tilbud
tilbuddet
tilbudt
tilby
tilbyde
tilbyder
tilbydes
tilbygning
tilbød
tilbøj
tildeles
tildelt
tildelte
tilegnet
tilf
tilfaldt
tilfanget
tilfl
tilflugt
tilfreds
tilfredsstillende
tilfæld
tilfælde
tilfældet
tilfældig
tilfældige
tilfældigt
tilføj
tilføje
tilføjede
tilføjelse
tilføjelser
tilføjes
tilføjet
tilført
tilg
tilgang
tilgode
tilgæng
tilgængelig
tilgængelige
tilgængeligt
tilh
tilhold
tilhæng
tilhænger
tilhængere
tilhør
tilhøre
tilhørende
tilhører
tilhørsforhold
tilhørt
tilhørte
tilintet
tilkende
tilkn
tilknytning
tilknyttede
tilknyttet
till
tillad
tillade
tilladelse
tillader
tilladt
tilladte
tillagt
tillid
tillidshverv
tillige
tillod
tillæg
tilløb
tilmed
tilmel
tilnavn
tilnavnet
tilnær
tilp
tilpas
tilpasning
tilpass
tilpasse
tilpasset
tilrettel
tils
tilsammen
tilsat
tilsk
tilskrevet
tilskrives
tilskud
tilskuer
tilskuere
tilslut
tilslutning
tilslutte
tilsluttede
tilsluttet
tilst
tilstand
tilstande
tilstanden
tilstede
tilstedeværelse
tilstedeværelsen
tilstrækk
tilstrækkelig
tilstrækkeligt
tilstødende
tilsvarende
tilsyn
tilsyneladende
tilsættes
tilt
tiltag
tiltagende
tiltale
tiltalt
tiltra
tiltradte
tiltrak
tiltrukket
tiltræ
tiltrække
tiltrækker
tiltænkt
tilveje
tilvækst
tilværelse
tilværelsen
tim
time
timen
timer
timers
times
tin
tina
tine
ting
tingene
tint
tintin
tip
tir
tirsdag
tis
tit
titan
titel
titelkamp
titelrollen
titlen
titler
titlerne
titulær
titus
tiv
tivoli
tj
tje
tjekk
tjekkiet
tjekkisk
tjekkiske
tjekkoslov
tjekkoslovak
tjekkoslovakiet
tjen
tjene
tjener
tjenest
tjeneste
tjenestem
tjenesten
tjenester
tjent
tjente
tjet
tjetjen
tjære
tko
tna
to
toarig
tob
tobak
tobaks
tobias
tod
toer
toft
tog
togene
toget
togs
togsæt
togt
toil
toilet
tok
toky
tokyo
tol
told
toler
tolerance
tolk
tolkes
tolket
tolkning
tolv
tom
tomas
tomme
tommel
tommer
tommy
ton
tone
tonen
toner
tonight
tons
tony
top
topdomæne
topp
toppe
toppede
toppen
topscorer
tor
torben
torden
tore
torg
torino
torn
torne
toronto
torp
torped
torpedo
torpedob
torpedoer
torsdag
torshavn
tort
tortur
torv
torvet
tos
tosc
toscana
tot
total
totale
totalt
totten
tottenham
touch
toul
toulouse
tour
touren
tours
tov
tove
tow
tower
town
toy
toyota
tr
tra
trace
track
trad
trade
tradition
traditionel
traditionelle
traditionelt
traditionen
traditioner
tradt
tradte
traf
trafik
trafikken
trag
traged
tragedie
trail
train
trak
trakt
traktat
traktaten
traktater
tramp
tran
trance
trane
trang
trans
transa
transc
transfer
transform
transistor
transit
transk
transl
transm
transmission
transp
transpor
transport
transporten
transportere
transporteres
transporteret
transs
transv
trap
trappe
traum
trav
travl
travle
tre
trearig
trearskrigen
tred
tredive
tredivearskrigen
tredj
tredje
tredjedel
tredjedele
tredjeplads
tredjepladsen
tredjest
tredjestørste
tree
trekant
trelle
trem
trend
trent
tret
tretten
trev
tri
triang
trib
trier
trig
trilog
trilogi
trilogien
trim
trin
trinbræt
trine
trinity
trio
trioen
trip
triple
tristan
trit
trium
triumf
triv
trives
tro
trods
troede
troels
troen
troende
trofast
trofaste
trofæ
trofæet
troj
trol
trold
trolde
troldmand
troll
trolle
trom
trommer
trommes
trommeslager
trommeslageren
trompet
troms
tromsø
tron
tronbest
tronbestigelse
trond
trondheim
trondhjem
trone
tronen
tronføl
tronfølger
trop
tropisk
tropiske
tropper
tropperne
tror
troskab
trossamfund
trot
trov
troværd
troy
tru
true
truede
truende
truer
truet
truffet
trukket
trum
truman
trump
trup
truppen
truslen
trusler
trussel
trust
tryg
tryk
trykk
trykke
trykket
trykt
trykte
tryl
trylle
træ
træde
træder
træer
træerne
træet
træf
træffe
træffer
træffes
træk
trække
trækker
trækkes
træn
træne
trænede
træner
trænere
trænet
trænge
trænger
trængt
trængte
træning
trænings
træsnit
træt
træv
trøje
trønd
trøndelag
trøst
ts
tscher
tsun
tu
tub
tuber
tuberkul
tuberkulose
tuborg
tud
tue
tul
tum
tun
tund
tunes
tunesien
tung
tunge
tungere
tungt
tunn
tunnel
tunnelen
tup
tur
turb
turbo
turbol
turbul
turde
ture
turen
turisme
turismen
turist
turistattra
turistattraktion
turister
turk
turn
turne
turneen
turneer
turner
turnerede
turneret
turnering
turneringen
turneringens
turneringer
turnerings
tus
tusind
tusinde
tusinder
tusindvis
tut
tux
tuxen
tv
tv2
tv3
tvang
tvangs
tve
tvede
tver
tvill
tvilling
tvillinge
tvillinger
tvinge
tvinger
tviv
tvivl
tvunget
tvær
tværs
tværsnit
tvært
tværtimod
tw
twe
twin
twitter
two
ty
tycho
tyde
tydel
tydelig
tydelige
tydeligt
tydeligvis
tyder
tyk
tykke
tykkelse
tykt
tyler
tyn
tynd
tynde
tyndt
tyng
tyngde
typ
type
typen
typer
typisk
typiske
tyr
tyrk
tyrkerne
tyrkiet
tyrkiets
tyrkisk
tyrkiske
tyrol
tysk
tyske
tyskere
tyskeren
tyskerne
tyskernes
tyskland
tysklands
tyve
tyveri
tæ
tæller
tæn
tænd
tænder
tænk
tænke
tænker
tænkes
tænket
tænkning
tænkt
tænkte
tæppe
tær
tæt
tætte
tættere
tættest
tø
tøj
tøm
tømmer
tømrer
tøn
tønde
tønder
tønsberg
tør
tørke
tørre
tørring
tørt
tørv
u19
u2
uaf
uafbrudt
uafgjort
uafhæng
uafhængig
uafhængige
uafhængighed
uafhængighedskrig
uafhængigt
uagtet
ualmindel
ualmindelig
uanset
ub
ubad
ubade
ubaden
ube
ubebo
ubeboet
ubeg
ubehag
ubem
ubemandet
uber
ubesej
ubest
ubestemt
ubet
ubetinget
ubety
uci
ud
udad
udarbej
udarbejde
udarbejdede
udarbejdelse
udarbejdelsen
udarbejdet
udbet
udbetalt
udbr
udbred
udbrede
udbredelse
udbredelsen
udbredelses
udbredt
udbredte
udbrud
udbruddet
udbrød
udbud
udby
udbyder
udbydes
udbygget
udbygning
udbygningen
udbyt
udbytte
udd
uddann
uddanne
uddannede
uddannelse
uddannelsen
uddannelser
uddannelses
uddannelsesinstitutioner
uddannet
uddeler
uddeles
uddeling
uddelingen
uddelt
uddrag
uddyb
uddød
uddøde
ude
udeban
udebane
udefra
udel
udelu
udelukkende
udelukket
uden
udendørs
udenfor
udenlands
udenlandsk
udenlandske
udenlandsrejse
udenom
udenrig
udenrigs
udenrigsminister
udenrigsministeriet
udenrigspolitik
udenrigspolitiske
udf
udfald
udfaldet
udfas
udfl
udflugt
udfol
udfold
udfoldede
udfor
udford
udfordre
udfordrede
udfordrer
udfordret
udfordring
udfordringer
udform
udformede
udformet
udformning
udformningen
udforske
udforskning
udfærdig
udfør
udføre
udførelse
udførelsen
udfører
udføres
udført
udførte
udg
udgang
udgangen
udgangspunkt
udgangspunktet
udgar
udgav
udgave
udgaven
udgaver
udgifter
udgifterne
udgik
udgiv
udgive
udgivelse
udgivelsen
udgivelser
udgivelses
udgiver
udgives
udgivet
udgivne
udgjorde
udgrav
udgravet
udgravning
udgravninger
udgør
udgøre
udgøres
udk
udkant
udkanten
udkast
udkig
udkom
udkomme
udkommer
udkommet
udkæmp
udkæmpet
udl
udlagt
udlan
udland
udlandet
udlands
udlant
udlej
udlejet
udlev
udleveret
udlig
udlænd
udlændinge
udlært
udlø
udløb
udløber
udløbere
udløbet
udløse
udløser
udløst
udløste
udm
udmel
udmund
udmunder
udmunding
udmundingen
udmærk
udmærkede
udmærkelse
udmærkelser
udmærker
udmærket
udn
udnyt
udnytte
udnyttede
udnyttelse
udnytter
udnyttes
udnyttet
udnævn
udnævne
udnævnelse
udnævnelsen
udnævnt
udnævnte
udnævntes
udover
udp
udpeg
udpege
udpegede
udpeges
udpeget
udpræget
udr
udrab
udrabt
udrabte
udrens
udrust
udrustet
udryd
udryddet
uds
udsagn
udsat
udsatte
udseende
udsen
udsende
udsendelse
udsendelsen
udsendelser
udsender
udsendes
udsending
udsendt
udsendte
udset
udsigt
udsigten
udsk
udskift
udskiftet
udskiftning
udskilt
udskrevet
udskudt
udsl
udslag
udslet
udsm
udsmyk
udsmykket
udsmykning
udsol
udsolgt
udsp
udspiller
udspring
udspringer
udst
udstation
udstationeret
udsted
udstedt
udstedte
udstillede
udstillet
udstilling
udstillingen
udstillinger
udstillings
udstrakt
udstrakte
udstrækning
udstyr
udstyret
udstyrsvar
udsættes
udt
udtaget
udtal
udtale
udtalelse
udtalelser
udtaler
udtales
udtalt
udtalte
udtr
udtradte
udtryk
udtrykk
udtrykke
udtrykker
udtrykkes
udtrykket
udtryks
udtrykt
udtrykte
udtør
udv
udval
udvalg
udvalget
udvalgt
udvalgte
udvand
udvandrede
udvandring
udveks
udveksling
udvend
udvid
udvide
udvidede
udvidedes
udvidelse
udvidelsen
udvidelser
udvider
udvides
udvidet
udvik
udvikle
udviklede
udvikledes
udvikler
udvikles
udviklet
udvikling
udviklingen
udviklings
udvindes
udvinding
udviser
udvist
udviste
udvundet
udvæl
udø
udøv
udøve
udøvede
udøvende
udøver
udøvere
uefa
uen
uendelig
uendelige
uendeligt
uenige
uenighed
uenigheder
uf
ufc
uffe
ufor
uform
ufuld
ug
uganda
uge
ugen
ugentlige
uger
ugers
ugift
ugifte
uh
uheld
uheldig
uheldige
uhyre
uj
ujævn
uk
ukendt
ukendte
ukl
uklar
uklart
ukra
ukraine
ukraines
ukrainsk
ukrainske
ukrudt
ul
uld
ulem
ulemper
ulf
ulfeldt
ulige
ulighed
ull
ulla
ullrich
ulm
ulov
ulovlig
ulovlige
ulovligt
ulrich
ulrik
ult
ultim
ultimate
ultra
ulv
ulve
uly
ulykk
ulykke
ulykken
ulykker
ulysses
um
ume
umea
umiddel
umiddelbar
umiddelbare
umiddelbart
umu
umulig
umuligt
un
und
under
underart
underarter
undergang
underground
undergrund
undergrunden
underhold
underholdning
underholdnings
underhuset
underjord
underjordisk
underjordiske
underkast
underlag
underlagt
underliggende
underord
underordnede
underordnet
undersat
undersiden
undersk
underskrev
underskrevet
underskrift
underskrive
underskud
understre
understreg
understrege
understregede
understreger
understøt
understøtte
understøttelse
understøtter
understøttet
undersø
undersøge
undersøgelse
undersøgelsen
undersøgelser
undersøger
undersøges
undersøgt
undersøgte
undert
undertaker
undertiden
undertr
undertrykk
undertrykkelse
undervand
undervandsb
undervandsbade
undervejs
undervis
undervise
underviser
undervisning
undervisningen
undervisnings
undervist
underviste
undga
undgar
undgas
undgik
undlod
undsk
undskyld
undsl
undslap
undslippe
undsætning
undtag
undtagelse
undtagelser
undtagen
undtaget
unes
unesco
unescos
ung
ungar
ungarn
ungarns
ungarsk
ungarske
ungdom
ungdoms
ungdomshold
ungdomslandshold
ungdomsorganisation
ungdomsspiller
unge
unger
ungerne
ungt
unic
uniform
uniformer
unik
unikke
unikt
union
unionen
unionens
unions
unionshæren
unit
united
univers
universal
universelle
universet
universitat
universitet
universiteter
universiteterne
universitetet
universitetets
universitets
universitetshospital
university
unix
unter
unød
uoffic
uofficielle
uofficielt
uop
uover
uoverensstem
uoverensstemmelser
up
uplo
upon
upop
upp
uppsala
ur
ura
ural
uran
urban
urbane
ure
uregel
uregelmæssige
uret
uri
urin
urne
uro
urol
uroligheder
urop
urs
urt
urte
urteagtig
urter
uru
urugu
uruguay
us
usa
usand
usandsyn
usas
usbek
usd
use
usikker
usikkerhed
usikkert
usk
uskyld
uss
ustab
usyn
usædvan
usædvanlig
usædvanlige
usædvanligt
ut
utah
utal
utallige
utc
util
utilfred
utilfreds
utilfredse
utilfredshed
utilstrækk
utrecht
utro
utrol
utrolig
utroligt
utræ
utrætt
utvivl
utvivlsomt
utzon
uud
uund
uundga
uv
uventet
uvist
uægte
uænd
uændret
uøn
v6
va
vab
vaben
vabenhus
vabenhuset
vabenhv
vabenhvile
vabenskjold
vabnet
vac
vacc
vad
vade
vadehavet
vag
vagn
vagner
vagt
vagter
vaj
vak
vakt
vakte
vaku
val
valby
vald
valdem
valdemar
valdemars
vale
valen
valencia
valent
valentin
valeri
valg
valgdel
valgdeltagelsen
valgene
valget
valgkamp
valgkampen
valgkreds
valgret
valgt
valgte
valgtes
valky
vall
valle
valley
valut
valuta
vam
vamp
vampyr
van
vanc
vancouver
vand
vandd
vande
vandet
vandfald
vandforsyning
vandkraft
vandløb
vandm
vandmølle
vandre
vandrer
vandret
vandrette
vandring
vands
vandstand
vandstanden
vandt
vandtarn
vang
vanløse
vansk
vanskelig
vanskelige
vanskeligheder
vanskeligt
vant
var
varde
vare
varede
varem
varemærke
varer
varet
varetage
varetager
varetages
varetaget
varetog
varetægt
vari
variabel
variable
variant
varianter
variation
variationer
varier
variere
varierede
varierende
varierer
varieret
variet
varighed
varm
varme
varmen
varmere
varmt
varsel
vart
vartegn
vas
vasa
vasal
vasil
vask
vaske
vass
vast
vaster
vastra
vat
vatik
vb
ve
vec
ved
vedblev
vedel
vedkommende
vedlige
vedligeholde
vedligeholdelse
vedr
vedrørende
vedrører
vedt
vedtagelsen
vedtaget
vedtog
vedvarende
veg
vega
vegas
veget
vegetation
vegetationen
vegne
vej
veje
vejede
vejen
vejene
vejer
vejl
vejle
vejledning
vejr
vejret
veks
veksel
vekslende
vektor
vel
velbevar
veld
velegnet
velfærd
velfærds
velgør
velgørende
velgørenhed
velhavende
velkendt
velkendte
velkommen
vell
velly
vellykkede
vellykket
vels
velsign
velstaende
velstand
vem
ven
vend
vende
vendepunkt
vender
vendsyssel
vendt
vendte
vene
venedig
venet
venez
venezuel
venezuela
veninde
venlig
vennen
venner
venskab
venskabs
venskabsbyer
venskabskamp
venst
venstre
venstrefløj
venstreorienterede
venstres
vent
vente
ventede
venter
ventes
ventet
ventil
ventiler
venture
venus
ver
vera
verd
verden
verdenen
verdens
verdensarv
verdensarvsliste
verdensber
verdensk
verdenskrig
verdenskrigs
verdensmester
verdensmesterskab
verdensmesterskabet
verdensmestre
verdensom
verdensomspændende
verdensplan
verdensrang
verdensrangliste
verdensranglisten
verdensrekord
verdensudstillingen
verds
verdslige
verdun
vere
verme
verne
verona
vers
versa
versailles
version
versionen
versioner
vert
verwaltung
verwaltungsgemeinschaft
ves
vest
vestafrika
vestberlin
vestbredden
veste
vesten
vester
vesterbro
vesterbrogade
vestergaard
vestergade
vesterhavet
vesteuropa
vestfold
vestfronten
vestind
vestindien
vestindiske
vestjylland
vestkyst
vestkysten
vestland
vestlig
vestlige
vestligste
vestpa
vestre
vestromerske
vestsiden
vestsjælland
vestty
vesttyske
vesttyskland
veter
veteran
veterinær
vha
vi
via
vib
vibe
vibeke
viborg
viby
vic
vice
viceadmiral
viceborgmester
vicepræsident
vick
victor
victoria
vid
vide
viden
videns
videnskab
videnskabelig
videnskabelige
videnskabeligt
videnskaben
videnskaber
videnskabernes
videnskabsmand
videnskabsmænd
video
videoen
videoer
videospil
videre
videreført
videreførte
videregaende
videreudvik
videreudvikling
vides
vidne
vidner
vidnes
vidnesbyrd
vidste
vidt
vidunder
vie
viet
vietnam
vietnames
vietnamkrigen
view
vifte
vig
vige
viggo
vigt
vigtig
vigtige
vigtigere
vigtigste
vigtigt
vii
viii
vik
viking
vikinge
vikinger
vikingerne
vikinget
vikingetiden
viktor
vil
vild
vilde
vildt
vildtvoksende
vilhelm
vilhelmine
vilhelms
vilje
vilkar
vill
villa
villaen
villaer
village
ville
villig
viln
vilnius
vin
vince
vincent
vind
vinde
vinden
vindende
vinder
vindere
vinderen
vinderne
vindmølle
vindmøller
vindue
vinduer
vinduerne
vindues
vinduet
vine
ving
vinge
vinger
vingerne
vink
vinkel
vinkelret
vinkler
vinter
vinteren
vinterlege
vintre
vinyl
viol
violet
violin
violinist
vir
virgin
virginia
virk
virke
virkede
virkelig
virkelige
virkelighed
virkeligheden
virker
virket
virkning
virkningen
virkninger
virksom
virksomhed
virksomheden
virksomhedens
virksomheder
virksomhederne
virt
virtu
viru
virum
virus
vis
visby
visdom
vise
viser
vises
vision
visit
visk
visse
vist
viste
vistnok
visual
visuel
visuelle
vit
vital
vitamin
vitt
viv
vl
vlad
vladimir
vm
vo
voc
vod
vog
vogn
vogne
vognen
vognene
voice
voiv
voivod
vojens
vok
vokal
vokaler
vokalist
vokalmusik
voks
vokse
voksede
voksen
voksende
vokser
voksested
voksesteder
vokset
voksne
vol
vold
volde
voldelig
voldelige
voldem
voldemort
volden
voldgift
voldgrav
voldsom
voldsomme
voldsomt
voldt
voldtægt
volga
volk
volks
volksw
volkswagen
volley
volleyball
volt
volta
volumen
volvo
von
vor
vorarl
vorarlberg
vording
vordingborg
vore
vores
vorpommern
vort
vorup
vos
voss
vov
voy
vr
vrag
vraget
vred
vrede
vs
vu
vuelt
vuelta
vug
vul
vulk
vulkan
vulkanen
vulkaner
vulkansk
vulkanske
vundet
vundne
vurder
vurdere
vurderede
vurderer
vurderes
vurderet
vurdering
vv
vy
væ
væb
væbnede
væbnet
væd
væg
vægge
væggen
væggene
vægt
vægten
vægtklassen
væk
vække
vækst
væksten
vækstform
væl
væld
vælge
vælger
vælgere
vælgerne
vælges
vælte
vær
værd
værdi
værdien
værdier
værdif
værdifuld
værdifulde
værdig
værdighed
være
værelse
værelser
værende
været
værft
værftet
værk
værker
værkerne
værket
værkets
værksted
værksteder
værkt
værktøj
værktøjer
værløse
værn
værne
værnem
værnepligt
værre
værste
vært
værten
værter
værts
værtsland
værtslandet
væs
væsen
væsener
væsentlig
væsentlige
væsentligste
væsentligt
væske
væsner
væv
vævet
vøl
wa
wad
wade
wagn
wagner
wagners
wah
wake
wal
wald
waldemar
wales
walis
walisisk
walisiske
walk
walker
wall
wallace
wallen
walt
walter
walther
wander
wanderers
wang
want
war
ward
warner
warren
warri
warrior
wars
warsza
warszawa
warwick
was
wash
washington
wat
watch
water
waterloo
waters
watson
watt
watts
wav
wave
way
wayne
wc
wcw
we
weas
web
weber
webs
wed
wedel
wedell
wee
week
weekend
wehr
wehrma
wehrmacht
wei
weil
weimar
wein
weis
weiss
wel
well
wellington
wells
wels
welter
weltervægt
wemb
wembley
wen
wer
werner
wes
weser
wessel
west
wester
western
westfalen
westminster
wh
what
whe
when
where
whisk
whisky
whist
whit
white
who
wi
wich
wid
wide
wie
wien
wiener
wiens
wies
wik
wikip
wikipedia
wil
wild
wildc
wildcard
wilde
wilder
wilhelm
will
willem
william
williams
willy
wilson
wimb
wimbledon
win
wind
winding
windows
windsor
wing
winn
winston
wint
winter
winther
wir
wis
wiscons
wisconsin
wit
with
witt
witten
wittenberg
wo
wol
wolf
wolff
wolfgang
wolfsburg
woman
women
wonder
wood
woods
wor
word
work
worksh
world
worm
woz
wozni
wozniacki
wrest
wrestlemania
wrestler
wrestlere
wrestling
wright
wta
wu
wul
wulff
wur
wurt
wurttem
wurttemberg
wurzburg
ww
wwe
wwf
www
wy
xbox
xen
xer
xi
xii
xin
xiv
xp
xv
xx
xyl
yale
yam
yan
yang
yas
yd
yde
ydede
ydelse
ydelser
yder
yderligere
ydermere
yderst
yderste
ydet
ydmy
ydmyg
ydre
ye
year
years
yellow
yemen
yn
ynd
yndet
yndling
yng
yngle
yngler
yngling
yngre
yngste
yo
yoko
yokohama
yor
york
yorks
yorkshire
yosh
you
young
your
yout
youth
youtube
ypper
ypperste
ytring
yu
yuan
za
zach
zag
zagreb
zah
zam
zap
zapp
zar
ze
zealand
zeit
zel
zem
zen
zepp
zeppelin
zer
zero
zeus
zh
zhang
zimb
zimbab
zimbabwe
zink
zion
zo
zone
zonen
zoner
zoo
zoologisk
zoologiske
zu
zulu
zur
zurich
zw
°c
æble
ædel
ædle
æg
ægformede
æggene
ægte
ægtede
ægtefæl
ægtefælle
ægtemand
ægteparret
ægteskab
ægteskaber
ægteskabet
ægtet
ægypt
ægypten
ægyptiske
ækv
ækvator
æl
æld
ældre
ældste
ænd
ændre
ændrede
ændredes
ændrer
ændres
ændret
ændring
ændringen
ændringer
ær
æra
ære
æren
æres
æresbe
æresdo
æresdoktor
æresmedlem
ærke
ærkeb
ærkebis
ærkebisk
ærkebiskop
ærkebiskoppen
ærkehertug
ærø
æst
æstetik
æstetisk
æstetiske
æt
ød
øde
ødel
ødelagde
ødelagt
ødelagte
ødelæg
ødelægge
ødelæggelse
ødelæggelser
ødelæggende
ødelægger
øen
øens
øer
øerne
øg
øge
øgede
øgedes
øgen
øgenavnet
øger
øges
øget
øgruppen
øj
øje
øjeblik
øjeblikk
øjeblikkelig
øjeblikkeligt
øjeblikket
øjen
øjet
øjn
øjne
øjnene
øk
økologi
økologisk
økologiske
økonom
økonomer
økonomi
økonomien
økonomisk
økonomiske
økos
økse
øl
ølstykke
øn
ønsk
ønske
ønskede
ønsker
ønsket
ør
øre
ører
ørestad
øresund
ørken
ørkenen
ørn
ørsted
ørum
øst
østafrika
østasien
øste
østen
øster
østerbro
østergaard
østergade
østers
østersø
østersøen
østeuropa
østfold
østfris
østfronten
østjylland
østkyst
østkysten
østlig
østlige
østligste
østpa
østpreussen
østre
østrig
østrigs
østrigsk
østrigske
østromerske
østsiden
østty
østtyske
østtyskland
øv
øve
øvede
øvelse
øvelser
øver
øverst
øverstbefalende
øverste
øverstkommanderende
øvre
øvrige
øvrigt
øy
þor
łodz
ال
##0
##00
##000
##1
##10
##11
##12
##13
##14
##15
##16
##17
##18
##19
##2
##20
##200
##21
##22
##24
##25
##3
##30
##4
##40
##5
##50
##55
##6
##60
##66
##7
##70
##8
##80
##9
##90
##a
##aa
##aal
##aard
##ab
##aba
##abad
##abe
##abel
##abelt
##aben
##aber
##abet
##abeth
##abil
##abl
##able
##abne
##abnet
##abol
##abon
##abor
##aborg
##abrik
##abugten
##aby
##ac
##aca
##acc
##ace
##aceae
##acen
##acer
##aceut
##ach
##ache
##achen
##acher
##acht
##aci
##acitet
##ack
##acken
##acker
##acki
##acks
##aco
##acs
##act
##acy
##ad
##ada
##adal
##adan
##ade
##adel
##adelse
##adem
##aden
##adende
##ader
##aderne
##ades
##adet
##adeus
##adi
##adisk
##adiske
##adjudant
##administ
##administr
##administration
##administrationen
##admiral
##ado
##ador
##ads
##adset
##adt
##advok
##advokat
##ae
##aede
##ael
##aen
##aende
##aer
##aet
##af
##afa
##afdeling
##afdelingen
##afdelinger
##afe
##afen
##afet
##aff
##affe
##affen
##afgift
##afi
##afilm
##afjorden
##afrik
##afrika
##afrikanske
##afsnit
##afstand
##aft
##aftale
##aftalen
##aften
##ag
##aga
##agaard
##agas
##agasin
##agasinet
##agde
##age
##agede
##agelse
##agem
##agen
##agende
##agens
##agent
##ager
##agere
##ageren
##agerer
##agerne
##agers
##ages
##aget
##agh
##agi
##agn
##agne
##agnen
##agner
##agnet
##agni
##agniet
##agning
##ago
##agon
##agram
##ags
##agt
##agte
##agten
##agter
##agterne
##agtet
##agtig
##agtige
##agtighed
##agtigt
##ague
##ah
##aha
##ahan
##ahl
##ahn
##aho
##ahr
##ahrt
##ahu
##ai
##ail
##ain
##aine
##air
##aire
##ais
##aj
##ak
##aka
##akadem
##akademiet
##ake
##aker
##akes
##akh
##aki
##akiet
##akk
##akken
##akker
##akkerne
##aklub
##akon
##aks
##akse
##aksen
##akt
##akte
##akter
##aktion
##aktioner
##aktiv
##aktive
##aktivitet
##aktor
##aktorer
##aktør
##aku
##al
##ala
##aland
##alands
##album
##ald
##alde
##alder
##alderen
##aldet
##aldi
##aldirektør
##aldo
##aldrende
##aldt
##ale
##alen
##aler
##aleri
##alerier
##aleriet
##alerne
##ales
##alet
##alf
##alg
##algas
##alget
##ali
##alier
##alin
##aling
##alis
##alisme
##alismen
##alistisk
##alistiske
##alitet
##alition
##alj
##alje
##aljen
##aljer
##aljeret
##aljerne
##aljon
##alk
##all
##alla
##allas
##alle
##allen
##aller
##allet
##allian
##alliber
##alls
##alm
##almindel
##alo
##alog
##alogi
##alon
##als
##alsk
##alske
##alt
##alte
##alter
##alth
##alu
##alus
##alv
##alvøen
##aly
##am
##ama
##amas
##ambi
##ame
##amen
##ament
##amente
##amenter
##amer
##amerik
##amerika
##amerikansk
##amerikanske
##amerikas
##ames
##amester
##amet
##ameter
##ametre
##amfund
##amfundet
##ami
##amil
##amin
##aminer
##amling
##amm
##amme
##ammen
##ammens
##ammer
##ammeret
##amo
##amoto
##amp
##ampe
##ampen
##ampenborg
##amper
##ampton
##ams
##amt
##an
##ana
##anal
##analy
##analyse
##analyt
##anas
##anc
##anca
##ance
##ancell
##ancen
##ancer
##anceret
##anche
##ancy
##and
##anda
##ande
##andede
##andel
##anden
##andens
##ander
##andet
##andez
##andid
##andidat
##ando
##ands
##andt
##ane
##anen
##aner
##anere
##anerne
##anes
##anet
##anfald
##ang
##anga
##ange
##angel
##angeliet
##angen
##anger
##angere
##angeren
##anget
##ango
##angreb
##angs
##ani
##ania
##anien
##anik
##anis
##anisme
##anismen
##anje
##ank
##anke
##anken
##anker
##anlæg
##anlægget
##anmel
##anmelder
##ann
##anna
##anne
##annelse
##anner
##annes
##annet
##anni
##annon
##anny
##ano
##anon
##anor
##ans
##ansas
##ansatte
##ansen
##anser
##anset
##ansk
##anske
##ansler
##anstal
##anstalt
##ansvar
##ant
##anta
##antal
##ante
##anten
##anter
##anterne
##antes
##anti
##antik
##antisk
##antiske
##anto
##antrop
##ants
##antz
##anu
##anus
##any
##anz
##ao
##ap
##apa
##apar
##aparte
##ape
##apel
##apet
##apeut
##api
##apir
##apo
##apolis
##app
##aps
##apt
##aq
##ar
##ara
##arab
##arag
##arat
##arater
##aratet
##arbej
##arbejd
##arbejde
##arbejdede
##arbejder
##arbejdere
##arbejderne
##arbejdet
##arbejdning
##arbæk
##arch
##ard
##arde
##arden
##arder
##arderne
##ardo
##ards
##ardt
##are
##areal
##arealer
##arealet
##aren
##arena
##arene
##arer
##arere
##arerne
##arernes
##ares
##arest
##aret
##ari
##aria
##ariat
##ariatet
##arie
##arier
##arig
##arige
##arin
##ario
##aris
##arisk
##ariske
##arit
##arium
##arius
##ark
##arken
##arker
##arkite
##arkitekt
##arkitektur
##arkiv
##arkivet
##arks
##arkt
##arl
##arm
##arme
##armen
##arn
##arna
##arne
##arnet
##aro
##aros
##arrang
##arrangementer
##arre
##arriere
##ars
##arskrigen
##art
##artede
##arten
##arter
##artet
##arth
##artikler
##artiller
##artner
##arts
##artz
##aru
##arum
##arup
##arv
##ary
##as
##asa
##asc
##ase
##asen
##aser
##ash
##ashi
##asi
##asiat
##asiatiske
##asien
##asis
##asj
##ask
##aske
##askine
##askiner
##ason
##asp
##ass
##assa
##asse
##assen
##asser
##asserne
##asset
##assistent
##asso
##ast
##asta
##astas
##asten
##aster
##astik
##astisk
##astiske
##astro
##astrup
##asts
##asy
##at
##ata
##atan
##atar
##atch
##ate
##ateau
##ated
##atel
##aten
##ater
##aterede
##ateret
##ateriale
##aterne
##ates
##atet
##atform
##ath
##athon
##ati
##atik
##atin
##ating
##atio
##ation
##ational
##ationen
##ationens
##ationer
##ationerne
##ations
##atis
##atisk
##atiske
##ativ
##ative
##ativt
##atl
##atnet
##ato
##atom
##atomer
##aton
##ator
##atoren
##atorer
##atorier
##atoriet
##atorisk
##atoriske
##atorium
##atory
##atra
##atre
##atret
##ats
##atsen
##atsu
##att
##atta
##atte
##attede
##atten
##attende
##atter
##attet
##atti
##attle
##attra
##attør
##atum
##atur
##ature
##aturer
##atus
##atz
##atør
##atører
##au
##aud
##aude
##auer
##aul
##ault
##aum
##aur
##aus
##ause
##ausen
##aut
##aux
##av
##ava
##avand
##ave
##avej
##aven
##aver
##avet
##avi
##avia
##avik
##avis
##avisen
##avl
##avle
##avler
##avn
##avne
##avnet
##aw
##ax
##ay
##aya
##ayer
##ays
##ayy
##az
##aza
##azz
##b
##ba
##bac
##bach
##back
##backs
##bad
##bade
##baden
##bag
##bahn
##bajd
##bajdsj
##bak
##bakke
##bakken
##baks
##bal
##ball
##balle
##ban
##banan
##band
##banden
##bandet
##bands
##bane
##banen
##banens
##baner
##banerne
##banest
##bank
##banken
##banker
##bant
##bar
##bard
##bare
##barhed
##barn
##barne
##baron
##bart
##bas
##base
##baserede
##baseret
##bass
##bat
##batten
##batter
##baum
##bay
##bayern
##bc
##be
##beat
##bebyggelse
##bec
##bech
##beck
##bed
##bede
##bedet
##bedste
##befal
##befalende
##befolk
##befolkningen
##beg
##begreb
##begrebet
##behandling
##behør
##bej
##bek
##bel
##bell
##bels
##ben
##bende
##benet
##bens
##bent
##ber
##bere
##bered
##beren
##beret
##berett
##berettigede
##berettiget
##berg
##bergen
##berger
##bergs
##berland
##berlin
##bern
##berne
##berry
##bers
##bert
##berts
##bes
##beskriv
##beskrivelse
##beskyt
##beskyttelse
##beskyttelses
##best
##bestand
##bestem
##bestemmelse
##bestyr
##bet
##betaling
##betegn
##betegnelse
##betegnelsen
##beth
##betjent
##beton
##betændelse
##bev
##bevar
##bevæg
##bevægelse
##bevægelsen
##bevægelsens
##bevægelser
##bh
##bi
##bia
##biblio
##bibliote
##bibliotek
##biblioteket
##bid
##bie
##bil
##biler
##bill
##billede
##billeder
##billedet
##bin
##bind
##biner
##bir
##birk
##bis
##bisk
##biske
##bit
##bj
##bjer
##bjerg
##bjergene
##bjerget
##bjørn
##bl
##bla
##blad
##blade
##bladene
##bladet
##blanding
##ble
##blem
##blemer
##bler
##blet
##blev
##blik
##blo
##blod
##blok
##blokke
##blom
##blomst
##blomster
##blomstring
##bn
##bo
##board
##bod
##boder
##boe
##boende
##boerne
##bog
##bogen
##bok
##boks
##bol
##bold
##boldlandshold
##boldt
##bolig
##boliger
##bom
##bombe
##bomber
##bon
##book
##bor
##bord
##bordet
##bore
##borg
##borger
##borgere
##borgmester
##borgs
##born
##borough
##bos
##bot
##bott
##botten
##bou
##bour
##bourg
##bourne
##bow
##box
##boy
##boys
##br
##bra
##bragt
##bragte
##brahim
##bran
##branchen
##brand
##brandt
##branen
##bre
##break
##bred
##bredden
##brem
##brev
##breve
##brevet
##bridge
##brig
##brigade
##bring
##bringe
##bringende
##bringer
##bringes
##brit
##bro
##brod
##broder
##broen
##brog
##brogade
##bron
##bror
##bru
##bruck
##brud
##brudt
##brug
##bruget
##brugt
##bruk
##brun
##brune
##bry
##bryde
##brydelser
##brydende
##bryder
##bryg
##brygger
##bryn
##bræ
##brænder
##bræt
##brød
##brødre
##bs
##bst
##bt
##bte
##bu
##buch
##bud
##budt
##bue
##buen
##buer
##bugt
##bugten
##buk
##bul
##bull
##bum
##bun
##bund
##bunden
##bur
##bureau
##bureauet
##burg
##burger
##burgh
##burn
##bury
##bus
##busk
##busser
##but
##buterede
##butik
##butikker
##buttel
##by
##bye
##byen
##byer
##byerne
##byg
##bygard
##bygg
##bygge
##byggede
##byggelse
##byggelser
##byggende
##bygger
##byggere
##byggeri
##byggeriet
##bygges
##bygget
##bygning
##bygningen
##bygninger
##bygningerne
##byl
##byr
##byrd
##byrdes
##bys
##byt
##bytte
##bæger
##bæk
##bæl
##bælt
##bær
##bærende
##bærer
##bø
##bød
##bøg
##bøger
##bøgerne
##bøl
##bølge
##bølger
##bøll
##bølle
##bør
##børn
##c
##ca
##cal
##camp
##can
##canal
##cao
##car
##cas
##cast
##castle
##cc
##ce
##ced
##cel
##cell
##celle
##cellen
##celler
##cen
##cene
##cenen
##cener
##cenes
##cens
##cent
##center
##centeret
##centr
##central
##centre
##centret
##centrum
##cep
##cept
##ception
##cer
##ceremon
##cern
##cerne
##cert
##certer
##ces
##cess
##ch
##cha
##chaft
##champ
##chang
##change
##char
##chau
##che
##chef
##chel
##chen
##cheng
##cher
##ches
##chester
##chez
##chi
##chichte
##chin
##chmann
##cho
##chs
##chsen
##cht
##chten
##chts
##chus
##chwitz
##chy
##ci
##cia
##cifik
##cil
##cin
##cing
##cirk
##cis
##ck
##cke
##cken
##cker
##cket
##ckl
##cks
##cl
##cla
##cle
##cles
##co
##cock
##col
##com
##comp
##con
##cop
##core
##cos
##court
##cr
##craft
##cro
##crone
##cross
##cs
##ct
##ctic
##ction
##ctions
##ctor
##cts
##cu
##cus
##cy
##cyk
##cykl
##cyl
##cylind
##cylindrede
##cylindret
##cz
##d
##da
##dad
##dag
##dage
##dagen
##dages
##dagog
##dags
##dahl
##dal
##dale
##dalen
##dalene
##dam
##dan
##danmark
##dann
##dannede
##dannelse
##dansk
##dar
##dat
##datter
##day
##dder
##de
##debut
##dede
##defin
##del
##dele
##delen
##deler
##deles
##delig
##delige
##delighed
##deligt
##deling
##delingen
##delinger
##delings
##dels
##delse
##delsen
##delser
##delserne
##delses
##delt
##delte
##deltes
##deløb
##dem
##demal
##demar
##demokrat
##den
##dende
##dens
##departem
##departementet
##der
##dere
##derede
##deren
##deret
##derne
##ders
##derup
##des
##desh
##design
##designer
##dessa
##dest
##det
##dets
##df
##di
##die
##dig
##dik
##din
##ding
##dinge
##dingen
##dinger
##direktør
##disciplin
##dist
##distrik
##distrikt
##distrikter
##division
##divisionen
##dj
##djurs
##dl
##dle
##do
##dom
##domme
##dommer
##domstol
##domæne
##don
##donald
##dor
##dorf
##dorff
##dow
##down
##dr
##dra
##drag
##draget
##dragt
##dren
##drevne
##drift
##dru
##drup
##ds
##dt
##dte
##dtes
##du
##dy
##dyn
##dyr
##dæ
##dækkende
##dækket
##dømme
##dømmet
##døren
##e
##ea
##ear
##eb
##eberg
##ec
##ech
##eck
##ecker
##ecks
##ect
##ector
##ecyk
##ed
##eda
##edag
##edal
##ede
##edede
##edel
##edele
##eden
##eder
##ederne
##edes
##edet
##edia
##edie
##edig
##edirektør
##edistrikt
##edition
##edler
##edning
##edo
##edom
##edrag
##edragt
##edren
##edrift
##edron
##eds
##edt
##edy
##edygt
##edyr
##ee
##ef
##efa
##efabrik
##effic
##efilm
##efly
##efon
##efoner
##efont
##efter
##eg
##egaard
##egade
##egang
##egard
##egarde
##egarden
##egat
##ege
##egede
##egen
##egener
##eger
##eget
##egn
##egne
##egnede
##egner
##egnet
##ego
##egov
##egrav
##egru
##egruppe
##egrupper
##ei
##ej
##eje
##ejendom
##ejendomme
##ejer
##ejere
##ejern
##ejet
##ejl
##ejle
##ejst
##ek
##ekamp
##ekn
##eks
##eksamen
##ekst
##ekt
##ekte
##ekter
##el
##ela
##eladende
##elag
##eland
##elands
##eld
##elde
##eldet
##eldt
##eldyr
##ele
##eled
##eleder
##elej
##eleje
##elekt
##elementer
##elen
##elens
##eler
##elet
##elev
##elever
##eley
##eli
##elia
##elig
##elige
##eliggende
##elighed
##eligheden
##eligheder
##elignende
##eligt
##elin
##eline
##eling
##elinje
##elinjen
##elis
##elisten
##elius
##eliv
##elivet
##ell
##ella
##ellan
##ellas
##elle
##ellem
##ellen
##eller
##ellerne
##ellerup
##elles
##ellet
##elli
##elling
##ello
##ellow
##ells
##ellschaft
##elløb
##elm
##elmann
##eln
##elot
##elov
##eloven
##elrytter
##els
##else
##elsen
##elsens
##elser
##elserne
##elses
##elsesp
##elsespro
##elsess
##elset
##elskab
##elskaber
##elskabet
##elson
##elsæt
##elt
##elte
##eltoft
##elund
##ely
##elys
##elærer
##elø
##eløb
##eløber
##eløs
##eløse
##em
##ema
##emal
##emala
##eman
##emann
##emark
##emask
##emat
##emb
##ember
##eme
##emed
##emen
##emens
##ement
##ementer
##ementet
##emer
##emet
##emper
##emperatur
##emy
##en
##ena
##enberg
##enborg
##enburg
##ence
##ench
##end
##endal
##endals
##ende
##ended
##endedels
##enden
##endens
##endent
##ender
##endere
##endes
##endom
##endorf
##endorff
##ends
##endt
##endte
##endømmet
##endørs
##ene
##enen
##ener
##enes
##eneste
##eng
##enhavn
##enhed
##enheder
##enn
##ennis
##ens
##ensborg
##ensburg
##ensch
##ense
##ensee
##ensen
##ensens
##enser
##ensgade
##ension
##ensioner
##ensis
##enskom
##enson
##ensrad
##ensstem
##ensstemmelse
##ensyn
##ent
##ental
##entar
##ente
##enten
##enter
##enterne
##entes
##entet
##enthal
##entin
##enting
##entlig
##entlige
##entligt
##ents
##enz
##enze
##enæ
##enæs
##ep
##er
##era
##ere
##erede
##eredes
##ereg
##eremon
##eren
##erenc
##erence
##erencen
##erencer
##erende
##erer
##ererer
##eres
##eret
##erets
##eretten
##erg
##ergi
##eri
##eria
##eriale
##erialer
##erich
##erie
##erien
##erierne
##eriet
##eriets
##erif
##ering
##eringen
##eringer
##erings
##eriode
##erioden
##erioder
##erior
##erium
##ern
##erne
##ernen
##ernes
##erno
##ero
##ers
##erske
##erslev
##erson
##ersund
##ersvend
##ersøn
##ert
##erup
##es
##esa
##esar
##esc
##ese
##esej
##eselskab
##esen
##eser
##eserien
##esh
##esi
##esis
##esisk
##esiske
##esl
##esla
##esland
##eslægt
##esp
##esper
##espil
##espiller
##espillet
##espor
##espørg
##ess
##esse
##essel
##essen
##esser
##ession
##essor
##est
##estad
##estaende
##estat
##este
##ested
##esteder
##esten
##ester
##esters
##esti
##estil
##estra
##estre
##estrup
##estyr
##estyrelsen
##esystem
##et
##eta
##etab
##etagen
##etages
##ete
##etekn
##eten
##eter
##etery
##eth
##ethe
##etid
##etiden
##etik
##etil
##etisk
##etiske
##etland
##eto
##eton
##etr
##etrin
##etræ
##ets
##etsk
##ett
##etta
##ette
##etten
##etter
##ettet
##etti
##etto
##etts
##etz
##ev
##evne
##ew
##ey
##ez
##f
##fa
##fabrik
##fabrikant
##fabrikken
##fabrikker
##fac
##face
##faciliteter
##fad
##fader
##faderen
##fag
##faget
##faktor
##fal
##fald
##faldende
##faldet
##faldt
##falen
##fall
##falz
##famil
##familie
##familien
##familier
##fang
##fanger
##fangst
##far
##fart
##farten
##fartøjer
##farve
##farvede
##farven
##farver
##farvet
##fast
##faste
##fat
##fatt
##fatter
##fb
##fc
##fe
##fejl
##fekt
##fektion
##fektioner
##fektur
##fel
##feld
##feldt
##felt
##felter
##feltet
##fem
##fen
##fer
##fest
##festival
##festivalen
##fet
##ff
##ffa
##ffe
##ffekt
##ffekter
##ffel
##ffen
##ffer
##fferent
##ffes
##ffet
##ffic
##ffield
##ffin
##ffy
##fi
##fib
##fiber
##field
##figur
##figurer
##fik
##fil
##film
##filmen
##filosof
##filosofi
##fin
##finalen
##findes
##fing
##finger
##fir
##fire
##firer
##firma
##firmaet
##fisk
##fiskeri
##fj
##fjeld
##fjer
##fjord
##fjorden
##fl
##flad
##flade
##fladen
##flader
##flag
##fle
##flet
##flod
##floden
##flokk
##flokkurin
##flugt
##fly
##flyvning
##flyvninger
##fløj
##fløjen
##fo
##fod
##fodbold
##foged
##fol
##fold
##folk
##folket
##fon
##fond
##fonden
##for
##forand
##forandring
##forb
##forbindel
##forbindelse
##forbindelsen
##forbindelser
##forbrug
##forbud
##forbund
##forbundet
##ford
##fordeling
##fordelingen
##fore
##foren
##forening
##foreningen
##foreningens
##foreninger
##forenings
##forest
##forestillinger
##forfat
##forfatter
##forføl
##forhold
##forholdene
##forholdet
##forløb
##form
##formal
##formand
##format
##formation
##forme
##formede
##formen
##former
##formerne
##formet
##formp
##forretning
##forretninger
##fors
##forsamling
##forsamlingen
##forsikring
##forsk
##forskel
##forsker
##forskere
##forskning
##forskningen
##forslag
##forslaget
##forst
##forstander
##forsvar
##forsvaret
##forsy
##forsyning
##forsyningen
##forsøg
##fort
##foruren
##forvalt
##forvalter
##forældre
##fos
##foss
##fot
##fotograf
##found
##fr
##fra
##fran
##franken
##frankrig
##fre
##fred
##frekvens
##frem
##fremstilling
##fremt
##fri
##frie
##fried
##frihed
##fris
##frit
##fron
##front
##fronten
##fru
##frugt
##frugter
##frø
##fs
##ft
##fta
##fte
##fter
##ftere
##fterne
##ftet
##fu
##fugl
##fugle
##fuglen
##fuhrer
##ful
##fuld
##fulde
##fuldt
##fun
##fund
##fundet
##funktion
##fur
##furt
##fus
##fylde
##fyldt
##fyldte
##fyn
##fyr
##fyrst
##fys
##fæ
##fæl
##fælde
##fæller
##fælles
##fællesskab
##fænomen
##fær
##færd
##færdig
##færdige
##fære
##færen
##færge
##fæst
##fæste
##fæstning
##født
##fødte
##føl
##følelse
##følge
##følgen
##følgende
##før
##førde
##føre
##førelse
##førelsen
##førende
##fører
##førere
##føreren
##føres
##føring
##føringen
##førsel
##førslen
##første
##ført
##førte
##førtes
##g
##ga
##gaard
##gaards
##gade
##gaden
##gaende
##gaet
##gal
##galler
##gam
##gan
##gang
##gange
##gangen
##gar
##gard
##garde
##garden
##gards
##gart
##garter
##gas
##gate
##gau
##gav
##gave
##gdom
##ge
##gear
##geb
##gebir
##gebirge
##ged
##gede
##gel
##geland
##gelig
##gelige
##geligt
##gelse
##gelsen
##gelser
##gelserne
##gelses
##gem
##geme
##gen
##gend
##gende
##gender
##gene
##gener
##general
##genes
##genhed
##gennem
##genre
##genren
##gens
##genstande
##gent
##ger
##gere
##geren
##gerne
##gernes
##gerning
##gers
##ges
##gesen
##gest
##get
##geurt
##gg
##gi
##gie
##gift
##gifter
##gik
##gil
##gin
##ging
##gio
##gis
##giv
##give
##givelse
##givelsen
##givelser
##given
##givende
##giver
##givere
##gives
##givet
##givne
##givning
##givningen
##gjorde
##gjort
##gjorte
##gl
##glas
##gle
##gn
##gne
##gning
##go
##god
##gods
##gol
##gor
##gow
##gr
##gra
##grad
##graden
##grader
##graderet
##gran
##grav
##grave
##gre
##green
##gren
##grene
##grev
##greve
##gribende
##grim
##gro
##ground
##gru
##grund
##grunde
##grunden
##grundlag
##gruppe
##gruppen
##grupper
##grupperne
##gry
##græ
##græn
##grænse
##grænsen
##græs
##grøn
##grønland
##grønne
##gs
##gt
##gte
##gtede
##gten
##gter
##gterne
##gtet
##gtighed
##gu
##gud
##guitar
##gul
##guvernør
##gv
##gy
##gyld
##gyldigt
##gymn
##gymnas
##gæld
##gæng
##gør
##gøre
##gørelse
##gørelsen
##gørende
##gøres
##gøring
##h
##ha
##hab
##had
##hag
##hagen
##hai
##hail
##hal
##hale
##hall
##hallen
##hals
##halv
##halvaret
##halvøen
##ham
##hama
##hammer
##hamn
##han
##hand
##handbold
##handboldlandshold
##handel
##handelen
##handen
##handler
##handlere
##handlet
##handling
##handlingen
##handlinger
##handlingerne
##hans
##har
##hara
##hard
##hardt
##harede
##harmon
##hart
##has
##hast
##hastighed
##hat
##hatt
##hattan
##hau
##haus
##hausen
##hav
##have
##haven
##havende
##haver
##havere
##havet
##havn
##havne
##havnen
##haw
##hd
##he
##hea
##head
##heba
##hed
##hede
##heden
##hedens
##heder
##heds
##heed
##hei
##heid
##heim
##heimer
##hein
##heit
##hej
##hel
##helm
##helt
##hem
##hen
##her
##here
##herine
##herre
##herred
##herredømme
##herren
##herrer
##hers
##herskende
##hertug
##hes
##het
##hew
##hf
##hi
##hib
##hil
##hild
##him
##hin
##hing
##hip
##hir
##hire
##histor
##historie
##historien
##historiker
##historikeren
##historisk
##historiske
##hit
##hitliste
##hj
##hjel
##hjelm
##hjem
##hjemme
##hjer
##hjul
##hjulet
##hjulstræk
##hjæl
##hjælp
##hjælper
##hl
##hle
##hlensch
##hler
##hm
##hmen
##hn
##ho
##hoe
##hof
##hofen
##hoff
##hol
##hold
##holde
##holdelse
##holdelsen
##holdende
##holdenhed
##holder
##holdere
##holdes
##holdet
##holdig
##holdige
##holdning
##holdt
##holdte
##holm
##holmen
##holms
##holt
##holz
##hon
##hop
##hor
##horn
##horst
##hos
##hosp
##hospital
##hospitalet
##hot
##hou
##house
##hov
##hoved
##hoveder
##hovedet
##hoven
##how
##hower
##hr
##hren
##hrine
##hs
##ht
##hts
##hu
##hua
##hug
##hugger
##hul
##huller
##hum
##hund
##hunde
##hur
##hus
##huse
##husene
##huset
##husets
##huus
##hv
##hval
##hvaler
##hver
##hvert
##hverv
##hvide
##hy
##hyd
##hyg
##hyl
##hænd
##hæng
##hængende
##hær
##hæren
##hæv
##hæver
##høj
##højde
##høje
##højen
##højeste
##højskole
##højskolen
##hør
##hørende
##høv
##i
##ia
##iaden
##iae
##iai
##iak
##ial
##iale
##ialer
##iam
##ian
##iana
##iane
##ianer
##ianere
##ianerne
##iani
##iano
##ians
##iansk
##ianske
##iant
##ianter
##ianus
##ias
##iat
##iater
##iation
##ib
##iba
##ibal
##ibe
##ibel
##iber
##ibet
##ibi
##ibia
##ibil
##ibilitet
##iblandt
##ible
##iblio
##ibo
##iburg
##ibus
##ic
##ica
##ical
##ican
##icap
##icas
##ice
##icere
##icerede
##iceret
##icering
##ices
##ich
##iche
##ichef
##icher
##ichi
##icht
##ichte
##ici
##icia
##icin
##icip
##icisme
##icismen
##icistisk
##icit
##icitet
##ick
##icks
##icle
##ico
##icon
##ics
##ict
##iction
##icum
##icus
##icz
##id
##ida
##idad
##idae
##idakt
##idan
##idas
##idd
##iddel
##iddende
##ide
##idel
##iden
##idende
##idens
##idenskab
##ident
##ider
##idere
##iderede
##ideret
##iderne
##iders
##ides
##idet
##idge
##idi
##idian
##idianen
##idige
##idiske
##idler
##ido
##idon
##ids
##idsen
##idt
##idte
##ie
##ied
##ief
##ieg
##iej
##iel
##ield
##iele
##ielle
##ielt
##iem
##ien
##ienborg
##ience
##ienn
##ienne
##iens
##ient
##ienter
##ienterne
##ier
##iere
##ierede
##ieren
##ieres
##ieret
##ieri
##iering
##ierne
##iernes
##iers
##ierung
##ies
##iese
##iesen
##iest
##iet
##iets
##ietz
##ieu
##iev
##iew
##if
##ifa
##ife
##ifer
##ifest
##iff
##ific
##ificere
##ificerede
##ificerer
##ificeres
##ificeret
##ificering
##ificeringen
##ifik
##ifikation
##ifikationer
##ifor
##iform
##iformer
##iforn
##ifs
##ift
##ifte
##ifter
##iftet
##iful
##ig
##iga
##igan
##ige
##igede
##igelse
##igen
##igende
##igennem
##iger
##igere
##iges
##iget
##igh
##ighed
##igheden
##igheder
##ighederne
##ight
##ighter
##ights
##igi
##ign
##ignal
##ignaler
##ignan
##igne
##igner
##ignet
##igning
##igny
##igo
##igr
##igste
##igt
##igte
##igtede
##igter
##igtet
##igur
##ih
##ii
##ij
##ija
##iji
##ijk
##ijn
##ik
##ika
##ikal
##ikale
##ikat
##ikation
##ike
##ikel
##iken
##iker
##ikere
##ikeren
##ikerne
##ikernes
##iki
##ikk
##ikke
##ikkelse
##ikken
##ikkens
##ikker
##ikkerhed
##ikkerne
##ikler
##iko
##ikom
##ikon
##ikop
##ikos
##ikre
##ikring
##iks
##ikt
##ikum
##il
##ila
##iland
##ild
##ilda
##ilde
##ilder
##ilding
##ile
##ileg
##ilen
##iler
##iley
##ilfælde
##ili
##ilian
##ilien
##ilin
##ilitet
##iliteter
##ilius
##iljø
##ill
##illa
##ille
##illede
##illen
##iller
##illere
##illers
##illes
##illet
##illid
##illig
##illing
##illingen
##illinger
##illion
##illo
##illon
##illy
##ilm
##ilmann
##ilmar
##ilo
##ilog
##ils
##ilt
##ilte
##ilton
##ilus
##ily
##ilæ
##im
##ima
##imal
##iman
##imar
##imb
##ime
##imellem
##imension
##iment
##imenter
##imentet
##imer
##imerede
##imeret
##imering
##imerne
##imet
##imeter
##imi
##imil
##imir
##immel
##immer
##imo
##imod
##imon
##imore
##imp
##ims
##imus
##in
##ina
##inae
##inal
##inar
##inas
##ination
##inationer
##inav
##inc
##inck
##ind
##inda
##inde
##indede
##indeks
##indel
##inden
##indende
##indens
##inder
##inderne
##inders
##indes
##indet
##indhold
##indholdet
##inding
##indkomst
##indsat
##indsats
##indspil
##indt
##indtægter
##industri
##industrien
##ine
##inem
##inen
##inens
##inent
##inental
##inente
##iner
##inere
##inerede
##inerende
##ineres
##ineret
##inerne
##inernes
##ines
##inese
##inesen
##inesiske
##iness
##inet
##inette
##inf
##infanter
##information
##ing
##inge
##ingelser
##ingen
##ingeniør
##inger
##ingerne
##inges
##inget
##ingham
##ingle
##inglet
##ingo
##ingrad
##ings
##ington
##ini
##inien
##inis
##inist
##inister
##inisteriet
##inius
##ink
##inka
##inkel
##inn
##ino
##inos
##inov
##ins
##inschaft
##insen
##insk
##inske
##inski
##inskij
##inspe
##inspektør
##inst
##institut
##institution
##institutioner
##instituttet
##instru
##instruktør
##instrument
##instrumenter
##insyre
##int
##inte
##inten
##intend
##inter
##interesser
##interval
##intet
##inth
##inton
##intre
##inus
##iny
##inær
##io
##iol
##ion
##ional
##ione
##ionen
##ionens
##ioner
##ions
##iop
##ior
##ios
##iose
##ious
##ioxid
##ip
##ipe
##ipend
##iper
##ipl
##iplin
##ipp
##ippe
##ippen
##ipper
##ipperne
##ippet
##ipping
##ips
##ique
##ir
##ira
##ird
##ire
##ireg
##iregiment
##irekte
##irektor
##irektoratet
##irektør
##iren
##irer
##ires
##iret
##iri
##irig
##irigent
##irk
##irke
##irken
##irkning
##irkninger
##irksomhed
##iro
##irs
##irv
##is
##isa
##isation
##isc
##isch
##ische
##ischen
##ischer
##isches
##isciplin
##iscons
##ise
##isen
##iser
##isere
##iserede
##iserende
##iserer
##iseres
##iseret
##isering
##iseringen
##iseringer
##ises
##iset
##ish
##isha
##ishi
##isi
##ision
##isk
##iska
##iske
##isken
##iskop
##ism
##isme
##ismen
##ismens
##ismund
##ison
##isont
##isor
##isp
##iss
##issa
##isse
##issel
##issen
##issens
##issenschaft
##isser
##ission
##issionen
##issioner
##issipp
##issær
##ist
##ista
##istan
##istans
##iste
##isted
##isten
##istens
##istent
##ister
##isterende
##isterne
##isternes
##isters
##istik
##istisk
##istiske
##istol
##istor
##istrik
##istrikt
##istrup
##ists
##it
##ita
##itage
##ital
##italer
##italet
##italien
##itan
##itar
##itas
##itat
##itation
##itatis
##itative
##itch
##ite
##ited
##itel
##iten
##iter
##itere
##iterede
##iteres
##iteret
##itering
##ites
##itet
##iteten
##iteter
##itets
##itfeldt
##ith
##iti
##ities
##itim
##itime
##ition
##itis
##itisk
##itiske
##itiv
##itive
##itivt
##itj
##itlen
##itler
##ito
##itor
##itri
##its
##itsch
##itsu
##itt
##itte
##itten
##itter
##itteratur
##itteret
##itterne
##itu
##ituation
##itude
##itur
##itus
##ity
##itz
##itze
##itzer
##itær
##itære
##itør
##iu
##ium
##ius
##iv
##iva
##ival
##ivalen
##ivaler
##ive
##iveau
##ivel
##ivelse
##iven
##ivende
##ivenheder
##iver
##iverne
##ivers
##iverse
##iversitet
##ives
##ivet
##ivik
##ivil
##ivis
##ivision
##ivisionen
##ivisioner
##ivl
##ivne
##ivo
##ivt
##ix
##iy
##iya
##iz
##iza
##ization
##ize
##izer
##izz
##ið
##iør
##j
##ja
##jab
##jagt
##jak
##jan
##jana
##jar
##jarv
##jas
##jat
##jd
##je
##jed
##jekt
##jekter
##jektiv
##jen
##jendom
##jene
##jeneste
##jening
##jenko
##jens
##jent
##jente
##jer
##jere
##jerg
##jern
##jerne
##jes
##jet
##jev
##jevo
##ji
##jiang
##jin
##jk
##jn
##jo
##job
##jon
##jor
##jord
##jorde
##jorden
##jordes
##jort
##jorte
##journal
##jov
##js
##jse
##jsen
##jser
##ju
##jub
##jud
##judant
##juk
##jun
##junker
##junkt
##jur
##jut
##jylland
##jyllands
##jysk
##jyske
##jæger
##jægermester
##jæl
##jær
##jø
##jøen
##jør
##jørn
##k
##ka
##kab
##kal
##kald
##kalde
##kalder
##kaldt
##kaldte
##kam
##kammer
##kammeret
##kamp
##kampe
##kampen
##kampene
##kan
##kanal
##kanalen
##kandidat
##kant
##kanten
##kanter
##kap
##kapacitet
##kapel
##kapit
##kapital
##kaptajn
##kar
##karakter
##karriere
##karrieren
##kas
##kasse
##kassen
##kasser
##kast
##kaste
##kat
##katastro
##ke
##kede
##kee
##kegaard
##kel
##kelse
##ken
##kende
##kendelse
##kendelsen
##kendelser
##kender
##kendes
##kendt
##kendte
##kens
##ker
##kere
##kerne
##kernen
##kerner
##kernes
##kers
##kes
##kester
##ket
##kett
##key
##kh
##ki
##kil
##kilde
##kilder
##kilometer
##kin
##kina
##king
##kins
##kir
##kirchen
##kirk
##kirke
##kirken
##kirkens
##kirker
##kj
##kjær
##kk
##kka
##kke
##kkede
##kkedes
##kkel
##kkelse
##kkelsen
##kken
##kkende
##kkene
##kkens
##kker
##kkere
##kkerne
##kkes
##kket
##kl
##kla
##klam
##klang
##klar
##klare
##klaret
##klass
##klasse
##klassen
##klasser
##kle
##klen
##klin
##klip
##klo
##klor
##klost
##kloster
##klub
##klubben
##klubber
##kly
##klæd
##klæde
##klædning
##klædt
##klædte
##klær
##kn
##kne
##kning
##knude
##knudepunkt
##ko
##kob
##kobling
##kod
##kode
##kog
##kok
##kol
##kolle
##kollegiet
##kolon
##kom
##komite
##komiteen
##komm
##kommand
##kommanderende
##kommando
##kommandoen
##komme
##kommen
##kommende
##kommer
##kommission
##kommissionen
##kommissær
##kommun
##kommune
##kommuner
##kommunikation
##komne
##komp
##kompleks
##kompon
##komst
##komsten
##komster
##kon
##koncern
##koncert
##koncerter
##kond
##konf
##konfer
##konferensrad
##kong
##konge
##kongen
##kongressen
##konkurren
##konkurrence
##konkurrencen
##konkurrencer
##konom
##konserv
##konstru
##konstruktion
##konsul
##kont
##kontor
##kontrakt
##kontrol
##kop
##koping
##kopings
##kor
##korder
##kore
##korn
##korpor
##korps
##korpset
##kors
##korset
##kort
##kortet
##kos
##kost
##kostninger
##kov
##kow
##kp
##kr
##kraft
##kraften
##krat
##krater
##kratere
##krateret
##krav
##kre
##kred
##kredit
##kreds
##kredse
##kredsen
##kredsløb
##kret
##krete
##kretær
##krig
##krige
##krigen
##krigene
##krigstiden
##krisen
##krist
##krit
##kritik
##kritiker
##kro
##kron
##krone
##kroner
##kryd
##kræ
##kræft
##kræfter
##ks
##ksamen
##ksburg
##kse
##kser
##ksh
##kshire
##ksim
##ksis
##ksom
##ksomhed
##ksp
##kspedition
##kt
##ktar
##kte
##kter
##kterne
##ktion
##ktionen
##ktioner
##ktiv
##ktive
##ktivet
##ktivt
##kton
##ktor
##ktoren
##ktorer
##ktur
##ktør
##ku
##kugle
##kul
##kultur
##kulturen
##kund
##kunst
##kunsten
##kur
##kurren
##kurs
##kursus
##kut
##kv
##kvad
##kvadre
##kval
##kvar
##kvart
##kvarter
##kvarterer
##kvarteret
##kvem
##kvens
##kvensen
##kvent
##ky
##kyl
##kyst
##kysten
##kæde
##kæden
##kæmp
##kæmper
##kær
##kærlighed
##kø
##køb
##købing
##kød
##kør
##kørende
##kører
##kørs
##kørsel
##kørslen
##l
##la
##lach
##lad
##lade
##laden
##lader
##ladesh
##ladet
##ladning
##lads
##ladsen
##ladser
##ladt
##ladte
##lag
##lagde
##lagdes
##lager
##laget
##lagt
##lagte
##lain
##lam
##lan
##land
##lande
##landene
##lander
##landet
##landing
##lands
##landsbanen
##landshold
##landsk
##landskab
##landske
##landt
##lang
##lar
##las
##lass
##last
##lau
##laug
##laus
##lav
##lava
##lay
##ld
##le
##leans
##leant
##leb
##leben
##led
##leddet
##lede
##ledelse
##ledende
##leder
##ledere
##ledes
##ledning
##ledningen
##ledninger
##ledon
##ledt
##lee
##leg
##legat
##lege
##legemer
##legne
##lej
##leje
##lejer
##lejet
##lejr
##lejre
##lejren
##lek
##lekalen
##leks
##leksikon
##lem
##leman
##lemania
##lemann
##lement
##lementer
##lemer
##lemmer
##len
##lende
##lene
##lens
##ler
##lere
##lerede
##leren
##leret
##lering
##lerne
##lers
##lertid
##lerup
##lerød
##les
##less
##lesvig
##let
##leton
##lets
##lett
##lev
##leve
##levende
##lever
##leverand
##lex
##ley
##leys
##li
##lia
##lic
##lich
##liche
##lie
##lieb
##lig
##liga
##ligaen
##lige
##ligere
##liget
##ligevel
##liggende
##liggender
##lighed
##ligheden
##ligheder
##lighederne
##light
##lignende
##ligste
##ligt
##ligvis
##lik
##likation
##likationer
##lim
##limer
##lin
##line
##lines
##ling
##linge
##lingen
##linger
##lings
##lington
##linje
##linjen
##linjer
##lins
##lio
##lip
##lis
##liste
##listen
##lister
##lit
##litter
##litteratur
##litz
##liv
##livet
##lo
##lob
##lock
##lod
##loden
##loder
##log
##lok
##lokk
##lokkurin
##lokomot
##lom
##lon
##loo
##lor
##los
##lot
##lov
##loven
##low
##ls
##lu
##lub
##luf
##lum
##lund
##lunde
##lus
##lut
##lutning
##lutningen
##lv
##ly
##lyd
##lyde
##lygter
##lyn
##lys
##lyst
##læ
##læg
##læge
##læger
##lægge
##læggelse
##læggelsen
##lægger
##lægges
##lægning
##lægningen
##lægninger
##lægt
##læn
##lænd
##lændere
##lænderne
##læng
##længde
##lær
##lære
##lærer
##lø
##løb
##løber
##løbet
##løft
##løg
##løjtnant
##løn
##løs
##løse
##løshed
##løsning
##løsningen
##løst
##m
##ma
##mad
##made
##maet
##mag
##magas
##magasin
##magasinet
##mager
##magt
##magten
##mah
##main
##major
##mak
##mal
##maler
##maleri
##malerier
##malet
##maling
##malm
##man
##mand
##manden
##mands
##mane
##manederne
##mangel
##manland
##mann
##manns
##mans
##mansk
##manu
##manuel
##mar
##march
##mare
##mark
##marked
##markeder
##markedet
##marken
##marks
##mars
##marschen
##marskal
##marsken
##mart
##mas
##mask
##maskine
##maskiner
##mass
##masse
##mast
##mat
##materi
##materiale
##matisk
##matiske
##me
##med
##medalje
##medaljen
##medaljer
##medaljerne
##meddel
##mede
##medes
##medlem
##medlemmer
##meg
##meister
##mek
##mekan
##mel
##melig
##melige
##melighed
##meligt
##mels
##melse
##melsen
##melser
##melserne
##melses
##melt
##men
##mende
##mene
##menighed
##menne
##mennesk
##mens
##ment
##menter
##menterne
##mentet
##mer
##mera
##mere
##meret
##meridianen
##mering
##merne
##mers
##mes
##mest
##mester
##mesteren
##mesterskabet
##mestre
##met
##metal
##meter
##metider
##mets
##meyer
##mi
##mid
##middel
##midler
##mie
##mien
##mier
##mil
##miljø
##miljøet
##min
##minal
##mind
##minde
##mindre
##mine
##miner
##ming
##mingham
##minist
##minister
##ministeren
##ministeriet
##minster
##mir
##miral
##mis
##misbrug
##misk
##miske
##mission
##mit
##ml
##mm
##mmer
##mning
##mo
##mod
##model
##modellen
##modeller
##moder
##mokrat
##mon
##mond
##moner
##mons
##mont
##mor
##mord
##more
##mos
##mose
##mot
##motor
##motorer
##motorvejen
##mouth
##mp
##mpe
##mper
##mperatur
##ms
##mu
##muligheder
##mun
##mund
##munition
##mur
##mure
##muren
##muret
##mus
##muse
##museet
##museum
##musik
##musiker
##musikken
##mut
##my
##myg
##mægtig
##mæle
##mænd
##mændene
##mængde
##mær
##mærk
##mærke
##mærker
##mærket
##mæssig
##mæssige
##mæssigt
##møde
##møder
##mødet
##møl
##mølle
##møllen
##møller
##møn
##mør
##n
##na
##nam
##names
##nan
##nant
##nap
##nar
##nas
##nat
##nation
##navn
##navne
##navnet
##naz
##nd
##ndal
##nder
##ne
##neberg
##ned
##nede
##nedes
##nel
##nell
##nelse
##nem
##nemann
##nement
##nen
##nende
##nene
##nenes
##nens
##ner
##nere
##neren
##nerne
##ners
##nerup
##nes
##neset
##ness
##nesøn
##net
##nete
##neth
##nets
##nett
##nette
##nettet
##netværk
##nev
##neval
##ney
##neys
##ng
##ni
##nia
##nic
##nie
##nig
##nik
##ning
##ninge
##ningen
##ningens
##ninger
##ningerne
##nings
##ningsanlæg
##nis
##niske
##nit
##nitz
##niveau
##no
##nok
##nom
##non
##nor
##nord
##nordisk
##norge
##norsk
##not
[...]
