[unused0]
[unused1]
[unused2]
[unused3]
[unused4]
[unused5]
[unused6]
[unused7]
[unused8]
[unused9]
[unused10]
[unused11]
[unused12]
[unused13]
[unused14]
[unused15]
[unused16]
[unused17]
[unused18]
[unused19]
[unused20]
[unused21]
[unused22]
[unused23]
[unused24]
[unused25]
[unused26]
[unused27]
[unused28]
[unused29]
[unused30]
[unused31]
[unused32]
[unused33]
[unused34]
[unused35]
[unused36]
[unused37]
[unused38]
[unused39]
[unused40]
[unused41]
[unused42]
[unused43]
[unused44]
[unused45]
[unused46]
[unused47]
[unused48]
[unused49]
[unused50]
[unused51]
[unused52]
[unused53]
[unused54]
[unused55]
[unused56]
[unused57]
[unused58]
[unused59]
[unused60]
[unused61]
[unused62]
[unused63]
[unused64]
[unused65]
[unused66]
[unused67]
[unused68]
[unused69]
[unused70]
[unused71]
[unused72]
[unused73]
[unused74]
[unused75]
[unused76]
[unused77]
[unused78]
[unused79]
[unused80]
[unused81]
[unused82]
[unused83]
[unused84]
[unused85]
[unused86]
[unused87]
[unused88]
[unused89]
[unused90]
[unused91]
[unused92]
[unused93]
[unused94]
[unused95]
[unused96]
[unused97]
[unused98]
[unused99]
[unused100]
[unused101]
[unused102]
[unused103]
[unused104]
[unused105]
[unused106]
[unused107]
[unused108]
[unused109]
[unused110]
[unused111]
[unused112]
[unused113]
[unused114]
[unused115]
[unused116]
[unused117]
[unused118]
[unused119]
[unused120]
[unused121]
[unused122]
[unused123]
[unused124]
[unused125]
[unused126]
[unused127]
[unused128]
[unused129]
[unused130]
[unused131]
[unused132]
[unused133]
[unused134]
[unused135]
[unused136]
[unused137]
[unused138]
[unused139]
[unused140]
[unused141]
[unused142]
[unused143]
[unused144]
[unused145]
[unused146]
[unused147]
[unused148]
[unused149]
[unused150]
[unused151]
[unused152]
[unused153]
[unused154]
[unused155]
[unused156]
[unused157]
[unused158]
[unused159]
[unused160]
[unused161]
[unused162]
[unused163]
[unused164]
[unused165]
[unused166]
[unused167]
[unused168]
[unused169]
[unused170]
[unused171]
[unused172]
[unused173]
[unused174]
[unused175]
[unused176]
[unused177]
[unused178]
[unused179]
[unused180]
[unused181]
[unused182]
[unused183]
[unused184]
[unused185]
[unused186]
[unused187]
[unused188]
[unused189]
[unused190]
[unused191]
[unused192]
[unused193]
[unused194]
[unused195]
[unused196]
[unused197]
[unused198]
[unused199]
[unused200]
[unused201]
[unused202]
[unused203]
[unused204]
[unused205]
[unused206]
[unused207]
[unused208]
[unused209]
[unused210]
[unused211]
[unused212]
[unused213]
[unused214]
[unused215]
[unused216]
[unused217]
[unused218]
[unused219]
[unused220]
[unused221]
[unused222]
[unused223]
[unused224]
[unused225]
[unused226]
[unused227]
[unused228]
[unused229]
[unused230]
[unused231]
[unused232]
[unused233]
[unused234]
[unused235]
[unused236]
[unused237]
[unused238]
[unused239]
[unused240]
[unused241]
[unused242]
[unused243]
[unused244]
[unused245]
[unused246]
[unused247]
[unused248]
[unused249]
[unused250]
[unused251]
[unused252]
[unused253]
[unused254]
[unused255]
[unused256]
[unused257]
[unused258]
[unused259]
[unused260]
[unused261]
[unused262]
[unused263]
[unused264]
[unused265]
[unused266]
[unused267]
[unused268]
[unused269]
[unused270]
[unused271]
[unused272]
[unused273]
[unused274]
[unused275]
[unused276]
[unused277]
[unused278]
[unused279]
[unused280]
[unused281]
[unused282]
[unused283]
[unused284]
[unused285]
[unused286]
[unused287]
[unused288]
[unused289]
[unused290]
[unused291]
[unused292]
[unused293]
[unused294]
[unused295]
[unused296]
[unused297]
[unused298]
[unused299]
[unused300]
[unused301]
[unused302]
[unused303]
[unused304]
[unused305]
[unused306]
[unused307]
[unused308]
[unused309]
[unused310]
[unused311]
[unused312]
[unused313]
[unused314]
[unused315]
[unused316]
[unused317]
[unused318]
[unused319]
[unused320]
[unused321]
[unused322]
[unused323]
[unused324]
[unused325]
[unused326]
[unused327]
[unused328]
[unused329]
[unused330]
[unused331]
[unused332]
[unused333]
[unused334]
[unused335]
[unused336]
[unused337]
[unused338]
[unused339]
[unused340]
[unused341]
[unused342]
[unused343]
[unused344]
[unused345]
[unused346]
[unused347]
[unused348]
[unused349]
[unused350]
[unused351]
[unused352]
[unused353]
[unused354]
[unused355]
[unused356]
[unused357]
[unused358]
[unused359]
[unused360]
[unused361]
[unused362]
[unused363]
[unused364]
[unused365]
[unused366]
[unused367]
[unused368]
[unused369]
[unused370]
[unused371]
[unused372]
[unused373]
[unused374]
[unused375]
[unused376]
[unused377]
[unused378]
[unused379]
[unused380]
[unused381]
[unused382]
[unused383]
[unused384]
[unused385]
[unused386]
[unused387]
[unused388]
[unused389]
[unused390]
[unused391]
[unused392]
[unused393]
[unused394]
[unused395]
[unused396]
[unused397]
[unused398]
[unused399]
[unused400]
[unused401]
[unused402]
[unused403]
[unused404]
[unused405]
[unused406]
[unused407]
[unused408]
[unused409]
[unused410]
[unused411]
[unused412]
[unused413]
[unused414]
[unused415]
[unused416]
[unused417]
[unused418]
[unused419]
[unused420]
[unused421]
[unused422]
[unused423]
[unused424]
[unused425]
[unused426]
[unused427]
[unused428]
[unused429]
[unused430]
[unused431]
[unused432]
[unused433]
[unused434]
[unused435]
[unused436]
[unused437]
[unused438]
[unused439]
[unused440]
[unused441]
[unused442]
[unused443]
[unused444]
[unused445]
[unused446]
[unused447]
[unused448]
[unused449]
[unused450]
[unused451]
[unused452]
[unused453]
[unused454]
[unused455]
[unused456]
[unused457]
[unused458]
[unused459]
[unused460]
[unused461]
[unused462]
[unused463]
[unused464]
[unused465]
[unused466]
[unused467]
[unused468]
[unused469]
[unused470]
[unused471]
[unused472]
[unused473]
[unused474]
[unused475]
[unused476]
[unused477]
[unused478]
[unused479]
[unused480]
[unused481]
[unused482]
[unused483]
[unused484]
[unused485]
[unused486]
[unused487]
[unused488]
[unused489]
[unused490]
[unused491]
[unused492]
[unused493]
[unused494]
[unused495]
[unused496]
[unused497]
[unused498]
[unused499]
[CLS]
[MASK]
[PAD]
[SEP]
[UNK]
!
"
#
$
%
&
'
(
)
*
+
,
-
.
/
0
1
2
3
4
5
6
7
8
9
:
;
<
=
>
?
@
[
\
]
^
_
`
a
b
c
d
e
f
g
h
i
j
k
l
m
n
o
p
q
r
s
t
u
v
w
x
y
z
{
|
}
~
¡
¢
£
¤
¥
¦
§
¨
©
«
¬
®
¯
°
±
²
³
´
µ
¶
·
¹
º
»
¼
½
¾
¿
×
ß
æ
ð
÷
ø
þ
đ
ħ
ı
ł
œ
ƒ
ə
ɛ
ʹ
ˆ
ˈ
ː
˚
ˮ
ͼ
α
β
γ
δ
ε
ζ
η
θ
ι
κ
λ
μ
ν
ξ
ο
π
ρ
ς
σ
τ
υ
φ
χ
ψ
ω
ϕ
а
б
в
г
д
е
ж
з
и
к
л
м
н
о
п
р
с
т
у
ф
х
ц
ч
ш
щ
ъ
ы
ь
э
ю
я
ђ
є
ѕ
і
ј
љ
њ
ґ
һ
ա
ե
ն
ո
ր
א
ב
ג
ד
ה
ו
ח
ט
י
כ
ל
ם
מ
ן
נ
ס
ע
פ
ק
ר
ש
ת
،
ء
ا
ب
ة
ت
ث
ج
ح
خ
د
ذ
ر
ز
س
ش
ص
ض
ط
ظ
ع
غ
ـ
ف
ق
ك
ل
م
ن
ه
و
ى
ي
پ
چ
ک
گ
ی
ە
क
ग
ज
त
द
न
प
ब
म
य
र
ल
व
स
ह
ा
ि
ी
ो
ক
ত
ন
ব
য
র
ল
া
ি
ে
க
த
ன
ப
ம
ர
வ
ா
ி
ு
ก
ข
ค
ง
จ
ช
ด
ต
ท
น
บ
ป
พ
ม
ย
ร
ล
ว
ส
ห
อ
ะ
า
เ
แ
โ
ไ
ა
ე
ი
ლ
მ
ნ
ო
რ
ს
ᄀ
ᄂ
ᄃ
ᄅ
ᄆ
ᄇ
ᄉ
ᄋ
ᄌ
ᄎ
ᄏ
ᄐ
ᄑ
ᄒ
ᅡ
ᅢ
ᅥ
ᅦ
ᅧ
ᅩ
ᅪ
ᅬ
ᅭ
ᅮ
ᅲ
ᅳ
ᅴ
ᅵ
ᆨ
ᆫ
ᆯ
ᆷ
ᆸ
ᆼ
ᐈ
‐
‑
‒
–
—
‘
’
‚
“
”
„
†
‡
•
…
‰
′
″
‹
›
₨
€
℃
№
™
←
↑
→
↓
⇒
−
√
≈
≤
≥
─
■
□
▪
▫
▲
▶
►
▻
▼
○
●
☀
★
☆
☺
♀
♡
♣
♥
♦
✅
✌
✓
✔
✚
✨
✭
✰
❄
❑
❤
➔
⠀
⭐
ⰰ
、
。
「
」
【
】
あ
い
う
え
お
か
き
く
け
こ
さ
し
す
せ
そ
た
ち
っ
つ
て
と
な
に
の
は
ま
み
め
も
や
よ
ら
り
る
れ
わ
を
ん
ア
ィ
イ
ウ
ェ
エ
オ
カ
キ
ク
ケ
コ
サ
シ
ス
セ
タ
チ
ッ
ツ
テ
ト
ナ
ニ
ネ
ハ
ヒ
フ
ヘ
ホ
マ
ミ
ム
メ
モ
ャ
ュ
ョ
ラ
リ
ル
レ
ロ
ワ
ン
・
ー
䄀
䈀
䌀
䐀
䔀
䜀
䠀
䤀
䬀
䰀
䴀
一
万
三
上
下
不
与
专
世
业
东
个
中
为
主
么
之
乐
九
也
乡
买
了
争
事
二
于
五
亚
交
产
京
人
什
今
他
仙
代
以
们
件
伀
会
传
位
体
何
作
你
使
供
保
信
值
元
光
克
免
入
全
八
公
六
关
其
内
円
册
准
出
刀
分
划
创
利
到
制
前
力
加
务
动
势
動
匀
包
化
北
区
十
华
单
南
博
原
县
及
双
发
取
口
古
可
台
号
司
吀
合
同
名
后
吗
和
品
哪
唀
商
嘀
器
四
回
国
图
在
地
场
址
坛
城
堂
場
外
多
大
天
太
头
奖
女
好
如
姐
娱
婆
子
字
学
安
官
定
宝
实
客
室
家
富
对
小
少
尔
就
尾
展
山
川
州
工
巧
市
布
平
年
广
庄
庆
库
店
度
建
开
式
当
录
彩
影
律
得
微
德
心
必
快
怎
思
性
总
情
意
感
戏
成
我
户
所
手
打
技
投
报
拉
持
挂
指
推
提
播
教
数
文
料
斯
新
方
无
日
时
明
星
是
時
更
最
月
有
服
期
木
本
机
杀
村
来
東
林
枚
果
校
样
格
業
次
正
比
民
氓
水
江
沙
河
法
波
注
活
流
测
海
港
游
湖
源
澳
点
爱
片
版
牌
牛
物
特
狗
玄
王
玩
现
球
理
生
用
田
电
画
界
登
白
百
的
皇
盘
目
盲
直
相
看
県
真
着
知
石
码
社
神
票
福
科
程
空
立
站
第
等
算
管
精
系
红
线
组
经
结
统
网
美
群
老
者
肖
育
能
自
色
花
英
行
街
表
西
要
見
规
视
解
计
记
论
设
诗
财
费
资
赌
赛
赢
走
足
跑
路
身
车
软
载
过
这
进
送
选
通
道
部
都
里
重
金
钱
镇
长
間
门
阳
际
限
院
集
霸
青
面
音
预
食
香
马
高
黄
黑
龙
ﬁ
ﬂ
！
（
）
，
：
ｩ
ｲ
ﾞ
𝐞
🌟
🌸
🎉
🏻
🏼
🏽
👊
👌
👍
👏
💕
💖
💗
💙
💚
💛
💜
💞
💪
🔥
😀
😁
😂
😃
😄
😅
😆
😉
😊
😋
😍
😎
😏
😘
😛
😜
😝
😢
😦
😬
😭
😱
😳
🙁
🙂
🙄
🙈
🙌
🙏
🤔
🤗
🤣
00
000
01
010
02
03
04
05
06
07
070
08
09
10
100
1000
10000
101
102
103
104
105
106
107
108
1080
109
11
110
1100
111
112
113
114
115
116
117
118
119
12
120
1200
122
123
125
127
128
129
13
130
1300
135
139
14
140
1400
144
145
149
15
150
1500
155
157
159
16
160
1600
165
167
168
169
17
170
1700
174
175
177
178
179
18
180
1800
183
184
185
1850
186
1860
1862
1863
1865
1866
187
1870
1874
1875
1876
1877
1878
1879
188
1880
1881
1882
1883
1884
1885
1886
1887
1888
1889
189
1890
1891
1892
1893
1894
1895
1896
1897
1898
1899
19
190
1900
1901
1902
1903
1904
1905
1906
1907
1908
1909
191
1910
1911
1912
1913
1914
1915
1916
1917
1918
1919
192
1920
1921
1922
1923
1924
1925
1926
1927
1928
1929
193
1930
1931
1932
1933
1934
1935
1936
1937
1938
1939
194
1940
1941
1942
1943
1944
1945
1946
1947
1948
1949
195
1950
1951
1952
1953
1954
1955
1956
1957
1958
1959
196
1960
1961
1962
1963
1964
1965
1966
1967
1968
1969
197
1970
1971
1972
1973
1974
1975
1976
1977
1978
1979
198
1980
1981
1982
1983
1984
1985
1986
1987
1988
1989
199
1990
1991
1992
1993
1994
1995
1996
1997
1998
1999
1a
1½
20
200
2000
2001
2002
2003
2004
2005
2006
2007
2008
2009
201
2010
2011
2012
2013
2014
2015
2016
2017
2018
2019
2020
2021
2030
21
210
215
22
220
225
23
230
24
240
25
250
2500
26
260
27
270
28
280
29
290
299
2a
2x
30
300
3000
31
32
320
33
330
34
35
350
36
360
365
37
38
39
3d
3g
40
400
4000
41
42
43
44
45
450
46
47
48
480
49
499
4k
50
500
5000
51
52
53
54
55
550
56
57
58
59
60
600
6000
61
62
63
64
65
650
66
67
68
69
70
700
71
72
73
74
75
750
76
77
78
79
80
800
81
82
83
84
85
850
86
87
88
89
90
900
91
92
93
94
95
96
97
98
99
a1
a3
a4
aa
aaa
aah
ab
abb
abborre
abc
abd
aber
aberg
aberop
abf
abo
abonn
abonnemang
abort
about
abra
abraham
abs
absol
absolut
absoluta
absor
absorber
abstrakt
abu
aby
ac
academ
academy
acc
accel
acceler
accent
accep
accept
acceptabelt
acceptans
acceptera
accepterade
accepterar
accepteras
accepterat
access
accessoarer
account
ace
ach
ack
acklig
ackliga
ackligt
ackompan
ackord
ackrediter
ackumul
ackumulerade
acne
act
action
active
ad
ada
adam
adams
adapt
adapter
adcirca
add
address
ade
adekv
adekvat
adel
adels
adhd
adidas
adlibris
admin
administr
administrat
administration
administrativ
administrativa
administrativt
administrator
administrera
ado
adobe
adol
adolf
adoos
adop
adopt
adr
adren
adress
adressen
adresser
adrian
ads
adult
advan
advent
advok
advokat
advokater
aer
af
aff
affar
affaren
affarer
affarerna
affars
affarside
affarsman
affarssystem
affarsutveckling
affili
affiliate
affisch
affischer
afg
afghan
afghanistan
afr
afrika
afrikansk
afrikanska
afro
afs
after
afton
aftonbladet
ag
aga
again
agande
agar
agare
agaren
agarna
agde
age
agen
agenda
agendan
agent
ager
agera
agerande
agerar
agerat
agg
aggen
agget
aggress
aggressiv
aggressiva
agil
agility
agna
agnade
agnar
agnas
agnat
agnes
agnet
agneta
ago
agod
agr
ags
agt
ah
aha
ahh
ahhh
ahl
ahlens
ahor
ai
aik
ain
air
aires
airport
aj
aja
ak
aka
akade
akadem
akademi
akademien
akademiker
akademin
akademisk
akademiska
akare
ake
aker
akers
akesson
akl
aklagare
aklagaren
akryl
akt
akta
akte
akten
aktenskap
aktenskapet
akter
aktie
aktieagare
aktieagarna
aktiebolag
aktiek
aktiem
aktien
aktier
aktierna
akties
aktiespar
aktion
aktiv
aktiva
aktiver
aktivera
aktiverar
aktiveras
aktiverat
aktivering
aktivitet
aktiviteten
aktiviteter
aktiviteterna
aktivt
aktor
aktorer
aktorerna
aktu
aktuell
aktuella
aktuellt
akup
akupunkt
akust
akut
akuta
akuten
akvar
akvare
akvarell
akvarium
al
ala
alan
aland
alands
alar
alarm
alb
alban
albert
albin
album
albumet
ald
alder
alderdom
aldern
alders
aldr
aldrande
aldrar
aldrarna
aldre
aldreboende
aldreomsorg
aldreomsorgen
aldrig
aldsta
aldste
ale
alert
alex
alexand
alexander
alexandra
alf
alfa
alfons
alfred
alg
algar
alger
algeriet
algorit
ali
alice
alicia
alien
alig
alingsas
alk
alko
alkohol
all
alla
allafall
allah
allan
allas
alldeles
alle
allehanda
allen
aller
allerg
allergi
allergier
allergisk
alli
allians
alliansen
allierade
allih
allihop
allihopa
allm
allman
allmanhet
allmanheten
allmanhetens
allmann
allmanna
allmant
allra
allround
alls
allsang
allsvenska
allsvenskan
allt
alltefter
alltfor
alltid
alltifran
alltih
alltihop
allting
alltjamt
alltmer
alltsa
allvar
allvarlig
allvarliga
allvarligt
alm
alma
alman
almed
almedalen
aloe
alp
alperna
alpha
als
alsk
alska
alskad
alskade
alskar
alskare
alskat
alskling
alsklingen
also
alster
alt
alta
altan
altanen
altar
altern
alternativ
alternativa
alternativen
alternativet
alternativt
alto
alumin
aluminium
alv
alva
alvar
alvedon
alven
alvsjo
always
am
ama
amal
amanda
amar
amat
amate
amateur
amator
amatorer
amatorporr
amatorsex
amazing
amazon
amb
ambass
ambassad
ambassaden
ambassador
ambet
ambit
ambition
ambitionen
ambitioner
ambul
ambulans
amer
america
american
amerik
amerika
amerikan
amerikaner
amerikansk
amerikanska
amerikanske
amerikanskt
amf
aminos
amir
amma
ammun
amne
amnen
amnena
amnes
amnet
amning
amor
amorter
amortering
amp
amster
amsterdam
amy
an
ana
anal
analog
analsex
analt
analy
analys
analysen
analyser
analysera
analyserar
analyseras
analyt
analytics
analytiker
anam
ananas
anar
anark
anat
anbud
anbuds
and
anda
andam
andamal
andamalet
andamalsen
andan
andar
andas
ande
andel
andelar
andelen
anden
ander
anders
anderson
andersson
andetag
andlig
andliga
andning
andnings
andra
andrad
andrade
andrades
andrahand
andrar
andras
andrasprak
andrat
andrats
andre
andrea
andreas
andrew
andring
andringar
andringarna
andringen
android
andy
anette
anfall
anfor
anfort
ang
anga
angaende
angar
ange
angel
angelagen
angelaget
angeles
angelholm
angelica
angen
anger
angerratt
anges
angest
angesten
angett
angiv
angiven
angivet
angivna
anglar
angra
angrans
angransande
angrar
angrepp
angrip
anhangare
anhor
anhorig
anhoriga
anim
animal
anime
animerade
aning
aningen
anita
ank
anka
ankar
anklag
ankn
anknytning
ankomst
anl
anlagg
anlagga
anlaggning
anlaggningar
anlaggningen
anlaggnings
anlaggningstillgangar
anlande
anlander
anlant
anled
anledning
anledningar
anledningarna
anledningen
anlit
anlita
anlitar
anm
anmal
anmala
anmalan
anmalda
anmalde
anmaler
anmalning
anmalningar
anmalnings
anmalt
anmark
anmarkning
anmarkningar
anmarknings
anmarkningsvart
ann
anna
annan
annans
annanstans
annars
annas
annat
anne
anneli
annelie
annica
annie
annika
annon
annons
annonsen
annonser
annonsera
annonsering
annorlunda
annu
anonym
anonyma
anonymt
anor
anord
anordna
anordnade
anordnar
anordnas
anpass
anpassa
anpassad
anpassade
anpassar
anpassas
anpassat
anpassning
anpassningar
anrika
ans
ansag
ansags
anse
anser
anses
ansetts
ansikt
ansikte
ansikten
ansiktet
ansikts
ansiktsbehandling
ansiktsmask
anskaff
ansl
anslag
anslagstav
anslot
anslut
ansluta
ansluten
ansluter
anslutna
anslutning
anslutningar
ansok
ansoka
ansokan
ansoker
ansokning
ansokningar
ansoknings
ansokt
ansprak
anstall
anstalla
anstalld
anstallda
anstallde
anstalldes
anstallning
anstallningar
anstallningen
anstallnings
anstand
anstr
anstrang
anstranga
anstrangning
anstrangningar
ansvar
ansvara
ansvarar
ansvaret
ansvarig
ansvariga
ansvarsfullt
ansvarstagande
ant
anta
antag
antagande
antagen
antagligen
antagna
antagning
antal
antalet
antar
antarktis
antas
anteck
anteckningar
antecknings
antenn
anth
anti
antib
antibiot
antibiotika
antik
antika
antingen
antioxid
antioxidanter
antis
antisem
antisemit
antiv
antligen
antog
antogs
anton
antonio
antrop
antyder
anv
anvand
anvanda
anvandande
anvandandet
anvandar
anvandare
anvandaren
anvandarens
anvandarna
anvandarnamn
anvandarvillkor
anvandas
anvandbar
anvandbara
anvandbart
anvande
anvander
anvandes
anvandning
anvandningen
anvandningsomraden
anvands
anvant
anvants
anvis
anvisningar
any
ap
apa
apart
apels
apelsin
api
apos
apost
apotek
apoteket
app
appar
apparat
apparaten
apparater
appel
appen
appl
applader
apple
applen
apples
applet
applic
applicera
appliceras
applikation
applikationer
appro
apps
apr
april
apro
apropa
apt
aptit
aq
aqu
aqua
ar
ara
arab
arabisk
arabiska
aran
aratal
arb
arbet
arbeta
arbetade
arbetande
arbetar
arbetare
arbetarklass
arbetarna
arbetat
arbete
arbeten
arbetet
arbetets
arbets
arbetsdag
arbetsdagar
arbetsdomstolen
arbetsfor
arbetsformed
arbetsformedlingen
arbetsgiv
arbetsgivar
arbetsgivare
arbetsgivaren
arbetsgivarna
arbetsgrupp
arbetsgruppen
arbetskamrater
arbetskraft
arbetslag
arbetsliv
arbetslivet
arbetslos
arbetslosa
arbetsloshet
arbetslosheten
arbetsm
arbetsmark
arbetsmarknad
arbetsmarknaden
arbetsmarknads
arbetsmilj
arbetsmiljo
arbetsmiljon
arbetsmiljoverket
arbetsplats
arbetsplatsen
arbetsplatser
arbetss
arbetssatt
arbetssokande
arbetst
arbetstagare
arbetstagaren
arbetstid
arbetstillfallen
arbetsuppgifter
arbetsuppgifterna
arbetsutskott
arboga
arc
arch
are
area
areal
arean
aren
arena
arenan
arende
arenden
arendet
arens
aret
arets
arft
arg
arga
argang
argent
argentina
argument
argumenter
argumentera
argumentet
arhund
arhundraden
arig
ariga
arige
aring
aringar
aringen
arist
ark
arke
arkebiskop
arkeologiska
arkitekt
arkitekten
arkitekter
arkitektur
arkiv
arkiver
arkivet
arla
arlanda
arlig
arliga
arligen
arligt
arm
armar
armarna
armat
armband
arme
armen
arn
arne
aro
arom
aron
around
arr
arrang
arrangemang
arrangemanget
arrangera
arrangerade
arrangerades
arrangerar
arrangeras
arrangerat
arrangor
arrangoren
arrangorer
arrangorerna
arro
arrond
arrondiss
arrondissementet
arroyo
ars
arsaldern
arsdag
arsen
arsenal
arsju
arsjubileum
arskurs
arskurserna
arsm
arsmedel
arsmedeltemperaturen
arsmote
arsmotet
arsn
arsnederbord
arsredovis
arsredovisning
arsredovisningen
arsskiftet
arsstamman
arsta
arstid
arstiden
arstider
art
arten
artens
arter
arterna
arthur
artific
artik
artikel
artikeln
artikelnummer
artiklar
artiklarna
artill
artion
artionden
artist
artisten
artister
artisterna
arton
arts
artvaxtart
artvaxter
arv
arvet
arvid
arvika
arvode
as
asa
asc
asch
asf
asfalt
ash
ashley
asian
asiat
asiatisk
asiatiska
asido
asien
asikt
asikter
ask
aska
askad
askadare
askan
askers
asp
aspekt
aspekter
asper
ass
assa
assist
assistans
assistent
associ
association
assyr
ast
astad
astadkomma
aster
asteroid
astma
astr
astrid
astro
astronom
asyl
asylsokande
at
ata
atagande
ataganden
atal
atalas
atanke
atar
atas
ate
atel
atelje
aten
ater
ateranvand
aterbesok
aterbetal
aterbetala
aterbetalas
aterbetalning
aterbetalningar
aterbetalnings
aterf
aterfinns
aterforsaljare
aterfukt
aterga
aterhamt
aterhamta
aterhamtning
aterigen
aterin
aterkall
aterkalla
aterkom
aterkomma
aterkommande
aterkommer
aterkomst
aterkoppling
aterskapa
aterspeg
aterstaende
aterstall
aterstalla
aterstar
aterupp
aterv
atervand
atervanda
atervande
atervander
atervin
atervinning
atervinnings
atgard
atgarda
atgardas
atgarden
atgarder
atgarderna
atit
atkomst
atl
atlant
atlanten
atlas
atlet
atmin
atminstone
atmos
atmosfar
atmosfaren
atn
atom
ats
atskill
atskilliga
att
atta
attack
attacken
attacker
attity
attityd
attityder
attonde
attrah
attrahera
attrakt
attraktion
attraktioner
attraktiv
attraktiva
attraktivt
attribut
au
aud
audi
audio
auf
aug
august
augusti
aukt
auktion
auktioner
auktor
auktoriserad
auktoriserade
auktoritet
aur
aus
aust
austr
austral
australia
australien
australiens
aut
autent
author
autism
auto
autog
autom
automat
automatik
automation
automatis
automatisk
automatiska
automatiskt
autonom
autonoma
av
ava
available
avanc
avancerad
avancerade
avancerat
avbetalning
avbetalningar
avbild
avbok
avbr
avbrott
avbryt
avbryta
avd
avdel
avdelning
avdelningar
avdelningen
avdelnings
avdrag
avdraget
avel
avels
aven
avent
aventyr
aventyret
avesta
avfall
avfar
avfard
avga
avgang
avgar
avgas
avger
avgift
avgiften
avgifter
avgifterna
avgjordes
avgor
avgora
avgorande
avgoras
avgors
avgrans
avhandling
avis
avkast
avkastning
avkastningen
avklar
avklarad
avkopp
avkopplande
avkoppling
avl
avlag
avlagsn
avlagsna
avled
avlid
avlidit
avlon
avloningsdag
avlopp
avn
avnjuta
avok
avokado
avratt
avresa
avrin
avrinningsom
avrinningsomradet
avrund
avs
avsag
avsak
avsaknad
avsatta
avse
avsedd
avsedda
avseende
avseenden
avser
avses
avsett
avsevart
avsikt
avsikten
avsk
avskaff
avskaffa
avskarm
avsked
avskil
avskrack
avskrivningar
avskyr
avsl
avslag
avslapp
avslappnad
avslappnande
avslappnat
avslappning
avsloj
avsloja
avslojade
avslojar
avslojas
avslut
avsluta
avslutad
avslutade
avslutades
avslutande
avslutar
avslutas
avslutat
avslutning
avslutningen
avslutningsvis
avsnitt
avsnitten
avsnittet
avspeg
avst
avsta
avstand
avstandet
avstang
avstangd
avstangning
avstar
avsug
avsugning
avsugningar
avt
avtack
avtag
avtal
avtalet
avtryck
avund
avundsjuk
avundsjuka
avvag
avvakt
avvakta
avvatt
avvattnar
avveck
avveckling
avverk
avvik
avvikande
avvikelse
avvikelser
avviker
avytt
aw
award
awards
away
awesome
ax
axel
axeln
axelsson
axlar
axlarna
ay
az
a¤r
b2
ba
bab
babb
babe
babes
baby
babys
bac
bacc
baccarat
back
backa
backar
backarna
backe
backen
backpage
backup
bacon
bad
bada
badade
badar
badat
badd
badda
baddar
bade
badet
badkar
badkaret
badoo
badrum
badrummet
badrums
bag
bagage
bagaget
bagar
bageri
bagge
bah
baj
bajs
bak
baka
bakade
bakar
bakat
baken
baker
bakgrund
bakgrunden
bakgrunder
bakgrunds
bakgrundsbilder
bakifran
bakning
bakom
bakomliggande
bakplat
bakplatspapper
bakpulver
bakre
baksida
baksidan
bakt
bakteri
bakterier
bakverk
bal
balans
balansen
balansera
balanserad
balansrakning
balen
balett
bali
balkon
balkong
balkongen
balkonger
ball
baller
ballong
ballonger
balsam
balt
balte
baltiska
bam
bambu
bamse
ban
bana
banan
bananer
banbrytande
band
banden
bandet
bandets
bandy
bang
bangkok
banglades
bank
bankar
banken
bankens
banker
bankerna
bankgiro
bankid
bankkonto
bankkort
banklan
banks
bann
banor
banorna
bant
bapt
bar
bara
barande
baras
barat
barb
barbar
barbara
barber
barbro
barcel
barcelona
bare
baren
barer
barfota
bark
barn
barna
barnbarn
barnbok
barndom
barndomen
barnen
barnens
barnet
barnets
barnfamiljer
barnkalas
barnklader
barnkon
barnmor
barnmorska
barnmorskan
barnomsorg
barnrum
barns
barnvagn
barnvakt
barr
barrskog
bars
bart
bas
base
basen
baserad
baserade
baserar
baseras
baserat
basic
basil
basilika
basis
bask
basket
bass
bast
basta
bastad
baste
bastu
bastun
bat
batalj
batar
batarna
baten
bath
batman
batt
batter
batteri
batterier
batterierna
batteriet
battle
battre
bau
bay
bayern
bb
bbc
bbw
bc
bd
bdsm
be
bea
beach
beakt
beakta
beaktande
beaktas
bear
bearbet
bearbeta
bearbetning
beat
beatles
beaut
beautiful
beauty
beb
bebis
bebisar
bebisen
bebygg
bebyggelse
bebyggelsen
beck
bed
bedom
bedoma
bedomas
bedomer
bedomning
bedomningar
bedomningen
bedomnings
bedoms
bedrag
bedragare
bedrageri
bedriv
bedriva
bedrivas
bedriver
bedrivs
bedrov
been
beer
bef
befal
befann
befar
befatt
befattning
befinna
befinner
befint
befintlig
befintliga
befintligt
befogenheter
befolk
befolkning
befolkningen
befolknings
befolkningsutveckling
before
befri
befrukt
beg
bega
begag
begagnad
begagnade
begagnat
begar
begara
begaran
begart
begatt
begav
bege
beger
begrans
begransa
begransad
begransade
begransar
begransas
begransat
begransning
begransningar
begrav
begravning
begravnings
begrepp
begreppen
begreppet
begrip
begripa
begrunda
begynn
beh
behag
behaglig
behagligt
behall
behalla
behallare
behaller
behand
behandla
behandlad
behandlade
behandlar
behandlas
behandlat
behandlats
behandling
behandlingar
behandlingen
behandlings
behar
beharskar
beholl
behor
behorig
behoriga
behorighet
behov
behova
behovas
behovde
behovdes
behoven
behover
behovet
behovs
behovt
beige
bek
bekamp
bekampa
bekampning
bekampningsmedel
bekan
bekann
bekant
bekanta
bekantskap
beklag
beklagar
bekostnad
bekraft
bekrafta
bekraftade
bekraftar
bekraftas
bekraftat
bekraftelse
bekvam
bekvama
bekvamlighet
bekvamligheter
bekvamt
bekym
bekymmer
bel
belag
belagen
belaget
belagg
belaggning
belagna
belast
belastning
belg
belgi
belgien
bell
bella
belle
belon
belona
belonas
beloning
beloningar
belopp
beloppet
belys
belysa
belyser
belysning
belysningen
bem
beman
bemanning
bemark
bemarkelse
bemot
bemota
bemotande
bemynd
ben
benagna
benam
benamn
benamning
benamningen
benamns
benen
benet
beng
bengt
bengtsson
benj
benjamin
benny
bens
bensin
bent
benz
beord
beprov
beprovad
ber
berak
berakna
beraknad
beraknade
beraknar
beraknas
beraknat
berakning
berakningar
berakningen
beratt
beratta
berattade
berattande
berattar
berattas
berattat
berattelse
berattelsen
berattelser
berattelserna
berattig
berattigad
berattigade
bered
beredd
beredda
beredning
beredskap
berg
bergen
berget
bergig
berglund
bergman
bergs
bergspass
bergstopp
bergstrom
berik
berlin
bern
bero
berodde
beroende
berom
beromd
beromda
beror
berord
berorda
beroring
berors
bert
bertil
berus
berusad
bes
besatt
besattningen
beseg
besegra
besegrade
besikt
besiktning
besitt
besitter
besk
beskada
beskar
beskatt
beskattning
besked
beskedet
beskrev
beskrevs
beskriv
beskriva
beskrivas
beskriver
beskrivit
beskrivna
beskrivning
beskrivningar
beskrivningen
beskrivs
beskydd
besl
beslag
beslot
beslut
besluta
beslutade
beslutades
beslutande
beslutar
beslutas
beslutat
besluten
beslutet
besluts
beslutsfattare
beslutsunderlag
besok
besoka
besokare
besokaren
besokarna
besoker
besoket
besoks
besoksadress
besoksn
besokt
besokte
bespar
besparingar
best
besta
bestaende
bestall
bestalla
bestallare
bestallaren
bestallas
bestallde
bestaller
bestallning
bestallningar
bestallningen
bestallnings
bestallt
bestam
bestamd
bestamda
bestamde
bestamm
bestamma
bestammelse
bestammelsen
bestammelser
bestammelserna
bestammer
bestams
bestamt
bestand
bestands
bestar
bestatt
bestick
bestod
bestr
bestraff
besvar
besvara
besvarade
besvaras
besvarligt
besvik
besvikelse
besviken
besvikna
bet
beta
betal
betala
betalade
betalar
betalas
betalat
betalats
betald
betalda
betalkort
betalning
betalningar
betalningen
betalnings
betalningsanmark
betalningsanmarkning
betalningsanmarkningar
betalt
betank
betankande
bete
beteck
betecknas
beteckning
beteckningen
beteende
beteenden
beteendet
beter
betes
betjan
beton
betonar
betong
betraff
betraffande
betrakt
betrakta
betraktar
betraktas
betsson
bett
better
betting
bety
betyd
betyda
betydande
betydde
betydelse
betydelsef
betydelsefull
betydelsefulla
betydelsen
betydelser
betyder
betydligt
betyg
betyget
betytt
beund
beundrar
bev
bevak
bevaka
bevakning
bevap
bevar
bevara
bevarade
bevarande
bevaras
bevilj
bevilja
beviljade
beviljas
beviljat
beviljats
bevis
bevisa
bevisar
bevisat
bevitt
bey
bez
bf
bh
bi
bian
biart
bibe
bibehalla
bibel
bibeln
bibl
bibli
bibliote
bibliotek
bibliotekar
biblioteken
biblioteket
bid
bidr
bidra
bidrag
bidragande
bidragen
bidraget
bidragit
bidrags
bidrar
bidrog
bie
bieber
bif
bifall
biff
bifl
biflodes
biflodesordning
bifog
bifoga
bifogade
bifogas
big
bik
bikini
bil
bilaga
bilagor
bilar
bilarna
bild
bilda
bildade
bildades
bildandet
bildar
bildas
bildat
bildats
bildelar
bilden
bilder
bilderna
bildning
bildt
bilen
bilens
bilhandlare
bilister
bilj
biljett
biljetter
biljetterna
bill
billan
billig
billiga
billigare
billigast
billigaste
billigt
billy
bilmarken
bilresa
bilsal
biltillverk
biltillverkare
bim
bin
bind
binda
bindande
binder
bing
bingo
bio
biod
biog
biogas
biograf
biografi
biologi
biologisk
biologiska
biologiskt
biom
bion
bios
bip
bir
birg
birger
birgitta
birth
bis
bisar
bisex
bisexuell
biskop
bist
bista
bistand
bit
bita
bitar
bitarna
bitco
bitcoin
biten
biter
bitradande
bitt
bitter
bitti
bitvis
biverk
biverkningar
bj
bjar
bjod
bjods
bjor
bjork
bjorkl
bjorklund
bjorn
bjud
bjuda
bjuden
bjuder
bjudit
bjudna
bjuds
bjur
bk
bl
bla
blaa
blabar
black
blackjack
blad
bladdra
bladen
bladet
blak
blam
blan
blanc
blancolan
bland
blanda
blandad
blandade
blandar
blandare
blandas
blandat
blandning
blandningen
blandskog
blank
blanka
blankett
blanketten
blanketter
blas
blasa
blaser
blasigt
blast
blaste
blatt
blav
ble
blek
bleka
blekinge
blev
bli
blick
blicka
blickar
blicken
blind
blink
blinkar
blir
blivande
blivit
blix
blixt
blixten
blo
block
blockera
blocket
blod
blodcirkul
blodet
blodprov
blodsocker
blodtryck
blog
blogg
blogga
bloggade
bloggande
bloggandet
bloggar
bloggare
bloggat
bloggen
blogginlagg
blogspot
blom
blomm
blomma
blomman
blommar
blommor
blommorna
blomster
blond
blonda
blonde
blondin
blood
bloom
bloss
blot
blota
blott
blotta
blow
blowjob
blu
blue
blues
bluet
bluetooth
bluff
blund
blunda
blus
bly
blyg
bm
bmw
bn
bnp
bo
board
bob
bock
bocker
bockerna
bod
boda
bodde
boden
body
boende
boenden
boendet
bog
bogota
boh
bohus
bohuslan
bois
boj
boja
bok
boka
bokad
bokade
bokar
bokas
bokat
boken
bokens
bokfor
bokforing
bokmark
bokmassan
bokning
bokningar
bokningen
boknings
bokslut
boksta
bokstav
bokstaven
bokstaver
bokstaverna
bokstavligen
bokstavligt
bokt
bokus
bol
bolag
bolagen
bolaget
bolagets
bolags
bolan
boliv
bolivia
boll
bollar
bollen
bollnas
bom
bomb
bomber
bomull
bon
bond
bondag
bondage
bonde
bonden
bonder
bonderna
bong
bonn
bonnier
bonniers
bonor
bonus
bonusar
bonusen
bonusk
boob
boobs
book
booli
boost
boot
boots
booty
bop
bor
boras
bord
borde
borden
border
bordet
bords
bordsspel
boreala
borg
borgar
borgen
borgenarer
borger
borgerliga
borj
borja
borjade
borjan
borjar
borjat
borje
borlange
born
borr
borra
bors
borsen
borst
borsta
borstar
bort
borta
bortamatch
bortaplan
bortgang
bortglom
bortom
bortse
bortser
bortsett
bortskam
bortskamd
bortt
bos
bosatt
bosatta
bosatte
bosch
bosnien
boss
bosse
bost
bostad
bostaden
bostader
bostads
bostadsbygg
bostadshus
bostadslan
bostadsmarknaden
bostadsomrade
bostadsratt
bostadsratter
bostadsrattsforening
bostadsrattsforeningen
boston
bot
bota
botan
botaniska
bote
boter
botkyrka
bott
botten
bottenvaningen
bottnar
bou
boule
bour
boverket
bow
bowling
box
boxen
boy
boys
bp
br
bra
brack
bracksteklar
brad
bradskande
brak
braka
brakar
bran
brand
brande
branden
brander
brandman
brandskydd
brann
branna
brannande
branner
bransch
branschen
branschens
branscher
bransl
bransle
branslen
branslet
brant
branta
brasil
brasilia
brasilianska
brasilien
bratt
brattom
bre
break
breakfast
bred
breda
bredare
bredband
bredd
bredda
bredden
bredvid
brett
brev
brevet
brevid
brevladan
brf
brian
bricka
brid
bridge
bright
brilj
bring
brinna
brinnande
brinner
bris
brisbane
brist
bristande
bristen
brister
bristfall
brit
brita
british
britt
brittisk
brittiska
bro
broad
broar
brocc
broccoli
brod
broder
brodern
broderna
brodet
brok
brokparasit
brokparasitsteklar
brollop
brollopet
brollops
brom
bromma
broms
bromsa
bromsar
bron
brons
brook
bror
brors
brorsan
brosch
broschyr
brost
brostcancer
brosten
brostet
brostvart
brostvartor
brot
broth
brother
brott
brottas
brottet
brotts
brottslighet
brow
brown
browser
bru
bruce
brud
brudar
bruk
brukade
brukar
brukare
bruket
bruks
bruksan
bruksanvisning
brun
bruna
brunch
brunett
brunn
bruno
brunt
brus
brut
brutal
brutalt
bruten
brutit
brutt
bry
brydde
brygg
brygga
bryggan
brygger
bryn
brynas
bryr
bryssel
bryt
bryta
bryter
bryts
bt
btw
bu
bubb
bubbel
bubbla
buck
bucks
bud
budapest
budd
buddh
budget
budgeten
budskap
budskapet
buen
buenos
buff
buffe
buffert
bug
bugg
building
buk
bukett
bukt
bul
bulgar
bulgarien
buljong
bull
bullar
buller
bult
bun
bund
bunden
bundna
bung
bunke
bunt
bur
bure
buren
burit
burk
burkar
burken
burn
bus
busa
bush
business
busk
buskar
busklandskap
buss
bussar
bussarna
bussen
busshall
bust
busty
but
butik
butiken
butiker
butikerna
butt
butter
buy
bvc
by
byar
byarna
byg
bygde
bygden
bygg
bygga
byggande
byggandet
byggar
byggarbet
byggas
byggd
byggda
byggde
byggdes
bygge
bygger
bygget
byggher
bygglov
byggnad
byggnaden
byggnadens
byggnader
byggnaderna
byggnads
byggnadsnamnden
byggprojekt
byggs
byggt
byggts
byn
byr
byra
byrakrat
byran
byst
byt
byta
bytas
byte
byten
byter
bytet
byts
bytt
bytte
byttes
byx
byxor
byxorna
ca
cach
cad
cafe
cafeer
cal
cali
califor
california
call
calle
calv
cam
camilla
camp
camping
campingen
campus
cams
can
canada
canc
cancer
cand
cann
canna
cannabis
canon
cant
cap
capit
capital
car
cara
card
care
carin
carina
carl
carlos
carlsson
carne
carol
carola
carolina
caroline
carro
cart
cartoon
cas
casa
case
cash
casin
casino
casinob
casinon
casinos
casinospel
casinot
cass
cast
castle
casual
casumo
cat
catalog
catalogue
categor
category
catering
catharina
cav
cb
cc
cd
ce
cec
cecilia
ceder
cel
cele
celebr
cell
celler
cellerna
cellul
cement
cen
cens
censur
cent
center
centern
centerpartiet
centimeter
centr
central
centrala
centralbyran
centralen
centralt
centre
centrum
cer
ceremon
cerro
cert
certifier
certifierad
certifierade
certifiering
certifikat
cet
cf
ch
cha
chal
challen
challenge
chalmers
cham
champ
champagne
champion
champions
chan
chang
change
chann
channel
chans
chansen
chanser
chanserna
chap
char
chara
charac
chark
charl
charles
charlie
charlotta
charlotte
charm
charmig
charmiga
charmigt
charter
chass
chat
chatt
chatta
chatten
chattrum
chauffor
che
check
checka
checklista
chef
chefen
chefer
chefredaktor
chefs
chelse
chelsea
chen
cher
cherry
chesh
cheshmeh
chev
chi
chia
chic
chicago
chil
child
children
chile
chili
chill
chilla
chin
china
chip
chips
cho
chock
chockad
choice
chok
choklad
chokladen
chr
chris
christ
christer
christian
christina
christine
christmas
christoffer
christop
christopher
chrome
chrys
church
ci
cia
cialis
cider
cigar
cigarett
cigaretter
cigg
cin
cir
cirk
cirka
cirkel
cirkeln
cirklar
cirkul
cirkulation
cirkus
cit
citat
citer
citera
citr
citron
citrus
city
civ
civil
civila
civilingenjor
ck
cl
cla
claes
clar
clara
clark
clas
class
classic
claud
cle
clean
clear
clem
click
client
clin
clinton
clip
clips
clo
clos
close
cloud
club
cm
cn
co
co2
coach
coaching
cob
coca
cock
cocktail
cod
code
coffe
coffee
col
cola
cold
coll
colle
collected
collection
college
colomb
colombia
color
colorado
columb
columbia
com
come
comeback
comfort
comics
comm
comment
comments
commons
commun
communic
community
comp
compan
company
compl
computer
con
concept
cond
conne
connect
conny
cons
consult
cont
conta
contact
container
content
contest
contin
continue
control
converse
cook
cookie
cookies
cool
coola
coolt
coop
cop
copen
copenhagen
copyr
copyright
cor
cord
core
corn
corp
corpor
cos
cost
costa
cott
cou
cougar
could
coun
count
country
county
countyt
coup
cour
court
cover
cow
cp
cr
cra
craft
craig
crazy
cre
cream
creamp
creampie
creative
cred
credit
creek
creme
crist
cro
cross
crow
cru
cruz
cry
crypt
cs
csn
ct
cu
cub
cuck
cuckold
cul
cult
cum
cumshot
cup
cupc
cupen
cur
curry
curt
cust
custom
cut
cv
cy
cyan
cyber
cyk
cykel
cykeln
cykl
cykla
cyklade
cyklar
cykling
cyklister
cylin
cylinder
cyn
cypern
cyr
cyt
da
dack
dacken
dacket
dad
dag
dagar
dagarna
dagars
dagbladet
dagbok
dagen
dagens
dagg
dagis
daglig
dagliga
dagligen
dagligt
dagordningen
dags
dagslaget
dagsljus
dagstid
dagtid
dagvatten
dahl
daily
daisy
dal
dala
dalarna
dalarnas
dalen
dalig
daliga
daligt
dall
dallas
dam
damen
damer
damerna
damernas
damm
dammen
damms
dammsu
dammsug
dammsuga
dammsugare
damp
dampa
dan
dance
dander
danderyd
dani
daniel
danielsson
danmark
danmarks
dann
danne
danny
dans
dansa
dansade
dansar
dansare
dansband
dansen
dansk
danska
danske
dar
dara
darav
dare
darefter
daremellan
daremot
darfor
dari
daribland
darifran
darigenom
dark
darmed
darpa
darreh
dart
dartill
darute
darutover
darvid
das
dat
data
datab
databas
databasen
databaser
datainspektionen
datak
datan
datas
dataskydd
dataskyddsfor
dataskyddsforordning
datat
date
dating
datings
datingsida
datingsidor
dator
datorer
datorn
datum
datumet
davarande
david
davis
dawn
dax
day
days
db
dc
dd
de
dead
deadline
deal
dealer
death
deb
debatt
debattartikel
debatten
debatter
debiter
debiteras
debut
debutalbum
debuterade
dec
december
decenn
decennier
decennium
deckar
deckare
ded
dedik
dee
deep
def
defa
defekt
defens
defin
definiera
definierar
definieras
definit
definition
definitionen
definitioner
definitivt
deg
degen
deger
degerfors
dej
dejt
dejta
dejtar
dejtat
dejten
dejter
dejting
dejtingapp
dejtingprogram
dejtingsa
dejtingsajt
dejtingsajten
dejtingsajter
dejtingsida
dejtingsidan
dejtingsidor
dejtingsidorna
dek
deklar
deklaration
dekor
dekoration
dekorationer
dekorera
del
dela
delad
delade
delades
delagare
delakt
delaktig
delaktiga
delaktighet
delar
delarna
delars
delarsrapport
delas
delat
delav
delavrin
delavrinningsomrade
deleg
delegation
deleger
delen
delhi
delikat
dell
delmal
dels
delst
delstaten
delstats
delstatshuvudstaden
delt
delta
deltag
deltagande
deltagare
deltagaren
deltagarna
deltagit
deltar
deltav
deltid
deltog
delux
deluxe
delvis
dem
demen
demens
demo
demokrat
demokrati
demokratin
demokratisk
demokratiska
demokratiskt
demon
demonstr
demonstration
den
denna
denne
dennes
dennis
dens
densamma
dep
depa
depart
departementet
depon
depp
depress
depression
deprim
deprimerad
der
deras
derby
deriv
des
desa
desamma
desig
design
designa
designad
designade
designat
designen
designer
designers
desper
desperat
dess
dessa
dessert
dessfor
dessforinnan
dessutom
dessvarre
dest
destill
destin
destination
destinationer
desto
destrukt
det
deta
detalj
detaljer
detaljerad
detaljerade
detaljerna
detaljplan
detaljplanen
detroit
detsamma
detta
deut
deutsch
dev
devel
develop
development
dh
di
dia
diabet
diabetes
diag
diagnos
diagnosen
diagnoser
diagnost
diagnostik
diagon
diagram
diagrammet
dial
dialekt
dialog
dialogen
diam
diamant
diameter
diamond
diana
diar
diarre
dic
dick
did
die
diego
dies
diesel
diet
dif
diff
differ
different
dig
digit
digital
digitala
digitalisering
digitaliseringen
digitalt
dikt
diktatur
dikter
dil
dild
dildo
dildos
dilem
dilemma
dill
dim
dimension
dimensioner
dimma
din
dina
ding
dinosaur
dipl
diplom
diplomat
dir
dire
direct
director
direkt
direkta
direktiv
direktivet
direktor
dirig
dirt
dirty
dis
disa
disc
discipl
disciplin
disco
discover
disk
diska
disken
diskmaskin
diskret
diskreta
diskrimin
diskriminering
diskuss
diskussion
diskussionen
diskussioner
diskussionerna
diskuter
diskutera
diskuterade
diskuterades
diskuterar
diskuteras
diskuterat
diskuterats
disney
disp
dispens
display
displayen
dispon
diss
dist
distans
distinkt
distr
distribu
distribut
distribution
district
distrikt
distriktet
distrikts
dit
dito
ditt
div
divers
diverse
division
divisionen
dj
djar
djav
djavul
djavulen
dje
djebel
dju
djung
djungel
djup
djupa
djupare
djupet
djupgaende
djupt
djur
djuren
djurens
djuret
djurgarden
djurskydd
dk
dl
dla
dm
dn
dna
dnr
do
doc
docent
dock
docka
dockor
doctor
dod
doda
dodade
dodades
dodar
dodas
doden
dods
dodsfall
does
doft
doftar
doften
dofter
dog
dogg
dok
dokt
doktor
doktorand
doktorn
dokument
dokumentar
dokumentaren
dokumentation
dokumentationen
dokumenter
dokumentera
dokumenterade
dokumenteras
dokumentet
dol
dold
dolda
dolj
dolja
doljer
doll
dollar
dom
doma
doman
domanen
domar
domare
domaren
domarna
domas
domd
domdes
domen
domer
domin
domina
dominans
dominant
dominerade
dominerande
dominerar
domineras
doms
domstol
domstolar
domstolen
domts
don
dona
donald
dong
dop
dopet
dopp
doppa
dopt
dor
doris
dorr
dorrar
dorrarna
dorren
dos
dosen
doser
dosering
dot
dott
dotter
dotterbolag
dottern
dottrar
double
doug
douglas
dov
dova
dow
down
downlo
download
dp
dr
dra
drabb
drabba
drabbade
drabbades
drabbar
drabbas
drabbat
drabbats
drack
drag
dragit
dragkedja
dragning
dragon
drak
drake
drakt
dram
drama
dramat
dramatisk
dramatiska
dramatiskt
dran
dranering
drap
drar
dras
drast
drastiskt
dre
dream
dress
dressyr
drev
dri
drick
dricka
dricker
dricksvatten
drift
driften
drink
drinkar
driv
driva
drivande
drivas
drive
driven
driver
drivit
drivkraft
drivmedel
drivs
dro
drog
droger
drogs
droj
droja
drojde
drojer
drojsmal
drom
dromde
dromm
dromma
drommar
drommen
drommer
dromt
dron
drop
dropp
droppar
dros
drott
drottning
drottningen
drottninggatan
druckit
drunk
druv
dry
dryck
drycker
dryg
dryga
drygt
ds
dt
du
dubai
dubb
dubbel
dubbelrum
dubbels
dubbelsang
dubbelt
dubbla
dublin
dude
dug
duga
duger
dugg
duk
dukar
duken
dukt
duktig
duktiga
duktigt
dum
dumm
dumma
dumt
dun
dunder
duo
duon
dur
dusch
duscha
duschade
duschar
duschat
duschen
duss
dussin
dv
dvar
dvarg
dvargstritar
dvd
dvs
dy
dyg
dygn
dygnet
dyk
dyka
dyker
dykt
dyl
dylan
dylikt
dyn
dynam
dynamisk
dynamiska
dyr
dyra
dyrare
dyraste
dyrt
dys
dysfunktion
dyster
e4
ea
ean
ear
earth
east
easy
eb
ebay
ebba
ebenhol
ebenholts
ebon
ebony
ec
eco
econom
ecu
ecuador
ed
eddie
eder
edge
edin
edit
edition
educ
education
edvard
edward
ees
ef
eff
effekt
effekten
effekter
effekterna
effektiv
effektiva
effektivare
effektivisera
effektivitet
effektiviteten
effektivt
efter
efterat
efterfolj
efterfoljande
efterfrag
efterfragan
efterfragar
efterfragas
efterhand
efterlangt
efterlangtad
efterlangtade
efterlev
efterlys
eftermiddag
eftermiddagen
efternamn
efterratt
eftersmak
eftersom
efterstra
eftertanke
eftertrad
eftertradare
eftertrakt
eg
egen
egendom
egendomen
egenskap
egenskaper
egenskaperna
egent
egentliga
egentligen
eget
egna
ego
egy
egypt
egypten
eh
ein
einar
ej
ek
eken
eker
ekero
ekip
ekipage
eklund
ekman
eko
ekologisk
ekologiska
ekologiskt
ekonom
ekonomi
ekonomin
ekonomisk
ekonomiska
ekonomiskt
ekosystem
ekot
eksem
eksjo
ekv
el
ela
elak
elaka
eland
elande
elast
elbil
elbilar
eld
elda
elden
elds
ele
elect
electric
elef
elefant
eleg
elegans
elegant
eleganta
elekt
elektr
elektric
elektricitet
elektriker
elektrisk
elektriska
elektro
elektrom
elektron
elektronik
elektronisk
elektroniska
elektroniskt
element
elen
elev
eleven
elevens
elever
eleverna
elevernas
elevers
elf
elfsborg
elg
eli
elias
elimin
eliminera
elin
elisa
elisabet
elisabeth
elit
elite
eliten
elits
elitserien
eliza
elizabeth
ell
ella
elle
ellen
eller
elliot
ellos
elm
elsa
elv
elva
elvis
em
email
eme
emelie
emellan
emellanat
emeller
emellertid
emer
emil
emilia
emily
emission
emitt
emma
emot
emp
empati
empir
en
ena
enas
enastaende
enbart
end
enda
endast
endaste
ende
endel
ending
ener
energ
energi
energianvandning
energide
energieffektiv
energik
energim
energin
energis
energy
eng
engag
engagemang
engagemanget
engagera
engagerad
engagerade
engagerande
engagerar
engagerat
engang
engel
engels
engelsk
engelska
engelskan
engine
engl
england
english
engstrom
enhet
enheten
enheter
enheterna
enhetlig
enhetschef
enjoy
enk
enkat
enkaten
enkel
enkelhet
enkelt
enkl
enkla
enklare
enklast
enklaste
enkoping
enl
enlighet
enligt
enor
enorm
enorma
enormt
ens
ensam
ensamhet
ensamkommande
ensamma
ensamstaende
ensamt
ensem
ensid
enskede
enskil
enskild
enskilda
enskilde
enskilt
enst
enstaka
ent
enter
entertainment
entiteten
entre
entren
entrepren
entreprenad
entreprenor
entreprenoren
entreprenorer
entreprenorskap
entusi
entusias
entusiasm
entusiast
entusiaster
envis
enz
enzym
ep
epic
epid
epile
epis
epok
epost
eq
equ
er
era
eran
erb
erbjod
erbjud
erbjuda
erbjudande
erbjudanden
erbjudandet
erbjudas
erbjuder
erbjudit
erbjuds
ere
erekt
erektion
erf
erfaren
erfarenhet
erfarenheten
erfarenheter
erfarna
erfor
erforder
erg
ergonom
erhall
erhalla
erhallas
erhaller
erhallit
erhallits
erholl
eric
erica
ericsson
erik
erika
eriks
eriksson
erin
erit
erk
erkande
erkanna
erkannande
erkanner
erkant
erland
ern
ernst
erot
erotic
erotik
erotisk
erotiska
erov
ersatt
ersatta
ersattare
ersattas
ersatte
ersatter
ersattes
ersattning
ersattningar
ersattningen
ersattnings
ersatts
ert
es
esc
escort
escorter
escorts
escortt
escorttjej
escorttjejer
esk
eskil
eskilst
eskilstuna
eskort
eskorter
eskorts
eskortt
eskorttjejer
eslov
esp
espan
espanol
espress
espresso
ess
essa
est
ester
estetiska
estland
et
eta
etabl
etablera
etablerad
etablerade
etablerat
etablering
etabliss
etanol
etapp
etc
eter
etik
etikett
etiketter
etiketterna
etiop
etiopien
etiska
etn
etnicitet
etnisk
etniska
ets
ett
etta
ettan
eu
eugen
eur
euro
europ
europa
europaparlam
europaparlamentet
europaparlamentets
europas
europe
european
europeisk
europeiska
europeiskt
eurovision
ev
eva
evaku
evangel
evel
evelina
even
evenemang
evenemanget
event
eventet
events
eventuell
eventuella
eventuellt
ever
every
evidens
evig
eviga
evighet
evigheter
evigt
evolution
ewa
ex
exakt
exakta
exam
examen
examens
examensarbete
examin
excel
excell
excellent
except
exek
exem
exempel
exempelvis
exempl
exemplar
exemplet
exist
existens
existera
existerande
existerar
exkl
exklu
exklus
exklusiv
exklusiva
exklusive
exklusivt
exot
exotiska
exp
expand
expandera
expans
expansion
exped
expedition
exper
experience
experim
experiment
experimenter
experimentera
expert
experter
expertis
expl
explo
exploat
exploatering
exploder
explorer
explos
expo
expon
exponering
export
exporter
express
expressen
ext
exter
extern
externa
externt
extra
extrakt
extre
extrem
extrema
extreme
extremt
ey
eye
f1
fa
fab
fabrik
fabriken
fabriker
fac
face
facebook
facebooksida
facil
faciliteter
facit
fack
facket
fackforbund
fackliga
fact
factor
fad
fader
fadern
fag
fagel
fageln
fager
fagersta
faglar
faglarna
fair
fak
fake
fakt
fakta
faktisk
faktiska
faktiskt
faktist
faktor
faktorer
faktorn
faktum
faktur
faktura
fakturan
fakturering
fakturor
fakult
fakulteten
fal
falgar
falk
falken
falkenberg
falkoping
fall
falla
fallande
fallen
faller
fallet
fallit
falls
false
falsk
falska
falskt
falt
falten
faltet
faltt
falu
falun
fam
familj
familje
familjehem
familjel
familjeliv
familjemedlem
familjemedlemmar
familjen
familjens
familjer
familjerna
family
famn
famnen
fan
fang
fanga
fangade
fangar
fangas
fangat
fangels
fangelse
fangelset
fangsl
fann
fanns
fanny
fans
fansen
fant
fantas
fantasi
fantasier
fantasif
fantasin
fantast
fantastisk
fantastiska
fantastiskt
fantasy
far
fara
faran
farbror
fard
fardas
farden
fardig
fardiga
fardighet
fardigheter
fardigt
fardtjanst
farfar
farg
farga
fargade
fargat
fargen
farger
fargerna
fargglada
fargmodellen
fargton
fargutrymmet
farja
farjan
farje
farjestad
farlig
farliga
farligt
farm
farma
farmor
faro
faror
farre
fars
farsk
farska
farskt
farsta
fart
farten
fartyg
fartyget
farval
fas
fasad
fasaden
fasc
fascin
fascination
fascinerad
fascinerande
fasen
faser
fashion
fast
fasta
fastan
faste
faster
fastighet
fastigheten
fastighetens
fastigheter
fastigheterna
fastighets
fastighetsagare
fastighetsagaren
fastighetsmak
fastighetsmaklare
fastlandet
fastna
fastnade
fastnar
fastnat
fasts
faststall
faststalla
faststallande
faststallas
faststalld
faststallda
faststaller
faststalls
faststallt
fat
fatal
fatol
fatolj
fatt
fatta
fattade
fattades
fattar
fattas
fattat
fattig
fattiga
fattigdom
fav
favor
favorit
favoriten
favoriter
fax
fb
fc
fd
fe
featur
feb
feber
febr
februari
fed
feder
federal
federala
feed
feedback
feel
feg
fej
fel
felakt
felaktig
felaktiga
felaktigt
felet
felicia
felix
fell
fels
fem
female
femin
feminism
feminist
feminister
feministiska
femma
femt
femte
femtio
femton
fen
fenomen
fenomenet
fer
ferdin
ferdinand
fern
ferr
ferrari
fert
fest
festa
festen
fester
festival
festivalen
festivaler
fet
feta
fetaost
fetisch
fetish
fetma
fett
fetter
fettet
fettsyr
fettsyror
ff
fff
fi
fia
fiber
fibr
fibrer
fick
ficka
fickan
fickor
fiction
fien
fiende
fienden
fiender
fient
fifa
fiff
fig
figh
fight
figur
figuren
figurer
fik
fika
fikade
fikar
fikat
fikt
fil
file
filen
filer
filip
filipp
filippa
filippinerna
fill
film
filma
filmade
filme
filmen
filmens
filmer
filmerna
filmin
filmklipp
films
filosof
filosofi
filosofiska
filt
filtar
filter
filtr
filtrera
filtret
fin
fina
final
finalen
finan
finance
finans
finansi
finansiell
finansiella
finansiellt
finansiera
finansieras
finansiering
finansieringen
finansierings
finansieringsalternativ
finansinspektionen
finansinstitut
finansminister
finare
finaste
find
fine
fing
finger
fingert
fingrar
fingrarna
fingret
finhack
finish
finland
finlands
finlandska
finlandssven
finn
finna
finnar
finnas
finner
finns
finsk
finska
finsp
fint
fiol
fir
fira
firade
firades
firande
firandet
firar
firas
firat
fire
firefox
firma
firman
first
fish
fisk
fiska
fiskar
fiskare
fiskarna
fiskart
fiske
fisken
fisker
fisket
fist
fit
fitness
fitt
fitta
fittan
fittor
five
fix
fixa
fixade
fixar
fixas
fixat
fj
fjad
fjader
fjadrar
fjall
fjallen
fjar
fjard
fjarde
fjardedel
fjaril
fjarilar
fjarilsart
fjarr
fjarran
fjarrkontroll
fjarrvarme
fjol
fjort
fjorton
fk
fl
fla
flack
flackar
flad
fladder
flag
flagg
flagga
flaggan
flaggor
flakt
flaktar
flakten
flam
flash
flashback
flask
flaska
flaskan
flaskor
flat
fle
flee
fleece
flem
flen
fler
flera
flerbostadshus
flertal
flertalet
flesh
fleshlight
flest
flesta
flex
flexi
flexibel
flexibelt
flexibilitet
flexibla
flick
flicka
flickan
flickor
flickorna
flickvan
flik
fliken
flin
fling
flip
flipp
flir
flirt
flirta
flis
flit
flitigt
flo
flock
flod
floda
flodar
flode
floden
flodet
flog
flor
flora
florida
flort
flot
flott
flottan
flow
flu
fluff
flug
flugor
fluor
fly
flydde
flyg
flyga
flygande
flygbolag
flyger
flyget
flygplan
flygplanet
flygplats
flygplatsen
flygplatser
flykt
flykting
flyktingar
flyr
flyt
flyta
flytande
flyter
flytt
flytta
flyttade
flyttades
flyttar
flyttas
flyttat
flytten
flyttstadning
fm
fn
fniss
fo
fobi
foc
focus
fod
foda
fodd
fodda
foddes
fodels
fodelse
fodelsed
fodelsedag
fodelsedagen
fodelsedags
fodelsedagspresent
foder
fodral
fods
fog
foga
fokus
fokusera
fokuserad
fokuserade
fokuserar
fokuserat
fol
folie
folj
folja
foljaktligen
foljande
foljare
foljas
foljd
foljde
foljder
foljdes
foljer
foljeslag
foljeslagare
foljs
foljt
folk
folkbok
folke
folket
folkets
folkhals
folkhog
folkhogskola
folkm
folkmord
folkmusik
folkom
folkpartiet
folks
folksam
folkt
foll
follow
fon
fond
fonden
fondens
fonder
fonderna
fonster
fonstren
fonstret
font
food
foot
for
fora
forad
forakt
foral
forald
foralder
foraldern
foraldr
foraldra
foraldral
foraldraled
foraldrar
foraldrarna
foraldrarnas
foraldrars
foralskad
foran
forand
forander
forandra
forandrad
forandrade
forandrades
forandrar
forandras
forandrat
forandrats
forandring
forandringar
forandringarna
forandringen
forank
forankrad
forankring
foranled
forar
forare
foraren
foras
forb
forba
forband
forbann
forbannad
forbannade
forbannat
forbatt
forbattra
forbattrad
forbattrade
forbattrar
forbattras
forbattrat
forbattrats
forbattring
forbattringar
forbe
forbehaller
forber
forbered
forbereda
forberedd
forberedda
forberedelse
forberedelser
forberedelserna
forbereder
forberett
forbi
forbind
forbindelse
forbindelser
forbinder
forbjud
forbjuda
forbjuden
forbjudet
forbjudna
forbl
forblev
forbli
forblir
forbran
forbranning
forbruk
forbrukning
forbud
forbudet
forbund
forbundet
forbundets
forbunds
forbundskapten
forbundslandet
force
ford
forde
fordel
fordela
fordelade
fordelaktigt
fordelar
fordelarna
fordelas
fordelat
fordelen
fordelning
fordelningen
fordes
fordju
fordjup
fordjupa
fordjupad
fordjupning
fordom
fordomar
fordon
fordonet
fordons
fordr
fordringar
fordro
fordubb
fore
forebild
forebilder
forebygga
forebyggande
fored
foredra
foredrag
foredrar
foref
forefaller
foreg
foregaende
foregang
foregangare
forek
forekom
forekomm
forekomma
forekommande
forekommer
forekommit
forekomst
forekomsten
forel
forelas
forelasare
forelasning
forelasningar
forelasningen
foreligger
forem
foremal
foremalet
foren
forena
forenade
forenar
forenas
forening
foreningar
foreningarna
foreningen
foreningens
forenings
forenkl
forenkla
forenklar
forenklat
forenlig
forens
forenta
fores
foreskrifter
foreskriv
foreskrivs
foresla
foreslag
foreslagit
foreslagna
foreslar
foreslas
foreslog
forespra
foresprak
foresprakar
forest
forestall
forestalla
forestaller
forestallning
forestallningar
forestallningen
foresten
foret
foretag
foretagande
foretagare
foretagen
foretagens
foretaget
foretagets
foretags
foretagsekonomi
forete
foreteelser
foretrad
foretradare
foretrader
foretrades
forev
forever
forex
forf
forfall
forfar
forfarande
forfarandet
forfatt
forfattar
forfattare
forfattaren
forfattarna
forfattarskap
forfattning
forfattnings
forfl
forflutna
forflytt
forflytta
forfog
forfogande
forfolj
forfor
forfrag
forfragan
forfragningar
forg
forgift
forh
forhall
forhalla
forhallande
forhallanden
forhallandena
forhallandet
forhallandevis
forhaller
forhallningssatt
forhand
forhandla
forhandling
forhandlingar
forhandlingarna
forhin
forhindra
forhindrar
forhojd
forhopp
forhoppning
forhoppningar
forhoppningen
forhoppningsvis
forhor
forin
forint
fork
forkast
forklar
forklara
forklarade
forklarar
forklaras
forklarat
forklaring
forklaringar
forklaringen
forkn
forknipp
forknippade
forknippar
forknippas
forkort
forkunskaper
forkyl
forkyld
forkylning
forkylningen
forl
forlag
forlaget
forlang
forlanga
forlangd
forlanger
forlangning
forlangningen
forlat
forlatelse
forlita
forlor
forlora
forlorad
forlorade
forlorar
forlorat
forloss
forlossning
forlossningen
forlossnings
forlov
forlust
forlusten
forluster
form
forma
formad
formade
formaga
formagan
formagor
forman
formanen
formaner
formanliga
formans
formar
formas
format
formatet
formed
formedla
formedlar
formedling
formel
formell
formella
formellt
formen
former
formerna
formgivning
formiddag
formiddagen
formod
formodan
formodligen
formogenhet
formul
formula
formular
formularet
formulera
forn
forna
fornamn
forne
forned
forneka
fornekar
fornlam
fornuft
forny
fornya
fornybar
fornyelse
forod
forodande
forol
foror
forord
forordning
forordningar
forordningen
fororen
fororeningar
forov
forovrigt
forpack
forpackning
forpackningar
forpackningen
forplikt
forpliktelser
forr
forra
forrad
forradet
forran
forratt
forre
forresten
forrgar
fors
forsak
forsakra
forsakrad
forsakrade
forsakrar
forsakring
forsakringar
forsakringen
forsakrings
forsakringsbolag
forsakringsbolaget
forsakringsk
forsakringskassan
forsalj
forsaljare
forsaljning
forsaljningen
forsaljnings
forsam
forsamling
forsamlingar
forsamlingen
forsamras
forsand
forsav
forsavitt
forsberg
forse
forsedd
forsedda
forsen
forsenad
forsenade
forsening
forseningar
forsent
forser
forses
forsikt
forsiktig
forsiktiga
forsiktighet
forsiktigt
forsk
forska
forskar
forskare
forskaren
forskarna
forskjut
forskning
forskningen
forsknings
forskningsprojekt
forskola
forskolan
forskolans
forskole
forskoleklass
forskollar
forskollarare
forskolor
forskott
forskotts
forskrack
forskriv
forslag
forslagen
forslaget
forsok
forsoka
forsoker
forsoket
forsokt
forsokte
forson
forsor
forsorj
forsorja
forsorjning
forst
forsta
forstaelse
forstaelsen
forstahand
forstand
forstar
forstark
forstarka
forstarker
forstarkning
forstarkt
forstas
forstatt
forste
forstklass
forstklassig
forstod
forstor
forstora
forstord
forstorde
forstort
forsum
forsumm
forsv
forsvag
forsvann
forsvar
forsvara
forsvarar
forsvarare
forsvaret
forsvars
forsvarsmakt
forsvarsmakten
forsvarsmaktens
forsvinna
forsvinner
forsvunna
forsvunnen
forsvunnit
fort
fortare
fortbildning
forteckning
fortfarande
fortid
fortjan
fortjanar
fortjanst
fortjus
fortjust
fortlopande
fortraff
fortro
fortroende
fortroendet
fortroendevalda
fortroll
fortryck
forts
fortsatt
fortsatta
fortsatte
fortsatter
fortsattning
fortsattningen
fortsattningsvis
fortune
fortviv
fortydlig
fortydliga
forum
forumet
forund
forundersokning
forut
forutom
forutsag
forutsatt
forutsatter
forutsattning
forutsattningar
forutsattningarna
forutse
forv
forvag
forval
forvalt
forvalta
forvaltar
forvaltare
forvaltning
forvaltningen
forvaltnings
forvaltningsratten
forvan
forvanad
forvanade
forvanande
forvanansvart
forvand
forvandla
forvandlas
forvaning
forvant
forvanta
forvantade
forvantan
forvantans
forvantar
forvantas
forvantat
forvantningar
forvantningarna
forvar
forvara
forvaras
forvaring
forvarings
forvarv
forvarva
forvarvade
forvarvat
forvarvet
forvarvs
forvax
forverk
forverklig
forverkliga
forvir
forvirrad
forvirrande
forvirring
forvis
forvisso
forward
fos
fosfor
foss
fossil
fossila
fost
foster
fot
fota
fotade
fotar
fotat
fotboll
fotbollen
fotbolls
fotbollsmatch
fotbollsspelare
foten
foto
fotob
fotograf
fotografen
fotografer
fotografera
fotograferade
fotograferar
fotografering
fotografi
fotografier
foton
fotos
fotot
fots
fott
fotter
fotterna
fotvard
fou
found
foundation
four
fox
fp
fps
fr
fra
frack
fracka
frag
fraga
fragade
fragan
fragar
fragat
frage
fragest
fragestall
fragestallningar
fragetecken
fragor
fragorna
fraiche
frakt
fraktfritt
fral
frals
fram
framat
framemot
framfor
framfora
framforallt
framforde
framga
framgang
framgangar
framgangs
framgangsrik
framgangsrika
framgangsrikt
framgar
framha
framhaller
framja
framjande
framjar
framkall
framkalla
framkant
framkom
framkommer
framkommit
framling
framlingar
framlingsfient
frammande
framme
framover
framre
framsida
framsidan
framst
framsta
framstaende
framstall
framstalla
framstallning
framstalls
framstar
framsteg
framt
framtagen
framtagna
framtid
framtida
framtiden
framtidens
framtids
framtill
framtrad
framtradande
framtrader
fran
franc
france
francis
francisco
franco
frank
frankf
frankfurt
frankr
frankrike
frankrikes
frans
fransar
fransk
franska
franvarande
franvaro
franz
fras
frasch
frascha
frascht
fraser
fre
fred
fredag
fredagar
fredagen
fredagens
fredags
fredagsmys
freder
fredrik
free
freesp
freespins
freja
frekv
frekvens
frekvent
fren
french
fresh
frest
fri
fria
frid
frida
friday
fried
friedrich
frien
friend
friends
frig
frigor
frigora
frihet
friheten
frihets
friidrott
frik
fril
frilans
friluft
friluftsliv
frim
fris
frisk
friska
friskare
friskis
friskt
friskvard
frisor
frisoren
frist
frista
fristaende
frisyr
frit
friter
fritid
fritiden
fritids
fritidshem
fritidshus
fritt
fritz
friv
frivill
frivillig
frivilliga
frivilligt
frn
fro
frojd
froken
frolunda
from
fron
front
fronten
fros
frost
fru
fruar
fruk
frukost
frukosten
frukt
fruktansvard
fruktansvarda
fruktansvart
frukten
frukter
frun
frus
frustr
frustration
frustrerad
frustrerande
frys
frysa
frysen
fryser
fryst
frysta
fs
ft
fu
fuck
fucked
fucking
fucks
fuk
fukt
fuktig
fuktiga
fuktigt
ful
fula
full
fulla
fullbord
fullfolja
fullgora
fullkomligt
fullmakt
fullmaktige
fullo
fullsatt
fullspack
fullstand
fullstandig
fullstandiga
fullstandigt
fullt
fult
fun
function
fund
fundament
funder
fundera
funderade
funderar
funderat
funderingar
fung
funger
fungera
fungerade
fungerande
fungerar
fungerat
funk
funka
funkade
funkar
funkat
funkt
funktion
funktionalitet
funktionarer
funktionell
funktionella
funktionen
funktioner
funktionerna
funktions
funktionsh
funktionshin
funktionshinder
funktionshindrade
funktionsned
funktionsnedsattning
funktionsnedsattningar
funn
funnit
funnits
fur
furu
fus
fusion
fusk
fut
future
fv
fy
fyfan
fyl
fyll
fylla
fyllas
fylld
fyllda
fyllde
fylldes
fyller
fyllning
fylls
fyllt
fynd
fynda
fyr
fyra
fyrhjul
fyrkant
fyrtio
fyrverker
fys
fysi
fysik
fysio
fysisk
fysiska
fysiskt
fz
fцr
ga
gabri
gabriel
gad
gadd
gadda
gaende
gaffel
gag
gal
gala
galan
galant
galaxy
galden
galdenar
galen
galet
gall
galla
gallande
gallde
galler
galleri
gallerier
galleries
gallery
gallivare
galna
galning
galopp
galoppen
gam
gambling
game
gamers
games
gaming
gamla
gamle
gammal
gammaldags
gammalt
gammel
gan
gang
gangavstand
gangbang
gangen
ganger
gangerna
ganget
gangna
gangs
gangvag
ganska
gap
gar
garage
garaget
garant
garanter
garantera
garanterad
garanterade
garanterar
garanteras
garanterat
garanti
garantier
garantin
gard
gardagen
gardagens
gardar
garden
gardens
garder
garderob
garderoben
garderober
gardet
gardiner
gards
garn
garna
garnet
garning
garningar
garningsmannen
gas
gasen
gasol
gass
gast
gaster
gasterna
gat
gata
gatan
gate
gator
gatorna
gatt
gatu
gav
gava
gavle
gavleborg
gavleborgs
gavor
gavs
gay
gaza
gb
gbg
gd
gdpr
ge
gear
ged
gedigen
gediget
gef
gefle
gel
gele
gem
gemen
gemensam
gemensamma
gemensamt
gemenskap
gemenskapen
gen
genast
gener
general
generald
generaldirektor
generalsekreterare
generat
generation
generationen
generationens
generationer
generations
generell
generella
generellt
generera
genererar
generisk
generos
generosa
generost
genetiska
genom
genombrott
genomfor
genomfora
genomforande
genomforandet
genomforas
genomforbart
genomford
genomforda
genomforde
genomfordes
genomfors
genomfort
genomforts
genomga
genomgaende
genomgang
genomgar
genomgatt
genomskin
genomskinliga
genomslag
genomsnitt
genomsnittet
genomsnittlig
genomsnittliga
genomsyr
genomtankt
genre
genren
genrer
gent
gentemot
gentlem
genu
genuin
genuint
genus
geograf
geografi
geografisk
geografiska
geografiskt
geomet
georg
george
ger
german
ges
gest
gestal
gestalt
get
gets
gett
gf
ggr
gh
ghar
ghost
gi
gick
gif
gift
gifta
gifte
gifter
giftiga
gig
gigant
gigantisk
gigantiska
gil
gill
gilla
gillade
gillar
gillat
gilt
giltig
giltighet
giltigt
gin
gina
ginza
gips
gir
girl
girls
gis
gislav
giss
gissa
gissar
gissning
gitarr
giv
givande
givare
give
given
givet
givetvis
givit
givna
gj
gjord
gjorda
gjorde
gjordes
gjort
gjorts
gjut
gjutjarn
gk
gl
gla
glaci
glad
glada
gladare
gladja
gladjande
gladjas
gladje
gladjen
glam
glans
glas
glaset
glasogon
glass
glassen
glatt
gle
gled
glen
glenn
glesb
glesbefolkat
glest
glid
glida
glider
glidmedel
glim
glitt
glitter
glo
glob
global
globala
globalt
globen
glod
glogg
glom
glomde
glomma
glommer
glomt
gluk
glukos
gluten
glutenfria
gly
gm
gmail
gn
gna
gnall
gnalla
gnaller
go
goa
god
goda
godare
godaste
gode
godis
godk
godkand
godkanda
godkann
godkanna
godkannande
godkannandet
godkannas
godkanner
godkanns
godkant
godkants
godmorgon
godnatt
godo
gods
godsaker
godsel
godset
godt
godtag
going
gok
gol
gold
golden
golf
golfklubb
golv
golvet
golvvarme
gom
gomda
gomma
gommer
gon
good
goog
googla
google
googles
gor
gora
goran
goras
gord
gordon
gors
gos
gosa
goss
gosta
got
gota
gotaland
gotalands
gote
goteborg
goteborgs
goth
gothenburg
gotland
gotlands
gott
gour
gow
gp
gps
gr
gra
graa
grabb
grabbar
grabbarna
grace
grad
gradd
gradda
gradde
gradden
graden
grader
graders
gradvis
graf
grafen
grafik
grafiken
grafikkort
grafisk
grafiska
graham
gram
grammat
grammatik
gran
grand
grande
granen
granit
grann
granna
grannar
grannarna
granne
grannen
granny
grans
gransar
gransen
granser
granserna
granska
granskar
granskas
granskat
granskning
granskningen
gransknings
gransoverskridande
granssnitt
grant
gras
graset
grasklipp
grasm
grasmarker
grasmatta
grasmattan
grat
grata
grater
gratis
gratisporr
gratt
grattis
gratul
grav
grava
gravde
graven
graver
gravid
gravida
graviditet
graviditeten
gravt
gre
great
green
grej
grejen
grejer
grejerna
grejor
grek
grekisk
grekiska
grekland
gren
grenar
grenen
grepp
greppa
greppet
greps
greta
grev
greve
grevskapet
grey
griff
grill
grilla
grillad
grillade
grillat
grillen
grillning
grim
grin
grind
grip
gripa
gripande
gripen
gris
grisar
gro
grod
grodor
gron
grona
gronland
gronomrade
gronsak
gronsaker
gronsakerna
gronska
gront
gross
grot
grott
group
grov
grova
grovre
grovt
grubb
grun
grund
grunda
grundad
grundade
grundades
grundar
grundare
grundaren
grundarna
grundas
grundat
grunden
grunder
grunderna
grundlag
grundlaggande
grundlig
grundligt
grundskola
grundskolan
grundskole
grundval
grundvatten
grupp
gruppen
gruppens
grupper
grupperna
gruppsex
grus
gruv
gry
grym
grymma
grymt
gryt
gryta
grytan
gt
gu
guard
guat
guatemala
gubb
gubbar
gubbe
gubben
gud
gudar
gudom
gudomliga
gudrun
guds
gudstjanst
guest
guid
guidad
guidade
guidar
guide
guiden
guider
gul
gula
guld
guldet
guldkorn
gull
gullig
gulliga
gulligt
gult
gum
gumm
gumman
gummi
gun
gung
gunilla
gunn
gunnar
gunung
gur
gurk
gurka
gusta
gustaf
gustafsson
gustav
gustavs
gustavsson
guvern
guvernementet
guvernor
guy
guys
gw
gy
gyll
gyllen
gyllene
gym
gymmet
gymnas
gymnasie
gymnasieskola
gymnasieskolan
gymnasiet
gymnasium
gymnastik
gyn
gynek
gynn
gynna
gynnar
gynnsam
h2
ha
habit
habo
hack
hacka
hackad
hackade
hackar
hacken
had
hade
haf
haft
haftad
haftig
haftiga
haftigt
hag
haga
hage
hagel
hagen
hager
hagg
hah
haha
hahah
hahaha
hair
haj
hak
haka
hakan
hakt
hal
hala
halen
halet
half
halft
halften
halk
halka
hall
halla
halland
hallands
hallas
hallbar
hallbara
hallbarhet
hallbarhets
hallbart
halle
hallen
haller
hallet
hallit
hallning
hallon
hallow
halloween
halls
hallsta
hallt
halm
halmstad
hals
halsa
halsade
halsan
halsar
halsband
halsduk
halsen
halsing
halsingland
halsning
halsningar
halso
halsof
halsoframjande
halsok
halsosam
halsosamma
halsosamt
halsot
halsovard
halt
halter
halv
halva
halvan
halvar
halvaret
halver
halvlek
halvleken
halvt
halvtid
halvtim
halvtimme
halvvags
ham
hambur
hamburg
hamburgare
hamilton
hamm
hammar
hammarby
hammare
hammer
hamn
hamna
hamnade
hamnar
hamnat
hamnd
hamnen
hamp
hampus
hamster
hamt
hamta
hamtad
hamtade
hamtar
hamtas
hamtat
hamtning
han
hanar
hand
handa
handbok
handboll
handduk
handdukar
hande
handel
handeln
handels
handelsbanken
handelse
handelsen
handelser
handelserna
handen
hander
handerna
handfull
handgjorda
handikapp
handikappade
handjob
handla
handlade
handlaggare
handlaggning
handlande
handlar
handlare
handlat
handled
handledare
handledning
handling
handlingar
handlingarna
handlingen
handlingsplan
handpenning
handplock
hands
handskar
handtag
handtaget
hane
hanfor
hang
hanga
hangande
hangde
hanger
hangt
haninge
hann
hanna
hannah
hans
hansen
hansson
hansyn
hant
hanter
hantera
hanterar
hanteras
hantering
hanteringen
hantverk
hantverkare
hanvisa
hanvisar
hanvisas
hanvisning
hap
hapar
haparanda
hapnads
hapnadsvackande
happ
happy
happyp
happypancake
har
harad
harald
harbotten
hard
harda
hardare
hardcore
harddisk
hardporr
hardrock
hardvara
hare
haret
harfarg
harifran
harig
hariga
harj
harjedalen
harled
harlig
harliga
harligt
harmed
harmon
harmoni
harmonisk
harnos
harnosand
harom
haromdagen
harris
harror
harry
harstammar
hart
harvard
has
hash
hass
hasse
hassel
hasselby
hassle
hassleholm
hast
hastar
hastarna
hasten
hastens
hastighet
hastigheten
hastigheter
hastigt
hastt
hat
hata
hatar
hatt
hatten
hav
hava
havd
havda
havdade
havdar
have
haven
haver
havet
havre
havregryn
havs
havsutsikt
haw
hawa
hawaii
hax
hay
hb
hbt
hbtq
hc
hd
hdmi
he
head
header
headset
healing
healt
health
heart
heat
heav
hebre
hed
hedemora
heden
heder
hedvig
hee
heg
hehe
heidi
hein
heinrich
hej
heja
hejda
hejsan
hekt
hektar
hel
hela
heldag
helen
helena
helene
helg
helgen
helgens
helger
helgerna
helgon
helhet
helheten
helhets
helig
heliga
helige
helik
helikopter
hell
heller
hello
hellre
hellstrom
help
helsing
helsingborg
helsingborgs
helsingfors
helsingor
helst
helt
heltack
heltackande
heltid
heltids
helvet
helvete
helvetet
hem
hemat
hembesok
hembyg
hembygd
hemibor
hemiboreala
hemifran
heminredning
hemkommen
hemlag
hemlagad
hemland
hemlandet
hemlig
hemliga
hemlighet
hemligheten
hemligheter
hemligt
hemlosa
hemm
hemma
hemmafru
hemmag
hemmagjord
hemmagjorda
hemmak
hemmal
hemmalaget
hemmamatch
hemman
hemmaplan
hemmet
hemmets
hemsida
hemsidan
hemsidor
hemsk
hemska
hemskt
hemstad
hemt
hemtjanst
hemtjansten
hemvagen
hemvist
hen
henke
henne
hennes
henri
henrik
henriksson
henry
hentai
hepat
her
herc
herceg
hercegovina
here
herman
hero
herpes
herr
herrar
herrarna
herrarnas
herre
herreg
herregud
herren
herrens
herrgard
hertig
hes
het
heta
hetaste
heter
heterosex
hets
hett
hetta
hette
hex
hexdec
hexdecimalsfargkoden
hey
hf
hg
hi
hid
hier
hierark
hif
high
hihi
hil
hill
hills
him
himla
himlen
himm
himmel
hin
hind
hinder
hindr
hindra
hindrar
hindret
hing
hink
hinna
hinner
hint
hip
hiphop
hipp
hir
his
hisingen
hiss
hissen
histor
historia
historie
historien
historiens
historier
historik
historiken
historisk
historiska
historiskt
history
hit
hitler
hits
hitt
hitta
hittade
hittades
hittar
hittas
hittat
hittats
hittills
hiv
hj
hjal
hjalm
hjalmar
hjalp
hjalpa
hjalpen
hjalper
hjalpmedel
hjalpsam
hjalpsamma
hjalpt
hjalpte
hjalt
hjaltar
hjalte
hjar
hjarn
hjarna
hjarnan
hjart
hjarta
hjartan
hjartans
hjartat
hjartinfarkt
hjartligt
hjort
hjul
hjulen
hjulet
hk
hl
hm
hmm
hmmm
ho
hobb
hobby
hocke
hockey
hof
hoff
hoft
hofter
hog
hoga
hoganas
hogen
hoger
hogerext
hoghastighet
hogklass
hogkval
hogkvalit
hogkvalitativ
hogkvalitativa
hogland
hogljud
hogra
hogre
hogskol
hogskola
hogskolan
hogskole
hogskolepoang
hogskolor
hogst
hogsta
hogstad
hogstadiet
hogt
hogtal
hogtalare
hogtalarna
hogtid
hogtider
hogtryck
hogupp
hoho
hoj
hoja
hojas
hojd
hojda
hojdare
hojde
hojden
hojder
hojdpunkt
hojdpunkter
hojer
hojning
hojs
hojt
hok
hol
hold
holding
holiday
holl
holland
hollandska
holls
hollywood
holm
holmberg
hom
home
homo
homosex
homosexuell
homosexuella
hon
hona
honan
honda
hong
honom
honor
hons
honung
hood
hook
hop
hope
hopp
hoppa
hoppade
hoppades
hoppar
hoppas
hoppat
hoppats
hoppet
hopplost
hoppning
hor
hora
horas
horby
hord
horde
hordes
horison
horisont
horisontell
horisonten
horlur
horlurar
hormon
hormoner
horn
horna
hornen
hornet
horor
horr
hors
horse
horsel
hort
hos
host
hosta
hostar
hostas
hosten
hostens
hostlov
hostter
hostterminen
hot
hotad
hotade
hotar
hotas
hotel
hotell
hotellen
hotellet
hotellets
hotellrum
hotels
hotet
hotmail
hott
hour
house
hov
hovet
hovratt
hovratten
how
hp
hr
hsb
hsl
ht
html
htt
http
https
hu
hua
hub
hubb
hud
huddinge
huden
hudens
hudik
hudiksvall
hudvard
hug
huge
hugg
hugga
hugo
hul
hull
hult
hults
hultsfred
hum
human
humle
hummer
humor
humoret
hun
hund
hundagare
hundar
hundarna
hunden
hundens
hundra
hundrat
hundratal
hundratals
hundratusentals
hunger
hungr
hungrig
hungriga
hunnit
hunt
hur
hurra
hursomhelst
huruvida
hus
husagare
husbil
husdjur
husen
huset
husets
hushall
hushallen
hushallet
husk
husse
hust
hustr
hustru
hustrun
husvagn
hut
huv
huvud
huvuddelen
huvuden
huvudet
huvudkontor
huvudman
huvudmannen
huvudperson
huvudpersonen
huvudrollen
huvudsak
huvudsaken
huvudsakliga
huvudsakligen
huvudstad
huvudstaden
huvudvark
hv
hvar
hvil
hw
hy
hybrid
hyd
hydra
hydraul
hydro
hyfs
hyfsad
hyfsat
hygg
hygien
hyl
hyll
hylla
hyllade
hyllan
hyllar
hyllning
hyllor
hyllorna
hyp
hyper
hypotek
hypotekslan
hyr
hyra
hyran
hyrbil
hyrde
hyres
hyresg
hyresgast
hyresgasten
hyresgaster
hyresgastforeningen
hyresratt
hyresratter
hyresvard
hyrt
hyster
hysteriskt
hytt
hz
iaf
iak
iaktt
iakttag
iall
ialla
iallafall
ian
iar
ib
ibland
ibra
ibrahim
ic
ica
ice
ich
ick
icke
id
ida
idag
ide
ideal
idealisk
idealiskt
ideell
ideella
ideellt
ideer
ideerna
idel
iden
ident
identifier
identifiera
identifierade
identifierar
identifieras
identifiering
identiska
identitet
ideologi
idio
idiot
idioter
idol
idrott
idrottare
idrotten
idrotts
idyll
if
ifall
ifjol
ifk
ifraga
ifragas
ifragasatt
ifragasatta
ifragasatter
ifran
ifred
ig
igang
igar
igarkvall
igen
igenom
ignor
ignorera
ih
ihag
ihjal
ihop
ii
iii
ik
ikapp
ikea
ikke
ikon
ikonen
ikraf
ikvall
il
ill
illa
illama
illamaende
illeg
illustr
illustrat
illustration
illustrationer
illustrerad
ilska
im
imag
image
images
imm
immater
immun
immunforsvar
immunforsvaret
imon
imorgon
imorn
imorr
imorrn
imorse
imp
imper
impl
implant
implementer
implementera
implementering
impon
imponera
imponerad
imponerade
imponerande
import
importer
importera
impro
improvis
impul
impuls
in
inakt
inaktiver
inat
inatt
inb
inbadd
inbeg
inbjud
inbjudan
inbjudande
inbjuden
inbjuder
inbjudna
inbland
inblandad
inblandade
inblandning
inblick
inbok
inborde
inbordes
inbordeskriget
inbrott
inbunden
inbyggd
inbyggda
inbyggt
inc
incest
incheck
incident
incit
incitament
incl
inclusive
ind
inde
indel
indelning
independent
index
indexering
india
indian
indie
indien
indik
indikation
indikator
indikatorer
indikerar
indirekt
indisk
indiska
indiv
individ
individen
individens
individer
individu
individuell
individuella
individuellt
indones
indonesien
industr
industri
industriell
industriella
industrier
industrin
inf
infall
infaller
infekt
infektion
infektioner
infin
infinner
infl
inflamm
inflammation
inflation
influ
influen
influens
influensa
influenser
inflyt
inflytande
inflytelser
inflytt
inflyttning
info
infor
infora
inforande
inforandet
inforas
inforde
infordes
inform
information
informationen
informations
informer
informera
informerade
informerar
informeras
infors
inforskaff
inforskaffa
infort
infr
infra
infrastruktur
ing
inga
ingaende
ingang
ingangen
ingar
ingatt
inge
ingef
ingefara
ingela
ingemar
ingen
ingenjor
ingenjorer
ingenstans
ingenting
inger
inget
ingick
ingmar
ingr
ingred
ingrediens
ingredienser
ingredienserna
ingrepp
ingrid
ingvar
inhamt
inhand
inhandla
inhem
inhemska
inifran
init
initi
initialt
initiativ
initiativet
injekt
injektion
ink
inkall
inkass
inkl
inklu
inkludera
inkluderade
inkluderande
inkluderar
inkluderas
inkluderat
inklusive
inkom
inkommande
inkommit
inkomna
inkomst
inkomsten
inkomster
inkomstskatt
inkop
inkor
inl
inlag
inlagd
inlagg
inlaggen
inlagget
inlam
inland
inlandsklimat
inlar
inlarning
inled
inleda
inledande
inledde
inleddes
inleder
inledning
inledningen
inledningsvis
inleds
inlett
inlogg
inloggad
inloggning
inlosen
inn
innan
innanfor
inne
inneband
innebandy
innebar
innebara
inneboende
innebord
inneborden
inneburit
innefatt
innefatta
innefattar
inneha
innehall
innehalla
innehallande
innehaller
innehallet
innehallsfor
innehallsforteckning
innehar
innehav
innehavare
inneholl
inner
innerligt
innerst
innersta
innerstad
innlegg
innov
innovation
innovationer
innovations
innovativ
innovativa
inom
inombords
inomhus
inpa
inplan
input
inr
inram
inratt
inratta
inrattades
inre
inred
inreda
inredda
inredning
inredningen
inrednings
inrikes
inrikt
inriktad
inriktade
inriktning
inriktningar
inriktningen
inrym
ins
insag
insam
insamling
insandare
insats
insatsen
insatser
insatserna
insatt
insatta
insattning
insattningar
insattnings
insattningsbonus
inse
insekt
insekter
insektsart
inser
insett
insida
insidan
insikt
insikten
insikter
insjuk
inskran
inslag
inslaget
insp
inspekt
inspektion
inspektionen
inspel
inspelad
inspelning
inspelningar
inspelningen
inspir
inspiration
inspirationen
inspirera
inspirerad
inspirerade
inspirerande
inspirerar
inspireras
inspirerat
inst
insta
instagram
install
installation
installationen
installationer
installd
installda
installera
installerad
installerade
installerar
installeras
installerat
installning
installningar
installningarna
installningen
installt
instammer
instans
instanser
instift
institu
institut
institute
institutet
institution
institutionen
institutioner
instru
instrukt
instruktion
instruktioner
instruktionerna
instruktor
instruktorer
instrument
insulin
insyn
int
inta
intag
intakt
intakter
intakterna
intar
inte
inteck
inteckning
integr
integration
integrera
integrerad
integrerade
integreras
integrerat
integritet
integritetspolicy
intel
intell
intellekt
intellektuella
intellig
intelligen
intelligens
intelligent
intelligenta
intens
intensitet
intensiv
intensiva
intensivt
intent
inter
intera
interagera
interakt
interaktion
interaktiva
interi
interior
intern
interna
internation
international
internationell
internationella
internationellt
internet
internets
internt
interra
interracial
interv
intervall
intervaller
intervju
intervjuade
intervjuer
intervjun
intet
intill
intim
intima
into
intr
intra
intrade
intraff
intraffa
intraffade
intraffar
intraffat
intrang
intress
intressant
intressanta
intresse
intresseanmalan
intressen
intressenter
intressera
intresserad
intresserade
intresserar
intresset
intro
introduc
introducera
introducerade
introducerades
introdukt
introduktion
intryck
intrycket
intuit
intyg
inuti
inv
inval
invalid
invan
invanare
invanarna
invand
invanda
invandigt
invandningar
invandrar
invandrare
invandring
invandringen
invas
inventar
inventer
inventering
inverkan
invest
invester
investera
investerar
investerare
investerat
investering
investeringar
investeringen
investerings
investment
invid
invig
invigdes
invigning
invigningen
involver
involverad
involverade
involverar
iofs
iordning
ios
ip
ipad
iphone
ipod
iq
ir
irak
iran
irene
iris
irl
irland
iron
irr
irri
irrit
irritation
irriterad
irriterande
is
isa
isabell
isabella
isabelle
isafall
isak
isar
isb
isbn
isch
isen
isf
ish
ishockey
isk
isl
islam
islamiska
island
islands
islandska
iso
isol
isolerad
isolerade
isolering
isra
israel
israeliska
israels
iss
ist
istallet
istan
istanbul
it
ital
italien
italiensk
italienska
item
its
itu
itunes
iuc
iucn
iv
ivag
ivan
ivar
iver
ivrig
ivrigt
ix
iz
ja
jaa
jabal
jac
jack
jacka
jackan
jackor
jackp
jackpot
jackpott
jackson
jacob
jad
jag
jaga
jagade
jagar
jagare
jaha
jaja
jak
jakarta
jakla
jaklar
jakligt
jakob
jakt
jakten
jam
jama
james
jamfor
jamfora
jamforas
jamforbara
jamforels
jamforelse
jamforelser
jamfort
jamie
jamlik
jamlikhet
jamn
jamna
jamnare
jamnt
jamstalld
jamstalldhet
jamstalldhets
jamt
jamte
jamtland
jamtlands
jan
jane
janne
jansson
januari
jap
japan
japanese
japansk
japanska
japp
jar
jarfalla
jarl
jarn
jarnet
jarnvag
jarnvagen
jarnvagsst
jas
jasa
jasmin
jason
jast
jatt
jatte
jattebra
jatted
jattef
jattefin
jattefina
jattefint
jatteg
jatteglad
jattegod
jattegott
jattekul
jattel
jattem
jattemycket
jattemys
jatten
jattero
jatteroligt
jattes
jattest
jattet
jattev
jav
java
javas
javascript
javisst
javla
javlar
javligt
jawa
jay
jazz
je
jean
jeanette
jeans
jeff
jelly
jen
jenn
jennie
jennifer
jenny
jens
jensen
jer
jern
jerry
jersey
jerusalem
jes
jesper
jess
jessica
jesu
jesus
jet
jfr
ji
jih
jim
jimm
jimmie
jimmy
jisses
jm
jo
joakim
job
jobb
jobba
jobbade
jobbar
jobbat
jobben
jobbet
jobbig
jobbiga
jobbigt
jobs
jocke
joda
joe
joel
jog
jogg
jogging
joh
johan
johann
johanna
johannes
johans
johansson
john
johnny
johnson
join
jok
jokkmok
jol
jon
jonas
jonathan
jones
jonkoping
jonkopings
jonna
jonsson
jor
jord
jordan
jordbav
jordbruk
jordbruket
jordbruks
jordbruksmark
jordbruksverket
jorden
jordens
jordgubb
jordgubbar
jorgen
jos
jose
josef
josefin
josefine
joseph
joss
josses
jour
journ
journal
journalist
journalisten
journalister
journalistik
joy
jp
jpg
jr
ju
juan
jubileum
jud
judar
judarna
jude
judisk
judiska
jugos
jugoslav
juice
jul
jula
julafton
julbord
julen
julgran
juli
julia
julius
julkalen
julkalender
julkla
julklapp
julklappar
julkort
jull
julmarknad
julp
jult
jum
jun
jung
jungfr
jungfru
juni
junior
juniorer
jur
jurid
juridik
juridisk
juridiska
juridiskt
jurist
jurister
jury
juryn
just
juster
justera
justeras
justerbar
justering
justeringar
justin
justiti
juvel
juvent
juventus
ka
kabel
kabeln
kabin
kablar
kabul
kad
kafe
kaff
kaffe
kaffek
kaffet
kairo
kaj
kajak
kajsa
kak
kaka
kakade
kakan
kakao
kakar
kakat
kakel
kakor
kal
kala
kalas
kalaset
kalcium
kalen
kalender
kalenderar
kalendern
kali
kalibr
kalifor
kalifornien
kalium
kalix
kalk
kalkon
kalkyl
kall
kalla
kallad
kallade
kallades
kallan
kallar
kallare
kallaren
kallas
kallaste
kallat
kallats
kalle
kallelse
kallor
kallt
kalmar
kalorier
kalsonger
kalv
kam
kamer
kamera
kameran
kameror
kammar
kammaren
kammarratten
kamp
kampa
kampade
kampan
kampanj
kampanjen
kampanjer
kampar
kampat
kampen
kamrat
kamrater
kan
kanada
kanadens
kanadensiska
kanal
kanalen
kanaler
kanalerna
kand
kanda
kande
kandes
kandid
kandidat
kandidater
kandidatexamen
kandis
kandisar
kanel
kang
kanin
kaniner
kann
kanna
kannas
kannedom
kanner
kanneteck
kannetecken
kannetecknas
kanns
kanon
kanot
kans
kanske
kansl
kansla
kanslan
kansli
kansliet
kanslig
kansliga
kanslighet
kansligt
kanslo
kanslom
kanslomassiga
kanslomassigt
kanslor
kanslorna
kant
kantare
kanten
kanter
kanterna
kantonen
kants
kaos
kap
kapa
kapacitet
kapaciteten
kapell
kapit
kapital
kapitalet
kapitel
kapitlet
kapp
kappa
kapten
kar
kara
karakt
karaktar
karaktaren
karaktarer
karaktarerna
karaktars
karakter
karam
karamell
kard
kardem
kare
karen
karib
karin
karis
karl
karlek
karleken
karlekens
karleks
karleksfull
karlshamn
karlskoga
karlskrona
karlsson
karlstad
karlstads
karn
karna
karnan
karnkraft
karnvapen
karol
karolina
karolinska
kaross
karr
karri
karriar
karriaren
kart
karta
kartan
kartlagga
kartlaggning
kartong
kartonger
kartor
kas
kasin
kasino
kasinon
kass
kassa
kassaflode
kassan
kassor
kast
kasta
kastade
kastar
kastas
kastat
kastr
kastrull
kastrullen
kat
kata
katalog
katalogen
katarina
katastro
katastrof
kate
kated
kategor
kategori
kategorier
kategorierna
kategorin
kategoriserar
katol
katolska
katrin
katrine
katrineholm
katt
katten
katter
katterna
kattungar
kav
kava
kavaj
kax
kay
kb
kbt
kcal
kd
ke
keb
kebab
ked
kedja
kedjan
kedje
kedjor
keep
kej
kejs
kejsar
kejsaren
kel
kelly
kem
kemi
kemikal
kemikalie
kemikalier
kemisk
kemiska
ken
kenn
kennel
kennet
kenneth
kent
kenya
keps
ker
keram
keramik
kerstin
ket
kevin
kex
key
kf
kg
kh
khal
khan
ki
kick
kid
kidnapp
kids
kik
kika
kikade
kikar
kikat
kil
kill
killar
killarna
kille
killen
kilo
kilometer
kim
kin
kina
kinas
kind
kinder
kines
kinesisk
kinesiska
king
kings
kink
kinky
kinn
kio
kiosk
kir
kiroprakt
kiruna
kirurg
kirurgi
kis
kiss
kissa
kissar
kista
kit
kitch
kitchen
kitt
kitty
kiv
kj
kjell
kjol
kjolen
kk
kl
kla
klack
klackar
klad
klada
kladd
kladda
kladde
kladdkaka
klader
kladerna
klades
kladogram
kladsel
klag
klaga
klagade
klagar
klagomal
klam
klamma
klan
klang
klanning
klanningar
klanningen
klapp
klappa
klappar
klar
klara
klarade
klarar
klarat
klargora
klarhet
klarna
klart
klas
klass
klassas
klassen
klasser
klasserna
klassific
klassificering
klassiker
klassisk
klassiska
klassiskt
klasskomp
klassrum
klassrummet
klatt
klatter
klattra
klattrade
klattrar
klattring
kle
klev
kli
kliar
klick
klicka
klickade
klickar
klient
klienten
klienter
klim
klima
klimat
klimatet
klimatforandring
klimatpaverkan
klimats
klimatzonen
klin
kling
klinik
kliniken
klinisk
kliniska
klinker
klipp
klippa
klippan
klipper
klippet
klippt
klippte
klist
klister
klistra
klitoris
kliv
kliva
kliver
klock
klocka
klockan
klockor
klockrent
klok
kloka
klokt
klor
klost
kloster
klot
klubb
klubbar
klubbarna
klubben
klubbens
klump
klur
kly
klyft
km
km²
kn
kna
knack
knacka
knacke
knad
knall
knan
knana
knapp
knappa
knappar
knapparna
knappast
knappen
knappt
knark
knas
knat
kne
knep
knepigt
knight
kniv
knivar
kniven
knop
knopp
know
knubb
knuff
knull
knulla
knullad
knullade
knullar
knullfilm
knullfilmer
knullkontakt
knut
knuten
knutna
knyt
knyta
knyter
ko
koal
kob
kock
kockar
kocken
kod
koden
koder
koer
koffe
koffein
koft
kofta
kogn
kognitiv
kognitiva
koh
kok
koka
kokar
kokbok
koket
kokos
koks
koksbordet
kokt
kol
kold
koldioxid
koldioxidutslapp
kolesterol
kolhydr
kolhydrater
koll
kolla
kollade
kollaps
kollar
kollat
kolleg
kollega
kollegan
kollegor
kollegorna
kollekt
kollektion
kollektionen
kollektiv
kollektiva
kollektivavtal
kollektivt
kollektivtrafik
kollektivtrafiken
kolon
koloni
kolum
kolumn
kom
kombin
kombination
kombinationen
kombinationer
kombinera
kombinerad
kombinerade
kombinerar
kombineras
kombinerat
komed
komedi
komfor
komfort
komiker
komm
komma
kommand
kommande
kommen
komment
kommentar
kommentaren
kommentarer
kommentarerna
kommentars
kommenter
kommentera
kommenterade
kommenterar
kommenterat
kommer
kommers
kommersiell
kommersiella
kommersiellt
kommiss
kommissionen
kommissionens
kommit
kommitte
kommitten
kommun
kommunal
kommunala
kommunalrad
kommunalt
kommund
kommunen
kommunens
kommuner
kommunerna
kommunernas
kommunfull
kommunfullmaktige
kommunic
kommunicera
kommunicerar
kommunik
kommunikation
kommunikationen
kommunikationer
kommunikations
kommunist
kommunistiska
kommuns
kommunstyrelsen
kommunstyrelsens
komp
kompa
kompakt
kompakta
kompan
kompati
kompatibel
kompens
kompensation
kompensera
kompeten
kompetens
kompetensen
kompetenser
kompetensutveckling
kompetent
kompetenta
kompis
kompisar
kompisarna
kompisen
kompl
komple
komplement
komplett
kompletta
kompletter
komplettera
kompletterande
kompletterar
kompletteras
komplettering
komplex
komplexa
komplext
komplic
komplicerad
komplicerade
komplicerat
komplikationer
komplim
kompon
komponent
komponenter
kompos
komposit
kompost
kompress
komprim
komprom
komvux
kon
koncentr
koncentration
koncentrera
koncentrerad
koncept
konceptet
koncern
koncernen
koncernens
kond
kondens
kondition
kondom
kondomer
konen
konet
konf
konferens
konferensen
konferenser
konfigur
konfirm
konflikt
konflikten
konflikter
konfron
kong
kongo
kongress
kongressen
konjunktur
konkret
konkreta
konkur
konkurr
konkurren
konkurrens
konkurrensen
konkurrenskraft
konkurrenskraftiga
konkurrenter
konkurrera
konkurs
kons
konsek
konsekvens
konsekvenser
konsekvenserna
konsekvent
konser
konsert
konserten
konserter
konserv
konservativa
konservering
konsfordelning
konsistens
konsol
konsolid
konsolidering
konspir
konspiration
konst
konstant
konstater
konstatera
konstaterade
konstaterar
konstateras
konstaterat
konsten
konsthall
konstig
konstiga
konstigt
konstitut
konstnar
konstnaren
konstnarer
konstnarlig
konstnarliga
konstru
konstruerad
konstruerade
konstrukt
konstruktion
konstruktionen
konstruktioner
konstverk
konsul
konsult
konsultation
konsulter
konsum
konsument
konsumenten
konsumenter
konsumenterna
konsumentkred
konsumentkrediter
konsumera
konsumt
konsumtion
kont
kontakt
kontakta
kontaktade
kontaktannons
kontaktannonser
kontaktar
kontaktas
kontakten
kontakter
kontaktperson
kontaktsidor
kontaktuppgifter
kontant
kontanter
kontext
kontin
kontinenten
kontinu
kontinuer
kontinuerlig
kontinuerligt
kontinuitet
konto
konton
kontor
kontoret
kontors
kontot
kontra
kontrakt
kontraktet
kontrast
kontraster
kontro
kontroll
kontrollen
kontroller
kontrollera
kontrollerad
kontrollerade
kontrollerar
kontrolleras
kontrollerat
kontrovers
konung
konvent
konvention
konventionell
konventionella
konventionen
konver
konvers
konversation
konvertera
konvertering
koordin
kop
kopa
kopare
koparen
kopas
kopcentrum
kope
kopen
kopenhamn
koper
kopet
kopia
kopiera
koping
kopior
kopman
kopp
koppar
koppel
koppla
kopplad
kopplade
kopplar
kopplas
kopplat
koppling
kopplingar
kopplingen
kops
kopt
kopta
kopte
koptes
kor
kora
korall
koranen
koras
kord
korde
kordes
kore
korea
koreanska
koren
koreograf
korg
korgen
korkort
korn
korning
korr
korrekt
korrekta
korrid
korridoren
korrig
korrigera
korru
korruption
kors
korsar
korsbar
korset
korsett
korsningen
korsord
kort
korta
kortare
korten
kortet
kortfatt
kortfattat
kortfristiga
korthet
kortsikt
kortsiktiga
korttid
korv
kos
kosm
kosmet
kost
kosta
kostade
kostar
kostat
kosten
kostenlos
kostnad
kostnaden
kostnader
kostnaderna
kostnads
kostnadse
kostnadseffektiv
kostnadseffektivt
kostnadsfri
kostnadsfria
kostnadsfritt
kosttill
kosttillskott
kostym
kostymer
kot
kott
kottbullar
kottet
kottfar
koud
kp
kr
kra
kraft
kraftdjursart
kraften
krafter
krafterna
kraftfull
kraftfulla
kraftfullt
kraftig
kraftiga
kraftigare
kraftigt
krage
kragen
krak
kram
krama
kramar
kramen
kramig
kran
krang
krangel
krangligt
krankande
krankningar
krasch
krav
krava
kravande
kravas
kravde
kravdes
kraven
kraver
kravet
kravs
kravt
kre
kreativ
kreativa
kreativitet
kreativt
kred
kredit
kreditbetyg
krediter
kreditkort
kreditupplys
kreditupplysning
kreditvardering
kreditvardighet
kret
krets
kretsar
kretslopp
krig
kriget
krigets
krigs
krim
krimin
kriminal
kriminalitet
kriminella
kring
kris
krisen
kriser
krist
kristall
kristd
kristdemokraterna
kristen
kristendom
kristendomen
krister
kristi
kristian
kristianstad
kristin
kristina
kristine
kristinehamn
kristna
kristoffer
kristus
krit
kriter
kriterier
kriterierna
kritik
kritiken
kritiker
kritisera
kritiserar
kritisk
kritiska
kritiskt
kro
kroat
kroatien
krock
krog
krogen
krok
krokar
krom
kron
krona
kronan
kronika
kronikor
kronisk
krono
kronoberg
kronobergs
kronofog
kronofogden
kronor
kronprins
krop
kropp
kroppar
kroppen
kroppens
kropps
kroppsvikt
kross
krossa
krossade
kruk
kruka
krukor
krus
krut
kry
krydd
krydda
kryddor
krym
kryp
krypa
kryper
krypt
kryss
kryssa
kryssning
ks
kth
ku
kub
kuba
kubik
kud
kuddar
kudde
kudden
kuh
kuk
kukar
kuken
kul
kula
kulisserna
kull
kullar
kulle
kullen
kulor
kult
kultur
kulturarv
kulture
kulturell
kulturella
kulturellt
kulturen
kulturer
kulturhuset
kum
kumla
kun
kund
kunde
kunden
kundens
kunder
kunderna
kundernas
kunders
kundservice
kundtjanst
kung
kunga
kungalv
kungar
kungariket
kungen
kungens
kungl
kungliga
kungs
kungsbacka
kungsgatan
kungsholmen
kunn
kunna
kunnande
kunnat
kunnig
kunniga
kunskap
kunskapen
kunskaper
kunskaps
kup
kuperad
kupong
kur
kurator
kurd
kurs
kursen
kursens
kurser
kurserna
kurt
kurv
kurva
kurvan
kus
kusin
kusiner
kust
kusten
kustklimat
kuvert
kv
kva
kvad
kvadrat
kvadratkilometer
kvadratmeter
kval
kvalet
kvalific
kvalificerad
kvalificerade
kvalifikationer
kvalit
kvalitativ
kvalitativa
kvalite
kvaliten
kvalitet
kvaliteten
kvaliteter
kvalitets
kvall
kvallar
kvallarna
kvallen
kvallens
kvalls
kvallsmat
kvallstid
kvant
kvantit
kvantitet
kvar
kvarn
kvarstar
kvart
kvartal
kvartalet
kvarter
kvarteret
kvarts
kvartsfin
kvartsfinal
kvarvarande
kvav
kvave
kvick
kvinn
kvinna
kvinnan
kvinnans
kvinnlig
kvinnliga
kvinnligt
kvinno
kvinnor
kvinnorna
kvinnors
kvist
kvitt
kvitto
kvm
kw
kwh
ky
kyck
kyckling
kycklingen
kyl
kyla
kylan
kylen
kyligt
kylskap
kylskapet
kyr
kyrk
kyrka
kyrkan
kyrkans
kyrkliga
kyrko
kyrkob
kyrkog
kyrkogard
kyrkogarden
kyrkoher
kyrkor
kyss
la
laa
lab
labb
labor
laborator
lac
lack
lacka
lackage
lacker
lackert
lackra
lad
lada
ladan
ladd
ladda
laddad
laddade
laddar
laddare
laddas
laddat
laddning
lade
lader
lades
ladies
lador
ladu
lady
lag
laga
lagade
lagar
lagarna
lagat
lagd
lage
lagen
lagenhet
lagenheten
lagenheter
lagenheterna
lagens
lager
laget
lagets
lagg
lagga
laggas
lagger
laggning
laggs
lagkapten
lagkon
laglig
lagliga
lagligt
lagom
lagpris
lagra
lagrar
lagras
lagre
lagret
lagring
lagst
lagsta
lagstad
lagstift
lagstiftning
lagstiftningen
lagt
lagts
laguna
laholm
laj
lak
laka
lakan
lakar
lakarbesok
lakare
lakaren
lakarna
lake
lakem
lakemed
lakemedel
lakemedels
lakemedelsverket
lakemedlet
laker
lakrits
lakt
laktaren
laktos
lam
lamin
laminat
lamm
lamn
lamna
lamnade
lamnades
lamnar
lamnas
lamnat
lamnats
lamp
lampa
lampan
lampar
lamplig
lampliga
lamplighet
lampligt
lampor
lamporna
lan
lana
lanade
lanar
lanas
lanat
land
landa
landade
landar
landat
lander
landerna
landet
landets
lands
landsbyg
landsbygd
landsbygden
landshov
landskap
landskapet
landskaps
landskommun
landskrona
landslag
landslaget
landst
landsting
landstingen
landstinget
landstingets
landstings
landsvag
lane
laneansokan
lanen
lanet
lanets
lang
langa
langd
langden
langder
lange
langes
langesedan
langesen
langhorningar
langiv
langivare
langivaren
langpromenad
langre
langs
langsam
langsamma
langsammare
langsamt
langsikt
langsiktig
langsiktiga
langsiktigt
langst
langsta
langt
langta
langtan
langtar
langtat
langtid
langu
langvar
langvarig
langvariga
langvarigt
lank
lanka
lankar
lankarna
lanken
lans
lansera
lanserade
lanserades
lanserar
lanseras
lanserat
lansering
lanseringen
lansforsakringar
lansstyr
lansstyrelsen
lansstyrelsens
lant
lantagare
lantagaren
lantbruk
lantbrukare
lantmater
lapp
lappar
lapparna
lappen
lappland
lappstift
laptop
lar
lara
laran
larande
larandet
larar
larare
lararen
lararexamen
lararna
lararnas
larde
lardom
large
larjungar
larm
larmet
larob
larom
laromedel
laroplan
laroplanen
laror
larorikt
laros
larosaten
lars
larsson
lart
las
lasa
lasar
lasare
lasaren
lasaret
lasarett
lasarna
lasas
laser
lases
lask
laskig
laskiga
laskigt
lasning
lasningen
lass
lasse
last
lasta
lastbil
lastbilar
laste
lat
lata
latar
latarna
laten
later
latest
latex
latin
latina
latinska
latit
lats
latsas
latskrivare
latt
latta
lattare
lattast
lattaste
latte
latthet
lattillgang
lattlast
lattnad
laur
laura
lauren
lav
lavendel
law
lax
laxa
laxen
laxor
lay
layo
layout
lb
lc
lcd
lchf
ld
le
leader
league
lean
lear
learning
leasing
leave
led
leda
ledam
ledamot
ledamoter
ledamoterna
ledande
ledar
ledare
ledaren
ledarna
ledarskap
ledde
leden
leder
ledig
lediga
ledighet
ledigt
ledning
ledningar
ledningen
lednings
leds
ledsagare
ledsen
ledsna
ledtrad
lee
leende
left
leg
legat
legen
legend
legendar
legendariska
legg
leggings
legitim
legitimation
legitimerad
lego
leif
lejon
lek
leka
lekar
leken
leker
lekfull
lekplats
leksak
leksaker
leksand
lekt
lekte
lektion
lektionen
lektioner
lektionerna
lektor
lem
len
lena
lenn
lennart
leo
leon
leonard
leop
lept
ler
lera
les
lesb
lesbian
lesbisk
lesbiska
less
let
leta
letade
letar
letat
lett
lettland
leuc
lev
leva
levande
levde
level
lever
leveran
leverans
leveransen
leveranser
leveranstid
leverant
leverantor
leverantoren
leverantorer
leverantorerna
leverera
levererade
levererar
levereras
levererat
levern
levitra
levnad
levnads
levt
lew
lewis
lex
lexikon
lg
li
liam
liban
libanon
liber
liberal
liberala
liberalerna
libr
liby
libyen
lic
licens
licensen
lid
lida
lidande
lider
lidingo
lidkoping
lidl
lie
lif
life
lift
lig
liga
ligan
ligg
ligga
liggande
ligger
light
lii
lik
lika
likabehandling
likad
likadan
likadana
likadant
likas
likasa
likasinnade
like
likhet
likheter
likn
likna
liknade
liknande
liknar
liknas
liksom
likt
likval
likvardig
likvid
likviditet
lil
lila
lilj
lilje
lill
lilla
lillan
lillasyster
lille
lillebror
lilleman
lily
lim
lime
limhamn
limited
lin
lina
lind
linda
lindberg
linde
linder
lindes
lindex
lindgren
lindqvist
lindr
lindra
lindstrom
line
ling
lingon
linj
linje
linjen
linjer
linjerna
link
linkedin
linkoping
linkopings
links
linn
linne
linnea
lins
linser
linus
linux
lion
lip
lir
lira
lis
lisa
lise
liseberg
lissa
lissabon
list
lista
listade
listan
listar
listas
listat
lister
listor
lit
lita
litar
litauen
lite
litegrann
liten
liter
litet
litt
litter
litterara
litteratur
litteraturen
little
liv
live
liver
liverpool
lives
livet
livets
living
livlig
livliga
livmo
livmoder
livradd
livs
livskraft
livskraftig
livskval
livskvalitet
livsl
livslangd
livsmed
livsmedel
livsmedels
livsmedelsverket
livsstil
livstid
livsvikt
lix
lixom
lj
lju
ljud
ljudbok
ljudet
ljudniva
ljuga
ljuger
ljum
ljung
ljungby
ljus
ljusa
ljusare
ljusdal
ljuset
ljusst
ljusstyrka
ljust
ljuv
ljuvlig
ljuvliga
ljuvligt
ll
lm
lo
lobby
loc
local
lock
locka
lockade
lockande
lockar
lockas
locket
lod
lodge
lof
loft
lofte
loften
lofven
log
logg
logga
loggar
logi
logik
login
logiska
logiskt
logistik
logn
logner
logo
logoty
logotyp
loj
lojalitet
lojligt
lok
lokal
lokala
lokalbefolkningen
lokalen
lokaler
lokalerna
lokalisera
lokalt
lokaltidningen
loken
lol
lom
loma
lon
lona
lonar
lond
london
lone
lonek
lonen
loner
lonerna
lones
long
lonn
lonsam
lonsamhet
lonsamma
lonsamt
lont
loof
look
looking
loop
lop
lopa
lopande
lopar
lopare
loper
lopning
lopningen
lopp
loppet
loppis
loptid
lor
lord
lordag
lordagar
lordagen
lordagens
lordags
los
losa
losas
losen
losenord
losenordet
loser
losning
losningar
losningarna
losningen
loss
lost
loste
lot
lots
lott
lotta
lotter
lotteri
lotto
lotus
lou
louis
louise
lounge
lov
lova
lovade
lovande
lovar
lovat
love
lovely
loven
lovet
lovisa
lovskog
low
lp
lr
lrf
ls
lss
lt
ltd
lu
luc
lucas
luci
lucia
luck
lucka
luckan
luckor
lucky
lud
ludd
ludvig
ludvika
ludwig
luft
luften
luftfukt
luftfuktighet
luftkondition
luftkonditionering
luftt
lug
lugn
lugna
lugnande
lugnar
lugnare
lugnet
lugnt
luk
lukas
lukt
lukta
luktade
luktar
lukten
lul
lulea
lum
lun
lunch
lunchen
lunchtid
lund
lundberg
lundgren
lundin
lundqvist
lunds
lung
lungorna
lungt
lur
lura
lurad
lurade
lurar
luren
lus
lust
lusten
lustigt
lut
luta
lutar
luther
lutning
lux
luxem
luxemburg
lv
ly
lyck
lycka
lyckad
lyckade
lyckades
lyckan
lyckas
lyckat
lyckats
lycklig
lyckliga
lyckligare
lyckligt
lyckligtvis
lycko
lycksele
lyd
lydelse
lyder
lydnad
lyft
lyfta
lyfte
lyfter
lyfts
lyhord
lym
lymf
lyn
lyr
lyrics
lys
lysa
lysande
lysek
lysekil
lyser
lyss
lyssna
lyssnade
lyssnar
lyssnare
lyssnat
lyste
lyster
lyx
lyxig
lyxiga
lyxigt
m2
m3
ma
mac
mach
machine
mack
macka
mackor
macro
mad
madde
made
madele
madeleine
madison
madrass
madrid
maff
mag
magasin
magasinet
magaz
magazine
magdalen
magdalena
mage
magen
mager
magi
magic
magisk
magiska
magiskt
magister
magn
magnes
magnesium
magnet
magnif
magnus
magnusson
magsjuka
mah
mai
mail
maila
mailadress
main
maj
maja
maje
major
majoritet
majoriteten
majs
mak
maka
makal
makar
make
maken
makeup
maklar
maklare
maklaren
makro
makt
makten
maktig
maktiga
mal
mala
malad
malade
malar
malard
malare
malaren
malas
malat
malays
malaysia
male
malen
maleri
malet
malgrupp
malgruppen
malgrupper
mali
malin
mall
mallar
mallor
mallorca
malm
malmo
malmos
malning
malningar
malningen
malsattning
malsattningen
malskytt
malt
malta
maltid
maltiden
maltider
malung
maluppfyll
malva
malvakt
malvakten
mam
mamm
mamma
mamman
mammas
mammor
man
mana
manad
manaden
manadens
manader
manaderna
manaders
manads
manag
management
manager
manat
manatlig
manatliga
manchester
mand
mandag
mandagar
mandagen
mandags
mandat
mandatperiod
mandatperioden
mandel
manen
mang
manga
mangarig
mangd
mangden
mangder
mangfald
mangfalden
mangkult
mango
mangsid
mangsidig
mangt
manhattan
manifest
manikyr
manipul
manlig
manliga
manligt
mann
mannen
mannens
mannisk
manniska
manniskan
manniskans
manniskas
mannisko
manniskor
manniskorna
manniskors
manover
manovr
mans
mansk
mansklig
manskliga
manskligheten
manskligt
mant
manu
manual
manuell
manuellt
manus
manuset
many
map
mapp
mar
mara
marathon
maraton
marc
march
marcus
mardrom
mare
marg
margar
margaret
margareta
margin
marginal
mari
maria
marian
marianne
marie
mariehamn
mariestad
marin
marina
mario
mark
marka
markant
markas
marke
marken
marker
markera
markerade
markerar
markering
markes
market
marketing
marklig
markliga
markligt
marknad
marknaden
marknadens
marknader
marknads
marknadsand
marknadsfor
marknadsfora
marknadsforing
marknadsforings
markning
marks
markt
markta
markte
marktes
markts
markus
marmor
marock
marocko
marri
mars
marsch
mart
marta
marten
martin
martina
marx
mary
mas
masc
mascara
mask
masken
maskerad
maskeradklader
maskin
maskinen
maskiner
maskinerna
maskint
mass
massa
massage
massan
massera
massing
massiv
massiva
massor
massvis
mast
mastare
mastaren
maste
masten
master
mastercard
masters
masterskap
masterskapet
masterverk
mat
mata
matar
matare
matas
matbord
match
matcha
matchande
matchar
matchen
matchens
matcher
matcherna
matchmak
matchmaking
matchning
matemat
matematik
matematiska
maten
mater
materi
material
materialet
materiel
materiella
math
mathias
matilda
matlag
matlagning
matning
matningar
matningen
matratt
matratter
mats
matsal
matsalen
matsmalt
matt
matta
mattan
matte
matten
mattet
mattias
mattlig
mattligt
mattnad
mattor
mattsson
mature
maur
max
maxi
maxim
maximal
maximala
maximalt
maximera
may
maya
maz
mazily
mb
mc
mcc
mcdonald
mcdonalds
md
me
meck
med
medalj
medaljer
medan
medans
medarbet
medarbetar
medarbetare
medarbetarna
medbor
medborg
medborgar
medborgare
medborgarna
medborgarskap
meddel
meddela
meddelade
meddelande
meddelanden
meddelandet
meddelar
meddelas
meddelat
medel
medelalder
medelaldern
medelalders
medelhav
medelhavet
medelhavsklimat
medelhojden
medelinkomsten
medell
medelstora
medeltemperaturen
medeltid
medeltida
medeltiden
medfoljande
medfoljer
medfor
medfora
medforde
medfort
medge
medger
medgivande
medhjalp
medi
media
median
medias
medic
medical
medicin
medicinen
mediciner
medicinering
medicinsk
medicinska
medicinskt
medie
medier
medierna
meditation
medium
medlem
medlemmar
medlemmarna
medlemmarnas
medlemmen
medlems
medlemskap
medlemskapet
medlemsst
medlemsstat
medlemsstater
medlemsstaterna
medlen
medmanniskor
medverk
medverka
medverkade
medverkan
medverkande
medverkar
medverkat
medvet
medvetande
medveten
medvetenhet
medvetet
medvetna
meet
meg
mega
mej
mejer
mejl
mejla
mek
mekan
mekanis
mekanisk
mekaniska
mel
melan
melbourne
mell
mellan
melland
mellanmal
mellanostern
mellanrum
mellans
meller
mellersta
melod
melodi
melodifest
melodifestivalen
mem
member
membran
memor
men
menade
menar
menas
mening
meningar
meningen
menings
meningsfull
meningsfullt
meningslost
menmen
mens
ment
mental
mentala
mentalt
mentor
menu
meny
menyer
menyn
mer
mera
merc
mercedes
merit
meriter
meriterande
merparten
mervarde
mervardes
mervardesskatt
mes
mesh
mess
mest
mesta
mestadels
met
meta
metabol
metal
metall
metaller
mete
meteor
meter
meters
metod
metoden
metoder
metoderna
metoo
metro
mex
mexico
mexikanska
mexiko
mf
mff
mfl
mg
mhz
mi
mia
miam
miami
mic
mich
micha
michael
michel
michelle
mick
micke
micro
microgam
microgaming
microsoft
mid
midd
middag
middagar
middagen
midja
midjan
midnatt
midsommar
midsommarafton
mig
migr
migran
migration
migrations
migrationsverket
mik
mika
mikael
mikaela
mike
mikro
mikrof
mikrofon
mikrovag
mikrovagsugn
mil
milan
milano
mild
milda
milen
miles
milf
milfar
milfs
milit
militar
militara
militaren
militart
milj
miljard
miljarder
miljo
miljob
miljobalken
miljod
miljoer
miljok
miljom
miljon
miljoner
miljontals
miljop
miljopa
miljopart
miljopartiet
miljopaverkan
miljot
miljovan
miljovanlig
miljovanliga
miljovanligt
mill
millenn
miller
millimeter
milt
mim
mimmi
min
mina
mind
minderar
mindf
mindful
mindfulness
mindre
miner
mineral
mineraler
ming
mingel
mini
miniat
miniatyr
minig
minik
minim
minimal
minimalt
minimera
minimerar
minimum
minister
minn
minnas
minne
minnen
minnes
minnet
minns
minor
minoritet
mins
minsann
minska
minskad
minskade
minskar
minskas
minskat
minskning
minst
minsta
mint
minus
minusgrader
minut
minuten
minuter
minuterna
minuters
minuts
mio
mir
mira
mirakel
mis
miss
missa
missade
missar
missat
missbruk
missfor
missforstand
misshand
misshandel
mission
misslyck
misslyckade
misslyckades
misslyckande
misslyckas
misslyckats
missn
missnojd
missnoje
misst
misstag
misstank
misstanke
misstanker
misstanks
misstankt
misstankta
misstankte
missupp
mist
miste
mit
mitt
mittemot
mitten
mittfalt
mix
mixa
mixer
mj
mjol
mjolby
mjolk
mjolken
mjuk
mjuka
mjukare
mjukis
mjukt
mjukvara
mk
mkr
mkt
ml
mm
mma
mmm
mmmm
mn
mo
moa
mob
mobb
mobbning
mobel
mobil
mobila
mobile
mobilen
mobiler
mobilnummer
mobilt
mobiltelef
mobiltelefon
mobiltelefoner
mobl
mobler
moblerna
mock
mocka
mod
moda
mode
model
modell
modellen
modeller
modellerna
models
modem
moder
moderat
moderaterna
moderaternas
modern
moderna
modernare
modernt
modersmal
modet
modig
modo
modul
moduler
mog
mogel
mogen
moget
mogna
mognad
moh
mohamm
moj
mojlig
mojliga
mojligen
mojliggor
mojliggora
mojlighet
mojligheten
mojligheter
mojligheterna
mojligt
mojligtvis
mol
molekyl
moll
moller
molly
moln
molndal
molnen
mom
moment
moms
mon
mona
monark
monet
monetar
money
mongol
monica
monitor
monopol
monster
monstret
monsun
monsunklimat
mont
montage
monte
monter
montera
monterad
monterade
monteras
montering
monterings
montreal
monument
moon
moore
mop
moped
mor
mora
moral
moraliska
moraliskt
morbror
mord
mordare
mordet
more
morfar
morg
morgan
morgon
morgondagen
morgondagens
morgonen
morgont
mork
morka
morkare
morker
morkret
morkt
mormor
mormors
morn
morot
morotter
morr
mors
morsan
morse
mort
mos
mosa
mosaik
mose
mosk
moskva
moss
mossa
mossan
mossor
most
moster
mot
mota
motala
motas
mote
moten
motena
moter
motes
motesplats
motesplatsen
motesplatser
motet
motgangar
mother
motion
motionen
motioner
motiv
motivation
motivationen
motiver
motivera
motiverad
motiverade
motiverar
motivering
motiveringen
motivet
motor
motorcykel
motorcyklar
motorer
motorfordon
motorn
motorvag
motorvagen
mots
motsats
motsatsen
motsatt
motsatta
motsta
motstand
motstandare
motstandarna
motstandet
motstandskraft
motsvar
motsvara
motsvarande
motsvarar
motsvarighet
mott
mottag
mottagande
mottagare
mottagaren
mottagit
mottagning
mottagningen
motte
mottes
motverka
motverkar
mount
mounta
mountain
mous
mov
movie
movies
moz
mp
mp3
mp4
mr
ms
msb
msek
msk
msn
mt
mtb
mu
much
muff
muffins
mugg
muggar
muhamm
mul
mulet
mull
muller
mullig
mulliga
mult
multi
multif
multim
multip
multipl
multipla
mum
mums
mun
munchen
munk
munnen
munt
muntlig
muntliga
muntligt
mur
murar
muren
mus
muse
museer
museet
museets
musen
museum
music
musik
musikal
musikaliska
musiken
musiker
musk
muskel
muskler
musklerna
muskul
muslim
muslimer
muslimska
must
mut
mutt
mv
mvh
mw
my
mycke
mycket
mygg
myn
myndighet
myndigheten
myndighetens
myndigheter
myndigheterna
mynnar
mynt
myr
myror
mys
mysa
myser
mysig
mysiga
mysigt
myst
myste
myster
mystisk
mystiska
myt
myter
m²
na
nach
nack
nacka
nackdel
nackdelar
nackdelen
nacke
nacken
nad
nadde
nae
nag
nagel
nagellack
naglar
naglarna
nagon
nagons
nagonsin
nagonstans
nagonting
nagorlunda
nagot
nagra
naja
najs
nak
naked
naken
nakenbilder
naket
nakna
nal
nalle
nam
name
namligen
namn
namna
namnas
namnd
namnda
namnde
namnden
namndens
namnder
namnen
namner
namnet
namns
namnsdag
namnt
namnts
nan
nang
nans
nansin
nanstans
nanting
napol
napp
napra
nar
nara
narbild
narhet
narheten
naring
narings
naringsamnen
naringsid
naringsidkare
naringsliv
naringslivet
naringslivs
naringsverksamhet
nark
narkot
narkotika
narliggande
narm
narma
narmade
narmar
narmare
narmast
narmaste
narmre
narmsta
naromradet
narstaende
narvara
narvarande
narvaro
nas
nasa
nasan
nasdaq
nash
nass
nassjo
nast
nasta
nastan
nastintill
nastkommande
nat
natcasino
natdejta
natdejting
natet
nathal
nathalie
nation
national
nationalpark
nationals
nationell
nationella
nationellt
nationen
nationer
nato
natrium
natt
natta
natten
nattens
natter
natterna
nattetid
nattflyn
nattklubb
natts
natur
natura
natural
nature
naturen
naturens
naturlig
naturliga
naturligt
naturligtvis
naturreserv
naturreservat
naturskydd
naturvard
naturvards
naturvardsverket
naturvetenskap
natverk
natverket
nav
naval
navig
navigation
navigera
navigering
naz
nb
nba
nbsp
nc
nd
ne
nea
ned
nedan
nedanfor
nedanstaende
nedat
nedbryt
neder
nederbord
nederland
nederlanderna
nederlandska
nedfor
nedgang
nedladd
nedladdning
nedre
nedsatt
nedskar
nedstam
need
neg
negativ
negativa
negativt
neger
nej
nek
nell
nellie
nelly
nelson
nem
neo
neon
nepal
ner
nerat
nere
nerfor
nerv
nervos
nervost
nervsystemet
nes
net
netent
netflix
nett
netto
network
neu
neuro
neurolog
neutr
neutral
neutrala
nev
never
new
news
nex
next
ng
ngn
ngt
nhl
ni
nic
nice
nich
nicht
nick
nickade
nicke
nickel
nicklas
niclas
nicole
nig
niger
night
nik
nike
niklas
nikola
nikon
nikotin
nil
nils
nilsson
nim
nin
nina
nint
nintendo
nio
nionde
nisch
nissan
nisse
nit
nitt
niv
niva
nivaer
nivaerna
nivan
nja
njot
njur
njut
njuta
njuter
njutit
njutning
nk
nl
nm
no
nob
nobel
nod
nods
nodvand
nodvandig
nodvandiga
nodvandighet
nodvandigt
nodvandigtvis
nog
noga
noggran
noggrann
noggranna
noggrannhet
noggrant
noir
noj
noja
nojd
nojda
noje
nojen
nojer
nojes
nojet
nok
nokia
nol
noll
nom
nomin
nominerad
nominerade
non
nor
nora
norberg
nord
norda
nordamerika
nordan
norde
nordea
norden
nordens
nordic
nordisk
nordiska
nordiskt
nordkorea
nordost
nordostra
nordstrom
nordvast
nordvastra
norg
norge
norges
norm
normal
normala
normalt
norman
normen
normer
norr
norra
norrbotten
norrbottens
norrkoping
norrkopings
norrland
norrlands
norrtalje
norrut
norsk
norska
norske
nort
north
norweg
norwegian
nos
nost
nostal
nostalg
nostalgi
not
note
noter
notera
noterade
noterar
noteras
noterat
notering
notkott
nott
notter
nov
nova
novell
noveller
november
now
np
nr
ns
nt
nu
nud
nude
nudist
nuet
nufor
nufortiden
nul
nulaget
null
num
number
numer
numera
nummer
numr
numret
nun
nur
nuru
nut
nutid
nutida
nutr
nutrition
nuvarande
nv
ny
nya
nyan
nyanlanda
nyans
nyanser
nyar
nyare
nyars
nyarsafton
nyaste
nyberg
nybl
nybor
nyborjare
nybro
nybygg
nybyggda
nybyggnad
nyck
nyckel
nyckeln
nyckelord
nyckeltal
nycklar
nycklarna
nye
nyem
nyfik
nyfiken
nyfikenhet
nyfikna
nyfodda
nyforvar
nyg
nyhet
nyheten
nyheter
nyheterna
nyhets
nyhetsbrev
nyhetsbrevet
nyin
nykom
nykoping
nykter
nyligen
nylon
nym
nynas
nynashamn
nypa
nyrenover
nyskapande
nyss
nystart
nystartade
nystrom
nytank
nytankande
nytt
nytta
nyttan
nyttig
nyttiga
nyttigt
nyttja
oac
oaccep
oakt
oand
oandliga
oandligt
oanvand
oar
oarna
oas
oav
oavbr
oavgjort
oavsett
ob
obalans
obama
obe
obef
obefint
obefolkad
obegrans
obegransat
obegrip
obehag
obehaglig
obehagliga
obehagligt
obehor
obekv
obekvam
obekvama
ober
oberoende
obes
obeskriv
obest
obet
objekt
objektet
objektiv
oblig
obligationer
obligator
obligatorisk
obligatoriska
obligatoriskt
obs
observ
observation
observationer
observer
observera
oc
occ
oce
ocean
och
ock
ocksa
ockup
oct
od
odd
odds
oddsen
ode
odel
oden
odes
odla
odlade
odlar
odlas
odling
odmjuk
oec
oer
oerhort
of
ofar
ofatt
off
offens
offensiv
offent
offentlig
offentliga
offentlighet
offentligt
offer
offert
offic
office
officer
officiell
officiella
officiellt
offline
offra
offret
ofor
oforand
oforandrad
oforglom
oform
oforuts
ofrivill
ofrukt
ofruktbar
oft
ofta
oftare
oftast
ofull
ofullstand
ofver
og
oga
ogat
ogillar
ogilt
ogon
ogonblick
ogonblicket
ogonbryn
ogonen
ogonlock
ogonsk
ogras
ogynn
oh
ohalsa
ohl
ohlsson
oil
ointress
ointressant
oj
ojam
ojamn
ojoj
ok
oka
okad
okade
okand
okanda
okande
okant
okar
okas
okat
okej
oken
okenklimat
oklar
oklart
oknen
okning
okningen
okom
okomplic
okomplicerad
okt
oktober
okunn
ol
ola
olag
olagligt
olamp
olampligt
oland
old
older
ole
olen
olik
olika
olikheter
oliv
oliver
olivia
olivolja
olj
olja
oljan
olje
oljem
oljemassage
oljor
oll
olle
olof
olofsson
olov
olsson
olyck
olycka
olyckan
olyckligt
olyckor
olycksfall
olymp
olympiska
om
omatt
omb
ombord
ombud
ombygg
ombyggnad
omd
omdom
omdome
omdomen
omdomet
omed
omedel
omedelbar
omedelbara
omedelbart
omedvetet
omega
omfatt
omfatta
omfattade
omfattande
omfattar
omfattas
omfattning
omfattningen
omfor
omg
omgaende
omgang
omgangar
omgangen
omger
omgiv
omgivande
omgiven
omgivning
omgivningar
omgivningarna
omgivningen
omhand
omhander
omhandert
omhandertagande
omk
omklad
omkladnings
omkladningsrum
omkring
omkull
omnamn
omne
omnejd
omoj
omojlig
omojliga
omojligt
omrade
omraden
omradena
omrades
omradet
omradets
omrostning
omsatta
omsatter
omsattning
omsattningen
omsattningskrav
omses
omsesidigt
omslag
omslaget
omsorg
omstallning
omstand
omstandighet
omstandigheter
omstandigheterna
omt
omtal
omtalade
omtank
omtanke
omtyck
omtyckt
omval
omvand
omvandla
omvandlas
omvard
omvardnad
omvarld
omvarlden
omvax
omvaxlande
omx
on
onan
onanera
onanerar
onani
ond
onda
one
onekligen
onlin
online
onlinek
onlinekasinon
onlinespel
only
onod
onodan
onodig
onodiga
onodigt
onor
ons
onsdag
onsdagar
onsdagen
onsdags
onsk
onska
onskad
onskade
onskan
onskar
onskas
onskat
onskel
onskelista
onskemal
onskningar
onskvart
ont
ontar
ontario
onytt
oon
oonskade
oover
op
opart
open
oper
opera
operan
operat
operation
operationen
operationer
operativ
operativa
operativsystem
operator
operatorer
opin
opinion
opinions
opp
oppen
oppenhet
oppet
oppett
oppettider
oppna
oppnade
oppnades
oppnar
oppnas
oppnat
oppning
oppningen
opposition
oppositionen
opt
optim
optimal
optimala
optimalt
optimera
option
optioner
or
ora
oral
oralsex
orang
orange
orat
oratt
orattvist
orch
ord
ordbok
orden
ordent
ordentlig
ordentligt
order
ordern
ordet
ordfor
ordforande
ordforanden
ordin
ordinarie
ordna
ordnade
ordnar
ordnas
ordnat
ordning
ordningen
ordnings
ore
orebro
oreg
oregel
ores
oresund
org
organ
organis
organisation
organisationen
organisationens
organisationer
organisationerna
organisations
organisationsnummer
organisatoriska
organisera
organiserad
organiserade
organiserar
organiserat
organiska
organiskt
organismer
orgas
orgasm
orgel
orgie
orginal
orhang
orhangen
orient
oriental
orienter
orientering
orig
origin
original
originalet
orim
orimligt
oring
ork
orka
orkade
orkar
orkat
orken
orkester
orkide
orkideart
orkideer
orm
orn
ornskold
ornskoldsvik
oro
oroa
oroar
orolig
oroliga
oron
oronen
orsa
orsak
orsaka
orsakade
orsakar
orsakas
orsakat
orsaken
orsaker
orsakerna
ort
orten
orter
ortoped
os
osa
osaker
osakerhet
osakert
osakra
osann
osannol
osannolikt
osc
oscar
oscars
oser
osk
oskar
oskarshamn
oskuld
oskydd
oskyld
oskyldig
oskyldiga
oslag
oslo
osm
oss
ost
osta
ostar
oste
osten
oster
osterbotten
ostergotland
ostergotlands
osterlen
ostermalm
osterrik
osterrike
ostersjon
ostersund
ostersunds
osterut
ostr
ostra
osv
osyn
osynlig
osynliga
ot
otack
otal
otaliga
otank
other
otill
otillrack
otillracklig
otro
otrogen
otrogna
otrohet
otrolig
otroliga
otroligt
otrygg
ott
ottawa
otto
otur
ou
oum
ound
oundvik
oupp
our
out
outcall
outdo
outf
outfit
outfits
outlet
outlook
ov
ova
ovan
ovanfor
ovanlig
ovanliga
ovanligt
ovanpa
ovans
ovanstaende
ovant
ovantad
ovantade
ovantat
ovar
ovarder
ove
over
overallt
overbel
overbl
overblick
overdos
overdr
overdriven
overdrivet
overen
overens
overenskom
overenskomm
overenskommelse
overenskommelsen
overenskommelser
overensstam
overensstamm
overensstammelse
overensstammer
overflod
overfor
overfora
overforas
overforing
overfors
overg
overga
overgang
overgangen
overgar
overgick
overgrepp
overgripande
overhuvud
overhuvudtaget
overk
overklag
overklaga
overklagande
overklagas
overkligt
overl
overlag
overlagsen
overlagset
overlagsna
overlakare
overlam
overlamn
overlamna
overlat
overlatelse
overlev
overleva
overlevde
overlever
overlevnad
overlevt
overlycklig
overnatt
overnattning
overnatur
overra
overraska
overraskad
overraskade
overraskande
overraskning
overraskningar
overre
overrepresenterade
overs
oversatt
oversatta
oversattare
oversattning
oversattningar
oversattningen
oversikt
overskad
overskott
overskr
overst
oversta
overste
overstiga
overstiger
oversv
oversvam
oversyn
overt
overtal
overtala
overtid
overtog
overtrad
overtyg
overtyga
overtygad
overtygade
overtygande
overtygelse
overv
overvag
overvaga
overvagande
overvaganden
overvager
overvak
overvaka
overvakning
overvald
overvaldigande
overvaningen
overvikt
ovis
ovning
ovningar
ovningarna
ovningen
ovnings
ovr
ovre
ovrig
ovriga
ovrigt
ow
own
ox
oxa
oxford
oxid
oy
oz
p1
p3
p4
pa
pabor
paborj
paborja
paborjade
paborjades
paborjar
paborjas
paborjat
paborjats
paci
pack
packa
packade
packar
packat
packning
pad
padd
pafrest
pag
paga
pagaende
pagar
pagatt
page
pagick
pah
pahitt
pai
paint
paj
pak
paket
paketer
paketet
pakistan
pal
pala
palace
palats
pale
palest
palestin
palestina
palestinska
palit
palitlig
palitliga
pall
pallar
palm
palme
palmer
pals
palsen
pam
pamin
pamind
paminde
paminn
paminna
paminnelse
paminner
pan
pancake
pand
panel
panelen
pang
panik
pann
panna
pannan
pannkaka
pannkakor
panor
panorama
pans
pansar
pant
pap
pape
papek
papeka
papekade
papekar
paper
papp
pappa
pappan
pappas
papper
pappers
pappersarbete
pappor
pappret
papr
paprika
par
para
parad
paradis
paradise
paradiset
paradox
parag
paragraf
paragrafen
parall
parallell
parallella
parallellt
param
parametrar
paraply
paras
parasit
paren
paret
parf
parfym
parfymer
paris
park
parken
parker
parkera
parkering
parkeringen
parkerings
parkeringsplats
parkeringsplatser
parkett
parl
parla
parlam
parlament
parlamentar
parlamentet
parlor
parm
parmes
parmesan
paron
part
parten
parter
parterna
parti
partier
partierna
partiet
partiets
partik
partiklar
partiled
partiledare
partille
partip
partis
partner
partnern
partners
partnerskap
party
pas
pasar
pase
pasen
pask
pasken
paskl
pass
passa
passade
passage
passagen
passager
passagerar
passagerare
passande
passar
passat
passen
passera
passerade
passerar
passerat
passet
passform
passion
passiv
passning
past
pasta
pastaende
pastaenden
pastaendet
pastar
pastas
pastod
pastor
pastorat
pat
patag
pataglig
patagligt
patent
patient
patienten
patientens
patienter
patienterna
patraff
patri
patriark
patric
patrick
patrik
patt
paul
paula
paulus
paus
pav
pavag
paven
paverk
paverka
paverkad
paverkade
paverkan
paverkar
paverkas
paverkat
pay
payday
paypal
pa¥
pb
pc
pdf
pe
pea
peace
peak
pearl
ped
pedagog
pedagoger
pedagogik
pedagogisk
pedagogiska
pedagogiskt
peder
pedo
peg
pehr
pek
peka
pekade
pekar
peking
pel
pelar
pell
pelle
pellets
pen
pend
pendel
pendeltag
pendlar
penetr
penetration
peng
pengar
pengarna
penis
penn
penna
pennan
penning
pennor
pens
pensel
pension
pensionar
pensionarer
pensionars
pensionen
pensioner
pent
people
pepp
peppar
peppark
pepparkak
pepparkakor
per
perfect
perfekt
perfekta
perfektion
performan
performance
peri
period
perioden
periodens
perioder
periodiskt
permal
permalanken
perman
permanent
permanenta
pern
pernilla
pers
persien
persilja
persiska
person
personal
personalen
personalens
personals
personbil
personbilar
personen
personens
personer
personerna
personers
personlig
personliga
personligen
personlighet
personligheter
personlighetstest
personligt
personnummer
persons
personuppgift
personuppgifter
personuppgifterna
personuppgifts
personuppgiftsansvarig
personuppgiftslagen
perspektiv
perspektivet
persson
peru
pest
pet
peta
peter
petersburg
petite
petra
petro
petrus
petter
pettersson
pf
pg
pga
ph
pha
pharma
phil
philadel
philadelphia
philip
philipp
philips
phoen
phoenix
phone
phot
photo
photos
photoshop
php
phys
pi
pia
pian
piano
pic
pick
picknick
pics
pict
picture
pictures
pie
pier
pierre
piff
pig
pigg
pigga
piggare
pigment
pik
pil
pilgrim
pill
pilla
piller
pilot
pim
pin
ping
pingst
pink
pinn
pinnar
pinne
pinsamt
pinter
pinterest
pion
pionjar
pip
piper
pippi
pir
pirat
piratpartiet
pisk
piss
pist
pistol
pit
pitch
pite
pitea
pitt
pittore
pix
pixlar
piz
pizz
pizza
pizzeria
pjas
pjasen
pk
pl
pla
plac
place
placera
placerad
placerade
placerades
placerar
placeras
placerat
placering
placeringar
placeringen
plag
plagg
plagget
plan
planbok
planboken
planen
planer
planera
planerad
planerade
planerar
planeras
planerat
planering
planeringen
planerings
planerna
planet
planeten
plank
planlosning
plans
plant
plantera
plantering
plantor
plas
plast
plaster
plat
plata
platen
plats
platsen
platser
platserna
platt
platta
plattan
plattform
plattformar
plattformen
plattor
play
player
playstation
plaza
ple
please
plikt
plock
plocka
plockade
plockar
plockas
plockat
plog
plomm
plommon
plots
plotslig
plotsligt
plug
plugg
plugga
pluggade
pluggar
pluggat
plus
pluss
pm
po
poang
poangen
pock
pocket
pod
podcast
podd
podden
poesi
poet
point
poj
pojk
pojkar
pojkarna
pojke
pojken
pojkv
pojkvan
pok
pokemon
poker
pol
polar
polare
polen
polic
policy
polis
polisen
polisens
poliser
polismyndigheten
polit
politik
politiken
politiker
politikerna
politisk
politiska
politiskt
poll
pollen
polsk
polska
poly
polyester
pom
pommes
pon
ponn
ponny
pont
pontus
pool
poolen
poor
pop
popcorn
popp
popul
popular
populara
popularaste
popularitet
populart
population
por
porfilm
porn
pornhub
porno
pornografi
pornografiska
pornos
pornstar
pornstars
porr
porrbilder
porrfilm
porrfilmer
porriga
porrsajter
porrstjarna
porrstjarnor
porslin
port
portal
portar
portarna
porten
portfolj
portfoljen
portion
portioner
porto
portratt
portug
portugal
portugis
portugisiska
pos
posit
position
positionen
positioner
positiv
positiva
positivt
poss
post
posta
postades
postadress
postadresse
postadressen
postat
posted
posten
poster
postnord
postnummer
posts
pot
potatis
potatisen
potent
potential
potentialen
potentiell
potentiella
potentiellt
pott
potter
pour
pov
pow
power
powered
pp
pr
pra
prag
pragel
praglas
prakt
praktfjarilar
praktik
praktiken
praktisk
praktiska
praktiskt
prast
prasten
praster
prat
prata
pratade
pratar
pratas
pratat
praxis
pre
precis
precision
pred
predik
predika
prefekt
preferenser
prel
prelimin
preliminar
preliminara
prem
premi
premiar
premiaren
premiarminister
premie
premier
premium
pren
prenumer
prenumeration
prenumerera
prepar
preparat
pres
present
presentation
presentationen
presentationer
presenter
presentera
presenterade
presenterades
presenterar
presenteras
presenterat
presentkort
president
presidenten
press
pressa
pressad
pressade
pressar
pressen
presskonferens
pressmeddelande
prest
prestand
prestanda
prestation
prestationer
prestations
prester
prestera
presterar
prestig
prestigef
pretty
prev
prevent
preventiv
price
prick
pricka
prickar
pricken
pride
prim
prima
primar
primara
primart
primarvard
primarvarden
prime
prin
prince
princi
princip
principen
principer
principerna
prins
prinsen
prinsess
prinsessa
prinsessan
print
prior
prioriter
prioritera
prioriterade
prioriterar
prioriteras
prioritering
prioriteringar
prioritet
pris
prisbel
priser
priserna
priset
prisk
prisklass
prist
prisut
prisvard
prisvarda
prisvart
priv
priva
privat
privata
private
privatlan
privatliv
privatperson
privatpersoner
privileg
prix
pro
problem
problemat
problematik
problematiken
problematiskt
problemen
problemet
proced
procedur
procent
procentenheter
proces
process
processen
processer
processor
prod
produ
produc
producent
producenten
producenter
producera
producerad
producerade
producerar
produceras
producerat
product
products
produkt
produkten
produkter
produkterna
produktion
produktionen
produktioner
produktions
produktiv
produktivitet
produktutveckling
prof
profess
profession
professional
professionell
professionella
professionellt
professor
profet
profeten
proff
proffs
profil
profilen
profiler
profilering
prog
prognos
prognosen
prognoser
program
programledare
programmen
programmer
programmering
programmet
programvara
programvaran
progress
progressiv
progressiva
proje
project
projekt
projekten
projektering
projektet
projektets
projektledare
projektledning
prom
promen
promenad
promenaden
promenader
promenera
promenerade
promenerar
pron
prop
propag
propaganda
propert
proport
proportion
proportioner
proposition
propositionen
propp
prospekt
prost
prostat
prostata
prostitu
prostituerade
prostitution
prot
prote
protected
protein
proteiner
protest
protester
protokoll
protokollet
prov
prova
provade
provar
provas
provat
proven
prover
provet
provin
provincia
provins
provinsen
provinshuvud
provinshuvudstaden
provning
provningar
provningen
provoc
provtagning
pryd
prydnad
pryl
prylar
ps
ps3
psal
psalm
pse
pseud
psy
psych
psyk
psykiat
psykiatri
psykisk
psykiska
psykiskt
psykolog
psykologi
psykologisk
psykologiska
psykop
psykos
psykosoci
psykoter
pt
pter
pts
pu
pub
publ
public
publicera
publicerad
publicerade
publicerades
publicerar
publiceras
publicerat
publicerats
publicering
publik
publika
publikation
publikationer
publiken
publisert
publish
published
puck
pucken
pud
puder
puerto
puff
puh
pul
pula
pulka
pull
puls
pulsen
pulver
pum
puma
pump
pumpa
pumpar
pumpen
pun
pund
punga
punk
punkt
punkten
punkter
punkterna
punta
pur
pure
pus
push
puss
pussar
pussel
pussy
pust
put
putin
puts
putsa
putt
pv
pvc
pw
py
pyjam
pyjamas
pynt
pyr
pyram
pyramid
pyss
pyssel
pyssla
pysslar
pytt
pе
qa
qu
quad
qual
quality
que
quebec
quebrada
queen
queens
queensland
quest
quick
quiz
quot
quote
ra
raa
rabar
rabarber
rabat
rabatt
rabatten
rabatter
rabattkod
rabattkoder
rabb
rabbit
race
racer
racing
rack
racka
racker
rackhall
rackte
rackvidd
rad
rada
radande
radar
radd
radda
raddade
raddar
radde
raddning
raddnings
raddningst
raddningstjanst
raddningstjansten
raden
rader
radera
raderas
raderna
radet
radets
radgivare
radgivning
radhus
radi
radik
radikal
radikala
radikalt
radio
radion
radios
radiost
radjur
radon
radsla
radslan
raff
raffin
rag
ragg
ragnar
rain
rak
raka
rakade
rakar
rakat
raken
rakenskap
rakenskapsaret
raket
rakna
raknade
raknar
raknas
raknat
rakning
rakningar
rakningen
rakor
rakt
ral
rall
rally
ralph
ram
rama
ramar
ramarna
ramavtal
ramen
ramla
ramlade
ramlar
ramp
ran
rand
random
rang
range
rank
ranking
rann
rans
rant
ranta
rantan
rante
ranten
rantor
rap
rapp
rapport
rapporten
rapporter
rapportera
rapporterade
rapporterar
rapporteras
rapporterat
rapporterats
rapportering
raps
rar
ras
rasande
rasar
rasen
raser
rasism
rasistiska
rask
rasmus
rast
rastlos
rat
rata
rating
ration
rats
ratt
ratta
rattare
rattegang
rattegangen
rattelse
ratten
ratter
rattfard
rattighet
rattigheter
rattigheterna
ratts
rattslig
rattsliga
rattsvas
rattvik
rattvis
rattvisa
rattvist
rav
ravar
ravaror
raven
raw
ray
rb
rc
rd
re
rea
read
reading
ready
reag
reagera
reagerade
reagerar
reakt
reaktion
reaktioner
real
realistisk
realistiska
realistiskt
reality
really
realt
realtid
rebecca
rebeck
rebecka
rec
recens
recension
recensioner
recept
recepten
receptet
receptfritt
reception
receptionen
reci
records
red
reda
redakt
redaktion
redaktionen
redaktor
redan
reddit
reder
redig
redigera
redigering
redo
redog
redogor
redogora
redogorelse
redov
redovis
redovisa
redovisade
redovisar
redovisas
redovisning
redovisningen
redovisnings
redskap
reduc
reducera
reducerad
reducerar
reduceras
ref
refer
referens
referenser
refererar
refinansiering
reflekt
reflektera
reflekterar
reflektion
reflektioner
reflex
reform
reformer
refr
reg
regel
regelbund
regelbunden
regelbundet
regelbundna
regeln
regelverk
regelverket
regemente
reger
regerande
regering
regeringar
regeringen
regeringens
regerings
regi
regim
regimen
region
regional
regionala
regionalt
regionen
regionens
regioner
regiss
regisser
regissor
regissoren
register
registr
registrera
registrerad
registrerade
registrerades
registrerar
registreras
registrerat
registrering
registreringen
registret
regl
reglem
regler
reglera
reglerar
regleras
reglering
regleringen
reglerna
regn
regna
regnade
regnar
regnat
regnbag
regnet
regnigaste
regnskog
regnskogsklimat
regul
reha
rehab
rehabiliter
rehabilitering
rein
reinfeldt
rej
rejal
rejala
rejalt
rek
reklam
reklamen
rekom
rekomen
rekommen
rekommend
rekommendation
rekommendationer
rekommendera
rekommenderad
rekommenderade
rekommenderar
rekommenderas
rekommenderat
rekord
rekre
rekreation
rekry
rekrytera
rekrytering
rekt
rektang
rektor
rektorn
rekvis
rel
relater
relatera
relaterade
relaterat
relation
relationen
relationer
relationerna
relativ
relativa
relativt
relax
rele
release
relev
relevans
relevant
relevanta
relig
religion
religionen
religioner
religios
religiosa
religiost
rem
remiss
remissinstans
ren
rena
renar
renare
renault
rencont
rencontre
rengor
rengora
rengoring
rengoringsmedel
rening
renings
renod
renover
renovera
renovering
renoveringen
rens
rensa
rensar
rensat
rent
rentav
rep
repa
repar
reparation
reparationer
reparera
repe
repert
repet
repetition
repl
replik
reply
repor
report
reportage
reporter
repres
represent
representant
representanter
representation
representer
representera
representerad
representerade
representerar
repris
reproduc
reproducerande
republ
republiken
requ
res
resa
resan
resande
resans
resar
rese
research
resen
resenarer
reser
reserv
reservation
reservdelar
reserver
reserverar
residens
resmal
reson
resonemang
resonerar
resor
resort
resp
respekt
respektera
respekterar
respektive
respon
responden
respons
rest
restaur
restaurang
restaurangen
restauranger
restaurangerna
reste
resten
rester
resterande
resterna
restr
restrikt
restriktioner
resul
resultat
resultaten
resultatet
resultera
resulterade
resulterar
resulterat
results
resur
resurs
resurser
resurserna
ret
reta
retor
retorik
retro
retur
return
reumat
reuter
rev
revansch
revid
review
reviews
revis
revision
revisions
revisor
revisorer
revisorerna
revolut
revolution
revolutionen
revolutioner
revolutionerande
revs
rex
reyk
reykja
reykjavik
rf
rfs
rfsu
rgb
rh
rhod
ri
ria
ribb
ric
rica
rich
richard
rick
rickard
rid
rida
ridd
riddar
rider
ridhuset
ridit
ridning
ridsport
rig
riga
rigg
right
rights
rik
rika
rikard
rikare
rike
rikedom
riket
rikets
riklig
rikligt
riks
riksb
riksbank
riksbanken
riksdag
riksdagen
riksdagens
riksdagsled
riksdagsledamot
riksdelen
riksforbund
rikt
rikta
riktad
riktade
riktar
riktas
riktat
riktig
riktiga
riktigt
riktlin
riktlinjer
riktlinjerna
riktning
riktningar
riktningen
rim
rimlig
rimliga
rimligen
rimligt
rin
ring
ringa
ringar
ringde
ringen
ringer
rings
ringt
rinna
rinnande
rinner
rio
rip
ris
rise
risk
riska
risken
risker
riskera
riskerar
riskerna
rit
rita
ritade
ritar
ritat
ritning
ritningar
ritu
riv
riva
rival
riven
river
riz
rizk
rm
ro
roa
road
rob
robb
robert
roberts
robin
robinson
robot
robotar
robust
robusta
rock
rod
roda
rodbet
rodd
rodgrona
rodlok
rodvin
rog
roger
roj
roja
rok
roka
rokare
roker
rokning
rokt
rol
roland
rolf
rolig
roliga
roligare
roligast
roligaste
roligt
roll
rollen
roller
rollerna
rollspel
rom
roma
roman
romanen
romaner
romant
romantik
romantisk
romantiska
romantiskt
romer
romersk
romerska
ron
rond
ronja
ronn
ronne
ronneby
ront
rontgen
room
rooms
roos
rop
ropa
ropade
ropar
ror
rora
rorande
rord
rorde
rorels
rorelse
rorelsen
rorelser
rorelseresultat
roret
rorigt
rorlig
rorliga
rorlighet
rorm
rort
ros
rosa
rose
rosen
roslag
rosor
ross
rost
rosta
rostade
rostar
rostat
rosten
roster
rosterna
rostfritt
rostratt
rot
rota
roten
roth
rott
rotter
rotterna
rouge
roulette
round
router
rov
rovdjur
roven
row
roy
royal
rp
rs
rss
rt
ru
rub
rubb
rubrik
rubriken
rubriker
rud
rudolf
rug
rugg
ruisseau
rull
rulla
rullade
rullande
rullar
rullat
rulle
rullstol
rum
rumanien
rummen
rummet
rumpa
rumpan
rumpor
rums
rumstemperatur
run
rund
runda
rundan
rundor
rundtur
rune
runk
runka
runkar
runt
runtom
runtomkring
rus
rusar
rusk
ruskigt
russ
russin
rust
rusta
rut
ruta
rutan
rutin
rutiner
rutinerna
rutor
rutt
ry
ryan
ryck
rycka
rycker
ryckte
ryd
rygg
ryggen
ryggsack
rykt
rykte
rykten
ryktet
rym
rymd
rymden
rymlig
rymliga
rymligt
rymma
rymmer
ryms
ryn
rynkor
rys
rysk
ryska
ryss
ryssland
rysslands
ryt
rytm
rytt
ryttare
sa
saa
saaa
saaaa
saab
sab
sabb
sac
sack
sad
sadan
sadana
sadant
sadar
sade
sadel
sadeln
sades
saf
safari
safe
saff
saffran
saft
sag
saga
sagan
sagas
sager
sagol
sagor
sags
sagt
sagts
sahar
sahl
sahlgrenska
sahlin
saint
sajt
sajten
sajter
sak
saken
saker
sakerhet
sakerheten
sakerheter
sakerhets
sakerhetsatgarder
sakerhetskop
sakerligen
sakerna
sakerstalla
sakerstaller
sakert
sakkunn
saklart
sakna
saknad
saknade
saknades
saknar
saknas
saknat
sakra
sakrade
sakrare
sakt
sakta
sal
sala
sald
salda
salde
saldes
sale
saledes
salen
sales
salig
salj
salja
saljare
saljaren
saljas
saljer
saljes
saljs
sall
sallad
salladen
sallader
sallan
sallskap
sallskapet
sallsynt
sallsynta
sally
salong
salongen
salonger
salt
salta
salts
salu
salunda
salv
sam
samarbet
samarbeta
samarbetar
samarbete
samarbeten
samarbetet
samarbets
samarbetspart
samarbetspartner
samarbetspartners
samband
sambandet
sambo
sambon
same
samfall
samfund
samhall
samhalle
samhallen
samhallet
samhallets
samhalls
samhallsbygg
samhallsbyggnad
samhallsvetenskap
samiska
samla
samlad
samlade
samlades
samlag
samlar
samlas
samlat
samlats
samling
samlingar
samlingen
samm
samma
samman
sammandrag
sammanfatt
sammanfatta
sammanfattar
sammanfattning
sammanfattningsvis
sammanhang
sammanhangande
sammanhanget
sammank
sammankom
sammankopp
sammanlagda
sammanlagt
sammans
sammansatt
sammansattning
sammanslag
sammanslut
sammanstalla
sammanstallning
sammanstallt
sammant
sammantaget
sammantrade
sammantrades
sammantradesprotokoll
sammantradet
sammet
samord
samordna
samordnare
samordning
samordnings
samrad
samre
sams
samspel
samspelet
samst
samsta
samsung
samt
samtal
samtala
samtalen
samtalet
samtid
samtida
samtidigt
samtliga
samtycke
samtycker
samuel
samuelsson
samverk
samverka
samverkan
samverkans
samverkar
samvete
san
sana
sand
sanda
sandaler
sandas
sandberg
sande
sanden
sander
sandes
sandning
sandningar
sandra
sands
sandstrand
sandstrom
sandvik
sandviken
sanering
sang
sangar
sangare
sangaren
sangarna
sangen
sanger
sangerskan
sangklader
sank
sanka
sanker
sanks
sankt
sankta
sankte
sanktion
sann
sanna
sannerligen
sanning
sanningar
sanningen
sannings
sannol
sannolik
sannolikhet
sannolikheten
sannolikt
sans
sant
santa
santiago
santo
sao
sap
sapass
sar
sara
sarah
sarajevo
sarbar
sare
sark
sarskil
sarskild
sarskilda
sarskilt
sas
sasen
sasom
sason
sasong
sasongen
sasongens
sasonger
sasongerna
sat
satan
sate
satell
satellit
sater
satir
sats
satsa
satsade
satsar
satsat
satsning
satsningar
satsningen
satt
satta
sattas
satte
satten
satter
sattes
sattet
satts
saudi
saudiara
saudiarabien
sav
saval
savann
savannklimat
savannskog
save
savida
savitt
saw
sax
say
sa¥
sb
sc
sca
scan
scand
scandic
scandinav
scandinavia
scania
scar
scb
scen
scenar
scenario
scenen
scener
sch
scha
schabl
schablon
schack
schakt
schamp
schampo
schema
schemal
schemat
schen
schiz
schlager
school
schwar
schwe
schweiz
schysst
sci
science
scient
sco
scot
scott
scout
scouter
scrap
screen
sd
se
sea
sean
search
season
seb
sebast
sebastian
sec
second
secret
secur
security
sed
sedan
sedd
seder
sedermera
sedvanliga
see
seg
sega
segel
seger
segern
segla
seglar
segling
segment
segr
segrar
segt
sej
sek
sekel
sekelskiftet
sekr
sekret
sekreterare
sekretes
sekretess
sekt
sektion
sektionen
sektioner
sektor
sektorn
sekund
sekunden
sekunder
sekvens
sel
sele
select
selen
self
sell
selma
sem
semest
semester
semestern
semi
semif
semifinal
semifinalen
seminari
seminarier
seminariet
seminarium
sen
sena
senap
senare
senast
senaste
seni
senior
seniorer
sens
sensation
sensom
sensor
sensorer
sensuell
sent
seo
seoul
sep
separ
separat
separata
sept
septem
september
ser
serb
serie
serien
seriens
serier
serierna
series
seriet
serios
seriosa
seriost
serum
serv
server
servera
serverade
serverades
serverar
serveras
servering
servern
servic
service
servicen
services
servit
servrar
ses
sesam
sess
session
set
sett
setts
sevard
sevardheter
sex
sexannonser
sexbilder
sexbutik
sexchatt
sexfilm
sexfilmer
sexig
sexiga
sexigt
sexkontakt
sexlek
sexleksak
sexleksaker
sexliv
sexnoveller
sexshop
sexstallningar
sext
sexton
sexual
sexualitet
sexuell
sexuella
sexuellt
sexvideo
sexy
sf
sfar
sfi
sfs
sg
sh
sha
shad
shakes
shan
shang
shanghai
share
she
shemal
shemale
sher
shi
shir
shirt
shirts
shit
shl
sho
shop
shopp
shoppa
shoppade
shoppat
shopping
short
shorts
shot
show
showen
shower
si
sia
sib
sibir
sic
sick
sid
sida
sidan
side
siden
sido
sidor
sidorna
sie
sier
sierra
sif
siff
siffra
siffran
siffror
siffrorna
sifo
sig
sigge
sights
sign
signal
signalen
signaler
signat
signatur
signerat
signifik
signifikant
sigt
sigtuna
sik
sikt
sikta
siktar
sikte
sil
sildenafil
silikon
silk
silkes
sill
silv
silver
sim
simma
simmade
simmar
simning
simon
simp
simpel
simrishamn
sims
simul
sin
sina
sing
singap
singapore
singel
singeln
singlar
single
singles
sinn
sinne
sinnen
sinnes
sinnet
sip
sipp
sir
sirap
siri
sirius
sis
sisadar
sist
sista
siste
sister
sistnamnda
sistone
sit
site
sites
sits
sitt
sitta
sittande
sitter
sittplatser
situ
situation
situationen
situationer
siv
six
size
sj
sjal
sjalar
sjalen
sjalv
sjalva
sjalvaste
sjalvbi
sjalvfallet
sjalvfort
sjalvfortroende
sjalvkansla
sjalvklar
sjalvklara
sjalvklarhet
sjalvklart
sjalvmord
sjalvrisk
sjalvstand
sjalvstandig
sjalvstandiga
sjalvstandighet
sjalvstandigt
sjalvt
sjatte
sjo
sjoar
sjoarna
sjoberg
sjof
sjofart
sjog
sjogren
sjom
sjon
sjong
sjonk
sjoprocent
sjost
sju
sjuk
sjuka
sjukdom
sjukdomar
sjukdomen
sjukfran
sjukgym
sjukgymnast
sjukhus
sjukhuset
sjukpenning
sjukskoter
sjukskoterska
sjukskoterskor
sjukskriven
sjukskrivning
sjukt
sjukvard
sjukvarden
sjukvards
sjun
sjunde
sjung
sjunga
sjunger
sjunka
sjunker
sjunkit
sjutt
sjutton
sk
ska
skad
skada
skadad
skadade
skadades
skadan
skadar
skadas
skadat
skadats
skade
skadegorelse
skadespel
skadespelare
skadespelaren
skadespelarna
skadespeler
skadestand
skadlig
skadliga
skadligt
skador
skadorna
skaff
skaffa
skaffade
skaffar
skaffat
skaft
skagg
skak
skaka
skakade
skakar
skal
skala
skalan
skalar
skalb
skalbagg
skalbaggsart
skald
skaldjur
skalen
skalet
skalig
skall
skallen
skam
skamlosa
skammas
skams
skamt
skan
skand
skandal
skandia
skandinav
skandinavien
skandinaviens
skandinaviska
skane
skanes
skank
skanka
skanker
skansen
skanska
skap
skapa
skapad
skapade
skapades
skapande
skapandet
skapar
skapare
skapas
skapat
skapats
skapelse
skapet
skar
skara
skaraborg
skargard
skargarden
skarholmen
skarm
skarmar
skarmen
skarp
skarpa
skarpt
skars
skate
skatt
skatte
skattebetal
skattef
skattem
skattemassiga
skatten
skatter
skattes
skatteverket
skattskyld
skav
ske
sked
skedde
skede
skelett
skell
skelleftea
sken
skepp
skeppet
skepps
skept
skeptisk
sker
sket
skett
ski
skick
skicka
skickade
skickades
skickar
skickas
skickat
skickats
skicklig
skickliga
skicklighet
skickligt
skid
skidakning
skidor
skift
skiftande
skiftar
skikt
skil
skild
skilda
skildrar
skildring
skilj
skilja
skiljer
skill
skillnad
skillnaden
skillnader
skillnaderna
skilsmassa
skim
skin
skiner
skinka
skinn
skinnet
skip
skipp
skippa
skiss
skit
skita
skitbra
skiten
skiter
skitkul
skits
skiv
skiva
skivan
skivor
skivorna
skjort
skjorta
skjortan
skjortor
skjut
skjuta
skjuter
skjutit
skjuts
skjutsade
skl
sko
skog
skogar
skogarna
skogen
skogs
skogsbruk
skoj
skol
skola
skolan
skolans
skolav
skold
skoldkort
skolgang
skolinspektionen
skolj
skoll
skollagen
skolor
skolorna
skolskjut
skolverket
skom
skon
skona
skonare
skonhet
skonheten
skonlitteratur
skont
skop
skor
skord
skorda
skorna
skot
skota
skoter
skots
skotsel
skott
skottade
skotte
skottland
skov
skovde
skr
skra
skrack
skradd
skraddars
skraddarsy
skraddarsydda
skram
skramma
skrammande
skrammer
skrap
skrapa
skratt
skratta
skrattade
skrattar
skrattat
skrek
skrev
skrevs
skri
skrib
skribent
skrid
skridskor
skrift
skriften
skrifter
skriftlig
skriftliga
skriftligen
skriftligt
skrik
skrika
skriker
skritt
skriv
skriva
skrivande
skrivandet
skrivar
skrivare
skrivas
skrivbord
skrivbordet
skrivelse
skriven
skriver
skrivet
skrivit
skrivits
skrivna
skrivs
skrot
skrubb
skruv
skruva
skruvar
skry
skrym
skrymslen
skryta
skugg
skugga
skuggan
skuggor
skul
skuld
skulden
skulder
skuldkonsolidering
skull
skulle
skulpt
skulptur
skum
skumt
skur
skutt
skv
skvall
skvaller
skvatt
sky
skydd
skydda
skyddad
skyddade
skyddande
skyddar
skyddas
skyddat
skyddet
skydds
skyl
skyld
skyldig
skyldiga
skyldighet
skyldigheter
skylla
skyller
skylt
skyltar
skylten
skym
skynd
skynda
skype
skysc
skytt
skytte
sl
sla
slack
slacka
slad
sladd
slaende
slag
slagen
slaget
slagit
slags
slak
slakt
slakte
slakten
slaktet
slakting
slaktingar
slalom
slam
slampa
slang
slanga
slangde
slanger
slangt
slank
slant
slap
slapa
slapp
slappa
slappas
slapper
slappna
slapps
slappt
slappte
slapptes
slappts
slar
slarv
slas
slass
slat
slata
slatt
slav
slavar
sle
sleep
slem
slemh
slet
slick
slicka
slickar
slim
sling
slingor
slip
slipa
slipp
slippa
slipper
slips
slit
slita
slitage
sliten
sliter
slitet
slitna
slits
slo
slock
slog
slogs
slojd
slop
slos
slosa
sloseri
slot
slots
slott
slottet
slov
slovak
sloven
slow
slu
slum
slump
slumpmassigt
slussen
slut
sluta
slutade
slutandan
slutar
slutat
sluten
slutet
slutfor
slutfora
slutgilt
slutgiltiga
slutliga
slutligen
slutna
slutpriset
slutresultatet
sluts
slutsats
slutsatsen
slutsatser
slutspel
slutspelet
slutt
sluttar
sm
sma
smabarn
smack
smad
smaforetag
smahus
smak
smaka
smakade
smakar
smakat
smaken
smaker
smakerna
smakprov
smaksatt
smal
smala
smaland
smalands
smalare
small
smaller
smalt
smalta
smalter
smaning
smaningom
smar
smarre
smart
smarta
smartan
smartare
smartlin
smartor
smartphone
smartphones
smartstillande
smas
smasaker
smask
smaskal
smat
smatt
smed
smek
smeknamn
smet
smeten
smhi
smick
smid
smidig
smidiga
smidigare
smidigt
smile
smin
smink
sminka
smith
smitt
smitta
smog
smooth
smoothie
smor
smoret
smorg
smorgas
smorgasar
smorgast
smorj
smorja
sms
smslan
smugg
smula
smult
smultron
smut
smuts
smutsig
smutsiga
smyck
smycke
smycken
smyg
smyga
smyger
sn
sna
snabb
snabba
snabbare
snabbast
snabbaste
snabbis
snabblan
snabbt
snack
snacka
snackade
snackar
snacks
snal
snall
snalla
snallt
snap
snapchat
snapp
snar
snarare
snarast
snart
sne
sneakers
sned
sneg
snett
snick
snickare
snig
snitt
snittet
snittlonen
sno
snoar
snod
snof
snon
snor
snork
snos
snost
snot
snow
snubb
snur
snurr
snurra
snurrar
snus
snusk
snuskiga
snutt
snygg
snygga
snyggare
snyggaste
snyggt
so
soci
social
sociala
sociald
socialdemokrat
socialdemokrater
socialdemokraterna
socialdemokraternas
socialdemokratiska
socialforsakring
socialistiska
socialnamnden
socialstyrelsen
socialstyrelsens
socialt
socialtjanst
socialtjansten
societ
society
socio
socion
sock
socken
socker
socknen
sockret
sod
soder
soderberg
soderhamn
sodermalm
sodermanland
sodermanlands
sodertalje
soderut
sodra
sof
soff
soffa
soffan
soffor
sofia
sofie
sofistik
soft
software
sog
soja
sok
soka
sokande
sokanden
sokandet
soker
sokes
sokmotor
sokning
sokningar
sokningen
sokord
sokt
sokte
sol
sola
solade
solar
solarium
solcell
solceller
sold
soldat
soldater
soldaterna
solen
solenergi
solens
solglasogon
solid
solidar
solidaritet
solig
soliga
soligt
soll
solleftea
sollentuna
solljus
solna
solned
solnedgang
solnedgangen
solo
solsken
solskydd
solut
solutions
solves
som
somal
some
somet
somliga
sommar
sommardack
sommaren
sommarens
sommarjobb
sommark
sommarlov
sommarlovet
sommarspelen
sommart
sommartid
somn
somna
somnade
somnar
somnat
somnen
somras
son
sondag
sondagar
sondagen
sondagens
sondags
sonder
sonen
soner
song
sonja
sons
sony
sop
soph
sophia
sophie
sopor
sopp
soppa
soppan
sor
soren
sorg
sorgen
sorgligt
sorm
sormland
sorry
sort
sorten
sortens
sorter
sortera
sortering
sorters
sortiment
sortimentet
sorts
sos
soss
sot
sota
sotaste
sotma
sotnos
sott
sou
soul
sound
soundtrack
sour
source
south
sov
sova
sovande
sover
sovit
sovjet
sovjetiska
sovjetunionen
sovmorgon
sovrum
sovrummet
sp
spa
space
spack
spad
spadbarn
spag
spam
span
spana
spand
spanga
spanien
spank
spann
spannande
spanner
spanning
spanningar
spanningen
spannings
spannmal
spansk
spanska
spar
spara
sparad
sparade
sparande
sparar
sparas
sparat
sparbank
sparen
sparet
spark
sparka
sparkar
sparken
sparr
sparris
sparvagn
spe
spec
speci
special
specialis
specialiserad
specialiserade
specialiserat
specialist
specialister
specialitet
specialpedagog
speciell
speciella
speciellt
specif
specific
specifik
specifika
specifikationer
specifikt
speed
speg
spegel
spegeln
speglar
spekt
spektak
spektakulara
spektrum
spekul
spel
spela
spelad
spelade
spelades
spelande
spelar
spelare
spelaren
spelarna
spelas
spelat
spelats
spelautom
spelautomat
spelautomater
spelbolag
spelen
spelet
spelets
spell
spelning
spelningar
spels
speltid
speltitlar
spelverksamhet
spen
spenat
spendera
spenderade
spenderades
spenderar
spenderat
sper
sperm
sperma
spet
spets
spetsen
spf
spider
spik
spill
spin
spindel
spindelart
spinn
spinning
spins
spion
spir
spiral
spis
spisen
spjut
spl
split
splitt
spo
spok
spoken
spol
spola
spons
sponsor
sponsorer
spont
spontan
spontana
spontant
spor
sport
sporten
sporter
sportlov
sports
spot
spotify
spott
spr
spra
sprack
sprak
spraket
sprakliga
sprang
spratt
spray
spraydate
spred
spreds
sprick
spricka
spricker
sprickor
sprid
sprida
spridas
spridda
sprider
spridit
spridning
sprids
spring
springa
springer
sprint
sprit
sprungit
sprut
spruta
sprutar
spruts
sprutsugen
spy
sq
squ
square
squir
sr
sri
ss
ssd
ssl
st
sta
stab
stabil
stabila
stabilitet
stabilt
stack
stackarn
stackars
stad
stada
stadade
stadar
stadat
staden
stadens
stader
staderna
stadgar
stadgarna
stadig
stadigt
stadion
stadium
stadning
stadningen
stads
stadsbibli
stadsbyggnad
stadsd
stadsdel
stadsdelar
stadsdelen
stadsdels
stadsegron
stadshuset
stadskar
stadsm
staende
staf
stafett
staffan
staket
stal
stalin
stall
stalla
stallas
stallda
stallde
stalldes
stalle
stallen
staller
stallet
stallning
stallningar
stallningen
stallningst
stallningstagande
stalls
stallt
stallts
stam
stamde
stamm
stamma
stamman
stammar
stammer
stamning
stamningen
stamnings
stamp
stampel
stamplar
stan
stand
standar
standard
standarden
standarder
standig
standiga
standigt
standpunkt
stang
stanga
stangas
stangd
stangda
stangde
stangdes
stanger
stangning
stangs
stangt
stank
stanley
stann
stanna
stannade
stannar
stannat
stans
stapel
stapeln
stapp
stappklimat
star
starburst
stark
starka
starkare
starkast
starkaste
starker
starkt
stars
start
starta
startade
startades
startar
startas
startat
starten
starter
startsida
startsidan
stat
state
staten
statens
stater
staterna
states
station
stationara
stationen
stationer
statistik
statistiken
statistiska
statistiskt
stativ
statlig
statliga
statligt
stats
statsbidrag
statsminister
statsministern
statt
status
staty
stav
stavar
stavas
stavning
stay
ste
steam
steel
stefan
steg
stegen
steget
stein
stek
steka
stekel
stekelart
stekpanna
stekt
stel
stela
stella
sten
stenar
stenarna
stenen
stenhart
stenkast
stens
stenung
stenungsund
step
steph
stephan
stephen
ster
stere
stero
steve
steven
sthlm
sti
stick
sticka
stickad
stickade
stickat
sticker
stift
stiftelse
stiftelsen
stig
stiga
stigande
stigar
stigen
stiger
stigit
stil
stilar
stilen
still
stilla
stilren
stilrena
stimul
stimulans
stimulera
stimulerande
stimulerar
stina
stipend
stipendier
stipendium
stir
stj
stjal
stjala
stjarn
stjarna
stjarnan
stjarnor
stjarnorna
stjart
stl
sto
stock
stockholm
stockholms
stod
stoder
stodet
stodja
stodjer
stods
stog
stok
stol
stolar
stolarna
stold
stolen
stolt
stolta
stolthet
stom
ston
stone
stop
stopp
stoppa
stoppade
stoppar
stoppas
stor
stora
storande
storasyster
storbrit
storbritann
storbritannien
stord
store
storebror
storgatan
storhet
stories
storlek
storlekar
storleken
storm
stormen
storning
storningar
storre
storskal
storslagna
storst
storsta
storstad
stort
story
storyn
stot
stota
stoter
stott
stotta
stottar
stotte
stov
stovlar
str
stra
strack
stracka
strackan
stracker
strackor
strackte
straff
straffar
straffet
strak
stral
stralande
stralar
stralkast
stralning
stram
strand
stranden
strander
stranderna
strang
strangnas
strap
strapon
strateg
strategi
strategier
strategin
strategisk
strategiska
strategiskt
strav
strava
stravan
stravar
strax
stre
stream
streama
streaming
streck
street
strej
strejk
stress
stressa
stressad
stressade
stressen
stressigt
stretch
stri
strid
striden
strider
strids
strikt
strim
strind
string
stringtro
strip
stro
stroke
strom
stromm
strommar
strommen
stroms
stromstad
strong
stros
strosa
stru
strukt
struktur
strukturen
strukturer
strukturerad
strukturerat
strul
strump
strumpbyxor
strumpor
strunt
strunta
struntar
stry
stryk
stryka
stu
stubb
stud
studen
student
studenten
studenter
studenterna
studera
studerade
studerande
studerar
studerat
studi
studie
studiebesok
studiel
studiem
studien
studier
studierna
studiet
studio
studion
studios
studs
stug
stuga
stugan
stugor
stul
stum
stund
stunden
stunder
stunds
stundtals
stup
stur
sture
sty
styck
stycke
stycken
stycket
stygg
styl
style
styling
styr
styra
styrande
styras
styrde
styrdokument
styre
styrels
styrelse
styrelseled
styrelseledamot
styrelseledamoter
styrelsemote
styrelsen
styrelsens
styrelseordforande
styrelser
styrka
styrkan
styrke
styrket
styrketraning
styrkor
styrning
styrs
styv
su
sub
subjekt
substans
subt
subtrop
subtropiskt
subvention
suc
succ
succe
success
successivt
such
suck
sud
sudd
sug
suga
sugar
sugen
suger
sugg
sugna
suk
sul
sula
sum
summa
summan
summer
summor
sun
sund
sunda
sundby
sundbyberg
sundsvall
sundsvalls
sune
sunn
sunt
super
superb
superbra
superettan
superfin
supergod
superkul
supermys
supert
supp
supple
suppleant
support
supporter
supportrar
sur
sura
surdeg
surf
surfa
surfar
surfplatta
surfplattor
surt
sus
susanna
susanne
sushi
sutt
suttit
suver
suveran
suverant
suz
sv
sva
svag
svaga
svagare
svager
svaghet
svagheter
svagt
sval
svalja
svaljer
svalna
svalt
svamp
svampar
svampart
svampen
svan
svang
svanga
svangde
svanger
svans
svansen
svante
svar
svara
svarade
svarande
svarar
svarare
svaraste
svarat
svard
svaren
svaret
svarfar
svarighet
svarigheter
svarmor
svars
svart
svarta
svartpeppar
svarts
svav
svavel
svd
sve
svea
sved
svedala
svek
sven
svens
svensk
svenska
svenskan
svenskar
svenskarna
svenskarnas
svenske
svensken
svenskt
svensson
svep
sver
sverig
sverige
sveriged
sverigedemokrat
sverigedemokraterna
sverigedemokraternas
sveriges
svet
svets
svett
svettas
svettig
svin
svind
svit
svt
svull
svullnad
sw
swe
swed
swedbank
sweden
swedish
sweet
swing
swinger
swingers
swish
switch
sy
syd
syda
sydafr
sydafrika
sydamerika
sydde
sydkorea
sydlig
sydney
sydost
sydostra
sydsvenskan
sydvast
sydvastra
syf
syft
syfta
syftar
syfte
syften
syftet
syl
sylt
sym
symbol
symbolen
symboler
symbolerna
symboliserar
symfon
symp
sympat
sympt
symptom
symptomen
symt
symtom
symtomen
syn
synas
synd
synder
syndrom
synen
synes
synkron
synlig
synliga
synliggora
synligt
synner
synnerhet
synnerligen
synonym
synpunkt
synpunkter
syns
synsatt
syntes
syntet
synvinkel
syr
syra
syre
syren
syri
syrien
syrran
syskon
syskonen
syss
syssel
sysselsatta
sysselsattning
syssla
sysslar
system
systemat
systematisk
systematiska
systematiskt
systembolaget
systemen
systemet
systems
syster
systrar
systrarna
sytt
sz
sø
ta
tab
tabell
tabellen
tabeller
tabl
table
tablett
tabletter
tabu
taby
tac
tack
tacka
tackade
tackar
tackat
tacke
tacken
tacker
tacket
tackning
tacks
tacksam
tacksamhet
tacksamma
tacksamt
tackt
tacos
tad
tadalafil
tag
tage
tagen
taget
tagg
tagga
taggad
taggar
tagit
tagits
tagna
tags
tai
taiwan
taj
tajt
tak
take
taket
takt
takten
takter
taktik
tal
tala
talade
talamod
talan
talande
talang
talanger
talar
talare
talas
talat
talen
tales
talet
talets
talk
tall
tallinn
tallrik
tallrikar
tallriken
talman
talmod
tals
talt
taltet
tam
tamligen
tamp
tan
tand
tanda
tande
tander
tanderna
tandlak
tandlakare
tandlakaren
tands
tandvard
tang
tangent
tangentbord
tangentbordet
tanjung
tank
tanka
tankande
tankar
tankarna
tankas
tankbara
tanke
tanken
tanker
tankes
tankt
tankta
tankte
tann
tant
tanter
tantra
tanzan
tanzania
tap
tapas
tape
tapet
tapeten
tapeter
tapets
tapp
tappa
tappade
tappar
tappat
tar
tara
tarar
tararna
tarm
tarmen
tarna
tart
tarta
tartan
tartor
tas
task
tass
taste
tat
tata
tatare
tatb
tatbefolkat
tatort
tatt
tatu
tatuering
tatueringar
tav
tavla
tavlade
tavlan
tavlande
tavlar
tavlat
tavling
tavlingar
tavlingarna
tavlingen
tavlings
tavlor
tax
taxi
tayl
taylor
tb
tc
td
te
tea
team
teamet
teat
teater
teatern
tech
techn
technology
teck
tecken
teckens
teckensprak
teckna
tecknad
tecknade
tecknar
tecknas
tecknat
teckning
teckningar
tecknings
ted
teen
teens
teg
tegel
teheran
tej
tejp
tek
tekn
teknik
tekniken
tekniker
teknisk
tekniska
tekniskt
teknologi
tel
tele
tele2
telef
telefon
telefonen
telefoner
telefoni
telefonnummer
telefonsamtal
telefonsex
teleg
telekom
telen
telenor
teleskop
television
telia
tell
tem
tema
teman
temat
temp
tempel
temper
temperament
temperat
temperatur
temperaturen
temperaturer
tempererat
templet
tempo
tempor
tempot
ten
tend
tendens
tendenser
tenderar
teng
tenn
tennis
tent
tenta
tentan
teologi
teor
teoret
teoretisk
teoretiska
teoretiskt
teori
teorier
teorin
ter
tera
terapeut
terapi
term
termen
termer
termin
terminal
terminen
terr
terrang
terrangen
terrass
territ
territor
territorium
terror
terrorism
terrorist
terrorister
tes
tesla
tess
test
testa
testade
testamente
testamentet
testar
testas
testat
tester
testet
testosteron
tet
teve
tex
texas
text
texten
texter
texterna
textil
textilier
tf
tfn
th
tha
thai
thailand
thailandsk
thailandska
thaim
thaimass
thaimassage
than
thank
thanks
that
the
their
them
then
thene
thenehc
theo
theodor
ther
there
therese
these
they
things
think
this
thom
thomas
thor
thorn
thr
three
thriller
thro
through
thumb
thunder
ti
tibet
tick
tid
tiden
tidens
tider
tiderna
tidig
tidiga
tidigare
tidigast
tidigt
tidlos
tidning
tidningar
tidningarna
tidningen
tidnings
tidpunkt
tidpunkten
tids
tidsbegrans
tidskravande
tidskrift
tidskriften
tidskrifter
tidsperiod
tidta
tier
tig
tiger
tight
tights
tik
til
tilda
till
tillag
tillaga
tillagg
tillagga
tillaggas
tillagger
tillagget
tillaggs
tillamp
tillampa
tillampar
tillampas
tillamplig
tillampliga
tillampning
tillampningar
tillampningen
tillat
tillata
tillatelse
tillaten
tillater
tillatet
tillatna
tillats
tillb
tillbak
tillbaka
tillbaks
tillbehor
tillbring
tillbringa
tillbringade
tillbringar
tillbringat
tillbygg
tilldel
tilldelades
tilldelas
tilldelats
tillfall
tillfalle
tillfallen
tillfallet
tillfallig
tillfalliga
tillfalligt
tillfor
tillfora
tillforlit
tillforlitlig
tillforlitliga
tillforlitlighet
tillfors
tillfrag
tillfragade
tillfred
tillfreds
tillfredsstalla
tillfredsstallande
tillfredsstallelse
tillga
tillgang
tillgangar
tillgangen
tillganglig
tillgangliga
tillganglighet
tillgangligheten
tillgangligt
tillgod
tillgodos
tillgodose
tillh
tillhanda
tillhandahalla
tillhandahaller
tillhandahalls
tillhor
tillhora
tillhorande
tillhorde
tillhorighet
tillika
tillit
tillkann
tillkannag
tillkom
tillkommer
tillkommit
tillmote
tillmotes
tillmotesgaende
tillrack
tillracklig
tillrackliga
tillrackligt
tillratta
tills
tillsammans
tillsatser
tillsatt
tillsatta
tillskott
tillslut
tillstallning
tillstand
tillstandet
tillsv
tillsvidare
tillsyn
tillsynen
tillsynsmyndighet
tillt
tilltal
tilltalande
tilltalar
tilltrad
tilltrade
tillvag
tillvaga
tillvagagangssatt
tillval
tillvar
tillvara
tillvaro
tillvaron
tillvaxt
tillvaxten
tillverk
tillverka
tillverkad
tillverkade
tillverkades
tillverkar
tillverkare
tillverkaren
tillverkarens
tillverkas
tillverkat
tillverkning
tillverkningen
tillverknings
tim
time
times
timjan
timma
timmar
timmarna
timmars
timme
timmen
timmer
timmes
timra
timur
tin
tina
tinder
ting
tings
tingsratt
tingsratten
tio
tion
tionde
tiot
tiotal
tiotusentals
tip
tipp
tips
tipsa
tipsade
tipsar
tipsen
tipset
tis
tisdag
tisdagar
tisdagen
tisdags
tit
titan
titel
titeln
titlar
title
tits
titt
titta
tittade
tittar
tittare
tittat
tiv
tj
tja
tjan
tjana
tjanade
tjanar
tjanare
tjanat
tjanst
tjanste
tjanstelever
tjanstem
tjansteman
tjansten
tjanstepension
tjanster
tjansterna
tjanstgjorde
tjanstgoring
tjat
tjata
tje
tjeck
tjeckien
tjeckiska
tjej
tjejen
tjejer
tjejerna
tjo
tjock
tjocka
tjockare
tjocklek
tjockt
tju
tjug
tjugo
tjugof
tjur
tjus
tjuv
tkr
tl
tm
tn
to
toa
toal
toalett
toaletten
toaletter
tob
tobak
tobaks
tobbe
tobias
toda
today
tof
tog
togs
tok
tokig
tokigt
tokyo
tol
toler
tolerans
tolk
tolka
tolkar
tolkas
tolkning
tolkningar
tolkningen
toll
tolv
tom
tomas
tomat
tomater
tomats
tomm
tomma
tommy
tomt
tomte
tomten
tomter
ton
tonar
tonaren
tonaring
tonaringar
tonars
tonen
toner
tonfisk
tont
tony
too
top
topp
toppa
toppar
toppen
tor
torbjorn
torde
tore
torg
torget
tork
torka
torkad
torkade
torkar
torkat
torkt
torktum
torktumlare
torn
tornet
toronto
torp
torpet
torr
torra
torraste
torrent
torrt
tors
torsdag
torsdagar
torsdagen
torsdags
torsk
torsten
tort
tortyr
torv
tos
tot
total
totala
totalt
touch
tour
tove
tow
tower
town
tox
toy
toyota
tp
tr
tra
track
trad
trada
tradar
tradde
trade
traden
trader
tradera
tradet
tradgard
tradgardar
tradgarden
tradgards
tradition
traditionell
traditionella
traditionellt
traditionen
traditioner
tradlos
tradlosa
tradlost
traff
traffa
traffade
traffades
traffar
traffas
traffat
traffats
traffen
trafik
trafiken
trafikolycka
trafiksakerhet
trafikverket
trafikverkets
trag
tragiska
tragiskt
tragolv
trail
trailer
trailern
training
trak
trakass
trakasserier
trakig
trakiga
trakigt
trakt
trakten
traktor
tral
tram
trampa
trams
tran
trana
tranade
tranar
tranare
tranaren
tranas
tranat
trang
tranga
tranger
trangsel
trangt
traning
traningar
traningen
tranings
traningsklader
traningsmatch
traningspass
traningsvark
tranny
trans
transakt
transaktion
transaktioner
transf
transfer
transform
transl
transp
transpar
transparens
transparent
transperson
transport
transporten
transporter
transportera
transporteras
transportstyrelsen
transsex
trapp
trappa
trappan
trappor
tras
trasa
trasig
trasiga
trass
tratt
trav
travel
traven
tre
trea
trean
trear
tred
tredj
tredje
tredjedel
tredjedelar
tredjepart
tree
trek
trekant
trelle
trelleborg
tren
trend
trenden
trender
trendiga
tres
trett
trettio
tretton
trev
trevlig
trevliga
trevligare
trevligt
tri
triang
triat
trib
tric
trich
trick
trig
trill
trillar
trilog
trim
trin
trio
trip
tripad
tripadvisor
tripp
trippel
trist
trista
trium
triv
trivas
trivdes
trivs
trivsam
trivsel
trix
tro
trodde
troende
trog
trogen
trogna
trogt
troja
trojan
trojor
troligen
troligt
troligtvis
troll
trollhattan
tron
trond
trop
tropiska
tropiskt
tror
tros
trosa
trosk
troskel
trosor
trost
trosta
trot
trots
trott
trotta
trotthet
trottna
trottnade
trottnar
trottnat
trovardig
trovardighet
truck
true
trum
trumm
trummor
trump
trupp
truppen
trupper
trust
try
tryck
trycka
trycker
trycket
trycks
tryckt
tryckta
tryckte
trygg
trygga
tryggare
trygghet
tryggheten
tryggt
ts
tsk
tt
tu
tub
tube
tuber
tubes
tuff
tuffa
tuffare
tufft
tugg
tugga
tul
tull
tulpan
tulpaner
tum
tumba
tumbl
tumblr
tummar
tummarna
tummen
tumor
tums
tun
tuna
tung
tunga
tungan
tungt
tunis
tunn
tunna
tunnare
tunnel
tunnelban
tunnelbana
tunnelbanan
tunneln
tunt
tupp
tur
turbo
turbul
turen
turer
turism
turist
turister
turk
turkiet
turkisk
turkiska
turkos
turn
turne
turnen
turnering
turneringar
turneringen
tus
tusan
tusen
tusentals
tut
tuttar
tv
tv3
tv4
tva
tvaa
tvaan
tvahjartbladig
tval
tvang
tvangs
tvar
tvars
tvart
tvartom
tvas
tvatt
tvatta
tvattade
tvattar
tvattas
tvattat
tvatten
tvattmaskin
tvattmaskinen
tvattstuga
tvattstugan
tvavinge
tvavingeart
tvek
tveka
tvekan
tvekar
tveksam
tveksamma
tveksamt
tvill
tvilling
tving
tvinga
tvingade
tvingades
tvingar
tvingas
tvingats
tvist
tvister
tviv
tvivel
tvivlar
tvn
tvungen
tvungna
tw
twe
twi
twilight
twin
twist
twitt
twitter
two
ty
tyck
tycka
tyckas
tycke
tycker
tycks
tyckt
tyckte
tycktes
tyd
tyder
tydlig
tydliga
tydligare
tydligen
tydlighet
tydligt
tyg
tyger
tyget
tyng
tyngd
tyngre
typ
type
typen
typer
typisk
typiska
typiskt
typsnitt
tyr
tyra
tyreso
tysk
tyska
tyskarna
tyskland
tysklands
tyst
tysta
tystnad
tystnaden
tyvarr
ub
uber
uc
ud
udda
udde
uddevalla
uf
ufc
ug
ugg
ugn
ugnen
ugns
uk
ukra
ukraina
ukrainska
ul
ulf
ull
ulla
ullared
ulricehamn
ulrik
ulrika
ult
ultim
ultimat
ultimata
ultimate
ultra
ultral
ultraljud
um
ume
umea
umeas
umgang
umgange
umgas
umgicks
un
una
und
undan
undant
undantag
undantaget
undantags
under
underarter
underbar
underbara
underbart
underhall
underhalla
underhallande
underhallning
underhalls
underjord
underklader
underl
underlag
underlaget
underlatt
underlatta
underlattar
underliggande
underligt
underratt
underrattelse
undersidan
underskatt
underskott
underskrift
undersok
undersoka
undersoker
undersokning
undersokningar
undersokningen
undersokt
underst
understod
understr
understry
underteck
undertecknad
underverk
undervis
undervisa
undervisar
undervisning
undervisningen
undervisnings
undga
undra
undrade
undrar
undrat
undre
undvik
undvika
undvikas
undviker
unes
ung
unga
ungar
ungarna
ungas
ungdom
ungdomar
ungdomarna
ungdomars
ungdoms
unge
ungefar
ungefarlig
ungen
unger
ungern
ungerska
ungt
uni
unibet
unic
uniform
unik
unika
unikt
union
unionen
unionens
united
univers
universal
universitet
universitetet
universitets
universitetssjuk
universitetssjukhuset
university
universum
unna
unt
up
update
upp
uppat
uppbyggd
uppbyggnad
uppdat
uppdater
uppdatera
uppdaterad
uppdaterade
uppdaterar
uppdateras
uppdaterat
uppdatering
uppdateringar
uppdateringen
uppdel
uppdelad
uppdelat
uppdrag
uppdragen
uppdraget
uppdrags
uppdragsgivare
uppe
uppehall
uppehallstillstand
uppemot
uppen
uppenbar
uppenbara
uppenbarligen
uppenbart
uppf
uppfatt
uppfatta
uppfattade
uppfattar
uppfattas
uppfattning
uppfattningar
uppfattningen
uppfin
uppfod
uppfodare
uppfolj
uppfoljare
uppfoljaren
uppfoljning
uppfor
uppfora
uppforande
uppfordes
uppfost
uppfrisk
uppfriskande
uppfy
uppfyll
uppfylla
uppfyllda
uppfyller
uppfylls
uppfyllt
uppga
uppgang
uppgar
uppgav
uppge
uppger
uppges
uppgick
uppgift
uppgiften
uppgifter
uppgifterna
uppgorelse
uppgrad
uppgradera
uppgradering
upph
upphand
upphandling
upphandlingar
upphandlingen
upphang
upphav
upphets
upphor
upphora
upphorde
upphort
upphov
upphovsman
upphovsratt
uppifran
uppkall
uppkallad
uppkommer
uppkommit
uppkop
uppkopp
uppkopplad
uppkoppling
uppl
uppladd
upplag
upplaga
upplagan
upplagg
upplagget
uppland
upplands
upplaning
upplat
upple
upplev
uppleva
upplevas
upplevde
upplevelse
upplevelsen
upplevelser
upplever
upplevs
upplevt
upplosning
upplost
upply
upplys
upplysning
upplysningar
uppm
uppman
uppmana
uppmanar
uppmanas
uppmaning
uppmark
uppmarksam
uppmarksamhet
uppmarksamheten
uppmarksamma
uppmarksammade
uppmarksammar
uppmarksammas
uppmarksammat
uppmatt
uppmunt
uppmuntra
uppmuntrar
uppmuntras
uppna
uppnad
uppnar
uppnas
uppnatt
uppr
uppratt
uppratta
upprattas
uppratthalla
uppre
upprepa
upprepade
upprepar
upprepas
upprikt
uppriktig
uppror
upprord
upps
uppsagning
uppsala
uppsat
uppsats
uppsatsen
uppsatt
uppsatta
uppsattning
uppsikt
uppsjo
uppsk
uppskatt
uppskatta
uppskattad
uppskattade
uppskattar
uppskattas
uppskattat
uppskattning
uppskjut
uppslag
uppslagsverk
uppsok
uppsta
uppstallning
uppstand
uppstar
uppstart
uppstatt
uppstod
uppstroms
uppt
upptack
upptacka
upptacker
upptacks
upptackt
upptackte
upptacktes
upptackts
upptag
upptagen
upptagna
upptill
upptrad
upptrada
upptradande
upptradde
upptrader
uppvakt
uppvarm
uppvarmning
uppvarmningen
uppvaxt
uppvisar
uppvuxen
ups
ur
uran
urban
urin
url
ursa
ursakt
ursakta
ursakter
urspr
ursprung
ursprungliga
ursprungligen
urval
urvalet
urvalsgrupp
us
usa
usb
usch
usd
use
usel
user
using
ut
utan
utanfor
utanforskap
utanpa
utarbet
utat
utav
utb
utbetal
utbetalas
utbetalning
utbetalningar
utbild
utbilda
utbildad
utbildade
utbildar
utbildning
utbildningar
utbildningarna
utbildningen
utbildningens
utbildnings
utbildningsnamnden
utbr
utbred
utbredd
utbredning
utbredningsomrade
utbrott
utbud
utbudet
utby
utbyggnad
utbyggnaden
utbyta
utbyte
utbytes
utdel
utdelning
utdelningen
utdrag
ute
utebl
utefter
utel
utem
utemo
uteplats
uter
uterum
uteserver
uteservering
utesl
uteslut
utesluta
uteslutande
utesluter
utfall
utfallet
utfar
utfard
utfardas
utflykt
utflykter
utfor
utfora
utforande
utforanden
utforare
utforas
utford
utforda
utforde
utfordes
utforlig
utforligt
utform
utforma
utformad
utformade
utformas
utformat
utformning
utformningen
utfors
utforska
utforskar
utfort
utforts
utga
utgaende
utgang
utgangen
utgangspunkt
utgangspunkten
utgar
utgatt
utgav
utgava
utgavan
utgick
utgift
utgifter
utgiv
utgivare
utgiven
utgivna
utgivning
utgjorde
utgor
utgora
utgors
utgrav
uthall
uthallighet
uthyr
uthyrning
uti
utifran
utjam
utk
utkanten
utkast
utkik
utkom
utlam
utlan
utland
utlandet
utlands
utlandsk
utlandska
utlaning
utlanings
utlaningsprodukter
utlatande
utlopp
utloppet
utlos
utlosning
utlott
utlov
utlys
utm
utman
utmana
utmanande
utmanar
utmaning
utmaningar
utmaningarna
utmaningen
utmar
utmark
utmarkelsen
utmarkelser
utmarker
utmarkt
utmarkta
utmatt
utmed
utnam
utnamn
utnamndes
utnytt
utnyttj
utnyttja
utnyttjad
utnyttjade
utnyttjande
utnyttjar
utnyttjas
utnyttjat
utok
utoka
utokad
utokade
utokas
utokat
utom
utomhus
utomlands
utomordent
utomstaende
utov
utova
utovar
utovare
utover
utpek
utr
utred
utreda
utredare
utreder
utredning
utredningar
utredningen
utredningens
utrednings
utrikes
utrikesminister
utrop
utrot
utrust
utrustad
utrustade
utrustat
utrustning
utrustningen
utrym
utrymme
utrymmen
utrymmet
uts
utsags
utsatt
utsatta
utsattas
utsatts
utse
utsedd
utseende
utseendet
utser
utses
utsett
utsetts
utsidan
utsikt
utsikten
utskick
utskott
utskottet
utskrift
utslag
utslapp
utslappen
utsmyck
utsokt
utson
utsp
utspel
utspelar
utspr
utsprid
utspridda
utstall
utstallare
utstallning
utstallningar
utstallningen
utstallnings
utstrack
utstrackning
utt
uttag
uttagen
uttal
uttala
uttalade
uttalande
uttalanden
uttalar
uttalat
uttork
uttrak
uttrakad
uttryck
uttrycka
uttrycker
uttrycket
uttryckligen
uttryckt
uttryckte
utv
utvald
utvalda
utvand
utvandigt
utvar
utvardera
utvarderas
utvardering
utvarderingar
utvarderingen
utveck
utveckla
utvecklad
utvecklade
utvecklades
utvecklande
utvecklar
utvecklare
utvecklas
utvecklat
utvecklats
utveckling
utvecklingen
utvecklings
utvecklingsarbete
utvecklingssamtal
utvid
utvil
utvilad
utvisning
uv
v75
va
vac
vaccin
vaccination
vack
vacka
vacker
vackert
vackra
vackrare
vackraste
vackt
vackte
vad
vada
vader
vaderprognos
vadret
vadstena
vafan
vafflor
vag
vaga
vagade
vagar
vagarna
vagat
vagbeskrivning
vagde
vagen
vager
vagg
vaggar
vaggarna
vaggen
vagina
vaglangd
vagled
vagledning
vagn
vagnar
vagnen
vagor
vagorna
vagra
vagrade
vagrar
vags
vagt
vak
vaken
vakna
vaknade
vaknar
vaknat
vakt
vakuum
val
valbe
valbef
valbefinnande
valbehov
valbehovlig
valbek
valbered
valberedningen
valbes
valborg
vald
valda
valdans
valde
valdes
valdet
valdig
valdigt
valdsam
valdsamma
valdsamt
valdtakt
valen
valent
valet
valf
valfard
valfarden
valfortjant
valfri
valfrihet
valfritt
valgor
valgorande
valgorenhet
valid
valj
valja
valjare
valjarna
valjas
valjer
valjs
valk
valkand
valkanda
valkant
valkom
valkommen
valkomna
valkomnande
valkomnar
valkomst
valkomstbonus
valkrets
vall
valla
vallentuna
valley
valling
vallingby
valma
valmaende
valp
valpar
valparna
valpen
valrorelsen
vals
valsig
valsign
valskott
valsmakande
valstand
valt
valts
valut
valuta
valutor
valutrust
valv
vamp
vampyr
van
vana
vanco
vancouver
vand
vanda
vande
vander
vandning
vandra
vandrade
vandrar
vandrarhem
vandring
vandringen
vaner
vanersborg
vanilj
vaning
vaningar
vaningen
vaninna
vanja
vank
vankas
vanlig
vanliga
vanligare
vanligast
vanligaste
vanligen
vanligt
vanligtvis
vann
vannen
vanner
vannerna
vanor
vans
vansinn
vansinnigt
vanskap
vanster
vanstern
vansterpartiet
vanstra
vant
vanta
vantade
vantan
vantar
vantas
vantat
vap
vapen
vapnet
var
vara
varade
varakt
varan
varandra
varandras
varann
varannan
varar
varas
varat
varav
varberg
vard
varda
vardag
vardagar
vardagen
vardagliga
vardags
vardagsrum
vardagsrummet
vardande
vardar
vardcentr
vardcentral
vardcentralen
varde
vardefull
vardefulla
vardefullt
vardegrund
vardel
vardelos
varden
vardena
vardenafil
vardepapper
vardera
varderar
varderas
vardering
varderingar
vardes
vardesatter
vardet
vardgivare
vardig
vardighet
vardnad
vardnadshavare
vardpersonal
vare
varefter
varelse
varelser
varen
varenda
varens
varfor
varg
vargar
vargen
vari
varia
variabel
variabler
varian
variant
varianten
varianter
variation
variationer
varier
variera
varierad
varierade
varierande
varierar
varierat
varifran
varit
varje
vark
varken
varl
varld
varldar
varlden
varldens
varlds
varldsarv
varldsc
varldsklass
varldskrig
varldskriget
varldsledande
varldsmaster
varldsom
varldsrekord
varm
varma
varmande
varmare
varmaste
varmde
varmdo
varme
varmek
varmen
varmep
varmepump
varmer
varmland
varmlands
varms
varmt
varmvatten
varn
varna
varnade
varnamo
varnar
varning
varningar
varnplikt
varor
varorna
varpa
varre
vars
varsamt
varsel
varsin
varsitt
varst
varsta
vart
vartannat
varter
varterminen
varu
varuhus
varuk
varukorg
varukorgen
varumark
varumarke
varumarken
varumarkes
varumarket
varv
varva
varvar
varvat
varven
varvet
varvid
vas
vasa
vasal
vasaloppet
vasby
vasen
vasent
vasentlig
vasentliga
vasentligt
vaska
vaskan
vaskor
vass
vassa
vast
vaster
vasteras
vasterbotten
vasterbottens
vastergotland
vasterlandska
vastern
vasternorr
vasternorrland
vasterut
vastervik
vastkusten
vastlig
vastmanland
vastmanlands
vastra
vastt
vastvarlden
vat
vata
vatska
vatskan
vatske
vatskor
vatt
vatten
vattendrag
vattendraget
vattenfall
vattenkraft
vattens
vattent
vattentat
vattenytor
vattern
vattna
vattnet
vav
vavnad
vax
vaxa
vaxande
vaxel
vaxell
vaxer
vaxjo
vaxla
vaxlar
vaxt
vaxtart
vaxte
vaxten
vaxter
vaxterna
vaxthus
vaxthuset
vaxthusgaser
vaxtlighet
vd
ve
veck
vecka
veckan
veckans
veckas
vecko
veckor
veckorna
veckors
ved
veder
vederbor
veg
vegan
vegas
veget
vegeta
vegetabil
vegetar
vegetari
vegetarianer
vegetarisk
vegetariska
vek
vektor
vel
velat
vell
vem
vemod
ven
vene
venedig
vent
ventil
ventilation
venus
ver
vera
verb
verifiera
verk
verka
verkade
verkan
verkar
verkat
verken
verket
verklig
verkliga
verkligen
verklighet
verkligheten
verkligt
verksam
verksamhet
verksamheten
verksamhetens
verksamheter
verksamheterna
verksamhets
verksamhetschef
verksamhetsomrade
verksamhetsplan
verksamma
verkstad
verkstaden
verkstader
verkstall
verkstallande
verktyg
verktygen
verktyget
vern
veroffent
veron
veronica
vers
versa
version
versionen
versioner
vert
vertik
very
ves
vest
vet
veta
vetat
vete
vetemjol
vetenskap
vetenskapen
vetenskaplig
vetenskapliga
vetenskapligt
vetenskaps
veter
veteran
veterin
veterinar
veterinaren
vetlanda
vetskap
vett
vettig
vettiga
vettigt
vev
veva
vg
vi
via
viagra
vibr
vibrationer
vibrator
vibrerande
vice
vick
victor
victoria
vid
vida
vidare
vidarebe
vidareutveck
vide
video
videok
videoklipp
videon
videop
videopoker
videor
videos
videosl
videospel
vids
vidta
vidtas
viet
vietnam
view
views
vift
vig
vigg
vigsel
vik
vika
vikar
viken
viker
viking
vikt
vikten
vikter
viktig
viktiga
viktigare
viktigast
viktigaste
viktigt
viktmin
viktminskning
viktned
viktor
viktoria
vil
vila
vilade
vilar
vild
vilda
vildmark
vildsvin
vilhelm
vilja
viljan
vilka
vilken
vilket
vill
villa
villaagare
village
villan
ville
villig
villiga
villkor
villkoren
villor
vilse
vilsel
vilt
vim
vimmer
vimmerby
vin
vinbar
vincent
vind
vindar
vinden
vindkraft
vindkraftverk
vindr
viner
vinerna
vinet
ving
vingar
vinjournalen
vinkel
vinklar
vinn
vinna
vinnande
vinnar
vinnare
vinnaren
vinnarna
vinner
vinst
vinsten
vinster
vinsterna
vint
vintage
vinter
vinterdack
vintern
vinterns
vintertid
vintras
vinyl
viol
vip
vips
vir
virgin
virginia
virka
virke
virt
virtual
virtuell
virtuella
virus
viruset
virvel
vis
visa
visade
visades
visar
visas
visat
visats
visby
visdom
viset
vision
visionen
visioner
visit
visk
visning
visningar
visningen
visp
vispa
viss
vissa
visserligen
visst
visste
vist
vista
vistas
vistelse
vistelsen
visu
visuell
visuella
visuellt
visum
vit
vita
vital
vitamin
vitaminer
vite
vitlok
vits
vitt
vittna
vittnar
vittnen
vittnes
vittnesmal
vitvaror
viv
vivan
vivanza
vive
vl
vlad
vladimir
vm
vo
vod
voice
vok
vol
volk
volksw
volkswagen
volley
volleyboll
volont
volontar
volt
volvo
volym
volymen
volymer
von
vor
vore
voro
vov
voyeur
vp
vr
vra
vrak
vred
vrede
vrid
vrida
vrider
vs
vt
vu
vul
vulkan
vunnit
vux
vuxen
vuxenutbildning
vuxit
vuxna
vvs
vy
vyer
vykort
wa
wadi
wag
wahl
wal
wald
wales
walk
walker
wall
wallen
wallin
walter
want
war
wars
was
wash
washington
wat
watch
water
watt
way
wc
we
web
webb
webbas
webben
webbhotell
webbkamera
webbkryss
webblas
webblasare
webblasaren
webbplats
webbplatsen
webbplatser
webbshop
webbsida
webbsidan
webbsidor
webbutik
webcam
webshop
website
websites
week
weekend
wel
welcome
well
wen
wer
were
werner
west
wester
western
wet
wh
what
whe
when
where
which
while
whisk
whisky
whit
white
who
why
wi
wick
wid
wide
widoczny
wien
wife
wifi
wii
wik
wiki
wikip
wikipedia
wil
wild
wilds
wilhelm
will
wille
william
williams
willys
wilma
wilson
win
wind
windows
wine
winter
wir
wis
wish
with
without
wo
wol
wolf
woman
women
wonder
wood
wor
word
wordpress
work
working
workshop
workshops
world
would
wow
wr
wt
ww
www
x2
xbox
xc
xd
xen
xhamster
xi
xl
xn
xnxx
xp
xvideos
xx
xxl
xxx
ya
yah
yahoo
yang
ye
yea
year
years
yes
yet
yl
ylva
yn
yng
yngre
yngsta
ynka
yo
yog
yoga
yoghurt
york
you
young
youp
youporn
your
yout
youtube
ypper
ypperligt
yr
yrk
yrkande
yrke
yrken
yrkes
yrkesutbildningar
yrkesvag
yrkesverk
yrkesverksamma
yrket
yrsel
ystad
yt
yta
ytan
ytor
ytt
ytter
ytterligare
ytterst
yttersta
yttr
yttra
yttrande
yttrandefrihet
yttre
yvon
yvonne
za
zalog
zalogowanych
zam
zar
zara
ze
zeeland
zel
zen
zero
zetter
zie
ziehen
zim
zink
zlat
zlatan
zo
zomb
zombie
zon
zone
zoner
zoo
zoom
zoosk
zu
zum
zur
°c
дr
ко
на
по
ال
در
کوه
##0
##00
##000
##0000
##01
##1
##10
##100
##11
##12
##13
##14
##15
##16
##17
##18
##19
##2
##20
##200
##21
##22
##23
##24
##25
##26
##27
##28
##29
##3
##30
##31
##32
##33
##34
##35
##36
##365
##37
##38
##39
##4
##40
##41
##42
##43
##44
##45
##46
##47
##48
##49
##5
##50
##55
##57
##6
##60
##61
##62
##63
##64
##65
##66
##67
##68
##69
##7
##70
##71
##73
##74
##75
##77
##79
##8
##80
##83
##84
##85
##86
##87
##88
##89
##9
##90
##95
##99
##a
##aa
##aaa
##aaaa
##aaaaaaaa
##ab
##able
##ac
##ach
##ack
##acka
##acker
##ad
##ada
##adag
##adan
##adar
##adas
##add
##adda
##adder
##addra
##addy
##ade
##adel
##adels
##adem
##ademien
##aden
##adens
##ader
##aders
##ades
##adespel
##adet
##adi
##ading
##admin
##administr
##administrat
##ado
##ador
##adress
##ads
##ae
##af
##afil
##afton
##ag
##aga
##agan
##agande
##aganden
##agandet
##agangs
##agangssatt
##agar
##agare
##agaren
##agarens
##agarna
##agarnas
##agasin
##agasinet
##agatan
##agaz
##agd
##agda
##age
##agel
##agen
##agenhet
##agens
##ager
##agera
##agerar
##ages
##aget
##agg
##agga
##aggande
##aggar
##agge
##agget
##aggning
##aggregat
##aglar
##agn
##agna
##agne
##agnet
##agning
##agningar
##agningen
##ago
##agon
##agor
##agr
##agra
##agram
##agre
##ags
##agt
##ague
##ah
##ai
##ak
##aka
##akade
##akan
##akande
##akar
##akare
##akaren
##akarna
##akat
##ake
##aken
##aker
##akers
##akes
##aket
##aki
##akim
##akning
##akningen
##akon
##akor
##akra
##aks
##akt
##aktig
##aktiga
##aktigt
##aktiv
##aktiva
##aktiver
##aktiviteter
##aktivt
##aktor
##aku
##al
##ala
##alade
##alafil
##alag
##alaget
##alan
##aland
##alands
##alans
##alar
##alas
##alat
##album
##ald
##alder
##aldern
##aldigt
##aldo
##ale
##alen
##alens
##aler
##alerna
##ales
##alet
##ali
##alia
##alie
##alin
##aling
##alis
##alisera
##aliserad
##aliserade
##aliserar
##aliseras
##aliserat
##alisering
##aliseringen
##alism
##alismen
##alismens
##alist
##alisten
##alisterna
##alistisk
##alistiska
##alistiskt
##alitet
##alj
##aljer
##alk
##alken
##all
##alla
##allan
##allar
##alle
##allen
##aller
##allor
##allsvenskan
##allt
##ally
##alo
##alog
##alom
##alon
##along
##als
##alsekreterare
##alskare
##also
##alt
##altar
##alten
##alternativ
##altet
##alus
##alv
##alven
##alvikt
##alys
##am
##ama
##amal
##aman
##amar
##amas
##amat
##amatch
##amd
##ame
##amen
##ament
##amente
##amentet
##amer
##amerika
##amerikanska
##amet
##ametrar
##ami
##amin
##aminer
##amm
##amma
##ammade
##amman
##ammar
##ammare
##ammas
##ammation
##ammer
##ammor
##amn
##amnden
##amne
##amnen
##amnet
##amning
##amo
##amod
##amot
##amoter
##amp
##ampa
##ampan
##ampanj
##ampar
##ampen
##ampning
##ampor
##ams
##amt
##an
##ana
##anal
##analys
##analyser
##anan
##anas
##anc
##ancake
##ance
##ancer
##ancy
##and
##anda
##andamal
##andan
##andar
##andare
##andaren
##andas
##ande
##andel
##anden
##andena
##ander
##anderatt
##andes
##andet
##andets
##andning
##ando
##andra
##andrag
##andring
##andringar
##ands
##ane
##anen
##aner
##ang
##anga
##angar
##angare
##angd
##angden
##ange
##angel
##angen
##anger
##angest
##angrepp
##angs
##angt
##ani
##ania
##anien
##aning
##anis
##anism
##ank
##anka
##ankande
##ankar
##anke
##anken
##ankt
##ankta
##anlaggning
##anlaggningar
##anlaggningen
##anmal
##anmalan
##anmark
##ann
##anna
##annade
##annan
##annande
##annat
##anne
##annen
##anner
##anning
##annons
##annonser
##anns
##ano
##anol
##anor
##anpass
##anpassad
##anpassade
##ans
##ansch
##ansen
##anser
##ansk
##anska
##anslut
##anslutning
##ansokan
##anstallda
##anstallning
##ansvar
##ansvard
##ansvarda
##ansvaret
##ansvarig
##ansvariga
##ansvarige
##ansvart
##ant
##anta
##antal
##antalet
##antan
##antar
##ante
##anten
##anter
##anterna
##anth
##antha
##anthus
##antik
##anting
##antor
##antoren
##antorer
##ants
##anvand
##anvandare
##anvandning
##anvandningen
##anvisning
##any
##anych
##anza
##ap
##ape
##apest
##api
##app
##appar
##ar
##ara
##arakt
##arande
##arat
##arav
##arbet
##arbetad
##arbetade
##arbetare
##arbete
##arbeten
##arbetet
##arbetning
##arch
##ard
##arden
##arder
##ards
##are
##area
##ared
##areg
##aren
##arena
##arenden
##arens
##arer
##arerna
##ares
##aret
##arets
##arg
##ari
##aria
##ariat
##arie
##arig
##ariga
##arin
##arina
##aring
##aringen
##aris
##arium
##ark
##arka
##arkar
##arke
##arken
##arkitekt
##arkiv
##arkivet
##arkl
##arklass
##arknaden
##arkvall
##arl
##arm
##arma
##armad
##armen
##arn
##arna
##arnas
##aro
##aron
##arp
##arr
##arrang
##arrangemang
##ars
##art
##arta
##artad
##artade
##artan
##artat
##arten
##arter
##arth
##artikel
##artiklar
##artist
##artor
##arts
##arv
##ary
##aryd
##as
##asa
##asar
##asch
##ase
##asen
##aser
##ash
##ashion
##asi
##asien
##asin
##asing
##asinon
##asjon
##ask
##ason
##asong
##asongen
##asp
##ass
##assa
##assage
##assan
##assans
##asse
##assen
##assig
##assiga
##assigt
##assist
##assistent
##asson
##ast
##asta
##astad
##astaende
##astan
##astare
##aste
##asten
##aster
##astning
##astro
##asure
##asy
##asyster
##at
##ata
##atal
##atan
##atande
##atar
##atas
##atch
##ate
##ated
##ateg
##aten
##ater
##atera
##aterad
##aterade
##ateras
##aterat
##ateri
##aterial
##aterialet
##atern
##aterna
##ates
##atet
##atgarder
##ath
##athan
##ather
##athon
##ati
##atiden
##atik
##atin
##ating
##ation
##ationen
##ationer
##ationerna
##ations
##atis
##atisera
##atisering
##atisk
##atiska
##atism
##ativ
##ativa
##ative
##ativt
##ato
##aton
##ator
##atoren
##atorer
##atorerna
##atoriet
##atorisk
##atoriska
##atorn
##ators
##atra
##atre
##ats
##atsen
##atser
##att
##atta
##attack
##attan
##attar
##atte
##atten
##atter
##atters
##attle
##attnet
##attning
##attor
##attrakt
##atts
##atum
##atur
##aturen
##atus
##au
##aux
##av
##avagen
##avbrott
##avdelning
##avdelningen
##avdrag
##ave
##avfall
##avgift
##avgifter
##avling
##avstand
##avtal
##avtalet
##awa
##ax
##ay
##b
##ba
##bab
##bach
##back
##backa
##backen
##backs
##bad
##badd
##badet
##bag
##bagar
##bage
##bagen
##baggar
##bai
##bak
##bakat
##bakgrund
##bakt
##bal
##balans
##ball
##ban
##bana
##banan
##band
##banden
##bandet
##bane
##bang
##bank
##banken
##banor
##bar
##bara
##barande
##barare
##bard
##baren
##barhet
##barn
##barnen
##barnet
##barns
##bars
##bart
##bas
##basen
##baserad
##baserade
##baserat
##bass
##bat
##batar
##baten
##batt
##batten
##bav
##bay
##bb
##bba
##bbade
##bbar
##bbe
##bben
##bby
##bbyn
##be
##bec
##becca
##beck
##bed
##bedom
##bedomning
##bef
##befinner
##befolk
##befolkningen
##begrepp
##behand
##behandling
##behandlingar
##behor
##behov
##behovet
##bek
##bekraft
##bel
##belagda
##bell
##bella
##beller
##beln
##belopp
##beloppet
##belt
##belysning
##ben
##benen
##benet
##benhol
##bens
##ber
##berak
##beratt
##berattelse
##berattelsen
##berattelser
##berattigade
##bered
##beredare
##berg
##berga
##bergen
##berger
##berget
##bergs
##beroende
##berry
##bers
##bert
##berts
##bes
##beskatt
##besked
##beskrivning
##beskrivningar
##beslut
##besok
##bespar
##best
##bestall
##bestamm
##bestand
##besvar
##bet
##betal
##betala
##betalda
##betalning
##betalningar
##bete
##beteck
##beteckning
##beteende
##betet
##beth
##bett
##betyg
##bev
##bevis
##bh
##bi
##bia
##bibli
##bibliotek
##biblioteket
##bid
##bidrag
##bien
##biff
##bil
##bilar
##bild
##bilda
##bilden
##bilder
##bilderna
##bildning
##bildningen
##bile
##bilen
##bileum
##biliter
##bilitering
##bilitet
##bility
##bilj
##biljett
##biljetter
##bill
##bin
##bind
##bio
##biot
##bis
##biskop
##bit
##bitar
##bitarna
##biten
##bjorn
##bjud
##bjudande
##bjudanden
##bl
##bla
##blad
##bladen
##bladet
##bladets
##bladig
##bland
##blandning
##blandningen
##blank
##blankett
##blar
##blas
##blast
##blatt
##ble
##bled
##blem
##bler
##bles
##bletter
##bli
##blick
##blin
##bling
##blo
##block
##blod
##blog
##blogg
##bloggar
##bloggare
##bloggen
##blom
##blomm
##blomma
##blommiga
##blommor
##bly
##bo
##board
##bock
##bocker
##bockerna
##bod
##boda
##body
##boende
##boenden
##boj
##bok
##boken
##bol
##bolag
##bolagen
##bolaget
##bolagets
##boll
##bollar
##bom
##bomb
##bon
##bonat
##bonor
##bonus
##boo
##book
##bor
##bord
##bordes
##bordet
##bords
##borg
##borgs
##born
##borna
##borr
##borste
##bos
##bost
##bostad
##bostader
##bostadshus
##bot
##bott
##botten
##bottens
##bour
##bourne
##bow
##box
##boxen
##boy
##br
##bra
##brack
##brad
##brada
##brador
##bran
##brand
##bransch
##branschen
##bransle
##bre
##bredd
##brev
##brevet
##bri
##bric
##bricka
##brid
##bridge
##brik
##brikat
##briken
##briker
##bring
##bringar
##bris
##brist
##bristen
##brit
##bro
##brod
##broder
##brom
##broms
##bron
##bror
##brot
##brott
##brottet
##bruk
##bruket
##brun
##bruna
##brunn
##bry
##brygg
##bryn
##bryt
##brytande
##brytare
##bs
##bt
##bu
##bubb
##bud
##budget
##buffe
##buk
##bul
##bull
##bullar
##bum
##bun
##bund
##bunden
##bundet
##bundna
##bur
##buren
##burg
##burit
##burk
##burkar
##burna
##burst
##bury
##bus
##buss
##bussen
##busta
##but
##butik
##butiken
##butiker
##by
##byg
##bygg
##bygga
##byggande
##byggd
##byggda
##bygge
##bygger
##bygget
##byggnad
##byggnaden
##byggnader
##byggt
##byn
##byra
##byraer
##byran
##bys
##byt
##byte
##byten
##bytet
##byxor
##c
##ca
##cafe
##cal
##call
##cam
##camp
##can
##cancer
##car
##card
##cas
##casin
##casino
##casinon
##cast
##cat
##cc
##cca
##ccin
##ce
##cea
##ceae
##ced
##cel
##cell
##celler
##cen
##cens
##cent
##center
##centr
##central
##centralen
##centrat
##centret
##centrum
##cep
##ceph
##cept
##cer
##cern
##cernen
##cert
##ces
##cess
##cet
##ch
##cha
##chal
##chan
##change
##chans
##chanser
##char
##chat
##chatt
##che
##check
##chef
##chefen
##chefer
##chel
##chema
##chen
##cher
##ches
##chester
##chf
##chi
##chin
##chis
##cho
##choklad
##chs
##cht
##chus
##chy
##ci
##cia
##cial
##cil
##cin
##cing
##cio
##cion
##cipl
##cir
##circa
##cirkel
##cirkul
##cis
##cit
##city
##cium
##ck
##cka
##ckar
##ckare
##cke
##cken
##cker
##cl
##cle
##cm
##co
##coach
##cock
##col
##com
##come
##con
##cont
##core
##corn
##cos
##count
##cr
##craft
##cre
##cript
##cs
##ct
##cta
##cted
##ctic
##ction
##ctions
##ctive
##ctor
##cts
##cture
##ctus
##cul
##cup
##cupen
##cur
##cus
##cy
##cykel
##cykl
##cyklar
##cykloped
##cz
##d
##da
##dack
##dad
##dag
##dagar
##dagarna
##dagen
##dagens
##dags
##dahl
##dal
##dalen
##dals
##dam
##damm
##damp
##dan
##dans
##daq
##dar
##das
##dat
##data
##date
##dater
##dating
##dator
##datum
##dav
##day
##db
##dd
##dde
##de
##debatt
##debatten
##debut
##dec
##defin
##deg
##dejt
##dejta
##dejting
##dekor
##del
##delar
##delarna
##delen
##deles
##dell
##delning
##delningar
##delningen
##dels
##deltag
##deltagare
##dem
##den
##denafil
##dens
##departementet
##der
##dera
##derad
##derade
##derades
##derande
##derar
##deras
##derat
##derats
##dering
##deringar
##deringen
##derings
##dern
##derna
##ders
##des
##desig
##design
##designer
##det
##detaljer
##dex
##df
##dhet
##di
##diag
##die
##dig
##din
##ding
##dinge
##direkt
##direktor
##dis
##disk
##dit
##dition
##djup
##djur
##djursart
##do
##dod
##dog
##dokument
##dom
##domar
##dome
##domen
##domet
##domstol
##domstolen
##don
##donald
##dorr
##dorrar
##dorren
##dos
##dotter
##down
##dr
##dra
##drad
##drade
##drag
##dragen
##draget
##dragna
##dragning
##drakt
##drande
##drar
##drarna
##dras
##drat
##dre
##dren
##dress
##drift
##drig
##dring
##dringar
##driv
##driven
##drivna
##dro
##drom
##dron
##dryck
##ds
##dt
##du
##duc
##duk
##dukar
##dukt
##dukter
##duktion
##dusch
##dy
##dyk
##dyn
##e
##ea
##eala
##eap
##eau
##eb
##ebo
##eby
##ec
##ech
##eck
##ecken
##ect
##ed
##eda
##edag
##edagog
##edal
##edalen
##edan
##edande
##edare
##edd
##edda
##ede
##edel
##eden
##eder
##ederbord
##edes
##edi
##edia
##edig
##edin
##edjur
##edlar
##edning
##edo
##edom
##edomning
##edon
##edonien
##eds
##edt
##edy
##ee
##eee
##eeee
##eeing
##een
##eep
##ef
##efa
##efar
##eff
##effekt
##effekten
##effekter
##effektiv
##effektiva
##efil
##efolk
##efolkad
##efolkat
##eftea
##eg
##ega
##egang
##egangen
##egas
##egatan
##ege
##eger
##eget
##ego
##egor
##egrans
##egrepp
##egrip
##egro
##egron
##egu
##eh
##ei
##ej
##ejo
##ek
##eka
##ekan
##ekl
##ekn
##eknik
##ekniker
##ekom
##ekon
##ekonom
##ekonomi
##ekonomin
##ekonomiska
##ekont
##ekort
##ekr
##ekreterare
##eks
##ekt
##ektion
##ektionen
##ektiv
##ektive
##ektor
##ektorer
##ektorn
##ekul
##ekv
##ekvens
##ekyl
##el
##ela
##elag
##elagen
##eland
##elar
##elas
##elaterade
##eld
##ele
##eled
##elef
##elefon
##elekt
##elektronik
##element
##elen
##eler
##eles
##elett
##elever
##elf
##eli
##elia
##elie
##elig
##eliga
##eligen
##eligt
##elin
##eline
##eling
##elius
##ell
##ella
##ellack
##ellan
##elle
##ellen
##eller
##elli
##ello
##ells
##ellt
##elly
##eln
##elns
##elo
##elos
##els
##else
##elsef
##elsen
##elsens
##elser
##elserna
##elset
##elson
##elt
##ely
##em
##ema
##emal
##emala
##eman
##emang
##emanget
##emann
##emans
##emar
##emark
##emat
##emba
##ember
##eme
##emed
##emedel
##emedlem
##emellan
##emen
##emens
##ement
##emente
##ementer
##ementet
##emester
##emi
##emin
##emjol
##emo
##emokrat
##emokrater
##emokraterna
##emon
##emonster
##emor
##emora
##emot
##emote
##empel
##ems
##emy
##en
##ena
##ence
##end
##enda
##ende
##endel
##endem
##enden
##ender
##endes
##endet
##endo
##ene
##energi
##eng
##enhet
##enheten
##enheter
##eni
##enn
##enner
##ens
##ense
##ensen
##enser
##ension
##ensioner
##ensis
##enskap
##ent
##enta
##ental
##entals
##entar
##entarer
##ente
##enten
##enter
##enterade
##enterna
##entet
##entets
##ential
##entiella
##entin
##enting
##ention
##ento
##entre
##entrepren
##ents
##entuna
##entusi
##entusiaster
##entyr
##eo
##eon
##ep
##er
##era
##erad
##erade
##erades
##erande
##erapeut
##erapi
##erar
##erare
##eras
##erat
##erats
##eratur
##eraturen
##erav
##erba
##ere
##erg
##ergi
##eri
##erie
##erien
##erier
##erierna
##eriet
##ering
##eringar
##eringarna
##eringen
##erings
##erligen
##ern
##erna
##ernas
##erns
##ero
##eron
##ers
##ersattning
##erson
##ert
##erto
##erv
##ervice
##ery
##es
##esa
##esam
##esar
##esb
##esc
##escort
##ese
##esen
##esex
##esh
##esi
##esis
##esiska
##eslag
##eso
##esome
##esor
##esp
##espel
##espond
##ess
##essa
##essan
##esse
##essen
##esser
##esson
##est
##esta
##estad
##estall
##este
##ester
##esterol
##esultat
##esystem
##et
##eta
##etabl
##etag
##etal
##etch
##ete
##eteck
##etecken
##eten
##etens
##etent
##eter
##etera
##eterare
##eteraren
##eth
##etid
##etik
##etisk
##etiska
##etiskt
##eton
##etr
##etrad
##ets
##ett
##etta
##ettan
##ette
##etten
##etter
##etterna
##etti
##etto
##etts
##etty
##etz
##eus
##ev
##eval
##eve
##even
##evenemang
##event
##eves
##evi
##evin
##evis
##evision
##ew
##ex
##examen
##exempel
##exper
##ext
##ey
##ez
##f
##fa
##fabrik
##fabriken
##face
##fack
##fader
##fag
##fagel
##faglar
##fakt
##faktor
##faktorer
##fal
##fald
##falden
##fall
##falla
##fallande
##falle
##fallen
##faller
##fallet
##falt
##faltet
##fam
##familj
##familjen
##familjer
##fan
##fang
##fant
##far
##farande
##fard
##farden
##fardig
##fards
##faren
##farenhet
##farg
##fargad
##fargade
##fargat
##fargen
##farger
##fargkoden
##fari
##farlig
##farliga
##farligt
##fart
##farten
##fartyg
##fas
##fasen
##fast
##fasta
##faste
##fat
##fatt
##fattande
##fattare
##fattning
##fav
##fc
##fe
##feber
##fect
##fekt
##fel
##feld
##feldt
##felt
##fem
##fen
##fer
##feren
##ferens
##ferenser
##fess
##fest
##festen
##festival
##festivalen
##fet
##fett
##feud
##ff
##ffa
##ffan
##ffar
##ffaren
##ffarer
##ffe
##ffekt
##ffekter
##ffektiv
##ffektiva
##ffel
##ffen
##ffer
##fflor
##ffs
##fi
##fiber
##fibr
##fic
##ficka
##fickor
##field
##fig
##figur
##figurer
##fik
##fika
##fiken
##fil
##file
##filen
##filer
##film
##filmen
##filmer
##filosof
##filt
##filter
##filtr
##fin
##fina
##finans
##finansiering
##fing
##fint
##fir
##firande
##firm
##firma
##firmor
##fisk
##fiskar
##fiske
##fit
##fix
##fj
##fjad
##fjall
##fjar
##fjarilar
##fl
##fla
##flaska
##flaskor
##flicka
##flickor
##flikt
##flix
##flod
##flode
##floden
##flodet
##flott
##flugor
##fly
##flyg
##flygplan
##flykt
##flyn
##flytt
##flyttning
##fo
##fod
##fodd
##fodda
##foder
##fog
##fokus
##fol
##folj
##folja
##foljande
##foljd
##foljer
##folk
##folket
##foll
##fon
##fond
##fonden
##fonder
##fonster
##fonstret
##food
##for
##fora
##foral
##foraldrar
##forande
##forandring
##forandringar
##forare
##forbind
##forbruk
##forbrukning
##forbrukningen
##forbud
##forbund
##forbundet
##forbundets
##ford
##forda
##fordel
##fordelning
##fordon
##fore
##foren
##forening
##foreningar
##foreningen
##foreningens
##forestall
##foretag
##foretagare
##foretagen
##foretaget
##foretrad
##forfatt
##forfattare
##forhallande
##forhallanden
##forhallandena
##forhor
##foring
##foringen
##forklar
##forl
##forlust
##form
##formad
##formade
##formaga
##formagan
##forman
##formar
##format
##formation
##formed
##formedlare
##formedling
##formen
##former
##formul
##formular
##formularet
##forordningen
##fororen
##forpack
##forrad
##fors
##forsakring
##forsakringar
##forsakringen
##forsalj
##forsaljare
##forsaljning
##forsamling
##forskare
##forskning
##forslag
##forslaget
##forsok
##forsorj
##forsorjning
##forsorjningen
##forsta
##forstaelse
##forstark
##forstor
##forsvar
##fort
##fortjant
##forum
##forvalt
##forvaltning
##forvaltningen
##forvar
##forvaring
##fos
##fot
##fota
##fotboll
##foten
##foto
##fotograf
##fotografering
##fox
##fr
##fra
##frag
##fraga
##fragan
##fragas
##fragor
##fragorna
##frakt
##fram
##framkallande
##fran
##fras
##fre
##fred
##frekvens
##frest
##fri
##fria
##frid
##friend
##frihet
##friheten
##frika
##frisk
##frist
##fristiga
##fritt
##fro
##fron
##front
##fronten
##fru
##frukost
##frukt
##frukter
##fs
##ft
##fta
##fte
##ften
##fter
##ftermiddag
##ftet
##fton
##ftt
##fu
##fukt
##ful
##full
##fulla
##fullmaktige
##fullt
##fund
##funkt
##funktion
##funktionen
##funktioner
##fur
##fy
##fyll
##fylld
##fyllda
##fyllning
##fyllt
##fynd
##fys
##g
##ga
##gaard
##gad
##gade
##gaende
##gah
##gal
##galler
##gam
##gan
##gande
##gang
##gangar
##gangarna
##gangen
##ganget
##gar
##gara
##garant
##garanti
##garantin
##gard
##garda
##gardar
##garden
##gardens
##garder
##gards
##gare
##garen
##garn
##garna
##gas
##gaser
##gast
##gaster
##gat
##gata
##gatan
##gatt
##gav
##gava
##gaves
##gb
##ge
##gel
##gemen
##gen
##gener
##genom
##gens
##genskaper
##ger
##gering
##gers
##ges
##gest
##get
##gett
##gg
##gi
##gick
##gicks
##gie
##gift
##gifter
##gilt
##gin
##gio
##girl
##girls
##giro
##giv
##givande
##givare
##givaren
##givarna
##given
##givet
##givna
##givning
##givningen
##gj
##gjord
##gjorda
##gjorde
##gjordes
##gjort
##gjorts
##gjut
##gl
##glad
##glada
##gladje
##glans
##glas
##glasogon
##glass
##glom
##gn
##gna
##gning
##gnos
##go
##god
##godis
##gods
##gol
##golv
##golvet
##gon
##gor
##gora
##gorande
##goras
##gorelse
##goring
##gorit
##gors
##gos
##got
##gotland
##gotlands
##gott
##gr
##gra
##grad
##gradde
##grade
##graden
##grader
##gram
##gran
##grand
##grann
##grans
##gransen
##grar
##gras
##grat
##gratang
##grav
##gre
##gren
##grens
##grenska
##grepp
##grill
##grim
##gripande
##gro
##gron
##grona
##ground
##grund
##grunda
##grunden
##grunder
##grupp
##gruppen
##gruppens
##grupper
##grupperna
##gryn
##gryta
##gs
##gt
##gu
##gubb
##gud
##guide
##guiden
##gur
##gy
##gym
##gymnas
##gymnasiet
##h
##ha
##hab
##hack
##haft
##hag
##haga
##hagen
##haha
##hai
##hal
##hall
##halla
##hallande
##hallanden
##hallandet
##hallar
##hallare
##hallaren
##hallas
##hallen
##haller
##hallet
##hallna
##hallning
##hallningen
##halls
##hals
##halsa
##halsan
##halso
##halt
##halten
##halv
##halvaret
##ham
##hamm
##hammar
##hamn
##hamnen
##hamster
##hamt
##hamta
##hamtning
##han
##hand
##handa
##handel
##handeln
##handels
##handla
##handlare
##handling
##handlingar
##handlingen
##handtag
##hang
##hangare
##hans
##hant
##hanter
##hantering
##hantverk
##har
##hara
##hard
##harda
##harig
##hariga
##harina
##hark
##hart
##has
##hast
##hastar
##hastighet
##hat
##hatt
##hattan
##haus
##hav
##havande
##havare
##havaren
##havet
##haw
##hc
##hd
##he
##head
##hed
##heim
##hej
##hel
##helg
##helgen
##helm
##helst
##hem
##hemmet
##hems
##hen
##henburg
##her
##heran
##here
##hern
##hers
##hes
##het
##heten
##heter
##heterna
##hets
##hett
##hh
##hi
##hib
##him
##hin
##hinder
##hing
##hinnan
##histor
##historia
##historien
##historier
##historiska
##hj
##hjal
##hjalp
##hjalpen
##hjalpmedel
##hjalte
##hjart
##hjartat
##hjartbladig
##hjul
##hjulet
##hl
##hlin
##hlm
##hlon
##hm
##hn
##ho
##hof
##hog
##hoga
##hogskolan
##hoj
##hojd
##hojden
##hojning
##hol
##hole
##holl
##holm
##holmen
##holmens
##holms
##holt
##hon
##hop
##hopp
##hor
##hord
##horda
##horighet
##horn
##horna
##horningar
##hort
##hos
##host
##hot
##hotell
##hou
##house
##hov
##hr
##hro
##hs
##ht
##hts
##hu
##hua
##hub
##hugg
##hult
##hum
##hun
##hund
##hundar
##hundra
##hur
##hurt
##hus
##husen
##huset
##husets
##hushall
##husk
##hust
##huvud
##huvudet
##huvudstaden
##hy
##hyd
##hydr
##hygien
##hyll
##hylla
##hyllan
##hyr
##hyttan
##hz
##i
##ia
##iac
##iaceae
##iae
##iago
##iak
##ial
##iala
##ialen
##ialis
##iam
##ian
##iana
##iance
##iander
##iano
##ians
##iansk
##ianska
##iant
##iao
##iar
##ias
##iat
##iater
##iav
##ib
##iber
##ibla
##ible
##ibo
##ibor
##ic
##ica
##ical
##ican
##icas
##ice
##icen
##icens
##iceps
##icer
##icera
##ices
##ich
##icha
##iche
##ichef
##ici
##icia
##icill
##icin
##icip
##icit
##icitet
##ick
##icka
##ickan
##ickar
##icken
##ickor
##icks
##icle
##ico
##icola
##icon
##ics
##ict
##iction
##icul
##icum
##icus
##icy
##id
##ida
##idad
##idae
##idakt
##idan
##idare
##idas
##iday
##iddag
##ide
##iden
##idens
##ident
##identer
##ider
##iderna
##ides
##idi
##idig
##idigt
##idium
##idning
##idningar
##idningen
##ido
##idor
##idrott
##ids
##ie
##ied
##ief
##iek
##iel
##ield
##iell
##iella
##iellt
##iem
##ien
##ience
##iens
##iensis
##ient
##ienter
##ientering
##ienterna
##ier
##iera
##ierad
##ierade
##ierar
##ieras
##ierat
##iere
##iering
##ierna
##iers
##ies
##iest
##iet
##iets
##iew
##if
##ifa
##ife
##ifer
##ifera
##ifest
##iff
##iffer
##iffror
##ifi
##ific
##ified
##ifier
##ifiera
##ifierad
##ifierade
##ifieras
##ifiering
##ifik
##ifikat
##ifikation
##ifikationer
##ifl
##ifolia
##ifran
##ift
##ifta
##ifte
##iful
##ify
##ig
##iga
##igad
##igade
##igan
##igande
##igar
##igare
##igas
##igaste
##ige
##igen
##igenom
##iger
##iget
##igg
##iggande
##igger
##igh
##ighet
##igheten
##igheter
##igheterna
##ight
##ights
##ign
##igna
##ignal
##ignaler
##igo
##igr
##igt
##ih
##ii
##iii
##iiii
##ij
##ija
##ijer
##ijk
##ik
##ika
##ikal
##ikan
##ikansk
##ikanska
##ikapp
##ikar
##ikas
##ikat
##ikation
##ikationen
##ikationer
##ikator
##ikatorer
##ike
##ikel
##iken
##ikens
##iker
##ikern
##ikerna
##ikes
##iket
##iki
##iklar
##iknande
##iko
##ikon
##ikor
##ikos
##iks
##ikt
##ikte
##iktigt
##iktion
##iktning
##iku
##ikum
##ikyr
##il
##ila
##ilable
##iland
##ilar
##ild
##ilda
##ilding
##ile
##iled
##ileg
##ilen
##iler
##iley
##ili
##ilia
##ilien
##ilis
##ilitet
##ilj
##ilja
##iljan
##ilje
##iljo
##iljon
##ill
##illa
##illan
##illar
##illas
##illbehor
##ille
##illen
##iller
##illes
##illgang
##illkor
##illo
##ills
##illstand
##illverk
##illy
##ilo
##ilog
##ilometer
##ilos
##ils
##ilt
##ilton
##ilus
##ily
##im
##ima
##imals
##imalsfargkoden
##iman
##imat
##ime
##imension
##iment
##imentet
##imer
##imeter
##imin
##imir
##imm
##imma
##immar
##immer
##imo
##imp
##ims
##imul
##imus
##in
##ina
##inal
##inalen
##inans
##inar
##inari
##inarie
##inarier
##inarium
##inas
##ination
##inav
##inci
##ind
##inda
##inder
##index
##indlar
##indra
##industri
##industrin
##ine
##inea
##inen
##inens
##iner
##inerades
##inerande
##inerats
##inerna
##ines
##iness
##inet
##infar
##infarkt
##infekt
##infektion
##infl
##inflammation
##info
##information
##ing
##inga
##ingar
##ingarna
##inge
##ingen
##ingenjor
##inger
##inget
##inglar
##ingo
##ings
##ingsas
##ingsdag
##ington
##inho
##ini
##ining
##inis
##inister
##inj
##injen
##ink
##inka
##inkar
##inken
##inkomst
##inkomsten
##inkt
##inlagg
##inn
##inna
##innade
##innan
##innande
##innar
##innare
##innas
##inne
##innehall
##innehallet
##innehav
##innen
##inner
##innes
##innet
##innor
##inns
##ino
##inor
##inos
##inredning
##inrikt
##inriktad
##ins
##insamling
##insats
##insatser
##insen
##inska
##inspekt
##inspektionen
##inspektionens
##inspir
##inst
##install
##installningar
##instans
##institut
##institutet
##instrukt
##instrument
##int
##intag
##intakter
##inte
##intens
##inter
##interv
##intervju
##intill
##intress
##intresse
##intressen
##intresserade
##intresset
##intro
##ints
##intyg
##inus
##invest
##io
##ioder
##iol
##ion
##iona
##ionde
##ione
##ionell
##ionella
##ionellt
##ionen
##ionens
##ioner
##ionerna
##ions
##iop
##ior
##ios
##iosa
##iost
##iot
##iotal
##iotalet
##ious
##iox
##ioxid
##ip
##ipa
##ipan
##ipe
##ipend
##iper
##ipes
##ipp
##ippa
##ippi
##ipro
##iprodukter
##ips
##ipul
##iq
##ique
##ir
##ira
##irap
##ird
##ire
##irekt
##irektor
##iren
##ires
##iri
##irig
##irk
##irl
##iro
##irs
##irt
##irus
##is
##isa
##isar
##isarna
##isation
##isch
##ischer
##ise
##isen
##iser
##isera
##iserad
##iserade
##iserades
##iserande
##iserar
##iseras
##iserat
##iserats
##isering
##iseringen
##isert
##ises
##ish
##isha
##isi
##ising
##ision
##isionen
##isk
##iska
##iskan
##iske
##iskop
##iskor
##iskt
##ism
##ismen
##ismens
##isol
##isolering
##ison
##isont
##iss
##issa
##issan
##issar
##issbruk
##isse
##isseau
##issen
##isser
##isserna
##isses
##issi
##ission
##issionen
##isst
##ist
##ista
##istan
##istans
##iste
##isten
##istens
##istensen
##istent
##ister
##isterande
##isteriet
##isterna
##isternas
##istik
##istiken
##istisk
##istiska
##istiskt
##isto
##istor
##istr
##istrar
##istrat
##istrikt
##istriktet
##isy
##it
##ita
##ital
##itar
##itara
##itarr
##itas
##itation
##itch
##ite
##ited
##itekt
##itekten
##itel
##iten
##iter
##itera
##iterna
##ites
##itet
##iteten
##iteter
##ith
##iti
##ities
##itim
##itima
##ition
##itionen
##itioner
##itiska
##itiv
##itiva
##ito
##itor
##itoris
##itra
##its
##itt
##itta
##ittande
##itte
##itten
##itter
##itu
##ituation
##ituationen
##ituationer
##itud
##itus
##itut
##itution
##ity
##ityd
##itz
##ium
##ius
##iv
##iva
##ival
##ivalen
##ivaler
##ivan
##ivande
##ivare
##ive
##iven
##iver
##ivers
##iversitet
##ives
##ivet
##ivit
##ivitet
##iviteter
##ivna
##ivt
##ix
##iy
##iz
##iza
##ization
##ize
##ized
##izer
##izz
##j
##ja
##jack
##jacka
##jackor
##jad
##jade
##jag
##jak
##jakt
##jakten
##jal
##jall
##jalp
##jam
##jamt
##jan
##jande
##jandet
##jans
##janst
##jansten
##janster
##jant
##jar
##jard
##jare
##jaren
##jarn
##jarna
##jarnan
##jarnen
##jarvi
##jas
##jat
##jav
##jd
##je
##ject
##jej
##jejer
##jekt
##jekten
##jen
##jer
##jern
##jerna
##jes
##jet
##jevo
##ji
##jic
##jk
##jning
##jo
##job
##jobb
##jock
##jod
##jok
##jol
##jolk
##jon
##jong
##jor
##jord
##jorda
##jorden
##jorer
##jorn
##jorna
##jort
##jorta
##jos
##jot
##jour
##journ
##journalen
##joy
##js
##jsa
##jt
##jta
##jter
##jting
##jtnant
##ju
##jud
##juder
##juice
##juk
##juka
##jukt
##jul
##jun
##jung
##junga
##jungar
##junkt
##junktur
##junkturen
##jup
##jur
##juren
##jus
##just
##jut
##juta
##juter
##jutt
##juv
##k
##ka
##kabel
##kad
##kade
##kaffe
##kak
##kaka
##kakan
##kakor
##kal
##kalas
##kalen
##kall
##kalla
##kallande
##kam
##kamer
##kamera
##kameran
##kameror
##kammare
##kammaren
##kamp
##kamrat
##kamrater
##kan
##kanalen
##kand
##kande
##kandid
##kann
##kanna
##kannas
##kans
##kansla
##kanslan
##kanslighet
##kanslor
##kant
##kanten
##kanter
##kap
##kapacitet
##kapit
##kapital
##kapp
##kapten
##kar
##karakt
##kare
##karen
##karl
##karlek
##karlen
##karna
##karriar
##kart
##karta
##kas
##kass
##kasse
##kast
##kastning
##kat
##katalog
##katastro
##kategor
##kategorier
##kategorin
##katt
##ke
##keby
##ked
##kedja
##kedjan
##kedjor
##kel
##ken
##ker
##kers
##kes
##ket
##key
##kg
##ki
##kilometer
##kin
##king
##kins
##kir
##kit
##kk
##kl
##kla
##klack
##klad
##kladd
##kladda
##klade
##klader
##kladerna
##klag
##klaga
##klagar
##klam
##klan
##kland
##klanning
##klar
##klara
##klaration
##klart
##klass
##klassen
##klasser
##kler
##klet
##klicka
##kligen
##klimat
##klin
##kling
##klipp
##klocka
##klor
##klotet
##klubb
##klubbar
##klubben
##klund
##km
##kmok
##kn
##kna
##knapp
##knappar
##knappen
##kning
##kningar
##kniv
##ko
##kod
##koden
##koder
##kok
##kol
##koll
##kom
##kombin
##komlig
##komliga
##komligt
##komm
##komma
##kommande
##kommen
##kommentarer
##kommer
##kommit
##kommor
##kommun
##komna
##komp
##kompetens
##kompis
##kompisar
##kompon
##koms
##komst
##komsten
##komster
##kon
##kondition
##konferens
##kong
##konom
##kons
##konser
##konsolidering
##konst
##konstrukt
##konstruktion
##konsult
##konsumtion
##kont
##kontakt
##kontakter
##konto
##konton
##kontor
##kontoret
##kontroll
##kontrollen
##kontroller
##kop
##koping
##kopings
##kopp
##koppling
##kor
##kord
##kore
##korea
##korg
##korgen
##korn
##korna
##korning
##kort
##korta
##kortet
##kost
##kostnad
##kostnaden
##kostnader
##kott
##kr
##kra
##kraft
##krafter
##kram
##kran
##krav
##kre
##kred
##kret
##kreta
##krets
##krig
##kriget
##kring
##krit
##kritik
##kro
##krok
##kron
##kropp
##kroppen
##kry
##kryss
##ks
##kt
##kta
##kte
##kten
##kter
##ktig
##ktis
##ktligen
##ktor
##ktyg
##ktygen
##ku
##kul
##kult
##kultur
##kund
##kunder
##kunn
##kunskap
##kunskaper
##kup
##kur
##kurs
##kursen
##kurser
##kust
##kusten
##kv
##kval
##kvalitet
##kvaliteten
##kvall
##kvallar
##kvallen
##kvam
##kvar
##kvarn
##kvarter
##kvens
##kvensen
##kvinnor
##kvist
##ky
##kyl
##kyr
##kyrka
##kyrkan
##l
##la
##lac
##lack
##lad
##lada
##ladan
##ladd
##laddning
##lade
##laden
##lader
##lades
##lador
##lag
##laga
##lagd
##lagda
##lage
##lagen
##lagenhet
##lagenheter
##lager
##laget
##lagg
##lagga
##laggande
##laggare
##laggas
##lagger
##lagget
##laggning
##laggningar
##laggningen
##laggs
##lagret
##lagt
##lak
##lakare
##lakt
##laktet
##lam
##lamn
##lampa
##lampan
##lampor
##lan
##land
##landa
##lande
##lander
##landet
##lands
##landska
##landskap
##lang
##langd
##lange
##langes
##langt
##laning
##lank
##lanning
##lanningar
##lans
##lant
##lanta
##lapp
##lappar
##lappen
##lar
##larare
##lare
##laren
##larm
##larna
##larnas
##las
##lasa
##lasare
##lasning
##lass
##last
##lat
##latande
##lats
##latt
##lav
##lax
##lay
##le
##leby
##led
##ledare
##ledaren
##ledarna
##leden
##leder
##ledning
##ledningar
##ledningen
##lednings
##legg
##lek
##lekar
##leken
##leksaker
##lekt
##lektion
##lem
##len
##ler
##leri
##lerna
##lers
##les
##less
##let
##lett
##lev
##leva
##lever
##leverans
##leverantor
##leverantorer
##levnad
##lex
##ley
##li
##liber
##libris
##lich
##licht
##lid
##lie
##liet
##life
##lig
##liga
##ligan
##ligare
##ligaste
##lige
##ligen
##liggande
##lighet
##ligheten
##lighetens
##ligheter
##ligheterna
##light
##lights
##ligt
##lik
##lika
##liknande
##likt
##lim
##lin
##lina
##lind
##line
##lines
##ling
##lingar
##lingarna
##linge
##lingen
##lingor
##lings
##linje
##linjen
##linjer
##lip
##list
##lista
##listan
##listor
##lit
##litt
##litteratur
##liv
##livet
##ljud
##ljus
##ll
##lla
##llan
##lle
##llen
##ller
##lleri
##llet
##llop
##llor
##lo
##lock
##lof
##log
##lok
##lokal
##lokaler
##lon
##lonen
##look
##lop
##lopande
##lopp
##loppet
##lor
##lorna
##los
##losa
##losen
##loshet
##losning
##losningar
##losningen
##loss
##lossning
##lost
##losta
##lott
##lov
##low
##ls
##lu
##luck
##luft
##lund
##lunda
##lunds
##lur
##lus
##lust
##lut
##ly
##lyft
##lys
##lyst
##m
##ma
##mack
##macka
##mad
##made
##mail
##mak
##makare
##makt
##makten
##maktig
##maktige
##maktiges
##mal
##mala
##malade
##malen
##malet
##mall
##malm
##malning
##malt
##mamma
##man
##manad
##manaderna
##mande
##manland
##manlands
##mann
##mannen
##mannens
##manniska
##manniskor
##mans
##mansk
##mant
##manuel
##mar
##mare
##maren
##marg
##marin
##mark
##marke
##marken
##marker
##market
##marknad
##marknaden
##marknader
##markt
##marna
##marnas
##mart
##marta
##mas
##mask
##maskar
##maskart
##maskin
##maskinen
##maskiner
##mass
##massa
##massage
##massan
##massig
##massiga
##massigt
##massor
##mast
##mastare
##mastaren
##master
##mat
##matare
##match
##matchen
##maten
##mater
##material
##materialet
##matning
##matningar
##mats
##matt
##matta
##mattan
##mattor
##max
##me
##med
##medalj
##meddel
##meddelande
##meddelanden
##meddelandet
##medel
##medels
##media
##medicin
##medlem
##medlemmar
##medlet
##medvet
##meh
##mel
##melad
##men
##mens
##ment
##mentet
##ments
##meny
##menyn
##mer
##mera
##mering
##mers
##mes
##met
##meter
##metod
##mets
##mg
##mhart
##mi
##miar
##miaren
##mid
##middag
##mil
##miljo
##miljoer
##miljon
##min
##minen
##ming
##minister
##minnes
##mir
##mis
##missbruk
##mit
##mitt
##mix
##mjol
##mjolk
##mjuk
##ml
##mm
##mn
##mo
##mobler
##mod
##mode
##modell
##modellen
##modeller
##modern
##moj
##mojligheter
##mol
##mom
##moment
##mon
##mond
##moner
##monster
##mont
##mor
##mord
##morgon
##mos
##moss
##mot
##mote
##moten
##motet
##motiv
##motor
##motorer
##motorn
##motstand
##mott
##mottagning
##ms
##mt
##mun
##mund
##mur
##mus
##muse
##museet
##museum
##musik
[...]
