[unused0]
[unused1]
[unused2]
[unused3]
[unused4]
[unused5]
[unused6]
[unused7]
[unused8]
[unused9]
[unused10]
[unused11]
[unused12]
[unused13]
[unused14]
[unused15]
[unused16]
[unused17]
[unused18]
[unused19]
[unused20]
[unused21]
[unused22]
[unused23]
[unused24]
[unused25]
[unused26]
[unused27]
[unused28]
[unused29]
[unused30]
[unused31]
[unused32]
[unused33]
[unused34]
[unused35]
[unused36]
[unused37]
[unused38]
[unused39]
[unused40]
[unused41]
[unused42]
[unused43]
[unused44]
[unused45]
[unused46]
[unused47]
[unused48]
[unused49]
[unused50]
[unused51]
[unused52]
[unused53]
[unused54]
[unused55]
[unused56]
[unused57]
[unused58]
[unused59]
[unused60]
[unused61]
[unused62]
[unused63]
[unused64]
[unused65]
[unused66]
[unused67]
[unused68]
[unused69]
[unused70]
[unused71]
[unused72]
[unused73]
[unused74]
[unused75]
[unused76]
[unused77]
[unused78]
[unused79]
[unused80]
[unused81]
[unused82]
[unused83]
[unused84]
[unused85]
[unused86]
[unused87]
[unused88]
[unused89]
[unused90]
[unused91]
[unused92]
[unused93]
[unused94]
[unused95]
[unused96]
[unused97]
[unused98]
[unused99]
[unused100]
[unused101]
[unused102]
[unused103]
[unused104]
[unused105]
[unused106]
[unused107]
[unused108]
[unused109]
[unused110]
[unused111]
[unused112]
[unused113]
[unused114]
[unused115]
[unused116]
[unused117]
[unused118]
[unused119]
[unused120]
[unused121]
[unused122]
[unused123]
[unused124]
[unused125]
[unused126]
[unused127]
[unused128]
[unused129]
[unused130]
[unused131]
[unused132]
[unused133]
[unused134]
[unused135]
[unused136]
[unused137]
[unused138]
[unused139]
[unused140]
[unused141]
[unused142]
[unused143]
[unused144]
[unused145]
[unused146]
[unused147]
[unused148]
[unused149]
[unused150]
[unused151]
[unused152]
[unused153]
[unused154]
[unused155]
[unused156]
[unused157]
[unused158]
[unused159]
[unused160]
[unused161]
[unused162]
[unused163]
[unused164]
[unused165]
[unused166]
[unused167]
[unused168]
[unused169]
[unused170]
[unused171]
[unused172]
[unused173]
[unused174]
[unused175]
[unused176]
[unused177]
[unused178]
[unused179]
[unused180]
[unused181]
[unused182]
[unused183]
[unused184]
[unused185]
[unused186]
[unused187]
[unused188]
[unused189]
[unused190]
[unused191]
[unused192]
[unused193]
[unused194]
[unused195]
[unused196]
[unused197]
[unused198]
[unused199]
[unused200]
[unused201]
[unused202]
[unused203]
[unused204]
[unused205]
[unused206]
[unused207]
[unused208]
[unused209]
[unused210]
[unused211]
[unused212]
[unused213]
[unused214]
[unused215]
[unused216]
[unused217]
[unused218]
[unused219]
[unused220]
[unused221]
[unused222]
[unused223]
[unused224]
[unused225]
[unused226]
[unused227]
[unused228]
[unused229]
[unused230]
[unused231]
[unused232]
[unused233]
[unused234]
[unused235]
[unused236]
[unused237]
[unused238]
[unused239]
[unused240]
[unused241]
[unused242]
[unused243]
[unused244]
[unused245]
[unused246]
[unused247]
[unused248]
[unused249]
[unused250]
[unused251]
[unused252]
[unused253]
[unused254]
[unused255]
[unused256]
[unused257]
[unused258]
[unused259]
[unused260]
[unused261]
[unused262]
[unused263]
[unused264]
[unused265]
[unused266]
[unused267]
[unused268]
[unused269]
[unused270]
[unused271]
[unused272]
[unused273]
[unused274]
[unused275]
[unused276]
[unused277]
[unused278]
[unused279]
[unused280]
[unused281]
[unused282]
[unused283]
[unused284]
[unused285]
[unused286]
[unused287]
[unused288]
[unused289]
[unused290]
[unused291]
[unused292]
[unused293]
[unused294]
[unused295]
[unused296]
[unused297]
[unused298]
[unused299]
[unused300]
[unused301]
[unused302]
[unused303]
[unused304]
[unused305]
[unused306]
[unused307]
[unused308]
[unused309]
[unused310]
[unused311]
[unused312]
[unused313]
[unused314]
[unused315]
[unused316]
[unused317]
[unused318]
[unused319]
[unused320]
[unused321]
[unused322]
[unused323]
[unused324]
[unused325]
[unused326]
[unused327]
[unused328]
[unused329]
[unused330]
[unused331]
[unused332]
[unused333]
[unused334]
[unused335]
[unused336]
[unused337]
[unused338]
[unused339]
[unused340]
[unused341]
[unused342]
[unused343]
[unused344]
[unused345]
[unused346]
[unused347]
[unused348]
[unused349]
[unused350]
[unused351]
[unused352]
[unused353]
[unused354]
[unused355]
[unused356]
[unused357]
[unused358]
[unused359]
[unused360]
[unused361]
[unused362]
[unused363]
[unused364]
[unused365]
[unused366]
[unused367]
[unused368]
[unused369]
[unused370]
[unused371]
[unused372]
[unused373]
[unused374]
[unused375]
[unused376]
[unused377]
[unused378]
[unused379]
[unused380]
[unused381]
[unused382]
[unused383]
[unused384]
[unused385]
[unused386]
[unused387]
[unused388]
[unused389]
[unused390]
[unused391]
[unused392]
[unused393]
[unused394]
[unused395]
[unused396]
[unused397]
[unused398]
[unused399]
[unused400]
[unused401]
[unused402]
[unused403]
[unused404]
[unused405]
[unused406]
[unused407]
[unused408]
[unused409]
[unused410]
[unused411]
[unused412]
[unused413]
[unused414]
[unused415]
[unused416]
[unused417]
[unused418]
[unused419]
[unused420]
[unused421]
[unused422]
[unused423]
[unused424]
[unused425]
[unused426]
[unused427]
[unused428]
[unused429]
[unused430]
[unused431]
[unused432]
[unused433]
[unused434]
[unused435]
[unused436]
[unused437]
[unused438]
[unused439]
[unused440]
[unused441]
[unused442]
[unused443]
[unused444]
[unused445]
[unused446]
[unused447]
[unused448]
[unused449]
[unused450]
[unused451]
[unused452]
[unused453]
[unused454]
[unused455]
[unused456]
[unused457]
[unused458]
[unused459]
[unused460]
[unused461]
[unused462]
[unused463]
[unused464]
[unused465]
[unused466]
[unused467]
[unused468]
[unused469]
[unused470]
[unused471]
[unused472]
[unused473]
[unused474]
[unused475]
[unused476]
[unused477]
[unused478]
[unused479]
[unused480]
[unused481]
[unused482]
[unused483]
[unused484]
[unused485]
[unused486]
[unused487]
[unused488]
[unused489]
[unused490]
[unused491]
[unused492]
[unused493]
[unused494]
[unused495]
[unused496]
[unused497]
[unused498]
[unused499]
[CLS]
[MASK]
[PAD]
[SEP]
[UNK]
!
"
#
$
%
&
'
(
)
*
+
,
-
.
/
0
1
2
3
4
5
6
7
8
9
:
;
=
?
@
[
\
]
^
_
`
a
b
c
d
e
f
g
h
i
j
k
l
m
n
o
p
q
r
s
t
u
v
w
x
y
z
{
|
}
~
¡
£
§
¨
«
®
°
±
²
³
´
µ
·
¹
º
»
¼
½
¾
×
ß
æ
ð
ø
þ
đ
ħ
ı
ł
ŋ
œ
ƒ
ɐ
ɑ
ɒ
ɔ
ɕ
ə
ɛ
ɡ
ɨ
ɪ
ɾ
ʀ
ʁ
ʃ
ʉ
ʊ
ʒ
ʔ
ʰ
ʲ
ʹ
ʻ
ʼ
ʾ
ʿ
ˈ
ˌ
ː
˚
α
β
γ
δ
ε
ζ
η
θ
ι
κ
λ
μ
ν
ξ
ο
π
ρ
ς
σ
τ
υ
φ
χ
ψ
ω
а
б
в
г
д
е
ж
з
и
к
л
м
н
о
п
р
с
т
у
ф
х
ц
ч
ш
щ
ъ
ы
ь
э
ю
я
ђ
є
і
ј
љ
њ
ћ
џ
қ
ү
ә
ө
ա
բ
գ
դ
ե
զ
թ
ի
լ
խ
կ
հ
ղ
մ
յ
ն
շ
ո
պ
ռ
ս
վ
տ
ր
ց
ւ
ք
א
ב
ג
ד
ה
ו
ז
ח
ט
י
כ
ל
ם
מ
ן
נ
ס
ע
ף
פ
צ
ק
ר
ש
ת
ء
ا
ب
ة
ت
ث
ج
ح
خ
د
ذ
ر
ز
س
ش
ص
ض
ط
ظ
ع
غ
ـ
ف
ق
ك
ل
م
ن
ه
و
ى
ي
پ
چ
ژ
ک
گ
ھ
ہ
ۆ
ی
ێ
ە
ܐ
ܕ
ܘ
ܝ
ܪ
ܬ
अ
क
ग
च
ज
ट
ड
ण
त
द
ध
न
प
ब
भ
म
य
र
ल
व
श
ष
स
ह
ा
ि
ी
ो
॥
ক
জ
ত
দ
ন
প
ব
ম
য
র
ল
স
া
ি
ী
ে
ਅ
ਆ
ਇ
ਕ
ਖ
ਗ
ਜ
ਣ
ਤ
ਦ
ਨ
ਪ
ਮ
ਰ
ਲ
ਵ
ਸ
ਹ
ਾ
ਿ
ੀ
લ
க
ச
ட
த
ன
ப
ம
ர
ல
வ
ா
ி
ு
ാ
ก
ค
ง
จ
ช
ด
ต
ท
น
บ
ป
พ
ม
ย
ร
ล
ว
ส
ห
อ
ะ
า
เ
་
།
ཀ
ཁ
ག
ང
ཆ
ད
ན
པ
ཕ
བ
མ
འ
ར
ལ
ཤ
ས
ა
ბ
გ
დ
ე
ვ
ზ
თ
ი
კ
ლ
მ
ნ
ო
პ
რ
ს
ტ
უ
ფ
ქ
ყ
შ
ჩ
ც
ძ
წ
ხ
ᄀ
ᄂ
ᄃ
ᄅ
ᄆ
ᄇ
ᄉ
ᄋ
ᄌ
ᄎ
ᄏ
ᄐ
ᄑ
ᄒ
ᅡ
ᅢ
ᅣ
ᅥ
ᅦ
ᅧ
ᅨ
ᅩ
ᅪ
ᅬ
ᅭ
ᅮ
ᅯ
ᅱ
ᅲ
ᅳ
ᅴ
ᅵ
ᆨ
ᆫ
ᆯ
ᆷ
ᆸ
ᆺ
ᆼ
ᚢ
ᚦ
ᚱ
ᚴ
ᚾ
ᛁ
ᛅ
ᛋ
ᛏ
ᛚ
᛫
រ
ា
‐
‑
–
—
‘
’
“
”
„
†
•
…
‰
′
″
‹
›
₂
€
℃
ℓ
№
⅍
→
∂
∇
∈
−
√
∞
∧
≈
≤
≥
⋅
─
│
└
├
●
★
♠
♥
♭
♯
⟨
⟩
い
う
か
き
し
と
の
り
ん
ア
イ
ウ
オ
カ
キ
ク
コ
サ
シ
ス
タ
ッ
テ
ト
ハ
ヒ
フ
ホ
マ
ラ
リ
ル
ロ
ン
・
ー
一
丁
七
万
三
上
下
世
东
中
丰
临
丹
主
义
之
乌
乐
九
乡
二
云
五
井
亚
京
亭
人
什
仁
仙
代
伊
会
佛
作
依
保
信
元
光
克
八
公
六
兰
共
关
兴
内
军
农
凤
刘
利
前
劉
力
加
勒
包
化
北
区
十
千
华
南
博
卡
厂
原
县
双
口
古
台
史
司
合
吉
同
后
向
吴
周
和
哈
唐
嘉
嘎
四
回
团
园
国
图
國
土
地
场
址
坊
坑
坝
坡
坪
城
堂
堡
塔
塘
墓
士
夏
外
多
大
天
太
头
女
如
子
孔
字
孙
孝
学
學
宁
安
宋
宗
官
定
宝
家
富
寨
寺
寿
小
尔
尖
尼
居
屯
山
屿
岗
岛
岩
岭
岳
峡
峰
島
川
州
工
巴
市
布
帝
常
干
平
年
广
庄
庆
库
店
庙
府
康
建
式
张
張
当
彝
彦
徐
德
心
志
成
房
所
扎
拉
政
教
文
斯
新
方
族
旗
日
旧
昌
明
星
春
昭
普
景
曲
書
曹
會
月
望
朝
木
本
朱
机
李
村
杜
来
杨
東
松
板
林
果
柏
查
柳
树
株
根
格
桂
桃
桑
桥
梁
梅
楼
横
正
武
毛
氏
民
水
永
汉
江
池
沙
沟
河
治
泉
法
波
泰
洋
洛
洞
津
洪
洲
流
浦
海
清
渡
温
港
湖
湾
源
溪
满
滩
漢
潭
灣
火
热
牛
物
特
玄
玉
王
玛
珠
理
瓦
生
田
甲
界
白
百
皇
盘
真
石
矿
社
祖
神
福
秀
秋
科
秦
空
立
站
章
竹
經
红
纳
罗
羅
羊
美
群
義
老
胜
胡
自
良
色
花
苏
苗
若
英
茶
草
荣
莫
莲
華
营
蒙
藏
虎
行
街
西
观
角
語
谷
贡
赛
赤
赵
路
軍
车
边
达
连
通
道
遗
那
郊
郎
郡
部
郭
都
里
野
金
铁
铺
错
镇
長
长
門
门
阳
阿
陈
院
陳
陵
陽
隆
雄
雅
集
雪
青
音
顶
顺
风
香
馬
马
高
鱼
鲁
鹿
麻
黄
黑
龍
龙
00
000
01
02
03
04
05
06
07
08
09
10
100
1000
101
102
103
104
105
106
107
108
109
11
110
1100
111
112
113
114
115
116
117
118
119
12
120
1200
123
124
125
126
127
128
129
13
130
1300
133
134
135
136
137
138
139
14
140
1400
143
144
145
146
147
148
149
15
150
1500
152
1520
153
154
155
1550
156
157
158
159
16
160
1600
162
1620
163
1630
164
1640
1644
1645
1648
165
1650
1658
166
1660
1667
167
1670
1675
1676
168
1680
1683
1686
1689
169
1690
1695
1697
17
170
1700
1701
1702
1707
1709
171
1710
1713
1714
1715
1716
1718
1719
172
1720
1721
1723
173
1730
1731
1733
1734
1735
1736
1737
1739
174
1740
1741
1742
1743
1744
1745
1746
1747
1748
1749
175
1750
1751
1752
1753
1754
1755
1756
1757
1758
1759
176
1760
1761
1762
1763
1764
1765
1766
1767
1768
1769
177
1770
1771
1772
1773
1774
1775
1776
1777
1778
1779
178
1780
1781
1782
1783
1784
1785
1786
1787
1788
1789
179
1790
1791
1792
1793
1794
1795
1796
1797
1798
1799
18
180
1800
1801
1802
1803
1804
1805
1806
1807
1808
1809
181
1810
1811
1812
1813
1814
1815
1816
1817
1818
1819
182
1820
1821
1822
1823
1824
1825
1826
1827
1828
1829
183
1830
1831
1832
1833
1834
1835
1836
1837
1838
1839
184
1840
1841
1842
1843
1844
1845
1846
1847
1848
1849
185
1850
1851
1852
1853
1854
1855
1856
1857
1858
1859
186
1860
1861
1862
1863
1864
1865
1866
1867
1868
1869
187
1870
1871
1872
1873
1874
1875
1876
1877
1878
1879
188
1880
1881
1882
1883
1884
1885
1886
1887
1888
1889
189
1890
1891
1892
1893
1894
1895
1896
1897
1898
1899
19
190
1900
1901
1902
1903
1904
1905
1906
1907
1908
1909
191
1910
1911
1912
1913
1914
1915
1916
1917
1918
1919
192
1920
1921
1922
1923
1924
1925
1926
1927
1928
1929
193
1930
1931
1932
1933
1934
1935
1936
1937
1938
1939
194
1940
1941
1942
1943
1944
1945
1946
1947
1948
1949
195
1950
1951
1952
1953
1954
1955
1956
1957
1958
1959
196
1960
1961
1962
1963
1964
1965
1966
1967
1968
1969
197
1970
1971
1972
1973
1974
1975
1976
1977
1978
1979
198
1980
1981
1982
1983
1984
1985
1986
1987
1988
1989
199
1990
1991
1992
1993
1994
1995
1996
1997
1998
1999
20
200
2000
2001
2002
2003
2004
2005
2006
2007
2008
2009
201
2010
2011
2012
2013
2014
2015
2016
2017
2018
2019
2020
2021
21
210
22
220
23
230
24
240
25
250
2500
26
260
27
270
28
280
29
290
30
300
3000
31
310
32
320
33
330
34
340
35
350
36
360
37
370
38
380
39
390
3d
40
400
4000
41
410
42
420
43
430
44
440
45
450
46
460
47
470
48
480
49
50
500
5000
51
52
53
54
55
550
56
57
58
59
60
600
6000
61
62
63
64
65
650
66
67
68
69
70
700
71
72
73
74
75
750
76
77
78
79
80
800
81
82
83
84
85
850
86
87
88
89
90
900
91
92
93
94
95
96
97
98
99
a3
aa
aar
aaron
aas
ab
aba
abb
abbas
abbed
abbey
abbor
abborre
abc
abd
abdul
abe
abeba
abel
aber
aberde
abit
abitibi
abo
aboland
abort
about
abra
abraham
abs
absol
absolut
absolutt
absor
abstrakt
abu
aby
ac
acacia
academ
academie
academy
acan
acant
acanth
acc
accep
accepterade
accra
ace
aceh
acer
ach
achille
ack
ackum
ackumulerade
acraea
act
actin
action
acumin
acut
ad
ada
adal
adam
adams
add
addis
ade
adel
adela
adelaide
adelen
adeln
aden
adgang
adi
adjektiv
adjunkt
adlades
adler
administ
administrasjon
administrasjonen
administrasjonssenter
administrasjonssenteret
administrat
administration
administrativ
administrativa
administrative
administrativt
administrer
administrerende
admiral
adolf
adolfs
adolph
adopter
adrar
adress
adresse
adri
adrian
adrien
advan
advar
advent
advis
advisory
advok
advokat
ae
aedes
aeg
aer
aet
af
afc
aff
affar
affaren
affarer
affars
affarsman
affinis
afg
afgh
afghan
afghanistan
afric
afrik
afrika
afrikansk
afrikanska
afrikanske
afrikas
afro
aften
aftenposten
after
afton
aftonbladet
ag
aga
again
agap
agar
agare
agaren
agaric
agaricomycetes
agath
agde
agder
agdes
age
agen
agent
ager
agg
aggen
aggress
agla
agn
agna
agnade
agnes
agnet
ago
agri
agrotis
ags
agt
agu
agua
aguada
ah
ahl
ahmad
ahmar
ahmed
ai
aik
ain
air
aires
airlines
airport
airways
ais
aisen
ait
aj
ajax
ak
aka
akadem
akademi
akademien
akademiens
akademiet
akademin
akademisk
akademiska
akademiske
akantus
akantusvaxtart
akantusvaxter
ake
aker
akershus
akk
akkurat
aklag
akra
aks
aksel
aksep
akseptert
aksepterte
aksj
aksjon
akt
akta
akte
akten
aktenskap
aktenskapet
akter
aktieb
aktiebolag
aktiv
aktiva
aktive
aktiver
aktivitet
aktiviteten
aktiviteter
aktivt
aktuell
aktuella
aktuelle
akust
akustisk
akut
akvar
akvarell
akvari
al
ala
alab
alabama
alam
alan
aland
alands
alaska
alb
alba
alban
albania
albanien
albansk
albanska
alber
albert
alberta
alberto
albin
albrecht
album
albuma
albumet
albumets
alc
ald
alder
alderen
aldre
aldri
aldrig
aldsta
aldste
ale
aleg
aleks
aleksand
aleksander
aleksandr
alekse
alene
aleppo
aless
alesund
alex
alexand
alexander
alexandra
alexandre
alexandria
alf
alfa
alfabet
alfabetet
alfred
alg
algebra
alger
algerie
algeriet
algoma
algorit
ali
alice
alingsas
alive
alk
alko
alkohol
all
alla
allan
alldeles
alle
alleg
allen
aller
allerede
allereie
alli
alliance
allians
allianse
alliansen
allierade
alliert
allierte
allikevel
allium
allm
allman
allmanhet
allmanheten
allmanna
allmant
allmenn
allra
alls
allsvenska
allsvenskan
allt
alltfor
alltid
alltmer
alltsa
allvar
allvarliga
allvarligt
alm
alma
alminn
aloe
alp
alpane
alpene
alpes
alph
alpin
alpina
alpine
alpinist
alpint
als
alsace
alskar
alt
alta
altar
altart
alten
alter
altern
alternativ
alternativa
alternative
alternativt
altert
alto
altsa
alumin
aluminium
alv
alvar
alvdal
alve
alven
alvor
alvorlig
alvorlige
alvsborgs
am
ama
amal
aman
amanda
amar
amarant
amarantvaxtart
amarantvaxter
amaryllis
amaryllisvaxtart
amaryllisvaxter
amat
amator
amatør
amazon
amazonas
amb
ambass
ambassad
ambassaden
ambassador
ambassadør
ambet
ambetet
ambetsman
ambly
ambul
ame
amer
americ
america
american
amerik
amerika
amerikan
amerikansk
amerikanska
amerikanske
amerikanskt
amf
amfib
amfip
amfipoder
amir
amiral
amm
amman
ammun
ammunisjon
ammunition
amne
amnen
amnes
amnet
amor
amp
amph
amphi
amster
amsterdam
amt
amund
amundsen
amy
an
ana
anab
anac
anal
analog
analy
analys
analyse
analyser
analyt
anark
anast
anat
anatol
anatolia
anatom
anatomi
anbefal
anc
and
anda
andalus
andalusien
andamal
ande
andel
andelen
anden
ander
anders
andersen
anderson
andersson
andes
andhra
andliga
andorra
andra
andrade
andrades
andraplats
andras
andre
andrea
andreas
andrej
andrena
andreplass
andres
andrew
andrews
andy
ane
aner
anerkjen
anerkjennelse
anerkjent
anerkjente
anfall
anfoll
ang
anga
angaende
angar
ange
angel
angeles
angelsaks
angelsaksiske
anger
angermanland
anges
angiv
angivelig
anglik
anglo
angola
angrans
angransande
angrep
angrepet
angrepp
angri
angripe
angriper
angsskinn
angsskinnbaggar
angust
anhang
anhangare
anhui
anim
animer
anis
anita
anj
ank
anka
anker
anklag
anklaget
ankn
anknytning
ankom
ankomst
anlades
anlagg
anlaggning
anlaggningar
anlaggningen
anlagt
anlande
anled
anledning
anledningen
anledninger
anlegg
anlegget
anlit
anmal
anmark
anmel
ann
anna
annan
annars
annat
anne
annekter
annen
anner
annerledes
annet
annex
annexforsamling
annie
annon
annonsert
annonserte
annorlunda
annu
anom
anomala
anonym
anor
anord
anordnades
anpass
ans
ansa
ansag
ansags
ansatt
ansatte
anse
anser
anses
ansett
ansikt
ansikte
ansiktet
anskaff
ansl
anslag
anslatt
anslot
anslut
ansluter
anslutning
ansokan
ansprak
anst
anstall
anstalld
anstallda
anstalldes
anstallning
anstrang
ansvar
ansvarar
ansvaret
ansvarig
ansvarlig
ant
anta
antag
antagelig
antagligen
antak
antal
antalet
antall
antallet
antananar
antananarivo
antar
antarctic
antarkt
antarktis
antarktisekspedisjonen
antarktiske
antart
antartica
antas
antatt
ante
anten
antenn
antennene
antenner
anth
anthony
anthur
anthurium
anti
antib
antik
antika
antiken
antikke
antikken
antikkens
antingen
antio
antiok
antioquia
antip
antis
antisem
anto
antofag
antofagasta
antog
antogs
antoine
anton
antonio
antonius
antrop
antwer
antwerpen
antyd
antyder
anvand
anvanda
anvandare
anvandas
anvande
anvander
anvandes
anvandning
anvandningen
anvands
anvant
anvants
anvend
ao
ap
apanteles
apart
apen
apent
aph
aphan
aphel
aphod
aphodiidae
apne
apnet
apning
apningen
apoll
apollo
apost
apostol
apote
apotek
app
appar
appel
apple
applik
april
aq
aqu
aquitaine
ar
ara
arab
arabemi
arabemiraten
araber
arabia
arabisk
arabiska
arabiske
arach
aragon
aragonien
arali
araneus
arb
arbeid
arbeidar
arbeidde
arbeide
arbeider
arbeidere
arbeiderpartiet
arbeidet
arbeids
arbeidsg
arbeidsgiver
arbet
arbeta
arbetade
arbetar
arbetare
arbetat
arbete
arbeten
arbetet
arbets
arbetsmark
arc
arch
arct
ard
arden
ardenne
ardis
ardisia
are
area
areal
arealet
arean
arecaceae
aren
arena
arenan
arendal
arene
aret
arets
arg
argent
argentina
argentinsk
argument
argumenter
argy
arhund
arhundraden
arhundre
arhundrer
arhundret
arhus
ari
arida
arig
ariga
arige
arild
aring
arist
aristokrat
aristot
aristoteles
ariz
arizona
ark
arkansas
arke
arkebiskop
arkeolog
arkeologi
arkeologisk
arkeologiska
arkeologiske
arkite
arkitekt
arkitekten
arkitekter
arkitektkontor
arkitekton
arkitektur
arkitekturen
arkiv
arkivet
arkt
arlig
arliga
arlige
arligen
arm
armad
arme
armeen
armen
armenia
armenien
armeniska
armens
armer
armst
armstrong
army
arn
arna
arne
arnold
aro
aron
arr
arrang
arrangemang
arrangement
arrangementer
arrangementet
arranger
arrangerade
arrangerades
arrangeras
arrangeres
arrangert
arrangerte
arrangør
arre
arren
arrest
arrester
arrestert
arri
arro
arroio
arrond
arrondiss
arrondissementet
arrow
arroyo
ars
arsak
arsaken
arsaker
arsdag
arsen
arsenal
arsj
arsjubileum
arsmed
arsmedeltemperaturen
arsn
arsnederbord
arsproduksjon
arsskiftet
art
arta
artar
arte
artem
arten
artene
artens
arter
arterna
arth
arthur
artik
artikel
artikeln
artikkel
artikkelen
artiklar
artikler
artiller
artilleri
artilleriet
artion
artist
artistar
artisten
artister
artium
artnamn
arts
artsrike
artvaxtart
artvaxter
arv
arve
arvet
arvid
arvidsja
arvika
arvt
as
asa
asb
asbjørn
asc
asen
aser
aserbajd
aserbajdsjan
ash
ashme
asia
asiat
asiatisk
asiatiska
asien
asikter
ask
askad
askadare
aske
asker
asm
asmara
asp
aspe
aspekter
asper
asplen
asplenium
ass
assist
assistent
assister
assisterande
assoc
association
assos
assosiert
assy
ast
asta
astad
astana
aster
astero
asteroid
asteroiden
asteroidgruppen
aston
astrag
astragalus
astrid
astrofys
astron
astronom
astronomen
astronomi
astur
asyl
at
ata
atac
atacama
atak
atal
ate
atel
atelje
aten
ater
aterf
aterfinn
aterfinns
aterforen
aterigen
aterin
aterkom
aterkommande
aterkomst
aterstar
aterupp
ateruppbygg
atervand
atervanda
atervande
atervander
atferd
atgarder
ath
athen
athlet
athletic
athy
atlan
atlant
atlanta
atlanten
atlanter
atlanterhavet
atlantic
atlas
atlet
atmin
atminstone
atmos
atmosf
atmosfar
atmosfæren
atom
atp
atra
atrich
atskil
atskilliga
att
atta
attack
atte
atten
attende
attent
attentat
atter
attonde
attra
attraktiv
au
aub
auckland
aud
audi
auf
aug
augu
august
augusta
auguste
augusti
augustin
augustus
auk
auka
aukt
auktor
auktors
auktorsforkortning
aula
aur
aure
aurivil
aurivillius
aurora
aus
auschwitz
aust
auster
austerrik
austerrike
austin
austlege
austral
australia
australian
australien
australiens
australis
australisk
australiska
australsk
australske
austro
austsida
aut
auto
autom
automat
automatisk
automatiskt
autonom
autonoma
autonome
autor
autoritet
auvergne
aux
av
avan
avanc
avancerade
avanserte
avant
avbild
avbry
avd
avdekket
avdel
avdeling
avdelingen
avdelinger
avdelning
avdelningen
avdøde
aven
aventyr
avenue
aver
avf
avfall
avg
avga
avgang
avgick
avgift
avgjer
avgjorde
avgjordes
avgjort
avgjør
avgjørende
avgor
avgora
avgorande
avgrans
avgrens
avgrensa
avhandling
avhandlingen
avheng
avhengig
avholdt
avis
avisa
avisen
aviser
aviv
avl
avla
avlade
avlag
avlang
avlange
avled
avledet
avlid
avlidit
avr
avratt
avrattades
avrinningsom
avrinningsomrade
avrinningsomraden
avrinningsomradena
avrinningsomradet
avrinningsomradets
avrundet
avs
avsatt
avse
avsedd
avsedda
avseende
avser
avses
avsett
avsevart
avsikt
avskaff
avskaffades
avsked
avskj
avskjed
avsl
avslo
avslut
avsluta
avslutade
avslutades
avslutas
avslutning
avslutt
avsluttet
avsnitt
avsnittet
avst
avsta
avstand
avstanden
avstandet
avstem
avt
avtal
avtale
avtalen
avtalet
avvatt
avvattnar
avvattnas
avveck
avvecklades
avvik
avviklet
avvist
avviste
aw
award
awards
ax
axel
ay
ayn
az
azer
azerbajd
azerbajdzjan
ba
baal
baalbek
bab
baba
baby
babylon
bac
bach
bachel
bachelor
back
backen
backhopp
backslandeart
bact
bad
bada
bade
baden
badminton
bae
bag
bagdad
bagge
bagh
bah
baha
bahamas
bahia
bahr
bailey
baj
baja
bak
bakat
baker
bakgr
bakgrund
bakgrunden
bakgrunn
bakgrunnen
bakh
bakke
bakken
bakkro
bakkropp
bakkroppen
bakom
bakover
bakre
bakt
bakter
bakterier
baku
bakvingen
bal
bala
balan
bald
bale
balett
bali
balkan
ball
ballen
balsam
balsamin
balt
baltimore
baluch
baluchistan
bam
bamako
bamiyan
ban
bana
banan
band
banden
bandet
bandets
bandmedlem
bandy
bane
banen
baner
bang
banglades
bangladesh
bank
banken
banker
banks
bann
banor
bant
bapt
baptist
baptiste
bar
bara
barang
barangayer
barat
barb
barbar
barbara
barber
barcel
barcelona
bard
bare
bari
bark
barken
barn
barna
barndom
barne
barnebarn
barnen
barnes
barnet
barns
barock
baron
barr
barra
barrage
barran
barrett
barrio
barrskog
barry
bars
bart
bas
base
baseb
baseball
basel
basen
baserad
baserade
baseras
baserat
basert
baserte
basid
basidies
basidiesvampar
basil
basis
bask
basket
basketball
bass
bassist
bast
basta
bat
batal
bataljon
batar
baten
bater
bates
bath
batt
batter
battle
battre
batu
bau
bay
bayan
bayer
bayern
baz
bbc
be
bea
beach
bear
bearbet
beat
beatles
beau
beaut
beaver
bebo
bebod
bebodd
bebygg
bebyggelse
bebyggelsen
beck
becker
bed
bedom
bedre
bedrev
bedri
bedrift
bedriften
bedrifter
bedriv
bedriver
bedrivs
beet
beethoven
bef
befal
befalet
befalhavare
befann
befant
befast
befatt
befinna
befinner
befint
befintliga
befolk
befolkad
befolkade
befolkning
befolkningen
befolknings
befolkningsutveckling
beford
befordrades
befri
befrukt
beg
bega
begar
begaran
begarde
begatt
begav
bege
begge
begiven
begr
begra
begrans
begransad
begransade
begransat
begrav
begravd
begravdes
begravet
begravningsp
begravningsplatsen
begre
begrens
begrenset
begrep
begrepet
begrepp
begreppet
begrunn
begyn
begynne
begynnelsen
begynner
begynt
begynte
beh
behalla
behand
behandlade
behandlades
behandlar
behandlas
behandlet
behandling
behandlingen
behar
beho
beholde
beholdt
beholl
behov
behova
behovde
behover
behovet
behovs
bei
beier
beij
beijing
bein
beina
beirut
beit
bek
bekamp
bekant
bekost
bekraft
bekraftade
bekre
bekreftet
bekym
bel
bela
belag
belagen
belaget
belagg
belagna
belarus
belast
beleir
beleiringen
belg
belgia
belgien
belgisk
belgiska
belgiske
belig
beliggende
belize
bell
bella
belle
belon
belonades
belt
belys
beløn
bem
bemann
bemer
bemerket
ben
benam
benamn
benamnd
benamning
benamningen
benamns
bend
bene
bened
benedikt
benen
beng
bengal
bengt
bengtsson
beni
benito
benj
benjamin
benn
bennett
benny
beno
bens
bensin
bent
bentham
benytte
benytter
benyttes
benyttet
benz
beord
beordret
ber
berak
beraknas
beratt
berattade
berattar
berattelse
berattelsen
berattelser
berber
berberis
bered
beredskap
bereg
beregnet
berg
bergart
bergarter
berge
bergen
bergens
berger
berget
bergig
bergman
bergs
bergsked
bergskedja
bergslag
bergspass
bergst
bergstopp
bergstrakter
bergstrom
berk
berkeley
berlin
berlins
bern
bernad
bernard
bernhard
bernt
bero
berodde
beroende
berom
beromd
beromda
beror
berre
berry
bert
bertil
berøm
berømt
berømte
bes
besatt
besattning
besattningen
beseg
besegra
besegrade
besegrades
beseiret
besetning
besitt
besk
beskj
beskjed
beskrev
beskrevet
beskrevs
beskri
beskriv
beskriva
beskrive
beskrivelse
beskriver
beskrives
beskrivits
beskrivning
beskrivs
beskydd
beskytt
beskytte
beskyttelse
beskyttet
besl
beslag
beslakt
besle
beslektet
beslot
beslut
beslutade
beslutades
beslutet
besluttet
besok
besoka
besokare
besoker
besokte
bess
best
besta
bestaende
bestall
bestam
bestamde
bestamma
bestammelser
bestammer
bestamt
bestand
bestandet
bestar
beste
bestem
bestemme
bestemmer
bestemt
bestemte
besto
bestod
besvar
besø
besøk
besøkende
besøker
besøkte
bet
beta
betal
betala
betale
betaling
betalt
betalte
bete
beteck
betecknar
betecknas
beteckning
beteckningen
beteende
beteg
betegnelse
betegnelsen
betegner
betegnet
betes
beth
beting
betjen
beton
betong
betra
betrakt
betraktades
betraktas
betraktes
betraktet
betre
bett
betta
betty
bety
betyd
betyda
betydande
betydde
betydel
betydelig
betydelige
betydelse
betydelsefulla
betydelsen
betyder
betydligt
betydning
betydningen
betydninger
betydnings
betyg
betyr
beund
bev
bevap
bevar
bevara
bevarad
bevarade
bevare
bevart
bevarte
beveg
bevegelse
bevegelsen
bevegelser
beveger
bever
bevil
bevis
bevisst
bey
bez
bezirk
bh
bi
bia
bian
biart
bib
bibe
bibel
bibelen
bibeln
bibli
bibliografi
bibliote
bibliotek
biblioteket
bic
bicolor
bid
bidra
bidrag
bidraget
bidragit
bidrar
bidratt
bidro
bidrog
bie
biel
bien
bif
bifl
biflodes
biflodesordning
big
bik
bil
bilar
bild
bilda
bildad
bildade
bildades
bildandet
bildar
bildas
bildat
bildats
bilde
bilden
bildene
bilder
bildet
bilen
biler
bilete
bilj
bill
billboard
bille
billed
billedkunst
billene
biller
billig
billy
bilt
bim
bin
bind
binder
bing
bio
biob
biograf
biografen
biografi
biologi
biologisk
biologiska
biologiske
biot
bip
bir
bird
birger
birgitt
birgitta
birk
birkaland
birmingham
bis
bish
bisj
bisjkek
bisk
biskop
biskopen
bismarck
bisp
bispedømme
bist
bistand
bit
bitar
biter
bitradande
bitt
bitter
biv
biz
bj
bjar
bjarne
bjel
bjer
bjor
bjork
bjorn
bjorne
bjorneborg
bjornspinnare
bjur
bjør
bjørn
bk
bl
bla
black
blackburn
blad
bladbaggar
bladbiller
bladen
bladene
blader
bladet
bladhorningar
bladmossart
blag
blake
blan
blanc
blanca
blanchard
blanco
bland
blanda
blandade
blandet
blanding
blandning
blandskog
blank
blanke
blankt
blant
blas
blast
blatt
ble
blei
blek
blekinge
bleph
blev
bli
blind
blir
blitt
blivande
blivit
blo
block
blod
blodet
blogg
blokk
blokker
blom
blomflugor
blomm
blommor
blommorna
blomst
blomstene
blomster
blomsterflugor
blood
bloom
blot
blott
blotta
blu
blue
blues
bluff
blume
bly
bm
bmw
bn
bnp
bo
board
bob
bobby
boc
boca
bock
bocker
bockerna
bod
bodd
bodde
boden
bodens
bodø
boe
boeing
boende
boer
boet
bog
bogota
boh
bohmen
bohus
bohuslan
bois
boiss
boissier
boj
bok
boka
boken
bokens
bokfor
bokmal
bokser
bokstav
bokstaven
bokstaver
bokt
bol
bolag
bolaget
bolagets
bolagh
bolaghi
bolig
boliger
boliv
bolivar
bolivia
boll
bollen
bollnas
bolog
bologna
bolsje
bolsjevik
bolton
bom
bomb
bombe
bomber
bomull
bon
bond
bonde
bonden
bonder
bonderna
bone
bong
bonn
bonnier
bons
bonsyr
bonsyrseart
bonus
book
boot
bop
bor
boras
bord
borde
bordeaux
bordt
bordtennis
bore
boreala
borg
borga
borgar
borgen
borger
borgere
borgerkrig
borgerkrigen
borgerliga
borgermester
borgmastare
boris
borja
borjade
borjan
borjar
borjat
borlange
born
borne
borneo
borough
borr
borrflugor
bort
borta
borte
bortgang
bortimot
bortsett
bos
bosatt
bosatta
bosatte
bosetning
boskap
bosn
bosnia
bosnien
boss
bost
bostad
bostader
bostadshus
boston
bot
botan
botaniker
both
botn
botsw
botswana
bott
botten
bottenhavet
bou
boul
boule
boulen
bour
bourbon
bourg
bourgogne
bouv
bow
bowie
bowl
box
boy
boys
boz
br
bra
brach
brachy
brack
bracksteklar
bracon
brad
bradford
brag
brah
brahe
brak
brakte
brakved
bram
bran
branch
brand
branden
brandenburg
brandes
brandt
brann
brannen
brans
bransle
brant
brasil
brasilia
brasiliansk
brasilianske
brasilien
brass
brat
bratt
bratte
braun
braunsch
braunschweig
braut
brazz
brazzaville
brdo
bre
break
bred
breda
bredare
bredd
bredde
bredden
brede
bredere
bredt
bredvid
breen
breg
brei
brem
bremen
brenn
brenne
brens
brent
bres
bret
bretagne
breton
brett
breuning
brev
brevet
bri
brian
brid
bridge
brig
brigad
brigade
brigaden
brin
bring
bringe
bris
brisbane
brist
bristol
brit
brita
britann
britannia
britene
british
britisk
britiske
britt
britterna
brittisk
brittiska
brittiske
brittiskt
britton
bro
broad
broadway
brock
brod
broder
brodern
broderna
broen
brok
brokparasit
brokparasitsteklar
broll
brollop
brom
bromeliaceae
bromma
bromsar
bron
brons
bronsaldern
bronse
bronsem
bronsemedal
bronsemedalje
bronsmed
bronsmedalj
bronsmedaljor
brook
brooklyn
brooks
bror
broren
brorson
bros
brost
brostet
brot
brother
brothers
brotherus
brots
brott
brotts
brow
brown
bru
brua
bruce
brud
brudd
brug
bruk
bruka
brukade
brukar
brukast
bruke
bruken
bruker
brukere
brukes
bruket
bruks
brukt
brukte
brum
brun
bruna
brune
brung
brunlige
brunn
brunne
brunner
bruno
brunswick
brunt
brus
brussel
brut
brutal
brutt
bry
bryan
brygg
brygger
bryggeri
bryll
bryllup
bryn
bryssel
bryst
brystet
bryt
bryta
bryte
bryter
brød
brødre
brødrene
brøn
brønn
brøt
bu
bub
buc
buch
buck
buckingham
bud
budapest
budd
budde
buddh
buddhismen
budget
budsj
budsjett
budskap
bue
buen
buenos
buff
buffalo
bug
buj
bujumbura
buk
buken
bukit
buksam
buksamlar
buksamlarbin
bukt
bukta
bul
bulb
bulbophyllum
bulg
bulgar
bulgaria
bulgarien
bulgariska
bulgarsk
bull
bulu
bulud
bum
bun
bund
bundes
bundesliga
bundet
bunn
bunnen
bunt
buntu
bup
bur
burde
bure
bureau
burg
burgund
burits
burk
burkina
burma
burmeister
burn
burns
burton
burundi
bus
buset
busetnad
busetnaden
busett
bush
business
busk
buskar
busker
buskerud
buskland
busklandskap
buss
bussar
bust
but
butik
butiker
butikk
butikker
butler
butt
butter
buttu
bux
by
byane
byar
byarna
bydel
bydelen
byen
byene
byens
byer
byg
bygd
bygda
bygde
bygg
bygga
byggandet
byggas
byggd
byggda
byggde
byggdes
bygge
bygger
bygges
bygget
bygging
byggingen
byggnad
byggnaden
byggnader
byggnaderna
byggnads
byggnadsm
byggs
byggt
byggts
byggverket
bygning
bygningen
bygningene
bygninger
bygnings
byn
byprefekt
byprefekturet
byr
byra
byrd
byrja
byrjinga
bys
bysant
bysantinske
bystatus
bystyre
bystyret
byta
byte
bytt
bytte
byttes
byttet
bæ
bær
bære
bærer
bærum
bø
bøkene
bøker
bøl
bøn
bøndene
bønder
bør
bøy
ca
cab
cabe
cabo
cac
cacho
cachoeira
cad
caen
caer
caes
caesar
cafe
cal
cala
calais
calam
calc
cald
calgary
californ
california
call
calli
calyc
cam
camar
cambridge
camer
cameron
camil
camp
campan
campbell
camping
campo
camponotus
campt
campus
campyl
can
canad
canada
canadisk
canadiske
canal
cancer
cand
cann
canna
cannes
cano
cant
canter
canterbury
canth
canton
cap
cape
capit
capital
capitol
capp
cappelen
car
cara
carab
carac
card
carden
care
carex
cari
carin
carl
carlo
carlos
carlsson
carly
carlyle
carmen
carn
carol
carolina
caroline
carp
carpenter
carri
cart
carter
cary
cas
casey
cash
cass
cast
castell
castilla
castillo
castle
castro
cat
catal
catalog
catalogue
catarina
cath
cathar
catharina
catherine
cauca
caud
cav
cay
cayenne
cbs
cc
cd
cdu
ce
ceara
ceb
cec
cecil
cecilia
ced
ceder
cel
celeb
celest
cell
celle
celler
cels
celt
cem
cemeter
cemetery
cen
cens
census
cent
center
centimeter
centr
central
centrala
centralb
centralort
centralp
centralprovinsen
centralt
centre
centrum
century
cep
cephal
cer
ceram
cerambyc
cerambycidae
cerat
cerc
ceremoni
cerro
cerros
cert
ces
cesar
cet
cetoniidae
ch
cha
chab
chabet
chac
chaet
chag
chah
chahar
chak
chal
challen
challenge
chalmers
cham
chamber
chamberlin
champ
champagne
champion
champions
championship
chan
chand
chang
changsha
chann
channel
chans
chansen
chant
chap
chapman
char
charaxes
charles
charlie
charlo
charlott
charlotta
charlotte
chart
charter
chase
chass
chat
chate
chateau
che
chef
chefen
chefredaktor
cheil
chel
chelonus
chelse
chelsea
chem
chen
cheng
chengdu
cher
chesh
cheshmeh
chester
chev
chi
chia
chiapas
chic
chicago
chico
chil
child
children
chile
chilena
chim
chin
china
ching
chip
chir
chironomus
chlor
chloroc
cho
chok
chol
chong
chongqing
chop
chor
chr
chri
chris
christ
christensen
christer
christian
christiania
christie
christina
christine
christmas
christoffer
christop
christoph
christopher
chrom
chry
chrys
chrysom
chrysomelidae
chu
chub
chuck
chun
chung
chungcheong
chur
church
churchill
ci
cia
cic
cich
cien
cienaga
cil
cin
cinc
cinn
cip
cir
cirk
cirka
cirkel
cirkus
cis
cit
city
ciudad
civ
civil
civila
civilis
cl
cla
clad
claes
clar
clara
clarence
clark
clarke
class
classic
clath
claud
claude
claudius
claus
clav
cle
clear
clem
clemens
clement
clements
cler
cleveland
cli
cliff
clin
clinton
clo
club
cly
cm
cn
co
co2
coach
coast
cob
coc
cocc
coch
cochrane
cock
cocker
cockerell
cod
code
coel
coen
cogn
coh
cohen
col
cola
cold
cole
colin
coll
colle
colleg
college
collins
colom
colomb
colombia
colombo
colon
colonia
color
colorado
colum
columbia
columbus
com
comb
come
comeback
comics
comm
command
committe
committee
common
commun
community
comp
compan
company
computer
comte
con
conakry
conc
cond
conf
confer
conference
cong
congress
conn
conne
connectic
connecticut
conrad
cons
conserv
conservation
constan
constant
cont
contest
contin
contra
cook
cool
cooper
cop
copa
coqu
cor
cord
cordiller
cordoba
core
corn
cornelis
cornelius
corner
cornwall
coron
corpor
corporation
corps
correg
corrego
cort
coryd
coryn
cos
cosm
cost
costa
cot
cote
cott
cou
counc
council
count
country
county
countyt
cour
cours
court
cov
cove
cover
covid
cow
cox
coy
cr
cra
craig
cram
cran
crass
crat
craw
crawford
cre
creek
crem
cren
cres
cresson
cri
crique
cris
crist
cristobal
crni
cro
croc
crom
cromwell
cron
crosby
cross
crow
cru
cruz
cry
crypt
crystal
cten
cu
cub
cuba
cuc
cuch
cuchilla
cue
cuk
cuka
cul
culex
culi
culicoides
cult
cum
cun
cundin
cune
cup
cupen
cur
cura
curling
curran
curt
curtis
cus
cut
cuv
cy
cyan
cyat
cyathea
cyc
cyclop
cyk
cykel
cylind
cym
cyn
cyp
cyper
cypern
cyph
cyr
cyrt
cyrtandra
cyt
cz
cæ
cæsar
da
dab
dac
dack
dact
dad
dag
dagar
dagblad
dagbladet
dagbok
dagen
dagene
dagens
dager
dagg
daggdjur
daggdjursart
daggflugor
dagh
daghi
daglig
daglige
dagligt
dags
dagstid
dagı
dah
dahl
dahr
daim
dak
dakota
dal
dala
dalarna
dalarnas
dalb
dale
dalen
dalig
daliga
daligt
dall
dallas
dalmat
dals
dalsland
dalt
dalton
dam
damask
damaskus
dame
damer
damernas
damm
dammbyggnad
dammen
damp
dan
dana
dance
dander
dang
dani
daniel
danielsson
danmark
danmarks
dann
danna
dannar
danne
danner
dannes
dannet
danny
dans
danse
dansen
danser
dansflugor
dansk
danska
danske
danzig
dao
dap
dar
darah
darav
dare
darefter
daremot
darfor
dari
daribland
darifran
darigenom
dark
darleg
darlig
darlige
darm
darmed
darpa
darreh
dart
dartill
darutover
darwin
das
dash
dasht
dasy
dasych
dat
data
datab
databasen
datama
datamaskin
dater
datert
datidens
dato
dator
datorer
datorspel
datter
datteren
datum
dav
davarande
dave
daverande
david
davies
davis
daværende
daw
day
days
dc
ddr
de
dead
dean
death
deb
debatt
debatten
debatter
debut
debutalbum
debutalbumet
debuten
debuter
debuterade
debuterte
dec
december
decenn
decennier
ded
deep
def
defens
defin
definer
definert
definier
definieras
definisjon
definisjonen
definition
deg
deh
dei
deira
dek
dekar
dekk
dekke
dekker
dekket
dekkjer
dekkvingene
deklar
dekor
dekorert
del
dela
delad
delade
delades
delagare
delane
delar
delarna
delas
delav
delavrinningsom
delavrinningsomrade
dele
deleg
delen
delene
deler
deles
delfin
delhi
dell
della
delong
delph
dels
delst
delstat
delstaten
delstatens
delstater
delstats
delstatshuvudstaden
delt
delta
deltag
deltagande
deltagare
deltagarna
deltagit
deltak
deltakelse
deltaker
deltakere
deltakerne
deltar
deltatt
delte
deltog
deltok
delvis
dem
demning
demningen
demo
democ
democrat
demografi
demokrat
demokrati
demokratisk
demokratiska
demokratiske
demon
demonst
demonstra
demp
den
dend
dendrob
dendrobium
denis
denna
denne
dennes
dennis
dens
densamma
dent
denver
dep
depart
departamento
departement
departementet
deport
deporter
depress
der
deras
derav
derby
dere
deres
deretter
derfor
derfra
deriblant
derimot
dermed
dersom
des
desa
desc
desember
desert
desig
design
designer
designet
desm
desper
dess
dessa
desse
dessfor
dessforinnan
dessutan
dessuten
dessutom
dest
destin
desto
det
detalj
detaljer
dete
detektiv
detroit
dets
detsamma
detta
dette
deut
deuts
deutsch
deutsche
dev
devel
develop
development
devil
devils
devon
dew
dh
dhabi
dhaka
dhar
di
dia
diagn
diagnosen
diagnost
diakon
dial
diale
dialekt
dialekten
dialekter
dialog
diam
diamant
diameter
diamond
diana
diap
diaz
dib
dic
dich
dick
dicran
dicranomyia
dicty
did
didym
die
diego
diesel
diet
dietrich
diff
differ
differens
different
difor
dig
digit
digital
digitala
digitale
digitalt
dik
dikt
diktatur
dikten
dikter
diktet
diktning
diktsamling
diktsamlingen
dil
dim
dimension
dimensjon
din
ding
dinosaur
dio
dion
dionys
diosc
dioscorea
diosp
diospyros
dip
dipl
diplom
diplomat
diplomatiska
dir
dire
direkt
direkta
direkte
direktiv
direktor
direktør
dirig
dirigent
dis
disc
disciplin
disco
discover
discovery
disip
disiplin
disk
diskografi
diskrimin
diskusjon
diskuss
diskussion
diskuter
diskval
disney
disp
disputerade
diss
disse
dist
distan
distans
distansen
distant
distin
distri
distrib
distribu
distribusjon
distribut
distribution
district
distrikt
distrikter
distriktet
distriktets
dit
ditt
dittills
div
diver
divers
diverse
divis
division
divisionen
divisjon
divisjonen
dix
dixon
dj
djebel
djib
djibout
djibouti
djup
djupa
djupare
djupt
djur
djurart
djuren
djuret
djurgard
djurgarden
djurgardens
dm
dmit
dmitri
dn
dna
do
dob
dobbel
dobbelt
doc
docent
dock
doctor
dod
doda
dodade
dodades
doden
dods
dog
dogn
dognin
doh
dok
dokt
doktor
doktorg
doktorgrad
doktorgraden
doktors
dokument
dokumentar
dokumentarfilm
dokumenter
dokumentert
dol
dolich
dolichopus
doll
dollar
dolok
dom
domare
domdes
dome
domen
domin
dominer
dominerade
dominerande
domineras
dominerende
dominert
dominerte
doming
domingo
dominik
dominikanska
domkyrk
domkyrka
dommen
dommer
domsag
domsaga
domsagor
domstol
domstolen
don
donald
donau
dong
dongar
dop
doping
doptes
dor
doro
dors
dort
dos
doth
dothide
dothideomycetes
dott
dotter
dotterbolag
dottern
dottrar
dou
doub
double
doug
douglas
dov
dow
down
dr
dra
draa
drabb
drabbade
drabbades
drabbas
drae
draft
draftades
drag
dragon
drak
drake
drakt
dram
drama
dramafilm
dramas
dramat
dramaten
dramatiker
dramatisk
dramatiska
dramatiske
drammen
drammens
drang
drap
drapet
drar
dras
drast
dre
dream
dreier
dreiv
dren
drep
drepan
drepe
drept
drepte
dres
dresden
dress
drev
drevet
drevs
drew
dri
drift
driften
drikke
drin
driv
driva
drivande
drive
driver
drives
drivs
drivstoff
dro
drog
drogs
drojde
drom
dron
dronning
dronningen
drosophila
drott
drottning
drottningen
dru
druce
druk
drum
dry
drygt
dryopteridaceae
drø
drøm
ds
du
dub
duba
dubb
dubbel
dubbelt
dubbla
dublin
dubrovn
duc
duck
dud
duett
duf
dug
duk
duke
dukker
dukket
dul
dum
dun
dunc
duncan
duo
duon
dup
dur
dura
durham
dus
duss
dusseldorf
duv
dv
dvarg
dvargstritar
dvd
dverg
dvs
dw
dy
dyar
dyb
dyg
dygn
dykare
dyker
dyktig
dylan
dyn
dynam
dynast
dynasti
dynastidae
dynastiet
dyntaxa
dyp
dype
dypt
dyr
dyra
dyre
dyrk
dyrket
dys
dz
dø
død
døde
døden
dødsfall
døg
døgn
døm
døme
dømes
dømt
døp
døpt
dør
døt
døtre
døy
døydde
e4
e6
eag
eagle
eagles
ear
earl
earth
east
eastern
eau
eb
ebba
eber
ec
ech
echin
eck
ecole
econom
ect
ecu
ecuador
ed
edderkopp
eddie
edel
eden
edgar
edge
edin
edinburgh
edith
edition
edmon
edmond
edmonton
edmund
edouard
edu
eduard
educ
edvard
edward
edwards
edwin
ef
eff
effe
effekt
effekten
effekter
effektiv
effektivt
efter
efterat
efterfoljande
efterfoljare
efterhand
efternamn
eftersom
eftertrad
eftertradare
eftertradde
eftertraddes
eg
ege
egen
egendom
egendomen
egenskap
egenskaper
egent
egentlig
egentliga
egentlige
egentligen
eger
eget
egg
eggene
egil
egna
egne
egnet
egyp
egypt
egypten
egyptisk
egyptiska
egyptiske
eh
ehr
ehren
ei
eich
eid
eide
eidsvoll
eie
eien
eiendom
eiendommen
eiendommer
eier
eiere
eies
eig
eiga
eige
eigen
eigne
eik
eil
ein
einar
einaste
eine
eirik
eis
eisen
eit
eitt
ej
ejido
ek
eke
eker
ekman
ekologi
ekonom
ekonomi
ekonomin
ekonomisk
ekonomiska
ekonomiskt
eks
eksamen
eksemp
eksempel
eksempelvis
eksemplar
eksemplarer
eksempler
eksil
eksist
eksistens
eksister
eksisterende
eksisterer
eksistert
eksisterte
eksk
eksp
ekspans
eksped
ekspedisjon
ekspedisjonen
eksper
eksperiment
eksperimenter
ekspert
eksplos
eksport
eksporter
ekst
ekster
eksterne
ekstra
ekstrem
ekstremt
ekt
ekte
ektef
ektemann
ekteskap
ekteskapet
ekv
ekvator
el
ela
elae
elaph
elaphoglossum
elat
eld
elden
eldre
eldste
ele
elect
electric
elef
elefant
eleg
elegans
elegant
elekt
elektric
elektrif
elektris
elektrisk
elektriska
elektriske
elektro
elektrom
elektromagnet
elektron
elektroner
elektronisk
elem
element
elementer
eleon
eleonora
elev
eleven
elevene
elever
eleverna
elf
elfen
elfenben
elfenbenskusten
elg
eli
elias
elim
elin
elisa
elisabet
elisabeth
elit
elite
elites
eliteserien
elitserien
elizab
elizabeth
ell
ellen
eller
ellers
elles
ellev
elleve
elli
ellipt
ellis
elm
elmer
elong
els
elsa
else
elsker
elton
elv
elva
elven
elvene
elver
elverum
elvis
em
emanuel
emb
embed
embet
embetet
emblik
emblikavaxtart
emblikavaxter
embrik
emellan
emeller
emellertid
emer
emeritus
emery
emi
emig
emil
emile
emilia
emilio
emirat
emma
emmy
emner
emot
emp
empire
empis
empoas
empoasca
en
ena
enare
enbart
enc
end
enda
endast
ende
endel
endelig
endelige
endem
endemisk
enden
ender
enderlein
endra
endre
endres
endret
endring
endringer
endte
ene
ener
energ
energi
energien
eneste
eng
engag
engagemang
engager
engagerad
engagerade
engasj
engasjement
engasjer
engasjert
engasjerte
engel
engelbre
engelbrekt
engelsk
engelska
engelske
engelsksprakiga
engine
england
englands
engler
english
enhet
enheten
enheter
enhetlig
enhjartbladig
enhver
enic
enicospilus
enige
enighet
enk
enke
enkel
enkelt
enkelte
enkla
enklare
enkle
enklere
enlighet
enligt
enn
enna
enno
enor
enorm
enorme
enri
ens
ensam
ensemble
enskild
enskilda
enst
enstaka
ent
enten
enter
entertain
entertainment
entiteten
entom
entre
entrepren
entusi
enz
enzym
eos
ep
epar
eph
epic
epid
epidendrum
epig
epil
epip
epis
episod
episode
episoden
episoder
equ
er
era
erbj
erbjod
erbjud
erbjuda
erbjuder
ere
erebia
erem
erfar
erfaren
erfarenhet
erfarenheter
erfaring
erg
erholl
eri
eric
erica
erich
ericsson
erik
eriks
eriksen
eriksson
erioca
erit
eritrea
erkande
erkann
erkannande
erke
erkebiskop
erkebisp
erkl
erklært
erklærte
erland
erling
ern
ernest
ernst
ero
erob
erobra
erobre
erobret
erobringen
erot
erov
erovrade
erovrades
ersatt
ersatta
ersattare
ersatte
ersattes
ersattning
ersatts
erst
erstatning
erstatta
erstatte
erstattet
eryth
es
esb
esc
esch
esen
esenbeck
esf
esfahan
esk
eskil
eskilstuna
esp
espen
esper
esperanza
ess
essa
essen
essex
est
esta
estad
este
ester
estero
estet
estimer
estimert
estland
estlands
estniska
et
eta
etabler
etablera
etablerade
etablerades
etablere
etableringen
etablert
etablerte
etapp
etappe
etappen
etapper
etasje
etasjer
etc
eter
etienne
etik
etiop
etiopia
etiopien
etn
etnisk
etniska
etniske
etru
ett
etta
etter
etterful
etterfulgt
etterfulgte
etterføl
etterfølger
etterhvert
etterkom
etterkommere
etterlot
etterpa
etterret
ettersom
ettersp
ettertid
etym
etymologi
eu
eub
euc
eucalyptus
euch
eud
euf
eug
eugen
eugene
eugenia
euk
eul
eum
eumen
eumenidae
eun
eup
euph
euphor
euphorbia
eupithecia
euploea
eupro
euproctis
eur
euras
eure
euro
europ
europa
europam
europamesterskapet
europaparlam
europaparlamentet
europas
europavei
europe
european
europeisk
europeiska
europeiske
eurovis
eurovision
eury
euryt
eurytoma
eus
eust
eut
eux
euxoa
ev
eva
evaku
evan
evangel
evangelisk
evans
even
evenemang
event
eventuell
eventuella
eventuellt
eventuelt
eventyr
ever
evert
every
evig
evne
evner
evol
evolusjon
evolution
ex
exakt
examen
exc
exem
exempel
exempelvis
exemplar
exil
existens
exister
existerade
existerar
exklus
exp
expand
expans
expansion
exped
expedition
expeditionen
exper
experiment
expert
expl
explo
explos
export
exporter
express
expressen
ext
externa
extra
extrem
extremt
ey
ez
f1
fa
fab
fabri
fabric
fabricius
fabrik
fabriken
fabriker
fabrikk
fabrikken
fabriks
fac
facebo
facebook
fack
fact
facto
factor
fader
fadern
faderns
fag
fagel
fageln
fagelns
fager
faglar
fah
fair
fak
fakt
fakta
faktisk
faktiskt
faktor
faktorer
faktum
fakult
fakultet
fakulteten
fal
falc
falk
falken
falkland
fall
falla
falle
fallen
faller
fallet
falls
falsk
falt
faltet
faltt
falun
fame
famil
familie
familieg
familiegruppen
familien
familiens
familier
familj
familje
familjen
familjens
familjer
family
fan
fana
fang
fanga
fangar
fangats
fange
fangelse
fangelset
fangen
fangenskap
fanger
fanget
fangsl
fangst
fann
fanns
fanrik
fans
fant
fantas
fantast
fantasy
fantes
far
fara
farah
farao
farbror
fard
fardig
fardiga
fardigstalldes
fardigt
fare
faren
farens
farfar
farfars
farg
farge
fargen
farger
farget
fark
farlig
farm
faro
faroarna
farre
fars
fart
fartyg
fartygen
fartyget
fartøy
fartøyet
fas
fasad
fasaden
fasc
fase
fasen
fasett
faso
fast
fasta
fastan
faste
fastighet
fastigheten
fastigheter
fastlandet
fastning
fastningen
faststalldes
fat
fatal
fatt
fattig
fattiga
fattigdom
fattige
fauna
faust
fav
favor
favorit
favoritt
faw
fay
fbi
fc
fe
feber
febru
februar
februari
fed
feder
federal
federala
federation
federationen
feil
feir
feiret
fekk
fel
felaktigt
felder
felipe
felix
fell
felle
felles
fellesskap
fellow
felt
feltet
feltt
felttoget
fem
femin
femkamp
femt
femte
femten
femteplass
femti
femton
fen
feng
fengsel
fengselet
fengslet
fenomen
fenomenet
fer
ferd
ferdig
ferdigstilt
ferdinand
fergus
ferguson
fern
fernande
fernandez
fernando
ferr
ferrari
ferrug
fersk
ferskvann
fes
fest
fester
festet
festiv
festival
festivalen
festivaler
festning
festningen
festnings
fet
fett
fetter
ff
fi
fia
fiat
fib
fiber
fick
fiction
ficus
fid
fide
field
fien
fiende
fienden
fiender
fiendt
fifa
fig
fight
figur
figuren
figurer
fiji
fik
fikk
fikt
fiktiv
fil
filer
filip
filipp
filippin
filippinene
filippinerna
filippo
film
filmat
filmen
filmene
filmens
filmer
filmerna
filmfestivalen
filmin
filmografi
filmp
filmregiss
filosof
filosofen
filosofi
filosofie
filosofisk
filosofiska
filosofiske
filt
fimb
fin
fina
final
finale
finalen
finaler
finan
finans
finansier
finansiering
finansiert
finansk
finansminister
fine
fing
finger
finglanssteklar
finland
finlands
finlandsk
finlandska
finlandssven
finn
finna
finnas
finne
finner
finnes
finnmark
finns
fins
finsk
finska
finske
finst
fint
fiol
fiolin
fir
fire
firenze
firk
firma
firmaet
firman
first
fis
fischer
fish
fisher
fisk
fiskar
fiskart
fiske
fisken
fisker
fisket
fiss
fit
fitz
five
fix
fj
fjad
fjader
fjadermyggor
fjall
fjar
fjard
fjarde
fjaril
fjarilar
fjarilsart
fjarilsmyggor
fjarr
fjell
fjella
fjellene
fjellet
fjellkj
fjellt
fjelltopp
fjer
fjerde
fjerdeplass
fjern
fjerne
fjernet
fjernsyn
fjord
fjordane
fjorden
fjort
fjorten
fjorton
fjær
fk
fl
fla
flack
flackar
fladder
fladdermus
flag
flagg
flagga
flaggan
flagget
flam
fland
flandern
flash
flat
flate
flaten
flatt
flav
fle
fleet
fleir
fleire
flekk
flekker
flem
fleming
flen
flenortsvaxtart
flenortsvaxter
fler
flera
flere
flert
flertal
flertalet
flertall
flest
flesta
fleste
fletcher
flex
fli
flick
flicka
flickor
flight
flik
flint
flit
flitigt
flo
flock
flockblomm
flockblommig
flockblommiga
flod
flodar
floden
floder
flog
flor
flora
floren
florens
flores
florida
flott
flotta
flottan
floyd
flu
flug
flukt
fly
flydde
flyene
flyet
flyfot
flyfoto
flyg
flyga
flyger
flygflott
flygflottilj
flygplan
flygplanet
flygplats
flygplatsen
flygvapnet
flying
flykt
flykte
flykten
flyktet
flykting
flyktingar
flyktninger
flyplass
flyplassen
flyr
flyt
flytande
flytende
flyter
flytt
flytta
flyttade
flyttades
flyttar
flyttas
flyttat
flytte
flyttet
flyv
fløy
fm
fn
fns
fo
fod
foda
fodan
fodd
fodda
foddes
fodels
fodelse
foder
fods
fog
fogder
fogderier
fok
fokus
fol
folj
folja
foljande
foljd
foljde
foljdes
foljer
foljeslag
foljs
foljt
folk
folkbok
folke
folkeavstem
folkeg
folkem
folkemusikk
folkeparti
folker
folkerep
folkerepublikken
folkeset
folket
folketal
folketalet
folketallet
folketel
folketeljinga
folketell
folketellingen
folketinget
folkets
folkhog
folkhogskola
folkm
folkmangd
folkmangden
folkmusik
folkom
folkpartiet
folkrak
folkrakning
folkrakningen
folkskol
foll
fon
fond
fonst
fonster
font
foot
football
for
fora
foral
forald
foraldrar
foraldrarna
foran
forand
forandras
forandret
forandring
forandringar
forank
forar
forare
forarsak
forarsaket
forb
forband
forbatt
forbattra
forbattrade
forbe
forbed
forbedret
forber
forbered
forbes
forbi
forbind
forbindelse
forbindelsen
forbindelser
forbinder
forbj
forbjods
forble
forblev
forbli
forblir
forbruk
forbud
forbudet
forbudt
forbund
forbundet
forbundets
forbunds
forbundskapten
forbundslandet
force
forcip
forcipomyia
ford
forde
fordel
fordelade
fordelar
fordeler
fordelt
fordes
fordi
fordjup
fordom
fordon
fordraget
fore
foreb
forebild
forebygg
fored
foredrag
foredrar
foreg
foregaende
foregangare
foregar
foregikk
forek
forekom
forekomm
forekomma
forekommande
forekommer
forekommit
forekomst
forekomsten
forel
forelas
forelasningar
foreld
foreldre
foreldrene
forelig
foreligger
foreløp
foreløpig
foremal
foren
forenade
forening
foreningar
foreningen
foreningens
forenkl
forenklet
forenta
forente
fores
foreslag
foreslatt
foreslo
foreslog
foresprak
forest
forestall
forestallningar
forestallningen
forestandare
forestillingen
foret
foretag
foretaget
foretagets
foretatt
foretog
foretok
foretrad
foretradare
forf
forfader
forfal
forfall
forfatt
forfattade
forfattar
forfattare
forfattaren
forfattarna
forfattarskap
forfatter
forfattere
forfatteren
forfatterskap
forfly
forflytt
forfol
forfolj
forfrem
forfremmet
forføl
forfølg
forg
forgift
forgjen
forgren
forh
forhall
forhallande
forhallanden
forhallandet
forhallandevis
forhand
forhandling
forhandlingar
forhandlingene
forhandlinger
forhind
forhindra
forhindre
forhold
forholdene
forholdet
forholdsvis
forint
fork
forkast
forklar
forklara
forklarade
forklarar
forklare
forklaring
forknipp
forknippas
forkort
forkortat
forkortet
forl
forlag
forlaget
forlagg
forlan
forlang
forlangdes
forlangning
forlate
forlatt
forleng
forlenget
forlet
forlik
forlor
forlorade
forlorat
forlot
forlov
forlust
forluster
forløper
form
forma
formaga
formagan
formal
formalet
forman
formann
formannskap
format
formatet
formed
formel
formell
formelle
formellt
formelt
formen
former
formet
formid
formod
formodligen
formogenhet
formos
formula
formuler
forn
forna
fornam
forne
fornlam
fornlamningar
fornm
forntida
fornuft
forny
forord
forp
forr
forra
forrad
forran
forre
forret
forretning
forretnings
forretningsmann
forrige
fors
forsags
forsak
forsakring
forsalj
forsaljning
forsaljningen
forsam
forsamling
forsamlingar
forsamlingen
forsamlingskyrka
forse
forsedd
forsen
forsikring
forsikt
forsk
forskar
forskare
forsker
forskere
forsking
forskj
forskjel
forskjell
forskjellen
forskjeller
forskjellig
forskjellige
forskning
forskningen
forsknings
forslag
forslaget
forsok
forsoka
forsoker
forsokt
forsokte
forson
forsor
forst
forsta
forstad
forstaelse
forstand
forstar
forstark
forstarkt
forstas
forste
forster
forsterket
forstod
forstor
forstordes
forstyr
forstør
forsv
forsvag
forsvann
forsvant
forsvar
forsvara
forsvarade
forsvare
forsvaret
forsvarets
forsvars
forsvarsbeslut
forsvarsbeslutet
forsvarsmakten
forsvarsminister
forsvarte
forsvinner
forsy
forsø
forsøk
forsøker
forsøket
forsøks
forsøkshe
forsøkt
forsøkte
fort
fortalt
fortalte
forteckning
fortel
fortell
forteller
fortelling
fortellingen
fortellinger
fortet
fortfarande
fortid
fortjen
fortjenst
fortplant
fortro
fortroende
forts
fortsatt
fortsatta
fortsatte
fortsatter
fortsattning
fortsett
fortsette
fortsetter
forum
forurens
forut
foruten
forutom
foruts
forutsatt
forutsattningar
forv
forval
forvalt
forvaltning
forvaltningen
forvaltnings
forvan
forvand
forvandling
forvant
forvar
forvaras
forvarv
forvarvade
forvax
forvaxlas
forveks
forveksles
forventet
forvingen
forvir
forøvrig
fos
foss
fosse
fossen
fossil
fost
foster
fot
fotb
fotbal
fotball
fotballklubb
fotballklubben
fotballspelar
fotballspiller
fotboll
fotbolls
fotbollsklubb
fotbollsspelare
foten
foto
fotograf
fotografi
fotografier
fotos
fotosfar
fots
fott
fotter
fou
found
foundation
four
fow
fox
fr
fra
frag
fraga
fragan
fragment
fragor
fragorna
frakt
fraktet
fral
frals
fram
framat
framfor
framforallt
framford
framforde
framfordes
framført
framgang
framgangar
framgangs
framgangsrik
framgangsrika
framgangsrikt
framgar
framja
framleis
frammande
framover
framre
framst
framsta
framstaende
framstall
framstallning
framstalls
framste
framsteg
framstilt
framt
framtid
framtida
framtiden
framtrad
framtradande
framtradanden
framtradde
fran
franc
franca
france
frances
francesco
franche
francis
francisco
franco
francois
frank
franken
frankfurt
franklin
frankrike
frankrikes
frans
fransk
franska
franske
franskmennene
franskt
fransmannen
franz
fraser
frat
fre
fred
fredag
freden
freder
frederic
frederick
frederik
fredet
fredrik
fredriks
fredrikshamn
fredrikstad
freds
fredsavt
free
freg
frei
frekv
frekvens
frem
fremdeles
fremfor
fremført
fremgang
fremme
fremmed
fremmet
fremover
fremskritt
fremst
fremste
fremt
fremtid
fremtidige
fremtredende
fren
french
fres
frey
fri
fria
frid
frie
fried
friedrich
friend
fries
frig
frigjør
friherr
friherre
frihet
friid
friidrett
friidrettsutøver
friidrott
friidrottare
frik
fril
frilans
friluft
frimur
fris
frisk
frist
fristaende
fristil
frit
fritflugor
fritid
fritt
fritz
frivil
frivillig
frivilliga
frivillige
fro
frod
frode
frog
frogner
frol
from
fron
front
fronten
fros
frost
frp
fru
fruh
fruhstorfer
fruk
frukt
frukten
frukter
fry
frykt
fryktet
frø
fu
fuch
fug
fugl
fuglar
fugle
fugler
fuj
fujian
fukt
fuktig
fuktiga
fuktigt
ful
fulgt
fulgte
full
fullbord
fulle
fuller
fullført
fullførte
fullmakt
fullstand
fullstandig
fullstandigt
fullstendig
fullt
fulv
fum
fun
fund
fundament
funger
fungera
fungerade
fungerar
fungere
fungerer
fungerte
funk
funksjon
funksjonen
funksjoner
funktion
funktionen
funktioner
funn
funne
funnet
funnit
funnits
fur
furst
furste
furu
fus
fusc
fusion
fusjon
fut
fuzhou
fv
fvt
fyl
fylke
fylkene
fylker
fylkes
fylkeskommun
fylkesveg
fylkesvei
fylket
fyll
fyller
fylt
fylumet
fyn
fynd
fyr
fyra
fyret
fyrst
fyrste
fys
fysi
fysik
fysiker
fysikk
fysiologi
fysisk
fysiska
fysiske
fær
færre
færøy
færøyene
fø
fød
fødd
føde
føder
føderale
fødsel
fødsels
fødselsar
født
fødte
føl
følelser
følg
følgde
følge
følgende
følger
følgje
følgjer
følte
føn
før
føre
fører
føres
føret
først
første
ført
førte
ga
gab
gabon
gabor
gabri
gabriel
gad
gadd
gadda
gag
gagne
gal
gala
galak
galax
gale
galen
galer
gali
galic
galicien
galile
galileo
gall
galla
gallande
gallde
galler
galleri
gallery
galli
gallivare
gallmyggor
gallo
galt
gam
gamal
game
games
gamla
gamle
gamm
gammal
gammalt
gammar
gammel
gammelt
gan
gand
gang
gangen
ganger
gangwon
gans
ganska
ganske
gap
gar
gara
garanter
garcia
gard
gardaneh
gardar
gardbruk
garde
garden
gardene
gardens
garder
gards
garet
garm
garn
garna
garning
garnis
garnison
garnisonen
gary
gas
gass
gast
gaster
gastrik
gat
gata
gatan
gate
gaten
gater
gates
gator
gatt
gau
gav
gava
gave
gavle
gavleborgs
gavs
gay
gaz
ge
geb
ged
geir
geist
gel
gem
gemensam
gemensamma
gemensamt
gen
genast
gene
gener
general
generald
generaldirektor
generalen
generalguvern
generall
generalma
generalmajor
generalsekreterare
generalsekretær
generasjon
generation
generationen
generationer
generell
generelle
generellt
generelt
genet
genetisk
genetiska
geneve
genom
genombrott
genomfor
genomfora
genomforde
genomfordes
genomgatt
genomgick
genomsnitt
genomsnittlig
genre
genren
gent
gentemot
gentian
gentianavaxtart
gentianavaxter
geoff
geoffrey
geograf
geografi
geografisk
geografiska
geografiske
geografiskt
geolog
geologi
geological
geologisk
geologiske
geomet
geometri
georg
george
georges
georgetown
georgia
georgien
georgiska
ger
gera
gerais
gerald
geran
gerard
gerd
gerhard
germain
german
germanske
gert
ges
gesch
gesner
gesneriaceae
gest
gesta
gestalt
gestapo
get
gett
gh
gha
ghana
ghar
gharb
ghaz
ghazni
ghost
ghowr
ghundey
gi
gia
gib
gibb
gibralt
gibraltar
gibson
gick
gif
gift
gifta
gifte
gifter
giftermal
giftet
gig
gigan
gigant
gikk
gil
gilan
gilbert
gill
gilt
gim
gin
giov
giovanni
gir
gira
girault
girl
girls
giro
gis
giss
git
gitar
gitarist
gitaristen
gitarr
gitarrist
gitarristen
gitt
giuse
giuseppe
giv
givit
gj
gjaldt
gje
gjekk
gjeld
gjelden
gjeldende
gjelder
gjem
gjen
gjenerob
gjeng
gjeninn
gjennom
gjennombrudd
gjennomføre
gjennomført
gjennomførte
gjennomsnitt
gjennomsnittlig
gjenopp
gjenstand
gjenstander
gjent
gjenvalgt
gjenværende
gjer
gjere
gjerne
gjest
gjeste
gjester
gjev
gjeve
gjeven
gjord
gjorda
gjorde
gjordes
gjort
gjorts
gjø
gjør
gjøre
gjøres
gjøvik
gl
gla
glac
glaciar
glacier
glad
gladi
glam
glan
glans
glas
glasgow
glass
glatt
glauc
glav
glava
glavica
gle
glem
glen
glenea
glenn
gles
glesbefolkad
glesbefolkat
glest
gli
glid
glim
glo
glob
global
globala
globalt
globe
glom
gloria
gloss
glouc
gloucester
gly
gm
gn
gnagare
gne
gnom
gnu
go
gob
god
goda
godar
gode
godkann
godkjen
godkjent
gods
godset
godt
gog
gogae
goias
gok
gol
gold
golden
golf
goli
golo
golv
golvet
gom
gome
gomez
gon
gond
gong
gongar
gongen
gonger
goni
gonz
gonzalez
good
goog
google
gor
gora
goran
goras
gord
gordon
gorg
gorn
gors
gos
gospel
goss
gosta
got
gota
gotaland
gotalands
gote
goteborg
goteborgs
goth
gotland
gotlands
gott
gottfried
gottingen
gottlieb
gou
gour
gover
gow
gp
gr
gra
grabrun
grac
grace
gracil
gracilis
grad
graden
grader
gradina
gradvis
graf
grafik
grafiker
grafisk
graham
gram
gramm
grammat
grammy
gran
granada
granat
grand
grande
grandis
granit
granitt
grann
grans
gransar
gransen
granser
granskning
grant
graph
gras
grasart
grashoppor
grasmarker
grass
grastrad
grasvaxtart
grat
gratis
gratt
graub
graubunden
grav
gravar
gravbin
grave
graven
graver
gravfalt
gravid
gravit
gravitasjon
gravlagt
gravsattes
gray
graz
gre
great
greatest
gred
green
greene
greg
gregor
gregory
greide
greiner
grek
grekisk
grekiska
grekland
gren
grenar
grenen
grens
grensa
grensar
grense
grensen
grensene
grenser
grep
greps
gres
gresk
greske
gress
greta
grev
greve
greven
grevskap
grevskapet
grey
gri
grieg
griff
griffith
grill
grim
grimstad
grind
grip
gripen
gris
grise
gro
grobladsvaxtart
grobladsvaxter
grod
groddjursart
gron
grona
gronland
gront
grop
gror
gros
gross
grosso
grote
grott
grotta
group
grov
grove
grovt
groß
gru
grun
grund
grunda
grundad
grundade
grundades
grundandet
grundare
grundarna
grundat
grunden
grunder
grundlagg
grundlaggande
grundserien
grunn
grunne
grunnen
grunner
grunnet
grunnla
grunnlag
grunnlagd
grunnlaget
grunnlagt
grunnleg
grunnlegg
grunnleggende
grunnlegger
grunnlov
grunnloven
grupp
gruppa
gruppe
gruppen
gruppene
gruppens
grupper
grupperna
gruppespillet
grus
gruv
gruva
gruve
gry
grøn
grønland
grønn
grønne
grønt
gt
gu
guad
guadal
guadalupe
guadel
guadeloupe
guan
guana
guanaju
guanajuato
guang
guangdong
guangxi
guangzhou
guard
guatem
guatemala
guay
gud
gudar
gudbrand
guddomm
guden
gudene
guder
gudom
guds
gudst
gue
guenee
guer
guern
guerrero
gug
guide
guilla
guillaume
guine
guinea
gul
gula
guld
guldmedalj
guldmedaljor
gule
gull
gullbas
gullmedalje
gullmedaljer
gult
gum
gun
gunder
gunn
gunnar
gunst
gunt
gunther
gunung
gur
gurk
gus
gust
gustaf
gustafsson
gustav
gut
gutt
gutta
gutter
guvern
guvernement
guvernementet
guvernor
guvernør
guy
guyana
gw
gwh
gy
gyeong
gyeonggi
gyeongsang
gyl
gyld
gylden
gyll
gyllen
gyllene
gym
gymn
gymnas
gymnasie
gymnasiet
gymnasium
gymnast
gymnastik
gyn
gyp
gæ
ha
haag
haakon
hab
habenaria
habit
habitat
habitatet
habsburg
hack
hackar
hackspett
had
hadd
hadde
hade
haemat
haf
haft
hag
haga
hage
hagen
hager
hagg
haiti
haj
hak
hakan
hakon
hal
hala
hald
halde
halden
hale
halen
half
halft
halften
hall
halla
halland
hallands
hallas
halle
hallen
haller
hallet
halling
halls
halm
halmstad
halmstads
halom
hals
halsa
halsen
halsing
halsingland
halso
halt
halv
halva
halvan
halvar
halvbror
halvdel
halvdelen
halvgra
halvgras
halvgrasart
halvk
halvo
halvon
halvor
halvparten
halvt
halvøy
halvøya
ham
hamar
hamburg
hamil
hamilton
hamm
hammar
hammarby
hammer
hamn
hamna
hamnade
hamnar
hamnen
hamp
hampshire
hampson
hamra
hamt
hamtade
han
hanar
hand
handball
handballspiller
handboll
hande
handel
handelen
handeln
handels
handelse
handelsen
handelser
handelserna
handelshogskolan
handen
hander
handla
handlade
handlar
handler
handlet
handling
handlingar
handlingen
handlinger
handverk
hanen
hang
hangar
hanger
hangzhou
hank
hann
hanna
hannar
hanne
hannen
hannene
hanner
hannover
hans
hanseende
hansen
hansson
hansyn
hant
hantera
hantverk
haouz
hap
hapet
happ
har
harad
harads
harald
harbin
harbour
hard
harda
hardanger
harde
harding
hardrock
hardt
hardy
hare
haren
haret
harj
harjedalen
harkomst
harled
harm
harmon
harnos
harnosand
harold
harp
harris
harrison
harror
harry
harstad
harstam
harstammar
hart
harvard
harvey
has
hasan
hash
hass
hassel
hassle
hast
hastar
hastarna
hasten
hastighet
hastigheten
hastings
hat
hatt
haug
hauge
haugen
haugesund
hauk
haus
hausten
haut
haute
hauts
hav
havanna
havd
havdade
havdar
have
haven
haver
havet
havn
havne
havnen
havner
havnet
havs
havsytan
haw
hawa
hawaii
hax
hay
haz
hb
hc
hd
he
head
heart
heat
heath
heav
heavy
heb
hebei
hebra
hebraisk
hebre
hebreiska
hed
heder
hedersd
hedersdoktor
hedmark
hedrar
hedvig
heg
hegy
hei
heid
heidelberg
heil
heile
heilong
heilongjiang
heilt
heim
heime
hein
heinrich
heinz
heiter
hek
hekk
hekke
hektar
hel
hela
held
heldt
hele
helen
helena
helene
helg
helga
helge
helgeland
helgen
helgon
helhet
heli
helic
heliconius
heliga
helige
helik
helikopt
helikopter
helina
hell
hellas
helle
hellen
heller
hellig
hellige
helm
hels
helse
helsing
helsingborg
helsingborgs
helsingfors
helst
helt
heltid
helvet
hem
hembygd
hemib
hemiboreala
hemlig
hemliga
hemlighet
hemm
hemma
hemman
hemmaplan
hemmel
hemmelig
hemmelige
hemmet
hemsida
hen
henan
hend
hendelsen
hendelsene
hendelser
hender
henderson
hendrik
heng
henger
henhold
henholdsvis
henn
hennar
henne
hennes
henning
henrett
henrettet
henri
henrik
henriks
henry
hens
hensikt
hensikten
hensyn
henta
hente
hentet
hep
her
herad
herak
herald
herat
herb
herbert
herc
herceg
hercegovina
here
herfra
herm
herman
hermann
hermel
hero
herr
herrar
herrarnas
herre
herred
herren
herrer
herrgard
herrlandslag
hersker
hert
hertig
hertigen
hertug
hertugd
hertugdømmet
hertugen
herunder
herz
hes
hesper
hess
hessen
hest
heste
hesten
hester
het
heta
heter
hett
hette
hev
hevda
hevder
hevdet
hevn
hew
hewit
hewitson
hex
hey
heyd
hf
hi
hib
hid
hidalgo
hier
hierark
hig
higgins
high
highland
highway
hil
hild
hilde
hill
hills
him
himachal
himala
himalaya
himlen
himm
himmel
himmelen
hin
hind
hinder
hindra
hindre
hindu
hip
hiphop
hipp
hippar
hipparcos
hir
hiro
hirsch
hirsut
hirt
his
hisp
hiss
histor
historia
historie
historien
historier
historik
historiker
historikere
historikeren
historikk
historisk
historiska
historiske
historiskt
history
hit
hitch
hitler
hitlers
hits
hitt
hitta
hittade
hittades
hittar
hittas
hittat
hittats
hittil
hittills
hiv
hj
hja
hjal
hjalmar
hjalp
hjalpa
hjalper
hjalpte
hjalt
hjar
hjarn
hjarnan
hjart
hjarta
hjel
hjelm
hjelp
hjelpe
hjelper
hjem
hjemlandet
hjemm
hjemme
hjemmeb
hjemmebane
hjemmet
hjer
hjerne
hjernen
hjert
hjerte
hjort
hjorte
hjul
hjuldjursart
hjulspindlar
hjør
hjørnet
hk
hms
ho
hob
hobart
hoce
hoceima
hoch
hockey
hod
hode
hodet
hof
hoff
hoffet
hoffmann
hog
hoga
hoger
hogkvarter
hogland
hoglandsklimat
hogra
hogre
hogskola
hogskolan
hogst
hogsta
hogt
hogtid
hoh
hohen
hoj
hojd
hojden
hojer
hok
hol
hold
holde
holder
holdes
holding
holdt
hole
holger
holl
holland
hollandska
holls
holly
hollywood
holm
holmberg
holme
holmen
holmenk
holmes
holocaust
holst
holstein
holt
hom
homal
home
homer
homo
homof
homosex
homs
hon
honan
hond
honda
honduras
hong
hongkong
honom
honor
honorna
hood
hook
hooker
hop
hope
hopp
hoppa
hoppade
hoppet
hoppspindlar
hor
hora
hord
hordaland
horde
horison
horisont
hormon
hormoz
hormozgan
horn
hornet
hornstritar
hors
horse
hort
horten
hos
hosp
hospital
host
hosten
hot
hotad
hotade
hotel
hotell
hotellet
hou
house
houst
houston
hov
hoved
hovedkontor
hovedkvarter
hovedrolle
hovedrollen
hovedrollene
hovedsak
hovedsakelig
hovedstad
hovedstaden
hovedt
hovedtrener
hovet
hovratt
hovud
hovudsak
hovudsakleg
hovudstad
hovudstaden
how
howard
hp
hr
hs
ht
htt
http
hu
hua
huang
hub
hubb
hubei
hubert
hubner
hud
hudd
huddinge
huden
hudik
hudiksvall
hudson
hue
hug
hugh
hughes
hugo
huidu
hul
hull
hult
hum
human
humbold
humor
hun
hunan
hund
hundar
hunden
hunder
hundra
hundrat
hundratals
hundre
hung
hunger
hunn
hunnen
hunnene
hunt
hunter
hur
hurt
hurtig
hurtigløp
huruvida
hus
husar
husby
husdyr
husen
huser
huset
husets
husflugor
hushall
hushold
husk
husse
hust
hustru
hustrun
hut
hutch
huvud
huvudbaltet
huvudbyggnaden
huvuddelen
huvudet
huvudkontor
huvudort
huvudorten
huvudperson
huvudroll
huvudrollen
huvudroller
huvudrollerna
huvudsak
huvudsakliga
huvudsakligen
huvudserien
huvudstad
huvudstaden
hv
hva
hval
hvem
hver
hverandre
hvert
hvil
hvile
hvilke
hvilken
hvilket
hvis
hvit
hvite
hviteruss
hvitt
hvor
hvorav
hvordan
hvorfor
hwang
hy
hyal
hybrid
hyd
hyde
hydr
hydra
hydraena
hydro
hydrogen
hydrop
hyg
hyl
hyla
hyll
hym
hymen
hyp
hyper
hypoc
hypot
hypp
hyppig
hyr
hyres
hyster
hytt
hytta
hæ
hær
hæren
hærens
hø
høg
høgare
høgaste
høgd
høgde
høge
høgre
høgskolen
høgt
høne
hønefoss
hør
høre
hører
hørte
høst
høsten
høv
høve
høy
høyde
høyden
høye
høyere
høyest
høyeste
høyester
høyesterett
høyr
høyre
høyrer
høyres
høyt
ia
iak
iaktt
ian
ib
iber
ibland
ibm
ibn
ibrah
ibrahim
ibsen
ic
ice
ich
ichneumon
icke
id
ida
idaea
idag
ide
ideal
ideell
ideen
ideer
iden
ident
identif
identifier
identifisert
identisk
identitet
ideologi
idet
idi
idol
idrett
idrettslag
idrott
idrottare
if
ifk
ifra
ifrag
ifragas
ifran
ifølge
ig
igang
igar
igarape
igen
igenom
igjen
igjennom
ign
igna
ignacio
ignat
ignatz
igor
ih
ihop
ii
iii
ik
ike
ikke
ikkje
ikon
il
ild
ile
ilha
ili
ill
illa
illeg
illin
illinois
illust
illustrasjon
illustrat
illustrator
im
imago
imidler
imidlertid
imm
immig
immun
imot
imp
impatiens
imper
imperial
imperiet
impon
imponer
import
importer
impro
improvis
impul
in
inat
inbj
inbland
inbord
inborde
inbordeskriget
inc
ind
inde
indel
indelad
indelas
indelat
indelning
indelta
indep
index
india
indian
indiana
indianer
indien
indig
indik
indiker
indikerer
indire
indirekte
indisk
indiska
indiske
indiv
individ
individer
individerna
individuell
individuella
individuelle
individuellt
individuelt
indoeurope
indones
indonesia
indonesien
indonesiska
indre
indust
industri
industrial
industriell
industrielle
industrien
industrier
industrin
inf
infanter
infanteri
infanteriet
infanterireg
infe
infekt
infin
infl
influ
influenser
influer
inflyt
inflytande
inflytelser
inflytelserika
infor
infora
inforandet
inforde
infordes
inforliv
inforlivades
inform
informasjon
information
informer
infrast
infrastruktur
ing
inga
ingaende
ingang
ingar
inge
ingeborg
ingen
ingeniør
ingenjor
ingenting
inger
inget
ingick
ingrediens
ingrid
ingvar
inhem
inhemska
init
initi
initiativ
initiativet
initiativt
ink
inkl
inkluder
inkluderade
inkluderar
inkluderer
inkludert
inkluderte
inklusive
inkom
inkomst
inkop
inkorp
inkorporerades
inlandsklimat
inled
inledande
inledde
inleddes
inledningsvis
inleds
inloppet
inn
innan
innanfor
innb
innbyg
innbygg
innbygger
innbyggere
innbyggerne
innbyggertall
innbyggjar
innbyggjarane
innbyggjarar
inndeling
inndelingen
inndelt
inne
inneband
innebandy
innebar
innebærer
innefatt
innefattar
inneh
inneha
innehade
innehall
innehalla
innehallande
innehaller
innehallet
innehar
inneheld
inneholder
inneholdt
inneholl
innen
innendørs
innenfor
inner
innerst
innflyt
innflytelse
innflytelses
innført
innførte
inng
innga
inngang
inngangen
inngar
inngatt
inngikk
innhold
innholdet
innlandet
innled
innledende
innledet
innlem
innlemmet
innløpet
innom
innov
innover
innr
innsats
innsbru
innsbruck
innsj
innsjø
innsjøen
innsjøer
innslag
innsp
innspel
innspelinga
innspilling
innspillingen
innspilt
innst
innt
innte
inntekt
inntekter
inntil
inntrykk
innvalgt
innvand
innviet
inom
inomhus
inratt
inrattades
inre
inred
inrikes
inrikt
inriktning
inrym
ins
insag
insats
insatser
inse
insekt
insekter
insektsart
insign
insister
insjo
insjoar
inskrip
inskript
inslag
insp
inspe
inspel
inspelad
inspelning
inspelningar
inspelningen
inspir
inspirasjon
inspiration
inspirerad
inspirerade
inspirert
inspirerte
inst
install
installert
instift
instit
institusjon
institusjoner
institut
institute
institutet
institution
institutionen
institutioner
institutt
instituttet
instru
instrukt
instrument
instrumental
instrumenter
instrumentet
int
inta
intag
intakt
inte
integ
integr
integrert
intel
intelle
intellekt
intellig
intelligens
intens
intensiv
inter
interes
interess
interesse
interessen
interesser
interessert
interi
interior
interiør
intermed
intermedia
intern
interna
internasjon
internasjonal
internasjonale
internasjonalt
internation
international
internationell
internationella
internationellt
interner
internet
internett
internt
interv
intervj
intervju
intervjuer
intet
intill
intog
intradde
intraff
intraffade
intres
intress
intressant
intresse
intressen
intresser
intresserad
intresserade
intresset
introd
introducer
introducerade
introducerades
introdus
introdusert
introduserte
intryck
inuti
inv
invader
invaderte
invald
invaldes
invan
invanarant
invanare
invanarna
invand
invas
invasion
invasionen
invasjon
invasjonen
invent
inventarier
inver
invest
invester
invid
invig
invigdes
invigningen
inviter
invitert
invol
involver
involvert
io
ion
iowa
ip
iph
ir
ira
irak
iran
irene
iris
irisvaxtart
irisvaxter
irland
irlandska
iron
irsk
irske
is
isa
isaac
isabel
isabella
isak
isb
isbre
ischn
isen
ish
ishan
ishockey
ishockeyspelare
ishockeyspiller
isid
isidro
isk
isl
isla
islam
islamiska
islamske
island
islands
islandsk
islandska
islandske
isle
iso
isol
isolert
isortsvaxtart
isortsvaxter
isot
isra
israel
israels
israelsk
israelske
iss
ist
istallet
istan
istanbul
isted
isteden
istedenfor
it
ita
ital
italia
italien
italiens
italiensk
italienska
italienske
iuc
iucn
iv
ivag
ivan
ivanov
ivanovich
ivar
iver
iverks
ivrig
iw
ix
iz
ja
jab
jabal
jac
jack
jackson
jacob
jacobsen
jacobus
jacques
jad
jae
jag
jagar
jager
jah
jak
jakarta
jakob
jakt
jakten
jal
jalis
jam
jama
jamaic
jamaica
james
jamfor
jamforelse
jamfort
jammu
jamn
jamt
jamte
jamtland
jamtlands
jan
jane
janeiro
jang
janne
jansson
janu
januar
januari
jap
japan
japans
japansk
japanska
japanske
japonica
jar
jard
jarl
jarn
jarnaldern
jarne
jarnvag
jarnvagar
jarnvagen
jarnvagsst
jarnvagsstation
jas
jason
jat
jatte
jav
java
jawa
jay
jazz
jbel
je
jean
jeanne
jebel
jeff
jeffer
jefferson
jeg
jel
jemen
jen
jenn
jennifer
jenny
jens
jensen
jente
jenter
jeolla
jer
jere
jerevan
jern
jernban
jernbane
jernbanen
jernbanest
jerry
jersey
jerusalem
jes
jesper
jess
jessica
jesu
jesuitt
jesus
jet
jev
jevn
jevnbrede
jevnlig
ji
jia
jiang
jiangsu
jiangxi
jim
jimmy
jin
jinan
jing
jo
joachim
joakim
joan
joao
job
jobb
jobba
jobbar
jobbe
jobben
jobber
jobbet
jod
joe
joel
joens
joensuu
joh
johan
johann
johanna
johanne
johannes
johans
johansen
johansson
john
johnny
johns
johnsen
johnson
johnston
jok
jokk
jokkmok
jokkmokks
jol
jom
jomfru
jon
jonas
jonathan
jones
jong
jonkoping
jonkopings
jons
jonsson
jor
jord
jorda
jordan
jordanien
jordb
jordbav
jordbruk
jordbruket
jordbruks
jordbruksmark
jorden
jordens
jordlopare
jordskjel
jordskjelv
jorge
jos
jose
josef
joseph
jot
jou
jour
journ
journal
journalist
journalisten
journalister
joy
jr
ju
juan
juarez
jub
jubileum
jud
judar
judisk
judiska
judo
judoka
jug
jugend
jugoslav
jugoslavia
jugoslavien
jul
jula
jule
julen
jules
juli
julia
julian
julianska
julie
julius
jum
jun
jung
jungfru
jungfrulin
juni
junior
jup
jupiter
jur
jura
jurid
juridik
juridisk
juridiska
juridiske
juris
jurist
jury
jus
juss
just
justicia
justin
justis
justiti
juv
juvelvingar
juventus
jy
jylland
jyva
jyvaskyla
jød
jødene
jøder
jødisk
jødiske
jør
jørg
jørgen
jørgensen
ka
kab
kabel
kabul
kacker
kackerlack
kackerlacksart
kad
kaf
kafe
kaffe
kag
kah
kai
kairo
kaiser
kaj
kajan
kajanaland
kak
kakt
kaktus
kal
kala
kald
kalde
kale
kalen
kalender
kalenderen
kalendern
kalfjall
kaliber
kalif
kaliforn
kalifornien
kalim
kalix
kalk
kalksten
kall
kalla
kallad
kallade
kallades
kallan
kallar
kallas
kallaste
kallat
kallats
kallavaxtart
kallavaxter
kalle
kallen
kaller
kalles
kallor
kallt
kalmar
kalt
kalte
kalv
kam
kamar
kambod
kambodja
kamen
kamer
kamera
kamerun
kammar
kammare
kammaren
kammer
kamp
kampade
kampan
kampanj
kampanjen
kampar
kampen
kampene
kamper
kan
kana
kanad
kanada
kanadens
kanadensisk
kanadensiska
kanal
kanalen
kanaler
kanarie
kanarieoarna
kand
kanda
kandahar
kande
kandid
kandidat
kandidater
kandidatexamen
kandiderade
kang
kani
kann
kanna
kanner
kannet
kanneteck
kannetecken
kannetecknas
kanon
kanoner
kanot
kans
kansas
kanske
kanskje
kansla
kansler
kansli
kanslor
kant
kanten
kanter
kanton
kantonen
kap
kapacitet
kapasitet
kapell
kapellet
kapit
kapital
kapitel
kapittel
kapp
kaptein
kapten
kar
kara
karak
karakt
karaktar
karaktaren
karaktarer
karakter
karakteristisk
karakteristiske
karang
karb
karbon
kard
kardin
kardinal
kardinaler
kare
karel
karelen
karen
karet
karez
kari
karib
karibiske
karin
kark
karl
karlek
karleks
karls
karlshamn
karlsk
karlskoga
karlskrona
karlsson
karlstad
karlstads
karm
karn
karna
karnat
karnataka
karnten
karnvapen
karol
karolin
karolinska
karos
karp
karpfiskar
karr
karri
karriar
karriaren
karriere
karrieren
kart
karta
kartlagd
kartlagt
kartograf
kartor
kas
kasakh
kasakhstan
kaser
kash
kashmir
kass
kassel
kast
kasta
kaste
kastet
kastilien
kat
katal
katalanska
katalog
katalonien
katarina
katastro
katastrof
kate
kated
katedral
katedralen
kateg
kategor
kategori
kategorien
kategorier
kategorin
kategoriserar
kath
katol
katolsk
katolska
katolske
katrine
katt
kau
kaukas
kaukasus
kaut
kav
kavaler
kavaller
kaw
kay
kaz
kazak
kazakstan
kb
ke
keb
kec
kecamatan
ked
kef
keis
keisar
keiser
keiseren
keiserlige
keith
kej
kejs
kejsar
kejsard
kejsardomet
kejsare
kejsaren
kejser
kejserliga
kel
kell
kelly
kelt
kelurahan
kem
kemi
kemisk
kemiska
kemp
ken
kend
keng
kenn
kennedy
kennet
kenneth
kenny
kenora
kent
kentuck
kentucky
keny
kenya
kep
kepulauan
ker
keram
keramik
keramikk
kerman
kermanshah
kerstin
kes
ket
kevin
key
keyboard
kf
kg
kh
kha
khak
khal
khallet
kham
khan
khar
khe
kho
khor
khorasan
khus
khuz
khuzestan
khwa
khwar
ki
kib
kick
kid
kidnapp
kie
kieffer
kiel
kiev
kik
kil
kild
kilde
kilden
kildene
kilder
kill
kilo
kilometer
kilstritar
kim
kin
kina
kinas
kind
kines
kinesisk
kinesiska
kinesiske
kinestrad
kinestradsvaxtart
kinestradsvaxter
king
kingdom
kings
kingston
kinn
kino
kinsh
kinshasa
kio
kip
kir
kirby
kirch
kirg
kirgiz
kirgizistan
kiri
kirimoj
kirimojavaxtart
kirimojavaxter
kirk
kirke
kirkegard
kirken
kirkens
kirker
kirkes
kiruna
kirurg
kis
kiss
kit
kitt
kiv
kj
kje
kjel
kjelder
kjell
kjeller
kjem
kjemi
kjemisk
kjemiske
kjempe
kjempet
kjen
kjend
kjende
kjenn
kjenner
kjennes
kjennet
kjenneteg
kjennetegn
kjent
kjente
kjer
kjerne
kjernen
kjever
kjær
kjære
kjærlighet
kjø
kjøkken
kjøl
kjønn
kjønns
kjøp
kjøpe
kjøpmann
kjøpt
kjøpte
kjør
kjøre
kjører
kjøret
kjøretøy
kjørt
kjørte
kjøtt
kk
kl
kla
klad
klader
kladogram
klag
klan
klang
klar
klara
klarade
klarar
klare
klarer
klart
klarte
klas
klass
klasse
klassen
klasser
klassif
klassific
klassifisert
klassiker
klassisk
klassiska
klassiske
klat
klatt
klaus
klaver
kle
kledt
klein
klem
kli
klim
klima
klimaet
klimat
klimatet
klimatforhallandena
klimatzonen
klin
kling
klinisk
klipp
klo
klock
klockan
klockstapel
klockvaxtart
klockvaxter
klok
klokke
klokken
klor
klost
kloster
klosteret
klostret
klot
klotspindlar
klov
klub
klubb
klubbane
klubbar
klubbarna
klubben
klubbene
klubbens
klubber
klubbkarriar
klubblag
kly
klær
km
km2
km²
kn
kna
knapp
knappt
knapt
kne
knight
kniv
knock
knop
knott
know
knud
knudsen
knut
knuten
knytt
knytte
knyttet
ko
koal
koalisjon
koalition
kob
kobber
koch
kock
kod
kode
koden
kof
kogn
koh
kok
kol
kola
kold
kolk
koll
kolla
kollap
kollaps
kolle
kolleg
kollega
kollektiv
koln
kolon
koloni
kolonial
kolonien
kolonier
kolonin
kom
koma
kombin
kombinasjon
kombination
kombiner
kombinert
kome
komed
komedie
komet
komiker
komite
komiteen
komm
komma
kommand
kommandant
kommande
kommando
kommandoen
kommandør
komme
kommend
kommende
komment
kommentar
kommentarer
kommenter
kommer
kommersi
kommersiell
kommersiella
kommersielle
kommet
kommisjon
kommisjonen
kommiss
kommission
kommissionen
kommit
kommitte
kommitten
kommun
kommunal
kommunala
kommunale
kommunalforbundet
kommunalforord
kommunalforordningar
kommunalt
kommunane
kommunar
kommune
kommunen
kommunene
kommunens
kommuner
kommunerna
kommunesenteret
kommunest
kommunestyre
kommunestyret
kommunfullmaktige
kommunhuvudort
kommunik
kommunikasjon
kommunikation
kommunikationer
kommunist
kommunistisk
kommunistiska
kommunistiske
kommunistpartiet
kommunreformen
komp
kompakt
kompan
kompani
kompaniet
kompens
kompet
kompetanse
kompl
komplek
kompleks
komplekse
komplett
kompletter
komplex
komplexa
kompli
komplik
komplisert
kompon
komponenter
komponer
komponerade
komponert
komponerte
komponist
komponisten
kompos
komposisjon
komposit
komposition
kompositioner
kompositor
kompositoren
komprom
kon
kona
konc
koncent
koncentr
koncentration
koncept
koncernen
kond
konda
kondens
kone
konen
konf
konfer
konferens
konfir
konfisk
konfli
konflikt
konflikten
konflikter
konfron
kong
konge
konged
kongedømmet
kongelig
kongelige
kongen
kongene
kongens
kongep
konger
kongeriket
kongo
kongres
kongress
kongressen
kongsberg
kongsv
kongsvinger
konig
konk
konkl
konkluder
konkret
konkur
konkurr
konkurranse
konkurransen
konkurranser
konkurrens
konkurrent
konkurrer
konkurrerer
konkurrert
konkurrerte
konkurs
konrad
kons
konse
konsekv
konsekvens
konsekvenser
konsentr
konsentrasjon
konsentrasjonsle
konsept
konseptet
konser
konsernet
konsert
konsertalb
konsertar
konserten
konserter
konserv
konservativ
konservativa
konservative
konsesjon
konsm
konson
konsonant
konsp
konst
konstak
konstakademien
konstant
konstantin
konstantinopel
konstater
konsten
konstforening
konsthall
konsthogskolan
konstit
konstitusjon
konstitution
konstmuseum
konstnar
konstnaren
konstnarer
konstnarlig
konstnarliga
konstru
konstruerade
konstruert
konstruksjon
konstrukt
konstruktion
konstruktionen
konstverk
konsul
konsulent
konsult
konsument
kont
konta
kontakt
kontakten
kontakter
kontin
kontinent
kontinental
kontinenten
kontinentet
kontinuer
kontinuerlig
kontor
kontorer
kontoret
kontra
kontrakt
kontrakten
kontraktet
kontrast
kontroll
kontrollen
kontroller
kontrollera
kontrollere
kontrollert
kontrollerte
kontrover
kontroversi
kontroversiell
konung
konvensjon
konvent
konvention
konver
konvo
kooper
koordin
kop
kopa
kopen
kopenhamn
kopenhamns
koper
kopi
kopier
koping
kopinghuvudort
kopman
kopp
koppar
kopparbergs
koppling
kopt
kopte
koptes
kor
kora
korall
korallart
koranen
kord
korde
kordes
kore
korea
koreanska
koren
koreograf
koret
korg
korgblommiga
korleis
korn
koron
korp
korps
korre
korrekt
korresp
korrespond
korrup
korrupt
kors
korsar
korsblomm
korsblommig
korsblommiga
korset
korst
kort
korta
kortare
korte
kortere
kortfilm
kortt
korttungebin
kortvarig
kortvingar
korv
kos
kosa
kosm
kosovo
kost
koster
kostet
kostnad
kostnaden
kostnader
kot
kotal
kotka
kott
kottflugor
kou
koud
koudia
koudiat
koudiet
koudyet
kour
kov
kow
koz
kr
kra
krabbspindlar
kraft
kraftdjur
kraftdjursart
kraften
krafter
kraftig
kraftiga
kraftige
kraftigt
kraftverk
kraftverket
krag
kraj
krak
krakow
kral
kram
kran
krang
krat
krater
krav
kravde
kravdes
kraver
kravet
kravs
kre
kreativ
kred
kredit
krediter
kreert
kreft
krefter
kreis
krem
krep
krepsdyr
kret
kreta
krets
kretsar
kretsen
krev
krevde
krever
kreves
krf
kri
krig
krigen
krigens
kriger
kriget
krigets
krigs
krigsf
krigsforb
krigsskip
krim
krimin
kriminal
kring
kringkast
kris
krisen
krist
kristall
kristdemokrat
kristelig
kristen
kristendom
kristendomen
kristendommen
kristi
kristian
kristiania
kristiansand
kristianstad
kristianstads
kristiansund
kristin
kristina
kristine
kristna
kristne
kristoffer
kristus
krit
kriter
kriterier
kritik
kritiker
kritikk
kritiserade
kritisert
kritiserte
kritisk
kritiska
kro
kroat
kroatia
kroatien
kroatisk
kroatiska
krog
krok
krom
kromosom
kron
krona
kronan
krone
kroner
kronet
kronobergs
kronologisk
kronor
kronp
kronprins
kropp
kroppen
kroppens
kropps
kroppslangd
kross
kru
kruk
krum
krus
krut
kry
kryd
kryp
krypt
krys
kryss
krysser
krysset
krystall
krøn
kth
ku
kub
kuba
kuch
kuh
kuk
kul
kula
kule
kulest
kull
kullar
kulle
kullkraftverk
kulmin
kult
kultur
kulturell
kulturella
kulturelle
kulturen
kulturer
kulturm
kulturminner
kum
kun
kund
kunde
kunder
kung
kungad
kungar
kungariket
kungen
kungens
kungl
kunglig
kungliga
kungs
kunn
kunna
kunnat
kunne
kunngjorde
kunnskap
kunskap
kunskaper
kunst
kunstakadem
kunsten
kunstig
kunstløp
kunstnar
kunstner
kunstnere
kunstneren
kunstnerisk
kunt
kunth
kuopio
kup
kuper
kuperad
kupp
kur
kurd
kurdistan
kurfur
kurs
kurser
kurt
kus
kush
kusin
kust
kustartiller
kusten
kustklimat
kut
kuus
kuwait
kv
kva
kvad
kvadrat
kvadratkilometer
kvadratmeter
kval
kvalet
kvalif
kvalific
kvalificerade
kvalifisering
kvalifiseringen
kvalifisert
kvalifiserte
kvalitet
kvaliteten
kvall
kvallen
kvalster
kvalsterart
kvant
kvar
kvarandre
kvarn
kvart
kvarter
kvarteret
kvartfinalen
kvartsf
kvartsfinal
kvarvarande
kveld
kvelden
kvick
kvinn
kvinna
kvinnan
kvinne
kvinnelig
kvinnelige
kvinnen
kvinnene
kvinner
kvinnlig
kvinnliga
kvinnor
kvinnorna
kvinnors
kvit
kvite
kvitt
kw
ky
kyl
kym
kymmen
kyp
kypros
kyr
kyrk
kyrka
kyrkan
kyrkans
kyrkbyn
kyrkja
kyrkje
kyrkliga
kyrkob
kyrkobygg
kyrkobyggnad
kyrkobyggnaden
kyrkog
kyrkogard
kyrkogarden
kyrkoh
kyrkoher
kyrkoherde
kyrkoherden
kyrkor
kyrkorum
kyrkorummet
kyst
kysten
kø
køben
københavn
københavns
la
lab
labor
laborator
laboratorium
labour
labrador
lac
lach
lad
ladd
lade
lader
lades
lady
lae
lag
laga
lagar
lagd
lagde
lage
lagen
lagene
lagenhet
lagenheter
lager
lagervaxtart
lagervaxter
lages
laget
lagets
lagga
lagger
laggs
lagkapten
lagkonkurransen
laglandet
lago
lagoa
lagoon
lagos
lagre
lagret
lagring
lagsta
lagstift
lagstiftande
lagstiftning
lagt
lagtinget
lagun
laguna
lah
laht
lahtis
lak
lakare
lakaren
lake
lakem
lakemedel
lakes
lakh
lakse
lakt
lal
lam
lama
lamar
lamb
lambert
lamiinae
lamn
lamna
lamnade
lamnar
lamnat
lamningar
lamp
lamplig
lan
lana
lanades
lanc
lancaster
lance
land
landa
landarea
landbruk
landbruks
lande
landene
lander
landerna
landes
landet
landets
landeve
landeveiss
landh
landhockey
landhockeyspiller
landhockeyt
landkreis
landmal
landmalingar
lands
landsby
landsbyen
landsbyer
landsbyg
landsbygden
landsfiskal
landsfiskalsdistrikt
landsfor
landshovding
landsk
landskamp
landskamper
landskap
landskapet
landskommun
landskommunen
landskrona
landslag
landslaget
landslagskarriar
landsm
landsmannen
landst
landsting
landsvag
lane
lanet
lang
langa
langd
langden
langdistans
langdskid
lange
langfilm
langhorn
langhorningar
langhus
langhuset
langre
langrenn
langrennsløper
langror
langrorsbladloss
langs
langsam
langsamt
langsikt
langst
langsta
langt
langtungebin
langu
langvar
langvarig
lanka
lankar
lans
lanser
lanserade
lanserades
lansert
lanserte
lansstyrelsen
lansvag
lant
lantbruk
lantbruks
laos
lap
lapp
lappland
lar
lara
laran
larar
larare
lard
larde
laro
larob
larover
laroverk
larry
lars
larsen
larsson
larven
larvene
larver
larvik
las
lasa
lasar
laser
lasi
lasioglossum
lass
lasse
last
lastbil
laste
lastebil
lat
lata
latar
latarna
late
laten
later
latin
latinsk
latinska
latinske
latit
latlista
latskri
latskrivar
latskrivare
latskriver
latt
latta
lattare
latvia
laur
laura
lauren
laurent
laurentides
laus
lav
lavart
lave
lavere
laveste
lavt
law
lawren
lawrence
lax
laz
lazar
lc
le
lea
leaf
league
leb
lec
lecan
lech
lecon
leconte
led
leda
ledamot
ledamoter
ledande
ledar
ledare
ledaren
ledd
ledde
leddes
leddet
leddjur
lede
ledelse
ledelsen
leden
ledende
leder
ledere
lederen
lederne
ledes
ledet
ledning
ledningen
leds
lee
leeds
lef
left
leg
legat
lege
legend
legendar
legendariske
legenden
leger
legg
legge
legger
legges
legion
legitim
leh
lei
leia
leiar
leic
leicester
leid
leie
leif
leik
leil
lein
leip
leipzig
leir
leiren
lejon
lek
lekene
leker
leks
lektor
lem
lemp
len
lena
leng
lengd
lengde
lengdehopp
lengden
lenge
lenger
lengre
lengst
lengste
lenin
leningrad
lenker
lenn
lennart
lennon
lens
leo
leon
leonard
leonardo
leop
leopold
lep
lepanthes
lepid
lepp
lept
ler
les
lese
leslie
lest
let
lett
lette
letter
lettere
lettland
leuc
lev
leva
levande
levanger
levde
leve
levende
lever
levererades
levert
leverte
levet
levevis
levi
levnad
levnadssatt
levu
lew
lewis
lex
lh
lhasa
li
lia
liang
liaoning
lib
liban
libanon
libanonberget
liber
liberal
liberala
liberale
liberia
libert
library
librett
libretto
libreville
liby
libyen
lic
licens
licent
licentiat
lid
lider
lidingo
lie
lieb
liechtenstein
liege
lier
life
lig
liga
ligaen
ligamatcher
ligan
ligg
ligga
liggande
ligge
liggende
ligger
light
lignende
ligner
lik
lika
likasa
like
likevel
likhet
likheter
likn
liknande
liknar
liknende
liksom
likt
likte
lil
lilje
lill
lilla
lille
lillehammer
lillestrøm
lily
lim
lima
limen
limn
limon
lin
lina
lincol
lincoln
lind
linda
lindberg
linde
linden
linder
lindes
lindgren
lindley
lindstrom
line
ling
lingvist
linja
linje
linjen
linjene
linjer
link
linkoping
linkopings
linn
linne
linux
lion
lip
lis
lisa
lise
lisens
liss
lissa
list
lista
listade
listan
listar
listas
liste
listen
listene
lister
lit
lita
litau
litauen
lite
liten
liter
litet
lith
litt
litter
litterara
litteratur
litteraturen
litterære
little
liturg
liu
liv
live
liver
liverpool
livet
livets
living
livnar
livs
livskraft
livskraftig
livsmedel
livsmiljo
livsstil
livstid
lj
ljub
ljud
ljudet
ljung
ljungby
ljungvaxtart
ljungvaxter
ljus
ljusa
ljusar
ljusare
ljusdals
ljuset
ljust
ll
llan
llano
llo
lloyd
lo
lob
loc
loch
lock
lod
loew
lof
lofoten
loft
log
loh
loi
loire
loj
lojal
lojtnant
lok
lokal
lokala
lokalbefolkningen
lokale
lokaler
lokalisert
lokalpolit
lokalt
lokomot
lokomotiv
lol
lom
loma
lomas
lombard
lombardiet
lon
lonch
london
londons
long
lonn
look
lop
loper
lopez
loph
lopp
loppart
loppet
lor
lord
loren
lorentz
lorenzo
lorestan
lorra
lorraine
los
losa
losning
losningar
loss
lost
lot
lott
lotta
lotus
lou
louis
louise
louisiana
louv
lov
love
loven
lover
lovet
lovfallande
lovflugor
lovisa
lovskog
low
lower
lox
lp
lt
ltd
lu
luanda
lub
lubeck
luc
lucas
lucia
lucien
luck
lucy
lud
ludvig
ludvika
ludwig
luer
luft
lufta
luften
luftfart
lufthavn
luftt
lug
luigi
luis
luk
lukas
luke
lukket
lukt
lul
lulea
lum
lumb
lun
lund
lundberg
lunde
lundgren
lunds
lung
lup
lur
lus
lust
lut
lute
luther
lutherska
lutz
lux
luxemb
luxembourg
luxemburg
luz
luzon
ly
lyc
lyck
lyckades
lyckas
lyckats
lycksele
lyd
lyden
lyder
lyft
lyg
lykkes
lyktes
lym
lyman
lyn
lynch
lyng
lyon
lyrik
lys
lyse
lyset
lyssn
lyst
lyx
læ
lær
lærar
lærde
lære
lærer
lærere
lærte
lø
løfte
løn
lønn
løp
løpeb
løpebiller
løper
løpet
lør
lørdag
løs
løse
løslatt
løsning
løst
løv
løvt
løvtrær
løy
løytnant
ma
mac
macdonald
mach
machine
mack
macle
macqu
macquart
macro
macroc
macrop
maculata
mad
madaga
madagaskar
madame
made
madele
madh
madhya
madison
madonna
madrid
mag
magall
magallanes
magas
magasin
magasinet
magaz
magazine
magdalen
magdalena
magi
magic
magist
magister
magn
magna
magne
magnet
magnitud
magnus
magnusson
mah
mahar
maharash
mahren
mai
maiden
main
maine
maj
maja
majest
major
majoritet
majoriteten
mak
maka
make
makedon
makedonia
makedonien
makedonska
maken
makens
maksim
makt
makta
makten
maktover
mal
mala
malade
malar
malare
malaren
malarskola
malawi
malaysia
malcol
malcolm
male
malen
maler
maleri
malerier
maleriet
malet
mali
malin
maling
mall
malloch
malm
malmo
malmohus
malning
malningar
malningen
malp
malpigh
malt
malta
malte
malv
malvakt
malvavaxtart
malvavaxter
mam
mamma
man
manad
manaden
manader
manag
management
manager
managua
mancha
manchester
mand
mandag
mandal
mandat
mandatperiod
mande
mandeh
mane
maned
maneder
manen
manfred
mang
manga
mangd
mangden
mangder
mange
mangekamp
mangel
mangfald
mangfold
mangfot
mangfotingart
manglende
mangler
manglet
manhattan
mani
manifest
manip
manit
manitoba
mank
manliga
mann
mannen
manner
mannisk
manniska
manniskan
manniskans
manniskor
manniskorna
mannlige
mannskap
mannskapet
mans
mansk
manskliga
mant
mantal
manu
manuel
manus
manuset
manusforfattare
manusforfatter
manuskript
manuskriptet
manz
mao
map
maple
maq
mar
mara
maran
maraton
marc
marcel
march
marco
marcos
marcus
mard
mare
marevaxtart
marevaxter
marg
margar
margaret
margareta
margin
marginal
margret
mari
maria
marianne
marie
mariehamn
maril
marin
marina
marine
marinen
marino
mario
marion
marit
maritime
marius
mark
markant
markazi
marke
marked
markedet
markeds
marken
marker
markerer
markert
markerte
market
markgrev
marknad
marknaden
marknads
marknadsfor
marknadsforing
marks
markt
markus
marl
marm
marmor
marne
marocko
marokko
marrakech
mars
marsch
marse
marseille
marsh
marshall
mart
marta
martha
martin
martine
martinez
martini
martins
martyr
marx
mary
maryland
mas
mask
maskin
maskinen
maskiner
mason
mass
massa
massachus
massachusetts
massak
massan
masse
massen
massiv
mast
mastare
maste
master
mastergrad
masters
masterskap
masterskapen
masterskapet
mat
mata
matar
matare
match
matchen
matcher
matcherna
mate
matemat
matematik
matematiker
matematikk
matematisk
maten
mater
material
materiale
materialer
materialet
materiell
math
mathias
matlag
mato
mats
matsum
matsumura
matt
matte
matthew
mattias
maud
maur
mauret
mauretanien
mauric
maurice
mauricie
maurit
mauritius
maus
mausole
mav
maw
max
maxim
maximilian
maxwell
may
maya
maz
mazandaran
mazar
mb
mc
mcc
mccart
mccartney
mcd
mcdonald
mcg
mck
md
me
mead
mec
meck
mecklenburg
med
medal
medalj
medalje
medaljen
medaljer
medan
medarbetare
medborg
medborgare
medborgarskap
meddel
meddelade
meddelades
medel
medelhav
medelhavet
medelhavsklimat
medelhojden
medelpad
medelt
medeltemperaturen
medeltid
medeltida
medeltiden
medfor
medforde
medførte
medi
media
medic
medicin
medicine
medicinsk
medicinska
medie
medier
medio
medis
medisin
medisinsk
medisinske
medium
medlem
medlemmar
medlemmarna
medlemmene
medlemmer
medlems
medlemskap
medlemsland
medlemsst
medlemsstater
medley
medverk
medverka
medverkade
medverkan
medverkande
medverkar
medverkat
medvet
medvir
medvirket
meg
mega
megach
megachile
megal
megas
megaselia
meget
meh
meigen
mein
meiner
meinte
meir
meis
meister
mek
mekan
mekanisk
mekaniska
mekaniske
meknes
meksik
mektig
mektige
mel
melan
melast
melastomataceae
melbourne
meld
meldte
melit
melitaea
melk
mell
mellan
mellanostern
meller
mellersta
mellom
mellomalderen
mellomtiden
melod
melodi
melodien
melodier
melodifestivalen
melodin
melolonth
melolonthidae
mem
membran
memo
memoarer
memor
memorial
men
menade
menar
mend
mendo
mendoza
mener
meng
mengde
mengden
mengder
menighet
menigheten
mening
meningen
menings
menn
menne
mennene
mennesk
menneske
menneskelig
menneskelige
menneskene
mennesker
menneskerett
mennesket
mens
ment
mental
mente
mer
mera
merc
mercedes
mercury
mere
merit
meriter
merk
merke
merket
merparten
merrill
mes
mesa
mesoch
mesochorus
mesopot
mess
mest
mesta
mestadels
meste
mesteparten
mester
mesterskap
mesterskapet
met
meta
metac
metal
metall
metallisk
metam
metamorf
mete
meteor
meter
meters
metod
metode
metoden
metoder
metro
metrop
metropolit
metropolitan
mex
mexic
mexico
mexikanska
mexiko
mey
meyer
meyrick
mez
mf
mg
mh
mi
mia
miami
mian
mic
mich
micha
michael
michail
michel
michigan
micho
michoacan
mick
miconia
micro
microc
microd
microp
micros
microsoft
mid
midd
middag
middel
middelalder
middelalderen
middelhav
middelhavet
middels
middelsst
middelsstor
middelsstore
middle
midler
midlertid
midlertidig
midnatt
midt
midten
midtre
midtøsten
mig
miguel
mik
mika
mikael
mike
mikha
mikhail
mikk
mikro
mil
milan
milano
mild
mile
miles
milit
militar
militara
militaren
militart
militær
militære
militæret
militært
milj
miljarder
miljo
miljoer
miljon
miljoner
miljop
miljø
miljøet
mill
miller
milli
milliarder
millimeter
million
millionar
millioner
mills
milt
milton
mim
min
mina
minas
mind
mindre
mine
miner
mineral
minerar
minerarflugor
ming
mini
miniat
miniatyr
minim
minimum
minist
minister
minn
minne
minner
minnes
minnesota
minnet
minor
minoritet
minsk
minska
minskade
minskar
minskat
minst
minsta
minste
minus
minut
minuta
minuten
minuter
minutt
minutter
miquel
mir
mira
mirak
miranda
mis
misfor
mish
misjon
misjonær
misly
misn
miss
missade
misshand
mission
mississ
mississipp
mississippi
misslyck
misslyckades
missno
missouri
misstag
misstan
mist
mista
miste
misten
mister
mistet
mit
mitch
mitchell
mits
mitt
mitten
mittfalt
mittfaltare
mix
mixed
miz
mj
mjol
mjolk
mjuk
mjuka
mjøl
mk
ml
mlb
mm
mma
mo
mob
mobel
mobil
mobile
mobilt
mobiltelef
mobler
moc
mod
mode
model
modell
modellen
modeller
moder
moderat
moderforsamling
moderklubb
modern
moderna
moderne
modifier
moe
mog
mogleg
moh
mohafazat
moham
mohammad
mohammed
moj
mojlig
mojliga
mojligen
mojlighet
mojligheten
mojligheter
mojligt
mok
mol
mold
molde
molek
molekyl
molekyler
moll
moller
moln
molophilus
moluck
moluckerna
mom
moment
mon
mona
monaco
monark
monarken
mong
mongol
mongolia
mongoliet
monica
monopol
monotyp
monotypisk
monroe
mons
monster
monsun
monsunklimat
mont
montagne
montana
monte
monten
monteneg
montenegro
monter
montert
montg
montgomer
montgomery
montreal
monument
monumentet
moon
moore
moose
mor
mora
moral
mord
mordades
mordet
more
morelos
moren
morf
morfar
morg
morgan
morgen
morgenen
morgon
morgonen
moritz
mork
morka
morkare
morkt
morm
morne
morning
morp
morris
morrison
morro
mors
mort
morten
morton
mos
mosa
mosaik
moselle
moser
moses
mosk
moske
moskva
moss
mossdjursart
mossl
most
mot
mota
motala
mote
moten
moter
motes
motet
mother
motion
motiv
motiver
motivet
motor
motoren
motorer
motorn
motors
motorsport
motorvag
motorvagen
mots
motsats
motsatt
motsatte
motset
motsetning
motstand
motstandare
motstanden
motstander
motstandere
motsvar
motsvarande
motsvarar
motsvarighet
mott
motta
mottag
mottagande
mottak
mottar
mottatt
motte
mottes
motto
mottog
mottok
motvil
mou
mount
mounta
mountain
mountains
mov
movie
moz
mozart
mp
mr
ms
mt
mtv
mu
muc
mud
mueller
mug
muham
muhammad
muhammed
muk
mul
mulig
mulige
muligens
mulighet
muligheten
muligheter
mull
mullbar
muller
mult
multip
mum
mun
munch
munchen
mund
municip
municipal
municipality
municipalsam
munk
munn
munnar
munnen
munner
munningen
munster
munt
mur
mura
murar
muren
murphy
murray
mus
musa
musc
muse
museer
museet
museets
museum
music
musik
musikal
musikalbum
musikalen
musikaliska
musikalsk
musikalske
musiken
musiker
musikere
musikk
musikkalbum
musikken
musikkon
musikkvide
musikt
musikvide
musikvideo
musikvideon
musk
muskel
muslim
muslimer
muslimsk
muslimska
muslimske
mussel
musselart
must
mut
mv
mw
my
myanmar
myc
mycet
mycetophila
mycket
mycosphaer
mye
myk
mykje
myn
mynd
myndighet
myndigheten
myndighetene
myndigheter
myndigheterna
mynnar
mynt
myr
myrart
myrdet
myri
myrm
myrme
myror
myrten
myrtenvaxtart
myrtenvaxter
mys
myst
myster
myt
myten
myter
mytologi
m²
m³
mø
møl
møller
møn
mønster
mør
møre
mørk
mørke
mørkere
mørkt
møte
møter
møtes
møtet
møtt
møtte
møttes
na
nab
nabaa
nabb
nabo
nac
nacional
nack
nacka
nad
nadd
nadde
nade
nag
nagon
nagonsin
nagonting
nagot
nagra
nagu
nah
nahr
nairo
nairobi
nak
naken
nal
nam
name
names
namibia
namligen
namn
namnas
namnda
namndes
namnen
namner
namnet
namngje
namngjeve
namngjeven
namns
nan
nana
nanchang
nancy
nang
nanjing
nann
nansen
nap
napole
napoleon
napoleons
napoli
naq
nar
nara
narbel
narbelagna
narhet
narheten
naring
narings
naringsliv
narke
narkot
narkotik
narkotika
narliggande
narmare
narmast
narmaste
narvar
narvarande
narvaro
narvik
nas
nasa
nash
nashville
nasjon
nasjonal
nasjonale
nasjonalpark
nasjonals
nasjonalsosial
nasjonalt
nasjoner
nass
nassau
nassel
nasseldjursart
nasselvaxtart
nasselvaxter
nast
nasta
nastan
nat
natal
natet
nathan
nathaniel
nation
national
nationale
nationalekonom
nationalmuseum
nationalpark
nationals
nationalthe
nationell
nationella
nationellt
nationen
nationer
nations
nato
natrium
natt
natten
nattfly
nattflyn
nattslandeart
natur
natura
natural
naturen
naturgass
naturlig
naturliga
naturlige
naturligt
naturreser
naturreservat
naturreservatet
naturskydd
naturskyddat
naturvard
naturvardsunionen
naturvetenskap
naturvitenskap
natverk
natverket
naut
nautiske
nav
naval
navarra
navas
nave
navig
navn
navne
navnene
navnet
navngitt
navy
naværende
naw
nay
naypy
naypyidaw
naz
nazity
nazityskland
nba
nbc
nd
ne
neapel
neb
nebb
nebra
nebraska
nec
nect
ned
nedan
nedanfor
nedb
nedbør
nede
nedenfor
neder
nederbord
nederlag
nederlaget
nederland
nederlanderna
nederlandsk
nederlandska
nederlandske
nedgang
nedlagt
nedover
nedre
nedsatt
nedslag
need
nees
neg
negativ
negativa
negative
negativt
negra
negro
nei
neil
nej
nejlik
nejlikvaxtart
nejlikvaxter
nek
nektar
nektet
nel
nelson
nem
nemlig
nemnd
neo
neob
neoc
neol
neon
neop
nep
nepal
neph
nept
ner
nere
nerv
nes
neset
ness
nest
neste
nesten
nestleder
net
nett
nettopp
nettverk
network
neu
neur
neut
neutral
nev
nevada
never
neville
nevn
nevner
nevnes
nevnt
nevnte
nevø
new
newcastle
newfound
newfoundland
newport
news
newton
nfl
ng
ngu
nhl
ni
nic
nicar
nicaragua
nice
nich
nicholas
nick
nicol
nicola
nicolai
nicolas
nicolaus
nicosia
nid
nidar
nidaros
nieder
niederosterreich
niedersachsen
niels
nielsen
niende
nig
niger
nigeria
night
nigra
nigric
nik
niklas
nikola
nikolai
nikolaj
nikolaus
nil
nils
nilsen
nilsson
nim
nin
nina
ning
nintend
nintendo
nio
nionde
nip
nipp
nir
nis
niss
nissen
nit
nitt
niv
niva
nivaer
nivaet
nix
nixon
niz
nj
njur
nk
nkp
nm
no
nob
nobel
nobelp
nobelprisen
nobels
noc
nod
nodvand
nodvandigt
noe
noel
noen
noens
noensinne
nog
noggran
noir
nojes
nok
noko
nokon
nokre
noksa
nol
noll
nom
nomin
nominat
nominatformen
nominer
nominerad
nominerade
nominerades
nominert
nomos
non
nor
nora
nord
nordamerika
nordamerikanska
nordaust
norden
nordens
nordic
nordir
nordirland
nordisk
nordiska
nordiske
nordk
nordkorea
nordland
nordlege
nordlig
nordligaste
nordlige
nordligste
nordmak
nordmakedonien
nordmenn
nordost
nordostlig
nordostra
nordover
nordre
nordrhein
nordsamisk
nordsida
nordsiden
nordsjøen
nordst
nordvast
nordvastlig
nordvastra
nordvest
nordvestlige
nordøst
nordøstlige
noreg
noregs
norfolk
norge
norges
norgesmester
norgesmesterskapet
norm
normal
normala
normalar
normalb
normale
normalt
norman
normand
normandie
normann
normer
norr
norra
norrbotten
norrbottens
norrkoping
norrkopings
norrland
norrlands
norrtalje
norrut
norrøn
norrøne
norrønt
norsk
norska
norske
norte
north
norther
northern
northwest
norway
norweg
norwegian
nos
nost
not
noter
notera
noterade
noterades
noth
notre
nott
nottingham
nou
nouakch
nouakchott
nouv
nouvelle
nov
nova
novell
novellen
noveller
november
noverande
novgorod
novo
now
nr
nrk
ns
nsd
nsdap
nt
ntn
ntnu
nu
nuaf
nub
nuc
nud
nue
nueva
nuevo
nuk
null
num
numer
numera
nummer
nun
nunatak
nunavut
nur
nurn
nurnberg
nusa
nut
nutida
nuuk
nuv
nuvarande
ny
nya
nyar
nyare
nybildade
nybyg
nybygg
nyc
nyck
nyckel
nye
nyere
nyg
nyhet
nyheter
nyhets
nykoping
nykopings
nyland
nylig
nyligen
nym
nymp
nynas
nynorsk
nyong
nyopp
nys
nyskap
nyslott
nyslotts
nyt
nytt
nytta
nyttar
nytte
næ
nær
nære
nærheten
næring
nærings
næringsliv
nærleiken
nærliggende
nærme
nærmere
nærmest
nærmeste
nært
nø
nød
nødvendig
nødvendige
nødvendigvis
nøkkel
nør
nøy
nøyaktig
nøyt
nøytral
oak
oand
oar
oarna
oav
oavsett
oax
oaxaca
ob
obe
obefolkad
ober
oberoende
oberst
oberth
obje
objekt
objekter
objektet
objektiv
obl
oblast
oblastet
obli
oblig
obligator
oblystet
obsc
obscur
obscura
obser
observ
observationer
observatoriet
observatorium
observatory
observer
observert
obsjtina
oc
ocampo
occ
occident
occidentalis
occit
occitanien
oce
ocean
oceanen
och
ock
ocksa
ockup
ockupation
ockuper
ockuperade
oct
od
odd
ode
odel
oden
odense
oder
odes
odlas
odleart
odling
odont
oec
oed
oen
oer
of
off
offens
offensiv
offensiven
offent
offentlig
offentliga
offentlige
offentliggjort
offentligt
offer
offic
office
officer
officerare
officiell
officiella
officiellt
offiser
offiserer
offisi
offisiell
offisielle
offisielt
ofor
ofruktbar
oft
ofta
oftare
oftast
ofte
oftest
og
ogat
ogift
ogon
ogonen
ogruppen
ogsa
oh
ohio
ohl
oil
oj
ok
oka
okad
okade
okand
okanda
okande
okant
okar
okat
oken
okenklimat
okk
okkup
okkupasjon
okkupasjonen
okkuper
okkupert
okkuperte
oklah
oklahoma
oklar
oklart
oks
oksygen
okt
oktober
ol
ola
olaf
oland
olat
olaus
olav
olavs
old
olden
oldtid
oldtidens
ole
oleander
oleandervaxtart
oleandervaxter
olga
oli
olig
olika
oliv
olive
oliver
olivier
olj
olja
olje
olle
olof
olov
olsen
olsson
oly
olyck
olyckan
olymp
olympi
olympia
olympic
olympisk
olympiska
olympiske
om
oman
omar
omarbet
ombild
ombildades
ombord
ombud
ombygd
ombygg
ombyggnad
omd
omdisk
omdiskuter
omdøpt
omedel
omedelbart
omf
omfang
omfatt
omfatta
omfattade
omfattande
omfattar
omfattende
omfatter
omfattet
omfattning
omg
omgang
omgangar
omgangen
omges
omgitt
omgiv
omgivande
omgivningarna
omgivningen
omgjort
omgrepet
omhand
omhandler
omk
omkom
omkring
omlopp
omnamn
omnamns
omoj
omojligt
omorgan
omp
omrada
omrade
omraden
omradena
omradene
omrader
omradet
omradets
omring
oms
omset
omslag
omslaget
omsorg
omstand
omstandigheter
omstend
omstrid
omstridt
omt
omtal
omtalas
omtale
omtales
omtalt
omtalte
omtrent
omvand
on
onc
ond
onde
one
ong
onkel
online
only
onlyinclude
ons
onsdag
onsk
onskade
onskan
ont
ontario
onth
onthophagus
op
open
oper
opera
operaen
operan
operas
operasjon
operasjonen
operasjoner
operation
operativ
operativsystem
operatør
opererer
oph
ophi
opin
opinion
opist
opius
opna
opp
oppd
oppdag
oppdaga
oppdager
oppdaget
oppdatert
oppdrag
oppdraget
oppe
oppen
oppet
oppf
oppfatning
oppfatt
oppfattet
oppfinn
oppford
oppfordret
oppføl
oppført
oppgav
oppgave
oppgaven
oppgaver
oppgitt
oppgrad
opph
opphav
opphavet
opphavleg
opphavlege
opphe
opphevet
opphold
oppholdt
opphørte
oppkalt
oppl
opplag
oppland
opplev
opplevde
opplys
opplysninger
opplæring
oppløs
oppløsning
oppløst
oppløy
oppmer
oppmerksomhet
oppmunt
oppna
oppnad
oppnadd
oppnadde
oppnade
oppnades
oppnar
oppnas
oppos
opposisjon
opposition
oppover
oppr
oppret
opprett
oppretta
opprette
opprettelsen
opprettet
opprettholde
opprinn
opprinnelig
opprinnelige
opprinnelse
opprykk
opprør
opprøret
opps
oppsta
oppstar
oppstatt
oppsto
oppstod
oppt
opptak
opptatt
opptil
opptradte
opptre
opptreden
opptrer
oppvar
oppvarming
oppvekst
oppvokst
opsjtina
opt
optim
or
ora
oran
orang
orange
oransje
orat
orb
orch
orchestra
ord
ordbok
orden
ordene
ordenen
ordens
order
ordet
ordfor
ordforande
ordfør
ordførar
ordfører
ordin
ordinarie
ordinære
ordnet
ordning
ordningen
ordre
ore
orebro
oreg
oregon
oresund
org
organ
organer
organis
organisasjon
organisasjonen
organisasjoner
organisation
organisationen
organisationer
organisator
organiserade
organisert
organiserte
organisk
organismer
organist
orgel
orgeln
orgryte
ori
orient
oriental
orientalis
orienter
orientering
orig
origin
original
originale
originalt
originaltitel
originaltittel
ork
orke
orkester
orkid
orkideart
orkideer
orkn
orland
orle
orleans
orlog
orm
ormar
ormart
ormbun
ormos
ormst
ormstjarneart
orn
ornam
ornament
ornit
ornskold
ornskoldsviks
oro
orol
oromia
oron
oronen
oros
orsak
orsaka
orsakade
orsakar
orsaken
orsaker
ort
orten
orter
orth
ortnamn
ortod
ortodokse
ortodoxa
os
osak
osaka
osaker
osb
osc
oscar
oscars
ose
osk
oskar
oskarshamn
oslo
osm
osman
osmanska
osmanske
oss
ost
osta
ostantarktis
ostazarbaijan
oste
osten
oster
osterbotten
ostergotland
ostergotlands
osterrik
osterrike
osterrikisk
osterrikiska
ostersjon
ostersund
ostersunds
osterut
ostind
ostra
osttyskland
osv
oswald
ot
otill
otillrackligt
ott
otta
ottawa
otte
otter
otto
ou
ouadi
oue
oued
ouest
oul
oum
our
out
outa
outaouais
ov
oval
ovan
ovanfor
ovanlig
ovanliga
ovanligt
ovansida
ovansidan
ove
oven
ovenfor
over
overbe
overd
overen
overens
overenskomm
overfl
overflate
overflaten
overfor
overfordes
overført
overg
overga
overgang
overgangen
overgar
overgav
overgick
overk
overklag
overlag
overlamn
overlat
overle
overlev
overlevande
overlevde
overlevende
overlever
overn
overnatt
overnatur
overord
overra
overrask
overraskende
overs
oversatt
oversatta
oversattare
oversatte
oversattes
oversattning
oversattningar
oversatts
oversett
oversettelse
oversetter
oversiden
oversikt
overst
overste
overstel
overstelojtnant
oversv
oversvam
overt
overta
overtal
overtatt
overtog
overtogs
overtok
overtyg
overv
overvag
overvak
overvint
ovre
ovrig
ovriga
ovrigt
ow
owen
ox
oxen
oxford
oxy
oy
oz
ozero
p1
p3
pa
paa
pabeg
pabegynt
pablo
pabor
paborjade
paborjades
pac
pach
pachy
pachyc
pacif
pacific
pack
pad
padd
pafagel
pafagelsspinnare
pafallende
paføl
pafølgende
pag
pagaende
pagar
page
pagick
pah
pahar
paijan
paijanne
pak
paket
pakist
pakistan
pakt
paktika
pal
pala
palace
palae
palasset
palats
palatset
pale
palest
palestina
palindi
palit
pall
pallid
pallida
palm
palma
palmas
palme
palmer
palo
palp
pals
palsen
pam
paminner
pamp
pampa
pan
panama
pand
pandanus
panel
pang
pann
panor
pans
pansar
pansarskoldloss
panser
pant
panzer
pap
papa
pape
papir
papp
pappa
papper
papua
papyrus
par
para
parac
parad
paradis
paradox
paraf
parag
paragu
paraguay
paral
parall
paralla
parallax
parallell
parallellt
parallelt
paraly
paralymp
paralympiske
param
paran
parana
parap
parar
paras
parasit
parasitflugor
parat
parc
pard
pare
parent
parentes
paret
pargas
paris
parish
park
parken
parker
parkering
parl
parlam
parlament
parlamentar
parlamentet
parma
parmel
parmeliaceae
parod
parodi
parque
parsek
parsons
part
parten
parter
parti
partiene
partier
partierna
partiet
partiets
partik
partiklar
partil
partiled
partiledare
partip
partis
partner
party
parv
pas
pasc
pasi
pasienten
pasienter
pasir
pask
paso
pass
passa
passager
passagerare
passar
passasjer
passasjerer
passe
passer
passerade
passerar
passerer
passerte
passet
passion
passionsblom
past
pasta
pastod
pastor
pastorat
pastoratet
pat
patag
paten
patent
pater
patient
patienter
patraff
patraffats
patri
patriark
patrick
patrik
patron
patrul
patt
pattedyr
pauc
paul
paula
pauli
paulo
paulus
paus
pause
pav
pave
pavel
paven
paverk
paverka
paverkade
paverkan
paverkar
paverkas
pavir
pavirk
pavirket
pavirkning
pavist
pax
pay
pays
paz
pc
pe
peace
peak
peaks
pear
pearl
pec
pecina
peck
pect
ped
pedagog
peder
pedersen
pedro
peer
peg
pehr
pek
pekar
peker
peking
pel
pell
pelle
pelopon
peloponnes
pels
pelt
pem
pen
pena
pend
pendelt
peng
pengar
pengene
penger
penic
penins
peninsula
penn
penning
pennsyl
pennsylvania
pens
pension
pensioner
pensjon
pent
people
pep
peper
peperomia
peppar
pepparvaxtart
pepparvaxter
per
percy
perd
perdita
pere
pereval
perez
perfe
perfekt
perfor
performan
peric
perifer
periferie
periferieininga
period
periode
perioden
perioder
periodisk
periodiskt
perkins
perm
perman
permanent
pern
perry
pers
perse
persia
persisk
persiska
persiske
person
personal
personar
personell
personen
personene
personer
personlig
personliga
personlige
personlighet
perspektiv
persson
perth
peru
pes
pest
pet
pete
peter
peters
petersburg
petersen
peterson
petit
petri
petro
petrole
petroleum
petrov
petrus
petter
pettersson
pf
pfalz
pga
ph
pha
phae
phal
phaonia
phas
pheid
phil
philadelphia
philip
philipp
philippe
phillips
philos
phnom
phnum
phoen
phoenix
phor
phot
phou
phyl
phyll
phylla
phyllach
phyllachora
phyllanthus
phyllophaga
phys
phyt
phytose
phytoseiidae
pi
pia
pian
pianist
piano
piaui
pic
pich
pick
pico
pict
pictures
pie
pied
piedra
piel
piemonte
pier
pierre
piet
pieter
pietro
pig
pigg
pik
pike
pil
pile
pileg
pilg
pilgrim
pilot
pim
pin
pine
ping
pink
pinn
pinyin
pion
pioner
pionjar
pip
piper
pir
pira
pirat
pis
pist
pistol
pit
pite
pitea
pitt
pittsburg
pittsburgh
pius
pix
piz
pizzo
pjas
pjasen
pjaser
pl
pla
plac
place
placerad
placerade
placerades
placeras
placering
plag
plagi
plan
planen
planene
planer
planerad
planerade
planerades
planerat
planerna
planet
planeten
planeter
planla
planlagt
planlegging
plant
plante
planten
planter
plass
plassen
plasser
plassering
plassert
plasserte
plast
plat
plata
plate
platen
plater
platesel
plateselskap
plateselskapet
platina
platon
plats
platsen
platser
platt
plattbuk
plattbuksspindlar
plattform
plattformen
plattmaskart
platy
platyc
platyp
play
playa
playoff
playst
playstation
ple
plebe
plect
pleur
pli
plikt
plock
plots
plotsligt
plum
plund
plur
plus
pluss
plut
pluts
plutselig
plynd
po
poang
poc
pod
podgor
podgorica
poec
poecil
poem
poeng
poesi
poet
poeten
pog
poh
point
pointe
poj
pojk
pojkar
pojke
pok
pokemon
pol
polar
pole
polen
polens
police
polis
polisen
polit
politi
politiet
politik
politikar
politiken
politiker
politikere
politikk
politikken
politim
politischer
politisk
politiska
politiske
politiskt
polk
pollen
polsk
polska
polske
poly
polyc
polyg
polym
polyn
polyp
polypod
polyst
pom
pommern
pomp
pompe
pon
pond
pong
pont
ponta
ponte
pool
pop
popp
popul
popular
populara
popularitet
populart
population
populationen
populationer
populær
populære
populært
por
porn
pors
porsche
porsgrunn
porslin
port
porta
portal
porte
porten
porter
portezuelo
portland
porto
portratt
portrett
portug
portugal
portugis
portugisisk
portugisiska
portugisiske
pos
posisjon
posisjonen
posit
position
positiv
positiva
positive
positivt
post
posten
poster
pot
potatis
potatisvaxtart
potatisvaxter
potens
potent
potok
potosi
potsdam
pott
potter
pou
poul
pour
pow
powell
power
poz
pr
pra
prad
pradesh
prag
praglades
praglas
praha
praks
praksis
prakt
praktfjarilar
praktiken
praktisk
praktiska
praktiske
praktiskt
prast
prasten
praster
prastvig
prastvigdes
prat
pre
precis
pred
predik
prefect
prefecture
prefekt
prefektur
prefekturen
preg
prega
preget
prel
prem
premiar
premiaren
premiarminister
premiarvisades
premier
premiere
prep
prepar
pres
present
presenter
presenterade
presenterades
presentert
presenterte
presid
president
presidenten
presidentvalet
presidentvalget
presley
press
presse
pressen
presset
prest
preste
presteg
prestegjeld
presten
prester
preston
pret
preuss
preussen
preussiska
prev
pri
price
prim
prima
primar
primara
primær
primært
prin
princ
prince
princi
princip
principen
principer
prins
prinsen
prinsessan
prinsesse
prinsipp
prinsippet
prion
prior
priori
pris
prisbel
prisen
priser
priset
prist
pristina
prisvinn
priv
privat
privata
private
privatliv
privatpersoner
privileg
privilegier
prix
pro
prob
problem
problemer
problemet
proc
procent
proces
process
processen
processer
prod
produ
produc
producent
producenten
producer
producera
producerad
producerade
producerades
producerar
produceras
producerat
product
produksjon
produksjonen
produksjonskapasitet
produkt
produkten
produkter
produktion
produktionen
produktioner
produktiv
produs
produsent
produsenten
produsere
produserer
produseres
produsert
produserte
prof
profesjon
profesjonell
profesjonelle
profess
profession
professionell
professionella
professor
profet
profeten
proff
profil
prog
program
programledare
programleder
programmer
programmering
programmet
programvare
progres
progress
progressiv
proje
project
projekt
projektet
prol
prom
promen
pron
pronomen
pronotum
prop
propag
propaganda
proport
pros
prosa
prosent
prosess
prosessen
prosesser
prosjekt
prosjekter
prosjektet
prost
prosti
prot
prote
proteaceae
protein
proteiner
protest
protestant
protestantiske
protester
protokoll
proton
prototyp
prout
prov
proven
provence
provfiske
providen
provin
province
provincia
provincial
provins
provinsen
provinsene
provinser
provinserna
provinshuvudstaden
provinsi
provisor
pry
pryd
prøv
prøvde
prøve
prøver
prøy
prøyss
prøyssiske
ps
psal
psalm
psalmer
psam
pse
pseud
pseudo
pseudoc
pseudom
pseudony
pseudonym
pseudonymen
pseudop
pseudos
psil
psy
psych
psychotria
psyk
psykedel
psykiat
psykisk
psyko
psykolog
psykologi
psykologisk
pt
pter
pterolophia
ptol
ptolema
ptolemaios
pty
pu
pub
publi
public
publicer
publicerad
publicerade
publicerades
publicerat
publik
publiken
publikum
publisert
publiserte
puc
puck
puckel
puckeldans
puckeldansflugor
puckelflugor
pud
pue
puebla
pueblo
puerto
pug
pul
pula
pulau
pulch
pulver
pum
pump
pun
punct
pund
pung
punjab
punk
punkt
punkten
punkter
punktert
punktet
punt
punta
pup
pupp
puppglanssteklar
pur
purp
purple
purpur
pus
push
pushtah
puss
put
py
pyc
pycn
pyeong
pyeongchang
pyg
pygm
pyong
pyongyang
pyr
pyra
pyram
pyramid
pyrene
pyth
qa
qaasu
qaasuitsup
qad
qafa
qal
qala
qar
qarah
qarat
qark
qarku
qas
qatar
qaz
qe
qi
qim
qimmat
qin
qing
qol
qolleh
qornet
qu
quad
quart
quarter
que
queb
quebec
quebrada
queen
queens
queensland
quer
quercus
quin
quint
quis
quito
ra
raa
rab
rabat
rac
race
racer
racing
rack
rackte
rad
radar
radd
radda
radde
raddnings
raden
rader
radet
radgivare
radgiver
radhus
radhuset
radi
radie
radik
radikal
radikale
radikalt
radio
radiop
radios
radiost
radsomradet
raf
rafael
raff
rag
ragn
ragnar
ragnhild
rah
raid
rail
railway
rain
raj
rak
raka
raket
rakett
raknades
raknar
raknas
rakning
rakt
ral
rall
rally
ralph
ram
ramen
ramme
rammet
ramon
ramp
ran
rana
rancho
rand
rang
range
ranger
rangers
rangert
rank
ranking
rann
rant
ranun
ranunculus
ranunkel
ranunkelvaxtart
ranunkelvaxter
rap
rapides
rapids
rapp
rapport
rapporten
rapporter
rapporterade
rapportert
rapporterte
rar
ras
rase
raseborg
rasen
raser
rash
rasjon
rask
raske
raskere
raskt
rasmus
rasmussen
rast
rat
rath
ration
ratt
ratta
ratte
rattegang
rattegangen
ratten
rattigheter
rattigheterna
raud
raude
rav
raven
ravin
raw
ray
raymond
rayon
rayonu
raz
rca
re
read
reag
reager
reaksjon
reakt
reaktion
reaktioner
real
reb
rec
recens
recensioner
recept
record
records
red
reda
redaksjon
redakt
redaktion
redaktor
redaktør
redan
redd
redde
reddet
reder
rederiet
redig
rednings
redovis
redskap
reduc
reducer
redus
redusere
redusert
reduserte
reed
ref
refer
referanse
referanser
referens
referenser
referere
refererer
referert
refle
reflekter
reform
reformasjonen
reformationen
reformer
reg
regel
regelb
regelbundet
regelmessig
regement
regemente
regementet
regent
reger
regerade
regerande
regering
regeringen
regeringens
regerings
regeringstid
regg
regi
regierung
regierungsbe
regierungsbezirk
regim
regiment
regimet
region
regional
regionala
regionale
regionalt
regionen
regionens
regioner
regionhuvudstaden
regis
regiss
regisser
regisserad
regisserade
regisserades
regissert
regissor
regissoren
regissør
regist
register
registrer
registrerade
registrering
registrert
registrerte
regjer
regjerende
regjering
regjeringa
regjeringen
regjeringens
regjerings
regjeringstid
reglene
regler
reglerna
regn
regne
regner
regnes
regnet
regnigaste
regnskog
regnskogsklimat
regul
reguler
regulering
regulert
reh
rehabil
rehn
reich
reichenbach
reid
rein
reinhard
reinhold
reis
reise
reisen
reiser
reist
reiste
rek
reka
rekke
rekkeføl
rekkje
reklam
reklame
rekna
reknar
rekommen
rekonst
rekonstru
rekord
rekorden
rekorder
rekordet
rekre
rekru
rekrutt
rekrutter
rekt
rektang
rektangul
rektor
rel
relater
relation
relationer
relativ
relativt
rele
relie
relig
religi
religion
religionen
religioner
religios
religiosa
religiøs
religiøse
rem
remix
ren
rena
renass
renault
rend
rene
reness
reng
renn
renner
renover
renovering
rens
rent
rep
repar
repert
repet
report
reporter
repres
represent
representant
representanten
representanter
representation
representer
representera
representerad
representerade
representerar
representerat
representere
representerer
representert
representerte
reproducer
reproducerande
republi
republik
republika
republikan
republikansk
republikanske
republiken
republikk
republikken
res
resa
resan
rese
research
reser
reserv
reservat
reservatet
reserve
reserver
reservo
reservoar
reservoir
residens
resol
resolusjon
reson
resor
resp
respe
respekt
respektive
respons
ress
ressurser
rest
restaur
restaurang
restauranger
restaurant
restaurering
restaurert
reste
resten
rester
resterande
resterende
restes
restri
resul
result
resultat
resultaten
resultatene
resultater
resultatet
resulterade
resulterte
resurser
ret
retning
retor
rett
rette
retten
rettet
rettferd
rettigheter
rettss
retur
return
returner
returnerte
reuter
rev
rever
revet
revid
revir
revis
revisjon
revol
revolusjon
revolusjonen
revolusjonære
revolution
revolutionen
revs
revy
rex
rey
reykj
reykjavik
reyn
reynolds
rh
rhabd
rhamph
rhamphomyia
rhaph
rhe
rhein
rheinland
rhen
rhin
rhinen
rhiz
rho
rhod
rhodes
rhododendron
rhone
rhopal
rhy
rhyac
rhyacophila
rhynch
rhyt
ri
ria
riacho
riau
rib
ribe
ribeira
ribeirao
ric
rica
ricardo
rice
rich
richard
richards
richardson
richmond
richter
rick
rico
rid
ridd
riddar
riddare
ridder
ridge
ridley
rif
rig
riga
right
rij
rik
rika
rikard
rike
riket
rikets
riks
riksantik
riksd
riksdag
riksdagen
riksdagens
riksdagsledamot
riksdagsman
riksdaler
riksdelen
riksrad
riksradet
riksvag
riksveg
riksvei
rikt
riktade
riktig
riktiga
riktigt
riktning
rim
rin
rincon
ring
ringa
ringen
ringer
ringerike
ringmaskart
rinner
rio
riod
riodinidae
rios
rip
ris
risiko
risk
risken
rist
rit
rita
ritad
ritade
ritades
ritningar
ritt
rittet
ritu
riv
rival
river
rivers
riviere
riz
ro
road
rob
rober
robert
roberto
roberts
robertson
robin
robinson
robot
robust
robusta
roc
roch
roche
rock
rockeb
rockebandet
rocks
rocky
rod
roda
roddare
rodlistan
rodrig
rodriguez
roe
roer
rog
rogaland
roger
rogers
roh
rok
rol
roland
rolf
roll
rolle
rollen
roller
rollerna
rolling
rom
roma
roman
romanen
romaner
romania
romansk
romant
romantisk
romarna
romarriket
romart
romeo
romer
romerne
romerriket
romersk
romerska
romerske
rommet
romsdal
ron
ronald
rond
ronn
ronneby
ront
roos
roosevelt
rop
ror
rora
rorande
rorde
rorelse
rorelsen
rorelser
ros
rosa
rose
rosen
rosenborg
roskilde
ross
rossi
rost
rosta
rostade
roster
rosterna
rostock
rostratt
rosvaxtart
rosvaxter
rot
rotation
roten
roter
roth
rothschild
rott
rotten
rotter
rotterdam
rotund
rou
rouge
round
rov
rovdyr
rover
rovflugor
row
rox
roy
royal
rt
ru
rub
rubus
rud
rudolf
rudolph
rue
ruf
rug
rugby
ruin
ruiner
ruisseau
ruiz
rul
rull
rulle
rum
rumanien
rummet
run
rund
runda
rundan
runde
rundede
runden
rundene
rundet
rundmaskart
rundt
rune
runsten
runt
rup
rupert
rur
rus
rush
russ
russell
russisk
russiske
russland
rust
rut
ruta
rute
rutelidae
ruten
ruter
ruth
ruv
rw
ry
ryan
ryd
rygg
ryggen
ryggrad
rykket
rykte
rym
rymd
rymden
rymmer
ryong
rysk
ryska
ryss
ryssarna
ryssland
rysslands
ryt
rytm
rytt
ryttare
rytter
rø
rød
røde
rødt
røk
røn
rør
røros
røtter
røy
sa
saab
saar
sab
sabot
sac
sacc
sach
sachs
sachsen
sack
sad
sadan
sadana
sadant
sadd
sade
sades
saf
saff
sag
saga
sagan
sagas
sager
sags
sagt
saguenay
sah
sahara
sahl
said
saint
sainte
sak
sakalla
sakalt
sakalte
saken
saker
sakerhet
sakert
saknade
saknar
saknas
sakra
sakrist
sakristia
saks
sakte
sal
sala
salam
salda
salde
saldes
sale
saledes
salen
salg
salja
saljer
saljs
sall
sallan
sallskap
sallskapet
sallsyn
sallsynt
sallsynta
salmeb
salomon
salong
salt
salto
salunda
salv
salvador
salzburg
sam
saman
samanheng
samarbeid
samarbeide
samarbeidet
samarbet
samarbetade
samarbete
samarbetet
samband
sambandet
sambo
same
samet
samf
samferd
samferdsel
samfund
samfundet
samfunn
samfunnet
samhall
samhalle
samhallen
samhallet
samhalls
samisk
samiska
samiske
samla
samlade
samlades
samlar
samlas
samle
samlede
samler
samlet
samling
samlingar
samlingen
samlinger
samlings
samlingsalbum
samlingsut
samlingsutstallningar
samm
samma
samman
sammanfatt
sammanhang
sammanhangande
sammanlagt
sammansattning
sammanslag
sammanslagning
sammant
samme
sammen
sammenhen
sammenheng
sammenhengende
sammenhenger
sammenlagt
sammenlig
sammenlignet
sammens
sammensatt
sammensla
sammenslaing
samord
samp
samre
samst
samstundes
samsvar
samt
samtal
samtid
samtida
samtiden
samtidig
samtidige
samtidigt
samtliga
samtlige
samuel
san
sanchez
sanct
sand
sanda
sandberg
sanddyn
sande
sandefjord
sandeltrad
sander
sandes
sandnes
sandor
sands
sandvik
sandy
sang
sangare
sangaren
sangen
sangene
sanger
sangerska
sangerskan
sank
sanka
sankmarker
sankt
sann
sanna
sanne
sannol
sannolik
sannolikt
sannsyn
sannsynlig
sannsynligvis
sans
sanskrit
sant
santa
santander
santi
santiago
santo
santos
sao
saone
sap
sapp
sapporo
saq
sar
sara
sarab
sarah
sarajevo
sarbar
sarc
sarcophaga
sard
sardinia
saret
sari
sark
sarp
sarpsborg
sars
sarsk
sarskild
sarskilda
sarskilt
sart
sas
saskat
saskatchewan
sasom
sasong
sasongen
sasongens
sasonger
sasongerna
sat
satak
satakunta
satan
sate
satelli
satellit
satellitt
sater
sateri
satiri
sats
satsa
satt
satta
satte
satter
sattes
sattet
satts
satur
saturn
sau
saud
saudi
saudiarab
sauer
saur
sauss
saussure
saut
sav
saval
savann
savannklimat
savannskog
save
savel
savo
savolax
saw
sax
say
sc
scab
scand
scandinav
scap
scapt
scar
scarab
scarabae
scarabaeoidea
scb
scel
scelionidae
scen
scene
scenen
scener
sch
scha
schack
schaus
sche
scheff
schen
schist
schiz
schle
schlechter
schles
schlesien
schleswig
schloss
schmid
schmidt
schne
schneider
schon
school
schroder
schul
schult
schuma
schumacher
schumann
schw
schwar
schwarz
schwe
schweiz
schweizisk
schweiziska
schwer
sci
scien
science
sciences
scient
scler
scol
scop
scopula
scor
scoret
scot
scotia
scott
scout
scut
sd
se
sea
sean
seat
seattle
seb
sebast
sebastian
sec
seccion
second
secret
secur
sed
sedan
seder
sedermera
sediment
see
sees
sefid
seg
segel
seger
segern
segl
segment
segrade
segrar
seh
seie
seier
seieren
seil
seilte
sein
seinare
seine
seinere
seint
seire
sek
sekel
sekelskiftet
sekret
sekreterare
sekretær
seks
seksjon
sektion
sektor
sekund
sekundar
sekunder
sekvens
sel
selatan
seld
selde
sele
selen
selge
selskap
selskaper
selskapet
selskapets
selv
selvbi
selve
selvmord
selvstend
selvstendig
selvstendige
selvstendighet
sem
semester
semi
semif
semifin
semifinal
semifinale
semifinalen
semifinaler
semin
semiothisa
semnan
sen
sena
senare
senast
senaste
senat
senaten
senatet
senator
send
sende
sender
sendes
sendt
sendte
sene
senegal
senere
seng
seni
senior
senket
sens
sent
senter
senteret
senterpartiet
sentr
sentral
sentralb
sentrale
sentralt
sentrum
seoul
sep
separ
separat
separata
separate
sept
septem
september
ser
serb
serbia
serbien
serbisk
serbiska
seremoni
serg
serge
sergej
seri
serie
seriem
serien
seriens
serier
serierna
serierunde
series
seriet
serp
serra
sert
serv
server
servic
service
ses
sesong
sesongen
sesonger
sess
set
sete
seter
sett
sette
setter
settes
sev
seven
sever
sevilla
sex
sexton
sexuella
seych
sf
sg
sh
sha
shaan
shaanxi
shack
shad
shah
shak
shakes
shakespe
shakespeare
shakespeares
shakh
shal
sham
shan
shand
shandong
shang
shanghai
shannon
shar
sharp
shaw
shay
she
sheffield
shek
shekasteh
shel
shelah
shen
sher
shet
shetlands
shi
shim
shin
ship
shir
shire
shl
sho
short
show
shu
shuiku
shur
si
siah
sib
sibir
sibiri
sibirien
sic
sich
sichuan
sicilia
sicilien
sick
sid
sida
sidan
side
sideel
sideelv
sidek
siden
sidene
sider
sidi
sidney
sidor
sidorna
sie
sieg
siem
sier
sierra
sies
sif
siff
siffror
sig
siger
sigfrid
sigism
sigismund
sign
signal
signaler
signatur
signe
signer
signert
signerte
sigrid
sigurd
sik
sikker
sikkerhet
sikkert
sikre
sikret
sikt
sikte
sil
silke
sill
silv
silva
silver
silvermedaljor
silvest
sim
similis
simon
simp
simplex
simpson
simpsons
simulium
sin
sina
sind
sine
sing
singap
singapore
singel
singelen
singelli
singellista
singellistan
singeln
singer
singh
singlar
single
singler
singles
sinn
sint
sio
sion
sip
sir
siri
sirius
sirk
sirkel
sis
sist
sista
sistan
siste
sister
sistnamnda
sistnevnte
sit
sitt
sitta
sittande
sittende
sitter
situ
situasjon
situasjonen
situation
situationen
siv
sivil
sivile
sivilis
six
siyah
sj
sja
sjakk
sjal
sjalv
sjalva
sjalvbi
sjalvmord
sjalvstand
sjalvstandig
sjalvstandiga
sjalvstandighet
sjalvstandigt
sjang
sjanger
sjangeren
sjatte
sjef
sjel
sjeld
sjeldan
sjelden
sjeldne
sjette
sjetteplass
sjo
sjoar
sjoarna
sjofart
sjog
sjok
sjom
sjoman
sjon
sjong
sjonk
sjons
sjoprocent
sjopung
sjopungsart
sjor
sjos
sjost
sjostjarneart
sju
sjuende
sjuk
sjukdom
sjukdomar
sjukdomen
sjukhus
sjukhuset
sjukvard
sjun
sjunde
sjung
sjunga
sjunger
sjæl
sjø
sjøen
sjøl
sjølv
sjølve
sjøm
sjøs
sk
ska
skad
skada
skadade
skadades
skade
skader
skades
skadespel
skadespelare
skadespelaren
skadespeler
skadespelerska
skadet
skador
skaff
skaffa
skaffe
skaffet
skal
skala
skalb
skalbagg
skalbaggar
skalbaggsart
skald
skall
skam
skan
skand
skandinav
skandinavia
skandinavien
skandinaviska
skandinaviske
skane
skanes
skansen
skanska
skap
skapa
skapad
skapade
skapades
skapar
skapas
skapat
skape
skaper
skapt
skapte
skar
skara
skarab
skarabider
skaraborgs
skaret
skargard
skargardshavet
skarp
skarpt
skat
skatt
skatte
skatter
ske
sked
skedde
skel
skelle
skelleftea
sken
skenbar
skepp
skeppet
skept
sker
skett
ski
skick
skicka
skickade
skickades
skickas
skicklig
skid
skien
skift
skifte
skiftet
skihopp
skik
skikk
skil
skild
skilda
skilde
skildra
skildrar
skildring
skilja
skiljer
skill
skille
skiller
skilles
skillnad
skillnaden
skillnader
skilsm
skilt
skilte
skin
skinn
skip
skipa
skipene
skipet
skis
skisk
skiskyting
skiv
skiva
skivan
skivbolag
skivbolaget
skivor
skj
skje
skjeb
skjedd
skjedde
skjel
skjell
skjer
skjold
skjul
skjult
skjut
skjuta
skjær
skjønn
skjønt
skjøt
sko
skodespel
skog
skogar
skogen
skogs
skol
skola
skolan
skolans
skold
skoldlussteklar
skole
skolek
skolen
skolens
skoler
skolor
skom
skon
skonhet
skop
skopje
skor
skord
skorp
skot
skots
skotsk
skotska
skotske
skott
skottland
skov
skovde
skr
skra
skrack
skram
skran
skre
skreiv
skrev
skrevet
skrevs
skri
skrib
skribent
skrid
skrift
skriften
skrifter
skriv
skriva
skrivas
skrive
skriven
skriver
skrives
skrivet
skrivit
skrivna
skrivs
skrog
skrot
skru
sku
skudd
skuespill
skuespiller
skuespillere
skuespilleren
skug
skul
skuld
skulder
skule
skulen
skull
skulle
skulpt
skulptor
skulptur
skulpturen
skulpturer
skum
skur
skutt
skvadron
sky
skydd
skydda
skyddade
skyl
skyld
skyldes
skyldig
skylt
skym
skyt
skyte
skyting
skytt
skytter
skøy
skøytel
skøyteløper
skøyter
sl
sla
slag
slaget
slagit
slags
slakt
slakte
slakten
slaktet
slakting
slaktingar
slaktskap
slalam
slam
slang
slank
slanke
slapp
slappa
slappt
slappte
slapptes
slar
slas
slass
slat
slatt
slav
slavar
slave
slaver
sle
slekt
slekta
slekten
slektene
slekter
slem
slesvig
slet
slett
sli
slide
slik
slike
slikt
slim
slip
slipp
slit
slo
slog
slogs
slojd
slot
slott
slottet
slotts
slov
slovak
slovakia
slovakien
sloven
slovenia
slovenien
slump
sluppet
slut
sluta
slutade
slutar
slutet
slutgilt
slutligen
slutspel
slutspelet
slutt
slutta
sluttar
slutte
slutten
sluttet
sluttspillet
sm
sma
smab
smaharkrankar
smak
smakackerlackor
smal
smala
smaland
smalands
smalare
smalb
smale
small
smalt
sman
smaningom
smaort
smar
smart
smarta
smed
smek
smeknamnet
smelte
smer
smhi
smil
smith
smitt
smor
smorbult
smy
smør
sn
sna
snabb
snabba
snabbare
snabbt
snack
snackart
snackor
snak
snakke
snakker
snakket
snar
snarare
snart
sne
snick
snitt
sno
snokar
snor
snorre
snow
snur
snylt
snyltrots
snyltrotsvaxtart
snyltrotsvaxter
snø
so
sob
soc
soci
social
sociala
socialdemokrat
socialdemokraterna
socialdemokratiska
socialistiska
socialt
societ
society
sock
socken
sockenhuvudort
sockenkyrkan
socker
socknar
socknen
socknens
sod
soder
soderberg
sodermalm
sodermanland
sodermanlands
sodertalje
soderut
sodra
sof
sofia
sofla
soft
sog
soga
sogn
sogndal
sogne
sogneprest
sok
soka
soker
sokn
sokne
sokte
sol
sola
solanum
solberg
sold
soldat
soldatar
soldatene
soldater
soldaterna
solen
solens
solgt
solgte
solid
solidar
solist
soll
solle
solleftea
solna
solo
soloalbum
soloartist
solokar
solsystemet
som
somal
somalia
somers
somerset
sommar
sommaren
sommarspelen
sommart
sommartid
somme
sommer
sommeren
sommerfug
sommerfugl
sommerfuglene
sommerfugler
son
sond
sondag
sonder
sone
sonen
soner
song
songane
songar
songen
songs
sonja
sonson
sony
sop
soph
sophia
sophie
sopp
sopran
sor
sord
sordari
sordariomycetes
soren
sorenskriver
sorg
sorgmyggor
sork
sorkh
sort
sorte
sorter
sorters
sorts
sos
sosi
sosial
sosialdemokrat
sosiale
sosialistisk
sosialistiske
sosialt
sot
sotsji
sou
soul
sound
soundtra
sour
sous
souss
south
souther
southern
sov
sover
sovj
sovjet
sovjetisk
sovjetiska
sovjetiske
sovjetun
sovjetunionen
sovjetunionens
sp
spa
space
spad
span
spania
spanien
spaniens
spann
spansk
spanska
spanske
spar
spara
spare
sparebank
sparen
sparet
spark
sparken
sparre
sparris
sparrisvaxtart
sparrisvaxter
spart
sparta
sparvag
spat
spd
spe
spec
special
speciell
speciella
speciellt
specif
specifik
specifika
specifikt
speed
speg
spek
spekt
spektak
spektral
spektralklass
spektrum
spel
spela
spelad
spelade
spelades
spelar
spelare
spelaren
spelarna
spelas
spelat
spelats
spele
spelen
spelet
spelets
spellemann
spellemannprisen
spelt
spelte
spen
spencer
spenn
spenning
sper
sperm
spes
spesi
spesial
spesialiserer
spesialiserte
spesiell
spesielle
spesielt
spesif
spesifik
spet
spets
spetsen
sph
sphaer
spi
spik
spil
spill
spille
spiller
spillere
spilleren
spillerne
spilles
spillet
spilosoma
spilt
spilte
spin
spind
spindelart
spindeldjursart
spindlar
spinn
spion
spir
spiral
spirit
spirost
spis
spise
spiser
spiss
spissen
spits
spitsbergen
spjut
splend
spli
split
splitt
splittrades
spok
spons
spont
spor
sporad
sporet
sporr
sporsack
sporsacksvampar
sport
sporten
sporter
sports
sportsutøver
sportsutøvere
spott
spottstritar
spr
spra
sprak
spraka
spraken
sprakene
spraket
sprang
spre
spred
spreds
spredt
spredte
spreng
sprid
sprida
spridda
spridning
sprin
spring
springer
springfield
springs
sprint
sprinten
sprit
spur
spurt
spy
spyd
spør
spørsmal
spørsmalet
squ
squam
square
sr
sri
srp
srpska
ss
ssr
st
sta
stab
stabil
stabilitet
stack
stad
staden
stadens
stader
staderna
stadiet
stadig
stadion
stadionet
stadium
stads
stadsb
stadsdel
stadsdelen
stadsegron
stadsfull
stadsfullmaktige
stadsplan
stadsteater
staende
staf
stafett
stafetten
staff
staffan
stag
stal
stalin
stall
stalla
stallde
stalldes
stalle
stallen
staller
stallet
stallforet
stallning
stam
stammar
stamme
stammen
stammer
stamp
stan
stand
standard
standarden
standigt
standley
standpunkt
stang
stangdes
stanis
stanley
stann
stanna
stannade
stannar
stap
stapp
stappklimat
star
stark
starka
starkare
starkt
starr
starrar
stars
start
starta
startade
startades
startar
starte
starten
starter
startet
stasjon
stasjonen
stasjonert
stat
state
staten
statene
statens
stater
staterna
states
station
stationen
stationer
statist
statistik
statistikk
statistisk
statistiska
statlig
statliga
statlige
statligt
stats
statsborger
statsk
statskupp
statsminister
statsministeren
statsrad
statssekretær
statt
status
staty
staud
staudinger
stav
stavanger
ste
sted
stede
steder
stedet
steel
steen
stef
stefan
steg
steget
steiermark
stein
steinar
steinen
steiner
steinkjer
stekel
stekelart
steklar
stelis
stell
stem
stemme
stemmene
stemmer
stemmerett
stemte
sten
stenaldern
stenar
stenbock
stenen
steng
stengt
stens
steph
stephan
stephen
ster
stere
sterk
sterke
sterkere
sterkt
stern
stev
steve
steven
stevens
stewart
steyer
sti
stich
stick
stickmyggor
stict
stift
stifta
stiftelse
stiftelsen
stiftet
stig
stiger
stik
stikk
stil
stilen
still
stilla
stille
stilleben
stillehavet
stiller
stilling
stillingen
stillinger
stilt
stilte
stim
stimuler
stip
stipend
stipendium
stir
stj
stjal
stjarn
stjarna
stjarnan
stjarnans
stjarnbilden
stjarnor
stjarnorna
stjart
stjer
stjerne
stjernen
stjerner
stjør
stjørdal
sto
stock
stockholm
stockholms
stod
stodde
stodja
stoff
stoffer
stoffet
stok
stol
stolt
stone
stones
stop
stopp
stoppa
stoppe
stoppet
stor
stora
storb
storbritann
storbritannia
storbritannias
storbritannien
storbritanniens
storby
stord
store
stores
storharkrankar
storhert
storhet
storhetstid
storleik
storlek
storleken
storm
stormakt
stormen
storre
storsl
storslalam
storst
storsta
storstad
storstadsomrade
storstadsomradet
stort
storting
stortinget
stortingets
stortings
stortingsmann
stortingsrepresentant
story
stott
str
stra
stracka
strackan
stracker
strackning
strackte
straff
straffe
straffet
straks
stral
straling
stralning
stram
strand
stranda
stranden
strandlinjen
strang
strangnas
strat
strateg
strategi
strategisk
strategiske
straum
strauss
strav
stravbladig
stravbladiga
strax
stre
streck
stred
street
strekk
strekker
strekkjer
strekning
strekningen
stren
streng
strenge
stress
stri
strid
striden
strider
striderna
strids
stridsv
stridsvagn
strig
strikt
strim
strind
strindberg
stro
strom
stromsunds
strong
stru
struktur
strukturen
strukturer
stry
strøk
strøm
strømmen
stu
stuart
stub
stud
student
studente
studenten
studenter
studentexamen
studer
studera
studerad
studerade
studerat
studere
studert
studerte
studi
studie
studien
studiene
studier
studieresor
studierna
studies
studiet
studio
studioalbum
studioalbumet
studiomus
studion
studios
stum
stump
stumpbaggar
stund
stundom
stup
stupade
stur
sture
stutt
stuttgart
sty
stycken
stykke
stykker
stykket
styl
stylt
styltflugor
styltmalar
styr
styra
styrde
styre
styreleder
styrels
styrelse
styrelseledamot
styrelsen
styrelseordforande
styremedlem
styrer
styres
styresmaktene
styret
styring
styrk
styrka
styrke
styrken
styrkene
styrker
styrket
styrkor
styrkorna
styrman
styrs
styrt
styrte
styv
stø
stør
størr
større
størrelse
størrelsen
størst
største
støtt
støtta
støtte
støtter
støttet
støv
støy
su
sub
substan
substant
substantiv
subt
subtrop
subtropiskt
suc
succe
success
successivt
sucre
sud
sudan
sudbury
sue
suf
suff
suffolk
sug
sugar
suk
sukker
suks
suksess
suksessen
sul
sula
sulawesi
sulli
sullivan
sult
sultan
sultanen
sum
sumak
sumatera
sumatra
summa
summer
sump
sumpmark
sun
sund
sundby
sunde
sundet
sundsvall
sundsvalls
sung
sunn
sunnmøre
sup
super
superettan
supp
supple
suppleant
support
supporter
sur
sura
surkh
surre
survey
sus
susan
sussex
sut
sutt
suv
suva
suver
suz
sv
sva
svag
svaga
svager
svagt
svak
svake
svakt
sval
svalb
svalbard
svalt
svamp
svampar
svampart
svampdjursart
svampmyggor
svan
svang
svans
svansen
svar
svara
svarade
svarar
svarare
svard
svarigheter
svarmare
svart
svarta
svarte
svartehavet
svav
svavflugor
sve
svea
sved
svein
sveits
sveitsisk
sveitsiske
svek
svekket
sven
svend
svensk
svenska
svenskar
svenskarna
svenske
svenskene
svenskt
svensktoppen
svensson
sver
sverd
sverig
sverige
sveriges
sverre
svid
svidknott
sviger
svin
sving
svt
svært
svøm
svømmer
svømming
sw
swamp
swan
swart
swe
swed
sweden
swedish
sweet
swin
swing
sy
syd
sydaf
sydafrik
sydafrika
sydamerika
sydkorea
sydlig
sydligaste
sydney
sydost
sydostra
syds
sydshet
sydshetlandsoarna
sydvast
sydvastra
syft
syfta
syftar
syfte
syftet
syk
sykdom
sykdommen
sykdommer
syke
sykehus
sykehuset
sykeple
sykkel
sykl
syl
sylin
sylind
sylv
sym
symbol
symboler
symfon
symfoni
symfoniorkester
symmet
symp
symph
sympt
symptom
symptomer
symtom
syn
synd
syndrom
syne
syner
synes
synet
syng
synge
synger
synkron
synlig
synliga
synlige
synner
synnerhet
synonym
syns
syntes
syntet
syr
syre
syri
syria
syrien
syrsor
syskon
syss
syssels
system
systemat
systematik
systematikken
systematisk
systemer
systemet
systems
syster
systrar
syv
syvende
syz
syzygium
sz
sæ
sær
sære
særleg
særlig
særs
særskilt
sø
søk
søke
søker
søkte
sølv
sølvmedalje
søn
søndag
sønder
søndre
sønn
sønnen
sønner
sør
søra
søraf
sørafrik
søraust
sørensen
sørget
sørlege
sørlige
sørover
sørsida
sørsiden
sørvest
sørvestlige
sørøst
sørøstlige
søsken
søster
søy
ta
tab
tabanus
tabell
tabellen
taby
tac
tach
tack
tacka
tacker
tackt
tackvavarspindlar
tad
tafil
tafilalet
tag
tagen
taget
tagg
tagit
tagits
tah
tai
taip
taiwan
taj
tak
take
taket
takht
takket
takson
taksonom
taksonomi
takt
tal
tala
talade
talang
talar
talare
talas
talb
talbot
tale
talen
talent
taler
tales
talet
talets
tall
tallet
tallinn
tallrike
talman
tals
talt
talte
tam
tama
taman
tamanrasset
tamar
tamil
tamligen
tammer
tammerfors
tan
tana
tand
tander
tandspinnare
tanete
tang
tangen
tangent
tanger
tanjung
tank
tanka
tankar
tanke
tanken
tanker
tankt
tann
tant
tanz
tanzania
taoun
taounate
tap
tapet
tapp
tappeh
tapt
tapte
tar
tara
tari
tarm
tarn
tarnet
tart
tas
tasman
tasmanien
tat
tata
tatbebygg
tatbebyggt
tatbefolkad
tatbefolkat
tatort
tatorten
tatorter
tatt
tattingar
tau
taung
tav
tavast
tavastland
tavla
tavlade
tavlande
tavlar
tavling
tavlingar
tavlingarna
tavlingen
tax
taxon
taxonom
taylor
taza
tbil
tbilisi
tch
te
team
teamet
teat
teater
teateret
teatern
teatret
teb
tech
techn
technology
teck
tecken
tecknade
tecknare
teckning
teckningar
ted
teg
tegel
tegl
tegn
tegne
tegner
tegnes
tegneserie
tegnet
tegninger
tegucigalpa
teheran
teik
tek
teke
teken
tekn
tekne
teknik
tekniken
tekniker
teknikk
teknisk
tekniska
tekniske
tekniskt
teknolog
teknologi
tekst
teksten
tekstene
tekster
tekstil
tel
tele
telef
telefon
teleg
telegra
telegraf
telek
telemark
telen
teleskop
television
tell
teller
teluk
tem
tema
temaer
temaet
teman
temat
temisc
temiscaming
temiscamingue
temp
tempel
tempelet
temper
temperatur
temperaturen
temperaturer
tempererat
temple
templet
tempo
tempor
ten
tend
tendens
tene
teng
tengah
tenggara
teniet
tenkt
tenn
tenner
tennesse
tennessee
tennis
tenor
tens
tensift
tent
tenu
teodor
teolog
teologi
teologie
teologisk
teologiska
teologiske
teor
teoret
teoretisk
teori
teorien
teorier
teorin
tep
teph
ter
terara
terje
term
termen
termer
termin
terminal
terr
terra
terrang
terrangen
terreng
terrenget
territ
territor
territori
territorier
territories
territoriet
territoriets
territorium
territory
terror
terry
tes
tess
test
testa
testam
testament
testamente
testamentet
tester
testet
tet
tetouan
tetra
tetrag
tetran
tett
tette
tettstad
tettstaden
tettsted
tettstedet
tev
tex
texas
text
texten
texter
textil
th
tha
thailand
thal
tham
than
that
the
theater
theatre
thecla
thel
thelypter
them
theod
theodor
theodore
ther
there
therese
thess
thi
this
thom
thomas
thompson
thomson
thor
thorn
thra
three
thriller
thun
thunberg
thunder
thur
thuringen
thy
ti
tian
tiar
tiaret
tib
tibast
tiber
tibet
tic
tich
tid
tida
tide
tiden
tidene
tidens
tider
tiderna
tidig
tidiga
tidigare
tidigaste
tidigt
tidleg
tidlegare
tidlege
tidlig
tidlige
tidligere
tidligste
tidning
tidningar
tidningen
tidningens
tidnings
tidpunkt
tidpunkten
tids
tidskrift
tidskriften
tidskrifter
tidspunkt
tidspunktet
tidsskrift
tidsskriftet
tidvis
tiende
tier
tierra
tif
tig
tiger
tik
til
tilb
tilbak
tilbake
tilbaket
tilbrakte
tilbud
tilby
tilbyr
tilbød
tildel
tildeles
tildelt
tilf
tilfeldig
tilfelle
tilfeller
tilfellet
tilfred
tilfredsst
tilgang
tilgjeng
tilgjengelig
tilgjengelige
tilh
tilhen
tilhenger
tilhengere
tilhørende
tilhører
tilhørte
tilkn
tilknytning
tilknyttet
till
tillag
tillagg
tillamp
tillands
tillandsia
tillat
tillatelse
tillater
tillats
tillatt
tillb
tillbak
tillbaka
tillbring
tillbringade
tilldel
tilldelades
tillegg
tillfal
tillfalle
tillfallen
tillfallet
tillfalliga
tillfalligt
tillfang
tillfangat
tillfor
tillforord
tillforordnad
tillgang
tillganglig
tillgangliga
tillhor
tillhora
tillhorande
tillhorde
tillhorighet
tillhorigheten
tillhort
tillika
tillit
tillkann
tillkannag
tillkom
tillkomst
tillot
tillrackligt
tills
tillsam
tillsammans
tillstand
tillt
tilltal
tilltalsnamn
tilltradde
tillvaxt
tillverk
tillverka
tillverkad
tillverkade
tillverkades
tillverkar
tillverkare
tillverkas
tillverkning
tillverkningen
tiln
tilnavnet
tilnær
tilpas
tilpasset
tilsammen
tilsett
tilsk
tilskuere
tilst
tilstand
tilstanden
tilstede
tilstrekk
tilstrekkelig
tilsvar
tilsvarende
tilsvarer
tilsyn
tilsynelat
tilsynelatende
tilt
tiltak
tim
timber
time
timer
times
timmar
timme
timmer
timur
tin
tina
ting
tings
tingslag
tingsratt
tinn
tint
tio
tionde
tiotal
tip
tipp
tippelig
tippeligaen
tipula
tir
tirana
tis
tit
titan
titel
titeln
titlar
titler
titt
tittel
tittelen
tiv
tiz
tizi
tj
tjan
tjanade
tjanst
tjanste
tjansteman
tjansten
tjanster
tjanstgjorde
tje
tjeck
tjeckien
tjeckiska
tjeckoslovak
tjeckoslovakien
tjen
tjener
tjenest
tjeneste
tjenesteg
tjenestegjorde
tjenester
tjente
tjer
tjock
tjue
tjug
tjugo
tjuv
tl
to
tob
tobak
tobias
toc
tod
todd
tof
tofsspinnare
tog
toget
togs
tok
tokyo
tol
toledo
toler
tolima
tolk
tolkas
tolkning
toll
tolv
tom
tomas
tomm
tommy
tomt
tomten
ton
tonar
tone
tonen
toner
tong
tonn
tonsatt
tonsattare
tony
top
topp
toppar
toppen
topps
tor
tord
torde
tore
torel
torelvaxtart
torelvaxter
torg
torget
torino
tork
torlar
torn
torne
tornet
torng
toro
toronto
torp
torped
torr
torra
torraste
torre
torres
tors
torsdag
torshavn
torsten
tort
tortur
torv
tos
tosc
toscana
tot
total
totala
totale
totalt
toten
totten
tottenham
tou
touch
touchd
toulo
toulouse
tour
touren
tov
tow
tower
town
townsend
tox
toy
tr
tra
trach
trad
tradde
trade
traden
tradgard
tradgardar
tradgarden
tradisjon
tradisjonell
tradisjonelle
tradisjonelt
tradisjonen
tradisjoner
tradition
traditionell
traditionella
traditionellt
traditionen
traditioner
tradte
traf
traff
traffa
traffade
traffar
trafik
trafiken
trafiker
trafikeras
trafikk
trafikken
trag
traged
tragspinnare
trajon
trajonvaxtart
trak
trakk
trakt
traktaten
trakten
traktor
tramp
tran
trana
tranare
trang
traning
trans
transform
transport
transporter
trap
trapp
trase
trask
trass
tratt
trav
tre
trea
trebu
trebukker
tred
tredj
tredje
tredjedel
tredjep
tredjeplass
tree
treet
tref
trek
trekant
trekk
trekke
trekker
trekte
trelle
trem
tren
trener
treng
trenger
trengte
trening
trenings
trent
trente
tres
tresteg
tret
trett
tretten
trettio
tretton
trev
tri
triang
trib
tribun
tric
trich
trig
trigon
trik
tril
trim
trin
trinidad
trinity
trinn
trio
trip
tripoli
trippel
tris
trist
trit
trium
triumf
triv
tro
troch
trod
trodde
troende
trog
troja
trol
trolig
troligen
troligt
troligtvis
troll
trollslandeart
trom
trommer
trommes
trommeslager
troms
tromsø
tron
trond
trondheim
trondhjem
trondhjems
tronen
trop
trophy
tropisk
tropiska
tropiske
tropiskt
tropp
troppen
troppene
tropper
tror
tros
tross
trot
trots
trott
tru
true
truet
trukket
truleg
trum
trumm
trummor
trump
trunc
trupp
truppen
trupper
trupperna
try
tryck
trycker
tryckt
tryckta
trycktes
tryg
trygg
trykk
trykket
trykt
trær
trøn
trøndelag
ts
tsa
tsar
tsaren
tsj
tsjekk
tsjekkia
tsjekkisk
tsjekkoslov
tsjekkoslovakia
tsun
tu
tub
tuber
tuberc
tuberkul
tubu
tuc
tud
tul
tull
tum
tun
tuna
tund
tung
tunga
tunge
tungt
tunis
tunn
tunna
tunnel
tunnelban
tunnelbana
tunnelen
tunneln
tup
tur
turbin
turbiner
ture
turen
turer
turin
turism
turisme
turist
turister
turk
turkiet
turkiska
turkmen
turn
turne
turneen
turneer
turnen
turner
turnerade
turnering
turneringar
turneringen
turneringer
turnerte
turt
tus
tusen
tusentals
tut
tutt
tuv
tv
tv3
tv4
tva
tvaa
tvahjartbladig
tvang
tvar
tvatt
tvaving
tvavingar
tvavingeart
tver
tverr
tverrband
tvers
tvil
tvilling
tving
tvinga
tvingade
tvingades
tvingas
tviv
tvung
tvungen
tvunget
tvungna
tw
twin
two
ty
tycker
tycks
tyckte
tyd
tydelig
tydelige
tyder
tydlig
tydliga
tydligt
tyg
tykk
tyl
tyn
tyng
tyngd
tyngde
tyngre
tynn
tynne
typ
typar
type
typen
typer
typh
typhl
typisk
typiska
typiske
typiskt
tyr
tyran
tyrann
tyrk
tyrkia
tyrkisk
tyrkiske
tyrolen
tysk
tyska
tyskar
tyskarna
tyske
tyskerne
tyskland
tysklands
tyskt
tyst
tz
tø
tømmer
tøn
tønsberg
tør
tørr
tørre
u20
u21
u23
uansett
uav
uavgjort
uavheng
uavhengig
uavhengige
uavhengighet
ub
ubat
ubaten
ube
uber
uch
ud
udde
uddevalla
uef
uefa
uen
uend
ufc
ufor
ug
uganda
ugg
uh
ujung
uk
uke
uken
uker
ukjent
ukjente
uklart
ukra
ukraina
ukrainsk
ukrainska
ul
ula
ulaan
ule
ulf
ulik
ulike
ulikt
ull
ulla
ulle
ullskoldloss
ulov
ulovlig
ulrich
ulrik
ulrika
ulster
ult
ultim
ultra
ulv
uly
ulykken
um
umb
umea
umiddel
umiddelbart
umm
umulig
un
und
undan
undant
undantag
under
underart
underarten
underarter
underfamilien
underg
undergrunn
underhall
underhold
underhuset
underjord
underjordisk
underjordiska
underlag
underlagt
underlatta
underord
underratt
unders
undersida
undersidan
undersiden
undersok
undersoka
undersokning
undersokningar
understod
undersø
undersøk
undersøke
undersøkelse
undersøkelser
undert
underteck
undertegnet
underveis
undervis
undervisade
undervisning
undervisningen
undervisnings
underviste
undre
undvika
unesc
unesco
unescos
ung
unga
ungar
ungarn
ungarna
ungarsk
ungarske
ungdom
ungdomar
ungdoms
ungdomsskole
unge
ungefar
unger
ungern
ungersk
ungerska
unic
unifor
uniform
unik
unika
unikt
union
unionen
unionens
unions
united
univers
universal
universitat
universitet
universiteter
universitetet
universitetets
universitets
university
universum
unix
unn
unna
unnga
unntak
unntatt
uno
unter
uoffisi
up
upon
upp
uppat
uppd
uppdater
uppdel
uppdelad
uppdrag
uppdraget
uppe
uppehall
uppenbar
upper
uppf
uppfatt
uppfattas
uppfattning
uppfin
uppfoljare
uppfor
uppfora
uppford
uppforde
uppfordes
uppfost
uppg
uppgar
uppgick
uppgift
uppgiften
uppgifter
upphav
upphoj
upphorde
upphov
uppkall
uppkallad
uppkom
upplag
upplaga
upplagan
upplagor
uppland
upplands
upplev
upplos
upplosning
upplost
upplostes
upplys
uppman
uppmarksam
uppmarksamhet
uppmarksamm
uppmarksammad
uppmarksammade
uppmarksammades
uppmunt
uppna
uppr
uppratt
upprattades
upprep
upprepade
uppror
upproret
upps
uppsala
uppsattning
uppskatt
uppskattas
uppsta
uppstar
uppstod
uppstroms
uppt
uppta
upptac
upptacker
upptackt
upptackte
upptackten
upptacktes
upptackts
upptrad
upptrada
upptradde
upptrader
uppvarm
uppvaxt
uppvisar
uppvuxen
ur
ural
uran
urban
urbane
ureg
uri
urin
urinsekt
urinsektsart
uro
urs
urskil
ursprung
ursprungliga
ursprungligen
urt
uru
urugu
uruguay
urval
us
usa
usas
usd
usikker
usikkert
uss
ut
utah
utan
utanfor
utanom
utara
utarbeid
utarbeidet
utarbet
utb
utbild
utbildad
utbildade
utbildning
utbildningen
utbildnings
utbre
utbred
utbredelse
utbredning
utbredningsom
utbredningsomrade
utbredningsomradet
utbredt
utbrei
utbrot
utbrott
utbrudd
utbruddet
utbryt
utbygd
utbygg
utbygging
utbyggingen
utbyggnad
utbyte
utd
utdan
utdann
utdanna
utdannelse
utdannet
utdanning
utdannings
utdel
utdod
utdrag
utdød
ute
uteksam
uteksaminert
utel
utelukk
utelukkende
uten
utendørs
utenfor
utenlands
utenlandske
utenom
utenrik
utenriks
utenriksminister
uteslut
uteslutande
utexaminer
utexaminerades
utfard
utflode
utfor
utfora
utford
utforda
utforde
utfordes
utform
utformet
utforming
utformning
utfors
utfort
utføre
utført
utførte
utg
utga
utgang
utgangen
utgangspunkt
utgangspunktet
utgar
utgav
utgava
utgavan
utgave
utgaven
utgaver
utgavs
utgick
utgitt
utgiv
utgivare
utgivelse
utgivelsen
utgivelser
utgiven
utgivet
utgivna
utgivning
utgivningen
utgje
utgjer
utgjev
utgjorde
utgjordes
utgjør
utgor
utgora
utgors
utgrav
utgravningar
utifran
util
utk
utkamp
utkanten
utkast
utkjempet
utkom
utlan
utland
utlandet
utlandsk
utlandska
utle
utlend
utlopp
utloppet
utlø
utløp
utløpet
utman
utmar
utmark
utmarkelsen
utmarkelser
utmarkt
utmarkte
utmed
utmer
utmerk
utmerkelser
utmerket
utn
utnamn
utnamnd
utnamndes
utnem
utnemnd
utnevn
utnevnt
utnevnte
utny
utnytt
utnytte
utnytter
utnyttja
utok
utokades
utom
utomhus
utomlands
utov
utovade
utovare
utover
utp
utpe
utpekt
utrecht
utred
utredning
utredningen
utrikes
utrikesminister
utrikespolit
utrop
utrot
utru
utrust
utrustning
utryd
utrym
utrymme
uts
utsag
utsags
utsander
utsatt
utsatts
utse
utsedd
utseende
utseendet
utses
utsett
utsikt
utskott
utsl
utslag
utslagen
utslatt
utslipp
utsmy
utsp
utspel
utspelar
utspring
utst
utstall
utstallning
utstallningar
utstallningen
utstilling
utstillingen
utstillinger
utstra
utstrackning
utstyr
utstyrt
utt
uttag
uttagen
uttal
uttalas
uttalt
uttalte
uttar
uttry
uttryck
uttrycket
uttrykk
uttrykket
utv
utval
utvalg
utvand
utveck
utveckla
utvecklad
utvecklade
utvecklades
utvecklar
utvecklas
utvecklat
utvecklats
utveckling
utvecklingen
utvek
utvid
utvida
utvide
utvidelse
utvidet
utvidg
utvik
utvikla
utvikle
utvikler
utviklet
utvikling
utviklinga
utviklingen
utøv
utøver
utøvere
uul
uv
uvan
uvanlig
uz
va
vac
vaccin
vack
vacker
vackra
vackte
vad
vader
vadstena
vag
vaga
vagar
vagbin
vagen
vager
vagg
vaggar
vagn
vagnar
vagrade
vak
vakre
vaks
vakt
vakte
val
vala
valais
vald
valde
valdemar
valdes
valdigt
valdres
vale
valen
valencia
valent
valentin
valer
valerenga
valet
valg
valget
valgoren
valgt
valgte
valja
valjer
valk
valkanda
valkrets
vall
valle
valley
vallmov
valp
valpara
valparaiso
vals
valt
valut
valuta
valv
vamp
vampyr
van
vancou
vancouver
vand
vanda
vande
vander
vandring
vaner
vang
vaning
vaningar
vanleg
vanlege
vanlegvis
vanlig
vanliga
vanligare
vanligast
vanligaste
vanlige
vanligen
vanligste
vanligt
vanligtvis
vanligvis
vann
vanner
vannet
vannkraft
vannkraftverk
vanns
vans
vansk
vanskap
vanskeleg
vanskelig
vanskelige
vanster
vanstra
vant
vanua
vap
vapen
vapenet
vapenflugor
vapnet
var
vara
varade
varandra
varanger
varaordfører
varar
vararep
vararepresentant
varav
varberg
varbergs
vard
vardag
varde
vardefulla
varden
varder
vardera
vardet
vare
varefter
varen
varer
varfor
varg
vargspindlar
vari
varia
variabel
varian
variant
varianten
varianter
variasjon
varier
variera
varierad
varierande
varierar
variere
varierende
varierer
variert
variet
varifran
varit
varje
varken
varld
varlden
varldens
varlds
varldsar
varldsarv
varldscupen
varldskriget
varldskrigets
varldsm
varldsmastare
varldsmaster
varldsmasterskap
varldsmasterskapen
varldsmasterskapet
varldsp
varldspopul
varldspopulationen
varldsrekord
varm
varma
varmaste
varme
varmek
varmland
varmlands
varmt
varn
varnplikt
varor
varpa
vars
vart
vartbitare
varte
varu
varum
varumark
varumarket
varv
varvades
varvet
varvid
vas
vasa
vasall
vasil
vass
vassdrag
vassdraget
vast
vastantarktis
vastazarbaijan
vaste
vaster
vasteras
vasterbotten
vasterbottens
vastergotland
vasternorr
vasternorrlands
vasterut
vastind
vastkust
vastlig
vastmanland
vastmanlands
vastra
vasttyskland
vat
vate
vatikan
vatmark
vatmarker
vatn
vatnet
vatt
vatten
vattendrag
vattendraget
vattenfall
vattenflugor
vattent
vattenytor
vattnet
vaud
vav
vax
vaxa
vaxande
vaxel
vaxer
vaxjo
vaxt
vaxtart
vaxte
vaxter
vaxtlighet
vaz
vd
ve
veck
vecka
veckan
veckor
ved
veder
vedlar
vedlike
vedlikehold
vedtak
vedtatt
vedtok
veg
vega
vegas
vegen
veget
vegetasjon
vegg
vegne
vei
veien
veier
veil
veit
vek
veker
vekk
veks
veksel
vekst
vekt
vektlø
vektor
vel
veld
veldig
velferd
velge
velger
velges
velika
veliki
vell
velly
vellykket
velstaende
vem
ven
vend
vende
vender
vendte
venedig
venet
venez
venezia
venezuel
venezuela
venn
venner
vennskap
venst
venstre
venstres
vent
vente
ventet
ventil
venus
ver
vera
verac
veracruz
verb
verband
verbandsgemeinde
verd
verda
verde
verden
verdens
verdensarv
verdenscup
verdenscupen
verdenskrig
verdensmester
verdensmesterskapet
verdensrekord
verdi
verdien
verdier
verdif
verds
verdskrigen
verdsmeister
vere
verhoe
verhoeff
verk
verka
verkade
verkar
verkat
verken
verkene
verker
verket
verkliga
verkligen
verklighet
verkligheten
verksam
verksamhet
verksamheten
verksamheter
verksamma
verksem
verkstad
verkstallande
verksted
verkt
verktyg
verktøy
vern
verna
verne
vernet
vernon
veronica
verruc
vers
versa
versailles
verser
version
versionen
versioner
versjon
versjonar
versjonen
versjoner
verste
vert
verte
vertik
verv
vervet
ves
vesen
vesentlig
vesle
vest
vesten
vester
vestfold
vestkysten
vestland
vestlandet
vestlege
vestlig
vestlige
vestover
vestre
vestsida
vestsiden
vet
veta
vetenskap
vetenskaplig
vetenskapliga
vetenskapsakademien
veter
veteran
vev
vg
vi
via
vib
viborg
vic
vice
vicente
vich
vick
vict
victor
victoria
vid
vida
vidar
vidare
vide
video
videon
videosp
vider
videre
videregaende
vidstra
vidt
vie
viejo
vient
vientiane
vier
viet
vietnam
vig
vii
viii
vik
vika
viken
viker
viking
vikingat
vikt
vikten
viktig
viktiga
viktigare
viktigaste
viktige
viktigste
viktigt
viktor
vil
vila
vilar
vild
vilda
vilhelm
vilhelmina
vilja
vilje
vilka
vilkar
vilken
vilket
vill
villa
village
villan
villar
ville
villene
villig
villkor
villman
villor
vilnius
vilt
vin
vincent
vind
vinde
vinden
vindevaxtart
vindevaxter
ving
vingar
vingarna
vingen
vingene
vinger
vingesp
vingespenn
vinkel
vinn
vinna
vinnare
vinnaren
vinne
vinner
vinneren
vinrute
vinrutevaxtart
vinrutevaxter
vinst
vinster
vint
vinter
vinteren
vinterleker
vintern
vinterspelen
vintertid
vinyl
viol
viola
violin
vir
virg
virgin
virginia
virid
virk
virke
virkelig
virkelige
virkeligheten
virker
virket
virkning
virksom
virksomhet
virksomheten
virt
virus
viruset
vis
visa
visade
visades
visar
visas
visat
visats
visby
vise
visepresident
viser
vises
vision
viss
vissa
visse
visser
visserligen
visst
visste
vist
vista
vistades
vistas
viste
vistelse
visuell
vit
vita
vitamin
vite
vitenskap
vitenskapelig
vitenskapelige
viti
vitja
vitne
vitry
vitskap
vitt
vitter
viv
vive
vivevaxtart
vivevaxter
vivlar
vlad
vladimir
vm
vo
voblast
voblasten
vod
voda
vog
vogn
voice
voj
vok
vokal
vokalist
voks
vokse
voksen
voksende
vokser
voksne
vokst
vokste
vol
volcan
vold
volk
volksw
volkswagen
voll
volley
volleyball
volleyballspiller
volleyboll
volta
volum
volvo
volym
volymer
von
vor
vord
vore
vorte
vos
voss
voy
vr
vrch
vrh
vrid
vs
vu
vul
vulk
vulkan
vulkanen
vunnet
vunnit
vurder
vurdert
vux
vuxen
vuxit
vuxna
vys
væ
væp
vær
være
vært
væske
wa
wad
wadi
wag
wagner
wah
wahl
wain
wak
wake
wal
wald
wales
walis
walk
walker
wall
wallace
wallen
walt
walter
wan
wander
wang
want
war
ward
warner
warren
wars
warsza
warszawa
warwick
was
wash
washington
wat
watch
water
waters
watson
watt
way
wayne
we
web
webb
webbplats
weber
wed
week
wehr
wehrma
wei
weimar
wein
weiss
wel
well
wellington
wells
wen
wend
wer
werg
wergeland
werner
wes
west
wester
western
westf
westfalen
westminster
westwood
wet
wh
what
whe
wheeler
when
whi
whit
white
who
wi
wick
wid
wied
wiedemann
wien
wiener
wies
wig
wik
wikip
wikipedia
wil
wild
wilhelm
will
willem
willi
william
williams
willie
willis
willy
wilson
wim
wimbl
wimbledon
win
wind
windows
wing
wings
winn
winst
wint
winter
wir
wis
wisc
wisconsin
wit
with
witt
wo
wol
wolf
wolff
wolfgang
woll
woman
women
won
wonder
wood
woods
wor
worcester
work
works
world
worms
wright
wu
wuhan
wul
wur
wurtt
wurttemberg
ww
www
wy
xant
xanth
xanthoparmelia
xanthor
xbox
xen
xer
xi
xia
xian
xiang
xii
xiii
xin
xinjiang
xiv
xu
xv
xvi
xx
xy
xyl
xyst
ya
yah
yak
yale
yam
yamo
yamoussoukro
yan
yang
yar
yard
yards
yas
yaz
yazd
ye
year
years
yell
yellow
yer
yes
yi
yin
yl
yn
yng
yngre
yngsta
yngste
yngve
yo
yok
yong
yor
york
yorkshire
yosh
you
young
your
yout
youth
youtube
yp
yr
yrke
yrkes
ystad
yt
yta
ytan
ytre
ytt
ytter
ytterlig
ytterligare
ytterligere
ytterst
yttersta
yttre
yu
yuan
yuc
yuk
yukon
yun
yunn
yunnan
yus
za
zab
zac
zach
zag
zagreb
zah
zahr
zak
zam
zambia
zan
zap
zappa
zar
zarago
zaragoza
zard
zav
ze
zealand
zeb
zeeland
zel
zem
zemmour
zen
zepp
zeppelin
zer
zet
zetter
zh
zhang
zhe
zhejiang
zhen
zheng
zhong
zhou
zhu
zi
zimb
zimbab
zimbabwe
zimmer
zin
zing
zingiber
zo
zon
zor
zu
zur
zurich
zyg
°c
ær
ære
æres
ødel
ødela
ødelag
ødelagt
ødeleg
ødelegg
ødelegge
øk
øke
økende
øker
økning
økonom
økonomi
økonomien
økonomisk
økonomiske
økt
økte
øl
øn
ønsk
ønske
ønsker
ønsket
ønskte
ør
øre
ørken
ørn
øst
øster
østerrik
østerrike
østerriksk
østerrikske
østfold
østlandet
østlige
østover
østre
østsiden
øv
øvelsen
øvelser
øver
øverst
øverste
øvre
øvrig
øvrige
øy
øya
øyane
øyar
øydelag
øye
øyeb
øyeblikk
øyen
øyene
øyer
øyg
øyne
øynene
øystein
اب
ال
تل
تنگ
در
دره
سر
سی
كوه
وادي
چش
چشمه
کوه
##0
##00
##000
##1
##10
##11
##12
##13
##14
##15
##16
##17
##18
##19
##2
##20
##21
##22
##23
##24
##25
##26
##27
##28
##29
##3
##30
##32
##33
##34
##35
##36
##37
##38
##39
##4
##40
##44
##45
##46
##47
##48
##49
##5
##50
##55
##6
##60
##64
##65
##66
##7
##70
##71
##75
##77
##8
##80
##85
##86
##88
##89
##9
##90
##99
##a
##aa
##ab
##aba
##abad
##abd
##abel
##abet
##abi
##abil
##abilis
##able
##abo
##abol
##aborg
##abrik
##ac
##aca
##acan
##acc
##ace
##acea
##aceae
##ach
##achal
##achi
##achim
##acht
##aci
##acia
##acidae
##acion
##acional
##acitet
##ack
##acka
##acken
##acker
##ackerlackor
##aco
##acris
##act
##actylus
##acu
##aculata
##acupen
##acus
##ad
##ada
##adal
##adalen
##adan
##adar
##adas
##add
##adde
##adder
##ade
##adeh
##adel
##adelphia
##adels
##adem
##ademien
##ademin
##aden
##adena
##adene
##adenia
##adens
##adensis
##ader
##adera
##aderna
##adero
##ades
##adet
##adeus
##adh
##adi
##adia
##adin
##administ
##ado
##ador
##ados
##ads
##adura
##advok
##advokat
##ady
##ae
##aea
##aec
##aeidae
##ael
##aen
##aet
##aeus
##aev
##af
##afa
##aff
##afrika
##ag
##aga
##agan
##agande
##agar
##agare
##agaren
##agarna
##agasin
##agasinet
##agatan
##agd
##agda
##age
##agen
##ager
##ages
##aget
##agg
##aggar
##agh
##agi
##agin
##agn
##agna
##agne
##agnet
##ago
##agog
##agon
##agor
##agos
##agra
##agram
##agrion
##ags
##agt
##agu
##agua
##ague
##agus
##ah
##aha
##ahan
##ahar
##ahl
##ahn
##ahr
##ahu
##ahuset
##ai
##ain
##aj
##ak
##aka
##akadem
##akan
##akar
##akare
##akch
##ake
##aken
##aker
##akers
##akes
##aket
##akh
##aki
##akia
##akim
##akk
##akka
##akke
##akken
##akning
##ako
##akon
##akry
##aks
##aksjon
##akt
##akta
##akter
##aktig
##aktiga
##aktige
##aktigt
##aktiv
##aktive
##aktor
##aku
##al
##ala
##alah
##alam
##alan
##aland
##alar
##alb
##album
##albumet
##alc
##ald
##alda
##alder
##alderen
##aldern
##aldi
##aldo
##aldt
##ale
##alea
##aleh
##alen
##alene
##alens
##aler
##ales
##alet
##alez
##alg
##algo
##ali
##alia
##alin
##alis
##alisere
##alisert
##alism
##alisme
##alismen
##alist
##alistisk
##alistiska
##alistiske
##alitet
##alj
##aljen
##aljer
##alk
##all
##alla
##allas
##alle
##allen
##aller
##alleri
##alleriet
##allet
##alli
##alls
##allskap
##allskapet
##allsvenskan
##allt
##ally
##alm
##almi
##alo
##alom
##alon
##alp
##alpa
##alpark
##alparken
##alpolit
##alpus
##als
##alt
##alta
##alte
##alten
##alter
##altet
##alth
##althe
##alu
##alum
##alus
##alv
##alven
##aly
##alyp
##alyptus
##alyx
##am
##ama
##amal
##aman
##amanca
##amar
##amarca
##amas
##amat
##amatan
##amatcher
##amb
##amba
##ambar
##ambi
##ame
##amea
##ameister
##amen
##amensis
##ament
##amente
##amento
##amer
##amerik
##amerika
##amerikansk
##amerikanska
##amerikanske
##amesterskapet
##amet
##amfunn
##ami
##amia
##amil
##amilien
##amin
##aminer
##aming
##amisk
##amm
##amma
##ammar
##ammation
##ammen
##ammer
##amn
##amne
##amnen
##amnet
##amo
##amot
##amoter
##amoto
##amp
##ampa
##ampar
##ampen
##amper
##amph
##ampi
##ampo
##ampton
##ams
##amt
##amu
##amus
##an
##ana
##anah
##anal
##analy
##anan
##ananar
##anas
##anc
##ance
##and
##anda
##andan
##andaran
##andare
##ande
##andel
##anden
##andena
##ander
##anders
##andes
##andet
##andi
##ando
##andra
##andre
##andro
##ands
##ane
##anea
##aneh
##anen
##anensis
##aner
##anes
##aneus
##ang
##anga
##angan
##angar
##angare
##angaren
##angd
##angden
##angdong
##ange
##angel
##angeliet
##angen
##anger
##angi
##ango
##angrep
##angs
##ani
##ania
##anica
##aniemi
##anien
##anj
##ank
##anke
##anken
##anker
##anks
##anlaggning
##anlegg
##anlegget
##anmar
##ann
##anna
##anne
##annelse
##annen
##anner
##annes
##annet
##anni
##anning
##annon
##anns
##annsyn
##ano
##anol
##anor
##anos
##ans
##ansas
##anse
##ansen
##ansens
##anser
##anset
##ansett
##ansk
##anska
##anske
##anst
##anstalt
##ansvar
##ant
##anta
##antan
##antarktis
##ante
##anteles
##anten
##antene
##anter
##anterna
##antes
##antet
##anth
##antha
##anthe
##anthemum
##anthera
##anthes
##anthus
##anti
##antia
##antik
##antis
##anto
##antrop
##ants
##antus
##anu
##anum
##anus
##anvand
##any
##anz
##anza
##ao
##ap
##apa
##apan
##apar
##aparlam
##aparte
##ape
##apel
##apest
##apet
##apeut
##aph
##aphis
##api
##aplan
##apolis
##aps
##apt
##apus
##aq
##ar
##ara
##arab
##arach
##arak
##aran
##arande
##arane
##arant
##arar
##arat
##arb
##arbeid
##arbeider
##arbeidere
##arbeidet
##arbet
##arbetare
##arbete
##arbeten
##arbetet
##arbets
##arbin
##arch
##ard
##arda
##ardar
##arden
##arder
##ardi
##ardia
##ardig
##ardo
##ards
##are
##area
##areal
##areh
##aren
##arena
##arene
##arens
##arep
##arer
##arerna
##ares
##aret
##arez
##arg
##ari
##aria
##ariaceae
##arian
##arias
##ariat
##aric
##arica
##aridae
##arie
##arien
##ariensis
##arier
##ariet
##arig
##ariga
##arige
##arii
##ariidae
##arin
##arina
##aring
##ario
##aris
##arit
##arium
##arius
##ark
##arka
##arkar
##arkarriar
##arke
##arken
##arkite
##arkitekt
##arkitektur
##arkiv
##arkivet
##arkt
##arktis
##arl
##arm
##arme
##armen
##arn
##arna
##arnas
##aro
##arov
##arp
##arra
##arrang
##arriket
##arro
##ars
##arsis
##arskap
##arskontrakt
##arsus
##art
##arta
##artad
##artade
##artar
##arte
##arten
##arter
##arth
##arti
##artiet
##artik
##artiller
##artist
##aru
##arum
##arus
##arv
##ary
##as
##asa
##asaari
##asaki
##asan
##asar
##asc
##asco
##ase
##asen
##aser
##aset
##ash
##ashi
##asi
##asia
##asiat
##asien
##asin
##asis
##asit
##asitet
##asj
##asjarvi
##asje
##asjen
##asjer
##asjon
##asjonar
##asjonen
##asjonene
##asjoner
##asjons
##ask
##asm
##asma
##ason
##asongen
##asp
##aspis
##ass
##assa
##assan
##asse
##assel
##assen
##asser
##asset
##assistent
##asso
##ast
##asta
##astad
##astare
##astaren
##aste
##asteh
##asten
##aster
##asteroide
##asterskapen
##asterskapet
##astes
##astin
##astisk
##astor
##astra
##astro
##astrof
##asu
##asy
##at
##ata
##atak
##atal
##ataljon
##atalog
##atan
##atar
##atare
##ate
##atea
##ated
##atel
##atem
##aten
##atene
##ater
##atera
##aterade
##atering
##atern
##aterna
##atert
##ates
##atet
##atexamen
##ath
##atha
##athan
##ather
##athus
##ati
##atia
##atidae
##atiens
##ating
##ation
##ationen
##ationer
##ationerna
##ations
##atis
##atisk
##atiska
##atiske
##ativ
##ativa
##ative
##ativt
##atlan
##atn
##atnet
##atning
##ato
##atom
##atoma
##aton
##ator
##atoren
##atorer
##atoriet
##atorium
##atorn
##atory
##atra
##atre
##atret
##ats
##atsen
##atser
##atset
##atsu
##att
##atta
##atte
##atten
##atter
##attes
##attet
##atti
##attle
##attning
##atts
##attslandor
##atu
##atum
##atur
##aturen
##atus
##atz
##atør
##au
##auer
##aust
##aut
##aux
##av
##ava
##avag
##avagen
##avan
##avar
##avax
##avaxtart
##avaxter
##avdel
##avdeling
##avdelingen
##avdelning
##avdelningen
##ave
##avei
##aven
##aves
##avesi
##avet
##avgift
##avhandling
##avi
##avia
##avik
##aville
##aving
##avirus
##avis
##avisen
##avista
##avla
##avlan
##avling
##avlingar
##avlingarna
##avlingen
##avn
##avnet
##avs
##avstem
##avt
##avtal
##avtalen
##avu
##avut
##aw
##ax
##axes
##axter
##ay
##aya
##ayer
##ayo
##az
##azar
##azarbaijan
##azi
##b
##ba
##baatar
##bach
##back
##backa
##backen
##backslandor
##bad
##bag
##baggar
##bah
##baijan
##bajd
##bak
##bakken
##bal
##ball
##baltet
##ban
##bana
##banan
##band
##bandet
##bane
##banen
##baner
##bang
##bank
##banken
##banor
##bant
##bar
##bara
##bard
##bare
##barhet
##barn
##bart
##bas
##base
##basen
##baserade
##basert
##basis
##bass
##bat
##batar
##baten
##bater
##bats
##bay
##bb
##bba
##bbar
##bbe
##bbspindlar
##bc
##be
##bea
##bebygg
##bebyggelse
##bec
##beck
##bed
##befal
##befolk
##befolkad
##befolkat
##befolkningen
##beg
##beh
##behandling
##behov
##bei
##beid
##bein
##bek
##bekistan
##bekk
##bekken
##bel
##bell
##bella
##bels
##belt
##belte
##belteasteroide
##ben
##bent
##ber
##bera
##beratt
##bere
##bered
##berg
##berga
##bergen
##berger
##berget
##bergia
##bergs
##berland
##berry
##bers
##bert
##bes
##bestam
##bestem
##bet
##betal
##bete
##beteck
##betes
##betet
##beth
##bevar
##beveg
##bevegelsen
##bevis
##bey
##bh
##bi
##bia
##bibliote
##bibliotek
##biblioteket
##bid
##bidae
##bie
##bil
##bilar
##bild
##bildade
##bilde
##bilden
##bilder
##bildning
##bilis
##bill
##bille
##biller
##bin
##bind
##biner
##bing
##bir
##bis
##bisk
##biskop
##bisp
##bit
##bitare
##bj
##bjorn
##bjørn
##bl
##bla
##blad
##bladet
##bladig
##bladiga
##bladloppor
##bladsvaxtart
##bladsvaxter
##bland
##blatt
##ble
##bler
##bli
##blick
##blo
##block
##blod
##blom
##blomflugor
##blomm
##blommiga
##blomster
##bo
##boa
##board
##bock
##bocker
##bod
##boe
##boende
##bok
##boken
##bol
##bolag
##bolaget
##bold
##boll
##bom
##bon
##bong
##bor
##bord
##bordet
##borg
##borger
##borgs
##born
##borough
##bos
##bost
##bostad
##bot
##botn
##bott
##botten
##bottens
##bou
##bour
##bourg
##bourne
##bow
##box
##boy
##boys
##br
##bra
##braken
##brakenvaxtart
##bran
##brand
##branschen
##bre
##bred
##brede
##breen
##brett
##brev
##brid
##bridge
##brig
##bring
##bro
##brog
##bron
##bror
##brot
##brott
##brottet
##bru
##brua
##brudd
##bruk
##bruket
##bruks
##brun
##bruna
##brune
##brunn
##brunt
##brutt
##bry
##brygg
##bryn
##bryt
##bs
##bu
##buch
##bud
##budet
##buk
##bukt
##bukta
##bul
##bult
##bun
##bur
##burg
##burger
##burgh
##burn
##bury
##bus
##buss
##but
##by
##byc
##bye
##byen
##byg
##bygd
##bygde
##bygg
##byggd
##byggda
##bygget
##bygging
##byggnad
##byggnaden
##byggnader
##bygning
##bygningen
##byn
##byr
##byra
##byran
##bys
##byt
##bær
##bærer
##bø
##bøker
##bøl
##c
##ca
##caceae
##cad
##caena
##cal
##can
##cao
##car
##cas
##cast
##castle
##cat
##cata
##cc
##ccion
##ce
##cea
##ceae
##ced
##cel
##cell
##celler
##celli
##cen
##cens
##cent
##centr
##centrum
##cept
##cer
##cerad
##cernen
##ces
##cess
##cester
##ceus
##ch
##cha
##chaft
##chal
##champ
##chan
##chang
##char
##chard
##che
##chef
##chefen
##cheh
##chel
##chem
##chen
##cheng
##cheon
##cheong
##cher
##ches
##chester
##chet
##chewan
##chez
##chi
##chia
##chin
##chis
##chn
##cho
##chon
##chor
##chow
##chs
##chsen
##cht
##chten
##chtenstein
##chter
##chu
##chur
##chus
##chy
##ci
##cia
##cial
##ciata
##ciatus
##cin
##cing
##cini
##cinia
##cio
##cion
##cip
##ciplin
##cis
##cium
##ck
##cka
##ckan
##ckande
##ckar
##ckare
##cke
##ckel
##cken
##ckenzie
##cker
##ckers
##cket
##cki
##ckland
##ckning
##ckningar
##ckningen
##ckor
##cks
##ckt
##ckta
##ckte
##cktes
##cla
##clair
##cle
##cli
##cliffe
##co
##cock
##coe
##coides
##col
##color
##com
##con
##cor
##core
##cos
##cott
##cou
##court
##craft
##crantz
##cs
##ct
##cta
##ctes
##ctic
##ction
##ctis
##ctor
##ctus
##cu
##cula
##cum
##cup
##cupen
##cus
##cy
##cykel
##cz
##d
##da
##dack
##dad
##dag
##dagar
##dagen
##dags
##dah
##dahl
##dal
##dale
##dalen
##dals
##dam
##dan
##dans
##dar
##dare
##das
##dat
##datter
##day
##dde
##de
##deb
##debut
##debuterade
##deh
##dekk
##dekket
##del
##delag
##delar
##deleg
##delen
##deler
##deles
##delig
##delige
##deling
##delingen
##delning
##delse
##delt
##dem
##demokrat
##den
##dende
##dene
##denes
##dens
##departement
##departementet
##der
##dera
##derade
##derar
##dere
##deren
##deri
##derkopp
##dern
##derna
##derne
##ders
##des
##design
##desmus
##det
##deval
##di
##die
##dik
##dikt
##din
##ding
##dingen
##direktor
##direktør
##dis
##distans
##distri
##distrikt
##distriktet
##div
##djur
##djursart
##do
##dom
##domar
##domen
##domet
##domm
##dommen
##dommer
##domstol
##domstolen
##don
##donald
##dor
##dorf
##dotter
##dp
##dr
##dra
##drag
##draget
##drakt
##drakten
##dre
##drift
##driv
##ds
##dt
##du
##dy
##dyn
##dynastin
##dyr
##e
##ea
##eart
##eb
##eba
##eback
##ebel
##eben
##ebius
##ebo
##ebok
##eborg
##ebra
##ebro
##ebru
##eburg
##ebus
##eby
##ec
##eca
##ech
##ecia
##eck
##ecken
##ed
##eda
##edag
##edal
##edalen
##edalens
##edaljer
##edan
##edd
##edda
##edde
##edderkopp
##ede
##edel
##edels
##eden
##edene
##eder
##ederbord
##edere
##edes
##edet
##edi
##edia
##edie
##edig
##edlem
##edning
##edo
##edom
##edon
##edonia
##edonien
##edra
##eds
##edt
##edy
##edyr
##edøm
##edømme
##edømmet
##ee
##ef
##efamilien
##effe
##eg
##ega
##egaende
##egal
##egang
##egard
##egarden
##egata
##ege
##egeiska
##egel
##egen
##egenskaper
##eger
##egg
##egi
##egia
##egie
##egionen
##egler
##egn
##egnet
##ego
##egr
##egrad
##egren
##egron
##egu
##eh
##ehamn
##ei
##eie
##eier
##eir
##eira
##eiret
##ek
##eka
##ekamp
##ekamper
##ekan
##ekar
##ekene
##eker
##eki
##ekk
##ekn
##eko
##ekom
##ekon
##ekonom
##ekont
##eks
##eksam
##eksped
##ekspedisjonen
##ekw
##el
##ela
##elag
##elaget
##eland
##elandslag
##elar
##elart
##elas
##elast
##elat
##elb
##elberg
##eld
##eldans
##elde
##elden
##elder
##eldig
##eldjur
##eldjursart
##eldorf
##eldt
##ele
##elea
##eled
##eledamot
##eleder
##elef
##eleg
##elege
##elekt
##element
##elen
##eler
##eles
##elet
##eli
##elia
##eliaceae
##elidae
##elig
##elige
##elighet
##elin
##elina
##eling
##elinjen
##elis
##elius
##eliv
##elk
##ell
##ella
##ellaceae
##ellan
##ellata
##elle
##ellen
##ellene
##eller
##ellerna
##elles
##ellet
##elli
##ellia
##ellidae
##ellina
##elling
##ello
##ellom
##ells
##ellt
##ellum
##ellus
##elly
##elm
##eln
##elns
##elo
##elos
##elp
##els
##else
##elsen
##elsene
##elsens
##elser
##elserna
##elses
##elset
##elskap
##elt
##elte
##eltem
##eltemperaturen
##eltet
##eltrad
##elus
##elv
##elva
##elvingar
##ely
##eløp
##em
##ema
##emal
##eman
##emang
##emann
##emar
##emark
##emat
##emater
##emb
##ember
##emberg
##embl
##emble
##embran
##emburg
##eme
##emedlem
##emeinde
##emen
##emenn
##ement
##emente
##ementen
##ementer
##ementet
##emer
##emerke
##emet
##emi
##emia
##emiddel
##emidler
##emin
##eminister
##emis
##emma
##emn
##emo
##emokrat
##emon
##emoni
##emonien
##emont
##emonte
##emora
##emot
##emp
##empel
##empet
##emplar
##ems
##emum
##emus
##emusikk
##emy
##en
##ena
##enaria
##enas
##enbach
##enbar
##enberg
##enburg
##enc
##ence
##end
##enda
##endal
##ende
##enden
##endene
##endent
##ender
##endet
##endom
##endomen
##endorf
##endrag
##endron
##endrum
##endt
##endørs
##ene
##enea
##enee
##enen
##ener
##enes
##enez
##enfor
##eng
##enga
##engde
##engden
##engel
##engt
##enhet
##eni
##enia
##enius
##enn
##enne
##ennene
##enner
##ennis
##eno
##ens
##ensa
##ensam
##ensburg
##ensch
##ense
##ensee
##ensen
##enser
##ension
##ensioner
##ensis
##ensjon
##ensk
##enska
##enskap
##enskapen
##enskaper
##enske
##enson
##ensp
##ensson
##ent
##enta
##ental
##entar
##ente
##enten
##entene
##enter
##enterna
##entes
##entet
##enthal
##entin
##enting
##entlig
##entliga
##entlige
##entligt
##ento
##entr
##entral
##entrasjon
##entris
##entrum
##entrus
##ents
##entuna
##entus
##entyr
##entz
##enus
##enz
##enze
##eo
##eon
##ep
##epa
##epal
##epar
##eparet
##epartem
##epartementet
##eper
##eph
##ephal
##ephala
##ephalus
##epis
##eplan
##eplasser
##epresident
##eps
##ept
##eptor
##er
##era
##erad
##erade
##erades
##erar
##eras
##erat
##erats
##ere
##erea
##eren
##erer
##eres
##erg
##ergi
##eri
##eria
##erie
##erien
##erier
##ering
##eringar
##eringen
##eringer
##erings
##eris
##ern
##erna
##ernas
##erne
##ernes
##ero
##erob
##ers
##ert
##erte
##ertes
##erto
##erton
##erty
##erus
##es
##esa
##esam
##esc
##escens
##esch
##esco
##escu
##ese
##esel
##eselskap
##esen
##esenter
##esenteret
##eser
##eset
##esh
##esi
##esia
##esis
##esisk
##esiska
##esiske
##esjon
##esl
##eslag
##eslut
##esn
##eso
##eson
##esor
##esp
##espill
##espiller
##espillet
##espolit
##esport
##esprak
##ess
##essa
##essan
##esse
##essel
##essen
##esser
##essig
##essige
##ession
##esson
##essor
##est
##esta
##estad
##estan
##este
##ested
##esten
##ester
##esterskapet
##estes
##estra
##estrad
##estrand
##esund
##esystem
##et
##eta
##etab
##etaceae
##etcher
##ete
##eten
##etenskap
##eter
##etera
##etere
##eterna
##etes
##etet
##eth
##ethe
##ethes
##eti
##etia
##etid
##etil
##etis
##etisk
##etiske
##etning
##etningen
##etninger
##eto
##eton
##etown
##etra
##etri
##ets
##etscher
##ett
##etta
##ettan
##ette
##etten
##etter
##ettes
##ettet
##etti
##ettia
##etting
##ettix
##etto
##etts
##etty
##etus
##etz
##eus
##ev
##eve
##evelt
##evs
##ew
##ex
##ey
##eyn
##ez
##f
##fa
##fab
##fabrik
##fabriken
##fabrikk
##fack
##fader
##fag
##fagel
##faglar
##fakt
##faktor
##fal
##fald
##fall
##falla
##fallande
##fallen
##fallende
##faller
##fallet
##falt
##faltet
##falz
##famil
##familie
##familien
##familj
##familjen
##fang
##fangst
##far
##farande
##fard
##faren
##farg
##fargad
##fargade
##farge
##fargen
##farger
##farget
##fart
##farten
##fartyg
##fartøy
##fas
##fast
##fat
##fatt
##fatter
##fc
##fe
##fect
##fekt
##fel
##feld
##feldt
##fell
##felt
##feltet
##fen
##feng
##fer
##fera
##ferd
##fest
##festen
##festet
##festival
##festivalen
##fet
##ff
##ffa
##ffar
##ffe
##ffekt
##ffel
##ffen
##ffer
##ffet
##ffield
##fi
##fia
##fiber
##fid
##field
##figur
##figuren
##figurer
##fik
##fil
##film
##filmen
##filmer
##filosof
##fin
##finalen
##finn
##finna
##fir
##firma
##fish
##fisk
##fiskar
##fiske
##fj
##fjall
##fjarden
##fjaril
##fjarilar
##fjell
##fjella
##fjellene
##fjellet
##fjord
##fjorden
##fl
##fla
##flack
##flate
##flaten
##fle
##fli
##flick
##flo
##flod
##flode
##floden
##flok
##flott
##flu
##flugor
##flukt
##fly
##flyg
##flygplan
##flykt
##flyt
##flytt
##flyttade
##flyttning
##fo
##fod
##fog
##fol
##fold
##folj
##foljande
##foljare
##foljaren
##foljd
##folk
##folket
##foll
##fon
##fond
##foni
##for
##fora
##forand
##forande
##forare
##forb
##forband
##forbind
##forbindelse
##forbindelser
##forbud
##forbund
##forbundet
##forbundets
##ford
##forda
##forde
##fordel
##fordes
##fordon
##fordraget
##fordshire
##fore
##foren
##forening
##foreningar
##foreningen
##foreningens
##forenings
##forest
##foret
##foretag
##foretaget
##forfatt
##forfattare
##forfatter
##forhall
##forhallanden
##forhallandena
##forhold
##foring
##forklar
##forkort
##forkortning
##forl
##form
##forma
##formad
##formade
##formaga
##formann
##format
##formede
##formen
##former
##formes
##formet
##formis
##forord
##fororeningar
##fors
##forsakring
##forsalj
##forsamling
##forsamlingen
##forsk
##forskare
##forsker
##forskj
##forskning
##forslag
##forsok
##forsor
##forsvar
##forsvaret
##forsy
##forsøk
##fort
##forvalt
##forvaltningen
##fos
##foss
##fossen
##fot
##fotingar
##fotograf
##found
##fr
##fra
##frag
##fragan
##fragor
##fram
##fran
##fre
##fred
##frey
##fri
##fria
##frid
##fried
##frihet
##frik
##fritt
##fron
##front
##fronten
##fru
##frukt
##fs
##ft
##fta
##ftar
##fte
##ftea
##ften
##fter
##ftet
##fton
##ftt
##fu
##fug
##fugl
##fuglar
##fugler
##fuhrer
##ful
##full
##fulla
##fulle
##fullmaktige
##fullt
##fun
##fund
##funkt
##funn
##funnet
##fur
##furt
##fus
##fv
##fyl
##fylke
##fyll
##fyllda
##fynd
##fyr
##fys
##fø
##fød
##født
##fødte
##føl
##følg
##før
##føre
##fører
##føres
##føring
##føringen
##førsel
##ført
##førte
##g
##ga
##gaard
##gade
##gaende
##gah
##gal
##galleriet
##gam
##gan
##gang
##gangar
##gangen
##gar
##gara
##gard
##gardar
##garde
##garden
##garder
##gardet
##garh
##gart
##gary
##gas
##gass
##gat
##gata
##gatan
##gate
##gatt
##gau
##gav
##gaver
##gavs
##ge
##geb
##gel
##gen
##gende
##gene
##gener
##general
##genhet
##gens
##ger
##gere
##geren
##geri
##gerne
##gers
##ges
##gest
##get
##gh
##gi
##gick
##gift
##gifter
##gil
##gilt
##ging
##gir
##gis
##git
##gitar
##gitt
##giv
##givande
##givare
##given
##givende
##giver
##givna
##givning
##gj
##gjande
##gje
##gjen
##gjeng
##gjer
##gjev
##gjord
##gjorde
##gjort
##gjør
##gjøre
##glanssteklar
##gne
##go
##god
##gol
##gon
##gor
##gora
##goring
##gorit
##gorod
##got
##gota
##gotland
##gotlands
##gow
##gr
##gra
##grad
##graden
##gran
##grans
##gransen
##gras
##grav
##gre
##gren
##grens
##grensen
##grev
##gru
##grund
##grunn
##grupp
##gruppa
##gruppe
##gruppen
##grupper
##gs
##gt
##gte
##gu
##gud
##gul
##gus
##guvern
##gy
##gymnas
##h
##ha
##hab
##hachis
##had
##hae
##haer
##haf
##hafaz
##hafazat
##hag
##hage
##hagen
##hai
##haj
##hak
##hal
##hald
##hale
##halia
##hall
##halla
##hallare
##halle
##hallen
##haller
##hallet
##hallit
##halls
##hals
##halt
##halv
##halvon
##halvøya
##ham
##hammar
##hammer
##hamn
##hamns
##han
##hand
##handa
##handel
##handelen
##handeln
##handlare
##handlaren
##handler
##handling
##handlingen
##hang
##hani
##hant
##hao
##har
##hara
##hard
##hardt
##hark
##harkrankar
##harmon
##hart
##has
##hast
##hastar
##hastighet
##hat
##hatt
##hattan
##haug
##haugen
##haus
##hausen
##hav
##havare
##havaren
##haven
##havet
##havn
##havns
##havs
##havslekene
##haw
##hay
##he
##hea
##head
##hed
##heh
##hei
##heid
##heim
##heimen
##heimer
##hein
##heit
##hel
##helea
##helm
##hem
##hems
##hen
##heng
##her
##hera
##heran
##herine
##herr
##herre
##herren
##hers
##hert
##hes
##het
##heta
##heten
##heter
##hets
##heus
##hew
##hi
##hia
##hias
##hielm
##hii
##hil
##hild
##hill
##him
##hin
##hipp
##hir
##hira
##hiracar
##hiro
##his
##histor
##historia
##historie
##historien
##historiker
##historisk
##historiska
##historiske
##historiskt
##hius
##hiz
##hiza
##hj
##hjal
##hjalp
##hjart
##hjartbladig
##hjartbladiga
##hjel
##hjelp
##hjem
##hjul
##hk
##hl
##hla
##hlen
##hm
##hn
##hna
##ho
##hoch
##hod
##hode
##hoe
##hof
##hoff
##hog
##hogskolan
##hoj
##hojd
##hojden
##hol
##hold
##holde
##holder
##holdes
##holdt
##hole
##holl
##holm
##holmen
##holms
##holt
##hon
##hop
##hopp
##hor
##hora
##horax
##hord
##horde
##horighet
##horn
##horne
##horningar
##horst
##hort
##horus
##hos
##hot
##hou
##house
##hout
##hov
##hoven
##how
##hr
##hra
##hs
##ht
##hteh
##hti
##hts
##hu
##hua
##huang
##hug
##hugg
##hui
##hult
##hum
##hund
##hundra
##hur
##hurst
##hus
##husen
##huset
##huvud
##huvudort
##huvudstaden
##hv
##hver
##hvert
##hwa
##hy
##hyd
##hynchus
##hys
##høg
##høgskole
##høy
##høyde
##i
##ia
##iac
##iaceae
##iae
##iah
##iak
##ial
##iale
##ialer
##iales
##ialet
##ialis
##ian
##iana
##iane
##iang
##iani
##iano
##ians
##iansk
##ianska
##ianske
##ianum
##ianus
##iao
##iar
##iarab
##iaren
##iaria
##ias
##iast
##iat
##iata
##iater
##iation
##ib
##iba
##ibal
##iban
##ibar
##ibel
##iber
##ibi
##ibia
##ibil
##iblant
##ible
##ibliote
##ibo
##iburg
##ibus
##ic
##ica
##ical
##icalis
##icana
##icata
##icaud
##icauda
##ice
##icea
##icella
##iceps
##icer
##icera
##ices
##ich
##icha
##iche
##ichi
##ichneumon
##icht
##ichte
##ichth
##ichthys
##ichus
##ici
##icia
##icin
##icip
##icitet
##ick
##icka
##icks
##icky
##ico
##icol
##icola
##icollis
##icolor
##icon
##icornis
##ics
##ict
##icta
##iction
##ictus
##icula
##icularis
##iculata
##iculatus
##icum
##icus
##icy
##icz
##id
##ida
##idaceae
##idad
##idae
##idan
##idar
##idas
##idat
##idaw
##iday
##idd
##idda
##idde
##iddel
##ide
##idea
##ideer
##iden
##idene
##idens
##ident
##ider
##iderna
##ides
##idet
##idge
##idi
##idia
##ididae
##idig
##idion
##idis
##idium
##idius
##idler
##idning
##idningen
##ido
##idon
##idor
##idos
##idrett
##ids
##idu
##idum
##idus
##idy
##ie
##ieb
##ied
##ief
##ieg
##iek
##iel
##ield
##iell
##iella
##ielle
##iellt
##ielt
##ien
##iende
##iene
##ienne
##iens
##iense
##iensis
##ient
##ienten
##ienter
##iep
##ier
##iera
##ierad
##ierade
##iere
##ieres
##ieri
##iering
##iermark
##iern
##ierna
##ierne
##ierre
##iers
##iert
##ierung
##ies
##iet
##iets
##ieu
##ieux
##iev
##iew
##if
##ifa
##ifas
##ife
##ifer
##ifera
##iff
##iffer
##ific
##ifier
##ifik
##ifikat
##ifikation
##ifilm
##ifisering
##ifisert
##ifl
##iflora
##iflorum
##ifol
##ifolia
##ifolium
##ifolius
##ifor
##iform
##iformis
##iforn
##ifran
##ifrons
##ift
##ifta
##ifte
##ifter
##iftet
##ig
##iga
##igalpa
##igan
##igar
##igare
##igaste
##ige
##igen
##igenom
##iger
##igera
##iges
##iget
##igg
##iggins
##igh
##ighet
##igheten
##ighetene
##igheter
##igheterna
##ight
##ights
##igi
##igma
##ign
##ignal
##igne
##igner
##ignon
##igny
##igo
##igor
##igra
##igt
##igu
##igua
##igur
##iguren
##ih
##ii
##iidae
##iii
##iinae
##ij
##ija
##ijan
##ijarvi
##ijer
##iji
##ijk
##ik
##ika
##ikal
##ikan
##ikanska
##ikar
##ikasjon
##ikat
##ikation
##ike
##iken
##ikens
##iker
##ikere
##ikeren
##ikern
##ikerna
##ikert
##iket
##ikh
##iki
##ikk
##ikkel
##ikkelen
##ikken
##ikkens
##ikker
##ikkert
##ikki
##iko
##ikomm
##ikon
##ikor
##ikos
##ikov
##ikring
##iks
##ikt
##ikten
##ikter
##iktet
##iku
##ikum
##il
##ila
##iland
##ilar
##ild
##ilda
##ilde
##ilden
##ilder
##ilding
##ile
##ileg
##ilen
##iler
##iles
##ilet
##iley
##ili
##ilia
##ilian
##ilien
##ilin
##iling
##ilio
##ilis
##ilj
##ilja
##iljen
##iljon
##ill
##illa
##illan
##illar
##illaria
##illas
##illata
##ille
##illen
##iller
##illes
##illet
##illi
##illia
##illidae
##illing
##illingen
##illinger
##illo
##illon
##illos
##ills
##illus
##illverk
##illverkare
##illverkaren
##illverkning
##illy
##ilm
##ilo
##ilom
##ilometer
##ils
##ilt
##ilte
##ilum
##ilus
##ily
##im
##ima
##iman
##imar
##imb
##imbo
##ime
##imen
##iment
##imenter
##imentet
##imer
##imet
##imeter
##imi
##imil
##imilis
##imir
##immer
##imn
##imo
##imon
##imore
##imot
##imp
##impla
##ims
##imum
##imus
##in
##ina
##inac
##inae
##inal
##inalen
##inalis
##inam
##inan
##inand
##inar
##inas
##inat
##inata
##inatus
##inav
##inc
##include
##incta
##ind
##inda
##inde
##indel
##inden
##inder
##indi
##indlar
##indust
##industri
##industrien
##industrin
##ine
##inea
##ineata
##ineau
##inella
##inen
##inensis
##iner
##inering
##inerne
##inert
##ines
##iness
##inet
##inett
##inette
##infl
##inform
##ing
##inga
##ingane
##ingar
##ingarna
##ingart
##inge
##ingen
##ingene
##ingeniør
##ingenjor
##ingens
##inger
##inget
##ingham
##ingo
##ingom
##ingrad
##ings
##ingsas
##ingst
##ington
##inha
##inho
##ini
##inia
##inidae
##ining
##ininga
##inis
##inist
##inister
##inius
##inje
##injen
##ink
##inka
##inn
##inna
##innan
##innande
##innare
##inne
##innen
##inner
##innes
##innet
##innhold
##innor
##innsp
##innte
##ino
##inos
##inosa
##ins
##insk
##inska
##inske
##inson
##inspe
##inspektor
##inspel
##inspelningar
##inst
##instit
##institut
##institutet
##institutt
##instrument
##int
##inta
##inte
##intend
##inter
##inth
##into
##inton
##intosh
##ints
##inum
##inus
##io
##ioc
##ioch
##iod
##ioder
##iodes
##ioides
##iol
##iola
##iologi
##ion
##iona
##ionde
##ione
##ionen
##ionens
##ioner
##ionerna
##ionidae
##ions
##iop
##iopsis
##ior
##ios
##iosa
##iot
##iou
##ious
##iox
##ioxid
##ip
##ipa
##ipalp
##ipalpus
##ipan
##ipe
##ipel
##ipend
##ipennis
##ipes
##iph
##ipha
##iphon
##iphora
##ipp
##ipper
##ips
##ique
##ir
##ira
##irah
##iral
##iras
##irasjon
##irat
##iration
##ird
##ire
##ireg
##iregemente
##irekt
##irektor
##irektør
##iren
##irer
##ires
##iret
##iri
##irig
##iris
##irk
##irkel
##irn
##iro
##irost
##irostris
##irov
##irs
##irt
##irus
##is
##isa
##isaari
##isan
##isar
##isc
##isca
##isch
##ische
##ischen
##ischer
##iscidae
##iscus
##ise
##isel
##isen
##iser
##isera
##iserad
##iserade
##iserades
##iserande
##iserar
##iseras
##iserat
##iserats
##isere
##iserende
##iserer
##iseres
##isering
##iseringa
##iseringen
##iserings
##isert
##iserte
##iset
##ish
##isha
##ishi
##isi
##isia
##isin
##isj
##isjon
##isjonen
##isjoner
##isk
##iska
##iskan
##iskar
##iske
##iskop
##iskt
##islav
##ism
##ismat
##isme
##ismen
##ismens
##ismer
##iso
##ison
##isont
##isp
##iss
##issa
##isse
##isseau
##issen
##isset
##issima
##issing
##ission
##issionen
##issus
##ist
##ista
##istan
##istans
##istanse
##istar
##iste
##isten
##istene
##istens
##istent
##ister
##isterna
##isternas
##istes
##istik
##istikk
##istisk
##istiska
##istiske
##istiskt
##isto
##istor
##istra
##istri
##istrikt
##istriktet
##istus
##it
##ita
##itaine
##ital
##italet
##itan
##itar
##itara
##itas
##itasjon
##itat
##itation
##itch
##ite
##ited
##iteen
##itel
##iteln
##iten
##iter
##itering
##iterna
##itert
##iteruss
##ites
##itet
##iteten
##iteter
##itets
##ith
##ithe
##ithecia
##ithi
##iti
##itia
##ities
##itim
##ition
##itionen
##itioner
##itis
##itiska
##itiv
##itiva
##itive
##itivt
##itla
##itlan
##ito
##iton
##itor
##itos
##itra
##itrium
##its
##itsa
##itsch
##itsup
##itt
##itta
##ittata
##itte
##ittel
##ittelen
##itten
##ittene
##itter
##ittisk
##ittiske
##itu
##itud
##itum
##itung
##itus
##ity
##itz
##itze
##itære
##iu
##iulus
##ium
##ius
##iuse
##iv
##iva
##ival
##ivalen
##ivan
##ive
##iven
##iventris
##iver
##ivers
##ivert
##ivet
##ivi
##ivil
##ivind
##ivis
##ivision
##ivisionen
##ivo
##ivt
##ix
##iy
##iya
##iyah
##iyan
##iyat
##iye
##iyya
##iz
##iza
##ization
##ize
##izer
##izhou
##iør
##j
##ja
##jab
##jad
##jade
##jades
##jag
##jah
##jak
##jakt
##jal
##jala
##jam
##jan
##jana
##jande
##jang
##jans
##janst
##jansten
##janster
##jar
##jara
##jarder
##jare
##jaren
##jaril
##jarn
##jarnarna
##jarne
##jarneart
##jarnen
##jarnet
##jarnor
##jart
##jarvi
##jas
##jat
##jaure
##jav
##jd
##jde
##je
##jeb
##jed
##jef
##jeg
##jeh
##jek
##jekt
##jekter
##jektet
##jektiv
##jel
##jeld
##jem
##jen
##jene
##jeneste
##jenesten
##jenester
##jenko
##jent
##jente
##jep
##jer
##jere
##jerg
##jering
##jern
##jerna
##jerne
##jerte
##jes
##jest
##jet
##jev
##jeva
##jevitj
##jevo
##ji
##jia
##jiang
##jic
##jin
##jing
##jinga
##jk
##jka
##jm
##jma
##jn
##jning
##jo
##job
##jok
##joki
##jol
##jon
##jonen
##joner
##jong
##jor
##jord
##jorde
##jorden
##jordes
##joren
##jort
##jos
##jot
##jou
##journ
##journalist
##jov
##js
##jt
##ju
##juk
##juka
##jul
##jun
##jung
##junkt
##jup
##jur
##jus
##jut
##jutant
##jylland
##jø
##jøen
##jør
##jøre
##jørn
##k
##ka
##kab
##kacker
##kackerlackor
##kak
##kal
##kala
##kall
##kalla
##kalt
##kam
##kammaren
##kammer
##kamp
##kampen
##kan
##kanalen
##kand
##kanda
##kande
##kandes
##kandidat
##kann
##kanna
##kans
##kant
##kanta
##kanten
##kap
##kapp
##kapten
##kar
##kare
##karen
##karl
##karn
##karna
##karriar
##karriere
##kas
##kast
##kaster
##kastning
##kat
##kateg
##ke
##keart
##ked
##keh
##kehus
##kek
##kel
##keley
##kelige
##kelser
##ken
##kene
##ker
##kerne
##kers
##kes
##kester
##ket
##key
##kh
##ki
##kilometer
##kin
##king
##kins
##kinson
##kir
##kirchen
##kirk
##kirke
##kirken
##kit
##kj
##kje
##kjem
##kjempe
##kjemper
##kjempet
##kjen
##kjent
##kjer
##kjøp
##kjør
##kjøring
##kk
##kka
##kkar
##kke
##kkede
##kkel
##kken
##kkene
##kker
##kkes
##kket
##kkje
##kl
##kla
##klad
##klam
##klar
##klare
##klart
##klass
##klasse
##klassen
##kle
##kler
##klimat
##klin
##klipp
##klock
##klok
##klokrypare
##kloster
##klub
##klubb
##klubben
##klund
##klus
##kn
##kning
##kningen
##kninger
##knipp
##knott
##ko
##kob
##kod
##kogel
##kok
##kol
##kolon
##kom
##komite
##komiteen
##komm
##komma
##kommand
##kommande
##kommander
##kommanderende
##kommando
##kommen
##kommende
##kommer
##kommit
##kommun
##kommunen
##komp
##komst
##komsten
##kon
##konfer
##kong
##konkur
##konkurranse
##konkurransen
##konom
##konomi
##kons
##konst
##konstnar
##konstru
##konstrukt
##konsul
##kont
##kontin
##kontor
##kontoret
##kontrakt
##kontroll
##kontroller
##kop
##kopf
##koping
##kopings
##kopp
##kor
##kore
##korea
##koreansk
##korn
##kors
##kort
##kos
##kost
##kot
##kov
##kow
##kra
##kraft
##kraften
##kraftor
##kraftverk
##kre
##kreis
##kret
##krets
##kretsen
##kretser
##krig
##krigen
##kriget
##krigstiden
##krit
##kritiker
##kro
##kron
##kropp
##kroppen
##krypare
##ks
##ksam
##ksamen
##kse
##ksem
##ksh
##kshire
##ksjon
##ksjonen
##ksjoner
##ksom
##ksomhet
##ksomheten
##kt
##kta
##ktar
##kte
##kten
##ktene
##kter
##ktes
##ktet
##ktig
##ktige
##ktion
##ktionen
##ktioner
##ktiv
##ktive
##kton
##ktor
##ktorer
##ktorn
##ktør
##ku
##kul
##kultur
##kulturen
##kun
##kunn
##kunst
##kur
##kurs
##kust
##kusten
##kv
##kval
##kvart
##kvarter
##kved
##kvens
##kvist
##ky
##kyrk
##kyrka
##kyrkan
##kyrkje
##kysten
##l
##la
##lab
##lac
##lace
##lach
##lack
##lackor
##lad
##lada
##ladd
##lade
##lades
##lag
##laga
##lagar
##lagd
##lagda
##lage
##lagen
##lager
##laget
##lagg
##lagga
##laggning
##laggningar
##laggningen
##lagt
##lagte
##lah
##lain
##lak
##lakare
##lake
##lakt
##laktet
##lam
##lamn
##lamnade
##lan
##land
##landa
##lande
##lander
##landet
##landor
##lands
##landsk
##landska
##landskap
##landske
##landsklimat
##landslag
##landsoarna
##lane
##lang
##lange
##lans
##lanssteklar
##lant
##lanten
##lapp
##lar
##lara
##larare
##lare
##laren
##larna
##las
##lasjon
##lass
##lasse
##lassen
##lasser
##last
##lat
##late
##laten
##later
##lats
##latsen
##latser
##latt
##latta
##lau
##laus
##lav
##lava
##lax
##lay
##laz
##ld
##lden
##le
##lea
##leart
##leb
##leby
##lect
##led
##ledare
##ledaren
##lede
##leden
##leder
##ledes
##ledet
##ledning
##ledningen
##lee
##lef
##leg
##legaste
##lege
##legg
##legge
##legger
##legget
##legging
##leh
##lei
##leiar
##leik
##leiken
##lein
##leir
##leis
##lejon
##lek
##leken
##lekene
##leker
##leks
##lekt
##lekten
##lem
##lema
##lemann
##lemen
##lement
##lemer
##lemma
##len
##lenburg
##lend
##lende
##lene
##leng
##ler
##lera
##lere
##leri
##leria
##lers
##lert
##les
##lesp
##less
##lest
##lesvig
##let
##leton
##lett
##lev
##leva
##levande
##leve
##leveland
##lever
##lex
##lexa
##ley
##leyi
##leys
##li
##lia
##lian
##liber
##lic
##lica
##lich
##liche
##lid
##lidae
##lie
##lieb
##lien
##lier
##liers
##lies
##life
##lig
##liga
##ligaen
##ligan
##ligare
##ligaste
##lige
##ligen
##ligg
##liggande
##liggende
##lighet
##ligheten
##ligheter
##light
##ligste
##ligt
##lii
##lik
##lika
##like
##likevel
##likk
##likna
##liknande
##likt
##lim
##lima
##limat
##limeter
##lin
##lind
##line
##lines
##ling
##linga
##lingar
##lingarna
##linge
##lingen
##linger
##lings
##lington
##linje
##linjen
##linjer
##lins
##lio
##lion
##liote
##lip
##lipp
##lips
##lis
##lish
##lisk
##list
##lista
##listan
##liste
##listen
##listene
##lister
##lit
##lits
##litt
##litter
##litteratur
##litz
##lius
##liv
##livare
##livet
##lj
##ljung
##ljus
##ll
##lo
##loa
##lob
##loc
##loch
##lock
##lod
##loder
##loe
##loea
##lof
##log
##logs
##loj
##lok
##lokal
##lom
##lon
##long
##loo
##lop
##lopare
##lopning
##lopp
##loppet
##loppor
##lor
##lora
##los
##losa
##loshet
##losis
##loss
##lossa
##lost
##lot
##lott
##lou
##lov
##lova
##loven
##low
##ls
##lu
##lubb
##lubben
##lude
##lum
##lund
##lunda
##lunds
##lus
##lussteklar
##lut
##ly
##lyck
##lyd
##lyft
##lyn
##lys
##lyst
##lyste
##lystet
##lærer
##lø
##løp
##løper
##løpet
##løs
##løse
##løst
##løy
##løytnant
##m
##ma
##mac
##mad
##made
##mah
##main
##maire
##mak
##makt
##makten
##maktene
##makter
##maktige
##mal
##malar
##malare
##maler
##malet
##malm
##malningar
##man
##mand
##mande
##mane
##mang
##manhang
##mani
##manland
##manlands
##mann
##manna
##mannen
##mannia
##manns
##mans
##mansk
##mant
##manuel
##manus
##mar
##marck
##mare
##maren
##marg
##mark
##marka
##marke
##marken
##marker
##market
##marksam
##marna
##marskalk
##mart
##mas
##mask
##maskar
##maskart
##maskin
##maskiner
##mass
##massigt
##mast
##mastare
##mastaren
##maste
##mat
##mata
##matare
##match
##mater
##material
##matidae
##matning
##matt
##me
##mea
##meb
##med
##medal
##medalj
##medalje
##medaljen
##medaljer
##medaljor
##mede
##medel
##medlem
##meh
##meister
##mekan
##mektig
##mel
##melia
##melig
##melse
##melser
##men
##mende
##mene
##meng
##menn
##menne
##mennene
##mens
##ment
##menter
##mentet
##mer
##mera
##mere
##meria
##merke
##merker
##merket
##mern
##mers
##mes
##messig
##messige
##mest
##mester
##mesterskapet
##met
##meter
##mets
##mex
##mi
##mia
##mid
##midae
##middagen
##middel
##mig
##mil
##miljø
##miljøet
##min
##ming
##mingham
##minist
##minister
##minster
##minton
##mir
##miral
##mis
##mit
##mitt
##ml
##mm
##mo
##mod
##modell
##modellen
##modern
##moen
##moj
##mok
##mol
##mon
##mond
##mons
##mont
##mor
##mord
##more
##mos
##moss
##mossa
##mossart
##mossor
##mot
##motiv
##motor
##motorer
##mour
##mouth
##mov
##moz
##mp
##ms
##mu
##mud
##mun
##mund
##munt
##mur
##muren
##murer
##mus
##muse
##museet
##museum
##musik
##musiken
##musiker
##musikk
##my
##myggor
##myn
##myr
##møre
##n
##na
##nabb
##nac
##naceae
##nad
##nadde
##nade
##naden
##nadene
##nader
##naderna
##nades
##nah
##nal
##nam
##namn
##namnda
##namnet
##nan
##nande
##napp
##nar
##nare
##naren
##narna
##nas
##nast
##nat
##nats
##natt
##nattslandor
##nav
##navn
##navnet
##nd
##nde
##ne
##nea
##neby
##ned
##nede
##neh
##nek
##nell
##nelse
##nelsen
##nelser
##nem
##nemis
##nen
##nende
##nene
##nens
##ner
##nere
##neri
##ners
##nes
##neset
##ness
##nest
##net
##nets
##nett
##neum
##neumon
##nev
##nevn
##nevnte
##ney
##neys
##ng
##ni
##nia
##nica
##nick
##nie
##nik
##ning
##ninga
##ningane
##ningar
##ningarna
##ningen
##ningene
##ningens
##ninger
##nings
##ningsm
##ningsom
##ningsomrade
##ningsomraden
##ningsomradet
##ningsp
##ningss
##ningst
##ningstid
##ningstiden
##ningsvis
##nis
##niska
##nit
##nitz
##nius
##niva
##no
##nok
##nom
##non
##nor
##nord
##norr
##norsk
##nos
##not
##ns
##nst
##nsyn
##nt
##nu
##num
##nummer
##nus
##ny
##o
##oa
##oar
##oarna
##oas
##ob
##oba
##obal
##obar
##obas
##obates
##obe
##ober
##oberg
##obergs
##obi
##obia
##obil
##obium
##obius
##oblast
##oble
##obo
##obolus
##obry
##obus
##oc
##oca
##ocal
##ocamp
##ocar
##ocarp
##ocarpa
##ocarpaceae
##ocarpus
##ocaust
##occus
##oce
##ocen
##ocent
##ocentrus
##ocephal
##ocephala
##ocephalus
##ocer
##ocera
##ocerus
##och
##ocha
##ochaeta
##ocharis
##oche
##ochia
##ochilus
##ochiton
##ochrysa
##ocial
##ock
##ocke
##ocken
##ocker
##ockey
##ockeyt
##ocko
##oclad
##ocladius
##oco
##ococcus
##ocon
##ocoris
##ocus
##ocy
##od
##oda
##odactylus
##odar
##odde
##odden
##ode
##odell
##oden
##odendron
##oder
##oderma
##odes
##odesmidae
##odesmus
##odespel
##odet
##odi
##odia
##odidae
##odip
##odiplosis
##odon
##odont
##odonta
##odor
##odra
##odrom
##odromus
##odrosophila
##ods
##odus
##ody
##odyn
##odynerus
##odz
##oe
##oen
##oende
##oensis
##oer
##oeurope
##of
##ofag
##ofer
##off
##offer
##offic
##officer
##offiser
##offisi
##ofon
##oft
##ofys
##og
##oga
##ogae
##ogan
##ogarden
##ogast
##ogaster
##oge
##ogel
##ogen
##ogene
##ogenes
##ogenhet
##oger
##oget
##ogg
##ogh
##ogi
##ogloss
##oglossa
##oglossum
##ogly
##ogn
##ogna
##ognathus
##ogne
##ogner
##ogo
##ogon
##ogona
##ogonia
##ogra
##ograd
##ograf
##ografi
##ografisk
##ografiska
##ografiske
##ografiskt
##ogram
##ogramma
##ograph
##ogryl
##ogryllus
##ogs
##ogy
##ogyne
##oh
##ohe
##ohn
##ohus
##oi
##oid
##oide
##oidea
##oides
##oil
##ois
##oj
##ojtnant
##ok
##oka
##okal
##okalen
##okan
##okar
##oke
##oken
##oker
##oki
##okk
##okken
##okker
##okko
##oko
##okoll
##okon
##okrat
##oks
##okse
##oksid
##okt
##okte
##oktor
##oku
##okument
##ol
##ola
##olab
##olabis
##olag
##olaget
##olan
##oland
##olar
##olas
##olata
##olax
##old
##oldater
##olds
##ole
##olen
##olep
##olepis
##oler
##oles
##olet
##olf
##oli
##olia
##olid
##olig
##olin
##olis
##olit
##olitisk
##olja
##olje
##olk
##oll
##olla
##olle
##ollen
##oller
##ollo
##olo
##olog
##ologen
##ologer
##ologi
##ological
##ologien
##ologier
##ologin
##ologisk
##ologiska
##ologiske
##ologiskt
##ology
##oloma
##olon
##olonth
##oloph
##olophia
##olor
##olp
##olph
##ols
##olt
##olus
##oly
##olycka
##om
##oma
##omac
##omal
##oman
##omar
##omast
##omat
##omataceae
##omatidae
##omb
##ombe
##ome
##omen
##omena
##omer
##omerus
##omet
##ometer
##omgang
##omgangen
##omi
##omia
##omidae
##oming
##omm
##omma
##omme
##ommen
##ommer
##ommern
##ommet
##ommun
##omo
##omon
##omorpha
##omorphus
##omot
##omp
##ompan
##ompani
##omphus
##omrada
##omrade
##omraden
##omradene
##omrader
##omradet
##oms
##omum
##omus
##omy
##omya
##omyc
##omyces
##omycetes
##omyia
##omys
##omyza
##on
##ona
##onas
##ond
##onda
##onde
##onder
##ondi
##ondo
##ondon
##one
##onem
##onen
##onent
##onenter
##oner
##onering
##ones
##oneura
##oney
##ong
##onga
##ongen
##onger
##ongia
##ongo
##oni
##onia
##oniaceae
##onica
##onidae
##oniella
##onien
##oniidae
##oning
##onis
##oniscus
##onium
##onius
##onn
##onna
##onne
##ono
##onom
##onoma
##onomus
##onotus
##ons
##onsin
##onso
##onst
##ont
##onta
##onte
##onting
##onto
##onus
##ony
##onym
##onymus
##onyx
##oo
##ood
##ool
##oon
##op
##opa
##opal
##opan
##opar
##oparmelia
##opatra
##ope
##oped
##opel
##open
##oper
##opera
##operan
##operla
##opes
##opet
##opez
##opf
##oph
##ophaga
##ophagus
##ophanes
##ophil
##ophila
##ophilus
##ophis
##ophor
##ophora
##ophorus
##ophry
##opht
##ophthal
##ophthalmus
##ophus
##ophy
##ophylla
##ophyllaceae
##ophyllum
##ophyt
##ophytum
##opia
##opidae
##opio
##opis
##opius
##opl
##oplan
##ople
##oplus
##opo
##opod
##opoda
##opogon
##opol
##opolis
##opon
##opora
##oporus
##opot
##opota
##opp
##oppen
##oppet
##oppgav
##oppia
##opptak
##opro
##oprocent
##opros
##ops
##opsidae
##opsis
##opsyche
##opsylla
##opt
##opter
##optera
##opteridaceae
##opteris
##opterus
##opteryx
##opul
##opung
##opus
##opyg
##opyga
##oq
##or
##ora
##oraceae
##oras
##orca
##ord
##orda
##ordan
##orde
##orden
##ordenen
##order
##ordes
##ordet
##ordforande
##ordfører
##ordin
##ordning
##ordningen
##ords
##ore
##orea
##oreala
##orella
##orelse
##orelsen
##oren
##oreningar
##orer
##orerades
##orerna
##ores
##oret
##orf
##orff
##org
##organ
##organer
##organis
##organisasjon
##organisasjonen
##organisasjoner
##organisation
##organisationen
##organisationer
##orge
##orget
##orgia
##orgs
##orh
##orhynchus
##ori
##oria
##orianska
##orib
##oridae
##orien
##orier
##oriet
##orin
##oris
##orium
##ork
##orkester
##orlunda
##orm
##orn
##orna
##ornas
##orne
##ornet
##ornis
##orno
##orns
##oro
##orp
##orph
##orpha
##orphus
##orps
##orr
##orra
##ors
##orsk
##ort
##orte
##orten
##orter
##orth
##orts
##ortsvaxtart
##ortsvaxter
##orum
##orus
##ory
##os
##osa
##osaari
##osaur
##osaurus
##osc
##oscel
##oscelis
##osch
##ose
##osen
##oser
##oserica
##oset
##osex
##osf
##osh
##oshi
##osi
##osia
##osial
##osis
##osisjon
##osition
##osjon
##osk
##oslav
##oslov
##oslovak
##osm
##osma
##oso
##osof
##osom
##osoma
##osp
##ospermum
##osphaer
##osphaeria
##ospilus
##ospor
##ospora
##osporium
##oss
##ossa
##ossen
##ost
##ostema
##ostemma
##osten
##oster
##ostern
##osterreich
##osticta
##ostigma
##ostom
##ostoma
##ostomus
##ostylis
##osum
##osus
##osystem
##ot
##ota
##otal
##otan
##ote
##otea
##oten
##oter
##otes
##otet
##otettix
##oth
##othal
##othe
##othea
##otheca
##other
##othisa
##otho
##othorax
##othrips
##othrix
##othy
##oti
##otidae
##otiomycetes
##otis
##otisk
##otiska
##otiske
##oto
##otom
##otoma
##oton
##otor
##otrema
##otria
##otrich
##otrichia
##otrop
##ots
##ott
##otta
##otte
##otten
##otter
##otti
##otum
##otus
##otyp
##ou
##oua
##ouais
##ouan
##ouard
##ouch
##oud
##oue
##ouf
##ough
##oui
##ouia
##ouk
##oul
##oula
##oum
##oun
##oupe
##our
##oura
##ourg
##ouri
##ourn
##ourt
##ous
##out
##outh
##oux
##ouz
##ov
##ova
##ovac
##ovan
##ovare
##ove
##ovel
##oven
##over
##ovi
##ovia
##ovic
##ovica
##ovice
##ovich
##ovina
##ovis
##ovit
##ovitj
##ovitsj
##ovo
##ovs
##ovskij
##ovsky
##ow
##owe
##own
##owr
##ows
##owska
##owski
##ox
##oxa
##oxylon
##oy
##oya
##oz
##ozo
##p
##pa
##pad
##padd
##pal
##pan
##paniet
##pap
##par
##parasit
##paret
##park
##parken
##part
##partem
##partement
##partementet
##parten
##parti
##partiet
##partiets
##pas
##pass
##passet
##pat
##pe
##pec
##ped
##pedagog
##pel
##pelare
##pelet
##pen
##per
##pera
##peratur
##peraturen
##pere
##period
##periode
##perioden
##perioder
##perm
##perma
##permum
##perna
##pers
##person
##personen
##personer
##pert
##pes
##pet
##ph
##pha
##phia
##phis
##phus
##phy
##pi
##pid
##pil
##pin
##ping
##pip
##pis
##pl
##plac
##plan
##planen
##planet
##plant
##planter
##plass
##plassen
##plasser
##plat
##plata
##plate
##plater
##plats
##platsen
##platser
##platt
##ple
##plen
##plet
##plex
##plikt
##pm
##po
##pol
##polen
##polit
##polo
##pool
##pop
##por
##port
##porten
##pos
##post
##posten
##pot
##pp
##ppa
##ppar
##ppe
##ppel
##ppen
##pper
##ppet
##ppo
##pr
##pre
##prefekt
##prem
##president
##press
##prest
##pris
##prise
##prisen
##priset
##pro
##problem
##prod
##produksjon
##produkt
##produkter
##produktion
##produs
##produsent
##prof
##program
##programmet
##projekt
##pros
##prov
##provinsen
##ps
##pson
##pt
##pta
##pton
##pu
##pun
##punkt
##punkten
##punkter
##punktet
##pur
##pus
##py
##q
##qa
##qah
##qi
##qing
##qq
##qu
##qua
##que
##quel
##quer
##ques
##quet
##queta
##quez
##qui
##quia
##quil
##quin
##quis
##quist
##qvist
##r
##ra
##rab
##rac
##rach
##racing
##rack
##racklig
##rackligt
##rad
##rada
##radande
##radd
##radde
##rade
##raden
##rader
##rades
##radet
##radets
##radio
##rador
##rae
##raea
##raf
##raff
##rafik
##rafikk
##raft
##raftverk
##rag
##raga
##ragen
##ragende
##raget
##rah
##rain
##rak
##rake
##rakech
##raket
##rakt
##rakte
##rakter
##ral
##rala
##rale
##ralen
##ralt
##ram
##ran
##rana
##rand
##rande
##randen
##rane
##rang
##rank
##rankar
##rano
##rans
##ransar
##ranse
##ransen
##ranser
##ransje
##ransjen
##ransport
##rant
##ranter
##rantz
##rap
##rapp
##rar
##rare
##rarna
##rary
##ras
##rasjon
##rasket
##rass
##rasset
##rast
##raste
##rat
##rata
##raten
##rater
##ration
##rationen
##rationer
##rations
##rats
##ratt
##ratta
##rattades
##ratten
##ratter
##rattigheter
##ratus
##rav
##rax
##ray
##raz
##re
##rea
##real
##reb
##recht
##red
##redakt
##redaktor
##redaktør
##rede
##reden
##redende
##redener
##reder
##redet
##rediens
##redik
##redning
##redningen
##reds
##ree
##reen
##reform
##reformen
##reg
##regemente
##regementet
##reger
##region
##regionen
##regiss
##regler
##reh
##rei
##reich
##reis
##reise
##rek
##rekk
##rekker
##rekning
##rekord
##rekorden
##rekt
##rel
##rell
##rella
##relse
##rem
##rema
##remedlem
##remiar
##ren
##rena
##rende
##rene
##rener
##reng
##renn
##rennet
##rens
##rent
##rep
##repet
##repp
##repren
##represent
##representant
##reps
##rept
##reptus
##republi
##republiken
##rer
##rera
##rerad
##rerade
##reras
##rerat
##rere
##rering
##rero
##rert
##rerte
##res
##resa
##resent
##resentant
##reser
##resident
##resjon
##resor
##resp
##ress
##ressa
##resse
##ressen
##resser
##ression
##rest
##result
##resultat
##resultatet
##ret
##reta
##rete
##reter
##reterare
##retning
##rets
##retsen
##rett
##retta
##rette
##retten
##retter
##rettet
##retær
##rev
##revet
##reville
##revis
##revne
##revol
##revolusjonen
##rey
##rh
##rhein
##ri
##ria
##riaceae
##rian
##riar
##riaren
##rib
##ric
##rica
##rice
##rich
##richia
##rick
##ricus
##rid
##rida
##ridae
##ride
##ridge
##rie
##rien
##rier
##riere
##rieren
##ries
##riet
##rif
##rifol
##rift
##riften
##rifter
##rig
##riga
##rige
##rigen
##right
##rik
##rika
##rike
##riken
##riker
##rikes
##rikespolit
##riket
##rikk
##riks
##rikt
##ril
##rill
##riller
##rillo
##rilus
##rim
##rima
##rimer
##rimin
##rin
##rina
##rine
##ring
##ringa
##ringar
##ringen
##ringer
##rings
##rington
##rinn
##rinningsom
##rins
##rinsen
##rinsipp
##rinus
##rio
##rion
##rip
##ripande
##ripes
##rips
##ript
##ris
##rise
##risen
##riser
##riset
##risk
##riska
##riske
##riskt
##rist
##rit
##rita
##ritann
##ritar
##riter
##rito
##ritt
##rium
##rius
##riv
##rivil
##rivna
##rix
##riz
##rn
##ro
##roa
##rob
##roblem
##roblemer
##robot
##roc
##rocer
##rocera
##rocess
##rocessen
##roch
##rock
##rod
##roder
##rodor
##roducer
##roduksjon
##rodukt
##roduktion
##rodus
##rodusent
##roe
##rof
##rofys
##rog
##rogen
##rogram
##rogrammet
##roi
##roit
##rok
##rol
##role
##roll
##rolle
##rollen
##rollene
##roller
##rollslandor
##rom
##roma
##roman
##romant
##romen
##romer
##romis
##rommet
##romy
##romyza
##ron
##rona
##rond
##rone
##roner
##rong
##ronia
##ronic
##ronom
##rons
##ront
##rop
##roph
##rophylla
##ropis
##ropiskt
##ropp
##roppen
##rops
##ropus
##ror
##rorelse
##rorelsen
##roret
##rorna
##ros
##rosa
##rose
##rosen
##rosia
##roskop
##rosophila
##ross
##rost
##rostis
##rostning
##rostningen
##rot
##rota
##roth
##rotis
##rotoma
##rots
##rott
##rotter
##rou
##rough
##round
##rov
##rover
##rovinsen
##rovn
##row
##rox
##roy
##rs
##rt
##ru
##ruc
##rud
##rudd
##rug
##ruk
##rukket
##rukt
##ruktbar
##ruktur
##rukturen
##rul
##rum
##rument
##rumentet
##rummet
##run
##rund
##runn
##rup
##rupp
##ruppa
##ruppe
##ruppen
##rupper
##rupperna
##rupt
##rus
##rust
##rustning
##rut
##ruta
##rute
##ruten
##ruter
##ruz
##ry
##ryck
##rycket
##ryd
##rygg
##rykk
##rykket
##ryl
##rym
##ryn
##ryp
##rypare
##rypt
##rys
##rysa
##ryss
##ryssland
##ryt
##ryte
##rytelser
##ryter
##ræ
##rær
##rød
##rør
##røret
##s
##sa
##saari
##sac
[...]
