[unused0]
[unused1]
[unused2]
[unused3]
[unused4]
[unused5]
[unused6]
[unused7]
[unused8]
[unused9]
[unused10]
[unused11]
[unused12]
[unused13]
[unused14]
[unused15]
[unused16]
[unused17]
[unused18]
[unused19]
[unused20]
[unused21]
[unused22]
[unused23]
[unused24]
[unused25]
[unused26]
[unused27]
[unused28]
[unused29]
[unused30]
[unused31]
[unused32]
[unused33]
[unused34]
[unused35]
[unused36]
[unused37]
[unused38]
[unused39]
[unused40]
[unused41]
[unused42]
[unused43]
[unused44]
[unused45]
[unused46]
[unused47]
[unused48]
[unused49]
[unused50]
[unused51]
[unused52]
[unused53]
[unused54]
[unused55]
[unused56]
[unused57]
[unused58]
[unused59]
[unused60]
[unused61]
[unused62]
[unused63]
[unused64]
[unused65]
[unused66]
[unused67]
[unused68]
[unused69]
[unused70]
[unused71]
[unused72]
[unused73]
[unused74]
[unused75]
[unused76]
[unused77]
[unused78]
[unused79]
[unused80]
[unused81]
[unused82]
[unused83]
[unused84]
[unused85]
[unused86]
[unused87]
[unused88]
[unused89]
[unused90]
[unused91]
[unused92]
[unused93]
[unused94]
[unused95]
[unused96]
[unused97]
[unused98]
[unused99]
[unused100]
[unused101]
[unused102]
[unused103]
[unused104]
[unused105]
[unused106]
[unused107]
[unused108]
[unused109]
[unused110]
[unused111]
[unused112]
[unused113]
[unused114]
[unused115]
[unused116]
[unused117]
[unused118]
[unused119]
[unused120]
[unused121]
[unused122]
[unused123]
[unused124]
[unused125]
[unused126]
[unused127]
[unused128]
[unused129]
[unused130]
[unused131]
[unused132]
[unused133]
[unused134]
[unused135]
[unused136]
[unused137]
[unused138]
[unused139]
[unused140]
[unused141]
[unused142]
[unused143]
[unused144]
[unused145]
[unused146]
[unused147]
[unused148]
[unused149]
[unused150]
[unused151]
[unused152]
[unused153]
[unused154]
[unused155]
[unused156]
[unused157]
[unused158]
[unused159]
[unused160]
[unused161]
[unused162]
[unused163]
[unused164]
[unused165]
[unused166]
[unused167]
[unused168]
[unused169]
[unused170]
[unused171]
[unused172]
[unused173]
[unused174]
[unused175]
[unused176]
[unused177]
[unused178]
[unused179]
[unused180]
[unused181]
[unused182]
[unused183]
[unused184]
[unused185]
[unused186]
[unused187]
[unused188]
[unused189]
[unused190]
[unused191]
[unused192]
[unused193]
[unused194]
[unused195]
[unused196]
[unused197]
[unused198]
[unused199]
[unused200]
[unused201]
[unused202]
[unused203]
[unused204]
[unused205]
[unused206]
[unused207]
[unused208]
[unused209]
[unused210]
[unused211]
[unused212]
[unused213]
[unused214]
[unused215]
[unused216]
[unused217]
[unused218]
[unused219]
[unused220]
[unused221]
[unused222]
[unused223]
[unused224]
[unused225]
[unused226]
[unused227]
[unused228]
[unused229]
[unused230]
[unused231]
[unused232]
[unused233]
[unused234]
[unused235]
[unused236]
[unused237]
[unused238]
[unused239]
[unused240]
[unused241]
[unused242]
[unused243]
[unused244]
[unused245]
[unused246]
[unused247]
[unused248]
[unused249]
[unused250]
[unused251]
[unused252]
[unused253]
[unused254]
[unused255]
[unused256]
[unused257]
[unused258]
[unused259]
[unused260]
[unused261]
[unused262]
[unused263]
[unused264]
[unused265]
[unused266]
[unused267]
[unused268]
[unused269]
[unused270]
[unused271]
[unused272]
[unused273]
[unused274]
[unused275]
[unused276]
[unused277]
[unused278]
[unused279]
[unused280]
[unused281]
[unused282]
[unused283]
[unused284]
[unused285]
[unused286]
[unused287]
[unused288]
[unused289]
[unused290]
[unused291]
[unused292]
[unused293]
[unused294]
[unused295]
[unused296]
[unused297]
[unused298]
[unused299]
[unused300]
[unused301]
[unused302]
[unused303]
[unused304]
[unused305]
[unused306]
[unused307]
[unused308]
[unused309]
[unused310]
[unused311]
[unused312]
[unused313]
[unused314]
[unused315]
[unused316]
[unused317]
[unused318]
[unused319]
[unused320]
[unused321]
[unused322]
[unused323]
[unused324]
[unused325]
[unused326]
[unused327]
[unused328]
[unused329]
[unused330]
[unused331]
[unused332]
[unused333]
[unused334]
[unused335]
[unused336]
[unused337]
[unused338]
[unused339]
[unused340]
[unused341]
[unused342]
[unused343]
[unused344]
[unused345]
[unused346]
[unused347]
[unused348]
[unused349]
[unused350]
[unused351]
[unused352]
[unused353]
[unused354]
[unused355]
[unused356]
[unused357]
[unused358]
[unused359]
[unused360]
[unused361]
[unused362]
[unused363]
[unused364]
[unused365]
[unused366]
[unused367]
[unused368]
[unused369]
[unused370]
[unused371]
[unused372]
[unused373]
[unused374]
[unused375]
[unused376]
[unused377]
[unused378]
[unused379]
[unused380]
[unused381]
[unused382]
[unused383]
[unused384]
[unused385]
[unused386]
[unused387]
[unused388]
[unused389]
[unused390]
[unused391]
[unused392]
[unused393]
[unused394]
[unused395]
[unused396]
[unused397]
[unused398]
[unused399]
[unused400]
[unused401]
[unused402]
[unused403]
[unused404]
[unused405]
[unused406]
[unused407]
[unused408]
[unused409]
[unused410]
[unused411]
[unused412]
[unused413]
[unused414]
[unused415]
[unused416]
[unused417]
[unused418]
[unused419]
[unused420]
[unused421]
[unused422]
[unused423]
[unused424]
[unused425]
[unused426]
[unused427]
[unused428]
[unused429]
[unused430]
[unused431]
[unused432]
[unused433]
[unused434]
[unused435]
[unused436]
[unused437]
[unused438]
[unused439]
[unused440]
[unused441]
[unused442]
[unused443]
[unused444]
[unused445]
[unused446]
[unused447]
[unused448]
[unused449]
[unused450]
[unused451]
[unused452]
[unused453]
[unused454]
[unused455]
[unused456]
[unused457]
[unused458]
[unused459]
[unused460]
[unused461]
[unused462]
[unused463]
[unused464]
[unused465]
[unused466]
[unused467]
[unused468]
[unused469]
[unused470]
[unused471]
[unused472]
[unused473]
[unused474]
[unused475]
[unused476]
[unused477]
[unused478]
[unused479]
[unused480]
[unused481]
[unused482]
[unused483]
[unused484]
[unused485]
[unused486]
[unused487]
[unused488]
[unused489]
[unused490]
[unused491]
[unused492]
[unused493]
[unused494]
[unused495]
[unused496]
[unused497]
[unused498]
[unused499]
[CLS]
[MASK]
[PAD]
[SEP]
[UNK]
!
"
#
$
%
&
'
(
)
*
+
,
-
.
/
0
1
2
3
4
5
6
7
8
9
:
;
=
?
@
[
\
]
^
_
`
a
b
c
d
e
f
g
h
i
j
k
l
m
n
o
p
q
r
s
t
u
v
w
x
y
z
{
|
}
~
¡
£
§
¨
«
¬
®
¯
°
±
²
³
´
µ
·
¹
º
»
¼
½
¾
¿
×
ß
æ
ð
÷
ø
þ
đ
ħ
ı
ł
ŋ
œ
ƒ
ɐ
ɑ
ɒ
ɔ
ɕ
ə
ɛ
ɡ
ɣ
ɨ
ɪ
ɲ
ɾ
ʀ
ʁ
ʃ
ʉ
ʊ
ʌ
ʒ
ʔ
ʰ
ʲ
ʹ
ʻ
ʼ
ʾ
ʿ
ˈ
ˌ
ː
˚
α
β
γ
δ
ε
ζ
η
θ
ι
κ
λ
μ
ν
ξ
ο
π
ρ
ς
σ
τ
υ
φ
χ
ψ
ω
а
б
в
г
д
е
ж
з
и
к
л
м
н
о
п
р
с
т
у
ф
х
ц
ч
ш
щ
ъ
ы
ь
э
ю
я
ђ
є
і
ј
љ
њ
ћ
џ
қ
ү
ә
ө
ա
բ
գ
դ
ե
զ
թ
ի
լ
խ
կ
հ
ղ
մ
յ
ն
շ
ո
պ
ռ
ս
վ
տ
ր
ց
ւ
ք
א
ב
ג
ד
ה
ו
ז
ח
ט
י
כ
ל
ם
מ
ן
נ
ס
ע
ף
פ
צ
ק
ר
ש
ת
ء
ا
ب
ة
ت
ث
ج
ح
خ
د
ذ
ر
ز
س
ش
ص
ض
ط
ظ
ع
غ
ـ
ف
ق
ك
ل
م
ن
ه
و
ى
ي
پ
چ
ژ
ک
گ
ھ
ہ
ۆ
ی
ێ
ە
ܐ
ܕ
ܘ
ܝ
ܪ
ܬ
अ
क
ग
च
ज
ट
ड
ण
त
द
ध
न
प
ब
भ
म
य
र
ल
व
श
ष
स
ह
ा
ि
ी
ो
॥
ক
জ
ত
দ
ন
প
ব
ম
য
র
ল
স
া
ি
ী
ে
ਅ
ਆ
ਇ
ਕ
ਖ
ਗ
ਜ
ਣ
ਤ
ਦ
ਨ
ਪ
ਮ
ਰ
ਲ
ਵ
ਸ
ਹ
ਾ
ਿ
ੀ
લ
க
ச
ட
த
ன
ப
ம
ர
ல
வ
ா
ி
ு
ల
ก
ค
ง
จ
ช
ด
ต
ท
น
บ
ป
พ
ม
ย
ร
ล
ว
ส
ห
อ
ะ
า
เ
་
།
ཀ
ཁ
ག
ང
ཆ
ད
ན
པ
ཕ
བ
མ
འ
ར
ལ
ཤ
ས
ა
ბ
გ
დ
ე
ვ
ზ
თ
ი
კ
ლ
მ
ნ
ო
პ
რ
ს
ტ
უ
ფ
ქ
ყ
შ
ც
ძ
წ
ხ
ᄀ
ᄂ
ᄃ
ᄅ
ᄆ
ᄇ
ᄉ
ᄋ
ᄌ
ᄎ
ᄏ
ᄐ
ᄑ
ᄒ
ᅡ
ᅢ
ᅣ
ᅥ
ᅦ
ᅧ
ᅨ
ᅩ
ᅪ
ᅬ
ᅭ
ᅮ
ᅯ
ᅱ
ᅲ
ᅳ
ᅴ
ᅵ
ᆨ
ᆫ
ᆯ
ᆷ
ᆸ
ᆺ
ᆼ
ᚢ
ᚦ
ᚱ
ᚴ
ᚾ
ᛁ
ᛅ
ᛋ
ᛏ
᛫
រ
ា
‐
‑
–
—
‘
’
“
”
„
†
•
…
‰
′
″
₂
€
℃
ℓ
№
™
⅓
⅔
→
∂
∇
∈
−
√
∞
≈
≤
≥
⋅
─
│
└
├
●
★
♠
♣
♥
♭
♯
⟨
⟩
い
う
か
き
し
た
と
の
は
り
ん
ア
ィ
イ
ウ
エ
オ
カ
キ
ク
コ
サ
シ
ス
タ
ッ
テ
ト
ナ
ハ
ヒ
フ
ホ
マ
ラ
リ
ル
レ
ロ
ン
・
ー
一
丁
七
万
三
上
下
世
东
中
丰
临
丹
主
义
之
乌
乐
九
乡
二
云
五
井
亚
京
亭
人
什
仁
仙
代
伊
会
佛
作
依
保
信
元
光
克
八
公
六
兰
共
关
兴
内
军
农
凤
刘
利
前
劉
力
加
勒
化
北
区
十
千
华
南
博
卡
厂
原
县
双
口
古
台
司
合
吉
同
名
后
吴
周
和
哈
唐
嘉
嘎
四
回
团
园
国
图
國
土
地
场
址
坊
坑
坝
坡
坪
城
堂
堡
塔
塘
士
夏
外
多
大
天
太
头
女
如
子
字
孙
孝
学
學
宁
安
宋
宗
官
定
宝
家
富
寨
寺
寿
小
尔
尖
尼
居
屯
山
屿
岗
岛
岩
岭
岳
峡
峰
島
川
州
工
巴
市
布
帝
常
干
平
年
广
庄
庆
库
店
庙
府
康
建
式
张
張
彝
彦
徐
德
心
成
所
扎
拉
政
教
文
斯
新
方
族
旗
日
旧
昌
明
星
春
普
景
曲
書
曹
會
月
有
望
朝
木
本
朱
机
李
村
杜
来
杨
東
松
板
林
果
柏
查
柳
树
株
根
格
桃
桑
桥
梁
梅
楼
横
正
武
毛
氏
民
水
永
汉
江
池
沙
沟
河
治
泉
法
波
泰
洋
洛
洞
津
洪
洲
流
浦
海
清
渡
温
港
湖
湾
源
溪
满
滩
漢
潭
灣
火
热
牛
物
特
玄
玉
王
玛
珠
理
瓦
生
田
甲
界
白
百
皇
盘
真
石
社
祖
神
福
秀
秋
科
秦
空
立
站
章
竹
經
红
纳
罗
羅
羊
美
群
義
老
胜
胡
自
良
色
花
苏
苗
若
英
茶
草
荣
莫
莲
華
营
蒙
藏
虎
行
街
西
观
角
語
谷
贡
赛
赤
赵
路
軍
车
达
连
通
道
遗
那
郊
郎
郡
部
郭
都
里
野
金
铁
铺
错
镇
長
长
門
门
阳
阿
陈
院
陳
陵
陽
隆
雄
雅
集
雪
青
音
顶
顺
风
香
馬
马
高
鱼
鲁
麻
黄
黑
龍
龙
00
000
01
02
03
04
05
06
07
08
09
10
100
1000
101
102
103
104
105
106
107
108
109
11
110
1100
111
112
113
114
115
116
117
118
119
12
120
1200
123
124
125
126
127
128
129
13
130
1300
133
134
135
136
137
138
139
14
140
1400
143
144
145
146
147
148
149
15
150
1500
152
1520
153
1536
154
155
1550
156
157
158
159
16
160
1600
161
162
1620
163
1630
1634
164
1640
1644
1645
1648
165
1650
1658
166
1660
1665
1667
167
1670
1675
1676
1679
168
1680
1682
1683
1685
1686
1688
1689
169
1690
1695
1697
1699
17
170
1700
1701
1702
1704
1707
1709
171
1710
1711
1712
1713
1714
1715
1716
1717
1718
1719
172
1720
1721
1723
1727
1728
173
1730
1731
1732
1733
1734
1735
1736
1737
1738
1739
174
1740
1741
1742
1743
1744
1745
1746
1747
1748
1749
175
1750
1751
1752
1753
1754
1755
1756
1757
1758
1759
176
1760
1761
1762
1763
1764
1765
1766
1767
1768
1769
177
1770
1771
1772
1773
1774
1775
1776
1777
1778
1779
178
1780
1781
1782
1783
1784
1785
1786
1787
1788
1789
179
1790
1791
1792
1793
1794
1795
1796
1797
1798
1799
18
180
1800
1801
1802
1803
1804
1805
1806
1807
1808
1809
181
1810
1811
1812
1813
1814
1815
1816
1817
1818
1819
182
1820
1821
1822
1823
1824
1825
1826
1827
1828
1829
183
1830
1831
1832
1833
1834
1835
1836
1837
1838
1839
184
1840
1841
1842
1843
1844
1845
1846
1847
1848
1849
185
1850
1851
1852
1853
1854
1855
1856
1857
1858
1859
186
1860
1861
1862
1863
1864
1865
1866
1867
1868
1869
187
1870
1871
1872
1873
1874
1875
1876
1877
1878
1879
188
1880
1881
1882
1883
1884
1885
1886
1887
1888
1889
189
1890
1891
1892
1893
1894
1895
1896
1897
1898
1899
19
190
1900
1901
1902
1903
1904
1905
1906
1907
1908
1909
191
1910
1911
1912
1913
1914
1915
1916
1917
1918
1919
192
1920
1921
1922
1923
1924
1925
1926
1927
1928
1929
193
1930
1931
1932
1933
1934
1935
1936
1937
1938
1939
194
1940
1941
1942
1943
1944
1945
1946
1947
1948
1949
195
1950
1951
1952
1953
1954
1955
1956
1957
1958
1959
196
1960
1961
1962
1963
1964
1965
1966
1967
1968
1969
197
1970
1971
1972
1973
1974
1975
1976
1977
1978
1979
198
1980
1981
1982
1983
1984
1985
1986
1987
1988
1989
199
1990
1991
1992
1993
1994
1995
1996
1997
1998
1999
20
200
2000
2001
2002
2003
2004
2005
2006
2007
2008
2009
201
2010
2011
2012
2013
2014
2015
2016
2017
2018
2019
2020
2021
21
210
22
220
225
23
230
24
240
25
250
26
260
27
270
28
280
29
290
30
300
3000
31
310
32
320
33
330
34
340
35
350
36
360
37
370
38
380
39
390
3d
40
400
4000
41
410
42
420
43
430
44
440
45
450
46
460
47
470
48
480
49
50
500
5000
51
52
53
54
55
550
56
57
58
59
60
600
61
62
63
64
65
650
66
67
68
69
70
700
71
72
73
74
75
750
76
77
78
79
80
800
81
82
83
84
85
850
86
87
88
89
90
900
91
92
93
94
95
96
97
98
99
a3
aa
aab
aage
aal
aalborg
aar
aarhus
aaron
aas
ab
abb
abbas
abbed
abbey
abbor
abborre
abc
abd
abdul
abe
abeba
abel
aben
abent
aber
aberde
abit
abitibi
abne
abnede
abnet
abo
aboland
abort
about
abra
abraham
abs
absol
absolut
absor
abstrakt
abu
aby
ac
acacia
academ
academie
academy
acant
acanth
acc
accel
accep
accepter
accra
ace
aceh
acer
ach
achille
ack
ackum
ackumulerade
acraea
act
actin
action
acut
ad
adal
adam
adams
add
addis
ade
adel
adela
adelaide
adelen
adelige
aden
adgang
adjektiv
adjunkt
adlades
adler
administ
administrasjon
administrasjons
administrasjonssenter
administrasjonssenteret
administrat
administration
administrativ
administrativa
administrative
administrativt
administrer
administrerende
admiral
adolf
adolfs
adolph
adopter
adrar
adresse
adresser
adri
adrian
adrien
adsk
adskil
adskillige
adskilt
advan
advar
advent
advis
advisory
advok
advokat
ae
aedes
aeg
aen
aer
aet
af
afc
afdeling
aff
affar
affarer
affarsman
affin
affinis
afg
afgang
afgh
afghan
afghanistan
afgør
afgørende
afholdt
afhæng
afløst
afric
afrik
afrika
afrikansk
afrikanska
afrikanske
afrikas
afro
afsked
afsl
afslutt
afsnit
afstand
aft
aftale
aften
aftenposten
after
afton
aftonbladet
afvik
afviklet
ag
aga
again
agar
agare
agaren
agaric
agde
agder
agdes
age
agen
agent
ager
agg
aggen
aggress
agla
agn
agna
agnade
agnes
agnet
ago
agri
ags
agt
agu
agua
aguada
ah
ahl
ahmad
ahmed
ai
aids
aik
ain
air
aires
airlines
airport
airways
ais
aisen
ait
aj
ajax
ak
aka
akadem
akademi
akademien
akademiet
akademisk
akademiska
akademiske
akantus
akantusvaxtart
akantusvaxter
ake
aker
akershus
akk
akkurat
aklag
akra
aks
akse
aksel
aksepter
akseptert
aksepterte
aksj
aksjon
akt
akta
akte
akten
aktenskap
aktenskapet
akter
aktie
aktieb
aktiebolag
aktier
aktion
aktiv
aktiva
aktive
aktiver
aktivitet
aktiviteten
aktiviteter
aktivt
aktuell
aktuella
aktuelle
akust
akustisk
akut
akvar
akvarell
akvari
al
ala
alab
alabama
alam
alan
aland
alands
alar
alaska
alb
alba
alban
albania
albanien
albansk
albanska
alber
albert
alberta
alberto
albin
albrecht
album
albuma
albumet
albumets
albummet
albums
alc
ald
alder
alderdom
alderen
aldre
aldri
aldrig
aldsta
aldste
ale
alek
aleks
aleksand
aleksander
aleksandr
alene
aless
alesund
alex
alexand
alexander
alexandra
alexandre
alexandria
alf
alfa
alfabet
alfabetet
alfred
alg
alge
algebra
alger
algeriet
algoma
algorit
ali
alice
alk
alko
alkohol
all
alla
allan
alldeles
alle
alleg
allen
aller
allerede
allereie
alli
alliance
allians
allianse
alliansen
allierade
allierede
alliert
allierte
alligevel
allike
allikevel
allm
allman
allmanhet
allmanheten
allmanna
allmant
allmenn
allra
alls
allsvenskan
allt
alltfor
alltid
alltmer
alltsa
allvar
allvarliga
alm
alma
almen
almin
almindelig
almindelige
almindeligt
alp
alpane
alper
alpes
alph
alpin
alpine
alpint
als
alsace
alskar
alt
alta
altar
alten
alter
altern
alternativ
alternative
alternativt
altertav
altid
alto
altsa
alumin
aluminium
alv
alvar
alvdal
alvor
alvorlig
alvorlige
alvsborgs
am
ama
amager
amal
amalie
aman
amanda
amar
amarant
amarantvaxter
amaryllis
amaryllisvaxter
amator
amatør
amazon
amazonas
amb
ambass
ambassad
ambassaden
ambassador
ambassadør
ambet
ambetet
ambetsman
ambly
ambul
amer
americ
america
american
amerik
amerika
amerikan
amerikanerne
amerikansk
amerikanska
amerikanske
amerikanskt
amf
amfib
aminos
amir
amm
amman
ammun
ammunition
amne
amnen
amnet
amp
amph
amster
amsterdam
amt
amtet
amts
amund
amundsen
amy
an
ana
anac
anal
analy
analys
analyse
analyser
analyt
anark
anast
anat
anatol
anatom
anatomi
anbe
anbefal
anc
anch
and
anda
andalus
andalusien
andamal
ande
andel
andelen
anden
ander
anders
andersen
anderson
andersson
andes
andet
andorra
andra
andrade
andrades
andras
andre
andrea
andreas
andrej
andrena
andreplass
andres
andrew
andrews
andy
ane
aner
anerk
anerkendt
anerkjen
anerkjennelse
anerkjent
anerkjente
anfall
ang
angaende
angar
ange
angel
angeles
angelsaks
angelsaksiske
anger
angermanland
anges
angiv
angivelig
anglik
anglo
angola
angrans
angransande
angre
angreb
angrebet
angrep
angrepet
angrepp
angri
angribe
angriber
angripe
angriper
angssk
angsskinn
angsskinnbaggar
angust
anhalt
anhang
anhangare
anim
animation
animer
anis
anita
anj
ank
anka
anker
anklag
anklager
anklaget
ankn
anknytning
ankom
ankomst
anlades
anlagg
anlaggning
anlaggningen
anlagt
anlande
anled
anledning
anledningen
anledninger
anlegg
anlegget
anlit
anlæg
anmal
anmel
anmeldelser
anmod
ann
anna
annan
annars
annat
anne
annekter
annen
anner
annet
annex
annexforsamling
annie
annon
annoncer
annonser
annonserte
annorlunda
annu
anom
anomala
anonym
anor
anord
anpass
ans
ansa
ansag
ansags
ansat
ansatt
ansatte
anse
anser
anses
anset
ansett
ansikt
ansiktet
anskaff
ansl
anslag
anslot
anslut
ansluter
anslutning
ansprak
anstall
anstalld
anstallda
anstalldes
anstallning
ansvar
ansvarar
ansvaret
ansvarig
ansvarlig
ant
anta
antag
antagelig
antagligen
antal
antalet
antall
antallet
antananar
antananarivo
antar
antarctic
antarkt
antarktis
antarktisekspedisjonen
antarktiske
antart
antartica
antas
antatt
ante
anten
antenn
antennene
antenner
anth
anthony
anthur
anthurium
anti
antib
antik
antika
antiken
antikke
antikken
antikkens
antingen
antio
antiok
antioquia
antip
antis
antisem
anto
antofag
antofagasta
antog
antogs
antoine
anton
antonio
antonius
antrop
antwer
antwerpen
antyd
antyder
anv
anvand
anvanda
anvandare
anvandas
anvande
anvander
anvandes
anvandning
anvands
anvant
anvants
anven
anvende
anvendelse
anvender
anvendes
anvendt
anvendte
ao
ap
apanteles
apart
apen
apent
aph
aphod
aphodiidae
apne
apnet
apning
apningen
apnings
apoll
apollo
apost
apostol
apote
apotek
app
appar
appel
apple
applik
april
aq
aqu
aquitaine
ar
ara
arab
arabia
arabisk
arabiska
arabiske
arach
aragon
aragonien
arb
arbe
arbeid
arbeidar
arbeidde
arbeide
arbeider
arbeidere
arbeiderpartiet
arbeidet
arbeids
arbejd
arbejde
arbejdede
arbejder
arbejdet
arbet
arbeta
arbetade
arbetar
arbetare
arbetat
arbete
arbeten
arbetet
arbets
arbetsmark
arc
arch
arct
ard
arden
ardis
ardisia
are
area
areal
arealet
arean
arecaceae
aren
arena
arenan
arendal
arene
aret
arets
arg
argent
argentina
argentinsk
argentinske
argument
argumenter
arhund
arhundraden
arhundre
arhundrede
arhundreder
arhus
ari
arida
arig
ariga
arige
aring
arist
aristokrat
aristot
aristoteles
ariz
arizona
ark
arkansas
arke
arkebiskop
arkeolog
arkeologi
arkeologiska
arkeologiske
arkite
arkitekt
arkitekten
arkitekter
arkitektkontor
arkitekton
arkitektur
arkitekturen
arkiv
arkivet
arkt
arkæ
arlig
arliga
arlige
arligen
arligt
arm
arme
armeen
armen
armenia
armenien
armens
armer
armst
armstrong
army
arn
arna
arne
arnold
aro
aron
arr
arrang
arrangemang
arrangement
arrangementer
arrangementet
arranger
arrangerade
arrangerades
arrangeras
arrangerer
arrangeres
arrangeret
arrangert
arrangerte
arrangør
arrest
arrester
arrestert
arro
arroio
arrond
arrondiss
arrondissementet
arrow
arroyo
arrække
ars
arsag
arsak
arsaken
arsaker
arsen
arsenal
arsjub
arsjubileum
arsmed
arsmedeltemperaturen
arsn
arsnederbord
arsproduksjon
arsskiftet
art
artar
arte
artem
arten
artene
artens
arter
arterna
arth
arthur
artier
artik
artikel
artikeln
artikkel
artikkelen
artiklar
artikler
artiller
artilleri
artilleriet
artion
artist
artistar
artisten
artister
artium
arts
artsrike
artvaxtart
artvaxter
arv
arve
arvet
arvid
arvika
arving
as
asa
asb
asc
asen
aser
aserbajd
aserbajdsjan
ash
asia
asiat
asiatisk
asiatiska
asiatiske
asien
asikter
ask
askad
askadare
aske
asker
asm
asmara
asp
aspe
aspekter
asper
asplen
asplenium
ass
assist
assistent
assister
assisterande
assoc
association
associer
assos
assosiert
assy
ast
asta
astad
astana
aster
astero
asteroid
asteroiden
asteroidgruppen
aston
astra
astrag
astragalus
astrid
astron
astronom
astronomen
astronomi
astronomiske
astur
asyl
at
ata
atac
atacama
atak
atal
ate
atel
atelje
aten
ater
aterfinns
aterforen
aterigen
aterin
aterkom
aterkommande
aterstar
aterupp
atervand
atervanda
atervande
atervander
atferd
atgarder
ath
athen
athlet
athletic
atlant
atlanta
atlanten
atlanter
atlanterhavet
atlantic
atlas
atlet
atmin
atminstone
atmos
atmosf
atmosfar
atmosfæren
atom
atp
atra
atskil
atskilliga
att
atta
attack
attacker
atte
atten
attende
attent
attentat
atter
attonde
attra
au
aub
aud
audi
auf
aug
augu
august
augusta
auguste
augusti
augustin
augustus
auk
auka
aukt
auktor
auktors
auktorsforkortning
aula
aur
aure
aurora
aus
auschwitz
aust
auster
austerrik
austerrike
austin
austlege
austral
australia
australian
australien
australiens
australis
australisk
australiska
australsk
australske
austsida
aut
autent
auto
autom
automat
automatisk
autonom
autonoma
autonome
autor
autoriserede
autoritet
auvergne
aux
av
avancer
avancerade
avanserte
avant
avbild
avbru
avbry
avdel
avdeling
avdelingen
avdelinger
avdelning
avdelningen
avdøde
ave
aven
aventyr
avenue
aver
avfall
avg
avga
avgang
avgick
avgift
avgj
avgjordes
avgjort
avgjør
avgjørende
avgor
avgora
avgorande
avgrans
avgrens
avhandling
avhandlingen
avheng
avhengig
avholdt
avis
avisa
avisen
aviser
aviv
avl
avla
avlade
avlag
avlang
avlange
avled
avledet
avlid
avratt
avrattades
avrinningsom
avrinningsomrade
avrinningsomraden
avrinningsomradena
avrinningsomradet
avrinningsomradets
avs
avsatt
avse
avsedd
avsedda
avseende
avser
avsett
avsikt
avskaff
avskaffades
avsked
avskj
avskjed
avsl
avslo
avslut
avslutade
avslutades
avslutas
avslutt
avsluttet
avsnitt
avsnittet
avst
avstand
avstanden
avstandet
avt
avtal
avtale
avtalen
avtalet
avvatt
avvattnar
avvattnas
avveck
avvecklades
avvik
avviklet
avvist
aw
award
awards
ax
axel
ay
ayn
az
azer
azerbajd
azerbajdzjan
ba
baal
baalbek
bab
baba
baby
babylon
bac
bach
bachel
bachelor
back
backen
backhopp
backslandeart
bad
bada
bade
baden
badminton
bae
bag
bagdad
bager
bagge
baggrund
bagh
bah
baha
bahamas
bahia
bahr
bailey
baj
baja
bak
baker
bakgr
bakgrund
bakgrunden
bakgrunn
bakgrunnen
bakke
bakken
bakker
bakkro
bakkropp
bakkroppen
bakom
bakover
bakre
bakt
bakter
bakterier
baku
bakvingen
bal
bala
balan
bald
bale
balett
bali
balkan
ball
ballen
ballet
balsam
balt
baltimore
baluch
bam
bamako
ban
bana
banan
band
banden
bandet
bandets
bandmedlem
bands
bandy
bane
banen
baner
bang
banglades
bangladesh
bank
banken
banker
banks
bann
bant
bapt
baptist
baptiste
bar
bara
barang
barangayer
barat
barb
barbar
barbara
barber
barcel
barcelona
bard
bare
baret
bari
bark
barken
barn
barna
barndom
barne
barnebarn
barnen
barnes
barnet
barns
barock
baron
barr
barra
barrage
barran
barrio
barrskog
barry
bars
bart
bas
base
baseb
baseball
basel
basen
baser
baserad
baserade
baseras
baserat
baseret
basert
baserte
basid
basidies
basidiesvampar
basil
basis
bask
basket
basketball
bass
bassist
bast
basta
bat
batal
bataljon
batar
baten
bater
bates
bath
batt
batter
batteri
battle
battre
bau
bay
bayan
bayer
bayern
baz
bbc
be
bea
beach
bear
bearbet
beat
beatles
beau
beaut
beaver
bebo
bebod
beboere
bebygg
bebyggelse
bebyggelsen
beck
becker
bed
bedom
bedre
bedrev
bedri
bedrift
bedriften
bedrifter
bedriv
bedriver
bedrivs
bedst
bedste
bedt
beet
beethoven
bef
befal
befalhavare
befann
befast
befatt
befin
befinder
befinna
befinner
befint
befolk
befolkad
befolkade
befolkning
befolkningen
befolknings
befolkningsutveckling
beford
befordrades
befri
beg
bega
begaran
begatt
begav
begge
begiven
begivenheder
begr
begran
begrans
begransad
begransade
begrav
begravd
begravdes
begravet
begravningsp
begre
begreb
begrebet
begrens
begrenset
begrep
begrepet
begrepp
begreppet
begræns
begrænset
begyn
begyndelsen
begynder
begyndte
begynne
begynnelsen
begynner
begynt
begynte
beh
behalla
behand
behandlar
behandlas
behandles
behandlet
behandling
behandlingen
behar
beholde
beholdt
beholl
behov
behovde
behover
behovet
behovs
bei
beij
beijing
bein
beina
beirut
beit
bek
bekamp
bekant
bekendt
bekost
bekraft
bekraftade
bekre
bekreftet
bekræ
bekym
bel
bela
belag
belagen
belaget
belagna
belarus
belast
beleir
belej
belg
belgia
belgien
belgisk
belgiska
belgiske
belig
beliggen
beliggende
bell
bella
belle
belon
belonades
belys
beløn
bem
bemann
bemer
bemærk
ben
benam
benamn
benamning
benamningen
benamns
bend
bene
bened
benedikt
benen
beng
bengal
bengt
bengtsson
beni
benito
benj
benjamin
bennett
benny
beno
bens
bensin
bent
bentham
benytt
benytte
benyttede
benytter
benyttes
benyttet
benz
beord
beordret
ber
berak
beraknas
beratt
berattade
berattar
berattelse
berattelsen
berattelser
berber
berberis
bered
beredskap
bereg
beregnet
berg
bergarter
berge
bergen
bergens
berger
berget
bergig
bergman
bergs
bergsked
bergskedja
bergspass
bergstopp
bergstra
bergstrakter
berk
berkeley
berlin
berlins
bern
bernad
bernard
bernhard
bernt
bero
berodde
beroende
berom
beromd
beromda
beror
berre
berry
bert
bertil
berøm
berømt
berømte
bes
besatt
besatte
besattning
besattningen
beseg
besegrade
besegrades
beseiret
besej
besejrede
besid
besitt
besk
besked
beskjed
beskrev
beskrevet
beskrevs
beskri
beskriv
beskriva
beskrive
beskrivelse
beskrivelser
beskriver
beskrives
beskrivning
beskrivs
beskydd
beskyl
beskytt
beskytte
beskyttelse
beskytter
beskyttet
beskæft
besl
beslag
beslakt
besle
beslektet
beslot
beslut
beslutade
beslutet
beslutning
beslutt
besluttede
besluttet
besok
besoka
besokare
besoker
besokte
bess
best
besta
bestaende
bestall
bestam
bestamde
bestamma
bestammelser
bestammer
bestamt
bestand
bestandet
bestar
beste
bestem
bestemme
bestemmelser
bestemmer
bestemt
bestemte
besto
bestod
bestyr
bestyrelsen
besvar
besætning
besø
besøg
besøgte
besøk
besøkende
besøker
besøkte
bet
beta
betal
betala
betale
betaling
betalt
betalte
bete
beteck
betecknar
betecknas
beteckning
beteckningen
beteende
beteg
betegn
betegnelse
betegnelsen
betegner
betegnes
betegnet
beth
beting
betjen
beton
betong
betra
betrag
betragtes
betrakt
betraktades
betraktas
betraktet
betre
bett
betty
bety
betyd
betyda
betydande
betydde
betydelig
betydelige
betydeligt
betydelse
betydelsen
betyder
betydligt
betydning
betydningen
betydninger
betydnings
betyg
betyr
betød
beund
bev
bevap
bevar
bevara
bevarad
bevarade
bevare
bevarede
bevaret
bevart
bevarte
beveg
bevegelse
bevegelsen
bever
bevidst
bevil
bevis
bevisst
bevæ
bevægelse
bey
bez
bezirk
bh
bi
bian
biart
bib
bibe
bibel
bibelen
bibeln
bibli
bibliografi
bibliote
bibliotek
biblioteket
bic
bicolor
bid
bidra
bidrag
bidraget
bidragit
bidrar
bidratt
bidro
bidrog
bie
biel
bien
bier
bif
bifl
biflodes
biflodesordning
big
bik
bil
bilar
bild
bilda
bildad
bildade
bildades
bildandet
bildar
bildas
bildat
bildats
bilde
bilden
bilder
bildet
bilen
biler
bilete
bilj
bill
billboard
bille
billed
billede
billeder
billedhug
billedkunst
billene
biller
billig
billy
bim
bin
bind
binde
binder
bing
bio
biograf
biografen
biografi
biologi
biologisk
biologiske
biot
bip
bir
bird
birg
birger
birgitt
birgitta
birk
birkaland
birmingham
birolle
bis
bish
bisj
bisjkek
bisk
biskop
biskopen
bismarck
bisp
bisped
bispedømme
bist
bistand
bit
bitradande
bitt
bitter
biv
biz
bj
bjar
bjarne
bjel
bjer
bjerg
bjor
bjork
bjorn
bjorne
bjornspinnare
bjur
bjør
bjørn
bjørne
bjørns
bk
bl
bla
black
blackburn
blad
bladbaggar
bladbiller
blade
bladen
bladene
blader
bladet
bladhorningar
bladmossart
blag
blake
blan
blanc
blanca
blanco
bland
blanda
blandet
blanding
blandning
blandskog
blandt
blank
blanke
blant
blas
blast
blat
blatt
ble
blei
blek
blekinge
bleph
blev
blevet
bli
blind
blir
blitt
blivande
blive
bliver
blivit
blix
blo
block
blod
blodet
blog
blok
blokk
blokker
blom
blomflugor
blomm
blommor
blomst
blomster
blood
bloom
blot
blott
blotta
blu
blue
blues
bluff
bly
bm
bmw
bnp
bo
board
bob
bobby
boc
boca
bock
bocker
bockerna
bod
bodde
boden
bodens
bodø
boe
boede
boeing
boende
boer
boet
bog
bogen
bogota
bogstav
boh
bohmen
bohus
bohuslan
bois
boiss
boissier
boj
bok
boka
boken
bokfor
bokmal
bokser
bokstav
bokstaven
bokstaver
bokt
bol
bolag
bolaget
bolagh
bolaghi
bold
boldklub
bolig
boliger
boliv
bolivar
bolivia
boll
bollen
bolog
bologna
bolsje
bolsjevik
bom
bomb
bombar
bombe
bombefly
bomber
bomull
bon
bond
bonde
bonden
bonder
bone
bong
bonn
bonnier
bons
bonsyr
bonsyrseart
bonus
book
boot
bop
bor
boras
bord
borde
bordeaux
bordet
bordten
bordtennis
bore
boreala
borg
borga
borgar
borgen
borger
borgere
borgerkrig
borgerkrigen
borgerlig
borgerliga
borgerlige
borgermester
borgmastare
borgmester
boris
borja
borjade
borjan
borjar
borjat
born
borne
borneo
bornholm
borough
borr
borrflugor
bort
borta
borte
bortgang
bortset
bortsett
bos
bosatt
bosatta
bosatte
bosetning
boskap
bosn
bosnia
bosnien
boss
bost
bostad
bostader
bostads
bostadshus
boston
bot
botan
botaniker
both
botsw
botswana
bott
botten
bou
boul
boule
boulev
boulevard
bour
bourbon
bourg
bourgogne
bov
bow
bowie
bowl
box
boy
boys
boz
br
bra
brach
brachy
brack
bracksteklar
bracon
brad
bradford
brag
bragt
bragte
brah
brahe
brak
brakte
brakv
bram
bran
branch
brand
branden
brandenburg
brandes
brandt
brann
brannen
bransle
brant
brasil
brasilia
brasiliansk
brasilianske
brasilien
brass
brat
bratt
bratte
braun
braunsch
braunschweig
brazz
brazzaville
brdo
bre
break
bred
breda
bredare
bredd
bredde
bredden
brede
bredere
bredt
bredvid
breen
breg
brei
brem
bremen
bren
brenn
brens
brent
bres
brest
bret
bretagne
breton
brett
breuning
brev
breve
brevet
bri
brian
brid
bridge
brig
brigad
brigade
brigaden
brin
bring
bringe
bris
brisbane
brist
bristol
brit
brita
britann
britannia
britene
briterne
british
britisk
britiske
britt
britterna
brittisk
brittiska
brittiske
bro
broad
broadway
brock
brod
broder
brodern
broderna
broen
brok
brokparasit
brokparasitsteklar
broll
brollop
brom
bromeliaceae
bromma
bromsar
bron
brons
bronsaldern
bronse
bronsemedal
bronsemedalje
bronsmed
bronsmedal
bronsmedaljor
bronz
bronze
bronzemedal
brook
brooklyn
brooks
bror
broren
brorson
bros
brost
brot
brother
brothers
brots
brott
brotts
brow
brown
bru
brua
bruce
brud
brudd
brug
bruge
brugen
bruger
bruges
brugt
brugte
bruk
bruka
brukade
brukar
bruke
bruken
bruker
brukere
brukes
bruket
bruks
brukt
brukte
brun
bruna
brune
brunn
bruno
brunswick
brunt
brus
brussel
brutal
brutt
bry
bryan
bryg
brygg
brygge
brygger
bryggeri
bryggeriet
bryll
bryllup
bryn
bryssel
bryst
brystet
bryt
bryta
bryte
bryter
brænd
brød
brødre
brødrene
brøn
brønd
brøndby
brønn
brøt
bu
bub
buc
buch
buck
buckingham
bud
budapest
budd
budde
buddh
buddhismen
budget
budsj
budskap
bue
buen
buenos
buff
buffalo
bug
bugt
buj
bujumbura
buk
buken
bukit
buksam
buksamlar
buksamlarbin
bukt
bukta
bul
bulb
bulbophyllum
bulgar
bulgari
bulgaria
bulgarien
bulgariska
bulgarsk
bull
bulu
bum
bun
bund
bunden
bundes
bundesliga
bundet
bunn
bunnen
bunt
buntu
bup
bur
burde
bure
bureau
burg
burgund
burits
burkina
burma
burmeister
burn
burns
burton
burundi
bus
buset
busett
bush
business
busk
buskar
busker
buskerud
busklandskap
buss
busser
bust
but
butik
butiker
butikk
butikker
butler
butt
butter
buttu
bux
by
byane
byar
byarna
bydel
bydelen
byen
byene
byens
byer
byerne
byg
bygd
bygda
bygde
bygden
bygg
bygga
byggandet
byggas
byggd
byggda
byggde
byggdes
bygge
byggede
bygger
bygges
bygget
bygging
byggingen
byggnad
byggnaden
byggnader
byggnaderna
byggnads
byggnadsm
byggs
byggt
byggts
bygning
bygningen
bygningene
bygninger
bygnings
byn
byprefekt
byprefekturet
byr
byra
byrad
byrd
byrja
byrjinga
bys
bysant
bysantinske
bystatus
byta
byte
bytt
bytte
byttes
byttet
byz
bæ
bær
bære
bærer
bærum
bø
bød
bøger
bøkene
bøker
bøl
bølge
bøn
bøndene
bønder
bør
børn
børne
bøy
ca
cab
cabo
cac
cach
cachoeira
cad
caen
caes
cafe
cal
calc
cald
calgary
californ
california
californien
call
calli
cam
cambridge
camer
cameron
camil
camilla
camp
campan
campbell
camping
campo
campus
campyl
can
canad
canada
canadisk
canadiske
canal
cancer
cand
cann
canna
cannes
cano
cant
canter
canterbury
canth
cap
cape
capit
capital
capitol
capp
cappelen
car
cara
carab
carac
carbon
card
carden
care
carex
cari
carin
carl
carlo
carlos
carlsen
carlsson
carly
carlyle
carmen
carn
carol
carolina
caroline
carp
carpenter
carr
carri
carsten
cart
carter
cas
casey
cash
cass
cast
castell
castillo
castle
castro
cat
catal
catalog
catalogue
catarina
cath
cathar
catharina
catherine
cauca
caud
cav
cay
cayenne
cbs
cc
cd
cdu
ce
cec
cecil
cecilia
ced
ceder
cel
celeb
celest
cell
celle
celler
cels
celt
cem
cement
cemeter
cemetery
cen
cens
census
cent
center
centimeter
centr
central
centrala
centrale
centralort
centralp
centralt
centre
centrum
century
cep
cephal
cer
ceram
ceramby
cerambycidae
cerat
cere
ceremon
ceremoni
cerro
cert
ces
cesar
cet
cetoniidae
cf
ch
cha
chaet
chag
chah
chahar
chak
chal
challen
challenge
chalmers
cham
chamber
chamberlin
champ
champagne
champion
champions
championship
chan
chand
chang
changsha
chann
channel
chansen
chap
chapman
char
charl
charles
charlie
charlotta
charlotte
charlotten
chart
charter
chase
chass
chat
chate
chateau
che
chef
chefen
chefredaktor
cheil
chel
chelonus
chelse
chelsea
chem
chen
cheng
chengdu
cher
chesh
cheshmeh
chester
chev
chi
chia
chiapas
chic
chicago
chico
chil
child
children
chile
chilena
chim
chin
china
ching
chip
chir
chlor
cho
chok
chol
chong
chongqing
chop
chor
chr
chri
chris
christ
christen
christensen
christer
christian
christiania
christiansen
christie
christina
christine
christmas
christoffer
christop
christoph
christopher
chrom
chry
chrys
chrysom
chu
chuck
chun
chung
chungcheong
chur
church
churchill
ci
cia
cic
cien
cienaga
cil
cin
cinc
cir
cirk
cirka
cirkel
cirkul
cirkus
cis
cit
citer
city
ciudad
civ
civil
civila
civile
civilis
cl
cla
clad
claes
clar
clara
clarence
clark
clarke
class
classic
claud
claude
claudius
claus
clav
cle
clear
clem
clemens
clement
cler
cleveland
cli
cliff
clin
clinton
clo
club
cly
cm
cn
co
co2
coach
coast
cob
coc
cocc
coch
cock
cocker
cockerell
cod
code
coel
coen
cogn
coh
cohen
col
cola
cold
cole
colin
coll
colle
colleg
college
collins
colom
colomb
colombia
colombo
colon
colonia
color
colorado
colum
columbia
columbus
com
come
comeback
comics
comm
command
committe
committee
common
commun
community
comp
compan
company
computer
comte
con
conakry
conc
cond
conf
conference
cong
conn
conne
connectic
connecticut
conrad
cons
conserv
conservation
constan
constant
cont
contest
contin
cook
cool
cooper
cop
copa
copp
coqu
cor
cord
cordoba
core
corn
cornelis
cornelius
corner
cornwall
coron
corpor
corporation
corps
correg
corrego
cort
cos
cost
costa
cot
cote
cott
cou
counc
council
count
country
county
countyt
coupe
cour
cours
court
cov
cove
cover
covid
cow
cox
coy
cr
cra
craig
cram
cran
crass
craw
crawford
cre
creek
crem
cres
cri
cricket
cris
crist
crni
cro
croc
crom
cromwell
cron
crosby
cross
crow
cru
cruz
cry
crypt
crystal
cs
cten
cu
cub
cuba
cuc
cuch
cue
cuka
cul
cule
culex
culi
culicoides
cult
cum
cun
cup
cupen
cur
curling
curran
curt
curtis
cus
cut
cy
cyan
cyc
cycl
cyk
cykel
cykl
cylind
cylinder
cym
cyn
cyp
cyper
cypern
cyr
cyrt
cyt
cz
cæ
cæsar
da
dab
dact
dactyl
dad
dag
dagar
dagblad
dagbladet
dagbok
dage
dagen
dagene
dagens
dager
dagg
daggdjur
daggdjursart
daggflugor
dagh
daghi
daglig
daglige
dagligt
dags
dagstid
dah
dahl
dahr
dak
dakota
dal
dala
dalarna
dalarnas
dale
dalen
dalig
daliga
daligt
dall
dallas
dalmat
dals
dalsland
dalt
dalton
dam
damask
damaskus
dame
damer
damernas
damm
dammbyggnad
dammen
damp
dan
dana
dance
dani
daniel
danmark
danmarks
dann
danna
dannar
danne
dannebrog
dannede
dannelse
dannelsen
danner
dannes
dannet
danny
dans
danse
danser
dansflugor
dansk
danska
danske
danzig
dar
darah
darav
dare
darefter
daremot
darfor
dari
daribland
darifran
darigenom
dark
darleg
darlig
darlige
darm
darmed
darpa
darreh
dart
dartill
darwin
das
dash
dasht
dasy
dat
data
datab
databasen
datama
dater
datert
datidens
dato
dator
datorer
datter
datteren
datum
dav
davarande
dave
david
davies
davis
daværende
daw
day
days
dc
ddr
de
dead
dean
death
deb
debat
debatt
debatten
debatter
debut
debutalbum
debutalbumet
debuten
debuter
debuterade
debuterede
debuterte
dec
december
decenn
decennier
ded
deep
def
defens
defin
definer
definerer
defineres
definert
definier
definieras
definisjon
definition
deg
deh
dei
deira
dek
dekk
dekke
dekker
dekket
dekkjer
dekkvingene
deklar
dekor
dekorer
del
dela
delade
delades
delagare
delar
delarna
delas
delav
delavrinningsom
delavrinningsomrade
dele
deleg
delen
delene
deler
deles
delfin
delhi
della
delong
delph
dels
delst
delstat
delstaten
delstatens
delstater
delstats
delstatshuvudstaden
delt
delta
deltag
deltagande
deltagare
deltagarna
deltage
deltagelse
deltager
deltagere
deltaget
deltagit
deltak
deltakere
deltar
deltatt
delte
deltog
deltok
delvis
delvist
dem
demningen
demo
democ
democrat
demografi
demokrat
demokrati
demokratisk
demokratiska
demokratiske
demon
demonst
demonstra
demp
den
dend
dendrob
dendrobium
dengang
denis
denna
denne
dennes
dennis
dens
dent
denver
dep
depart
departamento
departement
departementet
deport
deporter
depress
depression
der
deras
derav
derby
derefter
deres
deretter
derfor
derfra
derib
deriblant
derim
derimod
derimot
dermed
derpa
dersom
dertil
derudover
derved
des
desa
desc
desember
desert
desig
design
designer
designet
desm
desper
dess
dessa
desse
dessfor
dessforinnan
dessutan
dessuten
dessutom
dest
destin
desto
destru
desuden
det
detalj
detaljer
dete
detektiv
detroit
dets
detta
dette
deutsch
deutsche
dev
devel
develop
development
devil
devon
dew
dh
dhabi
dhaka
dhar
di
dia
diagn
diagnost
diagon
diakon
dial
diale
dialekt
dialekten
dialekter
dialog
diam
diamant
diameter
diamond
diana
diap
diaz
dib
dic
dich
dick
dicran
dicranomyia
dicty
did
die
diego
dies
diesel
diet
dietrich
diff
differ
different
difor
dig
digit
digital
digitala
digitale
digitalt
digt
digte
digter
dik
dikt
diktatur
dikten
dikter
diktet
diktsamling
dil
dim
dimens
din
ding
dinosaur
dio
dion
dionys
diosc
diosp
diospyros
dip
dipl
diplom
diplomat
diplomatiske
dir
dire
direkt
direkte
direktiv
direktor
direktør
dirig
dirigent
dis
disc
discip
disciplin
disco
discover
discovery
disiplin
disk
diskografi
diskrimin
diskusjon
diskuss
diskussion
diskuter
diskval
disney
disp
disputerade
diss
disse
dist
distan
distansen
distin
distri
distribu
distribusjon
distribut
distribution
district
distrikt
distrikter
distriktet
distriktets
dit
ditt
dittills
div
diver
divers
diverse
divis
division
divisionen
divisioner
divisjon
divisjonen
dix
dixon
dj
djebel
djib
djibout
djibouti
djup
djupt
djur
djurart
djuret
djurg
djurgarden
djurgardens
dk
dm
dmitri
dn
dna
do
dob
dobbel
dobbelt
doc
docent
dock
doctor
dod
doda
dodade
dodades
doden
dods
dog
dognin
doh
dok
dokt
doktor
doktorg
doktorgrad
doktorgraden
dokument
dokumentar
dokumentarfilm
dokumenter
dokumentert
dol
dolich
doll
dollar
dolok
dom
domare
domdes
dome
domen
domin
dominans
dominer
dominerande
domineras
dominerende
dominert
domingo
dominik
dominikanska
domkirke
domkyrk
domkyrka
dommen
dommer
domsag
domsaga
domsagor
domstol
domstolen
don
donald
donau
doner
dong
dongar
dop
doping
doptes
dor
doro
dorothea
dors
dort
dos
doth
dothide
dothideomycetes
dott
dotter
dotterbolag
dottern
dottrar
dou
doub
double
doug
douglas
dov
dow
down
dr
dra
draa
drab
drabb
drabbade
drabbades
drabbas
drae
draft
drag
drage
dragon
drak
drake
drakt
dram
drama
dramafilm
dramas
dramat
dramatiker
dramatisk
dramatiska
dramatiske
drammen
drap
drapet
drar
dras
drast
dre
dream
dreier
dreiv
dren
dreng
drep
drepe
drept
drepte
dres
dresden
dress
drev
drevet
drevs
drew
dri
drift
driften
drikke
drin
driv
driva
drive
driver
drives
drivs
dro
drog
drogs
drojde
drom
dron
dronning
dronningen
drosophila
drott
drottning
drottningen
dru
druce
drum
dry
drygt
dræ
dræbt
dræbte
drøm
ds
dsb
du
dub
dubb
dubbel
dubbelt
dubbla
dublin
duc
duck
dud
due
duett
dug
duk
duke
dukker
dukket
dul
dum
dun
duncan
duo
duoen
dup
dur
dus
duss
dusseldorf
duv
dv
dvarg
dvargstritar
dvd
dverg
dvs
dw
dy
dyb
dybde
dybt
dyg
dygn
dygt
dykare
dyker
dyktig
dylan
dyn
dynam
dynast
dynasti
dynastiet
dynt
dyntaxa
dyp
dypt
dyr
dyre
dyrene
dyret
dyrk
dyrket
dys
dz
dæ
dækker
dækket
dæm
dø
død
døde
døden
døds
døg
døgn
døm
døme
dømes
dømt
dør
døtre
døy
døydde
e4
e6
eag
eagle
ear
earl
earth
east
eastern
eau
eb
ebba
eber
ec
ech
echin
eck
ecole
econom
ect
ecu
ecuador
ed
edderkopp
eddie
edel
eden
edgar
edge
edin
edinburgh
edith
edition
edmon
edmond
edmonton
edmund
edouard
edu
eduard
educ
edvard
edward
edwards
edwin
ef
eff
effe
effekt
effekten
effekter
effektiv
effektive
effektivt
efter
efteraret
efterat
efterfoljande
efterfulgt
efterfølgende
efterfølger
efterhand
efterhanden
efternamn
eftersom
eftertrad
eftertradare
eftertradde
eftertraddes
eg
ege
egen
egendom
egendomen
egenskaber
egenskap
egenskaper
egent
egentlig
egentliga
egentlige
egentligen
eger
eget
egg
egil
egna
egne
egnet
egyp
egypt
egypten
egyptisk
egyptiske
eh
ehr
ehren
ei
eich
eid
eide
eidsvoll
eien
eiendom
eiendommen
eiendommer
eier
eies
eig
eige
eigen
eigne
eik
eil
ein
einar
einaste
eine
eirik
eisen
eit
eitt
ej
ejede
ejen
ejendom
ejer
ejet
ek
eke
ekman
ekologi
ekonom
ekonomi
ekonomin
ekonomisk
ekonomiska
ekonomiskt
eks
eksamen
eksemp
eksempel
eksempelvis
eksemplar
eksemplarer
eksempler
eksil
eksist
eksistens
eksister
eksisterende
eksisterer
eksisterte
ekskl
eksklus
eksp
ekspans
eksped
ekspedisjon
ekspedisjonen
ekspedition
eksper
eksperiment
eksperimenter
ekspert
eksplos
eksport
eksporter
ekst
eksterne
ekstra
ekstraordin
ekstrem
ekstremt
ekt
ekte
ektemann
ekteskap
ekteskapet
ekv
ekvator
el
ela
elae
elaph
eld
eldre
eldste
ele
elect
electric
elef
elefant
eleg
elegans
elegant
elekt
elektric
elektricitet
elektrif
elektris
elektrisk
elektriska
elektriske
elektro
elektrom
elektromagnet
elektron
elektroner
elektronisk
elektroniske
element
elementer
eleon
eleonora
elev
eleven
elevene
elever
elf
elfen
elfenben
elfenbenskusten
eli
elias
elim
elin
elis
elisabet
elisabeth
elit
elite
elites
eliteserien
elitserien
eliz
elizabeth
ell
ellen
eller
ellers
elles
elleve
elli
ellipt
ellis
elm
elmer
elong
elsa
else
elsker
elton
elv
elva
elven
elvene
elver
elvis
em
emanuel
emb
embed
embet
emblik
embrik
emellan
emeller
emellertid
emer
emeritus
emery
emi
emig
emil
emile
emilia
emilio
emin
emir
emma
emmy
emne
emner
emot
emp
empire
empis
empoas
en
ena
enbart
enc
end
enda
endast
endda
ende
endel
endelig
endelige
endem
endemisk
enden
ender
endnu
endra
endre
endres
endret
endring
endringer
endt
endte
endvidere
ene
ener
energ
energi
energien
eneste
enev
eng
engag
engagemang
engager
engagerad
engagerade
engang
engasj
engasjement
engasjer
engasjert
engasjerte
engel
engelbre
engelbrekt
engelsk
engelska
engelske
engine
engl
england
englands
engler
english
enhed
enheder
enhet
enheten
enheter
enhjartbladig
enhver
enic
enige
enighet
enk
enke
enkel
enkelt
enkelte
enkla
enklare
enkle
enklere
enlighet
enligt
enn
enna
enno
enor
enorm
enorme
enri
ens
ensam
ensemble
enskild
enskilda
enstaka
ent
enten
enter
entertain
entertainment
entiteten
entom
entre
entrepren
entusi
enzy
eos
ep
eph
epic
epid
epidendrum
epig
epil
epip
epis
episode
episoden
episoder
epit
equ
er
era
erbj
erbjod
erbjud
erbjuder
ere
erebia
erem
erfar
erfaren
erfarenhet
erfarenheter
erfaring
erfaringer
erg
erholl
erhver
erhverv
erhvervs
eri
eric
erica
erich
ericsson
erik
eriks
eriksen
eriksson
erind
erit
eritrea
erk
erkande
erke
erkebiskop
erkl
erklær
erklærede
erklært
erklærte
erland
erling
ern
erne
ernest
ernst
ero
erob
erobra
erobre
erobrede
erobret
erobring
erobringen
erot
erov
erovrade
ersatt
ersatta
ersattare
ersatte
ersattes
ersattning
ersatts
erst
erstatning
erstatt
erstatta
erstatte
erstattet
eryth
es
esb
esbjerg
esc
esen
esenbeck
esf
esfahan
esk
eskad
eskil
eskilstuna
esp
esper
esperanza
ess
essa
essen
essex
est
estad
este
ester
estero
estimer
estiske
estland
estlands
et
eta
etabler
etablerade
etablerades
etablere
etablerede
etableret
etablering
etableringen
etablert
etablerte
etape
etapp
etappe
etappen
etapper
etasje
etc
eter
etienne
etik
etiop
etiopia
etiopien
etn
etnisk
etniska
etniske
etru
ett
etter
etterfulgt
etterfulgte
etterfølger
etterhvert
etterkommere
etterlot
etterpa
ettersom
ettertid
etym
etymologi
eu
eub
euc
eucalyptus
euch
eud
euf
eug
eugen
eugene
eugenia
eul
eum
eumen
eumenidae
eun
eup
euphor
euphorbia
eupithecia
euploea
eur
euras
eure
euro
europ
europa
europam
europamester
europamesterskapet
europaparlam
europaparlamentet
europas
europave
europe
european
europeisk
europeiska
europeiske
europæ
europæisk
europæiske
eurov
eurovision
eury
euryt
eus
eut
eux
euxoa
ev
eva
evaku
evan
evangel
evangelisk
evans
even
evenemang
event
eventuell
eventuelle
eventuellt
eventuelt
eventyr
ever
evert
every
evig
evne
evnen
evner
evolution
ex
exakt
examen
exc
exemp
exempel
exempelvis
exemplar
exil
existens
exister
existerar
exklus
exp
expander
expans
expansion
exped
expedition
expeditionen
exper
experiment
expert
expl
explos
export
express
ext
externa
extra
extrem
extremt
ey
ez
f1
fa
fab
fabri
fabric
fabricius
fabrik
fabriken
fabrikk
fabrikken
fabrikker
fabriks
fac
facebo
facebook
fack
fact
facto
factor
fad
fader
faderen
fadern
faderns
faet
fag
fagel
fageln
fager
faglar
faglige
fah
fair
fak
fakt
fakta
faktisk
faktiskt
faktor
faktorer
faktum
fakult
fakultet
fal
falc
fald
falder
faldt
falk
falken
falkland
fall
falla
falle
fallen
faller
fallet
falls
falsk
falske
falster
falt
faltt
falun
fame
famil
familie
familieg
familiegruppen
familien
familiens
familier
familj
familje
familjen
familjens
familjer
family
fan
fana
fand
fandt
fandtes
fang
fanga
fangar
fangats
fange
fangelse
fangelset
fangen
fangenskap
fanger
fanget
fangsl
fangst
fann
fanns
fans
fant
fantas
fantasi
fantast
fantasy
fantes
far
fara
farah
farao
farbror
fard
fardig
fare
faren
farens
farfar
farg
farge
fargen
farger
fark
farlig
farm
faro
faroarna
farre
fars
fart
fartyg
fartygen
fartyget
fartøy
farve
farver
fas
fasad
fasaden
fasc
fase
fasen
faser
fasett
faso
fast
fasta
fastan
faste
fastighet
fastigheten
fastigheter
fastlandet
fastning
faststalldes
fat
fatal
fatt
fattig
fattiga
fattigdom
fattige
fauna
faust
fav
favor
favorit
favoritt
faw
fay
fbi
fc
fd
fe
feber
febru
februar
februari
fed
feder
federal
federation
federationen
feil
feir
feiret
fej
fejl
fekk
fel
feld
felder
felipe
felix
fell
felle
felles
fellow
felt
feltet
felttog
felttoget
fem
femin
femt
femte
femten
femteplass
femti
femton
fen
feng
fengsel
fengslet
fenomen
fenomenet
fer
ferd
ferdig
ferdinand
fergus
ferguson
ferie
fern
fernande
fernandez
fernando
ferr
ferrari
fersk
ferskvann
fes
fest
fester
festet
festival
festivalen
festivaler
festning
festningen
festnings
fet
fett
fetter
ff
fi
fia
fiat
fib
fiber
fick
fiction
fid
fide
field
fien
fiende
fienden
fiender
fiendt
fifa
fig
fight
figur
figuren
figurer
fiji
fik
fikk
fikt
fiktiv
fiktive
fil
filer
filial
filip
filipp
filippin
filippinene
filippinerna
film
filmat
filmen
filmene
filmens
filmer
filmerna
filmet
filmfestivalen
filmin
filmografi
filmp
filmprod
filmregiss
filosof
filosofen
filosofi
filosofie
filosofisk
filosofiska
filosofiske
filt
fimb
fin
final
finale
finalen
finaler
finan
finans
finansielle
finansier
finansiering
finansk
finansminister
finde
finder
findes
fine
fing
finger
finglanssteklar
finland
finlands
finlandsk
finlandska
finlandssven
finn
finna
finnas
finne
finner
finnes
finnmark
finns
finsk
finska
finske
finst
fint
fiol
fiolin
fir
fire
firenze
firer
firkant
firma
firmaet
firman
first
fis
fischer
fish
fisher
fisk
fiskar
fiskart
fiske
fisken
fisker
fiskeri
fisket
fiss
fit
fitz
five
fix
fj
fjader
fjadermyggor
fjall
fjar
fjard
fjarde
fjaril
fjarilar
fjarilsart
fjarilsmyggor
fjarr
fjeld
fjell
fjella
fjellene
fjellet
fjellkj
fjellt
fjen
fjer
fjerde
fjerdeplass
fjern
fjerne
fjernet
fjerns
fjernsyn
fjernsyns
fjord
fjordane
fjorden
fjort
fjorten
fjær
fk
fl
fla
flack
flackar
flad
fladder
fladdermus
flade
flag
flagg
flagga
flagget
flam
flan
fland
flandern
flash
flat
flate
flaten
flatt
flav
fle
fleet
fleir
fleire
flekk
flekker
flem
fleming
flen
flenortsvaxtart
flenortsvaxter
flens
flensborg
fler
flera
flere
flertal
flertalet
flertall
flertallet
flest
flesta
fleste
flet
fletcher
flex
flg
fli
flick
flicka
flickor
flight
flint
flit
flitigt
flo
flock
flockblomm
flockblommig
flockblommiga
flod
flodar
floden
floder
flog
flor
flora
floren
florens
flores
florida
flott
flotta
flottan
flow
floyd
flu
flug
flukt
fly
flydde
flyene
flyet
flyfot
flyfoto
flyg
flyga
flyger
flygflott
flygplan
flygplanet
flygplats
flygplatsen
flygtede
flygtning
flygvapnet
flying
flykt
flykte
flyktet
flyplass
flyplassen
flyr
flyt
flytande
flytende
flyter
flytt
flytta
flyttade
flyttades
flyttar
flyttas
flyttat
flytte
flyttede
flytter
flyttet
flyv
flyve
fløj
fløy
fm
fn
fns
fo
fod
foda
fodan
fodbold
fodboldklub
fodboldlandshold
fodboldspiller
fodd
fodda
foddes
fodelse
foder
fods
fog
fogder
fogderier
fok
fokus
fokuserer
fol
fold
folj
folja
foljande
foljd
foljde
foljdes
foljer
foljt
folk
folkbok
folke
folkeav
folkeg
folkem
folkemus
folkemusikk
folkeparti
folker
folkerep
folkerepublikken
folkes
folkeslag
folket
folketal
folketel
folketeljinga
folketellingen
folketing
folketinget
folketings
folkets
folkhogskola
folkm
folkmangd
folkmangden
folkmusik
folkom
folkpartiet
folkrak
folkrakning
folkrakningen
folks
foll
fon
fond
fonden
fonster
font
foot
football
for
fora
foral
forald
foraldrar
foraldrarna
foran
forand
forandret
forandring
forandringar
forar
forare
foraret
forars
forarsak
forarsaket
forb
forband
forbatt
forbattra
forbe
forbed
forbedre
forbedret
forber
forbered
forbes
forbi
forbindel
forbindelse
forbindelsen
forbindelser
forbinder
forbj
forble
forblev
forbli
forbru
forbruk
forbry
forbryt
forbud
forbudt
forbund
forbundet
forbundets
forbunds
forbundskapten
forbundslandet
force
forcip
forcipomyia
ford
forde
fordel
fordelade
fordelt
fordes
fordi
fordom
fordon
fore
foreb
forebild
forebygg
fored
foredrag
foredrar
foreg
forega
foregaende
foregangare
foregar
foregik
foregikk
forek
forekom
forekomm
forekomma
forekommande
forekommer
forekommit
forekomst
forekomsten
forel
forelas
foreld
foreldre
foreldrene
forelig
foreligger
forelsket
foreløp
foremal
foren
forenade
forenede
forening
foreningar
foreningen
foreningens
forenings
forenkl
forenklet
forente
fores
foresl
foresla
foreslag
foreslatt
foreslo
foreslog
foresprak
forest
forestall
forestallningar
forestandare
forestilling
forestillingen
forestillinger
foret
foretag
foretaget
foretagets
foretatt
foretog
foretrad
foretradare
forf
forfal
forfat
forfatning
forfatt
forfattade
forfattar
forfattare
forfattaren
forfattarskap
forfatter
forfattere
forfatteren
forfatterskap
forfattet
forflytt
forfol
forfolj
forfrem
forfremmet
forføl
forg
forgift
forgjen
forgren
forh
forhal
forhalland
forhallande
forhallanden
forhallandet
forhand
forhandling
forhandlingar
forhandlinger
forhind
forhindra
forhindre
forhold
forholdene
forholdet
forholdsvis
forint
fork
forkast
forklar
forklara
forklarade
forklarar
forklare
forklarer
forklaring
forknipp
forkort
forkortat
forkortelse
forkortet
forl
forlade
forlag
forlaget
forlagg
forlan
forlang
forlate
forlatt
forleng
forlenget
forlod
forlor
forlorade
forlorat
forlot
forlov
forlust
forluster
forlæn
forlæng
forløper
form
forma
formaga
formal
formalet
forman
formand
formann
format
formatet
formed
formel
formell
formelle
formellt
formelt
formen
formentlig
former
formet
formid
formod
formodligen
formogenhet
formue
formula
formuler
forn
forna
forne
fornem
fornlam
fornlamningar
fornuft
forny
fornyet
forord
forordning
forp
forr
forra
forrad
forran
forre
forret
forretning
forretnings
forrige
fors
forsakring
forsalj
forsaljning
forsam
forsamling
forsamlingar
forsamlingen
forsen
forsikring
forsikt
forsin
forsk
forskar
forskare
forskel
forskellig
forskellige
forsker
forskere
forsking
forskj
forskjell
forskjellig
forskjellige
forskning
forskningen
forsknings
forslag
forslaget
forsok
forsoka
forsoker
forsokt
forsokte
forson
forsor
forst
forsta
forstad
forstaelse
forstand
forstar
forstark
forstas
forste
forster
forstod
forstor
forstordes
forstyr
forstør
forsv
forsvandt
forsvann
forsvant
forsvar
forsvara
forsvarade
forsvare
forsvaret
forsvarets
forsvars
forsvarsbeslut
forsvarsmakten
forsvarsminister
forsvarte
forsvin
forsvinner
forsy
forsyninger
forsø
forsøg
forsøger
forsøgte
forsøk
forsøker
forsøks
forsøkshe
forsøkt
forsøkte
fort
fortal
fortalt
fortalte
forteckning
fortel
fortell
forteller
fortellingen
fortellinger
fortet
fortfarande
fortid
fortjen
fortjenst
fortolk
fortplant
fortrin
fortro
fortroende
forts
fortsat
fortsatt
fortsatta
fortsatte
fortsatter
fortsattning
fortsette
fortsetter
fortsætte
fortsætter
fortæl
fortæller
forud
foruden
foruds
forum
forut
foruten
forutom
foruts
forutsattningar
forv
forval
forvalt
forvaltning
forvaltningen
forvaltnings
forvan
forvand
forvandling
forvant
forvar
forvarv
forvarvade
forvax
forvek
forveksles
forvent
forventes
forventet
forvingen
forvir
foræld
forældre
forøvrig
fos
foss
fossil
fost
foster
fot
fotb
fotbal
fotball
fotballklubb
fotballspelar
fotballspiller
fotboll
fotbolls
fotbollsklubb
fotbollsspelare
foten
foto
fotograf
fotografi
fotografier
fotos
fots
fott
fou
found
foundation
four
fow
fox
fr
fra
frag
fraga
fragan
fragment
fragmenter
fragor
fragorna
frakt
fraktet
fral
frals
fram
framat
framfor
framforallt
framforde
framfordes
framført
framgang
framgangar
framgangs
framgangsrik
framgangsrika
framgangsrikt
framgar
framja
framleis
frammande
framover
framre
framst
framsta
framstaende
framstall
framstallning
framt
framtid
framtida
framtiden
framtrad
framtradande
framtradde
fran
franc
franca
france
frances
francesco
franche
francis
francisco
franco
francois
frank
franken
frankfurt
franklin
frankrig
frankrike
frankrikes
frans
fransk
franska
franske
franskmennene
fransmannen
franz
fraser
frat
fre
fred
fredag
freden
freder
frederic
fredericia
frederick
frederik
frederiks
frederiksberg
frederiksborg
fredet
fredrik
fredriks
fredrikstad
freds
fredsav
free
freg
frei
frekv
frekvens
frem
fremdeles
fremfor
fremført
fremførte
fremgang
fremme
fremmed
fremmede
fremmest
fremmet
fremover
fremragende
fremskritt
fremst
fremste
fremstilles
fremstillet
fremstilling
fremtid
fremtiden
fremtidige
fremtredende
fremtræ
fremtrædende
fren
french
fres
frey
fri
fria
frid
frie
fried
friedrich
friend
fries
frig
frigj
frigjør
frihed
friher
friherre
frihet
friid
friidrett
friidrettsutøver
friidrott
friidrottare
friis
frik
fril
frilans
friluft
frimurer
fris
frisk
frist
fristaende
fristil
frit
fritflugor
fritid
fritt
fritz
frivil
frivillig
frivillige
fro
frod
frode
frog
frogner
frol
from
fron
front
fronten
frost
fru
frue
frug
frugt
fruh
fruhstorfer
frukt
frukten
frukter
fry
frygt
frykt
frø
fu
fug
fugl
fugle
fuglen
fugler
fuj
fujian
fukt
fuktig
fuktiga
fuktigt
ful
fuld
fuldstænd
fuldstændig
fuldt
fulgt
fulgte
full
fullbord
fulle
fuller
fullført
fullførte
fullstand
fullstandigt
fullstendig
fullt
fulv
fum
fun
fund
fundament
fundet
funger
fungera
fungerade
fungerar
fungere
fungerede
fungerer
fungerte
funk
funksjon
funksjonen
funksjoner
funktion
funktionen
funktioner
funn
funne
funnet
funnit
funnits
fur
furst
furu
fus
fusc
fusion
fusioner
fusjon
fut
fuzhou
fv
fvt
fx
fy
fyl
fylke
fylker
fylkes
fylkeskommun
fylkest
fylkesveg
fylkesvei
fylket
fyll
fyller
fylt
fylumet
fyn
fynd
fyr
fyra
fyret
fyrst
fyrste
fys
fysi
fysik
fysiker
fysikk
fysiologi
fysisk
fysiska
fysiske
fæ
fælles
fæng
fængsel
fænomen
fær
færd
færdig
færre
færø
færøerne
færøy
færøyene
fæst
fø
fød
fødd
føde
føder
føderale
fødsel
fødsels
fødselsdag
født
fødte
føl
følelser
føler
følge
følgende
følger
følgje
følte
føn
før
føre
førende
fører
føres
først
første
ført
førte
ga
gab
gabon
gabor
gabri
gabriel
gad
gadda
gade
gaden
gader
gaet
gag
gagne
gal
gala
galak
galax
gale
galen
galic
galile
gall
galla
gallande
gallde
galler
galleri
gallery
galli
galliv
gallivare
gallmyggor
galt
gam
gamal
game
games
gamla
gamle
gamm
gammal
gammalt
gammar
gammel
gammelt
gan
gand
gang
gange
gangen
ganger
gangwon
gans
ganska
ganske
gap
gar
gara
garanter
garcia
gard
gardaneh
gardar
garde
garden
gardene
gardens
garder
garm
garn
garna
garning
garnis
garnison
garnisonen
gart
gary
gas
gass
gast
gaster
gat
gata
gatan
gate
gaten
gater
gates
gator
gatt
gau
gav
gave
gaver
gavle
gavleborgs
gavs
gay
gaz
gaza
ge
geb
ged
geir
geist
gel
gem
gemensam
gemensamma
gemensamt
gen
genast
gene
gener
general
generald
generaldirektor
generalen
generalgu
generalguvern
generall
generalmajor
generalsekretær
generasjon
generation
generationen
generationer
generell
generelle
generellt
generelt
genet
genetisk
genetiska
geneve
geng
gengæld
gennem
gennembrud
gennemført
gennemførte
gennemsnit
genom
genombrott
genomfor
genomfora
genomforde
genomfordes
genomgick
genomsnitt
genomsnittlig
genop
genre
genren
genrer
gent
gentemot
gentian
geoff
geoffrey
geograf
geografi
geografisk
geografiska
geografiske
geolog
geologi
geological
geologisk
geologiske
geomet
geometri
georg
george
georges
georgetown
georgia
georgien
georgiska
ger
gera
gerais
gerald
gerard
gerd
gerhard
germain
german
germanske
gerne
gers
gert
ges
gesner
gesneriaceae
gest
gesta
gestalt
gestapo
get
gett
gh
gha
ghana
ghar
ghaz
ghost
ghowr
ghundey
gi
gia
gib
gibb
gibralt
gibraltar
gibson
gick
gif
gift
gifta
gifte
giftede
gifter
giftermal
giftet
gig
gigant
gik
gikk
gil
gilbert
gill
gim
gin
giov
giovanni
gir
gira
girault
girl
girls
giro
gis
git
gitar
gitarist
gitaristen
gitarr
gitarrist
gitarristen
gitt
gius
giuseppe
giv
give
given
giver
givet
givit
gj
gjaldt
gje
gjekk
gjeld
gjeldende
gjelder
gjem
gjen
gjennom
gjennombrudd
gjennomføre
gjennomført
gjennomførte
gjennomsnitt
gjennomsnittlig
gjenopp
gjens
gjenstand
gjenstander
gjent
gjenværende
gjer
gjere
gjerne
gjest
gjeste
gjester
gjev
gjeve
gjeven
gjord
gjorda
gjorde
gjordes
gjort
gjorts
gjø
gjør
gjøre
gjøres
gjøvik
gl
gla
glac
glaciar
glacier
glad
gladi
glam
glans
glas
glasgow
glass
glatt
glauc
glav
glava
glavica
gle
glem
glen
glenn
gles
glesbefolkat
glest
glets
gli
glid
glim
glo
glob
global
globale
globalt
globe
glom
gloria
glouc
gloucester
gly
gm
gn
gnagare
gne
gnom
go
gob
god
goda
godar
gode
godk
godkjen
godkjent
gods
godse
godset
godt
gog
gogae
goias
gok
gol
gold
golden
golf
golo
golv
gom
gome
gomez
gon
gond
gong
gongen
gonger
gonz
gonzalez
good
google
gor
gora
goran
goras
gord
gordon
gorg
gors
gos
gospel
gosta
got
gota
gotaland
gotalands
goteborg
goteborgs
goth
gotisk
gotland
gotlands
gott
gottfried
gottingen
gottlieb
gottorp
gou
gour
gover
gow
gp
gr
gra
grabrun
grac
grace
gracil
gracilis
grad
graden
grader
gradina
gradvis
graf
grafik
grafiker
grafisk
graham
gram
gramm
grammat
grammy
gran
granada
granat
grand
grande
granit
grann
grans
gransar
gransen
granser
grant
graph
gras
grasart
grashoppor
grasmarker
grass
grastrad
grasvaxtart
grat
gratis
graub
graubunden
grav
gravar
gravbin
grave
graven
graver
gravfalt
gravid
gravit
gravlagt
gray
graz
gre
great
greatest
green
greene
greg
gregor
gregory
greide
grek
grekisk
grekiska
grekland
gren
grenar
grenen
grens
grensa
grensar
grense
grensen
grensene
grenser
grep
greps
gres
gresk
greske
gress
greta
grev
greve
greven
grevskap
grevskapet
grey
gri
grieg
griff
griffith
grill
grim
grimstad
grind
grip
gris
grise
gro
grobladsvaxter
grod
groddjursart
gron
grona
gronland
grop
gror
gros
gross
grosso
grote
grott
grotta
group
grov
grove
grovt
groß
gru
grun
grund
grunda
grundad
grundade
grundades
grundare
grundarna
grundat
grunde
grunden
grunder
grundet
grundlag
grundlagde
grundlagg
grundlaggande
grundlagt
grundlæg
grundlæggende
grundserien
grundt
grundtvig
grunn
grunne
grunnen
grunner
grunnet
grunnla
grunnlag
grunnlagd
grunnlaget
grunnlagt
grunnleg
grunnleggende
grunnlegger
grunnlov
grunnloven
grupp
gruppa
gruppe
gruppen
gruppene
gruppens
grupper
grupperna
gruppespillet
grus
gruv
gruva
gruve
gry
græ
græken
grækenland
græns
grænse
grænsen
grænser
græs
græsk
græske
grøn
grønland
grønlands
grønn
grønne
grønt
gt
gu
guad
guadal
guadalupe
guadel
guan
guana
guanaju
guang
guangdong
guangxi
guangzhou
guard
guat
guatemala
guay
gud
gudbrand
guddomm
guden
guder
guds
gue
guer
guerrero
guide
guilla
guillaume
guine
guinea
guitar
gul
gula
guld
guldmedal
guldmedalj
gule
gull
gullmedalje
gullmedaljer
gult
gum
gun
gunder
gunn
gunnar
gunst
gunt
gunther
gunung
gur
gurk
gus
gust
gustaf
gustafsson
gustav
gut
gutt
gutta
gutter
guver
guvern
guvernem
guvernement
guvernementet
guvernor
guvernør
guy
guyana
gw
gwh
gy
gyeong
gyeongsang
gyl
gyld
gylden
gyll
gyllen
gyllene
gym
gymn
gymnas
gymnasie
gymnasiet
gymnasium
gymnast
gymnastik
gyn
gyp
gæ
gældende
gælder
gør
gøre
ha
haag
haakon
hab
habenaria
habit
habitat
habitatet
habsburg
hack
hackar
had
hadde
hade
hader
haderslev
haemat
haf
haft
hag
haga
hage
hagen
hager
hagg
haiti
haj
hak
hakan
hakon
hal
hald
halde
halden
hale
halen
half
halft
halften
hall
halla
halland
hallands
hallas
halle
hallen
haller
halling
halls
halm
halmstad
hals
halsa
halsen
halsing
halsingland
halso
halt
halv
halva
halvan
halvar
halvbror
halvdel
halvdelen
halve
halvgra
halvgras
halvgrasart
halvk
halvo
halvon
halvor
halvparten
halvt
halvøy
halvøya
ham
hamar
hamborg
hamburg
hamil
hamilton
hamm
hammar
hammarby
hammer
hamn
hamna
hamnade
hamnar
hamnen
hamp
hampshire
hampson
hamt
hamtade
han
hanar
hand
handball
handballspiller
handbold
handboldspiller
handboll
handel
handelen
handeln
handels
handelse
handelsen
handelser
handelsh
handelshogskolan
handen
hander
handla
handlade
handlar
handle
handler
handlet
handling
handlingar
handlingen
handlinger
handtere
handverk
hanen
hang
hangar
hanger
hangzhou
hank
hann
hanna
hannar
hanne
hannen
hannene
hanner
hannover
hans
hansen
hansson
hansyn
hant
hanter
hantera
hantverk
haouz
hap
hapl
happ
har
harad
harald
harbour
hard
harda
hardanger
harde
hardrock
hardt
hardy
hare
haren
haret
harj
harjedalen
harm
harmon
harnos
harold
harp
harris
harrison
harror
harry
harstad
harstam
harstammar
hart
hartmann
harvard
harvey
has
hasan
hash
hass
hassel
hast
hastar
hastarna
hasten
hastighed
hastighet
hastigheten
hat
hatt
hau
haug
haugen
haugesund
hauk
haus
hausten
haut
haute
hauts
hav
havanna
havd
havdade
havdar
havde
have
haven
haver
havet
havets
havn
havne
havnen
havner
havnet
havs
havsytan
haw
hawa
hawaii
hax
hay
haz
hb
hc
hd
he
head
heart
heat
heath
heav
heavy
heb
hebra
hebraisk
hebre
hebreiska
hed
hedder
hede
heden
heder
hedersd
hedersdoktor
hedmark
hedvig
heft
heg
hegy
hei
heid
heidelberg
heil
heile
heilong
heilongjiang
heilt
heim
hein
heinrich
heinz
heiter
hek
hekk
hektar
hel
hela
helbred
held
heldt
hele
helen
helena
helene
helg
helga
helge
helgeland
helgen
helgon
helhet
heli
helic
heliconius
heliga
helige
helik
helikopter
helium
hell
hellas
helle
hellen
heller
hellig
hellige
helm
hels
helse
helsing
helsingborg
helsingborgs
helsingfors
helsingør
helst
helt
heltid
helvet
hem
hembygd
hemib
hemiboreala
hemliga
hemlighet
hemm
hemma
hemmaplan
hemmel
hemmelig
hemmelige
hemmet
hen
henan
hend
hende
hendelsen
hendelser
hender
henderson
hendes
hendrik
heng
henger
henhold
henholdsvis
hennar
henne
hennes
henning
henrett
henrettet
henri
henriette
henrik
henriks
henry
hens
hensikt
hensyn
hent
henta
hente
hentet
henvise
henviser
henvisninger
hep
her
heraf
herak
herald
herat
herb
herbert
herc
herceg
hercegovina
here
herefter
herfra
herib
heriblandt
herm
herman
hermann
hermel
herning
hero
herr
herrar
herrarnas
herre
herred
herreg
herren
herrer
herrgard
hersk
hersker
hert
hertig
hertigen
hertil
hertug
hertugd
hertugdømmet
hertugen
herunder
herz
hes
hesper
hess
hessen
hest
heste
hesten
hester
het
heta
heter
hett
hette
hev
hevder
hevdet
hew
hex
hey
hf
hhv
hi
hib
hid
hidal
hidalgo
hidtil
hier
hierark
hig
higgins
high
highland
highway
hil
hild
hilde
hill
hiller
hills
him
himachal
himala
himalaya
himlen
himm
himmel
himmelen
hin
hinanden
hind
hinder
hindra
hindre
hindu
hing
hip
hiphop
hipp
hir
hiro
hirsch
hirsut
hirt
his
hisp
hiss
hist
histor
historia
historie
historien
historier
historik
historiker
historikere
historikeren
historikk
historisk
historiska
historiske
historiskt
history
hit
hitch
hitler
hitlers
hits
hitt
hitta
hittade
hittades
hittar
hittas
hittats
hittills
hiv
hj
hja
hjal
hjalmar
hjalp
hjalpa
hjalper
hjalpte
hjalt
hjar
hjarn
hjart
hjarta
hjel
hjelm
hjelp
hjelpe
hjelper
hjem
hjemlandet
hjemm
hjemme
hjemmeb
hjemmebane
hjemmes
hjemmeside
hjemmet
hjemsted
hjer
hjerne
hjernen
hjerte
hjertet
hjort
hjorte
hjul
hjuld
hjulspindlar
hjæl
hjælp
hjælpe
hjør
hjørne
hjørnet
hk
hms
ho
hob
hobart
hoce
hoceima
hoch
hockey
hod
hode
hodet
hof
hoff
hoffet
hoffmann
hog
hoga
hoger
hogkvarter
hogland
hoglandsklimat
hogra
hogre
hogskola
hogskolan
hogst
hogsta
hogt
hogtid
hoh
hohen
hoj
hojd
hojden
hojer
hok
hol
hold
holde
holdene
holder
holdes
holdet
holding
holdning
holdt
hole
holger
holl
holland
hollandsk
hollandske
holls
holly
hollywood
holm
holme
holmen
holmenk
holmes
holocaust
holst
holstein
holsten
holt
hom
home
homer
homo
homof
homosex
hon
honan
hond
honda
honduras
hong
hongkong
honom
honor
hood
hooker
hop
hope
hopp
hoppade
hoppet
hoppspindlar
hor
hora
hord
hordaland
horde
horison
horisont
hormon
hormoz
hormozgan
horn
hornet
horns
hornstritar
hors
horse
horsens
hort
horten
hos
hosp
hospital
host
hosten
hot
hotad
hotade
hotel
hotell
hotellet
hou
house
houston
hov
hoved
hovedbygningen
hovedet
hovedkontor
hovedkvarter
hovedperson
hovedpersonen
hovedrolle
hovedrollen
hovedrollene
hoveds
hovedsag
hovedsageligt
hovedsak
hovedsakelig
hovedstad
hovedstaden
hovedt
hovedtrener
hovet
hovratt
hovud
hovudsak
hovudsakleg
hovudstad
hovudstaden
how
howard
hr
hs
ht
htt
http
hu
hua
huang
hub
hubb
hubei
hubert
hud
hudd
huddinge
huden
hudik
hudiksvall
hudson
hue
hug
hugh
hughes
hugo
huidu
huk
hul
hull
hult
hum
human
humor
hun
hunan
hund
hundar
hunde
hunden
hunder
hundra
hundrat
hundre
hundrede
hunger
hunnen
hunnene
hunner
hunt
hunter
hur
hurt
hurtig
hurtigt
huruvida
hus
husar
husby
husdyr
huse
husen
husene
huser
huset
husets
husflugor
hushall
hushold
husk
husse
hust
hustru
hustrun
hut
huvud
huvudbaltet
huvudbyggnaden
huvuddelen
huvudet
huvudkontor
huvudort
huvudorten
huvudrollen
huvudroller
huvudrollerna
huvudsak
huvudsakliga
huvudsakligen
huvudstad
huvudstaden
hv
hva
hvad
hval
hvem
hver
hverandre
hverken
hvert
hvid
hvide
hvil
hvile
hvilke
hvilken
hvilket
hvis
hvit
hvite
hviteruss
hvitt
hvor
hvoraf
hvorav
hvordan
hvore
hvorefter
hvorfor
hvorfra
hvori
hvorpa
hvorved
hvorvidt
hy
hyal
hybrid
hyd
hyde
hydr
hydra
hydro
hydrogen
hyg
hyl
hyll
hym
hymen
hyp
hyper
hypot
hypp
hyppig
hyr
hyres
hytt
hæ
hæder
hæn
hær
hæren
hærens
hæv
hævd
hævdede
hø
høg
høgare
høgaste
høgd
høgde
høge
høgre
høgskolen
høgt
høj
højde
høje
højere
højeste
højester
højre
højt
høne
hønefoss
hør
høre
hører
hørt
hørte
høst
høsten
høvd
høve
høy
høyde
høyden
høye
høyere
høyeste
høyester
høyesterett
høyr
høyre
høyrer
høyt
ia
iak
ian
ib
iber
ibland
ibm
ibn
ibrah
ibrahim
ibsen
ic
ice
ich
ichneumon
icke
id
ida
idaea
idag
ide
ideal
ideell
ideen
ideer
iden
ident
identif
identifier
identifisert
identisk
identitet
ideologi
idet
idol
idrett
idrettslag
idrott
idræt
idræts
if
ifk
ifra
ifrag
ifragas
ifran
ifølge
ig
igang
igar
igarape
igen
igennem
igenom
igjen
igjennom
ign
igna
ignat
igor
ih
ihop
ii
iii
ik
ike
ikke
ikkje
ikon
il
ild
ile
ilha
ili
ill
illa
illeg
illin
illinois
illust
illustrasjon
illustrat
illustrationer
illustrator
illustrer
im
imago
imellem
imidler
imidlertid
imm
immig
immun
imod
imot
imp
imper
imperial
imperiet
imperium
implementer
imponer
import
importer
impro
improvis
impul
in
inat
inbj
inbland
inbord
inborde
inbordeskriget
inc
ind
indbygger
indbyggere
indbyggertal
inddelt
inde
indeholder
indeholdt
indel
indelad
indelat
indelning
indelta
inden
indenfor
indep
inder
index
indfly
indflydelse
indført
indgar
indgik
indhold
india
indian
indiana
indianer
indien
indig
indik
indiker
indikerer
indire
indirekte
indisk
indiska
indiske
indiv
individ
individer
individerna
individuell
individuella
individuelle
individuelt
indled
indledende
indledte
indlem
indoeurope
indones
indonesia
indonesien
indre
indsat
indsats
indspil
indspillede
indspillet
indt
indtil
indust
industri
industrial
industriell
industrielle
industrien
industrier
indviet
inf
infanter
infanteri
infanteriet
infanterireg
infe
infekt
infin
infl
influ
influenser
inflyt
inflytande
inflytelser
infor
infora
inforde
infordes
inforliv
inforlivades
inform
informasjon
information
informer
infrast
infrastruktur
ing
inga
ingaende
ingar
inge
ingeborg
ingen
ingeni
ingeniør
ingenjor
ingenting
inger
inget
ingick
ingrediens
ingrid
ingvar
inhem
inhemska
init
initi
initiativ
initiativet
initiativt
ink
inkl
inkluder
inkluderade
inkluderar
inkluderer
inkludert
inkluderte
inklus
inklusive
inkomst
inkop
inkorporer
inlandsklimat
inled
inledde
inleddes
inledningsvis
inloppet
inn
innan
innanfor
innbygg
innbygger
innbyggere
innbyggerne
innbyggjar
innbyggjarane
innbyggjarar
inndeling
inndelingen
inndelt
inne
inneband
innebandy
innebar
innebærer
innefatt
innefattar
inneh
inneha
innehade
innehall
innehalla
innehaller
innehallet
innehar
inneheld
inneholder
inneholdt
inneholl
innen
innendørs
innenfor
inner
innflyt
innflytelse
innført
innførte
inng
inngang
inngar
inngatt
inngikk
innhold
innholdet
innlandet
innled
innledende
innledet
innlem
innlemmet
innom
innov
inns
innsats
innsbruck
innsjø
innsjøen
innsjøer
innslag
innsp
innspel
innspelinga
innspilling
innspillingen
innspilt
innte
inntekt
inntekter
inntil
inntrykk
innvalgt
innvand
innviet
inom
inomhus
inratt
inrattades
inre
inred
inrikes
inrikt
inriktning
inrym
ins
insag
insats
insatser
inse
insekt
insekter
insektsart
insign
insister
insjo
insjoar
inskrip
inskript
inslag
insp
inspe
inspel
inspelad
inspelning
inspelningar
inspelningen
inspir
inspirasjon
inspiration
inspirerad
inspirerade
inspireret
inspirert
inst
install
installer
installert
instift
instit
institusjon
institusjoner
institut
institute
institutet
institution
institutionen
institutioner
institutt
instituttet
instru
instrueret
instrukt
instruktør
instrument
instrumental
instrumenter
instrumentet
int
inta
intag
intakt
inte
integ
integr
integrer
intel
intelle
intellekt
intellektuelle
intellig
intelligens
intens
intensiv
inter
interes
interess
interessant
interesse
interessen
interesser
interessert
interi
interiør
intermed
intermedia
intern
interna
internasjon
internasjonal
internasjonale
internasjonalt
internation
international
internationale
internationalt
internationell
internationella
internationellt
interne
interner
internet
internett
internt
interv
interview
intervj
intervju
intervjuer
intet
intill
intog
intradde
intraff
intraffade
intres
intress
intresse
intressen
intresser
intresserad
intresserade
intresset
introd
introducer
introducerade
introducerades
introduceret
introdus
introdusert
introduserte
intryck
inv
invader
invaderte
invald
invaldes
invan
invanarant
invanare
invanarna
invand
invas
invasion
invasionen
invasjon
invasjonen
invent
inver
invest
invester
invid
invig
invigdes
inviter
invitert
invol
involver
involveret
involvert
io
ion
iowa
ip
iph
ir
ira
irak
iran
irene
iris
irisvaxter
irland
irlandska
iron
irsk
irske
is
isa
isaac
isabel
isabella
isak
isb
isbre
ischn
isen
ish
ishockey
ishockeyspelare
ishockeyspiller
isid
isk
isl
isla
islam
island
islands
islandsk
islandska
islandske
isle
iso
isol
isot
isra
israel
israels
israelsk
israelske
iss
ist
istallet
istan
istanbul
isted
istedenfor
især
it
ital
italia
italien
italiens
italiensk
italienska
italienske
iuc
iucn
iv
ivag
ivan
ivar
iver
ivrig
iw
ix
iz
ja
jab
jabal
jac
jack
jackson
jacob
jacobsen
jacobus
jacques
jae
jag
jagar
jager
jagerfly
jagt
jah
jak
jakarta
jakob
jakt
jakten
jal
jam
jama
jamaic
jamaica
james
jamfor
jamforelse
jamfort
jammu
jamn
jamt
jamte
jamtland
jamtlands
jan
jane
janeiro
jang
janne
jansson
janu
januar
januari
jap
japan
japanerne
japans
japansk
japanska
japanske
jar
jard
jarl
jarn
jarnaldern
jarne
jarnvag
jarnvagar
jarnvagen
jarnvagsst
jarnvagsstation
jarv
jas
jason
jat
jatte
jav
java
jawa
jay
jaz
jazz
jbel
je
jean
jeanne
jebel
jeff
jeffer
jefferson
jeg
jel
jemen
jen
jenn
jennifer
jenny
jens
jensen
jente
jenter
jeolla
jer
jere
jern
jernban
jernbane
jernbanen
jernbanest
jerry
jersey
jerusalem
jes
jesper
jess
jessica
jesu
jesuitt
jesus
jet
jevn
jevnbrede
jf
ji
jiang
jiangsu
jiangxi
jim
jimmy
jin
jinan
jing
jo
joachim
joakim
joan
joao
job
jobb
jobba
jobbar
jobbe
jobben
jobber
jobbet
jod
joe
joel
joens
joensuu
joh
johan
johann
johanna
johanne
johannes
johans
johansen
johansson
john
johnny
johns
johnsen
johnson
johnston
jok
jokk
jol
jom
jomfru
jon
jonas
jonathan
jones
jong
jonkoping
jonkopings
jonsson
jor
jord
jorda
jordan
jordanien
jordb
jordbav
jordbruk
jordbruket
jordbruks
jordbruksmark
jorden
jordens
jordlopare
jordskj
jorge
jos
jose
josef
joseph
jot
jour
journ
journal
journalist
journalisten
journalister
joy
jr
ju
juan
juarez
jub
jubil
jubileum
jud
judar
judas
jude
judisk
judiska
judoka
juel
jug
jugend
jugoslav
jugoslavia
jugoslavien
jul
jule
julen
jules
juli
julia
julian
julie
julius
jum
jun
jung
jungfru
jungfrulin
juni
junior
jup
jupiter
jur
jura
jurid
juridik
juridisk
juridiska
juridiske
juris
jurist
jury
jus
juss
just
justicia
justin
justis
justit
justiti
juv
juvelvingar
juventus
jy
jylland
jyske
jæ
jæger
jævn
jød
jøde
jødene
jøder
jødisk
jødiske
jør
jørg
jørgen
jørgensen
ka
kab
kabel
kabul
kach
kacker
kackerlack
kackerlacksart
kad
kaf
kafe
kaffe
kag
kah
kai
kairo
kaiser
kaj
kajan
kak
kakt
kaktus
kal
kala
kald
kalde
kalder
kaldes
kaldet
kaldt
kaldte
kalender
kalenderen
kalendern
kaliber
kalif
kaliforn
kalifornien
kalk
kalksten
kall
kalla
kallad
kallade
kallades
kallar
kallas
kallaste
kallat
kallats
kallavaxtart
kallavaxter
kalle
kallen
kaller
kalles
kallor
kallt
kalmar
kalt
kalte
kalv
kam
kamar
kambod
kambodja
kamen
kamer
kamera
kamerun
kammar
kammare
kammaren
kammer
kammerherre
kamp
kampan
kampanj
kampanjen
kampar
kampe
kampen
kampene
kamper
kan
kana
kanada
kanadens
kanadensisk
kanadensiska
kanal
kanalen
kanaler
kanarie
kanarieoarna
kand
kanda
kande
kandid
kandidat
kandidater
kandidatexamen
kang
kani
kann
kanna
kanner
kannet
kanneteck
kannetecken
kannetecknas
kanon
kanoner
kanot
kans
kansas
kanske
kanskje
kansla
kansler
kansli
kanslor
kant
kanten
kanter
kanton
kantonen
kaos
kap
kapacitet
kapasitet
kapel
kapell
kapellet
kapit
kapital
kapitel
kapittel
kapp
kaptajn
kaptein
kapten
kar
kara
karakt
karaktar
karaktarer
karakter
karakteristisk
karakteristiske
karb
karbon
kard
kardin
kardinal
kardinaler
kare
karel
karelen
karen
karet
karez
kari
karib
karibiske
karin
kark
karl
karlek
karleks
karls
karlsk
karlskrona
karlsson
karlstad
karm
karn
karna
karnat
karnten
karol
karolin
karolinska
karos
karp
karpfiskar
karr
karri
karriar
karriaren
karriere
karrieren
kart
karta
kartlagd
kartlagt
kas
kasakh
kasakhstan
kaser
kash
kashmir
kass
kassel
kast
kasta
kaste
kastet
kastilien
kat
katal
katalanska
katalog
katalonien
katarina
katastro
katastrof
kate
kated
katedral
katedralen
kateg
kategor
kategori
kategorien
kategorier
kategorin
kategoriserar
kath
kathar
katol
katolikker
katolsk
katolska
katolske
katrine
katt
katte
katter
kau
kaukas
kaukasus
kav
kavaler
kavaller
kaw
kay
kaz
kazak
kazakstan
kb
ke
keb
kec
kecamatan
ked
kef
keisar
keiser
keiseren
keiserlige
keith
kej
kejs
kejsar
kejsard
kejsare
kejsaren
kejser
kejserliga
kel
kell
kelly
kelt
kelurahan
kem
kemi
kemisk
kemiska
kemp
ken
kend
kender
kendes
kendet
kendt
kendte
kenn
kennedy
kenneth
kenora
kent
kentuck
kentucky
keny
kenya
kep
ker
keram
keramik
kerman
kerne
kerstin
ket
kevin
key
keyboard
kf
kg
kgl
kh
kha
khal
khallet
kham
khan
khar
khe
khor
khorasan
khuz
khuzestan
ki
kib
kick
kid
kidna
kidnapp
kie
kieffer
kiel
kiev
kik
kil
kild
kilde
kilden
kilder
kill
kilo
kilometer
kim
kin
kina
kinas
kind
kines
kinesisk
kinesiska
kinesiske
kinestrad
king
kingdom
kings
kingston
kinn
kino
kinsh
kinshasa
kio
kir
kirch
kirg
kirgiz
kirgizistan
kiri
kirimoj
kirimojavaxtart
kirimojavaxter
kirk
kirke
kirkegard
kirkegarden
kirkelige
kirken
kirkens
kirker
kirkes
kirsten
kiruna
kirurg
kis
kiss
kit
kitt
kiv
kj
kje
kjel
kjeld
kjelder
kjell
kjeller
kjem
kjemi
kjemisk
kjemiske
kjemp
kjempe
kjempet
kjen
kjend
kjende
kjenner
kjennet
kjent
kjente
kjer
kjerne
kjernen
kjær
kjærlighet
kjø
kjøl
kjønn
kjønns
kjøp
kjøpe
kjøpes
kjøpmann
kjøpt
kjøpte
kjøre
kjøret
kjøretøy
kjørte
kjøtt
kk
kl
kla
klad
klader
kladogram
klag
klan
klang
klar
klara
klarade
klarar
klare
klarer
klart
klarte
klas
klass
klasse
klassen
klasser
klassif
klassific
klassifisert
klassiker
klassisk
klassiska
klassiske
klat
klatt
klaus
klaver
kle
klein
klem
kli
klim
klima
klimaet
klimat
klimatet
klimatforhallandena
klimatzonen
klin
kling
klinisk
klipp
klipper
klo
klock
klockan
klockvaxtart
klockvaxter
klok
klokke
klokken
klor
klost
kloster
klosteret
klostret
klot
klotspindlar
klov
klub
klubb
klubbane
klubbar
klubben
klubbene
klubbens
klubber
kly
klær
klø
km
km2
km²
kn
kna
knap
knapp
knappt
knapt
kne
knight
kniv
knock
knop
knott
know
knud
knudsen
knut
knytt
knytte
knyttet
ko
koal
koalition
kob
kobber
koch
kock
kod
kode
koden
kof
kog
kogn
koh
kok
kol
kola
kold
kolde
kolding
kolk
koll
kolla
kollap
kollaps
kolle
kolleg
kollega
kollektiv
koln
kolon
koloni
kolonial
kolonien
kolonier
kom
koma
kombin
kombinasjon
kombination
kombiner
kombinert
kome
komed
komedie
komet
komiker
komite
komiteen
komm
komma
kommand
kommandant
kommande
kommando
kommandoen
kommandør
komme
kommend
kommende
komment
kommentar
kommentarer
kommenter
kommer
kommersi
kommersiell
kommersiella
kommersielle
kommet
kommiss
kommission
kommissionen
kommit
kommitte
kommitten
kommun
kommunal
kommunala
kommunale
kommunalforbundet
kommunalforord
kommunalreformen
kommunane
kommune
kommunen
kommunene
kommunens
kommuner
kommunerna
kommunes
kommunesenteret
kommunest
kommunestyret
kommunfullmaktige
kommunhuvudort
kommunik
kommunikasjon
kommunikation
kommunikationer
kommunist
kommunister
kommunistisk
kommunistiska
kommunistiske
kommunistpartiet
kommunreformen
komp
kompagn
kompakt
kompan
kompani
kompaniet
kompens
kompet
kompl
komplek
kompleks
komplekse
komplett
kompletter
komplex
komplicer
kompon
komponenter
komponer
komponerade
komponert
komponist
komponisten
komponister
kompos
komposisjon
komposit
komposition
kompositioner
kompositor
komprom
kon
kona
konc
koncent
koncentr
koncentration
koncept
konceptet
koncer
koncernen
koncert
koncerter
kond
konda
kondens
kone
konen
konf
konfer
konferens
konfir
konfisk
konfli
konflikt
konflikten
konflikter
konfron
konføder
kong
konge
konged
kongedømmet
kongel
kongelig
kongelige
kongen
kongens
kongep
konger
kongeriget
kongeriket
kongo
kongres
kongress
kongressen
kongsberg
kongsv
kongsvinger
konig
konk
konkl
konkluder
konkret
konkur
konkurr
konkurranse
konkurransen
konkurranser
konkurren
konkurrence
konkurrencen
konkurrens
konkurrenter
konkurrer
konkurrerer
konkurrert
konkurrerte
konkurs
konrad
kons
konse
konsekv
konsekvens
konsekvenser
konsent
konsentr
konsentrasjon
konsept
konseptet
konser
konsert
konsertalbum
konserten
konserter
konserv
konservativ
konservativa
konservative
konson
konsonant
konspir
konst
konstakadem
konstakademien
konstant
konstantin
konstantinopel
konstater
konsten
konsthall
konstitu
konstitusjon
konstitut
konstitution
konstmuseum
konstnar
konstnaren
konstnarer
konstnarlig
konstnarliga
konstru
konstruert
konstruksjon
konstrukt
konstruktion
konstruktionen
konsul
konsulent
konsult
konsument
kont
konta
kontakt
kontakten
kontakter
kontin
kontinent
kontinental
kontinentet
kontinuer
kontinuerlig
kontor
kontorer
kontoret
kontra
kontrakt
kontrakten
kontrakter
kontraktet
kontrast
kontrol
kontroll
kontrollen
kontroller
kontrollera
kontrollere
kontrollerte
kontrover
kontroversi
konung
konvens
konvensjon
konvent
konvention
konver
konverter
konvo
kooper
koord
koordin
kop
kopa
kopen
kopenhamn
kopenhamns
koper
kopi
kopier
koping
kopinghuvudort
kopp
koppar
koppling
kopt
kopte
koptes
kor
kora
korall
korallart
koranen
kord
korde
kordes
kore
korea
koreanska
koreanske
koren
koreograf
koret
korg
korgblommiga
korleis
korn
korp
korps
korpset
korre
korrekt
korresp
korrespond
korru
korrup
kors
korsar
korsblomm
korsblommig
korsblommiga
korset
korsfar
korstog
kort
korta
kortare
korte
kortere
kortfilm
kortt
korttungebin
kortvar
kortvarig
kortvingar
kos
kosa
kosm
kosovo
kost
koster
kostet
kostnad
kostnader
kot
kotal
kotka
kott
kottflugor
kou
koud
koudia
koudiat
koudiet
koudyet
kour
kov
kow
koz
kr
kra
kraft
kraftdjur
kraftdjursart
kraften
krafter
kraftig
kraftiga
kraftige
kraftigt
kraftverk
kraftverket
krag
kraj
krak
krakow
kram
kran
krat
krater
krav
kravde
kraver
kravet
kravs
kre
kreativ
kred
kredit
krediter
kreds
kreft
krefter
kreis
krem
krep
krepsdyr
kret
kreta
krets
kretsar
kretsen
krev
krevde
krever
kri
krig
krigen
krigens
kriger
kriget
krigets
krigs
krigsf
krigsfor
krim
krimin
kriminal
kriminalitet
kring
kringkast
kris
krise
krisen
krist
kristall
kristdemokrat
kristen
kristendom
kristendomen
kristendommen
kristi
kristian
kristiania
kristiansand
kristianstad
kristianstads
kristiansund
kristin
kristina
kristine
kristna
kristne
kristoffer
kristus
krit
kriter
kriterier
kritik
kritiker
kritikere
kritikk
kritisert
kritisk
kritiske
kro
kroat
kroatia
kroatien
kroatisk
kroatiska
krog
krok
krom
kromosom
kron
krona
kronan
krone
kronen
kroner
kronet
kronobergs
kronologisk
kronor
kronprin
kronprins
krop
kropp
kroppen
kroppens
kropps
kroppsl
kroppslangd
kross
kru
krum
krus
kry
kryd
kryds
kryp
krypt
krys
kryss
krysser
krysset
krystall
kræ
kræfter
krævede
kræver
krøn
ku
kub
kuba
kuch
kug
kuh
kuk
kul
kula
kule
kulest
kull
kullar
kulle
kullkraftverk
kulmin
kult
kultur
kulturell
kulturella
kulturelle
kulturelt
kulturen
kulturer
kulturmin
kulturminner
kum
kun
kund
kunde
kunder
kung
kungar
kungariket
kungen
kungens
kunglig
kungliga
kungs
kunn
kunna
kunnat
kunne
kunngjorde
kunnskap
kunskap
kunskaper
kunst
kunstakadem
kunstakademiet
kunsten
kunstig
kunstnar
kunstner
kunstnere
kunstneren
kunstnerisk
kunstneriske
kunt
kuopio
kup
kuper
kuperad
kupp
kur
kurd
kurdistan
kurfyr
kurs
kurser
kurt
kus
kusin
kust
kusten
kustklimat
kut
kuwait
kv
kva
kvad
kvadrat
kvadratkilometer
kvadratmeter
kval
kvalet
kvalif
kvalific
kvalificerade
kvalificerede
kvalifik
kvalifikation
kvalifisering
kvalifiseringen
kvalifisert
kvalifiserte
kvalitet
kvaliteten
kvall
kvallen
kvalster
kvalsterart
kvant
kvar
kvarandre
kvarn
kvart
kvarter
kvarteret
kvartfin
kvartfinalen
kvartsf
kvartsfinal
kvarvarande
kveld
kvelden
kvin
kvinde
kvindel
kvindelige
kvinder
kvinn
kvinna
kvinnan
kvinne
kvinnelig
kvinnelige
kvinnen
kvinnene
kvinner
kvinnlig
kvinnliga
kvinnor
kvinnorna
kvinnors
kvit
kvite
kvitt
kw
ky
kyl
kym
kyp
kypros
kyr
kyrk
kyrka
kyrkan
kyrkans
kyrkbyn
kyrkj
kyrkja
kyrkje
kyrkliga
kyrkob
kyrkobygg
kyrkobyggnad
kyrkobyggnaden
kyrkog
kyrkogard
kyrkogarden
kyrkoh
kyrkoher
kyrkoherde
kyrkor
kyrkorum
kyst
kysten
kæ
kæmp
kæmpe
kæmpede
kær
kærlighed
kø
køb
købe
københav
københavn
københavns
købmand
købt
købte
kød
køge
køl
køn
køre
kører
køret
kørte
la
lab
labor
laborator
laboratorium
labour
labrador
lac
lach
lad
ladd
lade
lader
lades
lady
lae
lag
laga
lagar
lagd
lagde
lage
lagen
lagene
lagenheter
lager
lagervaxtart
lagervaxter
laget
lagets
lagga
lagger
laggs
lagkap
lagkonkurransen
laglandet
lago
lagoa
lagoon
lagos
lagre
lagret
lagring
lagsta
lagstift
lagstiftning
lagt
lagtinget
lagun
laguna
lah
laht
lahtis
lak
lakare
lakaren
lake
lakem
lakemedel
lakes
lakh
lakse
lakt
lal
lam
lama
lamar
lamb
lambert
lamiinae
lamn
lamna
lamnade
lamnar
lamnat
lamp
lan
lana
lanades
lanc
lancaster
lance
lancer
land
landa
landbru
landbrug
landbruk
landbruks
lande
landene
lander
landerna
landes
landet
landets
landeveiss
landh
landhockey
landhockeyspiller
landhockeyt
landing
landkreis
landmal
landmalingar
landomrader
lands
landsby
landsbyen
landsbyer
landsbyg
landsbygden
landsfiskal
landsfiskalsdistrikt
landsfor
landshold
landshovding
landsk
landskab
landskamp
landskamper
landskap
landskapet
landskommun
landskommunen
landskrona
landslag
landslaget
landslags
landsm
landst
landsting
landsvag
lane
lanet
lang
langa
langd
langden
langdistan
lange
langfilm
langhorningar
langhus
langre
langren
langrenn
langrenns
langror
langrorsbladloss
langs
langsam
langsamt
langsomt
langst
langsta
langt
langtungebin
langu
langvar
langvarig
lanka
lankar
lans
lanser
lanserade
lanserades
lansert
lanserte
lansstyrelsen
lansvag
lant
lantbruk
lantbruks
laos
lap
lapp
lappland
lar
lara
larar
larare
lard
larde
larob
laroverk
larry
lars
larsen
larsson
larven
larvene
larver
larvik
las
lasa
lasar
laser
lasi
lasioglossum
lass
lasse
last
lastbil
laste
lat
lata
latar
latarna
late
laten
later
latin
latinsk
latinska
latinske
latlista
latskri
latskrivare
latskriver
latt
latta
lattare
latvia
lau
laur
laura
lauren
laurent
lauritz
laus
lav
lavart
lave
lavede
laver
lavere
laveste
lavet
lavt
law
lawrence
lax
laz
lazar
lc
le
lea
league
leb
lec
lecan
lech
lecon
leconte
led
leda
ledamot
ledamoter
ledande
ledare
ledaren
ledd
ledde
leddes
leddet
leddjur
lede
ledelse
ledelsen
ledende
leder
ledere
lederen
lederne
ledes
ledet
ledning
ledningen
leds
lee
leeds
lef
left
leg
legat
lege
legem
legend
legendar
legendariske
legenden
legender
leger
legg
legge
legger
legges
legion
legit
legitim
leh
lei
leia
leiar
leic
leicester
leif
leik
leil
leip
leipzig
leir
leiren
lej
lejlighed
lejon
lek
lekene
leker
leks
leksand
lektor
lem
lemp
len
lena
leng
lengd
lengde
lengdehopp
lenge
lenger
lengre
lengst
lengste
lenin
leningrad
lenker
lenn
lennart
lennon
lens
leo
leon
leonard
leonardo
leop
leopold
lep
lepanthes
lepid
lepp
lept
ler
les
lese
leslie
lest
let
lett
lette
letter
lettere
lettland
leuc
lev
leva
levande
levde
leve
levede
levende
lever
levere
leverer
levererades
levert
leverte
levet
levetid
levevis
levi
levin
levnad
levnadssatt
levu
lew
lewis
lex
lh
lhasa
li
lia
liang
lib
liban
libanon
libanonberget
liber
liberal
liberala
liberale
liberia
libert
library
librett
libretto
libreville
liby
libyen
lic
licens
licent
licentiat
lid
liden
lider
lidingo
lidt
lie
lieb
liechtenstein
liege
life
lig
liga
ligaen
ligamatcher
ligan
lige
ligel
ligeledes
liges
ligesom
ligg
ligga
liggande
ligge
liggende
ligger
ligget
lighed
light
lignende
ligner
lik
lika
likasa
like
likevel
likhet
likheter
likn
liknande
liknar
liksom
likt
likte
lil
lilje
lill
lilla
lille
lillehammer
lillestrøm
lily
lim
lima
limn
limon
lin
lina
lincol
lincoln
lind
linda
lindberg
linde
linden
linder
lindes
lindgren
lindley
lindstrom
line
ling
lingvist
linje
linjen
linjer
link
linkoping
linkopings
linn
linne
linux
lion
lip
lis
lisa
lise
lisens
liss
lissa
lissabon
list
lista
listade
listan
listar
listas
liste
listen
lister
lit
lita
litau
litauen
lite
liten
liter
liters
litet
lith
litt
litter
litterara
litteratur
litteraturen
litterær
litterære
little
liturg
liu
liv
live
liver
liverpool
livet
livets
living
livs
livskraft
livskraftig
livsl
livsmedel
livsmiljo
livsstil
livstid
lj
ljub
ljud
ljung
ljungby
ljungvaxtart
ljungvaxter
ljus
ljusa
ljusar
ljusare
ljust
ll
llan
llano
llo
lloyd
lo
lob
loc
loch
lock
lod
loew
lof
lofoten
loft
log
logo
loh
loi
loire
loj
lojal
lojtnant
lok
lokal
lokala
lokale
lokaler
lokalisert
lokalpolit
lokalt
lokomot
lokomotiv
lol
lolland
lom
loma
lomas
lombard
lombardiet
lon
london
londons
long
look
lop
loper
lopez
loph
lopp
loppet
lor
lord
loren
lorentz
lorenzo
lorestan
lorra
lorraine
los
losa
losning
loss
lost
lot
lott
lotta
lotus
lou
louis
louise
louisiana
louv
lov
love
loven
lover
lovet
lovfallande
lovgivende
lovgivning
lovisa
lovskog
low
lower
lox
loy
lp
lt
ltd
lu
luanda
lub
lubeck
luc
lucas
lucia
lucien
luck
lucy
lud
ludvig
ludwig
luer
luft
lufta
luften
luftfart
lufthavn
lufthavnen
luftt
lug
luigi
luis
luk
lukas
luke
lukkede
lukket
luks
lukt
lulea
lum
lun
lund
lundberg
lunde
lunds
lung
lunge
lup
lur
lus
lust
lut
lute
luther
lutherska
lutherske
lutz
lux
luxem
luxembourg
luxemburg
luz
luzon
ly
lyc
lyck
lyckades
lyckas
lyckats
lyd
lyden
lyder
lyft
lyg
lykk
lykke
lykkedes
lykkes
lyktes
lym
lyman
lyn
lynch
lyng
lyngby
lyon
lyrik
lys
lyse
lysere
lyset
lyssn
lyst
læ
læg
læge
lægger
læn
læng
længde
længe
længere
lær
lærar
lærde
lære
lærer
lærere
lærte
læse
lø
løb
løber
løbet
løfte
løg
løn
løp
løpeb
løpebiller
løper
løpet
lør
lørdag
løs
løse
løsl
løsning
løsninger
løst
løv
løve
løven
løy
løytnant
m2
ma
mab
mac
macdonald
mach
machine
mack
macqu
macquart
macro
macroc
mad
madaga
madagaskar
madame
made
mader
madh
madhya
madison
madonna
madrid
mads
madsen
mag
magall
magallanes
magas
magasin
magasinet
magaz
magazine
magdalen
magdalena
magi
magic
magist
magister
magn
magnet
magnetiske
magnitud
magnus
magnusson
magt
magten
mah
mahar
mahren
mai
maiden
main
maine
maj
maja
majest
major
majoritet
majoriteten
mak
make
makedon
makedonia
makedonien
makedonska
maken
maksim
makt
makta
makten
mal
mala
malade
malar
malare
malaren
malarskola
malawi
malaysia
malcol
malcolm
male
maler
maleren
maleri
malerier
maleriet
males
malet
mali
malin
maling
mall
malloch
malm
malmo
malmohus
malning
malningar
malningen
malp
malt
malta
malte
malv
malvakt
malvavaxtart
malvavaxter
mam
mamma
man
manad
manaden
manader
manag
management
manager
managua
mancha
manchester
mand
mandag
mandat
mandater
mande
mandeh
mandlige
mane
maned
maneden
maneder
maneders
manen
manens
manfred
mang
manga
mangd
mangden
mangder
mange
mangel
mangfald
mangfold
mangfot
mangfotingart
manglende
mangler
manhattan
mani
manifest
manip
manit
manitoba
mank
manliga
mann
mannen
manner
mannisk
manniska
manniskan
manniskans
manniskor
manniskorna
mannlige
manns
mannskap
mannskapet
mans
mansk
manskliga
mant
manu
manuel
manus
manuset
manusforfattare
manuskript
manuskriptet
manøv
mao
map
mar
maran
maraton
marc
marcel
march
marco
marcos
marcus
mard
mare
marevaxtart
marevaxter
marg
margar
margaret
margareta
margin
marginal
margret
margrethe
mari
maria
marianne
marie
marieh
mariehamn
marin
marina
marine
marinen
marino
mario
marion
marit
maritime
marius
mark
markant
markazi
marked
markedet
markeds
marken
marker
markerer
markert
markerte
market
marknad
marknaden
marknads
marknadsfor
marks
markt
markus
marl
marm
marmor
marne
marock
marocko
marokko
marrakech
mars
marsch
marse
marseille
marsh
marshall
mart
marta
martha
martin
martine
martinez
martins
marts
martyr
marx
mary
maryland
mas
mask
maske
masker
maskin
maskinen
maskiner
maskinge
maskingevær
mason
mass
massa
massachus
massachusetts
massak
masse
massen
massiv
mast
mastare
maste
master
mastergrad
masters
masterskap
masterskapen
masterskapet
mat
mata
matar
matare
match
matchen
matcher
matcherna
mate
matemat
matematik
matematiker
matematikk
matematisk
matematiske
maten
mater
material
materiale
materialer
materialet
materiel
math
mathias
mato
mats
matsum
matsumura
matt
matte
matthew
mattias
maud
maur
mauret
mauretanien
mauric
maurice
mauricie
maurit
mauritius
maus
mausole
mav
maw
max
maxim
maximilian
maxwell
may
maya
maz
mazandaran
mazar
mb
mc
mcc
mccart
mccartney
mcdonald
mcg
mck
md
me
mead
mec
meck
mecklenburg
med
medal
medalj
medalje
medaljen
medaljer
medan
medarbejder
medarbejdere
medarbetare
medborg
medborgare
meddel
meddelade
meddelades
meddelte
medel
medelhav
medelhavet
medelhavsklimat
medelhojden
medelpad
medelt
medeltemperaturen
medeltid
medeltida
medeltiden
medfor
medforde
medfører
medførte
medi
media
medic
medicin
medicine
medicinsk
medicinska
medie
medier
medio
medis
medisin
medisinsk
medisinske
medium
medlem
medlemmar
medlemmarna
medlemmene
medlemmer
medlemmerne
medlems
medlemskap
medlemsland
medlemsst
medlemsstater
medley
medreg
medverk
medverka
medverkade
medverkan
medverkande
medverkar
medverkat
medvet
medvir
medvirkede
medvirkende
medvirket
meg
megach
megachile
megal
megas
megaselia
megen
meget
meh
mein
meiner
meinte
meir
meister
mejer
mek
mekan
mekanisk
mekaniska
mekaniske
meknes
meksik
mektig
mektige
mel
melan
melast
melastomataceae
melbourne
meld
melde
meldte
melit
melk
mell
mellan
mellanostern
mellem
meller
mellersta
mellom
mellomalderen
melod
melodi
melodien
melodier
melodifestivalen
melodin
melolonth
melolonthidae
mem
membran
memo
memor
memorial
memp
men
menade
menar
mendo
mendoza
mener
menes
meng
mengde
mengder
menighet
menigheten
mening
meningen
menings
menn
menne
mennene
mennesk
menneske
menneskelig
menneskelige
menneskene
mennesker
menneskerett
mennesket
menneskets
mens
ment
mental
mente
mer
mera
merc
mercedes
mercury
mere
merit
meriter
merk
merke
merket
merparten
merrill
mes
mesa
mesoch
mesopot
mess
messe
messen
mest
mesta
mestadels
meste
mesteparten
mester
mesterskab
mesterskaber
mesterskabet
mesterskap
mesterskapet
mestre
met
meta
metac
metal
metall
metaller
metallisk
metam
metamorf
mete
meteor
meter
meters
metod
metode
metoden
metoder
metro
metrop
metropolit
metropolitan
mette
mex
mexic
mexico
mexik
mexikanska
mexiko
mey
meyer
meyrick
mez
mf
mg
mh
mi
mia
miami
mian
mic
mich
micha
michael
michel
michigan
micho
mick
miconia
micro
microc
microp
micros
microsoft
mid
midd
middag
middel
middelalder
middelalderen
middelhav
middelhavet
middels
middelsst
middelsstor
middelsstore
middle
midler
midlertid
midlertidig
midlertidige
midt
midtban
midten
midter
midtjylland
midtre
midtøsten
mig
miguel
mik
mika
mikael
mike
mikhail
mikk
mikro
mil
milan
milano
mild
mile
miles
milit
militar
militara
militaren
militart
militær
militære
militæret
militært
milj
miljarder
miljo
miljoer
miljon
miljoner
miljø
miljøet
mill
miller
milli
milliard
milliarder
millimeter
million
millionar
millioner
milton
mim
min
mina
minas
mind
minde
minder
mindre
mindret
mindst
mindste
mine
miner
mineral
mineraler
minerar
minerarflugor
ming
mini
miniat
minim
minimum
minist
minister
ministeriet
minne
minner
minnes
minnesota
minnet
minor
minoritet
minoritets
minsk
minska
minskade
minskar
minskat
minst
minsta
minste
minus
minut
minuter
minutt
minutter
mio
mir
mira
mis
misfor
misjon
misly
miss
mission
mississ
mississipp
mississippi
misslyck
misslyckades
missouri
misstan
mist
mista
miste
mistede
misten
mister
mistet
mit
mitch
mitchell
mits
mitt
mitten
mittfalt
mix
mixed
miy
miz
mj
mjol
mjolk
mjuk
mjøl
mk
ml
mlb
mm
mma
mo
mob
mobil
mobile
mobilt
mobiltelef
moc
mod
mode
model
modell
modellen
modeller
moder
moderat
modern
moderna
moderne
modifier
modsat
modsatte
modstand
modsætning
modtager
modtaget
modtog
moe
mog
mogens
mogleg
moh
mohafazat
moham
mohammad
mohammed
moj
mojlig
mojliga
mojligen
mojlighet
mojligheten
mojligheter
mojligt
mok
mol
mold
molde
molek
molekyl
molekyler
moll
moller
moln
molophilus
molt
moltke
mom
moment
mon
mona
monaco
monark
monarken
monarki
mong
mongol
mongoliet
monica
monopol
monotyp
monotypisk
monroe
mons
monster
monsun
monsunklimat
mont
montagne
montana
monte
monten
monteneg
montenegro
monter
montert
montg
montgomer
montgomery
montreal
monument
monumentet
moon
moore
mor
mora
moral
mord
mordades
mordet
more
morelos
moren
morf
morfar
morg
morgan
morgen
morgenen
morgon
morgonen
moritz
mork
morka
morkare
morm
morne
morris
morrison
morro
mors
mort
morten
mortensen
mos
mosa
mosaik
mose
moser
moses
mosk
moske
moskva
moss
mossdjursart
most
mot
mota
motala
mote
moten
moter
motes
motet
motion
motiv
motiver
motivet
motor
motorcy
motoren
motorer
motorn
motors
motorsport
motorvag
motorvagen
mots
motsats
motsatt
motsatte
motset
motsetning
motstand
motstandare
motstander
motsvar
motsvarande
motsvarar
mott
motta
mottag
mottagande
mottak
mottatt
motte
mottes
motto
mottog
mottok
mou
mount
mountain
mountains
mov
movie
moz
mozart
mp
mr
ms
mt
mtv
mu
muc
mud
mueller
mug
muham
muhammad
muhammed
muk
mul
mulig
mulige
muligens
mulighed
muligheder
mulighet
muligheten
muligheter
muligt
muligvis
mull
mullbar
muller
mult
multi
multip
mum
mun
munch
munchen
mund
municip
municipal
municipalsam
munk
munke
munn
munnar
munnen
munner
munningen
munster
munt
mur
muren
murphy
murray
mus
musc
muse
museer
museet
museets
museum
music
musik
musikal
musikalbum
musikalen
musikaliska
musikalsk
musikalske
musiken
musiker
musikere
musikk
musikkalbum
musikken
musikkonserv
musikt
musikvide
musikvideo
musk
muskel
muslim
muslimer
muslimsk
muslimska
muslimske
mussel
musselart
must
mut
mv
mw
my
myanmar
myc
mycet
mycetophila
mycket
mycosphaer
mye
myk
mykje
myl
myn
mynd
myndigheder
myndighet
myndigheten
myndighetene
myndigheter
myndigheterna
mynnar
mynt
myr
myrart
myrdet
myri
myror
myrten
myrtenvaxtart
myrtenvaxter
mys
myst
myster
myt
myten
myter
mytologi
m²
m³
mæl
mænd
mæng
mængde
mængder
mær
mø
mød
møde
møder
mødte
mødtes
møl
mølle
møller
møn
mønster
mør
møre
mørk
mørke
mørkere
mørkt
møte
møter
møtes
møtet
møtt
møtte
møttes
na
nab
nabaa
nabb
nabo
nabok
nac
nach
nacional
nack
nacka
nad
nadd
nadde
nade
naede
naet
nag
nagon
nagonsin
nagot
nagra
nagu
nah
nahr
nairo
nairobi
nak
naken
nal
nam
name
names
namibia
namligen
namn
namnas
namnda
namnen
namnet
namngje
namngjeve
namngjeven
namns
nan
nana
nanchang
nancy
nanjing
nann
nansen
nap
napole
napoleon
napoleons
napoli
nar
nara
narbel
narheten
naring
narings
naringsliv
narke
narkot
narkotik
narkotika
narliggande
narmare
narmast
narmaste
narvarande
narvaro
narvik
nas
nasa
nash
nashville
nasjon
nasjonal
nasjonale
nasjonalpark
nasjonals
nasjonalsosial
nasjonalt
nasjoner
nass
nassau
nassel
nasseld
nasseldjursart
nast
nasta
nastan
nat
natal
nathan
nathaniel
nation
national
nationale
nationalekonom
nationalmuseum
nationalpark
nationalparken
nationals
nationalsocial
nationalt
nationell
nationella
nationellt
nationen
nationer
nations
nato
natrium
natt
natten
nattfly
nattflyn
nattslandeart
natur
natura
natural
naturen
naturgass
naturlig
naturliga
naturlige
naturligt
naturres
naturreservat
naturreservatet
naturskydd
naturskyddat
naturvard
naturvardsunionen
naturvetenskap
natverk
naut
nautiske
nav
naval
navarra
navas
navig
navn
navne
navnene
navnet
navngitt
navnlig
navy
naværende
naw
nay
naypy
naypyidaw
naz
nazity
nazitysk
nba
nbc
nd
ne
neapel
neb
nebb
nebra
nebraska
nect
ned
nedan
nedanfor
nedbør
nede
nedenfor
neder
nederbord
nederlag
nederlaget
nederland
nederlandene
nederlanderna
nederlandsk
nederlandska
nederlandske
nederste
nedgang
nedlagt
nedover
nedre
nedsatt
nedslag
need
nees
neg
negativ
negativa
negative
negativt
negro
nei
neil
nej
nejlik
nejlikvaxtart
nejlikvaxter
nek
nektar
nektet
nel
nelson
nem
nemlig
neo
neoc
neol
neon
neop
nep
nepal
neph
nept
ner
nere
nerv
nes
ness
nest
neste
nesten
nestleder
net
netop
nett
nettet
nettopp
nettverk
netværk
network
neu
neur
neut
neutral
nev
nevada
never
neville
nevner
nevnes
nevnt
nevnte
nevø
new
newcastle
newfound
newfoundland
news
newton
newzealand
nfl
ng
nhl
ni
nic
nicar
nicaragua
nice
nich
nicholas
nick
nicol
nicola
nicolai
nicolas
nicolaus
nid
nidar
nidaros
nieder
niederosterreich
niedersachsen
niels
nielsen
niende
nig
niger
nigeria
night
nigric
nik
niklas
nikola
nikolai
nikolaj
nikolaus
nil
nils
nilsen
nilsson
nim
nin
nina
ning
nintend
nintendo
nio
nionde
nip
nipp
nir
nis
niss
nissen
nit
nitt
niv
niva
nivaer
nivaet
niveau
nix
nixon
niz
nj
nk
nkp
nm
no
nob
nobel
nobelp
nobelpris
nobelprisen
nobels
noc
nod
nodvand
nodvandigt
noe
noen
noens
noensinne
nog
nogen
nogens
nogensinde
noget
nogle
noir
nok
noko
nokon
nokre
noksa
noll
nom
nomin
nominat
nominatformen
nominer
nominerad
nominerade
nominerades
nomineret
nominert
nomos
non
nor
nora
nord
nordafrika
nordamerika
nordaust
norde
norden
nordens
nordic
nordir
nordirland
nordisk
nordiska
nordiske
nordkorea
nordland
nordlege
nordlig
nordligaste
nordlige
nordligste
nordmak
nordmakedonien
nordmenn
nordost
nordostlig
nordostra
nordover
nordre
nordrhein
nordsamisk
nordsida
nordsiden
nordsjøen
nordvast
nordvastlig
nordvastra
nordvest
nordvestlige
nordøst
nordøstlige
noreg
noregs
norfolk
norge
norges
norgesmester
norgesmesterskapet
norm
normal
normalar
normale
normalt
norman
normand
normandie
normann
normer
norr
norra
norrbotten
norrbottens
norrkoping
norrkopings
norrland
norrlands
norrtalje
norrut
norrøn
norrøne
norrønt
norsk
norska
norske
norte
north
norther
northern
northwest
norway
norweg
nos
nost
not
noter
notera
noth
nott
nottingham
nou
nouakch
nouakchott
nouv
nouvelle
nov
nova
novell
novellen
noveller
november
noverande
novgor
novgorod
novo
now
nr
nrk
ns
nsd
nsdap
nt
ntn
ntnu
nu
nuaf
nub
nud
nue
nueva
nuevo
nuk
nukle
null
num
numer
numera
nummer
nummeret
numre
nun
nunatak
nunavut
nur
nurn
nurnberg
nusa
nut
nutid
nutida
nuuk
nuv
nuvarande
nuværende
ny
nya
nyare
nybildade
nybygg
nyc
nyck
nyckel
nye
nyere
nyeste
nyg
nyhed
nyhet
nyheter
nyklass
nykoping
nykøbing
nyland
nylig
nyligen
nym
nymp
nynorsk
nyong
nyopp
nyskap
nyslott
nyslotts
nyt
nytt
nytta
nyttar
nytte
næ
nægtede
nær
nære
nærheden
nærheten
næring
nærings
næringsliv
nærleiken
nærliggende
nærme
nærmere
nærmest
nærmeste
nært
næst
næste
næsten
næstved
næv
nævnes
nævnt
nø
nød
nødt
nødv
nødvend
nødvendig
nødvendige
nødvendigt
nødvendigvis
nøg
nøj
nøkkel
nør
nørre
nøy
nøyaktig
nøyt
nøytral
oak
oar
oarna
oav
oavsett
oax
oaxaca
ob
obe
obefolkad
ober
oberoende
oberst
obje
objekt
objekter
objektet
objektiv
obl
oblast
oblastet
obli
oblig
obsc
obscura
obser
observ
observationer
observator
observatoriet
observatorium
observer
observert
obsjtina
oc
ocampo
occ
occident
occit
occitanien
oce
ocean
och
ock
ocksa
ockup
ockuper
oco
oct
od
odd
ode
odel
oden
odense
oder
odes
odin
odlas
odleart
odling
odont
oec
oen
oer
of
off
offens
offensiv
offensiven
offent
offentlig
offentliga
offentlige
offentliggjorde
offentliggjort
offentligt
offer
offic
office
officer
officerare
offici
officiell
officiella
officielle
officiellt
officielt
offiser
offiserer
offisi
offisiell
offisielle
offisielt
ofor
ofre
ofruktbar
oft
ofta
oftast
ofte
oftest
og
ogat
ogift
ogon
ogonen
ogruppen
ogsa
oh
ohio
ohl
oil
oj
ok
oka
okad
okade
okand
okanda
okande
okant
okar
okat
oken
okenklimat
okk
okkup
okkupasjon
okkupasjonen
okkuper
okkupert
okkuperte
oklah
oklahoma
oklart
oks
oksygen
okt
oktober
ol
ola
olaf
oland
olat
olav
olavs
old
olden
oldtid
oldtidens
ole
oleander
oleandervaxtart
oleandervaxter
olga
oli
olie
olig
olika
oliv
olive
oliver
olivier
olj
olja
olje
olle
olof
olsen
olsson
oluf
oly
olyck
olymp
olympia
olympic
olympisk
olympiska
olympiske
om
oman
omar
ombild
ombildades
ombord
ombud
ombygg
ombygget
ombyggnad
omd
omdann
omdannet
omdisk
omdiskuter
omdø
omdøpt
omedel
omedelbart
omf
omfang
omfatt
omfatta
omfattade
omfattande
omfattar
omfatte
omfattede
omfattende
omfatter
omfattet
omfattning
omg
omgang
omgangar
omgangen
omgitt
omgiv
omgivande
omgivelser
omgivet
omgivningarna
omgivningen
omgjort
omgrepet
omhand
omhandler
omk
omkom
omkring
omkringliggende
omlopp
omnamn
omnamns
omoj
omorgan
omrada
omrade
omraden
omradena
omradene
omrader
omradet
omradets
omring
oms
omset
omslag
omslaget
omsorg
omstand
omstrid
omstridt
omt
omtal
omtalas
omtale
omtaler
omtales
omtalt
omtalte
omtr
omtrent
omv
omvand
omvendt
on
onc
ond
onde
one
onkel
online
only
onlyinclude
ons
onsdag
onsk
ont
ontario
onth
onthophagus
op
opdag
opdagede
opdaget
opdelt
open
oper
opera
operaen
operaer
operan
operas
operasjon
operasjoner
operation
operationer
operativ
operativsystem
operatør
opererer
opf
opfatt
opfattelse
opford
opfyl
opført
opgave
opgaver
opgør
oph
ophi
ophold
ophørte
opin
opius
opk
opkaldt
oplev
oplysninger
opløsning
opløst
opmær
opmærksomhed
opna
opnaede
opnaet
opp
oppd
oppdag
oppdaga
oppdager
oppdaget
oppdater
oppdrag
oppe
oppen
oppet
oppf
oppfatt
oppfattet
oppford
oppfyl
oppført
oppgav
oppgave
oppgaver
oppgitt
oppgrad
opph
opphav
opphavet
opphavleg
opphavlege
opphe
opphold
opphørte
oppk
oppkalt
oppl
opplag
oppland
opplev
opplevde
opplysning
opplysninger
opplæring
oppløst
oppmer
oppmerksomhet
oppna
oppnad
oppnadd
oppnadde
oppnade
oppnades
oppnar
oppos
opposisjon
opposition
oppover
opprett
oppretta
opprette
opprettelsen
opprettet
opprinn
opprinnelig
opprinnelige
opprinnelse
opprør
opprøret
oppst
oppstar
oppsto
oppstod
oppt
opptak
opptatt
opptil
opptradte
opptre
opptred
opptreden
opptrer
oppvar
oppvekst
oppvokst
opret
oprett
oprettede
oprettelsen
oprettet
oprin
oprindelig
oprindelige
oprindeligt
oprindelse
oprør
opsjtina
opsta
opstar
opstod
opt
optag
optaget
optim
optradte
optræ
optræden
optræder
or
ora
oran
orange
oransje
orat
orb
orch
orchestra
ord
orden
ordene
ordenen
ordens
order
ordet
ordfor
ordforande
ordfør
ordførar
ordfører
ordin
ordinarie
ordinære
ordnet
ordning
ordningen
ordre
ore
orebro
oreg
oregon
org
organ
organer
organis
organisasjon
organisasjonen
organisasjoner
organisation
organisationen
organisationens
organisationer
organiserade
organisert
organiserte
organisk
organismer
organist
orgel
ori
orient
oriental
orientalis
orienter
orientering
orig
origin
original
originale
originalt
originaltitel
originaltittel
ork
orkester
orkide
orkideart
orkideer
orkn
orland
orle
orleans
orlog
orlov
orm
ormart
ormbun
ormst
orn
ornam
ornit
ornskold
oro
orol
oron
orsak
orsaka
orsakade
orsakar
orsaken
orsaker
ort
orten
orter
orth
ortod
ortodokse
ortodoxa
os
osak
osaka
osb
osc
oscar
oscars
ose
oskar
osl
oslo
oslof
osm
osman
osmann
osmanniske
osmanska
osmanske
oss
ost
osta
ostantarktis
ostazarbaijan
oste
osten
oster
osterbotten
ostergotland
ostergotlands
osterrik
osterrike
osterrikisk
osterrikiska
ostersjon
ostersund
osterut
ostra
osv
oswald
ot
oth
otill
otillrackligt
ott
ottawa
otte
otter
otto
ou
ouadi
oue
oued
ouest
oul
oum
our
out
outa
outaouais
ov
oval
ovan
ovanfor
ovanlig
ovanliga
ovanligt
ovansidan
ove
oven
ovenfor
over
overalt
overbe
overbevist
overd
overen
overens
overenskomm
overfl
overflade
overflate
overflaten
overfor
overfordes
overført
overg
overga
overgang
overgangen
overgangs
overgar
overgav
overgick
overgiv
overk
overl
overlag
overlamn
overle
overlev
overlevde
overleve
overlevende
overlever
overn
overnatur
overord
overordnede
overra
overrask
overraskende
overs
oversat
oversatt
oversattare
oversatte
oversattning
oversattningar
oversett
oversettelse
oversetter
oversiden
oversikt
oversk
overst
overste
overstel
overstelojtnant
oversv
oversvam
oversvøm
oversættelse
overt
overta
overtag
overtaget
overtal
overtatt
overtog
overtogs
overtok
overtyg
overv
overvag
overvak
overvejende
overvin
overvint
ovre
ovrig
ovriga
ovrigt
ow
owen
ox
oxen
oxford
oxy
oy
oz
ozero
p1
p3
pa
paa
pabeg
pabegynd
pabegynt
pablo
pabor
paborjade
paborjades
pac
pach
pachy
pacific
pack
pad
padd
pafag
pafagels
pafagelsspinnare
pafølgende
pag
pagaende
pagar
page
pagick
pah
pahar
pak
pakist
pakistan
pakt
pal
pala
palace
palasset
palats
palatset
pale
palest
palestina
palindi
pall
pallid
palm
palma
palme
palmer
palp
pals
palsen
palæst
pam
pamin
paminner
pamp
pampa
pan
panama
pand
pandanus
panel
pang
pann
panor
pans
pansar
pansarskoldloss
panser
pant
panzer
pap
pape
papeg
papir
papp
pappa
papper
papua
papyrus
par
para
parac
parad
paradis
paraf
parag
paragu
paraguay
paral
parall
paralla
parallax
parallell
parallellt
parallelt
paraly
paralymp
paralympiske
param
paran
parana
parap
paraply
parar
paras
parasit
parasitflugor
parat
parc
pard
pare
parentes
paret
pargas
paris
parish
park
parken
parker
parkering
parl
parlam
parlament
parlamentar
parlamentet
parlaments
parma
parmel
parod
parodi
parret
parsek
part
parten
parter
parti
partiene
partier
partierna
partiet
partiets
partik
partiklar
partikler
partil
partiled
partiledare
partip
partis
partner
party
parv
pas
pasc
pasient
pasienter
pasir
pask
paso
pass
passa
passage
passager
passagerare
passagerer
passar
passasjer
passasjerer
passe
passende
passer
passerar
passerer
passet
passion
past
pasta
pastar
pastod
pastor
pastorat
pastoratet
pat
paten
patent
pater
patient
patienten
patienter
patraff
patraffats
patri
patriark
patrick
patron
patrul
patt
pattedyr
pau
pauc
paul
pauli
paulo
paulus
paus
pause
pav
pave
pavel
paven
paverk
paverka
paverkade
paverkan
paverkar
paverkas
pavil
pavir
pavirke
pavirker
pavirket
pavirkning
pavist
pax
pay
pays
paz
pc
pe
peace
peak
pear
pearl
pec
peck
pect
ped
pedagog
peder
pedersen
pedro
peer
peg
pehr
pek
pekar
peking
pel
pell
pelle
pelopon
peloponnes
pels
pelt
pem
pen
pena
pend
peng
pengar
penge
pengene
penger
penic
penins
peninsula
penn
penning
penns
pennsyl
pennsylvania
pens
pension
pensioner
pensjon
pent
people
pep
peper
peperomia
peppar
pepparvaxtart
pepparvaxter
per
perc
percy
perd
pere
pereval
perez
perfekt
perfor
performan
performance
peric
perifer
periferie
perio
period
periode
perioden
perioder
periodisk
periodiskt
perkins
perm
perman
permanent
permanente
pern
perry
pers
perse
persia
persisk
persiska
persiske
person
personal
personar
personell
personen
personene
personer
personlig
personliga
personlige
personlighet
personligt
perspektiv
persson
perth
peru
pes
pest
pet
pete
peter
peters
petersburg
petersen
peterson
petit
petri
petro
petrole
petroleum
petrov
petrus
petter
pettersson
pf
pfalz
pga
ph
pha
phae
phal
phas
phil
philadelphia
philip
philipp
philippe
phillips
philos
phnum
phoen
phoenix
phor
phot
phou
phyll
phylla
phyllach
phyllachora
phyllanthus
phyllophaga
phys
phyt
phytose
phytoseiidae
pi
pia
pian
pianist
piano
piaui
pic
pich
pick
pico
pict
pictures
pie
pied
piedra
piel
piemonte
pier
pierre
piet
pieter
pietro
pig
pige
piger
pik
pike
pil
pile
pileg
pilg
pilgrim
pilot
piloter
pim
pin
pine
ping
pink
pinyin
pion
pioner
pionjar
pip
piper
pir
pira
pirat
pis
pist
pistol
pit
pite
pitea
pitt
pittsburg
pittsburgh
pius
pix
piz
pjas
pjasen
pjaser
pl
pla
plac
place
placer
placerad
placerade
placerades
placeras
placeret
placering
plade
plades
plads
pladsen
pladser
plag
plak
plan
planen
planene
planer
planerade
planerna
planet
planeten
planeter
planlagt
planlagte
plant
plante
planten
planter
plass
plassen
plasser
plassering
plassert
plasserte
plast
plat
plata
plate
platen
plater
platesel
plateselskap
plateselskapet
platina
platon
plats
platsen
platser
platt
plattform
plattmaskart
platy
platyp
play
playa
playoff
playst
playstation
ple
plect
pleur
pli
plikt
plock
plots
plotsligt
plum
plund
plur
plus
plut
plynd
po
poang
poc
pod
podgor
podgorica
poec
poecil
poem
poeng
poesi
poet
poeten
pog
poh
point
pointe
poj
pojk
pojkar
pok
pokal
pokemon
poker
pol
polar
pole
polen
polens
police
polis
polisen
polit
politi
politiet
politik
politikar
politiken
politiker
politikere
politikk
politikken
politim
politischer
politisk
politiska
politiske
politiskt
polk
pollen
polsk
polska
polske
poly
polyc
polyg
polyn
polyp
pom
pommern
pomp
pompe
pon
pond
pong
pont
ponta
ponte
pool
pop
popp
popul
popular
populara
popularitet
populart
population
populationen
populationer
populær
populære
populært
por
porn
pors
porsche
port
portal
porte
porten
porter
portezuelo
portland
porto
portratt
portrett
portræt
portrætter
portug
portugal
portugis
portugisisk
portugisiska
portugisiske
pos
posisjon
posisjonen
posit
position
positioner
positiv
positiva
positive
positivt
post
posten
poster
pot
potatis
potatisvaxtart
potatisvaxter
potens
potent
potok
potosi
potsdam
pott
potter
pou
poul
poulsen
pour
pov
pow
powell
power
poz
pr
pra
prad
pradesh
prag
praglas
praha
praksis
prakt
praktfjarilar
praktiken
praktisk
praktiska
praktiske
prast
praster
prastvig
prat
pre
precis
pred
predik
prefect
prefecture
prefekt
prefektur
prefekturen
preg
preget
prel
prem
premiar
premiaren
premiarminister
premier
premiere
premierminister
prepar
pres
present
presenter
presenterade
presenterades
presentert
president
presidenten
presidentvalet
presley
press
presse
pressen
presset
prest
preste
prestegjeld
presten
prester
prestige
pret
preuss
preussen
prev
pri
price
prim
primar
primær
primære
primært
prin
princ
prince
princip
principer
prins
prinsen
prinsessan
prinsesse
prinsipp
prinsippet
prior
priori
pris
prisen
priser
priset
prist
pristina
prisvin
priv
privat
privata
private
privatliv
privileg
privilegier
prix
pro
prob
problem
problemer
problemet
proc
procent
proces
process
processen
processer
prod
produ
produc
producent
producenten
producenter
producer
producera
producerad
producerade
producerades
producerar
produceras
producerat
producerede
produceret
product
productions
produksjon
produksjonen
produksjonskapasitet
produkt
produkter
produktet
produktion
produktionen
produktioner
produktiv
produs
produsent
produsenten
produsere
produserer
produsert
produserte
prof
profesjon
profesjonell
profesjonelle
profess
profession
professionel
professionell
professionella
professionelle
professor
profet
profeten
proff
profil
prog
program
programledare
programleder
programmer
programmet
programvare
progress
progressiv
proje
project
projekt
projekter
projektet
proklam
prom
promen
promover
pron
pronotum
prop
propag
propagand
propaganda
proport
pros
prosa
prosent
prosess
prosessen
prosjekt
prosjekter
prosjektet
prost
prosti
prot
prote
protein
proteiner
protektor
protest
protestant
protestantiske
protester
protok
protokoll
proton
prototyp
prout
prov
proven
provence
provfiske
provin
province
provincia
provincial
provins
provinsen
provinsene
provinser
provinshuvudstaden
provisor
provsti
pry
pryd
præ
præg
præget
præsident
præst
præste
prøv
prøvde
prøve
prøver
prøy
prøyss
prøyssiske
ps
psal
psalm
psam
pse
pseud
pseudo
pseudoc
pseudony
pseudonymen
psil
psy
psych
psychotria
psyk
psykedel
psykiat
psykisk
psyko
psykolog
psykologi
psykologisk
pt
pter
pterolophia
ptol
ptolema
ptolemaios
pty
pu
pub
publ
publi
public
publicer
publicerade
publicerades
publicerat
publik
publikationer
publiken
publikum
publisert
publiserte
puc
puck
puckel
puckelflugor
pud
pue
puebla
puerto
pug
pul
pula
pulau
pulch
pulver
pum
pump
pun
punct
pund
pung
punjab
punk
punkt
punkten
punkter
punktert
punktet
punt
punta
pup
pupp
puppglanssteklar
pur
purp
purple
purpur
pus
push
pushtah
put
py
pyc
pyeong
pyeongchang
pyg
pyong
pyongyang
pyr
pyra
pyram
pyramid
pyrene
pyth
pædagog
qa
qad
qal
qala
qar
qarah
qark
qas
qatar
qe
qim
qimmat
qing
qol
qolleh
qor
qornet
qu
quad
quart
quarter
que
queb
quebec
quebrada
queen
queens
queensland
quer
quin
quint
quis
quito
ra
rab
rabat
rac
race
racer
rach
rachel
racing
rack
rad
radar
radd
radda
radde
rader
radet
radgivare
radgiver
radhus
radhuset
radi
radie
radik
radikal
radikale
radikalt
radio
radiop
radios
radiost
radsomradet
raf
rafael
raff
rag
ragn
ragnar
ragnhild
rah
raid
rail
railway
rain
raj
rak
raka
raket
raknades
raknar
raknas
rakt
ral
rall
rally
ralph
ram
ramen
ramme
rammer
rammet
ramon
ramp
ramt
ran
rana
rancho
rand
randers
rang
range
ranger
rangers
rangert
rank
rant
ranun
ranunculus
ranunkel
ranunkelvaxtart
ranunkelvaxter
rap
rapides
rapids
rapp
rapport
rapporten
rapporter
rapporterade
ras
rase
raseborg
rasen
raser
rash
rask
raske
raskere
raskt
rasmus
rasmussen
rast
rat
ration
ratt
ratta
ratte
rattegang
ratten
rattigheter
ratts
rau
raud
rav
raven
ravin
ravn
raw
ray
raymond
rayon
rayonu
raz
rc
re
read
reager
reaksjon
reakt
reaktion
reaktioner
real
realiteten
reality
reb
rec
recens
recensioner
recept
record
records
red
reda
redaksjon
redakt
redaktion
redaktor
redaktør
redan
redd
redde
reddet
redeg
reder
rederiet
redig
redning
rednings
redovis
redskap
reduc
reducer
redus
redusere
redusert
reduserte
reed
reelle
ref
refer
referanse
referanser
referens
referenser
referere
refererer
referert
refle
reflekter
refor
reform
reformasjonen
reformationen
reformer
reg
regel
regelb
regelbundet
regement
regemente
regementet
regent
reger
regerande
regering
regeringen
regeringens
regerings
regeringstid
regg
regi
regierung
regierungsbe
regierungsbezirk
regim
regiment
regimet
region
regional
regionala
regionale
regionalt
regionen
regionens
regioner
regionhuvudstaden
regis
regiss
regisser
regisserad
regisserade
regisserades
regissert
regissor
regissoren
regissør
regist
register
registrer
registrerade
registrering
registrert
regjer
regjering
regjeringa
regjeringen
regjerings
regler
regn
regne
regner
regnes
regnet
regnigaste
regnskog
regnskogsklimat
regul
reguler
regulering
regulert
reh
rehabiliter
rehn
reich
reichenbach
reid
rein
reinhard
reinhold
reis
reise
reisen
reiser
reist
reiste
rej
rejse
rejser
rejst
rejste
rek
reka
rekke
rekkje
reklam
reklame
rekna
rekommen
rekommender
rekonst
rekonstru
rekord
rekorden
rekorder
rekordet
rekre
rekru
rekrutter
rekryter
rekt
rektang
rektor
rel
relater
relation
relationer
relativ
relativt
rele
relie
relig
religi
religion
religionen
religioner
religios
religiosa
religiøs
religiøse
rem
remix
ren
rena
renass
renault
rend
rene
reness
reng
renn
renner
renover
renovering
rens
rent
renæss
rep
repar
repert
report
reporter
repres
represent
representant
representanter
representation
representer
representera
representerad
representerade
representerar
representerat
representere
representerer
representert
representerte
reprod
reproducer
reproducerande
repræ
repræsent
repræsentant
repræsentanter
repræsenter
repræsenterede
repræsenterer
repræsenteret
republi
republik
republika
republikan
republikansk
republikanske
republiken
republikk
republikken
res
resa
resan
rese
research
reser
reserv
reservat
reservatet
reserve
reserver
reservo
reservoar
reservoir
residens
reson
resor
resp
respe
respekt
respekter
respektive
respons
ress
ressurser
rest
resta
restaur
restaurang
restauranger
restaurant
restauranter
restaurer
restaurering
restaurert
reste
resten
rester
resterande
resterende
restri
result
resultat
resultatene
resultater
resultatet
resulter
resulterade
resulterede
resulterte
resurser
ret
retning
retninger
retnings
retor
rets
rett
rette
retten
retter
rettet
rettigheder
rettigheter
rettss
retur
returner
returnerte
reuter
rev
rever
revet
revid
revir
revis
revol
revolusjon
revolusjonen
revolut
revolution
revolutionen
revs
revy
rex
rey
reykj
reykjavik
reyn
rh
rhamph
rhe
rhein
rheinland
rhin
rhinen
rhiz
rhod
rhodes
rhododendron
rhone
rhopal
rhy
rhynch
rhyt
ri
ria
riacho
rib
ribe
ribeira
ribeirao
ric
rica
rich
richard
richards
richardson
richmond
richter
rick
rico
rid
ridd
riddar
riddare
ridder
ride
ridge
ridley
rif
riff
rig
riga
rige
right
rigs
rigt
rij
rik
rika
rikard
rike
riket
rikets
riks
riksantik
riksdag
riksdagen
riksdagens
riksdags
riksdagsledamot
riksdagsman
riksdelen
riksrad
riksradet
riksvag
riksvei
rikt
riktade
riktig
riktiga
riktigt
riktning
rim
rin
rincon
ring
ringe
ringen
ringer
ringerike
ringmaskart
rinner
rio
riod
riodinidae
rip
ris
risiko
risk
risken
rist
rit
rita
ritade
ritades
ritningar
ritu
ritualer
riv
rival
river
riviere
riz
ro
road
rob
rober
robert
roberto
roberts
robertson
robin
robinson
robot
robust
roc
roch
roche
rock
rockeb
rockebandet
rocks
rocky
rod
roda
rode
rodlistan
rodrig
rodriguez
roer
rog
rogaland
roger
rogers
roh
rok
rol
roland
rolf
rolig
roll
rolle
rollen
roller
rollerna
rolling
rom
roma
roman
romanen
romaner
romania
romansk
romant
romantisk
romantiske
romeo
romer
romerne
romersk
romerska
romerske
rommet
roms
romsdal
ron
ronald
rond
ronne
ronneby
ront
roos
roosevelt
rop
ror
rora
rorande
rorde
rorelse
rorelsen
rorelser
ros
rosa
rose
rosen
rosenborg
rosenk
rosenkrantz
roskilde
ross
rost
rostade
roster
rosterna
rostock
rostratt
rosvaxtart
rosvaxter
rot
rotation
roten
roter
roth
rothschild
rott
rotter
rotterdam
rotund
rou
rouge
round
rov
rovdyr
rover
rovflugor
row
rox
roy
royal
rt
ru
rub
rubus
rud
rudolf
rudolph
rue
ruf
rug
rugby
ruin
ruiner
ruisseau
ruiz
rull
rulle
rum
rumanien
rummer
rummet
rumæn
run
rund
runda
rundan
runde
runden
runder
rundet
rundmaskart
rundt
rune
runt
rup
rur
rus
rush
rusland
russ
russell
russerne
russisk
russiske
russland
rust
rut
ruta
rute
rutelidae
ruten
ruter
ruth
rw
ry
ryan
ryd
ryg
rygg
ryggen
ryggrad
rykke
rykkede
rykket
rykte
rym
rymd
ryong
rysk
ryska
ryss
ryssarna
ryssland
rysslands
ryt
rytm
rytt
rytter
ryttere
ræ
række
rø
rød
rødder
røde
rødt
røk
røn
rør
røtter
røy
sa
saab
saar
sab
sabot
sac
sacc
sach
sachs
sachsen
sack
sad
sadan
sadana
sadanne
sadant
sadd
sade
sades
saf
sag
saga
sagan
sagas
sagde
sagen
sager
sagn
sags
sagt
saguenay
sah
sahara
sahl
said
saint
sainte
sak
sakaldt
sakaldte
sakalla
sakalt
sakalte
saken
saker
sakerhet
sakert
saknade
saknar
saknas
sakra
sakrist
saks
sal
sala
salam
salde
saldes
sale
saledes
salen
salg
salget
salja
saljs
sall
sallan
sallskap
sallskapet
sallsynt
sallsynta
salmeb
salomon
salt
salto
salv
salvador
salzburg
sam
saman
samanheng
samarbe
samarbeid
samarbeidet
samarbejd
samarbejde
samarbet
samarbetade
samarbete
samarbetet
samband
same
samf
samferd
samferdsel
samfund
samfundet
samfunn
samfunnet
samfunns
samhall
samhalle
samhallen
samhallet
samisk
samiska
samiske
samla
samlade
samlades
samlar
samle
samlede
samler
samles
samlet
samling
samlingar
samlingen
samlinger
samlings
samlingsalbum
samlingsut
samlingsutstallningar
samm
samma
samman
sammanfatt
sammanhang
sammanlagt
sammanslag
sammanslagning
sammant
samme
sammen
sammenhen
sammenheng
sammenhengende
sammenhenger
sammenhæn
sammenhæng
sammenlagt
sammenlig
sammenlignet
sammenligning
sammens
sammensla
sammenslut
sammest
sammesteds
samord
samp
samre
samst
samstundes
samsvar
samt
samtal
samtid
samtida
samtiden
samtidens
samtidig
samtidige
samtidigt
samtliga
samtlige
samuel
san
sanchez
sand
sanda
sandberg
sanddyn
sande
sandefjord
sander
sandes
sandnes
sands
sandsyn
sandsynligvis
sandvik
sandy
sang
sangare
sangaren
sange
sangen
sangene
sanger
sangeren
sangerska
sangerskan
sank
sanka
sankmarker
sankt
sann
sanna
sanne
sannol
sannolik
sannolikt
sannsyn
sannsynlig
sannsynligvis
sans
sanskrit
sant
santa
santander
santi
santiago
santo
santos
sao
sap
sapp
saq
sar
sara
sarab
sarah
sarajevo
sarbar
sarc
sarcophaga
sard
sarede
saret
sari
sark
sarp
sarpsborg
sars
sarskild
sarskilda
sarskilt
sart
sas
saskat
saskatchewan
sasom
sasong
sasongen
sasonger
sasongerna
sat
satak
satan
sate
satelli
satellit
satellitt
sater
sateri
satiri
sats
satsa
satt
satta
satte
satter
sattes
sattet
satts
satur
saturn
sau
saud
saudi
saudiarab
saur
sauss
saussure
saut
sav
saval
savann
savannklimat
savannskog
savel
savo
savolax
saw
sax
say
sc
scand
scandinav
scap
scar
scarab
scarabae
scarabaeoidea
scb
scel
scen
scene
scenen
scener
sch
scha
schack
schaus
sche
schen
schiz
schle
schlechter
schles
schlesien
schleswig
schloss
schmid
schmidt
schne
schneider
schon
school
schul
schult
schultz
schum
schumacher
schumann
schw
schwar
schwarz
schwe
schweiz
schweizisk
schweiziska
schwer
sci
scien
science
sciences
scient
scler
scol
scop
scopula
scor
score
scorede
scoret
scot
scotia
scott
scottish
scout
scut
sd
se
sea
sean
seat
seattle
seb
sebast
sebastian
sec
seccion
second
secret
secur
sed
sedan
seder
sedermera
sediment
see
seed
sees
sefid
seg
segel
seger
segern
segl
segrar
seh
seier
seieren
seil
seilte
sein
seinare
seine
seinere
seint
seire
sej
sejl
sejlede
sejr
sejre
sek
sekel
sekelskiftet
sekret
sekreterare
sekretær
seks
seksjon
seksuelle
sektion
sektor
sekund
sekundar
sekunder
sekundær
sekvens
sel
selatan
seld
selde
sele
selen
selge
selskab
selskabet
selskap
selskaper
selskapet
selskapets
selv
selve
selvmord
selvom
selvst
selvstend
selvstendig
selvstendighet
selvstyre
selvstænd
selvstændig
sem
semi
semif
semifin
semifinal
semifinale
semifinalen
semifinaler
semin
semiothisa
sen
sena
senare
senast
senaste
senat
senaten
senatet
senator
send
sende
sender
sendes
sendt
sendte
sene
senegal
senere
senest
seneste
seng
seni
senior
sens
sent
senter
senteret
senterpartiet
sentr
sentral
sentrale
sentralt
sentrum
seoul
sep
separ
separat
separata
separate
sept
septem
september
ser
serb
serbia
serbien
serbisk
serbiska
serbiske
seremoni
serg
serge
sergej
seri
serie
seriem
serien
seriens
serier
serierna
series
seriet
serp
serra
sert
serv
server
servic
service
ses
sesong
sesongen
sesonger
sess
set
sete
seter
sett
sette
setter
settes
sev
seven
sever
sevilla
sex
sexton
sexuella
sf
sg
sh
sha
shack
shad
shah
shak
shakes
shakespe
shakespeare
shakespeares
shakh
sham
shan
shand
shandong
shang
shanghai
shar
sharp
shaw
shay
she
sheffield
shek
shel
shelah
shen
shep
sher
shet
shi
shim
shin
ship
shir
sho
short
show
showet
shu
shuiku
shur
si
siah
sib
sibir
sibiri
sibirien
sic
sich
sichuan
sicilia
sicilien
sid
sida
sidan
sidder
side
sideel
sideelv
siden
sidene
sider
sidi
sidney
sidor
sidorna
sidst
sidste
sidstnævnte
sie
sieg
siem
sier
sierra
sies
sif
siff
siffror
sig
sige
siger
siges
sigism
sigismund
sign
signal
signaler
signatur
signe
signer
signert
signerte
sigrid
sigt
sigurd
sik
sikker
sikkerhed
sikkerhet
sikkert
sikre
sikrede
sikret
sikt
sikte
sil
silke
silkeborg
sill
silv
silva
silver
silvermedal
silvermedaljor
silvest
sim
similis
simon
simp
simple
simplex
simpson
simpsons
simulium
sin
sina
sind
sine
sing
singap
singapore
singel
singelen
singelli
singeln
singer
singh
singlar
single
singlen
singler
singles
sinn
sint
sio
sion
sip
sir
sirk
sirkel
sis
sist
sista
siste
sister
sistnamnda
sistnevnte
sit
sitt
sittande
sittende
sitter
situ
situasjon
situasjonen
situation
situationen
situationer
siv
sivil
sivile
sivilis
six
siyah
sj
sja
sjakk
sjal
sjalv
sjalva
sjalvmord
sjalvstand
sjalvstandig
sjalvstandiga
sjalvstandighet
sjalvstandigt
sjangeren
sjatte
sjef
sjeld
sjelden
sjeldne
sjette
sjetteplass
sjo
sjoar
sjoarna
sjof
sjog
sjok
sjom
sjon
sjong
sjonk
sjons
sjoprocent
sjopung
sjopungsart
sjos
sjost
sju
sjuk
sjukdom
sjukdomar
sjukdomen
sjukhus
sjukhuset
sjukvard
sjun
sjunde
sjung
sjunga
sjunger
sjæl
sjæld
sjældent
sjælland
sjø
sjøen
sjøl
sjølv
sjølve
sjølvst
sjøm
sk
ska
skab
skabe
skaber
skabt
skabte
skad
skada
skadade
skadades
skade
skader
skadespel
skadespelare
skadespelaren
skadespeler
skadespelerska
skadet
skador
skaff
skaffa
skaffe
skaffet
skak
skal
skala
skalbag
skalbagg
skalbaggar
skalbaggsart
skald
skall
skam
skan
skand
skandinav
skandinavia
skandinavien
skandinavisk
skandinaviska
skandinaviske
skane
skansen
skanska
skap
skapa
skapad
skapade
skapades
skapar
skapas
skapat
skape
skaper
skapt
skapte
skar
skara
skarab
skarabider
skaraborgs
skaret
skargard
skargardshavet
skarp
skarpe
skarpt
skat
skatt
skatte
skatten
skatter
ske
skedde
skel
skelle
skelleftea
sken
skenbar
skepp
skeppet
skept
sker
sket
skete
skett
ski
skib
skibe
skibet
skick
skicka
skickade
skickades
skid
skien
skift
skifte
skiftede
skifter
skiftet
skihopp
skik
skikk
skikkelse
skil
skild
skilda
skilde
skildra
skildrar
skildrer
skildring
skilja
skiljer
skill
skille
skiller
skillnad
skillnaden
skillnader
skilsm
skilt
skilte
skin
skinn
skinner
skip
skipa
skipene
skipet
skips
skis
skisk
skiskyting
skiv
skiva
skivan
skivbolag
skivbolaget
skive
skivor
skj
skje
skjeb
skjedd
skjedde
skjel
skjell
skjer
skjold
skjult
skjut
skjuta
skjær
skjø
skjønn
skjønt
skjøt
sko
skod
skodespel
skog
skogar
skogen
skogs
skol
skola
skolan
skolans
skold
skoldlussteklar
skole
skoleb
skolek
skolen
skolens
skoler
skolor
skom
skon
skop
skopje
skor
skot
skotland
skots
skotsk
skotska
skotske
skott
skottland
skov
skovde
skoven
skr
skra
skrack
skram
skran
skre
skreiv
skrev
skrevet
skrevs
skri
skribent
skrid
skrift
skriften
skrifter
skriftlige
skriv
skriva
skrive
skriven
skriver
skrives
skrivet
skrivit
skrivna
skrivs
skrog
skroget
skru
sku
skud
skudd
skuespil
skuespill
skuespiller
skuespillere
skuespilleren
skuff
skug
skul
skuld
skulder
skule
skulen
skull
skulle
skulpt
skulptor
skulptur
skulpturen
skulpturer
skum
skur
skutt
skvad
skvadron
sky
skyd
skydd
skydda
skyl
skyld
skyldes
skyldig
skyldtes
skylt
skym
skyt
skyte
skytt
skytter
skær
skøn
skønt
skøy
skøytel
skøyter
sl
sla
slaet
slag
slaget
slags
slakt
slakte
slakten
slaktet
slaktingar
slalam
slam
slang
slank
slanke
slap
slapp
slappa
slappt
slappte
slapptes
slar
slas
slass
slatt
slav
slavar
slave
slaver
sle
slekt
slekta
slekten
slekter
slem
slesvig
slet
slett
slette
sli
slide
slik
slike
slikt
slim
slip
slipp
slippe
slit
slo
slog
slogs
slot
slots
slott
slottet
slov
slovak
slovakia
sloven
slovenia
slovenien
sluppet
slut
sluta
slutade
slutar
slutet
slutligen
slutningen
slutspel
slutspelet
slutt
slutta
sluttar
slutte
sluttede
slutten
slutter
sluttet
sluttspillet
slæg
slægt
slægten
sm
sma
smab
smag
smaharkrankar
smak
smakackerlackor
smal
smala
smaland
smale
small
smalt
sman
smaningom
smaort
smar
smart
smast
smed
smek
smelte
smer
smerte
smhi
smil
smith
smitt
smor
smug
smy
smør
sn
sna
snabb
snabba
snabbare
snabbt
snack
snackart
snackor
snak
snakke
snakker
snakket
snar
snarare
snarere
snart
sne
sned
snick
snitt
sno
snor
snorre
snow
snur
snyl
snyltro
snyltrots
snyltrotsvaxter
snø
so
sob
soc
soci
social
sociala
socialdemokrat
socialdemokraterna
socialdemokratiska
sociale
socialist
socialistisk
socialistiska
socialt
societ
society
sock
socken
sockenhuvudort
sockenkyrkan
socker
socknar
socknen
socknens
sod
soder
soderberg
sodermalm
sodermanland
sodermanlands
sodertalje
soderut
sodra
sof
sofia
sofie
sofla
soft
software
sog
sogn
sogne
sogneprest
sognet
sok
soka
soker
sokn
sokte
sol
sola
solanum
solberg
sold
soldat
soldatene
soldater
soldaterna
solen
solens
solgt
solgte
solid
solidar
solist
soll
solle
solleftea
solna
solo
soloalbum
soloartist
solokar
solsystemet
som
somal
somalia
somers
somerset
sommar
sommaren
sommarspelen
sommart
somme
sommer
sommeren
sommerfug
sommerfugl
sommerfugler
son
sond
sonder
sone
sonen
soner
song
songane
songar
songen
songs
sonja
sonson
sony
sop
soph
sophia
sophie
sopp
sopran
sor
sord
sordari
soren
sorg
sorgmyggor
sork
sorkh
sort
sorte
sorter
sorts
sorø
sos
sosi
sosial
sosialdemokrat
sosiale
sosialistisk
sot
sotsji
sou
soul
sound
soundtra
sour
sous
souss
south
souther
southern
sov
sovj
sovjet
sovjetisk
sovjetiska
sovjetiske
sovjetun
sovjetunionen
sovjetunionens
sp
spa
space
spad
span
spania
spanien
spaniens
spann
spansk
spanska
spanske
spar
spare
spark
sparken
sparre
sparris
sparrisvaxtart
sparrisvaxter
spart
sparta
sparvag
spat
spd
spe
spec
speci
special
speciell
speciella
speciellt
specielt
specif
specifik
specifika
specifikt
spect
speed
speg
spek
spekt
spektak
spektral
spektralklass
spektrum
spel
spela
spelade
spelades
spelar
spelare
spelaren
spelarna
spelas
spelat
spelats
spele
spelen
spelet
spelets
spellemann
spellemannprisen
spelt
spelte
spen
spencer
spenning
sper
sperm
spes
spesi
spesial
spesialiserer
spesialiserte
spesiell
spesielle
spesielt
spesif
spesifik
spet
spets
spetsen
sph
sphaer
spi
spid
spidsen
spil
spill
spille
spillede
spillefilm
spiller
spillere
spilleren
spillerne
spilles
spillet
spilt
spilte
spin
spindel
spindelart
spindeldjursart
spindlar
spinn
spion
spir
spirit
spiro
spis
spise
spiser
spiss
spissen
spits
spjut
spli
split
splitt
spok
spons
sponsor
spont
spor
sporet
sporr
sporsack
sporsacksvampar
sport
sporten
sporter
sports
sportsutøver
sportsutøvere
spott
spottstritar
spr
spra
sprak
spraken
spraket
sprang
spre
spred
spreds
spredt
spredte
spreng
sprid
sprida
spridning
sprin
spring
springer
springfield
springs
sprint
sprinten
sprit
sprog
spur
spy
spyd
spænd
spør
spørg
spørgsmal
spørsmal
spørsmalet
squ
square
sr
sri
srp
srpska
ss
ssr
st
sta
stab
stabil
stabilitet
stabilt
stack
stad
staden
stadens
stader
staderna
stadig
stadion
stadionet
stadium
stads
stadsb
stadsdel
stadsdelen
stadsegron
stadsfull
stadsfullmaktige
stadsplan
stadsteater
staende
staf
stafett
stafetten
staff
staffan
stal
stalin
stall
stalla
stallde
stalldes
stalle
stallen
staller
stallet
stallning
stam
stammar
stamme
stammen
stammer
stamp
stan
stand
standard
standarden
standarder
standigt
standley
standpunkt
stang
stangdes
stanley
stann
stanna
stannade
stannar
stap
stapp
stappklimat
star
stark
starka
starkare
starkt
starr
stars
start
starta
startade
startades
startar
starte
startede
starten
starter
startet
stasjon
stasjonen
stat
state
staten
statens
stater
staterna
states
station
stationen
stationer
statist
statistik
statistikk
statistisk
statlig
statliga
statlige
statligt
stats
statsb
statsbor
statsborger
statsk
statsminister
statsministeren
statsover
statsrad
statt
statue
status
staty
stau
staud
staudinger
stav
stavanger
ste
sted
stede
steder
stedet
stednavne
steel
steen
stef
stefan
steg
steget
steiermark
stein
steiner
steinkjer
stekel
stekelart
steklar
stelis
stell
stem
stemme
stemmene
stemmer
stemmerett
stemte
sten
stenaldern
stenar
stenbock
stenen
steng
stengt
stens
steph
stephan
stephen
ster
stere
sterk
sterke
sterkere
sterkt
stern
stev
steve
steven
stevens
stewart
sti
stich
stick
stickmyggor
stict
stift
stifta
stiftelse
stiftelsen
stifter
stiftet
stig
stigende
stiger
stigning
stik
stikk
stil
stilen
still
stilla
stille
stillede
stillehav
stillehavet
stiller
stilling
stillingen
stillinger
stilt
stilte
stim
stimuler
stip
stipend
stipendium
stir
stiv
stj
stjal
stjarn
stjarna
stjarnan
stjarnans
stjarnbilden
stjarnor
stjart
stjer
stjerne
stjernen
stjerner
stjør
sto
stock
stockholm
stockholms
stod
stodde
stodja
stof
stoff
stoffer
stoffet
stok
stol
stolt
stone
stones
stop
stopp
stoppa
stoppe
stoppede
stopper
stoppet
stor
stora
storb
storbritann
storbritannia
storbritannien
storbritanniens
storby
stord
store
storeb
stores
storfyr
storharkrankar
storhert
storhet
storhetstid
storlek
storm
stormen
storre
storsl
storslalam
storst
storsta
storstad
storstadsomrade
storstadsomradet
stort
storting
stortinget
stortingets
stortings
stortingsrepresentant
story
str
stra
stracka
strackan
stracker
strackning
straff
straffe
straks
strakte
stral
straling
stram
strand
stranden
strandlinjen
strang
strangnas
strasbourg
strat
strateg
strategi
strategisk
strategiske
straum
strauss
strav
stravbladig
stravbladiga
strax
stre
streck
stred
street
strekk
strekker
strekkjer
strekning
strekningen
stren
streng
strenge
strengt
stress
stri
strid
striden
strider
striderna
strids
stridsv
stridsvag
strig
strim
strind
strindberg
stro
strom
strong
stru
strukt
struktur
strukturen
strukturer
stry
stræ
strækker
strø
strøk
strøm
strømmen
stu
stuart
stub
stud
student
studente
studenter
studentexamen
studer
studera
studerad
studerade
studerat
studere
studerede
studerende
studert
studerte
studi
studie
studiealbum
studien
studiene
studier
studieresor
studierna
studies
studiet
studio
studioalbum
studioalbumet
studios
stum
stumfilm
stump
stumpbaggar
stund
stundom
stup
stur
sture
stutt
stuttgart
sty
stycken
stykke
stykker
stykket
styl
stylt
styltflugor
styr
styra
styre
styreleder
styrels
styrelse
styrelseledamot
styrelsen
styrelseordforande
styremedlem
styrer
styres
styret
styring
styrk
styrka
styrke
styrken
styrkene
styrker
styrket
styrkor
styrkorna
styrmand
styrt
styrte
styv
stær
stærk
stærke
stærkt
stø
stød
stør
størr
større
størrelse
størrelsen
størst
største
størsted
størstedelen
støtt
støtte
støttede
støtter
støttet
støv
støy
su
sub
substan
substant
substantiv
subt
subtro
subtrop
subtropiskt
suc
succe
succes
success
successivt
sucre
sud
sudan
sudbury
sue
suf
suff
sug
sugar
suk
sukker
suks
suksess
suksessen
sul
sula
sulawesi
sulli
sullivan
sult
sultan
sum
sumatera
summa
summer
sump
sumpmark
sun
sund
sundby
sunde
sundet
sundhed
sundsvall
sundsvalls
sung
sunget
sunn
sunnmøre
sup
super
superettan
supp
supple
suppleant
suppler
support
supporter
sur
surf
surre
survey
sus
susan
sussex
sut
sutt
suv
suva
suver
suz
sv
sva
svag
svagt
svak
svake
sval
svalbard
svamp
svampar
svampart
svampdjursart
svampmyggor
svan
svang
svans
svansen
svar
svara
svarade
svarar
svard
svarer
svarigheter
svarmare
svart
svarta
svarte
svav
svavflugor
sve
svea
sved
svein
sveits
sveitsisk
sveitsiske
svek
sven
svend
svendborg
svensk
svenska
svenskar
svenskarna
svenske
svenskene
svenskt
svensson
sver
sverd
sverig
sverige
sveriges
sverre
svid
svidknott
sviger
svin
sving
svov
svt
svæ
svær
svært
svøm
svømme
svømmer
svømming
sw
swan
swart
swe
swed
sweden
swedish
sweet
swin
swing
sy
syd
sydafrik
sydafrika
sydamerika
sydkorea
sydlig
sydlige
sydney
sydost
sydostra
syds
sydvast
sydvastra
sydvest
sydvestlige
sydøst
sydøstlige
syft
syfta
syftar
syfte
syftet
syg
sygdom
syge
syk
sykdom
sykdommen
sykdommer
syke
sykehus
sykehuset
sykkel
sykl
syl
sylind
sym
symbol
symboler
symfon
symfoni
symfoniorkester
symmet
symp
symph
sympt
symptom
symptomer
syn
synd
syndrom
syne
syner
synes
synet
syng
synge
synger
synkron
synlig
synlige
synner
synnerhet
synonym
syns
synsp
synt
syntes
syntet
syr
syre
syri
syria
syrien
syriske
syrsor
syskon
syss
syssels
syst
system
systemat
systematik
systematikken
systematisk
systemer
systemet
systems
syster
syv
syvende
syz
syzygium
sz
sæ
sæd
sædvan
sæl
sæn
sær
særdeles
sære
særleg
særlig
særlige
særligt
særs
særskilt
sæson
sæsonen
sæsoner
sæt
sætte
sætter
sø
søen
søer
søge
søgte
søk
søke
søkte
søl
sølv
sølvmedalje
søm
søn
søndag
sønder
sønderborg
sønderj
sønderjylland
søndre
sønn
sønnen
sønner
sør
søra
søraf
søraust
søren
sørensen
sørge
sørget
sørlege
sørlige
sørover
sørsida
sørvest
sørøst
sørøstlige
søsken
søster
søstre
søvn
søy
ta
tab
tabanus
tabell
tabellen
tabt
tabte
tac
tach
tack
tacker
tackt
tackvavarspindlar
tad
tafil
tafilalet
tag
tage
tagen
tager
taget
tagg
tagit
tagits
tah
tai
taip
taiwan
taj
tak
take
taket
takht
takket
takson
taksonom
takt
tal
tala
talade
talang
talar
talas
talbot
tale
talen
talent
taler
tales
talet
talets
tall
tallet
tallets
tallinn
tallrike
talman
talrige
tals
talt
talte
tam
taman
tamil
tamligen
tammer
tammerfors
tan
tana
tand
tander
tandspinnare
tang
tanger
tanjung
tank
tankar
tanke
tanken
tanker
tankt
tann
tant
tanz
tanzania
taoun
taounate
tap
tapet
tapp
tappeh
tapt
tapte
tar
tara
tari
tarm
tarn
tarnet
tart
tas
tasman
tasmanien
tat
tata
tatbebygg
tatbebyggt
tatbefolkad
tatbefolkat
tatort
tatorten
tatorter
tatt
tattingar
tau
taung
tav
tavast
tavastland
tavla
tavlade
tavlande
tavlar
tavling
tavlingar
tavlingarna
tavlingen
taw
tax
taxonom
tay
taylor
taza
tbil
tbilisi
tch
te
team
teamet
teat
teater
teateret
teatern
teaters
teatret
tech
techn
technology
teck
tecken
tecknade
tecknare
teckningar
ted
teen
teg
tegel
tegl
tegn
tegne
tegner
tegnes
tegneserie
tegnet
tegning
tegninger
tegucigalpa
teheran
teik
tek
teke
teken
tekn
tekne
teknik
tekniken
tekniker
teknikk
teknikken
teknikker
teknisk
tekniska
tekniske
teknologi
tekst
teksten
tekstene
tekster
tekstil
tel
tele
telef
telefon
teleg
telegra
telegraf
telek
telemark
telen
teleskop
television
tell
teller
teluk
tem
tema
temaer
temaet
teman
temat
temisc
temiscaming
temiscamingue
temmelig
temp
tempel
tempelet
temper
temperatur
temperaturen
temperaturer
tempererat
templet
tempo
ten
tend
tendens
tender
tene
teng
tengah
tenggara
teniet
tenkt
tenn
tenner
tennes
tennessee
tennis
tennisspiller
tenor
tens
tensift
tent
tenu
teodor
teolog
teologi
teologie
teologisk
teologiske
teor
teoret
teoretisk
teori
teorien
teorier
teorin
tep
teph
ter
tere
terje
term
termen
termer
termin
terminal
terr
terra
terrang
terrangen
terras
terreng
territ
territor
territori
territorier
territories
territoriet
territoriets
territorium
territory
terror
terry
tes
tess
test
testa
testam
testamente
testamentet
tester
testet
tet
tetouan
tetra
tetrag
tett
tette
tettstad
tettstaden
tettsted
tettstedet
tev
tex
texas
text
texten
texter
textil
th
tha
thailand
thal
tham
than
that
the
theater
theatre
thecla
thel
thelypter
them
theod
theodor
theodore
ther
there
theres
therese
thess
thi
this
thom
thomas
thompson
thomsen
thomson
thor
thorn
thorvald
thra
three
thriller
thun
thunder
thur
thuringen
thy
ti
tian
tiar
tiaret
tib
tiber
tibet
tic
tid
tida
tide
tiden
tidende
tidene
tidens
tider
tiderna
tidig
tidiga
tidigare
tidigaste
tidigt
tidleg
tidlegare
tidlege
tidlig
tidlige
tidligere
tidligste
tidligt
tidning
tidningar
tidningen
tidnings
tidpunkt
tidpunkten
tids
tidskrift
tidskriften
tidskrifter
tidspunkt
tidspunktet
tidsskrift
tidsskrifter
tidsskriftet
tidvis
tiende
tier
tig
tiger
tik
til
tilb
tilbag
tilbage
tilbak
tilbake
tilbaket
tilbragte
tilbrakte
tilbud
tilbudt
tilby
tilbyr
tilbød
tildeles
tildelt
tilf
tilfeldig
tilfelle
tilfeller
tilfellet
tilfred
tilfredsst
tilfæld
tilfælde
tilføj
tilg
tilgang
tilgjen
tilgjengelig
tilgæn
tilh
tilhen
tilhengere
tilhør
tilhørende
tilhører
tilhørte
tilkn
tilknytning
tilknyttet
till
tilladelse
tillag
tillagg
tillamp
tillat
tillatelse
tillater
tillats
tillatt
tillb
tillbak
tillbaka
tillbring
tillbringade
tilldel
tilldelades
tillegg
tillfal
tillfalle
tillfallen
tillfallet
tillfalligt
tillfang
tillfangat
tillforord
tillforordnad
tillgang
tillganglig
tillgangliga
tillhor
tillhorande
tillhorde
tillhorighet
tillhorigheten
tillhort
tillige
tillika
tillkann
tillkannag
tillkom
tillrackligt
tills
tillsam
tillsammans
tillstand
tillt
tilltal
tilltradde
tillvaxt
tillverk
tillverka
tillverkad
tillverkade
tillverkades
tillverkar
tillverkare
tillverkas
tillverkning
tillverkningen
tillæg
tiln
tilnavnet
tilnær
tilpas
tilpasset
tilrett
tils
tilsammen
tilsett
tilsk
tilskuere
tilslutt
tilst
tilstand
tilstanden
tilstede
tilstre
tilstrekkelig
tilstræ
tilsvar
tilsvarende
tilsvarer
tilsyn
tilsynel
tilsyneladende
tilsynelat
tilsynelatende
tilt
tiltak
tiltradte
tiltræ
tim
time
timer
times
timmar
timmer
timur
tin
tina
ting
tings
tingslag
tingsratt
tinn
tint
tio
tionde
tip
tipp
tippelig
tipula
tir
tirana
tis
tit
titan
titel
titeln
titlar
titlen
titler
titt
tittel
tittelen
tiv
tivoli
tiz
tizi
tj
tjan
tjanst
tjanste
tjansteman
tjansten
tjanster
tjanstgjorde
tje
tjeck
tjeckien
tjeckoslovak
tjeckoslovakien
tjekk
tjen
tjene
tjener
tjeneste
tjenestegjorde
tjenesten
tjenester
tjente
tjer
tjock
tjue
tjug
tjugo
tl
to
toal
tob
tobak
tobias
toc
tod
todd
tofs
tofsspinnare
tog
toget
togs
tok
tokyo
tol
told
toledo
toler
tolk
tolkning
toll
tolv
tom
tomas
tomm
tommy
tomt
tomten
ton
tone
toner
tong
tonn
tons
tonsatt
tonsattare
tony
top
topograf
topp
toppar
toppen
topps
tor
tord
torde
torden
tore
torel
torelvaxtart
torelvaxter
torg
torget
torino
tork
torn
torne
tornet
toro
toronto
torp
torped
torr
torra
torraste
torre
torres
torsdag
torshavn
torsten
tort
tortur
torv
tos
tosc
toscana
tot
total
totala
totale
totalt
totten
tottenham
tou
touch
toulo
toulouse
tour
touren
tov
tow
tower
town
towns
townsend
tox
toy
tr
tra
trach
trad
tradde
trade
tradgard
tradgarden
tradisjon
tradisjonell
tradisjonelle
tradisjonelt
tradisjonen
tradisjoner
tradition
traditionell
traditionella
traditionelle
traditionellt
traditionelt
traditionen
traditioner
tradte
traf
traff
traffade
traffar
trafik
trafiken
trafiker
trafikeras
trafikk
trafikken
trag
traged
tragspinnare
trak
trakk
trakt
traktat
traktaten
trakten
traktor
tramp
tran
tranare
trang
traning
trans
transf
transform
transm
transport
transporter
trap
trapp
trask
trass
trav
tre
trea
trebu
trebukker
tred
tredj
tredje
tredjedel
tredjep
tredjeplass
tree
treet
trek
trekant
trekk
trekke
trekker
trel
trelle
trem
tren
trener
treng
trenger
trengte
trening
trent
trente
tres
tresteg
trett
tretten
trettio
tretton
trev
tri
triang
trib
tribun
tric
trich
trig
trigon
trik
tril
trilog
trim
trin
trinidad
trinn
trio
trip
tripoli
trist
trit
trium
triumf
triv
tro
trodde
trods
troende
trog
troja
trol
trolig
troligen
troligt
troligtvis
troll
trollslandeart
trom
tromm
trommer
trommes
trommeslager
trompet
troms
tromsø
tron
trond
trondheim
trondhjem
trondhjems
tronen
trop
tropisk
tropiska
tropiske
tropiskt
tropp
troppen
tropper
tror
tros
tross
trot
trots
trott
tru
true
truet
trukket
truleg
trum
truman
trummor
trump
trunc
trup
trupp
truppen
trupper
trupperna
trus
trussel
try
tryck
trycker
trycktes
tryg
trygg
tryk
trykk
trykket
trykt
træ
træer
træk
trække
træn
træner
trær
trøn
trøndelag
ts
tsa
tsar
tsj
tsjekk
tsjekkia
tsjekkisk
tsjekkoslovak
tsjekkoslovakia
tsun
tu
tub
tuber
tuberc
tuberkul
tubu
tuc
tud
tul
tull
tum
tun
tund
tung
tunga
tunge
tungt
tunis
tunn
tunnel
tunnelban
tunnelen
tup
tur
turbin
turbiner
ture
turen
turin
turisme
turist
turistatt
turister
turk
turkiet
turkiska
turkmen
turn
turne
turneen
turnen
turner
turnerade
turnering
turneringen
turneringer
turnerte
tus
tusen
tusentals
tut
tv
tv2
tv3
tv4
tva
tvaa
tvahjartbladig
tvang
tvar
tvatt
tvav
tvavingar
tvavinge
tvavingeart
tver
tverr
tvers
tvil
tvilling
tving
tvingade
tvingades
tvingas
tviv
tvivl
tvung
tvungen
tvunget
tvær
tw
twin
two
ty
tycker
tycks
tyckte
tyd
tydelig
tydelige
tyder
tydlig
tydliga
tydligt
tyg
tykk
tykke
tyler
tyn
tyng
tyngd
tyngde
tyngre
tynne
typ
type
typen
typer
typh
typisk
typiska
typiske
typiskt
tyr
tyran
tyrann
tyrk
tyrkia
tyrkiet
tyrkisk
tyrkiske
tyrolen
tysk
tyska
tyskarna
tyske
tyskere
tyskerne
tyskland
tysklands
tyskt
tyst
tyve
tz
tæn
tæt
tø
tøj
tømmer
tøn
tønder
tøns
tønsberg
tør
tørr
tørre
u21
u23
uaf
uafhæng
uafhængighed
uans
uansett
uav
uavgjort
uavheng
uavhengig
uavhengige
uavhengighet
ub
ubat
ube
uber
ubet
uci
ud
udbred
udbredelse
udbredt
uddann
uddannelse
uddannelses
uddannet
udde
uddevalla
ude
udel
udelukkende
uden
udenfor
udenlandske
udenrig
udford
udført
udførte
udgang
udgangspunkt
udgav
udgave
udgaver
udgiv
udgivelse
udgivelsen
udgivet
udgjorde
udgør
udkom
udlandet
udm
udn
udnæ
udnævn
udnævnt
udnævntes
udover
udpeg
udpeget
udsat
udseende
udsen
udsendt
udsigt
udstilling
udstyr
udstyret
udtal
udtalte
udtry
udtryk
udtrykket
udvalg
udvid
udvidet
udvik
udvikle
udviklede
udviklet
udvikling
udviklingen
uef
uefa
uen
ufc
ufor
ug
uganda
uge
uger
ugg
uh
uk
uke
uken
ukendt
uker
ukjent
uklart
ukra
ukraina
ukrainsk
ukrainska
ukrainske
ul
ula
ule
ulf
ulik
ulike
ull
ulla
ulov
ulovlig
ulrich
ulrik
ulrika
ulster
ult
ultim
ultimate
ultra
ulv
uly
ulykke
ulykken
um
umb
umea
umiddel
umiddelbart
umm
umu
umulig
un
und
undan
undant
undantag
under
underart
underarten
underarter
underfamilien
undergr
undergrunns
underhall
underhold
underholdning
underhuset
underjord
underjordisk
underk
underlag
underlagt
underord
underratt
unders
undersida
undersidan
undersiden
undersok
undersoka
undersokning
undersokningar
underst
understod
understre
understø
undersø
undersøgelse
undersøgelser
undersøkelse
undersøkelser
underteck
undertegnet
undertry
undertrykk
undervejs
undervis
undervisade
undervisning
undervisningen
undervisnings
underviste
undga
undtagelse
undvika
unes
unesco
unescos
ung
unga
ungar
ungarn
ungarna
ungarsk
ungarske
ungdom
ungdomar
ungdoms
ungdomsskole
unge
ungefar
unger
ungern
ungersk
ungerska
unifor
uniform
unik
unika
unikt
union
unionen
unionens
unions
united
univers
universal
universet
universitat
universitet
universiteter
universitetet
universitetets
universitets
university
universum
unix
unn
unna
unnga
unns
unntak
unntatt
uno
unter
uoff
up
upon
upp
uppat
uppdater
uppdel
uppdelad
uppdrag
uppdraget
uppe
uppehall
uppenbar
upper
uppf
uppfatt
uppfattning
uppfin
uppfoljare
uppfor
uppfora
uppford
uppfordes
uppfost
uppgar
uppgick
uppgift
uppgifter
upphav
upphoj
upphorde
upphov
uppkall
uppkallad
upplag
upplaga
upplagan
upplagor
uppland
upplands
upplev
upplos
upplost
upplostes
uppman
uppmarksam
uppmarksamhet
uppmarksamm
uppmarksammad
uppmarksammade
uppmarksammades
uppmunt
uppna
uppratt
upprep
upprepade
uppror
upproret
upps
uppsala
uppsattning
uppskatt
uppskattas
uppstar
uppstod
uppstroms
uppt
uppta
upptac
upptacker
upptackt
upptackte
upptacktes
upptackts
upptrad
upptradde
upptrader
uppvaxt
uppvisar
uppvuxen
ur
ural
uran
urban
urbane
uregel
uri
urin
urinse
urinsekt
urinsektsart
uro
urol
urs
urskil
ursprung
ursprungliga
ursprungligen
urt
uru
urugu
uruguay
urval
us
usa
usas
usd
usikker
usikkert
uss
usædvan
ut
utah
utal
utan
utanfor
utara
utarbeidet
utarbet
utb
utbild
utbildad
utbildade
utbildning
utbildningen
utbildnings
utbr
utbred
utbredelse
utbredning
utbredningsom
utbredningsomrade
utbredningsomradet
utbredt
utbrot
utbrott
utbry
utbygd
utbygg
utbygging
utbyte
utd
utdan
utdann
utdannelse
utdannet
utdanning
utdannings
utdel
utdod
utdød
ute
uteksam
uteksaminert
utel
utelukkende
uten
utendørs
utenfor
utenlandske
utenom
utenrik
utenriks
utenriksminister
uteslut
uteslutande
utexaminer
utexaminerades
utfard
utflode
utfor
utfora
utford
utforda
utforde
utfordes
utform
utformet
utforming
utformning
utfors
utfort
utføre
utført
utførte
utg
utga
utgang
utgangen
utgangspunkt
utgangspunktet
utgar
utgav
utgava
utgavan
utgave
utgaven
utgaver
utgavs
utgi
utgick
utgitt
utgiv
utgivare
utgivelse
utgivelsen
utgivelser
utgiven
utgivet
utgivna
utgivning
utgivningen
utgj
utgje
utgjer
utgjev
utgjorde
utgjordes
utgjør
utgor
utgora
utgors
utgrav
utifran
util
utkanten
utkast
utkom
utlan
utlandet
utlandsk
utlandska
utloppet
utløp
utløpet
utman
utmar
utmark
utmarkelsen
utmarkelser
utmarkt
utmed
utmer
utmerkelser
utmerket
utn
utnamn
utnamnd
utnamndes
utne
utnem
utnevnt
utnevnte
utnytt
utnytter
utok
utokades
utom
utomhus
utomlands
utov
utover
utp
utpe
utpekt
utrecht
utred
utredning
utredningen
utrikes
utrikesminister
utro
utrop
utrot
utru
utrust
utrustning
utryd
utrym
utrymme
uts
utsag
utsags
utsatt
utse
utsedd
utseende
utsett
utsikt
utskott
utsl
utslag
utslatt
utslipp
utsmy
utsp
utspel
utspelar
utspring
utstall
utstallning
utstallningar
utstallningen
utstilling
utstillinger
utstra
utstrackning
utstyr
utstyrt
utt
uttag
uttagen
uttal
uttalas
uttalt
uttalte
uttar
uttry
uttryck
uttrycket
uttrykk
uttrykket
utv
utval
utvalg
utvand
utveck
utveckla
utvecklade
utvecklades
utvecklas
utvecklat
utvecklats
utveckling
utvecklingen
utvid
utvida
utvidet
utvik
utvikla
utvikle
utvikler
utviklet
utvikling
utviklinga
utviklingen
utvin
utøv
utøver
utøvere
uul
uv
uvan
uvanlig
uz
va
vaben
vac
vaccin
vack
vacker
vackra
vackte
vad
vade
vader
vadstena
vag
vaga
vagar
vagbin
vagen
vager
vagg
vaggar
vagn
vagnar
vagrade
vak
vakre
vaks
vakt
vakte
val
valais
vald
valde
valdemar
valdes
valdigt
valdres
vale
valen
valencia
valent
valentin
valer
valerenga
valet
valg
valget
valgt
valgte
valja
valjer
valk
valkanda
valkrets
vall
valle
valley
valp
valpara
valparaiso
vals
valt
valut
valuta
valv
vamp
vampyr
van
vancou
vancouver
vand
vanda
vande
vander
vandet
vandring
vandt
vaner
vang
vaning
vaningar
vanleg
vanlege
vanlegvis
vanlig
vanliga
vanligare
vanligast
vanligaste
vanlige
vanligen
vanligste
vanligt
vanligtvis
vanligvis
vann
vanner
vannet
vannkraft
vannkraftverk
vanns
vansk
vanskap
vanskeleg
vanskelig
vanskelige
vanster
vanstra
vant
vanua
vap
vapen
vapenet
vapenflugor
vapnet
var
vara
varade
varandra
varar
vararep
vararepresentant
varav
varberg
vard
vardag
varde
vardefulla
varden
varder
vardera
vardet
vare
varede
varefter
varen
varer
varet
varfor
varg
vargspindlar
vari
varia
variabel
varian
variant
varianten
varianter
variation
variationer
varier
variera
varierad
varierande
varierar
variere
varierende
varierer
variert
variet
varifran
varit
varje
varken
varld
varlden
varldens
varlds
varldsar
varldsarv
varldscupen
varldskriget
varldskrigets
varldsm
varldsmastare
varldsmaster
varldsmasterskapen
varldsmasterskapet
varldsp
varldspopul
varldsrekord
varm
varma
varmaste
varme
varmek
varmland
varmlands
varmt
varnp
varnplikt
varor
varpa
vars
vart
vartbitare
varte
varu
varum
varumark
varv
varvades
varvid
vas
vasa
vasil
vass
vassdrag
vassdraget
vast
vastantarktis
vastazarbaijan
vaster
vasteras
vasterbotten
vasterbottens
vastergotland
vasternorr
vasternorrlands
vasterut
vastlig
vastmanland
vastmanlands
vastra
vasttyskland
vat
vate
vatikan
vatmark
vatmarker
vatn
vatnet
vatt
vatten
vattendrag
vattendraget
vattenfall
vattenytor
vattnet
vav
vax
vaxa
vaxande
vaxel
vaxer
vaxjo
vaxt
vaxtart
vaxte
vaxter
vaxtlighet
vaz
vd
ve
veck
vecka
veckan
veckor
ved
veder
vedkommende
vedlar
vedlige
vedlike
vedrør
vedrørende
vedtaget
vedtak
vedtatt
vedtok
veg
vega
vegas
vegen
veget
vegetasjon
vegg
vegne
vei
veien
veier
veil
veit
vej
veje
vejen
vejle
vejr
vek
veker
vekk
veks
veksel
vekst
vekt
vektor
vel
veld
veldig
velge
velger
velika
veliki
velk
vell
velly
vellykket
velstaende
vem
ven
vend
vende
vender
vendt
vendte
venedig
venet
venez
venezia
venezuela
venn
venner
vennskap
venskab
venst
venstre
venstres
vent
vente
ventet
ventil
venus
ver
vera
veracruz
verb
verband
verbandsgemeinde
verd
verda
verde
verden
verdens
verdensarv
verdenscup
verdenscupen
verdenskrig
verdensmester
verdensmesterskapet
verdensrekord
verdi
verdien
verdier
verdif
verds
verdskrigen
verdsmeister
vere
verk
verka
verkade
verkar
verken
verker
verket
verkliga
verkligen
verklighet
verkligheten
verksam
verksamhet
verksamheten
verksamheter
verksamma
verksem
verkstad
verkstallande
verksted
verkt
verktyg
verktøy
vern
verna
verne
vernet
veronica
vers
versa
versailles
version
versionen
versioner
versjon
versjonen
versjoner
verste
vert
verte
vertik
verv
ves
vesentlig
vesle
vest
vesten
vester
vestfold
vestkysten
vestland
vestlandet
vestlege
vestlig
vestlige
vestover
vestre
vestsida
vestsiden
vet
veta
vetenskap
vetenskaplig
vetenskapliga
vetenskapsakademien
veter
veteran
vev
vg
vi
via
vib
viborg
vic
vice
vicente
vick
vict
victor
victoria
vid
vida
vidar
vidare
vide
viden
videnskab
videnskabelige
videnskaber
video
videoen
videon
videosp
vider
videre
videregaende
vidt
vie
vient
vientiane
vier
viet
vietnam
vig
viggo
vigt
vigtig
vigtige
vigtigste
vigtigt
vii
viii
vik
viken
viker
viking
vikingat
vikt
vikten
viktig
viktiga
viktigaste
viktige
viktigste
viktigt
viktor
vil
vila
vilar
vild
vilda
vilde
vilhelm
vilja
vilje
vilka
vilkar
vilken
vilket
vill
villa
village
villan
villar
ville
villig
villkor
vilnius
vilt
vin
vincent
vind
vinde
vinden
vinder
vinderen
vinduer
ving
vingar
vingarna
vinge
vingen
vingene
vinger
vingesp
vingespenn
vinkel
vinn
vinna
vinnare
vinnaren
vinne
vinner
vinneren
vinrute
vinrutevaxter
vinst
vinter
vinteren
vinterleker
vintern
vinterspelen
vintertid
vinyl
viol
viola
violin
vir
virg
virgin
virginia
virid
virk
virke
virkede
virkelig
virkelige
virkeligheden
virkeligheten
virker
virket
virkning
virksom
virksomhed
virksomheden
virksomheder
virksomhet
virksomheten
virt
virus
vis
visa
visade
visades
visar
visas
visat
visats
visby
vise
visepresident
viser
vises
vision
viss
vissa
visse
visser
visserligen
visst
visste
vist
vista
vistades
vistas
viste
visuell
vit
vita
vitamin
vite
vitenskap
vitenskapelig
vitenskapelige
viti
vitja
vitry
vitskap
vitt
viv
vive
vivevaxtart
vivevaxter
vivlar
vl
vlad
vladimir
vm
vo
vob
voblast
voblasten
vod
vog
vogn
voice
voj
vok
vokal
vokaler
vokalist
voks
vokse
voksede
voksen
voksende
vokser
voksne
vokst
vokste
vol
volcan
vold
volk
volksw
volkswagen
voll
volley
volleyball
volleyballspiller
volta
volum
volvo
volym
von
vor
vord
vore
vores
vorp
vorpommern
vorte
vos
voss
voy
vr
vrh
vrid
vs
vu
vul
vulk
vulkan
vulkanen
vundet
vunnet
vunnit
vur
vurder
vurdering
vurdert
vux
vuxen
vuxit
vuxna
vy
væ
væg
vægt
væk
vækst
væl
vælge
vælger
væp
vær
værd
værdi
være
værende
været
værk
værker
værket
vært
væsent
væsentlig
væske
wa
wad
wadi
wagner
wah
wahl
wain
wak
wake
wal
wald
walde
wales
walis
walk
walker
wall
walla
wallace
wallen
walt
walter
wan
wander
wang
want
war
ward
warner
warren
wars
warsz
warszawa
warwick
was
wash
washington
wat
watch
water
waters
watson
watt
way
wayne
wc
we
web
webb
webbplats
weber
wed
week
wehr
wehrma
wei
weimar
wein
wel
well
wellington
wells
wen
wend
wer
werner
wes
west
wester
western
westf
westfalen
westminster
wh
what
whe
wheeler
when
whi
whit
white
who
wi
wick
wid
wied
wien
wiener
wies
wig
wik
wikip
wikipedia
wil
wild
wilhelm
will
willem
willi
william
williams
willis
willy
wilson
wim
wimbl
wimbledon
win
wind
windows
wing
wings
winn
winst
winston
wint
winter
wir
wis
wisc
wisconsin
wit
with
witt
witten
wo
wol
wolf
wolfgang
woll
woman
women
won
wonder
wood
woods
wor
work
works
world
worms
wrest
wrestling
wright
wu
wuhan
wul
wur
wurtt
wurttemberg
ww
wwe
www
wy
xant
xanth
xanthoparmelia
xbox
xen
xer
xi
xia
xian
xiang
xii
xiii
xin
xinjiang
xiv
xv
xvi
xx
xyl
ya
yak
yale
yam
yamo
yamoussou
yamoussoukro
yan
yang
yar
yard
yards
yas
yaz
yazd
yd
yder
yderligere
ydre
ye
year
yell
yellow
yes
yi
yin
yl
yn
yng
yngre
yngsta
yngste
yo
yok
yong
yor
york
yorks
yorkshire
yosh
you
young
your
yout
youth
youtube
yp
ypper
yr
yrke
yrkes
ystad
yt
yta
ytan
ytre
ytt
ytter
ytterlig
ytterligare
ytterligere
ytterst
yttre
yu
yuan
yuc
yukon
yun
yunnan
za
zab
zac
zach
zag
zagreb
zah
zahr
zak
zam
zan
zap
zappa
zar
zarago
zaragoza
zard
zav
ze
zealand
zeb
zeeland
zel
zem
zen
zepp
zeppelin
zer
zet
zetter
zh
zhang
zhe
zhejiang
zheng
zhong
zhou
zhu
zimb
zimbab
zimbabwe
zimmer
zin
zing
zo
zon
zone
zor
zu
zur
zurich
zw
zyg
°c
æg
ægte
ægteskab
æld
ældre
ældste
ænd
ændrede
ændret
ændringer
ær
ære
æres
ærke
ødel
ødelag
ødelagt
ødeleg
ødelæg
øen
øer
øerne
øget
øj
øjeb
øjebli
øk
øke
økende
øker
økonom
økonomi
økonomien
økonomisk
økonomiske
økos
økt
økte
øl
øn
ønsk
ønske
ønskede
ønsker
ønsket
ør
øre
øres
øresund
ørken
ørn
øst
øster
østerrik
østerrike
østerriksk
østerrikske
østfold
østlandet
østlige
østover
østre
østrig
østrigske
østsiden
øv
øvelsen
øvelser
øver
øverst
øverste
øverstkommanderende
øvre
øvrig
øvrige
øvrigt
øy
øya
øyane
øye
øyebli
øyen
øyene
øyer
øyg
øyne
øynene
øystein
اب
ال
تل
دره
سر
سی
كوه
چش
چشمه
کوه
##0
##00
##000
##1
##10
##11
##12
##13
##14
##15
##16
##17
##18
##19
##2
##20
##21
##22
##23
##24
##25
##26
##27
##28
##29
##3
##30
##33
##35
##36
##37
##38
##39
##4
##40
##44
##45
##46
##47
##48
##5
##50
##55
##6
##60
##64
##66
##7
##70
##71
##75
##8
##80
##85
##86
##88
##9
##90
##99
##a
##aa
##aard
##ab
##aba
##abad
##abal
##abar
##abd
##abel
##abelt
##aben
##abet
##abeth
##abi
##abil
##abilis
##abiliter
##abl
##able
##abler
##abo
##abol
##aborg
##abri
##abrik
##ac
##aca
##acan
##ace
##acea
##aceae
##ach
##achal
##ache
##acher
##achi
##achim
##acht
##aci
##acia
##acidae
##acion
##acitet
##ack
##acka
##acken
##acker
##ackerlackor
##aco
##acris
##acruz
##act
##actylus
##acu
##aculata
##acupen
##acus
##ad
##ada
##adalen
##adan
##adar
##adas
##add
##adde
##ade
##adel
##adelphia
##adels
##adelse
##adem
##ademin
##aden
##adena
##adende
##adene
##adens
##adensis
##ader
##adera
##aderna
##adero
##ades
##adespel
##adet
##adeus
##adh
##adi
##adia
##adin
##adion
##adisk
##adiske
##administ
##admiral
##ado
##ador
##ados
##ads
##adsen
##adser
##adt
##advok
##advokat
##ady
##ae
##aea
##aec
##ael
##aen
##aet
##aeus
##aev
##af
##afa
##aff
##affe
##afrik
##afrika
##aft
##ag
##aga
##agan
##agar
##agare
##agaren
##agarna
##age
##agen
##agens
##ager
##agere
##ages
##aget
##agg
##agh
##agi
##agin
##agn
##agna
##agne
##agner
##agnet
##ago
##agog
##agon
##agor
##agos
##agra
##agram
##agrion
##ags
##agt
##agu
##agua
##ague
##agus
##ah
##aha
##ahan
##ahar
##ahl
##ahn
##aho
##ahr
##ahu
##ai
##ain
##ains
##ais
##aj
##ak
##aka
##akadem
##akan
##akar
##akare
##akch
##ake
##aken
##aker
##akers
##akes
##aket
##akh
##aki
##akia
##akim
##akk
##akke
##akken
##akker
##akning
##ako
##akon
##akry
##aks
##aksjon
##akt
##akter
##aktig
##aktiga
##aktige
##aktigt
##aktiv
##aktive
##aktivitet
##aku
##al
##ala
##alah
##alais
##alam
##alan
##aland
##alar
##album
##albumet
##ald
##alder
##alderen
##aldern
##aldi
##aldo
##aldt
##aldte
##ale
##alea
##aleh
##alen
##alene
##alens
##aler
##alerne
##ales
##alet
##alez
##alf
##alg
##ali
##alia
##alin
##alis
##alisere
##alism
##alisme
##alismen
##alist
##alistisk
##alistiska
##alistiske
##alitet
##alj
##aljer
##alk
##all
##alla
##allande
##allas
##alle
##allen
##aller
##allet
##alli
##alls
##allskap
##allskapet
##allsvenskan
##allt
##allus
##ally
##alm
##almi
##alo
##alom
##alon
##alp
##alpa
##alpark
##alparken
##alpolit
##alpus
##als
##alt
##alta
##alte
##alten
##alter
##altet
##alth
##alu
##alum
##alus
##alv
##alven
##aly
##alyp
##alyptus
##alyx
##am
##ama
##amal
##aman
##amar
##amarca
##amas
##amat
##amatan
##amatcher
##amb
##amba
##ambi
##ame
##amea
##amen
##amensis
##ament
##amente
##amento
##amer
##amerik
##amerika
##amerikansk
##amerikanska
##amerikanske
##amet
##amf
##amfund
##amfunn
##ami
##amia
##amil
##amilien
##amin
##aminer
##aming
##amisk
##amling
##amm
##amma
##ammar
##ammation
##ammen
##ammer
##amn
##amnen
##amnet
##amo
##amot
##amoter
##amoto
##amp
##ampa
##ampar
##ampe
##ampen
##amper
##amph
##ampi
##ampo
##amps
##ampton
##ams
##amt
##amu
##amus
##an
##ana
##anah
##anal
##analy
##anan
##ananar
##anas
##anc
##ance
##ancer
##and
##anda
##andaran
##andare
##ande
##andel
##anden
##ander
##anderende
##andes
##andet
##andi
##andid
##ando
##andra
##andre
##andro
##ands
##andt
##andør
##ane
##anea
##aneh
##anen
##anensis
##aner
##anere
##anerne
##anes
##aneus
##ang
##anga
##angan
##angar
##angare
##angaren
##angd
##angden
##angdong
##ange
##angel
##angeliet
##angen
##anger
##angeren
##angi
##ango
##angreb
##angrep
##angs
##ani
##ania
##anica
##aniemi
##anien
##anj
##ank
##anke
##anken
##anlaggning
##anlegg
##anlegget
##anlæg
##anmar
##ann
##anna
##annande
##anne
##annen
##anner
##anni
##annon
##ano
##anol
##anor
##anos
##ans
##ansas
##anse
##ansen
##ansens
##anser
##anserte
##anset
##ansk
##anska
##anske
##anstalt
##ansvar
##ant
##anta
##antan
##antarktis
##ante
##anteles
##anten
##anter
##anterna
##antes
##anth
##antha
##anthe
##anthera
##anthes
##anthus
##anti
##antia
##antik
##antis
##anto
##antrop
##ants
##antus
##anu
##anum
##anus
##anvand
##any
##anz
##anza
##ao
##ap
##apa
##apan
##apar
##aparlam
##aparte
##ape
##apel
##apest
##apet
##apeut
##aph
##aphis
##api
##aplan
##apolis
##app
##appa
##apper
##aps
##apt
##aq
##ar
##ara
##arab
##aran
##arande
##arane
##arant
##arar
##arat
##arb
##arbe
##arbeid
##arbeider
##arbeidere
##arbeidet
##arbejd
##arbejde
##arbejder
##arbejdet
##arbet
##arbetare
##arbete
##arbeten
##arbetet
##arbin
##arch
##ard
##arda
##arde
##arden
##ardens
##arder
##ardi
##ardia
##ardig
##ardo
##ards
##are
##area
##areal
##areh
##aren
##arena
##arene
##arens
##arep
##arer
##arerna
##ares
##aret
##arez
##arg
##ari
##aria
##ariaceae
##arian
##arias
##ariat
##ariatet
##aric
##arica
##aridae
##arie
##ariensis
##arier
##ariet
##arig
##ariga
##arige
##arii
##ariidae
##arin
##arina
##aring
##ario
##aris
##arisk
##arit
##arium
##arius
##ark
##arka
##arkar
##arkarriar
##arke
##arken
##arkite
##arkitekt
##arkiv
##arkivet
##arkt
##arktis
##arl
##arm
##arme
##armen
##arn
##arna
##arnas
##arne
##arnet
##arns
##aro
##arp
##arpa
##arra
##arrang
##arriket
##arro
##ars
##arsis
##arskap
##arskontrakt
##arspindlar
##arsus
##art
##arta
##artad
##artade
##artar
##arte
##arten
##arter
##arth
##arti
##artiet
##artik
##artiller
##artist
##arts
##aru
##arum
##arus
##arv
##ary
##as
##asa
##asaari
##asaki
##asan
##asar
##asc
##asco
##ase
##asen
##aser
##ash
##ashi
##asi
##asia
##asiat
##asien
##asin
##asinet
##asis
##asit
##asitet
##asj
##asje
##asjen
##asjer
##asjon
##asjonar
##asjonen
##asjonene
##asjoner
##asjons
##ask
##ason
##asp
##aspis
##ass
##assa
##assan
##asse
##assel
##assen
##asser
##asset
##assistent
##asso
##ast
##asta
##astare
##aste
##asteh
##asten
##aster
##asteroide
##asterskapen
##asterskapet
##astes
##astra
##astro
##astrof
##asu
##asy
##at
##ata
##atak
##atal
##atalog
##atan
##atar
##ate
##ated
##atel
##aten
##atene
##ater
##atera
##aterial
##ateriale
##atern
##aterna
##ates
##atet
##atexamen
##ath
##atha
##athan
##athe
##athea
##ather
##athon
##athus
##ati
##atia
##atidae
##atin
##ating
##ation
##ationen
##ationer
##ationerna
##ations
##atis
##atisk
##atiska
##atiske
##ativ
##ativa
##ative
##ativt
##atlan
##atn
##atnet
##atning
##ato
##atom
##aton
##ator
##atoren
##atorer
##atoriet
##atorisk
##atoriske
##atorium
##atorn
##atra
##atre
##atret
##ats
##atsen
##atset
##atsu
##att
##atta
##atte
##atten
##atter
##attes
##atti
##attle
##attning
##atts
##attslandor
##atu
##atum
##atur
##aturen
##atus
##atz
##atør
##atører
##au
##auer
##aula
##aust
##aut
##aux
##av
##ava
##avag
##avagen
##avan
##avar
##avax
##avaxtart
##avaxter
##avdel
##avdeling
##avdelning
##avdelningen
##ave
##aven
##aver
##avesi
##avet
##avgift
##avi
##avia
##avik
##aville
##avirus
##avis
##avisen
##avista
##avling
##avlingar
##avlingarna
##avlingen
##avn
##avnet
##avs
##avtal
##avu
##avut
##aw
##awa
##away
##ax
##axa
##axes
##axter
##ay
##aya
##ayer
##ayo
##az
##aza
##azar
##azarbaijan
##azi
##azz
##b
##ba
##bach
##back
##backen
##backslandor
##bad
##bag
##baggar
##bah
##bahn
##baijan
##bajd
##bak
##bakken
##bal
##ball
##baltet
##ban
##bana
##banan
##band
##bandet
##bane
##banen
##baner
##bang
##bank
##banken
##banks
##bant
##bar
##bara
##bard
##bare
##barhet
##barn
##bart
##bas
##base
##basen
##basis
##bass
##bat
##batal
##batar
##baten
##bay
##bb
##bba
##bbe
##bbspindlar
##bc
##be
##bebygg
##bebyggelse
##bec
##beck
##bed
##befolk
##befolkad
##befolkat
##befolkningen
##beg
##beh
##behandling
##behov
##bei
##bein
##bek
##bel
##bell
##bella
##bels
##belt
##belte
##belteasteroide
##ben
##benhav
##bent
##ber
##bera
##beratt
##bere
##bered
##berg
##berga
##bergen
##berger
##berget
##bergia
##bergs
##berland
##berlin
##berna
##berne
##berry
##bers
##bert
##bes
##beskytt
##bet
##betal
##bete
##beteck
##betegn
##betes
##betet
##beth
##bevar
##beveg
##bevegelsen
##bevæ
##bey
##bh
##bi
##bia
##bibliote
##bibliotek
##biblioteket
##bid
##bidae
##bie
##bil
##bilar
##bild
##bildade
##bilde
##bilden
##bilder
##bildet
##bildning
##biler
##bilis
##bill
##biller
##bin
##bind
##biner
##bing
##biograf
##biografi
##bir
##bis
##bisk
##biskop
##bisp
##bisped
##bit
##bitare
##bj
##bjerg
##bjorn
##bjør
##bjørn
##bl
##bla
##blad
##blade
##bladet
##bladig
##bladiga
##bladsvaxtart
##bladsvaxter
##bland
##ble
##bler
##bli
##blick
##blik
##blo
##block
##blod
##blom
##blomflugor
##blomm
##blommiga
##blomst
##blomster
##bo
##boa
##board
##bock
##bocker
##bod
##boe
##boende
##bog
##bok
##boken
##bol
##bolag
##bolaget
##bold
##bolig
##boll
##bom
##bon
##bong
##bor
##bord
##bordet
##borg
##borger
##borgs
##born
##borough
##bos
##bost
##bostad
##bot
##botn
##bott
##botten
##bottens
##bou
##bour
##bourg
##bourne
##bow
##box
##boy
##br
##bra
##bragte
##braken
##brakenvaxtart
##bran
##brand
##brans
##bre
##bred
##bredden
##brede
##breen
##brev
##bri
##brid
##bridge
##brig
##bring
##bro
##brog
##bron
##bror
##brot
##brott
##bru
##brua
##bruck
##brud
##brudd
##bruddet
##brudt
##brug
##bruk
##bruket
##bruks
##brun
##bruna
##brune
##bry
##brygg
##bryns
##bryt
##brød
##bs
##bt
##bte
##bu
##buch
##bud
##budet
##bug
##buk
##buks
##bukt
##bukta
##bul
##bum
##bun
##bund
##bunden
##bur
##burg
##burger
##burgh
##burn
##bury
##bus
##busjon
##buss
##but
##by
##bye
##byen
##byg
##bygd
##bygde
##bygg
##byggd
##byggda
##bygge
##bygger
##byggere
##byggerne
##bygget
##bygging
##byggnad
##byggnaden
##byggnader
##bygning
##bygningen
##bygninger
##byn
##byr
##byra
##byran
##byrdes
##bys
##byt
##bæk
##bær
##bærer
##bø
##bøger
##bøker
##bøl
##bør
##c
##ca
##caceae
##caena
##cal
##can
##cao
##car
##cas
##cast
##castle
##cat
##cata
##cc
##ccion
##ce
##cea
##ceae
##ced
##cel
##cell
##celler
##celli
##cen
##cens
##cent
##center
##centr
##centrum
##cept
##cer
##cera
##ces
##cess
##cessen
##ch
##cha
##chaft
##chal
##chan
##chang
##char
##chard
##che
##chef
##chefen
##chel
##chem
##chen
##cheng
##cheon
##cheong
##cher
##ches
##chester
##chet
##chewan
##chez
##chi
##chia
##chichte
##chin
##chis
##chn
##cho
##chon
##chs
##chsen
##cht
##chten
##chtenstein
##chter
##chts
##chu
##chur
##chus
##chwitz
##chy
##ci
##cia
##cial
##ciata
##ciatus
##cidae
##cin
##cing
##cini
##cinia
##cio
##cion
##cip
##ciper
##cis
##cium
##ck
##cka
##ckan
##ckande
##ckar
##ckare
##cke
##ckel
##cken
##ckenzie
##cker
##cket
##cki
##ckning
##ckningen
##ckor
##cks
##ckt
##ckta
##ckte
##cktes
##cla
##cle
##cli
##cliffe
##co
##cock
##coe
##coides
##col
##color
##com
##con
##cor
##core
##cos
##cott
##cou
##court
##craft
##crantz
##cs
##ct
##cta
##ctes
##ctic
##ction
##ctis
##ctor
##ctus
##cu
##cula
##cum
##cup
##cupen
##cus
##cy
##cz
##d
##da
##dad
##dag
##dagar
##dagen
##dags
##dah
##dahl
##dal
##dale
##dalen
##dals
##dam
##dan
##danmark
##dann
##dannelse
##dans
##dansk
##dar
##dare
##dat
##dater
##datter
##day
##dde
##de
##deb
##debut
##deh
##dekket
##del
##delag
##delar
##dele
##deleg
##delen
##deler
##deles
##delig
##delige
##deligt
##deling
##delingen
##delinger
##dels
##delse
##delsen
##delser
##delses
##delt
##deltag
##delte
##dem
##demokrat
##den
##dende
##dene
##denes
##dens
##departement
##departementet
##der
##dera
##dere
##deren
##deri
##derkopp
##dern
##derna
##derne
##ders
##des
##design
##dest
##det
##di
##die
##dig
##dige
##digt
##dik
##dikt
##din
##ding
##dingen
##direktor
##direktør
##dis
##disk
##distan
##distri
##distrikt
##div
##djur
##djursart
##dning
##do
##dom
##domar
##domen
##domet
##domm
##dommen
##dommer
##domstol
##don
##donald
##dor
##dorf
##dotter
##dow
##down
##dr
##dra
##drag
##draget
##drakt
##dre
##drift
##driv
##ds
##dt
##dte
##du
##dy
##dyn
##dyr
##døde
##e
##ea
##eb
##eba
##eback
##ebel
##eben
##ebius
##ebli
##ebo
##ebok
##eborg
##ebru
##eburg
##ebus
##eby
##ec
##ech
##ecia
##eck
##ecken
##ed
##eda
##edag
##edal
##edalen
##edalens
##edan
##edd
##edda
##edde
##ede
##edel
##edels
##edem
##eden
##edene
##eder
##ederbord
##edere
##edes
##edet
##edi
##edia
##edie
##edig
##edlem
##edning
##edo
##edom
##edon
##edonia
##edonien
##edra
##eds
##edt
##edy
##edyr
##ee
##ef
##effe
##efter
##eg
##ega
##egaard
##egaende
##egal
##egang
##egard
##egarden
##egata
##ege
##egeiska
##egel
##egen
##egener
##eger
##egg
##egi
##egionen
##egle
##egler
##egn
##egnet
##ego
##egr
##egra
##egrad
##egren
##egron
##egu
##eh
##ei
##eie
##eir
##eiret
##ej
##ek
##eka
##ekamp
##ekamper
##ekan
##ekar
##ekene
##eker
##eki
##ekk
##ekn
##ekom
##ekon
##ekonom
##ekont
##eks
##eksam
##eksamen
##eksped
##ekspedisjonen
##ekw
##el
##ela
##elag
##elaget
##eland
##elandslag
##elas
##elb
##elberg
##eld
##eldans
##elde
##elden
##elder
##eldig
##eldorf
##ele
##elea
##eled
##eledamot
##eleder
##elef
##eleg
##elege
##elekt
##element
##elen
##eler
##eles
##elet
##elever
##eli
##elia
##eliaceae
##elidae
##elig
##elige
##elighed
##eligt
##elin
##elina
##eling
##elinjen
##elis
##elius
##eliv
##elivet
##elk
##ell
##ella
##ellaceae
##ellan
##ellata
##elle
##ellem
##ellen
##ellene
##eller
##ellerna
##elles
##ellet
##elli
##ellia
##ellidae
##ellig
##ellige
##elling
##ellingen
##ellit
##ello
##ellom
##ells
##ellt
##ellum
##ellus
##elly
##elm
##eln
##elo
##elos
##elp
##els
##else
##elsen
##elsene
##elsens
##elser
##elserna
##elserne
##elses
##elsesp
##elset
##elskab
##elt
##elte
##eltem
##eltemperaturen
##eltet
##eltrad
##elus
##elv
##elva
##elvet
##elvingar
##ely
##elærer
##elø
##em
##ema
##emal
##emala
##eman
##emang
##emann
##emar
##emark
##emat
##emb
##ember
##emberg
##embl
##emble
##embran
##eme
##emedal
##emedlem
##emeinde
##emen
##ement
##emente
##ementer
##ementet
##emer
##emet
##emi
##emia
##emiddel
##emidler
##emien
##emin
##eminister
##emir
##emo
##emon
##emoni
##emonien
##emont
##emonte
##emot
##emp
##empel
##emplar
##ems
##emum
##emus
##emy
##en
##ena
##enaria
##enbach
##enbar
##enberg
##enburg
##enc
##ence
##end
##enda
##endal
##ende
##enden
##endent
##ender
##endes
##endet
##endig
##endige
##endom
##endomen
##endor
##endorf
##endra
##endrag
##endron
##endrum
##endt
##endte
##endørs
##ene
##enea
##enee
##enen
##ener
##enes
##enez
##enfor
##eng
##enga
##engde
##engden
##engel
##engt
##enhagen
##enhet
##eni
##enia
##enn
##enne
##ennene
##ennis
##eno
##ens
##ensa
##ensam
##ensch
##ense
##ensee
##ensen
##enser
##ensis
##ensk
##enskap
##enskapen
##enskaper
##enske
##enson
##ensp
##ensson
##ent
##enta
##ental
##entals
##ente
##enten
##entene
##enter
##enteret
##entes
##entet
##enthal
##entin
##enting
##entlig
##entlige
##entligt
##ento
##entr
##entral
##entris
##entrum
##entrus
##ents
##entuna
##entus
##entyr
##entz
##enus
##enz
##enze
##eo
##eon
##ep
##epa
##epar
##epartem
##epartementet
##eper
##eph
##ephal
##ephala
##ephalus
##eplan
##eppe
##epresident
##eprod
##eps
##ept
##eptor
##er
##era
##erad
##erade
##erades
##erar
##eras
##erat
##erats
##ere
##erea
##erede
##eren
##erende
##erer
##eres
##eret
##eri
##eria
##erie
##erien
##erier
##ering
##eringen
##eris
##erk
##ern
##erna
##ernas
##erne
##ernes
##ero
##erob
##ers
##ert
##erte
##erto
##erty
##erv
##ervat
##ervatet
##es
##esa
##esc
##escens
##esch
##esdal
##ese
##esel
##eselskap
##esen
##eser
##eset
##esh
##esi
##esia
##esis
##esisk
##esiska
##esiske
##esjon
##esl
##eslag
##eslut
##esn
##eso
##eson
##esor
##esp
##espark
##espel
##espil
##espill
##espiller
##espillet
##espolit
##espor
##esport
##esprak
##ess
##essa
##essan
##esse
##essel
##essen
##esser
##essig
##essige
##ession
##esson
##essor
##est
##estad
##estan
##este
##ested
##esten
##ester
##esterskapet
##estes
##estra
##estrad
##esund
##esvig
##esystem
##esystemet
##et
##eta
##etabler
##ete
##eten
##etenskap
##eter
##etera
##etere
##etes
##etet
##eth
##ethe
##eti
##etia
##etid
##etik
##etil
##etis
##etisk
##etiska
##etiske
##etning
##etningen
##etninger
##eto
##eton
##etown
##ets
##ett
##etta
##ettan
##ette
##etten
##etter
##ettes
##ettet
##etti
##ettia
##etting
##ettix
##etto
##etts
##etty
##etus
##etz
##eus
##ev
##evelt
##ew
##ex
##ey
##eyn
##ez
##f
##fa
##fabri
##fabrik
##fabriken
##fabrikk
##fabrikken
##fack
##fader
##fag
##fagel
##faglar
##fakt
##faktor
##fal
##fald
##fall
##falla
##fallande
##fallen
##fallende
##faller
##fallet
##falt
##faltet
##falz
##famil
##familie
##familien
##familj
##familjen
##fan
##fang
##fangst
##fanns
##far
##farande
##fard
##faren
##farg
##fargad
##fargade
##fargen
##farger
##farget
##fart
##farten
##fartyg
##fas
##fast
##fat
##fatt
##fatter
##fc
##fe
##fect
##fekt
##fel
##feld
##feldt
##fell
##felt
##feltet
##fen
##feng
##fer
##fera
##ferd
##ferdig
##ference
##ferens
##fest
##festen
##fester
##festet
##festival
##festivalen
##ff
##ffa
##ffar
##ffe
##ffekt
##ffel
##ffen
##ffer
##ffet
##ffield
##ffs
##fi
##fia
##fiber
##fid
##field
##fig
##figur
##figuren
##figurer
##fil
##film
##filmen
##filmer
##filosof
##fin
##finalen
##finn
##finns
##fir
##firma
##firmaet
##fish
##fisk
##fiskar
##fiske
##fj
##fjall
##fjarden
##fjaril
##fjarilar
##fjell
##fjella
##fjellene
##fjellet
##fjord
##fjorden
##fl
##fla
##flaten
##fle
##fli
##flod
##flode
##floden
##flok
##flokkur
##flokkurin
##flott
##flu
##flug
##flugor
##flukt
##fly
##flyg
##flygplan
##flykt
##flyt
##flytt
##flyttning
##fo
##fod
##fog
##fol
##fold
##folj
##foljande
##foljare
##foljaren
##foljd
##folk
##folket
##foll
##fon
##fond
##foni
##for
##fora
##forand
##forande
##forare
##forb
##forband
##forbindel
##forbindelse
##forbindelser
##forbud
##forbund
##forbundet
##forbundets
##ford
##forda
##forde
##fordel
##fordes
##fordon
##fore
##foren
##forening
##foreningar
##foreningen
##foreningens
##foreninger
##forenings
##forest
##foret
##foretag
##foretaget
##forfatt
##forfattare
##forfatter
##forhalland
##forhallandena
##forhold
##foring
##forklar
##forkort
##forkortning
##forl
##form
##forma
##formade
##formaga
##formand
##formann
##format
##formation
##formede
##formen
##former
##formet
##formis
##forord
##fors
##forsalj
##forsamling
##forsamlingen
##forsk
##forskare
##forsker
##forskj
##forskning
##forskningen
##forslag
##forsok
##forsvar
##forsvaret
##forsy
##fort
##forvalt
##forvaltningen
##fos
##foss
##fossen
##fot
##fotingar
##fotograf
##found
##fr
##fra
##frag
##fragan
##fragor
##fram
##fran
##fre
##fred
##frem
##fri
##frid
##frie
##fried
##frihet
##fris
##fritt
##fron
##front
##fronten
##fru
##fs
##ft
##fta
##fte
##ftea
##ften
##fter
##ftet
##fton
##ftt
##fu
##fug
##fugl
##fuglar
##fugler
##fuhrer
##ful
##fuld
##fulde
##fulgt
##fulgte
##full
##fulla
##fulle
##fullmaktige
##fullt
##fun
##fund
##funkt
##funktion
##funn
##fur
##furt
##fus
##fyl
##fyll
##fyr
##fys
##fær
##færd
##færen
##fø
##fød
##født
##fødte
##føl
##følg
##følge
##følgen
##følgende
##følger
##følgeren
##før
##føre
##førelse
##førelsen
##fører
##føres
##føring
##føringen
##førsel
##ført
##førte
##førtes
##g
##ga
##gaard
##gade
##gades
##gaende
##gaet
##gah
##gal
##galler
##galleriet
##gam
##gan
##gang
##gangar
##gangen
##gar
##gara
##gard
##garde
##garden
##garder
##garh
##gari
##gart
##gary
##gas
##gass
##gat
##gata
##gatan
##gate
##gatt
##gau
##gav
##gave
##gaven
##gaver
##gavs
##gde
##ge
##gede
##gel
##geland
##gelig
##gelige
##gelse
##gelsen
##gelser
##gem
##gen
##gende
##gene
##gener
##gens
##ger
##gere
##geren
##geri
##gerne
##gers
##ges
##gest
##get
##gh
##gi
##gick
##gift
##gifter
##gik
##gil
##gilt
##gin
##gir
##gis
##gitar
##gitt
##giv
##givande
##givare
##give
##givelse
##given
##givende
##giver
##givet
##givning
##givningen
##gj
##gjande
##gje
##gjeld
##gjen
##gjer
##gjev
##gjorde
##gjordes
##gjort
##gjør
##gjøre
##gl
##glanssteklar
##gne
##gning
##go
##god
##gods
##gol
##gon
##gor
##goring
##gorit
##got
##gota
##gotland
##gotlands
##gow
##gr
##gra
##grad
##graden
##grader
##gran
##grans
##gransen
##gras
##grav
##gren
##grens
##grensen
##grev
##greve
##gro
##ground
##gru
##grund
##grunden
##grunn
##grupp
##gruppa
##gruppe
##gruppen
##grupper
##gs
##gt
##gte
##gtede
##gu
##gud
##gul
##gus
##gy
##gymnas
##gør
##gøre
##h
##ha
##had
##hae
##haer
##haf
##hafaz
##hafazat
##hag
##hage
##hagen
##hai
##hail
##haj
##hak
##hal
##hald
##hale
##hall
##halla
##halland
##hallande
##hallare
##halle
##hallen
##haller
##hallet
##hallit
##hallning
##halls
##hals
##halt
##halv
##halvon
##halvøya
##ham
##hammar
##hammer
##hamn
##hamns
##han
##hand
##handa
##handel
##handelen
##handlare
##handler
##handling
##handlingen
##handlinger
##hang
##hani
##hant
##hao
##har
##hara
##hard
##hardt
##hark
##harkrankar
##harmon
##hart
##has
##hast
##hastighet
##hat
##hatt
##hattan
##haug
##haugen
##haus
##hausen
##hav
##havare
##havaren
##have
##haven
##haver
##havet
##havn
##havnen
##havs
##haw
##hay
##he
##hea
##head
##hed
##heden
##heder
##heh
##heid
##heim
##heimen
##heimer
##hein
##heit
##hel
##helm
##hem
##hems
##hen
##heng
##her
##hera
##heran
##herine
##herre
##herred
##hers
##hert
##hes
##het
##heten
##heter
##heterna
##hets
##heus
##hew
##hi
##hia
##hias
##hielm
##hil
##hild
##hill
##him
##hin
##hir
##hira
##hirac
##hire
##his
##histor
##historia
##historie
##historien
##historiker
##historisk
##historiska
##historiske
##hius
##hiz
##hiza
##hj
##hjalp
##hjart
##hjartbladig
##hjel
##hjem
##hjul
##hjæl
##hjør
##hk
##hl
##hm
##hn
##ho
##hode
##hoe
##hof
##hoff
##hog
##hogskola
##hogskolan
##hoj
##hojd
##hojden
##hol
##hold
##holde
##holder
##holdes
##holdet
##holdt
##holl
##holm
##holmen
##holms
##holt
##holz
##hon
##hong
##hop
##hopp
##hor
##hora
##horax
##hord
##horde
##horighet
##horn
##horningar
##horns
##horst
##hort
##horus
##hos
##hot
##hou
##house
##hov
##hoved
##hoven
##how
##hr
##hra
##hs
##ht
##hteh
##hti
##hts
##hu
##hua
##huang
##hug
##hugg
##hui
##hult
##hum
##hund
##hur
##hurst
##hus
##huse
##husen
##huset
##husets
##huvud
##huvudort
##huvudstaden
##hv
##hver
##hvert
##hy
##hyd
##hyl
##hynchus
##hæ
##hæn
##hæng
##høg
##høgskole
##høj
##høy
##høyde
##i
##ia
##iac
##iaceae
##iae
##iah
##iak
##ial
##iale
##iales
##ialis
##ian
##iana
##iane
##iang
##iani
##iano
##ians
##iansk
##ianska
##ianske
##ianum
##ianus
##iao
##iar
##iarab
##iaren
##ias
##iast
##iat
##iata
##iater
##iation
##ib
##iba
##ibal
##iban
##ibar
##ibel
##iber
##ibet
##ibi
##ibia
##ibil
##ible
##ibliote
##ibo
##ibus
##ic
##ica
##ical
##icalis
##icata
##icaud
##icauda
##ice
##icea
##iceps
##icer
##icera
##ices
##ich
##icha
##iche
##ichi
##icht
##ichte
##ichth
##ichthys
##ichus
##ici
##icia
##icin
##icip
##icismen
##icitet
##ick
##icka
##icks
##ico
##icol
##icola
##icollis
##icolor
##icon
##icornis
##ics
##ict
##icta
##iction
##ictus
##icula
##icularis
##iculata
##iculatus
##icum
##icus
##icz
##id
##ida
##idaceae
##idad
##idae
##idan
##idar
##idas
##idaw
##iday
##idd
##idda
##idde
##iddel
##ide
##idea
##iden
##idene
##idens
##idenskab
##ident
##identer
##ider
##iderade
##ides
##idet
##idge
##idi
##idia
##idian
##ididae
##idig
##idion
##idis
##idium
##idius
##idler
##idning
##idningen
##ido
##idon
##idos
##idrett
##ids
##idt
##idu
##idum
##idus
##idy
##ie
##ieb
##ied
##ief
##ieg
##iek
##iel
##ield
##iell
##iella
##ielle
##iellt
##ielt
##iem
##ien
##iende
##iene
##ienne
##iens
##iense
##iensis
##ient
##ienten
##ienter
##iep
##ier
##iera
##iere
##ieren
##ieres
##ieri
##iering
##iermark
##iern
##ierna
##ierne
##ierre
##iers
##iert
##ierung
##ies
##iet
##iets
##ieu
##iev
##iew
##if
##ifa
##ifas
##ifer
##ifera
##iff
##iffer
##ific
##ifica
##ificeret
##ifier
##ifik
##ifikat
##ifikation
##ifisert
##ifl
##iflora
##ifol
##ifolia
##ifolium
##ifolius
##ifor
##iform
##iformes
##iformis
##iforn
##ifran
##ifrons
##ift
##ifte
##iftet
##iful
##ig
##iga
##igalpa
##igan
##igar
##igaste
##ige
##igede
##igen
##igenom
##iger
##igera
##iges
##iget
##igg
##iggins
##igh
##ighed
##igheden
##igheder
##ighet
##igheten
##ighetene
##igheter
##igheterna
##ight
##ights
##igi
##igma
##ign
##ignal
##igne
##igner
##ignon
##igny
##igo
##igor
##igt
##igu
##igua
##igur
##ih
##ii
##iidae
##iii
##iinae
##ij
##ija
##ijan
##ijarvi
##ijer
##iji
##ijk
##ik
##ika
##ikal
##ikan
##ikar
##ikat
##ike
##iken
##iker
##ikere
##ikeren
##ikern
##ikerna
##ikerne
##iket
##ikh
##iki
##ikk
##ikkel
##ikkelen
##ikken
##ikkens
##ikker
##ikkert
##ikki
##iko
##ikomm
##ikon
##ikor
##ikos
##ikov
##ikring
##iks
##ikt
##ikten
##ikter
##iktet
##iku
##ikum
##il
##ila
##iland
##ilar
##ild
##ilda
##ilde
##ilden
##ilder
##ilding
##ile
##ileet
##ileg
##ilen
##iler
##iles
##ilet
##ileum
##iley
##ili
##ilia
##ilian
##ilien
##ilin
##iling
##ilis
##iliteter
##ilj
##ilja
##iljen
##ill
##illa
##illan
##illaria
##illas
##ille
##illede
##illen
##iller
##illes
##illet
##illi
##illing
##illingen
##illinger
##illo
##illon
##illos
##ills
##illus
##illverk
##illy
##ilm
##ilo
##ilometer
##ils
##ilt
##ilte
##ilum
##ilus
##ily
##im
##ima
##imal
##iman
##imar
##imb
##ime
##imen
##imens
##iment
##imenter
##imentet
##imer
##imet
##imeter
##imi
##imil
##imir
##immer
##imo
##imod
##imon
##imore
##imot
##imp
##ims
##imus
##in
##ina
##inae
##inal
##inalen
##inan
##inand
##inar
##inas
##inata
##inav
##inc
##include
##incta
##ind
##inda
##inde
##indel
##inden
##inder
##indes
##indi
##indien
##indlar
##inds
##indust
##industri
##industrien
##industrin
##ine
##inea
##ineata
##ineau
##inella
##inen
##inensis
##iner
##inering
##inert
##ines
##iness
##inet
##inett
##inette
##ing
##inga
##ingane
##ingar
##ingarna
##ingart
##inge
##ingen
##ingene
##ingeniør
##ingenjor
##ingens
##inger
##inget
##ingham
##ingo
##ingom
##ingrad
##ings
##ingsb
##ingsm
##ington
##inho
##ini
##inia
##inidae
##inien
##ining
##ininga
##inis
##inister
##inius
##inje
##ink
##inka
##inki
##inn
##inna
##innan
##innare
##inne
##innen
##inner
##inns
##ino
##inos
##inosa
##ins
##insk
##inska
##inske
##inson
##inspe
##inspektør
##inspel
##inst
##instit
##institusjon
##institut
##institutet
##instru
##instrument
##int
##inte
##intend
##inter
##inth
##into
##ints
##inum
##inus
##io
##ioc
##iod
##iodes
##ioides
##iol
##iologi
##ion
##iona
##ional
##ionde
##ione
##ionen
##ionens
##ioner
##ionerna
##ionidae
##ions
##iop
##iopsis
##ior
##ios
##iosa
##iot
##iou
##ious
##iox
##ioxid
##ip
##ipa
##ipalp
##ipalpus
##ipe
##ipend
##ipennis
##ipes
##iph
##iphon
##iphora
##iplin
##ipp
##ipper
##ippet
##ips
##ique
##ir
##ira
##irah
##iras
##irasjon
##ird
##ire
##ireg
##iregemente
##irektor
##irektør
##iren
##irer
##ires
##iret
##iri
##irig
##iris
##irk
##irke
##irkel
##irn
##iro
##irost
##irs
##irt
##irus
##is
##isa
##isaari
##isan
##isar
##isc
##isch
##ische
##ischen
##ischer
##iscus
##ise
##isel
##isen
##iser
##isera
##iserad
##iserade
##iserades
##iserande
##iserar
##iseras
##iserat
##iserats
##isere
##iserede
##iserende
##iserer
##iseres
##iseret
##isering
##iseringen
##iserings
##iserne
##isert
##iserte
##iset
##ish
##isha
##ishi
##isi
##isia
##isin
##ision
##isionen
##isj
##isjon
##isjonen
##isjoner
##isk
##iska
##iskan
##iske
##iskop
##iskt
##islav
##ism
##isma
##ismat
##isme
##ismen
##ismens
##ismer
##iso
##ison
##isont
##isp
##iss
##issa
##isse
##isseau
##issel
##issen
##isser
##isset
##issima
##ission
##issionen
##issus
##ist
##ista
##istan
##istans
##istar
##iste
##isted
##isten
##istene
##istens
##istent
##ister
##isterna
##isterne
##istes
##istik
##istikk
##istisk
##istiska
##istiske
##istiskt
##isto
##istor
##istri
##istrikt
##istriktet
##istyr
##it
##ita
##itaine
##ital
##italet
##itan
##itar
##itas
##itat
##itation
##itch
##ite
##ited
##iteen
##itel
##iten
##iter
##iterna
##iteruss
##ites
##itet
##iteten
##iteter
##itets
##ith
##ithe
##ithecia
##ithi
##iti
##ities
##ition
##itionen
##itioner
##itis
##itiska
##itiv
##itiva
##itive
##itivt
##itlan
##ito
##iton
##itor
##itos
##itra
##itri
##its
##itsa
##itsch
##itt
##itta
##itte
##ittel
##ittelen
##itten
##ittene
##itter
##ittet
##ittisk
##ittiske
##itu
##itud
##ituer
##itum
##itung
##itus
##itusjon
##itut
##ity
##itz
##itze
##itære
##iu
##iulus
##ium
##ius
##iv
##iva
##ival
##ivalen
##ivaler
##ivan
##ive
##iveau
##iven
##iventris
##iver
##ivers
##iversitet
##ivert
##ivet
##ivi
##ivind
##ivision
##ivo
##ivt
##ix
##iy
##iya
##iyah
##iyan
##iyat
##iye
##iyya
##iz
##iza
##ization
##ize
##izer
##izhou
##iør
##j
##ja
##jab
##jad
##jade
##jades
##jah
##jak
##jakt
##jal
##jala
##jam
##jan
##jande
##jang
##janst
##jar
##jara
##jarder
##jare
##jaren
##jaril
##jarn
##jarnarna
##jarne
##jarneart
##jarnen
##jarv
##jarvi
##jas
##jat
##jaure
##jav
##jd
##jde
##jder
##je
##jeb
##jed
##jedalen
##jede
##jef
##jefen
##jeg
##jeh
##jek
##jekt
##jekter
##jektet
##jektiv
##jel
##jem
##jen
##jene
##jeneste
##jenko
##jent
##jente
##jep
##jer
##jere
##jerg
##jern
##jerne
##jerte
##jes
##jest
##jet
##jev
##jeva
##jevitj
##jevo
##ji
##jia
##jiang
##jic
##jin
##jing
##jinga
##jk
##jka
##jl
##jle
##jm
##jn
##jning
##jo
##job
##joki
##jol
##jon
##jonen
##joner
##jong
##jor
##jord
##jorden
##joren
##jos
##jot
##journ
##journalist
##jov
##js
##jt
##jtnant
##ju
##jud
##juk
##juka
##jun
##jung
##junkt
##jup
##jur
##jursart
##jus
##jut
##jutant
##jylland
##jø
##jøen
##jør
##jørn
##k
##ka
##kab
##kal
##kall
##kalla
##kam
##kammer
##kamp
##kampen
##kan
##kanalen
##kandid
##kandidat
##kann
##kanna
##kans
##kant
##kanten
##kap
##kapp
##kar
##kare
##karen
##karl
##karna
##karriar
##karriere
##kas
##kast
##kastning
##kat
##ke
##ked
##kede
##kee
##keh
##kehus
##kek
##kel
##keland
##keley
##kelige
##kelse
##kelsen
##kelser
##kem
##ken
##kende
##kendelse
##kene
##kens
##ker
##kere
##keren
##kerna
##kerne
##kers
##kert
##kes
##kest
##kester
##ket
##key
##kh
##ki
##kilometer
##kin
##kina
##king
##kins
##kinson
##kir
##kirchen
##kirke
##kirken
##kj
##kje
##kjem
##kjemp
##kjempet
##kjen
##kjent
##kjer
##kjø
##kjøring
##kk
##kka
##kke
##kkede
##kkel
##kkelig
##kken
##kkende
##kkene
##kker
##kkes
##kket
##kkje
##kl
##kla
##klad
##klam
##klar
##klare
##klart
##klass
##klasse
##klassen
##klasser
##kle
##kler
##klimat
##klin
##klipp
##klock
##klok
##klokrypare
##klost
##kloster
##klub
##klubb
##klubben
##klubber
##klund
##klus
##klæ
##kn
##kna
##kning
##kningen
##kninger
##knipp
##knott
##ko
##kob
##kod
##kogel
##kok
##kol
##kolon
##kom
##komite
##komiteen
##komm
##komma
##kommand
##kommande
##kommanderende
##kommando
##kommen
##kommende
##kommer
##kommere
##kommet
##kommit
##kommun
##kommune
##kommunen
##kommuner
##komp
##komst
##komsten
##komster
##kon
##konfer
##kong
##kongen
##konkur
##konkurranse
##konkurransen
##konom
##konomi
##kons
##konst
##konstru
##konsul
##kont
##kontin
##kontor
##kontoret
##kontrakt
##kontroll
##kop
##kopf
##koping
##kopings
##kopp
##kor
##kore
##korea
##koreansk
##korn
##korp
##korporer
##korps
##kors
##korset
##kort
##kos
##kost
##kot
##kov
##kow
##kra
##kraft
##kraften
##kraftverk
##krat
##krateret
##kre
##kred
##kreds
##kreis
##kret
##krets
##kretsen
##kretser
##krig
##krigen
##kriget
##krigstiden
##kring
##krit
##kritiker
##kro
##kron
##kropp
##kroppen
##krypare
##ks
##ksam
##ksamen
##ksem
##ksis
##ksjon
##ksjonen
##ksjoner
##ksom
##ksomhed
##ksomhet
##kst
##kt
##kta
##ktar
##kte
##kten
##ktene
##kter
##ktes
##ktet
##ktig
##ktige
##ktion
##ktionen
##ktioner
##ktiv
##ktive
##ktivt
##kton
##ktor
##ktoren
##ktorer
##ktorn
##ktt
##ktør
##ku
##kul
##kultur
##kulturen
##kun
##kunn
##kunst
##kur
##kurs
##kust
##kusten
##kv
##kval
##kvart
##kvarter
##kvens
##kvist
##ky
##kyrk
##kyrka
##kyrkan
##kyrkje
##kyst
##kysten
##kæmp
##køb
##købing
##l
##la
##lac
##lach
##lack
##lackor
##lad
##lade
##lades
##lads
##ladsen
##ladser
##lag
##laga
##lagd
##lagda
##lagde
##lage
##lagen
##lager
##laget
##lagg
##lagga
##laggning
##laggningar
##laggningen
##lagt
##lagte
##lah
##lain
##lak
##lakare
##lake
##lakt
##laktet
##lam
##lamn
##lan
##land
##landa
##lande
##lander
##landet
##landor
##lands
##landshold
##landsk
##landska
##landskap
##landske
##landsklimat
##landslag
##landslaget
##landsoarna
##landt
##lane
##lang
##lange
##lans
##lanssteklar
##lant
##lanten
##lanter
##lapp
##lar
##larare
##lare
##laren
##larna
##las
##lass
##lasse
##lassen
##lasser
##lassert
##last
##lasten
##lat
##laten
##lats
##latsen
##latser
##latt
##latta
##lau
##laug
##laus
##lav
##lava
##lax
##lay
##ld
##lden
##le
##lea
##leart
##leb
##leby
##lect
##led
##ledare
##lede
##leden
##leder
##ledes
##ledning
##lef
##leg
##legaste
##lege
##legg
##legge
##legger
##legget
##legging
##leh
##lei
##leiar
##leik
##leiken
##lein
##leir
##leis
##lej
##lejon
##lek
##leken
##lekene
##leker
##leks
##lekt
##lem
##leman
##lemann
##lemen
##lement
##lementer
##lemer
##len
##lenburg
##lend
##lende
##lene
##lens
##ler
##lera
##lere
##leri
##lerne
##lers
##lert
##lerup
##les
##less
##lest
##let
##leton
##lets
##lett
##lev
##leva
##levande
##leve
##leveland
##levende
##lever
##lex
##ley
##leys
##li
##lia
##liber
##lic
##lica
##licer
##lich
##liche
##lid
##lidae
##lie
##lieb
##lien
##lier
##lies
##life
##lig
##liga
##ligaen
##ligan
##ligare
##ligaste
##lige
##ligen
##ligere
##ligevel
##ligg
##liggande
##liggende
##lighed
##ligheder
##lighet
##ligheten
##ligheter
##light
##lignende
##ligste
##ligt
##ligvis
##lik
##lika
##like
##liknande
##likt
##lim
##lima
##limat
##limeter
##lin
##lind
##line
##lines
##ling
##linga
##lingar
##lingarna
##linge
##lingen
##linger
##lings
##lington
##linje
##linjen
##linjer
##lio
##liote
##lip
##lipp
##lips
##lis
##lisk
##list
##lista
##listan
##liste
##listen
##listene
##lister
##lit
##lits
##litt
##litter
##litteratur
##litz
##lius
##liv
##livet
##lj
##ljung
##ll
##lo
##lob
##loc
##lock
##lod
##loder
##loe
##loea
##lof
##log
##logs
##lok
##lokal
##lom
##lon
##long
##loo
##lop
##lopare
##lopp
##loppet
##loppor
##lor
##lora
##los
##losa
##loshet
##losis
##loss
##lossa
##lost
##lot
##lott
##lov
##loven
##low
##ls
##lu
##lub
##lubb
##lubben
##lude
##lum
##lund
##lunda
##lunde
##lus
##lussteklar
##lut
##ly
##lyck
##lyd
##lyn
##lys
##lysning
##lysninger
##lyst
##lyste
##læ
##læg
##lægge
##lægning
##lær
##lærer
##lø
##løb
##løbet
##løjtnant
##løp
##løper
##løpet
##løs
##løse
##løsning
##løsningen
##løst
##løste
##løy
##løytnant
##m
##ma
##mad
##made
##mae
##mag
##magasinet
##mah
##main
##major
##mak
##makt
##maktene
##makter
##maktige
##mal
##malar
##maler
##maleri
##malet
##malm
##malningar
##man
##mand
##mande
##manden
##mane
##mang
##mani
##manland
##manlands
##mann
##manna
##mannen
##mannia
##manns
##mans
##mansk
##mant
##manuel
##mar
##marck
##mare
##maren
##mark
##marka
##marke
##marken
##marker
##market
##marksam
##marna
##marskalk
##mart
##mas
##mask
##maskar
##maskart
##maskin
##maskiner
##mass
##massigt
##mast
##mastare
##mastaren
##maste
##mat
##match
##material
##matidae
##matning
##matt
##me
##mea
##meb
##med
##medal
##medalje
##medaljen
##medaljer
##mede
##medel
##medes
##medlem
##meh
##meister
##mekan
##mel
##meld
##melia
##melig
##melse
##melsen
##melser
##men
##mende
##mene
##menn
##menne
##mennene
##mens
##ment
##menter
##mentet
##mer
##mera
##mere
##meria
##merke
##mers
##mes
##mess
##messig
##messige
##mest
##mester
##mesterskapet
##met
##meter
##mets
##mex
##mi
##mia
##mid
##midae
##middagen
##middel
##mig
##mil
##miljø
##miljøet
##min
##minal
##mine
##ming
##mingham
##minist
##minister
##minster
##minton
##mir
##miral
##mis
##mit
##mitt
##ml
##mm
##mo
##mod
##modell
##modellen
##modeller
##moen
##moj
##mok
##mol
##mon
##mond
##mons
##mont
##mor
##mord
##more
##mos
##moss
##mossart
##mossor
##mot
##motor
##motorer
##mour
##mouth
##mov
##moz
##mp
##ms
##mu
##mud
##mun
##mund
##munt
##mur
##muren
##murer
##mus
##muse
##museet
##museum
##musik
##musiker
##musikk
##musikken
##my
##myggor
##myn
##myr
##mæle
##mænd
##mændene
##mær
##mæss
##mæssige
##mæssigt
##møl
##mølle
##møre
##n
##na
##nabb
##nac
##naceae
##nad
##nadde
##nade
##naden
##nadene
##nader
##naderna
##nades
##nads
##nah
##nal
##nam
##namn
##namnda
##namnet
##namns
##nan
##nande
##nar
##nare
##naren
##narna
##nas
##nast
##nastin
##nat
##nation
##nats
##natt
##nattslandor
##nav
##navn
##navne
##navnet
##nd
##nde
##ne
##nea
##ned
##nede
##nek
##nel
##nelig
##nell
##nelse
##nelsen
##nem
##nen
##nende
##nene
##nenes
##nens
##nep
##ner
##nere
##neren
##neri
##nerne
##ners
##nerus
##nes
##neset
##ness
##net
##neth
##nets
##nett
##neum
##neumon
##nev
##nevnte
##ney
##neys
##ng
##ni
##nia
##nica
##nick
##nie
##nig
##nik
##nin
##ning
##ninga
##ningar
##ningarna
##ninge
##ningen
##ningene
##ningens
##ninger
##ningerne
##nings
##ningsm
##ningsom
##ningsomrade
##ningsomraden
##ningsp
##ningss
##ningsvis
##nis
##niska
##nit
##nitz
##nius
##niva
##no
##nok
##nom
##non
##nor
##nord
##norr
##norsk
##nos
##not
##np
##ns
##nsen
##nsp
##nspinnare
##nst
##nsyn
##nt
##nu
##num
##nummer
##nus
##ny
##nytter
##næ
##næs
##nævnte
##o
##oa
##oar
##oarna
##oas
##ob
##oba
##obal
##obar
##obas
##obates
##obe
##obel
##ober
##oberg
##obergs
##obi
##obia
##obil
##obium
##obius
##oble
##obo
##obry
##observ
##obus
##oc
##oca
##ocal
##ocar
##ocarp
##ocarpa
##ocarpus
##ocaust
##occus
##oce
##ocen
##ocent
##ocentrus
##ocephala
##ocephalus
##ocer
##ocera
##ocerus
##och
##ocha
##ochaeta
##oche
##ochilus
##ocial
##ock
##ocke
##ocken
##ocker
##ockey
##ockeyt
##oclad
##ocladius
##ocnem
##oco
##ococcus
##ocoris
##ocus
##ocy
##od
##oda
##odactylus
##odar
##odde
##odden
##ode
##odel
##odell
##oden
##odendron
##oder
##oderma
##odes
##odesmus
##odet
##odi
##odia
##odidae
##odip
##odon
##odont
##odor
##odrom
##ods
##odus
##ody
##odz
##oe
##oeira
##oen
##oende
##oensis
##oer
##oeurope
##of
##ofag
##ofer
##off
##offer
##offic
##officer
##offiser
##ofon
##oft
##ofte
##ofys
##og
##oga
##ogae
##ogaster
##oge
##ogel
##ogen
##ogenhet
##oger
##ogg
##ogh
##ogi
##ogle
##ogloss
##oglossum
##ogly
##ogn
##ogna
##ognathus
##ogne
##ogner
##ognos
##ogo
##ogon
##ogona
##ogonia
##ogor
##ogra
##ograd
##ograf
##ografi
##ografisk
##ografiska
##ografiske
##ogram
##ogramma
##ograph
##ogryl
##ogs
##ogt
##ogy
##oh
##ohe
##ohn
##ohus
##oi
##oid
##oide
##oidea
##oides
##oil
##ois
##oj
##ojtnant
##ok
##oka
##okal
##okan
##okar
##oke
##oken
##oker
##oki
##okk
##okken
##okker
##okko
##oko
##okon
##okrat
##oks
##okse
##oksid
##okt
##okte
##oktor
##oku
##okument
##ol
##ola
##olab
##olade
##olag
##olaget
##olan
##oland
##olar
##olas
##olata
##olax
##old
##oldater
##olds
##ole
##olen
##olep
##olepis
##oler
##oles
##olet
##olf
##oli
##olia
##olid
##olig
##olin
##olis
##olit
##olitisk
##olja
##olje
##olk
##oll
##olla
##ollar
##olle
##olleh
##ollen
##oller
##ollis
##olo
##olog
##ologen
##ologer
##ologi
##ologie
##ologien
##ologier
##ologin
##ologisk
##ologiska
##ologiske
##ologiskt
##ology
##oloma
##olon
##olonth
##oloph
##olophia
##olp
##olph
##ols
##olt
##olus
##olusjon
##olusjonen
##olut
##olution
##olutionen
##oly
##olycka
##om
##oma
##omac
##omal
##oman
##omar
##omast
##omat
##omataceae
##omatidae
##omb
##ombe
##ome
##omen
##oment
##omer
##omet
##ometer
##omi
##omia
##omidae
##oming
##omm
##omma
##ommar
##omme
##ommelse
##ommen
##ommer
##ommern
##ommet
##ommun
##ommunik
##omo
##omon
##omorpha
##omorphus
##omot
##omp
##ompan
##omphus
##omrada
##omrade
##omraden
##omradene
##omrader
##omradet
##oms
##omum
##omus
##omy
##omyc
##omyces
##omycetes
##omyia
##omys
##omyza
##on
##ona
##onas
##ond
##onda
##onde
##onder
##ondi
##ondo
##ondon
##one
##onen
##onent
##onenter
##oner
##onering
##ones
##oneura
##oney
##ong
##onga
##ongen
##onger
##ongo
##oni
##onia
##onica
##onidae
##onien
##oniidae
##oning
##onis
##oniscus
##onium
##onius
##onn
##onna
##onne
##ono
##onom
##onoma
##onomus
##onotus
##ons
##onserv
##onsin
##onso
##onst
##ont
##onta
##onte
##onto
##onus
##ony
##onym
##onymus
##onyx
##oo
##ood
##ool
##oon
##op
##opa
##opal
##opan
##opar
##oparmelia
##ope
##oped
##opel
##open
##oper
##opera
##operan
##operla
##opet
##opez
##oph
##ophaga
##ophagus
##ophil
##ophila
##ophilus
##ophis
##ophor
##ophora
##ophorus
##opht
##ophthal
##ophus
##ophy
##ophylla
##ophyllaceae
##ophyllum
##ophyt
##opia
##opidae
##opio
##opis
##opl
##opla
##oplan
##ople
##oplus
##opo
##opod
##opoda
##opogon
##opol
##opolis
##opon
##opot
##opota
##opp
##oppen
##opper
##oppet
##oppia
##oppor
##opptak
##opro
##oprocent
##ops
##opsis
##opsyche
##opsylla
##opt
##opter
##optera
##opteridaceae
##opteris
##opterus
##opteryx
##optil
##opul
##opung
##opus
##or
##ora
##oraceae
##oral
##oras
##orca
##ord
##orda
##ordan
##orde
##orden
##ordenen
##order
##ordes
##ordet
##ordforande
##ordfører
##ordin
##ordning
##ordningen
##ords
##ore
##orea
##oreala
##orella
##orelsen
##oren
##oreningar
##orer
##orerna
##ores
##oret
##orf
##org
##organ
##organer
##organis
##organisasjon
##organisasjonen
##organisation
##organisationen
##organisationer
##orge
##orget
##orgia
##orgs
##orh
##orhynchus
##ori
##oria
##orid
##oridae
##orien
##orienter
##orier
##oriet
##orin
##oris
##orium
##ork
##orkester
##orlunda
##orm
##orn
##orna
##ornas
##orne
##ornis
##orno
##oro
##orp
##orph
##orpha
##orphus
##orps
##orr
##orra
##ors
##ort
##orte
##orten
##orter
##orth
##orts
##ortsvaxtart
##ortsvaxter
##orum
##orus
##ory
##os
##osa
##osaari
##osaur
##osaurus
##osc
##oscel
##osch
##ose
##osen
##oser
##oset
##osex
##osh
##oshi
##osi
##osia
##osial
##osis
##osition
##osjon
##osk
##oslav
##oslov
##oslovak
##osm
##osma
##oso
##osof
##osom
##osoma
##osp
##ospermum
##osphaer
##ospilus
##ospor
##ospora
##oss
##ossa
##ost
##oste
##osten
##oster
##ostern
##osterreich
##ostigma
##ostom
##ostoma
##ostomus
##ostylis
##osum
##osus
##ot
##ota
##otal
##otan
##ote
##oten
##oter
##otes
##otet
##otettix
##oth
##othe
##othea
##other
##othisa
##otho
##othorax
##othrix
##othy
##oti
##otis
##otisk
##otiska
##otiske
##oto
##otoma
##oton
##otor
##otrema
##otria
##otrich
##otrichia
##otrop
##ots
##ott
##otta
##otte
##otten
##otter
##otti
##otum
##otus
##otyp
##otyper
##ou
##oua
##ouais
##ouan
##ouard
##oub
##ouch
##oud
##ouf
##ough
##ouk
##oul
##oum
##oun
##oupe
##our
##oura
##ouri
##ourn
##ourt
##ous
##out
##outh
##oux
##ouz
##ov
##ova
##ovac
##ovan
##ove
##oven
##over
##overfl
##overk
##ovi
##ovia
##ovic
##ovica
##ovice
##ovich
##ovina
##ovis
##ovit
##ovitj
##ovo
##ovre
##ovs
##ovsk
##ovskij
##ow
##owa
##oway
##owe
##ower
##own
##owr
##ows
##owska
##owski
##ox
##oxa
##oy
##oya
##oz
##ozo
##p
##pa
##pad
##padd
##pal
##pan
##pap
##par
##parasit
##paret
##park
##parken
##part
##partem
##partement
##partementet
##parten
##parti
##partiet
##partiets
##pas
##pass
##passet
##pat
##pe
##pec
##ped
##pedagog
##peg
##pel
##pen
##pens
##per
##peratur
##peraturen
##pere
##perio
##period
##periode
##perioden
##perioder
##perm
##perma
##permum
##pers
##person
##personen
##personer
##pert
##pes
##pet
##ph
##pha
##phia
##phy
##pi
##pid
##pil
##pin
##ping
##pip
##pis
##piskt
##pl
##pla
##placer
##plads
##pladsen
##plan
##planen
##planet
##plant
##planter
##plass
##plassen
##plasser
##plat
##plata
##plate
##plater
##plats
##platsen
##platser
##platt
##ple
##plet
##plikt
##pm
##po
##pol
##polen
##polit
##politik
##pool
##pop
##por
##port
##porten
##pos
##post
##posten
##pot
##pp
##ppa
##ppar
##ppe
##ppel
##ppen
##pper
##ppet
##ppo
##pr
##pre
##prefekt
##prem
##press
##prest
##prin
##pris
##prise
##prisen
##priset
##pro
##problem
##prod
##producent
##produksjon
##produkt
##produkter
##produktion
##produs
##prof
##program
##programmet
##projekt
##pros
##prov
##provinsen
##præ
##ps
##pson
##pt
##pta
##pter
##ption
##pton
##ptus
##pu
##pun
##punkt
##punkten
##punkter
##punktet
##pur
##pus
##put
##py
##q
##qa
##qah
##qi
##qing
##qq
##qu
##qua
##que
##quel
##quen
##quer
##ques
##quet
##quez
##qui
##quia
##quil
##quin
##quis
##quist
##qvist
##r
##ra
##rab
##rac
##rach
##racing
##rack
##rackligt
##rad
##rada
##radande
##radde
##rade
##raden
##rader
##raderne
##rades
##radet
##radets
##radio
##rador
##rae
##raea
##raf
##raff
##rafik
##rafikk
##raft
##raftverk
##rag
##rage
##ragende
##raget
##ragt
##ragte
##rah
##rain
##rak
##rake
##rakech
##raket
##rakt
##rakte
##raktion
##ral
##ralen
##ralt
##ram
##rama
##ran
##rana
##rand
##rande
##rane
##rang
##rankar
##rans
##ranse
##ransen
##ranser
##ransje
##ransport
##rant
##ranter
##rantz
##rap
##rapp
##rar
##rare
##rarna
##rary
##ras
##rasjon
##rasket
##rass
##rasset
##rast
##raste
##rat
##rata
##raten
##rater
##ration
##rationen
##rationer
##rations
##rats
##ratt
##rattades
##ratten
##ratter
##rattigheter
##ratts
##ratus
##rav
##ravet
##rax
##ray
##raz
##re
##rea
##reakt
##real
##reb
##rebet
##recht
##red
##redakt
##redaktor
##redaktør
##rede
##reder
##redes
##redet
##rediens
##redik
##redning
##reds
##ree
##reen
##reform
##reformen
##reg
##regel
##regemente
##regementet
##reger
##regering
##regeringen
##region
##regionen
##regiss
##regist
##register
##regjer
##regler
##reh
##rei
##reich
##reis
##reise
##rej
##rek
##rekk
##rekke
##rekning
##rekord
##rekorden
##rekt
##rel
##relater
##rell
##rella
##relse
##rem
##rema
##remedlem
##remiar
##ren
##rena
##rence
##rende
##render
##rene
##rener
##renes
##reng
##renn
##rennet
##rens
##rent
##rep
##repet
##repp
##repren
##representant
##reps
##republi
##republiken
##rer
##rera
##rerade
##rere
##rering
##rero
##rert
##rerte
##res
##resa
##resent
##resentant
##reser
##resident
##resjon
##resor
##resp
##ress
##ressa
##resse
##ressen
##resser
##ression
##rest
##rester
##result
##resultat
##resultatet
##ret
##reta
##rete
##reter
##reterare
##retning
##retninger
##rets
##retsen
##rett
##retta
##rette
##rettede
##retten
##retter
##rettet
##retær
##rev
##revet
##reville
##revis
##revne
##revolusjonen
##revolutionen
##rew
##rey
##rh
##rhein
##ri
##ria
##rian
##riar
##riaren
##rib
##ric
##rica
##rice
##rich
##rick
##ricus
##rid
##ridae
##ridge
##rie
##rien
##rier
##riere
##rieren
##ries
##riet
##rif
##rifol
##rift
##riften
##rifter
##rig
##riga
##rige
##rigen
##riget
##right
##rigt
##rik
##rika
##rikanske
##rike
##riker
##rikes
##rikespolit
##riket
##rikk
##riks
##rikt
##ril
##rill
##riller
##rilus
##rim
##rimer
##rimin
##rin
##rina
##rine
##ring
##ringar
##ringe
##ringen
##ringer
##rings
##rington
##rinn
##rinningsom
##rins
##rinus
##rio
##rion
##rip
##ripande
##ripes
##rips
##ript
##ris
##rise
##risen
##riser
##risk
##riska
##riske
##rist
##rit
##ritann
##ritar
##riter
##rito
##ritt
##rium
##rius
##riv
##rivil
##rix
##ro
##roa
##rob
##roblem
##roblemer
##robot
##roc
##rocer
##roch
##rock
##rod
##roder
##roducer
##roe
##roen
##rof
##rofys
##rog
##rogen
##rogram
##rogrammet
##roit
##rok
##rol
##role
##roll
##rolle
##rollen
##rollene
##roller
##rollslandor
##rom
##roma
##roman
##romant
##romer
##romis
##rommet
##romus
##romy
##romyza
##ron
##rona
##rond
##rone
##ronen
##roner
##rong
##ronia
##ronic
##ronom
##rons
##rop
##roph
##ropis
##ropp
##roppen
##rops
##ropus
##ror
##rorelse
##rorelsen
##roret
##rorna
##ros
##rosa
##rose
##rosia
##roskop
##rosophila
##ross
##rost
##rostis
##rostning
##rostningen
##rot
##roth
##rotis
##rotok
##rots
##rott
##rotter
##rou
##rough
##round
##rov
##rover
##rovinsen
##row
##rox
##roy
##rs
##rt
##ru
##ruc
##rud
##ruddet
##rug
##ruk
##rukket
##rukne
##rukt
##ruktbar
##ruktion
##ruktur
##rul
##rum
##rument
##rumentet
##rummet
##run
##rund
##runde
##runden
##rundet
##rup
##rupp
##ruppa
##ruppe
##ruppen
##rupper
##rus
##rust
##rustning
##rut
##ruta
##rute
##ruten
##ruter
##ruz
##ry
##ryck
##ryd
##rygg
##ryk
##rykk
##rykket
##rykning
##ryl
##rym
##ryn
##ryp
##rypare
##rys
##rysa
##ryss
##ryt
##ryter
##rytter
##ræ
##række
##ræn
##ræner
##ræns
##ræt
##ræts
##rætter
##rø
##rød
##røm
##rør
##røret
##s
##sa
##saari
##sac
##sace
##sachsen
##sack
##sae
##saf
##saft
##sag
##saga
##sagt
##sak
##sakadem
##sakademien
##saker
##sakring
##saks
##sakt
##saktiv
##sal
##sam
##samf
##samhet
##samisk
##samling
##samlingen
##samma
##sammen
##samt
##san
##sand
##sang
##sanger
##sar
##sarbeid
##sarbet
##saret
##sart
##sas
##sat
##sats
##satsen
##satser
##satt
##satta
##satte
##sattes
##sattning
##sattningar
##sattningen
##sau
##sav
##say
##sb
##sbach
##sbacken
##sbana
##sbanan
##sband
##sbane
##sbanen
##sbanken
##sbas
##sbe
##sbeg
##sberg
##sbergs
##sbeslut
##sbet
##sbeveg
##sbild
##sbl
##sblad
##sbladloss
##sblom
##sblomm
##sbo
##sbok
##sbolag
##sbolaget
##sborg
##sborgs
##sbourg
##sbr
##sbro
##sbron
##sbrott
##sbru
##sbruk
##sburg
##sbury
##sby
##sbyen
##sbyg
##sbygd
##sbygg
##sbyggnad
##sbygning
##sbygningen
##sc
##sch
##schaft
##sche
##schef
##schen
##scher
##schi
##schild
##scorer
##scupen
##sd
##sdag
##sdal
##sdalen
##sdaler
##sdam
##sdatter
##sdistrikt
##sdistriktet
##sdjur
##sdorf
##sdotter
##sdyr
##se
##sea
##seart
##see
##seende
##seg
##sej
##sek
##sekreterare
##sekretær
##seksamen
##sel
##sele
##selen
##seln
##sels
##selskab
##selskap
##selskapet
##selva
[...]
